tree
version=v3
num_class=1
num_tree_per_iteration=1
label_index=0
max_feature_idx=31
objective=regression
feature_names=feature_2 feature_4 feature_5 feature_6 feature_12 feature_13 feature_14 feature_15 feature_16 feature_17 feature_18 feature_19 feature_20 feature_23 feature_24 feature_25 feature_26 feature_29 feature_31 feature_32 feature_34 feature_35 feature_36 feature_37 feature_38 feature_39 feature_40 feature_3_diff_feature_23 feature_23_ratio_feature_3 feature_3_ratio_feature_23 feature_24_ratio_feature_4 feature_4_ratio_feature_24
feature_infos=[-16.752600000000001:16.246099999999998] [-20.319500000000001:-4.4782599999999997] [-30.8093:57.964799999999997] [5.6674000000000002e-06:0.0023298199999999998] [-0.027832200000000001:0.0078196399999999992] [-0.020958899999999999:0.028236500000000001] [-0.00035657799999999997:0.0069399600000000002] [1.8339399999999999e-05:1.9515199999999999] [-0.014945999999999999:0.075138999999999997] [-0.0085839799999999997:0.045257800000000001] [-0.0045334399999999997:0.0084634500000000008] [-1.60745:1.84223] [5.1740399999999999e-11:2.4526500000000002] [-3.12656:3.13436] [-42.0899:-5.0951899999999997] [-7.7456100000000001:2.8789500000000001] [0.14570900000000001:337.255] [-4.7191000000000001:12.0253] [4.4848100000000002e-05:4.6588900000000004] [-68.897000000000006:335.04500000000002] [-0.00521471:0.153891] [0.0017619599999999999:8246.0400000000009] [-8.2586999999999993:61.6145] [-92.653999999999996:8.7547599999999992] [-0.00054633199999999996:0.0268715] [-10.6465:1516.5799999999999] [4.26018e-07:279.03699999999998] [-6.1508099999999999:6.2038500000000001] [-6.2038500000000001:6.1508099999999999] [-6.1508099999999999:6.2038500000000001] [-37.126300000000001:14.083390000000001] [-14.083390000000001:37.126300000000001]
tree_sizes=2794 2829 2864 2826 2835 2853 2868 2872 2874 2873 2847 2873 2889 2868 2884 2892 2871 2871 2866 2892 2899 2882 2885 2867 2907 2894 2886 2866 2906 2900 2893 2877 2894 2900 2899 2912 2875 2887 2910 2873 2885 2900 2891 2903 2915 2902 2919 2922 2931 2934 2927 2911 2916 2900 2927 2901 2909 2941 2912 2946 2910 2933 2937 2933 2914 2922 2963 2979 2977 2978 2962 2948 2986 2958 2964 2958 2999 2993 2987 2989 2979 2965 2946 2969 3010 2978 2997 2933 2982 3007 2968 2939 2968 3000 2938 2985 3024 2985 3007 2955 3000 2982 2982 2990 3000 3021 3006 2987 3010 3015 3004 2999 2980 2989 2989 2983 2979 3004 2995 2977 2955 3014 3000 2989 3004 2993 3009 2993 3007 2989 2991 2994 2948 2989 3017 3000 2982 3014 2974 2997 2986 2992 3007 2972 3005 2969 2956 2991 2971 2965 2996 2978 2973 2970 2993 3012 3024 2983 3002 3000 2971 3005 2987 3009 2982 2987 3010 3027 2986 3003 2972 3029 2998 3014 3011 2994 2960 2990 2987 3029 2982 3021 3008 2992 3046 3005 2982 3014

Tree=0
num_leaves=31
num_cat=0
split_feature=27 27 30 30 27 21 21 30 30 1 6 2 28 18 30 30 27 30 23 9 27 21 28 22 21 30 6 0 3 26
split_gain=20.1358 247.265 114.452 123.272 33.7934 12.6368 6.85436 6.60278 6.04277 5.60797 5.31663 4.21948 3.76425 3.47563 2.64017 2.71459 1.84027 1.49113 1.06595 1.25488 1.00946 2.63971 0.835806 4.23985 0.695223 0.577255 0.253378 0.251144 0.351979 0.249065
threshold=-0.20585514999999996 0.063474999999999962 -1.1009999999999993 0.7783099999999995 -0.041862500000000073 0.037925000000000007 0.27838100000000005 -0.68019999999999958 2.3386650000000002 -13.404099999999998 5.7216700000000004e-05 0.53187750000000011 -0.10379000000000015 0.00057214450000000019 -2.8775200000000001 1.0582749999999999 -0.083779999999999841 -0.58941499999999969 0.038880400000000002 8.4505550000000011e-08 0.018490999999999928 0.012253750000000002 -0.25082149999999998 -0.077302599999999985 2.4168200000000004 1.1742300000000008 2.5087400000000003e-05 8.494905000000001 1.5982850000000006e-05 0.71806300000000012
decision_type=2 2 2 2 2 2 2 2 2 2 2 2 2 2 2 2 2 2 2 2 2 2 2 2 2 2 2 2 2 2
left_child=-1 2 9 4 5 -4 25 -6 -8 -2 16 20 22 -14 -15 17 -7 -16 -11 -20 27 -22 29 -24 -25 -5 -23 -9 -29 -3
right_child=1 12 3 6 7 10 8 11 -10 18 -12 -13 13 14 15 -17 -18 -19 19 -21 21 26 23 24 -26 -27 -28 28 -30 -31
leaf_value=0.031736942096000871 0.057784867096675283 0.031718518023467188 0.033392825374836267 0.039697910238040333 0.052531243810413131 0.060864577298966896 0.066072910729312997 0.081455192569228368 0.033620987047925745 0.031810017714435278 0.041697910275293237 0.056697910554690013 0.032279305448695263 0.031697910089028725 0.049197910414991622 0.036697910182160981 0.078840768109990023 0.068061547129990602 0.031697910089028725 0.049197910414991622 0.059197910601256142 0.081697911020351302 0.049646628372067597 0.032025421012159661 0.039762426368274303 0.031697910089028725 0.075447910903935989 0.081697911020351302 0.074753466446556505 0.03487251332276349
leaf_weight=10248 23 9705 59 25 24 24 32 412 26 446 20 20 86 22 20 20 35 22 21 20 20 50 39 458 31 230 24 37 36 63
leaf_count=10248 23 9705 59 25 24 24 32 412 26 446 20 20 86 22 20 20 35 22 21 20 20 50 39 458 31 230 24 37 36 63
internal_value=0.0333662 0.0347519 0.0531626 0.0624242 0.0732879 0.0509008 0.036011 0.0782469 0.0515255 0.0336587 0.0639764 0.0792772 0.0319654 0.039345 0.0465789 0.0518592 0.0715284 0.0590789 0.0325193 0.0402345 0.0800572 0.0753149 0.0318436 0.0337812 0.0325159 0.0324822 0.0796709 0.0809763 0.0782733 0.0317389
internal_weight=0 12050 1584 1074 761 138 313 623 58 510 79 599 10466 170 84 62 59 42 487 41 579 94 10296 528 489 255 74 485 73 9768
internal_count=22298 12050 1584 1074 761 138 313 623 58 510 79 599 10466 170 84 62 59 42 487 41 579 94 10296 528 489 255 74 485 73 9768
shrinkage=1


Tree=1
num_leaves=31
num_cat=0
split_feature=27 27 30 30 27 21 14 30 30 1 6 11 28 26 30 30 27 2 23 1 27 21 28 22 21 22 6 0 3 26
split_gain=18.1726 223.156 103.293 111.253 30.4985 11.4047 7.44517 5.95901 5.58818 5.0612 4.79826 3.83009 3.39723 3.13916 2.53329 2.07518 1.66085 1.6 0.962017 1.07205 0.9119 2.38234 0.754315 3.83419 0.611753 0.33025 0.228674 0.227108 0.317661 0.224781
threshold=-0.20585514999999996 0.063474999999999962 -1.1009999999999993 0.7783099999999995 -0.041862500000000073 0.037925000000000007 -10.709549999999998 -0.68019999999999958 2.3386650000000002 -13.404099999999998 5.7216700000000004e-05 5.0375850000000003e-05 -0.10379000000000015 3.1447100000000013e-05 -2.8775200000000001 0.82933000000000023 -0.083779999999999841 -0.084079799999999996 0.038880400000000002 -7.470864999999999 0.018490999999999928 0.012253750000000002 -0.25082149999999998 -0.11664549999999999 2.4168200000000004 0.032213600000000002 2.5087400000000003e-05 8.494905000000001 1.5982850000000006e-05 0.71806300000000012
decision_type=2 2 2 2 2 2 2 2 2 2 2 2 2 2 2 2 2 2 2 2 2 2 2 2 2 2 2 2 2 2
left_child=-1 2 9 4 5 -4 8 -6 -5 -2 16 20 22 -14 -15 17 -7 -16 -11 -20 27 -22 29 -24 -25 -8 -23 -9 -29 -3
right_child=1 12 3 6 7 10 25 11 -10 18 -12 -13 13 14 15 -17 -18 -19 19 -21 21 26 23 24 -26 -27 -28 28 -30 -31
leaf_value=-0.0015478151883118606 0.023197713486202386 -0.0015653179946563283 2.5274004724066138e-05 0.03382531385868788 0.018206771214803061 0.026123438046003384 -0.001455604648993661 0.045687527515138819 0.00064849603751843631 -0.0014783933378689227 0.0079151043295860295 0.022103211488574744 -0.0010351388693548914 -0.0015861594158670179 0.034568513929843905 0.0051586109967458812 0.043200817597763883 0.014568513743579387 0.014415104412251994 -0.0017598955333232879 0.02454010469838977 0.045915105938911439 0.016635315914583556 -0.0011788201987035334 0.006076394730517941 0.0050831678722585948 0.039977604197338229 0.045915105938911439 0.039317882392141561 0.0014309774522507004
leaf_weight=10248 23 9705 59 30 24 24 240 412 22 446 20 20 86 23 20 21 35 20 21 20 20 50 34 463 31 21 24 37 36 63
leaf_count=10248 23 9705 59 30 24 24 240 412 22 446 20 20 86 23 20 21 35 20 21 20 20 50 34 463 31 21 24 37 36 63
internal_value=0 0.00131635 0.0188065 0.027605 0.0379256 0.0166579 0.00251255 0.0426366 0.019789 0.00027785 0.0290797 0.0436154 -0.00133074 0.00567981 0.0125546 0.0178864 0.0362541 0.0245685 -0.000804608 0.00652486 0.0443585 0.0398513 -0.00144649 0.000394271 -0.000723533 -0.000929497 0.0439894 0.0452321 0.0426617 -0.00154599
internal_weight=0 12050 1584 1074 761 138 313 623 52 510 79 599 10466 170 84 61 59 40 487 41 579 94 10296 528 494 261 74 485 73 9768
internal_count=22298 12050 1584 1074 761 138 313 623 52 510 79 599 10466 170 84 61 59 40 487 41 579 94 10296 528 494 261 74 485 73 9768
shrinkage=0.05


Tree=2
num_leaves=31
num_cat=0
split_feature=30 30 27 27 2 1 2 14 30 27 27 27 16 27 12 30 14 27 27 27 11 17 21 27 1 25 30 17 30 7
split_gain=16.4014 77.6488 65.3938 240.676 7.49514 5.4198 4.83719 3.99644 5.46538 4.09271 10.2302 2.24287 2.18833 1.88111 1.59011 1.07228 2.05662 3.33721 9.92205 1.05592 1.89901 0.997401 0.862813 1.03092 0.780791 0.962439 0.448846 0.408417 0.384417 0.54457
threshold=-0.71700499999999978 0.27979999999999988 -0.12773199999999993 0.084315000000000154 0.66577950000000008 -17.279499999999995 -0.67427999999999988 -13.123899999999997 0.82933000000000023 -0.20585514999999996 0.55730000000000002 0.25136499999999989 0.98225800000000008 -0.041862500000000073 5.3561200000000012e-07 0.7783099999999995 -10.183199999999998 -0.062254999999999942 0.084315000000000154 0.030899999999999931 -1.8820749999999999e-06 -0.10682549999999998 1.3050850000000003 -0.48849150000000002 -14.694299999999997 -0.011275599999999998 -1.2451950000000001 -0.12226699999999999 1.2983700000000005 0.0049258850000000005
decision_type=2 2 2 2 2 2 2 2 2 2 2 2 2 2 2 2 2 2 2 2 2 2 2 2 2 2 2 2 2 2
left_child=5 2 27 4 6 -1 -4 8 9 -3 -11 12 -5 14 -8 16 17 -9 -19 -15 -21 -18 28 -24 25 -7 -27 -2 29 -10
right_child=1 7 3 11 -6 24 13 15 22 10 -12 -13 -14 19 -16 -17 21 18 -20 20 -22 -23 23 -25 -26 26 -28 -29 -30 -31
leaf_value=0.022439123907436929 0.0057514269277453428 -0.0015094563364982606 0.018070266703548638 -3.0190398860158342e-05 0.0094433433376252662 0.012027165648483095 0.02107967996969819 -0.0015246312483213843 0.0096917149566468751 0.039206837267718384 -0.0015076600015163422 -0.0013919615504419708 0.019163696916291009 0.042933795095554422 0.040356684071214309 -0.0013747601987164273 0.0090651982678816873 0.04166842780329965 -0.00032602998977288223 0.044538666432102525 0.023950163949103584 -0.00092388637694146368 -0.0015094563364982606 0.012740468376626572 -0.0013961402975169203 -0.00049259326420724402 0.007385589701256582 -0.0014722574368300559 -0.001345178721121688 -0.00034106368885228507
leaf_weight=24 20 27 23 33 20 21 20 64 21 36 27 859 27 490 23 6986 26 22 39 24 21 643 22 30 11450 130 21 904 207 38
leaf_count=24 20 27 23 33 20 21 20 64 21 36 27 859 27 490 23 6986 26 22 39 24 21 643 22 30 11450 130 21 904 207 38
internal_value=0 0.00141792 0.0091999 0.0155094 0.0395551 -0.00129689 0.0405572 -0.000923903 0.00389976 0.0147776 0.0217578 -0.000739142 0.00860706 0.041452 0.0313906 -0.00117687 0.000564295 0.00645131 0.0148195 0.0422606 0.0349307 -0.000535671 0.000821131 0.00671165 -0.00134591 0.00199785 0.000603048 -0.0013159 -0.0003304 0.00322993
internal_weight=0 10652 2464 1540 621 11646 601 8188 408 90 63 919 60 578 43 7780 794 125 61 535 45 669 318 52 11622 172 151 924 266 59
internal_count=22298 10652 2464 1540 621 11646 601 8188 408 90 63 919 60 578 43 7780 794 125 61 535 45 669 318 52 11622 172 151 924 266 59
shrinkage=0.05


Tree=3
num_leaves=31
num_cat=0
split_feature=27 27 31 31 27 18 14 2 31 6 31 28 26 1 31 31 2 14 23 27 21 28 22 21 21 23 0 3 21 26
split_gain=14.969 183.616 84.5529 88.5933 26.4696 10.6684 6.59121 5.45873 4.97469 4.41311 3.64319 2.8873 2.73109 2.70893 2.17611 1.73671 1.43644 1.22133 0.804765 0.704918 2.12401 0.6373 3.38631 0.536393 0.313075 0.259446 0.211713 0.286689 0.209133 0.194397
threshold=-0.20585514999999996 0.063474999999999962 1.2070349999999996 -0.77830999999999928 -0.041862500000000073 0.0004989040000000001 -10.709549999999998 0.61727300000000007 -2.3596650000000001 5.7216700000000004e-05 0.6801999999999998 -0.10379000000000015 3.1447100000000013e-05 -13.404099999999998 3.1614600000000013 -0.77830999999999928 -0.084079799999999996 -9.901234999999998 0.17497150000000003 0.018490999999999928 0.012253750000000002 -0.25082149999999998 -0.077302599999999985 2.4168200000000004 0.47176650000000003 0.00030245000000000006 8.494905000000001 1.5982850000000006e-05 0.058086900000000004 0.71806300000000012
decision_type=2 2 2 2 2 2 2 2 2 2 2 2 2 2 2 2 2 2 2 2 2 2 2 2 2 2 2 2 2 2
left_child=-1 2 3 6 5 25 8 10 -2 17 19 21 -13 -4 15 -14 -17 -7 -15 26 -21 29 -23 -24 -8 -5 -6 -28 -22 -3
right_child=1 11 13 4 7 9 24 -9 -10 -11 -12 12 14 18 -16 16 -18 -19 -20 20 28 22 23 -25 -26 -27 27 -29 -30 -31
leaf_value=-0.0014047768187729511 0.00062051471746103336 -0.0014225916498249982 0.018003195859491825 -0.0019727479745732979 0.041302866555443692 0.041499495159449257 -0.0013131455332813669 0.013921313665129923 0.031923283164699875 0.0070068040490150448 0.020963433628472 -0.0010067418845760268 0.0049669572994822551 -0.0012423891672610186 -0.001437044427122759 0.032198648452758792 0.013248435202986004 0.026988292825889999 0.0083443736090608265 0.02167712800204754 0.03659491485783032 0.01455757040052842 -0.0011828398870865461 0.0056131474313236051 0.0051970020215958354 0.0048265952896326784 0.041472658514976501 0.0352052988898423 0.042053555237486009 0.0013638503583414214
leaf_weight=10248 22 9705 20 47 413 29 241 22 30 20 26 86 21 454 23 20 20 29 23 20 28 39 458 31 20 20 37 36 47 63
leaf_count=10248 22 9705 20 47 413 29 241 22 30 20 26 86 21 454 23 20 20 29 23 20 28 39 458 31 20 20 37 36 47 63
internal_value=0 0.0011947 0.0170599 0.0248711 0.0339484 0.0146903 0.00242435 0.0383879 0.0186798 0.02726 0.0392747 -0.00120645 0.00525656 -2.42659e-05 0.011669 0.0166106 0.0227235 0.0342439 -0.000780134 0.0400941 0.0361549 -0.00131316 0.000378811 -0.00075201 -0.000814284 5.69067e-05 0.0408641 0.0383819 0.0400157 -0.00140462
internal_weight=0 12050 1584 1087 774 145 313 629 52 78 607 10466 170 497 84 61 40 58 477 581 95 10296 528 489 261 67 486 73 75 9768
internal_count=22298 12050 1584 1087 774 145 313 629 52 78 607 10466 170 497 84 61 40 58 477 581 95 10296 528 489 261 67 486 73 75 9768
shrinkage=0.05


Tree=4
num_leaves=31
num_cat=0
split_feature=27 27 30 30 27 18 14 30 30 6 28 26 1 30 30 7 1 27 21 23 28 22 21 0 22 6 1 27 26 1
split_gain=13.5095 165.714 76.309 79.9554 23.8888 9.62822 5.94857 4.8972 4.48966 3.98283 2.60578 2.46481 2.44481 2.03024 2.10889 1.35867 1.10428 1.05278 2.43868 0.726301 0.575163 3.06382 0.471828 0.434985 0.289394 0.287881 0.706446 0.239728 0.175444 0.523771
threshold=-0.20585514999999996 0.063474999999999962 -1.2070349999999992 0.7783099999999995 -0.041862500000000073 0.0004989040000000001 -10.709549999999998 -0.71700499999999978 2.3386650000000002 5.7216700000000004e-05 -0.10379000000000015 3.1447100000000013e-05 -13.404099999999998 -1.6975550000000001 0.82933000000000023 0.0052645550000000015 -9.2021999999999995 0.030899999999999931 0.066928450000000014 0.17497150000000003 -0.25082149999999998 -0.11664549999999999 2.4168200000000004 11.147100000000002 0.032213600000000002 3.0811150000000004e-05 -9.0837049999999984 -0.083779999999999841 0.71806300000000012 -11.947549999999998
decision_type=2 2 2 2 2 2 2 2 2 2 2 2 2 2 2 2 2 2 2 2 2 2 2 2 2 2 2 2 2 2
left_child=-1 2 12 4 5 27 8 -6 -5 16 20 -12 -2 -13 -15 17 -7 23 -19 -14 28 -22 -23 25 -8 -9 -27 -4 -3 -30
right_child=1 10 3 6 7 9 24 15 -10 -11 11 13 19 14 -16 -17 -18 18 -20 -21 21 22 -24 -25 -26 26 -28 -29 29 -31
leaf_value=-0.0013345379927824489 0.01710303585976362 -0.0013514620739926327 -0.0018969430588185788 0.030327119193971158 0.014317656843923034 0.039430851026855673 -0.0012660608029303451 0.039189068701674497 0.00058948893777348776 0.0066564637329429386 -0.00095640483615530092 0.00092162445127483338 -0.0011802696704962968 0.025110150012187662 0.0047186095178836868 0.024532420113682746 0.025632547278856412 0.017375788353383544 0.040411380816389016 0.007927155235539312 0.0148779412950663 -0.0010391914438593079 0.0053324900207019623 0.031526863761246207 0.0048549023235128046 0.038792615066523907 0.027792092431336641 0.004638921865262091 0.0079804766271263355 -0.0018135599792003633
leaf_weight=10248 20 9705 47 30 24 29 240 442 22 20 86 31 454 32 21 20 29 20 27 23 34 463 31 22 21 54 20 20 20 43
leaf_count=10248 20 9705 47 30 24 29 240 442 22 20 86 31 454 32 21 20 29 20 27 23 34 463 31 22 21 54 20 20 20 43
internal_value=0 0.00113497 0.0162069 0.0236276 0.032251 0.0139558 0.00230313 0.0364685 0.0177458 0.025897 -0.00114613 0.00499374 -2.30526e-05 0.0110855 0.0170305 0.0373472 0.0325317 0.0377853 0.030609 -0.000741128 -0.0012475 0.00035987 -0.000639349 0.0384123 -0.00077357 0.0387058 0.0358195 5.40614e-05 -0.00133439 0.00129566
internal_weight=0 12050 1584 1087 774 145 313 629 52 78 10466 170 497 84 53 605 58 585 47 477 10296 528 494 538 261 516 74 67 9768 63
internal_count=22298 12050 1584 1087 774 145 313 629 52 78 10466 170 497 84 53 605 58 585 47 477 10296 528 494 538 261 516 74 67 9768 63
shrinkage=0.05


Tree=5
num_leaves=31
num_cat=0
split_feature=28 29 30 30 28 2 21 14 11 30 28 26 1 30 30 30 21 28 23 28 22 21 29 7 20 17 10 26 1 12
split_gain=12.1923 149.557 68.8689 72.1598 21.6547 7.4668 5.9301 5.36858 4.54466 4.05192 2.35172 2.22449 2.20644 1.83229 1.90327 1.48426 5.44429 0.975348 0.655486 0.519085 2.7796 0.437498 0.355527 0.311533 0.278573 0.161741 0.260421 0.158338 0.472703 0.153953
threshold=0.20585515000000001 0.063474999999999962 -1.2070349999999992 0.7783099999999995 0.083779999999999868 0.79814050000000003 0.20867000000000005 -10.709549999999998 -0.00029828449999999991 2.3386650000000002 -0.10379000000000015 3.1447100000000013e-05 -13.404099999999998 -1.6975550000000001 0.82933000000000023 -0.30846500000000038 0.039207700000000005 0.041862500000000087 0.17497150000000003 -0.25082149999999998 -0.077302599999999985 2.4168200000000004 0.030899999999999931 0.00088625850000000007 1.40018e-05 -0.42161999999999994 7.8403450000000014e-07 0.71806300000000012 -11.947549999999998 0.00020335550000000004
decision_type=2 2 2 2 2 2 2 2 2 2 2 2 2 2 2 2 2 2 2 2 2 2 2 2 2 2 2 2 2 2
left_child=1 2 12 4 5 8 29 9 -4 -5 19 -12 -1 -13 -15 16 -10 22 -14 27 -21 -22 -17 -18 -9 26 -2 -3 -29 -6
right_child=25 10 3 7 6 -7 -8 24 15 -11 11 13 18 14 -16 17 23 -19 -20 20 21 -23 -24 -25 -26 -27 -28 28 -30 -31
leaf_value=0.016247884146869184 -0.00063428039130355638 -0.0012838889514890177 0.011607286227600915 0.028810762862364454 0.0026475309394299986 0.0042193171169076652 0.029176199520853437 -0.0012180867042237272 0.0094345495849847798 0.00056001444939862601 -0.00090858458194795037 0.00087554333431105454 -0.001121256224367981 0.023854642489459368 0.0044826788206895193 0.037131837311183441 0.032998084447213583 0.027926632502313815 0.0075307971757391226 0.013187827695256624 -0.0010717383099874426 0.0050658654061055955 0.031689799134619535 0.039495966449762006 0.0047873457272847499 -0.0012866128544692943 0.0057141975011853951 0.0075814528949558731 -0.001722882129251957 -0.0026623568887454135
leaf_weight=20 70 9705 21 30 20 21 22 240 25 22 86 31 454 32 21 483 35 33 23 39 458 31 32 39 21 10157 21 20 43 43
leaf_count=20 70 9705 21 30 20 21 22 240 25 22 86 31 454 32 21 483 35 33 23 39 458 31 32 39 21 10157 21 20 43 43
internal_value=0 0.00107822 0.0153965 0.0224462 0.0306385 0.0335759 0.0068276 0.00218798 0.0344988 0.0168585 -0.00108882 0.00474405 -2.19e-05 0.0105313 0.016179 0.0352418 0.0296075 0.0362597 -0.000704071 -0.00118513 0.000341877 -0.000682647 0.0367937 0.0364226 -0.000734891 -0.00126781 0.000830753 -0.00126767 0.00123088 -0.000976678
internal_weight=0 12050 1584 1087 774 689 85 313 668 52 10466 170 497 84 53 647 99 548 477 10296 528 489 515 74 261 10248 91 9768 63 63
internal_count=22298 12050 1584 1087 774 689 85 313 668 52 10466 170 497 84 53 647 99 548 477 10296 528 489 515 74 261 10248 91 9768 63 63
shrinkage=0.05


Tree=6
num_leaves=31
num_cat=0
split_feature=27 27 30 30 6 27 18 14 30 30 28 22 21 15 4 11 28 22 30 21 21 17 23 17 27 30 6 14 26 7
split_gain=11.038 162.496 57.4939 52.794 10.7693 6.05732 6.5889 5.92233 4.10472 3.51768 2.12243 2.08379 1.19059 1.06886 1.05403 0.896731 0.468474 2.51356 0.459059 1.55419 0.384771 0.349657 0.295134 0.261245 0.739384 0.248457 0.147576 0.457695 0.1429 0.427114
threshold=-0.12773199999999993 0.063474999999999962 -1.3626649999999996 0.7783099999999995 0.00010572600000000001 -0.041862500000000073 0.00042982050000000004 -10.556599999999998 2.1089349999999998 -0.68019999999999958 -0.10379000000000015 -0.027656399999999998 3.4887250000000005 -0.24238199999999996 1.3003100000000003e-05 2.8666300000000004e-05 -0.25082149999999998 -0.11664549999999999 -0.26930000000000026 0.042543150000000009 2.4168200000000004 -0.0087035649999999982 0.027645000000000006 -0.22446549999999998 -0.33568149999999991 -1.7897750000000008 2.5735000000000003e-05 -8.8812249999999988 0.71806300000000012 0.0048049900000000012
decision_type=2 2 2 2 2 2 2 2 2 2 2 2 2 2 2 2 2 2 2 2 2 2 2 2 2 2 2 2 2 2
left_child=23 2 12 4 5 6 -4 8 -5 -7 16 -12 25 -13 -8 18 28 -18 19 -11 -19 -15 -9 24 -1 -2 -20 -28 -3 -30
right_child=1 10 3 7 -6 9 14 22 -10 15 11 13 -14 21 -16 -17 17 20 26 -21 -22 -23 -24 -25 -26 -27 27 -29 29 -31
leaf_value=-0.00075623774795200338 -0.0012232234342335231 -0.0012196945021334905 0.00028153434706230956 0.034272455067738246 0.0014980011529499484 0.017448412463294739 0.022311271956589607 -0.0013501423394636197 0.0040629933503541077 0.020165100078219953 0.019666985208168626 0.010754947778919052 0.010746202202669036 0.0060223143124444921 0.03591177400586934 0.024545998822735705 0.01347465263131787 -0.00094134447649604042 0.03555771276610447 0.035920396751287033 0.0048125720913371733 -0.00095948482450750701 0.0049327875620552471 -0.0012136150253022596 0.0072008814955396312 0.0037892833455569217 0.035286563499407335 0.02665239963680506 -0.0018463904946679024 0.0067895399406552315
leaf_weight=176 293 9705 30 23 31 33 28 170 22 23 20 31 24 22 29 23 34 463 408 49 31 97 21 10301 35 27 66 20 41 22
leaf_count=176 293 9705 30 23 31 33 28 170 22 23 20 31 24 22 29 23 34 463 408 49 31 97 21 10301 35 27 66 20 41 22
internal_value=0 0.00105061 0.0175821 0.0237772 0.0303443 0.0316056 0.0192483 0.00318524 0.0195034 0.033334 -0.00103438 0.00450685 5.27627e-06 0.0024855 0.0292308 0.034224 -0.00112587 0.000324783 0.0346173 0.0308875 -0.000580269 0.000331268 -0.000659349 -0.00117794 0.000563664 -0.000800293 0.0351609 0.0332786 -0.00120429 0.00116933
internal_weight=0 11786 1320 976 740 709 87 236 45 622 10466 170 344 150 57 589 10296 528 566 72 494 119 191 10512 211 320 494 86 9768 63
internal_count=22298 11786 1320 976 740 709 87 236 45 622 10466 170 344 150 57 589 10296 528 566 72 494 119 191 10512 211 320 494 86 9768 63
shrinkage=0.05


Tree=7
num_leaves=31
num_cat=0
split_feature=30 30 27 27 6 14 27 27 27 21 27 21 27 21 30 14 27 27 17 7 30 0 18 30 27 27 7 3 12 30
split_gain=10.0222 47.3654 39.7748 145.133 4.34755 2.57653 2.13152 9.15545 1.74101 2.93931 1.59279 1.52931 1.21238 3.22284 1.08978 2.4395 3.26654 8.73872 0.618334 0.612571 0.457976 1.33134 0.354056 1.20364 1.24484 5.94224 0.3824 0.52346 0.343581 0.736127
threshold=-0.71700499999999978 0.27979999999999988 -0.12773199999999993 0.084315000000000154 8.1076600000000009e-05 -14.283699999999998 0.29898550000000002 -0.48849150000000002 -0.041862500000000073 0.052139300000000006 0.25136499999999989 0.20867000000000005 0.030899999999999931 0.042543150000000009 0.7783099999999995 -10.183199999999998 -0.20585514999999996 0.084315000000000154 -0.10682549999999998 0.0060041400000000007 -0.30846500000000038 1.8683000000000003 0.0042167450000000009 -1.3186349999999998 -0.28372000000000014 0.25136499999999989 0.0010420150000000001 8.8150850000000003e-06 6.4603200000000019e-05 -3.7514250000000002
decision_type=2 2 2 2 2 2 2 2 2 2 2 2 2 2 2 2 2 2 2 2 2 2 2 2 2 2 2 2 2 2
left_child=22 2 -2 4 8 6 7 -3 9 -4 11 -5 20 -14 15 16 -7 -18 -17 -9 21 -10 -1 26 -25 -26 -24 -28 29 -29
right_child=1 5 3 10 -6 14 -8 19 12 -11 -12 -13 13 -15 -16 18 17 -19 -20 -21 -22 -23 23 24 25 -27 27 28 -30 -31
leaf_value=-0.0011420378624125988 -0.001014922484876467 -0.0012017957491075827 0.0077620105259120472 0.0017208851664327084 0.0078462218586355451 -0.0011723981167261418 -0.0013120484550316364 0.034820504896342752 0.03470883199146816 0.032196563133038585 -0.0010608514194074276 0.018654457735829057 0.0093617819901555786 0.034947721404023468 -0.0010565999390992451 0.0070652802474796775 0.031379444655534383 -0.00053956311415223515 -0.00079978915209509723 0.022445418667048217 0.033666456280048621 0.018537450619041922 -0.0012497468761259408 -0.0012148011154655752 0.029593847683914334 -0.0012131504239324404 0.0073210243359208109 -0.00069926841676516357 -0.00049024137910487974 0.0089045307890046384
leaf_weight=9574 924 72 20 40 20 78 78 20 35 32 859 20 20 32 7163 26 37 51 643 20 442 20 1259 58 23 49 25 53 573 32
leaf_count=9574 924 72 20 40 20 78 78 20 35 32 859 20 20 32 7163 26 37 51 643 20 442 20 1259 58 23 49 25 53 573 32
internal_value=0 0.00110839 0.00718629 0.012107 0.0307796 -0.000720624 0.00503394 0.00945347 0.0315428 0.0227987 -0.000510715 0.00736541 0.032371 0.025107 -0.000857329 0.000852105 0.00627756 0.0128809 -0.000494121 0.028633 0.033131 0.0288283 -0.00101379 -0.000421175 0.00423658 0.00862797 -0.000732971 0.000219621 -5.01893e-05 0.00291628
internal_weight=0 10652 2464 1540 621 8188 190 112 601 52 919 60 549 52 7998 835 166 88 669 40 497 55 11646 2072 130 72 1942 683 658 85
internal_count=22298 10652 2464 1540 621 8188 190 112 601 52 919 60 549 52 7998 835 166 88 669 40 497 55 11646 2072 130 72 1942 683 658 85
shrinkage=0.05


Tree=8
num_leaves=31
num_cat=0
split_feature=27 27 30 30 2 2 14 30 27 18 27 22 1 19 30 13 0 19 6 27 22 15 21 23 17 27 11 25 5 23
split_gain=9.07623 133.338 46.8924 42.7618 11.0514 10.3423 6.04688 3.91027 2.49786 4.66243 1.71056 1.87331 1.14065 0.942418 0.867535 0.803743 0.437593 0.61344 0.409891 0.39355 2.19805 0.363491 0.333876 0.272116 0.224957 0.648806 0.215676 1.10197 0.213951 0.128137
threshold=-0.12773199999999993 0.063474999999999962 -1.3626649999999996 0.72393500000000011 1.6414250000000001 -1.1217999999999997 -10.556599999999998 2.1089349999999998 -0.041862500000000073 0.00042982050000000004 0.10458499999999994 -0.027656399999999998 -12.395199999999997 0.16146950000000002 -0.71700499999999978 -0.57501449999999987 8.0285450000000029 -0.012769699999999998 -1.5352949999999997e-05 0.25136499999999989 -0.077302599999999985 -0.63233049999999991 2.4168200000000004 0.027645000000000006 -0.22446549999999998 -0.33568149999999991 2.3755000000000008e-06 -0.00047106199999999996 4.6834450000000004e-05 -0.72559949999999984
decision_type=2 2 2 2 2 2 2 2 2 2 2 2 2 2 2 2 2 2 2 2 2 2 2 2 2 2 2 2 2 2
left_child=24 2 12 4 5 -4 7 -5 9 -7 11 -3 -2 18 -10 -11 26 -18 -13 20 -12 -14 -22 -8 25 -1 -16 -28 -19 -21
right_child=1 10 3 6 -6 8 23 -9 14 15 19 13 21 -15 16 -17 17 28 -20 29 22 -23 -24 -25 -26 -27 27 -29 -30 -31
leaf_value=-0.00068843341326679699 0.011068909712643786 0.018358388477936388 -0.0029033870734274389 0.032312418749699222 -0.0051406018137931829 0.0012251120371123156 -0.001288212101497402 0.0036708938550542702 0.020904823099928246 0.021462777629494667 0.01173333030862686 0.0062761218583380629 0.0047449227189645176 0.0096074575586526691 0.032327651721253736 0.034051508223637943 0.022225081995129587 0.026716511803013938 -0.001255433217133626 0.00055321886833024849 -0.00094099031602679127 -0.0012170753543119448 0.0044207215309143072 0.0047389781279932892 -0.0011012490359859617 0.0067653787721480649 0.032659441177079931 0.019285422749817371 0.032850569825280798 -0.0011114672937093931
leaf_weight=176 22 20 25 26 25 21 173 22 21 21 39 22 28 33 407 32 30 21 101 117 458 294 31 21 10301 35 67 20 44 9645
leaf_count=176 22 20 25 26 25 21 173 22 21 21 39 22 28 33 407 32 30 21 101 117 458 294 31 21 10301 35 67 20 44 9645
internal_value=0 0.000952685 0.0159277 0.0215225 0.027532 0.028684 0.00329562 0.0191851 0.0298385 0.0211634 -0.000936004 0.00395165 5.39352e-05 0.00210463 0.0308909 0.0290635 0.031247 0.0281392 9.16742e-05 -0.0010196 0.000309979 -0.000698641 -0.000601086 -0.000635784 -0.00106815 0.000547981 0.0318446 0.029585 0.0308688 -0.00109152
internal_weight=0 11786 1320 976 734 709 242 48 684 74 10466 176 344 156 610 53 589 95 123 10290 528 322 489 194 10512 211 494 87 65 9762
internal_count=22298 11786 1320 976 734 709 242 48 684 74 10466 176 344 156 610 53 589 95 123 10290 528 322 489 194 10512 211 494 87 65 9762
shrinkage=0.05


Tree=9
num_leaves=31
num_cat=0
split_feature=30 30 27 27 6 1 14 27 27 30 1 27 22 11 30 14 27 27 16 17 1 15 4 6 18 17 26 24 7 26
split_gain=8.21369 37.3881 32.2645 118.666 4.67254 4.05942 2.16247 1.79077 7.68071 1.77976 3.4061 1.53908 1.78648 1.17408 0.890377 2.00213 2.67583 7.1657 0.510078 0.503476 0.418271 0.772431 0.314249 0.311573 0.309029 0.293925 0.28065 0.267862 0.264909 0.211703
threshold=-0.757575 0.27979999999999988 -0.12773199999999993 0.084315000000000154 0.00010003855 -17.279499999999995 -14.283699999999998 0.29898550000000002 -0.48849150000000002 -0.34826499999999999 -9.0478649999999998 0.25136499999999989 -0.00071265649999999994 2.8666300000000004e-05 0.7783099999999995 -10.183199999999998 -0.20585514999999996 0.084315000000000154 0.89191900000000013 -0.10682549999999998 -14.694299999999997 0.46576200000000006 6.5251300000000008e-06 3.2598500000000003e-05 0.00032306000000000007 -0.12226699999999999 1.1404550000000002e-06 1.5529500000000004e-08 0.0036924600000000003 0.00030682600000000006
decision_type=2 2 2 2 2 2 2 2 2 2 2 2 2 2 2 2 2 2 2 2 2 2 2 2 2 2 2 2 2 2
left_child=5 2 25 4 9 -1 7 8 -3 10 -4 12 -5 23 15 16 -8 -18 -10 -17 21 28 -14 26 -25 -2 27 -11 -7 -16
right_child=1 6 3 11 -6 20 14 -9 18 13 -12 -13 22 -15 29 19 17 -19 -20 -21 -22 -23 -24 24 -26 -27 -28 -29 -30 -31
leaf_value=0.019617057048405211 0.0050804526219144462 -0.0010880768764764072 0.029615252980209412 0.019472669982351365 0.003757293652743101 0.0045435895468911225 -0.001059245011315514 -0.0011962082237005234 0.020592152904719115 0.029225648537514706 0.0080509985859195388 -0.00095908841606300466 0.0059684505779296166 0.018037420214915816 -0.0010779045478428199 0.0063701259831969561 0.028411154378507587 -0.00049262525440723292 0.031884608231484889 -0.00072696096311623175 -0.0010042938375027048 0.010735357506200673 -0.0026011849065189778 0.021301345489919188 0.029177885683196965 -0.0010446270563912116 0.030839167885920584 0.022583952601999045 -0.00079020944155626383 -0.00034660228408722315
leaf_weight=24 20 72 47 20 20 29 78 78 20 63 30 893 20 22 5977 26 37 51 20 643 11367 20 23 20 33 947 374 20 118 1186
leaf_count=24 20 72 47 20 20 29 78 78 20 63 30 893 20 22 5977 26 37 51 20 643 11367 20 23 20 33 947 374 20 118 1186
internal_value=0 0.000995509 0.00627975 0.010671 0.0275375 -0.000925054 -0.000651461 0.00462047 0.00867137 0.0283184 0.0212136 -0.000426225 0.00712691 0.0293467 -0.000776701 0.000768449 0.00568354 0.0116601 0.0262384 -0.00045114 -0.000967798 0.00151633 0.00138469 0.0298346 0.0262056 -0.000917945 0.0302555 0.0276252 0.000262037 -0.000956821
internal_weight=0 10740 2552 1585 629 11558 8188 190 112 609 77 956 63 532 7998 835 166 88 40 669 11534 167 43 510 53 967 457 83 147 7163
internal_count=22298 10740 2552 1585 629 11558 8188 190 112 609 77 956 63 532 7998 835 166 88 40 669 11534 167 43 510 53 967 457 83 147 7163
shrinkage=0.05


Tree=10
num_leaves=31
num_cat=0
split_feature=27 27 30 30 27 2 2 21 21 30 28 22 1 1 19 27 21 27 11 20 28 22 30 21 15 0 1 21 19 0
split_gain=7.47785 91.173 41.6765 42.3157 13.6874 5.34433 5.09619 4.16111 3.63246 3.41316 1.50744 1.6068 1.23222 0.965796 0.912024 0.580205 1.78006 0.568783 1.80305 0.40946 0.327269 1.93188 0.318211 0.287083 0.207403 0.201121 0.19087 0.156223 0.20965 0.124738
threshold=-0.20585514999999996 0.063474999999999962 -1.3626649999999996 0.7783099999999995 -0.083779999999999841 -0.88553049999999989 0.79814050000000003 0.20867000000000005 0.27838100000000005 2.3386650000000002 -0.10379000000000015 -0.027656399999999998 -6.1009449999999985 -12.457899999999997 0.16146950000000002 -0.041862500000000073 0.065438500000000011 0.030899999999999931 -1.8820749999999999e-06 8.1651450000000023e-06 -0.25082149999999998 -0.11664549999999999 1.1742300000000008 2.4168200000000004 -0.63233049999999991 8.494905000000001 -6.5100799999999994 0.38615600000000005 -0.15813399999999997 5.9190750000000012
decision_type=2 2 2 2 2 2 2 2 2 2 2 2 2 2 2 2 2 2 2 2 2 2 2 2 2 2 2 2 2 2
left_child=-1 2 13 4 7 -6 12 29 22 -10 20 -12 15 -2 19 16 -7 25 -19 -13 -3 -22 -5 -23 -15 27 -27 28 -17 -4
right_child=1 10 3 8 5 6 -8 -9 9 -11 11 14 -14 24 -16 17 -18 18 -20 -21 21 23 -24 -25 -26 26 -28 -29 -30 -31
leaf_value=-0.00099288568672761162 0.0089484943628863056 -0.00099022560627073865 -0.0027774258433944654 0.0046202351190149787 0.00043242014944553378 0.01112786876037717 0.0024085149789849921 0.023403883806389313 0.024059071682859215 -0.00033028677750665406 0.017134781740605832 -0.001260824011394171 0.015794940606098287 0.0027019219902845531 0.0096860614635290651 0.025040271121542904 0.030517564816721555 0.031085970997810367 0.011983525965894972 0.0065828022547066217 0.011816132200114869 -0.00081754657309140294 -0.0013194549269974233 0.0041525643439062187 -0.0011114046134305402 0.028013097283975136 0.022558730484350868 0.033351659774780273 0.029243070232298447 0.0018894470607240994
leaf_weight=10248 27 9768 45 25 20 20 21 23 32 26 20 99 22 39 31 32 29 30 21 20 34 463 230 31 416 53 23 21 408 21
leaf_count=10248 27 9768 45 25 20 20 21 23 32 26 20 99 22 39 31 32 29 30 21 20 34 463 230 31 416 53 23 21 408 21
internal_value=0 0.000844406 0.0120239 0.0173877 0.0235588 0.025907 0.0266563 0.0050897 0.00183174 0.0131259 -0.00084758 0.00382234 0.027429 -0.000239336 0.00204735 0.0278308 0.0226034 0.0282664 0.0232203 5.74325e-05 -0.000924686 0.000287792 -0.000737132 -0.000505657 -0.000784548 0.0287456 0.0263624 0.0291385 0.0289374 -0.00129251
internal_weight=0 12050 1584 1102 789 700 680 89 313 58 10466 170 659 482 150 637 49 588 51 119 10296 528 255 494 455 537 76 461 440 66
internal_count=22298 12050 1584 1102 789 700 680 89 313 58 10466 170 659 482 150 637 49 588 51 119 10296 528 255 494 455 537 76 461 440 66
shrinkage=0.05


Tree=11
num_leaves=31
num_cat=0
split_feature=27 27 30 30 2 2 27 18 21 28 22 4 1 19 14 30 4 20 21 30 28 22 21 30 25 14 13 23 9 8
split_gain=6.76013 98.9963 34.596 31.0332 9.79987 8.65093 3.37939 4.21154 2.27552 1.36047 1.45014 1.03282 1.0261 0.823102 0.641195 2.8074 0.865393 0.369538 0.318184 0.336604 0.29536 1.74834 0.266201 0.2424 0.22602 0.134163 0.130692 0.11034 0.350482 0.105561
threshold=-0.12773199999999993 0.063474999999999962 -1.3948799999999995 1.1742300000000008 1.6414250000000001 -1.1217999999999997 -0.041862500000000073 0.0004989040000000001 0.27838100000000005 -0.10379000000000015 -0.027656399999999998 2.8641950000000005e-05 -12.395199999999997 0.16146950000000002 -8.1980949999999986 -0.26930000000000026 1.9173650000000002e-05 8.1651450000000023e-06 0.29129750000000004 -0.50900999999999985 -0.25082149999999998 -0.077302599999999985 2.4168200000000004 0.12416500000000054 0.1021905 -5.5744999999999996 -2.7094549999999997 -0.72559949999999984 -8.5327549999999992e-06 1.2371550000000003e-07
decision_type=2 2 2 2 2 2 2 2 2 2 2 2 2 2 2 2 2 2 2 2 2 2 2 2 2 2 2 2 2 2
left_child=25 2 12 4 5 -4 7 -7 -5 20 -11 -9 -2 17 18 -16 23 -12 19 -8 27 -22 -23 -17 -14 26 -1 28 -3 -20
right_child=1 9 3 8 -6 6 14 11 -10 10 13 -13 24 -15 15 16 -18 -19 29 -21 21 22 -24 -25 -26 -27 -28 -29 -30 -31
leaf_value=0.0030104713603144604 0.010688438284255211 0.0057052325779715415 -0.0016764601902855983 -0.0012633257644724916 -0.0049640587220589321 0.0004944631187566395 0.021226859961946808 0.018758696762637962 0.01274377682645406 0.016278042681515219 -0.0011977827693853114 0.032711384551865716 -0.0010752272313998251 0.0092017584330131939 0.0083800188886622596 0.028042042948104241 0.018077048639367734 0.0062536622397601606 0.034155780465706539 0.027774909412488342 0.010461384793504691 -0.00084264367619553762 0.0039449363105720087 0.022599298166839976 0.004291647410995904 0.0029786603440615268 -0.00093792378416713532 -0.00095921722603103943 -0.00087723203801683017 0.029462148889899255
leaf_weight=21 21 26 31 169 30 29 21 36 35 20 99 21 298 31 24 185 28 20 23 300 39 458 31 23 21 22 10469 9651 91 25
leaf_count=21 21 26 31 169 30 29 21 36 35 20 99 21 298 31 24 185 28 20 23 300 39 458 31 23 21 22 10469 9651 91 25
internal_value=0 0.000822194 0.0137255 0.0184933 0.0230553 0.0241821 0.0253032 0.0160069 0.00113985 -0.000805201 0.00363122 0.0238992 -1.71645e-05 0.00194498 0.0265743 0.0246725 0.0263293 5.45609e-05 0.0279143 0.0273465 -0.000878452 0.000273402 -0.000539137 0.0274402 -0.000721922 -0.000921839 -0.000930019 -0.000940714 0.000585538 0.0317112
internal_weight=0 11786 1320 980 776 746 715 86 204 10466 170 57 340 150 629 260 236 119 369 321 10296 528 489 208 319 10512 10490 9768 117 48
internal_count=22298 11786 1320 980 776 746 715 86 204 10466 170 57 340 150 629 260 236 119 369 321 10296 528 489 208 319 10512 10490 9768 117 48
shrinkage=0.05


Tree=12
num_leaves=31
num_cat=0
split_feature=30 30 27 28 2 1 11 14 27 27 30 7 30 14 27 27 22 16 27 0 1 15 17 6 22 2 23 27 19 30
split_gain=6.13209 28.9128 24.144 87.6291 4.4387 3.35474 2.0661 1.71545 1.42083 6.07413 0.801815 3.05591 0.649866 1.48708 1.97456 5.28254 0.621994 0.50965 0.480337 0.591053 0.378857 0.627929 0.374439 0.304619 0.255161 0.215128 0.214116 0.560965 0.179428 0.558157
threshold=-0.71700499999999978 0.27979999999999988 -0.12773199999999993 -0.12719800000000001 0.79814050000000003 -17.279499999999995 -0.00025437399999999997 -14.283699999999998 0.29898550000000002 -0.48849150000000002 -0.30846500000000038 0.00022513400000000002 0.7783099999999995 -10.183199999999998 -0.20585514999999996 0.084315000000000154 -0.18645849999999997 0.89191900000000013 0.030899999999999931 1.9156850000000003 -14.694299999999997 0.46576200000000006 -0.10682549999999998 3.9336850000000003e-05 -0.27367349999999996 0.067201950000000024 -0.0016749049999999998 -0.28372000000000014 0.25324900000000006 1.9748850000000002
decision_type=2 2 2 2 2 2 2 2 2 2 2 2 2 2 2 2 2 2 2 2 2 2 2 2 2 2 2 2 2 2
left_child=5 2 24 16 6 -1 -5 8 9 -3 11 -8 13 14 -9 -16 -4 -11 23 -20 21 26 -15 -12 -2 -13 27 -7 -14 -30
right_child=1 7 3 4 -6 20 10 12 -10 17 18 25 28 22 15 -17 -18 -19 19 -21 -22 -23 -24 -25 -26 -27 -28 -29 29 -31
leaf_value=0.017881381930783393 0.0043140575677777333 -0.00093713258393108851 0.005665653081316697 0.0089657981170430077 0.0010056745172256517 -0.0010862175626931963 0.0038731502812533155 -0.00090974231298344272 -0.0010476274893451959 0.017720049116760492 0.026478773131284619 0.028000929660913422 -0.00090247833891870946 0.0054779951532299706 0.024398995150585433 -0.00041785178998229557 -0.00087059420767657866 0.029007764253765347 0.026212526921352203 0.014336215071380137 -0.00086654347390359399 0.0098261624015867719 -0.00064242963286617865 0.02134956951823927 -0.00090973661074207884 0.022116172105073929 -0.0011137122146623291 0.0088575012050569057 0.0025398401531783292 -0.00092514730166402413
leaf_weight=24 24 72 38 21 21 37 21 78 78 20 437 41 6572 26 37 51 863 20 22 20 11450 20 643 31 900 25 92 23 159 432
leaf_count=24 24 72 38 21 21 37 21 78 78 20 437 41 6572 26 37 51 863 20 22 20 11450 20 643 31 900 25 92 23 159 432
internal_value=0 0.00086699 0.00561562 0.00944942 0.0236121 -0.000792991 0.0243803 -0.000562007 0.00413351 0.00774181 0.0249225 0.020486 -0.000673553 0.000646513 0.00488248 0.0100165 -0.000594926 0.0233639 0.0256793 0.0205571 -0.000831555 0.00149764 -0.000404566 0.026139 -0.000774054 0.0257719 0.000401783 0.00272554 -0.000827435 7.05745e-06
internal_weight=0 10652 2464 1540 639 11646 618 8188 190 112 597 87 7998 835 166 88 901 40 510 42 11622 172 669 468 924 66 152 60 7163 591
internal_count=22298 10652 2464 1540 639 11646 618 8188 190 112 597 87 7998 835 166 88 901 40 510 42 11622 172 669 468 924 66 152 60 7163 591
shrinkage=0.05


Tree=13
num_leaves=31
num_cat=0
split_feature=27 27 31 31 27 21 2 14 31 11 1 28 22 15 1 27 21 27 11 23 0 17 27 31 17 0 19 31 28 24
split_gain=5.56302 67.7117 30.9007 31.9281 9.35257 3.71631 3.60406 2.95426 2.91069 2.23362 1.32361 1.13371 1.27829 0.738575 0.636864 0.461308 1.32217 0.536439 1.38372 0.41885 0.30692 0.275168 0.696037 1.36529 0.234837 0.141283 0.122878 0.129165 0.114055 0.992531
threshold=-0.20585514999999996 0.063474999999999962 1.2070349999999996 -0.77830999999999928 -0.083779999999999841 0.20867000000000005 0.79814050000000003 -10.556599999999998 -2.3596650000000001 -0.00029828449999999991 -13.404099999999998 -0.10379000000000015 -0.027656399999999998 -0.24238199999999996 -6.1009449999999985 -0.041862500000000073 0.065438500000000011 0.030899999999999931 -1.8820749999999999e-06 0.17497150000000003 10.942650000000002 0.31196950000000007 0.40211800000000014 1.362665 -0.0087035649999999982 -7.2151749999999995 -0.23103349999999997 0.46488999999999919 -0.25082149999999998 6.8298150000000004e-06
decision_type=2 2 2 2 2 2 2 2 2 2 2 2 2 2 2 2 2 2 2 2 2 2 2 2 2 2 2 2 2 2
left_child=-1 2 3 7 5 -5 9 8 -2 -6 -4 21 -13 -14 15 16 -11 20 -19 -12 26 28 23 -23 -15 -9 -17 -28 -3 -30
right_child=1 11 10 4 6 -7 -8 25 -10 14 19 12 13 24 -16 17 -18 18 -20 -21 -22 22 -24 -25 -26 -27 27 -29 29 -31
leaf_value=-0.0008563796569397681 -0.00043349513210929355 -0.0008698898629702945 0.012636022493243219 -0.001292242223603858 0.0070574853214479625 0.022577831623229114 0.0020690545040581909 0.0033522419491782787 0.022251449813765867 0.0093986870720982555 -0.00082713027181112041 0.015193882137537001 0.0086109474782020811 0.0046100989830764856 0.014843316674232483 0.021888023639718694 0.026360235170081809 0.026563758828810288 0.0095851104883920586 0.0060890556191620622 0.018678639065474272 0.015463128724050793 -0.00070742534898111931 -0.0014609695376398473 -0.0011116583015500885 -0.0010246283485222671 0.02501561263830698 0.029120008572936059 -0.00063753145792173026 0.0090508520104257122
leaf_weight=10248 26 9611 20 63 21 22 21 20 31 20 454 20 31 22 20 30 27 28 21 23 20 22 136 26 97 236 461 20 473 28
leaf_count=10248 26 9611 20 63 21 22 21 20 31 20 454 20 31 22 20 30 27 28 21 23 20 22 136 26 97 236 461 20 473 28
internal_value=0 0.000728314 0.0103626 0.0150848 0.0205341 0.00488589 0.0224646 0.00160945 0.0119039 0.0231058 3.47114e-05 -0.000729814 0.00332005 0.00173687 0.0236267 0.0239068 0.0191426 0.0242929 0.0192872 -0.000493645 0.0247548 -0.000796683 0.00111953 0.00629591 -5.38544e-05 -0.000682685 0.0249926 0.0251863 -0.000831551 -9.60649e-05
internal_weight=0 12050 1584 1087 774 85 689 313 57 668 497 10466 170 150 647 627 47 580 49 477 531 10296 184 48 119 256 511 481 10112 501
internal_count=22298 12050 1584 1087 774 85 689 313 57 668 497 10466 170 150 647 627 47 580 49 477 531 10296 184 48 119 256 511 481 10112 501
shrinkage=0.05


Tree=14
num_leaves=31
num_cat=0
split_feature=27 28 30 30 2 2 27 18 8 28 18 30 30 26 24 14 30 4 7 17 27 7 14 19 30 22 20 17 27 25
split_gain=5.03258 73.5593 25.6354 22.9149 7.57457 6.88709 2.73271 3.63658 1.12111 1.10073 1.35115 1.3367 1.67126 1.02307 0.913296 0.603169 2.25271 0.731342 0.303244 0.248339 0.637146 0.93653 0.255358 0.245114 0.176137 0.174349 0.177271 0.156843 0.484319 0.152754
threshold=-0.12773199999999993 -0.061954999999999975 -1.3948799999999995 1.3577250000000005 1.6414250000000001 -1.1217999999999997 -0.041862500000000073 0.0004989040000000001 1.9712900000000002e-07 -0.10379000000000015 0.00057214450000000019 -1.6975550000000001 1.0582749999999999 0.003911635000000001 1.2540500000000001e-05 -8.1980949999999986 -0.26930000000000026 1.9173650000000002e-05 0.0044842550000000004 0.31196950000000007 0.55730000000000002 0.0068924400000000005 -9.6263749999999977 -0.86293299999999984 0.12416500000000054 0.011536400000000002 -1.7011199999999994e-05 -0.22446549999999998 -0.33568149999999991 -0.0025292699999999997
decision_type=2 2 2 2 2 2 2 2 2 2 2 2 2 2 2 2 2 2 2 2 2 2 2 2 2 2 2 2 2 2
left_child=27 9 14 4 5 -4 7 -7 -9 19 -11 -12 -13 29 23 18 -17 24 25 -2 21 22 -21 -3 -18 26 -8 28 -1 -5
right_child=1 2 3 13 -6 6 15 8 -10 10 11 12 -14 -15 -16 16 17 -19 -20 20 -22 -23 -24 -25 -26 -27 -28 -29 -30 -31
leaf_value=-0.00051417062694037504 -0.00078997311354180087 0.0045879397319541094 -0.0019132545246975498 0.0034787099994719032 -0.004837703040490548 -0.00022139867106753011 0.020223936376472317 0.015805862616061383 0.030201104638122381 -0.0010515117914312415 -0.00080407817227145031 0.01871327159719335 0.00068643155042082083 0.011308650542050601 0.010381405106745661 0.0065203329858680567 0.024133177222432318 0.015012675390711853 0.029077262431383134 -0.0029484443854363193 -0.0010339192839980613 0.014096064222976566 0.004848965869418213 -0.0010010334816230025 0.019493613683659098 0.028035585776619288 0.023951305546465199 -0.00082301797648880409 0.0059258388834340231 -0.0011660718879142366
leaf_weight=176 10112 21 32 20 30 31 36 38 21 90 30 36 20 20 20 24 185 28 30 21 122 20 21 298 23 23 280 10301 35 154
leaf_count=176 10112 21 32 20 30 31 36 38 21 90 30 36 20 20 20 24 185 28 30 21 122 20 21 298 23 23 280 10301 35 154
internal_value=0 0.000709401 0.0118606 0.0159787 0.019799 0.0207832 0.0217933 0.0136443 0.0209296 -0.000689827 0.00323095 0.00771261 0.0122751 0.000598825 1.67164e-05 0.0229593 0.0211147 0.0225989 0.024259 -0.000756849 0.00106355 0.00519084 0.000950261 -0.000633107 0.0236201 0.0238326 0.0235267 -0.000795377 0.000554077 -0.000632189
internal_weight=0 11786 1314 975 781 751 719 90 59 10472 176 86 56 194 339 629 260 236 369 10296 184 62 42 319 208 339 316 10512 211 174
internal_count=22298 11786 1314 975 781 751 719 90 59 10472 176 86 56 194 339 629 260 236 369 10296 184 62 42 319 208 339 316 10512 211 174
shrinkage=0.05


Tree=15
num_leaves=31
num_cat=0
split_feature=30 30 27 28 2 1 11 14 27 27 30 7 22 16 30 14 27 27 20 1 1 15 17 26 2 27 22 22 7 27
split_gain=4.55039 21.4943 17.8811 64.7891 3.30145 2.81071 1.49079 1.34439 1.11209 4.74544 0.667714 1.67738 0.523181 0.496155 0.473401 1.11528 1.46652 3.9173 0.310931 0.37614 0.299021 0.534891 0.275546 0.232845 0.252132 0.218677 0.217316 0.189952 0.253506 0.171025
threshold=-0.71700499999999978 0.27979999999999988 -0.12773199999999993 -0.12719800000000001 0.79814050000000003 -17.279499999999995 -0.00025437399999999997 -14.283699999999998 0.29898550000000002 -0.48849150000000002 -0.34826499999999999 0.00028431000000000007 -0.18645849999999997 0.89191900000000013 0.7783099999999995 -10.183199999999998 -0.20585514999999996 0.084315000000000154 -1.2745249999999998e-05 -13.021399999999998 -14.694299999999997 0.46576200000000006 -0.10682549999999998 1.9828400000000006e-06 -0.061758399999999998 -0.041862500000000073 -0.27367349999999996 -0.077302599999999985 0.0036924600000000003 0.030899999999999931
decision_type=2 2 2 2 2 2 2 2 2 2 2 2 2 2 2 2 2 2 2 2 2 2 2 2 2 2 2 2 2 2
left_child=5 2 26 12 6 -1 -5 8 9 -3 11 -8 -4 -11 15 16 -9 -18 19 -12 21 27 -17 24 -20 -25 -2 -7 -29 -27
right_child=1 7 3 4 -6 20 10 14 -10 13 18 -13 -14 -15 -16 22 17 -19 23 -21 -22 -23 -24 25 -26 29 -28 28 -30 -31
leaf_value=0.016410128989567362 0.0040379975844795505 -0.00080737845532389153 0.0052455773773161995 0.007887222147768453 0.00082190314396506266 0.0048803485464304691 0.0050297039782717119 -0.00078068122100562621 -0.00091225296760407781 0.015103338863700628 0.024021164625883103 0.021972315991297366 -0.00074903906732020622 0.026240606419742109 -0.00071533855957551314 0.0046787224781627843 0.02102088146918529 -0.00034981491044163706 0.017494401871794608 0.015469064573860832 -0.00074948932395589151 0.0090376675408333548 -0.0005716228690346005 0.028285161778330806 0.022094048839916877 0.02251373125748201 -0.0007828671795626482 0.0036917667680730426 -0.0015368950644544528 0.026683913129899241
leaf_weight=24 24 72 38 21 21 20 21 78 78 20 20 48 863 20 7163 26 37 51 41 36 11450 20 643 20 109 275 900 30 102 27
leaf_count=24 24 72 38 21 21 20 21 78 78 20 20 48 863 20 7163 26 37 51 41 36 11450 20 643 20 109 275 900 30 102 27
internal_value=0 0.000746851 0.0048412 0.0081405 0.0203184 -0.000683107 0.0209809 -0.000485252 0.00367154 0.00686382 0.0214415 0.0168159 -0.000496214 0.020672 -0.000584001 0.000542673 0.00421108 0.00863559 0.022046 0.0185234 -0.000718405 0.00135087 -0.000367574 0.0224639 0.0208368 0.0232219 -0.00065765 0.000339452 -0.000348563 0.0228866
internal_weight=0 10652 2464 1540 639 11646 618 8188 190 112 597 69 901 40 7998 835 166 88 528 56 11622 172 669 472 150 322 924 152 132 302
internal_count=22298 10652 2464 1540 639 11646 618 8188 190 112 597 69 901 40 7998 835 166 88 528 56 11622 172 669 472 150 322 924 152 132 302
shrinkage=0.05


Tree=16
num_leaves=31
num_cat=0
split_feature=27 28 30 30 2 2 27 18 4 28 18 30 2 15 21 30 27 21 30 7 28 18 30 14 17 27 30 27 5 0
split_gain=4.14624 60.5233 20.9982 18.84 6.65654 6.07465 2.4763 2.96856 1.00144 0.899503 1.16964 1.16258 1.19756 0.825831 0.655701 1.61115 0.84403 0.644722 0.299129 0.275704 0.220405 1.30826 2.71357 0.204001 0.133582 0.427029 0.131258 0.116788 0.0976306 0.0906044
threshold=-0.12773199999999993 -0.061954999999999975 -1.3948799999999995 1.6140899999999998 1.6414250000000001 -1.1888699999999999 -0.041862500000000073 0.0004989040000000001 2.8641950000000005e-05 -0.10379000000000015 0.00057214450000000019 -2.8775200000000001 -0.084079799999999996 -0.84994549999999991 0.096511600000000017 -0.50900999999999985 0.030899999999999931 0.57056850000000015 0.27979999999999988 0.0011683850000000003 -0.25082149999999998 0.010500400000000002 -2.5283099999999998 -19.339499999999997 -0.22446549999999998 -0.33568149999999991 -0.42444999999999972 0.030899999999999931 0.00011629400000000001 -10.654349999999999
decision_type=2 2 2 2 2 2 2 2 2 2 2 2 2 2 2 2 2 2 2 2 2 2 2 2 2 2 2 2 2 2
left_child=24 9 13 4 5 -4 7 -7 -9 20 -11 -12 -13 -3 15 -8 18 -5 28 -16 -2 29 -23 -15 25 -1 -21 -28 -17 -22
right_child=1 2 3 17 -6 6 14 8 -10 10 11 12 -14 23 19 16 -18 -19 -20 26 21 22 -24 -25 -26 -27 27 -29 -30 -31
leaf_value=-0.0004796527902892029 -0.00073966629407788123 0.0096428863393763706 -0.0018787846174638939 -0.00090444383916981296 -0.0048608668989712197 -0.00051833441360823573 0.0064708988581384935 0.013499168468345153 0.026717978529632092 -0.001065399165575703 -0.0028266225899146362 0.017553965455942577 0.0038681580600413408 0.0038378476980142299 0.020223016726473968 0.021567778609417106 0.010566842434927823 0.0086012770980596533 0.015851607273977535 0.028953301087021828 0.0017248785098058148 -0.0038116445619380103 0.01619936312393596 -0.00095640394478706888 -0.00074745568828981854 0.0055674832899655618 0.023161866434595803 0.027404851304448169 0.018462535683755523 -0.00085531624703366431
leaf_weight=176 9768 21 34 165 31 31 21 38 23 90 22 31 33 24 36 405 20 20 26 20 37 32 36 294 10301 35 55 23 27 423
leaf_count=176 9768 21 34 165 31 31 21 38 23 90 22 31 33 24 36 405 20 20 26 20 37 32 36 294 10301 35 55 23 27 423
internal_value=0 0.000643908 0.0107589 0.0144859 0.0178493 0.0187769 0.0197456 0.0120806 0.0184833 -0.000625294 0.00291904 0.0070888 0.0104972 3.96053e-05 0.0208596 0.0200257 0.0206212 0.000123202 0.0210602 0.023965 -0.000685881 0.00030914 0.00678242 -0.000594574 -0.000721946 0.000523427 0.0253396 0.024413 0.0213737 -0.000647779
internal_weight=0 11786 1314 975 790 759 725 92 61 10472 176 86 64 339 633 499 478 185 458 134 10296 528 68 318 10512 211 98 78 432 460
internal_count=22298 11786 1314 975 790 759 725 92 61 10472 176 86 64 339 633 499 478 185 458 134 10296 528 68 318 10512 211 98 78 432 460
shrinkage=0.05


Tree=17
num_leaves=31
num_cat=0
split_feature=27 27 30 30 27 21 21 30 30 21 3 4 11 1 18 27 21 27 28 22 25 11 21 18 1 28 11 5 6 13
split_gain=3.74447 45.5154 21.2593 22.0103 6.68469 3.69701 2.46195 3.22116 2.16311 2.62638 1.428 1.94178 1.22641 1.05418 0.369401 1.62999 1.07058 0.338834 0.29639 1.47774 0.410956 1.1167 0.172137 0.127507 0.125199 0.182112 0.174589 0.121185 0.0849153 0.23998
threshold=-0.20585514999999996 0.084315000000000154 -1.3948799999999995 0.7783099999999995 -0.041862500000000073 0.065438500000000011 0.27838100000000005 2.3386650000000002 -0.68019999999999958 0.097952250000000005 1.1686600000000003e-05 1.4226200000000001e-05 9.8589600000000016e-05 -12.457899999999997 0.00034284900000000005 0.018490999999999928 0.0099449850000000017 -0.083779999999999841 -0.25082149999999998 -0.11664549999999999 0.017917950000000005 -2.2863049999999995e-06 0.096511600000000017 0.00032035100000000002 -7.701249999999999 -0.046108999999999976 -3.9201599999999993e-07 0.00011292500000000001 2.9287750000000002e-06 -1.5665199999999999
decision_type=2 2 2 2 2 2 2 2 2 2 2 2 2 2 2 2 2 2 2 2 2 2 2 2 2 2 2 2 2 2
left_child=-1 2 13 4 5 17 22 -8 9 -6 -7 -12 14 -2 15 23 -17 -4 -3 -20 28 -22 -5 27 25 -16 -26 -10 29 -21
right_child=1 18 3 6 8 10 7 -9 12 -11 11 -13 -14 -15 24 16 -18 -19 19 20 21 -23 -24 -25 26 -27 -28 -29 -30 -31
leaf_value=-0.00070259683986033036 0.0088610501525302737 -0.00070268298658701753 -0.0020047291092662911 -0.0011356228740885853 -0.0048735741681108875 0.025860587960999944 0.020666190543595486 -0.0020172104849640669 0.020546524977045399 0.019111866382881999 0.0019092658465659177 0.022464485261589291 0.007221293281763793 -0.00079896637505206332 0.026133042120415235 0.001560936841581549 0.017526512131804513 0.0046928790697295759 0.0099813051325710195 0.005241700244091806 0.010904186917468906 -0.0033472587630428655 0.0030667610638947401 0.016154729574918748 0.02197260776800769 0.021372982287931743 0.016282638792808241 0.016517852842807771 -0.0011285640490727009 -0.00042382854173946032
leaf_weight=10248 30 9768 58 250 21 23 34 29 280 25 27 20 20 482 23 21 21 28 38 21 28 27 27 20 28 159 26 20 326 170
leaf_count=10248 30 9768 58 250 21 23 34 29 280 25 27 20 20 482 23 21 21 28 38 21 28 27 27 20 28 159 26 20 326 170
internal_value=0 0.000597528 0.00825339 0.0119991 0.016434 0.00712025 0.00130308 0.0102246 0.0186222 0.00816199 0.0156519 0.0106562 0.0194008 -0.00023295 0.0198081 0.0188047 0.00954372 0.000175888 -0.000635909 0.000433351 -0.000200954 0.00390802 -0.000726004 0.0200202 0.0213472 0.0219745 0.019233 0.0202779 -0.000638079 0.000199083
internal_weight=0 12050 1672 1160 820 156 340 63 664 46 70 47 618 512 598 362 42 86 10378 610 572 55 277 320 236 182 54 300 517 191
internal_count=22298 12050 1672 1160 820 156 340 63 664 46 70 47 618 512 598 362 42 86 10378 610 572 55 277 320 236 182 54 300 517 191
shrinkage=0.05


Tree=18
num_leaves=31
num_cat=0
split_feature=27 28 30 30 2 2 27 21 24 28 26 30 30 21 30 27 21 4 1 2 30 7 19 17 6 27 9 30 17 27
split_gain=3.38749 49.3892 17.0945 15.3376 5.64596 5.13008 2.00733 2.49807 0.750483 0.733205 0.98104 1.10592 1.56469 0.576092 1.33669 0.717995 0.554917 0.529442 0.422672 0.400615 0.252309 0.248934 0.196741 0.193644 0.523718 1.11387 0.225217 0.117786 0.114513 0.360043
threshold=-0.12773199999999993 -0.061954999999999975 -1.3948799999999995 1.6140899999999998 1.6414250000000001 -1.1888699999999999 -0.041862500000000073 0.065438500000000011 1.2540500000000001e-05 -0.10379000000000015 3.1447100000000013e-05 -0.757575 0.82933000000000023 0.096511600000000017 -0.50900999999999985 0.030899999999999931 0.57056850000000015 1.9173650000000002e-05 -7.7567749999999984 0.077500850000000024 0.27979999999999988 0.0011683850000000003 -0.86293299999999984 0.31196950000000007 4.0982450000000006e-05 0.64194499999999999 3.0670800000000002e-07 -0.42444999999999972 -0.22446549999999998 -0.33568149999999991
decision_type=2 2 2 2 2 2 2 2 2 2 2 2 2 2 2 2 2 2 2 2 2 2 2 2 2 2 2 2 2 2
left_child=28 9 8 4 5 -4 7 19 22 23 -11 18 -13 14 -8 20 -5 -9 -12 -7 -16 -15 -3 -2 26 -26 -25 -23 29 -1
right_child=1 2 3 16 -6 6 13 17 -10 10 11 12 -14 21 15 -17 -18 -19 -20 -21 -22 27 -24 24 25 -27 -28 -29 -30 -31
leaf_value=-0.00042054029419721868 -0.00064846475976497193 0.0041361652004222073 -0.002010831086184172 -0.00083033853097621245 -0.0047985013078657851 -0.0030521931525852 0.0057362679214704605 0.01391030901978756 0.0094431768776848928 -0.0010136380538137422 0.0055136275500990454 0.020193289875984191 0.0016799975984862874 0.018219435670309599 0.019317916446123962 0.0093517632782459253 0.0079885317198932181 0.024196487665176392 -0.0047658652812242507 0.006835633991286158 0.014246371717980275 0.026504498943686484 -0.00087103575043030236 -0.001524847518833997 0.014125057779962109 -0.000995363752710922 0.0041137854879101125 0.022203517896242631 -0.00067617288409470907 0.0051320845154779297
leaf_weight=176 10112 21 34 165 31 21 21 29 20 90 20 25 21 36 432 20 20 22 20 20 26 20 298 113 21 29 21 78 10301 35
leaf_count=176 10112 21 34 165 31 21 21 29 20 90 20 25 21 36 432 20 20 22 20 20 26 20 298 113 21 29 21 78 10301 35
internal_value=0 0.000582017 0.00971936 0.0130821 0.0161169 0.0169711 0.0178613 0.0109602 4.7653e-05 -0.000564514 0.00263545 0.00645427 0.0117416 0.0188643 0.0180827 0.0186251 0.000123053 0.0183475 0.000373881 0.00177114 0.01903 0.0217751 -0.000541408 -0.000619215 0.000988274 0.00535521 -0.000641181 0.0230813 -0.000652554 0.000500511
internal_weight=0 11786 1314 975 790 759 725 92 339 10472 176 86 46 633 499 478 185 51 40 41 458 134 319 10296 184 50 134 98 10512 211
internal_count=22298 11786 1314 975 790 759 725 92 339 10472 176 86 46 633 499 478 185 51 40 41 458 134 319 10296 184 50 134 98 10512 211
shrinkage=0.05


Tree=19
num_leaves=31
num_cat=0
split_feature=27 28 30 30 6 27 21 24 11 30 27 17 20 21 11 15 0 6 5 28 18 30 16 3 18 25 17 14 27 13
split_gain=3.05721 44.5738 15.4307 14.1457 4.22785 2.13597 2.74618 0.932178 1.69993 0.920311 0.669505 1.63253 0.525474 0.500813 0.459245 0.420354 0.390293 0.702572 0.299736 0.252358 1.02267 2.26426 2.21278 0.215693 0.192856 0.170837 0.16417 0.109266 0.107772 0.0988201
threshold=-0.12773199999999993 -0.061954999999999975 -1.2070349999999992 1.6140899999999998 0.00010572600000000001 -0.041862500000000073 0.065438500000000011 6.8508600000000016e-07 -4.6526649999999988e-06 -0.68019999999999958 0.084315000000000154 -0.0077661199999999988 -9.778199999999999e-06 0.57056850000000015 2.8666300000000004e-05 0.10174750000000002 8.0285450000000029 1.8601300000000004e-05 4.1910500000000011e-05 -0.25082149999999998 0.0085891900000000018 -2.5283099999999998 31.457550000000005 9.144680000000001e-06 0.0018060250000000004 0.017917950000000005 0.011278250000000002 -5.5744999999999996 0.030899999999999931 -2.7094549999999997
decision_type=2 2 2 2 2 2 2 2 2 2 2 2 2 2 2 2 2 2 2 2 2 2 2 2 2 2 2 2 2 2
left_child=27 10 7 4 5 6 15 23 -9 -7 11 -2 -8 -5 16 -4 24 18 -18 -12 25 -22 -23 -3 28 -21 -13 29 -11 -1
right_child=1 2 3 13 -6 9 12 8 -10 14 19 26 -14 -15 -16 -17 17 -19 -20 20 21 22 -24 -25 -26 -27 -28 -29 -30 -31
leaf_value=0.0027991678920530139 0.014044317308192453 0.004101767428662805 -0.0030055744906089137 -0.00078882160201442961 -0.0005331952542735216 0.0083802158633867908 0.011540813911706209 0.017506675910027254 -0.00030432863261651351 0.018602146318271045 -0.00063595185581675562 -0.0021330173275968495 0.022075693791025672 0.0075891048833727839 0.011672761310534232 0.0064852566411718734 0.012299647359620958 0.0068756875814870002 0.019304207878719486 -0.00061948214728669475 -0.0039436908296516379 0.022112301367990399 0.00047177196081195561 -0.0011541272404297703 0.022119408885115072 0.0033943620843014549 0.003275649549905211 0.0029001063540239225 0.015284882987347934 -0.0006341819979331563
leaf_weight=21 27 21 28 165 39 27 20 21 37 420 9768 47 29 20 29 20 21 20 56 498 36 27 21 277 38 28 20 22 26 10469
leaf_count=21 27 21 28 165 39 27 20 21 37 420 9768 47 29 20 29 20 21 20 56 498 36 27 21 277 38 28 20 22 26 10469
internal_value=0 0.000552916 0.00923339 0.0125364 0.0155087 0.0163611 0.00944908 0.000345011 0.00614448 0.0174136 -0.000536289 0.00366444 0.0177757 0.0001169 0.0178134 0.000948938 0.0181199 0.0152252 0.0173939 -0.000574337 0.000412306 0.00553532 0.0126446 -0.000783745 0.0187001 -0.000405817 -0.00051849 -0.000619926 0.0184088 -0.000627309
internal_weight=0 11786 1314 958 773 734 97 356 58 637 10472 94 49 185 610 48 581 97 77 10378 610 84 48 298 484 526 67 10512 446 10490
internal_count=22298 11786 1314 958 773 734 97 356 58 637 10472 94 49 185 610 48 581 97 77 10378 610 84 48 298 484 526 67 10512 446 10490
shrinkage=0.05


Tree=20
num_leaves=31
num_cat=0
split_feature=30 30 27 28 2 1 2 14 27 27 30 7 16 22 24 5 18 30 21 27 27 8 12 24 16 1 16 30 27 17
split_gain=2.76515 13.1712 10.874 38.6965 2.65616 2.21466 1.33501 0.934132 0.769516 3.27103 0.606136 2.29482 0.509552 0.41497 0.299972 0.27131 0.590762 0.259177 0.728879 0.911537 5.88431 0.578632 0.258464 0.24898 0.241555 0.214586 0.42837 0.464158 0.187347 0.185497
threshold=-0.71700499999999978 0.27979999999999988 -0.1538999999999999 -0.12719800000000001 1.1082250000000002 -17.279499999999995 -0.88553049999999989 -14.283699999999998 0.29898550000000002 -0.48849150000000002 -0.30846500000000038 0.00022513400000000002 0.89191900000000013 -0.18645849999999997 -3.0142549999999995e-05 0.00011441250000000001 0.00027011250000000004 1.1742300000000008 0.06000020000000001 0.10458499999999994 -0.062254999999999942 4.9268100000000018e-07 9.3854850000000017e-09 1.5529500000000004e-08 24.120400000000004 -14.694299999999997 4.6772150000000012 -1.2070349999999992 -0.041862500000000073 -0.12226699999999999
decision_type=2 2 2 2 2 2 2 2 2 2 2 2 2 2 2 2 2 2 2 2 2 2 2 2 2 2 2 2 2 2
left_child=5 2 29 13 6 -1 -5 8 9 -3 11 -8 -11 -4 -9 22 -17 18 -16 20 24 -22 23 -12 -20 26 27 -7 -24 -2
right_child=1 7 3 4 -6 25 10 14 -10 12 15 -13 -14 -15 17 16 -18 -19 19 -21 21 -23 28 -25 -26 -27 -28 -29 -30 -31
leaf_value=0.014640427411844334 0.0042317066946998237 -0.00063080664258450278 0.0047569741568479103 0.0035330588882789022 -0.0022663365211337805 -0.0010194136731326582 -0.00075369711114984497 0.0056511668651364746 -0.00073030202721173954 0.011558908186852932 0.016831745129467838 0.01748316303651402 0.022845537215471268 -0.00058182157195137596 -0.00060857837168692519 0.0071534566767513762 0.017819367872702108 -0.0006118705652688192 -0.00091219398210097753 -0.00083297718753361834 0.022950563253834846 0.012109226025640966 0.022792599688876758 0.010701204328374431 0.004191574124895312 -0.0005901700034290228 0.0071020693804782174 0.0070142730893123714 0.018034539604693738 -0.00063704463505668434
leaf_weight=24 20 72 38 20 20 125 23 20 78 20 67 69 20 863 986 20 37 6570 164 179 32 20 22 22 27 11450 26 21 347 896
leaf_count=24 20 72 38 20 20 125 23 20 78 20 67 69 20 863 986 20 37 6570 164 179 32 20 22 22 27 11450 26 21 347 896
internal_value=0 0.000582196 0.00378725 0.00634235 0.0156713 -0.000532505 0.0162434 -0.000382297 0.00308267 0.00573813 0.0166622 0.0129239 0.0172022 -0.000356656 -0.00046461 0.01733 0.0140769 -0.000479942 0.000135663 0.00187458 0.00386903 0.0187808 0.0177349 0.0153163 -0.000190719 -0.000563838 0.00118911 0.000136117 0.0183182 -0.00053074
internal_weight=0 10652 2464 1548 647 11646 627 8188 190 112 607 92 40 901 7998 515 57 7978 1408 422 243 52 458 89 191 11622 172 146 369 916
internal_count=22298 10652 2464 1548 647 11646 627 8188 190 112 607 92 40 901 7998 515 57 7978 1408 422 243 52 458 89 191 11622 172 146 369 916
shrinkage=0.05


Tree=21
num_leaves=31
num_cat=0
split_feature=28 29 28 30 30 1 16 30 30 2 23 4 14 30 30 8 2 25 4 21 30 30 7 28 22 8 19 11 28 18
split_gain=2.51738 26.3067 16.3049 11.4578 10.7129 2.28661 1.2199 1.21351 2.50596 1.21265 0.951747 0.776512 0.57216 1.45279 1.18283 0.527735 0.484308 0.358967 0.322319 0.276903 0.308806 0.243313 0.232654 0.212104 1.212 1.47359 0.243888 0.90206 0.164364 0.489809
threshold=0.28372000000000025 0.084315000000000154 0.041862500000000087 -0.71700499999999978 1.6140899999999998 -13.321099999999999 2.0237400000000005 -1.5240599999999997 0.51779999999999948 0.72458350000000016 0.031860250000000007 1.3003100000000003e-05 -8.2647199999999987 0.15853500000000012 -0.26930000000000026 4.3192000000000002e-07 -0.38575599999999993 0.0059994150000000001 2.0989800000000004e-05 0.065438500000000011 0.72393500000000011 2.3386650000000002 0.0010830450000000001 -0.25082149999999998 -0.077302599999999985 -5.1623949999999985e-07 0.67898100000000017 -6.8459849999999991e-06 0.083779999999999868 0.00042982050000000004
decision_type=2 2 2 2 2 2 2 2 2 2 2 2 2 2 2 2 2 2 2 2 2 2 2 2 2 2 2 2 2 2
left_child=1 2 3 5 9 -1 17 16 11 12 -7 -9 19 14 -14 -10 -8 28 -16 22 -21 -6 -5 -3 25 -25 -26 -28 29 -4
right_child=-2 23 6 4 21 10 7 8 15 -11 -12 -13 13 -15 18 -17 -18 -19 -20 20 -22 -23 -24 24 26 -27 27 -29 -30 -31
leaf_value=0.016926453475441253 -0.00059000931338139197 -0.00057627576938010358 -0.0011337539986581416 0.016769015253113025 0.0050121257617138336 -0.0012300662799841829 0.0069008591584861284 0.009178326993535919 -0.0026081871445767764 0.0035231834044679999 0.0096661738289350822 0.021178161312959024 0.0049520176524917286 0.0033020164964168717 0.017225668036821976 0.0064980061885972443 -0.0017981749121099714 0.0045090967097093128 0.010723131895065309 0.018056072410143599 0.024692146442830562 -0.00098319882145998165 0.011774682497640175 0.018403795566409826 -0.0005260728091669788 -0.00015343808285568072 0.011157045376021416 -0.0033621685194742423 -0.00093689651243948906 0.0059769510679567855
leaf_weight=21 9984 9768 74 171 20 225 20 26 41 20 22 28 24 27 206 26 80 37 21 142 20 110 27 20 524 23 20 23 512 36
leaf_count=21 9984 9768 74 171 20 225 20 26 41 20 22 28 24 27 206 26 80 37 21 142 20 110 27 20 524 23 20 23 512 36
internal_value=0 0.00047837 0.00582904 0.0100178 0.0130551 0.00108711 0.000802521 0.0040172 0.00738543 0.0156464 -0.000259551 0.0154005 0.0160265 0.0143226 0.0155081 0.00092556 -5.83681e-05 -0.000275542 0.0166241 0.0173423 0.0188753 -6.08412e-05 0.016088 -0.000519789 0.000384747 0.00847783 -0.000229014 0.00339095 -0.000560158 0.00119339
internal_weight=0 12314 1936 1056 788 268 880 221 121 658 247 54 638 278 251 67 100 659 227 360 162 130 198 10378 610 43 567 43 622 110
internal_count=22298 12314 1936 1056 788 268 880 221 121 658 247 54 638 278 251 67 100 659 227 360 162 130 198 10378 610 43 567 43 622 110
shrinkage=0.05


Tree=22
num_leaves=31
num_cat=0
split_feature=27 27 27 30 30 1 26 30 30 9 2 15 1 14 30 30 12 4 30 21 30 8 30 28 22 23 22 30 13 18
split_gain=2.27194 23.7418 14.7152 10.3407 9.66836 2.06366 1.1007 1.5723 2.24568 1.23935 1.09441 0.941173 0.668906 0.516374 1.31114 1.0675 0.427829 0.290893 0.283271 0.249905 0.278697 0.222346 0.21959 0.191465 0.999558 0.263228 0.11905 0.131579 0.117701 0.100355
threshold=-0.28372000000000014 0.084315000000000154 -0.041862500000000073 -0.71700499999999978 1.6140899999999998 -13.321099999999999 0.00010313750000000002 -1.3186349999999998 0.51779999999999948 1.4760350000000004e-07 0.72458350000000016 -0.45500449999999992 -11.892099999999997 -8.2647199999999987 0.15853500000000012 -0.26930000000000026 0.00030992000000000004 2.0989800000000004e-05 -1.1536200000000003 0.065438500000000011 0.72393500000000011 4.3192000000000002e-07 2.3386650000000002 -0.174708 -0.050505349999999991 -0.024553549999999997 0.0027772750000000005 -0.38512500000000033 2.1960850000000005 0.025518500000000003
decision_type=2 2 2 2 2 2 2 2 2 2 2 2 2 2 2 2 2 2 2 2 2 2 2 2 2 2 2 2 2 2
left_child=-1 2 6 5 10 -4 26 12 9 -9 13 -7 -8 19 15 -15 -10 -17 -13 21 -21 -5 -6 29 -25 -26 -2 -28 -27 -3
right_child=1 23 3 4 22 11 7 8 16 -11 -12 18 -14 14 -16 17 -18 -19 -20 20 -22 -23 -24 24 25 28 27 -29 -30 -31
leaf_value=-0.00056050883653929653 -0.00070790759199653136 -0.00056901711289254796 0.01608013084956578 0.016005467041256185 0.00476151934824884 0.0076131323211346613 0.0084545730031095456 0.0077930470916609739 0.0057888419919267849 0.021441697008137046 0.0033470243867486718 -0.00087449572351521127 -0.0013079766972133747 0.0047044168847302599 0.0031369156704318746 0.016364384478735693 -0.0022415741720388451 0.010186975094534104 -0.0071242413402069354 0.01715326877966733 0.023457539230585099 0.011394649894247133 -0.0009340389191427015 0.0112348796356292 0.005260343985124068 -0.00073062240780627995 -0.00074844671646133063 0.0049869500938802963 0.0025688143881658714 0.00017410134379234579
leaf_weight=9984 539 9555 21 167 20 33 20 39 27 29 20 194 143 24 27 206 43 21 20 142 20 31 110 21 22 273 20 20 30 477
leaf_count=9984 539 9555 21 167 20 33 20 39 27 29 20 194 143 24 27 206 43 21 20 142 20 31 110 21 22 273 20 20 30 477
internal_value=0 0.000454452 0.00553759 0.00951691 0.0124024 0.00103276 0.000762395 0.00321495 0.00714238 0.0136138 0.0148641 -0.000246573 -0.000110118 0.0152252 0.0136064 0.0147327 0.000855872 0.0157929 -0.00145858 0.0164752 0.0179316 0.0152836 -5.77992e-05 -0.000493799 0.000662614 -2.05167e-05 -0.000512594 0.00211925 -0.000403945 -0.000533683
internal_weight=0 12314 1936 1056 788 268 880 301 138 68 658 247 163 638 278 251 70 227 214 360 162 198 130 10378 346 325 579 40 303 10032
internal_count=22298 12314 1936 1056 788 268 880 301 138 68 658 247 163 638 278 251 70 227 214 360 162 198 130 10378 346 325 579 40 303 10032
shrinkage=0.05


Tree=23
num_leaves=31
num_cat=0
split_feature=27 28 30 30 2 2 27 12 21 24 21 30 27 28 22 8 21 8 26 17 30 8 26 7 30 19 30 15 23 9
split_gain=2.05217 29.8418 10.3485 9.20093 3.8814 3.53267 1.1365 1.7695 1.23235 0.571624 0.503171 0.953125 0.550916 0.451941 1.18679 1.39104 0.427392 0.334714 0.619545 0.477554 0.590514 0.245702 0.19184 0.185061 0.168869 0.147997 0.143379 0.11418 0.0993937 0.256267
threshold=-0.12773199999999993 -0.061954999999999975 -1.3948799999999995 1.6140899999999998 1.6414250000000001 -1.1888699999999999 -0.041862500000000073 1.1289450000000001e-07 0.066009550000000014 1.2540500000000001e-05 0.096511600000000017 -0.50900999999999985 0.030899999999999931 -0.174708 -0.024584299999999996 -9.1337349999999992e-07 0.57056850000000015 2.6193200000000003e-08 0.00073148150000000003 -0.007554884999999999 -0.42444999999999972 -1.1638949999999998e-07 0.00023832950000000002 0.0011683850000000003 0.27979999999999988 -0.86293299999999984 -0.42444999999999972 0.25520250000000005 -0.00066913299999999982 -9.2460349999999981e-08
decision_type=2 2 2 2 2 2 2 2 2 2 2 2 2 2 2 2 2 2 2 2 2 2 2 2 2 2 2 2 2 2
left_child=-1 13 9 4 5 -4 7 -7 -9 25 11 -8 24 -2 15 -15 -5 22 19 20 -19 -10 -16 -12 28 -3 -25 -28 29 -13
right_child=1 2 3 16 -6 6 10 8 21 -11 23 12 -14 14 17 -17 -18 18 -20 -21 -22 -23 -24 26 -26 -27 27 -29 -30 -31
leaf_value=-0.00050790687063076326 -0.00050699926369559493 0.0035733304651720185 -0.002521032574997448 -0.00070186124451345573 -0.0048191754913498317 -0.0039735539195438234 0.0035681212587015971 0.0036125284638255841 0.014199265952293689 0.0082303186599165211 0.01437877876063188 0.015577027398460317 0.0063287019729614258 0.017804316947744651 -0.00039413778803973169 0.00072138938121497638 0.0070376274175941948 0.00016549973928880308 0.0088987752007177248 -0.0012472596880148299 0.01102465715791498 0.021570694819092753 -0.0041584229616578238 0.022347597330808641 0.010892899434726972 -0.00076951788263332922 0.016326953084380539 0.020471819055577122 0.015411808181628798 0.0097939793765544902
leaf_weight=10512 10032 21 34 165 31 21 21 25 26 20 36 53 20 22 159 26 20 31 26 112 21 20 43 20 26 298 54 24 349 30
leaf_count=10512 10032 21 34 165 31 21 21 25 26 20 36 53 20 22 159 26 20 31 26 112 21 20 43 20 26 298 54 24 349 30
internal_value=0 0.000453005 0.00755559 0.010172 0.0125225 0.0132308 0.0139695 0.00877678 0.012548 3.04719e-05 0.0147242 0.0139937 0.0144517 -0.000438209 0.00113021 0.00855106 0.00013484 0.000221539 0.00172802 0.00059119 0.00455093 0.0174042 -0.00119545 0.0174445 0.0148064 -0.000483625 0.0185707 0.0176023 0.015042 0.0134868
internal_weight=0 11786 1314 975 790 759 725 92 71 339 633 499 478 10472 440 48 185 392 190 164 52 46 202 134 458 319 98 78 432 83
internal_count=22298 11786 1314 975 790 759 725 92 71 339 633 499 478 10472 440 48 185 392 190 164 52 46 202 134 458 319 98 78 432 83
shrinkage=0.05


Tree=24
num_leaves=31
num_cat=0
split_feature=27 27 27 30 30 1 16 30 30 20 11 10 8 0 6 11 21 30 30 30 25 30 0 8 17 10 9 13 28 27
split_gain=1.85951 19.4093 11.9739 8.45425 7.91701 1.75081 0.938624 0.941633 1.94042 0.83683 0.774449 0.700725 0.473397 0.455051 0.554662 0.426796 0.361685 0.711627 0.296244 0.277808 0.276915 0.250566 0.241009 0.196351 0.168116 0.447111 0.464115 0.159823 0.148748 0.132378
threshold=-0.28372000000000014 0.084315000000000154 -0.041862500000000073 -0.71700499999999978 1.6140899999999998 -12.846149999999998 2.0237400000000005 -1.5240599999999997 0.51779999999999948 3.8880500000000008e-05 0.00013300950000000005 4.1007850000000004e-07 4.3192000000000002e-07 8.0285450000000029 1.8957500000000003e-05 -2.8899249999999996e-05 0.065438500000000011 0.3275999999999995 0.67316500000000057 -0.30846500000000038 0.0059994150000000001 -1.1536200000000003 10.204500000000001 -3.7056749999999995e-06 0.20874950000000003 -5.071889999999999e-07 7.7157650000000008e-06 2.7014000000000005 -0.046108999999999976 -0.083779999999999841
decision_type=2 2 2 2 2 2 2 2 2 2 2 2 2 2 2 2 2 2 2 2 2 2 2 2 2 2 2 2 2 2
left_child=-1 2 6 5 10 -4 20 15 11 21 13 -9 -10 16 22 -8 17 19 28 -5 29 -7 -15 -6 27 -26 -27 -3 -18 -2
right_child=1 24 3 4 23 9 7 8 12 -11 -12 -13 -14 14 -16 -17 18 -19 -20 -21 -22 -23 -24 -25 25 26 -28 -29 -30 -31
leaf_value=-0.00050708806085402521 -0.00083408688774397896 -0.00048331090220790868 0.013524945080280305 0.0090278728936727237 0.0030704255435719261 -0.00091999342189763968 0.006462312059011311 0.0082510363214231778 -0.0025447985941044441 0.0074474760579566167 0.0048019270654767751 0.019673813797533513 0.0060798505733076205 0.015232624331625498 0.003240769528783858 -0.0017038917687023057 0.019440532810986042 0.0042883831262588504 0.021520341479259991 0.014406650525312453 0.0039563665493718677 -0.0067993164318613719 0.0097774729039520041 -0.0012721036932371718 0.006619362447721263 -0.0012574120365205581 0.0055173872474340666 0.0038831399088459354 0.014808680701714297 0.0010777100215967619
leaf_weight=9984 512 10159 25 26 36 193 20 29 41 30 25 25 26 41 20 80 20 20 23 313 37 20 40 94 30 137 31 21 130 110
leaf_count=9984 512 10159 25 26 36 193 20 29 41 30 25 25 26 41 20 80 20 20 23 313 37 20 40 94 30 137 31 21 130 110
internal_value=0 0.000411139 0.00500714 0.00859672 0.0112058 0.000925384 0.000699637 0.00351946 0.00648649 -0.000370867 0.0134334 0.0135394 0.00080208 0.0137743 0.0106975 -7.0651e-05 0.0143584 0.0134534 0.0162365 0.0139941 -0.000246007 -0.00147204 0.0125387 -6.95571e-05 -0.000446238 0.00099674 -7.30026e-06 -0.000474303 0.0154263 -0.000495988
internal_weight=0 12314 1936 1056 788 268 880 221 121 243 658 54 67 633 101 100 532 359 173 339 659 213 81 130 10378 198 168 10180 150 622
internal_count=22298 12314 1936 1056 788 268 880 221 121 243 658 54 67 633 101 100 532 359 173 339 659 213 81 130 10378 198 168 10180 150 622
shrinkage=0.05


Tree=25
num_leaves=31
num_cat=0
split_feature=30 30 27 28 2 1 2 14 27 27 18 17 30 7 30 14 27 27 6 7 11 27 1 7 27 26 3 17 26 25
split_gain=1.68792 8.77215 6.59891 20.9638 1.88731 1.55644 1.04865 0.761814 0.600891 2.4952 0.61362 0.392211 0.313027 1.88299 0.273941 0.492304 0.727788 1.95605 0.261346 0.260571 0.219852 0.268201 0.16098 0.37879 0.461665 0.199845 0.149338 0.1471 0.133022 0.10188
threshold=-0.63636000000000015 0.20062999999999945 -0.20585514999999996 -0.12719800000000001 1.1082250000000002 -17.279499999999995 -0.97061549999999985 -14.283699999999998 0.29898550000000002 -0.48849150000000002 0.0010642100000000001 0.094665100000000016 -0.30846500000000038 0.00022513400000000002 0.7783099999999995 -9.9434149999999999 -0.20585514999999996 0.084315000000000154 3.2598500000000003e-05 0.0013165550000000003 4.5612850000000006e-07 0.030899999999999931 -14.694299999999997 0.0051663550000000001 -0.20585514999999996 0.013302200000000002 1.1391900000000002e-05 -0.10682549999999998 2.0104650000000004e-05 0.049212250000000006
decision_type=2 2 2 2 2 2 2 2 2 2 2 2 2 2 2 2 2 2 2 2 2 2 2 2 2 2 2 2 2 2
left_child=5 2 -2 11 6 -1 -5 8 9 -3 -11 29 13 -8 15 16 -9 26 20 -20 21 -14 23 24 -7 -25 -18 -17 -15 -4
right_child=1 7 3 4 -6 22 12 14 -10 10 -12 -13 18 28 -16 27 17 -19 19 -21 -22 -23 -24 25 -26 -27 -28 -29 -30 -31
leaf_value=0.011810477980627464 -0.0004483787444299988 -0.00048979238558608993 -0.00054958561081063504 0.0014725122530944647 -0.0025217399411346943 -0.00089824632336588009 -0.0026571911748587379 -0.00048390477388580842 -0.00059931457275524741 0.0078024689853191378 0.019552554786205295 0.0065123297407158791 0.013718215700884174 0.011358796544373037 -0.00044817264247405485 0.0031288987618278371 0.01575767879302685 -0.00025820127193583177 0.0074276246654335415 0.0144963914020495 0.015883776960535008 0.0080025726251981479 -0.00045930767522633079 -0.0013746521919423228 0.008388767670840026 0.0040871481155045335 0.010010800957679748 -0.0002815269104001538 0.016332612404736078 0.0022536634494934012
leaf_weight=26 744 77 694 20 21 23 21 101 80 20 25 21 306 20 7163 33 26 64 32 22 114 22 11618 103 32 20 20 755 41 34
leaf_count=26 744 77 694 20 21 23 21 101 80 20 25 21 306 20 7163 33 26 64 32 22 114 22 11618 103 32 20 20 755 41 34
internal_value=0 0.000462126 0.00334142 0.00540253 0.0122111 -0.00040951 0.0127285 -0.000264926 0.00276834 0.00497663 0.0143303 -0.000224338 0.013118 0.0102562 -0.000339996 0.000435653 0.00258065 0.00539446 0.0135911 0.0103075 0.0139923 0.0133348 -0.000436445 0.00105581 0.00450511 -0.000486555 0.013259 -0.000138705 0.0147019 -0.000418665
internal_weight=0 10476 2112 1368 619 11822 598 8364 202 122 45 749 578 82 8162 999 211 110 496 54 442 328 11796 178 55 123 46 788 61 728
internal_count=22298 10476 2112 1368 619 11822 598 8364 202 122 45 749 578 82 8162 999 211 110 496 54 442 328 11796 178 55 123 46 788 61 728
shrinkage=0.05


Tree=26
num_leaves=31
num_cat=0
split_feature=27 27 27 30 30 2 2 21 16 30 12 9 21 30 27 2 6 4 24 16 25 30 14 28 22 25 2 30 27 25
split_gain=1.53107 15.9823 9.8652 6.89974 6.14987 1.60954 1.36157 0.851625 0.827428 0.815268 1.82633 2.2213 0.551578 0.915763 0.501739 0.38017 0.300148 0.257525 0.250201 0.231946 0.231451 0.192464 0.17767 0.149376 0.947224 0.256128 0.891268 0.119811 0.102836 0.374361
threshold=-0.28372000000000014 0.084315000000000154 -0.041862500000000073 -1.3948799999999995 1.6140899999999998 -1.1888699999999999 0.84878600000000015 1.6349200000000002 2.0237400000000005 -1.5240599999999997 0.00030414500000000008 3.5688500000000004e-07 0.096511600000000017 -0.50900999999999985 0.030899999999999931 -0.38575599999999993 2.9379400000000002e-05 2.9373950000000004e-05 5.6553400000000012e-07 3.0130200000000005 0.0059994150000000001 2.3386650000000002 -15.193049999999998 -0.25082149999999998 -0.11664549999999999 0.017917950000000005 -0.064138749999999981 0.27979999999999988 -0.083779999999999841 -0.0006740139999999998
decision_type=2 2 2 2 2 2 2 2 2 2 2 2 2 2 2 2 2 2 2 2 2 2 2 2 2 2 2 2 2 2
left_child=-1 2 8 7 5 -5 12 -4 20 15 11 -11 13 -7 27 -10 -12 19 -19 22 28 -6 -14 -3 -25 -26 -27 -15 -2 -30
right_child=1 23 3 4 21 6 -8 -9 9 10 16 -13 17 14 -16 -17 -18 18 -20 -21 -22 -23 -24 24 25 26 -28 -29 29 -31
leaf_value=-0.00046013201660967656 -0.00078062856129008657 -0.00045234781148529598 -0.0010435156204039232 -0.001850248420877116 0.0044496242655441163 0.0023200692778724869 -2.9832829551940617e-05 0.0082668663185488968 0.0061065552802756426 0.0044498539844376817 0.0033847012991706535 0.023981202139596768 0.018837629394097763 0.012944592771775745 0.00627031367039308 -0.0016006897491752171 -0.0036881121164575844 0.01536078229546547 0.0081877359747886663 0.020676342192394982 0.0035878483734622193 -0.00088256610959598972 0.013218121555371163 0.0079984410126742577 -0.00049878918899968984 0.0093404066116948205 -0.0033915334616149602 0.0094497886414711303 0.0065774196434928017 -0.00059536770257119346
leaf_weight=9984 512 9768 200 21 20 24 22 28 20 37 30 24 22 432 32 80 30 31 20 29 37 110 39 38 517 28 27 26 23 87
leaf_count=9984 512 9768 200 21 20 24 22 28 20 37 30 24 22 432 32 80 30 31 20 29 37 110 39 38 517 28 27 26 23 87
internal_value=0 0.000373068 0.00454363 0.00780184 0.00992268 0.0117823 0.0122052 9.98646e-05 0.000633772 0.0032813 0.00604208 0.0121343 0.0126161 0.0118562 0.0123233 -5.92407e-05 -0.000151705 0.0153864 0.0125478 0.016995 -0.000254094 -6.22291e-05 0.0152448 -0.000404944 0.000354142 -0.000153696 0.00309018 0.0127462 -0.000482634 0.000904397
internal_weight=0 12314 1936 1056 828 698 677 228 880 221 121 61 655 514 490 100 60 141 51 90 659 130 61 10378 610 572 55 458 622 110
internal_count=22298 12314 1936 1056 828 698 677 228 880 221 121 61 655 514 490 100 60 141 51 90 659 130 61 10378 610 572 55 458 622 110
shrinkage=0.05


Tree=27
num_leaves=31
num_cat=0
split_feature=27 27 27 2 1 2 27 18 12 16 9 12 1 23 2 15 16 25 24 0 21 23 25 1 25 17 27 7 1 27
split_gain=1.38179 14.424 8.90334 3.1692 3.19621 3.4221 0.794744 2.18429 1.17383 0.746754 0.702499 2.09816 0.679534 0.672602 0.535578 2.01338 0.504241 0.401524 0.353465 0.298167 0.226889 0.219978 0.208884 0.196219 0.18932 0.135855 0.404355 0.951833 0.234007 0.135254
threshold=-0.28372000000000014 0.084315000000000154 -0.041862500000000073 1.4400350000000002 -5.9150349999999987 -1.1888699999999999 0.030899999999999931 0.00025206850000000005 8.9636900000000012e-06 2.0237400000000005 3.5688500000000004e-07 0.00030414500000000008 -9.9007999999999985 -0.0059453799999999992 0.18724200000000005 0.11880500000000001 2.8968600000000007 -0.0042965999999999994 8.1363550000000009e-08 5.9190750000000012 0.17471900000000004 0.021636900000000004 0.0059994150000000001 -9.7251149999999988 -0.0028442299999999997 0.20874950000000003 0.55730000000000002 0.0071765050000000006 -9.0478649999999998 -0.017509999999999911
decision_type=2 2 2 2 2 2 2 2 2 2 2 2 2 2 2 2 2 2 2 2 2 2 2 2 2 2 2 2 2 2
left_child=-1 2 9 4 5 -4 14 -8 18 22 12 -12 13 -11 17 -16 -10 -7 -9 24 -14 29 -2 -13 -17 -3 27 28 -27 -19
right_child=1 25 3 -5 -6 6 7 8 16 10 11 23 20 -15 15 19 -18 21 -20 -21 -22 -23 -24 -25 -26 26 -28 -29 -30 -31
leaf_value=-0.0004371254149447897 -0.00045850201381405614 -0.00040992615878383473 -0.0010721782044703632 -0.0019059061604951109 -0.0013569946849020199 0.0047693871109831063 -0.0043879296226591313 0.0075764168530109942 0.010526454026197516 0.012592304316127585 0.01678502534159634 0.0036492226441623647 0.0031165032294335438 -6.2469587040444224e-05 -0.0042447236392440064 0.017712542116641999 0.019056778962258252 0.0097241926330911086 -0.00072158504432688164 0.0070692433763052459 -0.0026580748458703359 0.016806467035785318 0.0034084559342748414 -0.0026202862124102052 0.011389125458864046 -0.0031401649573817854 -0.00075848981941817328 0.013186642462387682 0.0037009906093589968 0.011839105144806454
leaf_weight=9984 622 10180 76 84 80 22 34 33 41 21 32 24 22 21 27 20 30 92 21 23 75 20 37 26 29 25 128 20 25 424
leaf_count=9984 622 10180 76 84 80 22 34 33 41 21 32 24 22 21 27 20 30 92 21 23 75 20 37 26 29 25 128 20 25 424
internal_value=0 0.000354414 0.00431645 0.00741175 0.00821698 0.00907563 0.0100208 0.00684885 0.00990525 0.000602083 0.00311723 0.0067875 0.000952043 0.00626492 0.0107884 0.0073992 0.0141308 0.0113897 0.00434942 0.0117657 -0.00134838 0.0116614 -0.000241389 0.000389078 0.0139701 -0.000384697 0.000912459 0.00396791 0.000280413 0.011462
internal_weight=0 12314 1936 1056 972 892 816 159 125 880 221 82 139 42 657 99 71 558 54 72 97 536 659 50 49 10378 198 70 50 516
internal_count=22298 12314 1936 1056 972 892 816 159 125 880 221 82 139 42 657 99 71 558 54 72 97 536 659 50 49 10378 198 70 50 516
shrinkage=0.05


Tree=28
num_leaves=31
num_cat=0
split_feature=30 30 27 28 2 1 2 14 27 27 18 17 18 30 5 7 24 30 14 27 27 22 8 11 6 27 10 1 27 20
split_gain=1.27256 6.62519 4.96752 15.68 1.45958 1.28941 0.78332 0.61544 0.483865 2.00309 0.573473 0.342507 0.295748 0.868618 0.393506 0.265841 0.251628 0.199043 0.306152 0.381673 0.821236 0.182062 0.404515 0.157697 0.179702 0.154637 0.145245 0.141313 0.131392 0.0928758
threshold=-0.63636000000000015 0.20062999999999945 -0.20585514999999996 -0.12719800000000001 1.1082250000000002 -17.279499999999995 -0.97061549999999985 -14.283699999999998 0.29898550000000002 -0.48849150000000002 0.0010642100000000001 0.094665100000000016 0.00034284900000000005 -0.26930000000000026 0.00011629400000000001 0.00016611850000000002 -3.0142549999999995e-05 0.51779999999999948 -9.9434149999999999 -0.20585514999999996 0.23070700000000008 -0.0061887499999999989 -2.4590199999999995e-07 2.1264150000000005e-05 2.5087400000000003e-05 0.030899999999999931 3.4278150000000006e-08 -16.461499999999997 -0.027260000000000058 0.00011553700000000002
decision_type=2 2 2 2 2 2 2 2 2 2 2 2 2 2 2 2 2 2 2 2 2 2 2 2 2 2 2 2 2 2
left_child=5 2 -2 11 6 -1 -5 8 9 -3 -11 29 13 -8 -15 -14 -9 18 19 -18 -21 22 -20 24 25 28 -26 -7 -17 -4
right_child=1 7 3 4 -6 27 12 16 -10 10 -12 -13 15 14 -16 23 17 -19 21 20 -22 -23 -24 -25 26 -27 -28 -29 -30 -31
leaf_value=0.010766881761642602 -0.000384620918926122 -0.00042043990673279615 -0.00047118805191654164 0.0013068267377093436 -0.0023761110984542896 0.0026640756270161978 0.0021896612830460071 0.005303408638574183 -0.00052623513620346789 0.0065473921038210403 0.017906591355800628 0.006120786795924817 0.008354002034998146 0.011733404128806087 0.005433149677183894 0.016109826442386423 -0.00041413550451397898 -0.00037977724951564516 0.007764452896283372 0.010626345510993685 -0.00054900458443068697 -0.0003697201143950224 -0.00087349240273011457 0.017692745272070171 0.013243643939495087 0.017851173026221141 0.0073562975295565344 -0.00038992600353907021 0.012130205724388362 0.0024164938319731375
leaf_weight=26 744 77 699 20 21 38 29 20 80 20 25 21 29 302 27 28 50 7570 23 35 31 400 33 20 20 21 22 11758 80 29
leaf_count=26 744 77 699 20 21 38 29 20 80 20 25 21 29 302 27 28 50 7570 23 35 31 400 33 20 20 21 22 11758 80 29
internal_value=0 0.000401258 0.00290351 0.00469179 0.0105802 -0.000355572 0.0110351 -0.000230588 0.00249574 0.00447737 0.0128581 -0.00017456 0.0113718 0.0104851 0.0112164 0.0128145 -0.000298062 -0.000311821 0.000587527 0.002881 0.00537732 4.09895e-06 0.00267424 0.0134918 0.0130005 0.0139253 0.0101598 -0.000380088 0.013162 -0.000356157
internal_weight=0 10476 2112 1368 619 11822 598 8364 202 122 45 749 578 358 329 220 8162 8142 572 116 66 456 56 191 171 129 42 11796 108 728
internal_count=22298 10476 2112 1368 619 11822 598 8364 202 122 45 749 578 358 329 220 8162 8142 572 116 66 456 56 191 171 129 42 11796 108 728
shrinkage=0.05


Tree=29
num_leaves=31
num_cat=0
split_feature=30 30 28 28 2 2 1 22 28 1 7 29 18 20 17 15 20 30 10 14 28 25 2 0 1 20 10 8 22 19
split_gain=1.15096 3.98806 4.36624 18.216 2.76237 2.42501 1.80404 1.47646 1.71829 1.13251 0.724169 0.817813 1.3097 0.900284 0.516725 0.432757 0.251781 0.421322 0.240105 0.170789 0.204853 0.153392 0.478453 0.133718 0.128138 0.0957262 0.077698 0.0862098 0.076918 0.0761854
threshold=-1.2070349999999992 0.51779999999999948 0.28372000000000025 -0.15027399999999996 1.4400350000000002 -1.1217999999999997 -5.8548949999999991 -0.016336449999999999 0.15389999999999995 -17.030649999999998 0.0052645550000000015 0.030899999999999931 0.00025206850000000005 3.1222500000000006e-07 0.32319950000000003 1.4966000000000002 2.8403000000000002e-05 -0.54787499999999978 6.4817800000000013e-07 -15.193049999999998 -0.082914999999999947 -8.8750849999999994e-05 0.094644250000000013 8.1151650000000028 -16.461499999999997 -1.3310049999999998e-06 1.5600950000000004e-06 2.6350700000000003e-07 5.2881600000000005e-05 0.25324900000000006
decision_type=2 2 2 2 2 2 2 2 2 2 2 2 2 2 2 2 2 2 2 2 2 2 2 2 2 2 2 2 2 2
left_child=9 2 3 14 5 25 7 18 10 -1 11 16 -13 -14 -2 19 17 -9 -7 20 -3 26 23 -23 -11 -5 27 -19 -25 -21
right_child=1 15 -4 4 -6 6 -8 8 -10 24 -12 12 13 -15 -16 -17 -18 21 -20 29 -22 22 -24 28 -26 -27 -28 -29 -30 -31
leaf_value=0.010708328607775597 -0.00040453639085759308 -0.00049930895158254048 -0.00043618482879911489 0.00081383164273574949 -0.0037904492901672223 0.016060038320720196 -0.0042705179447130792 0.0041175116810178306 -0.0012613014172529803 0.0029793349011535096 0.019737067180020468 -0.0051531452075800023 0.0035169456079001391 0.015885700012690254 0.0074938312860294469 0.0070349467312917115 0.015776548190758782 0.012107226884726322 0.023807692751288415 -0.00039916875924480612 0.0050744602413033135 0.01138577887025727 0.0032409810334105386 0.010426092982806008 -0.00040755961269516532 -0.003827115505002439 0.010158686870709062 0.015257173490065796 0.0066808537794993475 0.00016786784453280099
leaf_weight=23 1486 34 1518 20 41 20 21 23 32 28 21 21 31 28 21 20 26 132 20 7015 32 243 22 29 10627 25 40 26 26 647
leaf_count=23 1486 34 1518 20 41 20 21 23 32 28 21 21 31 28 21 20 26 132 20 7015 32 243 22 29 10627 25 40 26 26 647
internal_value=0 0.000344357 0.00165467 0.00300298 0.00886986 0.00951388 0.0101808 0.0105909 0.010057 -0.000374735 0.0105992 0.0103026 0.00557011 0.00938686 -0.000294473 -0.000310461 0.0109703 0.0107394 0.0199339 -0.000329471 0.00220312 0.0110334 0.0103566 0.0108819 -0.000398659 -0.00176447 0.0121272 0.0126256 0.00865562 -0.000351287
internal_weight=0 11620 3872 2354 847 806 761 740 700 10678 668 647 80 59 1507 7748 567 541 40 7728 66 518 320 298 10655 45 198 158 55 7662
internal_count=22298 11620 3872 2354 847 806 761 740 700 10678 668 647 80 59 1507 7748 567 541 40 7728 66 518 320 298 10655 45 198 158 55 7662
shrinkage=0.05


Tree=30
num_leaves=31
num_cat=0
split_feature=27 28 30 30 9 9 14 30 30 21 27 24 4 28 22 8 8 26 17 3 16 30 30 30 4 20 19 13 23 27
split_gain=1.04222 15.0312 5.29255 4.82296 2.08406 1.32043 1.06366 1.8169 1.38635 0.89994 0.464834 0.439978 0.3501 0.274922 0.871726 1.05885 0.263014 0.543799 0.444691 0.447792 0.237223 0.214054 0.202471 0.27292 0.11483 0.134072 0.10719 0.101501 0.0987522 0.094697
threshold=-0.12773199999999993 -0.061954999999999975 -1.3948799999999995 2.2731550000000005 -3.4425549999999994e-05 2.7372300000000006e-05 -8.2647199999999987 -0.34826499999999999 0.3275999999999995 0.27838100000000005 -0.062254999999999942 1.2540500000000001e-05 2.0989800000000004e-05 -0.174708 -0.024584299999999996 -9.1337349999999992e-07 3.4937050000000006e-08 0.00073148150000000003 -0.007554884999999999 1.8717300000000001e-05 2.6117300000000006 -0.50900999999999985 0.82933000000000023 -0.68019999999999958 -6.7044999999999993e-05 -1.7011199999999994e-05 -0.86293299999999984 2.1171700000000002 0.00046619750000000002 -0.017509999999999911
decision_type=2 2 2 2 2 2 2 2 2 2 2 2 2 2 2 2 2 2 2 2 2 2 2 2 2 2 2 2 2 2
left_child=-1 13 11 4 -4 6 9 -8 12 10 -6 26 28 -2 15 -15 20 18 19 -18 27 -12 23 -11 -23 -26 -3 -16 29 -9
right_child=1 2 3 -5 5 -7 7 8 -10 22 21 -13 -14 14 16 -17 17 -19 -20 -21 -22 24 -24 -25 25 -27 -28 -29 -30 -31
leaf_value=-0.00036195763051504988 -0.00036332969687433896 0.0029837071806901976 -0.0028134799292987541 -0.00076186051186987597 0.00287705060094595 0.00024068922640780281 -0.0047883023904567515 0.0068367190286517145 -0.00028018891713833691 0.019381343254021237 0.0060938002946584122 0.0071760251093655834 0.0047977134718426642 0.015346740313212981 -0.00075285608479095138 0.00044246875645162969 0.0090961577706038955 0.0085554983777304493 -0.0013168019495271234 -0.00068467096531425015 -0.0049450927999604381 0.014760320745408534 0.020391015969216827 0.012502171763259433 0.0074909435654128042 0.011203381321297921 -0.00071223512892638679 0.0030238874442875385 0.01235232452551524 0.010511541502996231
leaf_weight=10512 10032 21 37 158 20 38 27 20 37 21 23 20 28 22 161 26 25 24 107 22 33 20 20 46 27 245 298 20 66 142
leaf_count=10512 10032 21 37 158 20 38 27 20 37 21 23 20 28 22 161 26 25 24 107 22 33 20 20 46 27 245 298 20 66 142
internal_value=0 0.000322832 0.00536365 0.00723477 0.00878124 0.00933125 0.0097968 0.00762285 0.00876654 0.0114453 0.0102686 -1.78989e-05 0.0100741 -0.000309677 0.000913608 0.00727359 0.000134835 0.00155492 0.000463918 0.0045179 -0.00104636 0.0107379 0.0159762 0.0146583 0.0111037 0.0108349 -0.000468929 -0.000335536 0.010722 0.0100579
internal_weight=0 11786 1314 975 817 780 742 320 293 422 335 339 256 10472 440 48 392 178 154 47 214 315 87 67 292 272 319 181 228 162
internal_count=22298 11786 1314 975 817 780 742 320 293 422 335 339 256 10472 440 48 392 178 154 47 214 315 87 67 292 272 319 181 228 162
shrinkage=0.05


Tree=31
num_leaves=31
num_cat=0
split_feature=30 30 27 27 2 2 22 27 14 30 16 20 17 15 18 27 27 8 30 27 14 27 0 6 27 7 15 2 11 25
split_gain=0.946156 3.28339 3.59575 14.9497 2.32823 2.02605 1.58239 1.79116 0.725777 1.6194 0.678963 0.553492 0.457077 0.39114 0.298835 0.401828 0.239129 0.228696 0.208011 0.172214 0.139542 0.167737 0.0930004 0.0826922 0.174163 0.128709 0.0653088 0.506036 1.05433 0.0636726
threshold=-1.2070349999999992 0.51779999999999948 -0.28372000000000014 0.15228 1.4400350000000002 -1.4317549999999997 -0.016336449999999999 -0.1538999999999999 -13.228949999999999 -0.50900999999999985 1.3474250000000001 -1.7011199999999994e-05 0.32319950000000003 1.4966000000000002 0.00026679250000000008 0.018490999999999928 -0.017509999999999911 -1.4361799999999998e-06 -0.50900999999999985 -0.041862500000000073 -15.193049999999998 0.29898550000000002 -3.3769499999999995 5.9149450000000003e-07 0.018490999999999928 0.00022513400000000002 0.57638050000000007 0.42895750000000005 0.00045537150000000005 0.16628250000000003
decision_type=2 2 2 2 2 2 2 2 2 2 2 2 2 2 2 2 2 2 2 2 2 2 2 2 2 2 2 2 2 2
left_child=29 2 -2 4 5 -4 17 -8 18 10 -10 -11 -5 20 15 16 -13 -7 -9 -16 21 -3 -20 24 -21 -25 -22 -28 -29 -1
right_child=1 13 3 12 -6 6 7 8 9 11 -12 14 -14 -15 19 -17 -18 -19 22 23 26 -23 -24 25 -26 -27 27 28 -30 -31
leaf_value=-0.00036870347894143085 -0.0003962776992391496 0.0045874432311393326 -0.00233921924023889 -0.00036602616836573843 -0.0035832914562112222 0.02240435200787726 -0.00099754188617225733 0.017311395456393562 -0.0045151537847554967 0.0023331780846302329 0.0073011638224124908 0.0057384468438858929 0.0070624963912580691 0.0067013452341780069 0.015603798077929588 0.0037070526234696021 0.010064202079024072 0.014933559112250805 0.014453339904546739 0.010671922500644412 -0.00034934965796842832 -0.00045617703649708454 0.010718361422419548 0.0067683589143248714 0.015863632765554248 0.010969651848474732 -0.00088667391460337398 0.012055511423386634 1.1081694780538481e-06 0.00017534981444941239
leaf_weight=10110 1518 32 40 1486 41 21 45 24 31 26 20 37 21 20 21 34 234 20 25 70 7359 34 50 26 21 61 217 26 60 568
leaf_count=10110 1518 32 40 1486 41 21 45 24 31 26 20 37 21 20 21 34 234 20 25 70 7359 34 50 26 21 61 217 26 60 568
internal_value=0 0.00031222 0.00150115 0.00272472 0.00803966 0.0086309 0.00920376 0.00866333 0.00930265 0.00862836 0.000118696 0.00944722 -0.00026251 -0.000281937 0.00981421 0.00883077 0.0094736 0.0187601 0.0132598 0.0113215 -0.00030001 0.00198921 0.0119634 0.0108163 0.01187 0.00971409 -0.000319729 0.000399675 0.00364546 -0.000339763
internal_weight=0 11620 3872 2354 847 806 766 725 680 581 51 530 1507 7748 504 305 271 41 99 199 7728 66 75 178 91 87 7662 303 86 10678
internal_count=22298 11620 3872 2354 847 806 766 725 680 581 51 530 1507 7748 504 305 271 41 99 199 7728 66 75 178 91 87 7662 303 86 10678
shrinkage=0.05


Tree=32
num_leaves=31
num_cat=0
split_feature=27 27 27 30 30 2 2 21 30 18 7 12 5 14 27 21 19 30 30 30 8 0 16 13 26 22 27 16 6 30
split_gain=0.857463 8.92623 5.58576 4.04315 3.50439 1.09422 1.12424 0.747685 1.31699 0.551353 0.89248 0.976165 0.569192 0.420035 0.326436 0.278548 0.275296 0.290731 0.258612 0.41828 0.1643 0.152193 0.120923 0.110622 0.0999279 0.095581 0.0901124 0.309961 0.445238 0.430954
threshold=-0.28372000000000014 0.084315000000000154 -0.041862500000000073 -1.7897750000000008 1.6140899999999998 -1.1888699999999999 1.6414250000000001 0.096511600000000017 -0.63636000000000015 0.0030889500000000005 0.00046110750000000005 0.00028386200000000007 1.0802850000000003e-05 -14.341999999999999 0.030899999999999931 2.8705050000000001 -0.31571299999999997 -1.1536200000000003 0.51779999999999948 -0.63636000000000015 -3.7056749999999995e-06 10.735300000000001 11.622100000000001 2.7014000000000005 0.00049735650000000008 -0.0085317799999999975 -0.083779999999999841 0.38974650000000005 5.9698800000000005e-05 -0.2305749999999995
decision_type=2 2 2 2 2 2 2 2 2 2 2 2 2 2 2 2 2 2 2 2 2 2 2 2 2 2 2 2 2 2
left_child=-1 2 9 15 5 -5 7 8 -7 16 22 12 -12 -13 21 -4 17 -2 19 -9 -6 -10 -11 -3 -21 -18 -27 -28 29 -29
right_child=1 23 3 4 20 6 -8 18 14 10 11 13 -14 -15 -16 -17 25 -19 -20 24 -22 -23 -24 -25 -26 26 27 28 -30 -31
leaf_value=-0.00034434354237628916 -0.00076575690181925895 -0.00030959626483801608 -0.00092634002921745647 -0.0019556894830083881 0.0027199490138122605 -0.0036735802539624276 -0.0025515602799532646 0.017014373580996806 0.0096676506085266664 9.285607528382619e-05 0.017247443771074442 0.0075494458538014446 0.0058737072035331623 -0.0014025540036719146 0.0043757175780175369 0.0051404856677566262 -0.0038006133242743088 0.0073967032212143144 0.016381073423794339 0.010868185526523435 -0.0012523805385732906 0.0057315566218816318 -0.0044405288999238715 0.0033230347780599484 0.0071147614866495139 -0.00058198738904714981 -0.0014868916200198742 0.001466232175672693 -0.0024839671871935329 0.011721636361908169
leaf_weight=9984 20 10357 191 23 36 21 20 26 443 38 22 20 22 38 34 21 20 24 35 61 94 26 24 21 25 524 66 21 21 20
leaf_count=9984 20 10357 191 23 36 21 20 26 443 38 22 20 22 38 34 21 20 24 35 61 94 26 24 21 25 524 66 21 21 20
internal_value=0 0.000279188 0.00339599 0.00584769 0.00739827 0.00877303 0.00913014 0.00947833 0.00859431 0.000453944 0.00306898 0.00594468 0.0115606 0.00168434 0.00910649 -0.000325381 -0.000145031 0.00368649 0.0126295 0.0114572 -0.000152351 0.00944944 -0.001662 -0.000302246 0.00977707 -0.000395905 -0.000291466 0.000897855 0.00343646 0.00646887
internal_weight=0 12314 1936 1056 844 714 691 671 524 880 164 102 44 58 503 212 716 44 147 112 130 469 62 10378 86 672 652 128 62 41
internal_count=22298 12314 1936 1056 844 714 691 671 524 880 164 102 44 58 503 212 716 44 147 112 130 469 62 10378 86 672 652 128 62 41
shrinkage=0.05


Tree=33
num_leaves=31
num_cat=0
split_feature=30 30 27 27 2 2 1 22 27 1 14 30 17 24 20 18 27 27 8 30 27 1 0 14 7 1 21 27 25 2
split_gain=0.773916 2.70861 2.95982 12.2718 1.95784 1.68438 1.56366 1.31581 1.25494 0.969431 0.551903 0.79535 0.412541 0.364886 0.342037 0.28014 0.542382 0.245432 0.215609 0.180309 0.165598 0.111188 0.10667 0.101212 0.13305 0.0687392 0.0652507 0.100485 0.0569077 0.519722
threshold=-1.2070349999999992 0.51779999999999948 -0.28372000000000014 0.15228 1.4400350000000002 -1.4317549999999997 -5.8327899999999984 -0.016336449999999999 -0.1538999999999999 -17.030649999999998 -13.784899999999999 -0.58941499999999969 0.32319950000000003 -3.0142549999999995e-05 -1.7011199999999994e-05 0.00027287700000000004 -0.027260000000000058 0.018490999999999928 -1.4361799999999998e-06 -0.50900999999999985 -0.041862500000000073 -16.461499999999997 -3.0967449999999999 -15.193049999999998 0.0071765050000000006 -6.6628949999999989 0.088343250000000012 0.018490999999999928 -0.043826949999999996 0.42895750000000005
decision_type=2 2 2 2 2 2 2 2 2 2 2 2 2 2 2 2 2 2 2 2 2 2 2 2 2 2 2 2 2 2
left_child=9 2 -2 4 5 -4 7 18 -9 -1 19 -12 -5 -3 -13 16 -16 -18 -7 -10 -17 -11 -21 24 -15 28 27 -22 29 -25
right_child=1 13 3 12 -6 6 -8 8 10 21 11 14 -14 23 15 20 17 -19 -20 22 26 -23 -24 25 -26 -27 -28 -29 -30 -31
leaf_value=0.0099467843447042549 -0.00035924663747585967 0.0058983087733698392 -0.0021724911653291201 -0.0003324895062293321 -0.0033706275034069777 0.020968288396086013 -0.0054445958627911753 -0.0010139790345315954 0.016573846641750562 0.0028172241490600366 0.0010723451352434397 0.0037860231912311389 0.006724851436558224 0.0050851257110480219 0.00045329383151097727 0.014498906582593918 0.0091293720187843996 0.004666377411090902 0.01371440462768078 0.014147698618471621 0.0096537080158789965 -0.00033771083307622103 0.0096564234067232184 -0.00094636331951558042 0.00016670266896570948 0.0023787376858914896 0.0077754201553761962 0.012769140819595619 -0.00032468785861065023 0.0046457839239987418
leaf_weight=23 1518 24 40 1486 41 21 20 35 21 28 37 34 21 20 22 22 257 35 20 20 120 10627 39 161 44 24 30 33 7419 56
leaf_count=23 1518 24 40 1486 41 21 20 35 21 28 37 34 21 20 22 22 257 35 20 20 120 10627 39 161 44 24 30 33 7419 56
internal_value=0 0.000282375 0.00136223 0.00247235 0.00728779 0.00782997 0.00835229 0.00872218 0.00821578 -0.000307286 0.00869793 0.00816951 -0.000234146 -0.000257276 0.00864437 0.00896264 0.00802403 0.00859442 0.0174298 0.0125951 0.0104003 -0.00032942 0.0111789 -0.000276402 0.00170371 -0.000292946 0.00990759 0.0103257 -0.000301344 0.000496771
internal_weight=0 11620 3872 2354 847 806 766 746 705 10678 670 590 1507 7748 553 519 314 292 41 80 205 10655 59 7724 64 7660 183 153 7636 217
internal_count=22298 11620 3872 2354 847 806 766 746 705 10678 670 590 1507 7748 553 519 314 292 41 80 205 10655 59 7724 64 7660 183 153 7636 217
shrinkage=0.05


Tree=34
num_leaves=31
num_cat=0
split_feature=27 27 27 30 30 2 2 21 30 30 8 18 1 9 30 30 30 27 20 19 30 0 16 13 22 14 8 14 27 16
split_gain=0.702587 7.3342 4.6021 3.33066 2.8825 0.981437 0.946134 0.902794 1.10651 0.54083 0.524471 0.464314 0.80077 0.818212 0.518636 0.360778 0.342692 0.303907 0.248612 0.228717 0.24185 0.131219 0.0961989 0.0953648 0.0879168 0.0840173 0.0802135 0.173644 0.0759243 0.284803
threshold=-0.28372000000000014 0.084315000000000154 -0.041862500000000073 -1.7897750000000008 2.3386650000000002 1.6414250000000001 -1.6870899999999998 0.13716600000000004 -0.71700499999999978 0.72393500000000011 1.3972150000000004e-06 0.0030889500000000005 -9.8021949999999993 2.3457250000000003e-06 1.4190099999999994 0.51779999999999948 -0.63636000000000015 0.030899999999999931 4.9531550000000009e-05 -0.31571299999999997 -1.1536200000000003 11.147100000000002 6.1058450000000013 2.7014000000000005 -0.0083075449999999978 -17.648549999999997 1.8551550000000002e-07 -9.299554999999998 -0.083779999999999841 0.38974650000000005
decision_type=2 2 2 2 2 2 2 2 2 2 2 2 2 2 2 2 2 2 2 2 2 2 2 2 2 2 2 2 2 2
left_child=-1 2 11 18 5 6 -5 8 -8 17 15 19 14 26 -13 16 -9 21 25 20 -2 -10 -6 -3 -21 -4 27 -14 -26 -30
right_child=1 23 3 4 22 -7 7 10 9 -11 -12 12 13 -15 -16 -17 -18 -19 -20 24 -22 -23 -24 -25 28 -27 -28 -29 29 -31
leaf_value=-0.00031169823324513025 -0.00071058354282286021 -0.00028114374930733328 -0.0037737470067275521 -0.0025428008619928734 -0.00014037034682890711 -0.0021025193020856631 -0.0039050619811314396 0.017853985726833343 0.0088883011815251833 -1.7161737196147444e-06 0.0072962453071441918 0.010809941359688172 -0.0012100510418205984 0.008669473338390658 0.0012088020811047914 0.020006540857932784 0.010090753427621994 0.0041277069407395827 0.0048643094820103481 -0.0032802637041313577 0.0067341473884880544 0.0048480303869360974 -0.0039740438386797906 0.0030916843652015642 -0.00052349425868774191 -0.00048889180853680129 0.0002946434022622112 -0.0069658739602891737 -0.0014081245694989887 0.0033726583830854398
leaf_weight=9984 20 10357 22 20 90 24 20 21 467 20 36 39 38 22 22 22 44 39 21 25 24 21 20 21 522 169 23 20 66 59
leaf_count=9984 20 10357 22 20 90 24 20 21 467 20 36 39 38 22 22 22 44 39 21 25 24 21 20 21 522 169 23 20 66 59
internal_value=0 0.00025272 0.00307793 0.00530331 0.00671066 0.00784184 0.00817799 0.00848873 0.00764637 0.00806872 0.0123718 0.000407472 0.00280724 0.000118503 0.00734724 0.0144721 0.0125989 0.008375 -0.000299503 -0.000142196 0.00335018 0.00871444 -0.000837402 -0.000274319 -0.000370863 -0.000867252 -0.00220398 -0.00319482 -0.000258444 0.000848405
internal_weight=0 12314 1936 1056 844 734 710 690 567 547 123 880 164 103 61 87 65 527 212 716 44 488 110 10378 672 191 81 58 647 125
internal_count=22298 12314 1936 1056 844 734 710 690 567 547 123 880 164 103 61 87 65 527 212 716 44 488 110 10378 672 191 81 58 647 125
shrinkage=0.05


Tree=35
num_leaves=31
num_cat=0
split_feature=30 30 27 27 9 1 9 22 27 1 14 30 20 17 24 8 18 27 27 8 27 5 14 1 14 22 8 30 21 22
split_gain=0.635663 2.22984 2.43493 10.0658 1.36071 1.24725 1.11086 1.23163 0.937405 0.850523 0.510506 0.802183 0.559338 0.372343 0.327963 0.301641 0.2709 0.507885 0.250979 0.194023 0.159729 0.112342 0.107035 0.0964765 0.0848215 0.16837 0.276565 0.171227 0.117451 0.0727137
threshold=-1.2070349999999992 0.51779999999999948 -0.28372000000000014 0.15228 -3.2354499999999997e-05 -5.8327899999999984 3.499375e-05 -0.010460949999999998 -0.1538999999999999 -17.030649999999998 -13.228949999999999 -0.58941499999999969 -1.7011199999999994e-05 0.32319950000000003 -3.0142549999999995e-05 -9.9857349999999986e-07 0.00027287700000000004 -0.027260000000000058 0.018490999999999928 6.8920200000000006e-07 -0.041862500000000073 8.9410050000000003e-05 -15.401099999999998 -16.461499999999997 -12.180649999999998 -0.029690599999999994 -1.7542299999999998e-06 0.82933000000000023 0.096511600000000017 -0.0021109299999999996
decision_type=2 2 2 2 2 2 2 2 2 2 2 2 2 2 2 2 2 2 2 2 2 2 2 2 2 2 2 2 2 2
left_child=9 2 -2 4 -4 6 7 15 -9 -1 19 -12 -13 -5 -3 -6 17 -14 21 22 -18 -19 -10 -11 25 26 -16 28 -27 -22
right_child=1 14 3 13 5 -7 -8 8 10 23 11 12 16 -15 24 -17 20 18 -20 -21 29 -23 -24 -25 -26 27 -28 -29 -30 -31
leaf_value=0.0093261438381412754 -0.00032569939623082521 0.0056021098745986826 -0.0025180939567433554 -0.00030203482023632083 0.018673774522954021 -0.0049818863371564525 -0.00097496261219739131 -0.0007294521812582389 0.012230100554342455 0.002631876592723919 -0.00011484771902259025 0.00058248161717697428 6.8379108173151823e-05 0.0064026660906771823 0.0063532637359959817 0.010805284568951244 0.013550362771465665 0.0084880416031847608 0.0036666107989315475 0.014882107928395272 0.0070003864502436236 0.0045844737626612193 0.0081290799215799434 -0.00030694491830766306 -0.00029818461193651617 0.00032898181816563013 -0.00043978117060877628 -0.00027816388966990703 0.0050373128667059869 0.0094743392526117319
leaf_weight=23 1518 24 39 1486 29 21 38 35 26 28 36 27 24 21 29 21 21 235 35 25 38 20 41 10627 7164 26 31 447 27 136
leaf_count=23 1518 24 39 1486 29 21 38 35 26 28 36 27 24 21 29 21 21 235 35 25 38 20 41 10627 7164 26 31 447 27 136
internal_value=0 0.000255913 0.0012357 0.00224258 0.00660378 0.00704407 0.00736496 0.00778808 0.00724581 -0.000278489 0.0076662 0.00711019 0.00759545 -0.000208605 -0.000233726 0.015369 0.00796745 0.00705844 0.00763693 0.0111231 0.00943119 0.00818188 0.00972052 -0.000299222 -0.000251859 0.000340773 0.00284352 4.04434e-05 0.00272757 0.00893405
internal_weight=0 11620 3872 2354 847 808 787 749 699 10678 664 572 536 1507 7748 50 509 314 290 92 195 255 67 10655 7724 560 60 500 53 174
internal_count=22298 11620 3872 2354 847 808 787 749 699 10678 664 572 536 1507 7748 50 509 314 290 92 195 255 67 10655 7724 560 60 500 53 174
shrinkage=0.05


Tree=36
num_leaves=31
num_cat=0
split_feature=27 27 27 30 30 21 30 30 8 15 30 1 27 16 30 9 26 30 30 10 8 23 11 15 0 6 8 30 16 28
split_gain=0.5759 6.02099 3.80077 2.74654 2.36536 0.922159 1.23981 1.02397 0.546258 0.420709 0.406863 0.334799 0.307877 1.31512 0.281574 0.206387 0.286514 0.767047 0.793125 0.868502 0.273982 0.180037 0.121128 0.115011 0.101394 0.111844 0.462693 0.119211 0.0866284 0.0863259
threshold=-0.28372000000000014 0.084315000000000154 -0.041862500000000073 -1.9291949999999998 2.3386650000000002 0.13300000000000003 -0.71700499999999978 0.82933000000000023 1.3972150000000004e-06 -0.98443649999999983 0.51779999999999948 -11.755599999999999 0.030899999999999931 0.42078050000000006 -0.757575 -1.0082609999999998e-05 0.00011361300000000001 -1.3186349999999998 0.569635 4.1007850000000004e-07 1.8551550000000002e-07 0.027645000000000006 -3.5045149999999999e-06 -0.35101749999999993 11.147100000000002 3.0811150000000004e-05 -4.6003499999999992e-08 0.27979999999999988 6.1058450000000013 -0.32555999999999991
decision_type=2 2 2 2 2 2 2 2 2 2 2 2 2 2 2 2 2 2 2 2 2 2 2 2 2 2 2 2 2 2
left_child=-1 2 9 21 5 6 -5 12 10 -2 14 -10 24 -14 -7 -11 -17 -18 19 -19 -20 23 -16 -4 25 27 -27 -8 -6 -3
right_child=1 29 3 4 28 8 7 -9 11 15 -12 -13 13 -15 22 16 17 18 20 -21 -22 -23 -24 -25 -26 26 -28 -29 -30 -31
leaf_value=-0.00028220067498552502 0.0059896170493630059 -0.00029245643252300945 -0.0044695167885220139 -0.0024957228815190701 -0.00012214896744505192 0.016134065981023012 0.0079284798645536721 -0.0021601891288689028 0.010674737766385079 -0.0015681482296826415 0.018915235826914963 0.0016355444011943684 -0.0053230516189201318 0.011965424584394153 0.0064480191339617195 -0.00016859378992282027 -0.00087861077130304416 0.0038440939744994527 -0.0023323186677918139 0.016667621258808218 0.0051738821226172153 0.0041051914752461022 0.011385791183069901 -0.00045334784991587742 0.004284763868365969 -0.00038582814857363707 0.0089681210617224387 0.011794276393595197 -0.0037601285194978117 0.00022680795751320581
leaf_weight=9984 32 9504 20 38 90 20 396 30 20 145 22 21 22 22 23 487 111 31 31 23 20 20 27 164 21 20 39 21 20 874
leaf_count=9984 32 9504 20 38 90 20 396 30 20 145 22 21 22 22 23 487 111 31 31 23 20 20 27 164 21 20 39 21 20 874
internal_value=0 0.000228804 0.00278862 0.004811 0.00605874 0.00707311 0.00624937 0.00683136 0.010845 0.000361765 0.0129841 0.00604491 0.00732996 0.00332119 0.01112 0.000149393 0.000503651 0.00201932 0.00508284 0.00930597 0.000611289 -0.000400174 0.00911442 -0.000889888 0.00768487 0.00783487 0.00579729 0.00812316 -0.0007836 -0.000248726
internal_weight=0 12314 1936 1056 852 742 609 571 133 880 92 41 541 44 70 848 703 216 105 54 51 204 50 184 497 476 59 417 110 10378
internal_count=22298 12314 1936 1056 852 742 609 571 133 880 92 41 541 44 70 848 703 216 105 54 51 204 50 184 497 476 59 417 110 10378
shrinkage=0.05


Tree=37
num_leaves=31
num_cat=0
split_feature=27 27 27 30 30 21 30 30 8 20 17 30 17 19 9 22 2 27 16 8 13 1 19 17 7 0 21 17 13 16
split_gain=0.51975 5.43395 3.43019 2.47875 2.13474 0.832248 1.11892 0.924136 0.492998 0.427502 0.425444 0.795916 0.332309 0.320142 0.468203 0.316851 0.308698 0.277859 1.1869 0.241258 0.186667 0.117471 0.108872 0.105724 0.0921968 0.0997642 0.0867774 0.0823594 0.0821268 0.0781821
threshold=-0.28372000000000014 0.084315000000000154 -0.041862500000000073 -1.9291949999999998 2.3386650000000002 0.13300000000000003 -0.71700499999999978 0.82933000000000023 1.3972150000000004e-06 3.3038300000000005e-05 -0.17339299999999999 -1.5240599999999997 -0.073180699999999974 -0.31571299999999997 5.4719000000000007e-07 0.016686500000000003 0.17416300000000004 0.030899999999999931 0.42078050000000006 -1.0625149999999999e-07 -1.3141449999999997 -16.800649999999994 2.1236900000000003 0.052308300000000009 0.0027443100000000002 11.147100000000002 0.47176650000000003 2.4687050000000004 2.7014000000000005 6.1058450000000013
decision_type=2 2 2 2 2 2 2 2 2 2 2 2 2 2 2 2 2 2 2 2 2 2 2 2 2 2 2 2 2 2
left_child=-1 2 10 12 5 6 -5 17 9 16 11 -2 -4 14 19 -10 20 24 -19 -12 -7 -15 -23 -14 25 -8 -21 28 -3 -6
right_child=1 27 3 4 29 8 7 -9 15 -11 13 -13 23 21 -16 -17 -18 18 -20 26 -22 22 -24 -25 -26 -27 -28 -29 -30 -31
leaf_value=-0.00026809064559249517 -0.001791792456060648 -0.00025035182015917007 0.0054241398430101319 -0.0023709367767016949 -0.00011604152361138 0.0117542438371026 0.0075952440998598679 -0.002052179666158433 0.0014531161192627181 0.018601969132820764 0.0040706338391087405 0.011096353426575662 -0.00065835875772600168 0.0024914334183752849 0.0074852315356324917 0.010246684513986111 0.015746004451066258 -0.0050568990367041398 0.011367153393274005 0.00049916522810235621 0.0056750501372984478 -0.00032708732087838202 -0.0039831971015138112 -0.00451153646572493 0.0039748395793139935 0.0040705255454494844 -0.0039602616767903482 0.0023370447238126109 0.0028796458306411905 -0.0035721220728009945
leaf_weight=9984 23 10326 22 38 90 23 456 30 21 21 27 25 162 36 34 20 20 22 22 20 28 670 21 20 20 21 24 31 21 20
leaf_count=9984 23 10326 22 38 90 23 456 30 21 21 27 25 162 36 34 20 20 22 22 20 28 670 21 20 20 21 24 31 21 20
internal_value=0 0.000217364 0.00264919 0.00457045 0.00575581 0.00671945 0.0059369 0.00648979 0.0103027 0.0123349 0.000343677 0.00492078 -0.000380166 7.96129e-05 0.0026604 0.00574266 0.0104813 0.00696347 0.00315513 0.000349917 0.00841665 -0.000293128 -0.000438199 -0.00108178 0.00730062 0.00744007 -0.00193325 -0.000236289 -0.000243999 -0.00074442
internal_weight=0 12314 1936 1056 852 742 609 571 133 92 880 48 204 832 105 41 71 541 44 71 51 727 691 182 497 477 44 10378 10347 110
internal_count=22298 12314 1936 1056 852 742 609 571 133 92 880 48 204 832 105 41 71 541 44 71 51 727 691 182 497 477 44 10378 10347 110
shrinkage=0.05


Tree=38
num_leaves=31
num_cat=0
split_feature=30 30 27 28 22 27 27 26 8 1 28 9 3 15 1 1 18 27 27 15 9 15 5 17 1 8 14 27 11 1
split_gain=0.470603 1.67485 1.82358 7.512 1.43407 1.25389 0.802429 0.867965 0.7235 0.717106 0.401526 0.389335 0.381469 0.311187 0.243767 0.228729 0.194161 0.390625 0.168151 0.155536 0.131884 0.113322 0.102311 0.0932799 0.0849032 0.0803745 0.0709696 0.102414 0.0666418 0.060395
threshold=-1.2070349999999992 0.51779999999999948 -0.28372000000000014 -0.20380000000000006 -0.016336449999999999 -0.10523999999999999 0.030899999999999931 6.6188300000000013e-06 2.6193200000000003e-08 -17.030649999999998 -0.10379000000000015 -1.3858749999999998e-05 1.2354550000000002e-05 1.4966000000000002 -6.1009449999999985 -9.7251149999999988 0.00041682450000000005 -0.027260000000000058 -0.027260000000000058 -0.20595699999999997 2.1378850000000005e-06 -1.1980549999999999 0.00011629400000000001 -0.0032935049999999995 -16.461499999999997 3.3573750000000005e-07 -15.193049999999998 0.29898550000000002 2.1575700000000003e-06 -6.6628949999999989
decision_type=2 2 2 2 2 2 2 2 2 2 2 2 2 2 2 2 2 2 2 2 2 2 2 2 2 2 2 2 2 2
left_child=9 2 -2 21 12 20 11 10 -9 -1 -8 -7 -5 26 16 -10 17 -13 19 -18 23 -4 28 -6 -11 -20 27 -3 -19 -28
right_child=1 13 3 4 5 6 7 8 15 24 -12 14 -14 -15 -16 -17 18 22 25 -21 -22 -23 -24 -25 -26 -27 29 -29 -30 -31
leaf_value=0.0085795900743940601 -0.00028189985541386312 0.0034425033809384331 0.0030459789272684317 0.019351945836097003 -0.00414991264646549 -0.000267342128790915 0.0012327738734745288 0.00023139329702668898 0.012854595247656107 0.0024910198258502143 -0.0077573525633298519 0.001489114626688329 0.010241245533581134 0.0060246407240629202 0.001402936214581132 0.0057762793154411372 0.008080456362893949 0.0073376186673535784 0.0081956981215625998 0.013603943988680839 0.0028923184420405466 -0.0002843248675072663 0.0038201419711112977 -0.00022064930930024607 -0.00026590181322686332 0.00550398903970535 -0.00024221111685390111 -0.00049849932479179091 0.0044221035781360808 0.0022699426607384037
leaf_weight=23 1518 32 26 20 23 20 27 37 25 28 23 37 27 20 20 21 26 294 96 25 22 1456 25 44 10627 39 7638 34 21 24
leaf_count=23 1518 32 26 20 23 20 27 37 25 28 23 37 27 20 20 21 26 294 96 25 22 1456 25 44 10627 39 7638 34 21 24
internal_value=0 0.000220194 0.00106934 0.0019407 0.00562293 0.00513896 0.0058168 0.00230146 0.00543649 -0.00023962 -0.00290268 0.00659216 0.0141181 -0.000204159 0.00682747 0.00962319 0.00702017 0.00636797 0.00834211 0.010788 -0.000466579 -0.000225898 0.0068989 -0.0015695 -0.000258657 0.00741809 -0.000220279 0.00141229 0.00714325 -0.000234342
internal_weight=0 11620 3872 2354 872 825 736 133 83 10678 50 603 47 7748 583 46 563 377 186 51 89 1482 340 67 10655 135 7728 66 315 7662
internal_count=22298 11620 3872 2354 872 825 736 133 83 10678 50 603 47 7748 583 46 563 377 186 51 89 1482 340 67 10655 135 7728 66 315 7662
shrinkage=0.05


Tree=39
num_leaves=31
num_cat=0
split_feature=27 28 30 30 2 2 1 18 16 30 30 7 30 30 20 25 2 28 22 30 25 23 18 30 12 21 2 30 17 30
split_gain=0.42832 6.16755 2.1246 1.99633 1.15719 1.11573 0.953129 0.809632 0.620699 0.565646 0.600306 0.644883 0.34335 0.226867 0.193624 0.147124 0.236463 0.140208 0.570221 0.633666 0.127271 0.122685 0.158974 0.465687 0.64978 0.113005 0.140591 0.130054 0.129994 0.0918501
threshold=-0.12773199999999993 -0.061954999999999975 -1.9291949999999998 2.2731550000000005 1.6414250000000001 -1.1888699999999999 -5.8548949999999991 0.0012589350000000003 13.1149 -0.63636000000000015 0.4659999999999998 0.0011223800000000003 0.67316500000000057 -0.68019999999999958 7.6700100000000015e-05 -0.00082461299999999987 0.17917200000000003 -0.174708 -0.024584299999999996 -1.6975550000000001 0.027953550000000004 0.021636900000000004 0.00068823950000000006 -2.2622050000000002 0.0023216000000000005 0.0067343700000000008 -0.078387699999999991 0.02228499999999967 0.0026813200000000005 0.02228499999999967
decision_type=2 2 2 2 2 2 2 2 2 2 2 2 2 2 2 2 2 2 2 2 2 2 2 2 2 2 2 2 2 2
left_child=-1 17 14 4 5 29 7 9 12 -7 15 -12 13 -9 20 -11 25 -2 19 -19 -3 22 -20 -24 -25 26 -17 28 -28 -4
right_child=1 2 3 -5 -6 6 -8 8 -10 10 11 -13 -14 -15 -16 16 -18 18 21 -21 -22 -23 23 24 -26 -27 27 -29 -30 -31
leaf_value=-0.00023203955005219668 -0.00023651747600571106 -0.00026302596836705192 -0.0042434077847825725 -0.00061171504982402314 -0.0027915684625622818 -0.00048048116591279251 -0.0044159206905169416 0.01498784065246582 0.0021276988927274943 0.0089533725380897527 -0.0042105681564727866 0.0076351767498999829 0.017290317800573326 0.0089298641665236048 0.0041148070944473153 0.0019310460790343906 0.0021203851948181792 -0.00097817469621077182 -0.00030847749337296524 0.010674529632420413 -0.0043079152392844359 -0.0026943786872465894 -0.0011700705070432057 0.011397142936342183 -0.00080564100586343567 0.0072310785464580786 0.005933486584287424 0.0026974328217052278 0.010307223803323249 0.00043834082622197463
leaf_weight=10512 10032 263 22 158 40 33 20 20 20 65 27 20 22 68 24 23 30 20 260 28 21 37 51 24 20 309 65 21 23 20
leaf_count=10512 10032 263 22 158 40 33 20 20 20 65 27 20 22 68 24 23 30 20 260 28 21 37 51 24 20 309 65 21 23 20
internal_value=0 0.000206957 0.0034359 0.00454837 0.0055098 0.00592076 0.00635582 0.00664461 0.0102302 0.0058879 0.00624838 0.000830174 0.0117034 0.0103067 -0.000197684 0.00672348 0.00641575 -0.000198202 0.000675391 0.00581924 -0.00056212 4.55328e-05 0.000331101 0.00208153 0.00585042 0.00670795 0.00548336 0.00623293 0.00707662 -0.002014
internal_weight=0 11786 1314 1006 848 808 766 746 130 616 583 47 110 88 308 536 471 10472 440 48 284 392 355 95 44 441 132 109 88 42
internal_count=22298 11786 1314 1006 848 808 766 746 130 616 583 47 110 88 308 536 471 10472 440 48 284 392 355 95 44 441 132 109 88 42
shrinkage=0.05


Tree=40
num_leaves=31
num_cat=0
split_feature=28 27 30 30 21 27 3 14 30 21 21 6 16 25 6 22 30 27 15 2 19 27 21 21 17 21 17 27 1 3
split_gain=0.38776 3.96914 2.48152 2.89441 1.24282 1.90701 0.989387 0.651682 0.610936 0.586791 0.525464 0.62538 0.425494 0.233959 0.20423 0.25629 0.288818 0.204194 0.198151 0.196122 0.195939 0.186564 0.144467 0.254008 0.122277 0.124758 0.103621 0.403683 0.140864 0.103029
threshold=-0.32555999999999991 -0.083779999999999841 -2.1126450000000001 0.82933000000000023 0.53302250000000007 0.030899999999999931 1.8839000000000004e-05 -12.250049999999998 -0.63636000000000015 1.39436 0.042543150000000009 5.1611400000000007e-06 1.4348600000000002 0.32322300000000009 5.7216700000000004e-05 0.0023240750000000005 0.3275999999999995 0.084315000000000154 -0.078674499999999981 -0.38575599999999993 -0.042788049999999987 0.063474999999999962 0.89960450000000003 0.29489450000000006 -0.15311499999999997 3.4887250000000005 -0.17339299999999999 -0.20585514999999996 -15.501799999999998 1.3608500000000002e-05
decision_type=2 2 2 2 2 2 2 2 2 2 2 2 2 2 2 2 2 2 2 2 2 2 2 2 2 2 2 2 2 2
left_child=-1 26 13 4 5 8 9 12 18 19 21 20 -5 24 15 16 -10 -13 -4 -6 -12 -7 23 -9 -3 -26 27 28 -2 -17
right_child=1 2 3 7 6 10 -8 22 14 -11 11 17 -14 -15 -16 29 -18 -19 -20 -21 -22 -23 -24 -25 25 -27 -28 -29 -30 -31
leaf_value=-0.00024191832501056716 0.004099227186525241 -0.0036978823217478671 0.0038721537162200548 0.0007730301923584193 0.012977809630822214 -0.0047094967193865717 0.00062790833297185608 -0.0005812297435010969 0.006333779550462576 0.019008882785284963 0.0050093694367784672 0.0041587600645680836 0.010849658845373514 0.004399716609623283 0.0021167093309862862 0.0074706387980019344 0.0011904076833663315 -0.0014301589986478742 -0.0028049720986746251 0.0061443899126191227 0.011761551987867625 -0.00012831041970582424 -0.0040078226476907728 0.0041211876950617279 -0.00071092972420455874 0.0033123270445503299 -0.00023531248932103215 0.0065689365689953171 -0.00029880943228697106 0.011456163720257822
leaf_weight=9504 20 33 20 20 21 26 20 390 464 27 22 26 22 23 29 34 29 44 25 21 21 153 27 31 527 20 10438 27 203 31
leaf_count=9504 20 33 20 20 21 26 20 390 464 27 22 26 22 23 29 34 29 44 25 21 21 153 27 31 527 20 10438 27 203 31
internal_value=0 0.000179709 0.00216367 0.0032508 0.00477683 0.00423329 0.0104198 9.59574e-05 0.00577728 0.0132581 0.000891511 0.00356106 0.00605126 -0.00054602 0.00620771 0.00642032 0.00603123 0.000645725 0.000162639 0.0095611 0.00830695 -0.000793734 -0.000462353 -0.000234971 -0.000742144 -0.000563827 -0.000211219 0.00079475 9.56333e-05 0.00937143
internal_weight=0 12794 2106 1503 1013 924 89 490 632 69 292 113 42 603 587 558 493 70 45 42 43 179 448 421 580 547 10688 250 223 65
internal_count=22298 12794 2106 1503 1013 924 89 490 632 69 292 113 42 603 587 558 493 70 45 42 43 179 448 421 580 547 10688 250 223 65
shrinkage=0.05


Tree=41
num_leaves=31
num_cat=0
split_feature=27 27 27 30 30 21 30 30 30 30 25 17 24 27 26 19 30 30 2 6 8 27 30 1 21 1 16 16 13 17
split_gain=0.350077 3.66398 2.33911 1.68246 1.47698 0.651363 0.787143 0.66162 0.452544 0.617463 0.345114 0.288622 0.253152 0.598514 0.225074 0.198723 0.366216 0.858641 0.158437 0.141965 0.29949 0.128111 0.115821 0.101791 0.0900084 0.492559 0.0744817 0.0741154 0.0661275 0.0632011
threshold=-0.28372000000000014 0.084315000000000154 -0.041862500000000073 -1.9291949999999998 2.3386650000000002 0.13716600000000004 -0.71700499999999978 0.82933000000000023 0.82933000000000023 -0.83700999999999925 0.14223350000000004 -0.073180699999999974 1.1972150000000003e-07 0.030899999999999931 0.0020870500000000004 -0.31571299999999997 -1.3186349999999998 0.7783099999999995 0.039653300000000009 3.0811150000000004e-05 2.3003900000000006e-09 0.010674999999999992 -0.30846500000000038 -10.022349999999998 0.89960450000000003 -9.6795799999999979 6.1058450000000013 3.4990450000000002 2.7014000000000005 2.4687050000000004
decision_type=2 2 2 2 2 2 2 2 2 2 2 2 2 2 2 2 2 2 2 2 2 2 2 2 2 2 2 2 2 2
left_child=-1 2 10 11 5 6 -5 12 9 -7 15 -4 13 19 18 16 -2 -18 -11 22 -21 -14 -8 -13 27 -26 -6 -17 29 -3
right_child=1 28 3 4 26 8 7 -9 -10 14 -12 23 21 -15 -16 24 17 -19 -20 20 -22 -23 -24 -25 25 -27 -28 -29 -30 -31
leaf_value=-0.00022002208543782243 -0.0010597395451040939 -0.00020657445210708978 0.0050925087464169013 -0.0021148746089525764 -5.5119994536249184e-05 0.015167222491332464 0.0033025629489737401 -0.0019121608294274967 0.015465225119675911 0.0046194273211500221 0.0052106027072809152 -0.0043360643807682214 0.007071088452605491 -0.0010879408485968323 0.0011109731204452971 -0.00026732080856911887 0.011076577140816621 -0.0010978979058563711 0.0094463824020589102 -0.0014062869548797608 0.0069596800791180656 0.011694119667465037 0.0063544319362761892 -0.00055522481160113341 0.0077952290419489147 -0.0027321519021643328 -0.003428420162526891 -0.0032166159157482489 0.0026088025420904163 0.0020544342651602726
leaf_weight=9984 50 10326 22 38 90 21 34 30 21 34 34 20 47 34 21 671 28 30 34 20 23 22 363 162 20 25 20 22 21 31
leaf_count=9984 50 10326 22 38 90 21 34 30 21 34 34 20 47 34 21 671 28 30 34 20 23 22 363 162 20 25 20 22 21 31
internal_value=0 0.00017839 0.00217527 0.00376181 0.00473839 0.00553994 0.00485398 0.00531614 0.00873931 0.00745527 0.000271413 -0.000316826 0.0057155 0.00530359 0.0056356 7.29116e-05 0.00207611 0.00477943 0.0070329 0.00579748 0.00306853 0.0085451 0.00609306 -0.000970702 -0.00022024 0.00194668 -0.000668447 -0.000360949 -0.000194124 -0.000199807
internal_weight=0 12314 1936 1056 852 742 611 573 131 110 880 204 543 474 89 846 108 58 68 440 43 69 397 182 738 45 110 693 10378 10357
internal_count=22298 12314 1936 1056 852 742 611 573 131 110 880 204 543 474 89 846 108 58 68 440 43 69 397 182 738 45 110 693 10378 10357
shrinkage=0.05


Tree=42
num_leaves=31
num_cat=0
split_feature=27 27 30 30 21 27 3 21 30 19 21 6 25 24 30 19 8 6 22 30 15 27 17 21 20 21 3 17 27 1
split_gain=0.319588 3.24451 2.0534 2.41289 1.13487 1.54974 0.89415 0.537005 0.513953 0.505744 0.449593 0.55485 0.200448 0.199164 0.189625 0.18164 0.178229 0.176868 0.229461 0.252498 0.167537 0.165561 0.11643 0.112097 0.110888 0.0997934 0.0907737 0.0889326 0.344912 0.126686
threshold=0.32697800000000021 -0.083779999999999841 -2.1126450000000001 0.82933000000000023 0.53302250000000007 0.030899999999999931 1.8839000000000004e-05 1.39436 -0.63636000000000015 1.4755300000000002 0.042543150000000009 5.1611400000000007e-06 0.32322300000000009 -1.4364749999999999e-06 -0.68019999999999958 -0.042788049999999987 2.45509e-07 5.7216700000000004e-05 0.0023240750000000005 0.3275999999999995 -0.078674499999999981 0.063474999999999962 -0.15311499999999997 3.4887250000000005 3.0655850000000009e-05 1.6349200000000002 1.3608500000000002e-05 -0.17339299999999999 -0.20585514999999996 -15.501799999999998
decision_type=2 2 2 2 2 2 2 2 2 2 2 2 2 2 2 2 2 2 2 2 2 2 2 2 2 2 2 2 2 2
left_child=1 27 12 4 5 8 7 16 20 13 21 15 22 -5 -13 -12 -6 18 19 -10 -4 -7 -3 25 -15 -24 -20 28 29 -1
right_child=-2 2 3 9 6 10 -8 -9 17 -11 11 14 -14 24 -16 -17 -18 -19 26 -21 -22 -23 23 -25 -26 -27 -28 -29 -30 -31
leaf_value=0.0038916904455982152 -0.00021974594115037815 -0.0035751880642210104 0.0034723336598835885 0.0045797445949119723 0.012306746789254249 -0.0044304556320779601 0.00042040262371301651 0.017928751633950957 0.00571850502646753 0.0068625356643818892 0.0045791619478470899 -0.0023810634081582391 0.004068398038330286 -0.00031300683041561068 0.002858001196709199 0.011080289946957714 0.0057851007038896736 0.001798824776477855 0.0068119941991479959 0.00090939752629090999 -0.0026673659642692657 -0.0001168771282363042 -0.00049674532504553838 0.0031572006549686195 -0.0035100329964389576 -0.0036173377781071599 0.010552981964522793 -0.00021312809891155983 0.0060784773004275783 -0.00027915241530513752
leaf_weight=20 9498 33 20 20 20 26 20 27 464 26 22 31 23 419 39 21 22 29 34 29 25 154 501 20 29 27 31 10438 27 203
leaf_count=20 9498 33 20 20 20 26 20 27 464 26 22 31 23 419 39 21 22 29 34 29 25 154 501 20 29 27 31 10438 27 203
internal_value=0 0.000163058 0.00195383 0.00294051 0.0043365 0.00381765 0.00972912 0.0124273 0.00521114 7.50607e-05 0.000811897 0.00328386 -0.000509605 -0.000302021 0.000537844 0.00775413 0.00889065 0.00560592 0.00580378 0.00543562 6.13894e-05 -0.00073995 -0.000690834 -0.000517141 -0.000519957 -0.000656321 0.00859616 -0.000190807 0.000741139 9.49142e-05
internal_weight=0 12800 2112 1508 1014 925 89 69 632 494 293 113 604 468 70 43 42 587 558 493 45 180 581 548 448 528 65 10688 250 223
internal_count=22298 12800 2112 1508 1014 925 89 69 632 494 293 113 604 468 70 43 42 587 558 493 45 180 581 548 448 528 65 10688 250 223
shrinkage=0.05


Tree=43
num_leaves=31
num_cat=0
split_feature=28 27 30 31 19 28 1 7 21 18 27 16 26 30 27 30 25 14 28 5 1 23 0 17 21 13 4 21 10 25
split_gain=0.288706 2.93793 1.86103 2.19389 1.22258 1.33483 0.853294 0.855001 0.677052 0.623762 0.792902 0.683582 0.924362 0.504848 0.468202 0.417689 0.180959 0.179468 0.336405 0.176707 0.169367 0.167216 0.14155 0.105026 0.101209 0.100108 0.09484 0.090018 0.0836767 0.137103
threshold=-0.32555999999999991 -0.083779999999999841 -2.1126450000000001 -1.6763800000000006 1.9789900000000002 -0.10379000000000015 -5.8327899999999984 0.029608100000000002 0.60706450000000012 0.00034284900000000005 0.030899999999999931 9.9858350000000016 0.0007051440000000001 -0.46488999999999908 -0.027260000000000058 -0.71700499999999978 0.32322300000000009 -7.6355049999999993 -0.029991649999999908 0.00011629400000000001 -6.5513949999999994 0.00023460450000000003 -10.110999999999999 -0.15311499999999997 3.4887250000000005 -0.6068349999999999 -5.7860499999999993e-05 1.6349200000000002 -7.3552849999999995e-08 0.0018782100000000002
decision_type=2 2 2 2 2 2 2 2 2 2 2 2 2 2 2 2 2 2 2 2 2 2 2 2 2 2 2 2 2 2
left_child=-1 -2 16 -4 5 8 7 9 22 10 14 12 15 -14 21 -11 23 18 -17 -16 25 -7 -5 -3 27 -19 -20 -25 -28 -30
right_child=1 2 3 4 -6 6 -8 -9 -10 11 -12 -13 13 -15 19 17 -18 20 26 -21 -22 -23 -24 24 -26 -27 28 -29 29 -31
leaf_value=-0.00020874432679199103 -0.00018126674863734767 -0.0033964286401345759 -0.00045756337700974354 0.003622288074499617 0.015085800954451166 -0.0033954332939835942 -0.0040945107026750015 -0.004780701460549608 0.0083625155640766041 0.00027151165823279709 -0.0028930177368844553 -0.0022694810573011637 0.019745073765516281 0.0093440274042742594 0.0055450533292456293 0.011690025953337169 0.0038649778489185417 0.0050815968555980367 0.0092545922086746599 0.0013286947238224526 0.0079105951539848157 0.0029215053922962402 -0.00068033222173162445 -0.00047250520008237798 0.0029993405682034791 0.00013880968714753789 0.009019493944942952 -0.0034364708461065742 0.0063598112554802584 0.002143279214700063
leaf_weight=9504 10688 33 384 21 24 22 27 22 25 27 39 20 20 28 312 39 23 20 27 27 23 20 213 500 20 21 20 27 98 24
leaf_count=9504 10688 33 384 21 24 22 27 22 25 27 39 20 20 28 312 39 23 20 27 27 23 20 213 500 20 21 20 27 98 24
internal_value=0 0.000155065 0.00186196 0.00280341 0.00392246 0.00367778 0.00464946 0.00494129 0.000541391 0.00521306 0.00389722 0.00671891 0.00723698 0.0136778 0.00459229 0.006203 -0.00048464 0.00679179 0.00750421 0.00520924 0.00447642 -0.000387367 -0.0002942 -0.000657125 -0.000491866 0.00254993 0.00653825 -0.000624359 0.00602176 0.00553033
internal_weight=0 12794 2106 1503 1119 1095 836 809 259 787 420 367 347 48 381 299 603 272 208 339 64 42 234 580 547 41 169 527 142 122
internal_count=22298 12794 2106 1503 1119 1095 836 809 259 787 420 367 347 48 381 299 603 272 208 339 64 42 234 580 547 41 169 527 142 122
shrinkage=0.05


Tree=44
num_leaves=31
num_cat=0
split_feature=28 27 31 31 19 28 2 2 1 21 18 27 16 24 27 22 12 28 16 6 1 25 0 6 18 17 17 21 24 17
split_gain=0.260557 2.65148 1.67958 1.97998 1.10337 1.20469 0.782329 0.813871 0.697152 0.61104 0.519483 0.676676 0.485792 0.5892 0.329799 0.186783 0.168738 0.21592 0.204186 0.201561 0.196339 0.163315 0.127749 0.115724 0.103495 0.0947855 0.0991338 0.139335 0.0861932 0.0802616
threshold=-0.32555999999999991 -0.083779999999999841 2.112645000000001 -1.6763800000000006 1.9789900000000002 -0.10379000000000015 -1.1888699999999999 1.5488650000000004 -5.8327899999999984 0.60706450000000012 0.00034284900000000005 0.030899999999999931 9.6632300000000004 8.8817350000000014e-07 -0.041862500000000073 -0.016336449999999999 3.7860550000000006e-07 -0.029991649999999908 0.84550650000000005 9.5393550000000008e-06 -15.200249999999999 0.32322300000000009 -10.110999999999999 2.5087400000000003e-05 0.00032306000000000007 -0.15311499999999997 0.17157850000000002 2.1332350000000004 -4.7267849999999993e-07 -0.17339299999999999
decision_type=2 2 2 2 2 2 2 2 2 2 2 2 2 2 2 2 2 2 2 2 2 2 2 2 2 2 2 2 2 2
left_child=-1 29 3 -3 5 9 -7 8 10 22 11 14 13 15 -8 -12 19 18 -18 -17 -19 25 -5 -21 -16 -4 27 -27 -22 -2
right_child=1 2 21 4 -6 6 7 -9 -10 -11 12 -13 -14 -15 24 16 17 20 -20 23 28 -23 -24 -25 -26 26 -28 -29 -30 -31
leaf_value=-0.00019830711091944916 0.00071314538833685225 -0.00043468520487598047 -0.0032266072622915646 0.0034411736320526828 0.014331510538856188 -0.0027933469680849359 -0.0014351124287627283 -0.0030713771564478522 -0.0035066980208047546 0.0079443896804004908 0.01124533479101956 -0.0035513393292031081 -0.00083233469165861602 0.014417163917544083 0.0052367893758264198 -6.2878420576453211e-05 0.0066278025228530173 0.010270697727799417 0.013686924853495189 0.0082357830296342204 0.0027327958935832917 0.0036717292447776897 -0.00064631561029832507 0.0037448707269504668 0.0016153992996329352 -0.00048866886031574393 -0.0036801113696444941 0.0037666844791965563 0.006024614453379964 -0.00019340835309824344
leaf_weight=9504 250 384 33 21 24 36 21 32 23 25 20 27 20 26 326 20 20 25 21 26 24 23 213 32 21 504 23 20 116 10438
leaf_count=9504 250 384 33 21 24 36 21 32 23 25 20 27 20 26 326 20 20 25 21 26 24 23 213 32 21 504 23 20 116 10438
internal_value=0 0.000147312 0.00176886 0.00266324 0.00372633 0.00349389 0.00441699 0.00474145 0.00506699 0.000514321 0.00533168 0.00408884 0.0067343 0.00719289 0.0046494 0.00657502 0.00624613 0.00699607 0.0102435 0.0042655 0.00618915 -0.000460408 -0.00027949 0.00575804 0.00501763 -0.000624269 -0.000467272 -0.000326251 0.0054603 -0.000172203
internal_weight=0 12794 2106 1503 1119 1095 836 800 768 259 745 395 350 330 368 304 284 206 41 78 165 603 234 58 347 580 547 524 140 10688
internal_count=22298 12794 2106 1503 1119 1095 836 800 768 259 745 395 350 330 368 304 284 206 41 78 165 603 234 58 347 580 547 524 140 10688
shrinkage=0.05


Tree=45
num_leaves=31
num_cat=0
split_feature=27 27 27 31 31 21 31 31 31 21 15 5 27 17 1 6 31 19 12 10 31 17 24 16 18 21 27 27 16 7
split_gain=0.236638 2.47088 1.56275 1.11283 1.00957 0.49297 0.622199 0.670873 0.522537 0.323283 0.299423 0.289626 0.261294 0.24571 0.20076 0.223674 0.218013 0.19633 0.366339 0.628588 0.154673 0.128456 0.108177 0.105795 0.0989219 0.0979469 0.250236 0.220773 0.0704632 0.0698981
threshold=-0.28372000000000014 0.084315000000000154 -0.041862500000000073 1.9698450000000005 -2.2886350000000002 0.06000020000000001 -0.46599999999999969 0.3482650000000001 -0.51779999999999926 0.025438750000000006 -0.98443649999999983 0.00011629400000000001 0.018490999999999928 -0.073180699999999974 -16.595249999999997 2.7785150000000003e-05 0.30846500000000049 -0.31571299999999997 0.00028386200000000007 2.2046900000000001e-07 0.50901000000000007 -0.22446549999999998 3.0549150000000006e-08 5.648435000000001 0.0051459650000000015 0.0060763450000000012 0.018490999999999928 0.010674999999999992 6.1058450000000013 0.0046168100000000016
decision_type=2 2 2 2 2 2 2 2 2 2 2 2 2 2 2 2 2 2 2 2 2 2 2 2 2 2 2 2 2 2
left_child=-1 2 10 4 28 6 -6 11 12 -9 -2 25 -7 -5 -10 20 -17 18 19 -12 22 -19 -16 -23 -15 27 -27 -8 -4 -20
right_child=1 -3 3 13 5 8 7 9 14 -11 17 -13 -14 24 15 16 -18 21 29 -21 -22 23 -24 -25 -26 26 -28 -29 -30 -31
leaf_value=-0.0001808948186769554 0.0049781623285525718 -0.00015924205027359359 3.9123684918094011e-06 0.0047572399103294385 -0.0026863622782406713 0.0073778736560295034 0.0049799862896141257 -0.0045776760848821136 0.0099801668524742131 0.0033013923296138 0.00080768577100196338 -0.00018816146033781548 0.014755964186042548 -0.00042753018002977231 0.006266753293573857 0.0046111703519859625 -0.0019869847672539655 0.003717996841296554 0.00058468227332923565 0.011978776821651991 0.0087272109929472218 -0.00023701281436981517 0.002700510690290783 -0.0037582992099818185 -0.0041547028825152672 0.0051322240005188353 0.0098427768214605759 -0.00068502562741438555 -0.0032771246224001516 -0.0031764398395482986
leaf_weight=9984 32 10378 90 22 36 24 95 30 20 23 34 27 24 162 50 31 21 20 30 20 34 701 37 22 20 237 32 21 20 21
leaf_count=9984 32 10378 90 22 36 24 95 30 20 23 34 27 24 162 50 31 21 20 30 20 34 701 37 22 20 237 32 21 20 21
internal_value=0 0.000146667 0.0017865 0.0030833 0.00387753 0.00454023 0.00364637 0.00413665 0.00639841 -0.00115846 0.000230346 0.00481781 0.0110669 -0.000233797 0.00523733 0.00468903 0.00194653 5.11833e-05 0.00207497 0.00494513 0.00586762 -0.000234816 0.00475008 -0.000344161 -0.00083711 0.00516888 0.00569259 0.00395442 -0.00059264 -0.000964015
internal_weight=0 12314 1936 1056 852 742 501 465 241 53 880 412 48 204 193 173 52 848 105 54 121 743 87 723 182 385 269 116 110 51
internal_count=22298 12314 1936 1056 852 742 501 465 241 53 880 412 48 204 193 173 52 848 105 54 121 743 87 723 182 385 269 116 110 51
shrinkage=0.05


Tree=46
num_leaves=31
num_cat=0
split_feature=28 27 30 31 19 28 1 7 21 21 30 30 16 18 30 30 5 25 28 7 0 17 21 15 11 24 16 21 1 20
split_gain=0.215696 2.18345 1.39803 1.64514 1.00845 0.968637 0.653367 0.674672 0.551463 0.487803 0.842811 0.604029 0.545544 0.654428 0.555867 0.402602 0.195047 0.141493 0.139605 0.175665 0.115293 0.0904278 0.0870262 0.086252 0.476704 0.0852872 0.0843504 0.0766512 0.0751924 0.178975
threshold=-0.32555999999999991 -0.083779999999999841 -2.1126450000000001 -1.6763800000000006 1.9789900000000002 -0.10379000000000015 -5.8327899999999984 0.029608100000000002 0.60706450000000012 0.026757850000000003 -0.34826499999999999 0.24047499999999958 9.9858350000000016 0.0028365400000000007 -0.46488999999999908 -0.71700499999999978 9.6916700000000013e-05 0.32322300000000009 -0.029991649999999908 0.0010120500000000002 -10.110999999999999 -0.15311499999999997 3.4887250000000005 -0.16764749999999998 -1.2859749999999998e-06 -3.3801199999999994e-07 0.71796450000000012 1.6349200000000002 -8.5453299999999981 2.8403000000000002e-05
decision_type=2 2 2 2 2 2 2 2 2 2 2 2 2 2 2 2 2 2 2 2 2 2 2 2 2 2 2 2 2 2
left_child=-1 -2 17 28 5 8 7 9 20 10 -7 16 13 15 -15 -11 26 21 19 -17 -5 -3 27 24 25 -20 -12 -23 29 -4
right_child=1 2 3 4 -6 6 -8 -9 -10 12 11 -13 -14 14 -16 18 -18 -19 23 -21 -22 22 -24 -25 -26 -27 -28 -29 -30 -31
leaf_value=-0.0001804296525813281 -0.00015591571686020947 -0.0031226652512101063 -0.00024349117940741856 0.0032770771156286913 0.013529272618082663 -0.0042888767099665366 -0.0036552889936569116 -0.0043846913238997911 0.0075551323629915726 -0.00053152461467241801 0.0046938964680874303 -0.0023835642925298414 -0.0023279086686670779 0.017636212227599962 0.0071004375575050224 0.011604615681889384 -3.1989316145579023e-05 0.0034178457020417503 0.008349764101207257 0.005419125295399378 -0.00060603772781946715 -0.00041024002211488553 0.0028098580217920245 0.006248920798922579 -0.0026383272930979732 0.0049718882737530244 0.0076743421216423696 -0.003145306461643755 0.0025065931580251174 -0.0043384231977237004
leaf_weight=9504 10688 33 334 21 24 34 27 22 25 27 273 34 20 21 31 22 21 23 25 24 213 500 20 135 20 74 26 27 21 29
leaf_count=9504 10688 33 334 21 24 34 27 22 25 27 273 34 20 21 31 22 21 23 25 24 213 500 20 135 20 74 26 27 21 29
internal_value=0 0.000134032 0.00160552 0.0024215 0.00339054 0.00316832 0.00399606 0.00425142 0.000496567 0.00449283 0.00323049 0.00395269 0.00572037 0.00614508 0.0113553 0.00531655 0.00462592 -0.000428331 0.00584287 0.0083774 -0.000257553 -0.000580852 -0.000427507 0.00538386 0.0044025 0.00582489 0.00495307 -0.000550367 -0.000402349 -0.000570635
internal_weight=0 12794 2106 1503 1119 1095 836 809 259 787 388 354 399 379 52 327 320 603 300 46 234 580 547 254 119 99 299 527 384 363
internal_count=22298 12794 2106 1503 1119 1095 836 809 259 787 388 354 399 379 52 327 320 603 300 46 234 580 547 254 119 99 299 527 384 363
shrinkage=0.05


Tree=47
num_leaves=31
num_cat=0
split_feature=27 27 27 30 30 21 30 8 30 17 30 18 27 11 30 19 4 16 2 17 26 10 25 11 22 18 11 21 16 19
split_gain=0.195045 1.85662 1.43869 0.905988 0.81408 0.460279 0.568829 0.401715 0.330925 0.300848 0.684695 0.2414 0.561494 0.194046 0.163532 0.153296 0.412485 0.151705 0.14563 0.144159 0.105 0.0994481 0.0919738 0.247866 0.0909331 0.0903863 0.0775045 0.0751 0.059081 0.0582854
threshold=-0.33568149999999991 0.084315000000000154 -0.041862500000000073 -2.1126450000000001 2.3386650000000002 0.27838100000000005 -0.71700499999999978 1.3972150000000004e-06 1.1742300000000008 -0.17339299999999999 -1.5240599999999997 0.00034284900000000005 0.030899999999999931 -5.4468949999999993e-05 0.27979999999999988 -1.0971999999999997 5.2551850000000004e-05 9.0724500000000017 0.17416300000000004 -0.073180699999999974 4.8987800000000006e-05 6.8296000000000013e-07 8.9669650000000017e-05 -3.7437449999999995e-07 -0.0024835499999999997 0.0051459650000000015 2.5638200000000005e-06 0.97977400000000003 6.1058450000000013 -0.31571299999999997
decision_type=2 2 2 2 2 2 2 2 2 2 2 2 2 2 2 2 2 2 2 2 2 2 2 2 2 2 2 2 2 2
left_child=-1 2 9 19 5 6 21 13 11 10 -2 12 18 -7 24 16 -11 27 22 -4 -16 -5 -8 -24 26 -21 -13 29 -6 -17
right_child=1 -3 3 4 28 7 8 -9 -10 15 -12 14 -14 -15 20 17 -18 -19 -20 25 -22 -23 23 -25 -26 -27 -28 -29 -30 -31
leaf_value=-0.0001668766344753639 -0.0021140680706594138 -0.00014396214473731225 0.0036340632642220174 -0.0030092915938108823 1.5891294978145098e-05 0.0068452024211486176 0.0048292466231674219 0.0032057477364076242 -0.0020942317660748297 -0.00067712968189476272 0.0090600738879935503 0.004826378560839938 -0.0038753240785202557 0.013203370680899494 0.0059625319416888737 0.0013108969689624031 0.0082786187954479833 -0.0041820886580313998 -0.00011576838791370393 -0.00034195222939512949 0.010905394986981438 0.0014589239750057461 0.0045054383228222529 -0.0010814029723405839 0.0056129791566099114 -0.003913525587995537 0.00068627873435616498 0.0023482538290291784 -0.0029884831432718788 -0.00026672624890215633
leaf_weight=9808 26 10378 21 33 90 21 231 31 21 36 29 26 24 28 22 63 20 23 20 155 21 20 75 27 130 20 20 31 20 828
leaf_count=9808 26 10378 21 33 90 21 231 31 21 36 29 26 24 28 22 63 20 23 20 155 21 20 75 27 130 20 20 31 20 828
internal_value=0 0.000131043 0.00148237 0.00278736 0.00348652 0.00407566 0.00364765 0.00766027 0.00407464 0.000177384 0.00377775 0.004292 0.00352505 0.0104784 0.00561227 -2.04388e-05 0.00252135 -0.000171063 0.00402819 -0.000280397 0.00837649 -0.00132317 0.00427707 0.00302657 0.00493692 -0.000750132 0.00302634 -7.10054e-05 -0.000530359 -0.000155177
internal_weight=0 12490 2112 1056 860 750 670 80 617 1056 55 596 377 49 219 1001 56 945 353 196 43 53 333 102 176 175 46 922 110 891
internal_count=22298 12490 2112 1056 860 750 670 80 617 1056 55 596 377 49 219 1001 56 945 353 196 43 53 333 102 176 175 46 922 110 891
shrinkage=0.05


Tree=48
num_leaves=31
num_cat=0
split_feature=28 27 30 31 19 28 10 2 18 1 18 27 19 18 30 12 30 30 28 25 8 3 0 2 25 20 17 12 17 24
split_gain=0.178659 1.79941 1.16506 1.37014 0.925172 0.778533 0.560208 0.579915 0.487715 0.484532 0.422045 0.518591 0.365188 0.445143 0.262107 0.255568 0.252046 0.171281 0.170263 0.126025 0.101363 0.105547 0.0984208 0.0923026 0.19809 0.0865523 0.0849151 0.0824904 0.0816744 0.0936976
threshold=-0.32555999999999991 -0.083779999999999841 -2.1126450000000001 -1.6763800000000006 1.9789900000000002 -0.10379000000000015 -4.4627499999999989e-06 1.5488650000000004 0.0095080050000000017 -5.8327899999999984 0.00034284900000000005 0.030899999999999931 -1.2061999999999997 0.0028365400000000007 -0.34826499999999999 2.1170350000000003e-05 0.3275999999999995 -0.71700499999999978 -0.029991649999999908 0.32322300000000009 -1.9480499999999995e-06 1.9241650000000002e-05 -10.110999999999999 0.17917200000000003 -0.0013856299999999999 8.4148900000000007e-06 -0.15311499999999997 0.00015860700000000004 0.17157850000000002 2.0620900000000007e-06
decision_type=2 2 2 2 2 2 2 2 2 2 2 2 2 2 2 2 2 2 2 2 2 2 2 2 2 2 2 2 2 2
left_child=-1 -2 19 -4 5 8 -7 9 22 10 11 14 -12 17 -8 -15 -16 -14 27 26 -20 23 -5 25 -25 -22 -3 -19 29 -28
right_child=1 2 3 4 -6 6 7 -9 -10 -11 12 -13 13 15 16 -17 -18 18 20 -21 21 -23 -24 24 -26 -27 28 -29 -30 -31
leaf_value=-0.00016421006438008972 -0.00014123347114089493 -0.0030059191772262711 -0.00037433726416603955 0.0031204213330056521 0.012798138017145298 -0.003211492996618698 -0.0014238192553065071 -0.0029596266198980933 0.0079793825931847098 -0.0030239373644808838 -0.00063012959435582161 -0.0030876820353053823 0.00092987383970813376 0.0065988810373131526 0.0044181440682306118 0.013987969223409891 -0.0013629503035917879 0.0060885327123105532 0.0083525267616052935 0.0032310054435030276 0.0057496599051668207 0.0073263118625618521 -0.00046363229194458164 0.0054388719483871358 -0.0014365600422024728 0.0028575693003871049 -0.00041585542811277952 0.010436411174790314 -0.003310428869039954 0.0027208930673368742
leaf_weight=9504 10688 33 384 21 24 29 23 30 20 23 22 30 21 22 329 25 20 20 21 23 86 32 218 22 20 37 499 24 23 25
leaf_count=9504 10688 33 384 21 24 29 23 30 20 23 22 30 21 22 329 25 20 20 21 23 86 32 218 22 20 37 499 24 23 25
internal_value=0 0.000121983 0.00145781 0.00220271 0.00308705 0.00287421 0.00361628 0.00386164 0.000478937 0.00412501 0.00434308 0.00323615 0.00560725 0.00602308 0.00374614 0.0105292 0.00408685 0.00527471 0.00562296 -0.000398858 0.00505032 0.00469831 -0.000148715 0.00418864 0.00216486 0.00487968 -0.000542801 0.0084601 -0.000394204 -0.000266201
internal_weight=0 12794 2106 1503 1119 1095 836 807 259 777 754 402 352 330 372 47 349 283 262 603 218 197 239 165 42 123 580 44 547 524
internal_count=22298 12794 2106 1503 1119 1095 836 807 259 777 754 402 352 330 372 47 349 283 262 603 218 197 239 165 42 123 580 44 547 524
shrinkage=0.05


Tree=49
num_leaves=31
num_cat=0
split_feature=28 27 30 30 21 30 2 21 17 10 4 28 24 15 11 21 25 18 27 11 28 14 23 25 28 2 16 15 22 6
split_gain=0.161543 1.8733 1.05178 1.21396 1.23715 0.59571 0.605039 0.389863 0.582557 0.345648 0.379538 0.296458 0.168984 0.172334 1.21385 0.168681 0.164277 0.141698 0.27951 0.140877 0.218453 0.131292 0.126277 0.11782 0.107719 0.0829972 0.0757729 0.0991741 0.0661449 0.061263
threshold=-0.25082149999999998 -0.041862500000000073 -3.1614600000000004 1.6140899999999998 2.8705050000000001 -0.58941499999999969 1.5488650000000004 0.36592150000000007 -0.044990649999999993 -4.4627499999999989e-06 -5.9895549999999993e-05 -0.12719800000000001 -8.271119999999999e-07 0.11688850000000002 1.6627300000000002e-06 0.26229750000000007 -0.16036499999999995 0.00027494950000000003 0.018490999999999928 -1.9875049999999999e-07 -0.029991649999999908 -5.5744999999999996 -0.0024580449999999994 -0.0010245199999999999 -0.029991649999999908 -0.078387699999999991 6.5020100000000012 0.29825050000000003 0.018921700000000003 -8.4496949999999994e-06
decision_type=2 2 2 2 2 2 2 2 2 2 2 2 2 2 2 2 2 2 2 2 2 2 2 2 2 2 2 2 2 2
left_child=-1 21 16 4 5 7 9 22 -9 -7 15 25 -13 14 17 -11 -3 18 -14 -15 -21 -2 -4 -24 -19 -12 27 -5 -18 -25
right_child=1 2 3 26 -6 6 -8 8 -10 10 11 12 13 19 -16 -17 28 24 -20 20 -22 -23 23 29 -26 -27 -28 -29 -30 -31
leaf_value=-0.00015242430667379258 -0.00012876239827759546 -0.0045220672367857059 -0.003771595142588131 -0.00047455704256401781 0.013344794421874244 -0.0024518907768651846 -0.0030582015076299398 -0.001380090273160022 0.010174240123402949 0.0058839243759090699 0.0024127782101277264 0.0081479706879084308 0.0037865355791686811 0.0023635516531373326 -0.0087419200502336022 0.011811990246642382 -0.00015360569815183776 0.0082789731085843709 -0.0018119564885273574 0.010637115846038797 0.0050323933334951122 0.0035734714396918814 0.0037807233347484726 0.0016716670973466769 0.0045559554488635535 -0.0018044626556469928 -0.0026081901773609018 0.0031931126085692086 -0.0023934281280899826 -0.00082603402989985572
leaf_weight=9768 10840 26 23 235 29 21 33 20 24 30 20 24 206 38 20 20 302 24 25 20 133 24 20 31 102 28 37 20 37 118
leaf_count=9768 10840 26 23 235 29 21 33 20 24 30 20 24 206 38 20 20 302 24 25 20 133 24 20 31 102 28 37 20 37 118
internal_value=0 0.000118825 0.00168001 0.00234544 0.00316708 0.0028659 0.0035602 0.000677108 0.00492227 0.00386738 0.00405971 0.00373194 0.00403836 0.00386471 0.00324481 0.00825515 -0.000691834 0.00391633 0.00318064 0.0050883 0.00576504 -0.000120584 -0.000295742 0.000177303 0.0052651 -4.7279e-05 -0.000493704 -0.000186897 -0.00039807 -0.000306378
internal_weight=0 12530 1666 1301 1009 980 744 236 44 711 690 640 592 568 377 50 365 357 231 191 153 10864 192 169 126 48 292 255 339 149
internal_count=22298 12530 1666 1301 1009 980 744 236 44 711 690 640 592 568 377 50 365 357 231 191 153 10864 192 169 126 48 292 255 339 149
shrinkage=0.05


Tree=50
num_leaves=31
num_cat=0
split_feature=28 29 28 30 30 21 4 30 1 21 10 7 9 23 23 14 28 28 23 17 1 17 11 30 6 3 23 16 18 12
split_gain=0.148093 1.38395 1.0478 0.611504 0.553792 0.354035 0.403607 0.349583 0.326019 0.789227 0.186131 0.18027 0.153408 0.335621 0.234767 0.1513 0.305758 0.144186 0.23199 0.135305 0.128711 0.109227 0.206888 0.0987843 0.0958454 0.0869053 0.260029 0.0937971 0.0724463 0.072146
threshold=0.33568150000000002 0.084315000000000154 0.027260000000000065 -1.9291949999999998 2.3386650000000002 0.27838100000000005 3.0187750000000002e-05 -0.71700499999999978 -16.595249999999997 0.12404950000000002 4.9274800000000005e-08 0.0044842550000000004 1.0227900000000003e-07 0.064807950000000017 0.0082214700000000016 -8.2837599999999991 -0.029991649999999908 0.083779999999999868 0.00027802350000000008 -0.070602499999999985 -8.5020049999999987 0.0059509700000000007 -2.2007849999999998e-07 0.27979999999999988 2.5735000000000003e-05 1.1096800000000002e-05 -0.015378199999999998 10.669550000000003 0.0010981150000000002 0.00026713450000000004
decision_type=2 2 2 2 2 2 2 2 2 2 2 2 2 2 2 2 2 2 2 2 2 2 2 2 2 2 2 2 2 2
left_child=1 2 3 19 5 7 10 29 9 -4 -7 15 14 17 25 23 -17 18 -14 -1 -16 -18 -23 -9 -20 26 -10 -27 -21 -5
right_child=-2 -3 8 4 -6 6 -8 11 12 -11 -12 -13 13 -15 20 16 21 -19 24 28 -22 22 -24 -25 -26 27 -28 -29 -30 -31
leaf_value=0.0036133562713595371 -0.00014541047757243541 -0.00012324550638728249 -0.00083199038495114378 -0.0029212531243198708 -0.00042967418047162344 0.0065867355809314174 0.0026241547864628957 0.004165952019236259 0.0063774443190777672 0.011907740640890552 0.013251390651037748 -0.00062396089639514692 -0.00075734065633083073 0.0056095106857052693 -0.0049341339163313539 -0.0019699114085785278 0.0040647620532621191 -0.00010398739890371107 0.0055146691589377447 4.1994809269619347e-05 -0.0012064166196515751 0.0049655926449654192 -0.00095938796396641171 0.0069120391222991448 0.001257368401857093 -0.00018688004204420704 6.8104351717675245e-05 -0.0036179497370973143 -0.0023032195853723335 0.0010917270755661387
leaf_weight=21 9808 10378 31 24 98 20 32 237 20 20 22 25 43 33 39 29 184 345 39 110 57 26 34 38 20 387 89 21 47 21
leaf_count=21 9808 10378 31 24 98 20 32 237 20 20 22 25 43 33 39 29 184 345 39 110 57 26 34 38 20 387 89 21 47 21
internal_value=0 0.000114186 0.00128088 0.00249159 0.00308811 0.0035863 0.00685457 0.00319495 0.000256441 0.00416398 0.0100777 0.00352821 7.41132e-05 0.000743525 -0.000450059 0.00371763 0.00288379 0.000384291 0.00203582 -0.000155907 -0.0027208 0.00346067 0.0016081 0.00454541 0.00407152 -2.84127e-05 0.00122578 -0.000363479 -0.000660076 -0.00104853
internal_weight=0 12490 2112 968 790 692 74 618 1144 51 42 573 1093 480 613 548 273 447 102 178 96 244 60 275 59 517 109 408 157 45
internal_count=22298 12490 2112 968 790 692 74 618 1144 51 42 573 1093 480 613 548 273 447 102 178 96 244 60 275 59 517 109 408 157 45
shrinkage=0.05


Tree=51
num_leaves=31
num_cat=0
split_feature=28 27 30 30 21 3 27 9 23 19 10 30 12 28 26 7 4 2 8 30 12 20 21 31 21 12 0 7 20 20
split_gain=0.134006 1.34085 0.887824 1.04026 0.9538 0.967384 0.73769 0.730614 0.983957 0.531631 0.400339 0.200027 0.194932 0.205108 0.546849 0.341266 0.385142 0.186221 0.150208 0.14932 0.133066 0.132288 0.11779 0.694201 0.115495 0.109944 0.105996 0.0730853 0.0900424 0.0981644
threshold=-0.32555999999999991 -0.083779999999999841 -2.1126450000000001 2.2731550000000005 0.53302250000000007 2.1315500000000006e-05 0.030899999999999931 7.7157650000000008e-06 0.041712000000000006 0.47746750000000004 -4.4627499999999989e-06 -1.1536200000000003 3.5905650000000004e-09 -0.10379000000000015 6.3425200000000012e-06 0.0021353350000000008 4.956455000000001e-06 0.61727300000000007 -3.0249799999999997e-06 0.72393500000000011 0.00036554500000000005 2.8403000000000002e-05 3.4887250000000005 8.3688950000000002 1.39436 3.3285700000000008e-08 11.327550000000002 0.0023823050000000004 -1.8687499999999997e-05 -6.6264199999999995e-06
decision_type=2 2 2 2 2 2 2 2 2 2 2 2 2 2 2 2 2 2 2 2 2 2 2 2 2 2 2 2 2 2
left_child=-1 -2 22 4 6 7 10 8 9 -6 -4 -12 -8 25 20 16 -16 18 -13 26 -15 -5 24 -24 -3 -14 27 28 -20 -30
right_child=1 2 3 21 5 -7 12 -9 -10 -11 11 17 13 14 15 -17 -18 -19 19 -21 -22 -23 23 -25 -26 -27 -28 -29 29 -31
leaf_value=-0.00014221606855300588 -0.00012157015768819409 -0.00038063906475822569 -0.0038274048065068201 -0.00029852171068609845 0.0065125755995752354 -0.0030954336747527123 -0.0041676951134418652 0.017235650485824972 -0.0016642062303920586 0.016968551259487871 -0.0014454051101070254 0.0074815837591886529 0.0029383991236010426 -0.0052622319548390811 0.0034097542961327625 0.00048172799468939676 0.012250220377675513 -0.00080398829013574871 0.00072543489187955855 -0.00061588104207268256 0.00050547073449706663 -0.0041544109291862695 0.0082044575635033361 -0.0032044289757808052 -0.0032037055286099746 -0.00049731731043808772 0.00019412136503628322 0.0058712868089787667 0.0054635616714755701 0.0034911745813358819
leaf_weight=9504 10688 510 20 304 31 20 22 21 24 20 21 25 26 20 28 29 22 24 25 21 20 24 24 30 39 223 21 40 75 397
leaf_count=9504 10688 510 20 304 31 20 22 21 24 20 21 25 26 20 28 29 22 24 25 21 20 24 24 30 39 223 21 40 75 397
internal_value=0 0.000105645 0.00125877 0.00190902 0.00260401 0.00690828 0.00213254 0.00899238 0.00668427 0.010613 0.00314011 0.00335483 0.000404154 0.000677471 0.00238498 0.00479681 0.00729956 0.00351535 0.00368698 0.00352313 -0.00237838 -0.00058066 -0.000362017 0.00186619 -0.000581185 -0.000138568 0.0036789 0.00381518 0.0036497 0.00380458
internal_weight=0 12794 2106 1503 1175 116 1059 96 75 51 669 649 390 368 119 79 50 628 604 579 40 328 603 54 549 249 558 537 497 472
internal_count=22298 12794 2106 1503 1175 116 1059 96 75 51 669 649 390 368 119 79 50 628 604 579 40 328 603 54 549 249 558 537 497 472
shrinkage=0.05


Tree=52
num_leaves=31
num_cat=0
split_feature=27 27 27 30 30 24 30 21 1 21 30 4 4 4 18 6 5 18 17 19 10 16 12 27 17 7 27 21 30 6
split_gain=0.122151 1.13163 0.845746 0.495334 0.447105 0.42045 0.330949 0.317884 0.288921 0.696311 0.252125 0.210934 0.311565 0.17892 0.164634 0.193159 0.237809 0.140024 0.195096 0.154049 0.341 0.139093 0.126876 0.11656 0.115706 0.085739 0.127989 0.246815 0.318865 0.325494
threshold=-0.33568149999999991 0.084315000000000154 -0.027260000000000058 -1.9291949999999998 2.3386650000000002 1.1217050000000001e-07 -0.34826499999999999 0.037303600000000006 -16.595249999999997 0.12404950000000002 0.41470999999999997 3.0187750000000002e-05 5.0659850000000009e-05 -1.6621399999999996e-05 0.0018060250000000004 3.0811150000000004e-05 0.00011629400000000001 0.033914050000000008 -0.22446549999999998 -1.2061999999999997 7.4237800000000001e-07 9.6632300000000004 5.5577300000000006e-06 0.030899999999999931 -0.070602499999999985 0.0046168100000000016 -0.083779999999999841 0.022392600000000002 -1.1536200000000003 2.5735000000000003e-05
decision_type=2 2 2 2 2 2 2 2 2 2 2 2 2 2 2 2 2 2 2 2 2 2 2 2 2 2 2 2 2 2
left_child=-1 2 8 24 5 6 7 -5 9 -2 11 13 -13 -7 15 23 -17 18 -10 20 -20 25 -9 -8 -4 26 -21 -28 -29 -30
right_child=1 -3 3 4 -6 10 14 22 17 -11 -12 12 -14 -15 -16 16 -18 -19 19 21 -22 -23 -24 -25 -26 -27 27 28 29 -31
leaf_value=-0.00013206144696542899 -0.00077585085941058016 -0.00011099619048274387 0.0033492443889502157 -0.0038954766174512248 -0.00037752608000954179 0.0045951667616868181 0.0035748050927834167 0.0051678351401774729 0.0037271469025998505 0.011190472221933305 0.01099217576906085 -0.0019737181423062629 0.0062639834514508653 0.010168538934279544 0.00701746072467918 0.0028777267941198239 -0.0034348828468937428 -0.003361261633208728 -0.001543059597897809 -0.00011308486060547792 0.0076900286530144513 -0.0042189358195173559 -3.8435622525867078e-05 0.00028203850539786551 -0.00060258920581705106 -0.00083959454089451281 -0.0013138383190055591 -0.00041046373805088204 0.0069032484155076628 -0.0006024450180120767
leaf_weight=9808 31 10378 21 35 98 36 367 22 37 20 20 22 24 24 26 37 25 29 20 556 20 20 25 29 157 234 56 49 52 20
leaf_count=9808 31 10378 21 35 98 36 367 22 37 20 20 22 24 24 26 37 25 29 20 556 20 20 25 29 157 234 56 49 52 20
internal_value=0 0.000103704 0.0011587 0.00224642 0.0027833 0.00323094 0.00264943 -0.000287929 0.00023832 0.00391682 0.00584308 0.00487155 0.00232421 0.00682452 0.00314709 0.00292737 0.00033232 6.66794e-05 0.00016011 3.15995e-05 0.00307348 -9.16785e-05 0.00239854 0.00333367 -0.000136362 -6.3164e-06 0.000259696 0.00143069 0.00270089 0.00481833
internal_weight=0 12490 2112 968 790 692 566 82 1144 51 126 106 46 60 484 458 62 1093 1064 1027 40 987 47 396 178 967 733 177 121 72
internal_count=22298 12490 2112 968 790 692 566 82 1144 51 126 106 46 60 484 458 62 1093 1064 1027 40 987 47 396 178 967 733 177 121 72
shrinkage=0.05


Tree=53
num_leaves=31
num_cat=0
split_feature=28 27 31 31 21 3 27 31 27 19 21 19 12 20 31 22 24 9 21 21 28 19 0 18 16 27 21 27 31 21
split_gain=0.111208 1.09806 0.73581 0.87382 0.711696 0.974174 1.14481 0.575132 0.304686 0.289438 0.271565 0.221765 0.270627 0.227744 0.160967 0.148244 0.222561 0.137868 0.109236 0.188489 0.161468 0.194059 0.125847 0.10409 0.139798 0.0965028 0.0895176 0.269803 0.305079 0.135244
threshold=-0.32555999999999991 -0.083779999999999841 2.112645000000001 -0.46599999999999969 0.53302250000000007 1.5522700000000003e-05 0.084315000000000154 0.3482650000000001 0.12853499999999998 1.4146650000000001 0.037303600000000006 0.16146950000000002 8.9485850000000012e-07 1.6102050000000003e-05 0.717005 -0.050505349999999991 -1.5535299999999998e-06 -4.2742899999999992e-06 0.0060763450000000012 0.0054456350000000008 -0.029991649999999908 -0.010245799999999998 8.9380700000000015 0.044078700000000005 9.6632300000000004 -0.041862500000000073 0.06000020000000001 0.084315000000000154 -1.5652499999999996 0.052139300000000006
decision_type=2 2 2 2 2 2 2 2 2 2 2 2 2 2 2 2 2 2 2 2 2 2 2 2 2 2 2 2 2 2
left_child=-1 -2 3 9 7 6 -6 8 17 15 14 12 -12 -14 -9 -3 -17 -5 19 22 21 -20 -19 24 -4 -22 29 28 -28 -18
right_child=1 2 23 4 5 -7 -8 10 -10 -11 11 -13 13 -15 -16 16 26 18 20 -21 25 -23 -24 -25 -26 -27 27 -29 -30 -31
leaf_value=-0.00012955545823184453 -0.00010937759696205403 -0.0041056828128851275 -0.00029294922863900625 -0.00039352836876945652 0.0043393629544880245 -0.00016363376551972969 0.019653213868403567 -0.0041187186896914267 -0.00092171703793362473 0.004882573201170852 0.0070019676568335854 -0.0022975667482872573 -0.00081813815168272925 0.0056401021429337561 -0.00023129298913868537 0.0050058830121997751 -0.00028954778899526579 0.0022178548284702833 0.0033972939586965367 -0.0021964728925377131 0.0065588229407484711 0.01027912461487133 0.0065613582464201115 0.0027589309888963517 -0.0037984808941837404 0.0034024694452336637 -0.00075478685041027217 -0.0013806426121542852 0.0062353159577862643 -0.004421384533080051
leaf_weight=9504 10688 22 547 23 26 28 23 37 44 31 30 24 43 20 95 22 348 81 20 20 26 21 21 26 30 353 27 60 37 21
leaf_count=9504 10688 22 547 23 26 28 23 37 44 31 30 24 43 20 95 22 348 81 20 20 26 21 21 26 30 353 27 60 37 21
internal_value=0 9.624e-05 0.00113975 0.00173173 0.00267139 0.00727618 0.0115275 0.00225814 0.00308589 0.000184932 0.000233631 0.00198752 0.00309335 0.0012321 -0.00132095 -8.6254e-05 8.54497e-05 0.00339799 0.00355888 0.00224185 0.00394145 0.00692213 0.00311211 -0.000335764 -0.000475213 0.003619 -0.000134123 0.00102814 0.00328637 -0.000524693
internal_weight=0 12794 2106 1503 935 77 49 858 609 568 249 117 93 63 132 537 515 565 542 122 420 41 102 603 577 379 493 124 64 369
internal_count=22298 12794 2106 1503 935 77 49 858 609 568 249 117 93 63 132 537 515 565 542 122 420 41 102 603 577 379 493 124 64 369
shrinkage=0.05


Tree=54
num_leaves=31
num_cat=0
split_feature=27 27 27 30 30 24 30 14 1 21 8 12 27 18 6 13 9 30 20 9 30 18 3 27 7 21 8 18 23 27
split_gain=0.100839 0.928713 0.697272 0.402912 0.370183 0.372367 0.279944 0.28197 0.259549 0.620376 0.233264 0.295559 0.197182 0.144768 0.171556 0.214429 0.128687 0.150283 0.427013 0.336749 0.214859 0.431227 0.270971 0.253353 0.131679 0.170333 0.126693 0.122474 0.110839 0.105581
threshold=-0.33568149999999991 0.084315000000000154 -0.027260000000000058 -1.9291949999999998 2.3386650000000002 1.1217050000000001e-07 -0.34826499999999999 -12.071399999999999 -16.595249999999997 0.12404950000000002 1.1153800000000002e-06 7.777645000000003e-06 0.010674999999999992 0.0018060250000000004 3.0811150000000004e-05 0.93471500000000007 -1.0082609999999998e-05 -1.2070349999999992 2.8403000000000002e-05 2.3457250000000003e-06 0.41470999999999997 0.00042982050000000004 1.1248150000000002e-05 -0.083779999999999841 0.025613900000000005 3.4887250000000005 -4.6303149999999994e-09 0.0023602150000000001 0.019412800000000004 0.030899999999999931
decision_type=2 2 2 2 2 2 2 2 2 2 2 2 2 2 2 2 2 2 2 2 2 2 2 2 2 2 2 2 2 2
left_child=-1 2 8 28 5 6 7 -5 9 -2 11 -7 -13 14 29 -16 27 24 20 -20 21 -19 -23 -24 25 -18 -9 -10 -4 -8
right_child=1 -3 3 4 -6 10 13 26 16 -11 -12 12 -14 -15 15 -17 17 18 19 -21 -22 22 23 -25 -26 -27 -28 -29 -30 -31
leaf_value=-0.00011998949588841574 -0.00072863570908779254 -0.00010027609715689885 -0.00056773254174774719 0.0036440575461240549 -0.00035429084205783773 0.0037765146958091385 0.0032459521723345905 -0.0053903650127308956 -0.00045460913423171621 0.010566374305635692 0.0019184399522574884 0.0064405955318361519 0.012930994226851247 0.0064689461828003492 0.0022170238878710994 -0.0040732274157926447 -0.00026231468876697551 -0.00046612547774505702 0.0016100846819527862 0.0099435908783396532 -0.00058271948127153813 0.0086011078771358988 -0.0011443401740398257 0.0061270833744303047 0.0036212788766351884 -0.0042297519779571427 -0.00042910923760744831 -0.00351615059369665 0.0033000893181278595 0.00011209876814471752
leaf_weight=9808 31 10378 157 29 98 44 367 22 147 20 35 25 22 26 42 20 403 96 27 22 232 27 25 23 20 29 31 42 21 29
leaf_count=9808 31 10378 157 29 98 44 367 22 147 20 35 25 22 26 42 20 403 96 27 22 232 27 25 23 20 29 31 42 21 29
internal_value=0 9.42239e-05 0.00104996 0.00203761 0.00252182 0.00292912 0.00238188 -0.000319668 0.000214266 0.00370078 0.00538737 0.00672158 0.00947865 0.00283958 0.00263355 0.000187911 5.15835e-05 0.000299653 0.000944329 0.00535166 0.00040845 0.00175319 0.00459392 0.00233988 -0.000345022 -0.000528647 -0.0024885 -0.00113495 -0.000111416 0.00301645
internal_weight=0 12490 2112 968 790 692 566 82 1144 51 126 91 47 484 458 62 1093 904 452 49 403 171 75 48 452 432 53 189 178 396
internal_count=22298 12490 2112 968 790 692 566 82 1144 51 126 91 47 484 458 62 1093 904 452 49 403 171 75 48 452 432 53 189 178 396
shrinkage=0.05


Tree=55
num_leaves=31
num_cat=0
split_feature=28 28 29 22 8 31 31 16 21 31 8 1 22 31 2 25 20 31 17 14 21 31 17 12 29 6 26 31 28 31
split_gain=0.0923549 0.900372 0.618045 0.38449 1.56619 0.791657 0.419965 0.321259 0.541306 1.17127 0.248696 0.236421 0.230057 0.189512 0.190386 0.39078 0.345242 0.230568 0.142115 0.109019 0.0721418 0.0674667 0.0673439 0.0616134 0.0640208 0.0551816 0.0513961 0.176864 0.0474694 0.129671
threshold=-0.32555999999999991 0.041862500000000087 0.030899999999999931 -0.016336449999999999 -4.853914999999999e-08 2.1543950000000005 -0.51779999999999926 31.457550000000005 1.3050850000000003 4.1477950000000012 -2.1680949999999998e-05 -5.8327899999999984 -0.15799099999999996 -1.5652499999999996 0.18724200000000005 -0.00040230649999999996 3.8880500000000008e-05 0.717005 0.074667700000000017 -5.5744999999999996 0.25531700000000007 0.3482650000000001 -0.012841499999999997 2.4424000000000002e-09 0.12853499999999998 1.1174800000000002e-05 1.0444035000000003 10.558235000000002 -0.12719800000000001 0.75757500000000022
decision_type=2 2 2 2 2 2 2 2 2 2 2 2 2 2 2 2 2 2 2 2 2 2 2 2 2 2 2 2 2 2
left_child=26 2 10 4 5 6 -4 8 18 -10 -2 13 -6 -12 16 25 17 21 23 -3 -19 -15 -14 24 -5 -16 -1 -28 -25 -30
right_child=1 19 3 7 12 -7 -8 -9 9 -11 11 -13 22 14 15 -17 -18 20 -20 -21 -22 -23 -24 28 -26 -27 27 -29 29 -31
leaf_value=-0.0001263480437449192 -0.0020937868603857972 -9.654079683423669e-05 0.006835841172083747 -0.0039443789100369036 -0.0069489851419348271 0.0011617236190373192 0.016095588313570868 -0.0054981121041167251 0.013736735774331134 -0.0024005309815275603 -0.00016959223982572941 -0.0010561610904308812 0.0012947600249026438 0.0031107711434073156 0.0045846247717910901 -0.0035497666971744317 0.0093134549901482053 -0.0017853749861739831 -0.0041932700407501435 0.003277073270874098 0.0020663265462280834 0.005598757120555845 -0.0028084053768907325 -0.00022503199222636603 -0.00014902960229665042 0.0016877858674550746 0.0051050596311688424 -0.0010511853083569026 0.0014604646999089579 -0.0005614490581150488
leaf_weight=9456 33 10840 25 20 24 31 24 26 22 23 58 48 20 451 31 34 22 31 21 24 20 29 20 537 25 35 20 28 175 145
leaf_count=9456 33 10840 25 20 24 31 24 26 22 23 58 48 20 451 31 34 22 31 21 24 20 29 20 537 25 35 20 28 175 145
internal_value=0 8.77035e-05 0.00108287 0.00033643 0.00275108 0.00741504 0.0113712 -1.33782e-05 0.000133939 0.0054888 0.0021554 0.00234014 -0.00307888 0.00256943 0.00281271 0.000805038 0.00317576 0.00292147 -0.000127132 -8.9088e-05 -0.000274904 0.00326109 -0.000756823 -3.2466e-05 -0.00183585 0.00304842 -0.000118064 0.00151392 6.22276e-05 0.000544285
internal_weight=0 12794 1930 1138 144 80 49 994 968 45 792 759 64 711 653 100 553 531 923 10864 51 480 40 902 45 66 9504 48 857 320
internal_count=22298 12794 1930 1138 144 80 49 994 968 45 792 759 64 711 653 100 553 531 923 10864 51 480 40 902 45 66 9504 48 857 320
shrinkage=0.05


Tree=56
num_leaves=31
num_cat=0
split_feature=27 27 27 30 30 19 2 1 21 1 30 15 16 18 25 7 23 7 21 2 15 9 27 28 15 15 11 1 19 17
split_gain=0.0839899 0.765004 0.561263 0.325227 0.290939 0.441869 0.235726 0.233609 0.557437 0.206706 0.243963 0.269751 0.171739 0.11889 0.183582 0.114251 0.144363 0.134116 0.363849 0.0945503 0.352452 0.0937513 0.172028 0.0974369 0.0898735 0.0833657 0.198098 0.0765521 0.073479 0.072444
threshold=-0.33568149999999991 0.084315000000000154 -0.027260000000000058 -3.1614600000000004 2.3386650000000002 0.63298300000000007 -1.5267499999999998 -16.595249999999997 0.12404950000000002 -13.889449999999998 -0.34826499999999999 -0.26620999999999995 0.79181000000000012 0.033914050000000008 0.14223350000000004 0.0046168100000000016 0.016072950000000003 0.0023823050000000004 0.38615600000000005 0.27629100000000006 0.19583750000000003 4.4589550000000008e-07 0.018490999999999928 -0.029991649999999908 0.22223600000000002 -0.15305199999999997 -1.6409799999999997e-06 -9.476684999999998 0.0057647550000000007 0.040711300000000013
decision_type=2 2 2 2 2 2 2 2 2 2 2 2 2 2 2 2 2 2 2 2 2 2 2 2 2 2 2 2 2 2
left_child=-1 2 7 -4 5 6 -5 8 -2 24 11 -11 27 14 15 17 -17 29 -19 21 -21 23 -23 -12 28 26 -25 -13 -8 -9
right_child=1 -3 3 4 -6 -7 9 13 -10 10 19 12 -14 -15 -16 16 -18 18 -20 20 -22 22 -24 25 -26 -27 -28 -29 -30 -31
leaf_value=-0.00010950694534097507 -0.00068737685400147681 -9.0534490295426028e-05 -0.00037089062686173355 -0.0026421270267430533 -0.00033809781746139359 0.009235430656644894 0.0023861547410805629 -3.4120431235776213e-05 0.010019357716664672 0.0052991394838318231 -0.00067872499702471866 0.0027193314243711278 -0.0043689411089872015 -0.0031093694603849397 0.0048805404260201619 -0.00049932657699288145 -0.004581429973768536 0.0003990831441721336 0.0079156175233601102 -0.0043848074700508733 0.0048896264501049058 0.0029080088039473546 0.0080861569787173179 0.0031356527519069222 0.007733748609150228 0.0030876238536614703 -0.0030121104698628189 -0.00096933904002444486 0.0060676551666920603 0.0019586039689245961
leaf_weight=9808 31 10378 142 23 98 24 33 659 20 20 22 22 28 29 20 222 24 69 21 20 21 53 23 38 21 298 20 39 23 49
leaf_count=9808 31 10378 142 23 98 24 33 659 20 20 22 22 28 29 20 222 24 69 21 20 21 53 23 38 21 298 20 39 23 49
internal_value=0 8.59923e-05 0.000953414 0.00183951 0.00221951 0.0025638 0.00233636 0.00020364 0.00351134 0.0025045 0.00219347 5.20505e-05 -0.00112707 4.93003e-05 0.000135392 4.44886e-05 -0.000897581 0.000334901 0.00215294 0.00266502 0.000365512 0.00287268 0.00447508 0.00255051 0.00494426 0.00275007 0.00101573 0.000361001 0.0038982 0.000103794
internal_weight=0 12490 2112 968 826 728 704 1144 51 681 604 109 89 1093 1064 1044 246 798 90 495 41 454 76 378 77 356 58 61 56 708
internal_count=22298 12490 2112 968 826 728 704 1144 51 681 604 109 89 1093 1064 1044 246 798 90 495 41 454 76 378 77 356 58 61 56 708
shrinkage=0.05


Tree=57
num_leaves=31
num_cat=0
split_feature=28 27 30 30 19 6 21 7 6 27 30 19 9 20 30 18 12 20 7 15 25 11 1 23 24 19 27 23 11 24
split_gain=0.0767582 0.743793 0.502042 0.618356 0.749101 0.382914 0.423804 0.423476 0.421865 0.404706 0.248841 0.246814 0.24587 0.173055 0.145776 0.131865 0.127182 0.122681 0.107433 0.162076 0.10606 0.236903 0.098209 0.0995728 0.0942935 0.0789321 0.0861588 0.0584315 0.235117 0.0584125
threshold=-0.32555999999999991 -0.083779999999999841 -2.2622050000000002 2.2731550000000005 1.4755300000000002 0.00010572600000000001 0.27838100000000005 0.0012809700000000002 3.2598500000000003e-05 0.030899999999999931 -0.63636000000000015 -0.024447349999999996 1.7706950000000001e-06 1.3150200000000002e-05 0.72393500000000011 0.0023602150000000001 3.5905650000000004e-09 2.8403000000000002e-05 0.00020204850000000001 0.12204850000000002 -0.00074431749999999983 2.3755000000000008e-06 -12.930349999999999 -0.36040299999999997 -3.3801199999999994e-07 0.15113650000000003 -0.017509999999999911 -0.00066913299999999982 -3.7437449999999995e-07 -2.2424449999999992e-06
decision_type=2 2 2 2 2 2 2 2 2 2 2 2 2 2 2 2 2 2 2 2 2 2 2 2 2 2 2 2 2 2
left_child=-1 -2 22 4 5 6 9 -8 11 10 -4 -9 -10 16 20 -7 -11 -5 19 -18 25 24 -3 -24 -22 26 -12 28 -26 -25
right_child=1 2 3 17 -6 15 7 8 12 13 14 -13 -14 -15 -16 -17 18 -19 -20 -21 21 -23 23 29 27 -27 -28 -29 -30 -31
leaf_value=-0.00010763395863910402 -8.9272923859348894e-05 0.0031277877842876482 -0.0013937312833149917 -0.0002378589970201 0.0090438659800889179 -0.00031247315373666312 0.00020341346594127449 8.8727468279942579e-05 0.0065213422224457782 -0.0038153872714081615 0.0077296017750125862 0.0071992684398656309 0.014267566651105882 0.0042569919001683356 -0.00095051563801933775 -0.0047823209703589482 0.00025915040112636236 -0.0039510990231065085 -0.00055278750960447137 0.0050772452863384393 0.0056964107789099216 -0.0014415569763098445 -0.0033441178068252548 -0.0022010214031537101 0.0033778991093676466 0.001673902941402048 0.0039382537101330453 0.0029356872453784647 -0.0024644207710830066 -0.0001413125664011267
leaf_weight=9504 10688 20 41 304 36 77 37 26 21 22 23 23 20 24 27 21 64 24 183 24 27 35 28 37 51 20 43 328 26 494
leaf_count=9504 10688 20 41 304 36 77 37 26 21 22 23 23 20 24 27 21 64 24 183 24 27 35 28 37 51 20 43 328 26 494
internal_value=0 7.99557e-05 0.000938795 0.00141416 0.00194042 0.00172054 0.00199575 0.00470642 0.00655766 0.00162874 0.00237077 0.00342633 0.0103 0.000175106 0.00263688 -0.0012703 -0.000159246 -0.000509559 0.000137562 0.00157318 0.00281204 0.00251489 -0.000314898 -0.000438071 0.00283543 0.00442563 0.00525948 0.0026447 0.00140517 -0.000284833
internal_weight=0 12794 2106 1527 1199 1163 1065 127 90 938 621 49 41 317 580 98 293 328 271 88 553 467 579 559 432 86 66 405 77 531
internal_count=22298 12794 2106 1527 1199 1163 1065 127 90 938 621 49 41 317 580 98 293 328 271 88 553 467 579 559 432 86 66 405 77 531
shrinkage=0.05


Tree=58
num_leaves=31
num_cat=0
split_feature=27 27 27 30 30 19 1 26 2 24 1 30 9 16 23 14 30 9 23 23 1 7 23 18 27 23 4 13 30 14
split_gain=0.0694357 0.627646 0.461636 0.267377 0.236552 0.372361 0.207414 0.49471 0.199603 0.191782 0.286233 0.221085 0.21899 0.340279 0.19787 0.184717 0.159097 0.110833 0.259005 0.200839 0.114641 0.110374 0.104528 0.14087 0.084538 0.127144 0.0813096 0.205271 0.0913106 0.272421
threshold=-0.33568149999999991 0.084315000000000154 -0.027260000000000058 -3.1614600000000004 2.3386650000000002 0.63298300000000007 -16.595249999999997 0.00012344850000000002 -1.5267499999999998 1.0164215000000001e-07 -7.4071899999999991 -0.34826499999999999 8.7807150000000017e-07 0.55783300000000013 0.00097055650000000008 -12.071399999999999 -0.83700999999999925 1.0227900000000003e-07 0.064807950000000017 0.0082214700000000016 -8.5020049999999987 0.0015758050000000002 -0.050101599999999989 0.0033271750000000004 -0.083779999999999841 0.00027802350000000008 2.0989800000000004e-05 0.72189100000000017 0.15853500000000012 -8.2241149999999994
decision_type=2 2 2 2 2 2 2 2 2 2 2 2 2 2 2 2 2 2 2 2 2 2 2 2 2 2 2 2 2 2
left_child=-1 2 6 -4 5 8 7 -2 -5 11 12 15 14 -14 21 -10 -17 19 22 -8 -21 -11 -19 24 -24 -26 28 -28 -13 -30
right_child=1 -3 3 4 -6 -7 17 -9 9 10 -12 26 13 -15 -16 16 -18 18 -20 20 -22 -23 23 -25 25 -27 27 -29 29 -31
leaf_value=-9.9567952258579082e-05 -0.00065478844628688105 -8.1707989937413979e-05 -0.00033669419658508562 -0.002467463951578121 -0.00029414390261749482 0.0084469491994241253 -1.7072585971901764e-05 0.0094315781821205751 0.0030742523640381277 0.003014130620285869 -0.0015301821572938936 0.0029748206681031136 0.0033172923173489313 0.012318330533092932 -0.00095225580997066568 0.00013877663131540592 -0.0049708522856235504 -0.0029909730418180322 0.0048821119281152884 -0.0045961833996280357 -0.0010781027182881525 0.0078093951428309079 -0.00015054318906999021 0.00419063156429426 -0.00074157138054336733 0.0030670383538238511 0.0023414676084827918 -0.0032461301264861092 0.0032796024310664511 -0.0037529877730689588
leaf_weight=9808 31 10378 142 23 98 24 517 20 27 30 20 310 21 21 20 39 25 23 33 39 57 20 308 24 36 56 65 22 40 21
leaf_count=9808 31 10378 142 23 98 24 517 20 27 30 20 310 21 21 20 39 25 23 33 39 57 20 308 24 36 56 65 22 40 21
internal_value=0 7.81875e-05 0.000863886 0.0016675 0.00201205 0.0023225 0.000183904 0.00330065 0.00211371 0.00226843 0.00397963 0.001857 0.00496352 0.00781781 0.00325095 -0.000394002 -0.00185717 3.8475e-05 0.000607464 -0.000407063 -0.00250732 0.00493224 0.000291886 0.000469966 0.000246726 0.00157671 0.00230425 0.000928512 0.00262686 0.000858547
internal_weight=0 12490 2112 968 826 728 1144 51 704 681 132 549 112 42 70 91 64 1093 480 613 96 50 447 424 400 92 458 87 371 61
internal_count=22298 12490 2112 968 826 728 1144 51 704 681 132 549 112 42 70 91 64 1093 480 613 96 50 447 424 400 92 458 87 371 61
shrinkage=0.05


Tree=59
num_leaves=31
num_cat=0
split_feature=28 27 24 30 21 3 28 30 24 24 30 8 9 14 9 9 18 18 11 19 30 12 24 2 14 3 28 24 4 27
split_gain=0.0638492 0.615872 0.428858 0.414245 1.35514 0.811765 0.437973 0.255331 0.22828 0.213868 0.273168 0.257709 0.3394 0.210204 0.181478 0.19409 0.179062 0.145161 0.157422 0.11084 0.110028 0.0996722 0.0966028 0.218982 0.0939991 0.0936501 0.0835874 0.0910101 0.0698731 0.0691933
threshold=-0.32555999999999991 -0.041862500000000073 0.00015588300000000003 -3.1614600000000004 1.7517900000000002 1.4249600000000002e-05 -0.082914999999999947 2.3386650000000002 2.5183500000000006e-06 1.1217050000000001e-07 -0.30846500000000038 1.1153800000000002e-06 4.4190000000000004e-06 -7.841829999999999 8.7807150000000017e-07 -2.2556699999999994e-06 0.0048803000000000015 0.0018060250000000004 2.8666300000000004e-05 2.1236900000000003 0.7783099999999995 3.7860550000000006e-07 4.3179500000000006e-08 1.0000000180025095e-35 -5.5744999999999996 1.9090050000000002e-05 -0.029991649999999908 -4.1126399999999994e-07 3.3507800000000011e-05 0.030899999999999931
decision_type=2 2 2 2 2 2 2 2 2 2 2 2 2 2 2 2 2 2 2 2 2 2 2 2 2 2 2 2 2 2
left_child=-1 24 3 19 6 -6 8 9 16 10 13 14 -13 25 15 -11 -5 18 20 -3 22 -17 26 -24 -2 29 -12 -28 -29 -8
right_child=1 2 -4 4 5 -7 7 -9 -10 11 17 12 -14 -15 -16 21 -18 -19 -20 -21 -22 -23 23 -25 -26 -27 27 28 -30 -31
leaf_value=-9.816686349123985e-05 -8.0213611242138677e-05 -0.00015730926728884441 -0.0062102916362207564 -9.684812949214591e-06 0.016788995583457027 0.0033546623075380922 0.0029691202167834328 -0.0005224015521434922 0.0052398158144205814 0.0081905508524505437 0.0057461662759167326 -0.0042181903822347527 0.0048828905525927745 -0.0036679795490843908 0.0086494732510160512 0.0039262709185117631 -0.0046181495338466693 0.0058003243334867338 -0.0020990291645417033 -0.0034070666846153994 -0.0012145559663291684 -0.00037914322841970717 -0.003696745038032532 0.0031534209714404178 0.0030523980540844305 -0.0021188364678528158 -0.00047344194476863779 0.0029127994550747684 5.6189845275619762e-05 -0.00028428450638714889
leaf_weight=9504 10840 417 21 503 22 23 44 104 20 20 21 20 21 35 27 41 22 27 22 28 22 20 20 28 24 20 24 309 23 26
leaf_count=9504 10840 417 21 503 22 23 44 104 20 20 21 20 21 35 27 41 22 27 22 28 22 20 20 28 24 20 24 309 23 26
internal_value=0 7.29231e-05 0.000895977 0.00097415 0.00138022 0.00992256 0.00110933 0.00180298 -3.07236e-06 0.00211706 0.00170889 0.00381824 0.000443339 -0.000380049 0.00509945 0.00391611 -0.000202801 0.00223533 0.0020301 -0.000361788 0.00223332 0.00251466 0.0024118 0.000299185 -7.32933e-05 0.000898591 0.00268078 0.00249996 0.0027149 0.00176071
internal_weight=0 12794 1930 1909 1464 45 1419 874 545 770 621 149 41 125 108 81 525 496 469 445 447 61 425 48 10864 90 377 356 332 70
internal_count=22298 12794 1930 1909 1464 45 1419 874 545 770 621 149 41 125 108 81 525 496 469 445 447 61 425 48 10864 90 377 356 332 70
shrinkage=0.05


Tree=60
num_leaves=31
num_cat=0
split_feature=27 27 27 7 1 21 31 1 22 2 15 31 27 22 31 0 18 17 31 19 10 16 21 21 15 11 24 31 21 5
split_gain=0.0578702 0.514583 0.371424 0.218423 0.232609 0.419019 0.266494 0.185843 0.466325 0.166817 0.340429 0.188674 0.122186 0.121766 0.112815 0.11224 0.104265 0.159186 0.216217 0.131921 0.261858 0.0963218 0.0825586 0.0792594 0.069686 0.819132 0.131216 0.127865 0.0965371 0.0858677
threshold=-0.33568149999999991 0.084315000000000154 -0.027260000000000058 0.029608100000000002 -13.889449999999998 0.6251055000000002 0.3482650000000001 -16.595249999999997 -8.5174999999999983e-05 -0.10003295 -0.49107499999999998 0.717005 0.0041949999999999496 -0.0032646199999999998 -2.2009899999999991 -2.0958099999999997 0.033914050000000008 -0.17339299999999999 0.87391500000000033 -1.0971999999999997 8.6689350000000015e-07 8.8966850000000015 0.017854750000000003 0.049574700000000006 0.12316500000000001 2.3755000000000008e-06 1.1972150000000003e-07 -0.27979999999999977 0.082380350000000005 0.00011629400000000001
decision_type=2 2 2 2 2 2 2 2 2 2 2 2 2 2 2 2 2 2 2 2 2 2 2 2 2 2 2 2 2 2
left_child=-1 2 7 4 5 12 14 8 -2 10 -8 -12 -4 -11 -6 -14 17 18 -9 20 -19 -21 -15 -5 25 26 29 -26 -29 -16
right_child=1 -3 3 23 6 -7 9 16 -10 13 11 -13 15 22 24 -17 -18 19 -20 21 -22 -23 -24 -25 27 -27 -28 28 -30 -31
leaf_value=-9.0898269200208765e-05 -0.00087707964819855983 -7.3399822823460185e-05 0.0043741438558141076 -0.00011180848880692131 -0.00048116088035472093 0.010364912772784011 0.007469059624709189 0.0064021472414226635 0.0088376163377515259 -0.0043423103945552499 0.0044163775304332372 -0.0011686150156316629 0.0033800351311979089 -0.0027518447183457941 0.0023554667050990721 -0.0012971195144426272 -0.0029228086643531149 -0.00077427765773609289 -0.0007062208454590292 -5.6286434147702078e-05 0.0069015278259757914 -0.0034026395776891151 0.00027149966392921762 -0.0041007851774338636 0.0063747246433049441 -0.0077478744422218625 0.0055907044656729951 0.0030536425633168004 -0.00072541784582426773 -0.00096117813095805194
leaf_weight=9808 30 10378 43 33 42 20 20 23 21 23 20 62 23 29 276 29 29 25 20 954 20 22 102 20 25 21 30 109 20 21
leaf_count=9808 30 10378 43 33 42 20 20 23 21 23 20 62 23 29 276 29 29 25 20 954 20 22 102 20 25 21 30 109 20 21
internal_value=0 7.13795e-05 0.0007828 0.00150363 0.00168439 0.00378705 0.00138214 0.000172867 0.00312309 5.18396e-05 0.00162014 0.000193578 0.00240224 -0.000986907 0.00200816 0.000771622 3.52075e-05 0.00011583 0.00309593 -9.67847e-06 0.00263719 -0.000131717 -0.00039779 -0.00161708 0.00221643 0.00182454 0.00243928 0.00310199 0.00246774 0.00212096
internal_weight=0 12490 2112 968 915 115 800 1144 51 256 102 82 95 154 544 52 1093 1064 43 1021 45 976 131 53 502 348 327 154 129 297
internal_count=22298 12490 2112 968 915 115 800 1144 51 256 102 82 95 154 544 52 1093 1064 43 1021 45 976 131 53 502 348 327 154 129 297
shrinkage=0.05


Tree=61
num_leaves=31
num_cat=0
split_feature=6 28 27 30 23 9 30 26 27 16 18 30 1 15 11 2 25 6 30 6 19 1 16 28 30 4 2 11 27 27
split_gain=0.0542246 0.0788371 0.6099 0.356233 0.620101 1.30343 0.303372 0.385844 0.321113 0.27297 0.317774 0.336157 0.160187 0.150786 0.895893 0.308979 0.162604 0.144068 0.118128 0.137558 0.113539 0.153099 0.107654 0.0923949 0.0916107 0.231086 0.137845 0.0848076 0.167486 0.097255
threshold=0.00016237300000000003 -0.40027699999999994 -0.10523999999999999 -3.1614600000000004 -0.050101599999999989 -4.6286199999999989e-06 2.2731550000000005 0.017041700000000003 0.12853499999999998 10.429600000000002 0.0028365400000000007 -0.34826499999999999 -12.633099999999997 0.10925650000000002 2.3755000000000008e-06 -0.021694649999999996 0.0003895180000000001 -7.7007699999999988e-06 0.15853500000000012 2.0462400000000002e-05 3.4728400000000006 -12.457899999999997 5.1846950000000005 -0.029991649999999908 -1.3626649999999996 1.9173650000000002e-05 -0.047193449999999991 3.8001950000000002e-07 0.018490999999999928 -0.017509999999999911
decision_type=2 2 2 2 2 2 2 2 2 2 2 2 2 2 2 2 2 2 2 2 2 2 2 2 2 2 2 2 2 2
left_child=1 -1 -3 20 5 -5 7 8 9 10 11 12 -6 14 16 -15 18 -12 19 -13 21 -4 -8 -18 -14 26 -26 -17 29 -29
right_child=-2 2 3 4 6 -7 22 -9 -10 -11 17 13 24 15 -16 27 23 -19 -20 -21 -22 -23 -24 -25 25 -27 -28 28 -30 -31
leaf_value=-8.901982129338494e-05 -0.000179123652508772 -6.3894220310777497e-05 0.0040890722590639986 0.014673406634336481 0.0027667577540139775 -1.8281581287737935e-05 -8.9206996863683369e-05 0.0068893879385394687 -8.1168598050287223e-05 -0.0039045619257237945 0.0086781378369778402 0.0024324431260995694 0.00024393088806161213 -0.0027383030229248106 -0.0059409176039884595 0.0021826484695581408 0.0066184887916527005 0.0034545758255813842 -0.0014846893844339226 -0.0013362607087141702 -0.0036103424611307368 -0.00027083803434947864 -0.0033474629145140559 0.0030981542693105622 -0.0012411454503308051 0.0020913343273357234 -0.0064051061951821411 0.0058169117250612802 0.0078932372445706285 0.0026852622491252776
leaf_weight=7689 3552 8890 21 26 36 36 268 31 335 21 22 179 79 20 36 60 22 33 29 28 24 489 28 122 24 22 28 35 28 85
leaf_count=7689 3552 8890 21 26 36 36 268 31 335 21 22 179 79 20 36 60 22 33 29 28 24 489 28 122 24 22 28 35 28 85
internal_value=0 3.39404e-05 0.000119447 0.000871592 0.00123819 0.00614275 0.00104463 0.00137941 0.0012421 0.00172977 0.00186302 0.00161998 -0.000234113 0.00216411 0.0015977 0.00319756 0.00231189 0.005544 0.00150397 0.00192267 -0.000249471 -9.13123e-05 -0.00039742 0.00363598 -0.0009402 -0.00220434 -0.00402174 0.00376831 0.00441115 0.00359866
internal_weight=0 18746 11057 2167 1633 62 1571 1275 1244 909 888 833 189 644 416 228 380 55 236 207 534 510 296 144 153 74 52 208 148 120
internal_count=22298 18746 11057 2167 1633 62 1571 1275 1244 909 888 833 189 644 416 228 380 55 236 207 534 510 296 144 153 74 52 208 148 120
shrinkage=0.05


Tree=62
num_leaves=31
num_cat=0
split_feature=9 27 28 30 14 21 30 20 11 30 2 2 25 14 17 30 9 23 15 24 19 25 15 11 2 24 27 27 22 18
split_gain=0.0502414 0.0688577 0.537862 0.338881 0.895183 0.919577 0.320059 0.321636 0.912576 0.372291 0.242919 0.290912 0.198842 0.184353 0.160643 0.352369 0.155346 0.146612 0.1358 0.119445 0.0996494 0.151304 0.0937632 0.356985 0.199793 0.158025 0.15044 0.0783306 0.0766498 0.115336
threshold=8.8602550000000014e-05 -0.33568149999999991 -0.174708 -3.1614600000000004 -15.646299999999998 1.3050850000000003 0.7783099999999995 4.9531550000000009e-05 -2.2863049999999995e-06 -0.2305749999999995 0.93067350000000004 0.35362650000000001 -0.0034371449999999995 -6.6606249999999987 0.024136500000000002 -1.3948799999999995 9.0542200000000015e-08 0.0010150250000000003 0.70144250000000008 2.5059850000000005e-07 -0.56397049999999982 0.013383200000000003 0.10925650000000002 1.2576750000000002e-06 -0.0070907799999999988 -2.9019799999999994e-07 -0.041862500000000073 0.018490999999999928 0.010324950000000001 0.00086010700000000004
decision_type=2 2 2 2 2 2 2 2 2 2 2 2 2 2 2 2 2 2 2 2 2 2 2 2 2 2 2 2 2 2
left_child=1 -1 -3 -4 5 17 7 9 -9 13 11 12 -11 14 28 -16 -15 -5 20 22 -8 -22 23 25 -24 -14 -27 -26 29 -6
right_child=-2 2 3 4 6 -7 18 8 -10 10 -12 -13 19 16 15 -17 -18 -19 -20 -21 21 -23 24 -25 27 26 -28 -29 -30 -31
leaf_value=-7.9281546377209483e-05 -0.00021337603139811486 -6.6529313050866994e-05 -0.00027966004843613308 0.0060385761693829585 -3.5843233553029559e-05 0.015449885163633598 -0.0031587825108576441 0.011643881608660405 -0.002562446468800772 -0.0028786553144163917 -0.0024503107813933609 0.0078783887127594262 0.0048393711641394818 -0.0055141621728544126 -0.00085195920852631146 0.0070855111935762341 0.00039793154390281419 0.00046820151951073468 0.0037900269641319203 0.0055734167015179994 -0.00034764988735816243 0.0038155164498754821 -0.0016334833137807436 -0.0049055691639659929 0.0031710168557514532 -0.0018582577686676563 0.0019335262141123325 0.0063091053025952238 -0.0022348816291014374 0.0026262116443831474
leaf_weight=8675 2455 8903 553 21 303 21 29 26 20 20 29 22 42 25 29 27 20 27 21 25 427 23 20 20 116 29 267 24 32 47
leaf_count=8675 2455 8903 553 21 303 21 29 26 20 20 29 22 42 25 29 27 20 27 21 25 427 23 20 20 116 29 267 24 32 47
internal_value=0 2.63991e-05 0.000108489 0.000796431 0.00114402 0.00672318 0.000909719 0.00137128 0.00546722 0.00119953 0.00201648 0.00223791 0.0020175 0.000160998 0.000474103 0.00297504 -0.00288656 0.00290524 -0.000145408 0.00219784 -0.000317942 -0.000134866 0.00203492 0.00158521 0.00304117 0.00196928 0.00156203 0.00370897 0.000107474 0.000321633
internal_weight=0 19843 11168 2265 1712 69 1643 1143 46 1097 614 585 563 483 438 56 45 48 500 543 479 450 518 358 160 338 296 140 382 350
internal_count=22298 19843 11168 2265 1712 69 1643 1143 46 1097 614 585 563 483 438 56 45 48 500 543 479 450 518 358 160 338 296 140 382 350
shrinkage=0.05


Tree=63
num_leaves=31
num_cat=0
split_feature=6 28 28 30 21 3 30 21 7 15 10 28 30 24 30 29 2 30 18 22 22 15 2 19 1 2 30 7 24 30
split_gain=0.0452169 0.0652528 0.496991 0.292164 0.725901 0.794424 0.301474 0.297342 0.595658 0.278422 0.264104 0.240293 0.245797 0.239254 0.163288 0.164002 0.156273 0.130578 0.191602 0.127918 0.123878 0.104635 0.636995 0.103658 0.135969 0.0928166 0.0894678 0.0891419 0.106696 0.0787809
threshold=0.00016237300000000003 -0.40027699999999994 0.10524000000000001 -3.1614600000000004 1.6349200000000002 1.5522700000000003e-05 2.2731550000000005 0.53302250000000007 0.00087164550000000016 0.49806500000000004 7.2500750000000015e-08 -0.12719800000000001 -0.30846500000000038 2.9127400000000004e-07 1.1742300000000008 0.063474999999999962 0.18724200000000005 -0.63636000000000015 0.00038787450000000008 0.00025478300000000002 -0.021842299999999999 0.093118400000000018 0.12261650000000002 2.3225550000000008 -12.457899999999997 0.16312850000000004 -0.050375000000001162 0.00062934050000000021 4.3179500000000006e-08 -1.3626649999999996
decision_type=2 2 2 2 2 2 2 2 2 2 2 2 2 2 2 2 2 2 2 2 2 2 2 2 2 2 2 2 2 2
left_child=1 -1 3 23 6 -6 7 11 -9 10 -10 -5 13 16 15 21 17 29 -19 -18 -8 22 27 24 -3 -23 -27 28 -14 -13
right_child=-2 2 -4 4 5 -7 20 8 9 -11 -12 12 14 -15 -16 -17 19 18 -20 -21 -22 25 -24 -25 -26 26 -28 -29 -30 -31
leaf_value=-8.0872812526458653e-05 -0.00016357064924772243 0.0038920388781954378 -5.6717492591531867e-05 -0.00015899890752431626 0.010799433229019485 -0.00061840105429291725 -0.0043227407382801179 -0.002772251139394939 0.0073636558244470508 0.011196772284456528 0.00024217126268448065 0.00011659955301682554 0.0019837174659632908 0.0050266301341166369 -0.0011995895573188766 0.0056806874378854712 -0.0062008886481635279 -0.0015206643557619482 0.0046649325248454849 -0.00054583961260505024 -0.00024907760167238639 0.0020377964626995411 -0.0061307061163601113 -0.0028989504694062122 -0.00021849324302411637 0.0021795830299036908 0.005546694006176388 0.0034061979757444489 -0.00087991986927077868 -0.00287829075309941
leaf_weight=7689 3552 21 8890 315 39 25 20 25 30 20 23 62 196 21 39 31 20 21 31 20 279 152 26 34 479 34 47 84 39 34
leaf_count=7689 3552 21 8890 315 39 25 20 25 30 20 23 62 196 21 39 31 20 21 31 20 279 152 26 34 479 34 47 84 39 34
internal_value=0 3.09934e-05 0.000108785 0.000787749 0.00111974 0.00633934 0.000906835 0.00124313 0.00388887 0.00617007 0.0042732 0.0010219 0.00145595 -3.50674e-05 0.00193685 0.0021377 -0.00060047 0.000148961 0.0021669 -0.00337336 -0.000521563 0.00194768 0.00139482 -0.000227509 -4.58509e-05 0.00276629 0.00413334 0.00200819 0.00150848 -0.000944091
internal_weight=0 18746 11057 2167 1633 64 1569 1270 98 73 53 1172 857 209 648 609 188 148 52 40 299 578 345 534 500 233 81 319 235 96
internal_count=22298 18746 11057 2167 1633 64 1569 1270 98 73 53 1172 857 209 648 609 188 148 52 40 299 578 345 534 500 233 81 319 235 96
shrinkage=0.05


Tree=64
num_leaves=31
num_cat=0
split_feature=9 27 28 30 14 21 30 22 8 18 30 6 8 21 16 2 23 15 15 30 7 27 27 14 2 3 30 4 22 15
split_gain=0.0424505 0.0570255 0.43955 0.280122 0.774356 0.823657 0.26195 0.270972 0.679475 0.302061 0.279078 0.210422 0.200482 0.523524 0.393636 0.161259 0.128649 0.121527 0.116782 0.107865 0.239163 0.168482 0.181102 0.0985416 0.107364 0.105342 0.103593 0.0954374 0.0901556 0.133502
threshold=8.8602550000000014e-05 -0.33568149999999991 -0.174708 -3.1614600000000004 -15.646299999999998 1.3050850000000003 0.7783099999999995 -0.010460949999999998 -2.4590199999999995e-07 0.0079675400000000021 -0.2305749999999995 3.7878500000000007e-05 5.2856800000000008e-07 0.36592150000000007 4.4812150000000015 0.17917200000000003 0.0010150250000000003 0.70144250000000008 -0.14039399999999996 0.15853500000000012 0.00023895800000000003 0.030899999999999931 -0.041862500000000073 -6.6126999999999994 0.18724200000000005 1.6037550000000004e-05 -0.63636000000000015 2.9373950000000004e-05 -0.045729899999999997 -0.51646149999999991
decision_type=2 2 2 2 2 2 2 2 2 2 2 2 2 2 2 2 2 2 2 2 2 2 2 2 2 2 2 2 2 2
left_child=1 -1 -3 -4 5 16 7 8 9 -6 12 19 14 -14 23 18 -5 28 -13 21 -21 22 -12 24 26 -26 -9 -22 -8 -30
right_child=-2 2 3 4 6 -7 17 10 -10 -11 11 15 13 -15 -16 -17 -18 -19 -20 20 27 -23 -24 -25 25 -27 -28 -29 29 -31
leaf_value=-7.1906988471445347e-05 -0.0001961355390034573 -5.9245908246332099e-05 -0.00025749038692284205 0.0055476695024741021 0.004361861387993226 0.014484923811895506 -0.003353127723802691 8.666822931876309e-06 -0.0020202796455592877 0.011947076678985641 0.006191554768722401 0.0034164006266413104 6.274252435866592e-05 0.0081595043490569185 -0.0071243887390231801 -0.0040169104551896458 0.00032968492962902893 0.0035873059962233085 -0.0014203179378035622 -0.0034679359417798248 0.000805711633778022 0.0068468129705815091 0.0019420078308507269 -0.0027987524820491673 -0.003519573556888431 0.00070827951892099995 0.0022807037570959773 0.0042223071144337973 0.0038497351657133549 -0.00032796587211269575
leaf_weight=8675 2455 8903 553 21 35 21 23 171 31 21 27 24 86 26 21 25 27 21 26 26 60 21 351 30 34 26 71 31 20 436
leaf_count=8675 2455 8903 553 21 35 21 23 171 31 21 27 24 86 26 21 25 27 21 26 26 60 21 351 30 34 26 71 31 20 436
internal_value=0 2.42661e-05 9.89708e-05 0.000720871 0.0010369 0.00622588 0.000818977 0.00123654 0.00391868 0.00720632 0.00101557 0.00173657 9.92043e-05 0.00194235 -0.000485589 -0.000738099 0.00261255 -0.000135574 0.000901307 0.00209626 0.000761264 0.00248772 0.00224555 -6.56651e-05 0.000205834 -0.0016875 0.000675256 0.00196961 -0.00029879 -0.000144733
internal_weight=0 19843 11168 2265 1712 69 1643 1143 87 56 1056 591 465 112 353 75 48 500 50 516 117 399 378 332 302 60 242 91 479 456
internal_count=22298 19843 11168 2265 1712 69 1643 1143 87 56 1056 591 465 112 353 75 48 500 50 516 117 399 378 332 302 60 242 91 479 456
shrinkage=0.05


Tree=65
num_leaves=31
num_cat=0
split_feature=9 27 28 30 14 18 30 20 11 30 2 2 20 23 14 10 17 11 23 25 30 6 15 16 1 17 19 25 20 7
split_gain=0.0383116 0.0514655 0.396694 0.252811 0.698856 0.696752 0.23641 0.260981 0.7753 0.278252 0.19275 0.247685 0.180631 0.202375 0.152129 0.201583 0.158264 0.129427 0.118836 0.117123 0.116425 0.165339 0.109678 0.106273 0.102958 0.121167 0.0834268 0.1157 0.0704863 0.0683332
threshold=8.8602550000000014e-05 -0.33568149999999991 -0.174708 -3.1614600000000004 -15.646299999999998 0.0030889500000000005 0.7783099999999995 4.9531550000000009e-05 -2.2863049999999995e-06 -0.2305749999999995 0.93067350000000004 0.35362650000000001 -1.7011199999999994e-05 0.00063280450000000011 -6.9873149999999988 1.0956550000000002e-07 0.04475790000000001 4.2931500000000006e-07 0.0010150250000000003 0.00042245350000000005 0.15853500000000012 2.5735000000000003e-05 0.70144250000000008 0.38974650000000005 -12.588799999999997 -0.046761399999999995 -0.56397049999999982 0.013383200000000003 -1.3271149999999997e-05 0.00029921150000000008
decision_type=2 2 2 2 2 2 2 2 2 2 2 2 2 2 2 2 2 2 2 2 2 2 2 2 2 2 2 2 2 2
left_child=1 -1 -3 -4 5 18 7 9 -9 14 11 12 13 -11 16 -16 24 19 -5 20 21 -14 26 -19 -6 -26 -8 28 -28 -22
right_child=-2 2 3 4 6 -7 22 8 -10 10 -12 -13 17 -15 15 -17 -18 23 -20 -21 29 -23 -24 -25 25 -27 27 -29 -30 -31
leaf_value=-6.8311639890211948e-05 -0.00018632876224221228 -5.628361104328741e-05 -0.00024461586734394824 0.005398260984511581 0.0025703045989974357 0.013258409787985412 -0.0028831850492459692 0.010557457709756609 -0.0025368365703616292 0.0020381940796505662 -0.0022526110759043087 0.007128088234458119 0.001834159698773874 -0.005074737018439919 -0.005029654444285458 0.00016449912255530821 0.0040705982435109284 0.001731861569579312 0.0003132006798060266 0.0029940488887598006 -0.0035022279917029664 -0.0028057252961194278 0.0034079407142209154 0.0045767497554471768 -0.0034044016944244507 0.00021457536931141749 -0.0032003569361404513 0.0033381215702557596 -0.00016000400643304791 0.00038520595872586666
leaf_weight=8675 2455 8903 553 20 42 22 29 26 20 20 29 22 224 20 31 47 29 59 27 99 20 21 21 74 25 309 20 23 407 26
leaf_count=8675 2455 8903 553 20 42 22 29 26 20 20 29 22 224 20 31 47 29 59 27 99 20 21 21 74 25 309 20 23 407 26
internal_value=0 2.30528e-05 9.40223e-05 0.000684827 0.00098505 0.00591459 0.000778028 0.00117471 0.00486429 0.00102 0.00172628 0.00192352 0.00172014 -0.00151827 0.000122166 -0.00189984 0.00051159 0.00196783 0.00247706 0.0015085 0.0010031 0.00143646 -0.000128795 0.00331473 0.000237092 -5.63061e-05 -0.00028385 -0.000116338 -0.000302409 -0.00130498
internal_weight=0 19843 11168 2265 1712 69 1643 1143 46 1097 614 585 563 40 483 78 405 523 47 390 291 245 500 133 376 334 479 450 427 46
internal_count=22298 19843 11168 2265 1712 69 1643 1143 46 1097 614 585 563 40 483 78 405 523 47 390 291 245 500 133 376 334 479 450 427 46
shrinkage=0.05


Tree=66
num_leaves=31
num_cat=0
split_feature=6 15 16 28 27 11 15 15 15 15 11 11 24 30 21 27 11 30 10 20 27 30 30 27 21 1 30 30 16 30
split_gain=0.0352731 0.0510624 0.0739703 0.0498288 0.372376 0.221971 1.29768 0.607341 0.534522 0.303989 0.284192 0.265191 0.370372 0.259817 0.451652 0.220047 0.186272 0.159873 0.155434 0.155007 0.143903 0.196203 0.555213 0.140313 0.129852 0.193366 0.18905 0.123787 0.121467 0.119589
threshold=0.00016237300000000003 -0.49107499999999998 68.903750000000016 -0.40027699999999994 -0.12773199999999993 -2.2863049999999995e-06 -1.1249249999999997 -0.80876549999999992 -0.14655999999999997 0.070001250000000001 4.9916350000000007e-08 -0.0013550999999999999 1.8183250000000003e-06 -2.5283099999999998 0.66668700000000014 0.10458499999999994 6.6736800000000013e-08 -2.6002149999999995 4.3366150000000003e-06 3.3038300000000005e-05 0.063474999999999962 -0.87391500000000011 0.05076499999999929 0.17708600000000005 0.042863250000000006 -8.8422849999999986 -0.34826499999999999 0.4659999999999998 6.3746400000000003 -1.9291949999999998
decision_type=2 2 2 2 2 2 2 2 2 2 2 2 2 2 2 2 2 2 2 2 2 2 2 2 2 2 2 2 2 2
left_child=3 -2 -3 -1 -5 6 -6 29 11 16 -11 -8 15 -12 18 17 -9 -13 23 -19 21 -18 -23 24 26 -26 -15 -28 -10 -7
right_child=1 2 -4 4 5 7 8 9 28 10 13 12 -14 14 -16 -17 20 19 -20 -21 -22 22 -24 -25 25 -27 27 -29 -30 -31
leaf_value=-7.0380933360634685e-05 -0.00070465121893367689 -9.9455870489284512e-05 0.0029509018007593114 -5.0941466322312198e-05 0.012543359583243728 -0.0029552536615138425 -0.0016867200996981608 0.00065632772982806079 -4.8726439892141993e-05 -0.00034888378200028975 -0.00050954603736731686 -0.00061496966126679375 0.0085056381179198903 -0.0024846250864687717 0.0074278133882520097 6.8964984259254407e-05 -0.00032662505171064177 0.0030148322529273881 -0.00055483680781738564 0.0070775162290643767 -0.00024555412417869618 -0.010975029131042816 -0.0014417676999333448 -0.00019107459134270007 0.0027774082640664548 0.0078080140233326425 0.0030364481428073811 -0.00054411090782980015 -0.0036439132996601981 -0.0078439094790321018
leaf_weight=7689 365 3167 20 8816 25 29 37 261 390 224 102 26 26 22 39 82 66 180 60 27 198 21 56 52 72 26 144 29 25 22
leaf_count=7689 365 3167 20 8816 25 29 37 261 390 224 102 26 26 22 39 82 66 180 60 27 198 21 56 52 72 26 144 29 25 22
internal_value=0 -0.00014447 -8.03134e-05 2.73742e-05 9.53528e-05 0.000670868 0.0013272 0.000293581 0.000973601 0.000492736 0.00115081 0.00233377 0.00277002 0.00176607 0.00228885 0.0022966 -0.000348987 0.00308057 0.00179398 0.00354475 -0.00111845 -0.00232708 -0.00404175 0.00220247 0.00262727 0.00411206 0.00188106 0.00243624 -0.000265304 -0.00506409
internal_weight=0 3552 3187 18746 11057 2241 818 1423 793 1372 770 378 341 546 444 315 602 233 405 207 341 143 77 345 293 98 195 173 415 51
internal_count=22298 3552 3187 18746 11057 2241 818 1423 793 1372 770 378 341 546 444 315 602 233 405 207 341 143 77 345 293 98 195 173 415 51
shrinkage=0.05


Tree=67
num_leaves=31
num_cat=0
split_feature=17 7 27 27 7 23 24 4 11 21 17 5 6 5 27 28 15 30 21 10 16 30 19 12 30 23 27 22 24 18
split_gain=0.0348102 0.131648 0.155945 0.154664 0.0386375 0.0819482 0.0678788 0.240813 0.173034 0.0654953 0.0587276 0.110144 0.0884788 0.0544347 0.0498648 0.412193 0.316499 0.306554 0.50317 0.501854 0.449219 0.258641 0.437055 0.263594 0.215871 0.211744 0.143541 0.126584 0.129567 0.192437
threshold=0.55062400000000011 0.039784050000000008 -0.23425000000000004 0.32697800000000021 0.027977200000000004 -0.72559949999999984 3.4340750000000005e-05 -0.00010556349999999999 -9.3401849999999987e-05 0.70799150000000011 -0.42161999999999994 -0.00020557449999999996 4.8139550000000006e-05 -7.160364999999999e-05 -0.28372000000000014 -0.174708 -0.98443649999999983 -2.1126450000000001 0.53302250000000007 4.5467900000000004e-06 9.0724500000000017 1.1742300000000008 -0.31571299999999997 0.00014644300000000003 -0.30846500000000038 0.010878200000000003 -0.083779999999999841 -0.0022202099999999994 8.2374600000000023e-09 0.00049000000000000009
decision_type=2 2 2 2 2 2 2 2 2 2 2 2 2 2 2 2 2 2 2 2 2 2 2 2 2 2 2 2 2 2
left_child=4 2 -2 -4 6 -6 10 -8 -9 -7 11 -1 13 -13 -12 -16 -17 -18 21 20 25 22 23 -19 27 -20 -26 -24 -29 -30
right_child=1 -3 3 -5 5 9 7 8 -10 -11 14 12 -14 -15 15 16 17 18 19 -21 -22 -23 24 -25 26 -27 -28 28 29 -31
leaf_value=-0.0044021192844957112 -0.00014461212565875751 0.0023706485779257493 -0.005309901199550094 -0.00084170114215036552 0.0030303232928554284 -9.5777611166926666e-05 0.0047275252718998887 0.003594652933367927 -0.0001443000053666438 -0.00082761396216835502 -6.1612604199621804e-05 -0.0032605980461951167 0.0026436024345457554 -0.00046038672688882801 -5.4424669812611699e-05 0.0060225185988071776 -0.00026618997625396456 0.010309077387792059 0.0079061196703049865 0.010504757274891465 -0.003963411930817529 -0.00044576640807211451 -0.0027000777458375696 0.0026078688543057071 -0.00090910117376775479 0.0013775985541819272 0.0017178355189674207 -0.00051235833459086833 6.3587607694492539e-06 0.0051856829776781906
leaf_weight=20 202 35 34 45 20 2626 34 35 267 346 8298 21 20 100 8178 28 608 20 27 26 20 307 42 25 57 23 593 165 47 29
leaf_count=20 202 35 34 45 20 2626 34 35 267 346 8298 21 20 100 8178 28 608 20 27 26 20 307 42 25 57 23 593 165 47 29
internal_value=0 -0.000521051 -0.000881227 -0.00276472 7.49032e-06 -0.000159512 3.38026e-05 0.000738157 0.000289022 -0.000180978 2.11157e-05 -0.000929699 -0.000437157 -0.000946374 2.93935e-05 0.000103466 0.000743639 0.000669326 0.0010812 0.00457297 0.00236974 0.000820332 0.00121777 0.00603063 0.000985637 0.004903 0.00148747 -0.000166992 0.000274459 0.00198268
internal_weight=0 316 281 79 21982 2992 18990 336 302 2972 18654 161 141 121 18493 10195 2017 1989 1381 96 70 1285 978 45 933 50 650 283 241 76
internal_count=22298 316 281 79 21982 2992 18990 336 302 2972 18654 161 141 121 18493 10195 2017 1989 1381 96 70 1285 978 45 933 50 650 283 241 76
shrinkage=0.05


Tree=68
num_leaves=31
num_cat=0
split_feature=17 7 27 27 7 22 21 24 8 1 9 17 10 27 27 27 27 30 21 14 30 19 12 27 22 30 2 14 23 30
split_gain=0.0314162 0.118813 0.14074 0.139584 0.0348703 0.0806386 0.0617306 0.0612606 0.383549 0.364244 0.0981295 0.0544482 0.0910758 0.0815116 0.318887 0.0451191 0.366497 0.261515 0.860713 1.0756 0.204767 0.393211 0.259876 0.22451 0.13211 0.136104 0.133152 0.192433 0.126517 0.120993
threshold=0.55062400000000011 0.039784050000000008 -0.23425000000000004 0.32697800000000021 0.027977200000000004 1.1047800000000001 0.60706450000000012 3.4340750000000005e-05 -4.8692499999999992e-06 -8.7205549999999992 1.1021800000000002e-05 -0.38102849999999994 -3.6984849999999996e-06 0.25136499999999989 -0.17853299999999997 -0.28372000000000014 0.17708600000000005 -3.1004399999999999 1.4542300000000001 -13.661999999999997 1.5584300000000002 -0.31571299999999997 0.00030992000000000004 -0.083779999999999841 -0.016336449999999999 -0.30846500000000038 0.18724200000000005 -6.7339399999999996 -5.2951099999999988e-05 -0.63636000000000015
decision_type=2 2 2 2 2 2 2 2 2 2 2 2 2 2 2 2 2 2 2 2 2 2 2 2 2 2 2 2 2 2
left_child=4 2 -2 -4 7 6 -6 11 9 -9 -10 12 -1 14 -14 -13 17 -17 20 -20 21 22 28 -23 -25 26 27 29 -19 -26
right_child=1 -3 3 -5 5 -7 -8 8 10 -11 -12 15 13 -15 -16 16 -18 18 19 -21 -22 23 -24 24 25 -27 -28 -29 -30 -31
leaf_value=0.0023672374786353131 -0.00013738152191141882 0.0022521161133356926 -0.0050444060402429283 -0.00079961609095335017 -8.1652407435442694e-05 0.0029359307041713261 -0.00073977370725735044 0.0094000801373192167 -0.00024708761140607508 0.00029216156191458662 0.0029170578058929772 -5.7256558332849439e-05 -0.00035416066838318811 -0.00033722029846275272 -0.0078035001736134289 -0.00028146933245969715 -4.9260293076405957e-05 0.009918023266072851 0.016486843146849423 0.00063240799607466099 -0.00033291856252594778 -0.00053528631979627773 0.00088505947376312378 0.0050752234295941894 0.0003502739669966104 0.0015483675427078361 -0.0020722626712840965 -0.0036191218365936289 0.0046711905124269563 0.0031956233278896402
leaf_weight=21 202 35 34 45 2557 21 414 23 265 21 27 8280 51 127 20 504 8144 20 20 23 301 221 29 22 105 606 53 22 27 58
leaf_count=21 202 35 34 45 2557 21 414 23 265 21 27 8280 51 127 20 504 8144 20 20 23 301 221 29 22 105 606 53 22 27 58
internal_value=0 -0.000494999 -0.000837166 -0.00262649 7.1158e-06 -0.000151536 -0.00017336 3.21125e-05 0.000701249 0.00505312 4.54875e-05 2.00599e-05 -0.000763686 -0.00109575 -0.00245257 2.93704e-05 0.000100003 0.000704477 0.00103422 0.00800656 0.000829428 0.00113026 0.00460723 0.000887159 0.00125016 0.00115046 0.000137287 0.000770293 0.00690389 0.00136273
internal_weight=0 316 281 79 21982 2992 2971 18990 336 44 292 18654 219 198 71 18435 10155 2011 1507 43 1464 1163 76 1087 866 844 238 185 47 163
internal_count=22298 316 281 79 21982 2992 2971 18990 336 44 292 18654 219 198 71 18435 10155 2011 1507 43 1464 1163 76 1087 866 844 238 185 47 163
shrinkage=0.05


Tree=69
num_leaves=31
num_cat=0
split_feature=9 21 1 27 28 1 9 18 8 19 17 15 27 15 18 27 27 14 1 19 6 17 14 19 12 8 12 28 16 2
split_gain=0.0290314 0.0498529 0.0383402 0.0357029 0.196404 0.199091 0.16059 0.669653 0.71015 0.429794 0.231997 0.194751 0.163856 0.232542 0.276561 0.180999 0.102245 0.072596 0.120311 0.0943129 0.0695024 0.110027 0.189009 0.072002 0.0615211 0.0609024 0.0954676 0.0793213 0.0558938 0.0930599
threshold=8.8602550000000014e-05 0.70799150000000011 -17.445649999999997 -0.62762200000000001 -0.25082149999999998 -18.778949999999998 2.1378850000000005e-06 0.0065244800000000009 -7.6728049999999993e-07 -2.0739649999999994 0.32319950000000003 1.3434150000000002 -0.027260000000000058 -0.80876549999999992 0.0088370700000000007 0.030899999999999931 -0.17853299999999997 -12.180649999999998 -12.395199999999997 -0.084284399999999982 2.9287750000000002e-06 -0.007554884999999999 -9.4135299999999997 0.16146950000000002 3.6708900000000004e-06 -3.6778899999999996e-07 1.3865350000000003e-05 -0.046108999999999976 10.669550000000003 0.31506600000000001
decision_type=2 2 2 2 2 2 2 2 2 2 2 2 2 2 2 2 2 2 2 2 2 2 2 2 2 2 2 2 2 2
left_child=3 -2 -3 -1 -5 -6 10 17 -9 -10 11 12 28 -14 15 -15 -12 18 19 -8 21 22 -17 -23 -19 26 -22 -27 -7 -30
right_child=1 2 -4 4 5 6 7 8 9 -11 16 -13 13 14 -16 20 -18 24 -20 -21 25 23 -24 -25 -26 27 -28 -29 29 -31
leaf_value=-6.3155227329482822e-05 -7.3098067191694127e-05 -0.0027997176225653675 -0.00059234067997387041 -5.1625263484652392e-05 0.0045972637342596764 -3.6716102995907896e-05 0.0015289675949492394 0.012927358944646337 -0.0020031495049900919 0.0061265105727707622 -0.00030782077172681547 0.0049711151944806763 -0.0036720926795775692 0.0012740574365737607 0.0056955745682768927 0.00027717227537571242 -0.004355712508400663 0.0024469882295227803 -0.00012460428315534957 0.0058802932189428248 0.0032867748345015574 -0.00043150897981831805 0.006260244599781634 0.0022859930456615987 -0.00024057079121190926 -0.00057350632927024193 -0.00021014387338857813 -0.0038605130327050577 -0.0032917241496449737 0.00047018487868274772
leaf_weight=7813 2123 21 311 8671 28 1439 33 22 29 37 26 22 30 600 28 33 39 23 58 20 25 130 22 30 287 223 89 20 35 31
leaf_count=7813 2123 21 311 8671 28 1439 33 22 29 37 26 22 30 600 28 33 39 23 58 20 25 130 22 30 287 223 89 20 35 31
internal_value=0 -0.000162199 -0.000731964 2.00675e-05 7.41173e-05 0.000398712 0.000363419 0.00118087 0.00514763 0.00255439 0.000215977 0.000285587 0.000247897 0.00067599 0.000784692 0.000667367 -0.00273656 0.000351714 0.00144896 0.00317098 3.09792e-05 0.000741189 0.0026704 7.80226e-05 -4.11713e-05 -0.000396738 0.000556724 -0.000844042 -0.000101973 -0.00152477
internal_weight=0 2455 332 19843 12030 3359 3331 509 88 66 2822 2757 2735 1230 1200 1172 65 421 111 53 572 215 55 160 310 357 114 243 1505 66
internal_count=22298 2455 332 19843 12030 3359 3331 509 88 66 2822 2757 2735 1230 1200 1172 65 421 111 53 572 215 55 160 310 357 114 243 1505 66
shrinkage=0.05


Tree=70
num_leaves=31
num_cat=0
split_feature=22 8 8 30 27 25 11 15 10 7 21 27 27 27 28 30 21 16 30 21 11 15 2 20 30 30 19 21 19 18
split_gain=0.0273631 0.134448 0.17921 0.102209 0.152786 0.0403605 0.412848 0.0400052 0.687232 0.0312746 0.05638 0.0498879 0.307995 0.0412396 0.305678 0.219814 0.781764 0.819176 0.184154 0.22062 0.376515 0.505803 0.346229 0.24956 0.166206 0.180104 0.17546 0.138283 0.0857429 0.0779862
threshold=0.6401960000000001 1.3180150000000001e-05 4.9895200000000003e-05 -0.68019999999999958 0.34863500000000031 -0.53959199999999985 0.00033839250000000008 -1.7158549999999997 -4.2035449999999994e-07 0.029608100000000002 0.70799150000000011 -0.31105549999999998 0.23070700000000008 -0.28372000000000014 -0.174708 -3.1004399999999999 1.4542300000000001 9.9858350000000016 2.2731550000000005 0.27838100000000005 -1.0824149999999999e-05 -0.46495149999999991 0.38662550000000001 3.6843350000000004e-05 -0.30846500000000038 0.7783099999999995 -0.28591799999999995 0.3548495000000001 0.22363950000000002 9.1243450000000012e-05
decision_type=2 2 2 2 2 2 2 2 2 2 2 2 2 2 2 2 2 2 2 2 2 2 2 2 2 2 2 2 2 2
left_child=5 3 -3 -2 -5 6 -1 8 -7 13 -11 -12 -13 -9 -15 -16 18 -18 19 24 23 -22 -23 -21 28 26 -26 -20 -17 -28
right_child=1 2 -4 4 -6 7 -8 9 -10 10 11 12 -14 14 15 16 17 -19 27 20 21 22 -24 -25 25 -27 29 -29 -30 -31
leaf_value=-0.00037206870851602295 -0.00042985918520134633 0.0043684969431318854 -0.00057199808995291176 -0.0057389924992457967 -0.00067914953200473777 0.0093356793114799091 0.0058088187244831006 -6.2435063625656224e-05 -0.00091096574354903876 -8.121405665712185e-05 -7.8087338879956431e-05 -0.0058760173705166147 -0.00036800747816284591 -4.8431211738347983e-05 -0.00026623218719428197 4.771995490043205e-05 0.014583484641895798 0.0017935102920032917 -0.00016606950515199123 0.0026852725382038468 -0.005815059112311523 -0.00074129384854037703 0.0072046839130612524 0.0087151149331475605 0.0059817594913987538 -0.00080761688038153518 0.0001227416569870227 -0.0044991397352714558 -0.0033185932520427746 0.0016025521262497994
leaf_weight=149 228 31 45 25 37 20 33 8441 90 2554 134 31 140 8296 509 349 21 31 232 37 23 29 26 32 21 99 109 20 20 486
leaf_count=149 228 31 45 25 37 20 33 8441 90 2554 134 31 140 8296 509 349 21 31 232 37 23 29 26 32 21 99 109 20 20 486
internal_value=0 -0.000428764 0.0014432 -0.000919349 -0.00271941 7.1552e-06 0.000748642 9.50574e-07 0.000952061 -3.88409e-06 -0.000157944 -0.000800463 -0.00136654 1.95682e-05 8.65111e-05 0.000634203 0.000932783 0.00695869 0.00072149 0.000973583 0.00279127 0.000411255 0.00301499 0.00548172 0.000727089 0.00117186 0.00148999 -0.000509964 -0.000134736 0.00133146
internal_weight=0 366 76 290 62 21932 182 21750 110 21640 2859 305 171 18781 10340 2044 1535 52 1483 1231 147 78 55 69 1084 715 616 252 369 595
internal_count=22298 366 76 290 62 21932 182 21750 110 21640 2859 305 171 18781 10340 2044 1535 52 1483 1231 147 78 55 69 1084 715 616 252 369 595
shrinkage=0.05


Tree=71
num_leaves=31
num_cat=0
split_feature=9 9 23 12 23 25 30 1 4 14 18 22 8 8 27 27 3 19 10 9 27 27 27 16 8 8 1 22 8 27
split_gain=0.0253755 0.0614701 1.33212 0.625301 0.109757 0.0578717 0.055186 0.102716 0.131633 0.0601046 0.0514577 0.0467131 0.36213 0.532464 0.47245 1.14869 0.0683533 0.0461065 0.0801928 0.0425867 0.0409928 0.270526 0.0361653 0.035778 0.103965 0.0309749 0.0295354 0.0244234 0.0361334 0.0494234
threshold=3.499375e-05 1.0026325000000003e-05 0.37482500000000002 0.00020335550000000004 0.20691750000000003 0.03655255000000001 -0.91487500000000022 -7.2634549999999996 1.0431550000000002e-05 -11.944949999999999 0.084044100000000024 -0.050505349999999991 -9.9857349999999986e-07 -1.7511249999999996e-05 0.40211800000000014 -0.48849150000000002 7.9071800000000014e-06 -1.0971999999999997 5.3561800000000008e-06 1.0545350000000004e-06 -0.3846 0.32697800000000021 2.0832150000000005 29.210200000000004 -1.7542299999999998e-06 2.2255900000000005e-06 -10.223899999999999 -0.12848799999999996 -4.3394649999999993e-08 0.7556963000000001
decision_type=2 2 2 2 2 2 2 2 2 2 2 2 2 2 2 2 2 2 2 2 2 2 2 2 2 2 2 2 2 2
left_child=1 4 17 -4 11 10 19 9 -9 -8 -2 12 13 22 15 -15 -14 18 -3 -6 -7 -22 -1 -13 -25 -26 -16 -18 29 -29
right_child=5 2 3 -5 6 20 7 8 -10 -11 -12 23 16 14 26 -17 27 -19 -20 -21 21 -23 -24 24 25 -27 -28 28 -30 -31
leaf_value=-0.0010194764200750269 -8.5658854447760456e-05 0.0033656438470912962 0.015594596263836139 0.0030915900424588472 -0.00036667712225286597 -0.00013760168845241958 -0.0030868071354115787 -0.0013653259535322318 -0.0062241505207202867 -0.00041627118547353802 0.0024590778215042523 1.443596665148958e-05 0.0021279261803526122 -0.00010224090888300453 -0.00040746105117829177 0.014302815660090756 -0.00054244491843780324 -4.0309708715822909e-05 -0.00065204967427037091 0.0013971964916938879 -0.0055499416633768214 -0.00025099989558494026 0.001395268837513868 -0.0035141685452150084 -0.00049715034022887667 0.00167823097523069 0.0022473853926931043 0.0032432628879905685 -0.0002438454326001016 -0.00012217985664998804
leaf_weight=69 2959 27 20 20 344 109 23 46 20 251 20 16387 30 25 22 31 390 949 23 38 31 108 20 28 90 20 20 20 134 24
leaf_count=69 2959 27 20 20 344 109 23 46 20 251 20 16387 30 25 22 31 390 949 23 38 31 108 20 28 90 20 20 20 134 24
internal_value=0 2.1941e-05 0.000395905 0.00934309 3.9334e-07 -0.000129668 -0.000603618 -0.00106697 -0.0028377 -0.00064044 -6.85744e-05 2.55866e-05 0.000402444 0.00232287 0.00486546 0.00787199 -0.00019809 3.7659e-05 0.0015175 -0.000191213 -0.000863527 -0.00143278 -0.000476837 7.68451e-06 -0.000794026 -0.000101626 0.000856752 -0.000320943 0.000164369 0.00140757
internal_weight=0 19071 1039 40 18032 3227 722 340 66 274 2979 17310 785 187 98 56 598 999 50 382 248 139 89 16525 138 110 42 568 178 44
internal_count=22298 19071 1039 40 18032 3227 722 340 66 274 2979 17310 785 187 98 56 598 999 50 382 248 139 89 16525 138 110 42 568 178 44
shrinkage=0.05


Tree=72
num_leaves=31
num_cat=0
split_feature=22 11 10 30 4 15 10 25 11 6 18 27 27 1 27 28 25 30 21 30 19 9 23 27 21 21 22 30 24 16
split_gain=0.023069 0.0810685 0.066116 0.118373 0.0437283 0.0356448 0.609603 0.0360049 0.363645 0.0290001 0.0581698 0.048317 0.381217 0.0603676 0.0414393 0.289427 0.292577 0.201936 0.335196 0.201298 0.285586 0.187235 0.436149 0.176064 0.259608 0.127874 0.0986343 0.094582 0.110988 0.195698
threshold=0.6401960000000001 0.0065932650000000009 6.4817800000000013e-07 -0.68019999999999958 -0.00014544699999999996 -1.7158549999999997 -4.2035449999999994e-07 -0.53959199999999985 0.00033839250000000008 0.00010337800000000001 0.004660715000000001 -0.25878849999999998 0.23070700000000008 -9.5163149999999987 -0.28372000000000014 -0.174708 0.19649850000000005 -2.1126450000000001 1.6349200000000002 2.2731550000000005 -0.31571299999999997 9.6272850000000016e-07 -0.0022269149999999995 -0.083779999999999841 0.53302250000000007 0.30943250000000005 -0.0022202099999999994 -0.30846500000000038 8.2374600000000023e-09 0.38089250000000002
decision_type=2 2 2 2 2 2 2 2 2 2 2 2 2 2 2 2 2 2 2 2 2 2 2 2 2 2 2 2 2 2
left_child=5 2 4 -4 -2 6 -1 8 -7 14 -11 -12 13 -13 -9 -16 17 -17 19 20 21 22 -19 26 27 -21 -22 28 29 -25
right_child=1 -3 3 -5 -6 7 -8 9 -10 10 11 12 -14 -15 15 16 -18 18 -20 25 23 -23 -24 24 -26 -27 -28 -29 -30 -31
leaf_value=0.0088003021315671507 0.0016574434705093626 0.0024799962104146331 -0.00057536420241162617 -0.0041432001879002202 -0.00036421256537720094 -0.00034944523739789739 -0.00085028180090982158 -6.13867145325268e-05 0.005451445316782955 -5.2735935898077098e-05 -0.00010423218223633937 -0.0069179649485449773 -0.00023493404555441309 -0.0032324907573638485 -4.2775674885241214e-05 -0.00023878335926056155 0.0053856261802138761 0.0071632787308079154 0.0065195063039517184 -0.00017904068043647761 -0.0035848261539285888 0.0070268107784701691 -0.0028031660507068686 0.00091243746802709732 0.0054307502023327875 -0.004270273611126911 -0.00012601919273175268 0.0012563750943863179 0.0015021695425864036 -0.0034383263293724063
leaf_weight=20 31 23 85 32 195 149 90 7577 33 4016 239 25 223 20 7625 553 32 21 26 211 24 31 23 56 34 21 146 621 68 48
leaf_count=20 31 23 85 32 195 149 90 7577 33 4016 239 25 223 20 7625 553 32 21 26 211 24 31 23 56 34 21 146 621 68 48
internal_value=0 -0.000393686 -0.000586382 -0.00155118 -8.69058e-05 6.56981e-06 0.00090437 2.0442e-06 0.000702365 -3.84574e-06 -0.000116447 -0.000621106 -0.00108205 -0.00527998 2.59079e-05 9.52404e-05 0.000644782 0.000564216 0.000898094 0.000786011 0.00107501 0.0040505 0.00195355 0.000851178 0.00115243 -0.000549368 -0.000614321 0.000968995 -6.85793e-05 -0.00109561
internal_weight=0 366 343 117 226 21932 110 21822 182 21640 4523 507 268 45 17117 9540 1915 1883 1330 1304 1072 75 44 997 827 232 170 793 172 104
internal_count=22298 366 343 117 226 21932 110 21822 182 21640 4523 507 268 45 17117 9540 1915 1883 1330 1304 1072 75 44 997 827 232 170 793 172 104
shrinkage=0.05


Tree=73
num_leaves=31
num_cat=0
split_feature=17 1 27 30 7 24 8 27 9 1 21 27 27 26 3 1 21 16 9 16 12 24 3 7 6 30 27 5 6 1
split_gain=0.0231573 0.104936 0.129018 0.15 0.025064 0.0409128 0.284933 0.273204 0.0578621 0.300421 0.0390934 0.0411943 0.30423 0.0266488 0.0344163 0.0260337 0.190759 0.0247411 0.101226 0.158676 0.209775 0.046338 0.171666 0.095292 0.0771263 0.0587737 0.0460893 0.0423852 0.034983 0.0554133
threshold=0.55062400000000011 -15.315949999999999 -0.1538999999999999 -0.68019999999999958 0.038804550000000007 3.4340750000000005e-05 -4.8692499999999992e-06 0.45543000000000028 1.0545350000000004e-06 -8.6037749999999988 0.44995150000000006 -0.31105549999999998 0.17708600000000005 0.081719950000000013 1.1153350000000002e-05 -18.778949999999998 0.60706450000000012 10.429600000000002 6.3271350000000007e-06 22.760400000000004 0.0014738600000000002 5.5494100000000013e-06 8.8150850000000003e-06 0.01017 3.0064400000000003e-05 -1.9698450000000001 -0.53752499999999992 -0.00021567299999999997 6.319600000000001e-05 -8.2167149999999989
decision_type=2 2 2 2 2 2 2 2 2 2 2 2 2 2 2 2 2 2 2 2 2 2 2 2 2 2 2 2 2 2
left_child=4 -2 -3 -4 5 15 7 -7 13 -10 -6 -12 -13 14 -8 16 -1 21 27 -20 -21 -17 -23 24 25 -24 -26 -19 -29 -30
right_child=1 2 3 -5 10 6 8 -9 9 -11 11 12 -14 -15 -16 17 -18 18 19 20 -22 22 23 -25 26 -27 -28 28 29 -31
leaf_value=-0.00011779734728320149 0.0024413808082342794 -8.9759678199194252e-05 -0.00060181276521477638 -0.0051644481008078138 -5.0063487455223028e-05 0.008424727594163935 0.0022235418218440376 0.00075701178765694545 -0.0012783834289803054 0.005893141426033411 6.1552877956953119e-05 -0.0052952848813895672 -0.00031803872447671894 -0.00069230606026266883 -0.00027795986797669192 1.3478350234440027e-05 0.0052101312655395311 -0.0022772210374541551 -0.00040421757350507032 0.0053944343456428867 -0.00075256556500117656 0.0051497488839959268 -7.8237742460089045e-05 0.003148547843235205 -0.00036370027615443439 0.0023109879470818366 -0.0037175017877962091 -0.00054134067060121938 0.0026911723884867657 -0.00089961824809766517
leaf_weight=105 29 213 43 31 2035 21 20 26 40 23 166 35 250 171 44 17995 20 33 89 35 23 20 117 26 21 33 20 571 22 21
leaf_count=105 29 213 43 31 2035 21 20 26 40 23 166 35 250 171 44 17995 20 33 89 35 23 20 117 26 21 33 20 571 22 21
internal_value=0 -0.000424983 -0.000714616 -0.00251319 6.1093e-06 2.51744e-05 0.000564825 0.00418301 -5.82825e-06 0.00133979 -0.000143405 -0.000564583 -0.000929279 -0.000366569 0.000503759 1.54528e-05 0.000734671 1.07275e-05 -0.000262493 0.00092191 0.00295683 2.26262e-05 0.000717208 0.000308679 -7.79003e-05 0.000447392 -0.0019997 -0.000531592 -0.000437772 0.00093753
internal_weight=0 316 287 74 21982 19496 345 47 298 63 2486 451 285 235 64 19151 125 19026 794 147 58 18232 237 217 191 150 41 647 614 43
internal_count=22298 316 287 74 21982 19496 345 47 298 63 2486 451 285 235 64 19151 125 19026 794 147 58 18232 237 217 191 150 41 647 614 43
shrinkage=0.05


Tree=74
num_leaves=31
num_cat=0
split_feature=9 9 23 12 23 25 18 30 1 27 22 8 8 27 27 3 9 19 10 16 8 27 27 27 1 30 27 30 9 27
split_gain=0.0218406 0.0519752 1.14181 0.550817 0.094386 0.0518988 0.0435424 0.0418766 0.0959396 0.0931698 0.0402625 0.311438 0.467684 0.411747 1.00099 0.0567997 0.0398579 0.0386959 0.0691393 0.0341182 0.0856816 0.032681 0.231986 0.0326087 0.0308102 0.0513157 0.0335287 0.0297699 0.028861 0.0227641
threshold=3.499375e-05 1.0026325000000003e-05 0.37482500000000002 0.00020335550000000004 0.21659700000000001 0.03655255000000001 0.084044100000000024 -0.91487500000000022 -7.2634549999999996 0.40211800000000014 -0.050505349999999991 -9.9857349999999986e-07 -1.7511249999999996e-05 0.40211800000000014 -0.48849150000000002 7.9071800000000014e-06 1.0545350000000004e-06 -1.0971999999999997 5.3561800000000008e-06 27.517200000000006 -1.7542299999999998e-06 -0.3846 0.32697800000000021 2.0832150000000005 -8.0668149999999983 1.5584300000000002 0.4807185000000001 0.37146500000000021 -2.7229899999999997e-06 -0.10523999999999999
decision_type=2 2 2 2 2 2 2 2 2 2 2 2 2 2 2 2 2 2 2 2 2 2 2 2 2 2 2 2 2 2
left_child=1 4 17 -4 10 6 -2 16 24 -10 11 12 23 14 -14 -13 -6 18 -3 29 -21 -7 -23 -1 25 26 -9 -22 -15 -12
right_child=5 2 3 -5 7 21 -8 8 9 -11 19 15 13 28 -16 -17 -18 -19 -20 20 27 22 -24 -25 -26 -27 -28 -29 -30 -31
leaf_value=-0.00098535774589475727 -7.8158428903401964e-05 0.0031043178720951635 0.014515065592713657 0.0027803212625440213 -0.00038400767003067462 -0.00016709018777581969 0.0022626923967618497 -0.0031910196296878221 -0.004705603908927691 -0.00064699267414443276 -4.8567194795597185e-05 0.0019362666966238372 -0.00010047658415533079 -0.00045532807721015571 0.013346595275065593 -0.0002960658682172194 0.0013742384757481178 -3.8872550964876658e-05 -0.00062622089592522304 -0.003036251929279388 -0.00050400019523060642 -0.005136154479377212 -0.00022916419598173148 0.0013075814133844687 0.0011556723374625385 -0.00036911200604953728 -0.00067142463623262626 0.0014891711425582838 0.0021690377193590393 6.9311381488739037e-05
leaf_weight=69 2959 27 20 20 308 109 20 31 31 26 7795 30 25 22 31 568 36 949 23 32 101 31 108 20 23 188 23 23 20 8630
leaf_count=69 2959 27 20 20 308 109 20 31 31 26 7795 30 25 22 31 568 36 949 23 32 101 31 108 20 23 188 23 23 20 8630
internal_value=0 2.03555e-05 0.000364226 0.00864769 5.41766e-07 -0.000120298 -6.24427e-05 -0.000583595 -0.000993393 -0.00285431 2.29439e-05 0.000372842 0.00215379 0.00453669 0.00734344 -0.000184076 -0.000200005 3.2556e-05 0.00138827 6.37855e-06 -0.000729571 -0.000815255 -0.00132353 -0.000470091 -0.000593121 -0.000759328 -0.00211786 -0.000134299 0.00079437 1.33684e-05
internal_weight=0 19071 1039 40 18032 3227 2979 666 322 57 17366 785 187 98 56 598 344 999 50 16581 156 248 139 89 265 242 54 124 42 16425
internal_count=22298 19071 1039 40 18032 3227 2979 666 322 57 17366 785 187 98 56 598 344 999 50 16581 156 248 139 89 265 242 54 124 42 16425
shrinkage=0.05


Tree=75
num_leaves=31
num_cat=0
split_feature=9 21 1 30 28 27 22 30 21 9 23 30 9 26 30 30 14 22 20 24 23 6 27 0 30 1 8 22 11 19
split_gain=0.0198863 0.0404315 0.0323962 0.0424436 0.0260824 0.17984 0.198704 0.143797 0.247047 0.631848 1.0036 0.352204 0.429852 0.558961 0.134883 0.15414 0.138973 0.117085 0.10665 0.104571 0.100341 0.11532 0.0959346 0.0937401 0.0745886 0.0659861 0.0652417 0.064676 0.177258 0.108006
threshold=8.8602550000000014e-05 0.70799150000000011 -13.209849999999998 -0.16480499999999984 -0.40027699999999994 -0.12773199999999993 -1.5107249999999997 -2.1126450000000001 0.53302250000000007 7.7157650000000008e-06 0.21659700000000001 -0.71700499999999978 -5.6284599999999985e-06 0.0055993150000000014 0.3275999999999995 -0.2305749999999995 -6.6126999999999994 -0.18645849999999997 2.5436850000000004e-05 -8.690899999999999e-07 -0.0026691749999999998 3.9336850000000003e-05 -0.027260000000000058 10.942650000000002 -0.024939999999999515 -7.5503549999999988 -8.8324949999999983e-08 -0.0023417399999999997 -4.6526649999999988e-06 0.035162000000000006
decision_type=2 2 2 2 2 2 2 2 2 2 2 2 2 2 2 2 2 2 2 2 2 2 2 2 2 2 2 2 2 2
left_child=4 -2 3 -3 -1 -6 -7 17 14 10 11 -10 -13 -14 15 16 27 -8 19 -16 26 22 -22 -24 -23 -21 -17 28 -9 -29
right_child=1 2 -4 -5 5 6 7 8 9 -11 -12 12 13 -15 18 20 -18 -19 -20 25 21 24 23 -25 -26 -27 -28 29 -30 -31
leaf_value=-5.1705457945082551e-05 -5.4001699617700781e-05 -0.0030155011403743028 -0.00037594397962350867 -0.00060830313797193046 -3.3912845065411768e-05 0.005185696621959902 -0.0037821475559295242 0.0021086279160954292 0.0077883748397711786 0.0096580463318297494 -0.0074845648341579363 0.0071091564471619977 0.0028345960147109711 -0.0075907002799795011 0.0033843432218418458 0.0057850674565997906 -0.0029982730403015226 -7.503528356797451e-05 -0.0035434513569105718 -7.9354413491651217e-06 0.0039827176255879324 -0.0030448879350442443 0.0010455650658765523 0.0045559871016303084 0.00099719827939268382 -0.0025898694636662888 0.0019183874794483321 2.1955651424093818e-05 -0.0035387636696792798 0.0022280830374700146
leaf_weight=8199 2123 30 255 47 9301 22 22 24 31 26 27 24 36 20 22 20 34 669 22 513 34 25 387 20 21 26 24 181 33 80
leaf_count=8199 2123 30 255 47 9301 22 22 24 31 26 27 24 36 20 22 20 34 669 22 513 34 25 387 20 21 26 24 181 33 80
internal_value=0 -0.000134243 -0.000647352 -0.00154617 1.66087e-05 6.47114e-05 0.00045622 0.000411391 0.000667634 0.00250803 0.00116092 0.00326388 0.00151064 -0.000888724 0.000461751 0.000851455 4.00773e-05 -0.000193062 -0.000128487 5.43327e-06 0.00138932 0.00118272 0.00143122 0.00121807 -0.00119959 -0.000132481 0.00367597 0.000364932 -0.00116091 0.000698163
internal_weight=0 2455 332 77 19843 11644 2343 2321 1630 164 138 111 80 56 1466 883 352 691 583 561 531 487 441 407 46 539 44 318 57 261
internal_count=22298 2455 332 77 19843 11644 2343 2321 1630 164 138 111 80 56 1466 883 352 691 583 561 531 487 441 407 46 539 44 318 57 261
shrinkage=0.05


Tree=76
num_leaves=31
num_cat=0
split_feature=3 22 17 3 10 5 16 1 27 15 2 2 18 24 8 27 0 4 20 27 18 7 7 27 27 11 15 27 27 18
split_gain=0.0189276 0.0974242 0.022015 0.0878417 0.0891544 0.11373 0.024773 0.0329862 0.0236511 0.0231761 0.23467 0.0205227 0.0371821 0.031363 0.149429 0.361123 0.0272227 0.03206 0.0268032 0.0535844 0.0330544 0.530478 0.062888 0.0241596 0.208212 0.0218086 0.130557 0.168284 0.797456 0.44877
threshold=7.8320150000000016e-06 -0.077302599999999985 0.63888450000000019 1.0097950000000002e-05 1.5600950000000004e-06 0.00010207900000000002 68.903750000000016 -8.7529949999999985 -0.20585514999999996 -1.7158549999999997 -1.1217999999999997 -1.5267499999999998 0.0061212100000000011 3.4340750000000005e-05 -2.4590199999999995e-07 0.25136499999999989 9.3983000000000008 -2.5108799999999996e-05 -0.00056516949999999987 0.84936850000000008 0.031572200000000009 0.0068924400000000005 0.0011683850000000003 0.32697800000000021 -0.31105549999999998 -2.4129849999999998e-06 -0.24676799999999996 0.25136499999999989 -0.28372000000000014 0.0085891900000000018
decision_type=2 2 2 2 2 2 2 2 2 2 2 2 2 2 2 2 2 2 2 2 2 2 2 2 2 2 2 2 2 2
left_child=1 -1 9 -4 6 -6 7 -5 -8 10 -2 12 -11 18 15 -15 17 -16 19 -13 25 22 -22 24 -14 26 27 28 -20 -30
right_child=2 -3 3 4 5 -7 8 -9 -10 11 -12 13 23 14 16 -17 -18 -19 20 -21 21 -23 -24 -25 -26 -27 -28 -29 29 -31
leaf_value=0.0027207674391894745 0.0049487012146273634 0.0001138361235315902 0.0026898593015357622 0.0023667351164658613 -0.0004377494447089703 -0.0044369097912692725 -0.00010718210357651969 -0.00011008203933980863 -0.0019477056889930584 -6.2309542195307344e-05 -0.00065442531761348351 -0.0031541307295265145 -0.00015892682614304161 0.0078304674841071838 0.0014886013983050363 0.00021004654824863329 0.0015570059068932098 -0.00064172635160780051 -0.0001747449011142209 -0.00011676032297815117 -7.4163649122439043e-05 0.008191644893086051 -0.0032749304341060841 -0.00018415930529753108 -0.0044102763470921982 -2.6398723387899939e-05 -3.9771968473877729e-05 -0.00013221024726747029 0.002701520423776126 0.0090225873541619102
leaf_weight=38 25 630 20 20 40 32 64 41 24 3104 74 20 144 22 20 53 20 151 346 53 57 20 21 175 36 13030 3432 409 142 35
leaf_count=38 25 630 20 20 40 32 64 41 24 3104 74 20 144 22 20 53 20 151 346 53 57 20 21 175 36 13030 3432 409 142 35
internal_value=0 0.000262135 -8.09551e-06 -0.000483308 -0.000770472 -0.00221515 -7.23708e-05 0.000701989 -0.000609143 -2.74107e-06 0.000760506 -6.29022e-06 -0.000117749 1.53314e-05 0.000554189 0.00244537 -0.000188422 -0.000392565 7.17103e-06 -0.000948917 1.11611e-05 0.000926857 -0.000935909 -0.000602488 -0.0010092 6.00195e-06 0.000102744 0.000627544 0.00122169 0.00395145
internal_weight=0 668 21630 241 221 72 149 61 88 21389 99 21290 3459 17831 266 75 191 171 17565 73 17492 98 78 355 180 17394 4364 932 523 177
internal_count=22298 668 21630 241 221 72 149 61 88 21389 99 21290 3459 17831 266 75 191 171 17565 73 17492 98 78 355 180 17394 4364 932 523 177
shrinkage=0.05


Tree=77
num_leaves=31
num_cat=0
split_feature=22 4 12 10 27 27 1 22 8 25 11 15 4 11 27 27 3 22 7 17 7 20 21 10 30 21 3 14 27 27
split_gain=0.0181382 0.103946 0.109622 0.0806908 0.12368 0.230156 0.0360591 0.0328683 0.287086 0.0300746 0.415502 0.0254698 0.0568102 0.140428 0.0268543 0.156902 0.0255793 0.133155 0.0241432 0.0224284 0.0176132 0.0279092 0.0501682 0.166656 0.037098 0.0326271 0.0324906 0.03181 0.0289447 0.0728873
threshold=0.49056700000000003 0.00022120900000000002 0.013556000000000002 1.5600950000000004e-06 0.29898550000000002 -0.36205799999999999 -14.087399999999997 0.27780900000000003 1.6409750000000002e-06 -0.53959199999999985 0.00033839250000000008 1.0719600000000002 -0.00014544699999999996 0.00011633100000000002 0.25136499999999989 -0.23425000000000004 7.8320150000000016e-06 -0.077302599999999985 0.00073034200000000014 0.048084400000000006 0.0077962450000000011 2.3357300000000004e-05 3.4887250000000005 3.2270850000000002e-06 -1.9291949999999998 3.2335700000000003 1.0056250000000002e-05 -14.029299999999997 0.32697800000000021 -0.59371869999999982
decision_type=2 2 2 2 2 2 2 2 2 2 2 2 2 2 2 2 2 2 2 2 2 2 2 2 2 2 2 2 2 2
left_child=7 3 -3 6 5 -5 -2 9 -9 10 18 16 -13 14 15 -14 17 -11 -1 -19 -18 22 -22 -24 26 27 -23 28 29 -26
right_child=1 2 -4 4 -6 -7 -8 8 -10 11 -12 12 13 -15 -16 -17 20 19 -20 -21 21 24 23 -25 25 -27 -28 -29 -30 -31
leaf_value=0.00011180376580808582 0.0016999105962458999 0.0045980504306672157 -0.00057428350221016449 -0.00056895858756939152 -0.00028674722247105271 -0.0075482325850143323 -0.00029062221609300518 -0.00050821673091465327 0.0052667362189043037 0.0035088616539724173 0.0063354179539062364 -0.0031048259022645654 -0.00014699173579004821 0.0031677598025416955 -8.1389538360687372e-05 -0.00509452949045226 1.8246949545744778e-05 8.2215447367909764e-05 -0.0012642306827046923 0.0014838989718070177 -5.9786036652409962e-05 0.0018988072210396195 0.0048839169275847133 -0.0011580720141064376 -0.00064556802987378141 -0.0022612279111399402 -0.00013280339539829795 -0.00031115583541680195 -2.4062104057520631e-05 -0.0044137003282403815
leaf_weight=74 25 21 20 27 66 21 253 93 28 31 27 20 59 25 58 22 15710 586 56 30 4308 21 21 25 33 32 313 248 24 21
leaf_count=74 25 21 20 27 66 21 253 93 28 31 27 20 59 25 58 22 15710 586 56 30 4308 21 21 25 33 32 313 248 24 21
internal_value=0 -0.000320453 0.00207496 -0.000570994 -0.00169123 -0.00362239 -0.000111617 6.34605e-06 0.000828136 1.77299e-06 0.000691292 -3.24181e-06 -0.000588996 -0.000282188 -0.000902682 -0.00149077 1.79388e-06 0.000311391 -0.00048095 0.000150479 -7.85679e-06 -8.91271e-05 -4.2248e-05 0.00160023 -0.000384086 -0.000737695 -5.0674e-06 -0.000588146 -0.00146883 -0.00211095
internal_weight=0 433 41 392 114 48 278 21865 121 21744 157 21587 184 164 139 81 21403 647 130 616 20756 5046 4354 46 692 358 334 326 78 54
internal_count=22298 433 41 392 114 48 278 21865 121 21744 157 21587 184 164 139 81 21403 647 130 616 20756 5046 4354 46 692 358 334 326 78 54
shrinkage=0.05


Tree=78
num_leaves=31
num_cat=0
split_feature=30 1 14 30 24 30 27 27 6 27 24 27 15 5 15 11 11 11 15 22 3 12 8 13 20 19 0 13 21 9
split_gain=0.0167759 0.170007 0.0596878 0.0435993 0.149404 0.0982749 0.0982802 0.193044 0.139332 0.247552 0.139483 0.139136 0.1027 0.0927936 0.052423 0.516686 0.555381 0.0841509 0.0391162 0.0355432 0.0639371 0.0652155 0.0927001 0.0383496 0.0282524 0.0495659 0.0253936 0.0382977 0.0242133 0.0299554
threshold=2.3386650000000002 -18.320749999999997 -5.5744999999999996 -0.34826499999999999 -3.0142549999999995e-05 0.15853500000000012 0.17708600000000005 -0.28372000000000014 3.2598500000000003e-05 -0.041862500000000073 1.4027950000000002e-07 0.046556600000000024 -0.24898849999999997 0.00011629400000000001 0.57638050000000007 3.6859100000000008e-05 0.00078387300000000014 6.6588450000000013e-09 1.1651500000000004 -0.045729899999999997 1.5861050000000003e-05 0.00023690950000000003 -6.0660699999999992e-07 -0.30508349999999995 1.9133400000000006e-05 2.8296000000000006 10.204500000000001 1.1155200000000003 0.070059700000000016 3.0670800000000002e-07
decision_type=2 2 2 2 2 2 2 2 2 2 2 2 2 2 2 2 2 2 2 2 2 2 2 2 2 2 2 2 2 2
left_child=1 -1 3 -3 -5 6 7 -6 9 -9 13 12 -11 -10 19 17 -17 -16 24 20 21 -7 -23 -22 25 -2 -21 -28 29 -14
right_child=18 2 -4 4 5 14 -8 8 10 11 -12 -13 28 -15 15 16 -18 -19 -20 26 23 22 -24 -25 -26 -27 27 -29 -30 -31
leaf_value=0.0039881286222629977 -4.4052032399712393e-05 -3.5369992748561769e-05 0.0022839164834545832 0.0042543541884118566 -3.8044329276982637e-05 -0.00026695228567692346 -0.00015528455714069908 0.0055304467128222227 -0.00038430197382695043 -0.0021683639037126507 0.0027453740289353806 0.005236798562956127 0.0012543373497071633 -0.0046114794180903123 -0.00051912630348273196 0.010691438719621384 0.00011827894384084547 -0.0041530631958656685 -0.0017952133852028936 -1.3160397749794944e-05 0.0022292960219783709 -0.00082200870785440893 -0.0055783989607152765 -0.00065940287621641704 -0.00046309801922243078 0.002390547868812324 -0.00011335589000130615 -0.0028422342782141643 -0.000157080448261695 0.0025250105813293803
leaf_weight=27 4662 12427 29 22 428 38 428 39 37 22 23 22 296 20 66 23 27 21 33 2947 20 21 20 27 416 21 36 20 25 55
leaf_count=27 4662 12427 29 22 428 38 428 39 37 22 23 22 296 20 66 23 27 21 33 2947 20 21 20 27 416 21 36 20 25 55
internal_value=0 2.37131e-05 1.74678e-05 1.36263e-05 0.000143645 0.000124242 0.000475538 0.000754744 0.00138427 0.00171988 -0.000541314 0.00136604 0.00115208 -0.00186752 -2.58057e-05 0.000931533 0.00498193 -0.00139628 -7.9318e-05 -6.77218e-05 -0.000890415 -0.00175917 -0.0031422 0.000569831 -6.8213e-05 -3.31345e-05 -3.32032e-05 -0.00108796 0.00134636 0.00145345
internal_weight=0 17166 17139 17110 4683 4661 1395 967 539 459 80 420 398 57 3266 137 50 87 5132 3129 126 79 41 47 5099 4683 3003 56 376 351
internal_count=22298 17166 17139 17110 4683 4661 1395 967 539 459 80 420 398 57 3266 137 50 87 5132 3129 126 79 41 47 5099 4683 3003 56 376 351
shrinkage=0.05


Tree=79
num_leaves=31
num_cat=0
split_feature=22 4 1 10 30 27 1 22 8 25 11 7 23 9 9 30 12 4 27 27 12 3 22 17 19 1 19 27 7 20
split_gain=0.0171831 0.0932625 0.107307 0.0742742 0.104268 0.162075 0.0292647 0.0284038 0.256408 0.0260441 0.371516 0.0221331 0.0219395 0.0719799 0.196027 0.166567 0.0334659 0.0849231 0.0910223 0.348667 0.0352549 0.021866 0.127829 0.0249984 0.0187393 0.0154765 0.0149411 0.0395368 0.014535 0.0315839
threshold=0.49056700000000003 0.00022120900000000002 -9.8376399999999986 6.4817800000000013e-07 -1.5240599999999997 0.45543000000000028 -14.087399999999997 0.27780900000000003 1.6409750000000002e-06 -0.53959199999999985 0.00033839250000000008 0.00073034200000000014 0.20691750000000003 6.3271350000000007e-06 2.7372300000000006e-05 1.2983700000000005 0.00049295100000000004 1.1864300000000003e-05 -0.31105549999999998 0.37778215000000021 0.00090115950000000007 7.8320150000000016e-06 -0.077302599999999985 0.048084400000000006 29.479850000000003 -7.9422599999999992 4.3654050000000009 0.17708600000000005 0.0082750750000000015 0.00094370300000000005
decision_type=2 2 2 2 2 2 2 2 2 2 2 2 2 2 2 2 2 2 2 2 2 2 2 2 2 2 2 2 2 2
left_child=7 3 -3 6 -5 -6 -2 9 -9 10 11 -1 21 16 15 -15 17 -14 -19 -20 -18 22 -11 -24 -8 -16 28 -28 -23 -30
right_child=1 2 -4 4 5 -7 24 8 -10 12 -12 -13 13 14 25 -17 20 18 19 -21 -22 26 23 -25 -26 -27 27 -29 29 -31
leaf_value=0.00010266329667524127 0.0015898910041432829 0.0044533827290121862 -0.00066404193319613124 -0.00059687894200033051 -0.0066588518899931975 -0.00036965571882319637 -0.0003735097267813963 -0.00049281620415977847 0.0049648674696592416 0.0036607655032572374 0.0059806012617493118 -0.0012148436301686162 -0.00039870599610727117 0.0055146555702958724 -0.00042772940402926454 -0.00014093979565507693 0.0017594956064820744 -0.00012537946866610458 -0.0087601450178772227 -0.0002373018732032506 -0.00037325277493219038 2.2221571443226109e-05 7.8465608417607231e-05 0.0016930982135236264 0.0010780417375208344 -0.001992016949710281 -0.0022591750562451825 0.00033094651683795214 -6.9033572209818226e-05 -0.0020601433332194572
leaf_weight=74 25 21 20 100 21 20 201 93 28 27 27 56 187 30 64 23 23 29 20 30 123 15544 583 25 25 21 26 34 4778 20
leaf_count=74 25 21 20 100 21 20 201 93 28 27 27 56 187 30 64 23 23 29 20 30 123 15544 583 25 25 21 26 34 4778 20
internal_value=0 -0.000311903 0.00195708 -0.000549219 -0.0014675 -0.00359095 -3.3375e-05 6.17671e-06 0.000770119 1.92556e-06 0.00064358 -0.000464878 -2.74112e-06 -0.000314485 0.000673848 0.00306034 -0.000645528 -0.000979383 -0.0023539 -0.00364644 -3.72719e-05 5.40923e-06 0.000294352 0.000144857 -0.00021294 -0.0008142 -3.58394e-06 -0.000791439 -1.26011e-06 -7.73333e-05
internal_weight=0 433 41 392 141 41 251 21865 121 21744 157 130 21587 550 138 53 412 266 79 50 146 21037 635 608 226 85 20402 60 20342 4798
internal_count=22298 433 41 392 141 41 251 21865 121 21744 157 130 21587 550 138 53 412 266 79 50 146 21037 635 608 226 85 20402 60 20342 4798
shrinkage=0.05


Tree=80
num_leaves=31
num_cat=0
split_feature=5 23 24 17 27 24 3 28 18 6 22 9 28 27 24 8 17 25 30 25 30 24 9 30 2 2 16 21 6 3
split_gain=0.0160867 0.08481 0.0499466 0.0345383 0.0320814 0.0783403 0.0382052 0.0546814 0.0284916 0.293593 0.0438879 0.0651684 0.0303528 0.142425 0.264115 0.38945 0.16671 0.174592 0.128009 0.496642 0.138142 0.307431 0.251227 0.124882 0.0946286 0.111191 0.08603 0.103933 0.118262 0.121187
threshold=-0.00021567299999999997 0.46573400000000004 -1.9430249999999996e-05 -0.044990649999999993 -0.3846 6.8298150000000004e-06 9.9020000000000028e-06 -0.10379000000000015 0.25734950000000006 3.6716800000000007e-05 1.1047800000000001 4.4190000000000004e-06 -0.40027699999999994 -0.28372000000000014 3.4340750000000005e-05 5.6453250000000005e-09 0.36560600000000004 0.16628250000000003 -2.0637399999999992 -0.043826949999999996 0.7783099999999995 6.8508600000000016e-07 2.0217050000000003e-07 -0.2305749999999995 1.1082250000000002 0.30610150000000008 2.5559600000000002 0.052139300000000006 5.0836300000000007e-05 1.6553800000000004e-05
decision_type=2 2 2 2 2 2 2 2 2 2 2 2 2 2 2 2 2 2 2 2 2 2 2 2 2 2 2 2 2 2
left_child=1 2 -1 4 -4 6 -6 -8 10 -10 12 -12 -2 -14 16 -16 17 18 -15 -20 21 23 -23 26 25 -25 27 -21 29 -29
right_child=8 -3 3 -5 5 -7 7 -9 9 -11 11 -13 13 14 15 -17 -18 -19 19 20 -22 22 -24 24 -26 -27 -28 28 -30 -31
leaf_value=0.0018403209625188644 -4.9535321818298951e-05 -0.0019039551923469844 0.00010890316668658618 -3.4666070713005313e-05 0.0015398797014495359 -0.0030899827401299263 -9.1160173491353121e-05 -0.0022458969475833744 -0.00047142031782476061 0.005986409380817681 -0.0003702632613417073 -0.0031744202562258581 -3.3115101789420057e-05 -0.00018504184861492661 0.0091411723777474387 -0.0004882727389312571 -0.004004413992648055 0.0038740161117207859 0.0062193656180936259 -0.0004049904715955361 -0.00018505690284608388 0.0012313699200084168 0.0081272858837619418 0.0009971486110501482 -0.0018276023730452705 0.0042227553252814692 -0.0025972878785523791 0.0035402490858767372 -0.001956946495192824 -0.00081804965157061815
leaf_weight=34 8557 64 102 2938 20 36 89 44 88 22 121 25 7502 845 21 21 22 35 38 270 580 28 25 583 28 28 32 58 20 22
leaf_count=34 8557 64 102 2938 20 36 89 44 88 22 121 25 7502 845 21 21 22 35 38 270 580 28 25 583 28 28 32 58 20 22
internal_value=0 -0.000101412 -6.60571e-05 -8.61305e-05 -0.000605726 -0.0009914 -0.000497615 -0.000804005 1.77849e-05 0.000820146 1.31054e-05 -0.000850427 1.9842e-05 7.82849e-05 0.000392939 0.00432645 0.000329738 0.000366525 0.000318515 0.000567058 0.00043875 0.00076947 0.00448416 0.000580346 0.00101471 0.00114497 -0.000110105 0.000105003 0.00148198 0.00234172
internal_weight=0 3327 3263 3229 291 189 153 133 18971 110 18861 146 18715 10158 2656 42 2614 2592 2557 1712 1674 1094 53 1041 639 611 402 370 100 80
internal_count=22298 3327 3263 3229 291 189 153 133 18971 110 18861 146 18715 10158 2656 42 2614 2592 2557 1712 1674 1094 53 1041 639 611 402 370 100 80
shrinkage=0.05


Tree=81
num_leaves=31
num_cat=0
split_feature=22 4 25 10 27 27 4 24 4 12 2 3 8 8 18 8 16 9 9 31 8 8 27 27 3 30 24 3 8 10
split_gain=0.0149469 0.0838932 0.102551 0.0672083 0.105971 0.20366 0.0288628 0.0268346 0.12601 0.38627 0.0889727 0.179918 0.0811636 0.104685 0.0502276 0.0219576 0.0211697 0.0268975 0.128711 0.204714 0.0372031 0.0778342 0.0472832 0.200622 0.146745 0.125503 0.0190392 0.121076 0.0391652 0.066565
threshold=0.49056700000000003 0.00022120900000000002 0.74950850000000013 1.5600950000000004e-06 0.29898550000000002 -0.36205799999999999 -0.00015058399999999997 3.4340750000000005e-05 -0.00010556349999999999 0.0093363200000000021 -0.16117699999999999 1.0315450000000001e-05 -2.0036999999999995e-05 -1.1638949999999998e-07 0.038678600000000007 2.3688700000000002e-05 10.429600000000002 6.3271350000000007e-06 2.7372300000000006e-05 -2.2009899999999991 -8.7450849999999993e-06 -2.3757649999999998e-05 -0.3846 0.32697800000000021 1.2898600000000002e-05 -1.2451950000000001 5.5494100000000013e-06 8.7056350000000009e-06 -1.1638949999999998e-07 6.0055550000000006e-07
decision_type=2 2 2 2 2 2 2 2 2 2 2 2 2 2 2 2 2 2 2 2 2 2 2 2 2 2 2 2 2 2
left_child=7 3 -3 6 5 -5 -2 16 9 -9 11 -10 -13 -14 -12 -16 26 20 19 -19 21 -18 -22 24 -24 -26 -1 -28 -29 -30
right_child=1 2 -4 4 -6 -7 -8 8 10 -11 14 12 13 -15 15 -17 17 18 -20 -21 22 -23 23 -25 25 -27 27 28 29 -31
leaf_value=2.6071293863359117e-06 0.0012914371302361939 0.0044234679412329574 -0.00057926716039045944 -0.00045362086817830362 -0.00023829931193507616 -0.0070188811226260103 -0.00028371299461710172 0.0068025387488887647 0.0055476986774010591 -0.0012992643925826997 0.0012394206141127344 -0.0021872132088295378 0.0041447061557482812 -0.00055743433607356816 -0.00057359274981014913 -0.0020615144259424818 -0.00033350311920068119 -0.0011875636092154309 -0.00062106420503816543 0.0048107697122208208 -7.3812485803676208e-05 0.0033002307730805574 -0.00036106343972884742 -0.00016089525356985187 -0.0019583640948191961 -0.0070048709449890478 0.0040721825024645246 -0.00081728644982985161 -0.00019205484300073296 0.0018963433554190336
leaf_weight=20413 33 20 21 27 66 21 245 28 20 31 36 24 20 29 171 29 56 25 126 33 260 20 30 199 22 28 21 77 108 59
leaf_count=20413 33 20 21 27 66 21 245 28 20 31 36 24 20 29 171 29 56 25 126 33 260 20 30 199 22 28 21 77 108 59
internal_value=0 -0.0002909 0.00186109 -0.00051598 -0.00153835 -0.00332592 -9.67347e-05 5.76078e-06 0.000417871 0.00254566 3.62925e-05 0.00134612 0.000195006 0.00136181 -0.000479869 -0.000789341 -1.68434e-06 -0.000254219 0.000276153 0.00222528 -0.0004129 0.000622743 -0.000558927 -0.00101101 -0.00312565 -0.00478441 8.07363e-06 0.000429159 0.00011562 0.000545762
internal_weight=0 433 41 392 114 48 278 21865 388 59 329 93 73 49 236 200 21477 799 184 58 615 76 539 279 80 50 20678 265 244 167
internal_count=22298 433 41 392 114 48 278 21865 388 59 329 93 73 49 236 200 21477 799 184 58 615 76 539 279 80 50 20678 265 244 167
shrinkage=0.05


Tree=82
num_leaves=31
num_cat=0
split_feature=1 14 22 4 1 10 27 27 24 1 2 27 27 13 14 1 27 27 14 1 16 19 4 9 9 30 27 27 21 3
split_gain=0.0151032 0.24181 0.017154 0.0788245 0.0942523 0.0487111 0.0891016 0.17743 0.0246073 0.118989 0.0919899 0.18355 0.288378 0.0361946 0.0314579 0.0373792 0.0256418 0.123116 0.0238695 0.0690102 0.0205777 0.0289836 0.111375 0.0279669 0.119827 0.196779 0.0243986 0.121201 0.0845775 0.0559302
threshold=-18.778949999999998 -16.786249999999999 0.49056700000000003 0.00022120900000000002 -9.8376399999999986 1.5600950000000004e-06 0.29898550000000002 -0.25878849999999998 3.4340750000000005e-05 -15.501799999999998 -0.16117699999999999 0.4807185000000001 -1.0284721499999996 -2.5299899999999993 -7.5803349999999989 -6.6006299999999998 -0.28372000000000014 0.34863500000000031 -20.072749999999996 -14.388599999999999 10.429600000000002 2.8296000000000006 -5.6275599999999994e-05 6.3271350000000007e-06 2.7372300000000006e-05 2.2731550000000005 -0.3846 0.084315000000000154 1.7517900000000002 1.5182450000000001e-05
decision_type=2 2 2 2 2 2 2 2 2 2 2 2 2 2 2 2 2 2 2 2 2 2 2 2 2 2 2 2 2 2
left_child=1 -1 8 5 -5 -4 7 -7 18 -10 11 12 -11 -12 16 -16 -15 -18 19 -2 21 -20 -23 26 25 -25 -22 28 29 -28
right_child=2 -3 3 4 -6 6 -8 -9 9 10 13 -13 -14 14 15 -17 17 -19 20 -21 23 22 -24 24 -26 -27 27 -29 -30 -31
leaf_value=0.005644746411708184 -0.0029437188203631265 -0.0001657148298932708 -0.00017811113968888427 0.0041075706725851409 -0.00068847363683744334 -0.00043093981911186815 -0.00022638434551702107 -0.0066444382752524692 0.0035986713377362187 -0.00041671051529612254 0.0014718448967717755 -0.00065964490803318253 0.0068351009790384182 -0.00023460280723135849 0.0022274570415902416 -0.00072810493381795193 -0.0049102207808755342 -0.00050121292885019913 6.2223692433777897e-06 -0.00019715337186761118 -8.0846723007230222e-05 0.0041958278519450684 -4.1760534725693547e-05 0.0048681081452917677 -0.00057807231136363898 -0.0011624042713871555 -0.0059136783888970972 -0.00021170205729894546 -0.00033151365071535115 -0.0022191379529041505
leaf_weight=20 26 171 275 21 20 27 66 20 27 26 24 56 29 87 20 23 20 76 20211 190 285 20 69 31 121 24 20 247 25 21
leaf_count=20 26 171 275 21 20 27 66 20 27 26 24 56 29 87 20 23 20 76 20211 190 285 20 69 31 121 24 20 247 25 21
internal_value=0 0.00044271 -3.82493e-06 -0.000316915 0.00176804 -0.000537232 -0.0014112 -0.00307498 2.37101e-06 0.000396978 0.000157516 0.00135535 0.00340697 -0.00037432 -0.000570373 0.000646575 -0.000856323 -0.00141976 -4.82051e-06 -0.000527758 5.39397e-07 1.0187e-05 0.000910507 -0.000252491 0.000301516 0.00223661 -0.000415544 -0.000720299 -0.00262369 -0.00402135
internal_weight=0 191 22107 429 41 388 113 47 21678 388 361 111 55 250 226 43 183 96 21290 216 21074 20300 89 774 176 55 598 313 66 41
internal_count=22298 191 22107 429 41 388 113 47 21678 388 361 111 55 250 226 43 183 96 21290 216 21074 20300 89 774 176 55 598 313 66 41
shrinkage=0.05


Tree=83
num_leaves=31
num_cat=0
split_feature=8 26 1 30 30 15 11 1 30 30 21 11 27 27 23 8 9 6 27 4 1 11 17 28 13 9 0 27 3 1
split_gain=0.0143491 0.0361466 0.02115 0.224391 0.0159797 0.0552085 0.411367 0.0399065 0.0316468 0.0701254 0.0746108 0.485021 0.0689942 0.169704 0.175164 0.233454 0.141664 0.08088 0.156693 0.0797196 0.063866 0.0589349 0.100838 0.0994092 0.0539006 0.0390675 0.0431513 0.0353879 0.0498175 0.0310809
threshold=-8.0302749999999989e-05 0.061935000000000011 -18.778949999999998 3.5086150000000007 -3.1614600000000004 1.4966000000000002 4.0144300000000008e-08 -16.007699999999996 0.41470999999999997 -0.2305749999999995 4.2965400000000011 -5.4468949999999993e-05 0.32697800000000021 -0.28372000000000014 -0.0025372349999999992 -1.4079899999999999e-07 -4.2742899999999992e-06 4.8139550000000006e-05 -0.041862500000000073 5.6790950000000009e-05 -6.6006299999999998 6.9406250000000008e-07 0.008232515000000001 -0.029991649999999908 0.14347650000000003 -8.3287799999999982e-07 -6.8594899999999992 0.018490999999999928 2.0978850000000003e-05 -7.6408599999999991
decision_type=2 2 2 2 2 2 2 2 2 2 2 2 2 2 2 2 2 2 2 2 2 2 2 2 2 2 2 2 2 2
left_child=1 -1 3 -2 7 8 -7 -4 9 10 -6 -12 13 -11 15 -15 -16 18 -18 21 -10 22 25 -23 -13 -20 -27 28 -28 -26
right_child=2 -3 4 -5 5 6 -8 -9 20 12 11 24 -14 14 16 -17 17 -19 19 -21 -22 23 -24 -25 29 26 27 -29 -30 -31
leaf_value=-9.3149070816597377e-05 0.0055373697211325637 -0.0014050144914546292 0.002121270264372773 -0.00013481893681274758 -6.1085930033508575e-06 -0.0018463575727461529 0.0071055372841545344 -6.176435348097725e-05 -5.172767266387328e-05 -5.5281874095495815e-05 0.0083335141259885861 0.00095430732915127389 -0.00010214212102390716 0.0078716455337019976 -0.002254332576800759 0.0012614512568688953 0.0050067910633515567 -0.0010889251437650896 -0.00096488875366048895 -0.0018514649058819156 0.0027779349417687629 0.0053574486247574297 -0.0021428783956798725 0.0014764693579651634 -0.0030690636878716762 0.0003522729091491783 0.0011623918852632889 0.0035756952832857875 0.0038232623506337404 -0.00028155282081570476
leaf_weight=1901 20 54 21 136 5002 33 21 6709 6726 499 20 38 470 22 33 34 27 38 20 22 20 21 25 77 20 80 146 23 20 20
leaf_count=1901 20 54 21 136 5002 33 21 6709 6726 499 20 38 470 22 33 34 27 38 20 22 20 21 25 77 20 80 146 23 20 20
internal_value=0 -0.000129385 1.24341e-05 0.000592385 7.9524e-06 3.94119e-05 0.00163493 -5.49525e-05 3.29836e-05 0.000110326 2.06601e-05 0.00138696 0.00040403 0.00062289 0.00119841 0.00385831 0.000918423 0.00112824 0.001311 0.00108108 -4.33385e-05 0.00123768 0.000903591 0.00230811 -0.000394213 0.00116713 0.00132564 0.00173765 0.00148298 -0.00167531
internal_weight=0 1955 20343 156 20187 13457 54 6730 13403 6657 5100 98 1557 1087 588 56 532 499 461 434 6746 412 314 98 78 289 269 189 166 40
internal_count=22298 1955 20343 156 20187 13457 54 6730 13403 6657 5100 98 1557 1087 588 56 532 499 461 434 6746 412 314 98 78 289 269 189 166 40
shrinkage=0.05


Tree=84
num_leaves=31
num_cat=0
split_feature=5 23 24 17 27 27 24 1 18 6 22 9 24 3 27 27 18 30 25 30 11 24 15 0 27 12 18 27 27 18
split_gain=0.014553 0.0818586 0.042902 0.0315285 0.0290144 0.0770165 0.0546184 0.02701 0.0258855 0.252049 0.0361951 0.0590685 0.0265691 0.134347 0.0255795 0.137292 0.283012 0.115931 0.356696 0.0921857 0.147244 0.255277 0.13675 0.0906673 0.0891768 0.136445 0.0817594 0.0738716 0.091454 0.285177
threshold=-0.00021567299999999997 0.46573400000000004 -1.9430249999999996e-05 -0.044990649999999993 -0.28372000000000014 -0.10523999999999999 6.8298150000000004e-06 -15.900799999999998 0.25734950000000006 3.6716800000000007e-05 1.1047800000000001 4.4190000000000004e-06 0.00015588300000000003 1.8421550000000003e-05 0.32697800000000021 -0.041862500000000073 0.031572200000000009 -2.1126450000000001 -0.043826949999999996 1.1742300000000008 2.1264150000000005e-05 1.3813000000000002e-06 -0.081120499999999984 8.0285450000000029 0.018490999999999928 3.3285700000000008e-08 0.012699200000000003 0.17708600000000005 0.063474999999999962 0.00057214450000000019
decision_type=2 2 2 2 2 2 2 2 2 2 2 2 2 2 2 2 2 2 2 2 2 2 2 2 2 2 2 2 2 2
left_child=1 2 -1 4 -4 -6 7 -7 10 -10 12 -12 14 -14 15 -2 17 26 -19 20 21 23 -22 27 -25 -26 -17 28 -20 -30
right_child=8 -3 3 -5 5 6 -8 -9 9 -11 11 -13 13 -15 -16 16 -18 18 19 -21 22 -23 -24 24 25 -27 -28 -29 29 -31
leaf_value=0.0017051081987922185 -1.4971490543608835e-05 -0.0018673577101026241 3.6458957863722959e-05 -3.1155336095570661e-05 -0.0037494076812766837 0.0012862133516372762 -0.0024596005047280945 -0.00050591124562886669 -0.00041500057255193089 0.0055685059072195812 -0.00031461213507137767 -0.0029843074111558965 -0.00082985580542144623 0.0032618839296407846 -4.7955863043694769e-05 -7.7558709054220318e-05 0.0059874978807309409 0.0072853498440235854 0.0010619240661161871 -0.00021226507778585621 -0.0035197816248304058 0.0060915980623879786 0.00059465343896906997 0.00090037227578825148 -0.0049890218327163895 -0.00017789716860404175 -0.0026228252291569817 -0.00053411744499499037 0.00052761454603371578 0.0069276868144308021
leaf_weight=34 8232 64 116 2938 22 27 31 95 88 22 121 25 47 35 8703 438 23 20 484 296 36 24 46 87 20 56 34 60 46 28
leaf_count=34 8232 64 116 2938 22 27 31 95 88 22 121 25 47 35 8703 438 23 20 484 296 36 24 46 87 20 56 34 60 46 28
internal_value=0 -9.64565e-05 -6.17223e-05 -8.03263e-05 -0.000576767 -0.000983248 -0.000585499 -0.000109294 1.69159e-05 0.000781701 1.24555e-05 -0.000771752 1.85733e-05 0.000916618 1.46212e-05 6.94659e-05 0.000478823 0.000403182 0.000663738 0.000551791 0.000806764 0.00101237 -0.00121168 0.000856286 -0.000192701 -0.00144398 -0.000260904 0.00113296 0.00131222 0.00294926
internal_weight=0 3327 3263 3229 291 175 153 122 18971 110 18861 146 18715 82 18633 9930 1698 1675 1203 1183 887 805 82 781 163 76 472 618 558 74
internal_count=22298 3327 3263 3229 291 175 153 122 18971 110 18861 146 18715 82 18633 9930 1698 1675 1203 1183 887 805 82 781 163 76 472 618 558 74
shrinkage=0.05


Tree=85
num_leaves=31
num_cat=0
split_feature=2 21 11 25 2 1 25 15 25 28 27 24 11 18 30 30 13 21 10 1 30 23 16 3 30 22 3 4 2 27
split_gain=0.0132806 0.0409054 0.026823 0.321278 0.579222 0.417344 0.103341 0.0836328 0.0807097 0.080212 0.421201 0.19429 0.150719 0.176146 0.081377 0.0803204 0.0734434 0.0601486 0.250367 0.0541382 0.0818399 0.0490306 0.0484647 0.15471 0.123317 0.0445745 0.195143 0.114934 0.409455 0.0410182
threshold=-2.4904099999999993 1.6349200000000002 -2.2863049999999995e-06 0.19649850000000005 -1.0557449999999997 -8.5453299999999981 0.03655255000000001 -1.0289099999999998 0.00010821600000000002 -0.25082149999999998 -0.12773199999999993 1.8183250000000003e-06 -0.00013785949999999998 0.0030889500000000005 -1.2835749999999997 -0.34826499999999999 0.93471500000000007 13.795350000000001 4.1337350000000007e-06 -15.739449999999998 2.1089349999999998 -0.0038164999999999996 35.645800000000008 1.3494650000000001e-05 -0.38512500000000033 -0.077302599999999985 8.8150850000000003e-06 -5.2119249999999991e-05 1.7353050000000001 -0.31105549999999998
decision_type=2 2 2 2 2 2 2 2 2 2 2 2 2 2 2 2 2 2 2 2 2 2 2 2 2 2 2 2 2 2
left_child=1 -1 3 8 5 -5 17 -6 -2 -10 -11 12 16 14 -14 -16 -12 22 -19 20 -8 -17 25 -24 -25 26 -4 28 -28 -21
right_child=2 -3 6 4 7 -7 19 -9 9 10 11 -13 13 -15 15 21 -18 18 -20 29 -22 -23 23 24 -26 -27 27 -29 -30 -31
leaf_value=-4.6200400876245452e-05 -0.00012763559137996208 -0.00075759589973494336 0.0052660476691000569 0.010806283925155315 8.7653311742402504e-05 0.0013494937788345852 -0.0044861906943316132 0.0034883303940573354 -6.0910556564257746e-05 -3.7713375785909317e-05 0.00084012400567611088 0.0068905279692262414 -0.00069070777787531444 0.0065373375009664383 0.0047628569150609638 0.0041583193885162476 -0.0027960156910618633 -0.00043509772896163206 0.0062034022237639876 -7.373984826682311e-05 -0.000324387707499867 0.0015030505763028953 0.0022874770465672817 -0.00048279661613588148 -0.0055088722202724415 1.5797523833221654e-06 0.0066554479969974118 -0.0002771454835630117 -0.0014565975997746657 -0.00072534809370164519
leaf_weight=2765 3098 218 21 28 130 20 21 21 961 814 41 20 26 23 28 20 21 49 20 448 27 133 21 26 23 12471 28 217 35 524
leaf_count=2765 3098 218 21 28 130 20 21 21 961 814 41 20 26 23 28 20 21 49 20 448 27 133 21 26 23 12471 28 217 35 524
internal_value=0 -9.81897e-05 1.51644e-05 0.000109944 0.00208149 0.00686595 -2.14657e-05 0.000560595 3.42764e-05 0.000274623 0.000560989 0.00212299 0.00179644 0.00238623 0.00192499 0.00230073 -0.000391472 1.68111e-05 0.00148911 -0.000505967 -0.00214518 0.00185014 8.90044e-06 -0.00130314 -0.00284197 1.60914e-05 0.000617336 0.000268682 0.00214876 -0.000425018
internal_weight=0 2983 19315 5384 199 48 13931 151 5185 2087 1126 312 292 230 207 181 62 12911 69 1020 48 153 12842 70 49 12772 301 280 63 972
internal_count=22298 2983 19315 5384 199 48 13931 151 5185 2087 1126 312 292 230 207 181 62 12911 69 1020 48 153 12842 70 49 12772 301 280 63 972
shrinkage=0.05


Tree=86
num_leaves=31
num_cat=0
split_feature=5 23 24 17 3 27 27 24 18 6 22 9 15 2 8 27 13 27 27 15 2 16 11 26 18 15 11 18 1 15
split_gain=0.0130895 0.0733251 0.0356633 0.0287178 0.026983 0.040267 0.0779135 0.0670683 0.0221997 0.218992 0.0316202 0.0549466 0.024532 0.128651 0.0230352 0.0218495 0.0214135 0.0196923 0.113823 0.189513 1.78883 0.222082 0.145215 0.745071 0.386885 0.261568 0.203297 0.294334 0.138334 0.127072
threshold=-0.00021567299999999997 0.46573400000000004 -1.9430249999999996e-05 -0.044990649999999993 9.8468150000000014e-06 -0.28372000000000014 0.20502550000000005 1.5546250000000002e-06 0.25734950000000006 3.6716800000000007e-05 1.1047800000000001 4.4190000000000004e-06 -1.7158549999999997 -0.47419699999999992 -6.2215849999999991e-08 -0.31105549999999998 -1.4893699999999999 0.32697800000000021 -0.28372000000000014 0.68095400000000017 0.40825900000000009 6.3746400000000003 -2.2863049999999995e-06 0.010637800000000001 0.0048803000000000015 -0.14655999999999997 -0.00015844749999999996 0.0048803000000000015 -6.5513949999999994 -0.088049949999999974
decision_type=2 2 2 2 2 2 2 2 2 2 2 2 2 2 2 2 2 2 2 2 2 2 2 2 2 2 2 2 2 2
left_child=1 2 -1 4 -4 16 7 -7 10 -10 12 14 13 -2 -12 -3 -6 18 -14 22 21 -21 23 25 29 26 -20 -28 -26 -24
right_child=8 15 3 -5 5 6 -8 -9 9 -11 11 -13 17 -15 -16 -17 -18 -19 19 20 -22 -23 24 -25 28 -27 27 -29 -30 -31
leaf_value=0.001552290062981603 0.0043410993175348267 -0.00095277473066946383 0.00089781038384836431 -2.8638191098617297e-05 0.0014184802412604437 -0.0013666657942367775 -0.00038745995094354748 -0.0049605238717049362 -0.00039118063035191019 0.0051861655834892937 -0.00122631504957445 -0.0028550239696050993 -3.4570929203267854e-05 -0.0004037758926860988 0.00022285933456386593 -0.0028150803589336911 -0.00032756898325134962 -4.0774825419503783e-05 -0.00023541811675686656 0.0021657899075459381 0.012519353973649203 -0.0036855049493606205 -0.00039459309811512008 0.0084022982106093432 -0.0042470933109455345 -0.00028232492823127887 0.0017925769303387608 0.0077504929959895498 -0.00023505268195989513 0.00057317033289272783
leaf_weight=34 20 36 29 2938 22 34 98 21 88 22 42 25 7488 50 79 28 87 8707 109 24 31 50 564 31 70 456 210 23 31 851
leaf_count=34 20 36 29 2938 22 34 98 21 88 22 42 25 7488 50 79 28 87 8707 109 24 31 50 564 31 70 456 210 23 31 851
internal_value=0 -9.1478e-05 -5.86041e-05 -7.55662e-05 -0.000549361 -0.000709544 -0.00123274 -0.00273887 1.60428e-05 0.000724289 1.19122e-05 -0.000721061 1.76303e-05 0.000951903 -0.00028016 -0.00176753 2.48446e-05 1.41227e-05 6.22201e-05 0.000358045 0.00243623 -0.00178779 0.000264992 0.000797072 -2.59668e-05 0.000501631 0.00154691 0.0023807 -0.00301567 0.000187433
internal_weight=0 3327 3263 3229 291 262 153 55 18971 110 18861 146 18715 70 121 64 109 18645 9938 2450 105 74 2345 829 1516 798 342 233 101 1415
internal_count=22298 3327 3263 3229 291 262 153 55 18971 110 18861 146 18715 70 121 64 109 18645 9938 2450 105 74 2345 829 1516 798 342 233 101 1415
shrinkage=0.05


Tree=87
num_leaves=31
num_cat=0
split_feature=17 8 8 27 27 8 8 27 21 30 16 0 27 21 18 16 27 0 6 15 11 12 10 7 21 16 27 4 11 23
split_gain=0.0130265 0.0465174 0.189899 0.529338 0.04036 0.13842 0.225066 0.218699 0.210073 0.250607 0.100089 0.0466413 0.0330069 0.030738 0.0307021 0.0275103 0.0387858 0.0178046 0.0165337 0.0149446 0.19616 0.392619 0.110699 0.11266 0.130524 0.0310153 0.0356234 0.0169325 0.0606887 0.0122766
threshold=0.071615300000000007 1.6409750000000002e-06 2.1106400000000002e-05 -0.62762200000000001 -0.28372000000000014 -6.8916349999999984e-06 -1.7511249999999996e-05 0.23070700000000008 1.1648500000000002 -1.8786699999999998 4.2377600000000006 4.3154250000000003 0.72582500000000005 3.0089350000000006 0.14344550000000003 3.8218900000000002 0.34863500000000031 4.8663750000000006 0.00026005700000000001 0.57638050000000007 3.6859100000000008e-05 9.009770000000001e-05 5.7431900000000008e-05 0.0038630000000000005 1.39436 27.517200000000006 0.40211800000000014 -5.2119249999999991e-05 -5.4468949999999993e-05 -0.10618449999999999
decision_type=2 2 2 2 2 2 2 2 2 2 2 2 2 2 2 2 2 2 2 2 2 2 2 2 2 2 2 2 2 2
left_child=19 4 3 -3 -2 6 11 8 10 13 -7 -6 -13 -10 17 -9 -17 -4 -19 -1 25 -22 23 -23 -25 27 -27 28 -21 -24
right_child=1 2 14 -5 5 7 -8 15 9 -11 -12 12 -14 -15 -16 16 -18 18 -20 20 21 22 29 24 -26 26 -28 -29 -30 -31
leaf_value=1.9906259635605748e-06 -9.2171372797300729e-05 -0.00018512500128934099 -0.00010034047685144018 0.0067547163907222115 0.00095278481700612847 -0.0029650112136732788 0.0047657663226893287 0.0014875553813562007 -0.0012918814965814818 -0.0094230767250770633 0.0019222064951794561 -0.0030371203461808842 -0.00029538935738420823 -0.004063976253382862 -0.0022902174528677609 -0.0024371070343823659 -0.00011872614916930146 -0.00025756866351002829 -0.0022906526991573629 -0.0001737200689340649 0.0076420252736473532 -0.00025852285199237359 -0.0015575159417736966 0.0006342762175178075 0.0057177193438941948 -0.0023480605001168445 -0.00040287671915158695 -0.00015126632611325044 0.0030275099684058662 -0.00016980601826617204
leaf_weight=20000 786 93 168 39 30 20 27 21 20 21 22 21 23 20 22 21 128 20 20 57 24 35 30 23 28 32 89 404 20 34
leaf_count=20000 786 93 168 39 30 20 27 21 20 21 22 21 23 20 22 21 128 20 20 57 24 35 30 23 28 32 89 404 20 34
internal_value=0 -0.000141196 0.000353621 0.00186528 -0.000295614 -0.000723169 0.000858275 -0.00130825 -0.00312634 -0.00500003 -0.00040504 -0.000567432 -0.00160394 -0.00267793 -0.000513941 -0.000206691 -0.000445478 -0.000326066 -0.00127411 1.03437e-05 0.00022563 0.00170429 0.000754249 0.001926 0.00342519 -0.000201756 -0.000917305 -2.17535e-05 0.000657768 -0.000820295
internal_weight=0 1522 362 132 1160 374 101 273 103 61 42 74 44 40 230 170 149 208 40 20776 776 174 150 86 51 602 121 481 77 64
internal_count=22298 1522 362 132 1160 374 101 273 103 61 42 74 44 40 230 170 149 208 40 20776 776 174 150 86 51 602 121 481 77 64
shrinkage=0.05


Tree=88
num_leaves=31
num_cat=0
split_feature=27 16 8 18 1 14 27 27 22 18 2 27 16 15 24 30 23 16 0 24 23 17 9 27 19 4 24 22 10 8
split_gain=0.0120896 0.109038 0.0124958 0.0400088 0.018381 0.189117 0.0154161 0.0665839 0.115173 0.360316 0.15684 0.125281 0.122646 0.128058 0.106313 0.302928 0.344356 0.0590987 0.0584215 0.0560163 0.0682644 0.0453388 0.0931754 0.0699219 0.0397142 0.0329068 0.0311187 0.0278772 0.071937 0.0649121
threshold=5.3977600000000008 9.9858350000000016 -4.610059999999999e-05 0.031572200000000009 -18.778949999999998 -15.845849999999997 0.55730000000000002 -0.041862500000000073 0.49056700000000003 0.031572200000000009 -0.034089549999999989 0.030899999999999931 7.093795000000001 -0.3827859999999999 2.0620900000000007e-06 -1.9698450000000001 0.10009000000000001 112.04900000000002 11.6714 -4.1126399999999994e-07 0.0011443500000000004 0.068301650000000019 -1.0778949999999997e-06 0.17708600000000005 -1.2061999999999997 -9.9163249999999989e-05 -2.3962699999999994e-06 -0.00020296399999999995 -4.4505349999999993e-08 1.5404300000000002e-07
decision_type=2 2 2 2 2 2 2 2 2 2 2 2 2 2 2 2 2 2 2 2 2 2 2 2 2 2 2 2 2 2
left_child=2 -2 3 -1 5 -4 7 17 9 11 -10 12 13 -9 21 -16 -17 -6 19 20 -15 24 -23 -24 -13 -21 -26 29 -29 -27
right_child=1 -3 4 -5 6 -7 -8 8 10 -11 -12 14 -14 18 15 16 -18 -19 -20 25 -22 22 23 -25 26 27 -28 28 -30 -31
leaf_value=-7.22485029112825e-05 -4.8566958893168856e-05 0.0037936224431697543 0.0050878188386559485 -0.0012087975396025286 -2.4559494665288335e-05 -0.00013486451644317081 -5.072001838911017e-05 0.0044883774302434181 0.00077253363326789174 0.0052172884539342362 -0.0050054702692856759 -0.0020219016269547867 -0.0025981016759312929 -0.0025861672502942388 -0.0011665406217741525 0.0078616233520482758 -0.00043399236773521729 0.0025698956583668901 -0.0013479063852789679 0.002954584519777979 0.00092547595962852002 0.0015336042266599612 -0.0043343649671878674 -0.000753998624096918 0.0019467605895624731 0.00094436906891066843 -3.9646378974505551e-05 -0.0016144000337503497 0.0014028832401656239 -0.0010771247128141114
leaf_weight=2412 153 21 20 80 9570 130 7438 24 23 37 24 25 26 25 51 29 22 22 31 21 31 21 25 30 20 193 1390 21 333 50
leaf_count=2412 153 21 20 80 9570 130 7438 24 23 37 24 25 26 25 51 29 22 22 31 21 31 21 25 30 20 193 1390 21 333 50
internal_value=0 0.000415146 -3.26502e-06 -0.000108735 1.01229e-05 0.000561493 5.87762e-06 4.08306e-05 0.000273352 0.000321257 -0.00217794 0.000244756 0.000776334 0.000896684 -4.05984e-06 0.00155829 0.00428312 -1.86089e-05 0.000774413 0.000872028 -0.000642222 -0.000109526 -0.00129965 -0.00238144 -4.64953e-05 0.00100924 -1.14704e-05 0.000940812 0.00122389 0.000528424
internal_weight=0 174 22124 2492 19632 150 19482 12044 2452 2405 47 2368 755 729 1613 102 51 9592 705 674 56 1511 76 55 1435 618 1410 597 354 243
internal_count=22298 174 22124 2492 19632 150 19482 12044 2452 2405 47 2368 755 729 1613 102 51 9592 705 674 56 1511 76 55 1435 618 1410 597 354 243
shrinkage=0.05


Tree=89
num_leaves=31
num_cat=0
split_feature=5 23 24 17 27 27 24 20 12 18 6 22 10 30 24 3 20 27 27 15 2 16 11 25 26 25 24 25 11 8
split_gain=0.0115829 0.0654234 0.0316429 0.026673 0.0240078 0.0635597 0.0460349 0.0212737 0.0210872 0.0204141 0.192624 0.0263456 0.0291212 0.0602208 0.0214774 0.117175 0.0198528 0.0181528 0.0998256 0.17271 1.53289 0.194793 0.142285 0.942455 0.384873 0.256762 0.176243 0.152652 0.150899 0.10602
threshold=-0.00021567299999999997 0.46573400000000004 -1.9430249999999996e-05 -0.044990649999999993 -0.28372000000000014 -0.10523999999999999 6.8298150000000004e-06 6.5203850000000011e-05 0.00040746950000000005 0.25734950000000006 3.6716800000000007e-05 1.1047800000000001 1.5600950000000004e-06 -2.212345 0.00015588300000000003 1.8421550000000003e-05 -6.0038999999999994e-06 0.32697800000000021 -0.28372000000000014 0.68095400000000017 0.40825900000000009 6.3746400000000003 -2.2863049999999995e-06 0.19649850000000005 0.0050619550000000008 0.00010821600000000002 4.4574250000000016e-06 8.9669650000000017e-05 -0.00020413649999999998 -3.6778899999999996e-07
decision_type=2 2 2 2 2 2 2 2 2 2 2 2 2 2 2 2 2 2 2 2 2 2 2 2 2 2 2 2 2 2
left_child=1 2 -1 4 16 -6 8 -3 -7 11 -11 14 -13 -14 17 -16 -4 18 -2 22 21 -21 23 25 27 -20 28 -24 -27 -30
right_child=9 7 3 -5 5 6 -8 -9 -10 10 -12 12 13 -15 15 -17 -18 -19 19 20 -22 -23 24 -25 -26 26 -28 -29 29 -31
leaf_value=0.001462378945443026 -3.1681930153232984e-05 -0.00045211774660223775 0.0014214689230097324 -2.5751416516844714e-05 -0.0034102505744985218 0.0013856901314647984 -0.0022565616496972181 -0.0023519949636155195 -0.00038990474759153658 -0.00035190457198371983 0.0048789019336585304 -0.0001789874508685898 -0.00011239475906432535 -0.0037617852422408764 -0.00080727314772493044 0.0030140306444705598 -0.0002773181833771033 -3.9919319044357592e-05 -0.000403398238058223 0.0020647423796617661 0.011645107271690523 -0.003433379368786463 0.00049812720267070098 0.011496139480732382 -0.0041084590572219373 -0.0004227336059966957 0.0058407002483450233 -0.00056857458310147527 0.0031031937903880664 0.0010591053418738253
leaf_weight=34 7482 23 21 2938 22 20 31 41 102 88 22 100 26 20 47 35 95 8703 395 24 31 49 935 20 56 111 21 523 96 187
leaf_count=34 7482 23 21 2938 22 20 31 41 102 88 22 100 26 20 47 35 95 8703 395 24 31 49 935 20 56 111 21 523 96 187
internal_value=0 -8.60526e-05 -5.50005e-05 -7.09778e-05 -0.000527594 -0.000897345 -0.000536012 -0.00166923 -9.88236e-05 1.50913e-05 0.000694257 1.11303e-05 -0.000657923 -0.00169909 1.63497e-05 0.000823771 3.02209e-05 1.27965e-05 5.89984e-05 0.000336151 0.00232997 -0.00162578 0.000247688 0.000773821 -4.07459e-05 0.000509072 0.00137757 0.00011549 0.00113968 0.00175251
internal_weight=0 3327 3263 3229 291 175 153 64 122 18971 110 18861 146 46 18715 82 116 18633 9930 2448 104 73 2344 830 1514 810 415 1458 394 283
internal_count=22298 3327 3263 3229 291 175 153 64 122 18971 110 18861 146 46 18715 82 116 18633 9930 2448 104 73 2344 830 1514 810 415 1458 394 283
shrinkage=0.05


Tree=90
num_leaves=31
num_cat=0
split_feature=17 8 8 27 27 8 8 27 24 6 3 27 27 27 30 14 27 17 12 1 15 11 12 1 20 16 27 1 27 20
split_gain=0.0122931 0.0387883 0.162681 0.448872 0.0367301 0.102166 0.198486 0.159278 0.161337 0.145354 0.0711017 0.0481034 0.0296636 0.103718 0.0291399 0.0250656 0.0359333 0.0231632 0.016893 0.014488 0.0127431 0.170432 0.329105 0.148801 0.082018 0.0279619 0.0312955 0.0163869 0.0495058 0.0105371
threshold=0.071615300000000007 1.6409750000000002e-06 2.1106400000000002e-05 -0.62762200000000001 -0.36205799999999999 -6.8916349999999984e-06 -1.7511249999999996e-05 0.23070700000000008 -5.5773499999999998e-07 2.5087400000000003e-05 1.3327550000000003e-05 0.046556600000000024 -0.33568149999999991 0.27705850000000004 0.15853500000000012 -19.721699999999995 0.34863500000000031 0.18824000000000002 0.012040850000000001 -15.582199999999998 0.57638050000000007 3.6859100000000008e-05 9.009770000000001e-05 -15.426899999999998 2.8403000000000002e-05 27.517200000000006 0.40211800000000014 -14.617349999999998 0.78676840000000015 -0.00020163349999999998
decision_type=2 2 2 2 2 2 2 2 2 2 2 2 2 2 2 2 2 2 2 2 2 2 2 2 2 2 2 2 2 2
left_child=20 4 3 -3 19 6 14 8 10 11 -7 -10 -4 -14 17 -9 -17 -6 -15 -2 -1 25 -23 -24 29 27 -27 28 -22 -25
right_child=1 2 12 -5 5 7 -8 15 9 -11 -12 -13 13 18 -16 16 -18 -19 -20 -21 21 22 23 24 -26 26 -28 -29 -30 -31
leaf_value=2.3349995750805168e-06 -0.0010861873959049047 -0.00017432690989857471 -0.00010111075083505579 0.0062163179185098184 -0.00032853516064018813 -0.0021637970209627856 0.0042601582554717818 0.0014171110288727852 -0.0012587255154682812 -0.0075873750239788072 0.0018602470970585103 -0.0044244082206638443 -0.00438906348310411 0.00093862777453880748 0.00039760419249186936 -0.0024000254942802713 -0.00012229916489467748 -0.0026501095610332085 -0.00088643287690501902 -3.0422652762180644e-05 0.0027736360698509092 0.0070234213271760382 0.0047323004038480575 -0.0012215368080381139 0.0026734489553658708 -0.0022099708400105558 -0.00038677477368560435 -0.00012131278355138132 -0.00037892802965044134 -0.0001590041512073575
leaf_weight=20000 34 93 157 39 21 23 28 21 28 21 21 21 20 21 37 20 129 22 32 734 20 24 20 35 25 32 89 428 33 70
leaf_count=20000 34 93 157 39 21 23 28 21 28 21 21 21 20 21 37 20 129 22 32 734 20 24 20 35 25 32 89 428 33 70
internal_value=0 -0.000137165 0.000314679 0.00171382 -0.000278171 -0.000671984 0.000636983 -0.00116976 -0.00261574 -0.00410703 -0.000243231 -0.00261545 -0.000488306 -0.00132104 -0.000631129 -0.000200105 -0.000428034 -0.00151632 -0.000163296 -7.71622e-05 1.00483e-05 0.000208846 0.00158713 0.000717321 9.96319e-05 -0.000189528 -0.000868942 -1.86149e-05 0.000810719 -0.000513182
internal_weight=0 1522 362 132 1160 392 108 284 114 70 44 49 230 73 80 170 149 43 53 768 20776 776 174 150 130 602 121 481 53 105
internal_count=22298 1522 362 132 1160 392 108 284 114 70 44 49 230 73 80 170 149 43 53 768 20776 776 174 150 130 602 121 481 53 105
shrinkage=0.05


Tree=91
num_leaves=31
num_cat=0
split_feature=17 5 5 21 27 27 10 3 5 17 5 13 27 27 27 4 19 2 27 27 27 27 16 15 2 2 3 18 16 30
split_gain=0.0110945 0.0299416 0.0917528 0.331357 0.057491 0.14905 0.0223062 0.0192203 0.086581 0.0361269 0.136181 0.178219 0.354326 0.0972854 0.126291 0.0196521 0.0180707 0.0351104 0.0206798 0.0384068 0.016385 0.0587541 0.0143736 0.0115007 0.167016 0.231203 0.308358 0.0769994 0.0207907 0.0295665
threshold=0.071615300000000007 0.00045317150000000005 0.00028696050000000007 2.8705050000000001 0.23070700000000008 -0.062254999999999942 1.0472700000000001e-05 1.1856450000000002e-05 0.00016567550000000004 0.55062400000000011 9.2687550000000014e-05 1.2745400000000002 0.42748950000000019 -0.1538999999999999 0.34863500000000031 -8.8538449999999979e-06 2.3225550000000008 -0.30864799999999998 -0.083779999999999841 0.582704 -0.017509999999999911 0.32697800000000021 6.3746400000000003 0.57638050000000007 0.40825900000000009 1.5488650000000004 1.5016350000000002e-05 0.052812700000000011 27.517200000000006 -1.5240599999999997
decision_type=2 2 2 2 2 2 2 2 2 2 2 2 2 2 2 2 2 2 2 2 2 2 2 2 2 2 2 2 2 2
left_child=23 2 7 22 5 -3 -6 8 16 10 20 12 -12 -11 -15 -13 18 -18 -2 -20 -9 -22 -4 -1 28 26 -26 -27 -25 -30
right_child=1 4 3 -5 6 -7 -8 9 -10 13 11 15 -14 14 -16 -17 17 -19 19 -21 21 -23 -24 24 25 27 -28 -29 29 -31
leaf_value=2.2182499695181691e-06 -0.00018200628449878626 -0.00020868898903824053 4.7952176519174831e-05 0.0067397673220098535 0.0017271692526264816 -0.0053285356367095598 -0.0006343001787718095 -6.6715113904461276e-05 -0.0031391262247260398 -2.5331727061758064e-05 0.008472505189306305 0.0010734872739320916 -0.00051055985004928688 -0.0056339478938753022 -0.00046930883866574231 -0.00047876701963528749 0.002240322692978225 -0.00023844990731231521 -0.0029082670344822959 -0.00032940625427554118 -0.0031132311439640552 -0.00015982550108439435 -0.0018476762194768526 -6.309328319117178e-05 0.0074138358986601816 -0.00027666426426549152 0.00029532938013227097 0.003110940761980601 -0.00034504512189138613 -0.0021600913240157147
leaf_weight=20000 198 44 20 22 20 21 20 557 28 157 23 38 21 20 29 44 20 50 22 42 21 85 20 472 32 104 29 20 89 30
leaf_count=20000 198 44 20 22 20 21 20 557 28 157 23 38 21 20 29 44 20 50 22 42 21 85 20 472 32 104 29 20 89 30
internal_value=0 -0.000130306 -6.99379e-05 0.00181097 -0.000944992 -0.00186279 0.000546435 -0.000156002 -0.000469072 -4.27304e-05 0.000111216 0.00161804 0.00418513 -0.000632359 -0.00257732 0.00024057 -0.000243886 0.000469771 -0.000434558 -0.00121589 -0.000175148 -0.000744934 -0.000899862 9.54593e-06 0.000198404 0.00150948 0.00402963 0.000269724 -0.000212 -0.00080262
internal_weight=0 1522 1417 62 105 65 40 1355 360 995 789 126 44 206 49 82 332 70 262 64 663 106 40 20776 776 185 61 124 591 119
internal_count=22298 1522 1417 62 105 65 40 1355 360 995 789 126 44 206 49 82 332 70 262 64 663 106 40 20776 776 185 61 124 591 119
shrinkage=0.05


Tree=92
num_leaves=31
num_cat=0
split_feature=27 25 16 9 12 23 3 16 19 23 9 27 27 12 30 22 13 10 2 7 23 7 17 24 3 12 30 27 15 11
split_gain=0.0108221 0.101617 0.011895 0.0549949 0.303456 0.24283 0.0769799 0.119008 0.0494645 0.0327532 0.0444887 0.0299262 0.23107 0.232755 0.159208 0.183609 0.101143 0.0337034 0.173664 0.0290412 0.0303205 0.0148751 0.0172498 0.0142568 0.0887339 0.0498651 0.105075 0.139578 0.0177172 0.0984522
threshold=5.3977600000000008 -0.0086228749999999986 9.9858350000000016 7.7157650000000008e-06 0.00017480000000000002 0.37482500000000002 1.311025e-05 35.645800000000008 -14.505549999999998 1.0084920000000002 2.7372300000000006e-05 -0.17853299999999997 0.23070700000000008 8.9636900000000012e-06 0.67316500000000057 0.12208850000000002 -1.9866599999999999 -3.0511899999999994e-06 -2.4904099999999993 0.0043287000000000004 -0.0070486999999999989 0.067969650000000006 -0.051721699999999995 5.5494100000000013e-06 8.5848800000000017e-06 0.00073263000000000007 -6.1219749999999982 -0.62762200000000001 -0.98443649999999983 -7.2972699999999987e-05
decision_type=2 2 2 2 2 2 2 2 2 2 2 2 2 2 2 2 2 2 2 2 2 2 2 2 2 2 2 2 2 2
left_child=2 -2 23 11 5 -5 7 -6 -8 10 -10 16 13 -13 15 -15 -4 18 -14 -19 -21 22 -18 28 -25 26 -26 -28 29 -1
right_child=1 -3 3 4 6 -7 8 -9 9 -11 -12 12 17 14 -16 -17 21 19 -20 20 -22 -23 -24 24 25 -27 27 -29 -30 -31
leaf_value=0.003755373930471251 0.0037457043421454729 -4.2663936694650631e-05 0.0034815760841593146 0.0009409200123627671 -0.00031671227533965871 0.007960580893136053 -0.0026514869182224007 0.0040214714127359916 0.001977042115917853 -0.002093662446047044 -0.00043487111090816804 -0.0061280722241711131 -0.00053949786390603547 0.0039796922826843169 -0.0042515983332682833 -0.0021737980639079104 -0.00073930441655317898 -0.00013504474395534854 0.0047435175773682114 -0.0028965597704518585 -0.00049139380668126065 0.0011348646706954408 -4.1583480456987365e-05 0.0035704319761134685 -0.00021532978866944008 -0.00073498953914937512 -0.0003435553656701181 0.0049132325116910845 -4.2589183931281621e-07 -0.00042006014145954399
leaf_weight=20 20 154 20 28 43 22 27 25 22 24 146 33 60 22 26 27 113 471 21 20 38 22 410 20 107 104 23 28 20154 48
leaf_count=20 20 154 20 28 43 22 27 25 22 24 146 33 60 22 26 27 113 471 21 20 38 22 410 20 107 104 23 28 20154 48
internal_value=0 0.000392781 -3.08913e-06 -0.00013352 0.000434903 0.00402957 -0.000191345 0.00127821 -0.000647645 -0.000365855 -0.000119025 -0.000282826 -0.000497038 -0.00262877 -0.00108908 0.000588994 -1.06055e-05 -0.000119617 0.000830173 -0.000265048 -0.00132076 -0.000138759 -0.000192334 7.21612e-06 0.000360277 0.000115227 0.000674864 0.00254252 2.29261e-06 0.000808009
internal_weight=0 174 22124 1620 337 50 287 68 219 192 168 1283 718 108 75 49 565 610 81 529 58 545 523 20504 282 262 158 51 20222 68
internal_count=22298 174 22124 1620 337 50 287 68 219 192 168 1283 718 108 75 49 565 610 81 529 58 545 523 20504 282 262 158 51 20222 68
shrinkage=0.05


Tree=93
num_leaves=31
num_cat=0
split_feature=5 23 23 24 27 27 18 6 22 9 24 5 20 12 8 27 27 24 8 17 25 30 20 5 14 21 21 9 26 30
split_gain=0.0105985 0.0594567 0.026522 0.0217884 0.0545896 0.0994569 0.0198396 0.168421 0.0218737 0.0461754 0.0201586 0.0763044 0.0192604 0.0184048 0.0175553 0.0168332 0.0868271 0.197286 0.282756 0.105782 0.126614 0.0755034 0.308157 0.0974692 0.174072 0.1201 0.09429 0.295222 0.206896 0.145188
threshold=-0.00021567299999999997 0.46573400000000004 0.37482500000000002 2.0620900000000007e-06 -0.25878849999999998 0.25136499999999989 0.25734950000000006 3.6716800000000007e-05 1.1047800000000001 4.4190000000000004e-06 0.00055018350000000016 3.8336850000000005e-05 6.5203850000000011e-05 0.0024394550000000005 -6.2215849999999991e-08 0.40211800000000014 -0.28372000000000014 3.4340750000000005e-05 5.6453250000000005e-09 0.36560600000000004 0.16628250000000003 -2.1126450000000001 -0.00010038149999999999 0.00029694900000000007 -14.341999999999999 0.088343250000000012 0.27838100000000005 2.3457250000000003e-06 0.0055993150000000014 1.6140899999999998
decision_type=2 2 2 2 2 2 2 2 2 2 2 2 2 2 2 2 2 2 2 2 2 2 2 2 2 2 2 2 2 2
left_child=1 2 3 -1 -5 -6 8 -8 10 14 15 -12 -3 -14 -10 16 -2 19 -19 20 21 -18 -23 24 -24 -25 -26 28 29 -28
right_child=6 12 -4 4 5 -7 7 -9 9 -11 11 -13 13 -15 -16 -17 17 18 -20 -21 -22 22 23 25 26 -27 27 -29 -30 -31
leaf_value=-3.2855287887453652e-05 -3.0753477271143012e-05 -0.00043348477034748576 0.0015695930505171419 1.9296810460363059e-05 -0.0046974321751622489 -0.00044501260601298947 -0.0002942561141522178 0.004596909520808946 -0.0010209010573037501 -0.002555338196922094 0.0033330385021690745 -0.00098227116568956434 -0.0032750569777341473 -0.0011557040136540308 0.0002442098721490489 -3.9008121070786538e-05 -0.00015342950086341258 0.0077954285955500044 -0.00051155285298591484 -0.0032046715195809326 0.0032640351695590653 0.0065956085093785075 0.0030166836529315335 8.152778468684119e-07 0.00024917785167457082 -0.0029439749518844665 0.0032168950616181195 0.0063149519549268816 -0.0034123571826897279 -0.0018095942755644503
leaf_weight=3048 7500 23 25 126 20 44 88 22 42 25 20 21 21 20 79 8513 837 21 20 22 35 20 65 140 1331 46 51 27 26 20
leaf_count=3048 7500 23 25 126 20 44 88 22 42 25 20 21 21 20 79 8513 837 21 20 22 35 20 65 140 1331 46 51 27 26 20
internal_value=0 -8.23148e-05 -5.27125e-05 -6.5238e-05 -0.000584725 -0.00177389 1.44358e-05 0.000683977 1.05309e-05 -0.000599101 1.52868e-05 0.00112276 -0.00159157 -0.00224123 -0.00019492 1.28553e-05 5.6307e-05 0.000301686 0.00374324 0.00024783 0.000277066 0.000236276 0.000425258 0.000352921 0.000485127 -0.000727466 0.000372033 0.00169074 0.000403593 0.00180098
internal_weight=0 3327 3263 3238 190 64 18971 110 18861 146 18715 41 64 41 121 18674 10161 2661 41 2620 2598 2563 1726 1706 1520 186 1455 124 97 71
internal_count=22298 3327 3263 3238 190 64 18971 110 18861 146 18715 41 64 41 121 18674 10161 2661 41 2620 2598 2563 1726 1706 1520 186 1455 124 97 71
shrinkage=0.05


Tree=94
num_leaves=31
num_cat=0
split_feature=27 16 16 9 9 31 30 3 25 27 27 30 9 16 13 27 2 27 27 14 7 17 24 1 7 30 15 1 18 1
split_gain=0.00984661 0.0925714 0.0110276 0.0499032 0.212798 0.259314 0.615837 0.0377942 0.0543491 0.027857 0.208494 0.161213 0.148306 0.172762 0.0889114 0.0302562 0.281212 0.0202976 0.0762228 0.0144265 0.0134429 0.0154462 0.0120622 0.0792703 0.196964 0.0206295 0.0152542 0.0944065 0.0155712 0.0225976
threshold=5.3977600000000008 9.9858350000000016 9.9858350000000016 7.7157650000000008e-06 3.1510150000000005e-05 -2.2009899999999991 -1.3186349999999998 1.311025e-05 0.058745900000000011 -0.17853299999999997 0.23070700000000008 -2.212345 -6.9577599999999994e-06 21.135400000000004 -1.9866599999999999 0.55730000000000002 -0.12029599999999999 -0.31105549999999998 0.34863500000000031 -9.6263749999999977 0.067969650000000006 -0.051721699999999995 5.5494100000000013e-06 -13.404099999999998 0.019087850000000003 -1.9698450000000001 -0.98443649999999983 -12.169249999999998 0.009019095000000003 -13.708499999999999
decision_type=2 2 2 2 2 2 2 2 2 2 2 2 2 2 2 2 2 2 2 2 2 2 2 2 2 2 2 2 2 2
left_child=2 -2 22 9 5 -5 -7 8 -6 14 11 -11 -13 -14 -4 16 -12 -9 -19 -18 21 -16 26 24 -24 -25 27 -1 -28 -30
right_child=1 -3 3 4 7 6 -8 17 -10 10 15 12 13 -15 20 -17 19 18 -20 -21 -22 -23 23 25 -26 -27 28 -29 29 -31
leaf_value=0.0036362336157253596 -5.2605241486085139e-05 0.0034875940795678789 0.0032661016976635441 -0.0015746445577990795 0.0028752668375091163 -0.00046622968705324803 0.0092778167477057839 -0.00017780143671804657 -0.00042791353785794474 0.00011954333979366837 0.0058699350990355018 -0.00028676615911535922 -0.0026685884360361984 -0.0085656227969119082 -0.00069678813815055073 -0.0002457057138691973 -0.0021432539972011003 -0.0037885762396564875 -0.00043118910226900751 -0.00042246786690846986 0.0010824867756541194 -3.655102869227382e-05 0.0041742901106182539 -0.00030481617012849307 -0.0018884173664402973 0.0010016813560974292 4.3467190279370106e-06 -0.000452508626301551 -0.0014690520191271348 -0.000165909727630833
leaf_weight=20 153 21 20 28 20 34 31 96 33 38 20 20 27 23 113 540 21 22 73 29 22 410 37 188 21 36 19952 48 42 160
leaf_count=20 153 21 20 28 20 34 31 96 33 38 20 20 27 23 113 540 21 22 73 29 22 410 37 188 21 36 19952 48 42 160
internal_value=0 0.00037466 -2.94661e-06 -0.000128532 0.000412938 0.00244807 0.00418093 -0.000362747 0.00081857 -0.000270758 -0.000477432 -0.00250235 -0.00392566 -0.00538122 -8.11724e-06 -0.000118922 0.000859126 -0.000690547 -0.00120869 -0.0011452 -0.000128272 -0.000179203 6.97578e-06 0.000331727 0.00197917 -9.48434e-05 2.44705e-06 0.000750063 -7.54194e-08 -0.00043686
internal_weight=0 174 22124 1620 337 93 65 244 53 1283 718 108 70 50 565 610 70 191 95 50 545 523 20504 282 58 224 20222 68 20154 202
internal_count=22298 174 22124 1620 337 93 65 244 53 1283 718 108 70 50 565 610 70 191 95 50 545 523 20504 282 58 224 20222 68 20154 202
shrinkage=0.05


Tree=95
num_leaves=31
num_cat=0
split_feature=3 22 5 17 3 0 30 10 27 18 6 12 12 3 6 12 4 8 5 3 16 9 9 16 27 27 30 12 9 12
split_gain=0.00966012 0.0443044 0.0159771 0.00974632 0.0538881 0.0534602 0.0656794 0.030781 0.0358552 0.0111082 0.0650051 0.300104 0.807014 0.117501 0.152547 0.0416159 0.0379493 0.0325503 0.0665598 0.0223721 0.0151546 0.0321506 0.103339 0.177831 0.0165756 0.11711 0.06392 0.0919314 0.0117163 0.011465
threshold=7.8320150000000016e-06 -0.077302599999999985 0.00028696050000000007 0.55062400000000011 9.6628650000000012e-06 4.3154250000000003 -0.68019999999999958 5.5183700000000005e-05 0.20502550000000005 0.031572200000000009 3.5798600000000007e-05 0.00018308700000000004 1.8510700000000002e-05 1.4455600000000003e-05 0.00027125450000000008 0.0015922100000000004 7.7877000000000013e-05 -2.4590199999999995e-07 3.3152500000000012e-05 9.8468150000000014e-06 9.9858350000000016 6.3271350000000007e-06 2.7372300000000006e-05 22.760400000000004 0.5067425000000001 -0.17853299999999997 0.37146500000000021 8.9636900000000012e-06 8.1595800000000023e-05 2.8328600000000005e-09
decision_type=2 2 2 2 2 2 2 2 2 2 2 2 2 2 2 2 2 2 2 2 2 2 2 2 2 2 2 2 2 2
left_child=1 -1 -3 9 -5 7 -7 8 -6 20 16 12 -12 14 -13 -15 17 18 -11 -19 -2 24 23 -23 25 -22 27 -27 -24 -21
right_child=3 2 -4 4 5 6 -8 -9 -10 10 11 13 -14 15 -16 -17 -18 19 -20 29 21 22 28 -25 -26 26 -28 -29 -30 -31
leaf_value=0.0018452666427229384 1.2220106594157254e-06 2.7123729286139126e-05 0.0011414854193657555 0.0022224169163382614 -7.0817474174063671e-05 -0.00049890936668880548 -0.0033892301803765202 -0.0016120107436738461 0.0019445176325881713 0.0027995923870808579 -0.00090034024537696204 0.0049310263989138462 0.01206607371219434 -0.0033427330112317578 -0.00079858277447503775 -0.00074372939101277874 -0.0019893687631270885 -0.0016959071070792001 -0.00037890240972046743 0.00096759997177287005 -0.00010309893540518157 0.00010276126941837567 -0.0012593644230037171 0.0059275566213182179 -8.5674286181975341e-05 -0.003370082705281675 -0.0038885877070510217 0.00073529001577602078 -0.0001560492903625289 -0.00026486822928498892
leaf_weight=38 19991 596 34 20 146 57 30 26 26 28 30 21 20 20 26 67 27 26 40 21 281 38 32 20 265 25 34 30 97 186
leaf_count=38 19991 596 34 20 146 57 30 26 26 28 30 21 20 20 26 67 27 26 40 21 281 38 32 20 265 25 34 30 97 186
internal_value=0 0.00018727 8.72639e-05 -5.78347e-06 -0.000286428 -0.000462487 -0.00149557 -8.55642e-06 0.000233826 -1.76956e-06 0.000228311 0.000980517 0.00428623 -0.000252956 0.00176146 -0.0013412 -0.000193658 -3.25813e-05 0.00092989 -0.000313474 -7.42954e-06 -0.000217835 0.000358394 0.00211131 -0.000387527 -0.000603719 -0.00218433 -0.00113079 -0.00042974 -0.000139835
internal_weight=0 668 630 21630 305 285 87 198 172 21325 512 184 50 134 47 87 328 301 68 233 20813 822 187 58 635 370 89 55 129 207
internal_count=22298 668 630 21630 305 285 87 198 172 21325 512 184 50 134 47 87 328 301 68 233 20813 822 187 58 635 370 89 55 129 207
shrinkage=0.05


Tree=96
num_leaves=31
num_cat=0
split_feature=5 23 24 17 3 12 12 14 30 12 18 6 22 9 24 3 8 25 12 24 8 3 0 24 0 18 7 25 1 30
split_gain=0.00940542 0.0524174 0.0245595 0.0223981 0.0219762 0.0260194 0.0316543 0.0196327 0.0343864 0.0186519 0.0179691 0.149704 0.0187281 0.0397004 0.0175906 0.101367 0.0160304 0.0152068 0.0478775 0.0128988 0.0749185 0.0441199 0.0266417 0.0148648 0.0257445 0.0108521 0.080732 0.0177764 0.0391608 0.0281945
threshold=-0.00021567299999999997 0.46573400000000004 -1.9430249999999996e-05 -0.044990649999999993 9.8468150000000014e-06 6.4603200000000019e-05 0.00030992000000000004 -12.548649999999997 -2.5283099999999998 0.00086480150000000017 0.25734950000000006 3.6716800000000007e-05 1.1047800000000001 4.4190000000000004e-06 0.00015588300000000003 1.8421550000000003e-05 -6.2215849999999991e-08 1.3911100000000001 0.0012359050000000002 3.4340750000000005e-05 -4.8692499999999992e-06 1.0056250000000002e-05 8.8117350000000005 3.1748100000000009e-05 4.4597900000000008 0.031572200000000009 0.0044842550000000004 -0.23236549999999997 -12.588799999999997 -1.7380149999999992
decision_type=2 2 2 2 2 2 2 2 2 2 2 2 2 2 2 2 2 2 2 2 2 2 2 2 2 2 2 2 2 2
left_child=1 2 -1 4 -4 -6 -7 8 -8 -3 12 -12 14 16 17 -16 -14 19 -19 23 -21 -22 -23 25 -25 27 -27 28 -2 -30
right_child=10 9 3 -5 5 6 7 -9 -10 -11 11 -13 13 -15 15 -17 -18 18 -20 20 21 22 -24 24 -26 26 -28 -29 29 -31
leaf_value=0.0012870501099849422 -0.0019016072630692134 -0.0025966023011278596 0.00082377113589057543 -2.2380482399253765e-05 -0.0022725559823150187 0.0010729446112753946 -0.00046527363870154661 -0.00035985096976168685 -0.0027746191125414855 -0.00083346559877099939 -0.00027147988366674658 0.0043399017685177652 -0.00096873286148322572 -0.0023681161487475039 -0.00077204056470555834 0.0027821708733348979 0.00024018335492126172 0.00029605619738244318 -0.0027706225228030235 0.0029166180408747799 0.0017074374734875166 -0.00065572626022767982 0.0012420729161352609 -2.574036931802862e-05 -0.0022419936622463869 -0.00025565570918201154 0.0033581489284551938 1.4382565407186128e-05 -0.00037440624989382767 0.0015439726145897031
leaf_weight=34 38 24 29 2938 22 29 40 144 27 40 88 22 42 25 47 35 79 35 20 26 32 116 22 38 20 68 20 18028 148 22
leaf_count=34 38 24 29 2938 22 29 40 144 27 40 88 22 42 25 47 35 79 35 20 26 32 116 22 38 20 68 20 18028 148 22
internal_value=0 -7.75434e-05 -4.97486e-05 -6.38246e-05 -0.000482253 -0.000626813 -0.000475953 -0.000688835 -0.00139591 -0.00149464 1.3599e-05 0.000650796 9.88279e-06 -0.000554214 1.42834e-05 0.000745001 -0.00017944 1.10677e-05 -0.0008191 1.35254e-05 0.000416997 3.47021e-05 -0.000353179 9.22334e-06 -0.000789966 1.1753e-05 0.000565664 9.08001e-06 -0.000450509 -0.000126145
internal_weight=0 3327 3263 3229 291 262 240 211 67 64 18971 110 18861 146 18715 82 121 18633 55 18578 196 170 138 18382 58 18324 88 18236 208 170
internal_count=22298 3327 3263 3229 291 262 240 211 67 64 18971 110 18861 146 18715 82 121 18633 55 18578 196 170 138 18382 58 18324 88 18236 208 170
shrinkage=0.05


Tree=97
num_leaves=31
num_cat=0
split_feature=4 26 10 26 7 27 17 3 27 4 15 3 27 17 27 27 27 24 3 20 15 27 5 24 15 22 20 6 0 8
split_gain=0.00907486 0.0468941 0.0300164 0.0173976 0.187608 0.0164513 0.012069 0.0500034 0.0961933 0.0356643 0.0161671 0.113096 0.0141762 0.0125392 0.0160312 0.0127124 0.0974194 0.186201 0.302513 0.160985 0.142014 0.103552 0.0734547 0.0588201 0.0578036 0.0538517 0.0510757 0.0974221 0.0652949 0.0575966
threshold=-0.00030608549999999995 0.026828050000000003 -1.2531099999999998e-05 1.0444035000000003 0.011482200000000003 1.9298565000000001 0.55062400000000011 2.1315500000000006e-05 -0.20585514999999996 -4.1291249999999992e-05 -1.7158549999999997 1.8183200000000002e-05 0.15228 -1.7215749999999999 1.4597525000000002 0.32697800000000021 -0.041862500000000073 1.1381800000000002e-05 1.4134050000000002e-05 0.00016589200000000003 0.74545400000000017 0.030899999999999931 0.00029694900000000007 2.2835250000000007e-06 1.4966000000000002 -0.034152749999999996 -4.7697749999999987e-06 3.2598500000000003e-05 11.6714 -4.3394649999999993e-08
decision_type=2 2 2 2 2 2 2 2 2 2 2 2 2 2 2 2 2 2 2 2 2 2 2 2 2 2 2 2 2 2
left_child=1 -1 -3 6 5 -5 10 9 -9 -8 11 -2 -11 14 -12 16 24 19 -19 20 21 22 26 25 -15 -23 29 28 -28 -18
right_child=3 2 -4 4 -6 -7 7 8 -10 12 13 -13 -14 15 -16 -17 17 18 -20 -21 -22 23 -24 -25 -26 -27 27 -29 -30 -31
leaf_value=-6.2509798570296946e-05 -0.00057548275062985416 -0.00039373897333765248 -0.0026496192059030053 -0.0004514906512052433 0.0050465161420288496 0.0011207193230802659 0.0018961531505337918 -1.4616540703054457e-05 -0.003731683144932114 8.7895162290288546e-05 -0.0018820656783645974 0.0037398356559358286 -0.0012969934427098412 -2.5213343759096828e-05 -4.1982167749665679e-05 -3.8430978506226759e-05 0.00036867038939522606 0.0079549349223574008 1.6196263355336022e-05 -0.0039565441082231702 0.0043392581039701002 -0.0019978644159790648 -0.0021772196756154744 0.0025742991802482204 0.0026655018108431251 -2.6479839225688216e-05 0.00087020468804870814 -0.0020707783056423067 -0.0017530167575532688 0.0021089211990356557
leaf_weight=1352 49 30 29 99 20 20 25 46 28 94 20 22 23 9965 29 8609 74 21 28 22 22 36 21 21 20 918 464 33 25 133
leaf_count=1352 49 30 29 99 20 20 25 46 28 94 20 22 23 9965 29 8609 74 21 28 22 22 36 21 21 20 918 464 33 25 133
internal_value=0 -0.000122725 -0.00150256 8.29053e-06 0.000565807 -0.000187254 4.55549e-06 -0.000367242 -0.00142107 0.000181937 8.46686e-06 0.000761658 -0.000184348 5.85328e-06 -0.000793037 7.77105e-06 4.14704e-05 0.000378117 0.00341851 0.0002939 0.000347426 0.000296515 0.000738214 -4.32526e-05 -1.98238e-05 -0.000100872 0.000822198 0.000558647 0.000736093 0.0014868
internal_weight=0 1411 59 20887 139 119 20748 216 74 142 20532 71 117 20461 49 20412 11803 1818 49 1769 1747 1725 750 975 9985 954 729 522 489 207
internal_count=22298 1411 59 20887 139 119 20748 216 74 142 20532 71 117 20461 49 20412 11803 1818 49 1769 1747 1725 750 975 9985 954 729 522 489 207
shrinkage=0.05


Tree=98
num_leaves=31
num_cat=0
split_feature=27 22 2 14 22 26 11 25 25 1 6 7 4 31 5 17 23 27 27 21 1 8 22 11 23 27 31 17 31 1
split_gain=0.00881357 0.0881836 0.00922876 0.0379463 0.0385175 0.036325 0.0321539 0.28394 0.0396256 0.0469858 0.0451913 0.0402165 0.0277894 0.0412055 0.0219832 0.0181638 0.0154921 0.0148696 0.0793137 0.239777 0.432883 0.202198 0.170522 0.0708861 0.0827949 0.0575718 0.0904224 0.152391 0.135479 0.134305
threshold=5.3977600000000008 -0.014416699999999998 1.4400350000000002 -22.260449999999995 2.0589400000000002 0.14670800000000003 0.00050133000000000013 -0.0028442299999999997 -0.23236549999999997 -12.633099999999997 5.8330150000000009e-05 0.0025550350000000002 -4.5205849999999997e-05 3.8691100000000005 9.9539250000000014e-05 0.55062400000000011 0.13767800000000002 0.55730000000000002 -0.28372000000000014 1.7517900000000002 -13.889449999999998 1.3972150000000004e-06 -0.37774049999999998 -0.0013550999999999999 0.016072950000000003 0.12853499999999998 0.23057499999999956 -0.070602499999999985 -1.1786349999999997 -14.617349999999998
decision_type=2 2 2 2 2 2 2 2 2 2 2 2 2 2 2 2 2 2 2 2 2 2 2 2 2 2 2 2 2 2
left_child=2 -2 6 -4 5 15 8 -8 9 10 11 -1 13 -11 -14 16 -5 18 -10 23 -21 22 -22 24 -20 26 27 -25 -29 -28
right_child=1 -3 3 4 -6 -7 7 -9 17 12 -12 -13 14 -15 -16 -17 -18 -19 19 20 21 -23 -24 25 -26 -27 29 28 -30 -31
leaf_value=-0.0009418070688337574 0.0034779132470794138 -5.1180507388935793e-05 -0.001691350970610175 -4.6539834530091065e-05 0.0020751938645151399 -0.0016753110386032079 0.0049664615103665712 -0.00012653391063347126 -3.0303719154863042e-05 0.0026270037662470716 6.0281596826691259e-05 -0.0037869980918778176 -0.00023675217443710876 -0.0003917295934605556 -0.0015060953970905992 0.0011896608552919574 -0.00061568747042297072 -4.2200066200154946e-05 -0.00023822865525275003 0.0075139564251707454 0.003515052860496904 0.0053129529219586406 -0.0015980884238536144 0.004079719216850422 -0.0028036953473929318 -4.571645195895974e-05 0.0039823757750647405 -0.00040392747269091603 0.0010517868663670815 -7.4911038093016265e-05
leaf_weight=23 20 154 36 3342 21 35 32 189 8033 20 27 27 272 26 39 29 124 6853 310 31 22 20 63 34 35 933 21 218 599 710
leaf_count=23 20 154 36 3342 21 35 32 189 8033 20 27 27 272 26 39 29 124 6853 310 31 22 20 63 34 35 933 21 218 599 710
internal_value=0 0.000354462 -2.78776e-06 -7.61992e-05 -5.98248e-05 -7.25261e-05 1.14177e-05 0.000610913 4.18423e-06 -0.000467885 -0.00158809 -0.00247821 -0.000226272 0.000920763 -0.00039593 -5.64753e-05 -6.69017e-05 1.56415e-05 5.1582e-05 0.000271137 0.00232238 0.000789625 -0.000274687 0.000173596 -0.000498493 0.000265791 0.000449505 0.000799853 0.000663359 4.16458e-05
internal_weight=0 174 22124 3587 3551 3530 18537 221 18316 434 77 50 357 46 311 3495 3466 17882 11029 2996 136 105 85 2860 345 2515 1582 851 817 731
internal_count=22298 174 22124 3587 3551 3530 18537 221 18316 434 77 50 357 46 311 3495 3466 17882 11029 2996 136 105 85 2860 345 2515 1582 851 817 731
shrinkage=0.05


Tree=99
num_leaves=31
num_cat=0
split_feature=17 5 5 21 27 27 1 0 30 5 17 16 1 1 27 27 13 5 14 16 15 2 1 2 30 4 16 27 15 17
split_gain=0.00862264 0.0255119 0.0802539 0.278608 0.0508234 0.129816 0.0267304 0.0391647 0.047192 0.0301802 0.0876944 0.135388 0.0856742 0.0247766 0.0246382 0.0926894 0.0138864 0.012455 0.0189577 0.0119268 0.00965692 0.14266 0.189336 0.195658 0.181817 0.0309058 0.0188283 0.0273983 0.0173459 0.0110113
threshold=0.071615300000000007 0.00045317150000000005 0.00028696050000000007 2.8705050000000001 0.23070700000000008 -0.062254999999999942 -12.678699999999997 3.5246950000000004 1.8558150000000009 9.2687550000000014e-05 0.55062400000000011 16.608700000000002 -11.038499999999997 -10.977749999999999 -0.1538999999999999 0.20502550000000005 2.1382650000000005 0.00015302900000000003 -17.648549999999997 6.3746400000000003 0.57638050000000007 0.40825900000000009 -15.900799999999998 0.9924400000000001 -0.91487500000000022 0.00022120900000000002 27.517200000000006 0.40211800000000014 1.3434150000000002 -0.020821149999999997
decision_type=2 2 2 2 2 2 2 2 2 2 2 2 2 2 2 2 2 2 2 2 2 2 2 2 2 2 2 2 2 2
left_child=20 2 6 19 5 -3 7 17 -9 14 11 12 -11 -6 -8 -16 -17 18 -2 -4 29 26 -23 24 -24 28 -22 -28 -25 -1
right_child=1 4 3 -5 13 -7 9 8 -10 10 -12 -13 -14 -15 15 16 -18 -19 -20 -21 21 22 23 25 -26 -27 27 -29 -30 -31
leaf_value=-8.9159468653254121e-05 -0.0013391653956289723 -0.00018613668137483976 7.7613046305486928e-05 0.0062194459426047448 0.0017797921430883436 -0.0049642299933891215 -8.2831794180884051e-06 -0.0031646413698487373 -0.00013184593808546197 0.0031149057709130416 -0.0018587912012922711 0.0046915840043726823 -0.00046836711085431848 -0.00070901348226470873 -0.002816396035725633 -0.00026680996523260718 0.0011514036811422557 0.00086594958147976459 -0.00014182685038201647 -0.0016491471399785952 -5.6121408740290143e-05 0.0057471265606264671 0.00045610356631056807 -0.00030186882583570375 0.0070355900668627805 0.001208217025393016 -0.0020108408739361039 -0.00029975822444716817 -0.0019663573027355599 1.6849605186749104e-05
leaf_weight=2858 43 44 20 22 20 21 769 29 23 22 28 23 69 20 39 126 20 21 143 20 472 22 21 72 21 29 32 87 20 17142
leaf_count=2858 43 44 20 22 20 21 769 29 23 22 28 23 69 20 39 126 20 21 143 20 472 22 21 72 21 29 32 87 20 17142
internal_value=0 -0.000114876 -5.91522e-05 0.00169995 -0.000866888 -0.00172983 -0.000139643 -0.000596477 -0.00182321 -3.16864e-05 0.000648386 0.00126418 0.000397919 0.000535389 -0.000132913 -0.00065097 -7.25341e-05 -0.000288311 -0.000418631 -0.000785767 8.41557e-06 0.000181474 0.00139318 0.000805535 0.00374585 -0.000215069 -0.000197826 -0.000759881 -0.000663714 1.70091e-06
internal_weight=0 1522 1417 62 105 65 1355 259 52 1096 142 114 91 40 954 185 146 207 186 40 20776 776 185 163 42 121 591 119 92 20000
internal_count=22298 1522 1417 62 105 65 1355 259 52 1096 142 114 91 40 954 185 146 207 186 40 20776 776 185 163 42 121 591 119 92 20000
shrinkage=0.05


Tree=100
num_leaves=31
num_cat=0
split_feature=1 14 14 30 1 1 30 25 4 4 3 30 14 17 18 16 6 1 16 6 7 18 7 11 12 13 28 28 28 28
split_gain=0.00808663 0.141206 0.0134248 0.048131 0.0616002 0.0204704 0.0192257 0.00915464 0.0130417 0.0102854 0.0369647 0.00804177 0.0367245 0.0293007 0.029123 0.0252676 0.0325389 0.0218623 0.10861 0.26445 0.367754 0.069108 0.0552486 0.0588305 0.0366111 0.0354476 0.0327921 0.272778 0.0270629 0.0829965
threshold=-18.778949999999998 -16.786249999999999 -18.142349999999997 -2.4188749999999994 -16.461499999999997 -14.209399999999999 -5.5752149999999983 -0.27345599999999998 2.4077300000000004e-05 9.2718650000000007e-05 1.3494650000000001e-05 2.3386650000000002 -5.5744999999999996 -0.15311499999999997 0.25734950000000006 81.672750000000022 2.0912100000000003e-05 -13.209849999999998 4.6772150000000012 4.6013400000000009e-05 0.026900150000000001 0.038678600000000007 0.0046168100000000016 -6.1838649999999991e-05 0.0014738600000000002 -2.2479999999999998 -0.20380000000000006 0.20585515000000001 -0.082914999999999947 0.17853300000000003
decision_type=2 2 2 2 2 2 2 2 2 2 2 2 2 2 2 2 2 2 2 2 2 2 2 2 2 2 2 2 2 2
left_child=1 -1 3 4 -2 6 -6 8 -7 -9 -11 12 14 -13 15 17 -17 18 22 21 -21 -20 23 -4 25 -24 -26 -28 -25 -30
right_child=2 -3 11 -5 5 7 -8 9 -10 10 -12 13 -14 -15 -16 16 -18 -19 19 20 -22 -23 24 28 26 -27 27 -29 29 -31
leaf_value=0.0042991821421310304 0.0025058211271905086 -0.00014099690292212005 0.0023658259081852716 -0.0019713522728933542 -0.0020762615304120119 -0.00023463379668546243 -0.00042591376805830813 -0.00011850398761585557 -0.0016823852063334061 0.0023431546281790362 -4.0705375321281857e-05 -0.00065679731192152602 0.0018009838934160832 -2.5227584953587065e-05 0.0015039042216923202 -0.00011748372755846504 -0.0022871821411643871 7.5908791764895142e-06 0.00085448644539290984 0.0096834223350742848 0.00087024079961150265 -0.0026356700671148368 0.0021191886536901924 -0.00031679977273014608 -8.9348251870328223e-05 -7.1747122329544053e-05 -0.0055222144627397694 -0.00010521296637247143 0.0018815300052020701 -0.00025948235829759451
leaf_weight=20 22 171 38 36 25 60 60 765 21 20 87 191 29 4768 33 48 27 15086 37 20 29 23 24 117 130 80 29 117 79 106
leaf_count=20 22 171 38 36 25 60 60 765 21 20 87 191 29 4768 33 48 27 15086 37 20 29 23 24 117 130 80 29 117 79 106
internal_value=0 0.000323943 -2.7988e-06 -0.000173398 -0.000112335 -0.000167826 -0.00091131 -0.000101513 -0.000609977 -5.42819e-05 0.000404876 6.10017e-06 2.32933e-05 -4.9553e-05 2.00759e-05 1.70136e-05 -0.000898575 2.13283e-05 0.00027132 0.00174221 0.00446746 -0.000483407 4.86429e-05 0.000511681 -0.000365654 0.000433853 -0.000666918 -0.00118119 0.000278378 0.000654788
internal_weight=0 191 22107 1096 1060 1038 85 953 81 872 107 21011 16052 4959 16023 15990 75 15915 829 109 49 60 720 340 380 104 276 146 302 185
internal_count=22298 191 22107 1096 1060 1038 85 953 81 872 107 21011 16052 4959 16023 15990 75 15915 829 109 49 60 720 340 380 104 276 146 302 185
shrinkage=0.05


Tree=101
num_leaves=31
num_cat=0
split_feature=23 9 9 9 23 14 27 27 3 14 24 4 3 27 27 27 10 27 27 30 11 3 14 13 18 25 27 20 8 14
split_gain=0.0079959 0.0851222 0.139054 0.193662 0.306376 0.081035 0.0692647 0.418082 0.0407887 0.0388912 0.0221452 0.0281399 0.0486817 0.0604452 0.214812 0.0298025 0.0149195 0.0290699 0.0997788 0.0141628 0.0140508 0.010712 0.0358416 0.0378791 0.0350812 0.0145419 0.00945083 0.00782515 0.125995 0.0111481
threshold=0.036132750000000005 5.1305750000000011e-07 3.1510150000000005e-05 1.0026325000000003e-05 0.37482500000000002 -6.3816599999999992 -0.25878849999999998 0.046556600000000024 1.9678150000000004e-05 -8.7002149999999983 3.3346300000000002e-06 1.1864300000000003e-05 1.5113550000000002e-05 -0.20585514999999996 0.37778215000000021 -0.062254999999999942 2.3242100000000002e-05 -0.31105549999999998 0.23070700000000008 1.4190099999999994 -6.3374049999999992e-06 7.8320150000000016e-06 -18.949549999999999 -2.8570549999999995 0.012699200000000003 -0.0086228749999999986 0.96159860000000019 -0.00061194249999999993 -3.7056749999999995e-06 -20.072749999999996
decision_type=2 2 2 2 2 2 2 2 2 2 2 2 2 2 2 2 2 2 2 2 2 2 2 2 2 2 2 2 2 2
left_child=21 10 3 5 8 6 -3 -8 -5 20 -2 -12 13 -13 -15 -14 17 -4 -19 26 -9 22 -1 -24 25 -25 -18 28 -23 -29
right_child=1 2 16 4 -6 -7 7 9 -10 -11 11 12 15 14 -16 -17 19 18 -20 -21 -22 27 23 24 -26 -27 -28 29 -30 -31
leaf_value=0.0021954536298091462 -0.00016766135408396055 -0.00035396556648066156 -0.00013547463780317533 -0.00068732318264665094 0.0063828272268251461 -0.002572754037166967 0.0074754942113624727 -0.0017662756970094054 0.0021858050368531883 0.0018546285613138026 -0.00036492294997001091 -0.00013986167506556269 0.00073677251324674264 -0.0071055597346276053 -0.00045912808653215069 -0.0013469761419401039 -0.0010113701274668849 -0.0042416001336001187 -0.00023631207004655154 0.00073111524140516014 -0.00019362712977528311 0.0039513115846784783 0.0019029395494726488 0.0011429001523290273 -0.0020065598421388129 6.0132969810951502e-05 0.00011873561963659234 -0.00034145048276799169 -0.00058689268709153676 4.252301814736008e-06
leaf_weight=22 615 98 78 30 39 22 23 20 21 20 329 27 37 20 31 32 37 23 48 39 49 20 29 33 20 514 37 236 65 19684
leaf_count=22 615 98 78 30 39 22 23 20 21 20 329 27 37 20 31 32 37 23 48 39 49 20 29 33 20 514 37 236 65 19684
internal_value=0 -0.00010506 0.00038212 0.00107807 0.00304681 0.000314338 0.000616796 0.00146621 0.00049573 -8.67491e-05 -0.000365843 -0.000621897 -0.00119703 -0.00205283 -0.00306557 -0.000229604 -0.000473209 -0.000801791 -0.0015338 -3.99467e-05 -0.000649467 8.53301e-06 0.000213557 0.000140399 5.02519e-05 0.000125455 -0.000446317 2.19936e-06 0.00048092 1.56626e-07
internal_weight=0 1675 584 322 90 232 210 112 51 89 1091 476 147 78 51 69 262 149 71 113 69 20623 618 596 567 547 74 20005 85 19920
internal_count=22298 1675 584 322 90 232 210 112 51 89 1091 476 147 78 51 69 262 149 71 113 69 20623 618 596 567 547 74 20005 85 19920
shrinkage=0.05


Tree=102
num_leaves=31
num_cat=0
split_feature=27 23 16 9 9 31 30 3 25 9 21 1 6 6 3 2 27 27 22 23 9 27 24 27 27 22 30 10 17 17
split_gain=0.00766704 0.0800545 0.00847601 0.0359434 0.141862 0.220796 0.519286 0.029432 0.0434387 0.0268593 0.0254843 0.0780728 0.0329903 0.041565 0.0247361 0.0783128 0.0226118 0.127465 0.0869308 0.0524787 0.0449246 0.0188872 0.0187969 0.0161125 0.0646695 0.0126692 0.0122283 0.0160941 0.0109962 0.0123228
threshold=5.3977600000000008 -0.0063662349999999987 9.9858350000000016 7.7157650000000008e-06 3.1510150000000005e-05 -2.2009899999999991 -1.3186349999999998 1.3052000000000001e-05 0.058745900000000011 4.4190000000000004e-06 4.2965400000000011 -15.739449999999998 5.4348550000000007e-05 3.9336850000000003e-05 9.9020000000000028e-06 -0.065943749999999982 -0.33568149999999991 0.25136499999999989 -0.18645849999999997 0.21659700000000001 -6.9130749999999984e-07 0.25136499999999989 7.4467800000000019e-05 -0.31105549999999998 0.37778215000000021 -0.6849559999999999 -0.54787499999999978 2.6170150000000006e-07 0.47103600000000007 0.17157850000000002
decision_type=2 2 2 2 2 2 2 2 2 2 2 2 2 2 2 2 2 2 2 2 2 2 2 2 2 2 2 2 2 2
left_child=2 -2 28 9 5 -5 -7 8 -6 10 16 -12 13 14 15 -13 -4 18 20 -20 -18 -14 -17 -9 -25 -23 -16 -28 29 -1
right_child=1 -3 3 4 7 6 -8 23 -10 -11 11 12 21 -15 26 22 17 -19 19 -21 -22 25 -24 24 -26 -27 27 -29 -30 -31
leaf_value=8.8098751553805964e-06 0.0031496270102665718 -7.7412396835167168e-05 -7.9177632928154458e-05 -0.0017034547295874552 0.0025966556607545498 -0.00065986291932965883 0.0082878043935183561 -0.00011899415322968895 -0.00037377867929535571 -0.0015428808250386571 0.0027475781837263363 0.0034899139015396943 -0.0019584424433912407 0.0023411335682612844 -4.4831837179705156e-05 0.00074187309248372911 0.0011780466321761197 -0.00014430922637629118 -0.0023604189858870642 -0.0056062630936503412 -0.0021732452872674913 -0.001272154343314469 -0.0014258958367281594 -0.0032789048025733793 -0.00027665546906679138 0.00034424807452995557 -6.7978699036757466e-05 -0.0019455754691513165 0.0010987560534292994 -0.00037709398895945822
leaf_weight=20272 22 152 336 28 20 34 31 97 32 38 26 20 31 20 277 20 20 307 33 20 20 22 20 24 71 27 25 21 23 209
leaf_count=20272 22 152 336 28 20 34 31 97 32 38 26 20 31 20 277 20 20 307 33 20 20 22 20 24 71 27 25 21 23 209
internal_value=0 0.000330604 -2.60012e-06 -0.000112702 0.000346835 0.00200849 0.00360749 -0.000286502 0.000768696 -0.000233407 -0.000193439 7.85818e-05 -6.50909e-05 0.000119021 2.98395e-06 0.000935297 -0.000381562 -0.000635565 -0.00225724 -0.00358527 -0.000497599 -0.000992555 -0.000342011 -0.000572285 -0.00103512 -0.000381484 -0.000170201 -0.000925142 6.09893e-06 4.87189e-06
internal_weight=0 174 22124 1620 337 93 65 244 52 1283 1245 509 483 403 383 60 736 400 93 53 40 80 40 192 95 49 323 46 20504 20481
internal_count=22298 174 22124 1620 337 93 65 244 52 1283 1245 509 483 403 383 60 736 400 93 53 40 80 40 192 95 49 323 46 20504 20481
shrinkage=0.05


Tree=103
num_leaves=31
num_cat=0
split_feature=4 18 15 18 7 7 24 24 27 17 25 2 3 1 27 25 1 7 30 15 7 12 4 19 23 9 9 27 27 2
split_gain=0.00751514 0.0421737 0.0212317 0.0144943 0.137081 0.020145 0.0185745 0.0117817 0.0482291 0.00992158 0.0136041 0.135436 0.0203329 0.0190261 0.0132648 0.00972745 0.0209158 0.0429736 0.0227022 0.0169912 0.060538 0.161032 0.0108939 0.00958182 0.00844842 0.0274321 0.0758953 0.0819254 0.357767 0.156884
threshold=-0.00030608549999999995 0.13004500000000005 1.0719600000000002 0.25734950000000006 0.01017 0.0022192300000000004 0.00055018350000000016 0.00023102950000000003 -0.20585514999999996 -1.7215749999999999 -0.53959199999999985 0.84878600000000015 9.4191300000000014e-06 -12.248949999999999 1.4597525000000002 -0.23236549999999997 -12.633099999999997 0.0077962450000000011 -1.1009999999999993 0.89529000000000003 0.0010420150000000001 0.00022392350000000004 -1.4088249999999998e-05 29.479850000000003 0.036132750000000005 5.1305750000000011e-07 3.1510150000000005e-05 0.25136499999999989 -0.28372000000000014 -0.32811699999999994
decision_type=2 2 2 2 2 2 2 2 2 2 2 2 2 2 2 2 2 2 2 2 2 2 2 2 2 2 2 2 2 2
left_child=1 2 -1 6 5 23 7 9 -9 14 11 12 -11 -14 -2 16 17 -12 -18 24 22 -22 -21 -5 -17 -26 27 28 -27 -30
right_child=3 -3 -4 4 -6 -7 -8 8 -10 10 15 -13 13 -15 -16 19 18 -19 -20 20 21 -23 -24 -25 25 26 -28 -29 29 -31
leaf_value=-5.0888017910488879e-05 -0.0016967098799068481 -0.0021897503091774222 -0.0016166398021265527 -0.00023948432148352045 0.0043367107224185023 -0.0015285496662148614 0.0010944937755807472 0.00022972879601986602 -0.0025282527633902173 -0.001564020911852519 -0.0028654549514282156 0.0031008726220247093 0.0014387082416942578 -0.00023326705174217191 -2.2905187230709749e-05 1.0095134361911848e-05 -0.0003041400381854536 0.00029670800556362212 0.0014967390548554251 -0.0013214153890839953 0.0054192715272802158 -0.00023489179032313746 2.8894436615963183e-05 0.00088665147472056561 -0.00030356558360205551 -0.0003557213817084348 -0.00059472072496285328 -0.00032727530636674027 0.0075111888245575969 0.0019552519544959071
leaf_weight=1365 20 24 22 51 20 22 39 51 23 24 22 38 20 114 29 18888 140 21 20 20 20 34 59 30 771 89 173 98 27 24
leaf_count=1365 20 24 22 51 20 22 39 51 23 24 22 38 20 114 29 18888 140 21 20 20 20 34 59 30 771 89 173 98 27 24
internal_value=0 -0.000111681 -7.57233e-05 7.54451e-06 0.000548715 -0.000186818 4.33877e-06 2.28733e-06 -0.000627482 4.54402e-06 6.23421e-06 0.000420808 -0.000223764 1.62815e-05 -0.000706091 2.25222e-06 -0.000342138 -0.00132114 -7.90302e-05 5.71265e-06 0.000568989 0.00185924 -0.000312956 0.000177603 1.97993e-06 -0.000127699 0.000202212 0.000781496 0.00155764 0.00489663
internal_weight=0 1411 1387 20887 123 103 20764 20725 74 20651 20602 196 158 134 49 20406 203 43 160 20203 133 54 79 81 20070 1182 411 238 140 51
internal_count=22298 1411 1387 20887 123 103 20764 20725 74 20651 20602 196 158 134 49 20406 203 43 160 20203 133 54 79 81 20070 1182 411 238 140 51
shrinkage=0.05


Tree=104
num_leaves=31
num_cat=0
split_feature=5 23 23 5 24 27 27 18 6 24 0 22 9 8 27 27 24 8 17 25 21 15 11 16 3 14 6 12 21 24
split_gain=0.00747614 0.0460468 0.0194874 0.0194414 0.0174675 0.0453423 0.0661916 0.0146641 0.11938 0.0143124 0.0649824 0.012324 0.0397766 0.0121314 0.011803 0.0637089 0.158828 0.227651 0.0748534 0.0976729 0.063407 0.132544 0.593217 0.192289 0.045444 0.0431885 0.0324979 0.078046 0.0682917 0.0670169
threshold=-0.00021567299999999997 0.46573400000000004 0.37482500000000002 -0.00035155149999999998 2.0620900000000007e-06 -0.41026000000000001 0.20502550000000005 0.25734950000000006 3.6716800000000007e-05 0.00055018350000000016 3.9384800000000006 1.1047800000000001 4.4190000000000004e-06 -6.2215849999999991e-08 0.40211800000000014 -0.28372000000000014 3.4340750000000005e-05 5.6453250000000005e-09 0.36560600000000004 0.16628250000000003 3.0089350000000006 0.68095400000000017 3.6859100000000008e-05 6.3746400000000003 7.8320150000000016e-06 -12.250049999999998 4.8139550000000006e-05 3.7860550000000006e-07 0.12404950000000002 -2.2424449999999992e-06
decision_type=2 2 2 2 2 2 2 2 2 2 2 2 2 2 2 2 2 2 2 2 2 2 2 2 2 2 2 2 2 2
left_child=1 2 4 -3 -1 -6 -7 9 -9 11 -11 14 13 -13 15 -2 18 -18 19 20 21 24 23 -23 25 -17 -26 28 -28 -29
right_child=7 3 -4 -5 5 6 -8 8 -10 10 -12 12 -14 -15 -16 16 17 -19 -20 -21 -22 22 -24 -25 26 -27 27 29 -30 -31
leaf_value=-2.4825566405966139e-05 -2.7878265348344276e-05 -0.00078832663443156284 0.0013475328399799764 -0.0026443370989346435 5.7706045542739155e-05 -0.0038092667302407793 -0.00047472788265503889 -0.00023584072532271836 0.0038820989683947781 0.002981660572404508 -0.0010006493459167403 -0.00076235313044023881 -0.0022664981333073231 0.00028931839834409474 -3.3116675493510092e-05 0.0033757316067931243 0.006980784410344703 -0.00047292004950577393 -0.0026956825908696792 0.0028566359540595191 -0.0018299010714001368 0.003067095393053023 0.0093982183607295156 -0.0033520078408141025 0.0002205126481497026 0.0006488724970006173 -0.00032773694957458332 -0.0028637901326874272 -0.0043140115271117314 0.0001014844580734667
leaf_weight=3048 7500 43 25 21 122 22 46 88 22 20 21 42 25 79 8513 20 21 20 22 35 38 20 21 28 1917 53 22 20 21 403
leaf_count=3048 7500 43 25 21 122 22 46 88 22 20 21 42 25 79 8513 20 21 20 22 35 38 20 21 28 1917 53 22 20 21 403
internal_value=0 -6.91345e-05 -4.30834e-05 -0.00139733 -5.38201e-05 -0.000518954 -0.00155355 1.21243e-05 0.000587747 8.7672e-06 0.000941941 6.73425e-06 -0.000450857 -7.57246e-05 1.03119e-05 4.66968e-05 0.000256886 0.00334483 0.000208563 0.000233156 0.00019733 0.000227839 0.00238911 -0.000677381 0.00016712 0.00139596 0.000129476 -0.000245026 -0.00227452 -3.87177e-05
internal_weight=0 3327 3263 64 3238 190 68 18971 110 18861 41 18820 146 121 18674 10161 2661 41 2620 2598 2563 2525 69 48 2456 73 2383 466 43 423
internal_count=22298 3327 3263 64 3238 190 68 18971 110 18861 41 18820 146 121 18674 10161 2661 41 2620 2598 2563 2525 69 48 2456 73 2383 466 43 423
shrinkage=0.05


Tree=105
num_leaves=31
num_cat=0
split_feature=31 6 26 6 24 4 17 27 2 11 25 25 5 17 11 22 1 18 21 3 24 27 27 27 25 11 21 4 31 14
split_gain=0.0076827 0.0303517 0.0197601 0.104451 0.00896623 0.0574911 0.0081142 0.0129621 0.00768684 0.0266568 0.236629 0.0219875 0.041209 0.0934536 0.0199003 0.0190042 0.0136518 0.0135052 0.0137517 0.0236076 0.01105 0.0143767 0.0109679 0.0744498 0.204026 0.109356 0.113553 0.0972543 0.0644525 0.0930277
threshold=17.53988 3.0064400000000003e-05 1.4978200000000002 3.5798600000000007e-05 0.00055018350000000016 -3.4101899999999997e-06 -1.7215749999999999 1.1711950000000002 1.4400350000000002 0.00050133000000000013 -0.0028442299999999997 -0.23236549999999997 9.9539250000000014e-05 0.32319950000000003 3.2083900000000006e-05 -1.5107249999999997 -13.021399999999998 0.084044100000000024 2.8705050000000001 1.4373100000000001e-05 -4.1054299999999992e-06 -0.28372000000000014 -0.28372000000000014 0.12853499999999998 0.19649850000000005 -0.0013550999999999999 0.26229750000000007 -0.00012107349999999999 0.30846500000000049 -6.6606249999999987
decision_type=2 2 2 2 2 2 2 2 2 2 2 2 2 2 2 2 2 2 2 2 2 2 2 2 2 2 2 2 2 2
left_child=2 -2 4 -4 6 -6 7 -1 9 11 -11 12 14 -14 16 -10 -8 18 20 -20 21 -17 -13 24 25 26 -24 -27 -29 -30
right_child=1 -3 3 -5 5 -7 8 -9 15 10 -12 22 13 -15 -16 17 -18 -19 19 -21 -22 -23 23 -25 -26 27 -28 28 29 -31
leaf_value=-0.0016243404570559505 4.1304771084062164e-05 -0.0021782647009968062 -0.00069873140979325409 0.0038308541947844792 0.0026151069298586144 -0.00096718927810191728 -0.0012150517249051519 -1.7081497389881406e-06 -0.0012805140639102321 0.004534524712653365 -0.00011484796954380813 -2.9811713630873446e-05 4.2172288403333152e-05 -0.0033695177592830191 0.0013885866736278072 5.1666366597337108e-06 -8.5277753377584577e-05 0.0012076683349386301 -0.0017510704185497161 -0.00017441202243706198 -3.3404839957797063e-05 -0.0015729932020702919 -0.00026402391742477645 -1.5513153455659731e-05 0.0040661931204441426 0.0034209142498394401 -0.0034567637999619672 0.00062364242191738275 0.00010862379514881697 -0.0026107866408754932
leaf_weight=20 67 20 35 20 21 24 30 32 32 32 189 7956 49 34 21 31 246 21 32 92 3350 27 123 8117 36 26 36 877 669 33
leaf_count=20 67 20 35 20 21 24 30 32 32 32 189 7956 49 34 21 31 246 21 32 92 3350 27 123 8117 36 26 36 877 669 33
internal_value=0 -0.000468941 1.83683e-06 0.000948391 -5.12891e-07 0.000704549 -1.94782e-06 -0.000625797 -4.77213e-07 1.25249e-05 0.000558364 5.91613e-06 -0.000370439 -0.00135539 -9.51837e-05 -6.74791e-05 -0.000208079 -5.65539e-05 -6.40705e-05 -0.000581292 -4.52514e-05 -0.000729494 1.39179e-05 4.90003e-05 0.00033992 0.000263874 -0.000986908 0.000387783 0.000337839 -1.92117e-05
internal_weight=0 87 22211 55 22156 45 22111 52 22059 18474 221 18253 380 83 297 3585 276 3553 3532 124 3408 58 17873 9917 1800 1764 159 1605 1579 702
internal_count=22298 87 22211 55 22156 45 22111 52 22059 18474 221 18253 380 83 297 3585 276 3553 3532 124 3408 58 17873 9917 1800 1764 159 1605 1579 702
shrinkage=0.05


Tree=106
num_leaves=31
num_cat=0
split_feature=17 1 21 14 30 1 1 30 20 6 4 3 3 25 11 25 30 27 7 23 18 22 16 25 2 30 1 16 20 7
split_gain=0.00701382 0.0089385 0.134722 0.00996137 0.0427918 0.0497781 0.0128494 0.0128073 0.00916755 0.0118099 0.0106743 0.0307668 0.00653787 0.0518394 0.568647 0.0441888 0.0504032 0.0732149 0.0297301 0.0227353 0.0219035 0.0211165 0.0316806 0.0231368 0.0308974 0.0197198 0.0840724 0.123265 0.0479396 0.045017
threshold=8.3348000000000013 -18.778949999999998 1.1648500000000002 -18.142349999999997 -2.4188749999999994 -16.461499999999997 -14.209399999999999 -5.5752149999999983 -0.0001413555 1.6939850000000003e-05 9.2718650000000007e-05 1.3941000000000003e-05 1.5861050000000003e-05 -0.53959199999999985 0.00021230150000000001 -0.16036499999999995 -0.26930000000000026 -0.1538999999999999 0.00078330100000000014 2.0308350000000002 0.15259550000000002 0.22827000000000003 60.368000000000002 -0.10612499999999998 0.079826100000000025 0.4659999999999998 -14.474749999999998 1.7491450000000002 4.9531550000000009e-05 0.0025550350000000002
decision_type=2 2 2 2 2 2 2 2 2 2 2 2 2 2 2 2 2 2 2 2 2 2 2 2 2 2 2 2 2 2
left_child=1 2 -1 4 5 -3 7 -7 9 -8 -10 -12 13 14 18 16 -14 -18 -5 20 21 22 23 24 -17 26 27 29 -27 -15
right_child=-2 3 -4 12 -6 6 8 -9 10 -11 11 -13 15 25 -16 19 17 -19 -20 -21 -22 -23 -24 -25 -26 28 -28 -29 -30 -31
leaf_value=-0.00011425108231512295 -0.00083701582008507101 0.0022611898454752834 0.0042241195472888645 0.00020734408694004421 -0.001845325002149265 -0.0018467544118175286 -8.4339515603784393e-05 -0.00038574404959945246 -9.2262343444262333e-05 -0.0010007380499993848 0.0022151063500496096 1.402126484078638e-05 -0.00032026611051368613 0.0021787093964664361 0.0087733464571647362 3.7654888904492923e-05 -0.00011908062764026302 -0.0039487593458034098 -0.0015387782122783583 0.0012131388487288956 -0.0015881378558168019 -0.00056434043725251586 0.0018545949462112851 -8.9795694340082114e-06 0.0025922067751525902 -2.0649105826832782e-05 5.0393458861312991e-05 0.0043280664304297207 -0.00074796389809349446 -6.5656641974101154e-05
leaf_weight=170 25 22 20 68 36 20 87 60 691 59 20 77 184 31 20 29 24 26 38 38 22 168 23 9412 20 4354 6208 27 239 80
leaf_count=170 25 22 20 68 36 20 87 60 691 59 20 77 184 31 20 29 24 26 38 38 22 168 23 9412 20 4354 6208 27 239 80
internal_value=0 9.39496e-07 0.00034242 -1.99857e-06 -0.00015067 -9.1782e-05 -0.000142833 -0.000750997 -9.07415e-05 -0.000454665 -2.33141e-05 0.000467853 5.58677e-06 3.20299e-05 0.00104042 -2.38314e-05 -0.000702798 -0.00211051 -0.000418624 -7.47249e-06 -1.22671e-05 -8.67521e-06 1.16787e-06 -3.33787e-06 0.00108033 2.04149e-05 7.75272e-05 0.00129815 -5.84954e-05 0.000561148
internal_weight=0 22273 190 22083 1072 1036 1014 80 934 146 788 97 21011 11065 126 9946 234 50 106 9712 9674 9652 9484 9461 49 10939 6346 138 4593 111
internal_count=22298 22273 190 22083 1072 1036 1014 80 934 146 788 97 21011 11065 126 9946 234 50 106 9712 9674 9652 9484 9461 49 10939 6346 138 4593 111
shrinkage=0.05


Tree=107
num_leaves=31
num_cat=0
split_feature=27 16 24 27 2 6 26 0 7 30 1 30 25 27 27 24 5 6 23 17 16 26 17 27 21 8 1 27 2 25
split_gain=0.0070213 0.0736209 0.00786678 0.0551599 0.0672206 0.0360482 0.01397 0.087782 0.00891946 0.00790435 0.0706202 0.0481257 0.0393267 0.0352054 0.0906607 0.143595 0.0967568 0.0847621 0.0788717 0.0793084 0.0700022 0.0429103 0.0416888 0.0703939 0.0623196 0.0642959 0.0328315 0.0326212 0.0308999 0.0272353
threshold=5.3977600000000008 9.9858350000000016 0.0003225765000000001 -0.10523999999999999 -0.24514199999999997 3.2598500000000003e-05 1.4978200000000002 2.0046500000000003 0.0011223800000000003 0.41470999999999997 -18.040299999999995 -0.2305749999999995 -0.53959199999999985 0.32697800000000021 -0.28372000000000014 3.8774650000000008e-07 0.00011629400000000001 9.1359550000000005e-06 0.0082214700000000016 0.0026813200000000005 0.84550650000000005 2.1917550000000006e-06 -0.0072490149999999993 0.030899999999999931 0.055784550000000009 3.4937050000000006e-08 -16.895899999999994 -0.027260000000000058 0.13307600000000003 -0.16036499999999995
decision_type=2 2 2 2 2 2 2 2 2 2 2 2 2 2 2 2 2 2 2 2 2 2 2 2 2 2 2 2 2 2
left_child=2 -2 6 4 -4 -5 9 -8 -6 10 -1 26 -11 14 -13 16 18 -18 19 22 21 -21 24 27 25 -16 -12 -24 -23 -14
right_child=1 -3 3 5 8 -7 7 -9 -10 12 11 13 29 -15 15 -17 17 -19 -20 20 -22 28 23 -25 -26 -27 -28 -29 -30 -31
leaf_value=0.0029174689850194791 -6.4654931786499461e-05 0.0030924556747777389 0.0030285630779690112 -0.00060606979454083871 0.00017949613199258845 -0.0031535231131350713 -0.00063641255163881735 0.0034560042334487659 -0.001194445672999358 0.0018279664363944903 -0.0017928285307089729 -3.9360290671322097e-05 -0.0010684505833957632 -7.4017121645168839e-05 0.00066651922864945264 0.0037853854836728904 0.00072493035604566109 -0.0028354736972999364 -0.0016842696967484831 0.0027892216291638761 0.0041524383318998544 0.00017831682170849647 -0.0011742769260915035 -0.0022511736434244088 -0.00028399892663791043 0.0043079030762008322 -1.4207193533556515e-05 0.00078688073334598192 0.0023790532622528686 -4.0680546261270976e-05
leaf_weight=21 153 21 20 41 27 21 38 20 21 28 26 548 65 515 22 39 32 35 28 40 30 58 24 25 28 27 12404 182 22 7737
leaf_count=21 153 21 20 41 27 21 38 20 21 28 26 548 65 515 22 39 32 35 28 40 30 58 24 25 28 27 12404 182 22 7737
internal_value=0 0.000316376 -2.48822e-06 -0.000390297 0.000593151 -0.00146892 -1.95999e-07 0.000774766 -0.000421603 -2.24504e-06 2.01166e-05 1.57968e-05 -4.25302e-05 0.000269086 0.000424084 0.000853083 0.000646285 -0.00113498 0.00089185 0.00104934 0.00199216 0.00145209 0.000590179 0.00025433 0.00159773 0.002673 -1.79276e-05 0.000558396 0.000783519 -4.92431e-05
internal_weight=0 174 22124 130 68 62 21994 58 48 21936 14106 14085 7830 1655 1140 592 553 67 486 458 150 120 308 231 77 49 12430 206 80 7802
internal_count=22298 174 22124 130 68 62 21994 58 48 21936 14106 14085 7830 1655 1140 592 553 67 486 458 150 120 308 231 77 49 12430 206 80 7802
shrinkage=0.05


Tree=108
num_leaves=31
num_cat=0
split_feature=19 15 10 10 7 16 11 10 9 6 9 18 3 3 25 11 1 27 27 24 3 22 8 24 4 24 7 30 16 9
split_gain=0.00675876 0.00838709 0.247703 0.400274 0.033168 0.00915775 0.104354 0.0590006 0.0608927 0.0268392 0.106061 0.0267497 0.0116111 0.0176254 0.0108207 0.203744 0.0115533 0.0084781 0.0105334 0.00791114 0.00745712 0.0657877 0.292939 0.0121121 0.0293225 0.0200385 0.0535758 0.0179881 0.00946012 0.0156555
threshold=188.43965000000003 -1.7158549999999997 -6.1942749999999986e-07 -3.3734049999999996e-05 0.0046168100000000016 35.645800000000008 0.0065932650000000009 1.5023300000000005e-07 4.4190000000000004e-06 6.9666650000000012e-05 1.6175450000000002e-06 0.022230350000000003 1.9678150000000004e-05 1.3941000000000003e-05 -0.9832439999999999 3.6859100000000008e-05 -10.636949999999997 -0.28372000000000014 1.5892145000000002 2.2514600000000003e-05 8.5848800000000017e-06 -0.077302599999999985 -1.4079899999999999e-07 5.3230950000000009e-05 3.8746350000000002e-05 4.3446050000000007e-05 0.0010830450000000001 -9.7525349999999982 9.9858350000000016 -8.4845899999999986e-08
decision_type=2 2 2 2 2 2 2 2 2 2 2 2 2 2 2 2 2 2 2 2 2 2 2 2 2 2 2 2 2 2
left_child=1 2 3 -1 17 14 7 9 11 10 -7 -9 13 -13 15 16 -3 -4 -19 -11 21 22 -16 25 27 28 -27 -25 -22 -30
right_child=-2 5 4 -5 -6 6 -8 8 -10 19 -12 12 -14 -15 20 -17 -18 18 -20 -21 23 -23 -24 24 -26 26 -28 -29 29 -31
leaf_value=-0.001180455704816268 -0.00082165583269670599 -0.0015923998852182802 0.00011707639939381061 0.0088229658897034831 -0.0021668842361707774 -8.3125169853112181e-05 0.0026900372813023362 -0.0022496041183805338 -0.0031166324777586853 -4.4868995755678045e-05 0.0038808102637995037 -0.00014565158428417311 0.00029299423535476533 -0.0017434286965518761 0.0064692059808987238 0.0050079197334707715 -0.000248821472060475 -0.0016330711258342491 -0.0001612890239958952 -0.0013203643683922447 -7.8608336983803291e-07 4.063506414918971e-05 -0.00096158828940436569 -0.0010185742332396331 -0.0022806351368490139 -0.00042735760892225827 0.0029135456532544813 0.00107664852527835 -0.00040724757140774654 2.7824193348838632e-05
leaf_weight=20 25 24 67 20 28 108 28 23 32 20 20 45 41 28 21 20 48 20 31 31 19318 1302 36 20 20 28 21 21 384 448
leaf_count=20 25 24 67 20 28 108 28 23 32 20 20 45 41 28 21 20 48 20 31 31 19318 1302 36 20 20 28 21 21 384 448
internal_value=0 9.22256e-07 0.00033527 0.00382126 -0.000619795 -1.89337e-06 -0.000246542 -0.000482818 -0.00115284 0.000149777 0.00053624 -0.000694149 -0.000380329 -0.000758498 2.34355e-06 0.00054345 -0.000696681 -0.000252689 -0.000738458 -0.00082017 4.08664e-08 0.000113424 0.00177607 -7.56464e-06 -0.000711058 -5.44012e-06 0.00100446 5.45886e-05 -7.89595e-06 -0.000172978
internal_weight=0 22273 186 40 146 22087 376 348 169 179 128 137 114 73 21711 92 72 118 51 51 21619 1359 57 20260 61 20199 49 41 20150 832
internal_count=22298 22273 186 40 146 22087 376 348 169 179 128 137 114 73 21711 92 72 118 51 51 21619 1359 57 20260 61 20199 49 41 20150 832
shrinkage=0.05


Tree=109
num_leaves=31
num_cat=0
split_feature=30 14 4 16 15 2 3 24 3 18 2 15 26 1 3 2 15 4 20 9 9 7 27 16 18 4 25 12 12 5
split_gain=0.00636224 0.0823788 0.0122435 0.0315126 0.00921286 0.244034 0.0179942 0.0109999 0.00672193 0.0485901 0.228316 0.419011 0.0420742 0.041131 0.0393462 0.0908915 0.0363768 0.02919 0.0175151 0.0167206 0.0413326 0.0148243 0.0146189 0.0137665 0.0306362 0.0566911 0.0182887 0.0176559 0.0195612 0.0308606
threshold=-10.174664999999999 -22.260449999999995 -4.6218499999999998e-05 4.6772150000000012 -1.7158549999999997 -1.1217999999999997 1.1096800000000002e-05 0.00023102950000000003 1.5861050000000003e-05 0.031572200000000009 0.84878600000000015 -0.80876549999999992 0.029629400000000004 -14.143699999999997 9.9516600000000005e-06 1.0000000180025095e-35 -1.5736749999999997 -0.00018272749999999997 0.0024570250000000003 4.0808150000000002e-06 2.1455700000000002e-05 0.0023823050000000004 5.6216950000000008 15.220850000000002 0.015690050000000004 1.4595600000000001e-05 0.25364200000000009 1.3264250000000001e-08 0.00017480000000000002 -6.8216249999999976e-05
decision_type=2 2 2 2 2 2 2 2 2 2 2 2 2 2 2 2 2 2 2 2 2 2 2 2 2 2 2 2 2 2
left_child=2 -2 3 -1 5 -3 -7 8 9 22 13 -12 -10 -11 15 -15 -16 -14 19 -19 -21 -18 23 26 25 -25 -6 -26 29 -29
right_child=1 4 -4 -5 7 6 -8 -9 12 10 11 -13 17 14 16 -17 21 18 -20 20 -22 -23 -24 24 27 -27 -28 28 -30 -31
leaf_value=-2.7482782268060352e-05 0.0031360547410302047 0.005021467345321308 -5.2783788576254046e-05 -0.0016103533429755055 1.5277167030249312e-05 -0.0019928156896798022 -0.00034407339679060994 -0.0010079983673474799 -1.0241660190027379e-05 -0.0019482390041483323 -0.00080356305697932846 0.0093087378644850106 -0.0020207377383485436 0.0039922441876288281 0.0016726072909280091 -0.00039367484881680596 -0.00021935112958292141 -0.00029216097178058571 0.00094255422674385564 -0.0031337872012227306 -0.00044432531959319021 -0.0016417182079116492 0.00097901137635581577 -0.00016372476110358119 -0.0012130606996167141 -0.0035185499485669426 0.0013970801736528909 0.0023741954925935718 -0.00034876597804083887 0.00013609677397884054
leaf_weight=95 21 23 926 47 10618 23 59 27 9574 23 21 20 33 21 23 27 90 167 21 20 50 23 39 34 30 20 24 20 112 67
leaf_count=95 21 23 926 47 10618 23 59 27 9574 23 21 20 33 21 23 27 90 167 21 20 50 23 39 34 30 20 24 20 112 67
internal_value=0 5.99036e-06 -0.000119078 -0.000551391 2.89114e-06 0.000470082 -0.000806526 5.66691e-07 1.85868e-06 2.83449e-05 0.000720432 0.00412927 -2.8244e-05 4.52525e-05 0.000294439 0.00152516 -0.000139935 -0.000620528 -0.000441431 -0.000564063 -0.00121274 -0.000508859 1.26902e-05 9.24064e-06 -0.000334943 -0.00140625 1.83934e-05 -8.23197e-05 8.81437e-05 0.000650602
internal_weight=0 21230 1068 142 21209 105 82 21104 21077 11212 248 41 9865 207 184 48 136 291 258 237 70 113 10964 10925 283 54 10642 229 199 87
internal_count=22298 21230 1068 142 21209 105 82 21104 21077 11212 248 41 9865 207 184 48 136 291 258 237 70 113 10964 10925 283 54 10642 229 199 87
shrinkage=0.05


Tree=110
num_leaves=31
num_cat=0
split_feature=5 23 3 23 24 28 28 18 6 24 5 22 9 2 13 8 5 17 30 1 30 18 26 11 2 7 7 30 17 28
split_gain=0.00624995 0.040399 0.0190937 0.0175135 0.0163125 0.0415551 0.0749642 0.0119479 0.0965299 0.0130213 0.057822 0.00937458 0.0349125 0.0106698 0.00923433 0.00915011 0.00894841 0.0483955 0.0902072 0.011603 0.0451476 0.00912907 0.0092268 0.0730662 0.0414614 0.0150697 0.0195834 0.0136564 0.0107633 0.033934
threshold=-0.00021567299999999997 0.46573400000000004 1.4494650000000002e-05 0.37482500000000002 2.0620900000000007e-06 0.3110555000000001 -0.22897950000000003 0.25734950000000006 3.6716800000000007e-05 0.00055018350000000016 3.8336850000000005e-05 1.1047800000000001 4.4190000000000004e-06 0.18724200000000005 -0.80414149999999995 -6.0660699999999992e-07 -0.00015934299999999997 -0.10682549999999998 -0.2305749999999995 -14.388599999999999 -0.073535000000000114 0.15259550000000002 0.061935000000000011 0.00033839250000000008 -1.0557449999999997 0.00073034200000000014 0.00046110750000000005 -2.7105149999999987 0.55062400000000011 0.12773199999999998
decision_type=2 2 2 2 2 2 2 2 2 2 2 2 2 2 2 2 2 2 2 2 2 2 2 2 2 2 2 2 2 2
left_child=1 3 -3 4 -1 6 -6 9 -9 11 -11 16 13 -13 -7 -4 17 18 -2 20 -19 22 28 24 -24 26 27 -26 -18 -30
right_child=7 2 15 -5 5 14 -8 8 -10 10 -12 12 -14 -15 -16 -17 21 19 -20 -21 -22 -23 23 -25 25 -27 -28 -29 29 -31
leaf_value=-2.0968867797264532e-05 -0.00032203438813271728 -0.0025882506955531427 -0.0015148888640396764 0.001279495838098228 -0.0003823036686464382 0.00095918177010555 -0.004074167550570564 -0.00020991316305712232 0.0034930095626887953 0.0028222058672690768 -0.00093429830774853376 0.0002040964691547599 -0.0020939911572495479 -0.00093902255668161592 -0.00016835313289483077 -6.6821125316588828e-05 2.5811941947152307e-06 0.0024422851558038401 0.0042693751318438446 -5.493465963379643e-05 7.9095641526549806e-05 -0.00078182047390745963 0.0015184642367162989 0.0028150102575846877 4.984768451455549e-05 -0.0010792738272120124 0.0012975986963125331 -0.0011420018093143455 -0.0021427436051453699 0.00017653179256740261
leaf_weight=3048 23 20 20 25 44 22 20 88 22 20 21 95 25 26 104 24 17686 24 20 437 128 37 38 26 82 46 23 34 24 46
leaf_count=3048 23 20 20 25 44 22 20 88 22 20 21 95 25 26 104 24 17686 24 20 437 128 37 38 26 82 46 23 34 24 46
internal_value=0 -6.32112e-05 -0.00130729 -3.881e-05 -4.89884e-05 -0.000498481 -0.00153601 1.10855e-05 0.000530671 8.05524e-06 0.000898143 6.11615e-06 -0.000392981 -4.15324e-05 2.8518e-05 -0.000725034 9.23643e-06 0.000194167 0.0018135 7.59468e-05 0.000452231 2.75844e-06 4.37074e-06 0.000306625 1.41671e-05 -0.000294824 -3.52214e-05 -0.000299488 1.32103e-07 -0.000618648
internal_weight=0 3327 64 3263 3238 190 64 18971 110 18861 41 18820 146 121 126 44 18674 632 43 589 152 18042 18005 249 223 185 139 116 17756 70
internal_count=22298 3327 64 3263 3238 190 64 18971 110 18861 41 18820 146 121 126 44 18674 632 43 589 152 18042 18005 249 223 185 139 116 17756 70
shrinkage=0.05


Tree=111
num_leaves=31
num_cat=0
split_feature=30 14 4 25 15 2 3 24 1 19 8 25 1 22 19 14 30 12 5 20 14 30 30 23 27 14 6 11 4 18
split_gain=0.00602207 0.0728714 0.0114214 0.0304755 0.00821496 0.217271 0.0160272 0.00952144 0.00674762 0.0366798 0.168947 0.0373594 0.0233979 0.116741 0.0195926 0.0252027 0.0328351 0.0172425 0.0163023 0.024546 0.0138331 0.0181545 0.0247638 0.0587953 0.0824593 0.0306877 0.0165297 0.0159402 0.0106657 0.0086604
threshold=-10.174664999999999 -22.260449999999995 -4.6218499999999998e-05 0.62835300000000005 -1.7158549999999997 -1.1217999999999997 1.1096800000000002e-05 0.00023102950000000003 -14.840249999999999 2.8296000000000006 -1.0244349999999998e-05 0.1021905 -14.694299999999997 -0.0017273849999999999 0.23826600000000003 -17.905199999999997 -2.3569649999999998 0.017726350000000005 0.00027230750000000007 3.235760000000001e-05 -18.949549999999999 -1.1536200000000003 1.2332400000000006 -0.00075809949999999988 0.0041949999999999496 -14.654899999999998 0.00016237300000000003 5.9318100000000012e-06 7.1542600000000015e-05 0.25734950000000006
decision_type=2 2 2 2 2 2 2 2 2 2 2 2 2 2 2 2 2 2 2 2 2 2 2 2 2 2 2 2 2 2
left_child=2 -2 3 -1 5 -3 -7 8 9 11 -11 14 13 -10 20 16 -16 -13 -17 -20 -6 28 23 24 -23 27 -25 -24 -22 -14
right_child=1 4 -4 -5 7 6 -8 -9 12 10 -12 17 29 -15 15 18 -18 -19 19 -21 21 22 25 26 -26 -27 -28 -29 -30 -31
leaf_value=-0.00013036104598515956 0.0029497340564072754 0.0047386414110129095 -5.1820941832509276e-05 -0.0018646421011494982 0.0012571473184618213 -0.0018800731779977113 -0.00032404975968578799 -0.00093762453182501281 0.00418406488913206 0.0045809375880873464 -0.0011109472202406323 -0.0020064109819941224 6.4060092874078638e-06 -0.0001544079078102832 -0.00032559353115045402 6.3754957450515098e-05 -0.0028752470075193307 -0.00030662133637815713 -0.00028814889921923684 -0.0023438919708132742 -0.0016504283617164387 0.0042127050622619453 -0.00047203145145569144 0.00025639959736829896 -2.1197906576360214e-05 -2.2781478678162426e-05 -0.0013412174129734922 -0.002145833917489199 -0.00014800217496009456 0.0007826632695570071
leaf_weight=109 21 23 926 33 21 23 59 27 20 22 32 37 18684 69 28 146 23 25 53 20 27 23 33 85 23 1604 20 25 21 36
leaf_count=109 21 23 926 33 21 23 59 27 20 22 32 37 18684 69 28 146 23 25 53 20 27 23 33 85 23 1604 20 25 21 36
internal_value=0 5.82801e-06 -0.000115851 -0.000533398 2.91312e-06 0.000444077 -0.000760495 7.18167e-07 1.9202e-06 -7.95506e-05 0.00120797 -0.000110954 1.1744e-05 0.00082053 -7.60913e-05 -0.000474403 -0.00147544 -0.00132101 -0.000241285 -0.000851366 -1.89477e-05 -3.33475e-05 -7.93717e-06 0.000605128 0.00209575 -6.36368e-05 -4.79084e-05 -0.0011935 -0.000993117 7.89881e-06
internal_weight=0 21230 1068 142 21209 105 82 21104 21077 2268 54 2214 18809 89 2152 270 51 62 219 73 1882 1861 1813 151 46 1662 105 58 48 18720
internal_count=22298 21230 1068 142 21209 105 82 21104 21077 2268 54 2214 18809 89 2152 270 51 62 219 73 1882 1861 1813 151 46 1662 105 58 48 18720
shrinkage=0.05


Tree=112
num_leaves=31
num_cat=0
split_feature=2 15 18 11 15 25 1 0 16 4 30 2 15 2 2 30 30 27 30 14 30 17 28 27 19 23 1 18 25 6
split_gain=0.00585906 0.0489775 0.0436111 0.0234379 0.220408 0.0235224 0.0392614 0.0352349 0.0289328 0.020738 0.0342008 0.0203119 0.01354 0.361055 0.019586 0.013492 0.0227257 0.0291446 0.0179512 0.0122245 0.0253031 0.0131514 0.0193412 0.0502943 0.0107847 0.0114752 0.0106473 0.0976534 0.012948 0.019914
threshold=1.4400350000000002 1.7310850000000002 0.15259550000000002 0.00050133000000000013 0.41062350000000009 -0.23236549999999997 -12.633099999999997 4.1347850000000008 11.622100000000001 -4.5205849999999997e-05 -3.3324899999999986 0.33837000000000006 0.68095400000000017 0.66577950000000008 0.33837000000000006 -1.2451950000000001 0.95305000000000029 -0.1538999999999999 -1.9291949999999998 -19.721699999999995 -10.174664999999999 -0.046761399999999995 -0.34717249999999999 -0.20585514999999996 5.7951600000000001 0.13767800000000002 -18.778949999999998 0.0030889500000000005 -0.059227749999999989 1.9870450000000006e-05
decision_type=2 2 2 2 2 2 2 2 2 2 2 2 2 2 2 2 2 2 2 2 2 2 2 2 2 2 2 2 2 2
left_child=3 2 19 5 -5 6 7 8 -1 10 -8 -11 26 14 15 18 17 -17 -14 20 -2 22 -21 -24 25 -23 27 -7 29 -28
right_child=1 -3 -4 4 -6 12 9 -9 -10 11 -12 -13 13 -15 -16 16 -18 -19 -20 21 -22 24 23 -25 -26 -27 28 -29 -30 -31
leaf_value=0.00081731344496802191 -2.9987148911331111e-05 0.0023493968833853225 -0.002153374748741044 -2.800401829065357e-05 0.0050470503687392925 -0.00011182616104791954 -0.00027733430088746589 -0.003069026899968528 -0.0015545699666189548 -0.00017047367989412706 0.0024103128898423165 -0.0016842556998502307 7.3898806186162918e-06 0.0065333789817404149 0.0014749381156261303 -0.0001849917572447642 -8.5817976464642903e-05 -0.0027044705832271246 0.0014935343772363426 -6.7263716881922066e-05 -0.0022174226185614999 -1.312626922071385e-05 -0.00017058647545263063 -0.0026062880635201453 0.0011400448082713409 -0.00080017114972740291 7.9139552271402806e-05 0.003673616568412399 5.7368940514325117e-06 -0.0017711174356988453
leaf_weight=20 39 21 25 197 24 115 29 22 36 289 20 24 266 22 21 24 122 22 22 179 20 3167 67 31 20 47 33 20 17328 26
leaf_count=20 39 21 25 197 24 115 29 22 36 289 20 24 266 22 21 24 122 22 22 179 20 3167 67 31 20 47 33 20 17328 26
internal_value=0 -5.8257e-05 -7.23212e-05 1.1276e-05 0.000523133 5.14842e-06 -0.000356051 -0.00137355 -0.000707469 -0.000136811 0.000819665 -0.000286546 1.39674e-05 0.000270789 -1.8052e-05 -8.68081e-05 -0.000442904 -0.00138996 0.000120915 -5.7748e-05 -0.000771491 -4.57541e-05 -0.000376406 -0.000941064 -1.74329e-05 -2.46356e-05 6.65357e-06 0.00044898 3.21916e-06 -0.000736228
internal_weight=0 3616 3595 18682 221 18461 440 78 56 362 49 313 18021 499 477 456 168 46 288 3570 59 3511 277 98 3234 3214 17522 135 17387 59
internal_count=22298 3616 3595 18682 221 18461 440 78 56 362 49 313 18021 499 477 456 168 46 288 3570 59 3511 277 98 3234 3214 17522 135 17387 59
shrinkage=0.05


Tree=113
num_leaves=31
num_cat=0
split_feature=29 22 24 28 2 6 26 0 1 30 1 30 23 9 24 28 28 11 28 1 0 5 5 7 28 28 28 24 29 6
split_gain=0.00576136 0.0680629 0.00677549 0.0510909 0.0546856 0.0329639 0.0115525 0.0746844 0.0073532 0.00699759 0.0601586 0.0425067 0.0323515 0.0406384 0.0400051 0.0520373 0.226825 0.052912 0.105421 0.0346316 0.0330252 0.0276849 0.0479875 0.0324745 0.028135 0.071344 0.0716664 0.0375731 0.0383915 0.0368893
threshold=5.3977600000000008 -0.014416699999999998 0.0003225765000000001 0.10524000000000001 -0.24514199999999997 3.2598500000000003e-05 1.4978200000000002 2.0046500000000003 -8.9534299999999991 0.41470999999999997 -18.040299999999995 -0.2305749999999995 0.027645000000000006 1.1021800000000002e-05 1.1217050000000001e-07 -0.29719999999999985 -0.018082999999999957 2.1575700000000003e-06 0.3620580000000001 -7.5275249999999989 11.821100000000001 0.00011629400000000001 0.00013332900000000004 0.00093239050000000013 -0.12719800000000001 0.083779999999999868 0.027260000000000065 4.3179500000000006e-08 0.018490999999999928 2.3785300000000001e-05
decision_type=2 2 2 2 2 2 2 2 2 2 2 2 2 2 2 2 2 2 2 2 2 2 2 2 2 2 2 2 2 2
left_child=2 -2 6 5 -5 -4 9 -8 -6 10 -1 -12 14 19 20 -16 -17 -18 -19 -14 21 24 -23 -24 -13 26 27 28 29 -26
right_child=1 -3 3 4 8 -7 7 -9 -10 -11 11 12 13 -15 15 16 17 18 -20 -21 -22 22 23 -25 25 -27 -28 -29 -30 -31
leaf_value=0.002693200001855682 0.0030306619708426298 -6.978607040540053e-05 -0.00057512531432333093 0.0027809528672878515 -0.0010037083148331889 -0.003011161686542134 -0.00059705048977201321 0.003177733161378456 0.00023831825685472442 -3.9894102786943393e-05 -1.6631529274159582e-05 -0.00013682427743744443 -0.00052064677992824562 0.00084317722320256219 -0.00020021758215133586 0.0060121971181259781 -0.00013260189858323472 0.0045257817250041457 -3.1063479020000766e-05 -0.0029694849885179959 0.0021232261109740982 -0.0023693529876919247 0.0017283030572922476 -0.00032130557691473617 0.00049619518733261204 -1.775312714339505e-05 0.0033191902430503278 -0.00077431703727653088 0.0024226463086371363 0.0023567319715706012
leaf_weight=21 20 154 41 20 22 21 38 20 26 7830 12430 307 42 31 72 23 84 22 30 22 22 26 22 159 238 422 29 37 37 30
leaf_count=21 20 154 41 20 22 21 38 20 26 7830 12430 307 42 31 72 23 84 22 30 22 22 26 22 159 238 422 29 37 37 30
internal_value=0 0.000286587 -2.25394e-06 -0.00036216 0.00058432 -0.00140023 -1.26644e-07 0.000704599 -0.000330944 -1.98998e-06 1.905e-05 1.50629e-05 0.000253107 -0.000642709 0.000307659 0.000914985 0.00141998 0.000643358 0.00189683 -0.00136243 0.000202097 0.00016976 -0.000360715 -7.21819e-05 0.000269586 0.000426922 0.000932725 0.000730364 0.000912899 0.000704464
internal_weight=0 174 22124 130 68 62 21994 58 48 21936 14106 14085 1655 95 1560 231 159 136 52 64 1329 1307 207 181 1100 793 371 342 305 268
internal_count=22298 174 22124 130 68 62 21994 58 48 21936 14106 14085 1655 95 1560 231 159 136 52 64 1329 1307 207 181 1100 793 371 342 305 268
shrinkage=0.05


Tree=114
num_leaves=31
num_cat=0
split_feature=17 26 7 6 11 27 2 11 15 25 30 0 11 27 21 7 15 2 26 2 7 7 17 28 27 19 24 14 30 30
split_gain=0.00568911 0.00673874 0.13421 0.0191249 0.0262482 0.0115643 0.00614222 0.021192 0.198344 0.0158541 0.0351016 0.0950201 0.0328171 0.0157128 0.0152077 0.0387294 0.0124764 0.324245 0.0188291 0.0363774 0.0121745 0.0158532 0.0109141 0.0167059 0.0464832 0.0107585 0.0136302 0.00972921 0.00901617 0.0191064
threshold=8.3348000000000013 1.0444035000000003 0.018269000000000004 3.154645000000001e-05 6.9406250000000008e-07 -0.28372000000000014 1.4400350000000002 0.00050133000000000013 0.41062350000000009 -0.23236549999999997 -1.6975550000000001 4.4597900000000008 -3.022694999999999e-07 -0.82394100249999991 10.610000000000001 0.023500150000000001 0.68095400000000017 0.66577950000000008 0.024472600000000004 0.33837000000000006 0.0038630000000000005 0.019087850000000003 -0.046761399999999995 -0.34717249999999999 -0.20585514999999996 4.3654050000000009 -4.1054299999999992e-06 -19.721699999999995 -1.2451950000000001 -2.1543949999999996
decision_type=2 2 2 2 2 2 2 2 2 2 2 2 2 2 2 2 2 2 2 2 2 2 2 2 2 2 2 2 2 2
left_child=1 6 3 4 5 -3 7 9 -9 10 20 12 13 -12 22 -16 -11 18 19 28 -1 -22 23 -8 -25 26 -24 -28 29 -18
right_child=-2 2 -4 -5 -6 -7 14 8 -10 16 11 -13 -14 -15 15 -17 17 -19 -20 -21 21 -23 25 24 -26 -27 27 -29 -30 -31
leaf_value=-0.00014706689551283647 -0.00075383909977972514 0.00016909940095501954 0.0041208713996456941 -0.0017392405736609364 0.0015632108517456798 -0.0011648962747792459 -6.0044100203747856e-05 -2.5758618402261131e-05 0.0047885774421350417 4.4325648205751036e-06 6.0570751119140089e-05 -0.0038464628381764975 0.0014832146545813885 -0.0014762378118272561 -0.0021370705906582741 0.00054838682760600932 1.907824102400887e-05 0.0061927787747911439 -0.0012736911185908997 0.0021471044940699359 0.0017894452989276036 -0.0001775141014063376 -0.00095919125865643424 -0.00014350638020255578 -0.00247434791578393 0.0010793400301322849 -0.00081405807071572981 -9.213767463796532e-06 -0.00034546546197882752 0.0016232708330062452
leaf_weight=252 25 32 20 20 20 33 180 197 24 17429 29 24 20 39 29 25 258 22 28 20 20 21 39 69 31 22 38 3161 151 20
leaf_count=252 25 32 20 20 20 33 180 197 24 17429 29 24 20 39 29 25 258 22 28 20 20 21 39 69 31 22 38 3161 151 20
internal_value=0 8.46136e-07 0.000366931 -0.000348105 -2.07786e-05 -0.00050816 -1.22e-06 1.03687e-05 0.000497065 4.50172e-06 -0.000304857 -0.00105775 -0.000297187 -0.000820834 -6.10467e-05 -0.000893803 1.14903e-05 0.000258 -1.57211e-05 6.2727e-05 -1.7064e-05 0.000781978 -4.83437e-05 -0.00034791 -0.000866067 -2.26141e-05 -3.01011e-05 -1.87743e-05 -3.44468e-05 0.000134488
internal_weight=0 22273 125 105 85 65 22148 18554 221 18333 405 112 88 68 3594 54 17928 499 477 449 293 41 3540 280 100 3260 3238 3199 429 278
internal_count=22298 22273 125 105 85 65 22148 18554 221 18333 405 112 88 68 3594 54 17928 499 477 449 293 41 3540 280 100 3260 3238 3199 429 278
shrinkage=0.05


Tree=115
num_leaves=31
num_cat=0
split_feature=31 4 14 24 3 16 9 12 23 3 16 18 8 8 9 23 3 3 4 9 20 11 8 4 16 22 27 27 21 7
split_gain=0.00536283 0.0201167 0.0146283 0.00760939 0.0489674 0.0054393 0.0207957 0.0745741 0.0854755 0.0488767 0.130976 0.0360068 0.0215081 0.0233225 0.0201706 0.0182562 0.0130638 0.0162926 0.0497082 0.0244081 0.0966044 0.0376133 0.0254171 0.0176469 0.0170355 0.0448529 0.0187216 0.0652039 0.0158708 0.0123206
threshold=17.53988 -3.6439849999999993e-05 -25.416199999999996 0.00055018350000000016 1.7828600000000004e-05 10.429600000000002 7.7157650000000008e-06 0.00017480000000000002 0.32679950000000008 1.311025e-05 35.645800000000008 0.14344550000000003 -2.0036999999999995e-05 -6.0057599999999992e-05 4.4190000000000004e-06 0.46573400000000004 7.8320150000000016e-06 1.8514650000000001e-05 -0.00016453049999999995 -6.9577599999999994e-06 0.00046085650000000006 -9.3401849999999987e-05 2.2255900000000005e-06 -0.00018272749999999997 35.645800000000008 -0.94314649999999989 0.34863500000000031 -0.43730499999999989 2.4168200000000004 0.012969900000000001
decision_type=2 2 2 2 2 2 2 2 2 2 2 2 2 2 2 2 2 2 2 2 2 2 2 2 2 2 2 2 2 2
left_child=2 -2 -1 5 -5 -4 14 8 -8 10 -9 12 13 -11 16 -14 -7 18 -18 20 28 -21 24 29 25 -23 27 -26 -20 -19
right_child=1 -3 3 4 -6 6 7 9 -10 11 -12 -13 15 -15 -16 -17 17 23 19 21 -22 22 -24 -25 26 -27 -28 -29 -30 -31
leaf_value=0.0011237721518886372 -0.0017833846157009248 2.3605220433895358e-05 5.3426677374178183e-06 -0.00082564270647708334 0.0024936428939690818 -0.0010922677616286415 0.00011499150882627874 -0.00047625582411392529 0.0044829829923054652 -0.00017975149101403078 0.0042669970748565071 -0.0024659958877600733 -0.00030003336198312946 0.0018779503693530217 -0.0014280025044172363 -0.0018616463804695133 0.0019442532602624851 -0.0022402680732193404 0.00043755176823954874 -0.0022287444703966808 0.0035737548527818453 0.0018777350110373366 -0.0015876877361733932 -0.00026236817345814544 -0.00017015919533023088 -3.0660705560374348e-05 5.0450810846656636e-05 -0.0034883370751049372 -0.00096253302829739243 -0.00057529513421468437
leaf_weight=29 20 67 20673 25 20 36 24 43 21 40 22 20 85 21 32 24 32 20 48 22 22 34 28 344 57 326 83 20 35 25
leaf_count=29 20 67 20673 25 20 36 24 43 21 40 22 20 85 21 32 24 32 20 48 22 22 34 28 344 57 326 83 20 35 25
internal_value=0 -0.000391795 1.53465e-06 6.74764e-08 0.000649595 -1.25288e-06 -9.4388e-05 0.000276807 0.00215339 -5.43546e-05 0.00112915 -0.000459239 -0.00022315 0.000528638 -0.000190057 -0.000643875 -0.000155062 -0.000124278 1.87187e-05 -7.25659e-05 0.000627966 -0.000201611 -0.00012023 -0.000384171 -4.12131e-05 0.000149577 -0.00047049 -0.00103202 -0.000152845 -0.00131528
internal_weight=0 87 22211 22182 45 22137 1464 300 45 255 65 190 170 61 1164 109 1132 1096 707 675 105 570 548 389 520 360 160 77 83 45
internal_count=22298 87 22211 22182 45 22137 1464 300 45 255 65 190 170 61 1164 109 1132 1096 707 675 105 570 548 389 520 360 160 77 83 45
shrinkage=0.05


Tree=116
num_leaves=31
num_cat=0
split_feature=3 14 27 26 6 20 21 14 7 1 1 8 26 1 1 1 21 27 1 18 15 10 27 17 3 13 9 12 20 27
split_gain=0.00549999 0.0328875 0.0341467 0.0299272 0.0127483 0.046584 0.00576323 0.00545953 0.0317562 0.089054 0.0580751 0.018928 0.0730725 0.16997 0.0490866 0.0119137 0.0139132 0.0115333 0.0110895 0.00974262 0.0075024 0.0706939 0.00881288 0.00512618 0.0129599 0.0396275 0.0653809 0.0303067 0.0219019 0.103022
threshold=7.8320150000000016e-06 -19.339499999999997 4.3998100000000013 0.019757400000000005 4.6013400000000009e-05 -5.8344899999999999e-06 0.17471900000000004 -18.142349999999997 0.064685150000000011 -17.737349999999996 -15.315949999999999 -6.0584749999999988e-06 0.010637800000000001 -11.038499999999997 -16.595249999999997 -12.633099999999997 3.4887250000000005 -0.28372000000000014 -12.678699999999997 0.009019095000000003 -1.7158549999999997 -5.071889999999999e-07 0.17708600000000005 -0.019051749999999996 1.2781550000000001e-05 -0.34316949999999996 2.7720250000000009e-07 9.9155350000000009e-06 -0.00010038149999999999 0.32697800000000021
decision_type=2 2 2 2 2 2 2 2 2 2 2 2 2 2 2 2 2 2 2 2 2 2 2 2 2 2 2 2 2 2
left_child=1 -1 3 4 6 -6 -3 8 9 -2 -10 12 18 -14 -13 16 -16 -18 -11 -12 21 -9 -23 24 25 28 27 -27 29 -22
right_child=7 2 -4 -5 5 -7 -8 20 10 11 19 14 13 -15 15 -17 17 -19 -20 -21 23 22 -24 -25 -26 26 -28 -29 -30 -31
leaf_value=0.0020886359542297821 0.0031935537106446213 9.2439825032650529e-05 0.0021119118793649252 -0.0015845058439611292 0.0027607105359493292 -0.00010280669209480817 -0.00030509290362886561 0.0029933607527276593 -0.003372736377059482 -0.0013648814367843442 0.00010195955552997939 -0.0026411288464441899 0.0055382506462046885 -0.00064586184057407081 -0.00016702504578651746 -5.499962522673654e-05 -0.00052840006551594428 -0.0022061024402501065 -5.6310905083056937e-05 -0.0010188889368278483 0.0038165147879876066 0.00013977268354210538 -0.0010293351326793156 1.0155172801649062e-05 -0.00012618149671519223 0.0016782868460995814 0.0036633752992747759 -0.00093303560273488991 -7.2777514406503015e-05 -0.00016997845392376201
leaf_weight=21 21 413 20 28 20 49 117 21 20 20 47 20 20 25 64 672 21 20 85 33 21 40 27 17271 2209 20 20 25 837 71
leaf_count=21 21 413 20 28 20 49 117 21 20 20 47 20 20 25 64 672 21 20 85 33 21 40 27 17271 2209 20 20 25 837 71
internal_value=0 0.000141305 7.80997e-05 1.32254e-05 8.79106e-05 0.000727198 4.6826e-06 -4.36393e-06 -0.000114585 -2.69539e-05 -0.00096286 -9.83696e-05 0.000416896 0.00210263 -0.000195346 -0.000132391 -0.000627696 -0.00134679 -0.000305562 -0.00036039 1.36103e-06 0.000462039 -0.00033136 -6.1903e-07 -5.8715e-05 9.12182e-05 0.00128473 0.000227552 7.71104e-06 0.000739982
internal_weight=0 668 647 627 599 69 530 21630 1068 968 100 947 150 45 797 777 105 41 105 80 20562 88 67 20474 3203 994 65 45 929 92
internal_count=22298 668 647 627 599 69 530 21630 1068 968 100 947 150 45 797 777 105 41 105 80 20562 88 67 20474 3203 994 65 45 929 92
shrinkage=0.05


Tree=117
num_leaves=31
num_cat=0
split_feature=5 24 27 27 21 27 27 1 17 3 14 18 10 1 1 24 4 5 17 30 14 30 16 8 27 9 5 11 4 24
split_gain=0.00534474 0.0381993 0.0450481 0.0911065 0.016197 0.0720404 0.0142979 0.0130094 0.0115292 0.0138054 0.0249926 0.0106553 0.0817724 0.0326978 0.0225907 0.0119926 0.0514143 0.00781351 0.03396 0.0881571 0.0166518 0.0839452 0.00817745 0.0529585 0.101491 0.036528 0.0400369 0.0223464 0.0153018 0.0208245
threshold=-0.00021567299999999997 4.4574250000000016e-06 -0.31105549999999998 0.32697800000000021 4.2965400000000011 -0.33568149999999991 -0.79215999999999998 -14.209399999999999 -0.044990649999999993 9.8468150000000014e-06 -14.029299999999997 0.25734950000000006 -7.3552849999999995e-08 -13.209849999999998 -9.3781449999999982 0.00055018350000000016 3.1404250000000001e-06 -0.00015934299999999997 -0.10682549999999998 -0.2305749999999995 -14.435699999999999 -1.1536200000000003 29.210200000000004 -8.7450849999999993e-06 0.4807185000000001 4.4190000000000004e-06 0.00020758750000000002 4.2431250000000012e-05 -9.7913799999999994e-06 0.00023102950000000003
decision_type=2 2 2 2 2 2 2 2 2 2 2 2 2 2 2 2 2 2 2 2 2 2 2 2 2 2 2 2 2 2
left_child=1 4 6 -4 8 -6 7 -3 9 -1 -11 15 -13 -14 -15 17 -17 18 19 -2 21 -20 -19 24 -24 27 -27 28 29 -25
right_child=11 2 3 -5 5 -7 -8 -9 -10 10 -12 12 13 14 -16 16 -18 22 20 -21 -22 -23 23 25 -26 26 -28 -29 -30 -31
leaf_value=0.00075669506266263934 -0.00043359385342158093 -0.0013640519119300215 -0.0039594013748033572 -0.00020063020676484725 -0.00082539098220877358 0.0028779309759556782 0.00099318723604526556 -0.00012998426474546755 -4.351201133764275e-06 -0.0019775492704166729 -0.00029999174385250769 0.0033074090546939433 -0.0018858425435610117 0.0017346976168309562 -0.00023786670972959713 0.0026759171602316204 -0.00086633333661926117 5.0566793194653915e-06 -0.00010898302457567244 0.0039818666502833373 -5.2264968894331078e-05 0.0031783764504361902 0.0037083308655875649 -0.00073805351456502212 -0.000404472249756509 -0.0027855644404377426 8.38261019816855e-05 -0.0018177360041244401 0.00015837167758814459 0.00092088086239527911
leaf_weight=23 26 28 28 38 29 24 21 90 2868 26 152 21 21 21 47 20 21 17695 87 20 480 25 24 135 40 31 20 21 194 22
leaf_count=23 26 28 28 38 29 24 21 90 2868 26 152 21 21 21 47 20 21 17695 87 20 480 25 24 135 40 31 20 21 194 22
internal_value=0 -5.84546e-05 -0.000719621 -0.00179526 -1.50404e-05 0.000851585 -0.000208886 -0.000422814 -3.00066e-05 -0.000396075 -0.000545028 1.02514e-05 0.000500926 -0.000161278 0.000371308 7.38968e-06 0.000861594 5.52877e-06 0.000177515 0.00148617 7.58289e-05 0.000624803 -5.0617e-07 -0.000202631 0.00113783 -0.000405442 -0.00166031 -0.000233404 -0.000138615 -0.000505591
internal_weight=0 3327 205 66 3122 53 139 118 3069 201 178 18971 110 89 68 18861 41 18820 638 46 592 112 18182 487 64 423 51 372 351 157
internal_count=22298 3327 205 66 3122 53 139 118 3069 201 178 18971 110 89 68 18861 41 18820 638 46 592 112 18182 487 64 423 51 372 351 157
shrinkage=0.05


Tree=118
num_leaves=31
num_cat=0
split_feature=30 14 16 4 3 15 2 3 24 25 24 4 12 13 16 30 30 13 13 2 11 15 12 15 2 25 30 22 15 17
split_gain=0.00529341 0.0663705 0.0105786 0.028687 0.00877829 0.00670145 0.176124 0.0142191 0.00812896 0.00572412 0.00535144 0.0127141 0.0282327 0.0511224 0.0120848 0.0119235 0.0807355 0.0106689 0.036043 0.0112018 0.046268 0.0217436 0.0140553 0.0100216 0.0528888 0.0130635 0.0146023 0.0741358 0.00912059 0.00910557
threshold=-10.174664999999999 -22.260449999999995 4.6772150000000012 -4.6218499999999998e-05 1.1548250000000001e-05 -1.7158549999999997 -1.1217999999999997 1.1096800000000002e-05 0.00023102950000000003 40.11225000000001 -3.6693299999999994e-07 -3.6439849999999993e-05 2.1900450000000003e-07 -2.1928699999999997 35.645800000000008 1.3577250000000005 1.0582749999999999 -2.8800399999999997 -2.8177949999999998 0.31506600000000001 2.8666300000000004e-05 0.81367600000000018 6.4213950000000014e-06 -0.98443649999999983 -0.29623399999999994 0.1021905 0.569635 0.0041160600000000004 1.7310850000000002 0.17157850000000002
decision_type=2 2 2 2 2 2 2 2 2 2 2 2 2 2 2 2 2 2 2 2 2 2 2 2 2 2 2 2 2 2
left_child=2 -2 -1 -4 -5 6 -3 -8 10 -6 11 12 13 -7 17 16 23 -14 -19 21 -21 22 -20 24 -13 26 28 -28 -25 -22
right_child=1 5 3 4 9 8 7 -9 -10 -11 -12 15 14 -15 -16 -17 -18 18 19 20 29 -23 -24 25 -26 -27 27 -29 -30 -31
leaf_value=-2.5262654896963648e-05 0.0028149894544012137 0.004267721701129947 -0.0015099688039899388 -0.00082975466691045268 -9.8008569988277972e-05 -0.0033116069699099175 -0.0017379265001458725 -0.00027229864052029465 -0.00086631728778162071 0.00073023375723278152 1.2793806236401499e-05 0.0028017773408646465 -0.0011214154125264032 -0.0003370297607086916 -0.0013179842191415707 -0.0002517397042337321 0.0025056721203410154 0.0019236600788892909 0.00094105423401924775 0.0023032167850493062 -0.00014241868675809633 -0.001726433411226026 -0.00028107151847864216 -8.9460585073499442e-06 -4.666358828134517e-05 -0.0011497332014841959 -0.00058417669190280973 0.0032318923166917558 -0.00088802934173145328 0.00081557077894642684
leaf_weight=834 21 23 47 36 126 20 23 59 27 25 17711 20 25 52 21 382 33 22 25 22 305 25 399 1790 88 25 35 20 30 27
leaf_count=834 21 23 47 36 126 20 23 59 27 25 17711 20 25 52 21 382 33 22 25 22 305 25 399 1790 88 25 35 20 30 27
internal_value=0 5.46406e-06 -0.000108616 -0.000405696 -0.000128152 2.68222e-06 0.00040114 -0.000683389 6.99751e-07 3.91176e-05 1.81042e-06 -5.59813e-05 -0.000211748 -0.0011633 -0.00013309 4.64126e-06 5.26263e-05 -0.000103816 -7.29794e-05 -0.000127682 8.2637e-05 -0.000293501 -0.000209012 1.23123e-05 0.000480825 -1.43189e-05 8.19913e-07 0.000803485 -2.34364e-05 -6.45099e-05
internal_weight=0 21230 1068 234 187 21209 105 82 21104 151 21077 3366 943 72 871 2423 2041 850 825 803 354 449 424 2008 108 1900 1875 55 1820 332
internal_count=22298 21230 1068 234 187 21209 105 82 21104 151 21077 3366 943 72 871 2423 2041 850 825 803 354 449 424 2008 108 1900 1875 55 1820 332
shrinkage=0.05


Tree=119
num_leaves=31
num_cat=0
split_feature=27 11 24 27 11 6 26 0 1 30 1 30 25 26 23 26 14 27 27 0 20 27 19 27 4 0 17 17 20 1
split_gain=0.00483497 0.0636887 0.00644588 0.0455286 0.0459542 0.0325786 0.00978314 0.066242 0.00683247 0.00647948 0.0493798 0.0375189 0.0349444 0.0301415 0.0577554 0.0532069 0.0490174 0.0377585 0.136121 0.0591102 0.0443376 0.0338138 0.053234 0.132049 0.0897706 0.12474 0.0505935 0.0469342 0.0398465 0.025185
threshold=5.3977600000000008 3.6859100000000008e-05 0.0003225765000000001 -0.027260000000000058 -2.1777649999999996e-05 3.2598500000000003e-05 1.4978200000000002 2.0046500000000003 -8.9534299999999991 0.41470999999999997 -18.040299999999995 -0.2305749999999995 -0.53959199999999985 0.024472600000000004 0.027645000000000006 0.061935000000000011 -7.6628899999999991 0.15228 0.063474999999999962 10.204500000000001 8.4130850000000012e-07 -0.20585514999999996 -0.047388199999999998 -0.041862500000000073 2.0989800000000004e-05 4.9235550000000012 -0.0031120099999999997 -0.020005999999999996 -7.5388049999999992e-06 -16.895899999999994
decision_type=2 2 2 2 2 2 2 2 2 2 2 2 2 2 2 2 2 2 2 2 2 2 2 2 2 2 2 2 2 2
left_child=2 -2 6 4 -4 -5 9 -8 -6 10 -1 29 -11 14 17 -15 -16 18 19 21 -21 -13 23 -23 27 -26 -25 -24 -29 -12
right_child=1 -3 3 5 8 -7 7 -9 -10 12 11 13 -14 15 16 -17 -18 -19 -20 20 -22 22 24 26 25 -27 -28 28 -30 -31
leaf_value=0.0024413068424023335 -0.00020024197608386172 0.0022398668577145809 0.0025464048132198512 -0.0005110409160988638 -0.0010086487344233318 -0.0029430309831652616 -0.00057734643368779592 0.0029776881297584623 0.00019262770295207357 0.0017250215069257787 -0.0015693786419713155 -2.081559302360986e-05 -4.4506331686546566e-05 0.0033585637803688383 -0.00034252664190717044 -2.5252266249691068e-05 -0.0033174836573016363 -9.258457455869582e-05 0.0041572374927151641 0.0036566857320987928 0.0004790153170428572 0.0050897219284836738 -0.0016793968459585978 -0.00076808743615401913 0.00082833352847956122 -0.0047560129140038045 0.0016181619537307818 0.0025091119534668646 0.00052718211610466772 -1.1589278047925023e-05
leaf_weight=21 141 33 20 40 20 21 38 20 29 28 26 499 7802 21 45 26 20 502 24 23 21 21 22 36 20 20 58 28 269 12404
leaf_count=21 141 33 20 40 20 21 38 20 29 28 26 499 7802 21 45 26 20 502 24 23 21 21 22 36 20 20 58 28 269 12404
internal_value=0 0.000262537 -2.06479e-06 -0.000353107 0.000526686 -0.00134828 1.01151e-08 0.000648528 -0.000297689 -1.7046e-06 1.85414e-05 1.49292e-05 -3.81785e-05 0.000238571 0.000202091 0.00148667 -0.0012579 0.000263594 0.000435354 0.000347521 0.00214007 0.000266461 0.000568889 0.0015051 0.000268988 -0.00196384 0.000704279 0.000548967 0.000714031 -1.48477e-05
internal_weight=0 174 22124 130 69 61 21994 58 49 21936 14106 14085 7830 1655 1608 47 65 1543 1041 1017 44 973 474 115 359 40 94 319 297 12430
internal_count=22298 174 22124 130 69 61 21994 58 49 21936 14106 14085 7830 1655 1608 47 65 1543 1041 1017 44 973 474 115 359 40 94 319 297 12430
shrinkage=0.05


Tree=120
num_leaves=31
num_cat=0
split_feature=31 6 14 24 7 16 3 2 25 2 28 28 18 1 25 2 2 28 28 4 13 19 19 30 19 2 28 28 28 28
split_gain=0.00511252 0.0244978 0.0128471 0.00706989 0.0450217 0.0047149 0.0184374 0.0652126 0.232842 0.0445718 0.0251191 0.149641 0.234242 0.0239145 0.0235476 0.0881089 0.0253126 0.021356 0.0158856 0.0158057 0.0188202 0.0164516 0.0120467 0.0678319 0.0109017 0.00947574 0.0285155 0.0131519 0.0668328 0.0249804
threshold=17.53988 3.0064400000000003e-05 -25.416199999999996 0.00055018350000000016 0.0024903750000000004 10.429600000000002 1.5522700000000003e-05 0.84878600000000015 -0.16036499999999995 0.53187750000000011 0.10524000000000001 -0.32555999999999991 0.021168350000000006 -16.178849999999997 0.41209650000000003 -1.0557449999999997 -0.14363649999999997 0.28372000000000025 -0.42540999999999979 5.0659850000000009e-05 -2.7240749999999996 -0.33124649999999994 2.8296000000000006 -2.5283099999999998 2.3225550000000008 -0.40836849999999997 0.20585515000000001 0.083779999999999868 -0.40027699999999994 0.41026000000000012
decision_type=2 2 2 2 2 2 2 2 2 2 2 2 2 2 2 2 2 2 2 2 2 2 2 2 2 2 2 2 2 2
left_child=2 -2 -1 5 -5 22 7 9 -9 13 11 18 -13 -7 19 -16 -17 -12 -8 20 -15 -21 -4 -24 -18 26 -22 28 -27 -29
right_child=1 -3 3 4 -6 6 10 8 -10 -11 17 12 -14 14 15 16 24 -19 -20 21 25 -23 23 -25 -26 27 -28 29 -30 -31
leaf_value=0.0010531934041174626 7.5864984851318367e-05 -0.0019182047928916293 2.2905690425620579e-06 -0.00078835263208020488 0.0023943960329052064 -0.0015046853896749852 -0.0002074914210715713 0.005050625061166698 -0.00024528451782590647 -0.0022613756432648467 0.0013130815063292782 0.00073149279297257848 -0.0055730251031277213 -0.0011750617109514267 0.0035147626138165252 0.001186107467543075 -0.00099636012153951018 -8.3427456245092256e-05 0.0012492792351986282 -0.0019151754575129115 0.00175486286112573 -6.3846095508779405e-05 -0.00014361960874296643 0.0029374169023788496 0.00013810481285165426 3.5237898659293676e-05 -0.00031950765008553609 0.0019177795120049268 -0.0030760546075180176 3.0361615201502604e-05
leaf_weight=29 67 20 20570 25 20 26 291 29 73 23 30 26 34 33 22 36 40 313 20 24 30 24 80 23 45 126 37 20 20 142
leaf_count=29 67 20 20570 25 20 26 291 29 73 23 30 26 34 33 22 36 40 313 20 24 30 24 80 23 45 126 37 20 20 142
internal_value=0 -0.000382542 1.49841e-06 1.23458e-07 0.000626202 -1.14923e-06 -8.78611e-05 8.5267e-05 0.00126042 -9.97101e-05 -0.000269718 -0.000554875 -0.00284107 -2.01608e-05 4.4276e-05 0.000604091 7.48775e-05 3.87162e-05 -0.000113808 -0.00013128 -3.03115e-05 -0.000989511 4.99144e-06 0.000544379 -0.000395761 7.04265e-05 0.000609315 -4.67993e-05 -0.000390967 0.000263376
internal_weight=0 87 22211 22182 45 22137 1464 750 102 648 714 371 60 625 599 143 121 343 311 456 408 48 20673 103 85 375 67 308 146 162
internal_count=22298 87 22211 22182 45 22137 1464 750 102 648 714 371 60 625 599 143 121 343 311 456 408 48 20673 103 85 375 67 308 146 162
shrinkage=0.05


Tree=121
num_leaves=31
num_cat=0
split_feature=3 22 5 22 25 11 1 11 25 27 27 22 14 1 25 1 16 21 1 18 27 27 3 25 25 11 28 27 16 3
split_gain=0.00497179 0.0339868 0.0125344 0.00813473 0.00543696 0.228998 0.0299004 0.00788791 0.0397696 0.125712 0.539935 0.384738 0.0434755 0.0334381 0.0328103 0.0452221 0.0365289 0.0306409 0.0247901 0.0313463 0.0244105 0.196516 0.0967833 0.0446863 0.0152398 0.0320934 0.0531526 0.200072 0.108203 0.0671941
threshold=7.8320150000000016e-06 -0.077302599999999985 0.00028696050000000007 0.032213600000000002 -0.9832439999999999 0.00033839250000000008 -12.588799999999997 -1.8820749999999999e-06 0.16628250000000003 0.40211800000000014 -0.28372000000000014 0.25632850000000007 -22.260449999999995 -6.5745499999999995 0.03655255000000001 -16.800649999999994 35.645800000000008 2.1332350000000004 -12.527449999999998 0.017468900000000002 -0.31105549999999998 0.25136499999999989 1.3846450000000002e-05 0.19649850000000005 0.00024943800000000005 -0.00015844749999999996 -0.22897950000000003 -0.12773199999999993 4.2038300000000008 1.1321550000000002e-05
decision_type=2 2 2 2 2 2 2 2 2 2 2 2 2 2 2 2 2 2 2 2 2 2 2 2 2 2 2 2 2 2
left_child=1 -1 3 -3 5 6 -2 8 12 10 13 -12 -6 -10 16 -16 -9 24 19 -19 -17 22 -22 -24 -14 -26 -27 -28 29 -29
right_child=4 2 -4 -5 7 -7 -8 14 9 -11 11 -13 17 -15 15 20 -18 18 -20 -21 21 -23 23 -25 25 26 27 28 -30 -31
leaf_value=0.0015865108888216417 -0.0021272100726491771 3.8211681398215295e-05 0.00098051847594701129 -0.00076949459647893852 0.0022290338850997284 0.0040625836642434344 -0.00022097494546137065 -3.6544020108630029e-06 -0.00046495562214581931 -0.00054211223214987656 0.010882803217761895 0.0018167166337370875 -3.4357203329547274e-05 0.0017459695681463928 -0.0026049646224627007 1.3956322485352178e-05 -0.0016212797961530408 -0.0026705380427301862 -0.0002399612312257415 -0.00025456914911046622 -0.0049659169135945072 -5.4459431536233073e-05 -0.00026739455615136125 -0.00313837657373844 -5.0317593139089967e-05 -5.1944140607164166e-05 1.0601655229421388e-05 0.00023692566958887163 0.004621433727443218 0.0021496408379946311
leaf_weight=38 24 563 34 33 22 33 144 12163 118 143 22 25 5009 20 21 440 35 29 108 25 30 427 33 23 1438 601 475 76 30 116
leaf_count=38 24 563 34 33 22 33 144 12163 118 143 22 25 5009 20 21 440 35 29 108 25 30 427 33 23 1438 601 475 76 30 116
internal_value=0 0.000134349 4.67579e-05 -6.51031e-06 -4.14909e-06 0.000254686 -0.000493294 -6.57692e-06 3.17377e-05 0.000571257 0.00143186 0.00606042 9.41938e-06 -0.000144532 -3.05948e-05 -0.000309858 -8.29589e-06 3.24364e-06 -0.000677319 -0.00155203 -0.000259284 -0.000493642 -0.00267423 -0.00144655 1.74788e-05 0.000112379 0.000292623 0.000589732 0.00182886 0.00139252
internal_weight=0 668 630 596 21630 201 168 21429 8257 328 185 47 7929 138 13172 974 12198 7907 162 54 953 513 86 56 7745 2736 1298 697 222 192
internal_count=22298 668 630 596 21630 201 168 21429 8257 328 185 47 7929 138 13172 974 12198 7907 162 54 953 513 86 56 7745 2736 1298 697 222 192
shrinkage=0.05


Tree=122
num_leaves=31
num_cat=0
split_feature=30 14 16 4 3 15 2 3 1 19 8 22 14 1 22 23 21 4 14 6 22 20 5 2 30 14 7 14 20 14
split_gain=0.0046797 0.058169 0.00930738 0.0259108 0.00802247 0.00575537 0.147833 0.0131075 0.00576528 0.033218 0.142443 0.032145 0.0404881 0.0208185 0.102591 0.0124975 0.0240877 0.107639 0.0187625 0.0193386 0.0198968 0.0122881 0.0214594 0.00854738 0.0259683 0.00980884 0.00802136 0.0334277 0.0173833 0.011954
threshold=-10.174664999999999 -22.260449999999995 4.6772150000000012 -4.6218499999999998e-05 1.1548250000000001e-05 -1.7158549999999997 -1.1217999999999997 1.1096800000000002e-05 -14.840249999999999 2.8296000000000006 -1.0244349999999998e-05 -0.0083075449999999978 -16.521049999999999 -14.694299999999997 -0.0017273849999999999 0.37482500000000002 1.39436 -9.2932949999999993e-06 -17.905199999999997 7.0396950000000007e-05 0.0017766150000000003 -0.0016106259999999998 3.1579900000000006e-05 0.034634100000000008 2.1794250000000002 -14.098699999999999 0.0027443100000000002 -14.283699999999998 1.6769150000000002e-05 -14.134549999999999
decision_type=2 2 2 2 2 2 2 2 2 2 2 2 2 2 2 2 2 2 2 2 2 2 2 2 2 2 2 2 2 2
left_child=2 -2 -1 -4 -5 6 -3 -8 9 11 -11 12 -7 14 -10 16 18 -18 19 20 -13 22 -15 24 -14 -25 27 28 -20 -28
right_child=1 5 3 4 -6 8 7 -9 13 10 -12 15 23 21 -16 -17 17 -19 26 -21 -22 -23 -24 25 -26 -27 29 -29 -30 -31
leaf_value=-2.3940913551627783e-05 0.0026353532650751905 0.0039142466271701063 -0.0014302656055735228 -0.00078773044490642674 4.2894724350278454e-05 -0.0022436217812355609 -0.0016342948516071571 -0.00022712594151725772 0.0039257944829296327 0.0042478828249758486 -0.00097850218444364158 -0.00045837460376787933 -0.0022386478040061775 0.00013711772693428571 -0.0001412653430541969 -0.0012500747932963783 -0.0014498299607657828 0.0036755086809751539 0.00058853251903201453 9.0279666361429043e-05 -0.0026886641670716927 8.1609388974564144e-06 -0.0020413736149203035 0.00091894158224022256 -0.00029894398795960342 -0.0003027990015755469 -0.00040942071689246279 -2.4421221483378745e-05 0.0025844469832372857 -6.1361508990124612e-06
leaf_weight=834 21 23 47 36 151 34 23 59 20 22 32 20 22 26 69 21 20 21 24 31 20 18696 20 20 80 92 212 203 20 1379
leaf_count=834 21 23 47 36 151 34 23 59 20 22 32 20 22 26 69 21 20 21 24 31 20 18696 20 20 80 92 212 203 20 1379
internal_value=0 5.13756e-06 -0.000102126 -0.000380785 -0.000117012 2.53326e-06 0.000371795 -0.00062182 6.96054e-07 -7.45242e-05 0.00115077 -0.000104342 -0.000640837 9.77553e-06 0.000772681 -3.68378e-05 -2.37722e-05 0.00117534 -4.95258e-05 -0.000847072 -0.00157352 6.15273e-06 -0.000810052 -0.000386189 -0.000717311 -8.4631e-05 -1.87175e-05 0.000246381 0.00149577 -5.98736e-05
internal_weight=0 21230 1068 234 187 21209 105 82 21104 2273 54 2219 248 18831 89 1971 1950 41 1909 71 40 18742 46 214 102 112 1838 247 44 1591
internal_count=22298 21230 1068 234 187 21209 105 82 21104 2273 54 2219 248 18831 89 1971 1950 41 1909 71 40 18742 46 214 102 112 1838 247 44 1591
shrinkage=0.05


Tree=123
num_leaves=31
num_cat=0
split_feature=2 15 18 11 15 25 1 6 7 4 30 2 15 2 2 30 30 30 21 17 28 27 17 9 9 17 25 25 22 1
split_gain=0.00465393 0.033341 0.034731 0.0184273 0.169524 0.0144992 0.0302957 0.0312172 0.0321329 0.0173145 0.0287075 0.0171787 0.0121229 0.281571 0.0147058 0.0101341 0.0176743 0.017057 0.0234434 0.00815474 0.0140551 0.0372961 0.0083169 0.0161019 0.0230263 0.0188429 0.0129679 0.00964082 0.00863778 0.0076658
threshold=1.4400350000000002 1.7310850000000002 0.15259550000000002 0.00050133000000000013 0.41062350000000009 -0.23236549999999997 -12.633099999999997 5.8330150000000009e-05 0.0025550350000000002 -4.5205849999999997e-05 -3.3324899999999986 0.33837000000000006 0.68095400000000017 0.66577950000000008 0.33837000000000006 -1.3948799999999995 -2.212345 0.95305000000000029 1.3050850000000003 -0.046761399999999995 -0.34717249999999999 -0.20585514999999996 0.074667700000000017 6.5668750000000007e-05 0.00011625350000000002 0.55062400000000011 -0.16036499999999995 -0.037426999999999995 -0.027656399999999998 -18.778949999999998
decision_type=2 2 2 2 2 2 2 2 2 2 2 2 2 2 2 2 2 2 2 2 2 2 2 2 2 2 2 2 2 2
left_child=3 2 19 5 -5 6 7 8 -1 10 -8 -11 29 14 15 16 -14 18 -17 20 -2 -22 27 25 -25 26 -24 -21 -26 -7
right_child=1 -3 -4 4 -6 12 9 -9 -10 11 -12 -13 13 -15 -16 17 -18 -19 -20 22 21 -23 23 24 28 -27 -28 -29 -30 -31
leaf_value=-0.00056939526299781091 -4.8264694049321017e-05 0.0019345618873125034 -0.0019206594398710878 -1.9441525288351528e-05 0.0044314075959846376 0.00037994020342045626 -0.00021745753851503432 0.00020197935691275808 -0.0030838438365780926 -0.00011645141890502913 0.0022449027732363903 -0.0015085927821928637 1.3217671470941313e-05 0.0057850163705139004 0.0012931598466821015 -0.00011407268305317434 0.0015212039973924957 -3.3428754269435992e-05 -0.0022206080481410027 0.00099164359950615713 -0.0001415391426676901 -0.0022247473279827729 -0.0013943645139806904 -0.0023383047887909924 -0.0012871489161625504 0.0013599659660196101 6.4389499694746194e-06 -1.4437049130497391e-05 -5.4093601313664347e-05 1.7055793454752695e-06
leaf_weight=24 186 21 25 197 24 135 29 27 27 289 20 24 260 22 21 28 21 122 25 24 70 31 20 20 20 22 95 3033 49 17387
leaf_count=24 186 21 25 197 24 135 29 27 27 289 20 24 260 22 21 28 21 122 25 24 70 31 20 20 20 22 95 3033 49 17387
internal_value=0 -5.19212e-05 -6.35251e-05 1.00496e-05 0.000463909 4.61639e-06 -0.000278965 -0.00117277 -0.00190057 -8.63782e-05 0.000787587 -0.000223197 1.15403e-05 0.000254551 -5.2266e-07 -6.01001e-05 0.000125914 -0.000358786 -0.00110772 -5.052e-05 -0.000306105 -0.00078094 -2.81767e-05 -0.000320867 -0.000844491 1.92968e-05 -0.000237179 -6.53848e-06 -0.000411501 4.61973e-06
internal_weight=0 3616 3595 18682 221 18461 440 78 51 362 49 313 18021 499 477 456 281 175 53 3570 287 101 3283 226 89 137 115 3057 69 17522
internal_count=22298 3616 3595 18682 221 18461 440 78 51 362 49 313 18021 499 477 456 281 175 53 3570 287 101 3283 226 89 137 115 3057 69 17522
shrinkage=0.05


Tree=124
num_leaves=31
num_cat=0
split_feature=5 24 27 27 21 21 27 17 3 12 18 6 24 0 22 20 1 3 27 27 5 17 27 24 1 13 13 7 1 25
split_gain=0.00458828 0.036242 0.0431371 0.0746398 0.0136324 0.0127094 0.060226 0.0102364 0.0127375 0.0188129 0.00996887 0.0813936 0.0111552 0.0506801 0.00974469 0.00882774 0.0357303 0.0082999 0.0109404 0.0294637 0.00723871 0.0634783 0.00721393 0.00716989 0.0154535 0.0191857 0.04111 0.0198643 0.0119323 0.0227226
threshold=-0.00021567299999999997 5.5494100000000013e-06 -0.31105549999999998 0.32697800000000021 12.455250000000001 4.2965400000000011 -0.33568149999999991 -0.044990649999999993 9.8468150000000014e-06 0.00013802200000000004 0.25734950000000006 3.6716800000000007e-05 0.00055018350000000016 3.9384800000000006 -0.37774049999999998 -4.6269849999999992e-05 -15.739449999999998 1.6305200000000004e-05 -0.20585514999999996 0.45543000000000028 -0.00017397549999999997 -0.10682549999999998 -0.28372000000000014 -2.5244899999999994e-06 -12.527449999999998 -0.67425849999999987 2.2422950000000004 0.0052645550000000015 -19.346799999999998 6.5055400000000021e-05
decision_type=2 2 2 2 2 2 2 2 2 2 2 2 2 2 2 2 2 2 2 2 2 2 2 2 2 2 2 2 2 2
left_child=1 5 4 -4 14 7 -7 8 -1 -10 12 22 20 -14 -3 16 -9 18 -11 -20 21 -2 -12 24 25 -22 27 -27 29 -25
right_child=10 2 3 -5 -6 6 -8 15 9 17 11 -13 13 -15 -16 -17 -18 -19 19 -21 23 -23 -24 28 -26 26 -28 -29 -30 -31
leaf_value=0.00074587556819492222 0.0022800248852410522 0.0010552976618609614 -0.0037811997381073459 -0.00023639650109654405 -0.0010055382898337066 -0.00077870971902578687 0.0026073545338780001 0.0023492865017306032 -0.0018400696254937668 0.00015026513349203883 0.00020793475227297417 0.003204292596571825 0.0026318945296225139 -0.00088497197305384499 -0.00016506923335278721 -1.9129230767779935e-05 1.0495550402870476e-05 -3.6599908280015157e-05 -0.0026160752272699032 9.7948929324047652e-05 -4.0426277605897317e-05 3.4431500549872069e-05 -0.00070337665921005495 -0.00016402059118263425 -4.6265916316625291e-05 -0.0010194337644200211 0.00063089834147831434 -0.0031209727384797908 4.2838114765750567e-06 0.002077671992519754
leaf_weight=23 34 21 27 33 39 29 24 20 23 21 49 22 20 21 74 2762 89 102 20 20 65 423 39 26 597 22 20 23 17590 20
leaf_count=23 34 21 27 33 39 29 24 20 23 21 49 22 20 21 74 2762 89 102 20 20 65 423 39 26 597 22 20 23 17590 20
internal_value=0 -5.41602e-05 -0.000717337 -0.00183156 -0.000218432 -1.30954e-05 0.000754602 -2.63058e-05 -0.000364146 -0.000501407 9.49824e-06 0.000484105 6.73027e-06 0.000830573 0.000104696 -1.71198e-06 0.000439632 -0.000312516 -0.000773885 -0.00125906 4.9355e-06 0.0002015 -0.000195942 4.36061e-08 -0.000153838 -0.000647844 -0.00125526 -0.00209355 6.387e-06 0.000810628
internal_weight=0 3327 194 60 134 3133 53 3080 209 186 18971 110 18861 41 95 2871 109 163 61 40 18820 457 88 18363 727 130 65 45 17636 46
internal_count=22298 3327 194 60 134 3133 53 3080 209 186 18971 110 18861 41 95 2871 109 163 61 40 18820 457 88 18363 727 130 65 45 17636 46
shrinkage=0.05


Tree=125
num_leaves=31
num_cat=0
split_feature=4 26 10 26 1 6 19 1 30 28 15 2 12 12 1 11 26 2 30 1 28 28 15 1 11 20 1 28 28 20
split_gain=0.00432013 0.0348215 0.0177692 0.00933997 0.117644 0.0167815 0.00585436 0.0172579 0.0455963 0.00584038 0.00534501 0.105799 0.257274 0.365568 0.100901 0.0407229 0.0320818 0.0266283 0.0148455 0.0364683 0.0205918 0.145541 0.0117072 0.0162831 0.0125436 0.0470465 0.102262 0.137293 0.406794 0.0309188
threshold=-0.00030608549999999995 0.026828050000000003 -1.2531099999999998e-05 1.0444035000000003 -12.457899999999997 3.9336850000000003e-05 0.062955000000000011 -13.560549999999997 2.1794250000000002 0.3620580000000001 0.57638050000000007 0.40825900000000009 8.5975000000000016e-05 2.1170350000000003e-05 -14.840249999999999 1.3599750000000003e-05 0.048240100000000008 1.4400350000000002 -1.6975550000000001 -12.930349999999999 0.17853300000000003 -0.174708 0.44346200000000008 -16.345749999999995 -1.8820749999999999e-06 0.00020448100000000004 -9.0478649999999998 -0.40027699999999994 0.28372000000000025 0.00011553700000000002
decision_type=2 2 2 2 2 2 2 2 2 2 2 2 2 2 2 2 2 2 2 2 2 2 2 2 2 2 2 2 2 2
left_child=1 6 -3 10 -5 9 -1 8 -8 -6 22 15 13 -13 -14 18 17 -16 19 -12 21 -20 24 -24 25 -2 -27 -28 -29 -26
right_child=3 2 -4 4 5 -7 7 -9 -10 -11 11 12 14 -15 16 -17 -18 -19 20 -21 -22 -23 23 -25 29 26 27 28 -30 -31
leaf_value=3.0721350133412646e-05 3.4516590961228933e-05 -0.00042057339747164716 -0.0021562552878408338 0.0030212287629679357 -0.00060358601761382655 -0.0017019704100675881 -0.0020980495267744681 4.4676128654677112e-05 -4.0605134242583915e-05 0.00023916390894625626 0.0021544265197007916 0.00090662726130277512 0.0026614306543599336 0.0092076268898034913 0.001321343272672948 -0.0022669326101260432 -0.0015205602190690116 -0.00033780447567110199 -0.00017675436205526215 -1.6593168849620407e-05 2.4969742351624353e-05 -0.0046490756972205078 -0.0012968185439631548 -0.00015577491562594753 -1.2302648701943746e-05 -0.00035275549962390969 -0.00047946474391996949 0.0090398159765061881 0.0005168059642528533 -0.00044668104770454083
leaf_weight=985 6931 30 29 33 34 20 39 241 87 52 20 36 34 21 32 22 42 99 136 589 165 21 33 595 11352 95 37 21 42 425
leaf_count=985 6931 30 29 33 34 20 39 241 87 52 20 36 34 21 32 22 42 99 136 589 165 21 33 595 11352 95 37 21 42 425
internal_value=0 -8.46759e-05 -0.00127371 5.72019e-06 0.000414214 -0.000397404 -3.27878e-05 -0.000203242 -0.000677433 -9.40163e-05 2.98352e-06 0.000104649 0.000990395 0.00396489 0.000171331 -0.00014072 -0.000318053 6.74835e-05 -9.04769e-05 5.47047e-05 -0.00036506 -0.000774963 -3.35137e-06 -0.000215734 3.70446e-06 5.60657e-05 0.000822 0.00193802 0.00335781 -2.79782e-05
internal_weight=0 1411 59 20887 139 106 1352 367 126 86 20748 1217 264 57 207 953 173 131 931 609 322 157 19531 628 18903 7126 195 100 63 11777
internal_count=22298 1411 59 20887 139 106 1352 367 126 86 20748 1217 264 57 207 953 173 131 931 609 322 157 19531 628 18903 7126 195 100 63 11777
shrinkage=0.05


Tree=126
num_leaves=31
num_cat=0
split_feature=3 22 5 22 25 12 0 28 28 26 9 1 8 22 28 28 28 25 1 11 4 1 30 14 14 15 1 22 23 20
split_gain=0.00447386 0.0304637 0.0110022 0.0069579 0.00611492 0.0316493 0.038933 0.0516113 0.0316802 0.00750375 0.0574775 0.0497597 0.0339861 0.00544717 0.0309851 0.0698578 0.0104864 0.00838554 0.10825 0.020362 0.0127268 0.00681645 0.0276647 0.0401504 0.0401502 0.0236903 0.0125431 0.0590652 0.0105601 0.0100867
threshold=7.8320150000000016e-06 -0.077302599999999985 0.00028696050000000007 0.032213600000000002 5.6022800000000013 0.0061489100000000014 -1.7109999999999996 -0.25082149999999998 2.4477600000000006 0.39077100000000003 -9.0624699999999996e-06 -12.761199999999999 1.6409750000000002e-06 0.6401960000000001 -0.22897950000000003 0.28372000000000025 -0.78557500000000002 -0.53959199999999985 -13.487549999999997 0.00045537150000000005 -4.5205849999999997e-05 -14.840249999999999 -3.9449699999999996 -19.339499999999997 -17.905199999999997 -0.21663299999999996 -14.694299999999997 -0.0014295549999999997 0.064807950000000017 9.4066250000000008e-05
decision_type=2 2 2 2 2 2 2 2 2 2 2 2 2 2 2 2 2 2 2 2 2 2 2 2 2 2 2 2 2 2
left_child=1 -1 3 -3 9 6 8 -8 -6 13 -11 -12 -13 17 16 -16 -15 18 -2 20 -20 22 -19 -24 25 -25 27 -23 29 -26
right_child=4 2 -4 -5 5 -7 7 -9 -10 10 11 12 -14 14 15 -17 -18 21 19 -21 -22 26 23 24 28 -27 -28 -29 -30 -31
leaf_value=0.0015022821274071345 0.0032407090382616001 3.5971234899029642e-05 0.00091934653088066953 -0.00071102980026890611 -0.0023284253174841235 -0.0019445184450596572 -0.00059032883930384473 0.0027242008332905247 9.2915520363021648e-05 0.0023959814245504926 -0.0023301640910739527 -9.3005987694606449e-05 0.002190363228437491 -4.8127914325440157e-05 -0.0036320127516228243 5.3561305867333432e-05 0.0011842937751862339 -0.0016512440730626363 0.0011316709191305564 -0.0017099455703282731 -0.00024130534778990742 0.0029846171976532789 0.0020084173027577852 -0.0022051287831605544 -4.1917210565069774e-05 -0.00021262236091738139 2.1700265384889289e-06 -0.00014025172705414075 -0.00059222283509851638 0.00098965484321524868
leaf_weight=38 27 563 34 33 22 25 23 24 35 28 21 88 20 126 20 36 20 28 21 20 86 20 23 35 1876 26 18807 62 87 24
leaf_count=38 27 563 34 33 22 25 23 24 35 28 21 88 20 126 20 36 20 28 21 20 86 20 23 35 1876 26 18807 62 87 24
internal_value=0 0.000127444 4.45168e-05 -5.38956e-06 -3.93585e-06 -0.000347155 3.68264e-05 0.0011022 -0.000841637 -1.87662e-06 0.000342527 -0.000103184 0.00032984 -4.40996e-06 -0.000262823 -0.00126272 0.000120697 -1.94096e-06 0.000365669 -0.00024556 2.81573e-05 -4.63831e-06 -9.01178e-05 -6.90113e-05 -9.23418e-05 -0.00135586 4.86042e-06 0.000621911 -5.35523e-05 -2.88868e-05
internal_weight=0 668 630 596 21630 129 104 47 57 21501 157 129 108 21344 202 56 146 21142 154 127 107 20988 2099 2071 2048 61 18889 82 1987 1900
internal_count=22298 668 630 596 21630 129 104 47 57 21501 157 129 108 21344 202 56 146 21142 154 127 107 20988 2099 2071 2048 61 18889 82 1987 1900
shrinkage=0.05


Tree=127
num_leaves=31
num_cat=0
split_feature=31 6 14 24 4 24 1 21 1 7 10 14 27 27 9 22 1 27 31 31 9 12 31 21 6 27 14 1 10 19
split_gain=0.0043558 0.0199808 0.0111041 0.00539879 0.0402729 0.00407473 0.00869483 0.0547352 0.0460621 0.0226763 0.0364975 0.0287761 0.040887 0.230011 0.0254288 0.0293642 0.0254045 0.0199558 0.00832047 0.060767 0.0126653 0.0471315 0.0178532 0.00811442 0.0198426 0.0132089 0.00749727 0.00698732 0.00695996 0.0068972
threshold=17.53988 3.0064400000000003e-05 -25.416199999999996 0.00055018350000000016 -3.4101899999999997e-06 -3.6693299999999994e-07 -13.076199999999998 4.8215100000000009 -13.209849999999998 0.0087055250000000022 -3.8883149999999996e-07 -14.029299999999997 -0.46332999999999985 0.12853499999999998 -1.0082609999999998e-05 -0.0066818849999999994 -17.030649999999998 -0.20585514999999996 -0.51779999999999926 -0.6318149999999999 -1.7041999999999997e-06 0.00026713450000000004 -0.89619499999999996 4.8215100000000009 2.7785150000000003e-05 1.623801 -17.037399999999995 -12.761199999999999 7.6441300000000006e-06 -1.4106449999999999
decision_type=2 2 2 2 2 2 2 2 2 2 2 2 2 2 2 2 2 2 2 2 2 2 2 2 2 2 2 2 2 2
left_child=2 -2 -1 5 -5 6 7 8 9 10 -4 12 -11 -14 -12 17 -17 -16 19 20 21 -8 -22 27 -25 -26 -18 -20 -15 -7
right_child=1 -3 3 4 -6 29 18 -9 -10 11 14 -13 13 28 15 16 26 -19 23 -21 22 -23 -24 24 25 -27 -28 -29 -30 -31
leaf_value=0.00097913677700803259 6.0896405910225172e-05 -0.0017399796799873004 0.0018226094951050648 0.0021462760584351299 -0.00085197291725004707 -0.00013972903021972104 0.0025374441077557013 0.0016429848524766339 -0.002222387647270807 -4.4988074044410425e-05 0.001377477928407542 -0.00013113618049199151 -0.006152875783895566 0.00049309944276631416 -0.00048592072540041236 0.0017195988890459073 -0.00097942817574221404 -0.0021996820844763605 0.00091198868868559669 0.0027044444329753195 -4.2994201038612734e-05 -3.8716418137781886e-05 -0.0016203849480007195 -1.835401522435455e-05 -0.002002433720134342 -0.00031643839902244513 -7.2672904302712366e-07 -2.6287927091143059e-05 -0.00068075849568508017 1.4988226368328995e-05
leaf_weight=29 67 20 27 21 24 751 22 38 30 52 27 182 22 28 49 21 22 26 20 23 174 92 20 108 26 21 177 2514 23 17642
leaf_count=29 67 20 27 21 24 751 22 38 30 52 27 182 22 28 49 21 22 26 20 23 174 92 20 108 26 21 177 2514 23 17642
internal_value=0 -0.000353098 1.38308e-06 1.04796e-07 0.00054721 -1.00736e-06 -4.85539e-05 -0.000204174 -0.000306495 -0.000218878 5.68368e-05 -0.000532313 -0.00111643 -0.00187964 -9.12249e-05 -0.000225649 6.5616e-05 -0.00108002 -1.12462e-05 0.000225303 4.01726e-05 0.000458437 -0.000205612 -4.0364e-05 -0.000391553 -0.00124912 -0.000108925 -1.88824e-05 -3.62875e-05 8.671e-06
internal_weight=0 87 22211 22182 45 22137 3744 724 686 656 349 307 125 73 322 295 220 75 3020 331 308 114 194 2689 155 47 199 2534 51 18393
internal_count=22298 87 22211 22182 45 22137 3744 724 686 656 349 307 125 73 322 295 220 75 3020 331 308 114 194 2689 155 47 199 2534 51 18393
shrinkage=0.05


Tree=128
num_leaves=31
num_cat=0
split_feature=30 21 0 4 25 22 27 3 27 13 3 17 15 21 23 10 27 24 10 23 9 23 23 6 28 18 23 25 11 8
split_gain=0.00402787 0.023826 0.18847 0.00819854 0.0209459 0.0052691 0.00514881 0.0272659 0.0259581 0.0558437 0.0490868 0.116726 0.0585815 0.0577383 0.0862692 0.042883 0.0410896 0.064398 0.0685083 0.0573421 0.263617 0.0537882 0.0518644 0.090128 0.0667785 0.126566 0.13343 0.0891254 0.254052 0.046696
threshold=-10.174664999999999 60.273600000000009 -1.7109999999999996 -4.6218499999999998e-05 0.62835300000000005 -0.0085317799999999975 0.40211800000000014 6.5747000000000008e-06 -0.027260000000000058 2.9286350000000003 8.5848800000000017e-06 -0.015779249999999998 -0.18725749999999997 6.0983350000000014 0.46573400000000004 2.0712800000000003e-06 0.030899999999999931 -2.0251449999999995e-08 1.3662400000000002e-08 -0.0013449999999999996 7.9491450000000011e-08 0.32679950000000008 0.027112500000000001 -4.9609399999999988e-06 -0.046108999999999976 0.00022729350000000003 -0.0015808699999999996 0.017917950000000005 -2.7719849999999993e-06 1.3104200000000002e-08
decision_type=2 2 2 2 2 2 2 2 2 2 2 2 2 2 2 2 2 2 2 2 2 2 2 2 2 2 2 2 2 2
left_child=3 6 -3 4 5 -1 8 -8 -2 10 11 -10 -13 14 16 -14 17 19 -19 20 -12 22 24 -24 27 -26 -27 -18 -29 -20
right_child=1 2 -4 -5 -6 -7 7 -9 9 -11 13 12 15 -15 -16 -17 21 18 29 -21 -22 -23 23 -25 25 26 -28 28 -30 -31
leaf_value=-0.00078659629469494453 -9.1440143969603263e-06 -0.0027977116871625188 0.0033192266690468177 -4.0497819077787104e-05 -0.0015521625953789971 6.5401342669966369e-05 0.0016920551546322909 -3.1742786677347215e-05 0.0046163842073292478 0.0028154727942455793 0.00086408512154527927 -0.0019122835779409712 0.00040388924911288391 0.0021374704947982751 -0.0032078791863750667 0.0029980131232323834 -4.0756063535749443e-05 -0.001851016021682881 0.0017375149216813314 0.00027991506616409915 -0.0058392566495967914 0.0024334263455654897 0.00098442281861415323 -0.0025003820488398725 -0.0046669487238184294 -0.0027022235857262072 0.0027444071692033587 0.0052594401395943922 -0.0014803183560380367 0.0003976346523215709
leaf_weight=23 10376 20 34 926 33 86 23 8750 20 20 44 21 66 34 20 21 984 20 157 260 22 21 28 55 22 23 22 29 27 111
leaf_count=23 10376 20 34 926 33 86 23 8750 20 20 44 21 66 34 20 21 984 20 157 260 22 21 28 55 22 23 22 29 27 111
internal_value=0 4.76635e-06 0.00105369 -9.47468e-05 -0.000448511 -0.000114378 2.09152e-06 -2.72235e-05 2.28269e-05 0.000186483 0.000160285 0.00110769 0.000457935 9.57458e-05 5.81205e-05 0.00103006 9.39123e-05 0.000427103 0.000971899 -5.41901e-05 -0.00137036 -7.50215e-05 -0.000119288 -0.00132479 -2.89032e-05 -0.00155891 -3.94263e-05 6.96646e-05 0.00200991 0.00118256
internal_weight=0 21230 54 1068 142 109 21176 8773 12403 2027 2007 128 108 1879 1845 87 1825 614 288 326 66 1211 1190 83 1107 67 45 1040 56 268
internal_count=22298 21230 54 1068 142 109 21176 8773 12403 2027 2007 128 108 1879 1845 87 1825 614 288 326 66 1211 1190 83 1107 67 45 1040 56 268
shrinkage=0.05


Tree=129
num_leaves=31
num_cat=0
split_feature=27 16 24 27 11 6 26 0 1 30 1 30 26 23 14 26 27 27 0 23 1 5 27 27 20 23 27 12 14 25
split_gain=0.00402624 0.0592082 0.00511324 0.0411292 0.0400144 0.0345118 0.00691501 0.0542833 0.00561526 0.00557777 0.0417745 0.0298589 0.0254812 0.0486842 0.0437742 0.0433215 0.0314478 0.10632 0.0517356 0.0422974 0.0302888 0.0307764 0.0701027 0.0402352 0.0310215 0.0333883 0.0307517 0.0285879 0.0247628 0.0246872
threshold=5.3977600000000008 9.9858350000000016 0.0003225765000000001 -0.027260000000000058 -2.1777649999999996e-05 3.2598500000000003e-05 1.4978200000000002 2.0046500000000003 -8.9534299999999991 0.41470999999999997 -18.040299999999995 -0.2305749999999995 0.024472600000000004 0.027645000000000006 -7.6628899999999991 0.061935000000000011 0.12853499999999998 0.046556600000000024 10.204500000000001 -0.00019148049999999998 -13.560549999999997 0.00011629400000000001 -0.0053550000000001088 -0.062254999999999942 -7.5388049999999992e-06 0.00071472450000000019 -0.20585514999999996 0.00034164950000000008 -12.071399999999999 -0.53959199999999985
decision_type=2 2 2 2 2 2 2 2 2 2 2 2 2 2 2 2 2 2 2 2 2 2 2 2 2 2 2 2 2 2
left_child=2 -2 6 4 -4 -5 9 -8 -6 10 -1 -12 13 16 -15 -14 17 18 20 -20 26 23 27 28 25 -25 -13 -23 -22 -11
right_child=1 -3 3 5 8 -7 7 -9 -10 29 11 12 15 14 -16 -17 -18 -19 19 -21 21 22 -24 24 -26 -27 -28 -29 -30 -31
leaf_value=0.002245702175423503 -0.00010212756344036975 0.002729134568445651 0.0024063422100152822 -0.00039868888186902042 -0.00089211508548032732 -0.0029017951708131783 -0.00056452483641853746 0.0026536561278044249 0.00019691278151906866 0.0014466831726687296 -1.2579607077303544e-05 -9.1241812348016535e-05 0.0030501319308920455 -0.00029545696111906892 -0.0031068047881126406 -3.2034320891118392e-06 -8.5776388782758713e-05 0.0037560657628447468 0.00029677117745450235 0.0034101549635427854 -0.0017313178367788038 0.0016506135306553916 -0.0032502372449103169 0.0030448499043884045 0.00047448737398590995 0.00032750554353697228 0.0021441877042525448 -0.00067447625352099589 2.6412205877401946e-05 -4.0637399729826947e-05
leaf_weight=21 153 21 20 40 20 21 38 20 29 28 12430 25 21 45 20 26 508 23 20 24 21 20 21 26 319 20 40 39 437 7802
leaf_count=21 153 21 20 40 20 21 38 20 29 28 12430 25 21 45 20 26 508 23 20 24 21 20 21 26 319 20 40 39 437 7802
internal_value=0 0.000239576 -1.88421e-06 -0.00031454 0.000521667 -0.00126041 -3.61947e-08 0.000545193 -0.000247588 -1.47781e-06 1.73067e-05 1.39843e-05 0.000213494 0.000179953 -0.00116049 0.00136105 0.00023642 0.00039456 0.000318163 0.00199498 0.000241944 0.000166905 -0.000769341 0.000257913 0.000649528 0.0018634 0.00128441 0.00011369 -5.41824e-05 -3.53188e-05
internal_weight=0 174 22124 130 69 61 21994 58 49 21936 14106 14085 1655 1608 65 47 1543 1035 1012 44 968 903 80 823 365 46 65 59 458 7830
internal_count=22298 174 22124 130 69 61 21994 58 49 21936 14106 14085 1655 1608 65 47 1543 1035 1012 44 968 903 80 823 365 46 65 59 458 7830
shrinkage=0.05


Tree=130
num_leaves=31
num_cat=0
split_feature=22 4 6 2 30 4 23 11 24 7 22 9 30 30 25 11 7 19 3 10 30 10 23 4 16 9 4 30 5 4
split_gain=0.00390627 0.0519414 0.0644976 0.0440733 0.0537053 0.0121393 0.013999 0.0157457 0.0157881 0.0109561 0.00978504 0.0819261 0.0221739 0.00849026 0.00753863 0.159156 0.0155961 0.00897325 0.0244236 0.0078354 0.00746172 0.00672353 0.00648765 0.0176975 0.055447 0.0678186 0.0330311 0.0316573 0.0172765 0.0107606
threshold=0.49056700000000003 0.00022120900000000002 0.00048174300000000003 0.33837000000000006 -0.91487500000000022 -0.0002020995 2.0308350000000002 -6.1838649999999991e-05 -3.0142549999999995e-05 0.0049258850000000005 0.27780900000000003 1.1021800000000002e-05 -1.0504849999999999 -0.68019999999999958 -0.53959199999999985 0.00033839250000000008 0.00062934050000000021 5.7951600000000001 1.3494650000000001e-05 -4.4505349999999993e-08 0.89434999999999987 7.8604450000000011e-08 0.20691750000000003 4.0306800000000005e-05 24.120400000000004 1.0026325000000003e-05 2.9373950000000004e-05 -1.3186349999999998 -5.7461099999999998e-05 -0.00018272749999999997
decision_type=2 2 2 2 2 2 2 2 2 2 2 2 2 2 2 2 2 2 2 2 2 2 2 2 2 2 2 2 2 2
left_child=10 3 -3 5 9 -2 7 8 -7 -5 14 12 -12 -9 15 16 21 22 -19 -18 -14 -1 -16 26 27 28 29 -25 -26 -24
right_child=1 2 -4 4 -6 6 -8 13 -10 -11 11 -13 20 -15 17 -17 19 18 -20 -21 -22 -23 23 24 25 -27 -28 -29 -30 -31
leaf_value=0.00090199055935954683 0.00094213562465652277 0.0035766845493344595 -0.00039074411199960327 2.5084467169137734e-05 -0.0035681691581842079 -0.0020095550717087463 0.00072906772344906228 6.1181665633332289e-05 -0.00031307586468756201 -0.0014540524208097765 0.00083009847447101492 0.0031369093209555701 -0.0015090868177746112 -0.00079711054622228937 4.0263639902900649e-06 0.0038388480587551992 -0.00047171665948874709 0.00056501706382662705 -0.0014460771039820329 -0.0016247721556842756 -0.00035476877050574069 -0.0001827295818948187 -0.00089471418060174288 -0.0021049453763295717 0.0010799937649471759 0.0031340276372843778 -0.0021798349214646887 0.00019835708858278981 -0.00092934659978314107 -0.00011938251087638696
leaf_weight=20 27 20 21 31 21 24 38 163 32 21 35 23 21 35 20996 27 34 26 36 26 42 50 52 26 20 29 23 35 23 321
leaf_count=20 27 20 21 31 21 24 38 163 32 21 35 23 21 35 20996 27 34 26 36 26 42 50 52 26 20 29 23 35 23 321
internal_value=0 -0.000148713 0.00154459 -0.000325818 -0.0014341 -7.21999e-05 -0.000165991 -0.000299898 -0.00104014 -0.000572259 2.94501e-06 0.000451333 -0.000178956 -9.05367e-05 4.49848e-07 0.000345667 -0.000379839 -2.06088e-06 -0.000602715 -0.000971374 -0.000739541 0.00012719 -3.30777e-07 -0.000173266 0.000325757 0.00126544 -0.000340866 -0.000783378 5.23031e-06 -0.000227472
internal_weight=0 433 41 392 73 319 292 254 56 52 21865 121 98 198 21744 157 130 21587 62 60 63 70 21525 529 133 72 396 61 43 373
internal_count=22298 433 41 392 73 319 292 254 56 52 21865 121 98 198 21744 157 130 21587 62 60 63 70 21525 529 133 72 396 61 43 373
shrinkage=0.05


Tree=131
num_leaves=31
num_cat=0
split_feature=19 24 7 21 10 16 12 2 9 12 1 7 2 27 13 27 3 21 21 3 8 24 10 10 13 27 13 6 8 24
split_gain=0.00380007 0.00454221 0.0367833 0.00419719 0.0463855 0.00407486 0.017597 0.0968054 0.085368 0.0316308 0.0312407 0.0528978 0.041918 0.0608245 0.0306501 0.0735637 0.0195694 0.0865551 0.0326388 0.0176043 0.0161521 0.0318857 0.0141072 0.0248136 0.0135398 0.0148824 0.0121861 0.0122467 0.0221707 0.0173726
threshold=188.43965000000003 0.00055018350000000016 0.0024903750000000004 187.30050000000003 1.1159400000000002e-06 10.429600000000002 0.00017480000000000002 -1.1217999999999997 1.1021800000000002e-05 0.00050522450000000014 -16.007699999999996 0.0027443100000000002 0.33837000000000006 -0.027260000000000058 -0.070785999999999988 0.23070700000000008 1.4455600000000003e-05 17.397300000000005 10.610000000000001 2.0094400000000005e-05 4.4329200000000009e-05 4.3446050000000007e-05 1.6646300000000003e-06 -8.8581999999999976e-06 1.4311150000000004 -0.68386999999999998 -2.8657299999999997 1.9870450000000006e-05 -2.4590199999999995e-07 1.4904400000000001e-05
decision_type=2 2 2 2 2 2 2 2 2 2 2 2 2 2 2 2 2 2 2 2 2 2 2 2 2 2 2 2 2 2
left_child=1 3 -3 5 -5 -1 7 -7 10 14 -9 12 26 -14 15 -8 17 20 22 -20 21 -11 23 -18 -24 -26 -12 28 -28 -29
right_child=-2 2 -4 4 -6 6 9 8 -10 16 11 -13 13 -15 -16 -17 18 -19 19 -21 -22 -23 24 -25 25 -27 27 29 -30 -31
leaf_value=4.4154577963912438e-06 -0.00061610138276591898 -0.00068324234390664592 0.0021242725558113305 0.0022140296222642065 -0.0011913148613530212 0.0033672092418948357 -0.0034246288270878725 -0.0020604265199654038 0.002922306362112674 -0.00023144538455758184 -0.00098267835765000213 0.00203197538894842 9.5193818687339853e-05 -0.003675007727579214 -0.00019816037323996369 -0.00025853820099105496 -0.00011892914849754148 0.0026850324349652513 -0.0023143762242689263 -0.00070955618374918478 -0.0012683501193280862 0.0014746332231549209 -0.00012570810632516347 0.00143930562343889 -0.00020687937531420179 -0.002135767753206892 0.0014513798258943304 0.00016180565053738457 5.4945881892872324e-05 -0.00097337107242100724
leaf_weight=20721 25 28 20 20 20 22 32 20 24 161 32 29 23 20 79 43 88 32 25 54 26 33 137 36 20 20 31 70 342 65
leaf_count=20721 25 28 20 20 20 22 32 20 24 161 32 29 23 20 79 43 88 32 25 54 26 33 137 36 20 20 31 70 342 65
internal_value=0 6.91534e-07 0.000486556 -3.57801e-07 0.000511357 -1.28043e-06 -8.18983e-05 0.000104746 -4.66578e-06 -0.000242897 -0.000115817 -5.22673e-05 -0.000155943 -0.00165839 -0.000885454 -0.0016094 -8.63244e-05 0.000255334 -0.000312898 -0.00121741 -9.80769e-05 5.87639e-05 -7.55007e-05 0.000333462 -0.000362005 -0.00117132 -3.6304e-05 2.33101e-05 0.000171003 -0.000384761
internal_weight=0 22273 48 22225 40 22185 1464 678 656 786 632 612 583 43 154 75 632 252 380 79 220 194 301 124 177 40 540 508 373 135
internal_count=22298 22273 48 22225 40 22185 1464 678 656 786 632 612 583 43 154 75 632 252 380 79 220 194 301 124 177 40 540 508 373 135
shrinkage=0.05


Tree=132
num_leaves=31
num_cat=0
split_feature=31 6 14 24 0 17 3 21 28 21 28 24 6 4 13 28 21 7 5 5 3 10 16 3 16 21 1 28 6 28
split_gain=0.00384973 0.0169556 0.0106551 0.00483654 0.0365852 0.00374699 0.0127483 0.0315719 0.0225034 0.0983436 0.31121 0.235913 0.0193801 0.0320201 0.0192628 0.0222634 0.0186564 0.0188874 0.0141325 0.0416477 0.037217 0.0817432 0.0138621 0.0308033 0.0565212 0.0205724 0.0275412 0.0153771 0.0132553 0.0120472
threshold=17.53988 3.0064400000000003e-05 -25.416199999999996 0.00055018350000000016 0.45038550000000005 -0.019051749999999996 1.2781550000000001e-05 60.273600000000009 -0.32555999999999991 0.66668700000000014 0.20585515000000001 4.4574250000000016e-06 -1.1830449999999998e-05 1.326475e-05 -1.89821 -0.010369999999999989 60.273600000000009 0.0008480505000000001 -0.00010869549999999998 -9.5157299999999991e-05 1.3846450000000002e-05 4.1337350000000007e-06 54.163350000000008 1.4960400000000002e-05 5.648435000000001 1.19357 -13.146949999999999 0.25878850000000009 6.1414250000000009e-05 0.062254999999999956
decision_type=2 2 2 2 2 2 2 2 2 2 2 2 2 2 2 2 2 2 2 2 2 2 2 2 2 2 2 2 2 2
left_child=2 -2 -1 5 -5 6 7 8 -4 12 11 -11 -10 14 15 -14 18 -18 20 -20 21 -8 23 24 -22 -25 -27 28 -28 -16
right_child=1 -3 3 4 -6 -7 16 -9 9 10 -12 -13 13 -15 29 -17 17 -19 19 -21 22 -23 -24 25 -26 26 27 -29 -30 -31
leaf_value=0.00095908073541569802 4.9415390572333434e-05 -0.0016095374885480851 -9.4566474829491659e-05 0.002041977519928921 -0.00081570191978244113 8.0577508566442666e-06 -0.0040872844130353768 0.0019200695500172595 0.0011769498399752637 0.0017706065687464918 -0.00039644221130669507 0.0087812126101925979 -0.0022480731591349467 -0.0018969032354605939 0.0012731003225781024 -0.00015686219510826051 -9.8465771103898697e-05 -0.002219081165579458 0.0015936305130168195 -5.9055428478622303e-05 -7.5848364791830176e-05 -1.2472239154703858e-05 -0.0011944853259592493 -0.0001045507979274932 0.0031080106073932256 -0.0023932115565912684 -0.0018263081067495725 0.00066409145921087745 -0.00010960097171609169 -2.9349764568688325e-05
leaf_weight=29 67 20 820 21 24 18539 20 23 21 30 85 20 20 31 22 35 21 21 39 1689 46 32 32 388 20 24 22 22 23 92
leaf_count=29 67 20 820 21 24 18539 20 23 21 30 85 20 20 31 22 35 21 21 39 1689 46 32 32 388 20 24 22 22 23 92
internal_value=0 -0.000331953 1.30025e-06 4.80831e-08 0.000517882 -1.00457e-06 -4.76989e-05 8.54298e-05 4.95482e-05 0.000381498 0.00144478 0.00457485 -0.000268017 -0.000419738 -0.000148779 -0.000917303 -0.000114236 -0.00115877 -9.56226e-05 -2.17552e-05 -0.000298552 -0.00157971 -0.000183093 -0.000123709 0.000888957 -0.000263241 -0.000939853 -0.000419248 -0.00094888 0.000222
internal_weight=0 87 22211 22182 45 22137 3598 1199 1176 356 135 50 221 200 169 55 2399 42 2357 1728 629 52 577 545 66 479 91 67 45 114
internal_count=22298 87 22211 22182 45 22137 3598 1199 1176 356 135 50 221 200 169 55 2399 42 2357 1728 629 52 577 545 66 479 91 67 45 114
shrinkage=0.05


Tree=133
num_leaves=31
num_cat=0
split_feature=11 25 27 27 22 25 27 8 1 23 14 1 25 11 27 27 18 5 14 27 24 1 14 25 2 20 7 20 1 27
split_gain=0.00371649 0.0388573 0.121335 0.460544 0.423747 0.0307364 0.0338721 0.0605564 0.0293307 0.0200099 0.035562 0.0237652 0.0193548 0.0348824 0.0581044 0.241773 0.206643 0.0792857 0.063811 0.084801 0.0774309 0.0358615 0.0208054 0.0214314 0.0206299 0.0396332 0.0194764 0.0182183 0.023517 0.0196606
threshold=-1.8820749999999999e-06 0.19649850000000005 0.55730000000000002 -0.28372000000000014 0.25632850000000007 8.9669650000000017e-05 5.3977600000000008 -9.1337349999999992e-07 -6.7352399999999992 -0.10618449999999999 -22.260449999999995 -16.461499999999997 0.00010821600000000002 -0.00015844749999999996 0.23070700000000008 -0.12773199999999993 0.0034831800000000002 0.00018472300000000003 -9.7559149999999981 0.018490999999999928 -1.2722849999999997e-07 -14.209399999999999 -6.0492799999999987 0.085257300000000022 0.18416300000000005 3.994980000000001e-06 0.00029921150000000008 0.00011553700000000002 -15.900799999999998 -0.31105549999999998
decision_type=2 2 2 2 2 2 2 2 2 2 2 2 2 2 2 2 2 2 2 2 2 2 2 2 2 2 2 2 2 2
left_child=1 9 3 8 -5 6 -2 -8 -3 11 -11 -1 24 22 15 -15 17 18 21 20 -20 -17 23 -14 -12 -26 -22 -7 -29 -30
right_child=5 2 -4 4 -6 27 7 -9 -10 10 12 -13 13 14 -16 16 -18 -19 19 -21 26 -23 -24 -25 25 -27 -28 28 29 -31
leaf_value=-0.0020642786468323764 4.0749755716300924e-05 -0.0004846028576755894 -0.00052408109176271638 0.010947700545546555 0.0014776421253810878 -7.5955504634582223e-05 0.0034699715659007781 -0.00018957562446862892 0.0016061861242269515 0.002025614847331202 -6.1827305259362617e-05 -0.0002961548593846146 -4.4717703443863786e-05 -2.8271264963158111e-06 -4.7522565620945497e-05 0.0019232443701993262 0.0062834309588652108 0.0044042500533396384 0.003597959117323626 0.004390168634563452 0.0008909733823384159 -0.00015985593424209751 0.00147530588925623 -0.0012622069480327097 -1.6235714039274691e-05 0.002688069007035665 -0.0013156309834448621 -0.0019213219537050465 1.7534232634651931e-05 -0.00063428937850219401
leaf_weight=21 7804 104 139 21 27 5415 20 26 20 22 4785 200 1566 560 713 27 24 20 20 28 20 88 22 37 42 20 20 24 226 237
leaf_count=21 7804 104 139 21 27 5415 20 26 20 22 4785 200 1566 560 713 27 24 20 20 28 20 88 22 37 42 20 20 24 226 237
internal_value=0 2.58943e-05 0.00057452 0.00146234 0.00562079 -1.60917e-05 4.87238e-05 0.00140153 -0.000147379 5.17514e-06 1.81181e-05 -0.000464167 1.25919e-05 0.000109189 0.000281363 0.00057194 0.00187505 0.00140061 0.00110468 0.00211808 0.00105777 0.00032922 -5.18602e-05 -7.28195e-05 -5.00854e-05 0.000856121 -0.000212329 -0.0001023 -0.000395227 -0.000316121
internal_weight=0 8546 311 172 48 13752 7850 46 124 8235 8014 221 7992 3145 1520 807 247 223 203 88 60 115 1625 1603 4847 62 40 5902 487 463
internal_count=22298 8546 311 172 48 13752 7850 46 124 8235 8014 221 7992 3145 1520 807 247 223 203 88 60 115 1625 1603 4847 62 40 5902 487 463
shrinkage=0.05


Tree=134
num_leaves=31
num_cat=0
split_feature=31 14 9 16 4 3 1 21 27 22 14 17 27 1 22 20 6 20 15 21 14 6 22 31 23 14 3 17 16 7
split_gain=0.00360601 0.0295809 0.199993 0.00915281 0.0233651 0.00803155 0.00495232 0.0292586 0.10503 0.0243913 0.0453509 0.0177055 0.0302725 0.0163461 0.0812866 0.0117759 0.0193423 0.0107002 0.0113083 0.0100082 0.0103419 0.0292319 0.0204912 0.00879942 0.0315766 0.0178805 0.0290338 0.0127983 0.00771771 0.00735946
threshold=9.8270300000000024 -20.583799999999997 -1.3175799999999998e-07 4.6772150000000012 -4.6218499999999998e-05 1.1548250000000001e-05 -14.840249999999999 6.0983350000000014 0.23070700000000008 -0.0083075449999999978 -16.521049999999999 0.037621450000000008 -0.48849150000000002 -14.694299999999997 -0.0017273849999999999 -0.0016106259999999998 1.3771400000000002e-05 -4.9328649999999997e-05 0.46576200000000006 2.1332350000000004 -17.905199999999997 7.0396950000000007e-05 0.0036033500000000004 -0.56963499999999978 -0.0016749049999999998 -14.549349999999999 1.7038450000000003e-05 0.0058409200000000003 112.04900000000002 0.0035589150000000006
decision_type=2 2 2 2 2 2 2 2 2 2 2 2 2 2 2 2 2 2 2 2 2 2 2 2 2 2 2 2 2 2
left_child=1 2 -1 -2 -5 -6 7 9 -9 10 -3 17 -13 14 -8 16 -15 -12 -19 20 21 22 -11 25 -25 26 -22 29 -17 -26
right_child=3 6 -4 4 5 -7 13 8 -10 19 11 12 -14 15 -16 28 -18 18 -20 -21 23 -23 -24 24 27 -27 -28 -29 -30 -31
leaf_value=0.0048869665407913834 -1.276854803202002e-05 -0.0024490963241467919 -0.0016734367678649367 -0.001295285593033231 -0.00075425829623455712 4.3112274873139153e-05 0.0034931721596512945 0.0038491074068588206 -0.0012137412429832953 -0.00042380976984055625 -0.00094867194750501466 -0.00014569847606859791 -0.0026570258456922605 0.00012657353014219552 -0.00012704840214017009 7.7356043673014552e-06 -0.0019595779392693655 -0.00011304566355959415 0.0010338298334038253 0.00083121234536961172 -0.00014229349608561306 0.00050180900361738166 -0.0026600635179784152 0.0018263660250873916 0.0010394653776364233 -1.6100082543758841e-05 -0.0020403665975679583 -0.0010772207749339389 0.00071184005116661775 -1.8532252383570617e-05
leaf_weight=21 961 28 26 52 39 166 20 20 21 21 30 30 20 25 69 18586 20 124 26 33 66 32 20 29 22 1635 29 23 39 65
leaf_count=21 961 28 26 52 39 166 20 20 21 21 30 30 20 25 69 18586 20 124 26 33 66 32 20 29 22 1635 29 23 39 65
internal_value=0 4.83325e-06 0.00125781 -8.36493e-05 -0.000348694 -0.000108583 2.03337e-06 -6.76507e-05 0.00125594 -9.19531e-05 -0.000549164 -0.000317868 -0.00115023 1.04806e-05 0.000686484 7.25809e-06 -0.000800605 -8.66569e-05 8.57461e-05 -3.22262e-05 -4.68985e-05 -0.000630731 -0.00151467 -2.40949e-05 0.000358649 -5.48472e-05 -0.000721705 -2.82949e-05 9.20997e-06 0.000249007
internal_weight=0 21080 47 1218 257 205 21033 2274 41 2233 258 230 50 18759 89 18670 45 180 150 1975 1942 73 41 1869 139 1730 95 110 18625 87
internal_count=22298 21080 47 1218 257 205 21033 2274 41 2233 258 230 50 18759 89 18670 45 180 150 1975 1942 73 41 1869 139 1730 95 110 18625 87
shrinkage=0.05


Tree=135
num_leaves=31
num_cat=0
split_feature=3 13 14 26 6 20 25 12 0 0 30 15 30 10 26 21 11 24 14 30 7 19 30 12 4 14 30 30 30 15
split_gain=0.00347815 0.0279291 0.0263779 0.02499 0.0100979 0.0381355 0.00509743 0.0269527 0.0322113 0.0420718 0.0265675 0.00640612 0.0468277 0.01453 0.00477239 0.00361959 0.0311503 0.00441602 0.00316089 0.0260573 0.00762335 0.0230237 0.0130292 0.0819308 0.00754863 0.00432157 0.00842727 0.00402802 0.0301334 0.0368803
threshold=7.8320150000000016e-06 -2.8800399999999997 -18.949549999999999 0.019757400000000005 4.6013400000000009e-05 -5.8344899999999999e-06 5.6022800000000013 0.0061489100000000014 -1.7109999999999996 4.2511050000000008 -11.726444999999998 -1.7158549999999997 -1.5240599999999997 8.6217950000000015e-08 0.0020870500000000004 60.273600000000009 -2.2007849999999998e-07 0.00023102950000000003 -18.142349999999997 -1.6975550000000001 0.067969650000000006 -0.13176299999999996 -4.5162449999999987 0.0010344400000000002 0.00026554900000000007 -22.260449999999995 -14.758754999999999 0.20062999999999945 -0.2305749999999995 0.10925650000000002
decision_type=2 2 2 2 2 2 2 2 2 2 2 2 2 2 2 2 2 2 2 2 2 2 2 2 2 2 2 2 2 2
left_child=1 -1 -3 4 14 -6 11 8 10 -10 -8 12 13 -2 -4 17 -17 18 19 20 22 -22 24 -24 25 26 -13 28 -20 -30
right_child=6 2 3 -5 5 -7 7 -9 9 -11 -12 15 -14 -15 -16 16 -18 -19 27 -21 21 -23 23 -25 -26 -27 -28 -29 29 -31
leaf_value=0.0019526467120158488 -0.0013245494675680272 0.0017572551791090519 3.1642773257205153e-05 -0.0014375889556911968 0.0024733108986401929 -0.00012537496033170707 3.2107061564897158e-05 -0.0017909229414071887 0.0027446969487209573 -0.00028094630499792944 -0.0022297583793988453 -7.5716167977365692e-05 0.0017774602807261739 0.0002290783709373928 -0.00057254003483519361 -0.0009678811195772141 0.001758581374517896 -0.0005737356019594967 -6.8542953322430681e-06 -0.001654811793168147 -0.001935557394227501 2.0700270816066551e-05 -0.001357925467137075 0.0023313178597805639 0.00066618219301316835 -5.0755326678171965e-05 -0.0011226668796584349 -2.7054152720376454e-05 6.0152095784331532e-05 0.00065125164054887841
leaf_weight=20 27 22 494 29 20 48 37 25 20 27 20 57 38 34 35 20 22 34 11232 26 21 53 27 34 34 626 29 8003 787 397
leaf_count=20 27 22 494 29 20 48 37 25 20 27 20 57 38 34 35 20 22 34 11232 26 21 53 27 34 34 626 29 8003 787 397
internal_value=0 0.00011237 5.55716e-05 -4.232e-06 6.53951e-05 0.000638944 -3.47033e-06 -0.000316836 3.75114e-05 0.00100656 -0.00076153 -1.59023e-06 0.00039969 -0.000458593 -8.33151e-06 -3.44644e-06 0.000460266 -4.35824e-06 -3.45048e-06 -9.47847e-05 -4.87453e-05 -0.000534454 -4.20692e-06 0.000698374 -6.16566e-05 -9.64129e-05 -0.000428758 6.06532e-07 1.84358e-05 0.00025835
internal_weight=0 668 648 626 597 68 21630 129 104 47 57 21501 99 61 529 21402 42 21360 21326 907 881 74 807 61 746 712 86 20419 12416 1184
internal_count=22298 668 648 626 597 68 21630 129 104 47 57 21501 99 61 529 21402 42 21360 21326 907 881 74 807 61 746 712 86 20419 12416 1184
shrinkage=0.05


Tree=136
num_leaves=31
num_cat=0
split_feature=11 25 27 27 22 25 1 30 1 25 1 10 16 30 27 27 25 11 28 27 30 18 23 30 28 30 18 24 14 25
split_gain=0.00354635 0.0355154 0.109709 0.409596 0.378334 0.0275576 0.0307843 0.0554855 0.0259382 0.021451 0.294234 0.0338515 0.0268578 0.0208349 0.0229705 0.220289 0.017909 0.0294572 0.0448534 0.207284 0.149398 0.207865 0.0729068 0.0340113 0.0480359 0.070044 0.0383056 0.0478558 0.0188113 0.0220327
threshold=-1.8820749999999999e-06 0.19649850000000005 0.55730000000000002 -0.28372000000000014 0.25632850000000007 0.03655255000000001 -15.739449999999998 2.1089349999999998 -6.7352399999999992 -0.9832439999999999 -12.633099999999997 4.1337350000000007e-06 35.645800000000008 -2.4188749999999994 0.32697800000000021 0.0041949999999999496 0.00010821600000000002 -0.00015844749999999996 -0.25082149999999998 -0.12773199999999993 1.9748850000000002 0.0034831800000000002 -0.0038164999999999996 -1.2835749999999997 -0.029991649999999908 -0.26930000000000026 0.00029493300000000004 -1.6936599999999996e-07 -6.0492799999999987 0.1021905
decision_type=2 2 2 2 2 2 2 2 2 2 2 2 2 2 2 2 2 2 2 2 2 2 2 2 2 2 2 2 2 2
left_child=1 16 3 8 -5 9 7 -7 -3 10 -2 -12 -11 -8 15 -15 -1 28 -19 -20 21 22 -21 -24 -25 -26 -27 -28 29 -18
right_child=5 2 -4 4 -6 6 13 -9 -10 12 11 -13 -14 14 -16 -17 17 18 19 20 -22 -23 23 24 25 26 27 -29 -30 -31
leaf_value=-5.3672374748393928e-05 0.0062173334578187675 -0.00044118308677131891 -0.00049484394068137515 0.010349085370987832 0.0014008599932788424 -0.003431099465593607 -1.5055506994116734e-05 -4.300191412093463e-06 0.0015249769263027703 1.6464371345561252e-06 3.663378422437557e-05 -0.0022446326178032906 -0.0013296290794115569 -0.00022714185303664852 -9.703506858498869e-05 -0.0052539177576545627 -3.6299539552083797e-05 -3.8035701296806486e-05 -1.981944061127652e-05 0.0037206961615611949 -0.0023686721266823869 0.0059979921527977646 -0.0006162632829218637 0.0033313605656775723 0.0032362165080417915 0.0017361848224776194 0.0016533671922626951 -0.0012272538260415036 0.0014026230918137697 -0.0010921552588400779
leaf_weight=5010 20 104 139 21 27 21 573 27 20 12583 87 20 38 170 188 25 1583 719 590 31 21 29 25 26 27 34 21 46 22 51
leaf_count=5010 20 104 139 21 27 21 573 27 20 12583 87 20 38 170 188 25 1583 719 590 31 21 29 25 26 27 34 21 46 22 51
internal_value=0 2.52947e-05 0.000549798 0.00139401 0.00531571 -1.5719e-05 -0.000267929 -0.00150352 -0.000124061 4.14437e-06 0.000650718 -0.000389771 -2.36184e-06 -0.000205891 -0.000491396 -0.0008716 5.48647e-06 9.7389e-05 0.000252635 0.000498508 0.00167471 0.00202999 0.00148203 0.00109432 0.00137202 0.000974025 0.00036928 -0.000324373 -4.97007e-05 -6.92546e-05
internal_weight=0 8546 311 172 48 13752 1004 48 124 12748 127 107 12621 956 383 195 8235 3225 1569 850 260 239 210 179 154 128 101 67 1656 1634
internal_count=22298 8546 311 172 48 13752 1004 48 124 12748 127 107 12621 956 383 195 8235 3225 1569 850 260 239 210 179 154 128 101 67 1656 1634
shrinkage=0.05


Tree=137
num_leaves=31
num_cat=0
split_feature=13 3 11 25 27 27 22 25 1 30 21 1 1 16 3 30 30 27 27 24 23 14 1 24 25 11 23 27 27 20
split_gain=0.00343768 0.0213476 0.00420512 0.0340598 0.104134 0.39496 0.31671 0.0251308 0.0274012 0.0500756 0.0244921 0.102328 0.0234092 0.0195119 0.0677289 0.0775902 0.0174018 0.0181667 0.200337 0.0173641 0.0173595 0.0307375 0.02061 0.0179967 0.0155379 0.0287106 0.0500004 0.0350953 0.134901 0.0846006
threshold=-3.0876849999999996 9.4493450000000026e-06 -1.8820749999999999e-06 0.19649850000000005 0.55730000000000002 -0.28372000000000014 0.25632850000000007 0.03655255000000001 -15.739449999999998 2.1089349999999998 13.795350000000001 -9.9007999999999985 -6.7352399999999992 35.645800000000008 1.3494650000000001e-05 -0.68019999999999958 -2.0149449999999995 0.32697800000000021 0.0041949999999999496 4.3446050000000007e-05 -0.10618449999999999 -22.260449999999995 -14.143699999999997 -9.3594949999999989e-07 0.00010821600000000002 -0.00015844749999999996 -0.050101599999999989 0.23070700000000008 -0.12773199999999993 3.6281750000000005e-05
decision_type=2 2 2 2 2 2 2 2 2 2 2 2 2 2 2 2 2 2 2 2 2 2 2 2 2 2 2 2 2 2
left_child=1 -1 3 20 5 12 -7 10 9 -9 13 -12 -5 19 -15 -16 -10 18 -18 -4 22 -22 23 -2 -23 -26 -27 28 -28 -30
right_child=2 -3 7 4 -6 6 -8 8 16 -11 11 -13 -14 14 15 -17 17 -19 -20 -21 21 24 -24 -25 25 26 27 -29 29 -31
leaf_value=0.0016750224089781278 -0.0024515474425806181 2.889209673277095e-05 -3.4180153790472968e-06 -0.00041912392767839133 -0.00050388915094657922 0.0098316311292971185 0.0015759394445922226 -0.0032595444829244765 -3.4993281685151748e-05 -4.085194005812001e-06 0.0039530836406629537 -0.00029094465152949703 0.0014487280560206272 0.0015378880870966464 9.3437550181988638e-05 -0.003886678627168294 -0.00019319861796644825 -0.00011090775097567101 -0.0051897876101303043 0.0012900661944653482 0.0018849145615769721 -4.3255767139898696e-05 -0.00018313724060135429 -0.00046606498630717393 -4.6333094468530361e-05 0.0022441074840659691 5.5340974313577577e-06 -4.2584549376894397e-05 0.0010546733615067721 0.0037788440114430466
leaf_weight=22 21 188 12484 104 133 21 26 21 579 27 20 49 20 21 25 24 157 170 23 26 22 4786 175 25 1618 31 540 698 209 33
leaf_count=22 21 188 12484 104 133 21 26 21 579 27 20 49 20 21 25 24 157 170 23 26 22 4786 175 25 1618 31 540 698 209 33
internal_value=0 0.000201344 -1.91426e-06 2.57697e-05 0.000545418 0.00136155 0.00526465 -1.91065e-05 -0.000263432 -0.00142835 -2.34967e-07 0.000939208 -0.000117857 -5.38772e-06 -0.000837839 -0.00185601 -0.000203243 -0.000481576 -0.000831652 -7.29719e-07 6.40552e-06 1.85762e-05 -0.000430693 -0.00137248 1.33887e-05 0.00010003 0.000256757 0.00021513 0.000445162 0.00142615
internal_weight=0 210 22088 8462 304 171 47 13626 977 48 12649 69 124 12580 70 49 929 350 180 12510 8158 7937 221 46 7915 3129 1511 1480 782 242
internal_count=22298 210 22088 8462 304 171 47 13626 977 48 12649 69 124 12580 70 49 929 350 180 12510 8158 7937 221 46 7915 3129 1511 1480 782 242
shrinkage=0.05


Tree=138
num_leaves=31
num_cat=0
split_feature=3 14 11 25 2 2 15 15 17 15 25 21 1 16 3 30 21 14 1 30 24 4 27 28 27 21 30 21 0 30
split_gain=0.00319683 0.0292847 0.00333862 0.0294543 0.0876929 0.180669 0.241231 0.0555879 0.0238607 0.0463975 0.0232007 0.0202317 0.0923508 0.0193816 0.0611254 0.0700251 0.0165582 0.0297667 0.0258011 0.0229351 0.0164368 0.0159362 0.0202442 0.015903 0.141402 0.170647 0.104172 0.113171 0.121407 0.086744
threshold=6.5747000000000008e-06 -7.6059799999999997 -1.8820749999999999e-06 0.16628250000000003 -2.4904099999999993 -1.0557449999999997 -1.5736749999999997 -1.0289099999999998 -0.25551599999999991 -1.5736749999999997 8.9669650000000017e-05 13.795350000000001 -9.9007999999999985 35.645800000000008 1.3494650000000001e-05 -0.68019999999999958 2.1332350000000004 -22.260449999999995 -12.527449999999998 -0.68019999999999958 4.3446050000000007e-05 -6.2562199999999992e-06 0.42748950000000019 -0.32555999999999991 -0.20585514999999996 3.4887250000000005 -2.4188749999999994 0.036008200000000004 8.5622150000000019 2.1794250000000002
decision_type=2 2 2 2 2 2 2 2 2 2 2 2 2 2 2 2 2 2 2 2 2 2 2 2 2 2 2 2 2 2
left_child=1 -1 3 16 -5 6 -6 8 9 -7 11 13 -13 20 -15 -16 -2 -18 19 -19 -4 22 -10 -12 -25 26 -26 28 -28 -29
right_child=2 -3 10 4 5 7 -8 -9 21 -11 23 12 -14 14 15 -17 17 18 -20 -21 -22 -23 -24 24 25 -27 27 29 -30 -31
leaf_value=-0.00015635018025459904 1.7625693013069194e-05 0.0019910659662855323 3.5641173178944451e-05 -0.00068996911262207434 0.007441187726394476 -0.00074205135379452262 0.00072799613117240374 0.0021233029705399532 -0.0023637731179959424 0.0024063121483777652 -6.683231222061956e-07 0.0037554294487927111 -0.00027639742154266916 0.0014609936679508316 8.8765680033247929e-05 -0.0036923447689332536 0.0011318240872712742 -0.0024658636291860605 -0.00021458209777406548 -0.00065817770277561149 0.0013197931140020956 -1.6859814528894883e-05 -0.00024223507524849002 -1.3695844350024628e-05 0.00011522597316323538 -0.0047634326990831782 8.5628070804280774e-05 -0.0032278726317247586 -0.0036153506380147658 -0.00041854164043727974
leaf_weight=77 7913 20 7652 108 23 25 32 32 23 22 2640 20 49 21 25 24 29 28 165 47 25 48 22 2663 230 27 150 93 26 39
leaf_count=77 7913 20 7652 108 23 25 32 32 23 22 2640 20 49 21 25 24 29 28 165 47 25 48 22 2663 230 27 150 93 26 39
internal_value=0 0.000286416 -1.2514e-06 2.33257e-05 0.00048285 0.00104084 0.00353533 0.000243186 -0.000186555 0.000731651 -1.65483e-05 3.98631e-05 0.000892248 3.22712e-05 -0.000795947 -0.00176321 4.51117e-06 -0.00038127 -0.000564102 -0.00133305 3.9823e-05 -0.000650594 -0.00132658 -9.16867e-05 -0.000166125 -0.000884568 -0.000689904 -0.00129114 -0.000461107 -0.00239784
internal_weight=0 97 22201 8517 335 227 55 172 140 47 13684 7816 69 7747 70 49 8182 269 240 75 7677 93 45 5868 3228 565 538 308 176 132
internal_count=22298 97 22201 8517 335 227 55 172 140 47 13684 7816 69 7747 70 49 8182 269 240 75 7677 93 45 5868 3228 565 538 308 176 132
shrinkage=0.05


Tree=139
num_leaves=31
num_cat=0
split_feature=31 14 9 16 4 25 3 3 1 19 4 21 0 27 8 25 14 1 22 30 30 3 22 27 22 17 6 16 0 24
split_gain=0.00316045 0.0246527 0.176835 0.00752235 0.0201393 0.00574855 0.00593343 0.00549021 0.00425471 0.0460283 0.183292 0.026293 0.0301374 0.039227 0.0228565 0.0381078 0.025872 0.0141719 0.0704884 0.0132881 0.0175615 0.0344903 0.0121696 0.011124 0.00957842 0.00820609 0.0156156 0.00661066 0.00656822 0.00562613
threshold=9.8270300000000024 -20.583799999999997 -1.3175799999999998e-07 4.6772150000000012 -7.3782499999999987e-05 40.11225000000001 1.1548250000000001e-05 1.8183200000000002e-05 -14.840249999999999 2.8296000000000006 -0.00015058399999999997 0.42854550000000008 3.4580250000000006 0.32697800000000021 3.1464150000000006e-07 -0.043826949999999996 -16.265799999999995 -14.694299999999997 -0.0017273849999999999 -1.1536200000000003 -0.19581499999999916 1.4249600000000002e-05 0.00031539100000000004 -0.12773199999999993 -0.0085317799999999975 2.4687050000000004 1.9870450000000006e-05 112.04900000000002 -2.9058949999999997 -5.1482199999999979e-07
decision_type=2 2 2 2 2 2 2 2 2 2 2 2 2 2 2 2 2 2 2 2 2 2 2 2 2 2 2 2 2 2
left_child=1 2 -1 -2 7 6 -6 -5 9 11 -11 19 14 -14 16 -16 -13 18 -10 22 21 -21 -3 28 -25 27 -27 -19 -18 -17
right_child=3 8 -4 4 5 -7 -8 -9 17 10 -12 12 13 -15 15 29 23 25 -20 20 -22 -23 -24 24 -26 26 -28 -29 -30 -31
leaf_value=0.0045609447442638206 -1.4052924571150775e-05 -0.00016005840343495949 -0.0016079355747653887 -0.0019118720508413392 -0.00081392503152268806 0.00049783400895648817 -8.9545658408874239e-05 -0.00077915944503215346 0.0032528669247403742 0.005207340345368721 -0.00068002336513764492 -0.0019495840522965107 -0.0026919268729773561 -0.00058937157529306622 0.001952310636395985 0.00030537303959430874 -0.00020676098454368047 7.2507706829077494e-06 -0.00011833191092888308 0.002511535047669895 -2.5698784143962467e-05 -0.00035737597658722239 -0.0016678841354365904 0.0011149807537003654 -0.00035306048965139786 2.4771182830186771e-05 -0.001717747232178226 0.00065890234769680185 -0.0014573058862446314 -0.00048370836540674773
leaf_weight=21 961 32 26 20 35 32 147 23 20 20 39 30 31 78 27 37 21 18575 69 20 1770 22 23 20 25 36 20 39 21 58
leaf_count=21 961 32 26 20 35 32 147 23 20 20 39 30 31 78 27 37 21 18575 69 20 1770 22 23 20 25 36 20 39 21 58
internal_value=0 4.5248e-06 0.00114837 -7.83111e-05 -0.000318591 -0.000120186 -0.000228849 -0.001306 1.96878e-06 -6.2621e-05 0.00131569 -9.93346e-05 -0.000498346 -0.00118735 -0.000184116 0.000294722 -0.000683417 9.79847e-06 0.000639241 -2.49607e-05 -1.72098e-06 0.00100877 -0.000790604 -0.000246808 0.000299402 6.79792e-06 -0.000597557 8.61611e-06 -0.000832033 -0.000176382
internal_weight=0 21080 47 1218 257 214 182 43 21033 2274 59 2215 348 109 239 122 117 18759 89 1867 1812 42 55 87 45 18670 56 18614 42 95
internal_count=22298 21080 47 1218 257 214 182 43 21033 2274 59 2215 348 109 239 122 117 18759 89 1867 1812 42 55 87 45 18670 56 18614 42 95
shrinkage=0.05


Tree=140
num_leaves=31
num_cat=0
split_feature=15 2 12 12 1 2 20 26 11 12 30 1 14 15 27 27 24 15 6 6 1 18 10 2 24 6 10 27 15 27
split_gain=0.00308229 0.0819758 0.199461 0.34342 0.0868925 0.0340598 0.11344 0.0418936 0.032054 0.0253169 0.0132315 0.0232892 0.0203855 0.023034 0.00946452 0.0527502 0.00910305 0.0075007 0.011557 0.018868 0.0119469 0.00866711 0.0249464 0.00862046 0.0382836 0.095572 0.118411 0.208156 0.0543668 0.0721103
threshold=0.57638050000000007 0.40825900000000009 8.5975000000000016e-05 2.1170350000000003e-05 -15.501799999999998 2.4303750000000002 2.8403000000000002e-05 0.061935000000000011 1.3599750000000003e-05 0.00090115950000000007 -1.6975550000000001 -13.321099999999999 -13.588999999999999 1.0719600000000002 -0.17853299999999997 0.32697800000000021 3.4340750000000005e-05 0.44346200000000008 -4.1019499999999996e-05 -5.6044199999999988e-05 -16.345749999999995 0.0024649300000000002 6.4817800000000013e-07 -0.084079799999999996 1.0587200000000001e-05 0.00012265650000000002 -1.4250649999999998e-06 -1.0284721499999996 -1.0289099999999998 0.40211800000000014
decision_type=2 2 2 2 2 2 2 2 2 2 2 2 2 2 2 2 2 2 2 2 2 2 2 2 2 2 2 2 2 2
left_child=17 8 3 -3 -4 6 9 -7 10 -6 11 -2 13 -12 16 -16 -14 23 19 -19 -20 22 -22 24 -1 26 27 -26 -28 -30
right_child=1 2 4 -5 5 7 -8 -9 -10 -11 12 -13 14 -15 15 -17 -18 18 20 -21 21 -23 -24 -25 25 -27 28 -29 29 -31
leaf_value=2.0733406368529951e-05 0.0017102685742429458 0.00052629569614214857 0.0025847941026740681 0.0085317504608870623 0.0003144355891890882 -0.00022944907313867592 0.0034670343393809165 -0.00247159838443622 -0.0019901278372423765 -0.0018603564272582488 -2.4066144708610542e-05 -2.2601434426092521e-05 -6.5876113140527807e-05 -0.0021984260645695032 -0.0027366467415545648 -8.7753680607194787e-05 0.0010805520534995594 -0.00038776092885907729 -0.0011880368016752455 0.0014993695239844294 3.0814788555584824e-06 -0.0001166184852085535 -0.0021886895506213477 -2.6445499226054801e-05 -0.0002017152321059257 -0.0011409545979153462 -0.00019448146253143577 0.0061440083381187711 0.0041210307431174447 1.5928309269087469e-05
leaf_weight=8050 20 37 33 21 32 125 25 25 23 23 21 635 129 29 22 129 20 27 31 26 37 522 20 11981 24 58 102 28 20 23
leaf_count=8050 20 37 33 21 32 125 25 25 23 23 21 635 129 29 22 129 20 27 31 26 37 522 20 11981 24 58 102 28 20 23
internal_value=0 7.3257e-05 0.000770768 0.00342482 0.000185463 -0.000158789 0.00067437 -0.000603141 -0.000144545 -0.000595023 -0.000102308 3.03106e-05 -0.000350495 -0.00128519 -0.000194711 -0.000473685 8.80069e-05 -4.71735e-06 -0.000170211 0.000538001 -0.000231744 -0.000180543 -0.000765961 6.9141e-07 3.98398e-05 0.000643002 0.00116823 0.00321521 0.000434137 0.00192528
internal_weight=0 1349 321 58 263 230 80 150 1028 55 1005 655 350 50 300 151 149 20949 663 53 610 579 57 20286 8305 255 197 52 145 43
internal_count=22298 1349 321 58 263 230 80 150 1028 55 1005 655 350 50 300 151 149 20949 663 53 610 579 57 20286 8305 255 197 52 145 43
shrinkage=0.05


Tree=141
num_leaves=31
num_cat=0
split_feature=24 1 20 1 30 4 1 30 14 4 1 18 10 12 30 1 1 1 25 15 17 25 16 6 21 9 3 22 5 25
split_gain=0.00288951 0.0136152 0.0439205 0.0136984 0.030853 0.0340662 0.0133602 0.0193313 0.0165373 0.0110775 0.00976346 0.0434335 0.0108008 0.0424959 0.0735524 0.0246085 0.0337397 0.0159714 0.060214 0.0141025 0.0107515 0.0373263 0.0102096 0.00905543 0.00577244 0.00533634 0.00523881 0.0462828 0.0109694 0.00717232
threshold=-3.6693299999999994e-07 -18.778949999999998 -1.0507149999999998e-05 -15.070149999999998 -1.5648449999999994 2.0989800000000004e-05 -16.800649999999994 1.2983700000000005 -14.283699999999998 -0.00018272749999999997 -14.694299999999997 0.0028846550000000003 -1.0150195e-07 1.1734650000000002e-06 -0.83700999999999925 -13.076199999999998 -13.209849999999998 -12.930349999999999 0.012337350000000002 -1.3280449999999997 0.032200400000000011 -0.0061266999999999997 68.903750000000016 1.7980700000000006e-05 0.6397385000000001 2.3175400000000005e-05 7.8320150000000016e-06 -0.077302599999999985 0.00028696050000000007 5.6022800000000013
decision_type=2 2 2 2 2 2 2 2 2 2 2 2 2 2 2 2 2 2 2 2 2 2 2 2 2 2 2 2 2 2
left_child=1 2 -1 4 5 -3 7 -6 -8 -9 11 -5 13 14 -12 16 20 18 -15 -19 21 -14 -17 -22 -11 -10 27 -2 -29 -28
right_child=26 3 -4 10 6 -7 8 9 25 24 12 -13 15 17 -16 22 -18 19 -20 -21 23 -23 -24 -25 -26 -27 29 28 -30 -31
leaf_value=0.0025768529249398857 0.0020362854148486573 -0.0028027689772352465 -0.00053974521892646756 -0.00058023043534846913 0.0015331166168755812 -7.1081468957431975e-05 -0.0013747514561002487 0.00096234862292130007 -0.000414718574973633 -6.1601174608961738e-05 -4.5554529135234846e-05 0.0024055568086970153 -0.0022479998224231102 -6.4705801875761333e-05 0.0033493397884740263 -4.6603603129974919e-05 -0.0023247680130298251 -0.0012014595379206674 0.0030670000161626375 -1.4231793572021118e-05 0.0010698277371938318 -0.00018218677948939529 0.00089748269669583146 -0.00039852364038995891 -0.00097695445510908034 0.00025840733529879469 5.9338825327543538e-06 -8.1806456276251955e-06 0.0009466035113632643 -0.00039723479144700212
leaf_weight=20 31 25 26 29 23 21 38 21 89 61 39 21 27 66 27 2286 25 26 20 659 21 115 29 21 24 44 17819 502 32 111
leaf_count=20 31 25 26 29 23 21 38 21 89 61 39 21 27 66 27 2286 25 26 20 659 21 115 29 21 24 44 17819 502 32 111
internal_value=0 -3.96929e-05 0.000815297 -5.01613e-05 -0.000349931 -0.00155569 -0.000165047 0.00021912 -0.000454857 -6.5993e-05 -1.97537e-05 0.0006738 -3.00714e-05 0.000125577 0.00134327 -8.16871e-05 -0.000601288 2.13395e-05 0.000663598 -5.92945e-05 -0.00036712 -0.000574982 -3.4777e-05 0.000335652 -0.000320054 -0.00019203 8.16179e-06 0.00015807 4.90349e-05 3.43797e-06
internal_weight=0 3803 46 3757 346 46 300 129 171 106 3411 50 3361 837 66 2524 209 771 86 685 184 142 2315 42 85 133 18495 565 534 17930
internal_count=22298 3803 46 3757 346 46 300 129 171 106 3411 50 3361 837 66 2524 209 771 86 685 184 142 2315 42 85 133 18495 565 534 17930
shrinkage=0.05


Tree=142
num_leaves=31
num_cat=0
split_feature=13 3 10 25 1 17 5 10 23 9 25 30 27 27 11 19 1 23 4 4 27 27 4 10 30 30 10 25 11 26
split_gain=0.00294851 0.0184031 0.00316569 0.0288088 0.169674 0.032826 0.0727056 0.0195926 0.0169921 0.0284419 0.0138285 0.0620633 0.130434 0.425278 0.0156265 0.0118396 0.0296915 0.0125792 0.0222643 0.0375068 0.0505525 0.160575 0.0127077 0.0182111 0.0123222 0.110389 0.0102584 0.0645134 0.124202 0.0567511
threshold=-3.0876849999999996 9.4493450000000026e-06 6.0055550000000006e-07 -0.9832439999999999 -12.633099999999997 0.63888450000000019 0.00010207900000000002 1.0472700000000001e-05 -6.5773949999999992 5.3924950000000012e-08 -0.043826949999999996 -2.1543949999999996 0.32697800000000021 -0.20585514999999996 9.8589600000000016e-05 -0.70032649999999996 -17.279499999999995 0.038880400000000002 0.00018802300000000003 9.4293650000000008e-06 0.23070700000000008 -0.20585514999999996 0.00013679700000000005 -3.6127349999999992e-05 -1.3186349999999998 -0.58941499999999969 3.8899150000000009e-06 0.16628250000000003 -7.2121799999999988e-06 0.0065721950000000012
decision_type=2 2 2 2 2 2 2 2 2 2 2 2 2 2 2 2 2 2 2 2 2 2 2 2 2 2 2 2 2 2
left_child=1 -1 8 4 -4 10 -7 -6 9 -2 11 -5 13 -13 -14 16 -10 22 19 -19 21 -21 24 -24 -18 -26 27 29 -29 -12
right_child=2 -3 3 5 7 6 -8 -9 15 -11 26 12 14 -15 -16 -17 17 18 -20 20 -22 -23 23 -25 25 -27 -28 28 -30 -31
leaf_value=0.0015547427346146751 0.002360724248865154 2.6351885045922711e-05 0.0044795945121829089 -0.00027389383673289558 0.00015443285020800041 6.6811811824839932e-05 -0.0028988311893396804 -0.0018073372461367401 -0.0020465159975823813 -0.00012699704325145665 7.4711373449776552e-05 -0.00019079975488693892 0.00010672044638242271 0.0067289485774167327 -0.0013781549205305055 -7.1420159968841893e-06 -0.00010609116564208105 -0.00013359183183024072 0.0011540165173672986 1.3902419901099958e-05 -9.1996516037281569e-05 -0.0055000185607122672 -6.6682703775743882e-05 -0.0019393462063453624 0.0034147460309563588 -9.0520030706818836e-05 -3.0439467454171106e-05 0.0048045487597673424 0.00017934572858800321 -0.0019233184157605541
leaf_weight=22 20 188 24 200 35 62 31 20 21 27 2778 64 37 34 34 12095 378 228 22 31 47 23 37 20 26 165 5525 21 47 36
leaf_count=22 20 188 24 200 35 62 31 20 21 27 2778 64 37 34 34 12095 378 228 22 31 47 23 37 20 26 165 5525 21 47 36
internal_value=0 0.000186469 -1.77284e-06 2.11654e-05 0.000971755 1.26981e-05 -0.000921736 -0.000558938 -1.73932e-05 0.000931608 2.26004e-05 0.000322183 0.0010276 0.00220993 -0.000604347 -2.07998e-05 -0.000186322 -0.000146339 -0.000385937 -0.000488913 -0.00129102 -0.00233462 -1.19953e-05 -0.000723758 5.9306e-05 0.000386637 9.45111e-06 8.59242e-05 0.00160772 4.91502e-05
internal_weight=0 210 22088 8948 79 8869 93 55 13140 47 8776 369 169 98 71 13093 998 977 351 329 101 54 626 57 569 191 8407 2882 68 2814
internal_count=22298 210 22088 8948 79 8869 93 55 13140 47 8776 369 169 98 71 13093 998 977 351 329 101 54 626 57 569 191 8407 2882 68 2814
shrinkage=0.05


Tree=143
num_leaves=31
num_cat=0
split_feature=24 1 20 1 21 12 4 14 21 1 10 10 12 31 1 1 1 25 19 17 25 31 16 21 8 1 6 1 19 31
split_gain=0.00276237 0.0120913 0.0391602 0.0128546 0.0249176 0.0473734 0.0213821 0.0377444 0.0220281 0.0151971 0.0118337 0.00978166 0.0379951 0.0662748 0.022155 0.0304791 0.0158782 0.0542866 0.0131095 0.0111787 0.0345655 0.00949142 0.00927128 0.0074644 0.00966246 0.00487183 0.0128801 0.00587841 0.0102155 0.00530491
threshold=-3.6693299999999994e-07 -18.778949999999998 -1.0507149999999998e-05 -14.840249999999999 2.4168200000000004 0.0024394550000000005 -0.00023008949999999998 -13.830949999999998 1.3050850000000003 -14.617349999999998 2.5329900000000004e-08 -1.0150195e-07 1.1734650000000002e-06 0.83700999999999948 -13.076199999999998 -13.209849999999998 -12.930349999999999 0.010714575000000002 8.6362250000000014 0.032200400000000011 -0.0061266999999999997 -1.1786349999999997 68.903750000000016 0.42854550000000008 5.7496900000000003e-08 -12.457899999999997 5.9698800000000005e-05 -11.947549999999998 0.090580350000000018 1.362665
decision_type=2 2 2 2 2 2 2 2 2 2 2 2 2 2 2 2 2 2 2 2 2 2 2 2 2 2 2 2 2 2
left_child=1 2 -1 4 6 -6 7 -3 10 -5 21 12 13 -11 15 19 17 -14 -18 20 -13 -8 25 -12 -25 26 -16 28 -27 -29
right_child=-2 3 -4 9 5 -7 8 -9 -10 11 23 14 16 -15 22 -17 18 -19 -20 -21 -22 -23 -24 24 -26 27 -28 29 -30 -31
leaf_value=0.0024302668187920064 7.980209999538102e-06 -0.0027981569361872974 -0.00051259226893307641 0.0010500798047139667 -0.003034130135125926 2.8394707104390753e-05 5.5912667022539608e-05 -6.0754356801386601e-05 0.0015699676198058417 0.0031760474998952341 -0.00012751734896740874 -0.002162200684337963 -9.173679976421616e-05 -4.6518785944872671e-05 6.7799970878934152e-05 -0.0022136169183067981 -1.6947935047041974e-05 0.0029429524504439543 -0.0013161690998822451 0.00041139924212888889 -0.00016919752016032622 0.0013303834617891838 0.00085500364215916093 -0.0014376994235449118 -4.8103190320861444e-05 0.0013805723878022036 -0.0010956097286068075 -0.00020926738568717853 -0.00011033966465792791 -4.3072260830503416e-06
leaf_weight=20 18495 20 26 33 23 28 48 34 21 27 134 27 56 39 61 25 665 20 20 38 112 21 29 29 22 20 39 385 27 1754
leaf_count=20 18495 20 26 33 23 28 48 34 21 27 134 27 56 39 61 25 665 20 20 38 112 21 29 29 22 20 39 385 27 1754
internal_value=0 -3.88099e-05 0.000766912 -4.8675e-05 -0.000324385 -0.00135274 -0.000164974 -0.00107461 1.36447e-05 -1.76504e-05 -0.000115028 -2.81872e-05 0.000121 0.0012718 -7.72051e-05 -0.00057939 2.11932e-05 0.000706866 -5.48814e-05 -0.000348567 -0.000556328 0.000443795 -3.33859e-05 -0.000323453 -0.000838266 -4.4656e-05 -0.00038593 -2.90442e-05 0.000524091 -4.11981e-05
internal_weight=0 3803 46 3757 380 51 329 54 275 3377 254 3344 827 66 2517 202 761 76 685 177 139 69 2315 185 51 2286 100 2186 47 2139
internal_count=22298 3803 46 3757 380 51 329 54 275 3377 254 3344 827 66 2517 202 761 76 685 177 139 69 2315 185 51 2286 100 2186 47 2139
shrinkage=0.05


Tree=144
num_leaves=31
num_cat=0
split_feature=27 0 15 18 11 25 27 27 22 14 21 1 16 25 30 30 21 2 2 19 0 21 8 25 10 6 20 15 30 24
split_gain=0.00270011 0.0533702 0.00559379 0.00331285 0.00293034 0.0261078 0.0842087 0.310618 0.288492 0.0237699 0.024978 0.0292577 0.0208995 0.019898 0.0192288 0.0787759 0.153377 0.0529467 0.0708732 0.0647784 0.0314628 0.0534393 0.0411755 0.0214845 0.0199353 0.0204933 0.0184583 0.0231182 0.0177076 0.0193396
threshold=5.3977600000000008 0.81388450000000012 2.6390250000000006 0.0039320250000000013 -1.8820749999999999e-06 0.19649850000000005 0.55730000000000002 -0.28372000000000014 0.25632850000000007 -22.260449999999995 2.8705050000000001 -13.827149999999998 81.672750000000022 -4.7337749999999996e-05 -0.34826499999999999 0.20062999999999945 4.2965400000000011 -0.021694649999999996 1.4400350000000002 0.12925850000000003 9.3983000000000008 0.20263000000000003 5.2856800000000008e-07 -0.16036499999999995 4.9274800000000005e-08 3.2598500000000003e-05 0.00023928850000000002 -0.98443649999999983 0.27979999999999988 5.5494100000000013e-06
decision_type=2 2 2 2 2 2 2 2 2 2 2 2 2 2 2 2 2 2 2 2 2 2 2 2 2 2 2 2 2 2
left_child=2 -2 4 -3 5 9 7 12 -9 -1 26 -12 -7 14 -6 17 23 -16 19 20 21 22 24 -17 -19 -26 27 -11 -25 -30
right_child=1 3 -4 -5 13 6 -8 8 -10 10 11 -13 -14 -15 15 16 -18 18 -20 -21 -22 -23 -24 28 25 -27 -28 -29 29 -31
leaf_value=0.0016466440373650668 0.0022394446155683707 -8.2194449082418868e-05 -0.00079842795887750332 -0.00076051454442287126 -1.5126828687865352e-05 -0.00039875502290949677 -0.00046393601784862473 0.0090183434143130264 0.0012044713940229958 -0.0015393907059963871 -0.0016842217151861406 -0.00023313039460238846 0.0013661308016162366 -6.9744373206006316e-05 -0.00057941229980285915 -0.0013357761744109374 0.0039930193769881347 0.0023661810267367402 -0.00040994365249642014 0.0035012170283505021 0.0027063807913270503 -0.001568583924563427 0.0029222791043204263 -0.0011921320592415624 0.00047707605707966418 0.0020240671638748608 0.0011608476175128349 1.4794893742068862e-05 -9.5677931956611559e-06 0.0012312861970713131
leaf_weight=22 27 126 22 21 3916 104 134 21 27 24 44 165 20 7499 62 31 24 20 72 31 27 20 28 31 149 25 35 7861 1678 32
leaf_count=22 27 126 22 21 3916 104 134 21 27 24 44 165 20 7499 62 31 24 20 72 31 27 20 28 31 149 25 35 7861 1678 32
internal_value=0 0.000196194 -1.54302e-06 -0.000179097 -7.49809e-07 2.23757e-05 0.000475786 0.0012079 0.00462304 5.35405e-06 9.12127e-07 -0.000538623 -0.000114096 -1.50827e-05 5.16123e-05 0.00016881 2.27248e-05 0.000773346 0.000998806 0.00133691 0.00108749 0.000906867 0.00112988 -3.1049e-05 0.000871184 0.000699345 1.51499e-05 1.00643e-05 -7.81717e-06 1.36529e-05
internal_weight=0 174 22124 147 22102 8457 306 172 48 8151 8129 209 124 13645 6146 2230 1796 434 372 300 269 242 222 1772 194 174 7920 7885 1741 1710
internal_count=22298 174 22124 147 22102 8457 306 172 48 8151 8129 209 124 13645 6146 2230 1796 434 372 300 269 242 222 1772 194 174 7920 7885 1741 1710
shrinkage=0.05


Tree=145
num_leaves=31
num_cat=0
split_feature=31 6 14 10 27 25 1 17 5 21 27 27 30 20 15 10 21 0 24 0 15 2 2 24 30 27 27 24 14 4
split_gain=0.00283906 0.0138103 0.0074253 0.00306011 0.0288867 0.025856 0.149187 0.0234969 0.0709923 0.0184407 0.0408955 0.236636 0.30629 0.274681 0.0306711 0.0158703 0.0125 0.0244593 0.0123271 0.0703165 0.00953843 0.0559303 0.31298 0.0170632 0.0311905 0.0303635 0.29079 0.0118685 0.0117808 0.0310292
threshold=17.53988 3.0064400000000003e-05 -25.416199999999996 6.0055550000000006e-07 5.6216950000000008 -0.9832439999999999 -12.633099999999997 0.63888450000000019 0.00010207900000000002 1.3050850000000003 0.34863500000000031 -0.28372000000000014 -4.5162449999999987 5.3721450000000007e-05 -0.89426549999999982 8.773650000000002e-06 60.273600000000009 -1.7109999999999996 5.5494100000000013e-06 -3.9908949999999996 -1.0289099999999998 -0.97061549999999985 -2.4904099999999993 2.0620900000000007e-06 -0.63636000000000015 0.25136499999999989 -0.17853299999999997 1.6691850000000002e-05 -8.1679949999999977 8.7186450000000013e-06
decision_type=2 2 2 2 2 2 2 2 2 2 2 2 2 2 2 2 2 2 2 2 2 2 2 2 2 2 2 2 2 2
left_child=2 -2 -1 4 16 6 -5 9 -9 14 11 -11 -13 -14 -7 -8 20 -18 -16 -20 21 22 27 -22 28 26 -26 -4 -25 -30
right_child=1 -3 3 5 -6 7 15 8 -10 10 -12 12 13 -15 18 -17 17 -19 19 -21 23 -23 -24 24 25 -27 -28 -29 29 -31
leaf_value=0.00080066393932391863 5.9114271903466163e-05 -0.0014380797944613733 -0.00025013871014710855 0.0042054520854435395 0.0018377085729818128 -0.0014161548950237615 0.00012744799340990459 0.00029063059303622982 -0.0033152335234695957 -0.00013469911172118149 -0.00014276837824569628 -0.0011004315838363254 0.0090946057990853053 0.0021496314457285083 2.407592891016115e-06 -0.0016575133096193896 -0.0019631683952259968 0.00021208288838222092 0.0031381676826276817 -0.00050834188493750754 -7.770900988052163e-06 -0.0001490499734432481 0.0050389372672309815 -0.0001258961941877057 -0.00017752132694113243 -6.7335839856859139e-05 -0.0062065157224424185 -0.0016497138595566087 -7.1333117022972289e-05 0.0022400065974215976
leaf_weight=29 67 20 33 24 21 38 33 39 21 253 306 32 24 35 8094 20 24 28 20 39 12038 251 35 423 120 106 24 28 53 20
leaf_count=29 67 20 33 24 21 38 33 39 21 253 306 32 24 35 8094 20 24 28 20 39 12038 251 35 423 120 106 24 28 53 20
internal_value=0 -0.000285068 1.11661e-06 7.13046e-08 -1.52422e-05 2.2593e-05 0.000934888 1.4701e-05 -0.000971422 2.13934e-05 0.000277735 0.000651788 0.00283839 0.00497471 1.0513e-06 -0.000546122 -1.81939e-05 -0.000791879 7.6567e-06 0.000727763 -1.513e-05 0.000243529 0.00126996 -2.21509e-05 -0.000254197 -0.000709586 -0.00118235 -0.000892567 -2.46666e-05 0.000561911
internal_weight=0 87 22211 22182 13204 8978 77 8901 60 8841 650 344 91 59 8191 53 13183 52 8153 59 13131 347 96 12784 746 250 144 61 496 73
internal_count=22298 87 22211 22182 13204 8978 77 8901 60 8841 650 344 91 59 8191 53 13183 52 8153 59 13131 347 96 12784 746 250 144 61 496 73
shrinkage=0.05


Tree=146
num_leaves=31
num_cat=0
split_feature=17 10 2 23 27 26 27 7 14 1 10 1 27 27 0 27 25 27 3 1 17 27 27 10 30 12 17 3 27 27
split_gain=0.00281584 0.0172472 0.0479486 0.11688 0.0238963 0.101703 0.100739 0.120819 0.262574 0.0203217 0.0195228 0.0216223 0.0184714 0.0403218 0.0166666 0.037778 0.0111573 0.0104257 0.0101263 0.0084834 0.00540126 0.0159118 0.0660336 0.183129 0.075049 0.0358294 0.0370549 0.00466797 0.0183884 0.013171
threshold=0.071615300000000007 8.0186500000000016e-06 0.66577950000000008 0.21659700000000001 0.20502550000000005 0.39077100000000003 -0.062254999999999942 0.00048966450000000007 -12.427899999999998 -16.895899999999994 1.1281350000000002e-05 -15.426899999999998 0.084315000000000154 0.4807185000000001 3.9384800000000006 0.93721200000000016 -0.16036499999999995 0.34863500000000031 2.1849000000000004e-05 -16.895899999999994 0.025762750000000004 -0.28372000000000014 0.12853499999999998 1.1159400000000002e-06 0.569635 1.7682050000000005e-05 0.035472750000000004 1.2566650000000001e-05 -0.36205799999999999 -0.23425000000000004
decision_type=2 2 2 2 2 2 2 2 2 2 2 2 2 2 2 2 2 2 2 2 2 2 2 2 2 2 2 2 2 2
left_child=20 2 4 18 6 14 19 -8 -9 -3 -11 -12 16 -14 15 -6 -13 -16 -4 -2 -1 -22 23 24 25 26 -23 28 -21 -29
right_child=1 9 3 -5 5 -7 7 8 -10 10 11 12 13 -15 17 -17 -18 -19 -20 27 21 22 -24 -25 -26 -27 -28 29 -30 -31
leaf_value=-1.8151684055491372e-06 -0.0010358948796056211 -0.0018194962690240178 -0.00040307050882965533 0.0044076598254919408 0.0025320484010444492 0.0038057003566063941 -0.0044622947329430486 -0.0045365318655967712 0.0032206108007812873 -0.0013897244954049323 0.0012360874708974734 -0.0010231218266805323 -0.0028708467318210753 -0.00017263759988256626 -0.0011863299187098164 -0.0001407618256052956 0.00013490212670895301 -3.8868036509621059e-05 0.00095877832708148557 -4.60261216674832e-05 -1.5084459866127672e-05 0.00012167140517703955 -4.8707312298699426e-05 0.0042165512411309848 -0.0026400201149226633 -0.00082394433335312425 0.0030643850806961344 4.3489940613161697e-05 -0.0016213672141020654 0.0013514220569049941
leaf_weight=19462 20 23 39 21 20 20 29 20 24 35 26 24 20 45 24 39 156 113 21 251 900 20 292 38 20 21 23 512 20 20
leaf_count=19462 20 23 39 21 20 20 29 20 24 35 26 24 20 45 24 39 156 113 21 251 900 20 292 38 20 21 23 512 20 20
internal_value=0 -6.56469e-05 2.27424e-05 0.00119723 -6.28092e-05 0.000409265 -0.000176613 -0.00195675 -0.000305363 -0.000386159 -0.000278425 -0.000134899 -0.000280391 -0.00100286 6.26901e-05 0.000765276 -1.95011e-05 -0.000239883 7.35766e-05 -1.87151e-05 4.80914e-06 0.000102923 0.000359462 0.00133639 3.34649e-05 0.000868929 0.00169568 6.61941e-06 -0.000162287 9.26603e-05
internal_weight=0 1522 1193 81 1112 216 896 73 44 329 306 271 245 65 196 59 180 137 60 823 20776 1314 414 122 84 64 43 803 271 532
internal_count=22298 1522 1193 81 1112 216 896 73 44 329 306 271 245 65 196 59 180 137 60 823 20776 1314 414 122 84 64 43 803 271 532
shrinkage=0.05


Tree=147
num_leaves=31
num_cat=0
split_feature=6 26 18 20 15 2 12 12 18 2 2 16 2 17 30 30 21 26 25 27 4 15 8 30 16 30 19 27 2 2
split_gain=0.00272839 0.00690698 0.00586921 0.0129991 0.00264829 0.0646504 0.159128 0.295584 0.0381599 0.0521629 0.0240895 0.020866 0.0288814 0.0135283 0.0115755 0.0196159 0.0193819 0.0124069 0.0165501 0.0356584 0.00752424 0.00616291 0.0106787 0.0153728 0.0403306 0.0211957 0.0101053 0.0179485 0.0066888 0.00656942
threshold=-8.9356999999999992e-05 0.006274130000000001 0.0030889500000000005 1.3628450000000002e-05 0.57638050000000007 0.38662550000000001 8.5975000000000016e-05 2.1170350000000003e-05 0.084044100000000024 0.88937750000000004 0.27629100000000006 22.760400000000004 1.7353050000000001 0.20874950000000003 -1.6975550000000001 -1.9698450000000001 7.9718550000000006 0.048240100000000008 -0.16036499999999995 0.34863500000000031 0.00020105700000000001 0.44346200000000008 -5.4114799999999992e-06 -0.757575 2.1382100000000004 1.0000000180025095e-35 0.67898100000000017 -0.20585514999999996 0.21939350000000005 -0.084079799999999996
decision_type=2 2 2 2 2 2 2 2 2 2 2 2 2 2 2 2 2 2 2 2 2 2 2 2 2 2 2 2 2 2
left_child=1 2 3 -1 21 10 7 -7 9 -8 14 12 -11 -14 15 20 17 18 19 -16 -6 29 26 -24 -25 -26 -23 -28 -27 -2
right_child=4 -3 -4 -5 5 6 8 -9 -10 11 -12 -13 13 -15 16 -17 -18 -19 -20 -21 -22 22 23 24 25 28 27 -29 -30 -31
leaf_value=-1.1694585743671132e-05 3.6790774571056415e-05 -0.0010427763316935548 0.00070099939986816723 -0.0013788953232142377 -4.1860481906640321e-05 0.00040395418332321386 0.0019207623976884255 0.0077954904284394753 0.0021044232323259604 0.0014610476576938081 -0.0015713070643479507 -0.0013686839639711636 -0.00015497594022529103 -0.0015563269349513577 -0.002525719778547379 0.0015430132488420765 -0.001400505252987952 0.00068303441714508356 -0.00010590080463399818 4.1398431658895029e-05 0.00094377050903858616 -5.3919993872621622e-05 -6.4055747522745021e-05 -0.0027498023001953698 -0.0016353584168326862 -0.00033426268825306499 -9.3250616092435928e-05 0.0019763281596442538 0.0004523707371845376 -2.1420728685078479e-05
leaf_weight=133 8151 21 21 20 608 38 30 21 23 26 28 38 124 20 24 21 37 36 213 31 20 86 356 20 27 88 22 20 39 11956
leaf_count=133 8151 21 21 20 608 38 30 21 23 26 28 38 124 20 24 21 37 36 213 31 20 86 356 20 27 88 22 20 39 11956
internal_value=0 -0.000186208 -8.28293e-05 -0.000190414 1.64279e-06 6.9824e-05 0.000689731 0.00303484 0.00015961 -2.83338e-05 -0.000125039 -0.000309453 -7.26842e-05 -0.000349608 -8.41341e-05 3.97959e-05 -0.000320001 -0.000188492 -0.000305563 -0.0010788 -1.0471e-05 -2.75049e-06 -0.000153327 -0.000252316 -0.000637491 -0.000363165 0.000256546 0.000892263 -9.26981e-05 2.17712e-06
internal_weight=0 195 174 153 22103 1338 320 59 261 238 1018 208 170 144 990 649 341 304 268 55 628 20765 658 530 174 154 128 42 127 20107
internal_count=22298 195 174 153 22103 1338 320 59 261 238 1018 208 170 144 990 649 341 304 268 55 628 20765 658 530 174 154 128 42 127 20107
shrinkage=0.05


Tree=148
num_leaves=31
num_cat=0
split_feature=2 26 15 2 1 27 30 30 2 2 30 1 21 26 15 27 1 30 15 6 2 1 18 10 16 30 2 24 3 30
split_gain=0.00251919 0.0229972 0.0039959 0.0873413 0.135519 0.227322 0.0896379 0.135789 0.18731 0.0204952 0.0111289 0.0207549 0.0199296 0.0125765 0.0156437 0.0285029 0.00945432 0.0086621 0.00601026 0.0106077 0.0215015 0.0108135 0.00749516 0.0216119 0.00583579 0.00688942 0.00518439 0.0301369 0.0837394 0.188725
threshold=6.3932300000000009 0.048240100000000008 0.57638050000000007 0.40825900000000009 -13.404099999999998 0.34863500000000031 -1.3186349999999998 1.6140899999999998 2.4303750000000002 0.27629100000000006 -1.6975550000000001 -13.321099999999999 6.0983350000000014 0.048240100000000008 1.0200700000000003 0.42748950000000019 -12.588799999999997 -2.5283099999999998 0.44346200000000008 -4.1019499999999996e-05 0.17917200000000003 -16.345749999999995 0.0024649300000000002 4.3317200000000006e-07 9.9858350000000016 -5.6609799999999995 -0.084079799999999996 1.0587200000000001e-05 1.0932100000000002e-05 0.24047499999999958
decision_type=2 2 2 2 2 2 2 2 2 2 2 2 2 2 2 2 2 2 2 2 2 2 2 2 2 2 2 2 2 2
left_child=2 -2 18 9 5 -5 17 8 -8 10 11 -4 13 14 -12 -16 -14 24 26 20 -20 -21 23 -23 -6 -26 27 -1 29 -29
right_child=1 -3 3 4 6 -7 7 -9 -10 -11 12 -13 16 -15 15 -17 -18 -19 19 21 -22 22 -24 -25 25 -27 -28 28 -30 -31
leaf_value=1.5843032677996469e-05 -4.1005986709327516e-05 -0.0016424846566540354 0.0016244516373990336 0.0055862424981647308 -0.00040667302166712618 -0.00065630512309144257 0.0052740938278421877 -0.0015850603625343258 -0.00049516405124450102 -0.0014317055710778041 -0.00011912107567063092 -1.1577846892040612e-05 -0.0021249946847092362 0.00074884055173408178 -0.0024799540733164622 6.7858842869653656e-05 -0.00060601353401406894 0.00041238573583541444 -0.00037323220824840033 -0.0011719741539958964 0.0017599786177535345 1.9034345981102282e-05 -0.00010285919386192181 -0.0020309179173636951 -0.00060133648194459974 -0.0018463745678309351 -1.9376709225539319e-05 0.0048826191901987902 8.7293789320897101e-05 -0.0009562407811172307
leaf_weight=8050 884 23 20 35 62 25 34 24 24 29 230 631 20 33 21 23 21 20 27 28 21 36 496 20 25 20 11161 31 199 25
leaf_count=8050 884 23 20 35 62 25 34 24 24 29 230 631 20 33 21 23 21 20 27 28 21 36 496 20 25 20 11161 31 199 25
internal_value=0 -8.16168e-05 3.46064e-06 8.85205e-05 0.000890624 0.00298518 0.000289315 0.00157797 0.00288681 -0.000121368 -8.33305e-05 3.86842e-05 -0.000311582 -0.000173304 -0.000284365 -0.00114814 -0.00134698 -0.000542732 -2.02969e-06 -0.000154274 0.000560048 -0.000213391 -0.000164767 -0.000713091 -0.000721258 -0.00115469 2.88193e-06 3.27951e-05 0.000567948 0.00227599
internal_weight=0 907 21391 1297 269 60 209 82 58 1028 999 651 348 307 274 44 41 127 20094 628 48 580 552 56 107 45 19466 8305 255 56
internal_count=22298 907 21391 1297 269 60 209 82 58 1028 999 651 348 307 274 44 41 127 20094 628 48 580 552 56 107 45 19466 8305 255 56
shrinkage=0.05


Tree=149
num_leaves=31
num_cat=0
split_feature=17 8 8 27 3 27 27 20 10 27 27 28 7 13 27 22 30 7 15 27 17 1 10 27 27 10 1 16 27 27
split_gain=0.00266647 0.0164894 0.0630733 0.224642 0.0192386 0.0345181 0.111113 0.0474023 0.0236479 0.0741934 0.0237261 0.0918584 0.0688167 0.0231967 0.0167771 0.0192838 0.0284797 0.00846312 0.00610196 0.00903405 0.00491433 0.0151492 0.0124161 0.0255536 0.144399 0.094648 0.0148509 0.00657176 0.0101205 0.021978
threshold=0.071615300000000007 1.6409750000000002e-06 1.5541550000000004e-05 -0.62762200000000001 1.1856450000000002e-05 -0.17853299999999997 0.15228 9.4066250000000008e-05 -1.4353399999999997e-07 -0.10523999999999999 -0.083779999999999841 -0.174708 0.00048966450000000007 1.3796950000000001 -0.28372000000000014 -0.045729899999999997 0.37146500000000021 0.0066213200000000009 1.0200700000000003 0.37778215000000021 0.025762750000000004 -17.737349999999996 5.5237600000000008e-07 -0.36205799999999999 0.12853499999999998 6.9280750000000014e-06 -14.840249999999999 3.974955 -0.10523999999999999 0.72582500000000005
decision_type=2 2 2 2 2 2 2 2 2 2 2 2 2 2 2 2 2 2 2 2 2 2 2 2 2 2 2 2 2 2
left_child=20 4 3 -3 5 17 -7 13 9 -6 -10 18 -13 -8 -4 -16 -17 -2 19 -12 -1 -22 26 -24 25 -25 -23 -28 -29 -30
right_child=1 2 14 -5 8 6 7 -9 10 -11 11 12 -14 -15 15 16 -18 -19 -20 -21 21 22 23 24 -26 -27 27 28 29 -31
leaf_value=-1.6388115335504555e-06 1.7713012642789615e-05 -0.00019686540994040449 3.7798912695011087e-05 0.0045389228384426269 -5.5294586212260242e-05 -0.0037952056119684129 -0.00023889220543563941 -0.0022775918593175618 4.2874167494215989e-05 0.0025561965317579703 -0.0010375204043856893 -0.0046180164379289968 -0.00056558845506515353 0.0018222933252608137 -0.0019649795140139759 -0.0013483477197210219 0.001106738732431993 -0.00079126991075985972 0.00062312343787332934 6.4136091871794768e-07 0.0012931860925303998 -0.0010762306986019695 -1.7506984218027066e-05 0.0053266784394509162 -2.6674683732500243e-05 0.00083813870745792014 6.64961633022558e-05 3.5028938327741344e-07 -0.002169003496237565 -2.9203762890877747e-05
leaf_weight=19462 189 88 165 35 122 30 39 21 461 35 26 22 20 21 26 27 21 39 27 108 26 34 321 24 158 23 587 91 20 30
leaf_count=19462 189 88 165 35 122 30 39 21 461 35 26 22 20 21 26 27 21 39 27 108 26 34 321 24 158 23 587 91 20 30
internal_value=0 -6.38821e-05 0.000230723 0.00115072 -0.000155819 -0.000472702 -0.0011958 -0.000233063 -2.49746e-05 0.000526885 -0.000155459 -0.000605862 -0.00268829 0.000482523 -0.000242747 -0.000868288 -0.000274247 -0.000120666 -6.26207e-05 -0.000200793 4.67985e-06 9.82672e-05 7.41461e-05 0.000260995 0.000697087 0.00313016 -5.48332e-05 -7.13058e-06 -0.000313648 -0.000885124
internal_weight=0 1522 362 123 1160 339 111 81 821 157 664 203 42 60 239 74 48 228 161 134 20776 1314 1288 526 205 47 762 728 141 50
internal_count=22298 1522 362 123 1160 339 111 81 821 157 664 203 42 60 239 74 48 228 161 134 20776 1314 1288 526 205 47 762 728 141 50
shrinkage=0.05


Tree=150
num_leaves=31
num_cat=0
split_feature=13 14 22 8 12 30 30 24 17 7 1 22 1 12 3 30 30 3 28 28 30 20 28 30 8 6 30 12 3 8
split_gain=0.00252199 0.0173453 0.00291178 0.0512866 0.0542746 0.13191 0.172135 0.220697 0.105404 0.066852 0.040562 0.107201 0.0202487 0.0285615 0.0276665 0.0159019 0.0273035 0.0300759 0.0352991 0.193338 0.0164771 0.0153516 0.0192584 0.0150046 0.0143571 0.0127216 0.0125832 0.0123702 0.0126654 0.0105856
threshold=-3.0876849999999996 -7.3079149999999986 -0.0066818849999999994 -2.4590199999999995e-07 0.00029402050000000004 -1.3186349999999998 1.7335450000000006 3.3346300000000002e-06 0.0037223150000000003 0.0017729450000000004 -14.694299999999997 -0.15799099999999996 -13.076199999999998 0.0023216000000000005 1.1686600000000003e-05 -0.46488999999999908 2.1794250000000002 1.5113550000000002e-05 0.3110555000000001 -0.22897950000000003 -0.63636000000000015 0.0019555150000000006 0.3110555000000001 -0.83700999999999925 -0.00013972149999999997 -2.6304099999999994e-05 1.8558150000000009 0.00049295100000000004 2.0824400000000003e-05 -2.1671349999999998e-08
decision_type=2 2 2 2 2 2 2 2 2 2 2 2 2 2 2 2 2 2 2 2 2 2 2 2 2 2 2 2 2 2
left_child=1 -1 3 4 5 -2 7 8 -7 -10 11 -6 13 -12 -15 20 17 18 19 -17 21 23 -23 -5 -13 -26 -16 28 -14 -4
right_child=2 -3 29 15 10 6 -8 -9 9 -11 12 24 27 14 26 16 -18 -19 -20 -21 -22 22 -24 -25 25 -27 -28 -29 -30 -31
leaf_value=-4.4557283669549751e-05 -0.0001065635000188081 0.0011239744669113022 -3.451535918025206e-05 -6.6294249437563038e-05 0.0033143303175165784 -0.00033142779236792802 -0.00033584498050576834 0.0078670127911027524 0.0056375174421600602 0.0015983252583066047 -0.0024783343455402201 -0.00098958226027510434 -0.0017813247400772524 0.001135840641239026 -0.001877917166996707 -0.00036518382234857676 -6.2398238179420896e-05 -0.00017797405093441891 -0.00034386544844099452 -0.005133057751130158 0.0013277465620467411 -0.0020830017165280879 9.1041745194657288e-06 -0.0012786375208074438 0.0013212557861282091 -0.00036386966809610991 -0.00018506702087636639 2.3646635618612201e-05 -1.9033860280615045e-06 4.0476975937368019e-05
leaf_weight=171 188 39 8758 1388 32 30 54 20 20 21 21 30 20 21 23 73 312 144 78 30 20 22 22 26 21 24 21 479 20 10170
leaf_count=171 188 39 8758 1388 32 30 54 20 20 21 21 30 20 21 23 73 312 144 78 30 20 22 22 26 21 24 21 479 20 10170
internal_value=0 0.000172456 -1.63961e-06 -4.60699e-05 0.000240497 0.000767396 0.00190053 0.00322761 0.00192074 0.00356866 -5.93271e-06 0.000891445 -0.000164642 -0.000875243 -0.000357321 -0.00018766 -0.000396496 -0.000717231 -0.00114625 -0.00175388 -9.76535e-05 -0.000117206 -0.00103695 -8.85863e-05 -0.00014232 0.000422522 -0.00106997 -4.68937e-05 -0.000891614 5.77797e-06
internal_weight=0 210 22088 3160 1045 333 145 91 71 41 712 107 605 86 65 2115 637 325 181 103 1478 1458 44 1414 75 45 44 519 40 18928
internal_count=22298 210 22088 3160 1045 333 145 91 71 41 712 107 605 86 65 2115 637 325 181 103 1478 1458 44 1414 75 45 44 519 40 18928
shrinkage=0.05


Tree=151
num_leaves=31
num_cat=0
split_feature=6 20 20 30 6 14 10 27 25 1 10 16 9 12 21 2 6 1 12 30 26 2 30 26 4 20 21 0 18 12
split_gain=0.00249194 0.00630376 0.0035305 0.00252277 0.0123434 0.00849115 0.0030057 0.0249535 0.020316 0.12765 0.0139686 0.0133063 0.0262214 0.0304786 0.0170493 0.0500404 0.135024 0.021604 0.0232534 0.0978482 0.0142419 0.0123427 0.0212439 0.0119548 0.0246026 0.016049 0.0108787 0.0228488 0.0102771 0.071811
threshold=-8.9356999999999992e-05 1.9133400000000006e-05 5.7927950000000008e-05 -17.44821 3.154645000000001e-05 -25.416199999999996 6.0055550000000006e-07 5.6216950000000008 -0.9832439999999999 -12.633099999999997 4.1337350000000007e-06 35.645800000000008 1.5648300000000004e-07 0.0059498350000000005 1.3050850000000003 -0.34999249999999998 -1.5352949999999997e-05 -17.030649999999998 0.00021030800000000001 -1.3186349999999998 0.10961950000000001 1.1082250000000002 0.20062999999999945 0.0084528100000000016 2.4624650000000001e-05 -0.00010038149999999999 60.273600000000009 -1.7109999999999996 0.0088370700000000007 0.00030992000000000004
decision_type=2 2 2 2 2 2 2 2 2 2 2 2 2 2 2 2 2 2 2 2 2 2 2 2 2 2 2 2 2 2
left_child=1 -1 -3 4 -2 -5 7 26 9 -8 -11 14 21 -14 23 16 -16 -17 19 -19 -20 22 -13 25 -25 -10 -7 -28 -27 -30
right_child=3 2 -4 5 -6 6 8 -9 11 10 -12 12 13 -15 15 17 -18 18 20 -21 -22 -23 -24 24 -26 28 27 -29 29 -31
leaf_value=-3.3540341892442106e-05 5.554020108654775e-05 -0.0012073109234188451 -0.00026782971537613775 0.00088878324378230096 -0.0013575142668560147 -1.3414649407102518e-05 0.0038544201156279693 0.0017086571412316216 0.0013020449755648165 0.00033119109660522859 -0.001312666674493812 -0.00023258554484245592 -0.0020860776987646182 0.00017856653818550212 -0.00044988774008945462 0.0016529529366049577 0.0041345140042690692 -0.00022440086425470733 -0.00017626410480268474 0.0037588379770238049 0.0011323934103446927 -0.00066944881189807222 0.0018856337218312548 0.0001762709269444583 -0.0021198072734114246 1.1251992569489364e-06 -0.0018701125853112901 0.00023230271534495323 0.0030942063184089159 -0.00026273284545230566
leaf_weight=155 68 20 20 27 20 13130 24 21 24 24 28 29 39 24 36 22 29 58 378 21 22 29 20 28 20 7843 24 28 21 66
leaf_count=155 68 20 20 27 20 13130 24 21 24 24 28 29 39 24 36 22 29 58 378 21 22 29 20 28 20 7843 24 28 21 66
internal_value=0 -0.000177957 -0.00073757 1.56999e-06 -0.000265609 2.63798e-06 1.54984e-06 -1.35296e-05 2.42127e-05 0.000838158 -0.000553963 1.71097e-05 -0.000464665 -0.00122336 2.50381e-05 0.000290239 0.00159546 0.000120898 5.05327e-05 0.000834435 -0.000104288 0.000148124 0.000631994 6.27986e-06 -0.000780428 1.10274e-05 -1.62731e-05 -0.000738043 7.12016e-06 0.000547563
internal_weight=0 195 40 22103 88 22015 21988 13203 8785 76 52 8709 141 63 8568 566 65 501 479 79 400 78 49 8002 48 7954 13182 52 7930 87
internal_count=22298 195 40 22103 88 22015 21988 13203 8785 76 52 8709 141 63 8568 566 65 501 479 79 400 78 49 8002 48 7954 13182 52 7930 87
shrinkage=0.05


Tree=152
num_leaves=31
num_cat=0
split_feature=24 4 12 27 16 1 14 4 7 18 1 13 1 16 9 13 13 23 3 30 1 27 9 19 30 30 12 15 19 30
split_gain=0.00255228 0.00917817 0.0249913 0.0551804 0.0152302 0.0154889 0.0172005 0.0119252 0.0356798 0.0118395 0.0155434 0.0318467 0.0092537 0.0170987 0.0132729 0.0105011 0.0281856 0.00721299 0.0146419 0.0133354 0.00969368 0.0063484 0.0062547 0.0228535 0.0726561 0.120499 0.00919547 0.0133558 0.00699754 0.0210788
threshold=-3.6693299999999994e-07 -3.6439849999999993e-05 1.8546550000000004e-07 -0.3846 42.475300000000004 -17.445649999999997 -13.359599999999999 -3.167314999999999e-05 0.00048966450000000007 0.34507250000000006 -17.279499999999995 1.1025350000000003 -14.840249999999999 0.42078050000000006 -1.1027399999999997e-05 -2.8800399999999997 -2.7957999999999994 0.022715250000000003 1.5290700000000003e-05 -0.46488999999999908 -7.9709549999999991 0.23070700000000008 -5.2859849999999986e-07 -0.50986249999999989 -1.0504849999999999 1.9217150000000001 6.529870000000001e-07 -0.19568949999999996 -0.10460849999999998 -1.5240599999999997
decision_type=2 2 2 2 2 2 2 2 2 2 2 2 2 2 2 2 2 2 2 2 2 2 2 2 2 2 2 2 2 2
left_child=1 2 3 -1 5 6 -4 8 -3 10 11 -9 13 -7 -15 -14 -17 -18 19 -19 -20 -16 23 24 -12 -26 27 -25 29 -24
right_child=-2 7 4 -5 -6 12 -8 9 -10 -11 22 -13 15 14 21 16 17 18 20 -21 -22 -23 28 26 25 -27 -28 -29 -30 -31
leaf_value=-0.00021931854362601706 7.6707322928109484e-06 -0.00016738068288060066 0.0019332480744196801 -0.003293761786626419 -0.0014278811561563914 -0.0018552512225869578 -9.2749301719860267e-05 -6.9934155225828175e-05 0.0024301439332884913 0.0010776986260898412 -0.00015513543634561327 -0.002437565121945227 -0.00112410103918757 -0.0011064822018881622 0.00063879939976190653 0.0017901193655450783 1.1354669536244887e-05 -0.00028896854122461359 0.00043560516652952952 -0.0018484099699680183 -0.00060675916262736894 -0.00033471679371292772 5.0287023761256937e-06 0.0016458764895884315 0.005114313945939232 -0.00024201129382986223 -5.4427672625878158e-05 -0.00018140325655167545 2.9434751328820685e-05 -0.00060341439752321197
leaf_weight=54 18495 39 20 20 21 20 22 49 20 25 76 20 22 31 33 21 580 29 54 26 38 34 500 20 21 21 521 20 1247 199
leaf_count=54 18495 39 20 20 21 20 22 49 20 25 76 20 22 31 33 21 580 29 54 26 38 34 500 20 21 21 521 20 1247 199
internal_value=0 -3.73048e-05 -0.000165181 -0.00105025 -9.63112e-05 -6.62435e-05 0.000872011 9.87766e-06 0.000713136 -5.38245e-06 -1.54333e-05 -0.000756204 -0.00011062 -0.000522932 -0.00025103 -4.7435e-05 -1.57683e-05 -6.79329e-05 -0.000380768 -0.00102616 5.06338e-06 0.000144776 4.03837e-06 0.000134699 0.000767187 0.00243615 1.66247e-06 0.000732237 -4.15519e-05 -0.00016819
internal_weight=0 3803 1025 74 951 930 42 2778 59 2719 2694 69 888 118 98 770 748 727 147 55 92 67 2625 679 118 42 561 40 1946 699
internal_count=22298 3803 1025 74 951 930 42 2778 59 2719 2694 69 888 118 98 770 748 727 147 55 92 67 2625 679 118 42 561 40 1946 699
shrinkage=0.05


Tree=153
num_leaves=31
num_cat=0
split_feature=17 8 8 27 3 27 27 20 21 10 27 27 28 7 27 22 30 7 30 27 17 1 17 1 10 27 27 10 1 16
split_gain=0.00244454 0.015124 0.0551875 0.198756 0.017371 0.0311509 0.101613 0.0412546 0.021613 0.020791 0.0649137 0.0225954 0.0864575 0.0708596 0.0143247 0.0160799 0.0257398 0.00783269 0.00562148 0.0106992 0.0050598 0.00441822 0.00428319 0.0137548 0.011185 0.0230238 0.129238 0.0839635 0.0126879 0.00587614
threshold=0.071615300000000007 1.6409750000000002e-06 1.5541550000000004e-05 -0.62762200000000001 1.1856450000000002e-05 -0.17853299999999997 0.15228 9.4066250000000008e-05 2.4168200000000004 -4.4505349999999993e-08 -0.10523999999999999 -0.083779999999999841 -0.174708 0.00048966450000000007 -0.28372000000000014 -0.045729899999999997 0.37146500000000021 0.0066213200000000009 0.15853500000000012 0.40211800000000014 0.36560600000000004 -14.474749999999998 0.025762750000000004 -17.737349999999996 5.5237600000000008e-07 -0.36205799999999999 0.12853499999999998 6.9280750000000014e-06 -14.840249999999999 5.1846950000000005
decision_type=2 2 2 2 2 2 2 2 2 2 2 2 2 2 2 2 2 2 2 2 2 2 2 2 2 2 2 2 2 2
left_child=22 4 3 -3 5 17 -7 8 -8 10 -6 21 18 -14 -4 -16 -17 -2 19 -13 -20 -11 -1 -24 28 -26 27 -27 -25 -30
right_child=1 2 14 -5 9 6 7 -9 -10 11 -12 12 13 -15 15 16 -18 -19 20 -21 -22 -23 23 24 25 26 -28 -29 29 -31
leaf_value=-1.4181140442110592e-06 1.7226372370406696e-05 -0.00018602331801957918 3.7325264407131314e-05 0.0042685595968006444 -5.5041707703213276e-05 -0.0036230476825342829 -0.0002200380389331258 -0.0021239333974552295 0.0017930275265462114 -0.00063245898459369891 0.0022882088986654328 -0.0012018509449262639 -0.0046718829699481526 -0.0005133841407950968 -0.0018013714989557721 -0.0012785965294622456 0.0010554088507931391 -0.00076104234426449513 -0.00011252533915047445 -6.3692546374274084e-06 0.00089424242820920579 7.895424582813094e-05 0.0012304518770598896 -0.00099763861298389901 -1.814507261123908e-05 0.0050307880888188572 -2.4559550225751971e-05 0.00080318000944553996 5.0793810613178577e-05 -0.00034437056114510855
leaf_weight=19462 189 88 165 35 133 30 40 21 20 23 38 24 21 20 26 27 21 39 26 85 24 427 26 34 321 24 158 23 617 111
leaf_count=19462 189 88 165 35 133 30 40 21 20 23 38 24 21 20 26 27 21 39 26 85 24 427 26 34 321 24 158 23 617 111
internal_value=0 -6.11659e-05 0.000220978 0.00108154 -0.000149214 -0.000450324 -0.00113725 -0.000216587 0.000450984 -2.48826e-05 0.000465681 -0.000153938 -0.000596134 -0.00264335 -0.000221906 -0.000799921 -0.000257469 -0.000115899 -6.82368e-05 -0.000269595 0.000370723 4.25931e-05 4.48086e-06 9.18522e-05 6.8868e-05 0.000246211 0.000660154 0.00296196 -5.355e-05 -9.4579e-06
internal_weight=0 1522 362 123 1160 339 111 81 60 821 171 650 200 41 239 74 48 228 159 109 50 450 20776 1314 1288 526 205 47 762 728
internal_count=22298 1522 362 123 1160 339 111 81 60 821 171 650 200 41 239 74 48 228 159 109 50 450 20776 1314 1288 526 205 47 762 728
shrinkage=0.05


Tree=154
num_leaves=31
num_cat=0
split_feature=17 3 21 27 27 24 2 13 4 30 0 30 3 10 19 16 6 16 28 4 1 26 19 0 12 30 30 26 24 2
split_gain=0.00239294 0.00728004 0.0153996 0.0614214 0.284977 0.226399 0.024129 0.0133672 0.0271554 0.0121899 0.0712655 0.0406712 0.079113 0.0722227 0.0194082 0.0245225 0.0251325 0.0171731 0.0162577 0.0354262 0.0245302 0.0138852 0.0223511 0.0124329 0.0120008 0.0112904 0.0303789 0.00969777 0.00789327 0.00711751
threshold=-0.019051749999999996 1.2781550000000001e-05 0.66668700000000014 0.34863500000000031 -0.20585514999999996 5.5494100000000013e-06 2.1417200000000007 -0.34316949999999996 6.2986800000000012e-05 0.4659999999999998 -7.6529149999999992 -0.38512500000000033 1.5649600000000003e-05 1.5023300000000005e-07 -4.7897999999999987 35.645800000000008 4.2370000000000009e-05 24.120400000000004 -0.15027399999999996 5.6790950000000009e-05 -14.330549999999997 0.10961950000000001 2.1236900000000003 -8.0349649999999979 1.1924600000000002e-09 -0.68019999999999958 -1.2451950000000001 0.0059673100000000008 1.1381800000000002e-05 0.42895750000000005
decision_type=2 2 2 2 2 2 2 2 2 2 2 2 2 2 2 2 2 2 2 2 2 2 2 2 2 2 2 2 2 2
left_child=1 2 24 4 28 -6 29 9 -9 11 -11 18 13 -13 -12 17 -17 27 20 21 -3 22 25 -14 -1 26 -20 -16 -4 -5
right_child=-2 7 3 6 5 -7 -8 8 -10 10 14 12 23 -15 15 16 -18 -19 19 -21 -22 -23 -24 -25 -26 -27 -28 -29 -30 -31
leaf_value=-0.0010813225454669386 7.2667502236033314e-06 0.0017905720543058123 -0.0002087520501949943 -0.00012858761759334237 0.0011257785648922437 0.0074761616075411444 0.0015932630017050542 -0.00012852809533988444 -0.0017252244347489339 0.0024276123677736908 0.0012676176687317162 -0.0007597716268589595 0.00097834808148036258 -0.004497638063730847 2.8130262409477726e-05 -1.8267308594658971e-05 -0.0022834853875489595 0.0014093499000988564 -0.0001274762971466183 -0.0021776124898072644 2.3308032639014078e-05 0.00091812858204670753 -0.0018612341672581221 -0.00038184635229342916 -4.3127911244814058e-05 0.00094264487478150328 -0.0021407007772540963 -0.0010696935501030003 -0.0011507179105579521 -0.001006577451247722
leaf_weight=29 18631 20 61 301 32 25 20 95 37 32 29 28 20 24 478 25 24 22 297 24 1077 26 21 105 693 21 20 21 35 25
leaf_count=29 18631 20 61 301 32 25 20 95 37 32 29 28 20 24 478 25 24 22 297 24 1077 26 21 105 693 21 20 21 35 25
internal_value=0 -3.69203e-05 6.27927e-05 0.000276385 0.00111059 0.00391103 -9.24973e-05 -8.66953e-05 -0.000576087 -5.87784e-05 0.000128641 -0.000129047 -0.00084601 -0.00248494 5.82467e-06 -5.83718e-05 -0.00112776 4.22042e-05 -4.47822e-05 -0.000313829 5.5528e-05 -0.000197645 -0.000278454 -0.000164215 -8.48282e-05 -0.000180115 -0.000254494 -1.80707e-05 -0.000552177 -0.000195918
internal_weight=0 3667 1221 499 153 57 346 2446 132 2314 631 1683 177 52 599 570 49 521 1506 409 1097 385 359 125 722 338 317 499 96 326
internal_count=22298 3667 1221 499 153 57 346 2446 132 2314 631 1683 177 52 599 570 49 521 1506 409 1097 385 359 125 722 338 317 499 96 326
shrinkage=0.05


Tree=155
num_leaves=31
num_cat=0
split_feature=3 25 28 16 30 15 1 1 1 30 7 27 27 27 0 24 18 15 12 10 24 10 14 20 19 30 6 27 27 6
split_gain=0.00247697 0.0252249 0.00339615 0.00266037 0.00257949 0.0347813 0.0347035 0.0328316 0.0286464 0.0281889 0.0454239 0.0390322 0.0707237 0.309298 0.052547 0.0329786 0.0571889 0.0919187 0.0353396 0.0682606 0.0521164 0.0206797 0.0174843 0.0167669 0.0151604 0.0246837 0.0370884 0.037849 0.151757 0.0148548
threshold=6.5747000000000008e-06 -0.00027206699999999991 -5.6168899999999988 1.1223300000000003 0.15853500000000012 1.4966000000000002 -6.3033449999999993 -6.5513949999999994 -18.040299999999995 -0.2305749999999995 0.00036641550000000004 -0.10523999999999999 0.17708600000000005 0.018490999999999928 10.204500000000001 2.2169050000000001e-07 0.0022654500000000004 -0.15021549999999997 1.4885450000000002e-06 1.2569400000000004e-07 -1.2615099999999998e-08 7.8403450000000014e-07 -6.0025199999999987 -0.00061194249999999993 -0.86293299999999984 1.7335450000000006 -1.3155599999999998e-05 0.34863500000000031 -0.20585514999999996 3.0064400000000003e-05
decision_type=2 2 2 2 2 2 2 2 2 2 2 2 2 2 2 2 2 2 2 2 2 2 2 2 2 2 2 2 2 2
left_child=1 -1 3 -2 8 6 7 23 -4 22 11 -11 13 14 -13 18 17 -17 19 20 29 -18 -10 -6 25 26 -25 28 -28 -12
right_child=2 -3 4 -5 5 -7 -8 -9 9 10 15 12 -14 -15 -16 16 21 -19 -20 -21 -22 -23 -24 24 -26 -27 27 -29 -30 -31
leaf_value=0.0018341968230379279 -0.00012740770194795913 -0.00015881575473031262 0.0019043877976946532 -0.00072505254583019355 0.0012166330774090496 0.0018789730413118378 0.0017966789935056884 -0.0018068692863940109 -8.1457521263247043e-06 -0.00014271796906425462 -0.0002278231785222206 0.00045993500648851949 -0.00014207795997689981 0.0062545443589832371 0.0027573591015035556 6.5716114258975727e-05 -0.0016087924062594538 0.004613431638063048 -2.4864464271431691e-05 -0.0037002564878639531 -0.0025336378678184703 0.00044073781409679217 -0.0013317450992326486 0.00076470096527341891 -1.5182951666029019e-05 -5.2667259084728364e-05 -0.00035371088697502275 -0.00022936806656290639 -0.0054208687570115391 0.0015434571190053249
leaf_weight=20 60 77 20 27 27 24 26 26 12557 141 29 224 130 28 28 25 20 20 393 20 20 32 25 29 7830 300 45 53 22 20
leaf_count=20 60 77 20 27 27 24 26 26 12557 141 29 224 130 28 28 25 20 20 393 20 20 32 25 29 7830 300 45 53 22 20
internal_value=0 0.000252115 -1.10153e-06 -0.000312884 1.25068e-07 -2.17322e-05 -2.71901e-05 -3.28815e-05 1.34667e-05 1.07087e-05 0.000249927 0.000574892 0.00082168 0.00126914 0.000715204 -5.93231e-05 0.000781848 0.00208692 -0.000228604 -0.00112827 -0.000382761 -0.000347543 -1.07757e-05 -2.73284e-05 -3.13853e-05 -0.000313934 -0.000839975 -0.00122777 -0.00201755 0.000495148
internal_weight=0 97 22201 87 22114 8382 8358 8332 13732 13712 1130 551 410 280 252 579 97 45 482 89 69 52 12582 8306 8279 449 149 120 67 49
internal_count=22298 97 22201 87 22114 8382 8358 8332 13732 13712 1130 551 410 280 252 579 97 45 482 89 69 52 12582 8306 8279 449 149 120 67 49
shrinkage=0.05


Tree=156
num_leaves=31
num_cat=0
split_feature=2 25 24 15 11 1 6 30 15 12 6 13 1 30 15 1 21 10 12 14 3 22 5 22 16 11 11 9 9 23
split_gain=0.00229562 0.0314597 0.00486919 0.00477339 0.134305 0.0166516 0.0285132 0.00971831 0.00579406 0.0179082 0.0341715 0.0105988 0.00939911 0.0164002 0.00778474 0.0430893 0.0125074 0.0110288 0.00776047 0.00339078 0.00320469 0.0325956 0.00860044 0.00574951 0.00369714 0.0181427 0.0242768 0.0133142 0.13999 0.0175877
threshold=5.5245800000000012 -0.27345599999999998 -8.5313049999999995e-06 1.2626950000000001 0.00062990250000000017 -12.930349999999999 3.6716800000000007e-05 -2.6002149999999995 1.0200700000000003 1.7682050000000005e-05 3.0064400000000003e-05 0.61883350000000015 -13.708499999999999 -1.1009999999999993 0.89529000000000003 -12.930349999999999 2.8705050000000001 7.8403450000000014e-07 2.7200000000000004e-05 -19.339499999999997 7.9071800000000014e-06 -0.077302599999999985 0.00028696050000000007 0.10153565000000002 9.9858350000000016 8.0406000000000002e-05 0.00014492700000000002 1.0026325000000003e-05 3.1510150000000005e-05 0.41308250000000007
decision_type=2 2 2 2 2 2 2 2 2 2 2 2 2 2 2 2 2 2 2 2 2 2 2 2 2 2 2 2 2 2
left_child=3 -2 -3 8 5 6 -5 -7 14 10 11 -10 -11 -14 20 -16 17 -17 -18 -4 21 -1 23 -23 -22 27 -27 -26 -29 -30
right_child=1 2 19 4 -6 7 -8 -9 9 12 -12 -13 13 -15 15 16 18 -19 -20 -21 24 22 -24 -25 25 26 -28 28 29 -31
leaf_value=0.0017183172275933127 -0.0018589830237033312 -0.00080435730284079921 -0.00059372705843998121 -0.0022715146671069544 0.0031663815824739525 -0.00013018679802089222 0.00024629952333105558 0.00074104572669105105 -0.00091104078687335879 -0.00068629371226052176 -0.0022971763301433789 0.00055549686111200055 -6.3642156289591051e-06 0.0015867873678438458 0.0025238400927810288 -3.2801465339226916e-05 6.0735269874820246e-05 0.0014390590142284055 -0.0012118908412521705 -5.1604611858122014e-06 2.5565936230969443e-06 1.9837593933993014e-05 0.00078656887126271613 -0.0008212493713861997 -8.3485115522129587e-05 -0.0020075760236941279 -0.00031875934282080045 0.0032257299937448222 -9.5207303327273846e-05 -0.0016096171687912338
leaf_weight=30 24 20 25 23 34 203 22 38 22 28 27 28 70 21 20 35 23 20 25 1156 18639 626 36 21 781 25 143 34 73 26
leaf_count=30 24 20 25 23 34 203 22 38 22 28 27 28 70 21 20 35 23 20 25 1156 18639 626 36 21 781 25 143 34 73 26
internal_value=0 -6.65399e-05 -3.07209e-05 3.86805e-06 0.000195508 -0.000157673 -0.00104058 7.18597e-06 9.13066e-07 -0.000269653 -0.000863802 -8.97797e-05 0.000114797 0.000361286 3.49277e-06 0.000400078 -1.23032e-05 0.000502421 -0.000602091 -1.76195e-05 1.10557e-06 0.000105243 3.43903e-05 -7.46198e-06 -2.65944e-06 -9.25131e-05 -0.000570071 -4.73439e-06 0.000457704 -0.000492931
internal_weight=0 1225 1201 21073 320 286 45 241 20753 196 77 50 119 91 20557 123 103 55 48 1181 20434 713 683 647 19721 1082 168 914 133 99
internal_count=22298 1225 1201 21073 320 286 45 241 20753 196 77 50 119 91 20557 123 103 55 48 1181 20434 713 683 647 19721 1082 168 914 133 99
shrinkage=0.05


Tree=157
num_leaves=31
num_cat=0
split_feature=13 14 20 7 1 21 1 12 3 18 6 30 7 16 25 12 10 21 1 13 15 21 12 24 7 13 10 30 6 12
split_gain=0.00231512 0.015399 0.00268221 0.00696313 0.020532 0.143073 0.0402771 0.0474102 0.0697268 0.0629589 0.0236237 0.0480825 0.0536479 0.018912 0.0168493 0.0112475 0.017462 0.0273878 0.0112186 0.016977 0.020607 0.0103968 0.00949403 0.00872229 0.0146689 0.00768537 0.00691799 0.0116724 0.00661737 0.00623886
threshold=-3.0876849999999996 -7.3079149999999986 -1.1281599999999999e-05 0.017759450000000003 -13.209849999999998 10.610000000000001 -12.395199999999997 3.6708900000000004e-06 1.1737150000000002e-05 0.0016544800000000003 7.0396950000000007e-05 2.3386650000000002 0.0060041400000000007 10.669550000000003 -0.16036499999999995 0.0015922100000000004 -1.013385e-05 0.26969300000000002 -18.320749999999997 1.2609850000000002 0.17356000000000002 10.610000000000001 0.00015860700000000004 5.3230950000000009e-05 0.00036641550000000004 -2.7819549999999995 6.0535300000000022e-08 1.0020250000000004 4.9166550000000008e-05 8.7747100000000004e-08
decision_type=2 2 2 2 2 2 2 2 2 2 2 2 2 2 2 2 2 2 2 2 2 2 2 2 2 2 2 2 2 2
left_child=1 -1 3 4 5 10 7 8 -6 -10 14 12 -12 22 -2 16 -5 -18 -16 25 -21 -17 -9 29 -25 -20 27 -27 -28 -8
right_child=2 -3 -4 15 6 -7 23 13 9 -11 11 -13 -14 -15 18 21 17 -19 19 20 -22 -23 -24 24 -26 26 28 -29 -30 -31
leaf_value=-3.9243903124411434e-05 0.0011589752826020468 0.0010617762119537499 7.3234257086151616e-06 0.00038604168283503293 0.00021588708947698856 0.0043238103159681145 -0.00012483646133025833 0.00096585262668458412 -0.0049031473402878466 -0.0011204456126093149 0.00029754615235833627 -0.00030799142220985234 0.0036070955966162424 -0.0014753134098348464 0.00085109396459975633 -6.3070508788239368e-05 3.7728845344039047e-05 -0.0022120696281255673 -0.00097907771441069517 -0.0022084708611642286 -6.8004707440116397e-05 -0.00096044130315182409 -0.00015092132523445605 3.0417550662478307e-05 -0.0014247142679684249 0.0010544322096797665 -6.65665067635611e-05 -0.00017938725814400829 -0.0010202313531863184 4.2201455390806165e-05
leaf_weight=171 27 39 17522 24 27 21 741 26 22 22 25 48 24 22 27 637 24 31 22 22 23 34 71 43 29 36 201 41 20 2276
leaf_count=171 27 39 17522 24 27 21 741 26 22 22 25 48 24 22 27 637 24 31 22 22 23 34 71 43 29 36 201 41 20 2276
internal_value=0 0.000165231 -1.57092e-06 -3.57029e-05 -8.32941e-06 0.000278263 -5.52645e-05 -0.000761843 -0.00178437 -0.0030118 0.000113619 0.000816756 0.00191855 -0.000151766 -4.91602e-05 -0.000174979 -0.000739287 -0.00123034 -0.000132374 -0.000205123 -0.00111445 -0.000108541 0.00014842 -1.18038e-05 -0.000555677 -7.72485e-05 -1.06705e-05 0.000397463 -0.000152871 1.17557e-06
internal_weight=0 210 22088 4566 3816 537 3279 190 71 44 516 97 49 119 419 750 79 55 392 365 45 671 97 3089 72 320 298 77 221 3017
internal_count=22298 210 22088 4566 3816 537 3279 190 71 44 516 97 49 119 419 750 79 55 392 365 45 671 97 3089 72 320 298 77 221 3017
shrinkage=0.05


Tree=158
num_leaves=31
num_cat=0
split_feature=6 26 18 24 17 5 5 3 23 12 30 30 19 1 24 0 27 27 4 22 27 27 3 1 13 4 27 12 13 27
split_gain=0.00223188 0.00624205 0.00531411 0.00615198 0.00228913 0.0122906 0.0285934 0.052405 0.0281054 0.0214991 0.0139661 0.0929793 0.0180845 0.0124535 0.0119188 0.0652432 0.0166123 0.105035 0.056963 0.0420018 0.0394166 0.0242488 0.184811 0.0189549 0.0333604 0.0414499 0.0292081 0.00970593 0.0091204 0.022717
threshold=-8.9356999999999992e-05 0.006274130000000001 0.0030889500000000005 2.0222300000000002e-07 -0.025653649999999997 -0.00021567299999999997 -0.00017397549999999997 1.3543800000000002e-05 0.46573400000000004 0.0024394550000000005 1.1742300000000008 1.9748850000000002 -0.94626799999999989 -12.169249999999998 0.0003225765000000001 0.45038550000000005 1.0000000180025095e-35 0.046556600000000024 9.4293650000000008e-06 -0.11664549999999999 0.12853499999999998 0.25136499999999989 1.5522700000000003e-05 -12.527449999999998 -2.1928699999999997 -3.076754999999999e-05 -0.51639999999999986 1.8510700000000002e-05 -1.8101349999999998 -0.28372000000000014
decision_type=2 2 2 2 2 2 2 2 2 2 2 2 2 2 2 2 2 2 2 2 2 2 2 2 2 2 2 2 2 2
left_child=1 2 3 -1 5 8 7 -7 10 -10 12 -12 13 -2 16 -16 18 -18 23 -20 -19 22 -22 26 25 -25 -8 -13 -26 -30
right_child=4 -3 -4 -5 -6 6 14 -9 9 -11 11 27 -14 -15 15 -17 17 20 19 -21 21 -23 -24 24 28 -27 -28 -29 29 -31
leaf_value=-4.9560526641861156e-05 -0.0022490434887004087 -0.00098270908139446475 0.00067570350528556105 -0.00099011149895659404 7.7065929817790449e-06 0.0029560737275618441 -0.0002800791635448919 5.3381248255846005e-05 -0.0026378945979688849 -0.00040127043076526288 0.003013095134752803 -0.0013069366456329591 -0.00020501800544208399 -0.00048456917371368039 0.0026158394473604859 -0.0007489212066181662 0.0030654767713193514 -0.0018179760205869874 -0.0004042855091392994 -0.00357022110732611 0.0046753930480190322 -1.9404179119031743e-05 -0.0019655936090698977 -0.0032256565467105244 0.00036783838397990196 -0.00017176978447241709 0.0022614715661620722 -0.00012315409505616175 -6.8623488840892282e-05 -0.0015742561617766377
leaf_weight=133 20 21 21 20 19229 23 26 48 21 22 25 20 206 20 25 34 28 30 20 22 20 1697 22 20 85 25 20 129 238 28
leaf_count=133 20 21 21 20 19229 23 26 48 21 22 25 20 206 20 25 34 28 30 20 22 20 1697 22 20 85 25 20 129 238 28
internal_value=0 -0.000168415 -7.0138e-05 -0.000172508 1.48581e-06 -4.01354e-05 5.17576e-06 0.00099369 -0.000276086 -0.00149358 -0.000151439 0.000191389 -0.000393927 -0.00136681 -2.48176e-05 0.000676825 -4.29662e-05 2.70618e-05 -0.000302967 -0.00206263 -2.10307e-05 9.9689e-06 0.00119678 -0.000135759 -0.000247355 -0.00152905 0.000824943 -0.000282051 -8.3035e-05 -0.000227111
internal_weight=0 195 174 153 22103 2874 2411 71 463 43 420 174 246 40 2340 59 2281 1797 484 42 1769 1739 42 442 396 45 46 149 351 266
internal_count=22298 195 174 153 22103 2874 2411 71 463 43 420 174 246 40 2340 59 2281 1797 484 42 1769 1739 42 442 396 45 46 149 351 266
shrinkage=0.05


Tree=159
num_leaves=31
num_cat=0
split_feature=4 16 10 24 4 17 13 27 17 0 6 0 3 7 1 13 14 4 30 1 27 15 2 2 6 20 4 8 20 30
split_gain=0.00218239 0.0267907 0.0168791 0.00859892 0.0555999 0.00530997 0.00459814 0.0144112 0.00356592 0.0201702 0.0214235 0.0206392 0.01812 0.00691387 0.00390556 0.0295606 0.00592776 0.0331723 0.0542868 0.00498685 0.00658313 0.00399651 0.0660682 0.148368 0.1839 0.124033 0.0403973 0.0615121 0.0175662 0.0141009
threshold=-0.00029245699999999993 27.517200000000006 -1.2531099999999998e-05 0.00055018350000000016 -3.6847999999999994e-06 3.4792700000000001 -2.4378949999999997 0.10458499999999994 0.55062400000000011 8.1635700000000018 -3.8012199999999995e-05 4.1659650000000008 1.6037550000000004e-05 0.0051663550000000001 -19.346799999999998 1.3655150000000003 -20.583799999999997 0.00013095700000000004 -8.8041099999999961 -7.9068749999999994 -0.25878849999999998 0.57638050000000007 0.40825900000000009 1.1976400000000003 4.0982450000000006e-05 -4.6269849999999992e-05 0.00022120900000000002 0.00010858750000000002 2.8403000000000002e-05 -1.7380149999999992
decision_type=2 2 2 2 2 2 2 2 2 2 2 2 2 2 2 2 2 2 2 2 2 2 2 2 2 2 2 2 2 2
left_child=1 6 -3 5 -5 8 7 -1 14 10 -10 13 -13 -12 15 -2 17 18 19 20 -16 -18 29 24 25 -24 28 -28 -25 -23
right_child=3 2 -4 4 -6 -7 -8 -9 9 -11 11 12 -14 -15 16 -17 21 -19 -20 -21 -22 22 23 26 -26 -27 27 -29 -30 -31
leaf_value=-0.0013692442189712894 -0.00020862066351475146 -0.00036099385101503382 -0.0021399895869156655 0.0027583056446746925 -0.00045731762564661573 0.00060091606326357185 1.5454459410866037e-05 -7.2590306447144334e-05 -0.0015509475878207014 -0.0012995821862880673 9.5617840007907595e-05 0.0022369175437779629 0.00013403096561974271 -0.00070226138826959923 -2.2838998005394581e-05 0.0020157095800095704 -5.4758872076431786e-07 0.0015828193923447373 -0.002966871316311881 0.00012988603196920022 -0.00098814843187221518 4.1988528869455722e-05 -0.00069420716987990188 -0.00038761071411116927 0.0065474989568992037 0.0036477537853803876 0.0030789956254357962 -0.00047426258659407755 -0.002053027367219329 -0.00038218793948672955
leaf_weight=25 59 30 24 20 41 37 1278 150 20 35 102 20 21 37 38 20 19096 21 20 67 33 572 38 76 21 29 21 29 20 298
leaf_count=25 59 30 24 20 41 37 1278 150 20 35 102 20 21 37 38 20 19096 21 20 67 33 572 38 76 21 29 21 29 20 298
internal_value=0 -5.81011e-05 -0.00115166 4.21136e-06 0.000596985 2.46707e-06 -1.74596e-05 -0.000257827 1.39702e-06 -0.000192264 1.51699e-06 0.000174013 0.00115983 -0.000116767 3.62159e-06 0.000354501 2.26139e-06 -0.000284205 -0.000532353 -0.000179525 -0.000471504 4.79988e-06 9.72955e-05 0.000843115 0.0024648 0.00118515 -0.00013434 0.00101811 -0.000734573 -0.000103304
internal_weight=0 1507 54 20791 61 20730 1453 175 20693 235 200 180 41 139 20458 79 20379 179 158 138 71 20200 1104 234 88 67 146 50 96 870
internal_count=22298 1507 54 20791 61 20730 1453 175 20693 235 200 180 41 139 20458 79 20379 179 158 138 71 20200 1104 234 88 67 146 50 96 870
shrinkage=0.05


Tree=160
num_leaves=31
num_cat=0
split_feature=31 6 23 24 3 16 0 0 5 0 0 20 3 13 17 22 2 11 2 21 9 7 5 27 30 30 5 0 21 14
split_gain=0.00233534 0.0100092 0.00669531 0.00305195 0.0310674 0.00282998 0.0119892 0.0588707 0.0186092 0.0243928 0.0200872 0.0149949 0.0133994 0.0343753 0.0145918 0.0137533 0.0103963 0.0339841 0.0361547 0.0288162 0.0126383 0.00986078 0.0570385 0.0793982 0.0145189 0.01866 0.00980973 0.0184784 0.0814036 0.0197314
threshold=17.53988 3.0064400000000003e-05 -6.5773949999999992 0.00055018350000000016 1.7828600000000004e-05 10.429600000000002 4.5041900000000012 4.9235550000000012 9.4237050000000013e-06 0.91497800000000018 -0.39728199999999997 -0.0016106259999999998 1.5290700000000003e-05 1.9829200000000002 0.32319950000000003 -0.6849559999999999 2.7647200000000005 0.00028408150000000005 0.5596285000000002 6.0983350000000014 -2.2556699999999994e-06 0.00054858350000000012 0.00016567550000000004 0.70172600000000018 -0.68019999999999958 0.24047499999999958 -1.0245199999999998e-05 -1.7109999999999996 4.2965400000000011 -13.919899999999997
decision_type=2 2 2 2 2 2 2 2 2 2 2 2 2 2 2 2 2 2 2 2 2 2 2 2 2 2 2 2 2 2
left_child=2 -2 -1 5 -5 -4 8 -8 10 -10 16 -9 13 14 -11 -14 17 18 20 -18 -7 24 23 -23 -13 -26 27 29 -29 -22
right_child=1 -3 3 4 -6 6 7 11 9 12 -12 21 15 -15 -16 -17 19 -19 -20 -21 26 22 -24 -25 25 -27 -28 28 -30 -31
leaf_value=0.00066413219855779694 3.4468062406617786e-05 -0.0012401397393114167 3.7572455612038154e-06 -0.00076383625483140353 0.0018800540655502119 0.001215466493886197 0.0026095827048740593 -0.0012901607232855723 -0.0018491036587229539 -7.5882801034245732e-05 0.0012999292710985713 5.9497833588312759e-05 -0.0019170063763989935 0.0018958063060563292 -0.0015821500198217109 -0.00047926668920808877 3.1482833375256243e-05 0.0014715366152813659 -0.0017729474886906363 -0.0019571360768707194 -0.00082902311149362371 0.0042456143357412655 -0.00013373921247820906 1.8961843219585719e-05 -0.0020415228978630955 -6.4726518758106985e-07 -0.0010120298359162496 -0.00099999580731188558 0.0033191464698757046 3.7331940223960251e-05
leaf_weight=38 67 20 20688 25 20 20 23 21 31 82 27 166 21 20 20 80 56 36 31 27 79 20 149 25 21 24 26 24 20 391
leaf_count=38 67 20 20688 25 20 20 23 21 31 82 27 166 21 20 20 80 56 36 31 27 79 20 149 25 21 24 26 24 20 391
internal_value=0 -0.000258545 1.01272e-06 -1.23735e-07 0.000411226 -9.60266e-07 -6.87352e-05 0.000145602 -0.000165847 -0.000534921 -3.86486e-05 1.25703e-05 -0.000352232 4.15869e-07 -0.000371229 -0.000778203 -8.95523e-05 -1.99402e-05 -0.000110792 -0.000615417 -1.87794e-05 8.01193e-05 0.000337419 0.00189747 -0.00015645 -0.000953056 -6.44922e-05 -1.65623e-05 0.000963251 -0.000108289
internal_weight=0 87 22211 22173 45 22128 1440 449 991 254 737 426 223 122 102 101 710 627 591 83 560 405 194 45 211 45 540 514 44 470
internal_count=22298 87 22211 22173 45 22128 1440 449 991 254 737 426 223 122 102 101 710 627 591 83 560 405 194 45 211 45 540 514 44 470
shrinkage=0.05


Tree=161
num_leaves=31
num_cat=0
split_feature=3 13 28 23 30 24 1 1 1 30 7 27 27 27 0 24 18 15 12 6 16 20 24 18 21 0 12 30 8 27
split_gain=0.00210884 0.0244057 0.00304671 0.00305336 0.0025301 0.0328117 0.0300415 0.0290075 0.0255652 0.0256319 0.0405883 0.0351871 0.0632395 0.278034 0.0474292 0.0295703 0.0517381 0.0831783 0.0305412 0.0393526 0.0559652 0.0220865 0.0180347 0.0155553 0.0189252 0.0358907 0.0196137 0.0172934 0.0535026 0.029784
threshold=6.5747000000000008e-06 -2.0257349999999996 -5.6168899999999988 -0.00093717949999999985 0.15853500000000012 -3.0142549999999995e-05 -6.3033449999999993 -6.5513949999999994 -18.040299999999995 -0.2305749999999995 0.00036641550000000004 -0.10523999999999999 0.17708600000000005 0.018490999999999928 10.204500000000001 2.2169050000000001e-07 0.0022654500000000004 -0.15021549999999997 1.4885450000000002e-06 3.9336850000000003e-05 0.43155050000000006 -0.00061194249999999993 2.5183500000000006e-06 0.009019095000000003 0.89960450000000003 -3.9441399999999995 0.0074218000000000001 1.7335450000000006 3.2447950000000008e-06 0.40211800000000014
decision_type=2 2 2 2 2 2 2 2 2 2 2 2 2 2 2 2 2 2 2 2 2 2 2 2 2 2 2 2 2 2
left_child=1 -1 3 -2 8 -6 7 21 -4 -10 11 -11 13 14 -13 18 17 -17 19 20 -12 -7 -18 24 -23 -26 -27 28 29 -25
right_child=2 -3 4 -5 5 6 -8 -9 9 10 15 12 -14 -15 -16 16 22 -19 -20 -21 -22 23 -24 27 25 26 -28 -29 -30 -31
leaf_value=0.0017888089079860948 -0.00083847567846532904 -0.00017157656822108677 0.001799694959772751 -0.00013448647315719917 0.0017519664395457277 0.0012638615503281912 0.0016699231247632549 -0.0016997932944062856 -9.7336256112401958e-06 -0.00013530131987244339 0.00056684943520748574 0.00043577048594524318 -0.00013097604216874551 0.0059302196696600215 0.0026184513000771406 6.16698125199946e-05 -0.0012988512093434111 0.0043877666839398444 -2.4353785887098232e-05 -0.002780378053284949 -0.0026119599280355031 -2.2971691441412275e-05 0.00056483996600878461 -0.0020178621159743673 0.0025260049045928534 -0.0007444995230123882 0.0010988207211842869 -0.00011160949944690812 0.00085198307229132446 -0.00032797778820333243
leaf_weight=20 20 77 20 67 26 33 26 26 12582 141 45 224 130 28 28 25 25 20 393 24 20 7704 27 64 21 31 27 342 38 44
leaf_count=20 20 77 20 67 26 33 26 26 12582 141 45 224 130 28 28 25 25 20 393 24 20 7704 27 64 21 31 27 342 38 44
internal_value=0 0.000232627 -1.01639e-06 -0.000296323 1.45398e-07 -2.15016e-05 -2.70198e-05 -3.23164e-05 1.33587e-05 1.07532e-05 0.000238864 0.000546045 0.000780362 0.00120348 0.000678291 -5.34622e-05 0.000743056 0.00198438 -0.000213757 -0.00105011 -0.000411246 -2.70955e-05 -0.000331165 -3.22462e-05 -1.50763e-05 0.000754871 0.000113598 -0.000306085 -0.000761636 -0.00132939
internal_weight=0 97 22201 87 22114 8382 8356 8330 13732 13712 1130 551 410 280 252 579 97 45 482 89 65 8304 52 8271 7783 79 58 488 146 108
internal_count=22298 97 22201 87 22114 8382 8356 8330 13732 13712 1130 551 410 280 252 579 97 45 482 89 65 8304 52 8271 7783 79 58 488 146 108
shrinkage=0.05


Tree=162
num_leaves=31
num_cat=0
split_feature=13 3 12 2 20 21 30 5 27 27 1 30 17 15 14 1 3 18 16 2 12 24 18 15 1 30 16 3 3 30
split_gain=0.00216117 0.0144346 0.00270822 0.00369493 0.00236448 0.00938002 0.0710921 0.00992487 0.0291012 0.0490294 0.0283357 0.176559 0.0144754 0.0143349 0.0106636 0.0110758 0.0101072 0.0101056 0.00828544 0.00892494 0.0710813 0.22646 0.0152697 0.0144226 0.0108698 0.0254298 0.0101713 0.00626356 0.018997 0.0320453
threshold=-3.0876849999999996 9.4493450000000026e-06 2.1900450000000003e-07 0.051078050000000007 -1.6533899999999998e-05 0.053643450000000002 -0.13525000000000006 0.00036775100000000009 0.15228 -0.083779999999999841 -16.595249999999997 -0.050375000000001162 -0.038591249999999994 1.0719600000000002 -22.260449999999995 -11.834549999999998 1.6497100000000005e-05 0.026447350000000005 98.768400000000014 0.38662550000000001 7.0224700000000019e-05 3.3346300000000002e-06 0.0035462900000000001 0.32675550000000003 -15.200249999999999 0.63181500000000013 24.120400000000004 1.3846450000000002e-05 1.3494650000000001e-05 -4.8593899999999985
decision_type=2 2 2 2 2 2 2 2 2 2 2 2 2 2 2 2 2 2 2 2 2 2 2 2 2 2 2 2 2 2
left_child=1 -1 3 -3 5 6 -2 10 9 -9 11 -7 -13 17 15 -12 -14 -10 19 24 21 22 23 -21 25 -16 -22 28 -26 -30
right_child=4 2 -4 -5 -6 7 -8 8 13 -11 14 12 16 -15 18 -17 -18 -19 -20 20 26 -23 -24 -25 27 -27 -28 -29 29 -31
leaf_value=0.0013714397003323857 0.0001023459271737261 -2.8821323946561152e-05 -9.3282256290681947e-05 0.0008609937467917916 5.6578488668359845e-06 0.0050423659061198129 -0.0028539630718951228 0.00011113615685396574 -7.8147001005100024e-05 -0.0033094175485894085 -0.0015575106430333109 -0.001331023907987401 -0.00025585847674254022 -0.0012375048024114222 -0.0016088886605252304 -0.00026025158557259651 0.00097749376162447818 0.001096885540173389 -0.00076205917284823956 -6.1722116878645112e-05 -4.3285003961531003e-05 0.0051070100812498354 -0.0011399477324587116 0.0014951874251718914 -6.8022330097637925e-05 0.00012677338765534646 -0.00096713250701441211 5.2794090934785604e-05 7.3377707463805568e-05 -0.0026118026819312947
leaf_weight=22 109 28 140 20 18524 20 25 22 215 20 21 20 46 25 36 76 26 20 36 51 432 29 21 21 925 51 32 1240 25 20
leaf_count=22 109 28 140 20 18524 20 25 22 215 20 21 20 46 25 36 76 26 20 36 51 432 29 21 21 925 51 32 1240 25 20
internal_value=0 0.000159643 1.7837e-05 0.000341935 -1.51779e-06 -3.88134e-05 -0.000449204 -2.27807e-05 -0.000296506 -0.0015177 3.64681e-06 0.000784573 -0.000141034 -9.92366e-05 -2.53531e-05 -0.000541101 0.000189519 2.18558e-05 -8.2145e-06 1.19875e-06 0.000175372 0.00124931 4.63678e-05 0.000392376 -4.32356e-05 -0.000591432 -0.000106999 -2.1655e-05 -0.000116827 -0.00112004
internal_weight=0 210 188 48 22088 3564 134 3430 302 42 3128 112 92 260 3016 97 72 235 2919 2883 586 122 93 72 2297 87 464 2210 970 45
internal_count=22298 210 188 48 22088 3564 134 3430 302 42 3128 112 92 260 3016 97 72 235 2919 2883 586 122 93 72 2297 87 464 2210 970 45
shrinkage=0.05


Tree=163
num_leaves=31
num_cat=0
split_feature=31 6 23 24 4 1 19 4 22 14 24 14 26 21 14 6 1 21 17 7 14 14 14 27 27 6 21 15 5 25
split_gain=0.00201413 0.00916271 0.00602029 0.00287973 0.0287581 0.00252951 0.024598 0.0798581 0.0186511 0.03078 0.0150554 0.0134538 0.0140379 0.0116574 0.0164328 0.017748 0.00964677 0.0553333 0.00760751 0.00683317 0.0262987 0.0102004 0.0157566 0.0115412 0.0532325 0.0134341 0.00442241 0.00350389 0.00315533 0.0297393
threshold=17.53988 3.0064400000000003e-05 -6.5773949999999992 0.00055018350000000016 -3.4101899999999997e-06 -14.840249999999999 2.8296000000000006 -0.00014544699999999996 -0.0083075449999999978 -16.521049999999999 -1.9852999999999999e-06 -19.721699999999995 0.024472600000000004 1.39436 -17.905199999999997 6.1414250000000009e-05 -14.694299999999997 0.40469050000000006 2.4687050000000004 0.0025915450000000002 -14.283699999999998 -14.134549999999999 -17.037399999999995 0.32697800000000021 1.0000000180025095e-35 -9.170209999999998e-06 0.26969300000000002 0.53814100000000009 0.00024559750000000008 -0.53959199999999985
decision_type=2 2 2 2 2 2 2 2 2 2 2 2 2 2 2 2 2 2 2 2 2 2 2 2 2 2 2 2 2 2
left_child=2 -2 -1 5 -5 6 8 -8 9 -4 -11 -10 13 14 15 -13 17 -7 28 20 -16 22 -21 24 25 -24 -27 -12 -18 -30
right_child=1 -3 3 4 -6 16 7 -9 11 10 27 12 -14 -15 19 -17 18 -19 -20 21 -22 -23 23 -25 -26 26 -28 -29 29 -31
leaf_value=0.00062974413889797267 4.0242526367039133e-05 -0.0011792783736018465 -0.0018365731804907328 0.0017507002389590656 -0.00078291599954051581 -0.00014142068117507732 0.0035256358157494103 -0.00036041180973347183 0.0010825839777714498 -0.0011898685501500318 2.8019065448764501e-05 -0.0017116060946136713 -0.0011952712567178355 0.0010259101412465009 0.0014250404929789977 9.2220967169851065e-05 -3.0631623855779971e-06 0.0028406681431806646 -0.00072374579870787179 0.00073818922985213124 -1.0012738432992179e-05 -4.9001979273925359e-07 -0.0014334625346929812 -9.590384599418724e-05 -0.0032031198497861624 -0.00025626630039451731 0.00064043603037134745 -0.00057236238679816498 0.0018502339213939747 4.2162137365900549e-05
leaf_weight=38 67 20 36 21 24 70 20 39 27 36 150 30 26 26 39 25 17662 20 36 28 176 1409 21 84 20 44 20 29 23 2032
leaf_count=38 67 20 36 21 24 70 20 39 27 36 150 30 26 26 39 25 17662 20 36 28 176 1409 21 84 20 44 20 29 23 2032
internal_value=0 -0.000240107 9.40495e-07 -1.37147e-07 0.000399438 -9.49732e-07 -5.07667e-05 0.000956892 -7.74747e-05 -0.000483456 -0.000256888 -2.5879e-05 -4.12428e-05 -2.56315e-05 -4.00514e-05 -0.000891685 4.78689e-06 0.000521266 2.43368e-06 -1.46088e-05 0.000250299 -4.96366e-05 -0.00036875 -0.000532741 -0.000882211 -0.000336114 2.39532e-05 -6.92494e-05 3.75956e-06 6.23985e-05
internal_weight=0 87 22211 22173 45 22128 2285 59 2226 251 215 1975 1948 1922 1896 55 19843 90 19753 1841 215 1626 217 189 105 85 64 179 19717 2055
internal_count=22298 87 22211 22173 45 22128 2285 59 2226 251 215 1975 1948 1922 1896 55 19843 90 19753 1841 215 1626 217 189 105 85 64 179 19717 2055
shrinkage=0.05


Tree=164
num_leaves=31
num_cat=0
split_feature=7 13 3 14 15 16 6 30 22 25 12 0 27 8 15 27 30 11 16 11 7 2 2 15 9 8 27 27 26 7
split_gain=0.00203049 0.00615051 0.00299323 0.0247071 0.0258371 0.0367202 0.0111504 0.0308194 0.00587056 0.00336874 0.0189728 0.0254775 0.0268065 0.0265853 0.00866355 0.0448135 0.0724061 0.00899466 0.00368964 0.0580035 0.0398392 0.105351 0.0397381 0.0331283 0.0176852 0.0144681 0.019245 0.0389996 0.0073194 0.0585761
threshold=0.29326150000000006 -2.5065799999999991 7.9071800000000014e-06 -19.721699999999995 -0.89426549999999982 9.9858350000000016 4.6013400000000009e-05 4.7664700000000009 -0.038388149999999989 5.6022800000000013 0.0061489100000000014 -1.7109999999999996 0.27705850000000004 1.5142100000000003e-08 -1.7158549999999997 0.55730000000000002 -2.3569649999999998 -9.3234549999999983e-06 31.457550000000005 0.0065932650000000009 0.0052645550000000015 -0.80630149999999989 -1.9695049999999996 -0.89426549999999982 3.7827900000000002e-06 -8.8324949999999983e-08 0.42748950000000019 -1.0284721499999996 0.061935000000000011 0.0038630000000000005
decision_type=2 2 2 2 2 2 2 2 2 2 2 2 2 2 2 2 2 2 2 2 2 2 2 2 2 2 2 2 2 2
left_child=2 -2 3 -1 -5 6 8 -8 -6 14 11 13 -13 -11 15 16 -4 -17 28 20 21 -20 -22 -24 25 26 27 -23 -16 -30
right_child=1 -3 9 4 5 -7 7 -9 -10 10 -12 12 -14 -15 18 17 -18 -19 19 -21 22 24 23 -25 -26 -27 -28 -29 29 -31
leaf_value=0.0018346548697445544 -0.00071266976586999728 -4.4147756225450156e-05 -0.00016994509023788852 -0.0016340283587024632 -0.00086881103372434161 0.0019877172900596633 0.0022828660855157066 -0.00017758454258260566 2.3424583441815659e-06 -0.0020893183246482208 -0.0015244845160244345 0.002065920507387394 -0.00032282357595091605 0.00014923325110834817 -2.1954307192201065e-06 -0.0013675483100814745 0.0038663108984474098 -7.5084571548241889e-06 0.0033082217835313219 0.0020489321277377065 -0.00028724829787948555 8.5413433262147015e-05 -0.0010074253145086749 -0.003819118273975164 -0.001503244412661944 0.00014118514823698586 -1.7042927925103869e-05 -0.0030370702571235596 -0.0002788210765619953 0.0015259990284186755
leaf_weight=20 39 292 25 22 20 25 20 35 585 21 24 24 23 36 20391 20 20 31 22 28 53 20 22 20 27 154 52 20 141 66
leaf_count=20 39 292 25 22 20 25 20 35 585 21 24 24 23 36 20391 20 20 31 22 28 53 20 22 20 27 154 52 20 141 66
internal_value=0 -0.000122916 1.85211e-06 0.000101614 5.25888e-05 0.000106758 3.55091e-05 0.000717125 -2.6456e-05 -1.56253e-06 -0.000257295 3.51333e-05 0.000896961 -0.000675496 -1.20481e-08 0.000473894 0.00162395 -0.000540857 -2.17683e-06 -0.000149242 -0.00030706 -2.02833e-05 -0.00119758 -0.00234633 -0.000288514 -0.00015519 -0.000651297 -0.00147583 8.07609e-07 0.000296629
internal_weight=0 331 21967 727 707 685 660 55 605 21240 128 104 47 57 21112 96 45 51 21016 418 390 295 95 42 273 246 92 40 20598 207
internal_count=22298 331 21967 727 707 685 660 55 605 21240 128 104 47 57 21112 96 45 51 21016 418 390 295 95 42 273 246 92 40 20598 207
shrinkage=0.05


Tree=165
num_leaves=31
num_cat=0
split_feature=0 5 30 9 17 23 1 25 25 2 9 23 17 0 23 14 1 8 28 27 6 30 26 4 22 22 15 4 23 30
split_gain=0.00196019 0.0171764 0.0270178 0.00215283 0.0240869 0.019076 0.0268274 0.0262143 0.015998 0.0470107 0.147986 0.0212247 0.0158537 0.0420289 0.0154961 0.0157606 0.13668 0.0141847 0.0130706 0.0982754 0.0818812 0.0953536 0.109319 0.0444075 0.0419784 0.0196899 0.0121961 0.0114849 0.0114685 0.0107263
threshold=-13.827499999999999 -3.3415499999999992e-05 -2.7105149999999987 2.8897400000000008e-07 -1.7215749999999999 -0.050101599999999989 -16.800649999999994 -0.9832439999999999 0.14223350000000004 -0.58587599999999995 3.1510150000000005e-05 0.46573400000000004 -0.17339299999999999 -5.879014999999999 0.0082214700000000016 -20.583799999999997 -13.758599999999999 -3.1910449999999996e-07 -0.22897950000000003 -0.20585514999999996 -2.9418749999999997e-05 -2.4188749999999994 0.0055993150000000014 9.8706500000000018e-06 0.008142095000000002 -0.0076684649999999993 1.7310850000000002 7.3425750000000008e-05 0.37482500000000002 -7.4657049999999989
decision_type=2 2 2 2 2 2 2 2 2 2 2 2 2 2 2 2 2 2 2 2 2 2 2 2 2 2 2 2 2 2
left_child=1 -1 -3 14 -5 6 -6 -7 11 10 -10 12 13 -9 15 16 -2 -11 -16 -20 -21 25 23 24 -23 -22 -8 -15 -14 -27
right_child=3 2 -4 4 5 7 26 8 9 17 -12 -13 28 27 18 -17 -18 -19 19 20 21 22 -24 -25 -26 29 -28 -29 -30 -31
leaf_value=-1.1208442375236879e-05 0.0042435259157736303 -6.6059602213499607e-05 0.002399504878366088 0.0013881101779588791 -0.0019805907238902446 0.0016481000609928744 -0.00014748233618713141 0.0027069307817873776 0.0048367447748949586 0.0011056067082972733 -0.00078598954761400835 -0.0012304811183746686 1.0248439312648926e-05 -0.00046392430706059955 -1.6898033018109402e-05 2.1087256981375747e-06 -0.0001898227775749511 -0.00038892623034170556 -3.1903010797342217e-05 0.0015615853779970415 -0.0015664521986244444 -0.0037437096025377255 -0.0055556857862975456 0.0002197838854044676 -0.00076610649615759029 -0.00059074111881532844 -0.0013123025154830733 0.00099307405457477139 0.001128564937212302 0.00090412934847076292
leaf_weight=332 21 25 20 32 23 25 353 20 22 20 25 34 7060 38 1034 11972 101 77 809 22 21 29 25 21 20 21 24 21 23 28
leaf_count=332 21 25 20 32 23 25 353 20 22 20 25 34 7060 38 1034 11972 101 77 809 22 21 29 25 21 20 21 24 21 23 28
internal_value=0 0.000113044 0.00102975 -1.94414e-06 1.91451e-05 1.35035e-05 -0.000322775 3.17671e-05 2.62619e-05 0.00054808 0.00184593 1.58197e-05 2.17362e-05 0.000726127 -1.35862e-05 7.87065e-06 0.000573295 -8.07751e-05 -0.000141418 -0.000270689 -0.00130373 -0.00168577 -0.00271754 -0.00170392 -0.00252836 -0.000285506 -0.000221635 5.46683e-05 1.38798e-05 0.000263471
internal_weight=0 377 45 21921 7797 7765 400 7365 7340 144 47 7196 7162 79 14124 12094 122 97 2030 996 187 165 95 70 49 70 377 59 7083 49
internal_count=22298 377 45 21921 7797 7765 400 7365 7340 144 47 7196 7162 79 14124 12094 122 97 2030 996 187 165 95 70 49 70 377 59 7083 49
shrinkage=0.05


Tree=166
num_leaves=31
num_cat=0
split_feature=13 11 2 13 27 8 12 25 6 30 25 1 1 30 7 27 27 27 0 1 24 18 25 12 10 24 27 3 14 3
split_gain=0.00194251 0.0156466 0.0441736 0.00229773 0.0272252 0.00287772 0.0103233 0.00364978 0.00515572 0.002591 0.0346305 0.0267127 0.0259689 0.0231962 0.0373588 0.0349095 0.0578144 0.247847 0.0417444 0.0255696 0.0253019 0.0442826 0.0713845 0.0271634 0.0498261 0.0509498 0.0209297 0.0168239 0.0156098 0.013018
threshold=-3.0876849999999996 1.2576750000000002e-06 0.53187750000000011 -2.8800399999999997 0.17708600000000005 -8.7450849999999993e-06 0.00090115950000000007 -0.0061266999999999997 2.2830550000000005e-05 0.15853500000000012 -0.9832439999999999 -6.3033449999999993 -6.5513949999999994 -0.2305749999999995 0.00036641550000000004 -0.10523999999999999 0.17708600000000005 0.018490999999999928 10.204500000000001 -17.737349999999996 2.2169050000000001e-07 0.0022654500000000004 0.00084832350000000006 1.4885450000000002e-06 1.2373100000000001e-07 -2.2968999999999995e-08 -0.17853299999999997 1.2219250000000002e-05 -6.0025199999999987 1.7601900000000002e-05
decision_type=2 2 2 2 2 2 2 2 2 2 2 2 2 2 2 2 2 2 2 2 2 2 2 2 2 2 2 2 2 2
left_child=1 -1 -3 4 -2 6 -6 8 -7 13 -11 12 -12 19 15 -15 17 18 29 -5 23 22 -22 24 25 27 -23 -16 -21 -17
right_child=3 2 -4 9 5 7 -8 -9 -10 10 11 -13 -14 14 20 16 -18 -19 -20 28 21 26 -24 -25 -26 -27 -28 -29 -30 -31
leaf_value=-0.00014406876661792966 -0.0013934062840570208 0.0026820057097471104 -8.5575543542527955e-05 0.0017812347321887502 0.0012499816398121766 -4.383272296700884e-05 -2.5001172992221666e-05 -1.2185666630303616e-05 -0.0010873482501483523 0.0017343940591672436 -2.709735859617443e-05 0.0015730559208000509 -0.0016098308159808558 -0.00014135213891829383 -0.00031474058071034958 0.00022735160310951511 -0.00012925335434973509 0.0056331055935256056 0.0024873306964374418 -5.4599399879526574e-06 0.0039592087501659993 0.00094220861821668232 3.9763655135734906e-05 -1.9156772258782724e-05 -0.0031179748794307842 -0.0024404341881745497 -0.0011196716122867656 0.0015810972092202228 -0.0012561310079181568 0.0011457595586343815
leaf_weight=143 38 21 46 20 20 29 77 394 20 28 8078 26 26 142 25 169 123 28 28 12195 21 20 26 385 21 20 32 22 25 50
leaf_count=143 38 21 46 20 20 29 77 394 20 28 8078 26 26 142 25 169 123 28 28 12195 21 20 26 385 21 20 32 22 25 50
internal_value=0 0.000151351 0.000781875 -1.43896e-06 -9.98169e-05 -8.78653e-06 0.000237882 -6.27974e-05 -0.000469757 1.20457e-06 -2.0996e-05 -2.70416e-05 -3.21752e-05 1.4769e-05 0.000233416 0.00053169 0.00077182 0.00117485 0.000669456 -5.09498e-06 -4.81713e-05 0.000678706 0.00179101 -0.000200308 -0.000992847 -0.000326762 -0.000326641 0.000572673 -8.0186e-06 0.000437034
internal_weight=0 210 67 22088 578 540 97 443 49 21510 8158 8130 8104 13352 1112 540 398 275 247 12240 572 99 47 473 88 67 52 47 12220 219
internal_count=22298 210 67 22088 578 540 97 443 49 21510 8158 8130 8104 13352 1112 540 398 275 247 12240 572 99 47 473 88 67 52 47 12220 219
shrinkage=0.05


Tree=167
num_leaves=31
num_cat=0
split_feature=31 14 27 16 4 1 20 5 23 22 24 25 14 21 20 18 4 8 14 25 11 2 1 27 4 8 27 27 19 10
split_gain=0.00193444 0.0177189 0.132496 0.0057806 0.0173446 0.00409651 0.0127559 0.0204788 0.0296497 0.0169646 0.0157571 0.0222805 0.0320037 0.0073258 0.0117813 0.00405425 0.0045044 0.00747264 0.0033629 0.00335849 0.0409445 0.21482 0.055155 0.030887 0.0163134 0.0170235 0.0125039 0.0511645 0.00392032 0.0159761
threshold=9.8270300000000024 -20.583799999999997 -0.12773199999999993 4.6772150000000012 -7.3782499999999987e-05 -16.007699999999996 5.5831300000000009e-05 -0.00037099949999999996 0.027112500000000001 0.15897500000000001 4.4574250000000016e-06 -0.037426999999999995 -17.905199999999997 0.78355150000000007 -4.6269849999999992e-05 0.34507250000000006 1.2699150000000002e-05 1.7675100000000003e-08 -19.339499999999997 0.16628250000000003 -9.3401849999999987e-05 -1.4317549999999997 -12.457899999999997 0.37778215000000021 -6.2562199999999992e-06 -2.4590199999999995e-07 0.32697800000000021 -0.28372000000000014 -1.4106449999999999 3.4581500000000005e-06
decision_type=2 2 2 2 2 2 2 2 2 2 2 2 2 2 2 2 2 2 2 2 2 2 2 2 2 2 2 2 2 2
left_child=1 2 -1 -2 -5 6 9 -8 -9 10 11 -3 -13 14 -14 16 -6 -18 -7 28 21 22 -21 -24 26 -26 27 -22 29 -20
right_child=3 5 -4 4 15 18 7 8 -10 -11 -12 12 13 -15 -16 -17 17 -19 19 20 24 -23 23 -25 25 -27 -28 -29 -30 -31
leaf_value=-0.0014125813971846723 -4.9371502646028553e-06 0.001497580306591851 0.0039272024983628877 -0.0011882439615789715 -8.5590659274127961e-06 -0.00029440032725726382 0.00058934057226658551 -0.0024033886471038894 -0.00010092272142205261 0.0013317853044265411 -0.0013376325562906763 -0.0014824580712182722 0.0010058367408679002 -0.0008257733418888945 -3.2482480526988533e-05 0.00033397482130870536 -0.0012557299693783178 -0.00010805745700349075 -0.00026480019369181377 0.0019801098021811673 -0.00025540943022686608 0.0046115705780296898 -0.0019918032391745199 0.00010877460640455995 0.0014512508515864561 2.4850789158300398e-05 -1.0839159252403381e-05 -0.0031098388973623513 9.3109908005681033e-06 0.00030950978555224843
leaf_weight=26 961 23 21 43 109 92 22 27 29 22 24 39 28 28 1124 45 23 37 471 21 73 30 35 35 23 231 78 20 18395 163
leaf_count=26 961 23 21 43 109 92 22 27 29 22 24 39 28 28 1124 45 23 37 471 21 73 30 35 35 23 231 78 20 18395 163
internal_value=0 3.53999e-06 0.000973279 -6.12669e-05 -0.000271901 1.37303e-06 -8.23548e-05 -0.000703241 -0.00121104 -4.47546e-05 -6.86755e-05 -4.41546e-05 -7.3244e-05 -2.66682e-05 -7.24556e-06 -8.77756e-05 -0.000200076 -0.000547999 7.18847e-06 8.6059e-06 0.000130871 0.000942342 -0.000267293 -0.000941514 -0.00010016 0.000154013 -0.000477702 -0.000869265 5.09774e-06 -0.000117146
internal_weight=0 21080 47 1218 257 21033 1366 78 56 1288 1266 1242 1219 1180 1152 214 169 60 19667 19575 546 121 91 70 425 254 171 93 19029 634
internal_count=22298 21080 47 1218 257 21033 1366 78 56 1288 1266 1242 1219 1180 1152 214 169 60 19667 19575 546 121 91 70 425 254 171 93 19029 634
shrinkage=0.05


Tree=168
num_leaves=31
num_cat=0
split_feature=31 6 21 0 1 20 30 14 14 30 20 8 1 22 20 27 27 11 27 25 0 30 23 30 30 30 31 22 30 2
split_gain=0.00185014 0.00794081 0.00528428 0.0433942 0.00205551 0.0481508 0.0178524 0.0329228 0.0204111 0.016031 0.0119229 0.0217206 0.00871777 0.0509145 0.0068976 0.0122414 0.0601658 0.0140767 0.00808819 0.00740638 0.0454817 0.00651442 0.0347208 0.0213227 0.0196553 0.015453 0.0207304 0.042614 0.0134001 0.0142318
threshold=17.53988 3.0064400000000003e-05 70.125000000000014 -2.0079599999999993 -14.840249999999999 -0.00056516949999999987 -3.9449699999999996 -19.339499999999997 -17.905199999999997 -2.2622050000000002 -7.2762799999999994e-05 1.5404300000000002e-07 -14.694299999999997 -0.0017273849999999999 -0.00056516949999999987 0.17708600000000005 -0.41026000000000001 0.00017980050000000001 0.7556963000000001 -0.9832439999999999 2.0908400000000005 0.569635 -0.0016749049999999998 0.95305000000000029 1.2332400000000006 2.1794250000000002 -1.6253349999999995 -0.00057976149999999988 0.24047499999999958 -0.24514199999999997
decision_type=2 2 2 2 2 2 2 2 2 2 2 2 2 2 2 2 2 2 2 2 2 2 2 2 2 2 2 2 2 2
left_child=2 -2 4 -4 5 -1 -7 -8 9 -9 11 -10 13 -6 15 16 -14 18 -17 20 -16 22 -12 -23 -25 26 27 -26 29 -24
right_child=1 -3 3 -5 12 6 7 8 10 -11 21 -13 14 -15 19 17 -18 -19 -20 -21 -22 23 28 24 25 -27 -28 -29 -30 -31
leaf_value=0.0023380194294510318 3.0863139458667879e-05 -0.0011044341219530907 -0.00089010940937441776 0.0018451717642039575 0.0027206730912439528 -0.001345259240500767 0.0017170310407751599 -1.9232103659305723e-05 -0.0015354776232723252 -0.0015873435251146128 0.0016997570667573363 0.00028617658292811639 -2.9010157121102446e-05 -0.00013986796460812914 -0.00050165101118701777 -0.0010816277875121507 -0.0031435947761929133 0.0012123050947030565 -7.5520957597171155e-06 4.2082148741113774e-06 0.0024873144814046102 -0.0013959683976407116 -0.0011158636977549913 0.0012188234337226012 -0.0027606373091946176 -1.7796815901843389e-05 0.00029786259363069855 -3.5436777551467458e-05 0.00096472190174002519 0.00010219974507400857
leaf_weight=21 67 20 29 29 20 27 26 28 36 39 34 30 69 70 35 21 20 21 106 19480 20 29 38 31 26 1771 34 32 24 65
leaf_count=21 67 20 29 29 20 27 26 28 36 39 34 30 69 70 35 21 20 21 106 19480 20 29 38 31 26 1771 34 32 24 65
internal_value=0 -0.000230125 9.01394e-07 0.000477531 -3.46497e-07 -4.51913e-05 -6.72386e-05 -5.18545e-05 -7.25992e-05 -0.000932013 -4.58175e-05 -0.000707453 4.82617e-06 0.000495808 2.59127e-06 -0.000265527 -0.000728917 1.31331e-05 -0.000185155 5.8441e-06 0.000585246 -2.48636e-05 0.000280654 -5.04425e-05 -2.98405e-05 -5.0618e-05 -0.000682426 -0.00125708 -9.92639e-05 -0.000347183
internal_weight=0 87 22211 58 22153 2291 2270 2243 2217 67 2150 66 19862 90 19772 237 89 148 127 19535 55 2084 161 1923 1894 1863 92 58 127 103
internal_count=22298 87 22211 58 22153 2291 2270 2243 2217 67 2150 66 19862 90 19772 237 89 148 127 19535 55 2084 161 1923 1894 1863 92 58 127 103
shrinkage=0.05


Tree=169
num_leaves=31
num_cat=0
split_feature=6 17 24 20 17 5 23 5 3 15 27 19 27 5 27 2 24 0 27 27 4 11 27 27 3 1 13 4 27 13
split_gain=0.00183795 0.00545155 0.00536172 0.00966816 0.00188984 0.0104892 0.0253332 0.024323 0.0463294 0.0134285 0.012793 0.0269791 0.0128667 0.0136778 0.0119477 0.0115175 0.00913217 0.0585299 0.0149392 0.0930999 0.0506612 0.0497505 0.0341063 0.0208312 0.158358 0.0155052 0.0285487 0.035755 0.0237181 0.00779132
threshold=-8.9356999999999992e-05 0.081293750000000012 8.3435600000000017e-07 1.40018e-05 -0.025653649999999997 -0.00021567299999999997 0.46573400000000004 -0.00017397549999999997 1.3543800000000002e-05 -1.0289099999999998 -0.28372000000000014 -0.44464949999999998 -0.10523999999999999 -0.00025192599999999992 -0.48849150000000002 -0.71503399999999984 0.0003225765000000001 0.45038550000000005 1.0000000180025095e-35 0.046556600000000024 9.4293650000000008e-06 -7.9581749999999977e-06 0.12853499999999998 0.25136499999999989 1.5522700000000003e-05 -12.527449999999998 -2.1928699999999997 -3.076754999999999e-05 -0.51639999999999986 -1.8101349999999998
decision_type=2 2 2 2 2 2 2 2 2 2 2 2 2 2 2 2 2 2 2 2 2 2 2 2 2 2 2 2 2 2
left_child=1 2 3 -1 5 6 9 8 -7 -2 14 -12 -13 -14 -11 -8 18 -18 20 -20 25 -22 -21 24 -24 28 27 -27 -9 -28
right_child=4 -3 -4 -5 -6 7 15 16 -10 10 11 12 13 -15 -16 -17 17 -19 19 22 21 -23 23 -25 -26 26 29 -29 -30 -31
leaf_value=-1.087978707801085e-05 0.0010664069601757961 -0.00093484914556029263 0.00070700898751965727 -0.0011888270794588607 7.0005882500771942e-06 0.002762229179295347 -0.0021734023872894519 -0.00025390833739388308 3.2982321636154664e-05 -9.4041006855695756e-05 -0.0021943078760523352 -0.0013414161003893242 3.6530806471823673e-05 -0.001177952270167966 0.0009288139308944517 -0.0005327951835351996 0.0024284406385850165 -0.00075851023053366909 0.0028888374518438861 -0.0016885532469799122 -0.0037490434141363954 -0.00030342630290595648 0.0043318500742316251 -1.5417664987521935e-05 -0.0018155019199349973 -0.0029893799603451046 0.00034077455791328465 -0.00015303210041020066 0.0020363633270608261 -0.00020911927992453726
leaf_weight=135 22 20 20 20 19229 23 23 26 48 125 20 25 164 27 37 20 25 34 28 30 20 22 20 1697 22 20 85 25 20 266
leaf_count=135 22 20 20 20 19229 23 23 26 48 125 20 25 164 27 37 20 25 34 28 30 20 22 20 1697 22 20 85 25 20 266
internal_value=0 -0.000152831 -6.34579e-05 -0.000162873 1.34833e-06 -3.64691e-05 -0.000254444 5.38998e-06 0.000917105 -0.000136103 -0.000202573 -0.000437437 -0.000274764 -0.00013515 0.000139574 -0.00141033 -2.22732e-05 0.000591893 -3.81591e-05 2.82488e-05 -0.000284719 -0.0019442 -1.70291e-05 1.18069e-05 0.00111181 -0.000127031 -0.000227963 -0.00141363 0.000741862 -7.59541e-05
internal_weight=0 195 175 155 22103 2874 463 2411 71 420 398 236 216 191 162 43 2340 59 2281 1797 484 42 1769 1739 42 442 396 45 46 351
internal_count=22298 195 175 155 22103 2874 463 2411 71 420 398 236 216 191 162 43 2340 59 2281 1797 484 42 1769 1739 42 442 396 45 46 351
shrinkage=0.05


Tree=170
num_leaves=31
num_cat=0
split_feature=3 14 28 23 20 11 1 1 27 1 18 1 8 14 7 15 1 2 1 13 1 7 0 11 2 2 0 27 12 30
split_gain=0.00184636 0.0235054 0.00280579 0.00270699 0.00199118 0.00761148 0.00844771 0.00706006 0.0239193 0.00837678 0.038901 0.0089271 0.0309199 0.00673116 0.0131146 0.00605646 0.0621518 0.109641 0.0214066 0.0206251 0.0123128 0.0211645 0.104152 0.0105272 0.0929858 0.0146449 0.0101226 0.0482153 0.0154419 0.0233259
threshold=6.5747000000000008e-06 -7.6059799999999997 -5.6168899999999988 -0.00093717949999999985 -1.1281599999999999e-05 0.10393600000000001 -13.487549999999997 -18.778949999999998 0.5067425000000001 -17.737349999999996 0.0061212100000000011 -16.895899999999994 -1.7542299999999998e-06 -22.260449999999995 0.0068924400000000005 0.74545400000000017 -13.404099999999998 0.40825900000000009 -12.761199999999999 0.25863350000000002 -12.169249999999998 0.0013165550000000003 -3.0967449999999999 0.00011633100000000002 1.3586450000000003 0.33837000000000006 2.7755050000000003 0.15228 1.8510700000000002e-05 1.1209150000000003
decision_type=2 2 2 2 2 2 2 2 2 2 2 2 2 2 2 2 2 2 2 2 2 2 2 2 2 2 2 2 2 2
left_child=1 -1 3 -2 5 7 -7 8 -4 10 -9 12 -11 14 -13 20 17 19 -18 -17 21 22 -15 25 -25 -20 28 -28 29 -23
right_child=2 -3 4 -5 -6 6 -8 9 -10 11 -12 13 -14 15 -16 16 18 -19 23 -21 -22 26 -24 24 -26 -27 27 -29 -30 -31
leaf_value=-0.0001790090391295962 -0.00079481845692498622 0.0017448778174002655 0.0018167112837199101 -0.00013196057570080011 7.8171158827264712e-06 -0.0012443131277298867 -5.9681941809899667e-05 0.00022087049635066501 -0.00056972252963792666 0.0022063971376383054 -0.0023676176294906157 -0.00010043169846516345 -6.8500169855739796e-05 -0.0037652692274302048 -0.0013992049045135411 0.0011913330930110534 -0.0015513265615521485 0.0045544008014812357 -1.6403818067742947e-05 -0.00090777673338545198 4.9673798211083114e-06 0.0011994818000797144 5.164497119981856e-05 0.0034734653460327539 -0.00050772132357286115 -0.0013167088438817503 -0.0020899825398893366 -0.00010400378143366054 -0.00014029437399711386 -0.00035929342055169406
leaf_weight=77 20 20 21 67 17548 27 34 47 21 20 21 77 59 24 26 25 23 21 370 22 2880 60 70 20 55 23 35 241 304 40
leaf_count=77 20 20 21 67 17548 27 34 47 21 20 21 77 59 24 26 25 23 21 370 22 2880 60 70 20 55 23 35 241 304 40
internal_value=0 0.000217669 -9.51032e-07 -0.000284342 1.63872e-07 -2.9249e-05 -0.000584027 -2.1737e-05 0.000623494 -2.78091e-05 -0.000578516 -1.92885e-05 0.000507423 -2.89294e-05 -0.000428277 -1.91661e-05 0.000134106 0.0015508 -6.20969e-05 0.000208771 -4.26141e-05 -0.000219661 -0.000922886 1.10917e-05 0.000553928 -9.25031e-05 -0.000122451 -0.000355849 3.69992e-05 0.000575972
internal_weight=0 97 22201 87 22114 4566 61 4505 42 4463 68 4395 79 4316 103 4213 559 68 491 47 3654 774 94 468 75 393 680 276 404 100
internal_count=22298 97 22201 87 22114 4566 61 4505 42 4463 68 4395 79 4316 103 4213 559 68 491 47 3654 774 94 468 75 393 680 276 404 100
shrinkage=0.05


Tree=171
num_leaves=31
num_cat=0
split_feature=0 5 14 12 17 27 30 3 17 27 11 24 18 3 20 8 25 7 20 14 14 9 30 24 30 30 27 27 6 14
split_gain=0.00181463 0.0155783 0.0245214 0.00301184 0.0104723 0.0614415 0.108725 0.013341 0.00762098 0.0329235 0.00660022 0.0101206 0.00641661 0.00605598 0.0209257 0.00540497 0.01116 0.0365115 0.00911638 0.00402716 0.00382948 0.0346536 0.103992 0.0162564 0.00851844 0.00662486 0.00358578 0.0301055 0.0335081 0.00617332
threshold=-13.827499999999999 -3.3415499999999992e-05 -7.8199549999999993 1.1548100000000002e-08 0.008232515000000001 -0.20585514999999996 -0.7953549999999997 1.1686600000000003e-05 0.0054873100000000013 -0.083779999999999841 5.267160000000001e-07 -1.2758849999999999e-08 5.3135300000000006e-05 6.5747000000000008e-06 -4.1029449999999991e-06 2.0696850000000002e-08 -0.00064293949999999999 0.00039705900000000006 -0.00020163349999999998 -6.3181949999999993 -5.9757799999999994 1.0026325000000003e-05 3.826750000000001 3.3346300000000002e-06 2.9038750000000015 0.3275999999999995 0.030899999999999931 -0.041862500000000073 1.7607700000000004e-05 -6.1162449999999993
decision_type=2 2 2 2 2 2 2 2 2 2 2 2 2 2 2 2 2 2 2 2 2 2 2 2 2 2 2 2 2 2
left_child=1 -1 -3 4 8 -6 7 -7 10 -10 12 -12 -2 14 -5 18 17 -17 -14 -18 -15 23 -23 25 -25 -22 27 -20 -29 -28
right_child=3 2 -4 13 5 6 -8 -9 9 -11 11 -13 15 20 -16 16 19 -19 26 -21 21 22 -24 24 -26 -27 29 28 -30 -31
leaf_value=-9.5652162410028827e-06 -0.00079293477652894447 -6.2171425054202703e-05 0.002286723369034007 0.0018146766340987599 -4.3109831724611159e-07 -0.0013601802175617194 -0.0038256314827219379 0.0001677851654094411 -1.1447078553727705e-05 0.0017954316021660496 0.00011119436342899765 -0.0014604031110138751 0.0010959286773521897 1.0499878377508694e-06 -0.00023495507493586929 -0.00013913584962492022 2.619646295836017e-05 -0.0023952515173401813 -1.4173419293292281e-05 -0.00055502639436326722 0.0010862184838333633 0.0041279911686069688 -0.00070916748116724203 -0.0013361200955841924 -0.00014193465841734517 5.4371155611079305e-05 -2.2662368318349995e-06 0.00032779440299260062 0.0028050936813954087 -0.00089454562856190018
leaf_weight=332 26 25 20 20 467 20 31 50 135 31 21 20 21 19193 33 97 434 22 363 32 20 20 25 32 28 70 630 39 21 20
leaf_count=332 26 25 20 20 467 20 31 50 135 31 21 20 21 19193 33 97 434 22 363 32 20 20 25 32 28 70 630 39 21 20
internal_value=0 0.000108765 0.000981782 -1.87056e-06 -5.37613e-05 -0.000242272 -0.00136048 -0.000268776 2.2397e-06 0.000325982 -2.85399e-05 -0.000655439 -1.34649e-05 4.7489e-06 0.000538491 -1.39454e-06 -0.000124074 -0.000556233 6.42065e-05 -1.37158e-05 3.28984e-06 0.000223749 0.00144068 -0.000141331 -0.000778834 0.000283671 4.40143e-05 0.000157319 0.00119485 -2.9721e-05
internal_weight=0 377 45 21921 2480 568 101 70 1912 166 1746 41 1705 19441 53 1679 585 119 1094 466 19388 195 45 150 60 90 1073 423 60 650
internal_count=22298 377 45 21921 2480 568 101 70 1912 166 1746 41 1705 19441 53 1679 585 119 1094 466 19388 195 45 150 60 90 1073 423 60 650
shrinkage=0.05


Tree=172
num_leaves=31
num_cat=0
split_feature=27 25 15 11 15 2 27 27 21 31 24 27 15 27 27 31 26 15 14 31 14 21 7 2 14 25 31 31 21 2
split_gain=0.00178733 0.044899 0.00457314 0.00207603 0.0168532 0.0322807 0.0503775 0.195484 0.333442 0.121648 0.204773 0.126325 0.0746521 0.0637052 0.0884308 0.0607139 0.0443647 0.0392198 0.0261269 0.0572944 0.0184337 0.0183363 0.0170687 0.0138518 0.0336602 0.0134076 0.0135394 0.0604531 0.0998649 0.0390854
threshold=5.3977600000000008 -0.0086228749999999986 2.6390250000000006 -1.8820749999999999e-06 -0.14655999999999997 -2.4904099999999993 0.55730000000000002 -0.28372000000000014 3.4887250000000005 1.9698450000000005 4.4574250000000016e-06 -0.083779999999999841 -0.54714299999999982 0.12853499999999998 0.046556600000000024 0.46488999999999919 0.00067250400000000009 -0.17235799999999998 -7.3079149999999986 -0.27979999999999977 -6.332984999999999 1.6349200000000002 0.0012512500000000002 0.18416300000000005 -12.597599999999998 -4.7337749999999996e-05 0.3482650000000001 -0.20062999999999939 4.2965400000000011 -0.021694649999999996
decision_type=2 2 2 2 2 2 2 2 2 2 2 2 2 2 2 2 2 2 2 2 2 2 2 2 2 2 2 2 2 2
left_child=2 -2 3 4 5 21 7 20 9 10 11 -9 -13 14 15 17 -11 18 19 -14 -7 -1 -21 -6 -25 26 27 28 -5 -29
right_child=1 -3 -4 25 23 6 -8 8 -10 16 -12 12 13 -15 -16 -17 -18 -19 -20 22 -22 -23 -24 24 -26 -27 -28 29 -30 -31
leaf_value=-3.7424009140686363e-05 0.0023883613449288531 -0.00012982328850397041 -0.00072178145690651784 -3.0875699604996268e-05 -4.2775037592505819e-05 -0.00010658878855274665 -7.4216203029004249e-05 0.004503418544967038 0.0061005151812974934 -5.2044765870959966e-05 0.006254592547193169 -0.0015099485891617158 0.0026033008458818171 -0.00032112604678111726 0.0042131230288829941 0.0036133272454026161 -0.0025218916639763241 0.0026266614025059558 -0.0013662271085195243 0.00057064882039963829 0.0013315382466573837 -0.00069549303182914928 -0.0011077641226750398 0.0023984248106171439 -8.9105984881036492e-06 -5.747201622880459e-05 -1.3856772258713082e-05 -0.00049220052786172496 0.0032161978279570272 0.00086378476852396781
leaf_weight=898 20 154 22 1772 5378 714 804 24 33 75 20 33 26 64 26 20 24 21 20 33 23 120 28 20 53 7499 3916 62 24 372
leaf_count=898 20 154 22 1772 5378 714 804 24 33 75 20 33 26 64 26 20 24 21 20 33 23 120 28 20 53 7499 3916 62 24 372
internal_value=0 0.000159623 -1.2554e-06 -5.38198e-07 1.89266e-05 0.000113975 0.000231225 0.000438637 0.00126359 0.000878038 0.00135853 0.00102659 0.000718681 0.00102769 0.00152381 0.00105136 -0.000650796 0.000651056 0.000263321 0.000637929 -6.17083e-05 -0.000114996 -0.00019977 -3.34889e-05 0.000650633 -1.26022e-05 4.21454e-05 0.000140488 1.2515e-05 0.000670073
internal_weight=0 174 22124 22102 8457 3006 1988 1184 447 414 315 295 271 238 174 148 99 128 107 87 737 1018 61 5451 73 13645 6146 2230 1796 434
internal_count=22298 174 22124 22102 8457 3006 1988 1184 447 414 315 295 271 238 174 148 99 128 107 87 737 1018 61 5451 73 13645 6146 2230 1796 434
shrinkage=0.05


Tree=173
num_leaves=31
num_cat=0
split_feature=6 20 24 17 5 23 5 21 15 27 24 27 2 27 24 0 27 27 4 11 27 27 3 1 13 4 31 3 28 4
split_gain=0.00180351 0.00545166 0.0166748 0.00186617 0.00940484 0.0229916 0.0211599 0.0415018 0.0118036 0.0114164 0.0250878 0.0161197 0.0105992 0.0103926 0.00849241 0.0507073 0.0135311 0.0818983 0.047838 0.0459838 0.0331456 0.017472 0.138314 0.0135463 0.0252119 0.0317665 0.0213096 0.00838362 0.0134534 0.00712668
threshold=-8.9356999999999992e-05 1.9133400000000006e-05 8.3435600000000017e-07 -0.025653649999999997 -0.00021567299999999997 0.46573400000000004 -0.00017397549999999997 0.66668700000000014 -1.0289099999999998 -0.28372000000000014 6.8298150000000004e-06 -0.10523999999999999 -0.71503399999999984 -0.48849150000000002 0.0003225765000000001 0.45038550000000005 1.0000000180025095e-35 0.046556600000000024 9.4293650000000008e-06 -7.9581749999999977e-06 0.12853499999999998 0.25136499999999989 1.5522700000000003e-05 -12.527449999999998 -2.1928699999999997 -3.076754999999999e-05 -3.1107500000000003 1.0056250000000002e-05 -0.10379000000000015 3.9047700000000007e-06
decision_type=2 2 2 2 2 2 2 2 2 2 2 2 2 2 2 2 2 2 2 2 2 2 2 2 2 2 2 2 2 2
left_child=1 -1 -3 4 5 8 7 -6 -2 13 11 -11 -7 -10 16 -16 18 -18 23 -20 -19 22 -22 26 25 -25 -8 -13 -29 -26
right_child=3 2 -4 -5 6 12 14 -9 9 10 -12 27 -14 -15 15 -17 17 20 19 -21 21 -23 -24 24 29 -27 -28 28 -30 -31
leaf_value=-1.7090857244540765e-05 0.00099750501950356097 -0.0016926799470093103 0.0003490572752343724 6.9523791205668778e-06 -0.00015073724242332294 -0.0020758344316045229 -0.00025085699238003989 0.0023085477246083965 -8.6891135305268107e-05 -0.0013606411468712256 -0.0016494981848102594 0.0008213184482883662 -0.0005019934341544285 0.00086707806567082541 0.0022792726870393383 -0.0006870731988730019 0.002708457104329552 -0.0016648097522556785 -0.0036201355489902201 -0.0003075237118702551 0.0040282076058792884 -1.3500957833402304e-05 -0.0017169374980519272 -0.0028129783505573872 -4.3073442186603405e-06 -0.00013950383826158942 0.0019200179095787463 3.8996938065605409e-05 -0.001252642078907229 -0.00083585446170348276
leaf_weight=155 22 20 20 19229 42 23 26 29 125 26 35 25 20 37 25 34 28 30 20 22 20 1697 22 20 323 25 20 126 24 28
leaf_count=155 22 20 20 19229 42 23 26 29 125 26 35 25 20 37 25 34 28 30 20 22 20 1697 22 20 323 25 20 126 24 28
internal_value=0 -0.000151392 -0.000671811 1.33564e-06 -3.62442e-05 -0.000242644 3.39222e-06 0.000853759 -0.000129906 -0.000192225 -0.000414093 -0.000198973 -0.00134382 0.000130991 -2.24095e-05 0.000569853 -3.77289e-05 2.54718e-05 -0.000272381 -0.00188496 -1.69949e-05 1.14321e-05 0.00101885 -0.00011915 -0.000213491 -0.00132771 0.000693002 -2.63819e-05 -0.000167665 -7.06416e-05
internal_weight=0 195 40 22103 2874 463 2411 71 420 398 236 201 43 162 2340 59 2281 1797 484 42 1769 1739 42 442 396 45 46 175 150 351
internal_count=22298 195 40 22103 2874 463 2411 71 420 398 236 201 43 162 2340 59 2281 1797 484 42 1769 1739 42 442 396 45 46 175 150 351
shrinkage=0.05


Tree=174
num_leaves=31
num_cat=0
split_feature=13 11 6 13 27 8 12 27 30 15 1 1 30 6 0 27 27 0 1 4 1 22 13 27 24 14 20 19 30 3
split_gain=0.00175432 0.0139803 0.0411182 0.00204518 0.0245594 0.00236173 0.00844715 0.00315972 0.0022467 0.0322666 0.0223745 0.0228177 0.0185686 0.0315781 0.0397485 0.0345133 0.10133 0.0418134 0.0316 0.0260344 0.0201087 0.0168851 0.0164165 0.0272476 0.0158869 0.014524 0.0123625 0.0118349 0.0213854 0.0315817
threshold=-3.0876849999999996 1.2576750000000002e-06 1.3930550000000002e-05 -2.8800399999999997 0.17708600000000005 -8.7450849999999993e-06 0.00090115950000000007 0.42748950000000019 0.15853500000000012 1.4966000000000002 -6.3033449999999993 -6.5513949999999994 -0.2305749999999995 3.2598500000000003e-05 8.494905000000001 0.17708600000000005 0.030899999999999931 7.9592800000000006 -6.5100799999999994 -5.2119249999999991e-05 -17.737349999999996 0.0066452350000000002 -2.1669099999999992 0.084315000000000154 3.8774650000000008e-07 -6.0025199999999987 -0.00061194249999999993 -0.86293299999999984 1.7335450000000006 2.1598550000000003e-05
decision_type=2 2 2 2 2 2 2 2 2 2 2 2 2 2 2 2 2 2 2 2 2 2 2 2 2 2 2 2 2 2
left_child=1 -1 -3 4 -2 6 -6 -7 12 10 11 26 20 15 21 16 17 19 -19 -14 -5 22 23 -15 -21 -22 -10 28 29 -28
right_child=3 2 -4 8 5 7 -8 -9 9 -11 -12 -13 13 14 -16 -17 -18 18 -20 24 25 -23 -24 -25 -26 -27 27 -29 -30 -31
leaf_value=-0.00013541374854520547 -0.0013228084023514958 0.0026386566088513067 -6.8169599714391107e-05 0.0015801198803819716 0.0011312633813213323 -0.00060267507517710326 -2.2058681540104996e-05 -2.399530468647084e-05 0.0010434492750964299 0.0018927214681752958 0.0014397005434148014 -0.0015082548188169872 0.0019679235966967618 0.0023312507409718819 -0.0022129608939513161 -0.00016246752256453747 0.0036299578093278873 0.00078548069794401364 0.0028251900632312757 8.0152373055797423e-05 -4.1394486775508653e-06 -0.0010542740813655877 -9.4943482472261608e-05 -0.00014477766254276502 0.0012048847560757114 -0.0012105282907141374 -0.0011856646013679243 -1.3478956795977898e-05 -3.5253707733769894e-05 0.00049922298420259162
leaf_weight=143 38 20 47 20 20 25 77 418 27 22 26 26 21 20 23 215 26 59 28 410 12195 37 214 25 34 25 112 7606 302 37
leaf_count=143 38 20 47 20 20 25 77 418 27 22 26 26 21 20 23 215 26 59 28 410 12195 37 214 25 34 25 112 7606 302 37
internal_value=0 0.000143833 0.000739838 -1.36748e-06 -9.41815e-05 -7.72253e-06 0.00021574 -5.66522e-05 1.12654e-06 -1.95465e-05 -2.47173e-05 -2.94121e-05 1.37576e-05 0.000209383 -0.000210717 0.000378376 0.000579555 0.000435876 0.00144194 0.000247645 -4.01482e-06 -5.51367e-05 8.75972e-05 0.000955679 0.000166281 -6.60751e-06 -2.46558e-05 -2.82352e-05 -0.000277095 -0.00076727
internal_weight=0 210 67 22088 578 540 97 443 21510 8158 8136 8110 13352 1112 319 793 578 552 87 465 12240 296 259 45 444 12220 8084 8057 451 149
internal_count=22298 210 67 22088 578 540 97 443 21510 8158 8136 8110 13352 1112 319 793 578 552 87 465 12240 296 259 45 444 12220 8084 8057 451 149
shrinkage=0.05


Tree=175
num_leaves=31
num_cat=0
split_feature=22 4 2 30 7 27 27 27 22 8 8 8 22 20 22 3 3 27 27 1 22 7 30 27 27 27 14 23 8 27
split_gain=0.0017829 0.038376 0.0288901 0.0418645 0.00869777 0.00854094 0.0656037 0.0211565 0.00525882 0.0728762 0.0122038 0.0038395 0.0570508 0.0288039 0.0484052 0.103267 0.0548665 0.0794945 0.241288 0.0268961 0.0196891 0.0197272 0.0251434 0.0326652 0.173407 0.0250494 0.0156105 0.0145351 0.0132847 0.0160492
threshold=0.49056700000000003 0.00024896150000000003 0.33837000000000006 -0.91487500000000022 0.0049258850000000005 0.23070700000000008 -0.1538999999999999 0.53259900000000016 0.27780900000000003 1.6409750000000002e-06 -2.2126449999999995e-06 -5.6145799999999984e-07 -3.6067149999999999 0.00094370300000000005 -0.050505349999999991 8.7056350000000009e-06 1.9678150000000004e-05 0.25136499999999989 -0.28372000000000014 -12.930349999999999 -0.14568599999999995 0.00069885250000000009 2.0481400000000005 0.34863500000000031 -0.28372000000000014 0.84936850000000008 -7.7210249999999991 0.43230650000000009 -2.4590199999999995e-07 -0.10523999999999999
decision_type=2 2 2 2 2 2 2 2 2 2 2 2 2 2 2 2 2 2 2 2 2 2 2 2 2 2 2 2 2 2
left_child=8 2 5 4 -4 6 -2 -7 11 10 -10 12 -1 14 15 -14 17 18 -17 -18 21 28 23 24 -23 -25 -21 -22 -13 -30
right_child=1 -3 3 -5 -6 7 -8 -9 9 -11 -12 20 13 -15 -16 16 19 -19 -20 26 27 22 -24 25 -26 -27 -28 -29 29 -31
leaf_value=0.0024169310822617263 0.00013388754431379075 0.0013956684872914011 0.00014928921431962204 -0.003028220917275619 -0.0011506402521097865 0.0016695362249655383 -0.002913655931895067 -1.4313204208051529e-05 -0.0012380968630572575 0.00256701588654583 2.3744936316054947e-05 0.001127534074222912 0.0040985587725299406 -0.0014966932570396533 -2.2078772579449708e-06 0.00018536538720835308 -0.0018800891495420028 -0.00028075418342202928 0.0050781082619938099 -0.00040208309728642335 -3.7836921335536233e-06 -0.00042278248926907384 0.0001063089585593182 0.0013108350153613305 -0.0052419267274672167 -0.00066824337872507149 0.0011769477947382258 0.0011166973802981626 0.00020997449719497931 -0.00049704246120254908
leaf_weight=25 111 39 31 21 22 21 21 167 27 28 66 23 20 31 5877 79 26 83 37 72 14815 84 88 21 24 67 20 29 174 149
leaf_count=25 111 39 31 21 22 21 21 167 27 28 66 23 20 31 5877 79 26 83 37 72 14815 84 88 21 24 67 20 29 174 149
internal_value=0 -0.000100469 -0.000248564 -0.0011389 -0.000390304 -4.26728e-05 -0.000350949 0.000173776 1.98962e-06 0.000330702 -0.000342596 1.60411e-07 3.31673e-05 2.36246e-05 3.12091e-05 0.000613974 0.000394126 0.00090066 0.00174598 -0.000460113 -1.32139e-05 -0.000286984 -0.000595808 -0.000911045 -0.0014937 -0.000195963 -5.88155e-05 -1.59466e-06 -3.34985e-05 -0.000116173
internal_weight=0 433 394 74 53 320 132 188 21865 121 93 21744 6270 6245 6214 337 317 199 116 118 15474 630 284 196 108 88 92 14844 346 323
internal_count=22298 433 394 74 53 320 132 188 21865 121 93 21744 6270 6245 6214 337 317 199 116 118 15474 630 284 196 108 88 92 14844 346 323
shrinkage=0.05


Tree=176
num_leaves=31
num_cat=0
split_feature=17 10 8 0 24 1 0 5 21 24 6 27 30 16 6 13 1 23 27 8 6 5 7 27 2 15 13 9 1 27
split_gain=0.00182207 0.0163899 0.0282216 0.0872505 0.184922 0.0201784 0.0141554 0.0301479 0.082456 0.02915 0.0437589 0.0616948 0.0294028 0.0210574 0.018997 0.011346 0.0100375 0.0139977 0.0103003 0.0168916 0.00904495 0.0132798 0.00540279 0.00506959 0.00447174 0.00426793 0.00350199 0.00814152 0.00346806 0.00380626
threshold=0.074667700000000017 8.0186500000000016e-06 1.6409750000000002e-06 3.9384800000000006 4.4574250000000016e-06 -15.900799999999998 4.7876300000000009 9.2687550000000014e-05 1.5710850000000003 -9.3594949999999989e-07 2.9379400000000002e-05 -0.17853299999999997 -1.7380149999999992 3.974955 -2.2746149999999996e-05 2.2422950000000004 -15.200249999999999 0.32679950000000008 -0.33568149999999991 -3.0249799999999997e-06 9.5393550000000008e-06 6.9312750000000015e-05 0.00036641550000000004 0.99061135000000011 -0.038436599999999994 -0.49107499999999998 2.0452750000000006 7.022870000000001e-07 -16.007699999999996 -0.1538999999999999
decision_type=2 2 2 2 2 2 2 2 2 2 2 2 2 2 2 2 2 2 2 2 2 2 2 2 2 2 2 2 2 2
left_child=-1 2 6 15 -5 -3 7 28 -9 12 13 -12 22 -11 -15 23 -7 18 -18 25 21 -16 -8 26 -22 -20 27 -4 -2 -30
right_child=1 5 3 4 -6 16 9 8 -10 10 11 -13 -14 14 20 -17 17 -19 19 -21 24 -23 -24 -25 -26 -27 -28 -29 29 -31
leaf_value=3.7568630969535274e-06 -0.00066586157828125926 -0.0014880956583915072 0.00094091077385794223 -0.00063404333810798241 0.0059255575201296734 0.00066779614166339999 0.00010637464649894705 -0.00060390163434203723 0.0037033717863960191 -0.0016119664989539028 -0.00011951077886762853 -0.0038679216188662081 0.0018359117834479549 -0.0012793258431234532 9.0296556200608104e-05 0.0010733636383189482 9.3961614496781114e-05 -0.0012898061634394142 -0.00048551538204027686 -0.0014156230239235369 -0.0006896615671973538 0.0016498038260033356 -0.00083338517724769196 -0.00088636856584344058 0.00014065694881403888 0.00045825324201723567 -0.00050641862128811353 -0.00016299872314060642 2.88018438829283e-05 -0.00046732562219171134
leaf_weight=20857 21 36 23 22 21 28 65 25 20 27 21 23 25 28 43 22 131 33 23 37 31 20 20 20 34 25 28 61 486 42
leaf_count=20857 21 36 23 22 21 28 65 25 20 27 21 23 25 28 43 22 131 33 23 37 31 20 20 20 34 25 28 61 486 42
internal_value=0 -5.43767e-05 3.44499e-05 0.000578135 0.00256948 -0.000374493 -8.05942e-05 6.62573e-05 0.00131044 -0.000339436 -0.000663148 -0.00207891 0.000328586 -0.000322746 -9.9612e-05 2.211e-05 -0.000229765 -0.000330696 -0.000184165 -0.000612807 0.00015845 0.000585378 -0.000114745 -0.000153099 -0.000255341 6.03078e-06 -2.2158e-05 0.000139262 -3.57251e-05 -1.06628e-05
internal_weight=0 1441 1128 197 43 313 931 594 45 337 227 44 110 183 156 154 277 249 216 85 128 63 85 132 65 48 112 84 549 528
internal_count=22298 1441 1128 197 43 313 931 594 45 337 227 44 110 183 156 154 277 249 216 85 128 63 85 132 65 48 112 84 549 528
shrinkage=0.05


Tree=177
num_leaves=31
num_cat=0
split_feature=16 4 4 26 6 1 4 7 21 7 18 5 8 8 9 30 8 27 3 7 30 2 11 11 9 4 3 4 27 27
split_gain=0.00170974 0.0136499 0.0381658 0.0827167 0.0772801 0.0227151 0.0174176 0.0124903 0.0558093 0.0260846 0.0461631 0.0490755 0.0157805 0.043013 0.0181771 0.0423783 0.0161572 0.0321874 0.0144538 0.0124059 0.0141921 0.0120094 0.00944598 0.0208427 0.00850392 0.00846614 0.0103071 0.0235905 0.0178008 0.096082
threshold=10.429600000000002 -0.00030608549999999995 -0.00010556349999999999 0.12041550000000001 0.00010337800000000001 -14.087399999999997 -0.00017365699999999997 0.023500150000000001 17.397300000000005 0.0051663550000000001 0.070796800000000007 -7.5736099999999988e-05 1.006097e-05 4.9070950000000013e-06 7.7157650000000008e-06 -0.46488999999999908 9.6138300000000019e-07 -0.027260000000000058 1.8717300000000001e-05 0.032610400000000005 0.37146500000000021 -1.3160649999999998 -0.00010581499999999999 -4.5545249999999996e-05 -8.1133199999999984e-05 -9.7913799999999994e-06 1.2434800000000002e-05 -4.7167149999999994e-05 0.42748950000000019 -0.28372000000000014
decision_type=2 2 2 2 2 2 2 2 2 2 2 2 2 2 2 2 2 2 2 2 2 2 2 2 2 2 2 2 2 2
left_child=-1 19 3 5 -5 -3 -7 9 -9 12 21 -12 13 14 16 -16 22 -18 -14 -2 -21 -11 -4 -24 -22 26 27 -25 29 -28
right_child=1 2 7 4 -6 6 -8 8 -10 10 11 -13 18 -15 15 -17 17 -19 -20 20 24 -23 23 25 -26 -27 28 -29 -30 -31
leaf_value=3.8195504564759314e-06 -0.0016704098896959544 0.0011475930655641215 -0.00082593324899023993 0.0046753714617807423 0.00038097546552307905 -0.0013136349275841245 0.00032818749508199598 -0.00012116854057167796 0.0026078685745470347 0.00067667913442294653 -0.00042160888639045883 -0.0038823525141370263 -0.0018267936207374315 0.001854093168039981 -0.00048518511802495386 0.0024965163309719754 0.00014881614777550567 -0.0019274325883348606 -0.00024641639458236451 -0.0011113294431766008 -0.00039200134818780829 -0.00054367252861185181 0.0015747635419666043 0.0016757061992393575 0.0010325496550649405 7.0849963987504362e-05 -6.1378236916627641e-05 -0.00021024777415357341 9.3061028284280865e-05 -0.003370739556527857
leaf_weight=20721 22 28 38 22 20 35 30 101 23 28 20 21 23 30 26 22 40 35 39 32 22 72 20 20 20 491 90 97 81 29
leaf_count=20721 22 28 38 22 20 35 30 101 23 28 20 21 23 30 26 22 40 35 39 32 22 72 20 20 20 491 90 97 81 29
internal_value=0 -5.0187e-05 -1.27348e-05 0.000788731 0.00263042 -4.29999e-05 -0.000555871 -9.31196e-05 0.000385024 -0.000141638 -0.000781269 -0.00219418 -5.82081e-05 -1.10858e-05 -6.76636e-05 0.000881428 -0.000116076 -0.0008201 -0.000832685 -0.000627965 -0.000318048 -0.000201974 -5.51043e-05 -1.97281e-05 0.000286356 -5.91957e-05 -0.000260623 0.000112138 -0.000478688 -0.000867861
internal_weight=0 1577 1481 135 42 93 65 1346 124 1222 141 41 1081 1019 989 48 941 75 62 96 74 100 866 828 42 808 317 117 200 119
internal_count=22298 1577 1481 135 42 93 65 1346 124 1222 141 41 1081 1019 989 48 941 75 62 96 74 100 866 828 42 808 317 117 200 119
shrinkage=0.05


Tree=178
num_leaves=31
num_cat=0
split_feature=7 13 3 27 7 15 30 7 30 10 20 17 17 12 15 10 17 9 19 4 4 6 4 3 0 3 26 11 1 1
split_gain=0.00170643 0.00560588 0.00228017 0.0212216 0.0225384 0.0176478 0.00869506 0.0362982 0.0157613 0.0175041 0.00595126 0.00451091 0.00303113 0.0135124 0.00362603 0.0390284 0.00932081 0.00422121 0.00392034 0.0350899 0.0616516 0.0163844 0.0187234 0.00544834 0.0039188 0.00315035 0.00306422 0.0446283 0.126622 0.0160808
threshold=0.29326150000000006 -2.5065799999999991 7.9071800000000014e-06 4.490660000000001 0.012081500000000002 -1.0289099999999998 0.3275999999999995 0.0012139400000000002 -0.34826499999999999 1.43287e-07 4.7104050000000005e-05 -0.038591249999999994 3.4792700000000001 0.0020876050000000006 -1.7158549999999997 -8.8581999999999976e-06 -0.25551599999999991 -7.7406349999999987e-07 -8.1499199999999981 0.00024896150000000003 9.0543650000000009e-05 4.4446850000000013e-05 2.578915e-05 1.1096800000000002e-05 -2.6216999999999993 1.3792950000000001e-05 0.061935000000000011 0.00033839250000000008 -9.7251149999999988 -14.330549999999997
decision_type=2 2 2 2 2 2 2 2 2 2 2 2 2 2 2 2 2 2 2 2 2 2 2 2 2 2 2 2 2 2
left_child=2 -2 3 4 5 -1 7 8 10 -10 -7 -8 14 25 15 -4 -17 -18 19 20 21 22 23 -16 -19 -14 -20 29 -29 -28
right_child=1 -3 12 -5 -6 6 11 -9 9 -11 -12 -13 13 -15 18 16 17 24 26 -21 -22 -23 -24 -25 -26 -27 27 28 -30 -31
leaf_value=-0.0014694987301481889 -0.00067571864721965261 -3.7481473157964655e-05 0.0019224270849788031 0.0016551038783897338 0.0016967167623806745 -0.00013949372796806308 -0.00079777186431853738 0.002077024548634654 1.114057130537056e-05 0.0017525093934704342 0.00075360188991680844 -0.00010715632317243589 -0.00029518098221160472 -0.0014200480288127438 -0.00085869747507829404 -0.00084168203586679224 -0.00034348143920267052 -4.1998933454084658e-05 -2.0562625638608145e-06 0.0016380984452553093 -0.0027464293115772309 -0.001133137459181589 0.0013778231326723473 2.95778739885079e-05 0.00086234430682998213 0.00057187666670043577 -0.0014321954811402108 0.0046008470567176123 -0.00057056169447103713 1.1661977404694002e-05
leaf_weight=20 39 292 28 21 20 277 26 24 31 27 20 261 20 20 21 35 28 23 20511 23 25 31 25 97 25 22 21 20 29 236
leaf_count=20 39 292 28 21 20 277 26 24 31 27 20 261 20 20 21 35 28 23 20511 23 25 31 25 97 25 22 21 20 29 236
internal_value=0 -0.000112682 1.69789e-06 8.87698e-05 4.21791e-05 -6.05812e-06 3.7889e-05 0.000195103 6.78743e-05 0.000821778 -7.93526e-05 -0.000169721 -1.28239e-06 -0.000350376 -2.60399e-07 0.000254275 -0.00016652 0.00014441 -1.94206e-06 -0.000210945 -0.000424653 -9.10648e-05 0.000134839 -0.000128505 0.000429013 0.000158992 2.86822e-07 0.000157342 0.00154022 -0.000106319
internal_weight=0 331 21967 727 706 686 666 379 355 58 297 287 21240 62 21178 139 111 76 21039 222 199 174 143 118 48 42 20817 306 49 257
internal_count=22298 331 21967 727 706 686 666 379 355 58 297 287 21240 62 21178 139 111 76 21039 222 199 174 143 118 48 42 20817 306 49 257
shrinkage=0.05


Tree=179
num_leaves=31
num_cat=0
split_feature=0 5 27 12 17 27 13 27 17 27 18 11 24 19 3 19 16 4 24 31 30 22 21 5 22 19 14 9 30 24
split_gain=0.00170298 0.0116687 0.0258533 0.00277943 0.00961118 0.0539722 0.105658 0.0164845 0.00700233 0.0288975 0.00637837 0.00604748 0.00886736 0.00541554 0.00510736 0.019262 0.00480142 0.00567731 0.0252852 0.00523781 0.00996285 0.00860275 0.00445251 0.00353972 0.00451723 0.00349469 0.00318594 0.0294203 0.0893352 0.0145567
threshold=-13.393049999999997 -3.3415499999999992e-05 -0.71347499999999986 1.1548100000000002e-08 0.008232515000000001 -0.20585514999999996 1.0647100000000003 0.27705850000000004 0.0054873100000000013 -0.083779999999999841 5.3135300000000006e-05 5.267160000000001e-07 -1.2758849999999999e-08 8.6362250000000014 6.5747000000000008e-06 0.038768450000000003 0.19279050000000003 -3.4636799999999993e-05 1.3036250000000003e-07 0.38512500000000044 0.51779999999999948 0.00012033550000000001 0.19336800000000001 -0.00012319299999999998 -0.37774049999999998 0.036210350000000009 -5.9757799999999994 1.0026325000000003e-05 3.826750000000001 3.3346300000000002e-06
decision_type=2 2 2 2 2 2 2 2 2 2 2 2 2 2 2 2 2 2 2 2 2 2 2 2 2 2 2 2 2 2
left_child=1 -1 -3 4 8 -6 7 -7 10 -10 -2 13 -13 16 15 -5 19 18 22 20 21 -12 25 -19 -25 -18 -16 29 -29 -28
right_child=3 2 -4 14 5 6 -8 -9 9 -11 11 12 -14 -15 26 -17 17 23 -20 -21 -22 -23 -24 24 -26 -27 27 28 -30 -31
leaf_value=4.6081468579943904e-06 -0.00083728802423668953 -5.34492615971056e-05 0.0022120838270961942 -0.00024763258729005124 -2.9058945851529946e-06 -0.0013828884043651935 -0.0045351202989695602 8.4631968467874686e-05 -1.007941906148237e-05 0.0016887934169678754 0.0002929978451801518 0.00010142673899974313 -0.0013696467847330498 0.0008163536540814675 8.8769504448028643e-07 0.0017188332891282698 -2.7075660848043173e-05 0.000563813902466791 -0.0017942337246804529 2.0554346393682113e-05 -3.6372965085454914e-05 0.0015551793249970716 -0.00059697043630876586 -0.00078244713484309613 -2.445564066819596e-05 0.00080145143761910741 0.00027193113598585706 0.0038157001834724725 -0.00066764926764881249 -0.00073575199329752646
leaf_weight=418 24 34 20 33 455 31 20 50 130 31 27 21 20 20 19157 20 35 25 25 226 54 27 20 20 1141 20 89 20 25 60
leaf_count=418 24 34 20 33 455 31 20 50 130 31 27 21 20 20 19157 20 35 25 25 226 54 27 20 20 1141 20 89 20 25 60
internal_value=0 9.39632e-05 0.000785637 -2.03201e-06 -5.25353e-05 -0.000235005 -0.0012806 -0.000477012 1.83389e-06 0.000317033 -2.79298e-05 -1.63744e-05 -0.00061617 -1.37948e-06 4.27179e-06 0.00049443 -1.1475e-05 -5.53432e-05 -0.000417139 0.000157431 0.000443858 0.000924089 4.1893e-05 -2.48377e-05 -3.75132e-05 0.000274207 2.92931e-06 0.000204534 0.00132495 -0.000133847
internal_weight=0 472 54 21826 2422 556 101 81 1866 161 1705 1681 41 1640 19404 53 1620 1286 100 334 108 54 75 1186 1161 55 19351 194 45 149
internal_count=22298 472 54 21826 2422 556 101 81 1866 161 1705 1681 41 1640 19404 53 1620 1286 100 334 108 54 75 1186 1161 55 19351 194 45 149
shrinkage=0.05


Tree=180
num_leaves=31
num_cat=0
split_feature=13 29 4 20 21 30 5 28 28 1 30 15 17 4 13 14 1 6 12 24 6 4 12 30 6 30 21 16 21 25
split_gain=0.00161381 0.0130228 0.00259546 0.001997 0.00827159 0.0625563 0.00927393 0.0252584 0.0430051 0.0212291 0.13908 0.0130879 0.0112388 0.00958482 0.0226501 0.00961119 0.0122251 0.00887243 0.0544941 0.107438 0.0228471 0.0250597 0.039134 0.019861 0.019651 0.0180243 0.0109546 0.00789125 0.00716098 0.00621007
threshold=-3.0876849999999996 5.6216950000000008 -3.9898499999999991e-05 -1.6533899999999998e-05 0.053643450000000002 -0.13525000000000006 0.00036775100000000009 -0.15027399999999996 0.12773199999999998 -16.595249999999997 -0.050375000000001162 1.0719600000000002 -0.038591249999999994 -0.00044152849999999996 -2.3659499999999993 -22.260449999999995 -11.834549999999998 6.319600000000001e-05 8.5975000000000016e-05 1.0575000000000003e-06 4.8139550000000006e-05 4.8637800000000011e-05 1.6926850000000003e-06 0.569635 4.4446850000000013e-05 -2.1126450000000001 0.23993200000000001 4.2377600000000006 3.0089350000000006 -0.9832439999999999
decision_type=2 2 2 2 2 2 2 2 2 2 2 2 2 2 2 2 2 2 2 2 2 2 2 2 2 2 2 2 2 2
left_child=1 2 -1 4 5 -2 9 11 -9 10 -6 28 -12 14 -11 16 -15 20 19 23 24 22 -22 25 29 -19 -23 -24 -8 -17
right_child=3 -3 -4 -5 6 -7 7 8 -10 13 12 -13 -14 15 -16 17 -18 18 -20 -21 21 26 27 -25 -26 -27 -28 -29 -30 -31
leaf_value=0.00037856630501541862 9.6412448661766618e-05 0.0012889655740185514 -8.8702222615060641e-05 5.2829295039817508e-06 0.0044599196066701556 -0.0026767456058296377 -7.4732145135015377e-05 -0.003098172647296451 0.00014147275166275601 -0.001971388255645122 -0.0011891024395299611 -0.0011917473378707656 0.00015070535927053346 -0.0016011678479844705 -4.1105892702365636e-05 -0.00041611598395522578 -0.00020588720077808231 2.4613825003736726e-05 -2.18753040887344e-05 0.0045620628804317678 -0.0025108374494955186 0.001172622002377466 0.00013425689901028443 -0.0008967290737061939 0.0013007364093184526 0.0020769760030088947 -0.00035950582970534537 -0.0010229006320654523 0.00089261756352027001 8.2629446030991954e-06
leaf_weight=37 109 22 151 18524 20 25 215 20 21 21 20 25 72 20 55 90 73 23 459 20 33 20 34 21 29 20 28 26 21 2044
leaf_count=37 109 22 151 18524 20 25 215 20 21 21 20 25 72 20 55 90 73 23 459 20 33 20 34 21 29 20 28 26 21 2044
internal_value=0 0.000137953 3.2602e-06 -1.31158e-06 -3.55867e-05 -0.000420968 -2.0531e-05 -0.000285128 -0.00143884 5.01508e-06 0.000680957 -0.000103893 -0.000140557 -2.00862e-05 -0.000574473 -5.75509e-06 -0.000505948 1.05842e-05 0.000192403 0.00136328 -3.22663e-05 -0.000648951 -0.00112783 0.000363661 7.9336e-06 0.000979201 0.000278881 -0.000367178 1.13456e-05 -9.63495e-06
internal_weight=0 210 188 22088 3564 134 3430 302 41 3128 112 261 92 3016 76 2940 93 2847 543 84 2304 141 93 64 2163 43 48 60 236 2134
internal_count=22298 210 188 22088 3564 134 3430 302 41 3128 112 261 92 3016 76 2940 93 2847 543 84 2304 141 93 64 2163 43 48 60 236 2134
shrinkage=0.05


Tree=181
num_leaves=31
num_cat=0
split_feature=1 23 21 14 15 1 22 20 4 14 9 23 9 14 22 23 28 27 3 24 10 30 30 15 22 3 8 9 16 4
split_gain=0.00162132 0.0265055 0.0489626 0.025912 0.00253475 0.00240325 0.0164981 0.00495325 0.015344 0.00672235 0.00344205 0.00251798 0.00209348 0.0238365 0.0134425 0.0129076 0.0125374 0.095364 0.0808111 0.100126 0.062815 0.0362439 0.0438299 0.0100787 0.00895477 0.0631958 0.0167651 0.0749151 0.0118261 0.0247221
threshold=-17.445649999999997 -0.10618449999999999 1.4542300000000001 -16.691249999999997 0.53814100000000009 -17.279499999999995 -0.0011522549999999998 -0.0016106259999999998 1.6643550000000004e-05 -18.223049999999997 -1.0876799999999999e-08 -0.00066913299999999982 3.5688500000000004e-07 -5.5744999999999996 4.0789450000000009 0.0082214700000000016 -0.22897950000000003 -0.20585514999999996 2.5855300000000006e-05 2.5183500000000006e-06 3.2521900000000006e-08 0.02228499999999967 -2.7105149999999987 1.7310850000000002 -0.050505349999999991 8.5848800000000017e-06 -8.7450849999999993e-06 -3.6630449999999991e-05 29.210200000000004 -2.0139099999999995e-05
decision_type=2 2 2 2 2 2 2 2 2 2 2 2 2 2 2 2 2 2 2 2 2 2 2 2 2 2 2 2 2 2
left_child=1 -1 3 -3 -5 6 -2 8 9 -7 -11 -8 15 14 23 24 -17 -18 19 20 -19 22 -22 -14 25 -9 27 -27 -28 -30
right_child=5 2 -4 4 -6 7 11 12 -10 10 -12 -13 13 -15 -16 16 17 18 -20 -21 21 -23 -24 -25 -26 26 28 -29 29 -31
leaf_value=-0.0017461670467721136 0.0014857745579709965 -0.0014777907057467736 0.0020620910355959227 -3.4019604287782359e-06 -0.00055297309951459872 -0.00057440168304310644 -0.00057401490452147787 0.0022394559903558629 -0.0014521574114041869 -2.6328415792111471e-05 0.00085905475792796577 8.6746388308750727e-05 1.8679903752221279e-05 0.0015657909980509432 0.0011327952370737439 -1.6873385271580627e-06 -2.0122113163574216e-05 -0.0034502257905525929 0.00092138722213669963 -0.0042590414687765591 -0.00032092827589765786 0.00068469764869282575 -0.0032126898918068041 -0.00094915744619491452 2.6021114804964763e-06 -0.0003408940410978782 7.3906313651208542e-05 0.0033369220673921522 -0.0020027510391588768 -5.0592277654108004e-05
leaf_weight=23 21 33 27 453 22 30 21 36 24 23 21 46 7199 25 27 1017 821 23 34 32 38 37 20 27 11809 45 266 20 23 55
leaf_count=23 21 33 27 453 22 30 21 36 24 23 21 46 7199 25 27 1017 821 23 34 32 38 37 20 27 11809 45 266 20 23 55
internal_value=0 -8.41559e-05 -1.27049e-05 -0.00012298 -2.88558e-05 2.16003e-06 0.000262924 1.10021e-06 -0.000353564 2.73711e-06 0.000396241 -0.000120358 2.71276e-06 2.45369e-05 1.92244e-05 -8.41333e-06 -0.000125454 -0.000250699 -0.00127953 -0.0017784 -0.00110568 -0.000538055 -0.00131809 1.50636e-05 1.08993e-05 0.000231083 5.43067e-05 0.000790742 -8.48453e-05 -0.000626229
internal_weight=0 558 535 508 475 21740 88 21652 98 74 44 67 21554 7278 7253 14276 2022 1005 184 150 118 95 58 7226 12254 445 409 65 344 78
internal_count=22298 558 535 508 475 21740 88 21652 98 74 44 67 21554 7278 7253 14276 2022 1005 184 150 118 95 58 7226 12254 445 409 65 344 78
shrinkage=0.05


Tree=182
num_leaves=31
num_cat=0
split_feature=22 4 12 2 30 7 28 28 6 10 22 8 8 11 20 8 22 20 22 3 3 28 28 1 22 7 30 28 28 28
split_gain=0.00163365 0.0314563 0.0505086 0.0257022 0.0362118 0.00909927 0.00776358 0.0560269 0.0205579 0.00487631 0.00455383 0.0613572 0.0105305 0.00348193 0.00329541 0.00318904 0.0504026 0.0249067 0.0418555 0.0897809 0.0482966 0.0686514 0.211887 0.0236365 0.0152957 0.0165825 0.0225365 0.0286848 0.149335 0.0204677
threshold=0.49056700000000003 0.00022120900000000002 0.013556000000000002 0.33837000000000006 -0.91487500000000022 0.0049258850000000005 -0.22897950000000003 0.17853300000000003 0.00012927650000000004 -7.3552849999999995e-08 0.27780900000000003 1.6409750000000002e-06 -2.2126449999999995e-06 -0.00034571799999999996 6.5203850000000011e-05 -5.6145799999999984e-07 -3.6067149999999999 0.00094370300000000005 -0.050505349999999991 8.7056350000000009e-06 1.9678150000000004e-05 -0.25082149999999998 0.28372000000000025 -12.930349999999999 -0.14568599999999995 0.00069885250000000009 2.0481400000000005 -0.29719999999999985 0.33568150000000002 -0.81806299999999998
decision_type=2 2 2 2 2 2 2 2 2 2 2 2 2 2 2 2 2 2 2 2 2 2 2 2 2 2 2 2 2 2
left_child=10 3 -3 6 5 -5 8 -8 9 -2 15 12 -12 -9 -15 16 -1 18 19 -18 21 -21 -23 -22 25 -17 27 29 -29 -27
right_child=1 2 -4 4 -6 -7 7 13 -10 -11 11 -13 -14 14 -16 24 17 -19 -20 20 23 22 -24 -25 -26 26 -28 28 -30 -31
leaf_value=0.0022708557416335679 -0.00059027996349839433 0.0029342130907545135 -0.00057669891393743458 0.00017172697370105813 -0.0028327092461820163 -0.0011762560683391281 -0.0027718237438239157 -0.00044466053672215862 0.0016018103408648378 0.00010509936778463371 -0.0011418540202107073 0.0023597692151919808 3.0292093971652458e-05 0.0008104597002966331 8.0335216005230056e-05 -2.0881518881294084e-05 0.0038193609222071248 -0.0013924173706571664 -2.7070560822312951e-06 -0.0002573656618398059 -0.0017673336122802888 0.0047486030137971853 0.00016363312619133364 -5.998661482487438e-05 -1.7453826138902831e-06 -0.00059168717607598639 0.00012829397640995343 -0.0048592283240092606 -0.00038706799897183722 0.001197265956129524
leaf_weight=25 31 21 20 31 21 21 20 23 22 135 27 28 66 20 68 346 20 31 5877 83 26 37 79 92 14844 67 88 24 84 21
leaf_count=25 31 21 20 31 21 21 20 23 22 135 27 28 66 20 68 346 20 31 5877 83 26 37 79 92 14844 67 88 24 84 21
internal_value=0 -9.61717e-05 0.00122157 -0.000233997 -0.00108034 -0.000372651 -4.03201e-05 -0.000335814 0.000165583 -2.47606e-05 1.90452e-06 0.000307791 -0.000310008 0.000103106 0.000246273 2.02336e-07 3.02837e-05 2.13142e-05 2.8367e-05 0.000570272 0.000365282 0.000840523 0.00162608 -0.000436182 -1.19865e-05 -0.000253287 -0.000536429 -0.000834876 -0.00138088 -0.000164778
internal_weight=0 433 41 392 73 52 319 131 188 166 21865 121 93 111 88 21744 6270 6245 6214 337 317 199 116 118 15474 630 284 196 108 88
internal_count=22298 433 41 392 73 52 319 131 188 166 21865 121 93 111 88 21744 6270 6245 6214 337 317 199 116 118 15474 630 284 196 108 88
shrinkage=0.05


Tree=183
num_leaves=31
num_cat=0
split_feature=7 20 4 3 14 27 15 27 28 16 22 27 25 10 0 4 8 15 27 27 2 16 4 9 9 9 8 27 27 2
split_gain=0.00154098 0.00516892 0.0119113 0.00177068 0.0201296 0.0210873 0.0198923 0.00791412 0.0791173 0.0498905 0.00374436 0.00345033 0.00271824 0.015384 0.0175907 0.0300047 0.0251769 0.00544759 0.0352777 0.0596045 0.00743345 0.00282268 0.0296654 0.0383517 0.0696209 0.0183408 0.014442 0.0161283 0.0359661 0.012346
threshold=0.29326150000000006 -1.3271149999999997e-05 -0.00023008949999999998 7.9071800000000014e-06 -19.721699999999995 4.3998100000000013 -0.89426549999999982 -0.062254999999999942 -0.25082149999999998 0.37219100000000005 -0.024584299999999996 -0.25878849999999998 5.6022800000000013 2.7546200000000004e-05 -1.7109999999999996 1.5303550000000004e-05 1.5142100000000003e-08 -1.7158549999999997 0.55730000000000002 -1.0284721499999996 -0.22487599999999996 31.457550000000005 -0.00019611499999999999 1.0026325000000003e-05 8.8602550000000014e-05 1.0545350000000004e-06 -8.8324949999999983e-08 0.17708600000000005 -1.1779589999999998 0.53187750000000011
decision_type=2 2 2 2 2 2 2 2 2 2 2 2 2 2 2 2 2 2 2 2 2 2 2 2 2 2 2 2 2 2
left_child=3 2 -2 4 -1 6 -6 11 10 -10 -9 -8 17 14 16 -16 -14 18 19 -5 -20 -19 -23 25 -25 26 27 28 -24 -28
right_child=1 -3 -4 12 5 -7 7 8 9 -11 -12 -13 13 -15 15 -17 -18 21 20 -21 -22 22 23 24 -26 -27 29 -29 -30 -31
leaf_value=0.001642625348758884 -0.0014854775288508141 -1.9840090535318446e-05 3.7800048647279094e-05 -0.0002310474190162495 -0.0015674051923997468 0.0015948067851630705 -9.4824330919567707e-05 -0.00081332371174994481 0.00069450862689076796 0.0036922569337311077 -0.00010180882565951574 -0.00077157867330242876 -0.0020130795313161799 -0.0014680495995673397 -0.00031790977337895409 0.0021994711932347855 0.00017860478960516816 1.2737110818314908e-06 -0.0012756963475840167 0.0034310574611299675 -3.9308949940717752e-05 -0.0014430586999365823 5.5095624006555785e-05 0.0029361138179034435 -0.00029880215592222671 -0.0013082879523738354 3.2576916512678306e-05 -5.258752209909344e-05 -0.0028440649644471704 0.0013043057284614242
leaf_weight=20 21 277 33 25 20 21 323 20 35 23 245 20 20 21 29 20 38 20598 20 20 31 39 23 29 39 35 144 67 20 22
leaf_count=20 21 277 33 25 20 21 323 20 35 23 245 20 20 21 29 20 38 20598 20 20 31 39 23 29 39 35 144 67 20 22
internal_value=0 -0.00010708 -0.000554586 1.61348e-06 7.83433e-05 3.40921e-05 -1.36849e-05 3.29733e-05 0.000210588 0.00188327 -0.000155508 -0.000134285 -1.01282e-06 -0.000230731 1.21068e-05 0.000709593 -0.000577148 3.79943e-07 0.000376171 0.00139655 -0.000524167 -1.33665e-06 -0.000129969 5.15113e-06 0.00108079 -0.000230038 -9.33031e-05 -0.000537613 -0.00129335 0.000201119
internal_weight=0 331 54 21967 727 707 686 666 323 58 265 343 21240 128 107 49 58 21112 96 45 51 21016 418 379 68 311 276 110 43 166
internal_count=22298 331 54 21967 727 707 686 666 323 58 265 343 21240 128 107 49 58 21112 96 45 51 21016 418 379 68 311 276 110 43 166
shrinkage=0.05


Tree=184
num_leaves=31
num_cat=0
split_feature=0 5 14 0 14 17 12 17 27 30 3 17 27 11 24 19 3 23 22 26 19 4 24 21 13 15 28 23 14 1
split_gain=0.00151344 0.0106956 0.0249388 0.00275713 0.00805505 0.0179682 0.00194722 0.00995866 0.0473059 0.0967746 0.0112546 0.00645276 0.0254487 0.00551582 0.00769913 0.00477457 0.00435812 0.0182333 0.00385213 0.0038797 0.0166698 0.00360803 0.0216216 0.00416363 0.00676966 0.00355124 0.00316316 0.00290977 0.00251289 0.0291913
threshold=-13.393049999999997 -3.3415499999999992e-05 -7.6355049999999993 -12.196999999999997 -6.9149849999999988 -0.0038757199999999996 1.1548100000000002e-08 0.008232515000000001 -0.20585514999999996 -0.7953549999999997 1.1686600000000003e-05 0.0054873100000000013 -0.083779999999999841 5.267160000000001e-07 -1.2758849999999999e-08 8.6362250000000014 6.5747000000000008e-06 0.00012880400000000002 -0.37774049999999998 5.8171200000000009e-07 -0.0083704949999999969 -3.4636799999999993e-05 1.3036250000000003e-07 0.19336800000000001 -1.9866599999999999 0.89529000000000003 -5.6168899999999988 -0.00093717949999999985 -5.9757799999999994 -6.3033449999999993
decision_type=2 2 2 2 2 2 2 2 2 2 2 2 2 2 2 2 2 2 2 2 2 2 2 2 2 2 2 2 2 2
left_child=1 -1 -3 4 -2 -6 7 11 -9 10 -10 13 -13 15 -15 18 17 -8 -5 20 -20 22 23 24 -21 -23 27 -18 -28 -30
right_child=3 2 -4 6 5 -7 16 8 9 -11 -12 12 -14 14 -16 -17 26 -19 19 21 -22 25 -24 -25 -26 -27 28 -29 29 -31
leaf_value=3.0319234889176236e-06 -1.4310651566381851e-05 -7.3328299703569105e-05 0.0021517768979538231 -0.0006665930855722929 -0.0015750522480912283 -2.1718741202483637e-05 0.0016496789394295774 -4.7130266657994213e-06 -0.0011791384941898287 -0.0035323932082974353 0.0002242680760637086 -8.7896892819509083e-06 0.0016039039068404708 8.142683048693774e-05 -0.0012893227538006615 0.00076782523905421845 -0.00082566219745785943 -0.00026355707589325244 -0.0014703104380931196 0.0010294062138200388 0.00052192739929393737 2.5983405902506297e-05 -0.0014973896441343069 -0.00054811864785733635 -1.5946218383945408e-05 0.00063960527040762827 3.9258469391558014e-06 -0.00013842560589155391 -9.9087941987542367e-05 0.0015150372057927172
leaf_weight=418 292 34 20 22 29 52 20 432 20 31 50 116 31 21 20 20 20 33 21 21 21 1343 27 20 59 24 18821 67 159 34
leaf_count=418 292 34 20 22 29 52 20 432 20 31 50 116 31 21 20 20 20 33 21 21 21 1343 27 20 59 24 18821 67 159 34
internal_value=0 8.85799e-05 0.000750785 -1.91559e-06 -0.000136688 -0.00057785 4.27674e-07 -4.30527e-05 -0.000232476 -0.00120667 -0.000176705 1.41174e-05 0.000331302 -1.46819e-05 -0.000587232 1.9421e-07 5.6465e-06 0.000458419 -9.65985e-06 -2.50646e-07 -0.000474192 1.3073e-05 -0.000241852 9.71433e-05 0.000258459 3.67566e-05 4.39018e-06 -0.000296411 5.76652e-06 0.000185266
internal_weight=0 472 54 21826 373 81 21453 2299 533 101 70 1766 147 1619 41 1578 19154 53 1558 1536 42 1494 127 100 80 1367 19101 87 19014 193
internal_count=22298 472 54 21826 373 81 21453 2299 533 101 70 1766 147 1619 41 1578 19154 53 1558 1536 42 1494 127 100 80 1367 19101 87 19014 193
shrinkage=0.05


Tree=185
num_leaves=31
num_cat=0
split_feature=6 20 24 7 20 14 14 10 27 25 1 17 27 21 2 6 15 6 24 6 19 12 7 8 0 23 5 24 8 21
split_gain=0.00150727 0.00480079 0.0144619 0.00142822 0.00485412 0.00188073 0.00573241 0.00170796 0.0208565 0.0171408 0.119753 0.0173972 0.0419569 0.012317 0.0314949 0.105316 0.0226295 0.020828 0.0410411 0.0181973 0.0214985 0.0121441 0.0144934 0.0114244 0.0111463 0.0107737 0.0170604 0.00967378 0.0599228 0.00900199
threshold=-8.9356999999999992e-05 1.9133400000000006e-05 8.3435600000000017e-07 0.29326150000000006 -4.6269849999999992e-05 -11.439849999999998 -12.548649999999997 6.0055550000000006e-07 5.6216950000000008 -0.9832439999999999 -12.633099999999997 0.63888450000000019 -0.36205799999999999 1.3050850000000003 -0.34999249999999998 -1.5352949999999997e-05 -0.89426549999999982 -4.7960949999999994e-05 4.4085600000000004e-07 -4.1019499999999996e-05 -14.505549999999998 0.073025300000000015 0.067969650000000006 1.9712900000000002e-07 8.9380700000000015 -6.5773949999999992 -3.7548849999999992e-05 5.5494100000000013e-06 2.6193200000000003e-08 60.273600000000009
decision_type=2 2 2 2 2 2 2 2 2 2 2 2 2 2 2 2 2 2 2 2 2 2 2 2 2 2 2 2 2 2
left_child=1 -1 -3 7 -5 6 -6 8 25 10 -9 13 -13 16 15 -15 -11 18 -16 -19 -21 22 24 -12 -22 26 -2 -18 -29 -27
right_child=3 2 -4 4 5 -7 -8 9 -10 11 23 12 -14 14 17 -17 27 19 -20 20 21 -23 -24 -25 -26 29 -28 28 -30 -31
leaf_value=-1.237153033681323e-05 -0.00010955737531185151 -0.0015774861245881769 0.0003239528078120202 -0.00085691078507807114 -3.0859043112613086e-05 3.1343704697530345e-05 -0.00094471983633080854 0.003877133246384223 0.0015658819555634789 -0.0012300209493283497 8.0934890094354296e-05 0.00020336292019001797 -0.002000297888945271 -0.00039955815312190003 0.0028340708672840269 0.003423563618918941 4.7538590570115073e-06 -0.0013355346845249491 -7.1081959721331871e-05 0.001602073003993031 -3.2187123598509508e-05 0.0011774318994000731 -0.0010780915536088287 -0.0014108869962261193 0.0011779232329217849 -1.1146206523466954e-05 0.0018496770011552145 0.0025458969503233675 -0.00078193152740207181 -0.00067032677688985134
leaf_weight=155 25 20 20 20 78 211 22 22 21 37 33 54 36 43 20 31 7759 24 31 22 392 21 32 21 20 13001 20 24 31 52
leaf_count=155 25 20 20 20 78 211 22 22 21 37 33 54 36 43 20 31 7759 24 31 22 392 21 32 21 20 13001 20 24 31 52
internal_value=0 -0.000138401 -0.000626767 1.22102e-06 -0.00010186 -5.33033e-05 -0.000231908 2.78816e-06 -8.58531e-06 2.00317e-05 0.00076762 1.34074e-05 -0.000678101 2.07405e-05 0.000232372 0.00120202 3.59649e-06 0.000104696 0.00106819 8.5343e-06 7.47718e-05 2.51237e-06 -5.30581e-05 -0.000499218 2.65561e-05 -1.11097e-05 0.000761213 9.43778e-06 0.000670212 -1.37722e-05
internal_weight=0 195 40 22103 331 311 100 21772 13119 8653 76 8577 90 8487 636 74 7851 562 51 511 487 465 444 54 412 13098 45 7814 55 13053
internal_count=22298 195 40 22103 331 311 100 21772 13119 8653 76 8577 90 8487 636 74 7851 562 51 511 487 465 444 54 412 13098 45 7814 55 13053
shrinkage=0.05


Tree=186
num_leaves=31
num_cat=0
split_feature=24 1 18 25 12 13 25 27 6 14 1 16 19 2 30 1 30 30 9 12 31 18 12 21 30 21 19 2 24 3
split_gain=0.00152042 0.0070203 0.0413344 0.0263107 0.0109454 0.0174655 0.0150739 0.0179952 0.036645 0.0326295 0.0097774 0.0126584 0.0105305 0.00884729 0.0165476 0.00970273 0.0077803 0.0442656 0.00978341 0.0335767 0.0134419 0.00749257 0.0073869 0.0108033 0.00683601 0.00456837 0.00411235 0.0133085 0.00338086 0.036311
threshold=-3.6693299999999994e-07 -13.076199999999998 0.00037889250000000004 0.25364200000000009 0.012979300000000001 2.4311050000000005 -0.0028442299999999997 -0.46332999999999985 5.2648900000000003e-05 -13.228949999999999 -13.708499999999999 1.9655500000000001 -0.54428449999999995 0.11818750000000001 -0.757575 -17.030649999999998 0.51779999999999948 0.63181500000000013 -1.7041999999999997e-06 0.00026713450000000004 -0.89619499999999996 0.34507250000000006 0.019136800000000006 1.3540300000000001 0.3275999999999995 1.4542300000000001 11.053300000000002 -0.34999249999999998 -2.9986199999999994e-07 7.8320150000000016e-06
decision_type=2 2 2 2 2 2 2 2 2 2 2 2 2 2 2 2 2 2 2 2 2 2 2 2 2 2 2 2 2 2
left_child=1 2 -1 4 6 22 7 25 9 -9 12 -12 -8 15 -15 -14 21 -18 19 -19 -20 24 -6 -24 26 -4 -3 -28 29 -2
right_child=28 16 3 -5 5 -7 10 8 -10 -11 11 -13 13 14 -16 -17 17 18 20 -21 -22 -23 23 -25 -26 -27 27 -29 -30 -31
leaf_value=-0.0021660736835328862 0.0020726752216591116 2.2812471981661847e-06 4.9352457009180483e-05 0.0012596937299617019 0.00073230024976914544 0.0014968688235967422 -0.0010166458355824407 0.00054547847019310934 -0.0027876699935877698 -0.0017982765199526006 0.0014203258328843336 -0.00027757196422455659 0.0008882326614992862 -0.0016449791286008389 -0.00010827844850800196 -5.960724547738513e-05 0.0023492535539528193 0.0021976945604282347 4.0396563058127595e-07 2.3311421087466603e-05 -0.0013683067460806342 -0.00082272860439341715 3.0371363699845405e-05 -0.0012436856251588325 -0.00074122915039467332 -0.00076894227835430727 -0.0014498163571988699 0.00023891841119620951 2.1744188041438829e-06 4.3199970668864647e-05
leaf_weight=25 23 2632 66 34 27 22 34 33 25 27 23 21 36 22 86 108 23 22 174 92 20 29 99 20 32 23 20 28 17944 528
leaf_count=25 23 2632 66 34 27 22 34 33 25 27 23 21 36 22 86 108 23 22 174 92 20 29 99 20 32 23 20 28 17944 528
internal_value=0 -2.87928e-05 -0.000168056 -9.73047e-05 -0.000165962 0.000183549 -0.000282466 -0.000659039 -0.00117935 -0.000509211 -8.39096e-05 0.000609966 -0.00019066 -7.9217e-05 -0.00042131 0.000177353 4.34573e-06 0.000233326 7.53185e-05 0.000442929 -0.0001407 -2.33057e-05 -1.43482e-05 -0.000183756 -1.47573e-05 -0.000162117 -6.08297e-06 -0.000464721 5.92046e-06 0.000127915
internal_weight=0 3803 731 706 672 168 504 174 85 60 330 44 286 252 108 144 3072 331 308 114 194 2741 146 119 2712 89 2680 48 18495 551
internal_count=22298 3803 731 706 672 168 504 174 85 60 330 44 286 252 108 144 3072 331 308 114 194 2741 146 119 2712 89 2680 48 18495 551
shrinkage=0.05


Tree=187
num_leaves=31
num_cat=0
split_feature=13 11 2 3 3 13 27 28 5 27 17 27 20 12 16 20 18 18 4 9 13 28 27 8 8 19 28 21 26 3
split_gain=0.00139749 0.0123925 0.0358258 0.00191956 0.00186149 0.00182068 0.0103534 0.0455724 0.05492 0.0433197 0.0399532 0.0312625 0.100918 0.0175654 0.0097929 0.00918578 0.00475321 0.00429762 0.0396049 0.00484571 0.00356994 0.0149948 0.0577013 0.0414926 0.0979548 0.069047 0.0282386 0.0221395 0.0178873 0.0163553
threshold=-3.0876849999999996 1.2576750000000002e-06 0.53187750000000011 6.5747000000000008e-06 9.7004650000000023e-06 -2.1246899999999997 -0.017509999999999911 -0.010369999999999989 -6.6915099999999986e-05 0.084315000000000154 -0.018344599999999996 -0.12773199999999993 -1.3603049999999998e-05 1.8510700000000002e-05 7.2423300000000017 -7.6990549999999991e-05 0.25734950000000006 0.038678600000000007 -8.7499349999999994e-05 -7.7406349999999987e-07 -1.3353599999999999 -0.174708 -0.10523999999999999 3.4937050000000006e-08 5.2999200000000001e-08 0.13572650000000003 -0.061954999999999975 0.082380350000000005 0.035233300000000002 1.3261150000000003e-05
decision_type=2 2 2 2 2 2 2 2 2 2 2 2 2 2 2 2 2 2 2 2 2 2 2 2 2 2 2 2 2 2
left_child=1 4 -3 -2 -1 6 11 9 -9 10 -8 14 -13 -12 15 -5 17 -11 -19 -20 21 -7 28 26 -25 29 -24 -28 -23 -26
right_child=3 2 -4 5 -6 20 7 8 -10 16 13 12 -14 -15 -16 -17 -18 18 19 -21 -22 22 23 24 25 -27 27 -29 -30 -31
leaf_value=-0.00058190978728816839 -0.00022549139759767538 0.0024007105682921112 -9.1685318571050982e-05 -0.0011181073946751159 -6.1792737538296462e-05 -1.6835213920406682e-05 -0.0028218193412892739 0.0029704192653298381 9.7729508245431986e-05 -1.3676754709762827e-05 0.00060338091874576137 -0.0032018354685586768 0.00054779454834428371 -0.0014226877009423334 0.0010060932466460924 -1.1072943587497247e-05 -0.00070845880582055549 0.002317925879615359 -0.00082689548318739994 5.4204773033221424e-05 -3.2097608150959803e-06 -6.8507212144289413e-05 -0.00093104249172029088 0.0046683632883720008 0.0010945578901945347 0.0032873914630213025 0.00014008741722940359 0.0020619758831225739 0.0014526613298221492 -0.00044457161352612378
leaf_weight=20 95 21 46 21 123 1947 26 28 41 2906 23 34 38 20 21 174 24 20 20 71 15767 573 36 21 28 23 43 23 20 45
leaf_count=20 95 21 46 21 123 1947 26 28 41 2906 23 34 38 20 21 174 24 20 20 71 15767 573 36 21 28 23 43 23 20 45
internal_value=0 0.000128375 0.000689513 -1.22051e-06 -0.000134536 -2.51763e-07 -3.35069e-05 -7.50021e-06 0.00126346 -3.56983e-05 -0.00127454 -0.000320574 -0.00122286 -0.000338977 -1.98101e-05 -0.000130292 -7.58912e-06 -2.01376e-06 0.000303326 -0.000139444 5.97168e-06 5.84413e-05 0.000238938 0.000932508 0.00157511 0.000898457 0.000195409 0.000809836 -1.7203e-05 0.000145779
internal_weight=0 210 67 22088 143 21993 3467 3179 69 3110 69 288 72 43 216 195 3041 3017 111 91 18526 2759 812 219 117 96 102 66 593 73
internal_count=22298 210 67 22088 143 21993 3467 3179 69 3110 69 288 72 43 216 195 3041 3017 111 91 18526 2759 812 219 117 96 102 66 593 73
shrinkage=0.05


end of trees

feature_importances:
feature_3_diff_feature_23=723
feature_24_ratio_feature_4=571
feature_4=330
feature_35=243
feature_5=212
feature_24=189
feature_38=186
feature_23_ratio_feature_3=180
feature_29=173
feature_6=171
feature_36=167
feature_25=159
feature_14=158
feature_39=158
feature_26=153
feature_16=149
feature_12=144
feature_31=144
feature_19=142
feature_15=139
feature_17=133
feature_37=129
feature_20=123
feature_34=112
feature_32=106
feature_2=103
feature_18=101
feature_13=91
feature_40=82
feature_23=81
feature_4_ratio_feature_24=77
feature_3_ratio_feature_23=11

parameters:
[boosting: gbdt]
[objective: regression]
[metric: l2]
[tree_learner: serial]
[device_type: cpu]
[data: ]
[valid: ]
[num_iterations: 10000]
[learning_rate: 0.05]
[num_leaves: 31]
[num_threads: 24]
[force_col_wise: 0]
[force_row_wise: 0]
[histogram_pool_size: -1]
[max_depth: -1]
[min_data_in_leaf: 20]
[min_sum_hessian_in_leaf: 0.001]
[bagging_fraction: 0.9]
[pos_bagging_fraction: 1]
[neg_bagging_fraction: 1]
[bagging_freq: 0]
[bagging_seed: 10438]
[feature_fraction: 0.9]
[feature_fraction_bynode: 1]
[feature_fraction_seed: 6707]
[extra_trees: 0]
[extra_seed: 23424]
[early_stopping_round: 50]
[first_metric_only: 0]
[max_delta_step: 0]
[lambda_l1: 0]
[lambda_l2: 0]
[min_gain_to_split: 0]
[drop_rate: 0.1]
[max_drop: 50]
[skip_drop: 0.5]
[xgboost_dart_mode: 0]
[uniform_drop: 0]
[drop_seed: 18682]
[top_rate: 0.2]
[other_rate: 0.1]
[min_data_per_group: 100]
[max_cat_threshold: 32]
[cat_l2: 10]
[cat_smooth: 10]
[max_cat_to_onehot: 4]
[top_k: 20]
[monotone_constraints: ]
[monotone_constraints_method: basic]
[monotone_penalty: 0]
[feature_contri: ]
[forcedsplits_filename: ]
[refit_decay_rate: 0.9]
[cegb_tradeoff: 1]
[cegb_penalty_split: 0]
[cegb_penalty_feature_lazy: ]
[cegb_penalty_feature_coupled: ]
[path_smooth: 0]
[interaction_constraints: ]
[verbosity: -1]
[saved_feature_importance_type: 0]
[max_bin: 255]
[max_bin_by_feature: ]
[min_data_in_bin: 3]
[bin_construct_sample_cnt: 200000]
[data_random_seed: 4081]
[is_enable_sparse: 1]
[enable_bundle: 1]
[use_missing: 1]
[zero_as_missing: 0]
[feature_pre_filter: 1]
[pre_partition: 0]
[two_round: 0]
[header: 0]
[label_column: ]
[weight_column: ]
[group_column: ]
[ignore_column: ]
[categorical_feature: ]
[forcedbins_filename: ]
[objective_seed: 31546]
[num_class: 1]
[is_unbalance: 0]
[scale_pos_weight: 1]
[sigmoid: 1]
[boost_from_average: 1]
[reg_sqrt: 0]
[alpha: 0.9]
[fair_c: 1]
[poisson_max_delta_step: 0.7]
[tweedie_variance_power: 1.5]
[lambdarank_truncation_level: 20]
[lambdarank_norm: 1]
[label_gain: ]
[eval_at: ]
[multi_error_top_k: 1]
[auc_mu_weights: ]
[num_machines: 1]
[local_listen_port: 12400]
[time_out: 120]
[machine_list_filename: ]
[machines: ]
[gpu_platform_id: -1]
[gpu_device_id: -1]
[gpu_use_dp: 0]

end of parameters

pandas_categorical:[]
