tree
version=v3
num_class=1
num_tree_per_iteration=1
label_index=0
max_feature_idx=31
objective=regression
feature_names=feature_2 feature_4 feature_5 feature_6 feature_12 feature_13 feature_14 feature_15 feature_16 feature_17 feature_18 feature_19 feature_20 feature_23 feature_24 feature_25 feature_26 feature_29 feature_31 feature_32 feature_34 feature_35 feature_36 feature_37 feature_38 feature_39 feature_40 feature_3_diff_feature_23 feature_23_ratio_feature_3 feature_3_ratio_feature_23 feature_24_ratio_feature_4 feature_4_ratio_feature_24
feature_infos=[-16.752600000000001:16.246099999999998] [-20.319500000000001:-4.4782599999999997] [-30.8093:57.964799999999997] [5.6674000000000002e-06:0.0023298199999999998] [-0.027832200000000001:0.0078196399999999992] [-0.020958899999999999:0.028236500000000001] [-0.00035657799999999997:0.0069399600000000002] [1.8339399999999999e-05:1.9515199999999999] [-0.014945999999999999:0.075138999999999997] [-0.0085839799999999997:0.045257800000000001] [-0.0045334399999999997:0.0084634500000000008] [-1.60745:1.84223] [5.1740399999999999e-11:2.4526500000000002] [-3.12656:3.13436] [-42.0899:-5.0951899999999997] [-7.7456100000000001:2.8789500000000001] [0.14570900000000001:337.255] [-4.7191000000000001:12.0253] [4.4848100000000002e-05:4.6588900000000004] [-68.897000000000006:335.04500000000002] [-0.00521471:0.153891] [0.0017619599999999999:8246.0400000000009] [-8.2586999999999993:61.6145] [-92.653999999999996:8.7547599999999992] [-0.00054633199999999996:0.0268715] [-10.6465:1516.5799999999999] [4.26018e-07:279.03699999999998] [-6.1224600000000002:6.2038500000000001] [-6.2038500000000001:6.1224600000000002] [-6.1224600000000002:6.2038500000000001] [-37.126300000000001:14.252400000000002] [-14.252400000000002:37.126300000000001]
tree_sizes=2815 2870 2875 2871 2870 2879 2884 2867 2880 2882 2871 2881 2852 2850 2898 2887 2855 2864 2884 2861 2863 2851 2898 2871 2867 2902 2875 2872 2886 2874 2885 2906 2882 2918 2915 2898 2916 2913 2888 2898 2912 2905 2906 2898 2915 2906 2912 2909 2934 2917 2902 2911 2930 2916 2930 2934 2918 2898 2919 2913 2936 2934 2939 2928 2941 2946 2959 2955 2974 2967 3003 2978 2977 2949 2962 2992 2993 2985 2975 3003 2997 2987 2993 2996 3002 2982 2980 2978 2993 2971 2997 2984 2998 3018 2964 2990 2993 2975 3016 2994 3008 2999 2979 3012 3007 3018 2966 2995 3023 3016 3011 2983 2973 2981 2961 2999 2990 2963 2979 3027 2989 2998 2975 2994 3014 2962 2973 2995 2987 3012 2971 2965 2986 2959 2979 2972 2995 2983 2984 2939 2972 3009 2992 2975 2972

Tree=0
num_leaves=31
num_cat=0
split_feature=27 27 30 30 27 26 30 27 21 30 26 27 18 2 1 30 10 23 17 27 30 30 21 26 27 24 25 10 20 17
split_gain=22.5422 272.668 119.566 121.038 43.1167 11.7827 6.80931 5.18418 4.5996 5.91469 4.56219 3.99796 3.49898 2.66471 2.6521 1.46944 1.15257 1.07107 0.909862 1.62425 1.6 0.704442 2.15082 0.680543 0.440958 2.48806 0.665888 0.361714 0.336335 0.319787
threshold=-0.19554999999999986 0.062192999999999977 -1.1060349999999997 0.88446499999999972 -0.039689999999999996 2.0472350000000004e-05 -0.70745499999999939 0.10539999999999995 0.27248800000000006 2.3121949999999996 0.00013884700000000002 -0.08291700000000006 0.0031863300000000007 0.61727300000000007 -13.194549999999998 -0.87083499999999947 2.9754450000000002e-07 0.12359200000000001 0.22400850000000003 0.33758199999999999 -1.4031499999999999 0.31050000000000028 0.072701400000000013 3.2791400000000006e-05 0.23661500000000005 5.2881150000000013e-06 -0.018882099999999995 -4.2035449999999994e-07 0.0016195950000000004 -0.47810599999999998
decision_type=2 2 2 2 2 2 2 2 2 2 2 2 2 2 2 2 2 2 2 2 2 2 2 2 2 2 2 2 2 2
left_child=29 2 14 4 5 -4 -6 10 -5 -10 23 12 -7 21 -2 -12 -13 -16 24 20 -20 27 -23 -3 25 26 -9 -8 -21 -1
right_child=1 7 3 8 6 11 13 18 9 -11 15 16 -14 -15 17 -17 -18 -19 19 28 -22 22 -24 -25 -26 -27 -28 -29 -30 -31
leaf_value=0.036903088717495161 0.052661234139607355 0.034216024661828763 0.035152076565223143 0.034052211513892358 0.054446948431973938 0.041021022456032542 0.076113615179355221 0.042704524145805757 0.065280281805664586 0.033613615021030392 0.044030281726502168 0.065431796957744176 0.068613615151415563 0.063613615132789098 0.033957651719559737 0.060002504008225557 0.081439702155718191 0.045518376970140995 0.036113615030343618 0.03397075787950371 0.056113615104849426 0.063613615132789098 0.083613615207294906 0.042704524145805757 0.033629257945272627 0.049685043652329702 0.03374948458675394 0.082961846117343613 0.040756472190496752 0.033647744713990298
leaf_weight=76 21 83 65 228 24 27 20 22 30 29 24 22 20 20 436 36 23 21 20 140 20 20 41 33 9589 28 368 537 21 10255
leaf_count=76 21 83 65 228 24 27 20 22 30 29 24 22 20 20 436 36 23 21 20 140 20 20 41 33 9589 28 368 537 21 10255
internal_value=0.0353828 0.0368598 0.0561831 0.065214 0.0750056 0.051448 0.0805925 0.0339122 0.0372722 0.0497153 0.0424204 0.0629614 0.0527626 0.081576 0.0352873 0.0536136 0.0736136 0.0344889 0.0337655 0.0370962 0.0461136 0.0821573 0.0770562 0.0366309 0.0336986 0.0352883 0.0342546 0.0827159 0.0348559 0.0336717
internal_weight=0 11968 1584 1106 819 157 662 10384 287 59 176 92 47 638 478 60 45 457 10208 201 40 618 61 116 10007 418 390 557 161 10331
internal_count=22299 11968 1584 1106 819 157 662 10384 287 59 176 92 47 638 478 60 45 457 10208 201 40 618 61 116 10007 418 390 557 161 10331
shrinkage=1


Tree=1
num_leaves=31
num_cat=0
split_feature=30 30 27 27 27 14 30 18 27 1 30 21 27 27 27 1 27 21 27 2 6 17 1 15 21 27 27 18 30 27
split_gain=20.3721 93.98 78.3015 274.545 10.4527 5.95651 6.42543 5.67497 4.32917 2.93286 2.7429 4.61256 4.96645 21.7505 1.56699 1.29014 1.23508 1.10529 2.96035 1.0718 0.998756 0.737384 0.66659 0.997578 0.435192 0.570388 5.3819 0.380763 1.79898 1.31358
threshold=-0.70745499999999939 0.26367500000000016 -0.12303449999999989 0.10539999999999995 -0.039689999999999996 -14.283699999999998 0.76082999999999956 0.00046083800000000004 0.062192999999999977 -17.279499999999995 0.88446499999999972 0.072063100000000005 -0.22542900000000002 0.082175499999999971 -0.039689999999999996 -8.6023199999999989 0.23661500000000005 0.70286000000000015 0.28691050000000012 0.2905815000000001 5.3955750000000013e-05 -0.13629249999999996 -14.372349999999999 0.34526250000000008 0.022871950000000005 0.082175499999999971 -0.25124499999999989 0.0086933900000000022 -1.1060349999999997 -0.30126800000000004
decision_type=2 2 2 2 2 2 2 2 2 2 2 2 2 2 2 2 2 2 2 2 2 2 2 2 2 2 2 2 2 2
left_child=9 2 21 4 7 6 20 -4 19 -1 11 24 -13 14 -14 -9 -5 -8 -19 -6 -3 -2 23 -11 -7 26 -26 -24 -29 -30
right_child=1 5 3 16 8 10 17 15 -10 22 -12 12 13 -15 -16 -17 -18 18 -20 -21 -22 -23 27 -25 25 -27 -28 28 29 -31
leaf_value=0.015324898114284644 0.0081265068706125026 0.031641253731820897 0.0025902222032132358 0.0078902807086706165 0.045117776188999419 -0.0016122920735383444 -0.00024301640725895473 0.041842872615564956 0.024492602702230217 -0.00031185744051960692 -0.0015449869911852688 -0.00086266690911340326 0.02639096923680468 -0.0017273578260626112 0.043328669801768332 0.024296530326828363 -0.0015665743464641582 0.022602729431607509 -0.0017202289967701353 0.034722735675481647 0.016559480955558165 -0.00158026043098006 -0.0016428160350142899 0.008630352442790019 -0.0016823872923851014 -0.0016865746396564946 0.027021513767540459 -0.00115321627450618 -0.0016959512140601873 0.013171280930057551
leaf_weight=26 20 23 23 36 536 521 102 22 28 174 7028 121 22 98 36 20 843 22 29 26 21 900 10073 38 89 97 20 1242 24 39
leaf_count=26 20 23 23 36 536 521 102 22 28 174 7028 121 22 98 36 20 843 22 29 26 21 900 10073 38 89 97 20 1242 24 39
internal_value=0 0.00157589 0.0101636 0.0170803 0.0415844 -0.00098508 0.00760449 0.0225546 0.0436809 -0.00144932 -0.00119575 0.00124887 0.00673924 0.0126356 0.036904 0.0334875 -0.00117926 0.002762 0.00877203 0.0446369 0.0244431 -0.00136924 -0.00148695 0.00129099 -0.000843059 0.00110243 0.00358438 -0.00153871 -0.000735109 0.00750757
internal_weight=0 10683 2454 1534 655 8229 197 65 590 11616 8032 1004 277 156 58 42 879 153 51 562 44 920 11590 212 727 206 109 11378 1305 63
internal_count=22299 10683 2454 1534 655 8229 197 65 590 11616 8032 1004 277 156 58 42 879 153 51 562 44 920 11590 212 727 206 109 11378 1305 63
shrinkage=0.05


Tree=2
num_leaves=31
num_cat=0
split_feature=27 27 31 30 27 18 30 27 26 21 30 27 11 24 7 10 30 17 27 26 11 30 21 20 17 27 27 24 25 1
split_gain=18.581 237.428 94.8109 93.4133 31.1632 10.0801 4.87393 4.36049 4.02272 3.78688 5.52293 2.50911 2.27044 2.07791 1.44603 1.27258 1.22976 0.79312 1.46257 0.592091 0.485654 0.443231 1.25148 0.389803 0.381142 0.765094 0.373355 2.21999 0.570884 0.346368
threshold=-0.17305199999999996 0.062192999999999977 1.1102250000000005 0.93964999999999954 -0.039689999999999996 0.00046083800000000004 -0.70745499999999939 0.10539999999999995 0.00013884700000000002 0.13566000000000003 2.3121949999999996 -0.08291700000000006 0.00012389700000000001 1.7309350000000004e-06 0.0011683850000000003 2.9754450000000002e-07 -0.87083499999999947 0.22400850000000003 0.26162950000000007 3.2791400000000006e-05 -0.00012229499999999999 0.31050000000000028 0.078864150000000008 0.0016195950000000004 -0.47810599999999998 -0.56077824999999992 0.23661500000000005 5.2881150000000013e-06 -0.018882099999999995 -10.645549999999998
decision_type=2 2 2 2 2 2 2 2 2 2 2 2 2 2 2 2 2 2 2 2 2 2 2 2 2 2 2 2 2 2
left_child=24 2 3 4 5 -2 -6 8 19 -5 -11 -7 20 29 -15 -13 -10 26 -19 -3 -8 -22 -23 -20 25 -1 27 28 -9 -4
right_child=1 7 13 9 6 11 12 17 16 10 -12 15 -14 14 -16 -17 -18 18 23 -21 21 22 -24 -25 -26 -27 -28 -29 -30 -31
leaf_value=-0.00096706179901957518 -0.00016109759262839302 -0.0012171041512166162 0.0034584698594502502 -0.0016260289706480809 0.019237333871424199 0.016803719777915931 0.034982105937193746 0.0067820582454177466 0.008215465644995373 0.027573084014077345 -0.0016073014148894477 0.025806165697134061 0.025161229651421309 0.0022038031965494159 0.020241480274125936 0.042264757988353573 0.02282708848619627 0.012471280647096811 -0.0010281136825781418 0.0067005629227920019 0.042980595522756071 0.028292370131239298 0.043971236348152164 0.005610079246644791 -0.0015674587173270149 0.010373788839206101 -0.0015920490067266103 0.013533600100449154 -0.0015095897838878244 -0.001632027313977048
leaf_weight=58 61 83 37 195 25 37 22 22 24 31 34 23 20 25 20 24 36 27 148 33 542 20 35 26 10341 20 9589 28 368 345
leaf_count=58 61 83 37 195 25 37 22 22 24 31 34 23 20 25 20 24 36 27 148 33 542 20 35 26 10341 20 9589 28 368 345
internal_value=0 0.00135166 0.0199744 0.0279298 0.0363089 0.015309 0.0408947 -0.00133129 0.00647185 0.00185785 0.0123095 0.0265433 0.041742 5.81701e-05 0.0102205 0.0342106 0.0169824 -0.00146582 0.00164391 0.00103534 0.0422778 0.0425466 0.0382698 -3.61998e-05 -0.00154119 0.00194085 -0.00152828 -6.55095e-05 -0.00104186 -0.00113897
internal_weight=0 11880 1496 1069 809 145 664 10384 176 260 65 84 639 427 45 47 60 10208 201 116 619 597 55 174 10419 78 10007 418 390 382
internal_count=22299 11880 1496 1069 809 145 664 10384 176 260 65 84 639 427 45 47 60 10208 201 116 619 597 55 174 10419 78 10007 418 390 382
shrinkage=0.05


Tree=3
num_leaves=31
num_cat=0
split_feature=27 27 31 31 27 18 31 27 26 14 31 27 2 24 23 3 10 17 27 26 2 31 21 20 17 27 27 26 31 1
split_gain=16.7694 214.279 85.5668 84.3055 28.1248 9.0973 4.39872 3.93534 3.63051 3.52996 4.44181 2.26447 2.06176 1.87532 1.42659 1.35997 1.14851 0.715791 1.31997 0.534362 0.446095 0.397018 1.13402 0.351797 0.34803 0.843106 0.336953 2.02384 1.87903 0.312597
threshold=-0.17305199999999996 0.062192999999999977 1.1102250000000005 -0.93964999999999932 -0.039689999999999996 0.00046083800000000004 0.71120499999999975 0.10539999999999995 0.00013884700000000002 -10.609499999999999 -2.3121949999999987 -0.08291700000000006 0.61727300000000007 1.7309350000000004e-06 0.013287600000000002 1.5134550000000002e-05 2.9754450000000002e-07 0.22400850000000003 0.26162950000000007 3.2791400000000006e-05 -0.52630149999999987 -0.31050000000000016 0.078864150000000008 0.0016195950000000004 -0.18709999999999996 -0.32627999999999996 0.23661500000000005 0.0027998500000000004 3.2477600000000004 -10.645549999999998
decision_type=2 2 2 2 2 2 2 2 2 2 2 2 2 2 2 2 2 2 2 2 2 2 2 2 2 2 2 2 2 2
left_child=24 2 3 9 5 -5 12 8 19 10 -2 -7 20 29 -15 -10 -13 26 -19 -3 -6 22 -22 -20 25 -1 27 -9 -29 -4
right_child=1 7 13 4 6 11 -8 17 15 -11 -12 16 -14 14 -16 -17 -18 18 23 -21 21 -23 -24 -25 -26 -27 -28 28 -30 -31
leaf_value=-0.00067858097803158066 -0.0015341008648924207 -0.0011562489489295397 0.003285546273597189 -0.00015304268444659282 0.033173236352476203 0.015963533661655479 0.018275467127561573 -0.0013300449706028471 0.023414091225112638 -0.00097174124153846873 0.029214785255802175 0.024515857466537019 0.023854502700269224 0.0017468699291348457 0.019662834582850338 0.0083504215396683797 0.04015152001132568 0.011847716928632172 -0.00097670796629343486 0.0063655346236897239 0.026877751871943474 0.040833849824167712 0.041802667123930798 0.0053295750815707914 -0.0015065768822926798 0.0086087908496015851 -0.0015124465380552006 0.019078594557940962 -0.00050800374786679945 -0.001550425856873609
leaf_weight=192 23 83 37 61 22 37 25 369 31 213 24 23 20 25 20 29 24 27 148 33 20 542 35 26 10199 28 9589 25 24 345
leaf_count=192 23 83 37 61 22 37 25 369 31 213 24 23 20 25 20 29 24 27 148 33 20 542 35 26 10199 28 9589 25 24 345
internal_value=0 0.00128408 0.0189757 0.0265333 0.0344934 0.0145436 0.03885 -0.00126472 0.00614826 0.00176496 0.0141675 0.0252161 0.0396549 5.52617e-05 0.00970952 0.0161333 0.0325 -0.00139253 0.00156171 0.000983569 0.0401654 0.0404231 0.0363754 -3.43898e-05 -0.00146413 0.000503448 -0.00145187 -6.2234e-05 0.00948516 -0.00108202
internal_weight=0 11880 1496 1069 809 145 664 10384 176 260 47 84 639 427 45 60 47 10208 201 116 619 597 55 174 10419 220 10007 418 49 382
internal_count=22299 11880 1496 1069 809 145 664 10384 176 260 47 84 639 427 45 60 47 10208 201 116 619 597 55 174 10419 220 10007 418 49 382
shrinkage=0.05


Tree=4
num_leaves=31
num_cat=0
split_feature=27 27 31 30 27 26 21 30 30 27 26 27 14 27 6 1 3 23 1 17 27 30 26 27 24 25 24 17 10 0
split_gain=15.1378 182.555 79.6271 79.9115 28.502 7.7274 4.477 5.16132 4.04095 3.55164 3.27653 2.66621 1.88044 1.87752 1.8333 1.64064 1.22737 0.873473 1.16043 0.646001 1.20292 1.44062 0.482262 0.3041 1.85076 0.479765 0.252893 0.231349 0.445244 0.213225
threshold=-0.19554999999999986 0.062192999999999977 1.1102250000000005 0.76082999999999956 -0.039689999999999996 2.0472350000000004e-05 0.12287100000000002 2.3121949999999996 -0.70745499999999939 0.10539999999999995 0.00013884700000000002 -0.10215499999999998 -8.3693049999999989 -0.061827999999999932 6.4694650000000006e-05 -13.194549999999998 1.5134550000000002e-05 0.023809650000000005 -6.9915399999999996 0.22400850000000003 0.33758199999999999 -1.4031499999999999 3.2791400000000006e-05 0.23661500000000005 5.2881150000000013e-06 -0.018882099999999995 0.00014997500000000003 -0.47810599999999998 5.7611150000000008e-07 8.5772100000000027
decision_type=2 2 2 2 2 2 2 2 2 2 2 2 2 2 2 2 2 2 2 2 2 2 2 2 2 2 2 2 2 2
left_child=27 2 3 4 5 -2 -5 13 -6 10 22 -7 -13 -8 29 -4 -12 -17 -19 23 21 -21 -3 24 25 -11 -22 28 -1 -10
right_child=1 9 15 6 8 11 7 -9 14 19 16 12 -14 -15 -16 17 -18 18 -20 20 26 -23 -24 -25 -26 -27 -28 -29 -30 -31
leaf_value=-0.00094076573649155251 -0.00020431880548130721 -0.0010984365256076836 0.013907957077026368 -0.0012365850305335749 0.017361693471670152 0.011756221900748856 0.012732544657774271 -0.0014812638413988881 0.038754658706841021 0.0062218163839795372 0.022243386314761256 0.037027220879540301 0.017597560733556748 0.033475357216472428 0.024001470613090891 -0.0014134331925767631 0.0079329008300756589 0.014856907702051104 -0.001971672209245818 -0.00024504653178155424 -0.0015647825937657083 0.018732687169685961 0.0060472583341779134 -0.0014368242272789187 0.012357679528317282 -0.0013793698742317604 0.0030605120035127192 -0.0014225328361741774 0.0077501775883138183 0.036027423108378087
leaf_weight=56 64 83 20 222 25 34 20 36 525 22 31 33 20 24 23 414 29 20 21 20 122 20 33 9589 28 368 39 10255 20 83
leaf_count=56 64 83 20 222 25 34 20 36 525 22 31 33 20 24 23 414 29 20 21 20 122 20 33 9589 28 368 39 10255 20 83
internal_value=0 0.00121037 0.0170214 0.0243582 0.0325688 0.0129833 0.00241792 0.0125592 0.0370771 -0.00120149 0.00584084 0.0226846 0.0296953 0.0240468 0.0378582 -0.000107935 0.0153267 -0.000724018 0.00623739 -0.0013229 0.00148363 0.00924382 0.00093439 -0.00137928 -5.91223e-05 -0.000950585 -0.00044437 -0.00140216 0.00134632 0.0383824
internal_weight=0 11968 1584 1109 807 151 302 80 656 10384 176 87 53 44 631 475 60 455 41 10208 201 40 116 10007 418 390 161 10331 76 608
internal_count=22299 11968 1584 1109 807 151 302 80 656 10384 176 87 53 44 631 475 60 455 41 10208 201 40 116 10007 418 390 161 10331 76 608
shrinkage=0.05


Tree=5
num_leaves=31
num_cat=0
split_feature=30 30 28 28 28 30 21 14 30 1 28 30 21 28 28 17 4 12 28 21 28 2 6 28 17 17 1 25 22 8
split_gain=13.6841 51.5424 48.1425 186.005 15.6802 5.25875 5.06784 4.28428 4.50694 2.30446 2.14328 1.8371 3.22968 3.31505 14.9994 1.6944 1.40661 1.25843 1.1029 0.838502 2.23708 0.810419 0.694359 0.552672 0.869065 0.367067 0.342344 0.593736 0.315119 0.474185
threshold=-0.96838499999999994 0.26367500000000016 0.19554999999999992 -0.10539999999999992 0.03969000000000001 -0.70745499999999939 0.064522300000000019 -14.283699999999998 0.76082999999999956 -17.279499999999995 -0.062192999999999964 0.88446499999999972 0.072063100000000005 0.30126800000000015 -0.082175499999999943 0.22400850000000003 1.3003100000000003e-05 1.7628450000000002e-05 0.082917000000000088 0.70286000000000015 -0.18449200000000013 0.2905815000000001 5.3955750000000013e-05 -0.23661499999999999 -0.0042417949999999987 -0.14520449999999999 -14.166599999999997 -0.11444099999999997 0.0029260650000000007 8.6769100000000006e-08
decision_type=2 2 2 2 2 2 2 2 2 2 2 2 2 2 2 2 2 2 2 2 2 2 2 2 2 2 2 2 2 2
left_child=9 2 3 15 5 -5 18 8 22 -1 -7 12 28 14 -14 23 -8 -16 -6 -10 -21 -12 -3 -2 -25 -4 27 -11 -9 -30
right_child=1 7 25 4 6 10 16 11 19 26 21 -13 13 -15 17 -17 -18 -19 -20 20 -22 -23 -24 24 -26 -27 -28 -29 29 -31
leaf_value=0.01492087035863237 -0.0013836207617956837 0.026580026713402378 0.0054963284032419329 0.011818734346888959 0.01241863782384566 0.022193657593535528 0.017764598437185801 -0.001001745022664264 -0.00019727831469008736 0.0082477056866754658 0.036785688279057614 -0.0012735261284207156 -0.0015029425865837507 -0.00060361161566347137 0.037692927469809852 0.01257058094943995 0.034452376854808439 0.022954218036362106 -0.0021550959578770048 -0.0014661406648570094 0.019677769189531152 0.027746617106290967 0.0140048282753144 0.011737848654211987 -0.0017178275688950505 -0.0013376672165443368 -0.0013183016901743305 -0.00021625617340777478 -0.0013745538385895393 0.0090498148929327726
leaf_weight=22 1051 23 20 24 21 28 28 683 102 23 536 7028 98 121 30 23 23 28 34 29 22 26 21 21 28 1119 10834 209 24 20
leaf_count=22 1051 23 20 24 21 28 28 683 102 23 536 7028 98 121 30 23 23 28 34 29 22 26 21 21 28 1119 10834 209 24 20
internal_value=0 0.0012318 0.00686363 0.011858 0.0316958 0.0347616 0.0139371 -0.000809045 0.0064757 -0.00124547 0.0356949 -0.000987717 0.00101294 0.00560715 0.0104245 -0.000860789 0.0252905 0.0305777 0.00340942 0.00242007 0.00765476 0.0363675 0.0205782 -0.00114163 0.00404889 -0.00121767 -0.00127761 0.000622843 -0.000737531 0.0033638
internal_weight=0 11211 2982 1843 720 614 106 8229 197 11088 590 8032 1004 277 156 1123 51 58 55 153 51 562 44 1100 49 1139 11066 232 727 44
internal_count=22299 11211 2982 1843 720 614 106 8229 197 11088 590 8032 1004 277 156 1123 51 58 55 153 51 562 44 1100 49 1139 11066 232 727 44
shrinkage=0.05


Tree=6
num_leaves=31
num_cat=0
split_feature=27 27 30 30 27 21 30 27 21 30 26 9 11 16 24 3 17 27 26 11 20 17 27 23 27 24 25 0 30 21
split_gain=12.4813 158.995 63.0475 60.1001 22.3432 7.40446 4.44288 2.95946 2.93626 4.47105 2.89297 1.75012 1.64355 1.29434 1.22037 1.08716 0.547787 1.09973 0.426142 0.371936 0.284882 0.279892 0.631544 0.271536 0.256863 1.64263 0.408697 0.219638 0.929555 0.166863
threshold=-0.17305199999999996 0.062192999999999977 -1.3691699999999993 0.93964999999999954 -0.039689999999999996 0.086816450000000017 -0.70745499999999939 0.10539999999999995 0.27248800000000006 2.3121949999999996 0.00013884700000000002 3.5688500000000004e-07 0.00012389700000000001 0.88139100000000015 1.2540500000000001e-05 1.5134550000000002e-05 0.22400850000000003 0.26162950000000007 3.2791400000000006e-05 -0.00012229499999999999 0.0016195950000000004 -0.47810599999999998 -0.56077824999999992 0.00039436000000000007 0.23661500000000005 5.2881150000000013e-06 -0.018882099999999995 8.0541100000000014 0.021970000000000049 1.6089400000000003
decision_type=2 2 2 2 2 2 2 2 2 2 2 2 2 2 2 2 2 2 2 2 2 2 2 2 2 2 2 2 2 2
left_child=21 2 14 4 5 13 -6 10 -5 -10 18 -7 19 23 29 -12 24 -18 -3 -8 -19 22 -1 -4 25 26 -9 -21 -29 -2
right_child=1 7 3 8 6 11 12 16 9 -11 15 -13 -14 -15 -16 -17 17 20 -20 27 -22 -23 -24 -25 -26 -27 -28 28 -30 -31
leaf_value=-0.00092118128748803314 -0.0014333238527915405 -0.0011804656293916416 -0.0019532066411696949 -0.0010357013554312289 0.015526027703548179 0.018249438483363543 0.028146187927235257 0.0057428799992935223 0.028084086921686929 -0.0013256934039028627 0.020763729128145406 0.034809491866164742 0.019967793356627225 0.014329371536150576 0.011542425137013198 0.0072954563102845486 0.01077458061001919 -0.00091900689514806959 0.0055366075738812939 0.035191092925344059 0.0047559150208074316 -0.0012856475140071938 0.0093824429251253613 0.0049021998094394802 -0.0013033552363842015 0.011660646154944387 -0.0012727650401243211 0.0357589608517246 0.025090614937502767 0.0023922672224861961
leaf_weight=58 354 83 52 208 34 39 22 22 24 28 31 27 20 20 20 29 27 148 33 499 26 10341 20 20 9589 28 368 69 29 31
leaf_count=58 354 83 52 208 34 39 22 22 24 28 31 27 20 20 20 29 27 148 33 499 26 10341 20 20 9589 28 368 69 29 31
internal_value=0 0.0011078 0.0163473 0.0226012 0.0291654 0.0122446 0.0331379 -0.00108772 0.00162105 0.0122481 0.00534076 0.025024 0.034075 0.00307679 -0.000499723 0.0142541 -0.00119856 0.00138584 0.000730426 0.0345308 -7.10301e-05 -0.00126314 0.00172077 -4.89271e-05 -0.00125047 -3.71677e-05 -0.000877011 0.0347661 0.032602 -0.00112529
internal_weight=0 11880 1496 1091 831 158 673 10384 260 52 176 66 639 92 405 60 10208 201 116 619 174 10419 78 72 10007 418 390 597 98 385
internal_count=22299 11880 1496 1091 831 158 673 10384 260 52 176 66 639 92 405 60 10208 201 116 619 174 10419 78 72 10007 418 390 597 98 385
shrinkage=0.05


Tree=7
num_leaves=31
num_cat=0
split_feature=27 27 31 30 27 18 11 14 30 27 26 30 27 20 11 16 30 27 15 26 17 5 23 7 0 6 22 17 27 30
split_gain=11.2643 143.493 56.912 55.8165 18.7803 6.16574 3.09484 2.7146 3.37289 2.67091 2.6109 1.83596 1.8002 1.4608 1.53783 1.05327 0.993786 0.501285 2.88561 0.384593 0.321944 0.584847 0.301181 0.632696 0.26675 1.03523 0.265483 0.257061 1.04703 0.177357
threshold=-0.17305199999999996 0.062192999999999977 1.1102250000000005 0.93964999999999954 -0.039689999999999996 0.00046083800000000004 0.00015827550000000002 -10.609499999999999 2.3943700000000008 0.10539999999999995 0.00013884700000000002 -0.67309499999999989 -0.08291700000000006 5.4934400000000007e-05 -1.5775299999999999e-06 2.6117300000000006 -0.87083499999999947 0.18449200000000018 0.70144250000000008 3.2791400000000006e-05 0.95288800000000007 0.00013606750000000003 0.0092104550000000011 0.00048853650000000009 8.0541100000000014 1.7398300000000002e-05 -0.0078427699999999989 -0.24461849999999999 -0.32627999999999996 1.6149950000000002
decision_type=2 2 2 2 2 2 2 2 2 2 2 2 2 2 2 2 2 2 2 2 2 2 2 2 2 2 2 2 2 2
left_child=27 2 3 4 5 -2 11 8 -5 10 19 -6 -7 22 -15 -14 -12 18 26 -3 -19 -22 -4 -24 -13 -26 -11 28 -1 -9
right_child=1 9 13 7 6 12 -8 29 -10 17 16 24 15 14 -16 -17 -18 20 -20 -21 21 -23 23 -25 25 -27 -28 -29 -30 -31
leaf_value=-0.00070984112797304992 -0.00023085734974898276 -0.0011214423386088337 -0.0014068243535819338 0.025528533322115739 0.019569996537433732 0.012404798716306687 0.012360322326421739 0.0029269455621639892 -0.0012662557520620203 0.0046902933335375221 0.0056602691610654204 0.03334499418764271 0.03359103004137675 0.018988267332315446 -0.00016854076900265434 0.018452187739312648 0.01879542178163926 -0.0012151129892015756 0.017174544721841812 0.0052597770975394689 -0.0021896256916224956 0.0091289097664966467 -0.001839069767544667 0.0096418601274490361 0.033085010059272189 0.020350658893585206 -0.00119610096310872 -0.0012330057151039981 0.011164748003440243 -0.0014096199024108149
leaf_weight=160 61 83 335 24 27 37 20 27 23 21 24 518 27 20 22 20 36 9898 25 33 25 21 30 20 79 20 218 10238 21 186
leaf_count=160 61 83 335 24 27 37 20 27 23 21 24 518 27 20 22 20 36 9898 25 33 25 21 30 20 79 20 218 10238 21 186
internal_value=0 0.00105241 0.0155299 0.0216935 0.0281705 0.0118683 0.0317305 0.00154 0.0124162 -0.00103333 0.00507372 0.032332 0.0206545 9.93827e-05 0.00895375 0.027149 0.0135414 -0.00113863 0.00101178 0.000693905 -0.00119572 0.00297753 -0.000866548 0.0027533 0.0328905 0.0305124 -0.000678886 -0.00119998 0.000667874 -0.000859914
internal_weight=0 11880 1496 1069 809 145 664 260 47 10384 176 644 84 427 42 47 60 10208 264 116 9944 46 385 50 617 99 239 10419 181 213
internal_count=22299 11880 1496 1069 809 145 664 260 47 10384 176 644 84 427 42 47 60 10208 264 116 9944 46 385 50 617 99 239 10419 181 213
shrinkage=0.05


Tree=8
num_leaves=31
num_cat=0
split_feature=30 30 27 27 27 2 2 16 1 14 30 30 17 27 17 21 27 27 12 17 30 17 1 27 27 18 1 25 15 3
split_gain=10.1799 38.4522 36.6249 148.357 13.0276 6.37643 5.2319 4.17213 1.97425 1.77554 1.91389 1.6847 1.62388 0.731598 1.08684 0.67187 1.69184 0.64708 1.75894 0.50015 0.424359 1.18627 0.612975 1.06883 0.35246 2.23692 0.285418 0.501988 0.24214 0.220387
threshold=-0.96838499999999994 0.49994999999999928 -0.19554999999999986 0.10539999999999995 -0.08291700000000006 -0.7010829999999999 0.7894500000000001 2.0237400000000005 -17.279499999999995 -14.283699999999998 0.76082999999999956 -0.67309499999999989 0.22400850000000003 0.23661500000000005 -0.0064788449999999996 0.51382200000000011 0.28691050000000012 -0.039689999999999996 6.2242400000000009e-07 -0.15993099999999996 0.88446499999999972 -0.073788849999999975 -11.892099999999997 -0.017273000000000035 0.026820000000000014 0.00035338800000000005 -14.166599999999997 -0.11444099999999997 1.3124250000000002 1.0282800000000001e-05
decision_type=2 2 2 2 2 2 2 2 2 2 2 2 2 2 2 2 2 2 2 2 2 2 2 2 2 2 2 2 2 2
left_child=8 2 19 4 7 -6 11 -4 -1 10 -3 -7 13 14 -5 -12 -17 18 -13 -2 21 -11 23 -23 -19 -26 27 -10 -22 -29
right_child=1 9 3 12 5 6 -8 -9 26 20 15 17 -14 -15 -16 16 -18 24 -20 -21 28 22 -24 -25 25 -27 -28 29 -30 -31
leaf_value=0.013889101740311494 0.0061574740995032099 0.018269930176791693 -0.0020201817077274125 0.013974788640625775 0.0023672562981532381 0.017767024226486683 0.0057200903199951759 0.024700237455822172 0.0076423201305062874 0.0095085366995948731 -0.00048849729480602417 0.014162338953465223 0.011451015731802693 -0.0012022038212933146 -0.00036131616395253404 0.015580080339202175 -0.0012965574296134891 0.031866462801424959 0.034056086935102946 -0.0011263559837067876 -0.0011186882316743735 -0.0017757937056012453 -0.00091789165976412397 0.010014882165233831 0.013993737958371638 0.033896530916293459 -0.001141133031847211 0.0031971063930541278 0.0036254450816799095 -0.0009301657749879995
leaf_weight=22 24 21 48 20 22 25 22 21 23 33 93 20 27 1222 39 27 33 530 25 1309 7001 40 477 37 20 48 10834 40 27 169
leaf_count=22 24 21 48 20 22 25 22 21 23 33 93 20 27 1222 39 27 33 530 25 1309 7001 40 477 37 20 48 10834 40 27 169
internal_value=0 0.00106244 0.00548027 0.0096123 0.0268561 0.0288664 0.0297113 0.00611212 -0.00107423 -0.000878478 0.0041156 0.0305014 -0.000683877 -0.000939648 0.00449838 0.00217285 0.00629793 0.0309966 0.0252144 -0.000995214 -0.000992591 0.00029892 -0.000249667 0.00388986 0.0314317 0.0280428 -0.00110397 0.000631291 -0.00110046 -0.000140257
internal_weight=0 11211 3422 2089 781 712 690 69 11088 7789 174 668 1308 1281 59 153 60 643 45 1333 7615 587 554 77 598 68 11066 232 7028 209
internal_count=22299 11211 3422 2089 781 712 690 69 11088 7789 174 668 1308 1281 59 153 60 643 45 1333 7615 587 554 77 598 68 11066 232 7028 209
shrinkage=0.05


Tree=9
num_leaves=31
num_cat=0
split_feature=27 27 30 30 27 26 2 2 27 26 10 27 26 24 11 26 30 30 17 27 20 10 17 10 0 30 27 24 25 26
split_gain=9.27062 118.091 46.7866 44.2978 18.0854 6.28992 4.32156 2.71189 2.19373 2.26258 1.51269 1.05133 1.34019 1.02676 0.958621 0.935365 1.89418 0.729902 0.43033 0.929889 0.346694 0.294514 0.217204 0.541944 0.201306 0.78638 0.194611 1.37778 0.314693 0.152368
threshold=-0.17305199999999996 0.062192999999999977 -1.3691699999999993 1.3577250000000005 -0.039689999999999996 8.8453900000000024e-05 0.7894500000000001 -0.7010829999999999 0.10539999999999995 0.00013884700000000002 4.9118450000000005e-07 -0.08291700000000006 6.630110000000001e-06 1.2540500000000001e-05 -4.6526649999999988e-06 0.00030955750000000003 2.3121949999999996 -0.70745499999999939 0.22400850000000003 0.26162950000000007 8.6922200000000009e-06 -1.148465e-07 -0.47810599999999998 7.8403450000000014e-07 8.0541100000000014 0.021970000000000049 0.23661500000000005 5.2881150000000013e-06 -0.018882099999999995 4.8860900000000005e-05
decision_type=2 2 2 2 2 2 2 2 2 2 2 2 2 2 2 2 2 2 2 2 2 2 2 2 2 2 2 2 2 2
left_child=22 2 13 4 5 11 7 -6 9 20 -7 -4 -13 -2 -11 -5 -17 -9 26 -20 -3 -21 23 -1 29 -26 27 28 -10 -19
right_child=1 8 3 15 6 10 -8 17 18 14 -12 12 -14 -15 -16 16 -18 24 19 21 -22 -23 -24 -25 25 -27 -28 -29 -30 -31
leaf_value=-0.00090739521808151549 -0.00099812267372360484 -0.0007275667031838869 -0.0023863455064461699 -0.0013162562231752066 0.010988967157900334 0.014349805819136755 0.0055306548904627568 0.020938293911192729 0.0050169867717406967 0.019957814395427705 0.029050107510494333 -2.4200355013211569e-05 0.017500803712755444 0.010621373131871224 0.0071384894847869879 0.017926512991211244 -0.0011725940659423086 0.02994290561451958 0.0098911711877142944 0.0041702151919404667 0.0065088198101148007 -0.0010770256624471211 -0.0011084483183697754 0.0086373764369636775 0.030833482180816541 0.021021071667301244 -0.0011248713565625338 0.010690609019781862 -0.0011391810559080509 0.031997660470419916
leaf_weight=58 385 96 56 183 20 35 20 23 22 25 35 24 20 20 35 21 34 406 27 33 20 141 10341 20 69 29 9589 28 368 116
leaf_count=58 385 96 56 183 20 35 20 23 22 25 35 24 20 20 35 21 34 406 27 33 20 141 10341 20 69 29 9589 28 368 116
internal_value=0 0.000954743 0.0140884 0.0194759 0.0247977 0.0102047 0.0284299 0.0291207 -0.0009374 0.00459729 0.0217 0.002158 0.00794171 -0.00042432 0.0124799 0.000402158 0.00611979 0.0296847 -0.00103283 0.0012578 0.000520086 -8.18593e-05 -0.00108862 0.00153998 0.0300091 0.0279298 -0.00107883 -2.27461e-05 -0.00079191 0.0303995
internal_weight=0 11880 1496 1091 853 170 683 663 10384 176 70 100 44 405 60 238 55 643 10208 201 116 174 10419 78 620 98 10007 418 390 522
internal_count=22299 11880 1496 1091 853 170 683 663 10384 176 70 100 44 405 60 238 55 643 10208 201 116 174 10419 78 620 98 10007 418 390 522
shrinkage=0.05


Tree=10
num_leaves=31
num_cat=0
split_feature=27 27 30 30 27 21 2 2 27 16 10 11 21 30 27 18 21 30 1 27 15 16 22 23 0 30 4 15 27 24
split_gain=8.36673 106.577 42.2249 39.9788 16.322 5.90682 3.90021 2.44748 1.97984 2.05011 1.75663 1.26212 1.21484 1.70733 1.20764 1.62431 0.945967 0.658737 0.627482 0.400754 2.39982 0.273055 0.226628 0.221264 0.186761 0.848758 0.357446 0.141623 0.804731 0.127471
threshold=-0.17305199999999996 0.062192999999999977 -1.3691699999999993 1.3577250000000005 -0.039689999999999996 0.11402900000000001 0.7894500000000001 -0.7010829999999999 0.10539999999999995 1.9275150000000003 4.9118450000000005e-07 -4.6526649999999988e-06 0.27248800000000006 2.6305049999999999 -0.08291700000000006 0.00044274900000000004 3.4887250000000005 -0.70745499999999939 -14.124499999999999 0.18449200000000018 0.70144250000000008 0.88139100000000015 -0.0078427699999999989 -6.5773949999999992 5.1389850000000008 0.15623999999999996 2.1842450000000003e-05 1.2088650000000003 -0.64621549999999994 0.0003820330000000001
decision_type=2 2 2 2 2 2 2 2 2 2 2 2 2 2 2 2 2 2 2 2 2 2 2 2 2 2 2 2 2 2
left_child=27 2 16 4 5 14 7 -6 9 18 -7 -11 -5 -14 -4 -16 -2 -9 -3 20 22 -20 -10 -21 -19 26 -26 -1 -29 -25
right_child=1 8 3 12 6 10 -8 17 19 11 -12 -13 13 -15 15 -17 -18 24 21 23 -22 -23 -24 29 25 -27 -28 28 -30 -31
leaf_value=-0.0010550719279626768 -0.0010489317593435762 0.0090183386135668977 -0.0024321227334439758 -0.0013191967136850678 0.010439518550410868 0.013084129678706327 0.0052541221678256995 0.019891379579253819 0.004360473825640622 0.021677403605502587 0.029801315769101635 0.0052866107939432069 0.018672300721518695 -0.0011080775759182871 0.00085616844085355595 0.019251782801002267 0.008638478625841715 0.029092108487070861 -0.0016627601690419103 0.0042215620493516329 0.015681171357631685 0.0046896395140460564 -0.0010781298840093778 -0.0010556973149807732 0.029344813847863999 0.018622472137212753 0.022223110944032672 -0.001386523393115827 0.0082919253864222105 0.0014504705281818617
leaf_weight=10287 378 21 57 194 20 30 20 23 21 23 33 24 20 24 30 20 27 427 87 20 25 21 218 9873 148 25 20 105 27 51
leaf_count=10287 378 21 57 194 20 30 20 23 21 23 33 24 20 24 30 20 27 427 87 20 25 21 218 9873 148 25 20 105 27 51
internal_value=0 0.000907006 0.013384 0.0185021 0.0235578 0.00969445 0.0270084 0.0276647 -0.00089053 0.00436742 0.0218408 0.0133076 0.00038205 0.007883 0.00254289 0.00821441 -0.000403104 0.0282004 0.00111013 -0.000981184 0.000941541 -0.000427571 -0.000600261 -0.00103223 0.0285087 0.0272179 0.028497 -0.00103419 0.000593159 -0.00104282
internal_weight=0 11880 1496 1091 853 170 683 663 10384 176 63 47 238 44 107 50 405 643 129 10208 264 108 239 9944 620 193 168 10419 132 9924
internal_count=22299 11880 1496 1091 853 170 683 663 10384 176 63 47 238 44 107 50 405 643 129 10208 264 108 239 9944 620 193 168 10419 132 9924
shrinkage=0.05


Tree=11
num_leaves=31
num_cat=0
split_feature=30 30 27 27 27 2 2 16 1 14 30 30 27 18 21 27 18 27 27 12 30 21 7 8 27 22 27 27 26 1
split_gain=7.58529 28.7204 27.1322 109.415 9.62855 5.00608 3.84074 3.3288 1.6902 1.37645 1.42524 1.25863 1.14748 0.880084 0.548979 1.44342 0.473331 0.810086 0.370579 1.4254 0.302871 0.853199 0.977822 1.52022 0.901181 0.29801 1.24328 0.267883 2.23972 0.237242
threshold=-0.96838499999999994 0.49994999999999928 -0.19554999999999986 0.10539999999999995 -0.08291700000000006 -0.78269099999999991 0.7894500000000001 2.0237400000000005 -17.279499999999995 -14.283699999999998 0.76082999999999956 -0.67309499999999989 0.18449200000000018 0.00040526750000000007 0.70286000000000015 0.28691050000000012 0.028342650000000004 1.3217805000000002 -0.039689999999999996 6.2242400000000009e-07 0.88446499999999972 0.072063100000000005 0.0058007350000000004 1.0699950000000002e-06 -0.061827999999999932 -0.020437099999999996 -0.7501509999999999 0.026820000000000014 1.2073950000000002e-05 -14.166599999999997
decision_type=2 2 2 2 2 2 2 2 2 2 2 2 2 2 2 2 2 2 2 2 2 2 2 2 2 2 2 2 2 2
left_child=8 2 25 4 7 -6 11 -4 -1 10 -3 -7 13 -5 -12 -16 -14 -18 19 -13 21 -11 23 24 -23 26 -2 -20 -29 -10
right_child=1 9 3 12 5 6 -8 -9 29 20 14 18 16 -15 15 -17 17 -19 27 -21 -22 22 -24 -25 -26 -27 -28 28 -30 -31
leaf_value=0.012917847491123461 -0.0012012058296906097 0.015851305442906562 -0.0019973456199901801 0.00067920831286094412 0.00016725656576454639 0.015208817407488823 0.0049848067150874576 0.021870222599023867 0.00062725239850837606 -0.00089151542548329471 -0.00015749705809296348 0.012317606136202813 -0.0010122412842452184 0.015171275297179819 0.015853527391498739 -0.0011305167114940185 0.011735411016270519 -0.0014399374303008831 0.027352074922365882 0.030226131558418273 -0.00095192235608266619 -0.0024086612981517575 -0.0019231786847942406 0.018379400040776955 0.0084843926704846889 -0.0010394788652130988 0.012934313584119082 0.01042115136626221 0.029998834338039161 -0.00098867946328794372
leaf_weight=22 70 21 48 22 20 25 22 21 232 436 102 20 1218 20 22 29 20 28 531 25 7028 37 54 21 39 1243 20 21 48 10834
leaf_count=22 70 21 48 22 20 25 22 21 232 436 102 20 1218 20 22 29 20 28 531 25 7028 37 54 21 39 1243 20 21 48 10834
internal_value=0 0.000917103 0.00473517 0.00829164 0.0231004 0.0248286 0.0255414 0.0052667 -0.000927276 -0.000760318 0.00363681 0.0262164 -0.000550575 0.00758019 0.00196031 0.00619593 -0.000820316 0.00404979 0.026643 0.0222668 -0.000860791 0.0002303 0.00346945 0.00647153 0.0031812 -0.000838312 0.00194002 0.0269712 0.0240404 -0.000954801
internal_weight=0 11211 3422 2089 781 712 692 69 11088 7789 174 670 1308 42 153 51 1266 48 645 45 7615 587 151 97 76 1333 90 600 69 11066
internal_count=22299 11211 3422 2089 781 712 692 69 11088 7789 174 670 1308 42 153 51 1266 48 645 45 7615 587 151 97 76 1333 90 600 69 11066
shrinkage=0.05


Tree=12
num_leaves=31
num_cat=0
split_feature=27 27 27 30 30 2 16 30 6 30 7 2 27 21 30 30 21 30 21 31 30 17 27 27 26 7 14 31 30 1
split_gain=6.89398 78.3943 39.9119 26.3386 20.2817 3.12312 2.55357 2.93468 4.14971 3.79073 3.03349 1.99577 1.62825 1.81946 3.19509 2.34485 1.18852 0.887979 0.552887 1.01721 0.966885 0.349959 1.032 0.292787 0.880968 0.229541 0.226917 0.222634 0.231995 0.206905
threshold=-0.22542900000000002 0.062192999999999977 -0.039689999999999996 -1.1509949999999998 1.6149950000000002 0.84471600000000013 1.1554350000000002 -1.3691699999999993 7.4017900000000015e-05 2.3943700000000008 0.00059420900000000017 -0.7010829999999999 0.10539999999999995 0.12287100000000002 -2.8531699999999995 0.81491999999999998 1.6089400000000003 0.54938500000000012 0.096511600000000017 0.46718999999999961 0.31050000000000028 0.11031650000000003 0.26162950000000007 -0.08291700000000006 2.4573350000000004e-05 0.00048853650000000009 -17.889999999999997 0.42179000000000061 0.60886500000000032 -15.016799999999998
decision_type=2 2 2 2 2 2 2 2 2 2 2 2 2 2 2 2 2 2 2 2 2 2 2 2 2 2 2 2 2 2
left_child=-1 2 6 16 5 11 23 26 9 10 -9 -5 13 25 -15 -16 -4 -12 19 20 -13 -14 -23 -2 -25 -3 -8 28 -20 -24
right_child=1 12 3 4 -6 -7 7 8 -10 -11 17 18 21 14 15 -17 -18 -19 27 -21 -22 22 29 24 -26 -27 -28 -29 -30 -31
leaf_value=-0.00095378466423833323 -0.0011530997317488324 0.0025276887647219396 -0.00073720104769318408 0.0095659939106553793 -1.0596348632437487e-05 0.0050665181316435345 0.0043323677172884345 0.0087633372257862781 -0.0054799688077764586 -0.0010825354173513396 0.033177531342352594 0.025930906870426276 -0.00093799348514617793 -0.0041350056969181254 0.026050594076514246 0.0039483435079455381 0.01162612307816744 0.019664254058152437 0.02632246656077249 0.015054188638925554 0.016365656748946227 0.0088963040443403377 0.0041977141011992234 -0.00058079763534076424 0.010507381274162429 -0.0024229429708030382 -0.0015740069218151188 0.03331848851272038 0.03195260899762313 -0.00079524300219315403
leaf_weight=10243 347 38 167 20 96 20 20 35 32 28 31 468 9938 27 30 20 22 20 77 25 28 35 23 81 23 61 87 21 24 212
leaf_count=10243 347 38 167 20 96 20 20 35 32 28 31 468 9938 27 30 20 22 20 77 25 28 35 23 81 23 61 87 21 24 212
internal_value=0 0.000810353 0.0108582 0.0174462 0.0215087 0.0245334 0.00179978 0.00582033 0.0104304 0.0148964 0.0200989 0.0251206 -0.000807527 0.00396075 0.00972519 0.0172097 0.000701916 0.0278782 0.0256044 0.0248949 0.0253909 -0.000889739 0.000886395 -0.000455655 0.0018714 -0.0005227 -0.000470012 0.0286343 0.0276603 -0.000306571
internal_weight=0 12056 1672 968 779 683 704 253 146 114 86 663 10384 176 77 50 189 51 643 521 496 10208 270 451 104 99 107 122 101 235
internal_count=22299 12056 1672 968 779 683 704 253 146 114 86 663 10384 176 77 50 189 51 643 521 496 10208 270 451 104 99 107 122 101 235
shrinkage=0.05


Tree=13
num_leaves=31
num_cat=0
split_feature=27 27 27 31 31 2 16 31 6 31 7 2 27 22 20 31 21 21 31 31 12 17 31 31 31 27 15 27 26 1
split_gain=6.22182 70.7508 36.0205 23.7706 18.3042 2.81861 2.3046 2.64855 3.74511 3.42113 2.8049 1.80118 1.46949 1.66634 1.36419 1.03464 1.02281 0.529404 1.3178 1.01882 0.468782 0.333106 0.3055 0.279453 1.30224 0.275772 1.70579 0.264241 0.795073 0.206471
threshold=-0.22542900000000002 0.062192999999999977 -0.039689999999999996 1.2103699999999999 -1.5539099999999999 0.84471600000000013 1.1554350000000002 1.4446700000000001 7.4017900000000015e-05 -2.3121949999999987 0.00034865000000000004 -0.7010829999999999 0.10539999999999995 -0.026817949999999997 4.67263e-05 -0.6088650000000001 0.36683550000000004 0.060838350000000006 0.39185999999999949 -0.26367500000000005 0.00015446050000000002 2.4687050000000004 0.58895500000000045 0.71120499999999975 -0.5493849999999999 0.18449200000000018 0.70144250000000008 -0.08291700000000006 2.4573350000000004e-05 -8.8050549999999976
decision_type=2 2 2 2 2 2 2 2 2 2 2 2 2 2 2 2 2 2 2 2 2 2 2 2 2 2 2 2 2 2
left_child=-1 2 6 4 -4 11 27 8 9 -8 -11 -6 13 -3 -5 -12 23 18 19 -13 -17 25 -19 24 -15 26 -14 -2 -29 -9
right_child=1 12 3 14 5 -7 7 29 -10 10 15 17 21 16 -16 20 -18 22 -20 -21 -22 -23 -24 -25 -26 -27 -28 28 -30 -31
leaf_value=-0.00090609537211160324 -0.0010954447509318333 0.017350295428186654 -1.0066505637951195e-05 -0.00079450986827530809 0.0090876940265297891 0.0048131922073662283 -0.0010284086256953223 0.0041344026336446408 -0.005205970344832167 0.0041493068894614344 0.01548824299659048 0.013530194827101447 -0.00053978276489668813 -0.0024656819793930714 0.013015059251338244 0.034117350930517369 0.010870186253278345 0.025878201025763371 0.011205884246599108 0.02456506337488399 0.023540560584515334 0.0040955452686723542 0.032179604064334524 -0.0023663521128690851 0.012053846426146188 -0.00090416835333643423 0.013443406919638315 -0.00055175775685060177 0.0099820123823440594 -0.0014995946859320006
leaf_weight=10243 347 20 96 169 20 20 28 20 32 23 21 22 239 47 20 22 27 153 21 425 20 34 22 59 23 9911 24 81 23 87
leaf_count=10243 347 20 96 169 20 20 28 20 32 23 21 22 239 47 20 22 27 153 21 425 20 34 22 59 23 9911 24 81 23 87
internal_value=0 0.000769835 0.0103153 0.0165739 0.0204333 0.0233067 0.00170979 0.00552932 0.00990886 0.0141516 0.019094 0.0238646 -0.000767151 0.00376271 0.00066682 0.0245499 0.00202072 0.0243242 0.0234469 0.024022 0.0290808 -0.000845252 0.0266704 0.000168501 0.00230502 -0.000861763 0.00073625 -0.000432872 0.00177783 -0.000446511
internal_weight=0 12056 1672 968 779 683 704 253 146 114 86 663 10384 176 189 63 156 643 468 447 42 10208 175 129 70 10174 263 451 104 107
internal_count=22299 12056 1672 968 779 683 704 253 146 114 86 663 10384 176 189 63 156 643 468 447 42 10208 175 129 70 10174 263 451 104 107
shrinkage=0.05


Tree=14
num_leaves=31
num_cat=0
split_feature=30 30 27 27 2 2 27 1 30 17 14 27 27 27 17 14 27 19 27 18 17 30 17 14 27 27 1 25 15 3
split_gain=5.66376 21.3851 20.0861 80.4938 7.46639 7.14312 2.44695 1.43746 1.3974 1.28845 1.08511 1.17765 5.68547 0.559501 0.880082 0.506567 0.599897 0.922316 0.5593 1.72264 0.401862 0.214971 0.760001 0.356003 0.753912 1.8658 0.190861 0.407326 0.190444 0.17916
threshold=-0.96838499999999994 0.49994999999999928 -0.19554999999999986 0.10539999999999995 1.8906600000000002 -1.1568099999999999 -0.08291700000000006 -17.279499999999995 -0.70745499999999939 0.22400850000000003 -14.283699999999998 0.28691050000000012 -0.48045499999999991 0.23661500000000005 -0.0064788449999999996 -13.359599999999999 -0.039689999999999996 -0.15634049999999997 0.026820000000000014 0.00035338800000000005 -0.15993099999999996 0.88446499999999972 -0.073788849999999975 -10.340999999999999 -0.017273000000000035 0.26162950000000007 -14.166599999999997 -0.11444099999999997 1.3124250000000002 1.0282800000000001e-05
decision_type=2 2 2 2 2 2 2 2 2 2 2 2 2 2 2 2 2 2 2 2 2 2 2 2 2 2 2 2 2 2
left_child=7 2 20 4 5 -4 -7 -1 -8 13 11 12 -3 14 -5 -10 17 -17 -18 -20 -2 22 -12 24 -24 -26 27 -9 -23 -29
right_child=1 10 3 9 -6 6 8 26 15 -11 21 -13 -14 -15 -16 16 18 -19 19 -21 -22 28 23 -25 25 -27 -28 29 -30 -31
leaf_value=0.011966802196746524 0.005703073336432378 -0.0018495544318168885 -0.004941755558292453 0.01261830883100629 -0.0050461141617390622 0.0095478215851844891 0.0097233217741761885 0.00690783043594464 0.026503068245038754 0.010372178287555774 0.0075465451700217796 -0.0013142597789947805 0.023769416236741978 -0.00089442286657172515 -0.00028230199733605754 0.024158877730369569 0.023301598859816485 0.0091559065860651791 0.0066684752347923454 0.024598092324024923 -0.00082595104300413466 -0.00083712256856612814 -0.0014943808269012593 -0.00088058653283431859 0.018640856426209215 -0.0013545134237834388 -0.00085703389593966566 0.0029064100864343348 0.0033702191482815474 -0.0008148526331993955
leaf_weight=22 24 63 26 20 29 39 21 23 82 27 33 78 33 1222 39 20 485 21 21 37 1309 7001 58 448 20 28 10834 40 27 169
leaf_count=22 24 63 26 20 29 39 21 23 82 27 33 78 33 1222 39 20 485 21 21 37 1309 7001 58 448 20 28 10834 40 27 169
internal_value=0 0.000792473 0.00408708 0.0071471 0.0198488 0.0208088 0.021731 -0.000801263 0.0224226 -0.000436987 -0.000654974 0.00324918 0.00695697 -0.000664815 0.00409079 0.022823 0.0223063 0.0164744 0.0227467 0.0181063 -0.000708399 -0.000744182 0.000175042 -0.000264054 0.00234167 0.00697689 -0.000826647 0.000592355 -0.000820959 -0.000102649
internal_weight=0 11211 3422 2089 781 752 726 11088 687 1308 7789 174 96 1281 59 666 584 41 543 58 1333 7615 587 554 106 48 11066 232 7028 209
internal_count=22299 11211 3422 2089 781 752 726 11088 687 1308 7789 174 96 1281 59 666 584 41 543 58 1333 7615 587 554 106 48 11066 232 7028 209
shrinkage=0.05


Tree=15
num_leaves=31
num_cat=0
split_feature=30 30 27 27 2 2 27 1 30 17 14 27 27 27 17 0 30 5 24 17 13 30 1 24 27 14 30 27 27 0
split_gain=5.11154 19.3 18.1277 72.6456 6.73842 6.44666 2.20837 1.29731 1.26115 1.16282 0.979312 1.06283 5.13114 0.50495 0.794274 0.487817 1.09421 0.438186 0.36985 0.362681 0.323112 0.236556 0.20977 0.177557 0.24616 0.174565 0.481934 0.776147 1.74789 0.225743
threshold=-0.96838499999999994 0.49994999999999928 -0.19554999999999986 0.10539999999999995 1.8906600000000002 -1.1568099999999999 -0.08291700000000006 -17.279499999999995 -0.70745499999999939 0.22400850000000003 -14.283699999999998 0.28691050000000012 -0.48045499999999991 0.23661500000000005 -0.0064788449999999996 5.6583100000000011 0.15623999999999996 0.00012058300000000002 4.1155250000000007e-07 -0.15993099999999996 0.94105050000000012 -0.46105999999999975 -6.6628949999999989 -4.5608049999999995e-07 0.026820000000000014 -10.340999999999999 0.76082999999999956 -0.039689999999999996 0.28691050000000012 -5.8972699999999998
decision_type=2 2 2 2 2 2 2 2 2 2 2 2 2 2 2 2 2 2 2 2 2 2 2 2 2 2 2 2 2 2
left_child=7 2 19 4 5 -4 -7 -1 -8 13 11 12 -3 14 -5 18 17 20 21 -2 -17 -10 25 -23 -25 26 27 -12 -29 -28
right_child=1 10 3 9 -6 6 8 -9 15 -11 22 -13 -14 -15 -16 16 -18 -19 -20 -21 -22 23 -24 24 -26 -27 29 28 -30 -31
leaf_value=0.011368462104688991 0.0054179199117546286 -0.0017570767078607802 -0.0046946676447987556 0.011987393088638783 -0.0047938084358285218 0.0090704306267583978 0.0092371551940838501 -0.0007853149232450728 0.017273433646187188 0.0098535692043326528 -0.0013023004844962133 -0.0012485467757170018 0.022580945559523322 -0.00084970175142288704 -0.00026818684612711272 0.017495549199256031 0.0087672059645964983 0.014123665913939477 0.027011664211750032 -0.00078465349686234582 0.023119305483007856 0.025545382164418696 0.0042833900079131126 0.022434179129845955 0.017847104277461768 -0.00081870076391094926 0.0048198724375106399 0.019008017191663385 -0.001415259211154824 -0.00054600211808765258
leaf_weight=22 24 63 26 20 29 39 21 11066 24 27 42 78 33 1222 39 33 21 21 42 1309 113 40 21 340 32 6508 20 20 22 982
leaf_count=22 24 63 26 20 29 39 21 11066 24 27 42 78 33 1222 39 33 21 21 42 1309 113 40 21 340 32 6508 20 20 22 982
internal_value=0 0.000752849 0.00388273 0.00678975 0.0188563 0.0197684 0.0206444 -0.0007612 0.0213015 -0.000415138 -0.000622225 0.00308672 0.00660912 -0.000631575 0.00388625 0.0216819 0.0195242 0.0208768 0.0225305 -0.000672979 0.0218482 0.0220989 -0.000706973 0.02238 0.0220396 -0.000720773 -0.000133931 0.00350391 0.00831011 -0.000438899
internal_weight=0 11211 3422 2089 781 752 726 11088 687 1308 7789 174 96 1281 59 666 188 167 478 1333 146 436 7615 412 372 7594 1086 84 42 1002
internal_count=22299 11211 3422 2089 781 752 726 11088 687 1308 7789 174 96 1281 59 666 188 167 478 1333 146 436 7615 412 372 7594 1086 84 42 1002
shrinkage=0.05


Tree=16
num_leaves=31
num_cat=0
split_feature=27 27 27 30 30 6 16 30 6 30 7 20 27 18 30 30 20 30 21 30 5 30 27 21 13 20 3 14 17 5
split_gain=4.6526 52.8487 26.7237 17.456 13.5613 2.28859 1.90791 2.10686 3.08687 2.76575 2.62096 1.19864 1.09804 2.40585 2.44346 1.59634 0.894807 0.836328 0.386737 1.18301 0.44009 0.433288 0.329541 1.43591 0.239798 0.208682 0.309402 0.197255 0.177353 0.43943
threshold=-0.22542900000000002 0.062192999999999977 -0.039689999999999996 -1.1509949999999998 1.6149950000000002 9.8377900000000019e-05 1.1554350000000002 -1.3691699999999993 7.4017900000000015e-05 2.3943700000000008 0.00059420900000000017 4.67263e-05 0.18449200000000018 0.0035145550000000004 -2.2627249999999997 0.54938500000000012 1.7879050000000003e-05 -0.67309499999999989 0.090146350000000014 0.31050000000000028 0.00012976200000000004 0.65794500000000034 0.082175499999999971 0.12287100000000002 2.1960850000000005 2.2192050000000004e-05 1.5066350000000002e-05 -17.889999999999997 0.95288800000000007 0.00013606750000000003
decision_type=2 2 2 2 2 2 2 2 2 2 2 2 2 2 2 2 2 2 2 2 2 2 2 2 2 2 2 2 2 2
left_child=-1 2 6 11 5 17 25 27 9 10 -9 -4 13 22 -15 -16 -12 -5 19 20 -19 -20 23 -3 -24 -2 -27 -8 -14 -30
right_child=1 12 3 4 -6 -7 7 8 -10 -11 16 -13 28 14 15 -17 -18 18 21 -21 -22 -23 24 -25 -26 26 -28 -29 29 -31
leaf_value=-0.0007835433784576613 -0.00078171953154442312 -0.0011554341085932473 -0.00069488631065427913 0.012432381560405097 1.7134528025053442e-05 0.0034226662293076514 0.0041263530403375624 0.0066438180953264231 -0.0048376452752563644 -0.00091214502629424852 0.019091810862864218 0.012249683225527407 -0.0007852133661427641 -0.0017567429145605399 0.025765537777139497 0.0077123227678239344 0.032656938359141352 0.021280226877664322 0.022069777475977409 0.010554460121382928 0.013877579144069127 0.02966011458117029 -0.001235601794445821 0.014489272851496935 0.0032367263947997021 0.007398862210102379 -0.0013960568746551874 -0.0013804763432420878 -0.0021523166894912723 0.0076587005119238584
leaf_weight=10243 411 55 169 30 96 20 20 35 32 28 31 20 9898 29 24 25 20 457 103 29 21 23 253 20 34 20 20 87 25 21
leaf_count=10243 411 55 169 30 96 20 20 35 32 28 31 20 9898 29 24 25 20 457 103 29 21 23 253 20 34 20 20 87 25 21
internal_value=0 0.000665713 0.00891563 0.0143064 0.0176136 0.0200869 0.00150336 0.00497865 0.00888475 0.0127367 0.0171804 0.000674909 -0.000662664 0.00178162 0.00974661 0.0165547 0.0244115 0.0205896 0.0209762 0.0203601 0.020955 0.0234553 6.54089e-05 0.00301649 -0.000705779 -0.000446188 0.0030014 -0.000351162 -0.000770818 0.00232663
internal_weight=0 12056 1672 968 779 683 704 253 146 114 86 189 10384 440 78 49 51 663 633 507 478 126 362 75 287 451 40 107 9944 46
internal_count=22299 12056 1672 968 779 683 704 253 146 114 86 189 10384 440 78 49 51 663 633 507 478 126 362 75 287 451 40 107 9944 46
shrinkage=0.05


Tree=17
num_leaves=31
num_cat=0
split_feature=27 27 30 30 27 21 2 10 2 27 22 1 21 30 24 27 18 17 30 21 30 30 30 12 30 1 7 19 17 5
split_gain=4.19937 53.3773 21.2108 19.838 7.70721 3.48961 2.10859 1.31804 1.22042 0.990986 2.21532 1.08231 0.922321 1.21151 0.731893 0.717695 1.01804 0.524077 0.580251 0.487205 1.15849 0.34764 0.296676 0.279926 0.214833 0.176778 0.398254 0.162661 0.160061 0.396585
threshold=-0.17305199999999996 0.062192999999999977 -1.3691699999999993 1.3577250000000005 -0.039689999999999996 0.11402900000000001 0.7894500000000001 4.9118450000000005e-07 -0.7010829999999999 0.18449200000000018 -0.028558099999999996 -16.232699999999998 0.27248800000000006 2.6305049999999999 1.2540500000000001e-05 -0.08291700000000006 0.00044274900000000004 0.021768900000000004 -1.2055199999999993 0.097717150000000016 -0.54478500000000041 0.31050000000000028 -0.41764500000000021 0.00043062950000000009 0.49994999999999928 -12.527449999999998 0.006874540000000001 -0.78194199999999991 0.95288800000000007 0.00013606750000000003
decision_type=2 2 2 2 2 2 2 2 2 2 2 2 2 2 2 2 2 2 2 2 2 2 2 2 2 2 2 2 2 2
left_child=-1 2 14 4 5 15 8 -7 -6 10 23 -12 -5 -14 27 -4 -17 25 -19 20 -10 -22 -21 -3 -24 26 -13 -2 -11 -30
right_child=1 9 3 12 6 7 -8 -9 19 28 11 17 13 -15 -16 16 -18 18 -20 22 21 -23 24 -25 -26 -27 -28 -29 29 -31
leaf_value=-0.00073268013604388263 0.0030353374904594742 0.016234549005394398 -0.0021972248465509008 -0.0011465952460433251 0.0073514680098742255 0.0088856806606054297 0.0030369544308632614 0.023366279877496489 0.0080100382424213683 -0.000745952675643323 0.011303348009559242 0.0071976529656066785 0.015960145853459836 -0.00070233337949806207 0.0090265627391636384 0.00018490657520790895 0.014748256206512451 -0.0011422234890051187 0.010502606907697477 0.027758056422074635 0.020045066649923809 0.014212849460266255 0.020012164227108456 0.008146442542783917 0.025294980075624252 -0.0012601918570513018 -0.0019111163947465168 -0.0010601772126432997 -0.0020447008274495602 0.0072757653271158535
leaf_weight=10419 26 23 57 194 20 30 20 33 22 9898 22 21 20 24 20 30 20 20 23 24 476 27 67 20 27 283 28 359 25 21
leaf_count=10419 26 23 57 194 20 30 20 33 22 9898 22 21 20 24 20 30 20 20 23 24 476 27 67 20 27 283 28 359 25 21
internal_value=0 0.000642575 0.00947249 0.0130999 0.0166613 0.00713487 0.0190324 0.0164708 0.019515 -0.000629531 0.00169254 0.000524923 0.000335746 0.00687152 -0.000299145 0.00163804 0.00601025 -0.000107412 0.00508641 0.0198933 0.0192408 0.019732 0.0227964 0.0124726 0.0215296 -0.000780105 0.00199264 -0.000783597 -0.000732277 0.00221029
internal_weight=0 11880 1496 1091 853 170 683 63 663 10384 440 397 238 44 405 107 50 375 43 643 525 503 118 43 94 332 49 385 9944 46
internal_count=22299 11880 1496 1091 853 170 683 63 663 10384 440 397 238 44 405 107 50 375 43 643 525 503 118 43 94 332 49 385 9944 46
shrinkage=0.05


Tree=18
num_leaves=31
num_cat=0
split_feature=31 30 27 27 2 2 31 21 1 1 14 27 27 21 27 27 8 17 17 19 27 6 1 27 1 26 24 30 27 17
split_gain=3.7992 13.3494 13.0407 55.7541 5.95117 5.98663 2.14481 4.59523 1.23197 0.95857 0.752932 0.830082 4.03341 0.706222 1.36765 1.32585 0.569841 0.53434 0.294959 0.251714 0.189561 0.176061 0.17447 0.154248 0.146551 0.357747 0.13947 0.467092 0.822272 0.126051
threshold=1.1102250000000005 0.49994999999999928 -0.19554999999999986 0.1562649999999999 1.8906600000000002 -1.4166899999999998 0.46718999999999961 0.051869950000000005 -9.5935949999999988 -17.279499999999995 -14.283699999999998 0.28691050000000012 -0.48045499999999991 0.11402900000000001 -0.039689999999999996 0.044107999999999932 -7.5570549999999986e-07 0.36560600000000004 -0.15993099999999996 0.25324900000000006 0.23661500000000005 -9.4330749999999995e-06 -6.6628949999999989 0.026820000000000014 -15.973449999999998 0.010303700000000001 -1.5535299999999998e-06 1.6149950000000002 -0.1481925000000002 0.0059947300000000011
decision_type=2 2 2 2 2 2 2 2 2 2 2 2 2 2 2 2 2 2 2 2 2 2 2 2 2 2 2 2 2 2
left_child=1 2 18 4 5 -4 13 -8 21 -2 11 12 -3 14 -7 23 -15 20 -1 -18 -5 -9 26 29 25 -11 27 28 -12 -16
right_child=9 10 3 17 -6 6 7 8 -10 24 22 -13 -14 16 15 -17 19 -19 -20 -21 -22 -23 -24 -25 -26 -27 -28 -29 -30 -31
leaf_value=0.0046955204282242528 0.010263579487800599 -0.0015934117493175326 -0.0056157406355286472 0.0030335351646713477 -0.0043839571844520317 0.0081124877557158474 -0.003904044572263956 0.027083741649985317 0.0098396254488481924 -0.0012680884563561643 -0.0013337790254606971 -0.0011201160159917216 0.019984751059250398 0.027348291708363427 0.019643847470684105 0.0069937872118316594 0.021401715758493395 0.0075770295504480603 -0.00067832349889638264 0.01491094294935465 -0.00074624514669481231 0.020601869493045592 0.0039358792693487236 0.014838529413654692 -0.00070578793556950645 0.0072066007880494005 -0.0006706299297320927 -0.00069241552206221978 0.0094289338256099402 0.017634590376507154
leaf_weight=26 20 63 29 34 35 34 35 20 26 33 36 78 33 36 369 24 59 20 1427 20 1360 22 21 21 10741 20 7303 220 35 99
leaf_count=26 20 63 29 34 35 34 35 20 26 33 36 78 33 36 369 24 59 20 1427 20 1360 22 21 21 10741 20 7303 220 35 99
internal_value=0 0.000633288 0.00310792 0.00549833 0.0157937 0.0166831 0.0175284 0.0108166 0.0183933 -0.000672583 -0.000540961 0.00271117 0.00582408 0.0185727 0.0178239 0.0184676 0.0221344 -0.000537633 -0.000582164 0.0197585 -0.000654055 0.0236885 -0.000615271 0.0190307 -0.000692846 0.00192991 -0.000627857 0.000445585 0.00397178 0.0192188
internal_weight=0 11485 3696 2243 829 794 765 103 68 10814 7789 174 96 662 547 513 115 1414 1453 79 1394 42 7615 489 10794 53 7594 291 71 468
internal_count=22299 11485 3696 2243 829 794 765 103 68 10814 7789 174 96 662 547 513 115 1414 1453 79 1394 42 7615 489 10794 53 7594 291 71 468
shrinkage=0.05


Tree=19
num_leaves=31
num_cat=0
split_feature=27 27 27 30 30 6 16 30 6 30 7 20 20 27 18 30 30 21 30 30 12 5 30 27 21 13 7 6 3 25
split_gain=3.45223 39.1419 19.7653 12.7663 10.0081 1.77381 1.44443 1.61029 2.55111 2.15868 2.26363 1.03731 0.859451 0.827522 1.9227 2.03164 1.36411 0.760243 2.32043 1.2804 0.732254 0.413687 0.331678 0.260262 1.1796 0.197179 0.17407 0.166617 0.456114 0.150097
threshold=-0.22542900000000002 0.062192999999999977 -0.039689999999999996 -1.1509949999999998 1.6149950000000002 9.8377900000000019e-05 1.1554350000000002 -1.3691699999999993 7.4017900000000015e-05 2.3943700000000008 0.00034865000000000004 4.67263e-05 1.7879050000000003e-05 0.18449200000000018 0.0035145550000000004 -2.2627249999999997 0.54938500000000012 0.059226050000000009 -0.41764500000000021 0.31050000000000028 1.1867000000000002e-05 0.00012686700000000004 0.49994999999999928 0.082175499999999971 0.12287100000000002 2.1960850000000005 0.0036207350000000004 -3.0406999999999999e-05 1.6489900000000003e-05 -0.00075569899999999998
decision_type=2 2 2 2 2 2 2 2 2 2 2 2 2 2 2 2 2 2 2 2 2 2 2 2 2 2 2 2 2 2
left_child=-1 2 6 11 5 17 27 26 9 10 -9 -4 20 14 23 -16 -17 18 -5 21 -12 -20 -19 24 -3 -25 -8 28 -2 -6
right_child=1 13 3 4 29 -7 7 8 -10 -11 12 -13 -14 -15 15 16 -18 22 19 -21 -22 -23 -24 25 -26 -27 -28 -29 -30 -31
leaf_value=-0.00067493995084426123 0.0077760050157931722 -0.001140774812718684 -0.00062226447712123052 0.00039409707699503219 0.0038752246648073199 0.0025916440133005383 -0.001450527194183229 0.0017396152181469876 -0.0047374041731018226 -0.00081900493574461766 0.022403146680444481 0.011419702908024193 0.027767993412587955 -0.00066365670727559149 -0.001816654837979325 0.023395074050252637 0.0067065792381763457 0.01930791211067414 0.018331789541042458 0.0056267158805646681 0.0088730523269623524 0.010968704894185067 0.024443146726116541 -0.0011478574745901842 0.013039104733616115 0.0029076125623439166 0.0033153930101543667 -0.00076678129487790043 -0.0013621391453650885 -0.00099299476898618427
leaf_weight=10243 22 55 169 21 20 20 82 23 32 28 20 20 23 9944 29 24 25 147 413 22 20 20 40 253 20 34 25 393 36 76
leaf_count=10243 22 55 169 21 20 20 82 23 32 28 20 20 23 9944 29 24 25 147 413 22 20 20 40 253 20 34 25 393 36 76
internal_value=0 0.000573441 0.00767336 0.0123095 0.0151378 0.0172625 0.00129872 0.00432258 0.00773747 0.0112392 0.0151651 0.000652018 0.0200665 -0.000569766 0.00155217 0.00867261 0.0148805 0.0177051 0.0166438 0.0173938 0.0156381 0.0179917 0.0204064 1.79292e-05 0.00264053 -0.000667419 -0.000336994 -0.000397583 0.00210405 2.12176e-05
internal_weight=0 12056 1672 968 779 683 704 253 146 114 86 189 63 10384 440 78 49 663 476 455 40 433 187 362 75 287 107 451 58 96
internal_count=22299 12056 1672 968 779 683 704 253 146 114 86 189 63 10384 440 78 49 663 476 455 40 433 187 362 75 287 107 451 58 96
shrinkage=0.05


Tree=20
num_leaves=31
num_cat=0
split_feature=27 27 30 30 2 2 27 16 21 30 30 21 30 27 22 8 1 24 7 17 30 7 5 20 20 21 1 30 17 5
split_gain=3.11592 39.5339 15.7026 14.6777 5.81096 5.56013 2.35263 2.40467 1.11036 2.51356 1.08657 0.771621 0.98898 0.746839 1.77034 1.2285 0.881335 0.629094 0.499044 0.399697 0.452532 0.297392 0.294621 0.202732 0.210562 0.181695 0.147921 0.363963 0.136381 0.346244
threshold=-0.17305199999999996 0.062192999999999977 -1.3691699999999993 1.3577250000000005 2.0052650000000005 -1.6365099999999997 -0.08291700000000006 2.0237400000000005 0.093663700000000003 -0.62938500000000042 0.44810500000000003 0.27248800000000006 2.6305049999999999 0.18449200000000018 -0.028558099999999996 -4.9515099999999985e-07 -16.232699999999998 1.2540500000000001e-05 0.00073300000000000004 0.021768900000000004 -1.2055199999999993 0.0055317300000000012 0.00012976200000000004 -1.0960499999999998e-05 -1.3162999999999997e-05 0.29348650000000004 -12.527449999999998 3.1520050000000004 0.95288800000000007 0.00013606750000000003
decision_type=2 2 2 2 2 2 2 2 2 2 2 2 2 2 2 2 2 2 2 2 2 2 2 2 2 2 2 2 2 2
left_child=-1 2 17 4 5 -4 7 -7 9 -8 22 -5 -13 14 15 -3 -16 -2 -10 26 -21 25 23 24 -11 -20 27 -18 -15 -30
right_child=1 13 3 11 -6 6 8 -9 18 10 -12 12 -14 28 16 -17 19 -19 21 20 -22 -23 -24 -25 -26 -27 -28 -29 29 -31
leaf_value=-0.00063112586203005504 -0.00070416079277729065 0.018992247173319696 -0.0055795585361099048 -0.0010613776058721904 -0.0056138036141471408 -0.0022025529651299998 -0.0017103944392874836 0.019012366980314256 0.014221958017774991 0.016929219505534724 0.0065619125237895391 0.014484101766720416 -0.00057051057083299381 -0.00064309711441409715 0.010157115249471231 0.0020483394060283899 0.0069980664411559701 0.0083909920044243341 0.01887348424380934 -0.0011046229279600085 0.0091790916236198471 0.026359216009195038 0.011557325527071954 0.01744932471732567 0.010105244517326355 0.022962652112949979 -0.0011664646305802012 -0.0017695700942442336 -0.0018900560401380062 0.006818784170207523
leaf_weight=10419 385 23 31 194 35 34 20 22 28 26 27 20 24 9898 22 20 20 20 71 20 23 26 25 444 20 44 283 29 25 21
leaf_count=10419 385 23 31 194 35 34 20 22 28 26 27 20 24 9898 22 20 20 20 71 20 23 26 25 444 20 44 283 29 25 21
internal_value=0 0.00055351 0.00815262 0.0112737 0.0143371 0.0151907 0.0160089 0.00613188 0.0167655 0.0156969 0.0163392 0.000294464 0.0062725 -0.000541278 0.00147456 0.0111114 0.000430775 -0.000255017 0.0203191 -0.000139837 0.00439597 0.0215299 0.0168518 0.017122 0.0139623 0.020438 -0.000727306 0.00180906 -0.000630474 0.00208572
internal_weight=0 11880 1496 1091 853 818 787 56 731 562 542 238 44 10384 440 43 397 405 169 375 43 141 515 490 46 115 332 49 9944 46
internal_count=22299 11880 1496 1091 853 818 787 56 731 562 542 238 44 10384 440 43 397 405 169 375 43 141 515 490 46 115 332 49 9944 46
shrinkage=0.05


Tree=21
num_leaves=31
num_cat=0
split_feature=28 28 28 30 30 1 2 16 30 30 25 10 21 30 14 30 28 30 7 28 18 3 23 8 30 28 8 14 13 30
split_gain=2.82129 27.7002 18.6688 12.1238 9.77452 2.79021 2.01346 1.24422 1.46733 2.41723 1.32589 1.28578 0.666399 1.74595 0.570394 0.509988 0.509969 0.967421 0.41663 0.338407 1.61836 1.81436 0.286201 0.271724 0.232372 0.221226 0.220665 0.169749 0.167267 0.138602
threshold=0.30126800000000015 -0.082175499999999943 0.03969000000000001 -0.70745499999999939 2.3121949999999996 -10.915599999999998 1.1082250000000002 1.1554350000000002 -1.3691699999999993 0.49994999999999928 0.011654050000000001 3.2253550000000006e-07 0.13566000000000003 0.71212500000000001 -10.340999999999999 0.49994999999999928 -0.017475500000000001 0.15623999999999996 0.00048853650000000009 -0.18449200000000013 0.0035145550000000004 1.49443e-05 0.011373800000000002 1.0092000000000002e-07 -1.1509949999999998 -0.026820000000000007 1.1744650000000001e-05 -18.723649999999996 2.1960850000000005 2.9741500000000003
decision_type=2 2 2 2 2 2 2 2 2 2 2 2 2 2 2 2 2 2 2 2 2 2 2 2 2 2 2 2 2 2
left_child=1 19 3 5 6 -3 12 -4 27 10 11 -10 13 16 -11 25 17 18 -5 -1 28 -22 24 29 -7 -14 -25 -9 -21 -16
right_child=-2 2 7 4 -6 22 -8 8 9 14 -12 -13 15 -15 23 -17 -18 -19 -20 20 21 -23 -24 26 -26 -27 -28 -29 -30 -31
leaf_value=-0.00059895018558261427 -0.00062490398930715161 0.013293411035854847 -0.00044535798904234982 0.018429822048970632 -0.00089540621401398499 -0.001233936375596345 -2.8995461761951449e-05 0.0038102840119972822 -0.0011860211690266928 0.0087900128470556373 0.022195339188552821 0.014837737169657503 0.021012291082969078 0.0021928134510138383 -0.0062562619545496996 0.024755933815065554 0.016644386407069247 0.0028255216986872258 0.010468900038136377 -0.0010773783419907035 0.018012772600545925 0.0010609985892906001 0.004466333379969001 0.0060750280019073264 -0.0069197574444115166 0.015242118064476097 -0.0010905250377783722 -0.0011564876959939314 0.0026578381438465679 -0.00056497386110055704
leaf_weight=9944 9979 39 640 42 103 177 20 20 21 21 26 31 26 24 20 34 458 20 27 253 27 38 20 21 20 46 22 123 34 23
leaf_count=9944 9979 39 640 42 103 177 20 20 21 21 26 31 26 24 20 34 458 20 27 253 27 38 20 21 20 46 22 123 34 23
internal_value=0 0.000506162 0.00585347 0.010451 0.0134817 0.000980343 0.0156063 0.00083794 0.00334193 0.00628215 0.0129762 0.0083666 0.0160682 0.0153923 0.00140238 0.019709 0.0159714 0.0125081 0.0153147 -0.000545018 0.000978558 0.0081025 -0.0012326 -0.000401577 -0.00181118 0.0173258 0.00240893 -0.000461834 -0.000634879 -0.00321208
internal_weight=0 12320 2024 1056 800 256 697 968 328 185 78 52 677 571 107 106 547 89 69 10296 352 65 217 86 197 72 43 143 287 43
internal_count=22299 12320 2024 1056 800 256 697 968 328 185 78 52 677 571 107 106 547 89 69 10296 352 65 217 86 197 72 43 143 287 43
shrinkage=0.05


Tree=22
num_leaves=31
num_cat=0
split_feature=31 30 27 27 2 2 21 30 17 1 7 27 14 27 27 17 8 5 27 22 26 19 27 27 1 20 15 1 26 30
split_gain=2.5519 9.09926 8.80942 40.2161 3.2383 2.95847 0.986027 3.69069 0.894935 0.789056 0.685284 0.679265 0.519919 0.588379 2.90042 0.471222 0.39882 0.225677 0.200103 0.221825 0.174015 0.167574 0.543617 0.157988 0.144669 0.133343 0.13329 0.118374 0.314272 0.10448
threshold=1.1102250000000005 0.49994999999999928 -0.10215499999999998 0.1562649999999999 -1.1568099999999999 1.3623750000000003 0.056618150000000006 -0.46105999999999975 -0.23584399999999997 -17.279499999999995 0.00027030200000000004 0.026820000000000014 -14.283699999999998 0.28691050000000012 -0.48045499999999991 0.36560600000000004 -2.5707899999999997e-06 0.00012308650000000004 -0.039689999999999996 0.031007150000000004 0.00021163350000000003 -0.63008599999999981 -0.89802249999999995 0.23661500000000005 -6.6628949999999989 -1.0960499999999998e-05 1.3124250000000002 -15.973449999999998 0.010303700000000001 -0.27005999999999991
decision_type=2 2 2 2 2 2 2 2 2 2 2 2 2 2 2 2 2 2 2 2 2 2 2 2 2 2 2 2 2 2
left_child=1 2 8 4 -4 6 7 -6 -1 -2 -8 17 13 14 -3 23 -12 25 -18 20 -20 22 -10 -5 26 -9 -14 28 -11 -27
right_child=9 12 3 15 5 -7 10 11 21 27 16 -13 24 -15 -16 -17 18 -19 19 -21 -22 -23 -24 -25 -26 29 -28 -29 -30 -31
leaf_value=0.0092031571043965713 0.0093709502741694452 -0.0014171926629921747 -0.0051385581694458702 0.0028370334218968366 -0.00335003638950487 -0.0029479140619514512 0.0090224632727248337 0.011901341285556555 -0.00070376586863550095 -0.0012098268154218342 0.024562275720139345 0.007822937382893129 -0.00053662308521928255 -0.00097360828270514818 0.016881011358716273 0.0072001896705478439 0.021677347796934626 0.010206085869244166 0.016761027738595238 0.012098765894770623 0.021029107512966282 -0.00065549035267096448 0.0088349339365959168 -0.00061364771524334658 0.0036320866617773266 0.012739914255561653 0.0028596357924157178 -0.00058124359021133776 0.006733248974196613 0.015963531164759463
leaf_weight=24 20 63 22 34 30 24 21 24 59 33 24 33 7565 78 33 20 27 21 104 20 31 1407 20 1360 21 27 29 10741 20 364
leaf_count=24 20 63 22 34 30 24 21 24 59 33 24 33 7565 78 33 20 27 21 104 20 31 1407 20 1360 21 27 29 10741 20 364
internal_value=0 0.000519023 0.00256209 0.0045909 0.0137692 0.0143238 0.0148948 0.0136519 -0.000374982 -0.000551228 0.0176268 0.0147395 -0.000450443 0.002252 0.00487281 -0.000420154 0.0185039 0.015263 0.017705 0.0170131 0.0177411 -0.000529676 0.00171109 -0.000529485 -0.000512193 0.0155189 -0.000523653 -0.000569612 0.00178756 0.0157409
internal_weight=0 11485 3696 2186 772 750 726 499 1510 10814 227 469 7789 174 96 1414 206 436 182 155 135 1486 79 1394 7615 415 7594 10794 53 391
internal_count=22299 11485 3696 2186 772 750 726 499 1510 10814 227 469 7789 174 96 1414 206 436 182 155 135 1486 79 1394 7615 415 7594 10794 53 391
shrinkage=0.05


Tree=23
num_leaves=31
num_cat=0
split_feature=27 27 27 30 30 1 2 26 30 6 30 7 8 21 30 30 27 30 1 7 27 26 3 26 23 30 27 1 27 26
split_gain=2.32597 22.7553 15.3447 9.91603 8.04587 2.39479 1.66912 0.998617 1.6562 2.19392 2.21279 1.16135 0.894783 0.598153 1.42432 0.530624 0.425885 0.865359 0.406132 0.372117 0.282806 1.3206 1.41287 0.82829 0.250083 0.202242 0.199145 0.181643 0.170804 0.636478
threshold=-0.30126800000000004 0.082175499999999971 -0.039689999999999996 -0.70745499999999939 2.3121949999999996 -10.915599999999998 1.1082250000000002 0.00010410200000000001 -1.3691699999999993 7.4017900000000015e-05 0.54938500000000012 0.00059420900000000017 3.1181850000000006e-07 0.13566000000000003 0.71212500000000001 0.49994999999999928 0.017475500000000008 0.15623999999999996 -11.287699999999999 0.00048853650000000009 0.18449200000000018 0.0010045400000000002 1.2818950000000002e-05 0.0093694300000000032 0.011373800000000002 -1.1509949999999998 0.026820000000000014 -10.915599999999998 -0.08291700000000006 2.0472350000000004e-05
decision_type=2 2 2 2 2 2 2 2 2 2 2 2 2 2 2 2 2 2 2 2 2 2 2 2 2 2 2 2 2 2
left_child=-1 2 7 5 6 -4 13 28 27 10 11 -10 -12 14 16 26 -5 19 -13 -18 21 -3 -23 -24 25 -7 -15 -9 -2 -30
right_child=1 20 3 4 -6 24 -8 8 9 -11 12 18 -14 15 -16 -17 17 -19 -20 -21 -22 22 23 -25 -26 -27 -28 -29 29 -31
leaf_value=-0.00056740250741301932 -0.00073298185616933915 -0.00058526268625109081 0.012316544162921418 0.015061088361854637 -0.00082875078892136384 -0.0011431773698304668 -9.2853866517543808e-05 0.0039551898068748417 0.0068122717877849934 -0.0036380164761048482 -0.001812795491423458 0.016652215223404623 0.010812446950813352 0.013604825378760047 0.0020011436291194214 0.023160755678134807 0.016879584640264511 0.0021235512429848315 0.026607899814844134 0.0093559481203556068 -0.00054246124421671179 0.017962181333097675 0.0087339334558540326 -0.0046975270252336164 0.0041863530827686195 -0.0064475927193416291 0.01907946106332999 -0.0011321489427277779 -0.00070550090807955715 0.0084343996047973636
leaf_weight=9979 541 285 39 458 103 177 20 20 20 39 36 21 23 46 24 34 42 20 20 27 9944 21 24 22 20 20 26 143 80 25
leaf_count=9979 541 285 39 458 103 177 20 20 20 39 36 21 23 46 24 34 42 20 20 27 9944 21 24 22 20 20 26 143 80 25
internal_value=0 0.000459587 0.00530616 0.00947438 0.0122152 0.000909289 0.0141428 0.000759015 0.00303369 0.00666442 0.0100127 0.0166902 0.00310891 0.0145633 0.013923 0.0180128 0.0144461 0.0112812 0.0215086 0.0139356 -0.000493158 0.000899644 0.00721604 0.00231019 -0.00114086 -0.0016817 0.0155818 -0.000507936 -0.000374804 0.00147067
internal_weight=0 12320 2024 1056 800 256 697 968 322 159 120 61 59 677 571 106 547 89 41 69 10296 352 67 46 217 197 72 163 646 105
internal_count=22299 12320 2024 1056 800 256 697 968 322 159 120 61 59 677 571 106 547 89 41 69 10296 352 67 46 217 197 72 163 646 105
shrinkage=0.05


Tree=24
num_leaves=31
num_cat=0
split_feature=27 27 27 30 30 1 6 16 30 30 9 14 30 21 7 21 14 27 18 27 18 3 8 23 3 30 7 16 11 30
split_gain=2.09919 20.5366 13.8486 8.94921 7.2614 2.1613 1.04793 0.959516 1.06719 2.01081 0.94331 0.655474 1.63661 1.0423 0.612933 0.421742 0.358527 0.306369 0.770096 0.255233 1.27254 1.48689 0.238637 0.2257 0.19286 0.182524 0.166285 0.153787 0.280127 0.221426
threshold=-0.30126800000000004 0.082175499999999971 -0.039689999999999996 -0.70745499999999939 2.3121949999999996 -10.915599999999998 0.00010717200000000001 1.5537750000000001 -1.3691699999999993 0.49994999999999928 1.4193900000000001e-07 -8.2241149999999994 0.15623999999999996 0.025743000000000005 0.00034248100000000006 0.63275650000000006 -9.901234999999998 -0.08291700000000006 0.00046083800000000004 0.18449200000000018 0.0035145550000000004 1.49443e-05 1.0092000000000002e-07 0.011373800000000002 8.6974300000000012e-06 -1.1509949999999998 0.0036207350000000004 0.35201800000000005 2.3119800000000004e-06 0.49994999999999928
decision_type=2 2 2 2 2 2 2 2 2 2 2 2 2 2 2 2 2 2 2 2 2 2 2 2 2 2 2 2 2 2
left_child=-1 2 7 5 6 -4 11 17 26 10 -10 15 14 -14 24 27 -11 -2 -19 20 -3 -22 -18 25 -13 -7 -9 28 -5 -29
right_child=1 19 3 4 -6 23 -8 8 9 16 -12 12 13 -15 -16 -17 22 18 -20 -21 21 -23 -24 -25 -26 -27 -28 29 -30 -31
leaf_value=-0.00053903237814894721 -0.00075505503539305201 -0.00057604580923739678 0.011700717015908316 0.01458993467502296 -0.00078731321399687847 -0.0010860185094156676 0.0021559376735240223 -0.0012162212037709447 0.0070042783479121601 0.0062520910440630713 0.019254665346816184 0.0095425404608249671 -0.0042600899205907537 0.01134701288305223 0.0051282091997563841 0.021573950226108234 -0.0035186629978540755 -0.00067022589675616476 0.008135704768614636 -0.00051533818063801958 0.016143227023658929 0.00079734310458757368 0.0024553631221351682 0.0039770350838080051 0.014672768293717588 -0.0061252133565722032 0.0033521945197135211 0.01502876921384423 0.0093248713016510013 0.019988903458471652
leaf_weight=9979 573 287 39 160 103 177 20 98 33 26 30 20 23 20 20 24 35 80 36 9944 27 38 32 20 218 20 25 135 30 27
leaf_count=9979 573 287 39 160 103 177 20 98 33 26 30 20 23 20 20 24 35 80 36 9944 27 38 32 20 218 20 25 135 30 27
internal_value=0 0.000436607 0.00504085 0.00900066 0.0116044 0.000863825 0.0134357 0.000721064 0.00319487 0.00594073 0.0128378 0.0137689 0.01203 0.00299903 0.0135352 0.0151609 0.00126852 -0.000280667 0.00206265 -0.000468501 0.000854662 0.00717179 -0.000665397 -0.00108382 0.0142417 -0.00159761 -0.000287681 0.0147236 0.0137586 0.0158555
internal_weight=0 12320 2024 1056 800 256 697 968 279 156 63 677 301 43 258 376 93 689 116 10296 352 65 67 217 238 197 123 352 190 162
internal_count=22299 12320 2024 1056 800 256 697 968 279 156 63 677 301 43 258 376 93 689 116 10296 352 65 67 217 238 197 123 352 190 162
shrinkage=0.05


Tree=25
num_leaves=31
num_cat=0
split_feature=31 30 27 27 2 2 21 30 17 1 7 27 17 14 27 27 30 27 15 12 27 19 27 27 1 23 9 1 26 9
split_gain=1.89931 6.809 6.58732 29.8518 2.5713 2.27943 0.854698 2.78138 0.712576 0.657225 0.580273 0.518476 0.425463 0.404114 0.441948 1.51646 0.393336 0.424614 0.22408 0.222574 0.179779 0.142355 0.457708 0.136934 0.126841 0.114257 0.21838 0.0984936 0.279906 0.0898374
threshold=1.1102250000000005 0.49994999999999928 -0.10215499999999998 0.1562649999999999 -1.1568099999999999 1.3623750000000003 0.056618150000000006 -0.46105999999999975 -0.23584399999999997 -17.279499999999995 0.00027030200000000004 0.026820000000000014 0.36560600000000004 -15.099999999999998 0.28691050000000012 -0.58802650000000001 -0.70745499999999939 0.062192999999999977 1.3991600000000002 5.5242100000000005e-10 -0.039689999999999996 -0.63008599999999981 -0.89802249999999995 0.23661500000000005 -6.6628949999999989 -0.00088139499999999988 -7.382019999999998e-08 -15.973449999999998 0.010303700000000001 -5.0789149999999981e-07
decision_type=2 2 2 2 2 2 2 2 2 2 2 2 2 2 2 2 2 2 2 2 2 2 2 2 2 2 2 2 2 2
left_child=1 2 8 4 -4 6 7 -6 -1 -2 -8 19 23 14 15 -3 -12 20 24 -9 -18 22 -10 -5 -15 26 29 28 -11 -21
right_child=9 13 3 12 5 -7 10 11 21 27 16 -13 -14 18 -16 -17 17 -19 -20 25 -22 -23 -24 -25 -26 -27 -28 -29 -30 -31
leaf_value=0.008222085369440418 0.0085798960737884043 -0.0014400780804593254 -0.0049712388712743472 0.0026824634960469079 -0.0030442209471948445 -0.0027892230714011632 0.0074984169964279453 0.0083297557804895474 -0.00061325584301504042 -0.0011709472827726242 0.022886072471737864 0.0066167741590602838 0.0068930702004581694 -0.00045466438614282515 -0.00076818406648401707 0.016724989456124602 0.018385772434649644 0.022203212657145092 0.0046093527714467864 0.010943583399057389 0.013924491502668546 -0.00057865861216996881 0.0081393384328112012 -0.0005300753458868712 0.0034365448258107619 0.013746173668019366 0.0072663923370696248 -0.00050294003821801589 0.0063252657931298015 0.015439517319202423
leaf_weight=24 20 27 22 34 30 24 21 23 59 33 20 33 20 7657 42 20 27 21 22 20 138 1407 20 1360 21 347 21 10741 20 25
leaf_count=24 20 27 22 34 30 24 21 23 59 33 20 33 20 7657 42 20 27 21 22 20 138 1407 20 1360 21 347 21 10741 20 25
internal_value=0 0.000447768 0.00221511 0.00396948 0.0118771 0.0123713 0.0128725 0.0117154 -0.000324661 -0.000475552 0.0154161 0.0126595 -0.000347834 -0.000390864 0.00295903 0.00628974 0.0162232 0.0155068 -0.000429583 0.0131169 0.0146545 -0.000462697 0.00160259 -0.000451721 -0.000444022 0.0133835 0.0114766 -0.00049233 0.00165781 0.0134413
internal_weight=0 11485 3696 2186 772 750 726 499 1510 10814 227 469 1414 7789 89 47 206 186 7700 436 165 1486 79 1394 7678 413 66 10794 53 45
internal_count=22299 11485 3696 2186 772 750 726 499 1510 10814 227 469 1414 7789 89 47 206 186 7700 436 165 1486 79 1394 7678 413 66 10794 53 45
shrinkage=0.05


Tree=26
num_leaves=31
num_cat=0
split_feature=27 27 27 30 30 1 2 16 30 30 12 21 30 27 24 27 2 20 27 18 30 27 18 30 30 14 1 13 17 10
split_gain=1.73232 16.91 11.3935 7.36264 5.98838 1.83707 1.26692 0.819408 0.90044 1.68281 0.897565 0.514328 1.39494 0.449787 0.447959 0.430322 0.335642 0.298318 0.243242 0.642506 0.21406 0.210422 1.09083 1.28832 1.41676 0.167742 0.148464 0.133791 0.109369 0.281607
threshold=-0.30126800000000004 0.082175499999999971 -0.039689999999999996 -0.70745499999999939 2.3121949999999996 -13.252699999999999 1.1082250000000002 1.5537750000000001 -1.3691699999999993 0.49994999999999928 0.00033409700000000005 0.090146350000000014 0.60886500000000032 0.026820000000000014 1.0057200000000003e-06 0.017475500000000008 0.23939700000000003 1.3325250000000001e-05 -0.08291700000000006 0.00046083800000000004 0.54938500000000012 0.18449200000000018 0.0035145550000000004 -2.8531699999999995 0.54938500000000012 -10.107649999999998 -9.2069399999999977 2.1960850000000005 0.95288800000000007 1.3363850000000003e-06
decision_type=2 2 2 2 2 2 2 2 2 2 2 2 2 2 2 2 2 2 2 2 2 2 2 2 2 2 2 2 2 2
left_child=-1 2 7 5 6 -4 11 18 26 10 -10 12 13 -5 -7 25 17 -11 -2 -20 -17 22 27 -24 -25 -13 -9 -3 -23 -30
right_child=1 21 3 4 -6 14 -8 8 9 16 -12 15 -14 -15 -16 20 -18 -19 19 -21 -22 28 23 24 -26 -27 -28 -29 29 -31
leaf_value=-0.00048966998349091629 -0.00069202547623032002 -0.00094365205629793171 0.015335587784647942 0.012751249258822584 -0.00072521437117739498 -0.0012624899461946412 -0.00021144992439076305 0.003685659324983135 0.016455945062140622 -0.0038560811107713928 0.004166413319762796 0.014039737330888636 -0.00080776097740800602 0.0068758682055132733 0.0053728144648003172 0.016292042234404523 0.0049701553420163696 0.0037232632969971743 -0.00067757521464955066 0.0073658553469512196 0.022530636563897134 -0.00047851776998041469 -0.0035638017579913139 0.019678821399187051 0.001660120291635394 0.0088218097202479844 -0.0010219408346123053 0.0023969464086215286 0.0064256691490300003 -0.0014659983858179588
leaf_weight=9979 573 253 20 470 103 207 20 20 39 37 24 67 21 35 29 44 36 20 80 36 20 9898 21 24 20 20 103 34 20 26
leaf_count=9979 573 253 20 470 103 207 20 20 39 37 24 67 21 35 29 44 36 20 80 36 20 9898 21 24 20 20 103 34 20 26
internal_value=0 0.000396625 0.0045746 0.00816629 0.010528 0.00078589 0.012191 0.000656383 0.00294245 0.00546469 0.0117742 0.0125574 0.011819 0.012344 -0.000447135 0.0151295 0.00119049 -0.00119666 -0.000269326 0.00181866 0.0182416 -0.000424686 0.000776723 0.00662545 0.0114885 0.0128402 -0.000256477 -0.000547902 -0.000467214 0.00196516
internal_weight=0 12320 2024 1056 800 256 697 968 279 156 63 677 526 505 236 151 93 57 689 116 64 10296 352 65 44 87 123 287 9944 46
internal_count=22299 12320 2024 1056 800 256 697 968 279 156 63 677 526 505 236 151 93 57 689 116 64 10296 352 65 44 87 123 287 9944 46
shrinkage=0.05


Tree=27
num_leaves=31
num_cat=0
split_feature=27 27 27 2 2 1 27 21 16 9 9 23 17 5 9 23 0 2 15 15 24 25 19 27 7 9 14 27 18 24
split_gain=1.56342 15.2613 10.2827 3.13318 3.54854 3.13534 1.20825 1.68108 0.739515 0.665029 2.00127 0.976118 0.652748 0.645625 0.570691 0.722893 0.561023 0.452738 2.12434 0.454009 0.404225 0.353762 0.239982 0.337111 0.395854 0.246699 0.220928 0.219526 0.579862 0.191391
threshold=-0.30126800000000004 0.082175499999999971 -0.039689999999999996 -1.6365099999999997 1.7689400000000002 -5.8392349999999995 0.044107999999999932 0.12287100000000002 1.5537750000000001 4.7775650000000007e-07 2.3478250000000002e-05 0.027526950000000005 -0.032671749999999992 -7.9021999999999976e-05 -7.0380199999999989e-07 -0.0081398299999999989 -5.8350899999999983 0.18789900000000004 0.12675950000000002 0.25735650000000004 9.5690500000000006e-08 0.00042738950000000003 0.015495550000000002 0.017475500000000008 0.00022219550000000004 -6.089499999999999e-07 -7.3688999999999991 -0.08291700000000006 0.00046083800000000004 -1.1460199999999996e-06
decision_type=2 2 2 2 2 2 2 2 2 2 2 2 2 2 2 2 2 2 2 2 2 2 2 2 2 2 2 2 2 2
left_child=-1 2 8 -4 5 6 12 21 27 14 11 -11 16 -9 15 -10 -5 19 -19 22 29 -8 23 25 -25 -14 -20 -2 -29 -16
right_child=1 -3 3 4 -6 -7 7 13 9 10 -12 -13 17 -15 20 -17 -18 18 26 -21 -22 -23 -24 24 -26 -27 -28 28 -30 -31
leaf_value=-0.00046518648908007746 -0.00065742420147867542 -0.00040345149051726215 -0.0028763648195980259 0.011770004930440336 -0.0020007413666074474 -0.0015450860182153843 -0.0031737503170734278 0.018789324872195722 0.0090327674502100885 0.0054555378425866366 -0.0020748568931417029 0.019048371585085988 0.0057437926228158173 0.0075849390401142754 -0.0010887286933471583 -1.0200345080674572e-05 0.022908780947327616 -0.0028958080925376101 0.013443199609361229 0.0039917244321920654 -0.0049437568074666913 0.0049705906462622811 0.012700202956446447 0.0014747501406375142 0.010969642956700663 0.011485224868540235 0.0073996631219051786 -0.00064369645318947729 0.0069975626965363821 0.0053153603704413398
leaf_weight=9979 573 10296 65 26 75 62 40 20 39 25 41 28 20 36 28 51 20 34 62 22 47 20 200 21 23 290 20 80 36 20
leaf_count=9979 573 10296 65 26 75 62 40 20 39 25 41 28 20 36 28 51 20 34 62 22 47 20 200 21 23 290 20 80 36 20
internal_value=0 0.000376794 0.00434587 0.00775798 0.00845549 0.00931162 0.0100998 0.00535609 0.000623564 0.00279533 0.00621993 0.0126367 0.0108454 0.0115865 0.00105526 0.00390842 0.016613 0.010462 0.00761219 0.011036 -0.00164772 -0.00045897 0.0113157 0.0105335 0.00643799 0.0111148 0.0119692 -0.00025586 0.00172773 0.00157964
internal_weight=0 12320 2024 1056 991 916 854 116 968 279 94 53 738 56 185 90 46 692 116 576 95 60 554 354 44 310 82 689 116 48
internal_count=22299 12320 2024 1056 991 916 854 116 968 279 94 53 738 56 185 90 46 692 116 576 95 60 554 354 44 310 82 689 116 48
shrinkage=0.05


Tree=28
num_leaves=31
num_cat=0
split_feature=31 30 27 27 2 2 21 30 17 1 5 12 16 27 17 15 30 14 7 16 30 17 0 19 27 27 25 1 7 24
split_gain=1.4263 5.12547 4.91853 22.2278 2.08252 1.78657 0.744261 2.11595 0.581658 0.537921 0.528378 0.42843 0.525166 0.396191 0.381154 0.351939 0.307255 0.280795 0.350611 0.2408 0.174101 0.132243 0.12774 0.122199 0.391916 0.119036 0.117041 0.107834 0.107624 0.110466
threshold=1.1102250000000005 0.49994999999999928 -0.10215499999999998 0.1562649999999999 -1.1568099999999999 1.3623750000000003 0.042687050000000011 -0.46105999999999975 -0.23584399999999997 -17.279499999999995 0.00011884250000000002 8.1708200000000029e-06 3.2512000000000003 0.062192999999999977 0.36560600000000004 1.5416250000000002 0.15623999999999996 -15.441949999999999 0.018090500000000006 1.2179900000000001 -0.30846500000000038 -0.007554884999999999 -3.9004649999999992 -0.63008599999999981 -0.89802249999999995 0.23661500000000005 -0.00038253799999999992 -6.6628949999999989 0.00084499100000000012 2.2169050000000001e-07
decision_type=2 2 2 2 2 2 2 2 2 2 2 2 2 2 2 2 2 2 2 2 2 2 2 2 2 2 2 2 2 2
left_child=1 2 8 4 -4 6 7 -6 -1 -2 16 12 22 28 25 17 20 18 19 -3 -9 -22 -8 24 -10 -5 -23 -19 -13 -30
right_child=9 15 3 14 5 -7 11 10 23 -11 -12 13 -14 -15 -16 -17 -18 27 -20 -21 21 26 -24 -25 -26 -27 -28 -29 29 -31
leaf_value=0.0074485868526001772 0.0077803160622715948 0.0019658436428289859 -0.004901775435957296 0.002535763897878282 -0.0034068599956559153 -0.0027161976058171907 0.010463857503705903 0.0070987557247281083 -0.00053485021689685726 -0.00042728145744154911 0.0032381572760641578 0.011923000659971011 0.004918092254687239 0.021262320774522697 0.0065654005110263834 0.0059754848130978647 0.0068534161241070651 -0.00039550870619880439 -0.0014497739221301996 0.0097247067373245968 0.015012704196476169 0.0078885649144649506 0.014123610928072594 -0.00050537384063819278 0.0075642885873094205 -0.00045947312971453784 0.01184103375269195 0.0031923246037747176 0.013570787772840385 0.017384522936997878
leaf_weight=24 20 20 22 34 28 24 38 20 59 10794 22 42 27 22 20 22 37 7678 28 20 31 20 64 1407 20 1360 295 21 49 31
leaf_count=24 20 20 22 34 28 24 38 20 59 10794 22 42 27 22 20 22 37 7678 28 20 31 20 64 1407 20 1360 295 21 49 31
internal_value=0 0.000388025 0.00192139 0.00343734 0.0102609 0.0107056 0.0111493 0.00990655 -0.000273222 -0.000412102 0.0107837 0.0132115 0.0111188 0.0150863 -0.00028809 -0.000339581 0.0111956 -0.000357469 0.00284143 0.00584528 0.0116345 0.0118967 0.0127602 -0.000397935 0.00151556 -0.000386419 0.0115901 -0.000385722 0.0139726 0.0150486
internal_weight=0 11485 3696 2186 772 750 726 453 1510 10814 425 273 129 144 1414 7789 403 7767 68 40 366 346 102 1486 79 1394 315 7699 122 80
internal_count=22299 11485 3696 2186 772 750 726 453 1510 10814 425 273 129 144 1414 7789 403 7767 68 40 366 346 102 1486 79 1394 315 7699 122 80
shrinkage=0.05


Tree=29
num_leaves=31
num_cat=0
split_feature=28 28 28 30 30 2 2 21 30 21 18 7 2 2 9 30 20 4 28 18 30 10 28 26 16 30 30 28 18 18
split_gain=1.29067 12.5977 8.44153 5.60701 4.33191 1.2276 1.25896 0.870593 0.959819 0.740495 0.643952 1.03828 0.9184 1.08194 0.980368 0.633357 0.390978 0.330551 0.327177 0.531263 0.835236 0.355585 0.262067 0.450943 0.190869 0.180997 0.275069 0.173051 0.841838 0.678473
threshold=0.30126800000000015 -0.082175499999999943 0.03969000000000001 -1.3691699999999993 2.3121949999999996 -1.1568099999999999 1.2303800000000003 0.13566000000000003 -0.67309499999999989 1.6089400000000003 0.0030361450000000005 0.00059420900000000017 -1.4166899999999998 1.8906600000000002 6.4416800000000008e-07 0.71212500000000001 2.3357300000000004e-05 3.0248850000000001e-05 0.082917000000000088 0.00046083800000000004 -0.58587000000000022 3.2253550000000006e-07 -0.026820000000000007 1.2073950000000002e-05 12.089550000000001 0.49994999999999928 -0.38658499999999968 -0.15626499999999985 0.0035145550000000004 0.016915800000000005
decision_type=2 2 2 2 2 2 2 2 2 2 2 2 2 2 2 2 2 2 2 2 2 2 2 2 2 2 2 2 2 2
left_child=1 27 3 9 5 -5 7 8 -7 -3 18 24 -13 14 16 22 -14 25 19 -4 -21 -22 23 -10 -12 26 -9 -1 -29 -30
right_child=-2 2 10 4 -6 6 -8 17 15 -11 11 12 13 -15 -16 -17 -18 -19 -20 20 21 -23 -24 -25 -26 -27 -28 28 29 -31
leaf_value=-0.00039979496131681925 -0.00042266603686881983 -0.0012301510117485076 -0.00063034514139872046 -0.0019956831238232553 -0.00072332234500491438 -0.00063435044139623651 -0.0018056270232773388 0.019800740586859839 0.0016309278714470568 0.0079236908927559861 0.00035768222925253211 -0.0018970012879715517 0.0027258801131254239 -0.0012943239649757744 0.020579263915053825 0.0017742855241522195 0.012374191742301697 0.011193828266113997 -0.00053269769287908283 -0.002468626808364537 0.0046334936456696599 0.013749342610168717 0.011145049385518668 0.012248634658753872 -0.0051459616840356442 0.020758086194594703 0.012522555011160234 -0.00038279867066563745 0.01261708201467991 0.00026166375726461411
leaf_weight=10032 9979 190 80 20 103 20 20 21 20 25 50 26 21 20 22 20 21 40 640 22 20 23 502 20 23 21 34 219 25 20
leaf_count=10032 9979 190 80 20 103 20 20 21 20 25 50 26 21 20 22 20 21 40 640 22 20 23 502 20 23 21 34 219 25 20
internal_value=0 0.000342353 0.00394847 0.00704005 0.0088822 0.0102228 0.0105632 0.0109176 0.0101292 -0.000165751 0.000575831 0.0032468 0.00631488 0.00885665 0.0120288 0.0105123 0.00755004 0.0148729 -4.6827e-05 0.00209771 0.00545531 0.00950941 0.0108347 0.00693978 -0.00137634 0.0168092 0.0153015 -0.000366542 0.000897074 0.00712579
internal_weight=0 12320 2024 1056 841 738 718 698 582 215 968 183 110 84 64 562 42 116 785 145 65 43 542 40 73 76 55 10296 264 45
internal_count=22299 12320 2024 1056 841 738 718 698 582 215 968 183 110 84 64 562 42 116 785 145 65 43 542 40 73 76 55 10296 264 45
shrinkage=0.05


Tree=30
num_leaves=31
num_cat=0
split_feature=27 27 27 30 30 9 21 27 21 18 30 12 9 30 4 14 30 27 18 30 10 3 7 10 7 17 27 18 3 13
split_gain=1.16483 11.3694 7.61848 5.06032 3.90954 1.08108 0.92892 1.38373 0.668296 0.581166 0.940413 0.986727 1.23452 0.513229 0.383154 0.346042 0.340675 0.295277 0.479465 0.753801 0.320916 0.291749 0.28103 0.254851 0.168967 0.162956 0.159186 0.759759 1.41914 0.159843
threshold=-0.30126800000000004 0.082175499999999971 -0.039689999999999996 -1.3691699999999993 2.3121949999999996 -4.4180199999999994e-05 0.097717150000000016 0.044107999999999932 1.6089400000000003 0.0030361450000000005 -1.3691699999999993 0.00030883100000000003 1.4193900000000001e-07 -0.46105999999999975 3.0248850000000001e-05 -9.6992549999999991 0.44810500000000003 -0.08291700000000006 0.00046083800000000004 -0.58587000000000022 3.2253550000000006e-07 1.1624150000000001e-05 0.0044422700000000008 3.2253550000000006e-07 0.0036207350000000004 2.4687050000000004 0.1562649999999999 0.0035145550000000004 1.5617050000000003e-05 2.1960850000000005
decision_type=2 2 2 2 2 2 2 2 2 2 2 2 2 2 2 2 2 2 2 2 2 2 2 2 2 2 2 2 2 2
left_child=-1 2 9 8 5 -5 7 13 -4 17 24 12 -12 -7 22 -13 -15 -2 -19 -20 -21 -16 23 -8 -11 26 27 29 -29 -3
right_child=1 25 3 4 -6 6 14 -9 -10 10 11 15 -14 16 21 -17 -18 18 19 20 -22 -23 -24 -25 -26 -27 -28 28 -30 -31
leaf_value=-0.00040153271872781708 -0.00050606281387445052 -0.00087021365786010092 -0.001168643463721597 -0.0017545013909693809 -0.00068715625073539227 0.0033306134740511578 0.011105341607561478 -0.0011846716308237745 0.0075275060608983035 -0.0015052712379681023 0.0039974077006003691 0.0061477174749597907 0.021354908533394338 0.010342804998906023 0.014580350431303183 -0.00234298553938667 0.0039795386160469872 -0.0005988278798758984 -0.0023451955335489897 0.0044018189783673741 0.0130618755407024 0.0074634113038579628 0.020089251113434636 0.017075564983216201 0.0036744188435841353 0.0031075808849623976 -0.0003916646975799046 0.016261825958887737 -0.0015362933588524662 0.0032385095643500486
leaf_weight=9979 640 192 190 20 103 30 39 31 25 74 21 24 20 479 24 24 22 80 22 20 23 36 24 33 20 34 9998 21 24 27
leaf_count=9979 640 192 190 20 103 30 39 31 25 74 21 24 20 479 24 24 22 80 22 20 23 36 24 33 20 34 9998 21 24 27
internal_value=0 0.000325235 0.00375104 0.00668805 0.00843809 0.00971167 0.0100311 0.00908354 -0.000157463 0.00054704 0.00308446 0.00676806 0.0124645 0.009683 0.0134446 0.00190237 0.0100634 -4.44856e-05 0.00199282 0.00518254 0.00903394 0.0103102 0.0154036 0.0138417 -0.00040321 -0.000348215 -0.000359665 0.00085222 0.0067695 -0.000363659
internal_weight=0 12320 2024 1056 841 738 718 562 215 968 183 89 41 531 156 48 501 785 145 65 43 60 96 72 94 10296 10262 264 45 219
internal_count=22299 12320 2024 1056 841 738 718 562 215 968 183 89 41 531 156 48 501 785 145 65 43 60 96 72 94 10296 10262 264 45 219
shrinkage=0.05


Tree=31
num_leaves=31
num_cat=0
split_feature=30 30 27 27 27 21 11 2 22 31 21 24 15 12 14 27 27 26 14 14 15 21 20 27 24 23 18 23 27 30
split_gain=1.05213 4.16131 3.76505 13.5545 2.30853 1.60139 1.3332 0.812673 0.534082 0.561708 0.811429 0.337086 0.317787 0.242072 0.218206 0.285746 0.700272 0.207354 0.225538 0.15723 0.133352 0.117393 0.106527 0.261989 0.165432 0.147618 0.0913402 0.0994779 0.0904555 0.0783043
threshold=-0.96838499999999994 0.49994999999999928 -0.30126800000000004 0.1562649999999999 -0.08291700000000006 0.29006000000000004 -0.00025752899999999994 0.9753535000000001 -0.023074749999999998 0.54846999999999968 0.051869950000000005 3.2690150000000004e-05 1.5416250000000002 5.5242100000000005e-10 -15.441949999999999 -0.12303449999999989 1.1635055000000003 1.0650950000000003e-06 -6.6726449999999993 -6.3181949999999993 -0.18833199999999997 5.4289250000000004 -1.0960499999999998e-05 -0.039689999999999996 1.3899150000000002e-07 -0.0063662349999999987 0.00071377550000000011 0.0049060300000000013 0.026820000000000014 1.1659150000000011
decision_type=2 2 2 2 2 2 2 2 2 2 2 2 2 2 2 2 2 2 2 2 2 2 2 2 2 2 2 2 2 2
left_child=-1 2 21 4 5 20 -6 8 -8 13 -11 -5 14 -10 15 -3 -17 18 -15 22 -4 -2 24 -24 -19 -25 28 -28 -27 -16
right_child=1 12 3 11 6 -7 7 -9 9 10 -12 -13 -14 17 29 16 -18 19 -20 -21 -22 -23 23 25 -26 26 27 -29 -30 -31
leaf_value=-0.00034534874332631103 -0.00042342887979170547 -0.0020276535545354305 -0.0046662175422534351 -0.00034956540796068241 -0.002391565516591072 0.012867481555216588 0.017320595918731255 -0.0001063615702812306 0.0053622337122415679 -0.0028815098038070244 0.0097607577343781799 0.0044312075227744092 0.0057039006888358439 0.004488855476180712 6.6675923212099848e-05 0.01179671511228662 -0.00075562508311122656 0.0065491912984534315 0.010042097310467464 0.0067515606858900611 -0.00012847755652140169 0.0034377485886216163 0.015684305717823682 0.014473438716453055 0.011184738261195329 0.010411066933203553 0.0056061359494924551 0.01033715444803238 0.013734560314862226 -0.00040154709009081592
leaf_weight=11088 1251 23 20 1241 25 26 22 22 29 22 30 38 22 33 1031 20 25 38 41 28 85 20 27 23 39 295 20 25 22 6668
leaf_count=11088 1251 23 20 1241 25 26 22 22 29 22 30 38 22 33 1031 20 25 38 41 28 85 20 27 23 39 295 20 25 22 6668
internal_value=0 0.00034156 0.00179489 0.00306976 0.0078767 0.00175809 0.0089584 0.0093547 0.00965462 0.00940365 0.00441211 -0.000207525 -0.000296942 0.00982229 -0.000313939 0.00250599 0.00482319 0.0100411 0.00756565 0.0103955 -0.000992809 -0.000362671 0.0106041 0.0109232 0.00889707 0.0105893 0.0103425 0.00823448 0.0106417 -0.000338846
internal_weight=0 11211 3422 2151 872 131 741 716 694 672 52 1279 7789 620 7767 68 45 591 74 517 105 1271 489 412 77 385 362 45 317 7699
internal_count=22299 11211 3422 2151 872 131 741 716 694 672 52 1279 7789 620 7767 68 45 591 74 517 105 1271 489 412 77 385 362 45 317 7699
shrinkage=0.05


Tree=32
num_leaves=31
num_cat=0
split_feature=27 27 27 30 30 21 7 31 21 20 30 7 2 30 3 19 2 15 15 5 30 4 27 21 30 30 24 12 3 30
split_gain=0.958285 9.3796 6.31568 4.16846 3.2358 0.973551 1.62494 0.757679 0.603138 0.505952 1.00077 1.24399 0.704173 0.5029 0.403607 0.340885 0.357252 1.01952 0.565447 0.293814 0.277016 0.18693 0.139666 0.950443 2.2151 1.88564 0.160212 0.137393 0.135011 0.129138
threshold=-0.30126800000000004 0.082175499999999971 -0.039689999999999996 -1.3691699999999993 2.3121949999999996 0.092190600000000011 0.0022170600000000003 0.46718999999999961 1.6089400000000003 2.2192050000000004e-05 -1.3691699999999993 0.0046168100000000016 -0.063837799999999986 0.35346500000000086 1.6396850000000005e-05 -0.16141849999999999 0.20003250000000003 0.35941150000000005 0.24689300000000003 -0.00015921049999999997 0.49994999999999928 -1.0176299999999998e-05 0.26162950000000007 0.59253850000000008 -2.8531699999999995 0.54938500000000012 7.0096650000000009e-06 5.5242100000000005e-10 1.1624150000000001e-05 -0.051969999999999843
decision_type=2 2 2 2 2 2 2 2 2 2 2 2 2 2 2 2 2 2 2 2 2 2 2 2 2 2 2 2 2 2
left_child=-1 2 9 8 5 6 7 13 -4 15 -11 12 -12 27 19 16 18 -18 -2 -7 28 -16 23 -3 26 -26 -25 -5 29 -21
right_child=1 22 3 4 -6 14 -8 -9 -10 10 11 -13 -14 -15 21 -17 17 -19 -20 20 -22 -23 -24 24 25 -27 -28 -29 -30 -31
leaf_value=-0.00036419710657565967 0.0050208400849154908 -0.00055271592259340386 -0.0010929438397119828 0.0057141027723749483 -0.00063272105241762324 0.01805266859009862 -0.0023001670330838378 0.00067997422583144292 0.0071683984696865087 -0.00028491596790876145 0.019455556766617865 -0.00093482880533534069 0.0065071908180557555 0.0028242704672588699 0.01105785488405011 -0.00046612884657112289 -0.0018783687142422422 0.013895359657804616 -0.0032212026596307231 0.015302582345902921 0.016292609696586927 0.0043789124768227345 -0.00036314625560964099 -7.4923838287390581e-05 0.019004282479256611 0.00069935148543057342 -0.0052562661599367859 0.0095976405756155476 0.0080131753782431286 0.0096886848409970597
leaf_weight=9979 38 496 190 24 103 28 37 29 25 95 21 26 21 31 22 680 20 21 46 20 30 20 9680 37 34 24 25 446 30 21
leaf_count=9979 38 496 190 24 103 28 37 29 25 95 21 26 21 31 22 680 20 21 46 20 30 20 9680 37 34 24 25 446 30 21
internal_value=0 0.000294994 0.00340661 0.00608072 0.00766908 0.00882773 0.00783043 0.00853766 -0.000132323 0.00048939 0.00302972 0.00766047 0.0129814 0.00899249 0.0121346 -2.49886e-05 0.00237481 0.00620086 0.00050734 0.0135206 0.0122642 0.00787741 -0.000316691 0.000413318 0.00440626 0.0114298 -0.00216417 0.00939933 0.0105621 0.0124272
internal_weight=0 12320 2024 1056 841 738 567 530 215 968 163 68 42 501 171 805 125 41 84 129 101 42 10296 616 120 58 62 470 71 41
internal_count=22299 12320 2024 1056 841 738 567 530 215 968 163 68 42 501 171 805 125 41 84 129 101 42 10296 616 120 58 62 470 71 41
shrinkage=0.05


Tree=33
num_leaves=31
num_cat=0
split_feature=27 27 27 30 30 21 7 16 30 12 8 22 24 24 3 9 14 31 30 30 30 13 1 17 10 30 30 27 21 27
split_gain=0.864852 8.47445 6.30253 2.97661 2.37974 0.564198 1.39449 0.541745 0.643678 1.20031 1.44204 0.938178 0.49436 0.429654 0.385467 0.265733 0.281495 0.254541 0.364771 0.253996 0.258628 0.248034 0.223352 0.194981 0.331604 0.144717 0.469311 0.571887 0.162848 0.131278
threshold=-0.30126800000000004 0.062192999999999977 -0.025773999999999905 -1.3691699999999993 2.1714600000000006 0.059226050000000009 0.0020371300000000003 1.1554350000000002 -1.3691699999999993 0.00030883100000000003 1.6360850000000001e-07 -0.0093454599999999981 5.561765000000001e-08 1.0057200000000003e-06 2.3565700000000004e-05 2.0537550000000005e-05 -9.4395949999999988 0.58895500000000045 0.49994999999999928 0.22406500000000043 -0.30846500000000038 2.7365150000000003 -9.3781449999999982 0.95288800000000007 9.3105150000000011e-07 -0.38658499999999968 0.12171999999999984 -0.08291700000000006 0.082037000000000013 0.1562649999999999
decision_type=2 2 2 2 2 2 2 2 2 2 2 2 2 2 2 2 2 2 2 2 2 2 2 2 2 2 2 2 2 2
left_child=-1 2 7 13 5 6 19 25 22 10 11 -10 -13 -4 17 16 -11 18 -7 20 -5 23 -9 29 -25 -2 27 -27 -28 -3
right_child=1 21 3 4 -6 14 -8 8 9 15 -12 12 -14 -15 -16 -17 -18 -19 -20 -21 -22 -23 -24 24 -26 26 28 -29 -30 -31
leaf_value=-0.00034598725453728065 -0.00075964724010384784 0.00065728917542826331 -0.00076391379412413794 0.0045607407906037923 -0.0005603783117533711 0.0096919954922937215 -0.005053346462591435 0.0047062938730232417 0.011169954686640548 0.0050373787395930035 0.015954146053021156 0.0042543849538323351 -0.006356324199476235 0.0069128571898632116 0.0047588648984120008 -0.0042788008339703079 -0.001115874048583664 0.017094107468922936 0.015465354959707004 0.0035505299493670465 0.0091114951034334934 0.0052767946396488699 -0.00097537830239460279 0.0078050990030169498 -0.00050658519845455893 0.00010782704005061926 -0.00066881749350656194 0.0092357878165785223 0.0040294561616610733 -0.00034465231913001498
leaf_weight=9979 376 338 138 34 76 105 20 20 26 34 36 23 21 21 21 25 41 21 37 25 382 20 128 20 30 37 237 32 20 9976
leaf_count=9979 376 338 138 34 76 105 20 20 26 34 36 23 21 21 21 25 41 21 37 25 382 20 128 20 30 37 237 32 20 9976
internal_value=0 0.000280244 0.00331728 0.00644239 0.00780798 0.00879402 0.00785977 0.000713021 0.00230781 0.00411498 0.00782204 0.00363981 -0.000809817 0.000249999 0.0111347 0.0001855 0.0016736 0.0119562 0.0111963 0.0084454 0.00873956 -0.000285983 -0.000207585 -0.000296718 0.00281809 -9.11869e-05 0.000679798 0.00434108 -0.000303193 -0.000311818
internal_weight=0 12320 1936 880 721 645 461 1056 354 206 106 70 44 159 184 100 75 163 142 441 416 10384 148 10364 50 702 326 69 257 10314
internal_count=22299 12320 1936 880 721 645 461 1056 354 206 106 70 44 159 184 100 75 163 142 441 416 10384 148 10364 50 702 326 69 257 10314
shrinkage=0.05


Tree=34
num_leaves=31
num_cat=0
split_feature=27 27 27 30 30 21 30 30 16 30 30 12 9 24 5 24 1 14 30 13 19 14 27 20 6 21 21 1 30 30
split_gain=0.780529 7.64819 5.68803 2.68639 2.14772 0.509189 0.609864 0.640407 0.488925 0.58092 1.08508 0.783939 1.03526 1.52382 0.402501 0.387762 0.357686 0.298917 0.282775 0.22385 0.213251 0.205552 0.147603 0.887206 0.285655 0.774982 0.270305 0.132483 0.130607 0.430771
threshold=-0.30126800000000004 0.062192999999999977 -0.025773999999999905 -1.3691699999999993 2.1714600000000006 0.059226050000000009 0.35346500000000086 -0.46105999999999975 1.1554350000000002 -1.3691699999999993 0.88446499999999972 0.00033409700000000005 5.3331600000000017e-07 5.561765000000001e-08 0.00012686700000000004 1.0057200000000003e-06 -9.7434249999999967 -10.340999999999999 0.71212500000000001 2.7365150000000003 0.025111600000000005 -18.853249999999996 0.18449200000000018 -5.8536399999999991e-05 4.7200350000000006e-05 0.5512450000000001 0.26707350000000007 -14.372349999999999 -0.38658499999999968 0.44810500000000003
decision_type=2 2 2 2 2 2 2 2 2 2 2 2 2 2 2 2 2 2 2 2 2 2 2 2 2 2 2 2 2 2
left_child=-1 2 8 15 5 6 7 -5 28 21 11 12 13 -11 -9 -4 18 -12 20 22 -7 -10 23 -3 25 -25 -26 -22 -2 -30
right_child=1 19 3 4 -6 16 -8 14 9 10 17 -13 -14 -15 -16 -17 -18 -19 -20 -21 27 -23 -24 24 26 -27 -28 -29 29 -31
leaf_value=-0.00032868789158631219 -0.00072166487967633862 0.0081404222472984764 -0.00072571811197912734 -0.00087733000516891473 -0.00053235939611974913 0.0090418603718280793 -0.00085761592324290958 0.0086354378956302377 0.0043851850709567463 0.015152274190702223 0.005320435097779741 0.0011765997774679871 0.018128891184891541 -0.0032540931892783747 0.0015334198872248332 0.0065672141854606937 0.0059475978124229351 -0.0012786934626861834 0.017162340059876442 0.0050129548972472557 0.016387129649519921 -0.00095492367852741838 -0.00032085312232918575 -0.00018920851133424774 -0.00078003808392523584 0.0078786601202891163 -0.0064282009723163882 0.011285809108189174 0.0033781724856526128 -0.00056320250588592837
leaf_weight=9979 376 36 138 20 76 75 21 399 21 22 22 34 27 23 21 21 34 78 20 20 20 127 9940 239 87 34 28 35 100 226
leaf_count=9979 376 36 138 20 76 75 21 399 21 22 22 34 27 23 21 21 34 78 20 20 20 127 9940 239 87 34 28 35 100 226
internal_value=0 0.000266232 0.00315142 0.00612027 0.00741758 0.00835432 0.00746678 0.00786408 0.00067737 0.00219242 0.00390923 0.00743387 0.0103887 0.00574458 0.00828034 0.000237499 0.010578 0.000173115 0.0116275 -0.000271684 0.010776 -0.000197206 -0.000281882 0.000631736 -6.49467e-05 0.000815581 -0.00215524 0.0131408 -8.66275e-05 0.000645808
internal_weight=0 12320 1936 880 721 645 461 440 1056 354 206 106 72 45 420 159 184 100 150 10384 130 148 10364 424 388 273 115 55 702 326
internal_count=22299 12320 1936 880 721 645 461 440 1056 354 206 106 72 45 420 159 184 100 150 10384 130 148 10364 424 388 273 115 55 702 326
shrinkage=0.05


Tree=35
num_leaves=31
num_cat=0
split_feature=30 30 27 27 8 22 27 10 14 31 21 11 1 17 11 5 25 30 16 14 27 20 8 11 25 25 27 21 8 22
split_gain=0.707812 2.58297 2.51535 9.87431 1.75408 1.4097 2.13793 0.797638 0.595529 0.762879 0.752986 0.446475 0.389477 0.268915 0.261897 0.240489 0.216213 0.2915 0.20956 0.202986 0.255866 0.160439 0.356123 0.141513 0.122725 0.108033 0.097238 0.0962883 0.0953722 0.210673
threshold=-1.1509949999999998 0.54938500000000012 -0.30126800000000004 0.1562649999999999 1.006097e-05 -0.020437099999999996 -0.10215499999999998 -1.2766349999999999e-06 -13.661999999999997 0.46718999999999961 0.051869950000000005 1.6671850000000005e-05 -17.279499999999995 0.36560600000000004 -1.1435e-05 -0.00015921049999999997 0.0016744000000000002 0.31050000000000028 0.68318150000000022 -15.441949999999999 0.28691050000000012 -1.0960499999999998e-05 -1.5125899999999997e-08 -8.2999499999999984e-06 -0.80259099999999994 0.00023440450000000002 0.23661500000000005 5.4289250000000004 1.1598450000000002e-07 5.2881600000000005e-05
decision_type=2 2 2 2 2 2 2 2 2 2 2 2 2 2 2 2 2 2 2 2 2 2 2 2 2 2 2 2 2 2
left_child=12 2 27 4 5 14 23 -8 15 11 -11 16 -1 26 -4 -9 17 21 -6 20 -3 22 -10 -7 -21 -25 -5 -2 -23 -30
right_child=1 19 3 13 18 6 7 8 9 10 -12 -13 -14 -15 -16 -17 -18 -19 -20 24 -22 28 -24 25 -26 -27 -28 -29 29 -31
leaf_value=0.0066785869374871264 -0.0003543975242701233 0.0051301838674892991 0.019908386043139867 0.0023649190853842917 5.9725712943712579e-05 0.0030474922561552378 -0.0017460377709737616 0.016000389152516923 0.00017595902085304263 -0.003574213519271824 0.007537653399631381 0.0011030635175605615 -0.00030535836220349087 0.0052917411349798467 0.011913685947656632 0.0099850187216092047 0.011204685650765897 0.0019898540695153532 -0.0063903723098337655 0.0034461629936810242 -0.00080407008679364534 0.0087275996758668078 0.0089116404298692949 -0.00050560507392779423 -0.00029366838367622021 -0.0048297253693453971 -0.00034066873723960836 0.0030558214788990365 0.003913585044857529 0.0087671341279805717
leaf_weight=20 1444 39 21 34 34 20 23 24 20 31 30 24 10716 22 20 54 50 21 20 22 34 327 28 52 7606 20 1427 21 36 59
leaf_count=20 1444 39 21 34 34 20 23 24 20 31 30 24 10716 22 20 54 50 21 20 22 34 327 28 52 7606 20 1427 21 36 59
internal_value=0 0.000271439 0.00132671 0.00232429 0.00641206 0.00696093 0.006508 0.00741676 0.00771611 0.00720279 0.00189064 0.00777631 -0.000292348 -0.000195083 0.0160085 0.0118359 0.00807235 0.00775337 -0.0023292 -0.00025777 0.00236628 0.00801089 0.00527177 -0.000673219 -0.000282882 -0.00170675 -0.000277705 -0.000305514 0.00832245 0.00692789
internal_weight=0 11563 3862 2397 914 860 819 727 704 626 61 565 10736 1483 41 78 541 491 54 7701 73 470 48 92 7628 72 1461 1465 422 95
internal_count=22299 11563 3862 2397 914 860 819 727 704 626 61 565 10736 1483 41 78 541 491 54 7701 73 470 48 92 7628 72 1461 1465 422 95
shrinkage=0.05


Tree=36
num_leaves=31
num_cat=0
split_feature=27 27 27 30 30 6 26 30 12 16 30 6 30 7 7 12 24 30 13 11 15 27 22 8 1 8 22 18 8 14
split_gain=0.642487 6.28917 4.66556 2.21471 1.72847 0.678558 0.701118 0.62864 0.466836 0.418353 0.496008 1.01414 1.0262 1.31476 0.593118 0.572957 0.398581 0.257622 0.193096 0.147785 0.132678 0.119781 0.776075 0.719545 0.364172 0.18891 0.399735 0.243795 0.201249 0.118064
threshold=-0.30126800000000004 0.062192999999999977 -0.025773999999999905 -1.7909349999999999 2.1714600000000006 0.00013584450000000002 0.00021163350000000003 -0.70745499999999939 2.5573700000000003e-06 1.1554350000000002 -2.5203599999999997 7.4017900000000015e-05 2.1059099999999997 0.00027748600000000002 0.0028496800000000007 1.7628450000000002e-05 9.5690500000000006e-08 2.2384500000000007 2.7365150000000003 -4.1882149999999993e-05 -0.34987649999999998 0.18449200000000018 -0.026817949999999997 -4.9515099999999985e-07 -16.135999999999999 -1.2847149999999997e-06 0.025705100000000005 0.0018210250000000002 -3.0170899999999994e-07 -8.1980949999999986
decision_type=2 2 2 2 2 2 2 2 2 2 2 2 2 2 2 2 2 2 2 2 2 2 2 2 2 2 2 2 2 2
left_child=-1 2 9 20 5 6 7 -5 -8 -2 -11 12 13 16 15 -15 -12 -13 21 -10 -4 22 23 -3 -24 27 28 -26 -27 -9
right_child=1 18 3 4 -6 -7 8 29 19 10 11 17 -14 14 -16 -17 -18 -19 -20 -21 -22 -23 24 -25 25 26 -28 -29 -30 -31
leaf_value=-0.00029820933770058919 -8.9520524472696877e-05 0.012963417658339377 0.0036030793093959805 0.00037510975307668564 -0.00049462634396102087 -0.001602742710383609 0.0061918592639267451 0.0082881685986853481 0.012323716994036329 -0.00059490689107406076 0.0053235154930527124 -0.0052375435413149025 -0.001321536667463887 0.013704867310201128 0.018032026485624641 0.0044064949908469977 -0.0042040258008257851 0.001706371372124109 0.0046619606530293829 0.017942633002996446 -0.00079049997424828964 -0.00029082227488689248 0.0059376066616412416 0.0001621896755837259 -0.00097295725920913201 0.0043004675803240393 0.006247192282171455 -0.007013740601099056 -0.00092955171597021425 0.0068117924555305886
leaf_weight=9979 702 23 20 32 76 20 20 285 22 120 21 34 45 30 22 37 23 22 20 25 122 9940 23 21 61 20 24 23 229 258
leaf_count=9979 702 23 20 32 76 20 20 285 22 120 21 34 45 30 22 37 23 22 20 25 122 9940 23 21 61 20 24 23 229 258
internal_value=0 0.000241545 0.00285787 0.00554667 0.00664695 0.00746683 0.00774938 0.00718535 0.0125899 0.000617192 0.00201864 0.00335892 0.00520519 0.00741347 0.0109089 0.00856995 0.00034321 -0.00250958 -0.000246244 0.0153125 -0.000171686 -0.000255716 0.000567306 0.00685374 -0.000160597 -0.000553478 8.45224e-05 -0.00262698 -0.00050947 0.00758669
internal_weight=0 12320 1936 880 738 662 642 575 67 1056 354 234 178 133 89 67 44 56 10384 47 142 10364 424 44 380 357 273 84 249 543
internal_count=22299 12320 1936 880 738 662 642 575 67 1056 354 234 178 133 89 67 44 56 10384 47 142 10364 424 44 380 357 273 84 249 543
shrinkage=0.05


Tree=37
num_leaves=31
num_cat=0
split_feature=27 27 27 30 30 1 2 20 30 12 30 14 30 0 7 30 19 2 25 30 3 17 2 13 17 23 30 16 16 26
split_gain=0.580238 5.43537 4.06243 2.59032 2.12528 1.0038 0.598428 0.414891 0.716621 0.933434 0.418709 0.356509 0.657562 0.635164 0.346634 0.34016 0.220886 0.284344 0.34532 0.306291 0.151079 0.123207 0.102189 0.10194 0.507014 0.0914009 0.153563 0.0953188 0.0897199 0.0645704
threshold=-0.32627999999999996 0.082175499999999971 -0.039689999999999996 -0.70745499999999939 2.3121949999999996 -10.915599999999998 1.1082250000000002 2.2192050000000004e-05 -1.3691699999999993 0.00039050200000000004 1.3577250000000005 -8.2647199999999987 0.15623999999999996 4.7165450000000009 0.00032625600000000008 0.65794500000000034 -0.16141849999999999 0.2905815000000001 -0.0025292699999999997 -0.82755000000000034 8.6974300000000012e-06 2.4687050000000004 -0.29999149999999991 2.2711000000000001 0.042491300000000003 0.011373800000000002 -1.3211999999999995 2.6117300000000006 4.5910050000000009 1.2073950000000002e-05
decision_type=2 2 2 2 2 2 2 2 2 2 2 2 2 2 2 2 2 2 2 2 2 2 2 2 2 2 2 2 2 2
left_child=-1 2 7 5 6 -4 11 16 22 -10 -11 15 14 -14 20 29 17 18 -2 -20 -13 23 -9 -3 -25 26 27 -7 -18 -5
right_child=1 21 3 4 -6 25 -8 8 9 10 -12 12 13 -15 -16 -17 28 -19 19 -21 -22 -23 -24 24 -26 -27 -28 -29 -30 -31
leaf_value=-0.00028566772710421221 -0.0027367011190669492 -0.00027377187285789866 0.0077388802877603434 0.0072345770101928152 -0.00057192912542270227 -0.00034797395882330755 -0.0014012018192806864 0.0029765286148176529 0.015513479197397829 0.0067382459524988891 -0.0020584785583196209 0.0033841405063867571 0.0062827001325786117 -0.0061676070478279147 0.00069540582597255713 0.013173268735408784 -0.00030346371297863692 0.0053721536049404399 -0.00062701770342149152 0.0074474965303164458 0.0079221919752084282 0.0027586497297948775 -0.0010244067279213769 -0.00049914786629755086 0.0072306101124181791 0.0022468040487729013 -0.005140378646066656 -0.0038692558374763888 -0.0028287726043836792 0.0086106974913110566
leaf_weight=9891 47 10136 39 169 103 152 20 20 20 31 24 20 21 20 20 34 712 39 24 23 221 34 79 99 27 20 23 22 37 172
leaf_count=9891 47 10136 39 169 103 152 20 20 20 31 24 20 21 20 20 34 712 39 24 23 221 34 79 99 27 20 23 22 37 172
internal_value=0 0.000227719 0.0025383 0.00473118 0.00613203 0.000353547 0.00712271 0.000345413 0.00257675 0.00626336 0.00289968 0.00737453 0.00609596 0.00020938 0.00702067 0.0084042 -9.4782e-05 0.00178296 0.00029382 0.00332434 0.00754559 -0.000246246 -0.000216137 -0.000256202 0.00115723 -0.000973771 -0.00130073 -0.000793194 -0.000428212 0.00792869
internal_weight=0 12408 2112 1056 800 256 697 1056 174 75 55 677 302 41 261 375 882 133 94 47 241 10296 99 10262 126 217 197 174 749 341
internal_count=22299 12408 2112 1056 800 256 697 1056 174 75 55 677 302 41 261 375 882 133 94 47 241 10296 99 10262 126 217 197 174 749 341
shrinkage=0.05


Tree=38
num_leaves=31
num_cat=0
split_feature=30 30 27 27 8 22 27 10 14 27 16 1 17 15 5 15 30 11 16 30 1 12 14 27 27 11 25 21 27 15
split_gain=0.525677 1.96153 1.87606 7.15667 1.38524 1.19389 1.6524 0.699346 0.521814 0.573176 0.636815 0.320482 0.282517 0.263232 0.248677 0.225043 0.407454 0.22374 0.183937 0.12654 0.749181 0.161345 0.126192 0.22227 0.466261 0.124998 0.102008 0.0859348 0.0853452 0.0719879
threshold=-1.1509949999999998 0.49994999999999928 -0.30126800000000004 0.1562649999999999 1.006097e-05 -0.020437099999999996 -0.10215499999999998 -1.2766349999999999e-06 -13.661999999999997 0.044107999999999932 0.40642150000000005 -17.279499999999995 0.36560600000000004 1.5416250000000002 -0.00015921049999999997 -0.29301199999999994 -0.46105999999999975 -1.1435e-05 0.68318150000000022 0.15623999999999996 -8.3562799999999982 5.5242100000000005e-10 -15.441949999999999 -0.12303449999999989 1.1635055000000003 -8.2999499999999984e-06 0.00023440450000000002 5.4289250000000004 0.23661500000000005 -0.20116949999999997
decision_type=2 2 2 2 2 2 2 2 2 2 2 2 2 2 2 2 2 2 2 2 2 2 2 2 2 2 2 2 2 2
left_child=11 2 27 4 5 17 25 -8 14 15 -11 -1 28 22 -9 -10 -17 -4 -6 21 -21 -18 23 -3 -25 -7 -27 -2 -5 -23
right_child=1 13 3 12 18 6 7 8 9 10 -12 -13 -14 -15 -16 16 19 -19 -20 20 -22 29 -24 24 -26 26 -28 -29 -30 -31
leaf_value=0.006071472801268101 -0.0003067685726218524 -0.00208888597705442 0.017951164873582975 0.0022486966404625598 -1.5851201235570692e-05 0.0027895551902474836 -0.0023655311823610895 0.014940602040809135 0.010509203736566837 -0.0055091229170405624 0.0055649882536432842 -0.00026374385370228263 0.0057579052262008192 0.0052421394015916374 0.0087148395138529119 0.0006618988033833689 0.0030618187040090564 0.010561772584915162 -0.0060925866683828643 0.0088445772895136398 -0.0029794927331663317 0.0049995587323792279 -0.00025379494721834386 0.0096435860544443128 -0.00059890482784248893 -0.00051149205240877697 -0.0047133148327702656 0.002915500734178793 -0.00028682776296296892 0.0074679033772554254
leaf_weight=20 1407 23 21 34 33 20 22 23 36 21 34 10716 20 22 53 29 24 20 20 37 21 32 7699 20 25 52 20 21 1390 384
leaf_count=20 1407 23 21 34 33 20 22 23 36 21 34 10716 20 22 53 29 24 20 20 37 21 32 7699 20 25 52 20 21 1390 384
internal_value=0 0.000233923 0.00116948 0.00203923 0.00553338 0.00602295 0.00560059 0.0064111 0.00668932 0.00620853 0.00133669 -0.000251942 -0.000143405 -0.000219384 0.010599 0.00668446 0.00642319 0.0143466 -0.00230896 0.00675868 0.00456345 0.00704806 -0.000234854 0.00190963 0.00395331 -0.000707313 -0.00167867 -0.000259382 -0.000226289 0.00727803
internal_weight=0 11563 3774 2346 902 849 808 716 694 618 55 10736 1444 7789 76 563 527 41 53 498 58 440 7767 68 45 92 72 1428 1424 416
internal_count=22299 11563 3774 2346 902 849 808 716 694 618 55 10736 1444 7789 76 563 527 41 53 498 58 440 7767 68 45 92 72 1428 1424 416
shrinkage=0.05


Tree=39
num_leaves=31
num_cat=0
split_feature=27 27 27 30 30 2 21 30 30 10 13 11 20 11 2 30 15 7 20 19 11 22 22 30 18 19 20 23 27 17
split_gain=0.475192 4.47017 3.32312 2.17016 1.58551 0.915362 0.858862 1.186 0.463318 0.461526 0.594461 0.394976 0.35928 0.664813 1.09218 0.286395 0.277341 0.232635 0.19015 0.189503 0.270943 0.891685 0.369234 0.269355 0.132869 0.128459 0.12562 0.115703 0.114256 0.107957
threshold=-0.32627999999999996 0.082175499999999971 -0.039689999999999996 -2.1146599999999998 2.3121949999999996 1.8906600000000002 0.097717150000000016 -0.70745499999999939 0.60886500000000032 1.6268950000000003e-06 0.86206250000000006 4.573715000000001e-06 2.2192050000000004e-05 -1.7326649999999998e-05 -1.4166899999999998 0.49994999999999928 0.50922850000000008 0.0022170600000000003 3.3038300000000005e-05 -0.16141849999999999 6.2472100000000008e-06 0.014883600000000002 0.020076150000000004 -0.82755000000000034 0.0043382300000000011 -0.011683149999999998 -3.2218649999999993e-05 -0.020281949999999997 0.026820000000000014 2.4687050000000004
decision_type=2 2 2 2 2 2 2 2 2 2 2 2 2 2 2 2 2 2 2 2 2 2 2 2 2 2 2 2 2 2
left_child=-1 2 12 27 5 6 7 25 17 10 15 18 19 14 -14 26 24 28 -11 20 22 -22 23 -2 -15 -5 -8 -4 -9 -3
right_child=1 29 3 4 -6 -7 9 8 -10 11 -12 -13 13 16 -16 -17 -18 -19 -20 -21 21 -23 -24 -25 -26 -27 -28 -29 -30 -31
leaf_value=-0.00025851919988800943 -0.00041615604830046843 -0.00023306885096295322 -0.0040098336775069281 -0.00519029411894735 -0.00053064290211463658 -0.0039823016519552439 0.010989342033863068 0.0068509564751052651 -0.0009796399496157062 0.0069875568490136751 0.00095084519483722174 0.018732411023229364 -0.00077773126092506577 0.00079520942769401395 0.01337262857380362 0.014512820965187115 0.0053619156518834648 0.0012735647105035328 0.01372378572821617 -0.00040031952957384089 -0.00267135544330813 0.011915917094500567 -0.0045423079069286327 0.0063021094594150791 -0.0029298765462319651 9.6646826757394055e-05 0.0060709752048038555 -0.00027414228695162913 0.0038481571875950867 0.0025890493847648887
leaf_weight=9891 37 10262 24 20 103 22 20 464 22 22 26 20 25 54 30 22 22 21 20 749 20 22 29 25 43 27 37 152 34 34
leaf_count=9891 37 10262 24 20 103 22 20 464 22 22 26 20 25 54 30 22 22 21 20 749 20 22 29 25 43 27 37 152 34 34
internal_value=0 0.000206078 0.00230149 0.00428482 0.0052985 0.00607121 0.00636417 0.00546544 0.00612731 0.00952855 0.00750873 0.0129492 0.00031815 0.00239457 0.00694065 0.00966703 0.000293435 0.00642857 0.0101953 -9.14833e-05 0.00164775 0.0049696 0.000114594 0.00229282 -0.000856117 -0.00215312 0.00779672 -0.000783555 0.00664595 -0.00022375
internal_weight=0 12408 2112 1056 880 777 755 588 541 167 105 62 1056 174 55 79 119 519 42 882 133 42 91 62 97 47 57 176 498 10296
internal_count=22299 12408 2112 1056 880 777 755 588 541 167 105 62 1056 174 55 79 119 519 42 882 133 42 91 62 97 47 57 176 498 10296
shrinkage=0.05


Tree=40
num_leaves=31
num_cat=0
split_feature=27 27 27 30 30 2 21 11 30 30 17 30 30 21 27 19 27 23 25 27 9 18 22 27 6 18 30 24 8 14
split_gain=0.428861 4.03687 2.73882 2.14216 2.04704 1.10205 1.08512 1.10671 0.823402 0.668226 0.325539 0.500202 0.320042 0.371596 0.310694 0.202569 0.315647 0.154482 0.165277 0.145015 0.13662 0.133956 0.30561 0.166768 0.35612 0.513012 0.832753 0.169673 0.16883 0.127922
threshold=-0.32627999999999996 0.10539999999999995 -0.039689999999999996 -2.2627249999999997 1.9136999999999997 -1.1568099999999999 0.099180800000000013 2.4757200000000004e-05 -0.70745499999999939 -0.91560999999999992 -0.18709999999999996 -1.3691699999999993 0.65794500000000034 0.71875300000000009 0.044107999999999932 0.10621850000000001 0.044107999999999932 -0.042706899999999992 0.016189750000000003 0.082175499999999971 1.0270700000000001e-05 0.020567500000000006 0.066260300000000008 -0.08291700000000006 6.3414900000000022e-05 0.00046083800000000004 -1.0585399999999996 -2.1034399999999999e-06 2.9158450000000003e-08 -8.1980949999999986
decision_type=2 2 2 2 2 2 2 2 2 2 2 2 2 2 2 2 2 2 2 2 2 2 2 2 2 2 2 2 2 2
left_child=-1 2 10 17 5 -5 7 8 -7 -8 11 -2 13 14 -11 16 29 -4 -19 20 -6 22 23 27 25 -25 -27 -12 -28 -10
right_child=1 -3 3 4 19 6 9 -9 15 12 21 -13 -14 -15 -16 -17 -18 18 -20 -21 -22 -23 -24 24 -26 26 28 -29 -30 -31
leaf_value=-0.00024559323631746587 -0.00085049847606569532 -0.0002229062390906734 -0.004872734624604207 -0.0039399531428768696 -0.0010952917955497779 -0.001720143136335537 0.01740890323247489 -0.0032166438487144441 0.0070664700736025616 0.0069292565807700162 0.0039743480619306316 0.0090548848791513602 0.013443429882709796 0.0011023352760821581 0.013272040373144244 0.009873749645692962 -0.00021546151780057698 -0.00087126518799309155 0.0039448068372439594 -0.0042507308478816411 0.0028480831011741736 -0.0031312068854834163 0.0051756719127297405 -0.00070594387023117065 -0.0024190801436752949 -0.0027349837118526921 0.0068673782828867578 -0.00038498653900630354 0.012928407485596836 0.0054258117967620201
leaf_weight=9891 25 10208 21 28 82 35 24 37 224 75 23 26 26 20 26 35 20 163 20 25 30 31 30 55 43 20 27 756 20 253
leaf_count=9891 25 10208 21 28 82 35 24 37 224 75 23 26 26 20 26 35 20 163 20 25 30 31 30 55 43 20 27 756 20 253
internal_value=0 0.000195774 0.00213845 0.00383341 0.00484135 0.00580512 0.0061572 0.00516171 0.00570844 0.00967343 0.000302242 0.0041993 0.0084105 0.00732904 0.00856205 0.00619716 0.00593825 -0.000811017 -0.000344919 -0.000807589 -3.90307e-05 0.000104481 0.000207465 4.95768e-05 0.00149358 0.00287263 0.00581026 -0.000256277 0.00944654 0.00619627
internal_weight=0 12408 2200 1144 940 803 775 604 567 171 1056 51 147 121 101 532 497 204 183 137 112 1005 974 944 165 122 67 779 47 477
internal_count=22299 12408 2200 1144 940 803 775 604 567 171 1056 51 147 121 101 532 497 204 183 137 112 1005 974 944 165 122 67 779 47 477
shrinkage=0.05


Tree=41
num_leaves=31
num_cat=0
split_feature=27 27 30 30 21 27 2 14 3 30 4 0 21 11 25 30 30 21 20 22 20 17 17 20 4 11 21 17 17 17
split_gain=0.389725 3.94548 2.46586 2.84037 1.51051 2.03073 1.36563 0.80065 0.73552 0.608753 0.669802 0.488824 0.447806 0.689784 0.263586 0.201639 0.203098 0.610675 0.163282 0.2721 0.220072 0.13334 0.26918 0.132469 0.145304 0.217028 0.203006 0.183358 0.127631 0.113758
threshold=0.33758199999999999 -0.08291700000000006 -1.9709400000000008 0.76082999999999956 0.51382200000000011 0.10539999999999995 -0.78269099999999991 -13.311149999999998 1.9326050000000004e-05 -0.70745499999999939 -8.2571149999999986e-06 3.9525750000000004 0.042687050000000011 8.0248250000000016e-06 0.34928250000000011 -0.30846500000000038 0.15623999999999996 0.017854750000000003 3.8880500000000008e-05 -0.023074749999999998 1.2899450000000002e-05 -0.15993099999999996 -0.073788849999999975 -3.4138749999999996e-05 -3.7057499999999995e-05 -1.0896599999999998e-05 0.071011600000000022 -0.0061372549999999986 0.072453100000000006 0.0080739700000000015
decision_type=2 2 2 2 2 2 2 2 2 2 2 2 2 2 2 2 2 2 2 2 2 2 2 2 2 2 2 2 2 2
left_child=1 -1 14 4 5 6 -4 -5 11 10 -8 -6 13 15 21 -11 29 -18 19 -9 -21 -3 -23 -14 25 -25 27 -26 -24 -17
right_child=-2 2 3 7 8 -7 9 18 -10 12 -12 -13 23 -15 -16 16 17 -19 -20 20 -22 22 28 24 26 -27 -28 -29 -30 -31
leaf_value=-0.00020876049611950821 -0.00024450167892483947 -0.0035002213045074657 -0.0057764955188354689 0.0089966502428675699 0.017679435223013767 -0.00064184990260807292 0.0075420747966627073 0.0050649019210444145 0.0032738143844263895 0.0011250648802767196 -0.0033235378247391551 0.0082679056784730736 0.011613359231324423 -0.0039281009277328848 0.0049152193380342353 0.006541875883795862 -0.0037406880501657728 0.0084672554085652042 -0.0037580335816142689 -0.00067491572680433492 0.0047027941187843684 0.00471693373426957 -0.00059708625865630203 0.008872289825230837 0.0074178981284300496 0.0019443335799643629 0.0067972245219756261 0.01271062811008758 -0.0037268412173060437 0.003680177348164412
leaf_weight=10771 9416 42 27 24 37 179 23 24 21 24 37 22 21 20 21 317 20 21 33 390 20 23 470 20 30 26 110 36 35 39
leaf_count=10771 9416 42 27 24 37 179 23 24 21 24 37 22 21 20 21 317 20 21 33 390 20 23 470 20 30 26 110 36 35 39
internal_value=0 0.000178703 0.00215473 0.0032197 0.00471151 0.00415587 0.00526973 9.02259e-05 0.0113098 0.0056706 0.000841614 0.0141701 0.0060942 0.00514453 -0.000586075 0.00557554 0.00584458 0.00251216 -0.000367492 -0.000109686 -0.000412588 -0.000788754 -0.000573069 0.00781767 0.00745862 0.00495649 0.00811258 0.0103048 -0.000814 0.00622838
internal_weight=0 12883 2112 1521 1030 950 771 491 80 744 60 59 684 441 591 421 397 41 467 434 410 570 528 243 222 46 176 66 505 356
internal_count=22299 12883 2112 1521 1030 950 771 491 80 744 60 59 684 441 591 421 397 41 467 434 410 570 528 243 222 46 176 66 505 356
shrinkage=0.05


Tree=42
num_leaves=31
num_cat=0
split_feature=27 27 27 30 30 6 21 30 7 30 20 11 2 20 26 27 27 15 12 30 17 19 11 22 22 30 27 23 21 30
split_gain=0.35319 3.29612 2.21035 1.7518 1.6813 0.994645 0.933366 0.912319 0.681743 0.333118 0.299503 0.579506 0.93705 0.274763 0.249321 0.634901 0.291508 0.24719 0.244226 0.219537 0.178436 0.148978 0.240904 0.767901 0.325706 0.216418 0.146165 0.135527 0.144683 0.127917
threshold=-0.32627999999999996 0.10539999999999995 -0.039689999999999996 -2.2627249999999997 2.3121949999999996 0.00025298000000000003 0.31666400000000006 -0.70745499999999939 0.0012826400000000003 0.76082999999999956 2.2192050000000004e-05 -1.7326649999999998e-05 -1.4166899999999998 4.2176850000000009e-06 1.2073950000000002e-05 0.026820000000000014 0.044107999999999932 0.50922850000000008 0.00012532050000000003 0.40204999999999963 0.0080739700000000015 -0.16141849999999999 6.2472100000000008e-06 0.014883600000000002 0.020076150000000004 -0.82755000000000034 -0.017273000000000035 -0.042706899999999992 0.97977400000000003 0.15623999999999996
decision_type=2 2 2 2 2 2 2 2 2 2 2 2 2 2 2 2 2 2 2 2 2 2 2 2 2 2 2 2 2 2
left_child=-1 2 10 27 5 6 7 13 -8 14 21 12 -12 -5 15 20 19 -13 -10 -16 26 22 24 -24 25 -2 -9 -4 -29 -28
right_child=1 -3 3 4 -6 -7 8 9 18 -11 11 17 -14 -15 16 -17 -18 -19 -20 -21 -22 -23 23 -25 -26 -27 29 28 -30 -31
leaf_value=-0.00022287555211003801 -0.00037649027119088615 -0.00020065762363503088 -0.0045486052276655321 -0.0027614728286936684 -0.0010322380634337606 -0.0058173136314144357 0.002351298686116934 0.0027864957920142584 0.009795382047013846 2.2301764261943325e-05 -0.00072551169598591514 -0.00086763237510596595 0.012381449268820385 0.0042357042530784391 0.0058646619150584398 -0.0023093892643893405 0.012509599764069373 0.0050026894525878815 0.01592580829041474 0.011273333359332312 0.0019917513046300776 -0.00036432403315961862 -0.0025068864889908581 0.011030065744522621 -0.0043678719498184996 0.0056455241451039912 0.0059253590585816376 -0.0008001267142724917 0.0037059131782734771 0.010063916537910701
leaf_weight=9891 37 10208 21 47 125 20 20 35 32 27 25 97 30 20 176 28 22 22 33 21 33 749 20 22 29 25 281 163 20 20
leaf_count=9891 37 10208 21 47 125 20 20 35 32 27 25 97 30 20 176 28 22 22 33 21 33 749 20 22 29 25 281 163 20 20
internal_value=0 0.000177665 0.00193308 0.00345576 0.00436724 0.00519538 0.00547243 0.00487966 0.0104239 0.00545821 0.000283513 0.00217934 0.00642374 -0.000672763 0.00569647 0.00494936 0.00705083 0.000217637 0.0129078 0.00644122 0.00550016 -9.04935e-05 0.0014516 0.0045839 5.93052e-06 0.00205174 0.00584474 -0.000744231 -0.000307663 0.00620035
internal_weight=0 12408 2200 1144 940 815 795 710 85 643 1056 174 55 67 616 397 219 119 65 197 369 882 133 42 91 62 336 204 183 301
internal_count=22299 12408 2200 1144 940 815 795 710 85 643 1056 174 55 67 616 397 219 119 65 197 369 882 133 42 91 62 336 204 183 301
shrinkage=0.05


Tree=43
num_leaves=31
num_cat=0
split_feature=27 27 30 30 21 27 10 14 30 27 30 21 30 7 25 12 30 21 24 24 20 19 30 7 1 16 27 26 24 21
split_gain=0.321998 3.24265 2.04401 2.33453 1.32368 1.686 1.23734 0.689836 0.624873 0.853495 0.551309 0.563493 0.575854 0.379506 0.230966 0.195019 0.183691 0.529094 0.166463 0.203709 0.149609 0.251658 0.147199 0.130081 0.133405 0.117807 0.167592 0.135697 0.10421 0.146023
threshold=0.33758199999999999 -0.08291700000000006 -1.9709400000000008 0.81491999999999998 0.51382200000000011 0.10539999999999995 -1.2766349999999999e-06 -13.311149999999998 -0.91560999999999992 0.082175499999999971 -1.0585399999999996 0.043231700000000005 -0.34826499999999999 0.0010420150000000001 0.34928250000000011 5.5242100000000005e-10 0.15623999999999996 0.017854750000000003 1.3899150000000002e-07 7.5916850000000003e-08 3.8880500000000008e-05 0.65451000000000004 -0.34826499999999999 0.00042424250000000003 -14.124499999999999 4.5910050000000009 0.18449200000000018 0.0018293500000000002 -1.9252599999999996e-07 0.082037000000000013
decision_type=2 2 2 2 2 2 2 2 2 2 2 2 2 2 2 2 2 2 2 2 2 2 2 2 2 2 2 2 2 2
left_child=1 -1 14 4 5 6 -4 -5 -6 -10 -8 12 -12 15 25 -14 -17 -18 19 23 21 -9 -20 -13 -25 27 -27 -3 29 -26
right_child=-2 2 3 7 8 -7 10 20 9 -11 11 18 13 -15 -16 16 17 -19 22 -21 -22 -23 -24 24 28 26 -28 -29 -30 -31
leaf_value=-0.00018882681956264064 -0.00022224370765497496 -0.00061070935734644982 -0.004865372129279422 0.0083249887063478432 0.016996353233233095 -0.00059820589548462773 -0.0004596462792705563 -0.00038809527890157819 0.002182161064592947 0.014809532706504284 -0.0026261198437876176 0.01084089370444417 0.00076321661472320565 -0.0018201485218014568 0.0046081166315291612 0.0058774757182698039 -0.0034534745593555274 0.0080475427769124506 0.012899491703137755 0.0017125181853771211 -0.0036136379695645622 0.0053564012009883304 0.0080506748785006098 0.0091711371233969032 0.0011452712280594784 -0.0045316482938101725 4.5365771560076006e-05 0.0035947006716742186 0.0080495653530726057 0.006273853619183813
leaf_weight=10771 9416 469 32 24 25 181 41 408 32 23 27 20 23 20 21 343 20 20 20 20 33 20 72 33 23 45 36 20 26 35
leaf_count=10771 9416 469 32 24 25 181 41 408 32 23 27 20 23 20 21 343 20 20 20 20 33 20 72 33 23 45 36 20 26 35
internal_value=0 0.000162435 0.00195384 0.00292344 0.00426372 0.00374671 0.00476146 6.04842e-05 0.010442 0.0074627 0.00517608 0.00550523 0.00445497 0.00490377 -0.000541538 0.005235 0.00550354 0.00229703 0.00741594 0.00642631 -0.000369772 -0.000119661 0.00910477 0.00711445 0.00647746 -0.000731263 -0.00249742 -0.000438709 0.00541922 0.00424011
internal_weight=0 12883 2112 1521 1036 956 775 485 80 55 743 702 453 426 591 406 383 40 249 157 461 428 92 137 117 570 81 489 84 58
internal_count=22299 12883 2112 1521 1036 956 775 485 80 55 743 702 453 426 591 406 383 40 249 157 461 428 92 137 117 570 81 489 84 58
shrinkage=0.05


Tree=44
num_leaves=31
num_cat=0
split_feature=27 27 27 31 31 20 31 19 10 23 9 10 15 16 11 27 31 31 12 3 19 1 31 31 1 13 16 17 5 15
split_gain=0.290961 2.71116 2.22919 0.945775 0.777168 0.421853 0.360402 0.261407 0.709861 0.223609 0.563547 0.199713 0.166151 0.162851 0.159463 0.27515 0.428347 0.542182 0.212325 0.165976 0.15623 0.151369 0.213085 0.164943 0.425197 0.130254 0.116011 0.11314 0.631321 0.102075
threshold=-0.32627999999999996 0.062192999999999977 -0.025773999999999905 1.9325500000000002 -2.1714599999999997 4.0724600000000006e-05 0.97154500000000044 -0.72542949999999984 7.8403450000000014e-07 0.027526950000000005 1.0851950000000001e-06 -7.9364699999999983e-07 -0.29732549999999996 8.1216400000000011 0.00018843350000000004 -0.08291700000000006 0.39185999999999949 -0.65794500000000011 1.4184450000000002e-07 1.1058900000000002e-05 0.7439150000000001 -11.203999999999999 -0.5493849999999999 -0.15623999999999991 -8.7377299999999973 2.7365150000000003 8.379780000000002 0.95288800000000007 0.00016940400000000003 -0.14072249999999997
decision_type=2 2 2 2 2 2 2 2 2 2 2 2 2 2 2 2 2 2 2 2 2 2 2 2 2 2 2 2 2 2
left_child=-1 2 7 4 -4 6 11 8 12 13 26 -6 -2 14 15 20 17 -17 -19 -20 -9 22 -13 24 -23 27 -11 -3 -29 -24
right_child=1 25 3 -5 5 -7 -8 9 -10 10 -12 21 -14 -15 -16 16 -18 18 19 -21 -22 23 29 -25 -26 -27 -28 28 -30 -31
leaf_value=-0.00020229043469867586 0.0015770644970871219 -0.00018432806347988204 -0.00036627871871276421 -0.00012337138936210844 0.0001108546881005168 0.011943891307427771 -0.00019150741780841991 -0.00027906794826321857 0.0080659621857846961 0.0020063636882696302 0.0088832030184566989 0.01073883466422558 -0.0039943241817957682 -0.0037248883322122152 -0.0012810778202138678 -0.00028941218332440916 -0.00099398009609802211 0.0029614705187471016 0.0055255830963142219 0.011692937657547494 0.0042156150749360676 0.007841537781059742 0.0042181010496982882 0.005067331924364365 -0.0013975874196286457 0.0038661236036568883 -0.0033790646636043678 -0.0025811456737975624 0.0088022404749478617 0.0069600731506943708
leaf_weight=9891 32 10314 76 135 20 21 35 580 39 20 25 25 23 29 176 44 69 23 20 24 20 20 62 378 33 20 20 29 21 75
leaf_count=9891 32 10314 76 135 20 21 35 580 39 20 25 25 23 29 176 44 69 23 20 24 20 20 62 378 33 20 20 29 21 75
internal_value=0 0.000161255 0.00183533 0.00372728 0.00442505 0.00496935 0.00474333 0.000379977 0.00290605 0.000153833 0.00299425 0.00502509 -0.000752789 -3.36054e-05 7.83686e-05 0.000385116 0.00209965 0.00402272 0.00685457 0.00888959 -0.000129245 0.00519083 0.00649382 0.00470107 0.00208887 -0.000165047 -0.00068635 -0.000172826 0.00219988 0.00571918
internal_weight=0 12408 2024 880 745 669 648 1144 94 1050 65 613 55 985 956 780 180 111 67 44 600 593 162 431 53 10384 40 10364 50 137
internal_count=22299 12408 2024 880 745 669 648 1144 94 1050 65 613 55 985 956 780 180 111 67 44 600 593 162 431 53 10384 40 10364 50 137
shrinkage=0.05


Tree=45
num_leaves=31
num_cat=0
split_feature=27 27 31 31 21 27 10 3 14 21 31 21 31 7 25 12 31 21 24 24 31 20 22 7 17 21 3 3 21 31
split_gain=0.26626 2.65576 1.70209 1.9344 1.20675 1.38817 1.06631 0.662527 0.597357 0.473359 0.454526 0.495328 0.498336 0.333083 0.200588 0.174953 0.151388 0.464288 0.146397 0.181562 0.138155 0.136767 0.221705 0.123525 0.120683 0.142038 0.119817 0.157133 0.10493 0.0987405
threshold=0.33758199999999999 -0.08291700000000006 1.9762500000000001 -0.81491999999999976 0.51382200000000011 0.10539999999999995 -1.2766349999999999e-06 1.9326050000000004e-05 -13.311149999999998 1.3411550000000003 1.0662749999999999 0.043231700000000005 0.35248999999999958 0.0010420150000000001 0.34928250000000011 5.5242100000000005e-10 -0.15623999999999991 0.017854750000000003 1.3899150000000002e-07 7.5916850000000003e-08 0.35248999999999958 3.8880500000000008e-05 -0.023074749999999998 0.00042424250000000003 0.072453100000000006 3.0089350000000006 1.1548250000000001e-05 1.3647800000000002e-05 0.29348650000000004 -0.22406500000000037
decision_type=2 2 2 2 2 2 2 2 2 2 2 2 2 2 2 2 2 2 2 2 2 2 2 2 2 2 2 2 2 2
left_child=1 -1 3 8 5 6 -5 9 -3 -6 11 12 13 15 24 -8 17 -17 19 23 -20 22 -10 -13 25 28 29 -28 -4 -25
right_child=-2 2 14 4 7 -7 10 -9 21 -11 -12 18 -14 -15 -16 16 -18 -19 20 -21 -22 -23 -24 26 -26 -27 27 -29 -30 -31
leaf_value=-0.00017018006884601312 -0.00020209488807039966 0.0077382371566879259 -0.0002331867129730715 -0.0046359027590369807 0.0086470825214158085 -0.00056243592022853207 0.00049226173888082092 0.0021459823740380152 0.0045553535096890608 0.017710285663604736 -0.00043143978519521358 0.010128950104117393 -0.0025873355826156008 -0.0018818287737303763 0.0042908526957035065 -0.0033156918460736057 0.00532155967814408 0.0074579850398004055 0.0073386142025507681 0.0013977868668735027 0.012036107936874034 -0.0034542729390192439 -0.00039098023101693196 0.010340190120041372 -0.003529468065244146 0.0032603181396552829 0.0011455437755617112 0.0062453174265101555 -0.001836140116117336 0.0058383089971953432
leaf_weight=10771 9416 24 370 32 34 181 23 21 24 25 41 20 27 20 21 20 343 20 72 20 20 33 404 21 35 24 23 44 141 29
leaf_count=10771 9416 24 370 32 34 181 23 21 24 25 41 20 27 20 21 20 343 20 72 20 20 33 404 21 35 24 23 44 141 29
internal_value=0 0.000147708 0.00176891 0.00265371 0.00387373 0.00338009 0.00430086 0.00977279 4.76271e-05 0.0124874 0.00468575 0.00498462 0.00399993 0.00441743 -0.000508208 0.00472774 0.00498209 0.00207115 0.00677604 0.00584797 0.00835981 -0.000352752 -0.000113616 0.00649763 -0.000685015 -0.000498929 0.00587689 0.00449465 -0.000675489 0.0077291
internal_weight=0 12883 2112 1521 1036 956 775 80 485 59 743 702 453 426 591 406 383 40 249 157 92 461 428 137 570 535 117 67 511 50
internal_count=22299 12883 2112 1521 1036 956 775 80 485 59 743 702 453 426 591 406 383 40 249 157 92 461 428 137 570 535 117 67 511 50
shrinkage=0.05


Tree=46
num_leaves=31
num_cat=0
split_feature=27 27 30 30 21 27 10 3 14 21 30 21 11 30 25 12 24 24 24 30 30 20 19 17 17 7 21 1 4 13
split_gain=0.240299 2.39682 1.53614 1.7458 1.08909 1.25282 0.962344 0.59793 0.539114 0.427206 0.41021 0.447034 0.524869 0.355458 0.18103 0.159064 0.132123 0.16386 0.128858 0.270804 0.124685 0.123432 0.205214 0.111548 0.235249 0.111481 0.111453 0.110313 0.0986731 0.0923223
threshold=0.33758199999999999 -0.08291700000000006 -1.9709400000000008 0.81491999999999998 0.51382200000000011 0.10539999999999995 -1.2766349999999999e-06 1.9326050000000004e-05 -13.311149999999998 1.3411550000000003 -1.0585399999999996 0.043231700000000005 8.0248250000000016e-06 -0.34826499999999999 0.34928250000000011 5.5242100000000005e-10 1.3899150000000002e-07 7.5916850000000003e-08 -2.3261499999999997e-07 0.19364999999999991 -0.34826499999999999 3.8880500000000008e-05 0.65451000000000004 -0.15993099999999996 -0.073788849999999975 0.00042424250000000003 2.2443350000000004 -14.124499999999999 -3.0190799999999995e-06 -1.2648499999999998
decision_type=2 2 2 2 2 2 2 2 2 2 2 2 2 2 2 2 2 2 2 2 2 2 2 2 2 2 2 2 2 2
left_child=1 -1 14 4 5 6 -4 9 -5 -6 28 12 13 -12 23 -15 17 25 -17 -20 -18 22 -10 -3 -25 -13 -26 -27 -8 -29
right_child=-2 2 3 8 7 -7 10 -9 21 -11 11 16 -14 15 -16 18 20 -19 19 -21 -22 -23 -24 24 26 27 -28 29 -30 -31
leaf_value=-0.00016167106704223754 -0.00019199014171714557 -0.0031307881634261106 -0.0044041074695996942 0.0073513254018810889 0.0082147283233044779 -0.000534314128403997 0.002103593343344983 0.0020386832367096631 -0.00035033689554244817 0.016824771165847779 -0.0020164204888384451 0.0096225026343017828 -0.0039193802651771832 0.00046764876207579741 0.0040763100963972865 0.0086557948961853981 0.011434302600100636 0.0013278975524008275 0.004901728444672817 -0.0004889960684813559 0.0069716834295023653 -0.0032815592837957385 0.0048370648117270322 0.0044918744435088467 -0.00050920444113520115 0.0080325284013242435 -0.0039335013979580257 0.0023379621898819663 -0.002803640393678853 0.0058244047881188723
leaf_weight=10771 9416 42 32 24 34 181 20 21 408 25 22 20 21 23 21 20 20 20 342 25 72 33 20 23 480 33 25 29 21 55
leaf_count=10771 9416 42 32 24 34 181 20 21 408 25 22 20 21 23 21 20 20 20 342 25 72 33 20 23 480 33 25 29 21 55
internal_value=0 0.000140323 0.00168046 0.00252102 0.00368005 0.00321108 0.00408581 0.00928415 4.52458e-05 0.0118631 0.00445146 0.00473539 0.00379993 0.00417518 -0.000482797 0.00450741 0.00643724 0.00555557 0.0047475 0.00453451 0.00794182 -0.000335114 -0.000107935 -0.000650764 -0.00045349 0.00617275 -0.000678724 0.00558305 -0.000409868 0.00462075
internal_weight=0 12883 2112 1521 1036 956 775 80 485 59 743 702 453 432 591 410 249 157 387 367 92 461 428 570 528 137 505 117 41 84
internal_count=22299 12883 2112 1521 1036 956 775 80 485 59 743 702 453 432 591 410 249 157 387 367 92 461 428 570 528 137 505 117 41 84
shrinkage=0.05


Tree=47
num_leaves=31
num_cat=0
split_feature=27 27 27 30 30 6 22 14 27 8 4 19 10 30 14 30 30 11 27 7 2 16 20 7 31 30 16 0 30 24
split_gain=0.219205 2.01069 1.31624 1.0068 1.03754 0.760026 0.65771 0.343954 0.402184 0.357222 0.307647 0.23274 0.64087 0.211724 0.206091 0.455088 0.250589 0.192348 0.242931 0.364214 0.397279 0.428962 0.247751 0.493426 0.171201 0.15881 0.202189 0.158737 0.151988 0.146782
threshold=-0.32627999999999996 0.10539999999999995 -0.025773999999999905 -2.2627249999999997 2.3121949999999996 0.00025298000000000003 -0.0093454599999999981 -15.441949999999999 0.044107999999999932 8.7851900000000014e-07 -1.2230999999999997e-05 -0.72542949999999984 7.8403450000000014e-07 -1.1509949999999998 -8.2241149999999994 0.15623999999999996 0.54938500000000012 0.00014297300000000004 -0.08291700000000006 9.2001000000000016e-05 -1.1568099999999999 0.38466500000000009 3.6843350000000004e-05 0.00063647700000000009 0.23124499999999995 -0.34826499999999999 2.3529800000000001 -2.2391849999999995 -0.46105999999999975 9.4814400000000013e-07
decision_type=2 2 2 2 2 2 2 2 2 2 2 2 2 2 2 2 2 2 2 2 2 2 2 2 2 2 2 2 2 2
left_child=-1 2 11 -4 5 6 -5 27 13 10 -10 12 29 -9 16 24 28 18 22 -20 -21 -22 -13 -24 -16 -23 -27 -8 -15 -2
right_child=1 -3 3 4 -6 -7 7 8 9 -11 -12 17 -14 14 15 -17 -18 -19 19 20 21 25 23 -25 -26 26 -28 -29 -30 -31
leaf_value=-0.00017558335320350452 0.0026600308570778001 -0.00015551760086093523 -0.00056596333086663688 0.010580255705068207 -0.00095144017146881919 -0.005452197276754305 0.011273390727794985 -0.00048465872937610943 0.0024756119285787768 0.0058913496699893762 -0.0050647391102111514 -0.00031625084351329254 0.0076222870104874557 0.0087141420769815646 0.0044938246097265336 -0.0028635395046036978 0.010483931258998136 -0.0012989222983730178 -0.0041057614879470997 -0.0024353715405331677 0.00043635881871711621 0.0026551932777063207 -0.0011332471144851299 0.0083778746196912831 -0.00033519368618726729 0.0094660533238493383 0.0036610352797045685 0.0055026473459572752 0.0045361222651524426 -0.0027095369081611611
leaf_weight=9891 20 10208 185 41 114 20 22 23 24 21 31 600 39 24 223 26 22 194 22 31 58 26 30 25 20 40 24 26 234 35
leaf_count=9891 20 10208 185 41 114 20 22 23 24 21 31 600 39 24 223 26 22 194 22 31 58 26 30 25 20 40 24 26 234 35
internal_value=0 0.000139966 0.00151101 0.00278395 0.00349547 0.00416514 0.00442613 0.0040636 0.00376109 0.000343765 -0.0017744 0.000335989 0.00271953 0.00421514 0.00441203 0.00342367 0.00536157 0.000122605 0.000444774 0.00196531 0.00271148 0.00378953 -2.18337e-05 0.00318999 0.00409637 0.00595047 0.00728917 0.00814757 0.00492478 -0.000756967
internal_weight=0 12408 2200 1056 871 757 737 696 648 76 55 1144 94 572 549 269 280 1050 856 201 179 148 655 55 243 90 64 48 258 55
internal_count=22299 12408 2200 1056 871 757 737 696 648 76 55 1144 94 572 549 269 280 1050 856 201 179 148 655 55 243 90 64 48 258 55
shrinkage=0.05


Tree=48
num_leaves=31
num_cat=0
split_feature=27 27 30 30 1 15 6 27 19 3 24 14 30 30 18 4 7 4 23 18 30 23 17 14 10 14 18 20 20 30
split_gain=0.198773 1.96272 1.26367 1.38257 1.20926 0.987388 0.924762 0.630374 1.07478 0.474943 0.348887 0.328434 0.63519 0.301029 0.272238 0.243283 0.231027 0.21592 0.12778 0.121218 0.115861 0.111958 0.214675 0.109123 0.148817 0.120857 0.102669 0.101803 0.0993939 0.115603
threshold=0.33758199999999999 -0.08291700000000006 -2.2627249999999997 1.9665349999999997 -14.124499999999999 0.40095100000000006 0.00010717200000000001 0.044107999999999932 -0.26305049999999991 1.6637450000000004e-05 2.5059850000000005e-07 -8.4213949999999986 -0.34826499999999999 0.31050000000000028 0.0028916150000000006 2.1842450000000003e-05 0.00014721100000000004 -4.1686999999999989e-05 -0.011433849999999997 0.00070520150000000009 2.3121949999999996 -0.33569149999999998 -0.11302099999999998 -9.1575349999999975 1.2520200000000004e-07 -8.3362899999999982 0.0009354945000000001 1.6134400000000003e-05 -1.8500899999999994e-05 0.26367500000000016
decision_type=2 2 2 2 2 2 2 2 2 2 2 2 2 2 2 2 2 2 2 2 2 2 2 2 2 2 2 2 2 2
left_child=1 -1 21 4 5 9 7 11 -9 17 23 14 16 15 28 -14 -13 -4 -5 -8 -20 -3 -23 24 -10 -25 -27 -22 -6 -30
right_child=-2 2 3 18 6 -7 19 8 10 -11 -12 12 13 -15 -16 -17 -18 -19 20 -21 27 22 -24 25 -26 26 -28 -29 29 -31
leaf_value=-0.00014565740776192903 -0.00017461475553354769 -0.0031866596387132903 0.011197934103256557 -0.0037837711046449841 0.0013258488848805429 0.017862394358962776 -0.0011159704868335229 0.0089618549008216516 0.00054672418269686985 -0.00012064436092399634 0.0058828121643391962 -0.0068997246911749249 0.0045238362157782068 -0.0012384457296381395 0.0092755983209689002 -0.00016315360102922688 0.00052533247944666075 0.0057873094851082123 0.0031391745593509768 -0.0050933174898758204 -0.00022773306111542802 0.003227417366817976 -0.0006305588643596543 0.0031479309652543939 -0.0043893165221782727 8.6132251157104172e-06 -0.0038194392152945513 -0.0039172056631650775 0.004380490090875158 0.0077304662705061896
leaf_weight=10771 9416 37 28 27 23 20 53 38 26 26 23 20 259 30 33 31 22 54 24 30 287 39 478 27 37 141 20 20 230 29
leaf_count=10771 9416 37 28 27 23 20 53 38 26 26 23 20 259 30 33 31 22 54 24 30 287 39 478 27 37 141 20 20 230 29
internal_value=0 0.000127623 0.00152133 0.00225064 0.00306418 0.00765756 0.00251572 0.00294115 0.00108168 0.00576778 -1.11875e-05 0.0037981 0.00277079 0.00352957 0.00497868 0.00402281 -0.00301041 0.00763484 -0.000476327 -0.00255357 -0.000206536 -0.000529683 -0.000339532 -0.000551275 -0.00235222 5.22331e-05 -0.000466921 -0.00046809 0.00447585 0.00475558
internal_weight=0 12883 2112 1558 1200 128 1072 989 312 108 274 677 362 320 315 290 42 82 358 83 331 554 517 251 63 188 161 307 282 259
internal_count=22299 12883 2112 1558 1200 128 1072 989 312 108 274 677 362 320 315 290 42 82 358 83 331 554 517 251 63 188 161 307 282 259
shrinkage=0.05


Tree=49
num_leaves=31
num_cat=0
split_feature=27 27 27 30 30 6 22 1 30 13 17 30 18 26 10 14 30 23 11 27 30 30 14 18 17 30 20 17 9 8
split_gain=0.180934 1.64597 1.07215 0.82556 0.851794 0.646089 0.564616 0.416403 0.305157 0.620036 0.204049 0.314159 0.146236 0.253873 0.533886 0.128131 0.582176 0.208637 0.124227 0.189572 0.436547 0.448058 0.294629 0.243841 0.173914 0.223462 0.131304 0.121523 0.149188 0.146163
threshold=-0.32627999999999996 0.10539999999999995 -0.025773999999999905 -2.2627249999999997 2.3121949999999996 0.00025298000000000003 -0.0093454599999999981 -16.889399999999998 -0.67309499999999989 1.7583250000000004 -0.23584399999999997 -0.96838499999999994 0.020567500000000006 0.0022583000000000004 8.6689350000000015e-07 -8.2241149999999994 0.15623999999999996 -0.0014296699999999999 0.00014297300000000004 -0.08291700000000006 -0.38658499999999968 0.93964999999999954 -7.1911899999999989 0.00051756000000000013 0.028347250000000004 -1.245455 -1.9623949999999993e-06 0.020875450000000004 1.2023650000000002e-06 6.8396650000000006e-07
decision_type=2 2 2 2 2 2 2 2 2 2 2 2 2 2 2 2 2 2 2 2 2 2 2 2 2 2 2 2 2 2
left_child=-1 2 10 -4 5 6 -5 -8 9 -9 11 -2 13 18 -15 27 17 -17 19 24 26 22 23 -22 -12 -26 -21 28 29 -10
right_child=1 -3 3 4 -6 -7 7 8 15 -11 12 -13 -14 14 -16 16 -18 -19 -20 20 21 -23 -24 -25 25 -27 -28 -29 -30 -31
leaf_value=-0.00015952131759579472 -0.00082441184045323591 -0.00014018217698209419 -0.00051694181210493564 0.0097101931198977122 -0.00086844275660572152 -0.0050996299073449341 0.010606011181759339 -0.0024270237937464188 0.0043288842760375703 0.0079050408996408812 -0.00034546430416765273 0.0073680084128864114 -0.0031614483910743733 -0.00016725723259269773 0.0083921628589199958 -0.00052989278919994835 -0.0030924452324945701 0.0043818950772695582 -0.0011044340835124264 0.00050537948879206414 0.003944247744844428 -0.00068395203321246255 0.00050958576833917983 0.010288092169459119 -0.00048731440239697059 0.0068151596808456814 -0.0038416362258431036 0.0075303228960062075 0.0017303616100666571 0.0086914171509089918
leaf_weight=9891 22 10208 185 41 114 20 21 53 224 20 562 25 32 49 29 24 34 218 188 38 28 43 21 33 22 20 32 30 51 21
leaf_count=9891 22 10208 185 41 114 20 21 53 224 20 562 25 32 49 29 24 34 218 188 38 28 43 21 33 22 20 32 30 51 21
internal_value=0 0.000127162 0.00136764 0.0025165 0.0031608 0.00376758 0.00400821 0.00367232 0.00345661 0.000403679 0.000307151 0.00353326 0.000168932 0.000268999 0.00301509 0.00382681 0.00303403 0.00389478 5.19829e-05 0.000324081 0.00167954 0.0034499 0.00561765 0.00737616 -0.000113524 0.00299005 -0.00148183 0.004498 0.00419067 0.00470282
internal_weight=0 12408 2200 1056 871 757 737 696 675 73 1144 47 1097 1065 78 602 276 242 987 799 195 125 82 61 604 42 70 326 296 245
internal_count=22299 12408 2200 1056 871 757 737 696 675 73 1144 47 1097 1065 78 602 276 242 987 799 195 125 82 61 604 42 70 326 296 245
shrinkage=0.05


Tree=50
num_leaves=31
num_cat=0
split_feature=28 28 30 30 21 3 28 10 2 11 2 21 30 23 28 30 20 8 21 30 30 18 26 28 28 23 30 15 21 15
split_gain=0.164947 1.43671 1.03207 1.25468 1.36442 1.17687 1.15778 0.8656 0.721893 1.17729 0.554276 0.462219 0.411746 0.345353 0.24173 0.234487 0.241439 0.302411 0.262599 0.283423 0.137202 0.125829 0.124541 0.122223 0.117597 0.116891 0.109925 0.108017 0.110194 0.105822
threshold=-0.4112114999999999 0.10215500000000001 -1.9709400000000008 1.9665349999999997 0.56474900000000006 2.1326100000000002e-05 -0.10539999999999992 -1.2766349999999999e-06 0.66577950000000008 -7.6351549999999983e-09 2.0052650000000005 0.096511600000000017 -0.70745499999999939 0.027112500000000001 -0.044107999999999918 0.71212500000000001 -1.0960499999999998e-05 -1.5125899999999997e-08 0.020247000000000005 0.15623999999999996 0.19364999999999991 0.038882050000000008 8.2300850000000017e-06 -0.017475500000000001 0.025773999999999912 -0.011433849999999997 -0.19502999999999956 0.92477500000000001 3.0089350000000006 -0.35643049999999993
decision_type=2 2 2 2 2 2 2 2 2 2 2 2 2 2 2 2 2 2 2 2 2 2 2 2 2 2 2 2 2 2
left_child=-1 2 21 4 6 8 -4 22 9 13 11 12 -9 -6 -13 16 17 -14 19 26 23 27 -8 -20 -25 -5 -18 28 -2 -16
right_child=1 -3 3 25 5 -7 7 10 -10 -11 -12 14 15 -15 29 -17 18 -19 20 -21 -22 -23 -24 24 -26 -27 -28 -29 -30 -31
leaf_value=-0.00016298750792693875 -0.00044889033071572468 -0.00013756334025655627 -0.00043989446473872008 -0.0033188467612873754 0.016761849051341416 -0.0014947274184893243 -0.00087179087064354326 -0.0013360089806039779 0.018961521061137319 -0.001063376885292161 -0.0032741084427909991 0.010440829300620992 -0.0034499767050147055 0.0080642256320321137 0.0081260983868000607 -0.0013055953449414423 0.00024863029406829316 0.0037501583780561176 0.0077917550341226162 -0.0021325858957741573 0.0088850735100331132 0.0031219037598930301 -0.0058665953431045643 0.0035065418033271424 0.0071311288481128625 -0.00018282696118785243 0.0039305614199229453 -0.0027776111179870595 0.0029349728566594423 0.0045340920556048601
leaf_weight=9152 639 10683 314 32 25 26 26 47 20 23 29 28 25 21 26 24 22 35 32 23 27 25 24 98 29 416 258 48 25 97
leaf_count=9152 639 10683 314 32 25 26 26 47 20 23 29 28 25 21 26 24 22 35 32 23 27 25 24 98 29 416 258 48 25 97
internal_value=0 0.00011346 0.00120181 0.00187029 0.00266791 0.00786352 0.0021546 0.00311303 0.0105974 0.008173 0.00351193 0.00376717 0.003163 0.0127912 0.00624787 0.00353203 0.00374351 0.000750102 0.0041108 0.00320299 0.00558966 -0.000364646 -0.0032693 0.00503006 0.0043342 -0.000406828 0.00364127 -0.000487067 -0.000321486 0.00529338
internal_weight=0 13147 2464 1727 1279 115 1164 850 89 69 800 771 620 46 151 573 549 60 489 303 186 737 50 159 127 448 280 712 664 123
internal_count=22299 13147 2464 1727 1279 115 1164 850 89 69 800 771 620 46 151 573 549 60 489 303 186 737 50 159 127 448 280 712 664 123
shrinkage=0.05


Tree=51
num_leaves=31
num_cat=0
split_feature=27 27 30 30 21 3 27 10 2 11 2 21 30 23 27 30 20 8 21 30 19 30 7 21 23 26 30 15 21 15
split_gain=0.148864 1.29663 0.931446 1.13235 1.23139 1.06213 1.0449 0.781204 0.651508 1.0625 0.500234 0.417153 0.371601 0.311681 0.218161 0.211624 0.217899 0.272926 0.236995 0.255789 0.12906 0.161823 0.123174 0.114036 0.105495 0.100588 0.0992071 0.0989075 0.11135 0.095504
threshold=0.41121150000000001 -0.10215499999999998 -1.9709400000000008 1.9665349999999997 0.56474900000000006 2.1326100000000002e-05 0.10539999999999995 -1.2766349999999999e-06 0.66577950000000008 -7.6351549999999983e-09 2.0052650000000005 0.096511600000000017 -0.70745499999999939 0.027112500000000001 0.044107999999999932 0.71212500000000001 -1.0960499999999998e-05 -1.5125899999999997e-08 0.020247000000000005 0.15623999999999996 0.13529900000000003 0.19364999999999991 0.00017761400000000004 0.020247000000000005 -0.011433849999999997 0.14670800000000003 -0.19502999999999956 0.92477500000000001 3.0089350000000006 -0.35643049999999993
decision_type=2 2 2 2 2 2 2 2 2 2 2 2 2 2 2 2 2 2 2 2 2 2 2 2 2 2 2 2 2 2
left_child=1 -1 25 4 6 8 7 23 9 13 11 12 -9 -6 29 16 17 -14 19 26 21 22 -20 -4 -5 27 -18 28 -3 -13
right_child=-2 2 3 24 5 -7 -8 10 -10 -11 -12 14 15 -15 -16 -17 18 -19 20 -21 -22 -23 -24 -25 -26 -27 -28 -29 -30 -31
leaf_value=-0.00013068517395515501 -0.00015483813241091058 -0.0004264458149405834 -0.00081166561923545007 -0.0031529044208582491 0.015923756532371044 -0.0014199911580922513 -0.00041789974389862115 -0.0012692085029483041 0.018013445250689982 -0.0010102081163178968 -0.0031104029730315611 0.0077197934507589362 -0.0032774778455495835 0.0076610146090388305 0.0099187878226595274 -0.0012403156368842854 0.00023619886487722397 0.0035626505155648505 0.00058699284680187704 -0.0020259565774999235 0.0090020086704975088 0.0088324352760206573 0.0048178660054880437 -0.0055911792456754487 -0.00017368562436191636 0.0030643937488396963 0.0037340333627522457 -0.0026387305520681067 0.0027413293106104087 0.0043073874738483843
leaf_weight=10683 9152 639 26 32 25 26 314 47 20 23 29 26 25 21 28 24 22 35 20 23 21 22 123 24 416 21 258 48 29 97
leaf_count=10683 9152 639 26 32 25 26 314 47 20 23 29 26 25 21 28 24 22 35 20 23 21 22 123 24 416 21 258 48 29 97
internal_value=0 0.000107787 0.00114172 0.00177678 0.00253451 0.00747034 0.00204687 0.00295738 0.0100675 0.00776435 0.00333633 0.00357881 0.00300485 0.0121516 0.00593548 0.00335543 0.00355634 0.000712597 0.00390526 0.00304284 0.00531018 0.00484031 0.00422614 -0.00310583 -0.000386487 -0.000346414 0.0034592 -0.000446452 -0.000288923 0.00502871
internal_weight=0 13147 2464 1727 1279 115 1164 850 89 69 800 771 620 46 151 573 549 60 489 303 186 165 143 50 448 737 280 716 668 123
internal_count=22299 13147 2464 1727 1279 115 1164 850 89 69 800 771 620 46 151 573 549 60 489 303 186 165 143 50 448 737 280 716 668 123
shrinkage=0.05


Tree=52
num_leaves=31
num_cat=0
split_feature=27 27 27 6 30 30 20 6 30 19 10 25 23 9 22 17 4 30 25 11 30 21 11 27 30 30 3 19 20 30
split_gain=0.135668 1.21168 0.976636 0.426345 0.385959 0.299507 0.334298 0.192138 0.251091 0.183615 0.537034 0.146442 0.240769 0.317869 0.128121 0.126442 0.276287 0.115039 0.11468 0.342501 0.107003 0.1002 0.0979548 0.0972586 0.2702 0.289878 0.145064 0.10627 0.0948651 0.0934631
threshold=-0.32627999999999996 0.062192999999999977 -0.025773999999999905 0.00025298000000000003 -1.9270500000000002 2.1714600000000006 4.0724600000000006e-05 6.9941200000000014e-05 -0.96838499999999994 -0.72542949999999984 7.8403450000000014e-07 -0.18951049999999997 0.027526950000000005 1.0851950000000001e-06 -0.059557699999999998 0.0080739700000000015 2.9580150000000005e-05 1.3577250000000005 -0.00012222749999999996 5.8209300000000002e-07 0.31050000000000028 0.023238450000000004 0.00014297300000000004 -0.08291700000000006 -0.38658499999999968 0.71212500000000001 1.1624150000000001e-05 0.98460400000000015 -1.9623949999999993e-06 0.22406500000000043
decision_type=2 2 2 2 2 2 2 2 2 2 2 2 2 2 2 2 2 2 2 2 2 2 2 2 2 2 2 2 2 2
left_child=-1 2 9 4 -4 6 7 8 -6 10 14 -11 22 -14 -2 18 21 -5 20 29 -10 -17 23 27 28 26 -26 -13 -25 -20
right_child=1 -3 3 17 5 -7 -8 -9 15 11 -12 12 13 -15 -16 16 -18 -19 19 -21 -22 -23 -24 24 25 -27 -28 -29 -30 -31
leaf_value=-0.00013813282287825182 0.0017493084563354319 -0.00010802834580621231 0.00016850714385509491 -0.0050210290388869386 -0.001685023409439824 -0.0003289973100241436 0.0098454999411478651 0.0081034157588146631 0.0042756176451579312 -0.0041610744129866361 0.0068711106877368039 -0.00022596509673495813 6.6431612878769749e-05 0.0075409144591540092 -0.0030843497063274142 0.00077174671234623085 -0.003205047195925462 0.00015272405058071442 0.0033906020456102312 -0.0024649536497890951 0.0080461838474465454 0.0043038055268034602 -0.0010632788325499467 0.00046148208918901602 0.0025299326262690804 -0.00036528658357300712 0.0072181536336288314 0.0030412653026779973 -0.0032656528906720213 0.0069273430760949861
leaf_weight=9891 26 10384 125 21 26 56 20 20 130 20 39 582 33 25 29 31 22 22 283 25 22 57 185 38 33 44 33 26 31 20
leaf_count=9891 26 10384 125 21 26 56 20 20 130 20 39 582 33 25 29 31 22 22 283 25 22 57 185 38 33 44 33 26 31 20
internal_value=0 0.000110112 0.00122927 0.00248155 0.002731 0.00318088 0.0034805 0.00328034 0.00312375 0.000265973 0.00238308 7.64415e-05 0.000158723 0.00328819 -0.000799348 0.00333566 0.00180664 -0.00237399 0.00368606 0.00315995 0.00482136 0.00305956 -2.80145e-05 0.000215345 0.00123975 0.00277831 0.00487404 -8.6248e-05 -0.00121303 0.00362405
internal_weight=0 12408 2024 880 837 712 656 636 616 1144 94 1050 1030 58 55 590 110 43 480 328 152 88 972 787 179 110 66 608 69 303
internal_count=22299 12408 2024 880 837 712 656 636 616 1144 94 1050 1030 58 55 590 110 43 480 328 152 88 972 787 179 110 66 608 69 303
shrinkage=0.05


Tree=53
num_leaves=31
num_cat=0
split_feature=27 27 31 31 21 3 27 10 12 2 15 11 21 31 31 25 20 8 25 11 27 15 17 27 24 15 25 9 22 21
split_gain=0.124664 1.06842 0.776093 0.890054 1.11853 1.0458 0.854798 0.63691 0.635891 0.431622 0.407511 0.847859 0.325753 0.33763 0.186763 0.198038 0.171566 0.23722 0.138087 0.181152 0.136799 0.118279 0.160252 0.0965277 0.0954351 0.0934264 0.096785 0.0921319 0.0808606 0.0801066
threshold=0.41121150000000001 -0.10215499999999998 2.5221 -1.9665349999999993 0.56474900000000006 2.4082650000000002e-05 0.10539999999999995 -1.2766349999999999e-06 7.5845250000000009e-06 2.0052650000000005 0.50922850000000008 -5.7365999999999993e-05 0.096511600000000017 0.71120499999999975 -0.71212499999999979 0.0016744000000000002 -1.0960499999999998e-05 -1.5125899999999997e-08 -0.00050348349999999994 2.4958100000000002e-06 0.044107999999999932 0.92477500000000001 -0.13629249999999996 0.23661500000000005 2.2124750000000004e-06 -0.35643049999999993 0.0018994800000000003 -1.9567599999999998e-07 0.019264250000000004 0.020247000000000005
decision_type=2 2 2 2 2 2 2 2 2 2 2 2 2 2 2 2 2 2 2 2 2 2 2 2 2 2 2 2 2 2
left_child=1 -1 3 28 6 8 7 29 -6 12 11 -10 13 14 -9 16 17 -16 27 -20 25 22 -4 -23 -24 -14 -27 -18 -3 -5
right_child=-2 2 21 4 5 -7 -8 9 10 -11 -12 -13 20 -15 15 -17 18 -19 19 -21 -22 23 24 -25 -26 26 -28 -29 -30 -31
leaf_value=-0.00011783433190809875 -0.00014169480797105198 -0.00016419101445797548 0.0033299486579683926 -0.00076625263016187378 0.0023847408343378143 -0.0031308740691874054 -0.00036766277850665318 -0.0012895224179374056 0.013710322268997079 -0.0027862292750796772 0.015179493128688951 0.00012769370805472137 0.007132534093062322 -0.00074868292795696168 -0.0032198792845010761 0.0077579500963506492 0.007994012053435048 0.0031960912761004531 0.0032660827144152592 -0.0013982133855196563 0.008224947303533554 -0.0042962681693846693 -0.00028400868469279056 8.1356467489968054e-05 -0.0035050256597363239 0.0047709140352708351 0.0013357812968275414 0.0039478434907162891 -0.0026672348279472707 -0.0046546749624044254
leaf_weight=10683 9152 413 30 26 30 23 346 24 27 32 33 20 26 66 25 23 24 34 387 22 30 34 550 20 24 70 29 34 35 27
leaf_count=10683 9152 413 30 26 30 23 346 24 27 32 33 20 26 66 25 23 24 34 387 22 30 34 550 20 24 70 29 34 35 27
internal_value=0 9.86378e-05 0.00103718 0.00157281 0.00221035 0.00656532 0.00173752 0.00256618 0.00859271 0.00290711 0.0109207 0.00793048 0.00313657 0.00263777 0.00302784 0.00321657 0.003018 0.00047746 0.00333896 0.00301519 0.00519288 -0.000432938 -0.000232495 -0.00267493 -0.000418685 0.00446518 0.00376466 0.00562212 -0.000359741 -0.00274715
internal_weight=0 13147 2464 1806 1358 133 1225 879 110 826 80 47 794 639 573 549 526 59 467 409 155 658 604 54 574 125 99 58 448 53
internal_count=22299 13147 2464 1806 1358 133 1225 879 110 826 80 47 794 639 573 549 526 59 467 409 155 658 604 54 574 125 99 58 448 53
shrinkage=0.05


Tree=54
num_leaves=31
num_cat=0
split_feature=27 27 27 30 14 6 30 22 20 27 15 23 8 7 30 15 30 21 4 0 30 3 18 22 5 19 26 7 6 27
split_gain=0.113555 0.66646 0.803313 0.64762 0.692362 0.607329 0.464798 0.580917 0.444727 0.354226 0.320656 0.235517 0.170351 0.168038 0.219024 0.167662 0.194562 0.156652 0.138959 0.12555 0.246307 0.117548 0.20397 0.0982862 0.093538 0.0911547 0.11147 0.34055 0.438486 0.724804
threshold=-0.64621549999999994 0.1562649999999999 -0.025773999999999905 -3.1346799999999995 -15.441949999999999 0.00010717200000000001 2.8768099999999994 -0.023074749999999998 -3.2218649999999993e-05 0.044107999999999932 1.3124250000000002 0.00054275450000000017 8.7851900000000014e-07 0.00037720150000000008 -0.67309499999999989 -0.3800464999999999 -0.96838499999999994 0.27248800000000006 -4.1811249999999989e-06 8.0541100000000014 0.021970000000000049 9.9203700000000004e-06 0.0062290500000000007 -0.0038917049999999992 8.7575050000000018e-05 5.520595000000001 0.0022583000000000004 0.00059420900000000017 0.00013189800000000003 -0.22542900000000002
decision_type=2 2 2 2 2 2 2 2 2 2 2 2 2 2 2 2 2 2 2 2 2 2 2 2 2 2 2 2 2 2
left_child=-1 2 10 21 8 6 7 -6 -5 15 25 -10 13 14 -11 -9 -17 -7 -15 23 -21 -4 -23 -18 -25 26 -2 -28 29 -29
right_child=1 -3 3 4 5 17 -8 9 11 12 -12 -13 -14 18 -16 16 19 -19 -20 20 -22 22 -24 24 -26 -27 27 28 -30 -31
leaf_value=-0.00013928812882758496 -4.9732513324225768e-05 -0.00011435475277421263 0.0028723713368526659 0.013035278707023033 0.009287333162501455 -0.00072533789986934879 -0.0014307950538544295 0.0073536777514077367 0.0080039759033492634 -0.0011811151399007559 0.0054369391141725447 0.00051562184318234888 0.0031499724088159078 -0.00063992171982296415 0.0050008238332457438 -0.00065207156585529453 0.00048242995808659881 -0.0054497073692998492 -0.0057397667300061912 0.0029326523532686027 -0.0028600055724382401 -0.0005612726260699483 -0.0055747846060472984 0.0032981720767362196 0.0054960874150440635 -0.0033081168896751481 -0.0010827500525381227 0.0007186658892985152 -0.0022111476376368146 0.0087936193576145637
leaf_weight=8835 1894 10032 20 22 32 74 75 21 21 38 28 21 39 34 23 38 27 23 22 69 25 172 23 357 56 20 108 66 36 48
leaf_count=8835 1894 10032 20 22 32 74 75 21 21 38 28 21 39 34 23 38 27 23 22 69 25 172 23 357 56 20 108 66 36 48
internal_value=0 9.14001e-05 0.000692837 0.00171506 0.00224215 0.00190407 0.00232896 0.00269002 0.00727637 0.00240816 0.000120394 0.0042598 0.000288162 -0.000665775 0.00114978 0.00296586 0.00280477 -0.00184555 -0.00264343 0.00305076 0.00139205 -0.000778193 -0.00115261 0.00340512 0.00359619 5.18562e-05 8.30827e-05 0.00105809 0.0025995 0.00411865
internal_weight=0 13464 3432 1232 1017 953 856 781 64 749 2200 42 156 117 61 593 572 97 56 534 94 215 195 440 413 2172 2152 258 150 114
internal_count=22299 13464 3432 1232 1017 953 856 781 64 749 2200 42 156 117 61 593 572 97 56 534 94 215 195 440 413 2172 2152 258 150 114
shrinkage=0.05


Tree=55
num_leaves=31
num_cat=0
split_feature=28 28 31 14 31 24 7 31 7 23 11 8 1 28 7 9 20 17 12 15 12 22 20 15 17 16 28 28 24 3
split_gain=0.103155 0.880465 0.645096 0.737044 0.694854 0.711311 0.58624 0.578047 0.479831 0.441245 0.414363 0.368767 0.254033 0.216451 0.198192 0.158757 0.145561 0.205926 0.341226 0.136512 0.126508 0.115726 0.110343 0.102764 0.141336 0.102277 0.214263 0.110665 0.085795 0.0853057
threshold=-0.4112114999999999 0.10215500000000001 2.5221 -13.359599999999999 -0.31050000000000016 1.9226850000000005e-06 0.00070241750000000016 0.46718999999999961 0.0022170600000000003 -0.012961449999999998 -0.00028517099999999992 -3.0672449999999994e-06 -10.579399999999998 -0.13134949999999998 0.00020115150000000003 -7.0380199999999989e-07 5.1210650000000004e-05 -0.071415199999999984 0.00064574900000000015 -0.16671349999999999 5.5242100000000005e-10 -0.023074749999999998 8.5436850000000015e-06 0.92477500000000001 -0.13629249999999996 0.36656450000000002 -0.026820000000000007 0.03969000000000001 1.3255950000000004e-06 1.1624150000000001e-05
decision_type=2 2 2 2 2 2 2 2 2 2 2 2 2 2 2 2 2 2 2 2 2 2 2 2 2 2 2 2 2 2
left_child=-1 2 3 9 14 7 -7 8 13 -2 -11 -12 -9 -6 -5 -13 17 18 -16 -17 -15 -19 29 24 -4 -22 -27 -28 -26 -14
right_child=1 -3 23 4 5 6 -8 12 -10 10 11 15 22 20 16 19 -18 21 -20 -21 25 -23 -24 -25 28 26 27 -29 -30 -31
leaf_value=-0.00012889233130289432 0.01079081094940193 -0.0001067851850439362 0.0031338409146216394 -0.0038921541821488946 -0.00055411791181541052 0.0021441366814542564 0.013971991948280697 0.0044966399791452139 -0.0034864649791533373 -0.0030249907640695927 0.01061285986839461 -0.00011910675559192897 -0.0023383213404533881 -0.00029665453732013704 0.0083313311595702554 0.0022044241797770018 -0.003323012430458524 0.0035626472931074788 -0.00090481476840068356 0.0061869832865644042 0.0026434516231072886 -0.00013391396543004043 -0.0030500599261498655 -0.0024883646876939264 -0.00022385359276262562 0.0080309140309691423 0.0031037473194373889 0.0065224773250520231 -0.0026824251034045839 0.00025454715244042821
leaf_weight=9152 24 10683 30 33 42 20 22 27 31 21 21 25 38 25 20 39 30 22 20 48 255 563 39 54 536 30 192 27 38 192
leaf_count=9152 24 10683 30 33 42 20 22 27 31 21 21 25 38 25 20 39 30 22 20 48 255 563 39 54 536 30 192 27 38 192
internal_value=0 8.97256e-05 0.000941724 0.00143006 0.00109606 0.00197979 0.00833968 0.00168234 0.00257187 0.0044848 0.00350205 0.00453263 -0.000126778 0.00290078 -0.000111361 0.00339259 7.91216e-05 0.000242424 0.00371326 0.0044017 0.00317508 5.10201e-06 -0.000590838 -0.000398593 -0.000211759 0.00334729 0.00406809 0.00352523 -0.000386616 -0.00017384
internal_weight=0 13147 2464 1806 1628 940 42 898 602 178 154 133 296 571 688 112 655 625 40 87 529 585 269 658 604 504 249 219 574 230
internal_count=22299 13147 2464 1806 1628 940 42 898 602 178 154 133 296 571 688 112 655 625 40 87 529 585 269 658 604 504 249 219 574 230
shrinkage=0.05


Tree=56
num_leaves=31
num_cat=0
split_feature=27 27 27 2 30 14 30 13 22 27 15 16 8 16 30 25 18 30 21 22 0 30 30 14 19 2 11 15 25 9
split_gain=0.0943798 0.543593 0.660008 0.5558 0.490364 0.762677 0.457032 0.394437 0.317946 0.319309 0.290943 0.18313 0.226298 0.365359 0.234003 0.167515 0.160148 0.144954 0.119417 0.109552 0.131902 0.245291 0.109644 0.0916131 0.0886653 0.0859079 0.129349 1.01104 0.199544 0.168258
threshold=-0.64621549999999994 0.1562649999999999 -0.025773999999999905 -1.6365099999999997 -3.1346799999999995 -15.441949999999999 2.8768099999999994 -1.4209349999999998 -0.023074749999999998 0.044107999999999932 1.3124250000000002 0.36155400000000004 3.315660000000001e-07 2.3922450000000004 -0.076525000000000162 0.0061186300000000008 0.0043382300000000011 -0.96838499999999994 0.12287100000000002 -0.0038917049999999992 8.5772100000000027 0.021970000000000049 -0.38658499999999968 -9.1511549999999975 0.56748650000000012 1.5897900000000003 3.7595800000000007e-06 0.35941150000000005 -0.18951049999999997 5.3331600000000017e-07
decision_type=2 2 2 2 2 2 2 2 2 2 2 2 2 2 2 2 2 2 2 2 2 2 2 2 2 2 2 2 2 2
left_child=-1 2 10 16 24 7 8 -6 -7 15 25 23 13 14 -13 17 -4 -10 -8 -19 22 -22 -21 -11 -5 26 28 -28 -2 -29
right_child=1 -3 3 4 5 6 18 -9 9 11 -12 12 -14 -15 -16 -17 -18 19 -20 20 21 -23 -24 -25 -26 -27 27 29 -30 -31
leaf_value=-0.00012698446218144637 -0.0043593922763158427 -0.00010249671138835587 -0.00097101282806888358 -0.00012669716087006523 0.012924858176594842 0.0070917711332988218 -0.00033496692710367472 0.0045867076538490589 -0.00050240202202788884 -0.004276833040872589 0.0051718565568860085 -0.0011294229846195473 0.004903007203988223 -0.0058099150063935668 0.00600966524497463 0.0070712490273373467 -0.0059383054776117206 -0.00031170717432230181 -0.0045770618155421246 0.0066887396070259538 0.0026259981737029358 -0.0037547706067562105 0.0030645509061358843 -0.00037959107530217523 -0.0035214559725401081 -0.00070058482699867893 2.6953530167312627e-05 0.0052821596665671676 5.8790631894279453e-05 0.011767865900765173
leaf_weight=8835 26 10032 86 153 23 34 79 37 37 25 28 24 33 20 22 21 20 28 21 22 61 20 406 38 22 330 280 20 1496 20
leaf_count=8835 26 10032 86 153 23 34 79 37 37 25 28 24 33 20 22 21 20 28 21 22 61 20 406 38 22 330 280 20 1496 20
internal_value=0 8.33265e-05 0.000626502 0.00155307 0.00187891 0.00232651 0.00195907 0.007783 0.00236171 0.00214926 0.000107624 0.000181248 0.0015223 -0.000168058 0.00228492 0.00268509 -0.00190824 0.00252462 -0.00122581 0.00273319 0.00290069 0.0010505 0.00325084 -0.00192612 -0.000553467 4.23394e-05 0.000175437 0.00108921 -1.66842e-05 0.00852501
internal_weight=0 13464 3432 1232 1126 951 891 60 791 757 2200 162 99 66 46 595 106 574 100 537 509 81 428 63 175 2172 1842 320 1522 40
internal_count=22299 13464 3432 1232 1126 951 891 60 791 757 2200 162 99 66 46 595 106 574 100 537 509 81 428 63 175 2172 1842 320 1522 40
shrinkage=0.05


Tree=57
num_leaves=31
num_cat=0
split_feature=27 27 30 21 6 7 30 11 27 30 11 27 11 30 21 31 26 9 1 12 22 30 14 22 11 15 31 30 20 30
split_gain=0.0854673 0.725214 0.53267 0.689125 0.614234 0.841438 0.976928 0.659055 0.611778 0.456386 0.384931 0.378834 0.291428 0.272357 0.222499 0.206377 0.164405 0.177557 0.130676 0.12873 0.11251 0.15153 0.108923 0.106765 0.103056 0.398435 0.10658 0.124227 0.0901915 0.0838982
threshold=0.41121150000000001 -0.10215499999999998 -3.1346799999999995 0.51382200000000011 0.00025298000000000003 0.00088515050000000019 2.3121949999999996 0.00018843350000000004 0.044107999999999932 -1.0585399999999996 -0.00023542999999999999 0.13134950000000004 0.00010406150000000001 1.1659150000000011 1.2951400000000002 1.1102250000000005 1.0650950000000003e-06 7.6004200000000021e-08 -9.7904999999999998 1.0315100000000001e-09 0.0027989300000000003 0.26367500000000016 -14.71815 0.13008150000000004 -4.5791249999999997e-07 -0.11618699999999998 0.42179000000000061 0.15623999999999996 5.2671350000000007e-06 0.71212500000000001
decision_type=2 2 2 2 2 2 2 2 2 2 2 2 2 2 2 2 2 2 2 2 2 2 2 2 2 2 2 2 2 2
left_child=1 -1 23 8 5 11 7 9 10 -7 29 -5 13 15 28 16 17 -12 -14 -18 24 -22 -10 -3 26 -26 27 -21 -11 -4
right_child=-2 2 3 4 -6 6 -8 -9 22 14 12 -13 18 -15 -16 -17 19 -19 -20 20 21 -23 -24 -25 25 -27 -28 -29 -30 -31
leaf_value=-9.6674232496818269e-05 -0.00011732287952680157 -0.0002610918274776718 -0.0041836278514193297 -0.0061738135619089016 -0.0036740039443627567 0.013343453405170956 -0.0010927706162328832 0.016828957874994641 0.0034299406311696489 0.0048004944378044461 0.0024663286251497682 0.003334271071732722 0.00090231339135618126 -0.00093805517090482971 0.0010592652692297557 -0.00037814455510949935 6.9025221971734881e-05 -0.002325325292246095 -0.0030994608561099191 0.0029291407921087538 0.0037601421310682784 0.008940239353105426 -0.00022232242002220403 -0.0028477460216340977 -0.0029363849140222995 0.0031793441145776934 0.0073007838509511203 0.0058552754402626311 0.0094920842353964155 -0.00043397904831051295
leaf_weight=10683 9152 552 26 20 23 22 30 22 21 20 58 22 51 57 23 52 31 29 34 187 48 20 732 43 31 189 20 45 21 35
leaf_count=10683 9152 552 26 20 23 22 30 22 21 20 58 22 51 57 23 52 31 29 34 187 48 20 732 43 31 189 20 45 21 35
internal_value=0 8.16718e-05 0.000854915 0.00126971 0.00402016 0.0050033 0.00688925 0.00910648 0.00093457 0.00713096 0.00180471 -0.00119339 0.00207942 0.00238726 0.00499542 0.00265423 0.00289387 0.000869111 -0.000698396 0.00320237 0.00338224 0.0052837 -0.000120466 -0.000448027 0.00310831 0.00231758 0.00379862 0.00349671 0.0072035 -0.00203219
internal_weight=0 13147 2464 1869 203 180 138 108 1666 86 913 42 852 767 64 710 658 87 85 571 540 68 753 595 472 220 252 232 41 61
internal_count=22299 13147 2464 1869 203 180 138 108 1666 86 913 42 852 767 64 710 658 87 85 571 540 68 753 595 472 220 252 232 41 61
shrinkage=0.05


Tree=58
num_leaves=31
num_cat=0
split_feature=27 27 27 2 30 14 30 13 22 27 15 16 8 18 30 22 21 25 30 21 22 0 30 3 21 30 14 19 26 7
split_gain=0.0784886 0.446318 0.534071 0.468627 0.403684 0.640378 0.381742 0.35165 0.278155 0.263615 0.263389 0.160048 0.195114 0.335952 0.180913 0.151827 0.148153 0.141414 0.116277 0.103583 0.0996544 0.114981 0.217721 0.0984895 0.104399 0.0924286 0.0826809 0.0810011 0.0966298 0.28646
threshold=-0.64621549999999994 0.1562649999999999 -0.025773999999999905 -1.6365099999999997 -3.1346799999999995 -15.441949999999999 2.8768099999999994 -1.6477349999999997 -0.023074749999999998 0.044107999999999932 1.3124250000000002 0.36155400000000004 3.315660000000001e-07 0.00118749 -0.22689999999999963 0.00037963850000000008 0.88410300000000008 0.0061186300000000008 -0.96838499999999994 0.12287100000000002 -0.0038917049999999992 8.5772100000000027 0.021970000000000049 1.0068150000000001e-05 0.29348650000000004 -0.38658499999999968 -9.1511549999999975 5.520595000000001 0.0022583000000000004 0.00059420900000000017
decision_type=2 2 2 2 2 2 2 2 2 2 2 2 2 2 2 2 2 2 2 2 2 2 2 2 2 2 2 2 2 2
left_child=-1 2 10 16 23 7 8 -6 -7 17 27 26 13 14 -13 -9 -4 18 -10 -8 -20 25 -23 -5 -25 -22 -11 28 -2 -30
right_child=1 -3 3 4 5 6 19 15 9 11 -12 12 -14 -15 -16 -17 -18 -19 20 -21 21 22 -24 24 -26 -27 -28 -29 29 -31
leaf_value=-0.00011580152481356038 -5.4925035547364958e-05 -9.238959078577486e-05 -0.00087519173980264145 0.002796062404740951 0.012520207013003529 0.0065624577910913268 -0.00031078113463104567 0.001319755765143782 -0.00043212498126809514 -0.0040518753156065946 0.0049198761808968688 -0.00062020650345532766 0.004544226986631243 -0.0047328318473882983 0.0060244375484762719 0.0074806667579105125 -0.0056528449524194009 0.0064564126218014974 -0.00043831246314636832 -0.0042616406084215715 0.0061089385914700955 0.0023824152246606153 -0.0036290851794183255 3.2132256356086219e-06 -0.0027323454889723649 0.0027814184165718277 -0.00034949541686249804 -0.0031280199584193726 -0.00098695463697098351 0.0023902246222335939
leaf_weight=8835 1894 10032 86 20 20 34 79 20 37 25 28 21 33 25 20 20 20 21 28 21 22 61 20 102 53 406 38 20 108 150
leaf_count=8835 1894 10032 86 20 20 34 79 20 37 25 28 21 33 25 20 20 20 21 28 21 22 61 20 102 53 406 38 20 108 150
internal_value=0 7.59883e-05 0.00056817 0.00140166 0.00170086 0.00210698 0.00177029 0.00710688 0.00213827 0.00193956 0.000101414 0.000151391 0.00140508 -0.000164491 0.00262108 0.00440021 -0.00177664 0.00242642 0.00227898 -0.00114046 0.00246578 0.00262554 0.000898094 -0.000506088 -0.000932171 0.00295246 -0.00181869 3.92975e-05 6.87335e-05 0.000976522
internal_weight=0 13464 3432 1232 1126 951 891 60 791 757 2200 162 99 66 41 40 106 595 574 100 537 509 81 175 155 428 63 2172 2152 258
internal_count=22299 13464 3432 1232 1126 951 891 60 791 757 2200 162 99 66 41 40 106 595 574 100 537 509 81 175 155 428 63 2172 2152 258
shrinkage=0.05


Tree=59
num_leaves=31
num_cat=0
split_feature=27 27 27 6 22 8 8 16 1 20 18 30 31 30 14 26 18 27 27 30 8 16 18 2 30 26 10 15 27 13
split_gain=0.0711253 0.478621 0.493405 0.439093 0.338358 0.656255 1.01524 0.557414 0.245915 0.412758 0.308904 0.301988 0.27406 0.242952 0.201333 0.192988 0.192937 0.204899 0.168387 0.147578 0.145255 0.102534 0.166766 0.102351 0.0956963 0.0907582 0.0897225 0.135452 0.0841413 0.0734867
threshold=0.60370500000000005 -0.10215499999999998 0.044107999999999932 0.00010717200000000001 -0.028558099999999996 -1.0577649999999997e-06 -4.4646249999999989e-05 14.809700000000001 -7.3077349999999992 4.67263e-05 0.0039320250000000013 1.5539100000000003 0.23124499999999995 -1.3211999999999995 -15.905149999999997 0.00053470250000000003 0.00050429750000000008 -0.025773999999999905 -0.039689999999999996 -1.245455 1.0092000000000002e-07 29.210200000000004 0.018512050000000006 0.04119865000000001 0.49994999999999928 0.0055993150000000014 6.431255000000001e-08 -0.11934149999999998 0.33758199999999999 1.5954800000000002
decision_type=2 2 2 2 2 2 2 2 2 2 2 2 2 2 2 2 2 2 2 2 2 2 2 2 2 2 2 2 2 2
left_child=1 -1 3 8 5 6 -4 -8 9 11 12 13 26 -3 -7 -5 18 20 -15 -14 -18 22 -6 -23 -19 -16 27 -10 -27 -20
right_child=-2 2 4 15 21 14 7 -9 10 -11 -12 -13 19 16 25 -17 17 24 29 -21 -22 23 -24 -25 -26 28 -28 -29 -30 -31
leaf_value=-8.7995760748666807e-05 -0.00011338839778636016 -0.00060876687026680703 -0.00137324977808425 -0.00042969965376687475 -8.9730738299183044e-05 0.0044090540902107025 0.0052725162365823055 0.017077325923892203 0.0040162993408739567 0.0080703121644910419 -0.0047751549864187837 -0.00074473355988224487 0.00027038347155956382 -0.001514681645042809 0.00074600673948512668 -0.0055092326284426714 0.0042043807657642504 0.002392783682240406 0.002025739542241434 -0.0037391377661120276 0.0094404498294282432 -5.1268049573991448e-05 0.0034472015973947504 -0.0051097063600900588 0.0060351711343338884 -0.0041435069500303434 0.0031224773392923887 -0.0011157366033229565 -0.00015209311728223997 0.0038309762937327229
leaf_weight=10683 8536 57 27 100 1683 20 20 20 20 30 24 83 110 29 38 23 27 100 227 29 26 20 34 20 22 31 126 36 23 75
leaf_count=10683 8536 57 27 100 1683 20 20 20 20 30 24 83 110 29 38 23 27 100 227 29 26 20 34 20 22 31 126 36 23 75
internal_value=0 7.0325e-05 0.000619462 0.00144272 0.000132991 0.00220392 0.0061182 0.0111749 0.00178272 0.00233707 0.000696507 0.00207082 0.0011056 0.0024859 -0.000137656 -0.00137953 0.00283451 0.00417727 0.00212459 -0.000566135 0.00677302 -7.79917e-05 -1.96925e-05 -0.00258049 0.00304961 -0.00112607 0.00238237 0.000717133 -0.00244346 0.00247406
internal_weight=0 13763 3080 1144 1936 179 67 40 1021 676 345 646 321 563 112 123 506 175 331 139 53 1757 1717 40 122 92 182 56 54 302
internal_count=22299 13763 3080 1144 1936 179 67 40 1021 676 345 646 321 563 112 123 506 175 331 139 53 1757 1717 40 122 92 182 56 54 302
shrinkage=0.05


Tree=60
num_leaves=31
num_cat=0
split_feature=27 27 27 22 31 14 31 24 19 6 15 31 1 15 21 27 20 11 31 5 15 31 21 2 20 8 22 13 27 18
split_gain=0.0652832 0.370184 0.328137 0.437179 0.43735 0.487901 0.463971 0.423553 0.377133 0.294057 0.238579 0.218673 0.195389 0.152617 0.140441 0.137051 0.10463 0.0918994 0.0821553 0.090426 0.121008 0.0779427 0.0758723 0.073071 0.120468 0.307996 0.392706 0.210391 0.137068 0.109033
threshold=-0.64621549999999994 0.26162950000000007 -0.025773999999999905 -0.6849559999999999 1.9762500000000001 -15.441949999999999 -0.76082999999999934 1.0057200000000003e-06 0.097819300000000012 0.00014736450000000002 1.3124250000000002 0.63397000000000026 -16.772799999999997 0.92477500000000001 2.2443350000000004 0.13134950000000004 3.6843350000000004e-05 -2.4308499999999994e-06 -0.49994999999999917 0.00011884250000000002 -0.13069799999999995 1.1617550000000005 0.29348650000000004 1.5897900000000003 2.2192050000000004e-05 -1.2847149999999997e-06 -0.028558099999999996 -1.2026299999999999 -0.22542900000000002 0.020567500000000006
decision_type=2 2 2 2 2 2 2 2 2 2 2 2 2 2 2 2 2 2 2 2 2 2 2 2 2 2 2 2 2 2
left_child=-1 2 10 -4 5 8 16 9 12 11 23 15 -5 14 22 18 -7 -13 -8 -20 -21 -19 -6 24 29 26 -26 -27 -28 -2
right_child=1 -3 3 4 13 6 7 -9 -10 -11 -12 17 -14 -15 -16 -17 -18 21 19 20 -22 -23 -24 -25 25 27 28 -29 -30 -31
leaf_value=-0.00010561166388864941 3.9032012846790446e-05 -9.4617353364247442e-05 0.0074674800933840187 0.0067307625878311227 2.1080034696744523e-05 -0.00016308745534719443 0.005037769944303566 0.0074718966789077967 0.011361521054059269 -0.003525513575274359 0.0046794548591216362 0.0017273775424021581 3.9232606650330129e-05 -0.0038567551561901649 0.0038703795708715919 -0.00055034631659509612 -0.0035324612967669966 -0.003563606904289271 0.0024080004354475543 -0.0028329342757933773 0.0023402137255358799 -3.0432475656149064e-05 -0.0016107105743051792 -0.00065074500367645128 0.0099664175516227266 0.0037118184090811864 -0.0010310370198567398 -0.00046777838133864509 0.0045735522153745479 -0.0032262255038613846
leaf_weight=8835 1532 9680 26 20 254 294 27 32 20 27 28 33 24 31 20 44 25 27 498 20 26 37 99 330 20 36 24 184 20 26
leaf_count=8835 1532 9680 26 20 254 294 27 32 20 27 28 33 24 31 20 44 25 27 498 20 26 37 99 330 20 36 24 184 20 26
internal_value=0 6.93018e-05 0.00048863 0.00103736 0.00093005 0.00142572 0.00117659 0.00184014 0.00566855 0.00159627 9.35467e-05 0.0017905 0.00308084 -0.000485787 -0.000205626 0.0021385 -0.000427145 -0.000415876 0.00234569 0.00221208 9.10189e-05 -0.00152099 -0.000436561 3.44282e-05 0.000157179 0.00110426 0.0041571 0.000216156 0.0015165 -1.54588e-05
internal_weight=0 13464 3784 1584 1558 1154 1090 771 64 739 2200 712 44 404 373 615 319 97 571 544 46 64 353 2172 1842 284 64 220 44 1558
internal_count=22299 13464 3784 1584 1558 1154 1090 771 64 739 2200 712 44 404 373 615 319 97 571 544 46 64 353 2172 1842 284 64 220 44 1558
shrinkage=0.05


Tree=61
num_leaves=31
num_cat=0
split_feature=9 9 23 30 30 23 27 27 30 14 23 30 24 2 30 2 24 15 11 18 27 20 22 18 30 22 27 13 2 14
split_gain=0.0623149 0.0971069 1.67489 0.544993 0.735578 0.109554 0.0756394 0.552275 0.397743 0.688623 0.582993 0.418128 0.54536 0.408902 0.260772 0.325578 0.746279 0.427735 0.2314 0.228432 0.157174 0.179737 0.146121 0.110581 0.108789 0.108201 0.135937 0.418513 0.495413 0.0942475
threshold=3.2616700000000009e-05 9.794275000000002e-06 0.23757050000000002 1.9665349999999997 -1.485365 0.35457250000000007 -0.32627999999999996 0.1562649999999999 -2.5203599999999997 -15.441949999999999 0.00045628750000000005 1.3577250000000005 -1.8800249999999996e-06 0.93067350000000004 -0.30846500000000038 -0.19053199999999998 2.7198850000000005e-07 -0.24914549999999999 -0.00014329549999999997 0.00059385450000000006 -0.12303449999999989 1.2551150000000001e-05 -0.013646349999999998 0.0055809450000000012 0.71212500000000001 -0.0015073599999999997 0.017475500000000008 -1.3040749999999999 0.053110600000000008 -12.047699999999999
decision_type=2 2 2 2 2 2 2 2 2 2 2 2 2 2 2 2 2 2 2 2 2 2 2 2 2 2 2 2 2 2
left_child=1 5 -3 4 -4 6 -1 8 -8 10 -10 12 -11 14 15 16 -14 -17 -16 -15 -20 24 -13 29 25 -22 -27 -28 -29 -24
right_child=-2 2 3 -5 -6 -7 7 -9 9 11 -12 22 13 19 18 17 -18 -19 20 -21 21 -23 23 -25 -26 26 27 28 -30 -31
leaf_value=-9.0447754787025507e-05 -0.00020181180533335749 6.5608214147684502e-06 0.0051868396432837478 0.0020202614475108151 0.018747613827581517 -0.0007746889152295981 -0.00035573097977060412 -7.0269346561872923e-05 0.010825904104721678 0.0084116486365798798 0.0013452517276164146 -0.0041576169780455528 0.00049201373681973882 -0.00031213338331629833 -0.0028130438410975647 -0.0066239011329553956 0.011479349851142615 0.0001746623643183349 -0.00049719705525507038 -0.007210679366253317 0.0042746039331453206 0.0051769074538529636 -0.0037503619691415229 0.0033187362343250291 -0.00099473582627251748 0.0024873049467677233 0.0054441135582746943 -0.0083277641640355192 0.001756171519257899 -0.00019670433778451988
leaf_weight=7712 3265 991 20 21 20 437 502 7839 34 28 31 25 68 30 23 26 20 210 47 20 66 57 20 21 25 388 25 21 29 278
leaf_count=7712 3265 991 20 21 20 437 502 7839 34 28 31 25 68 30 23 26 20 210 47 20 66 57 20 21 25 388 25 21 29 278
internal_value=0 3.46178e-05 0.000501536 0.00854286 0.0119672 7.3017e-06 2.6779e-05 0.00011872 0.000861691 0.00127131 0.00630436 0.00104205 0.00152442 0.00134163 0.00156119 0.000393523 0.00298914 -0.000574332 0.00211673 -0.00307155 0.00228905 0.00250338 -0.000476564 -0.00018808 0.0022283 0.00238062 0.00211063 0.000161984 -0.00247908 -0.000435205
internal_weight=0 19034 1052 61 40 17982 17545 9833 1994 1492 65 1427 1083 1055 1005 324 88 236 681 50 658 611 344 319 554 529 463 75 50 298
internal_count=22299 19034 1052 61 40 17982 17545 9833 1994 1492 65 1427 1083 1055 1005 324 88 236 681 50 658 611 344 319 554 529 463 75 50 298
shrinkage=0.05


Tree=62
num_leaves=31
num_cat=0
split_feature=9 27 27 25 27 30 14 18 30 21 2 7 31 7 17 14 23 21 17 21 7 22 25 12 18 8 30 17 18 15
split_gain=0.0564528 0.0810937 0.421697 0.374481 0.314313 0.37318 0.644034 0.486254 0.409349 0.435302 0.60936 0.393182 0.303934 0.233013 0.191149 0.174209 0.162579 0.161995 0.282063 0.123987 0.645619 0.12393 0.100622 0.0968257 0.0918395 0.0855501 0.138358 0.0731777 0.0774206 0.132544
threshold=6.6670550000000008e-05 -0.64621549999999994 0.26162950000000007 -0.80259099999999994 -0.10215499999999998 -2.2627249999999997 -13.359599999999999 0.0027657300000000005 0.31050000000000028 0.51382200000000011 -0.16117699999999999 0.0022170600000000003 0.46718999999999961 0.00020115150000000003 0.01015915 -6.8980549999999985 0.00070211550000000018 0.97977400000000003 -0.071415199999999984 4.2965400000000011 0.0020371300000000003 -0.00010802649999999999 0.20581350000000001 5.5242100000000005e-10 0.010500400000000002 -1.0625149999999999e-07 -1.1060349999999997 0.021768900000000004 0.00071377550000000011 -0.25860149999999998
decision_type=2 2 2 2 2 2 2 2 2 2 2 2 2 2 2 2 2 2 2 2 2 2 2 2 2 2 2 2 2 2
left_child=1 -1 3 -3 19 22 7 14 9 11 -11 12 23 -10 16 25 -7 18 -15 -5 -21 -13 24 -8 -6 26 -14 28 -25 -30
right_child=-2 2 -4 4 5 6 8 -9 13 10 -12 21 15 17 -16 -17 -18 -19 -20 20 -22 -23 -24 27 -26 -27 -28 -29 29 -31
leaf_value=-9.6573986429028235e-05 -0.00021570656623566293 0.0072386704473977994 -7.6912591472326491e-05 -5.5342997028961663e-05 -0.00027378294815744798 0.0060971809658865901 -0.00076563117653131486 0.0099910029326565567 -0.0052182962334799497 0.012692513600701378 0.00078502290363592858 -0.0057369929808208497 -0.0002756847767159343 0.0052531234316389869 -0.00095096681070572231 -0.0036195485500361579 0.0018163870485122539 -0.003681461037033134 -4.6041241458069612e-05 -0.0014651616857661747 0.0095841953787021358 -0.00059152352169621742 0.0029869543938812887 0.0024912058753382826 -0.0031960115318411387 -0.0004422499353009474 0.0054105839776457292 0.0047362439625430854 0.0026166005675951321 -0.002392997191813977
leaf_weight=7743 2670 21 8492 1535 369 47 25 32 22 21 22 22 23 27 24 31 42 27 359 39 20 25 22 431 29 73 20 32 31 23
leaf_count=7743 2670 21 8492 1535 369 47 25 32 22 21 22 22 23 27 24 31 42 27 359 39 20 25 22 431 29 73 20 32 31 23
internal_value=0 2.93411e-05 0.000111367 0.000582455 0.000541014 0.000997891 0.00140047 0.00454996 0.0010243 0.00171039 0.00660031 0.00142471 0.00172654 -0.00020436 0.00300914 -0.000289927 0.00407703 6.27266e-05 0.000324626 3.11111e-05 0.00228038 -0.00300004 -0.000304755 0.00227344 -0.000486709 0.000599885 0.00236909 0.0024204 0.0022676 0.000482883
internal_weight=0 19629 11886 3394 3373 1779 1359 145 1214 779 43 736 689 435 113 147 89 413 386 1594 59 47 420 542 398 116 43 517 485 54
internal_count=22299 19629 11886 3394 3373 1779 1359 145 1214 779 43 736 689 435 113 147 89 413 386 1594 59 47 420 542 398 116 43 517 485 54
shrinkage=0.05


Tree=63
num_leaves=31
num_cat=0
split_feature=28 28 28 6 22 8 8 1 20 18 30 31 30 22 18 28 14 26 8 28 30 8 28 16 18 2 30 20 17 19
split_gain=0.0485154 0.31621 0.31153 0.322309 0.279133 0.575473 1.07455 0.195351 0.328656 0.275467 0.221732 0.189532 0.173532 0.172088 0.163347 0.191948 0.151565 0.17316 0.145001 0.143089 0.139312 0.134226 0.128476 0.0930698 0.136997 0.0912349 0.084113 0.0769595 0.0731101 0.0712082
threshold=-0.60370499999999983 0.10215500000000001 -0.044107999999999918 0.00010717200000000001 -0.028558099999999996 -1.8057149999999999e-06 -1.8560199999999996e-05 -7.3077349999999992 4.67263e-05 0.0039320250000000013 1.5539100000000003 0.23124499999999995 -1.3211999999999995 -0.0022306949999999996 0.00050429750000000008 0.025773999999999912 -16.075299999999995 0.0055993150000000014 -9.7363449999999978e-09 -0.23661499999999999 -1.245455 1.0092000000000002e-07 0.03969000000000001 29.210200000000004 0.018512050000000006 0.04119865000000001 0.49994999999999928 -3.6110449999999996e-06 0.0080739700000000015 0.07145905000000001
decision_type=2 2 2 2 2 2 2 2 2 2 2 2 2 2 2 2 2 2 2 2 2 2 2 2 2 2 2 2 2 2
left_child=-1 2 4 7 5 6 -2 8 10 11 12 27 -4 -5 22 26 -7 18 -18 -19 -13 -17 28 24 -6 -25 -16 -9 -14 -15
right_child=1 -3 3 13 23 16 -8 9 -10 -11 -12 20 14 29 15 21 17 19 -20 -21 -22 -23 -24 25 -26 -27 -28 -29 -30 -31
leaf_value=-9.3647545098307251e-05 0.00083884833133492358 -7.0604173730001648e-05 -0.00055337088892804139 -0.0055035974725615236 -8.16874774793758e-05 0.0039843799325171864 0.01479277253701267 -0.00099636849481612457 0.0070598815984946372 -0.0046852823967734976 -0.0007062036103143986 0.00029060890974836766 0.0022718450585483296 0.00023002325402425103 0.0018849590291792992 0.003635376074817032 0.0047254421754041693 -0.00067750461967079905 -0.0010957307030406336 -0.0058708808007871824 -0.0036050039873426333 0.0086687329681948404 -0.0014753913899579042 -7.0032008952694024e-05 0.003124061053762596 -0.0048458813235629358 0.0052997976586497816 0.0022911207270406098 -0.00029143936436382996 -0.0030331264621400763
leaf_weight=8536 37 10683 57 20 1683 20 22 20 30 24 83 110 271 82 100 27 20 36 23 21 29 26 29 20 34 20 22 162 31 21
leaf_count=8536 37 10683 57 20 1683 20 22 20 30 24 83 110 271 82 100 27 20 36 23 21 29 26 29 20 34 20 22 162 31 21
internal_value=0 5.80815e-05 0.000504429 0.00115859 0.000117879 0.00199885 0.00604201 0.00144988 0.00194397 0.000481766 0.00170639 0.000868087 0.00206206 -0.0012594 0.00235669 0.00359219 1.09664e-05 -0.000783716 0.00161179 -0.00259085 -0.000522145 0.00610457 0.00170347 -7.37508e-05 -1.82073e-05 -0.00245796 0.00250075 0.00192986 0.00200873 -0.000435279
internal_weight=0 13763 3080 1144 1936 179 59 1021 676 345 646 321 563 123 506 175 120 100 43 57 139 53 331 1757 1717 40 122 182 302 103
internal_count=22299 13763 3080 1144 1936 179 59 1021 676 345 646 321 563 123 506 175 120 100 43 57 139 53 331 1757 1717 40 122 182 302 103
shrinkage=0.05


Tree=64
num_leaves=31
num_cat=0
split_feature=9 27 27 25 27 30 14 18 30 21 2 7 30 0 3 1 14 7 21 8 3 12 17 30 17 4 17 24 21 7
split_gain=0.0485055 0.06813 0.351197 0.337168 0.255672 0.312421 0.566673 0.43242 0.351287 0.491417 0.478042 0.366976 0.218481 0.200947 0.180028 0.14954 0.207082 0.179793 0.166593 0.144829 0.141803 0.132772 0.129563 0.125456 0.123524 0.314266 0.121679 0.117833 0.111898 0.582672
threshold=6.6670550000000008e-05 -0.64621549999999994 0.26162950000000007 -0.80259099999999994 -0.10215499999999998 -2.2627249999999997 -13.359599999999999 0.0027657300000000005 0.15623999999999996 0.51382200000000011 -0.16117699999999999 0.0016623800000000004 -0.46105999999999975 7.9479750000000005 1.2684550000000002e-05 -13.073449999999998 -9.901234999999998 0.0010420150000000001 0.42361800000000005 -1.0625149999999999e-07 9.9873700000000016e-06 0.00030883100000000003 0.021768900000000004 -1.1509949999999998 0.0076718200000000002 9.9046150000000027e-06 -0.071415199999999984 1.1972150000000003e-07 4.2965400000000011 0.0020371300000000003
decision_type=2 2 2 2 2 2 2 2 2 2 2 2 2 2 2 2 2 2 2 2 2 2 2 2 2 2 2 2 2 2
left_child=1 -1 3 -3 28 -6 7 14 9 11 -11 12 19 15 20 18 17 -17 -10 23 -7 -13 24 -8 -14 -26 -18 -28 -5 -30
right_child=-2 2 -4 4 5 6 8 -9 13 10 -12 21 22 -15 -16 16 26 -19 -20 -21 -22 -23 -24 -25 25 -27 27 -29 29 -31
leaf_value=-8.8215079027595172e-05 -0.00019994763959581751 0.0068481969713632546 -6.9440173139083649e-05 -4.9045637264711814e-05 -0.00028686418074704267 0.0022103589800227543 -0.00018006442490635285 0.0093586756462173074 -0.00028426128969463016 0.01247299605049193 0.0015409100591205062 -0.0056200910883489998 0.0022790288362810494 -0.0038214776942381568 0.00040967222352690524 5.9785977355204524e-05 0.0038665954688830041 0.0061403706715810261 -0.0043824568491739532 -0.0011315562527652034 0.0068477191991405569 -0.00060549776094514097 0.0055891376060362048 0.0051117786245110132 0.0024045126710552723 -0.0052717361669056126 0.00030888149806458545 -0.0033472186872968452 -0.0013883733939833176 0.0091085159534122807
leaf_weight=7743 2670 21 8492 1535 420 34 24 32 143 20 20 22 399 34 47 20 21 31 30 99 32 33 26 21 40 20 186 25 39 20
leaf_count=7743 2670 21 8492 1535 420 34 24 32 143 20 20 22 399 34 47 20 21 31 30 99 32 33 26 21 40 20 186 25 39 20
internal_value=0 2.71975e-05 0.000102382 0.000532291 0.000492969 0.000905028 0.00127338 0.00422767 0.000920524 0.00162024 0.00700695 0.00130523 0.00164769 -0.000113339 0.00277464 0.000163145 0.000871086 0.00375583 -0.000994931 -6.24879e-05 0.00445878 -0.00261134 0.00215546 0.00228946 0.00196095 -0.000154237 0.00023694 -0.000124306 3.30858e-05 0.00216989
internal_weight=0 19629 11886 3394 3373 1779 1359 145 1214 724 40 684 629 490 113 456 283 51 173 144 66 55 485 45 459 60 232 211 1594 59
internal_count=22299 19629 11886 3394 3373 1779 1359 145 1214 724 40 684 629 490 113 456 283 51 173 144 66 55 485 45 459 60 232 211 1594 59
shrinkage=0.05


Tree=65
num_leaves=31
num_cat=0
split_feature=9 9 23 30 30 23 17 20 8 17 27 27 27 30 14 18 30 7 17 30 14 4 3 23 11 25 17 5 20 27
split_gain=0.0438788 0.0863205 1.44538 0.466542 0.634023 0.101874 0.0582952 0.0535835 0.331823 0.0526256 0.209378 0.0508454 0.387385 0.2609 0.401793 0.415651 0.221505 0.247272 0.231322 0.291088 0.198164 0.231753 0.195082 0.209226 0.183977 0.377106 0.170082 0.160616 0.141365 0.119364
threshold=3.2616700000000009e-05 9.794275000000002e-06 0.23757050000000002 1.9665349999999997 -1.485365 0.23757050000000002 2.4687050000000004 -0.00063062749999999988 -4.0147899999999994e-07 0.047249250000000007 -0.17305199999999996 -0.32627999999999996 0.13134950000000004 -2.5203599999999997 -13.228949999999999 0.0036837650000000007 0.31050000000000028 0.00020115150000000003 0.021768900000000004 -0.30846500000000038 -10.829899999999999 1.4598750000000001e-05 1.2621800000000002e-05 0.00070211550000000018 -2.4308499999999994e-06 0.00077092550000000006 -0.071415199999999984 0.00012976200000000004 4.6697850000000004e-06 -0.039689999999999996
decision_type=2 2 2 2 2 2 2 2 2 2 2 2 2 2 2 2 2 2 2 2 2 2 2 2 2 2 2 2 2 2
left_child=1 5 9 4 -4 7 -7 8 -1 -3 -11 -9 13 -13 15 22 18 -18 19 24 -20 -22 23 -15 28 -26 -19 -21 -16 -24
right_child=-2 2 3 -5 -6 6 -8 11 -10 10 -12 12 -14 14 16 -17 17 26 20 27 21 -23 29 -25 25 -27 -28 -29 -30 -31
leaf_value=0.0068492047861218458 -0.00016934733153365657 -9.479936195084649e-05 0.0048127147380728277 0.0019044329190538044 0.017402622867375612 -0.00051006214551981661 -0.0025844453258590267 -7.6614371970980773e-05 -0.00077109674212988465 -0.00031027100805658848 0.0056637912450241863 -0.00028347973246280547 -6.1084052798708846e-05 0.0068775325240696683 -0.00012776514150363466 0.0096201742958763378 -0.005435929447066017 0.0036272274759085125 0.0081652121897786856 0.0018980675660368665 -0.00017323793444494882 0.006609807187924162 -0.0028238896677567028 0.0016233671433292332 -0.00036053631640327717 -0.0073128161486238248 -0.00016570499038567573 -0.0022945447427143036 0.0044375760823216603 0.0017880046755035827
leaf_weight=20 3265 916 20 21 20 572 36 7623 50 55 20 475 7765 36 39 23 21 32 20 474 34 20 20 40 172 22 387 24 30 47
leaf_count=20 3265 916 20 21 20 572 36 7623 50 55 20 475 7765 36 39 23 21 32 20 474 34 20 20 40 172 22 387 24 30 47
internal_value=0 2.9049e-05 0.000469272 0.00793934 0.0111077 3.29466e-06 -0.000632887 2.55577e-05 0.00140613 9.45984e-06 0.00128281 1.99729e-05 9.60275e-05 0.000732756 0.00106774 0.00338162 0.000766482 -0.000141389 0.00124488 0.000985368 0.00391365 0.002339 0.00237821 0.00411218 -0.000360265 -0.00114894 0.00012397 0.00169601 0.00185717 0.00041132
internal_weight=0 19034 1052 61 40 17982 608 17374 70 991 75 17304 9681 1916 1441 166 1275 440 835 761 74 54 143 76 263 194 419 498 69 67
internal_count=22299 19034 1052 61 40 17982 608 17374 70 991 75 17304 9681 1916 1441 166 1275 440 835 761 74 54 143 76 263 194 419 498 69 67
shrinkage=0.05


Tree=66
num_leaves=31
num_cat=0
split_feature=9 27 27 1 21 30 22 10 15 30 21 9 23 30 30 24 27 27 17 3 9 18 18 14 14 18 23 10 9 17
split_gain=0.0399604 0.0555162 0.288437 0.302405 2.34701 0.282518 0.249993 0.308992 0.245062 0.196471 0.318604 0.700487 0.486035 0.528227 0.191842 0.259462 0.159795 0.204816 0.167701 0.147989 0.125592 0.118789 0.117041 0.10315 0.120747 0.0960539 0.0883926 0.0782094 0.0697071 0.144209
threshold=6.6670550000000008e-05 -0.64621549999999994 0.26162950000000007 -14.166599999999997 2.1325750000000006 2.3121949999999996 0.49056700000000003 3.9992650000000002e-07 0.34526250000000008 -1.3691699999999993 0.29006000000000004 7.8753600000000015e-06 0.23757050000000002 -0.46105999999999975 2.0387850000000007 1.2490100000000003e-06 -0.025773999999999905 0.044107999999999932 0.03202735000000001 1.6269000000000006e-05 -1.2110649999999997e-05 0.00072307500000000011 0.038882050000000008 -9.1575349999999975 -8.6729999999999983 0.0004256655000000001 -0.0053170099999999996 1.2520200000000004e-07 -1.4100649999999997e-07 0.0059947300000000011
decision_type=2 2 2 2 2 2 2 2 2 2 2 2 2 2 2 2 2 2 2 2 2 2 2 2 2 2 2 2 2 2
left_child=1 -1 3 4 5 8 9 -8 19 22 16 12 13 -12 15 -15 18 20 26 21 -18 25 -5 27 -25 -3 -11 -19 -22 -30
right_child=-2 2 -4 6 -6 -7 7 -9 -10 10 11 -13 -14 14 -16 -17 17 23 -20 -21 28 -23 -24 24 -26 -27 -28 -29 29 -31
leaf_value=-7.9496405538124877e-05 -0.00018148289114392339 0.0021517877372389193 -6.3160129581507686e-05 -0.00017964928154327365 0.014989464033597841 -0.00039910067012243768 0.00066937872047890873 -0.0080144472047686578 0.0070675846848947304 -0.0028662016627476403 0.0081912587153159886 0.010439765342511238 -0.0034220459956813077 0.0050978254490856717 -0.002973161865931774 -0.00096237732527008511 -0.0018389641029730062 2.3084124207647014e-05 0.0033927355093703337 -0.0018905314351432027 0.0025480874881689108 0.00051960073033114902 0.0028828468315623469 0.0037906413564800542 -0.00015001695995336863 0.006843518842943013 -0.00013097899705716003 -0.0037527502895386535 0.0017483233501719186 -0.00081426883891742646
leaf_weight=7743 2670 24 8492 1245 31 231 21 20 24 31 35 25 39 38 23 33 27 24 33 25 155 40 32 22 167 20 626 32 304 67
leaf_count=7743 2670 24 8492 1245 31 231 21 20 24 31 35 25 39 38 23 33 27 24 33 25 155 40 32 22 167 20 626 32 304 67
internal_value=0 2.46859e-05 9.25543e-05 0.000482161 0.00178263 0.000657868 0.000310876 -0.00356663 0.00249365 0.000364622 0.000719788 0.00263111 0.00146911 0.00294783 0.000995491 0.00228111 0.000471881 0.000953688 -8.53403e-05 0.00148655 0.00148686 0.00249163 -0.000102907 -0.000249766 0.000308684 0.00428439 -0.000260038 -0.00213454 0.00165758 0.00128554
internal_weight=0 19629 11886 3394 395 364 2999 41 133 2958 1681 193 168 129 94 71 1488 798 690 109 553 84 1277 245 189 44 657 56 526 371
internal_count=22299 19629 11886 3394 395 364 2999 41 133 2958 1681 193 168 129 94 71 1488 798 690 109 553 84 1277 245 189 44 657 56 526 371
shrinkage=0.05


Tree=67
num_leaves=31
num_cat=0
split_feature=9 9 23 30 30 23 5 27 23 1 23 5 27 27 30 21 30 24 0 27 16 15 11 25 31 11 30 23 13 23
split_gain=0.0365122 0.0756282 1.25647 0.415094 0.548983 0.09065 0.0761929 0.309534 0.0506934 0.0455029 0.044362 0.103267 0.0417618 0.229253 0.220235 0.74595 0.253664 0.381285 0.271598 0.253615 0.225809 0.222636 0.168908 0.195306 0.147705 0.164519 0.138621 0.114147 0.091884 0.0888261
threshold=3.2616700000000009e-05 9.794275000000002e-06 0.23757050000000002 1.9665349999999997 -1.485365 0.35457250000000007 0.00011346550000000001 0.95334075000000007 -0.051097699999999996 -16.232699999999998 0.018733950000000003 0.00016940400000000003 -0.56077824999999992 0.1562649999999999 -2.5203599999999997 2.8705050000000001 1.9665349999999997 -1.8800249999999996e-06 2.3390200000000001 -0.10215499999999998 9.2989400000000018 -0.49633099999999991 -0.00014329549999999997 -0.0068598999999999995 0.46718999999999961 -2.4308499999999994e-06 0.76082999999999956 -0.012961449999999998 -1.0783749999999996 -0.0016231449999999997
decision_type=2 2 2 2 2 2 2 2 2 2 2 2 2 2 2 2 2 2 2 2 2 2 2 2 2 2 2 2 2 2
left_child=1 5 10 4 -4 12 -7 -8 9 -2 -3 -12 -1 14 -14 16 17 18 -16 -19 21 -21 -23 -24 26 -26 29 -18 -28 -25
right_child=8 2 3 -5 -6 6 7 -9 -10 -11 11 -13 13 -15 15 -17 27 19 -20 20 -22 22 23 24 25 -27 28 -29 -30 -31
leaf_value=-7.3388101135422597e-05 -0.0032060361454205122 -9.1299857953573441e-05 0.0045343276296625845 0.0017109474610714688 0.016249522427096964 -0.00041815037729577714 -0.0074798015242049584 -0.00014052171244139912 -0.00010578027062261098 -0.00068314263046810695 2.4376650447569167e-05 0.0039648696339851163 -0.00023077537274720602 -5.1189579835069587e-05 0.0019299382294854655 0.0093623833600431691 -0.0035235292503515399 -0.00017243874507478008 0.0098968292839708739 0.0061831325071580075 -0.0039394899457693101 -0.0017539608186695642 0.0052292055778459393 0.0033709418629826629 0.0026987714198971721 -0.0011833573067651041 0.0011129170415751148 -0.00016891184847869485 -0.003622488942201017 0.0015756851094576197
leaf_weight=7106 20 908 20 21 20 366 20 51 3077 168 60 23 752 7839 23 25 27 416 20 24 20 43 33 79 37 104 21 417 20 539
leaf_count=7106 20 908 20 21 20 366 20 51 3077 168 60 23 752 7839 23 25 27 416 20 24 20 43 33 79 37 104 21 417 20 539
internal_value=0 2.64986e-05 0.000438556 0.00740339 0.0103919 2.39202e-06 -0.000708937 -0.00220792 -0.000154479 -0.000951536 9.84292e-06 0.00111632 2.01094e-05 8.37547e-05 0.000490612 0.000784163 0.000666524 0.00100119 0.00563547 0.000852036 0.00131528 0.00143205 0.00130188 0.00145963 0.00130413 -0.000164643 0.00161839 -0.000372909 -0.00119704 0.00180518
internal_weight=0 19034 1052 61 40 17982 437 71 3265 188 991 83 17545 10439 2600 1848 1823 1379 43 1336 920 900 876 833 800 141 659 444 41 618
internal_count=22299 19034 1052 61 40 17982 437 71 3265 188 991 83 17545 10439 2600 1848 1823 1379 43 1336 920 900 876 833 800 141 659 444 41 618
shrinkage=0.05


Tree=68
num_leaves=31
num_cat=0
split_feature=8 26 8 22 27 27 22 3 8 27 27 22 20 4 17 0 16 10 27 27 27 27 11 22 8 16 2 25 0 8
split_gain=0.0333962 0.075684 0.0506572 0.797044 0.804199 1.38867 0.191602 0.259117 0.0982544 0.143004 0.325462 0.0933575 0.0491578 0.0377893 0.0377149 0.0362016 0.0397261 0.156799 0.0707598 0.312687 0.035519 0.421686 0.161336 0.158729 0.277626 0.182688 0.139127 0.177973 0.136474 0.135531
threshold=-5.9361049999999993e-05 0.022310250000000004 -1.1550349999999996e-06 -0.27367349999999996 0.41121150000000001 -0.56077824999999992 -0.020437099999999996 8.6974300000000012e-06 -8.0800949999999987e-06 0.63523675000000013 -0.30126800000000004 -0.37774049999999998 -0.0016106259999999998 -0.0002975264999999999 -0.35794499999999996 13.899050000000001 6.3932150000000005 3.4107350000000008e-05 0.43870000000000015 -0.32627999999999996 -0.10215499999999998 0.026820000000000014 -0.00023542999999999999 0.0019543150000000003 1.6360850000000001e-07 5.7016750000000007 0.18455250000000004 8.454440000000001e-05 -2.5079849999999992 1.9244950000000005e-06
decision_type=2 2 2 2 2 2 2 2 2 2 2 2 2 2 2 2 2 2 2 2 2 2 2 2 2 2 2 2 2 2
left_child=1 -1 3 4 5 -2 7 -5 -9 10 -10 -4 -13 -3 -6 16 -8 18 19 -18 -14 22 -22 26 -25 29 -24 -28 -29 -26
right_child=2 13 11 6 14 -7 15 8 9 -11 -12 12 20 -15 -16 -17 17 -19 -20 -21 21 -23 23 24 25 -27 27 28 -30 -31
leaf_value=-0.00012006934649042445 -0.00037942368859755033 -0.0031219579520876759 -0.00077777836156258805 0.0066207965560103992 0.00182831452630694 0.016764017921997477 -4.9606349953937047e-06 -0.0001281426690689437 -0.00023793526515537118 -0.00014708195134208578 0.0073904577369705363 -0.0019247730278893318 -6.7606100291593216e-05 -0.00093662721946005862 -0.00099403364041916525 0.0020289532012871601 -0.00017975491303122209 0.0034879179394374663 -0.00018838911584963925 -0.0063509564233633388 -0.0016106155231325687 -4.3493246574457594e-05 0.0012899840202265879 -0.0005029845112527586 0.0046819632408397196 0.0085391739779151973 0.00094171269305141849 -0.00045558782901776879 -0.0060306212108116597 0.00031560330901777856
leaf_weight=2132 21 27 392 22 20 27 2815 108 27 42 29 33 8059 74 29 21 65 20 93 30 51 7339 566 44 52 20 70 23 21 27
leaf_count=2132 21 27 392 22 20 27 2815 108 27 42 29 33 8059 74 29 21 65 20 93 30 51 7339 566 44 52 20 70 23 21 27
internal_value=0 -0.000183426 2.04122e-05 0.000197272 0.00466392 0.00926376 6.4856e-05 0.00146289 0.000912049 0.00205838 0.00371248 -1.52733e-05 3.05866e-06 -0.00152082 0.000157945 -3.9859e-05 -5.42305e-05 -0.000721032 -0.00116879 -0.00212856 6.96835e-06 8.01445e-05 0.00111833 0.00128744 0.00280165 0.00427037 0.000969014 -0.000624576 -0.0031164 0.00318966
internal_weight=0 2233 20066 3369 97 48 3272 228 206 98 56 16697 16305 101 49 3044 3023 208 188 95 16272 8213 874 823 143 99 680 114 44 79
internal_count=22299 2233 20066 3369 97 48 3272 228 206 98 56 16697 16305 101 49 3044 3023 208 188 95 16272 8213 874 823 143 99 680 114 44 79
shrinkage=0.05


Tree=69
num_leaves=31
num_cat=0
split_feature=9 9 16 19 15 16 1 10 5 26 8 9 2 21 1 27 27 27 27 22 1 15 8 22 12 12 1 7 22 9
split_gain=0.030777 0.0661302 0.695062 0.463473 0.239525 0.060246 0.281164 0.0733699 0.113956 0.0597809 0.273059 0.0521542 0.107021 0.0420479 0.0559918 0.0313597 0.105657 0.0308162 0.394084 0.136752 0.122554 0.145294 0.0949531 0.307028 0.367022 0.093265 0.092946 0.119148 0.0943949 0.0909762
threshold=3.2616700000000009e-05 9.794275000000002e-06 27.517200000000006 1.6347000000000003 1.0471900000000003 31.457550000000005 -16.232699999999998 1.0456800000000001e-06 0.00011346550000000001 0.14670800000000003 -3.5805049999999997e-07 -3.4047899999999997e-06 -2.5874299999999995 1.7098000000000002 -16.772799999999997 0.1562649999999999 -0.56077824999999992 0.1562649999999999 -0.017273000000000035 -0.10243004999999998 -17.030649999999998 0.54616000000000009 7.4887700000000012e-08 0.00014470650000000001 4.442305000000001e-06 3.1220750000000008e-10 -7.1065299999999993 0.0023278500000000007 -0.0078427699999999989 1.5982500000000002e-07
decision_type=2 2 2 2 2 2 2 2 2 2 2 2 2 2 2 2 2 2 2 2 2 2 2 2 2 2 2 2 2 2
left_child=1 5 4 -4 -3 9 -7 11 15 17 -11 12 -8 -2 -15 16 -9 18 -1 -20 -21 22 25 24 -24 -22 27 28 -27 -26
right_child=13 2 3 -5 -6 6 7 8 -10 10 -12 -13 -14 14 -16 -17 -18 -19 19 20 21 -23 23 -25 29 26 -28 -29 -30 -31
leaf_value=-3.7752312490943319e-05 -9.0384201667857863e-05 9.4428810863091323e-06 0.010788068103591706 0.0011525488317298974 0.0054062282266776106 0.0040645535195512972 -0.00097489754493992593 -0.00047549854494625325 -0.0051271308037195758 0.0062603991641870908 -0.00047660665182981047 -0.00072134019562068111 0.0036497535265053479 -0.0033043082908261567 -0.00054515537388879879 -0.00032319588107956984 -0.0049454047861763684 -6.3046218259202533e-05 0.0048223040251405506 0.0046111579116603196 -0.0019157774084967308 -0.003276383537533028 -0.0076960470549584858 0.0015594079027986313 -0.0016294919250592075 0.0056455137330340228 0.00056418413469611214 0.00021707986643589321 0.0020911869394174176 0.0013473048433384283
leaf_weight=8653 3017 981 26 24 21 31 29 39 22 21 53 274 22 20 228 54 20 7766 23 22 22 21 21 177 66 20 215 86 283 42
leaf_count=8653 3017 981 26 24 21 31 29 39 22 21 53 274 22 20 228 54 20 7766 23 22 22 21 21 177 66 20 215 86 283 42
internal_value=0 2.43286e-05 0.000409644 0.00616302 0.000122549 1.78654e-06 -0.000544451 -0.000855058 -0.00183483 1.71203e-05 0.00143525 -0.000448076 0.00102005 -0.000141829 -0.000767668 -0.00119385 -0.00199072 1.10951e-05 7.07553e-05 0.00101155 0.000921659 0.000836487 0.000929159 0.000207316 -0.00164788 0.00128201 0.00139848 0.0018596 0.0023258 -0.000471849
internal_weight=0 19034 1052 50 1002 17982 491 460 135 17491 74 325 51 3265 248 113 59 17417 9651 998 975 953 932 306 129 626 604 389 303 108
internal_count=22299 19034 1052 50 1002 17982 491 460 135 17491 74 325 51 3265 248 113 59 17417 9651 998 975 953 932 306 129 626 604 389 303 108
shrinkage=0.05


Tree=70
num_leaves=31
num_cat=0
split_feature=8 26 8 22 27 27 22 12 27 27 27 22 20 17 24 27 24 10 22 4 17 27 27 26 8 2 27 26 2 30
split_gain=0.0290222 0.0670744 0.0440269 0.690911 0.719937 1.22629 0.170104 0.239141 0.317447 0.099486 0.297601 0.0825778 0.0432755 0.0404078 0.0491205 0.0377747 0.0353626 0.232884 0.0344212 0.0335829 0.0333659 0.0324759 0.359852 0.235857 0.562405 0.135538 0.119025 0.0918 0.15498 0.106872
threshold=-5.9361049999999993e-05 0.022310250000000004 -1.1550349999999996e-06 -0.27367349999999996 0.41121150000000001 -0.56077824999999992 -0.020437099999999996 4.3497550000000012e-05 -0.22542900000000002 0.13134950000000004 -0.30126800000000004 -0.37774049999999998 -0.0016106259999999998 0.95288800000000007 1.9041600000000001e-05 0.26162950000000007 4.7478300000000009e-05 -1.2766349999999999e-06 -0.0066818849999999994 -0.0002975264999999999 -0.35794499999999996 -0.17305199999999996 0.044107999999999932 0.0022583000000000004 6.2919150000000003e-07 -0.6437274999999999 -0.08291700000000006 1.0650950000000003e-06 -0.076193249999999976 -1.1509949999999998
decision_type=2 2 2 2 2 2 2 2 2 2 2 2 2 2 2 2 2 2 2 2 2 2 2 2 2 2 2 2 2 2
left_child=1 -1 3 4 5 -2 7 8 -5 10 -9 -4 -13 14 -8 -16 18 -18 -14 -3 -6 -20 23 25 -25 -23 -27 28 -28 -29
right_child=2 19 11 6 20 -7 13 9 -10 -11 -12 12 16 -15 15 -17 17 -19 21 -21 -22 22 -24 24 -26 26 27 29 -30 -31
leaf_value=-0.00011134859788775713 -0.00036712188448291273 -0.0029394190073987747 -0.0007313729838600995 -0.00013699001512577525 0.0016502806326025169 0.015742869391451003 -2.6727983120314683e-05 -0.0001815553085497126 0.0082418237332324059 -0.00050657154982521513 0.006273531159744241 -0.0018058141090229831 -0.00019354613265905722 0.0022020012715438498 -0.0029813309069741081 -0.00023270604497702151 0.0045005951061312137 -0.00013881315095598743 -5.1684066565247931e-05 -0.00087930172158185338 -0.0010043592349292935 -0.0012459427561261694 -4.4278341132200408e-05 -0.0018435633135959507 0.0093089251080527898 -0.00019708827305416738 -0.00396373831345478 -6.7567113607462182e-05 0.00082742081871147941 0.0017426802090527542
leaf_weight=2132 21 27 392 20 20 27 2974 57 26 99 26 33 2032 20 25 25 33 150 6819 74 29 75 6195 20 26 178 21 96 86 541
leaf_count=2132 21 27 392 20 20 27 2974 57 26 99 26 33 2032 20 25 25 33 150 6819 74 29 75 6195 20 26 178 21 96 86 541
internal_value=0 -0.000170993 1.90286e-05 0.000183908 0.00434255 0.00869475 6.06236e-05 0.0013779 0.00459886 0.000563805 0.00184052 -1.42397e-05 3.00145e-06 -3.8042e-05 -5.28571e-05 -0.00160702 6.66977e-06 0.000697801 -1.19132e-06 -0.00143003 7.91672e-05 2.66144e-05 0.00010038 0.000959594 0.00446002 0.00079809 0.000964362 0.00124224 -0.0001129 0.00146986
internal_weight=0 2233 20066 3369 97 48 3272 228 46 182 83 16697 16305 3044 3024 50 16272 183 16089 101 49 14057 7238 1043 46 997 922 744 107 637
internal_count=22299 2233 20066 3369 97 48 3272 228 46 182 83 16697 16305 3044 3024 50 16272 183 16089 101 49 14057 7238 1043 46 997 922 744 107 637
shrinkage=0.05


Tree=71
num_leaves=31
num_cat=0
split_feature=8 26 8 22 21 26 22 4 30 9 27 27 17 25 1 21 30 30 31 25 2 12 27 27 25 2 4 3 20 17
split_gain=0.0261926 0.0605347 0.0408853 1.06659 0.252093 0.0861699 0.0741597 0.0303086 0.0290979 0.0280033 0.0333664 0.140833 0.0276376 0.0544444 0.0275432 0.0228992 0.02285 0.0717532 0.102938 0.154652 0.532461 0.377122 0.1035 0.21839 0.258632 0.143807 0.0986952 0.175216 0.169831 0.159409
threshold=-5.9361049999999993e-05 0.022310250000000004 -9.8723849999999978e-06 -0.6849559999999999 6.0983350000000014 0.21742350000000002 -0.6849559999999999 -0.0002975264999999999 -2.0636199999999998 -3.1018899999999996e-06 0.43870000000000015 -0.42604449999999999 -0.13629249999999996 0.18471500000000005 -10.915599999999998 7.9718550000000006 -2.2627249999999997 0.40204999999999963 0.23124499999999995 -0.04896579999999999 0.15566050000000003 0.00045969150000000004 -0.30126800000000004 0.33758199999999999 0.011654050000000001 -0.39397899999999991 2.8778950000000003e-05 1.5976850000000006e-05 -4.4445449999999993e-06 0.021768900000000004
decision_type=2 2 2 2 2 2 2 2 2 2 2 2 2 2 2 2 2 2 2 2 2 2 2 2 2 2 2 2 2 2
left_child=1 -1 3 4 -2 12 8 -3 14 -10 11 -11 -5 -14 -4 -12 -8 18 22 20 -20 -22 -18 24 25 -24 29 -28 -29 -27
right_child=2 7 6 5 -6 -7 16 -9 9 10 15 -13 13 -15 -16 -17 17 -19 19 -21 21 -23 23 -25 -26 26 27 28 -30 -31
leaf_value=-0.000105781168720374 0.004353916611435125 -0.0027924480503080072 -0.0017726750586566946 -0.0010817725452722828 0.012292630447336706 0.003311835592721764 -5.7693108690126748e-05 -0.00083533663688221222 -6.3065580131175622e-06 -0.00076474883120075297 -6.5859236532229588e-05 -0.0055957772589119324 1.3907853317841472e-05 0.0026409607651658009 -9.008607872943539e-06 -0.0021063239312206863 -0.00010020635570424177 -5.8838127631344927e-05 -0.0012846113451275786 -3.7136985119582474e-06 0.011193877570694896 0.0018060239174108419 -0.0026349080880881167 -8.0132249629370354e-05 0.0070224658365623336 0.0015072520330438501 0.0019455048110103236 -0.0057253414086881095 0.00030726143512375921 0.0059665154577011152
leaf_weight=2132 20 27 26 56 20 20 7234 74 39 48 44 22 1420 20 149 20 421 6019 54 3391 20 23 23 395 20 439 54 20 28 21
leaf_count=2132 20 27 26 56 20 20 7234 74 39 48 44 22 1420 20 149 20 421 6019 54 3391 20 23 23 395 20 439 54 20 28 21
internal_value=0 -0.000162444 1.80772e-05 0.00026424 0.00832327 5.16001e-05 -2.6159e-06 -0.00135852 -0.000725624 -0.00118546 -0.00152865 -0.00228307 8.01411e-06 5.03947e-05 -0.000271039 -0.000703504 1.12376e-05 5.68676e-05 0.000198736 5.25957e-05 0.0020211 0.00617247 0.000557454 0.000834328 0.00143137 0.00124022 0.00139882 -8.29655e-06 -0.00220632 0.00171083
internal_weight=0 2233 20066 1556 40 1516 18510 101 348 173 134 70 1496 1440 175 64 18162 10928 4909 3488 97 43 1421 1000 605 585 562 102 48 460
internal_count=22299 2233 20066 1556 40 1516 18510 101 348 173 134 70 1496 1440 175 64 18162 10928 4909 3488 97 43 1421 1000 605 585 562 102 48 460
shrinkage=0.05


Tree=72
num_leaves=31
num_cat=0
split_feature=9 9 23 30 30 23 5 15 23 20 9 27 27 23 5 30 14 23 16 4 30 31 27 27 24 22 19 11 7 20
split_gain=0.0248968 0.0556108 0.940095 0.354063 0.443923 0.0712595 0.0438488 0.281053 0.041884 0.0383921 0.219296 0.0368914 0.203614 0.0363972 0.0892165 0.0262499 0.128478 0.226342 0.077078 0.079581 0.0616913 0.102429 0.105644 0.219596 0.319986 0.165008 0.14996 0.375227 0.134582 0.0866311
threshold=3.2616700000000009e-05 9.794275000000002e-06 0.23757050000000002 1.9665349999999997 -1.485365 0.23757050000000002 0.00011346550000000001 0.97722050000000016 -0.051097699999999996 -0.00063062749999999988 -4.3364999999999991e-06 -0.35332384999999972 0.31155200000000016 0.018733950000000003 0.00016940400000000003 -1.9709400000000008 -15.973899999999999 -0.027650399999999995 0.69670100000000013 -4.1686999999999989e-05 0.44810500000000003 0.19810000000000019 -0.22542900000000002 0.18449200000000018 4.1155250000000007e-07 -0.0015073599999999997 -0.06518404999999998 3.0548800000000002e-07 0.0022170600000000003 5.1210650000000004e-05
decision_type=2 2 2 2 2 2 2 2 2 2 2 2 2 2 2 2 2 2 2 2 2 2 2 2 2 2 2 2 2 2
left_child=1 5 13 4 -4 9 -7 -8 11 10 -1 -2 -13 -3 -15 -11 17 -17 19 -19 21 22 -18 24 25 -24 27 -27 -28 -23
right_child=8 2 3 -5 -6 6 7 -9 -10 15 -12 12 -14 14 -16 16 20 18 -20 -21 -22 29 23 -25 -26 26 28 -29 -30 -31
leaf_value=0.0056133527829661037 -0.00012892648110109906 -8.7221528944373935e-05 0.0038924363651312889 0.0011423746888924921 0.014427179731428624 -0.0003368595003684355 -0.00012841951242168205 -0.0064847750642167586 -8.3296705553005353e-05 -5.6955355716189847e-05 -0.00058154216554248716 -0.0056394985218977799 -0.00025333193159993346 -8.3122598872857143e-06 0.0036543103952325234 0.0063723749972788421 -0.00011198482733203282 0.0030848823514373325 -0.0020962647596752502 0.00010949774462708526 -6.1627139229870022e-05 -3.0776757904175764e-05 0.0034744198525408542 -4.1296016239439473e-05 0.0074137560478199959 -0.0069762056833133114 0.0014519697522147276 0.0019907160038461109 -0.0024123864151382197 0.0014190399100439165
leaf_weight=20 91 908 20 21 20 503 83 22 3077 7304 50 23 74 60 23 21 416 38 20 55 5629 2781 72 399 22 20 368 28 24 107
leaf_count=20 91 908 20 21 20 503 83 22 3077 7304 50 23 74 60 23 21 416 38 20 55 5629 2781 72 399 22 20 368 28 24 107
internal_value=0 2.18814e-05 0.000375224 0.00639971 0.00915981 1.20987e-06 -0.000530862 -0.00146023 -0.000127562 1.98296e-05 0.00118843 -0.00085206 -0.00153046 4.39279e-06 0.00100663 1.51023e-05 6.77332e-05 0.00160554 0.000719669 0.00132525 4.68467e-05 0.000190958 0.000550661 0.000846117 0.00150918 0.00125547 0.000892372 -0.0017455 0.00121538 2.29387e-05
internal_weight=0 19034 1052 61 40 17982 608 105 3265 17374 70 188 97 991 83 17304 10000 134 113 93 9866 4237 1349 933 534 512 440 48 392 2888
internal_count=22299 19034 1052 61 40 17982 608 105 3265 17374 70 188 97 991 83 17304 10000 134 113 93 9866 4237 1349 933 534 512 440 48 392 2888
shrinkage=0.05


Tree=73
num_leaves=31
num_cat=0
split_feature=9 21 1 27 27 1 21 30 15 17 27 24 15 27 0 9 12 23 30 30 26 9 12 4 30 18 14 30 7 22
split_gain=0.022708 0.0428069 0.0603722 0.030348 0.169478 0.245534 1.05999 0.315009 0.37904 0.176823 0.15575 0.151891 0.141832 0.138253 0.124856 0.114059 0.104366 0.103481 0.0987812 0.0969254 0.104341 0.143689 0.119469 0.150067 0.144662 0.086637 0.0701191 0.128256 0.0659492 0.0617798
threshold=6.6670550000000008e-05 0.71875300000000009 -17.461949999999998 0.60370500000000005 -0.10215499999999998 -14.166599999999997 2.8705050000000001 2.3943700000000008 0.34526250000000008 0.55062400000000011 0.082175499999999971 2.4821350000000002e-05 1.0940150000000004 0.044107999999999932 -3.7123699999999995 -3.1018899999999996e-06 2.6813850000000004e-05 0.027526950000000005 0.76082999999999956 -0.96838499999999994 1.0650950000000003e-06 7.6004200000000021e-08 1.0315100000000001e-09 -4.8309049999999991e-05 0.40204999999999963 0.016090200000000002 -8.2647199999999987 0.65794500000000034 0.0025550350000000002 -0.0078427699999999989
decision_type=2 2 2 2 2 2 2 2 2 2 2 2 2 2 2 2 2 2 2 2 2 2 2 2 2 2 2 2 2 2
left_child=3 -2 -3 4 -1 6 7 8 10 11 14 12 13 15 -6 26 -13 18 19 -17 21 -21 -22 -24 -25 -15 -7 -28 -16 -9
right_child=1 2 -4 -5 5 9 -8 29 -10 -11 -12 16 -14 25 28 17 -18 -19 -20 20 22 -23 23 24 -26 -27 27 -29 -30 -31
leaf_value=-3.4319961932907516e-05 -5.7900057180470887e-05 -0.0031824881892796178 -0.0004790938643412953 -6.041887291797883e-05 0.0057067875073037368 0.00024915471280395401 0.011369422747408792 -0.0029766373143675518 0.008458755754691084 -0.0034579212369862944 -0.0022508267427672926 0.00052663561389636019 -0.0028851326980252959 -0.0001061198537587246 0.0036070053116418425 -0.00018479229449413473 0.0054171694282558747 0.00352919477215772 -0.0012697632331657909 0.0011402604306630533 -0.0015258846631632909 -0.0031702438610252633 -0.0024495096848113464 0.0017791131393043312 0.0061334777809679518 0.0024496594514536868 -0.0049002824255942627 0.00016242530405649852 5.9836704627071562e-05 -0.00010111258422280629
leaf_weight=9350 2311 22 337 7504 22 102 26 21 24 32 22 20 36 1340 20 137 24 38 51 58 29 29 20 412 20 34 22 29 38 169
leaf_count=9350 2311 22 337 7504 22 102 26 21 24 32 22 20 36 1340 20 137 24 38 51 58 29 29 20 412 20 34 22 29 38 169
internal_value=0 -0.000136808 -0.000644761 1.8609e-05 6.75183e-05 0.000410649 0.0016651 0.000866638 0.0028052 0.000234315 0.00147495 0.000283524 0.000229188 0.000277493 0.00249954 0.000742317 0.0031942 0.000983194 0.000855221 0.00100894 0.00129687 -0.000296574 0.00158508 0.00178468 0.0019807 -4.28764e-05 -0.000507726 -0.00202149 0.001283 -0.000418934
internal_weight=0 2670 359 19629 12125 2775 342 316 126 2433 102 2401 2357 2321 80 947 44 794 756 705 568 87 481 452 432 1374 153 51 58 190
internal_count=22299 2670 359 19629 12125 2775 342 316 126 2433 102 2401 2357 2321 80 947 44 794 756 705 568 87 481 452 432 1374 153 51 58 190
shrinkage=0.05


Tree=74
num_leaves=31
num_cat=0
split_feature=8 18 8 22 21 23 22 17 25 30 21 1 9 27 27 27 27 22 6 18 7 10 30 20 6 11 8 17 7 27
split_gain=0.0214716 0.0471406 0.0365913 0.916875 0.216338 0.0724335 0.0663942 0.026982 0.0440042 0.0260532 0.0264681 0.0263677 0.0258256 0.0283065 0.0397915 0.0230048 0.0266215 0.0220735 0.111419 0.0588423 0.218418 0.0577211 0.14342 0.0335362 0.048733 0.0228728 0.0228486 0.0422065 0.341034 0.382103
threshold=-5.9361049999999993e-05 0.038882050000000008 -9.8723849999999978e-06 -0.6849559999999999 6.0983350000000014 -0.44301499999999999 -0.6849559999999999 -0.13629249999999996 0.11020600000000001 -2.0636199999999998 5.4289250000000004 -10.915599999999998 -3.1018899999999996e-06 0.49288650000000006 -1.2254739999999997 -0.51466749999999983 0.95334075000000007 0.49056700000000003 -4.7213149999999994e-05 0.048291950000000007 0.0027443100000000002 -1.148465e-07 -3.1346799999999995 -0.00058739099999999993 1.2728900000000001e-05 0.00473479 1.006097e-05 -0.11302099999999998 0.0033772100000000007 0.38594850000000003
decision_type=2 2 2 2 2 2 2 2 2 2 2 2 2 2 2 2 2 2 2 2 2 2 2 2 2 2 2 2 2 2
left_child=1 -1 3 4 -2 -5 9 -7 -9 11 12 -4 -11 14 -14 -12 -17 19 -19 26 -21 22 -20 24 -23 -25 27 28 -8 -30
right_child=2 -3 6 5 -6 7 17 8 -10 10 15 -13 13 -15 -16 16 -18 18 21 20 -22 23 -24 25 -26 -27 -28 -29 29 -31
leaf_value=-0.00011057013867333374 0.0040441914252005518 -0.0015927530920386993 -0.0017264147602033448 0.0028366496961098166 0.011398400408215822 -0.001048081028188633 5.4282088164887425e-05 1.7380341794039451e-05 0.002270897104145578 0.00087211222106935063 -0.00062948720226995651 -7.9347508705155493e-07 -0.0004191465081281162 -3.175478659859682e-05 -0.0035353958228370175 -0.0038308345553343228 -0.0014373066967192036 -0.0040047722058079672 -0.00065709853393359076 -0.0007731612523510943 0.0058118482297868472 -0.00058925124170119937 0.0039719984323407214 -0.00035451010126203754 -0.0035360824262897954 0.0014273503149524914 -9.8400664641928089e-05 2.4470766184373336e-05 0.0080067963368492204 -0.00045750405812820349
leaf_weight=2178 20 55 26 23 20 58 481 1413 22 23 25 149 21 37 20 21 26 20 44 34 20 47 27 181 20 20 3670 13544 30 24
leaf_count=2178 20 55 26 23 20 58 481 1413 22 23 25 149 21 37 20 21 26 20 44 34 20 47 27 181 20 20 3670 13544 30 24
internal_value=0 -0.000147077 1.63671e-05 0.000249244 0.0077213 5.20926e-05 -3.20913e-06 9.19589e-06 5.1929e-05 -0.000687316 -0.00112243 -0.000257171 -0.000600261 -0.00103442 -0.00193927 -0.00185493 -0.00250676 9.89896e-06 -0.000378272 1.77265e-05 0.00166573 -0.000164319 0.00110326 -0.000500134 -0.0014689 -0.000177211 1.27126e-05 4.16766e-05 0.000477259 0.00424489
internal_weight=0 2233 20066 1556 40 1516 18510 1493 1435 348 173 175 101 78 41 72 47 18162 359 17803 54 339 71 268 67 201 17749 14079 535 54
internal_count=22299 2233 20066 1556 40 1516 18510 1493 1435 348 173 175 101 78 41 72 47 18162 359 17803 54 339 71 268 67 201 17749 14079 535 54
shrinkage=0.05


Tree=75
num_leaves=31
num_cat=0
split_feature=15 8 26 8 22 23 22 13 4 19 17 30 1 21 9 27 27 21 27 27 22 6 26 6 10 30 20 30 27 27
split_gain=0.0195438 0.0226288 0.0535732 0.0421548 0.84127 0.0716756 0.0600956 0.0331597 0.0245467 0.0259808 0.022976 0.0226394 0.0267424 0.0238875 0.0233076 0.0255466 0.0359118 0.0221982 0.0207618 0.0240259 0.0199213 0.100556 0.0557432 0.386656 0.0520933 0.129437 0.0302664 0.0457688 0.0230849 0.17482
threshold=2.6390250000000006 -4.4646249999999989e-05 0.022310250000000004 -9.8723849999999978e-06 -0.6849559999999999 -0.33569149999999998 -0.6849559999999999 2.9842100000000005 -0.0002975264999999999 -9.0404899999999984 -0.13629249999999996 -2.0636199999999998 -10.915599999999998 5.4289250000000004 -3.1018899999999996e-06 0.49288650000000006 -1.2254739999999997 1.2951400000000002 -0.51466749999999983 0.95334075000000007 0.49056700000000003 -4.7213149999999994e-05 0.039803500000000012 4.3058400000000001e-05 -1.148465e-07 -3.1346799999999995 -0.00058739099999999993 -2.9650249999999994 -0.30126800000000004 0.044107999999999932
decision_type=2 2 2 2 2 2 2 2 2 2 2 2 2 2 2 2 2 2 2 2 2 2 2 2 2 2 2 2 2 2
left_child=1 2 -1 4 -3 -6 11 10 -4 -10 17 12 -5 14 -13 16 -16 -7 -15 -20 22 -22 28 -24 25 -23 27 -26 -8 -30
right_child=-2 3 8 6 5 7 20 -9 9 -11 -12 13 -14 18 15 -17 -18 -19 19 -21 21 24 23 -25 26 -27 -28 -29 29 -31
leaf_value=-9.1844792196423515e-05 0.0014895303533359601 0.0081736918524697878 -0.0024788265800452791 -0.0018513252676877366 0.0026334959461733146 2.0714551646960901e-05 -5.2568679522590746e-05 0.0019525322862023132 -0.0022285571087749026 -0.00027711784258082679 3.6897315245691215e-05 0.0008285066317591333 2.9588489782489985e-05 -0.00059801282873377212 -0.00039818918351860094 -3.0167047264734032e-05 -0.003358626019326039 -0.0022008562712353126 -0.003639292891810848 -0.0013654413661592676 -0.0038045335419155894 -0.00062424361587380358 -0.00048371749474091831 0.0070433758952607277 -0.00054297862330481331 0.0037733985477610039 -0.00016835002426199739 -0.0033987819857429716 0.0005413391423854866 -3.1913026441965639e-05
leaf_weight=2390 22 33 28 22 27 22 8008 22 23 66 1152 23 134 25 21 37 20 23 21 26 20 44 76 22 47 27 201 20 1591 8106
leaf_count=2390 22 33 28 22 27 22 8008 22 23 66 1152 23 134 25 21 37 20 23 21 26 20 44 76 22 47 27 201 20 1591 8106
internal_value=0 -1.47101e-06 -0.000142985 1.64741e-05 0.000294084 8.53947e-05 -2.72784e-06 2.89561e-05 -0.00118764 -0.000781422 -6.39788e-06 -0.000672451 -0.000235669 -0.00106631 -0.000570248 -0.000982701 -0.0018423 -0.00111475 -0.00176218 -0.00238142 9.40401e-06 -0.000359358 1.68402e-05 0.00120604 -0.000156103 0.0010481 -0.000475127 -0.00139546 1.02578e-05 6.21412e-05
internal_weight=0 22277 2507 19770 1279 1246 18491 1219 117 89 1197 329 156 173 101 78 41 45 72 47 18162 359 17803 98 339 71 268 67 17705 9697
internal_count=22299 22277 2507 19770 1279 1246 18491 1219 117 89 1197 329 156 173 101 78 41 45 72 47 18162 359 17803 98 339 71 268 67 17705 9697
shrinkage=0.05


Tree=76
num_leaves=31
num_cat=0
split_feature=2 11 22 17 27 27 17 27 24 3 2 11 15 10 15 7 8 27 27 17 1 30 1 19 30 22 11 8 19 20
split_gain=0.0190883 0.0494282 0.144647 0.0392168 0.0838977 0.147003 0.0363739 0.0673803 0.0602149 0.201939 0.028706 0.0494065 1.40574 0.498066 0.0651357 0.129506 0.0448326 0.0406779 0.31697 0.316256 0.275662 0.175127 0.407524 0.217543 0.177163 0.201488 0.160612 0.187076 0.224591 0.218564
threshold=-2.4210399999999992 -0.0042189849999999989 -0.0010706349999999997 -0.085570549999999981 0.23661500000000005 -0.30126800000000004 2.4687050000000004 -0.35332384999999972 0.0003820330000000001 2.1144550000000001e-05 1.7689400000000002 0.00030319250000000004 0.68317950000000016 7.9733550000000025e-06 1.0940150000000004 0.0025550350000000002 -1.4587449999999997e-06 -0.30126800000000004 0.1562649999999999 -0.14520449999999999 -7.3077349999999992 1.5539100000000003 -13.373099999999999 0.22363950000000002 -0.34826499999999999 -0.0093454599999999981 -4.8256399999999994e-05 8.7851900000000014e-07 -0.071084849999999991 -1.0573149999999997e-05
decision_type=2 2 2 2 2 2 2 2 2 2 2 2 2 2 2 2 2 2 2 2 2 2 2 2 2 2 2 2 2 2
left_child=3 2 -2 4 5 -1 8 -8 10 -10 11 14 -13 -14 17 16 -16 -3 19 20 -19 22 23 -21 -24 -26 -27 29 -29 -28
right_child=1 6 -4 -5 -6 -7 7 -9 9 -11 -12 12 13 -15 15 -17 -18 18 -20 21 -22 -23 24 -25 25 26 27 28 -30 -31
leaf_value=-0.00055066218805763668 0.0049362839914829241 -5.5437565054116756e-05 -0.00012480209299307415 -7.0070853055289654e-05 -0.00013481834545801862 -0.0058711938513442878 -0.0001054581033425099 -0.0027810610033515279 -0.00048123809312691714 0.0056983331801893659 -0.00012054182475949942 -0.0001163407776000462 0.015130220684632151 0.0039715233547394741 0.0015349129426638309 -0.0034819518228933043 -0.0005544029231089098 0.0073309884194962 -4.6965863989090255e-05 0.0024448711432558073 2.9320845247379373e-06 -0.00074929629273218831 -3.7024444320593044e-05 0.0075734448102034203 0.0051921333063891613 -0.0033698312242146735 -0.0021654046770501218 0.0062922770611476154 -0.00015473791228776631 0.0011322798111802991
leaf_weight=37 20 6556 48 2762 137 20 82 33 39 20 3294 628 20 20 29 37 224 33 6572 101 21 212 676 26 29 21 56 35 22 489
leaf_count=37 20 6556 48 2762 137 20 82 33 39 20 3294 628 20 20 29 37 224 33 6572 101 21 212 676 26 29 21 56 35 22 489
internal_value=0 1.80843e-05 0.00136375 -0.000118337 -0.000805508 -0.00241752 1.33369e-05 -0.00087324 1.86582e-05 0.00161353 1.37319e-05 4.1713e-05 0.000462534 0.00955087 2.31445e-05 -0.000718986 -0.000314916 3.76383e-05 0.000111219 0.000715281 0.00448119 0.00059329 0.000788911 0.00349482 0.000530139 0.00111818 0.000928541 0.00107848 0.00380396 0.000793435
internal_weight=0 19343 68 2956 194 57 19275 115 19160 59 19101 15807 668 40 15139 290 253 14849 8293 1721 54 1667 1455 127 1328 652 623 602 57 545
internal_count=22299 19343 68 2956 194 57 19275 115 19160 59 19101 15807 668 40 15139 290 253 14849 8293 1721 54 1667 1455 127 1328 652 623 602 57 545
shrinkage=0.05


Tree=77
num_leaves=31
num_cat=0
split_feature=2 11 25 23 27 24 23 27 27 2 11 15 30 30 12 25 30 27 27 15 3 22 7 22 26 30 1 27 27 16
split_gain=0.0172272 0.0446089 0.137561 0.0411383 0.0798875 0.0407338 0.0355567 0.0256263 0.167398 0.0241637 0.0508153 1.2182 0.541032 0.678761 0.495446 0.1105 0.0999959 0.0998048 0.253846 0.0782835 0.15815 0.0421305 0.0304312 0.0290471 0.0323565 0.027813 0.103549 0.142255 0.443788 0.40415
threshold=-2.4210399999999992 -0.0042189849999999989 0.0021816350000000003 -6.5773949999999992 -0.89802249999999995 0.00055018350000000016 0.048279850000000006 0.33758199999999999 -0.22542900000000002 1.7689400000000002 3.0948650000000007e-05 0.68317950000000016 -4.3821099999999999 2.2384500000000007 8.7498650000000013e-05 -0.18951049999999997 -1.1509949999999998 -0.42604449999999999 0.77616000000000018 0.34526250000000008 1.0282800000000001e-05 3.1794550000000004 0.0012826400000000003 -1.5107249999999997 0.12041550000000001 1.1659150000000011 -13.528999999999998 0.20940800000000012 -0.22542900000000002 1.1554350000000002
decision_type=2 2 2 2 2 2 2 2 2 2 2 2 2 2 2 2 2 2 2 2 2 2 2 2 2 2 2 2 2 2
left_child=6 2 -2 4 -3 9 -1 8 -8 10 15 19 -13 14 -14 16 -5 -18 -19 -12 -21 25 -22 -11 -25 26 27 28 -17 -30
right_child=1 3 -4 5 -6 -7 7 -9 -10 23 11 12 13 -15 -16 21 17 18 -20 20 22 -23 -24 24 -26 -27 -28 -29 29 -31
leaf_value=-6.6208442040146769e-05 -0.00015607152524050132 -0.00017954344947221606 0.0047794927344511967 -0.00037816851830496504 -0.0038608938875768217 0.001674666913341089 -0.00028847282135477425 -0.00019143422576940348 -0.0054158622073009616 -0.0016323110911123937 -0.00014869252829497696 -0.00058528782473230327 0.015148998727818254 -0.00031624507893866392 0.0059011110696883407 -0.00057005681111770392 -0.00028001551403980963 -0.0077991480669218367 -0.00077650339357675084 0.0045272696108710347 0.001763148965500687 0.0019347050072673453 -0.00018895437788794584 -0.00010889786792532113 0.0016291789033318679 -9.8237511716574755e-05 3.8534432158010875e-05 -0.00043811281656650137 0.0025104708013515492 0.010392873212695122
leaf_weight=2760 48 56 20 269 20 37 78 98 20 31 1482 27 28 20 30 107 36 22 31 27 26 29 86 3244 27 3355 10057 121 87 20
leaf_count=2760 48 56 20 269 20 37 78 98 20 31 1482 27 28 20 30 107 36 22 31 27 26 29 86 3244 27 3355 10057 121 87 20
internal_value=0 1.71801e-05 0.00129557 1.26701e-05 -0.00114832 1.72659e-05 -0.00011242 -0.000763157 -0.00133488 1.40656e-05 3.9685e-05 0.000295796 0.00551502 0.00762667 0.0103656 8.40953e-06 -0.000858829 -0.00231161 -0.00369156 -4.2279e-05 0.00109229 3.09467e-05 0.000264212 -0.000108988 -9.45512e-05 2.69306e-05 6.73404e-05 0.000932121 0.00170688 0.00398382
internal_weight=0 19343 68 19275 76 19199 2956 196 98 19162 15860 1726 105 78 58 14134 358 89 53 1621 139 13776 112 3302 3271 13747 10392 335 214 107
internal_count=22299 19343 68 19275 76 19199 2956 196 98 19162 15860 1726 105 78 58 14134 358 89 53 1621 139 13776 112 3302 3271 13747 10392 335 214 107
shrinkage=0.05


Tree=78
num_leaves=31
num_cat=0
split_feature=9 21 1 27 27 25 27 25 11 9 15 1 31 22 30 30 16 14 10 16 30 4 22 25 3 8 22 17 11 20
split_gain=0.0157439 0.0377488 0.0497485 0.0226233 0.126317 0.245897 0.127375 0.137205 0.950027 0.112119 0.0682455 0.0642463 0.144885 0.125335 0.0689017 0.111808 0.0725925 0.0541125 0.0659309 0.0565237 0.146298 0.0515796 0.0437637 0.113779 0.0396095 0.0388337 0.0496048 0.0376392 0.0304635 0.0285263
threshold=6.6670550000000008e-05 0.71875300000000009 -17.461949999999998 0.60370500000000005 -0.017273000000000035 1.3911100000000001 0.044107999999999932 -0.04896579999999999 0.00014297300000000004 -7.3862399999999993e-07 0.97722050000000016 -11.162099999999999 0.54846999999999968 -0.0073437949999999993 1.6149950000000002 0.49994999999999928 0.33230850000000006 -11.020599999999998 1.5853600000000001e-06 2.6117300000000006 0.22406500000000043 3.4705950000000006e-05 0.25632850000000007 0.18471500000000005 6.4921000000000009e-06 7.7980400000000022e-08 0.00014470650000000001 -1.0654399999999997 -4.9244999999999992e-06 0.00011133000000000002
decision_type=2 2 2 2 2 2 2 2 2 2 2 2 2 2 2 2 2 2 2 2 2 2 2 2 2 2 2 2 2 2
left_child=3 -2 -3 4 27 6 11 8 9 -8 -11 12 14 -13 15 16 28 18 -15 20 21 25 23 29 -5 -19 -27 -1 -6 -9
right_child=1 2 -4 24 5 -7 7 22 -10 10 -12 13 -14 17 -16 -17 -18 19 -20 -21 -22 -23 -24 -25 -26 26 -28 -29 -30 -31
leaf_value=0.0015487657372815229 -3.9815010766135769e-05 -0.0028945640298347411 -0.00044052758601521597 0.001975265191132771 0.00048425550895362079 0.0052210508397995282 -0.0044240299772354778 -7.5176176785867114e-05 0.00891249823652095 0.0018910388229123783 -0.0015502687920268406 -0.0030766140447336843 0.0056156469403677405 -0.0030046326518640854 -0.00066153879398418789 0.0048380256678986679 -0.00080053021615770256 0.0015001587205104268 0.00096191683022136046 0.0034223098693473733 -0.0030526058566149161 -0.0012409924210616105 -0.002058575076912698 0.0035003116980078632 -5.9244860448351977e-05 -0.0012059140101294309 0.0012321035235395863 -2.7921896218468564e-05 0.0027545353605010962 0.0014337872881242221
leaf_weight=38 2311 22 337 24 22 26 20 1475 33 25 34 22 21 20 38 24 35 269 22 22 23 23 26 23 7480 34 54 9719 45 32
leaf_count=38 2311 22 337 24 22 26 20 1475 33 25 34 22 21 20 38 24 35 269 22 22 23 23 26 23 7480 34 54 9719 45 32
internal_value=0 -0.000113914 -0.000590914 1.5495e-05 5.77234e-05 0.000385311 0.000331626 9.72298e-05 0.00178749 -0.00118878 -9.20876e-05 0.000911705 0.00170536 0.000611446 0.00120465 0.00176747 0.00104499 0.000785188 -0.000926916 0.000954384 0.000819659 0.00105403 -2.44341e-05 1.0133e-05 -5.27379e-05 0.00120189 0.000290142 -2.17813e-05 0.00200907 -4.31345e-05
internal_weight=0 2670 359 19629 12125 2368 2342 1668 112 79 59 674 185 489 164 126 102 467 42 425 403 380 1556 1530 7504 357 88 9757 67 1507
internal_count=22299 2670 359 19629 12125 2368 2342 1668 112 79 59 674 185 489 164 126 102 467 42 425 403 380 1556 1530 7504 357 88 9757 67 1507
shrinkage=0.05


Tree=79
num_leaves=31
num_cat=0
split_feature=27 23 2 11 25 10 25 30 3 0 22 16 6 25 23 27 27 20 10 10 0 5 13 25 30 31 27 27 22 17
split_gain=0.0158059 0.133918 0.0175846 0.0427472 0.966026 0.545951 0.0607686 0.0922272 0.0874981 0.0340283 0.0299526 0.0293972 0.0262112 0.0252632 0.0324772 0.0272544 0.130605 0.0242845 0.223054 0.514302 0.0359656 0.0700356 0.0360124 0.0182799 0.0181935 0.102463 0.0737204 0.177077 0.167602 0.142179
threshold=5.391045000000001 -0.007024574999999999 1.7689400000000002 0.00030319250000000004 -0.04896579999999999 9.6014500000000011e-06 -0.28524949999999993 -0.34826499999999999 1.3964800000000001e-05 11.342750000000002 -1.5107249999999997 14.809700000000001 0.00016776800000000002 -0.80259099999999994 -0.051097699999999996 -0.37395999999999979 0.31155200000000016 0.0016195950000000004 -1.2766349999999999e-06 -2.8658149999999996e-05 3.3901000000000008 -1.4277499999999998e-05 0.13552450000000002 -0.0090344649999999985 0.54938500000000012 0.23124499999999995 -0.30126800000000004 0.13134950000000004 -0.020437099999999996 0.021768900000000004
decision_type=2 2 2 2 2 2 2 2 2 2 2 2 2 2 2 2 2 2 2 2 2 2 2 2 2 2 2 2 2 2
left_child=2 -2 3 6 5 -5 7 9 -9 -1 -4 12 23 -12 15 -15 -17 24 19 -19 21 -20 -22 -6 25 26 -8 28 -28 -30
right_child=1 -3 10 4 11 -7 17 8 -10 -11 13 -13 -14 14 -16 16 -18 18 20 -21 22 -23 -24 -25 -26 -27 27 -29 29 -31
leaf_value=-0.00047137083138974859 0.004323789481668428 -2.5199857519545695e-05 -0.0015866307536057053 0.013474103833349155 0.0010223060724281043 0.0019312269218244183 -9.7804718725327125e-05 -0.00035698047426156645 -0.0044383192304441521 0.0016271965279061294 0.0014884683787240649 -0.0018734674243288199 0.0014811817237516932 -0.00013218144094253147 -7.0519949653556225e-05 -0.00463248445176641 -0.00021106913953219909 -0.00064571692130288507 -0.00043627268973068568 0.0092237155709881339 -0.00014089793778222169 0.002655329066138897 -0.0025141721262761786 -0.00015662114175661775 -6.7824576128774143e-05 -1.6319123359230533e-05 0.0057154754371731547 -6.2332250161404326e-05 0.00086759224776065773 0.0041989952582619427
leaf_weight=241 20 154 34 21 35 20 485 24 29 21 25 22 28 80 3074 23 61 33 90 22 33 23 31 543 5671 10358 20 492 552 34
leaf_count=241 20 154 34 21 35 20 485 24 29 21 25 22 28 80 3074 23 61 33 90 22 33 23 31 543 5671 10358 20 492 552 34
internal_value=0 0.000474684 -3.73311e-06 1.492e-05 0.000407433 0.00784343 4.5933e-07 -0.000687962 -0.00259017 -0.000303165 -0.000110254 -7.80378e-05 -1.28572e-05 -9.48708e-05 -0.000107095 -0.000792664 -0.00142169 1.2612e-05 0.000520828 0.00330206 -0.000343395 0.000192991 -0.00129045 -8.52328e-05 5.91738e-06 4.09388e-05 0.000415593 0.000642367 0.0012145 0.00106088
internal_weight=0 174 22125 18828 669 41 18159 315 53 262 3297 628 606 3263 3238 164 84 17844 232 55 177 113 64 578 17612 11941 1583 1098 606 586
internal_count=22299 174 22125 18828 669 41 18159 315 53 262 3297 628 606 3263 3238 164 84 17844 232 55 177 113 64 578 17612 11941 1583 1098 606 586
shrinkage=0.05


Tree=80
num_leaves=31
num_cat=0
split_feature=15 2 11 15 27 27 6 25 30 0 22 26 12 3 27 27 18 30 15 30 27 27 15 7 21 6 23 30 30 27
split_gain=0.0149604 0.0165229 0.040515 1.0231 0.547596 0.748555 0.467992 0.103502 0.0727466 0.097625 0.0458239 0.0392357 0.172791 0.051264 0.034695 0.0591807 0.0325659 0.0496364 0.103646 0.0313568 0.0347106 0.0834776 0.025284 0.0633982 0.0227983 0.0342368 0.0215174 0.0190473 0.0782988 0.0723331
threshold=2.6390250000000006 1.7689400000000002 3.0948650000000007e-05 0.56702800000000009 -0.64621549999999994 0.41121150000000001 4.1568450000000003e-05 -0.18951049999999997 -1.0069999999999999 4.9305950000000012 0.49056700000000003 0.5520425000000001 0.0057751600000000005 2.5815900000000001e-05 -1.2254739999999997 1.1353473000000003 0.0043382300000000011 1.1659150000000011 0.92477500000000001 -0.41764500000000021 0.77616000000000018 -0.98495849999999985 0.34526250000000008 0.0018826950000000002 0.23176950000000004 0.00016776800000000002 -0.8573869999999999 0.54938500000000012 -0.34826499999999999 0.13134950000000004
decision_type=2 2 2 2 2 2 2 2 2 2 2 2 2 2 2 2 2 2 2 2 2 2 2 2 2 2 2 2 2 2
left_child=1 2 7 10 -5 6 -6 8 -1 14 22 26 13 -13 -10 -16 -3 19 -19 -18 21 -21 24 -24 25 -4 -9 28 -28 -30
right_child=-2 16 3 4 5 -7 -8 11 9 -11 -12 12 -14 -15 15 -17 17 18 -20 20 -22 -23 23 -25 -26 -27 27 -29 29 -31
leaf_value=-0.00036149444271007185 0.0013032157083216591 -4.1294853654708894e-05 -7.0149789647001658e-05 -0.00037007839339976939 0.0066651129371938156 0.0012876524564536598 0.016213267190115795 -0.0012500387151757261 8.2568530981406206e-06 -0.0046595418608982682 -0.0024246469121343189 -0.00042460230437923612 0.0051542348950169986 0.0023797459458364759 -0.0040120182703027411 -0.00068876378767576219 -0.00056188179502887929 -0.00026895113409581108 0.0036467846063897012 -0.00054345243548926774 -0.00044201613995634636 -0.0050067250843449079 0.0025317066061688823 -0.00011120428496852607 -0.0005462068688386135 0.0020159990584943444 -9.9904892299410596e-06 -6.9414162342930694e-05 0.00057578959947375053 -0.00012110464329221818
leaf_weight=310 22 2856 1182 41 33 39 21 34 41 24 21 88 20 20 21 37 260 109 20 22 30 20 32 78 267 20 9631 5276 1180 544
leaf_count=310 22 2856 1182 41 33 39 21 34 41 24 21 88 20 20 21 37 260 109 20 22 30 20 32 78 267 20 9631 5276 1180 544
internal_value=0 -1.28701e-06 1.6724e-05 0.000247094 0.00444383 0.00656608 0.0103783 -6.46545e-06 -0.000769724 -0.00179859 -0.000104382 1.32148e-05 0.00088527 9.47214e-05 -0.00110503 -0.00189201 -0.000104238 -0.000494187 0.00033814 -0.000817591 -0.00174099 -0.00266882 -7.35235e-05 0.000657643 -0.000128274 -3.54385e-05 6.51677e-06 9.08564e-06 4.55599e-05 0.000355888
internal_weight=0 22277 18960 1734 134 93 54 17226 433 123 1600 16793 128 108 99 58 3317 461 129 332 72 42 1579 110 1469 1202 16665 16631 11355 1724
internal_count=22299 22277 18960 1734 134 93 54 17226 433 123 1600 16793 128 108 99 58 3317 461 129 332 72 42 1579 110 1469 1202 16665 16631 11355 1724
shrinkage=0.05


Tree=81
num_leaves=31
num_cat=0
split_feature=31 21 4 14 3 11 17 27 27 20 3 25 7 27 27 24 22 20 27 23 30 17 4 15 23 14 24 16 12 27
split_gain=0.0153509 0.112244 0.0263579 0.0204664 0.0223098 0.0147969 0.0389194 0.0925219 0.107092 0.0241585 0.154391 0.0207205 0.100931 0.0191138 0.121332 0.31941 0.134141 0.129702 0.0939001 0.129515 0.239769 0.0790565 0.246296 0.20358 0.074733 0.074884 0.0456322 0.0570689 0.0620278 0.127734
threshold=14.672985000000002 70.125000000000014 -9.1076949999999978e-05 -21.761999999999997 1.3536250000000003e-05 -0.001413805 -0.085570549999999981 0.23661500000000005 -0.42604449999999999 0.0024570250000000003 2.5278350000000005e-05 3.3977150000000003 0.00082317850000000021 0.41121150000000001 -0.017273000000000035 3.2690150000000004e-05 0.49056700000000003 0.00013560600000000003 0.044107999999999932 -0.051097699999999996 -1.9270500000000002 0.0058494350000000009 1.6086700000000003e-05 0.17710500000000004 0.0017623750000000003 -10.053299999999998 -1.7984249999999999e-06 3.1555500000000003 1.1867000000000002e-05 0.18449200000000018
decision_type=2 2 2 2 2 2 2 2 2 2 2 2 2 2 2 2 2 2 2 2 2 2 2 2 2 2 2 2 2 2
left_child=1 3 -2 4 -1 6 7 8 -5 11 -11 13 -13 14 -7 16 17 18 21 20 -20 -16 24 -24 25 -23 -21 -28 29 -29
right_child=2 -3 -4 5 -6 9 -8 -9 -10 10 -12 12 -14 -15 15 -17 -18 -19 19 26 -22 22 23 -25 -26 -27 27 28 -30 -31
leaf_value=-0.0023000110671910082 -0.0021288671469284009 0.0027552871991124326 -0.00023981138867467511 -0.00050611220390237575 -0.00018368116696806144 -1.4184002829883346e-05 -6.1387495239444506e-05 -0.0001000127049029321 -0.0053953349590301521 -0.00037161693398957141 0.0046906291050254371 0.0012174576642396658 -0.0035769598694362992 -4.4573724459100011e-05 0.0011439565151741885 0.0061614919909819344 -0.0037170947052072734 0.0036065211898887589 -0.00027616861590297161 0.0016288212263086616 0.0064625897868113083 0.0041182226167250152 -0.0056536102701162843 0.00052468294109833853 -0.00075228431677395438 0.00095551586332998139 -1.260352553539163e-05 -0.005253959700222249 1.6787813396861212e-05 -0.0001386731592132352
leaf_weight=20 21 37 153 24 33 9583 2509 111 21 61 20 23 21 7846 484 24 20 31 33 38 22 27 30 24 37 61 890 23 46 26
leaf_count=20 21 37 153 24 33 9583 2509 111 21 61 20 23 21 7846 484 24 20 31 33 38 22 27 30 24 37 61 890 23 46 26
internal_value=0 3.67898e-06 -0.000467801 -9.30291e-07 -0.000982296 1.43015e-06 -0.000109032 -0.000875321 -0.00278775 1.6628e-05 0.00087832 1.30095e-05 -0.00107079 1.54874e-05 5.68279e-05 0.000431556 0.000354816 0.000400774 0.000343693 5.57209e-05 0.00241933 0.00081192 -8.58769e-05 -0.0029077 0.00113315 0.00192589 -7.13551e-05 -0.000136946 -0.00130184 -0.00253973
internal_weight=0 22125 174 22088 53 22035 2665 156 45 19370 81 19289 44 19245 11399 1816 1792 1772 1741 1078 55 663 179 54 125 88 1023 985 95 49
internal_count=22299 22125 174 22088 53 22035 2665 156 45 19370 81 19289 44 19245 11399 1816 1792 1772 1741 1078 55 663 179 54 125 88 1023 985 95 49
shrinkage=0.05


Tree=82
num_leaves=31
num_cat=0
split_feature=27 0 2 11 15 10 15 1 27 24 30 30 19 6 20 10 10 0 5 13 27 27 30 30 27 27 20 25 2 22
split_gain=0.0145044 0.126608 0.0142779 0.0349728 0.933389 0.396217 0.0604738 0.0828191 0.078381 0.0294422 0.031174 0.0261832 0.0238199 0.0234295 0.0195573 0.197678 0.462735 0.0311587 0.0626418 0.0328192 0.0171429 0.109024 0.0166387 0.0737552 0.0603127 0.116152 0.180486 0.110455 0.199996 0.195445
threshold=5.391045000000001 0.68426300000000018 1.7689400000000002 0.00030319250000000004 0.68317950000000016 6.7812400000000007e-06 1.0940150000000004 -12.395199999999997 0.43870000000000015 7.0096650000000009e-06 5.5193900000000005 -0.41764500000000021 -0.52516899999999989 0.00016776800000000002 0.0016195950000000004 -1.2766349999999999e-06 -2.8658149999999996e-05 3.3901000000000008 -1.4277499999999998e-05 0.13552450000000002 -0.35332384999999972 0.31155200000000016 0.44810500000000003 -0.22689999999999963 -0.30126800000000004 0.13134950000000004 2.8403000000000002e-05 -0.0016129199999999997 0.22711450000000002 -0.0032908799999999995
decision_type=2 2 2 2 2 2 2 2 2 2 2 2 2 2 2 2 2 2 2 2 2 2 2 2 2 2 2 2 2 2
left_child=2 -2 3 6 12 -6 14 8 -8 -4 20 -9 -5 -14 22 16 -16 18 -17 -19 -11 -22 23 -1 -25 26 27 28 -26 -29
right_child=1 -3 9 4 5 -7 7 11 -10 10 -12 -13 13 -15 15 17 -18 19 -20 -21 21 -23 -24 24 25 -27 -28 29 -30 -31
leaf_value=-5.5823585740342227e-06 0.0040952237833629451 -4.4956966578329353e-05 -6.2818876147191453e-05 -0.001144705496884782 0.012714191298000516 0.0028807882319337556 -0.0040004157793987359 -0.00039003070420873866 -0.00069846972250294436 -0.00026769791207310634 0.0011084929991527913 0.0014861103455768899 -8.6598463721723889e-05 0.0014493505521946087 -0.00065722553770297752 -0.00044028081340608574 0.0087043556331826196 -0.00012850809728137612 0.0024835775232729604 -0.0023941241107099959 -0.0046449422747537033 -0.00054649582996579588 -6.2296569724780375e-05 -0.00012030602264620792 -0.0052194826269987976 -2.9803465995446524e-05 0.0053913272876778377 0.0049913819033342108 0.0016170591075459252 0.00083195675339419991
leaf_weight=10331 21 153 3109 51 20 21 32 265 41 61 21 20 551 26 33 90 22 33 23 31 20 86 5794 430 20 436 23 30 23 482
leaf_count=10331 21 153 3109 51 20 21 32 265 41 61 21 20 551 26 33 90 22 33 23 31 20 86 5794 430 20 436 23 30 23 482
internal_value=0 0.00045472 -3.5761e-06 1.3232e-05 0.000368263 0.00767757 1.52187e-07 -0.000643258 -0.0021459 -9.9561e-05 -0.000707174 -0.000258372 -0.000108937 -1.73876e-05 1.3092e-05 0.000469163 0.00308741 -0.000344416 0.000154841 -0.00122592 -0.000935491 -0.00131979 7.06951e-06 4.12017e-05 0.000375915 0.000586345 0.00105112 0.000871256 -0.00156273 0.00107567
internal_weight=0 174 22125 18828 669 41 18159 358 73 3297 188 285 628 577 17801 232 55 177 113 64 167 106 17569 11775 1444 1014 578 555 43 512
internal_count=22299 174 22125 18828 669 41 18159 358 73 3297 188 285 628 577 17801 232 55 177 113 64 167 106 17569 11775 1444 1014 578 555 43 512
shrinkage=0.05


Tree=83
num_leaves=31
num_cat=0
split_feature=30 21 4 19 14 3 30 22 30 7 17 27 27 16 22 10 27 1 18 9 9 8 8 10 26 10 20 23 30 0
split_gain=0.0135064 0.0996879 0.0248933 0.0185781 0.0181683 0.020236 0.017268 0.0145576 0.0463107 0.0122858 0.0361305 0.0773607 0.199261 0.0254447 0.0249069 0.0799288 0.201983 0.0294771 0.0270871 0.166837 0.31907 0.0727965 0.132802 0.0644512 0.105162 0.0323485 0.0219198 0.0214286 0.0197501 0.0275951
threshold=-14.631699999999999 70.125000000000014 -5.9570049999999997e-05 -29.258849999999995 -21.761999999999997 1.3536250000000003e-05 -1.1060349999999997 3.1794550000000004 -3.1346799999999995 0.020030800000000005 -0.048691849999999995 0.33758199999999999 -0.19554999999999986 60.368000000000002 0.49056700000000003 1.2644700000000002e-06 0.38594850000000003 -5.5799549999999991 0.025661000000000003 1.6821300000000004e-05 3.5987200000000007e-05 -1.5288449999999994e-05 -3.8846499999999993e-06 5.013010000000001e-07 0.045431750000000007 1.7935050000000002e-06 2.0320650000000003e-05 0.46573400000000004 -1.8793449999999992 8.0541100000000014
decision_type=2 2 2 2 2 2 2 2 2 2 2 2 2 2 2 2 2 2 2 2 2 2 2 2 2 2 2 2 2 2
left_child=2 3 -1 6 5 -5 -2 9 -9 14 11 12 26 -12 18 17 -17 -16 27 21 -21 -20 -23 28 -25 -26 -11 -6 -24 -30
right_child=1 -3 -4 4 7 -7 -8 8 -10 10 13 -13 -14 -15 15 16 -18 -19 19 20 -22 22 23 24 25 -27 -28 -29 29 -31
leaf_value=-0.0018645597845394291 -0.00027970759254458249 0.0025966164886970524 -0.00018870882835835803 -0.0021780848869821057 1.6982729300893372e-05 -0.00016251191983897254 -0.0020790828403551131 -0.00030972122854434149 0.0023444485588697719 0.0013751900152692543 -4.7783117089509319e-05 -6.5790345047616949e-05 -0.0047199220361006967 0.0016985919077082405 -0.00015017204623291036 -0.0058748451410792768 -4.9909971124367553e-05 0.0018755298462652026 -0.0024999383270579321 0.0080240516210687927 -0.00012903627837658859 0.0041967751504853367 -4.1475401043758867e-07 0.0032761533718953352 0.0011956334537535441 -0.00092400078658506067 -0.00068931663465466252 -0.0012394537472359577 -0.00055025390446222983 -0.0024196639349611361
leaf_weight=26 40 37 150 20 17867 33 20 42 27 20 3073 200 36 21 124 22 46 21 26 20 30 20 91 34 30 45 36 34 82 26
leaf_count=26 40 37 150 20 17867 33 20 42 27 20 3073 200 36 21 124 22 46 21 26 20 30 20 91 34 30 45 36 34 82 26
internal_value=0 3.47082e-06 -0.000436278 -8.73401e-07 1.52002e-06 -0.000923105 -0.000879499 3.75027e-06 0.000728867 1.46607e-06 -8.61057e-05 -0.000617763 -0.0018177 -3.59299e-05 1.74785e-05 -0.000520083 -0.00193445 0.000143205 2.37336e-05 0.000428602 0.0031322 4.67386e-05 0.000248609 -7.76507e-06 0.000969525 -7.61471e-05 4.80072e-05 1.45963e-05 -0.000543064 -0.0010003
internal_weight=0 22123 176 22086 22026 53 60 21973 69 21904 3386 292 92 3094 18518 213 68 145 18305 404 50 354 328 308 109 75 56 17901 199 108
internal_count=22299 22123 176 22086 22026 53 60 21973 69 21904 3386 292 92 3094 18518 213 68 145 18305 404 50 354 328 308 109 75 56 17901 199 108
shrinkage=0.05


Tree=84
num_leaves=31
num_cat=0
split_feature=27 23 30 15 4 14 3 27 27 24 3 22 20 27 20 30 15 9 16 11 17 1 26 17 4 17 3 23 16 27
split_gain=0.012991 0.118485 0.0123144 0.0579091 0.0238277 0.0195563 0.0194964 0.0119806 0.0743178 0.202603 0.105459 0.10406 0.206029 0.0815913 0.0764064 0.290972 0.0954954 0.0887286 0.076122 0.0929313 0.0517363 0.0658237 0.048455 0.0407466 0.0379843 0.0429541 0.0343919 0.0556683 0.0354981 0.108917
threshold=5.391045000000001 -0.007024574999999999 -14.631699999999999 -2.9729049999999995 -6.6900949999999985e-05 -21.761999999999997 1.3028200000000002e-05 0.41121150000000001 -0.017273000000000035 3.2690150000000004e-05 1.4649350000000002e-05 0.49056700000000003 0.00020448100000000004 0.01016000000000006 -6.961209999999999e-05 -2.8531699999999995 -0.62735149999999995 3.5688500000000004e-07 1.4831950000000003 -1.3257399999999998e-07 0.0095576400000000009 -10.645549999999998 0.0027998500000000004 0.95288800000000007 -4.5554549999999996e-05 0.0027011450000000007 9.5093600000000014e-06 -0.0016231449999999997 0.17527550000000003 0.062192999999999977
decision_type=2 2 2 2 2 2 2 2 2 2 2 2 2 2 2 2 2 2 2 2 2 2 2 2 2 2 2 2 2 2
left_child=2 -2 4 -4 -1 6 -5 8 -7 11 -11 12 13 18 15 -15 17 -16 20 -20 21 24 26 -9 -10 -26 27 -18 29 -28
right_child=1 -3 3 5 -6 7 -8 23 9 10 -12 -13 -14 14 16 -17 22 -19 19 -21 -22 -23 -24 -25 25 -27 28 -29 -30 -31
leaf_value=-0.0019215619735642457 0.0040508775937269093 -3.9855968482213517e-05 0.0023582381629519383 -0.0021285054129770117 -0.00019400264426929197 -2.0920535366167108e-05 -0.00025505847901868259 -5.0379161841842289e-05 0.0043497206323081629 0.006400116892473307 0.001265467219054699 -0.0031811369625343519 0.0053256560105364769 -0.00074867893908231063 -0.00048080809753049507 0.0055467463676528682 0.0030368917543620974 -0.0046383066418846809 0.0011989701524093425 -0.0032486780972249109 -0.00066816638767098384 0.00085221427681692443 0.002373860267901116 0.0021041003276795066 0.0010018463984875858 0.003688033642141487 -0.0037651857459702746 0.00032312439312937019 6.3968769207118827e-06 -9.1195327962749525e-05
leaf_weight=23 20 154 26 21 151 10963 41 8870 20 20 20 22 20 50 33 29 22 21 23 24 39 260 22 22 46 22 26 134 1065 90
leaf_count=23 20 154 26 21 151 10963 41 8870 20 20 20 22 20 50 33 29 22 21 23 24 39 260 22 22 46 22 26 134 1065 90
internal_value=0 0.000430343 -3.38439e-06 -6.32955e-08 -0.000422358 -2.85991e-06 -0.000889613 -3.45222e-07 3.03003e-05 0.000309949 0.00383279 0.000238346 0.000277004 0.000224578 4.9059e-05 0.0015623 -3.55454e-05 -0.00209761 0.000827975 -0.00107217 0.00105874 0.00125228 4.63911e-05 -4.50487e-05 0.00243427 0.00187091 8.09316e-06 0.000705835 -8.40726e-05 -0.000914676
internal_weight=0 174 22125 21951 174 21925 62 21863 12971 2008 40 1968 1946 1926 1492 79 1413 54 434 47 387 348 1359 8892 88 68 1337 156 1181 116
internal_count=22299 174 22125 21951 174 21925 62 21863 12971 2008 40 1968 1946 1926 1492 79 1413 54 434 47 387 348 1359 8892 88 68 1337 156 1181 116
shrinkage=0.05


Tree=85
num_leaves=31
num_cat=0
split_feature=4 26 1 8 21 7 19 15 11 27 1 30 22 15 2 2 6 15 30 11 0 24 23 1 30 4 23 25 11 7
split_gain=0.0122076 0.0589905 0.0314426 0.0210368 0.01452 0.163016 0.0171925 0.0176167 0.210661 0.0161369 0.0143085 0.0125762 0.0479182 0.0321433 0.559847 0.638409 0.371849 0.493966 0.065874 0.0882522 0.0807871 0.107529 0.0588127 0.0284166 0.028214 0.0630956 0.0271468 0.0270789 0.368077 0.561299
threshold=-0.0002975264999999999 0.015718100000000002 -15.456499999999998 -0.00029268399999999992 70.125000000000014 0.0048436200000000007 -29.258849999999995 1.5416250000000002 0.00015827550000000002 -0.27486499999999991 -8.2381549999999972 -4.5333949999999987 3.1794550000000004 0.54616000000000009 0.39091350000000008 0.9753535000000001 -1.6785899999999995e-05 0.74545400000000017 -0.82755000000000034 2.4958100000000002e-06 5.7269700000000006 2.8447450000000002e-06 0.30741550000000001 -14.412449999999998 2.5561500000000019 -2.8448049999999996e-05 -0.8573869999999999 0.18471500000000005 -7.7009949999999993e-05 0.0076471900000000008
decision_type=2 2 2 2 2 2 2 2 2 2 2 2 2 2 2 2 2 2 2 2 2 2 2 2 2 2 2 2 2 2
left_child=1 -1 -3 -4 6 9 10 11 -9 -6 -2 23 13 26 18 16 -16 -18 19 -15 24 -22 -17 -8 25 -20 -13 -28 29 -29
right_child=4 2 3 -5 5 -7 7 8 -10 -11 -12 12 -14 14 15 22 17 -19 20 -21 21 -23 -24 -25 -26 -27 27 28 -30 -31
leaf_value=-5.896893406229885e-05 -0.0017275554829281577 -0.0030775683254302879 -0.0022265855276782532 -0.00029649196106523354 7.0621165014017606e-06 0.0040167145596709678 -0.0017451528536621482 -0.00042263403048246103 0.005274419365996437 -0.001505421119810339 -0.00011221987139112478 -0.0016054727063209821 0.0023598377863394988 -0.00018968251900580734 0.00088727342469307286 -0.00025974379129062677 0.0040409497071847841 0.013988384203791308 -0.0028810015252626426 0.0025831562302659171 -0.00048482892572704632 -0.0054868506718083248 0.0027572022358071991 -5.5126503255082369e-05 -4.1668469163831166e-05 -0.00044931786801824286 1.4746775542030636e-06 0.0078106795720295375 -0.00049857211088265665 -0.00057610843825733318
leaf_weight=1403 26 21 20 48 45 26 25 86 20 29 29 26 22 220 21 84 26 24 36 33 22 21 20 4890 124 103 14524 38 245 42
leaf_count=1403 26 21 20 48 45 26 25 86 20 29 29 26 22 220 21 84 26 24 36 33 22 21 20 4890 124 103 14524 38 245 42
internal_value=0 -0.000138154 -0.00138643 -0.000864167 9.90655e-06 0.000610952 7.00394e-06 9.35509e-06 0.000652282 -0.000585668 -0.000875833 6.03813e-06 2.79737e-05 2.46871e-05 0.000347691 0.00281568 0.00647069 0.00881572 -0.000424935 0.000171992 -0.000918473 -0.00292768 0.000320438 -6.37228e-05 -0.000589972 -0.00107911 8.74857e-06 1.1575e-05 0.000462951 0.00340762
internal_weight=0 1492 89 68 20807 100 20707 20652 106 74 55 20546 15631 15609 734 175 71 50 559 253 306 43 104 4915 263 139 14875 14849 325 80
internal_count=22299 1492 89 68 20807 100 20707 20652 106 74 55 20546 15631 15609 734 175 71 50 559 253 306 43 104 4915 263 139 14875 14849 325 80
shrinkage=0.05


Tree=86
num_leaves=31
num_cat=0
split_feature=15 2 11 15 31 31 12 24 15 31 0 4 18 18 31 15 1 31 27 26 10 31 27 15 7 6 18 21 31 31
split_gain=0.011841 0.0124417 0.0297627 0.775218 0.471653 0.669102 0.440494 0.256344 0.0817962 0.0661674 0.108677 0.041908 0.0394552 0.0281426 0.0409662 0.0873541 0.0340436 0.0290503 0.032615 0.0277645 0.147103 0.0293235 0.0380659 0.0224192 0.056534 0.0224977 0.0189063 0.0173248 0.01671 0.0556975
threshold=2.6390250000000006 1.7689400000000002 3.0948650000000007e-05 0.56702800000000009 -2.8768099999999985 5.0033350000000008 7.3004200000000008e-05 2.4814450000000007e-06 0.97722050000000016 0.83404499999999981 4.9305950000000012 -2.7380199999999996e-05 0.10157640000000003 0.0043382300000000011 -1.1659150000000007 0.92477500000000001 -15.016799999999998 0.54846999999999968 -0.27486499999999991 0.5520425000000001 -6.274149999999999e-07 5.5429650000000015 -0.37395999999999979 0.34526250000000008 0.0018826950000000002 0.00016776800000000002 0.0028916150000000006 0.23176950000000004 2.4697650000000007 0.67519999999999947
decision_type=2 2 2 2 2 2 2 2 2 2 2 2 2 2 2 2 2 2 2 2 2 2 2 2 2 2 2 2 2 2
left_child=1 2 8 12 -5 6 -6 -8 19 10 11 -10 23 -3 15 -15 -16 18 -18 -1 -21 -22 -23 25 -25 27 -26 -4 29 -29
right_child=-2 13 3 4 5 -7 7 -9 9 -11 -12 -13 -14 14 16 -17 17 -19 -20 20 21 22 -24 24 26 -27 -28 28 -30 -31
leaf_value=6.4082637057243454e-06 0.001159412014848468 -3.1968392522886485e-05 -6.2948746565744929e-05 -0.0026516177371535298 0.012161749267640215 -0.00062662278034943434 0.0080037316781575406 0.00033916529355337843 -0.0022371718394704381 -0.00032269189019586977 -0.0050780912931077185 -5.9851638541337766e-05 -0.0023008798986279546 -0.0002541717897045584 -0.0025605825565435227 0.0033406565587210933 -0.00024043567746048213 -0.00035185972301781678 -0.002489385903716443 0.0036814921386621791 0.00147047035243304 -1.2546805373858661e-05 -0.0025537299446295948 0.0023921391650219451 0.00036889770196323393 0.0013123819388932102 -0.0013860856932643359 -0.00040263379363887001 -0.00012949684907907262 -0.0030412284667982025
leaf_weight=16668 22 2856 1182 23 33 34 24 20 39 320 20 51 20 109 24 20 28 242 38 32 20 56 20 32 57 27 21 100 136 25
leaf_count=16668 22 2856 1182 23 33 34 24 20 39 320 20 51 20 109 24 20 28 242 38 32 20 56 20 32 57 27 21 100 136 25
internal_value=0 -1.14499e-06 1.44841e-05 0.000211933 0.00386506 0.00521536 0.00779494 0.00451984 -5.39141e-06 -0.000686338 -0.00174422 -0.00100336 -9.40166e-05 -9.04812e-05 -0.000452982 0.000303166 -0.000746786 -0.000605451 -0.00153529 1.20417e-05 0.000745624 -0.000232998 -0.000681279 -6.60816e-05 0.000622435 -0.000117603 -0.000103598 -0.00014436 -0.000513049 -0.000930353
internal_weight=0 22277 18960 1734 134 111 77 44 17226 430 110 90 1600 3317 461 129 332 308 66 16796 128 96 76 1580 110 1470 78 1443 261 125
internal_count=22299 22277 18960 1734 134 111 77 44 17226 430 110 90 1600 3317 461 129 332 308 66 16796 128 96 76 1580 110 1470 78 1443 261 125
shrinkage=0.05


Tree=87
num_leaves=31
num_cat=0
split_feature=27 0 16 10 10 20 15 5 21 4 4 21 6 13 9 12 5 17 19 20 8 4 19 27 27 27 19 21 26 24
split_gain=0.0113434 0.111089 0.0115405 0.0893791 0.170595 0.260809 0.151669 0.20185 0.0567324 0.0384258 0.134551 0.337134 0.0408894 0.0787695 0.0492306 0.124381 0.0435076 0.106517 0.0371591 0.0338057 0.0266021 0.0249416 0.0484968 0.0293651 0.0500095 0.0833914 0.0277526 0.0307098 0.0214786 0.0211319
threshold=5.391045000000001 0.68426300000000018 10.198000000000002 -1.2766349999999999e-06 -4.6445099999999992e-06 0.00032810050000000007 -1.7384499999999996 -0.00013569999999999996 2.1325750000000006 -0.0002975264999999999 -0.00011564799999999999 5.7538600000000004 -3.7825349999999988e-05 1.9633400000000003 7.1204500000000006e-06 0.00020352900000000001 8.7575050000000018e-05 0.32319950000000003 1.3711100000000003 0.00094370300000000005 -8.0800949999999987e-06 6.2253650000000015e-06 -14.505549999999998 -1.807631 0.33758199999999999 -0.22542900000000002 -2.8241349999999996 1.6089400000000003 0.21742350000000002 3.9239150000000009e-06
decision_type=2 2 2 2 2 2 2 2 2 2 2 2 2 2 2 2 2 2 2 2 2 2 2 2 2 2 2 2 2 2
left_child=2 -2 29 4 6 8 7 -4 -6 18 11 -11 13 28 16 -16 21 -18 -5 20 -8 23 -23 -14 25 -25 27 -24 -12 -1
right_child=1 -3 3 9 5 -7 19 -9 -10 10 12 -13 14 -15 15 -17 17 -19 -20 -21 -22 22 26 24 -26 -27 -28 -29 -30 -31
leaf_value=-2.4483909800472816e-07 0.0038122297425399578 -6.5924239984299388e-05 -0.00069712494900159077 -0.00060365679806140683 0.0026452685813274004 0.0074956099979490752 0.00034751176648694976 0.006406573415151798 -0.00099589959142537304 -0.00082516242369899337 -0.00017776967882074293 0.0061335515447353828 -1.8939711054329003e-05 -0.0039030873989838221 0.0029796303985700108 -0.00036883096423288766 -0.00013107547699379917 -0.0034930232495657709 -0.0033349531740532257 -0.0024085203873255526 -0.00084534008815691133 0.001901145391691957 -0.0023185577208226149 -0.00078362071512639805 -0.00030790866481117846 -0.0036885158355081725 9.0081913143034569e-05 -0.00024279810200749462 -0.0019176004262893304 0.00036542882745736901
leaf_weight=20117 21 153 20 33 20 21 87 20 23 46 68 28 168 23 39 96 62 38 20 21 101 31 28 84 174 35 246 49 24 403
leaf_count=20117 21 153 20 33 20 21 87 20 23 46 68 28 168 23 39 96 62 38 20 21 101 31 28 84 174 35 246 49 24 403
internal_value=0 0.000402129 -3.1625e-06 -0.000132282 0.000625788 0.00292824 3.39928e-05 0.00285472 0.000697667 -0.000315932 -0.000259536 0.00180786 -0.000390856 -0.00128593 -0.000292824 0.000598502 -0.000424331 -0.00140862 -0.00163433 -0.00050586 -0.000293329 -0.00030356 1.20874e-05 -0.000545944 -0.000848117 -0.001638 -0.000169215 -0.00099762 -0.000631639 6.93676e-06
internal_weight=0 174 22125 1605 313 64 249 40 43 1292 1239 74 1165 115 1050 135 915 100 53 209 188 815 354 461 293 119 323 77 92 20520
internal_count=22299 174 22125 1605 313 64 249 40 43 1292 1239 74 1165 115 1050 135 915 100 53 209 188 815 354 461 293 119 323 77 92 20520
shrinkage=0.05


Tree=88
num_leaves=31
num_cat=0
split_feature=31 21 4 19 14 31 30 11 17 27 27 23 18 9 9 1 17 5 27 27 27 16 11 27 27 27 12 16 9 4
split_gain=0.0114405 0.0754232 0.0229645 0.0142858 0.013605 0.0174604 0.0129724 0.0103641 0.0315321 0.0815289 0.0890942 0.0171048 0.021626 0.133513 0.433401 0.119386 0.0551196 0.105013 0.0572848 0.445647 0.0507009 0.0311719 0.0480584 0.0345013 0.117369 0.143281 0.0840381 0.0272614 0.0458694 0.0993857
threshold=14.672985000000002 70.125000000000014 -9.1076949999999978e-05 -29.258849999999995 -21.761999999999997 10.609705000000003 -1.1060349999999997 -0.001413805 -0.085570549999999981 0.23661500000000005 -0.42604449999999999 -6.5773949999999992 0.025661000000000003 1.5605150000000004e-05 3.2616700000000009e-05 -15.821599999999998 0.95288800000000007 4.5841500000000012e-05 0.0037685000000000223 0.33758199999999999 -0.35332384999999972 10.198000000000002 -0.00072437799999999991 -0.5347949999999998 0.13134950000000004 -0.10215499999999998 0.00030883100000000003 8.8966850000000015 -2.8599049999999995e-09 -2.1306699999999998e-06
decision_type=2 2 2 2 2 2 2 2 2 2 2 2 2 2 2 2 2 2 2 2 2 2 2 2 2 2 2 2 2 2
left_child=1 3 -2 6 5 -5 -1 8 9 10 -6 -9 21 15 -15 -14 18 -18 20 -20 -17 27 -23 -24 25 26 -25 -13 -29 -30
right_child=2 -3 -4 4 7 -7 -8 11 -10 -11 -12 12 13 14 -16 16 17 -19 19 -21 -22 22 23 24 -26 -27 -28 28 29 -31
leaf_value=-0.00025120857942056318 -0.0019543041240900664 0.0022587564648396488 -0.00019103890091869022 -0.0019643663949682377 -0.00045271183259066439 -9.2121009768589198e-05 -0.0018108007579576224 -0.0013772198589074173 -4.6437446125472647e-05 -5.5975370932876773e-05 -0.0049572215193793888 1.5195368451865378e-05 0.0030943359700419631 0.0078330612343658398 -0.00024225562948332585 -0.00031446802025617753 -2.6186185435938611e-05 -0.0040521651059389121 0.0070291158976033335 -0.00013235489493154608 -0.0029238179752913616 0.001923005531653357 3.7656896256735277e-05 0.0010049739605619834 -0.00021863212123404688 -0.004721142101657784 -0.0028640433588298041 -0.00019346363403560069 0.0045929536245967037 0.00044550032518180579
leaf_weight=40 21 37 153 20 23 33 20 22 2503 110 21 17854 30 24 54 164 46 25 24 229 21 23 266 32 300 36 25 71 20 52
leaf_count=40 21 37 153 20 23 33 20 22 2503 110 21 17854 30 24 54 164 46 25 24 229 21 23 266 32 300 36 25 71 20 52
internal_value=0 3.17602e-06 -0.000403847 -6.02348e-07 1.49626e-06 -0.000798629 -0.000771073 3.42603e-06 -8.91623e-05 -0.00078358 -0.00260259 1.61606e-05 1.77493e-05 0.000308995 0.00224246 2.91985e-05 -0.000151458 -0.00144378 5.80287e-05 0.000546994 -0.000610665 8.12894e-06 -0.000323676 -0.000402088 -0.000699727 -0.00225165 -0.000691963 2.07027e-05 0.000708316 0.00159757
internal_weight=0 22125 174 22088 22028 53 60 21975 2657 154 44 19318 19296 617 78 539 509 71 438 253 185 18679 682 659 393 93 57 17997 143 72
internal_count=22299 22125 174 22088 22028 53 60 21975 2657 154 44 19318 19296 617 78 539 509 71 438 253 185 18679 682 659 393 93 57 17997 143 72
shrinkage=0.05


Tree=89
num_leaves=31
num_cat=0
split_feature=31 21 4 19 30 30 21 8 8 22 30 12 6 2 15 7 8 15 2 2 30 11 19 0 27 21 7 24 19 16
split_gain=0.010325 0.0680695 0.0207255 0.0128929 0.0117076 0.0102872 0.0530186 0.316826 0.75429 0.0883397 0.166968 0.167663 0.0879933 0.0435453 0.0218025 0.0645231 0.0713155 0.0262128 0.159507 0.299041 0.275216 0.346145 0.0199981 0.0169392 0.0402406 0.0152447 0.0149 0.0270691 0.017328 0.014405
threshold=14.672985000000002 70.125000000000014 -9.1076949999999978e-05 -29.258849999999995 -1.1060349999999997 -4.5333949999999987 3.4887250000000005 -5.7326449999999989e-06 -4.4646249999999989e-05 0.022320850000000003 -1.4031499999999999 0.00010639850000000001 0.00012463050000000001 0.15566050000000003 1.0940150000000004 0.0032342650000000005 -4.0147899999999994e-07 0.54616000000000009 0.20003250000000003 0.9753535000000001 2.3121949999999996 4.0333150000000005e-05 2.1236900000000003 -4.3349049999999991 0.36124199999999984 1.6089400000000003 0.00082317850000000021 0.00014997500000000003 -9.0404899999999984 11.012350000000001
decision_type=2 2 2 2 2 2 2 2 2 2 2 2 2 2 2 2 2 2 2 2 2 2 2 2 2 2 2 2 2 2
left_child=1 3 -2 4 -1 25 14 8 -8 23 11 -11 13 -12 17 16 -16 29 22 20 21 -20 -19 -9 -25 -5 28 -28 -27 -7
right_child=2 -3 -4 5 -6 6 7 9 -10 10 12 -13 -14 -15 15 -17 -18 18 19 -21 -22 -23 -24 24 -26 26 27 -29 -30 -31
leaf_value=-0.00023864814964326799 -0.0018565889583745351 0.0021458185021450897 -0.00018148695594926028 -2.5291945429206361e-05 -0.0017202607740182431 8.08070242880968e-06 -0.00091663855150966953 -9.6320099546574054e-05 0.009790806129478434 0.0061721424622785143 -0.00065983349450994511 0.0004979824513793574 0.0022288373467745262 -0.0035055958744487727 0.0027230073494138199 -0.0023495362604367791 -0.00091882558503110577 -0.0003260209172654229 0.0010851445896865439 -0.00026019094977982606 -0.00077007629414975573 0.0084117097553404931 0.0011334318489243742 -0.0027678324947106271 -0.00063927200017133146 0.0011792757919756695 -0.00042224327537634807 -0.0022921330035647509 -0.00017355376989320733 -0.00026728448307877372
leaf_weight=40 21 37 153 4306 20 15448 38 35 29 23 41 30 20 20 20 38 41 384 28 112 26 38 25 34 64 25 247 21 445 490
leaf_count=40 21 37 153 4306 20 15448 38 35 29 23 41 30 20 20 20 38 41 384 28 112 26 38 25 34 64 25 247 21 445 490
internal_value=0 3.01721e-06 -0.000383654 -5.72231e-07 -0.000732519 1.42145e-06 2.00422e-05 0.000643774 0.00371793 -0.000127642 0.000778436 0.00296035 -0.000649239 -0.00159287 7.53013e-06 -0.000732263 0.000275218 1.19552e-05 0.000332805 0.00147483 0.00358703 0.00530347 -0.000236812 -0.00104053 -0.00137775 -6.12779e-05 -0.000271244 -0.000568764 -0.000101595 -3.85162e-07
internal_weight=0 22125 174 22088 60 22028 16984 334 67 267 134 53 81 61 16650 99 61 16551 613 204 92 66 409 133 98 5044 738 268 470 15938
internal_count=22299 22125 174 22088 60 22028 16984 334 67 267 134 53 81 61 16650 99 61 16551 613 204 92 66 409 133 98 5044 738 268 470 15938
shrinkage=0.05


Tree=90
num_leaves=31
num_cat=0
split_feature=27 15 8 18 8 16 19 16 10 5 3 6 21 15 27 27 21 27 14 30 13 17 9 3 20 17 9 27 25 12
split_gain=0.00998001 0.102681 0.0103899 0.0440514 0.0309973 0.505378 0.170901 0.0359876 0.0651498 0.0783667 0.0483317 0.0415382 0.0328587 0.0262175 0.0201772 0.162671 0.0699448 0.0198176 0.0149051 0.118764 0.0136391 0.0129953 0.125552 0.0252614 0.0166472 0.0149381 0.0254364 0.0346266 0.0566825 0.0285236
threshold=5.391045000000001 0.35941150000000005 -4.4646249999999989e-05 0.061221600000000008 -9.8723849999999978e-06 35.645800000000008 3.2094950000000004 29.210200000000004 -1.148465e-07 0.00012976200000000004 3.0515950000000004e-05 -5.3808099999999991e-05 2.8705050000000001 2.2465350000000002 0.43870000000000015 -0.27486499999999991 3.2335700000000003 -0.25124499999999989 -14.341999999999999 -0.41764500000000021 0.13552450000000002 0.36560600000000004 1.2023650000000002e-06 1.8191400000000003e-05 0.00011133000000000002 0.12775000000000003 7.1204500000000006e-06 -0.39690700000000001 -0.083844549999999976 0.00017480000000000002
decision_type=2 2 2 2 2 2 2 2 2 2 2 2 2 2 2 2 2 2 2 2 2 2 2 2 2 2 2 2 2 2
left_child=2 -2 3 -1 5 6 12 21 9 10 -9 -10 18 14 15 -13 -17 -5 19 -4 -16 25 23 24 -23 -6 27 -27 -29 -28
right_child=1 -3 4 17 7 -7 -8 8 11 -11 -12 13 -14 -15 20 16 -18 -19 -20 -21 -22 22 -24 -25 -26 26 29 28 -30 -31
leaf_value=-6.9357472176088451e-05 -7.2802338884839568e-05 0.0036557023351243903 -5.501351900328292e-05 -0.00042239245445844495 9.6517830382081975e-06 0.0060063702945528253 0.0044418231266635383 -0.00068478386470028577 -0.0023554744631066131 0.0027693514074144335 0.002085465825002757 -0.00026620469892687626 -0.0014930448340035381 0.0011263968710251071 -6.9876644763776922e-05 -0.001637235618925289 -0.0055366439413299549 -0.0024543024423370041 -3.0800824855378747e-05 0.0039006652177208294 -0.0012087460292546425 -0.00039945272997878115 0.0035328379337544098 -0.0014980393886000986 0.0012178807714427911 -0.00010203166472752826 0.0019186413476891175 -0.0027151376451514902 -0.00042915893877199798 -0.00010704330603690132
leaf_weight=2444 153 21 138 21 17189 37 22 74 33 32 20 186 36 23 173 23 23 28 1002 22 31 41 27 31 26 233 25 39 89 57
leaf_count=2444 153 21 138 21 17189 37 22 74 33 32 20 186 36 23 173 23 23 28 1002 22 31 41 27 31 26 233 25 39 89 57
internal_value=0 0.00037719 -2.96637e-06 -9.91177e-05 9.24355e-06 0.000249456 7.48613e-05 -7.18896e-06 -0.000382269 0.000632179 -9.5369e-05 -0.000642066 -5.33328e-06 -0.00051888 -0.000605672 -0.000924626 -0.00358694 -0.00158348 4.07576e-05 0.000488892 -0.00024294 5.86501e-06 0.000513878 -0.000317876 0.000228169 2.26351e-06 -0.000284412 -0.000464983 -0.00112567 0.000510543
internal_weight=0 174 22125 2493 19632 1257 1220 18375 618 126 94 492 1198 459 436 232 46 49 1162 160 204 17757 125 98 67 17632 443 361 128 82
internal_count=22299 174 22125 2493 19632 1257 1220 18375 618 126 94 492 1198 459 436 232 46 49 1162 160 204 17757 125 98 67 17632 443 361 128 82
shrinkage=0.05


Tree=91
num_leaves=31
num_cat=0
split_feature=2 18 11 16 23 27 19 3 17 27 27 19 27 27 24 30 14 26 30 23 7 15 21 13 27 17 9 15 30 15
split_gain=0.00974824 0.040799 0.0352779 0.109254 0.0302008 0.0502645 0.0328206 0.135559 0.0208527 0.0514807 0.0675147 0.0142849 0.014003 0.0948331 0.258047 0.0922319 0.36449 0.300022 0.0717985 0.102038 0.334039 0.0960518 0.0999411 0.0705692 0.0692226 0.0678492 0.155843 0.20547 0.108488 0.0914579
threshold=-2.4210399999999992 0.13004500000000005 -0.0042189849999999989 3.6480900000000003 -6.5773949999999992 -0.89802249999999995 13.832150000000002 2.0844200000000003e-05 -0.085570549999999981 0.23661500000000005 -0.39690700000000001 -29.258849999999995 0.41121150000000001 -0.017273000000000035 3.2690150000000004e-05 -4.5333949999999987 -15.441949999999999 0.00068107450000000011 1.9136999999999997 -0.022684299999999994 0.00092261950000000002 -0.62735149999999995 0.59253850000000008 -1.3040749999999999 0.044107999999999932 0.0080739700000000015 -5.5813149999999993e-08 0.18196600000000004 0.31050000000000028 -0.22631649999999995
decision_type=2 2 2 2 2 2 2 2 2 2 2 2 2 2 2 2 2 2 2 2 2 2 2 2 2 2 2 2 2 2
left_child=1 8 3 -2 5 -4 11 -8 9 10 -1 -6 13 -13 15 -15 17 23 19 20 -18 -21 24 -17 25 28 -27 -28 29 -23
right_child=2 -3 4 -5 6 -7 7 -9 -10 -11 -12 12 -14 14 -16 16 18 -19 -20 21 -22 22 -24 -25 -26 26 27 -29 -30 -31
leaf_value=-0.00031688934530913165 -0.00014391436511687061 -0.001500703482233803 -0.00021739041458204158 0.0042546170870991773 -0.00071952018592291202 -0.003137495320988819 -0.00058185380570452059 0.0045273810235084968 -2.6919090739970734e-05 -3.354585493651626e-05 -0.0040182714871744712 -1.553695192221553e-05 -3.9774899585454362e-05 -0.00048386367743244126 0.0051432842546741348 0.0036691115741026206 -0.002229381932799394 0.0084757040531258099 -0.00038901335989480006 -0.0030618131536175497 0.005937940543874227 -0.0023302497585642747 0.0036955326248932145 -5.716514154940982e-05 -9.1649076935558432e-05 0.0014796533430926503 -0.0058946364240356442 0.00078873443619712543 0.0039705846563045837 0.00098509158494108819
leaf_weight=28 48 50 56 20 67 20 37 20 2737 119 22 9502 7780 306 28 24 21 24 306 20 31 22 23 27 454 50 23 23 29 382
leaf_count=28 48 50 56 20 67 20 37 20 2737 119 22 9502 7780 306 28 24 21 24 306 20 31 22 23 27 454 50 23 23 29 382
internal_value=0 -8.45668e-05 1.29235e-05 0.00114977 8.91284e-06 -0.000985839 1.28506e-05 0.00121086 -6.02011e-05 -0.000599212 -0.0019455 9.28324e-06 1.18431e-05 4.73976e-05 0.000380919 0.000305369 0.000470897 0.00386576 0.000286927 0.000478799 0.0026396 0.000369284 0.000437497 0.00169638 0.000361266 0.000749969 -0.000452636 -0.00255295 0.0010166 0.000804553
internal_weight=0 2956 19343 68 19275 76 19199 57 2906 169 50 19142 19075 11295 1793 1765 1459 75 1384 1078 52 1026 1006 51 983 529 96 46 433 404
internal_count=22299 2956 19343 68 19275 76 19199 57 2906 169 50 19142 19075 11295 1793 1765 1459 75 1384 1078 52 1026 1006 51 983 529 96 46 433 404
shrinkage=0.05


Tree=92
num_leaves=31
num_cat=0
split_feature=4 26 27 21 1 30 21 8 27 30 9 4 9 10 1 3 15 11 2 5 30 11 30 27 27 11 11 15 25 12
split_gain=0.00942287 0.0492878 0.033404 0.0117631 0.129468 0.0105904 0.0407126 0.401189 0.654128 0.0988151 0.33864 0.0459054 0.0596126 0.0264278 0.0230256 0.0184301 0.0158741 0.223436 0.346721 0.377092 0.0397058 0.0489604 0.0432262 0.0660807 0.173718 0.0357826 0.0127001 0.0257366 0.023562 0.022406
threshold=-0.0002975264999999999 0.026205200000000001 0.28691050000000012 70.125000000000014 -11.947549999999998 -4.5333949999999987 3.4887250000000005 -5.7326449999999989e-06 0.95334075000000007 -1.4406149999999995 9.794275000000002e-06 0.00025532200000000005 4.3040750000000008e-06 3.7160050000000004e-06 -14.412449999999998 1.0163000000000002e-05 0.54616000000000009 4.0333150000000005e-05 0.9753535000000001 0.00012058300000000002 -0.82755000000000034 2.4958100000000002e-06 0.93964999999999954 -0.22542900000000002 1.0723760000000002 0.0018352000000000002 4.0333150000000005e-05 -0.33619799999999994 -0.022927799999999995 7.5845250000000009e-06
decision_type=2 2 2 2 2 2 2 2 2 2 2 2 2 2 2 2 2 2 2 2 2 2 2 2 2 2 2 2 2 2
left_child=1 -1 -3 5 -5 14 16 8 -8 10 15 12 13 -11 -2 -9 26 20 19 -19 21 -18 23 -22 -25 -20 28 29 -7 -28
right_child=3 2 -4 4 -6 6 7 9 -10 11 -12 -13 -14 -15 -16 -17 17 18 25 -21 22 -23 -24 24 -26 -27 27 -29 -30 -31
leaf_value=-5.7616847024357173e-05 -0.0015709523912810254 -0.0026417367464502254 -0.0004428373061669752 0.0038414859324288758 -0.00043357643828437784 -0.0014760043186190441 0.0089877695398172374 0.0010478767942640845 -0.0016165767889245988 -0.00058509378164175866 0.0067810404385090818 0.00098211400352580386 -0.0038135040016971872 -0.0025986157570150681 -4.9720385652924476e-05 -0.00063907947860356864 -4.6705823543852417e-05 0.0088821952003733419 0.001483321758250015 0.00065521657614646346 -0.00016942990464269229 0.0021537606484971234 -0.00023130035411865008 -0.0063837160266120921 -7.4171910864606619e-05 -0.0005916820490956381 -0.0021036816917512626 -3.2871659710040032e-05 3.0861378547557966e-05 -0.0003835120594009571
leaf_weight=1422 25 31 39 23 77 26 33 20 26 88 20 23 22 20 4969 85 197 30 31 26 42 29 185 20 24 63 20 2694 11635 354
leaf_count=1422 25 31 39 23 77 26 33 20 26 88 20 23 22 20 4969 85 197 30 31 26 42 29 185 20 24 63 20 2694 11635 354
internal_value=0 -0.000121378 -0.00141664 8.70359e-06 0.000549688 6.09103e-06 2.62497e-05 0.00056989 0.00431467 -0.000224865 0.000818053 -0.00107692 -0.00144121 -0.000957968 -5.73357e-05 -0.000317754 1.43346e-05 0.000256732 0.00194806 0.00506253 -0.000253728 0.000235655 -0.000661849 -0.00158803 -0.00294215 9.26277e-05 3.6868e-06 -8.68296e-05 2.75016e-05 -0.0004755
internal_weight=0 1492 70 20807 100 20707 15713 337 59 278 125 153 130 108 4994 105 15376 647 150 56 497 226 271 86 44 94 14729 3068 11661 374
internal_count=22299 1492 70 20807 100 20707 15713 337 59 278 125 153 130 108 4994 105 15376 647 150 56 497 226 271 86 44 94 14729 3068 11661 374
shrinkage=0.05


Tree=93
num_leaves=31
num_cat=0
split_feature=27 23 8 18 8 22 19 22 27 23 20 27 30 1 9 9 5 27 27 22 1 30 23 9 12 9 26 6 1 3
split_gain=0.00912248 0.0956114 0.00907126 0.0430906 0.0269707 0.498893 0.0460359 0.0447085 0.0159844 0.0145606 0.0157018 0.0608077 0.0797911 0.0139385 0.0137711 0.0224877 0.0121953 0.0212504 0.0384392 0.0113646 0.0204576 0.0110504 0.010594 0.230236 0.47925 0.0255189 0.0181396 0.0901364 0.104465 0.0280506
threshold=5.391045000000001 -0.007024574999999999 -4.4646249999999989e-05 0.061221600000000008 -9.8723849999999978e-06 -0.6849559999999999 3.2094950000000004 -0.6849559999999999 -0.25124499999999989 0.30741550000000001 -3.4138749999999996e-05 0.1562649999999999 -0.96838499999999994 -15.456499999999998 1.6685900000000001e-06 3.5688500000000004e-07 -3.0986449999999989e-05 0.36124199999999984 -0.48045499999999991 -0.020437099999999996 -15.126499999999998 0.19364999999999991 0.43230650000000009 9.794275000000002e-06 0.00066652650000000003 1.2023650000000002e-06 0.019034800000000001 -5.3808099999999991e-05 -15.395849999999998 1.0215050000000001e-05
decision_type=2 2 2 2 2 2 2 2 2 2 2 2 2 2 2 2 2 2 2 2 2 2 2 2 2 2 2 2 2 2
left_child=2 -2 3 19 5 -4 9 13 -5 10 11 12 -7 -6 15 16 21 18 -18 20 -1 -15 26 25 -25 -24 -9 -28 -29 -30
right_child=1 -3 4 8 7 6 -8 22 -10 -11 -12 -13 -14 14 -16 -17 17 -19 -20 -21 -22 -23 23 24 -26 -27 27 28 29 -31
leaf_value=-0.0016580288067494812 0.0036129581836576111 -6.1760687979337743e-05 0.0062991613098843536 -0.00051799548236886039 -0.0018538768860162239 -7.6152290339450709e-05 0.0022849054368713913 8.2418749983547823e-06 -0.0023428477800085342 -0.0013111732378638409 -5.8434650447442784e-06 -0.00036829323376970656 0.0043901411120896225 -0.00035048326584520047 -0.0011314471852800587 0.0012021258552770385 -0.00021815843189999996 -0.00037347389484791602 -0.0032809995760908353 -3.212023755065498e-05 -0.00021399177929700688 0.0009159958757663845 -0.00025467997596649643 0.0093449258274631575 -0.00071593177189211495 -0.0021428395502152853 -0.0034245151172812753 0.0029311181920582807 0.00051992503275543624 -0.00050398021839915446
leaf_weight=29 20 154 33 21 20 20 23 17281 28 20 1082 59 20 61 67 22 21 107 20 2256 159 24 170 20 29 20 22 26 81 384
leaf_count=29 20 154 33 21 20 20 23 17281 28 20 1082 59 20 61 67 22 21 107 20 2256 159 24 170 20 29 20 22 26 81 384
internal_value=0 0.000360621 -2.83607e-06 -9.26789e-05 8.57276e-06 0.000232641 6.90827e-05 -6.75533e-06 -0.00156077 2.66481e-05 4.93038e-05 0.000652025 0.00215699 -0.000573089 -0.000493537 -0.000325929 -0.000470209 -0.000744345 -0.00171223 -6.3245e-05 -0.000436742 7.11084e-06 3.98532e-06 0.000334662 0.00339054 -0.000453434 -4.56159e-07 -0.00029346 -0.000153168 -0.000325623
internal_weight=0 174 22125 2493 19632 1257 1224 18375 49 1201 1181 99 40 342 322 255 233 148 41 2444 188 85 18033 239 49 190 17794 513 491 465
internal_count=22299 174 22125 2493 19632 1257 1224 18375 49 1201 1181 99 40 342 322 255 233 148 41 2444 188 85 18033 239 49 190 17794 513 491 465
shrinkage=0.05


Tree=94
num_leaves=31
num_cat=0
split_feature=3 15 23 30 15 31 1 21 4 23 30 25 21 26 7 30 14 17 16 27 27 27 11 19 0 27 16 21 5 7
split_gain=0.00895256 0.110309 0.0117427 0.00837398 0.0584904 0.0431647 0.0461432 0.250709 0.0861096 0.0473507 0.0674829 0.0454514 0.0868268 0.0694279 0.0415514 0.0770667 0.0614799 0.0654961 0.0586802 0.058003 0.0940846 0.248825 0.0654316 0.0614373 0.0509675 0.054066 0.0504305 0.0382513 0.0534532 0.0317049
threshold=7.1526450000000005e-06 0.49806500000000004 0.018733950000000003 0.49994999999999928 1.5416250000000002 0.23124499999999995 -16.232699999999998 4.2965400000000011 1.3962300000000002e-05 -0.8573869999999999 -1.3211999999999995 0.59816900000000006 2.8705050000000001 0.020755850000000003 0.00039250700000000006 0.15623999999999996 -13.228949999999999 0.014898700000000003 0.1696445 -0.10215499999999998 0.18449200000000018 0.017475500000000008 4.4274800000000002e-07 -0.072809499999999985 8.5772100000000027 0.43870000000000015 0.39197250000000006 0.21014650000000004 -0.00014040099999999999 0.00029752400000000002
decision_type=2 2 2 2 2 2 2 2 2 2 2 2 2 2 2 2 2 2 2 2 2 2 2 2 2 2 2 2 2 2
left_child=1 2 -1 5 -5 11 7 8 -7 10 -8 12 13 14 15 19 17 27 -17 -2 21 22 23 -21 29 -26 -24 28 -16 -20
right_child=3 -3 -4 4 -6 6 9 -9 -10 -11 -12 -13 -14 -15 16 18 -18 -19 24 20 -22 -23 26 -25 25 -27 -28 -29 -30 -31
leaf_value=0.00012030533862726014 -0.0001321791516972102 0.0038590822254263913 -0.00097998509194844197 -5.3145894375881881e-05 0.0025286621451166206 -0.0019309689501824324 -0.00047119287569173673 0.0058917020292331779 0.0017232694675060754 -8.9921896192132564e-06 -0.0035152744292645368 0.0025589596036644209 -0.002767990676693444 0.0031889495956420435 0.0034831538719254243 -0.0028606494617361023 -0.00014493684525101241 0.0036462476260339829 0.0001167766311690012 -0.0019110607385214064 -9.6575176981571274e-05 0.0055979592061382449 0.00068802705606107019 0.0009374342956969409 -0.0034451248207915345 1.2751527508323937e-05 0.0037430104441175771 -0.00052987191161264497 0.00038691060988481775 0.002160595110862315
leaf_weight=238 123 20 27 7655 22 38 203 21 28 12204 20 21 24 20 20 20 853 20 138 21 118 34 22 192 20 26 35 48 46 22
leaf_count=238 123 20 27 7655 22 38 203 21 28 12204 20 21 24 20 20 20 853 20 138 21 118 34 22 192 20 26 35 48 46 22
internal_value=0 0.000278438 8.20028e-06 -3.60474e-06 -4.57472e-05 1.89612e-05 -1.4152e-05 0.00113334 -0.000380686 -2.21854e-05 -0.000744205 0.000246267 0.000219315 0.000259639 0.000226313 0.000501346 1.147e-05 0.0010071 -0.000274937 0.000823255 0.00110173 0.00156687 0.00105925 0.000656597 -2.38965e-05 -0.00149067 0.00256389 0.000544097 0.00132517 0.000397802
internal_weight=0 285 265 22014 7677 14337 12514 87 66 12427 223 1823 1802 1778 1758 771 987 134 226 545 422 304 270 213 206 46 57 114 66 160
internal_count=22299 285 265 22014 7677 14337 12514 87 66 12427 223 1823 1802 1778 1758 771 987 134 226 545 422 304 270 213 206 46 57 114 66 160
shrinkage=0.05


Tree=95
num_leaves=31
num_cat=0
split_feature=15 2 24 30 2 15 9 5 27 7 25 15 2 16 4 5 27 0 15 9 2 25 4 27 6 25 30 1 8 30
split_gain=0.00835825 0.00929479 0.0243033 0.0231627 0.0152584 0.394096 0.311668 0.253269 0.35639 0.359859 0.0453818 0.0405247 0.0514515 0.0385369 0.0417242 0.037141 0.0651167 0.0321443 0.0264714 0.216875 0.0768589 0.0238641 0.0228382 0.0226816 0.016754 0.0150308 0.0279534 0.0299962 0.0529215 0.0210685
threshold=2.6390250000000006 1.7689400000000002 7.0096650000000009e-06 5.5193900000000005 0.313587 0.56702800000000009 1.4384100000000002e-05 0.00011129550000000002 -0.56077824999999992 0.0039742050000000006 -0.18951049999999997 0.34526250000000008 0.43777950000000004 13.449150000000001 -3.4234449999999995e-05 0.00014817500000000004 0.92717515000000017 5.274020000000001 -1.7384499999999996 -4.3364999999999991e-06 -1.2804649999999997 0.30857150000000005 -0.00010084049999999998 -0.32627999999999996 0.00016776800000000002 -0.0031068049999999994 -0.62938500000000042 -7.5290599999999985 -2.5347249999999996e-08 -2.2627249999999997
decision_type=2 2 2 2 2 2 2 2 2 2 2 2 2 2 2 2 2 2 2 2 2 2 2 2 2 2 2 2 2 2
left_child=1 4 -3 -4 10 11 7 8 -7 -10 15 13 -13 24 -15 22 -17 -14 19 -12 -21 -16 -1 -22 -6 26 29 -28 -29 -20
right_child=-2 2 3 -5 5 6 -8 -9 9 -11 18 12 17 14 21 16 -18 -19 25 20 23 -23 -24 -25 -26 -27 27 28 -30 -31
leaf_value=-0.0019744010867725594 0.00097409635967448012 -4.519093301829759e-05 -0.00083251795837978456 0.00093055277455797697 -9.131609070775075e-05 -0.00054564761087318766 0.0080782300910041994 -0.0024782797835510356 0.0025656763272355679 0.010814935170928949 0.0055183435522485526 0.002580584113046268 -0.00024907742409546648 -0.0030806712036296219 -0.0016893989217351192 -0.0040013812518736817 -0.00044307071732166355 0.0020101236680784497 -8.0238214950765859e-05 0.0026191628277956627 -0.00012150263120356488 0.00064915767710544976 -0.00023678391193903941 -0.0016696882912739448 0.0011641110407826663 2.1756889104571067e-05 -0.00029534326492728854 -0.0030638725080279986 -8.7360186256546513e-05 0.00049243338945554596
leaf_weight=20 22 3131 165 21 1689 45 22 29 39 20 20 31 74 22 20 20 36 20 1218 22 73 24 347 35 27 14345 517 28 32 185
leaf_count=20 22 3131 165 21 1689 45 22 29 39 20 20 31 74 22 20 20 36 20 1218 22 73 24 347 35 27 14345 517 28 32 185
internal_value=0 -9.61984e-07 -7.81781e-05 -0.000633462 1.25468e-05 0.000140951 0.00256553 0.00165365 0.00280583 0.00536204 -3.12193e-06 -5.61175e-05 0.000814151 -0.000117163 -0.00130277 -0.000514492 -0.0017139 0.000231604 1.00076e-05 0.000671198 -7.45169e-05 -0.000413823 -0.000331477 -0.000623229 -7.15629e-05 3.93238e-06 -0.000125205 -0.000418157 -0.0014764 -4.72557e-06
internal_weight=0 22277 3317 186 18960 2062 155 133 104 59 16898 1907 125 1782 66 423 56 94 16475 150 130 44 367 108 1716 16325 1980 577 60 1403
internal_count=22299 22277 3317 186 18960 2062 155 133 104 59 16898 1907 125 1782 66 423 56 94 16475 150 130 44 367 108 1716 16325 1980 577 60 1403
shrinkage=0.05


Tree=96
num_leaves=31
num_cat=0
split_feature=2 18 11 22 26 1 26 17 0 30 5 23 24 30 14 24 15 2 1 15 10 2 17 9 10 25 17 0 15 0
split_gain=0.00816893 0.0390538 0.0299736 0.0967642 0.026683 0.0306255 0.0291147 0.0182755 0.018671 0.0281468 0.0133012 0.0124068 0.0114681 0.0102919 0.065459 0.102835 0.0334481 0.284704 0.0307376 0.0282929 0.0784634 0.0165588 0.0393314 0.231947 0.268462 0.0853557 0.0294376 0.02789 0.0217764 0.0556712
threshold=-2.4210399999999992 0.13004500000000005 -0.0042189849999999989 -0.0010706349999999997 1.4978200000000002 -12.923849999999998 1.0444035000000003 -0.085570549999999981 -0.91915199999999986 -1.485365 0.00012308650000000004 -6.5773949999999992 4.7478300000000009e-05 -4.5333949999999987 -18.723649999999996 1.1242550000000002e-06 1.3124250000000002 0.7894500000000001 -14.412449999999998 1.0940150000000004 6.8518050000000012e-07 0.9753535000000001 -0.11302099999999998 6.061655000000001e-06 -8.3409699999999988e-08 -0.04896579999999999 -0.048691849999999995 -0.6377934999999999 -0.57342799999999994 -5.1426499999999988
decision_type=2 2 2 2 2 2 2 2 2 2 2 2 2 2 2 2 2 2 2 2 2 2 2 2 2 2 2 2 2 2
left_child=1 7 3 -2 6 -6 11 8 9 -1 -3 -4 -9 18 15 -15 19 -18 -13 21 -21 22 23 25 -25 -16 27 -23 -27 -30
right_child=2 10 4 -5 5 -7 -8 12 -10 -11 -12 13 -14 14 16 -17 17 -19 -20 20 -22 26 -24 24 -26 28 -28 -29 29 -31
leaf_value=-0.00019241420762940639 0.0039817206835141413 -0.00074005938274370115 -0.0011773654201533647 -0.00015776360651216238 -0.0025846531009301545 -0.00035121514537780917 0.0013946952198717842 -3.1198699138479418e-05 -9.9893650846164913e-05 -0.0021561970235779884 -0.0023829524997298988 -0.0019189608928255357 0.0011704941042626159 9.5445871086078965e-05 0.0031782213337854569 0.004613830396228878 -0.00091194902197457852 0.0050748034773779845 -4.5541059718422898e-05 -0.0028081980997740176 0.00055216143840593039 -0.0011780735625443253 3.3338121688833264e-05 0.0076735136868513153 0.0005915409348290269 -0.00032730953441596723 -3.5446178170021684e-05 -5.6813569554597725e-05 0.0027576435427446003 -0.00013084237410942518
leaf_weight=37 20 28 22 48 20 66 38 2717 96 36 22 22 20 34 21 20 63 29 4576 32 38 114 10723 23 32 269 2934 108 22 69
leaf_count=37 20 28 22 48 20 66 38 2717 96 36 22 22 20 34 21 20 63 29 4576 32 38 114 10723 23 32 269 2934 108 22 69
internal_value=0 -7.7414e-05 1.18304e-05 0.00105973 8.13354e-06 -0.000870619 1.20719e-05 -5.35751e-05 -0.000558179 -0.00116086 -0.00146293 9.32844e-06 -2.24176e-05 1.06932e-05 3.13236e-05 0.00176892 2.48423e-05 0.000975179 -5.45048e-05 1.87644e-05 -0.000984003 2.36679e-05 5.22664e-05 0.00051779 0.00355309 7.96231e-05 -7.7451e-05 -0.000632596 -0.000101128 0.000567473
internal_weight=0 2956 19343 68 19275 86 19189 2906 169 73 50 19151 2737 19129 14531 54 14477 92 4598 14385 70 14315 11159 436 55 381 3156 222 360 91
internal_count=22299 2956 19343 68 19275 86 19189 2906 169 73 50 19151 2737 19129 14531 54 14477 92 4598 14385 70 14315 11159 436 55 381 3156 222 360 91
shrinkage=0.05


Tree=97
num_leaves=31
num_cat=0
split_feature=27 0 16 10 10 2 15 5 24 20 4 4 21 26 6 13 9 7 9 11 15 27 9 9 8 14 9 27 27 22
split_gain=0.00815781 0.0922482 0.00843098 0.064638 0.132968 0.212092 0.115553 0.157895 0.0620733 0.0321376 0.031059 0.0825029 0.242041 0.0306001 0.029943 0.0628569 0.0291861 0.091321 0.0392311 0.0322353 0.0308915 0.0258136 0.0230081 0.060062 0.0224308 0.0214701 0.0210431 0.019143 0.122619 0.0901676
threshold=5.391045000000001 0.68426300000000018 10.198000000000002 -1.2766349999999999e-06 -4.6445099999999992e-06 -0.9760614999999998 -1.7384499999999996 -0.00013569999999999996 2.4814450000000007e-06 0.00094370300000000005 -0.0002975264999999999 -0.00011564799999999999 5.7538600000000004 0.026205200000000001 -3.7825349999999988e-05 1.9633400000000003 7.1204500000000006e-06 0.0011223800000000003 3.9767050000000016e-06 -2.7243599999999994e-05 0.74545400000000017 0.38594850000000003 1.0318250000000003e-06 1.5829450000000001e-06 -8.0800949999999987e-06 -15.690899999999997 3.9109600000000002e-05 -0.30126800000000004 0.33758199999999999 0.20179700000000003
decision_type=2 2 2 2 2 2 2 2 2 2 2 2 2 2 2 2 2 2 2 2 2 2 2 2 2 2 2 2 2 2
left_child=2 -2 -1 4 6 -6 7 -4 -7 24 13 12 -12 -5 15 25 18 -18 19 21 26 -16 27 -24 -8 -13 -19 -21 29 -29
right_child=1 -3 3 10 5 8 9 -9 -10 -11 11 14 -14 -15 16 -17 17 20 -20 22 -22 -23 23 -25 -26 -27 -28 28 -30 -31
leaf_value=5.9501701048811652e-06 0.0034485150705136007 -8.5497816297786403e-05 -0.00067016334563959386 -8.2411623557361406e-05 0.0066831284158286597 0.0025900886413000989 0.00033361555051042479 0.0056126516454969543 -0.0012186193522369573 -0.0023171850072339155 -0.000830626329875288 -0.0019520746377384057 0.0050655724249996379 -0.0025064806774025786 -0.0029197025470784864 -0.0034252067263562075 0.00339607520482704 -0.0018167183695543196 -0.0024245927597472804 -3.3752998864070163e-05 0.0011903085667654524 -0.00056779106894932086 0.0029659977543633432 -0.000376167728005917 -0.00076172875649735763 -0.00010025149329319699 -9.048650787338953e-05 -0.0012891618646487283 -0.00013625014082483929 -0.0052850573137402535
leaf_weight=20520 21 153 20 23 21 20 87 20 23 21 46 20 28 30 20 23 22 26 22 380 32 28 20 41 101 72 55 48 336 20
leaf_count=20520 21 153 20 23 21 20 87 20 23 21 46 20 28 30 20 23 22 26 22 380 32 28 20 41 101 72 55 48 336 20
internal_value=0 0.000341021 -2.68193e-06 -0.000113044 0.000531623 0.00256436 9.15193e-06 0.00247124 0.000552873 -0.000462062 -0.000269221 -0.000218518 0.00140037 -0.00145453 -0.000321348 -0.0010873 -0.000237458 0.00044883 -0.000338714 -0.000287326 -0.00012497 -0.00154775 -0.000215728 0.000719624 -0.000254841 -0.000502822 -0.000644586 -0.000288504 -0.000528121 -0.00246443
internal_weight=0 174 22125 1605 313 64 249 40 43 209 1292 1239 74 53 1165 115 1050 135 915 893 113 48 845 61 188 92 81 784 404 68
internal_count=22299 174 22125 1605 313 64 249 40 43 209 1292 1239 74 53 1165 115 1050 135 915 893 113 48 845 61 188 92 81 784 404 68
shrinkage=0.05


Tree=98
num_leaves=31
num_cat=0
split_feature=3 25 23 12 17 27 31 31 31 31 20 21 27 27 24 9 27 10 24 25 22 23 27 27 2 10 1 9 4 23
split_gain=0.00782126 0.0926766 0.0107707 0.00803412 0.0599591 0.291159 0.0101689 0.0387933 0.00903235 0.0479969 0.056076 0.0779066 0.0394546 0.104908 0.141514 0.176304 0.230067 0.149259 0.0845066 0.0736059 0.112472 0.0639253 0.12962 0.0624601 0.0492054 0.0396229 0.0393238 0.234103 0.132901 0.0437925
threshold=7.1526450000000005e-06 -0.012671449999999999 0.018733950000000003 6.8505050000000008e-10 0.0080739700000000015 -0.12303449999999989 0.39185999999999949 -0.12171999999999981 -0.49994999999999917 0.23124499999999995 0.00046085650000000006 2.8705050000000001 -0.27486499999999991 0.13134950000000004 2.2169050000000001e-07 1.2023650000000002e-06 0.044107999999999932 1.0456800000000001e-06 -4.2306749999999996e-08 -0.0016129199999999997 -0.0032908799999999995 0.00032938950000000004 0.017475500000000008 -0.025773999999999905 0.086113250000000016 1.0856900000000001e-07 -16.232699999999998 -8.0984749999999987e-06 3.0248850000000001e-05 -0.8573869999999999
decision_type=2 2 2 2 2 2 2 2 2 2 2 2 2 2 2 2 2 2 2 2 2 2 2 2 2 2 2 2 2 2
left_child=1 -1 -3 4 6 -6 7 -2 -5 10 11 12 -10 14 15 16 19 -16 -17 -14 -21 22 23 -22 -23 -26 27 -11 -29 -28
right_child=3 2 -4 8 5 -7 -8 -9 9 26 -12 -13 13 -15 17 18 -18 -19 -20 20 21 24 -24 -25 25 -27 29 28 -30 -31
leaf_value=0.0034571205038706207 1.8108764985906117e-07 0.00011151187204058941 -0.00096029826794261476 -4.2824275717324821e-05 -0.00011392334960640364 -0.0066769088465753164 -9.7520968712946381e-05 0.0018920438454162131 -7.0209654679848952e-05 0.0045246463851776018 0.0026193855170567985 -0.0028682502685114745 -0.0017352949507767335 -3.4144326169326896e-05 0.00056257806039260074 -0.0041525766481645401 0.0061015845952732935 0.0059818104704997196 -0.00021647658936368923 0.0045715338469017302 -0.0019342977659438144 0.00080800299545964152 -0.0034101604118900886 0.00086345374654067599 0.0043732518004782669 0.0016798896323760146 -0.00072004177970292401 -0.0031453353975181629 0.0018465605560777478 -4.9080049562160858e-06
leaf_weight=21 120 238 26 7536 109 20 228 35 570 31 25 20 28 584 24 25 21 27 30 20 22 84 22 214 22 36 218 30 24 11889
leaf_count=21 120 238 26 7536 109 20 228 35 570 31 25 20 28 584 24 25 21 27 30 20 22 84 22 214 22 36 218 30 24 11889
internal_value=0 0.000260251 5.95481e-06 -3.36929e-06 -0.000199116 -0.00113144 0.000114905 0.000427376 1.29177e-06 2.50966e-05 0.000268094 0.000234485 0.000270375 0.000437876 0.000917284 0.000672572 0.000986645 0.00343158 -0.00200561 0.000746882 0.000912361 0.000729402 0.000260469 0.000602646 0.00158141 0.00270151 -1.02607e-05 0.00106143 -0.000926715 -1.77848e-05
internal_weight=0 285 264 22014 512 129 383 155 21502 13966 1774 1749 1729 1159 575 524 469 51 55 448 420 400 258 236 142 58 12192 85 54 12107
internal_count=22299 285 264 22014 512 129 383 155 21502 13966 1774 1749 1729 1159 575 524 469 51 55 448 420 400 258 236 142 58 12192 85 54 12107
shrinkage=0.05


Tree=99
num_leaves=31
num_cat=0
split_feature=27 16 18 12 12 11 30 27 27 9 30 23 12 22 15 6 21 21 1 21 7 16 7 15 2 24 30 15 30 25
split_gain=0.00731466 0.0865578 0.00730072 0.0179782 0.0320234 0.260064 0.0451344 0.087307 0.203804 0.31607 0.159783 0.280899 0.130911 0.110149 0.108045 0.0356536 0.0307784 0.0436016 0.029614 0.0213381 0.0211325 0.0311677 0.0283247 0.176065 0.375365 0.0679104 0.0937337 0.0509341 0.0840559 0.0280741
threshold=5.391045000000001 9.792365000000002 0.00070520150000000009 2.1900450000000003e-07 7.8012700000000006e-05 0.00041518400000000003 -3.1346799999999995 -0.56077824999999992 0.41121150000000001 7.8753600000000015e-06 2.3121949999999996 -0.051097699999999996 1.1867000000000002e-05 0.020076150000000004 -0.29732549999999996 2.0573500000000002e-05 0.042265750000000012 0.039383950000000008 -5.4478849999999985 0.34281400000000006 0.006874540000000001 101.12950000000002 0.0036207350000000004 -0.95944149999999995 -0.089903499999999983 -1.0507399999999998e-06 -0.82755000000000034 -1.0078699999999998 -0.91560999999999992 0.18471500000000005
decision_type=2 2 2 2 2 2 2 2 2 2 2 2 2 2 2 2 2 2 2 2 2 2 2 2 2 2 2 2 2 2
left_child=2 -2 -1 16 5 6 -5 -8 9 10 11 -9 13 14 -13 -16 17 -4 -10 -12 21 22 27 24 -24 26 -25 28 -6 -29
right_child=1 -3 3 4 20 -7 7 8 18 -11 19 12 -14 -15 15 -17 -18 -19 -20 -21 -22 -23 23 25 -26 -27 -28 29 -30 -31
leaf_value=2.0322046196785702e-05 -0.00010134836859738005 0.0032542084602689351 -1.4075033402110896e-05 -0.00017467385049449512 -0.00031848146056952172 0.0045809158354186922 -0.00027642983799361571 0.0075607080443296591 -0.00023348089709624258 0.0074075864144580693 -0.00037186945254177319 0.0050331384242680438 -0.0014231414684244166 -0.00081396325025707484 -1.3681266801026852e-05 0.0027411901993521798 -0.00014524118391133806 -0.0032061769497249773 0.0017553112879068068 -0.0024537695846811405 -0.00018622127891871116 0.0018165770986039815 0.0076921535346324774 -0.00015674352470807385 -0.00090182904710268811 -0.00036426196242319642 0.0035575469363187764 -7.6114143084816199e-06 -0.0028995230418354953 0.0015320342855072036
leaf_weight=13544 152 22 23 797 165 33 349 20 292 23 32 36 35 25 23 24 1806 20 20 20 2088 24 24 41 27 272 29 2264 39 30
leaf_count=13544 152 22 23 797 165 33 349 20 292 23 32 36 35 25 23 24 1806 20 20 20 2088 24 24 41 27 272 29 2264 39 30
internal_value=0 0.000322917 -2.53955e-06 -3.86236e-05 -6.94678e-07 0.000184808 9.92701e-05 0.000342132 0.000734638 0.00183664 0.00124068 0.00201056 0.00123432 0.00209554 0.00297189 0.00139306 -0.000176719 -0.00149877 -0.000105994 -0.0011726 -6.48029e-05 2.21685e-05 7.27201e-06 0.000401846 0.0031424 -6.83297e-06 0.00138203 -5.48047e-05 -0.000811916 1.25234e-05
internal_weight=0 174 22125 8581 6732 1729 1696 899 550 238 215 163 143 108 83 47 1849 43 312 52 5003 2915 2891 393 51 342 70 2498 204 2294
internal_count=22299 174 22125 8581 6732 1729 1696 899 550 238 215 163 143 108 83 47 1849 43 312 52 5003 2915 2891 393 51 342 70 2498 204 2294
shrinkage=0.05


Tree=100
num_leaves=31
num_cat=0
split_feature=15 10 21 22 24 5 25 11 15 15 1 28 30 13 21 11 7 9 1 22 14 13 19 10 4 16 14 1 28 28
split_gain=0.00709554 0.00779589 0.0541523 0.0287663 0.0383569 0.0265436 0.0251636 0.0230999 0.614673 0.0252373 0.0624193 0.0595083 0.0273304 0.0185397 0.0167277 0.134259 0.0612658 0.0449181 0.0164547 0.0432687 0.0580058 0.0150066 0.0145888 0.0508675 0.0277797 0.0198711 0.0159244 0.0282661 0.0142024 0.0662764
threshold=2.6390250000000006 6.7812400000000007e-06 47.834100000000007 3.1794550000000004 7.0096650000000009e-06 -0.00075634849999999985 0.8307460000000001 0.00030319250000000004 0.74545400000000017 1.0940150000000004 -12.395199999999997 -0.15626499999999985 -0.91560999999999992 3.0775500000000005 21.286350000000002 -0.0030120499999999992 0.0025956900000000003 1.0318250000000003e-06 -15.126499999999998 -0.0066818849999999994 -15.808049999999998 1.9633400000000003 -1.2402049999999998 1.4670150000000002e-05 -9.474599999999999e-05 29.210200000000004 -19.646399999999996 -13.528999999999998 -0.23661499999999999 0.67178150000000003
decision_type=2 2 2 2 2 2 2 2 2 2 2 2 2 2 2 2 2 2 2 2 2 2 2 2 2 2 2 2 2 2
left_child=1 7 3 4 13 -6 21 9 -9 14 11 -11 28 22 18 -16 17 -17 19 20 -1 -7 23 -3 -25 26 27 -24 -12 -30
right_child=-2 2 -4 -5 5 6 -8 8 -10 10 12 -13 -14 -15 15 16 -18 -19 -20 -21 -22 -23 25 24 -26 -27 -28 -29 29 -31
leaf_value=-0.0030026869321992653 0.00089750554285604857 0.0026940324520844366 -0.0021401331853872587 0.001848671282059513 -0.0024125825069495478 -0.00052295616161284625 -0.0020742822391026576 -5.9226936020058884e-05 0.0075500130597772252 -0.00033103462376927317 0.00011504850431762152 -0.0037139195101469971 0.0016509940621563146 0.0013387872826424428 0.0042429189307248245 -0.00013611002670166694 -0.0026175213753595016 0.0024690918020150139 2.0845094759938704e-05 -5.8204770505961016e-05 -0.0004790860008050536 0.00064624307300563844 -0.0023760144709376618 0.0015391261343029327 -0.00064784242506062107 -0.0013675176480709135 -2.0379682375269221e-05 -4.2963310733211001e-05 -0.0024174173309064999 0.00012239474802169884
leaf_weight=29 22 22 31 20 20 163 23 509 28 26 119 26 20 25 21 78 20 21 15462 858 106 33 20 20 53 28 4338 37 37 84
leaf_count=29 22 22 31 20 20 163 23 509 28 26 119 26 20 25 21 78 20 21 15462 858 106 33 20 20 53 28 4338 37 37 84
internal_value=0 -8.86346e-07 -5.70803e-05 -4.36328e-05 -5.15471e-05 -0.000668937 -0.0005097 1.46826e-05 0.00033753 4.42834e-06 -0.000441094 -0.00202248 -0.000124818 -1.90672e-05 1.28045e-05 0.000557037 -9.34125e-05 0.000416509 8.17418e-06 -0.000189125 -0.00102119 -0.000326101 -2.65808e-05 0.00058648 -4.8673e-05 -3.97485e-05 -3.12894e-05 -0.000861578 -0.000272802 -0.000654242
internal_weight=0 22277 4833 4802 4782 239 219 17444 537 16907 312 52 260 4543 16595 140 119 99 16455 993 135 196 4518 95 73 4423 4395 57 240 121
internal_count=22299 22277 4833 4802 4782 239 219 17444 537 16907 312 52 260 4543 16595 140 119 99 16455 993 135 196 4518 95 73 4423 4395 57 240 121
shrinkage=0.05


Tree=101
num_leaves=31
num_cat=0
split_feature=3 15 23 15 12 17 27 30 30 30 15 30 20 21 1 21 4 23 30 27 27 24 9 27 10 24 15 16 30 0
split_gain=0.00697944 0.087473 0.00939601 0.00751965 0.00705083 0.0538847 0.262844 0.00922444 0.0350469 0.00776211 0.0474243 0.0415365 0.0502153 0.0701191 0.0356387 0.215363 0.0717147 0.0405036 0.056511 0.0344944 0.0925118 0.130816 0.159542 0.206849 0.129666 0.0774632 0.0721377 0.128528 0.0575423 0.0348551
threshold=7.1526450000000005e-06 0.49806500000000004 0.018733950000000003 -0.32934699999999995 6.8505050000000008e-10 0.0080739700000000015 -0.12303449999999989 -0.38658499999999968 0.12171999999999984 0.49994999999999928 1.5416250000000002 -0.22689999999999963 0.00046085650000000006 2.8705050000000001 -16.232699999999998 4.2965400000000011 1.3962300000000002e-05 -0.8573869999999999 -1.3211999999999995 -0.27486499999999991 0.13134950000000004 2.2169050000000001e-07 1.2023650000000002e-06 0.044107999999999932 1.0456800000000001e-06 -4.2306749999999996e-08 0.28026950000000006 1.2436500000000001 0.31050000000000028 9.895920000000002
decision_type=2 2 2 2 2 2 2 2 2 2 2 2 2 2 2 2 2 2 2 2 2 2 2 2 2 2 2 2 2 2
left_child=1 2 3 -1 5 7 -7 -2 -9 11 -11 14 13 19 15 16 -6 18 -16 -13 21 22 23 26 -23 -24 27 28 29 -21
right_child=4 -3 -4 -5 9 6 -8 8 -10 10 -12 12 -14 -15 17 -17 -18 -19 -20 20 -22 24 25 -25 -26 -27 -28 -29 -30 -31
leaf_value=0.0010333652499866731 -9.1190807039441188e-05 0.0034343918471131476 -0.00087874356928902366 2.0354465947310505e-05 -0.0018622702406876645 -0.00010362106233114569 -0.0063393267893115989 0.0018008852523442847 2.6921661052862573e-06 -4.6499750650960143e-05 0.0022783457894216884 -6.6902575825134662e-05 0.0024747847605030987 -0.0027256252645747737 -0.00043628846819267366 0.0054067214352211783 0.0014916349310494428 -4.3895459725120606e-06 -0.0032250882929656653 0.00055698293619448524 -3.5513226431787264e-05 0.00054446468939599779 -0.0039766751523711719 0.0057753783564770686 0.005653296924127197 -0.00020817580254515631 -0.0019688186148414388 0.003750993653541498 -0.002024564016610384 0.0021035228339137467
leaf_weight=20 228 20 27 218 37 109 20 35 120 7514 22 568 25 20 198 21 28 11895 20 327 581 23 25 21 27 30 24 35 20 41
leaf_count=20 228 20 27 218 37 109 20 35 120 7514 22 568 25 20 198 21 28 11895 20 327 581 23 25 21 27 30 24 35 20 41
internal_value=0 0.000245847 5.2019e-06 0.000105481 -3.18281e-06 -0.00018656 -0.0010704 0.000111129 0.000408736 1.18372e-06 -3.97128e-05 2.32513e-05 0.000249816 0.000217885 -9.56616e-06 0.00100469 -0.000417511 -1.67672e-05 -0.000692142 0.000252072 0.000409072 0.000859864 0.000626272 0.000925647 0.00330323 -0.00192113 0.000697807 0.000849105 0.000587337 0.000729288
internal_weight=0 285 265 238 22014 512 129 383 155 21502 7536 13966 1767 1742 12199 86 65 12113 218 1722 1154 573 523 468 50 55 447 423 388 368
internal_count=22299 285 265 238 22014 512 129 383 155 21502 7536 13966 1767 1742 12199 86 65 12113 218 1722 1154 573 523 468 50 55 447 423 388 368
shrinkage=0.05


Tree=102
num_leaves=31
num_cat=0
split_feature=8 22 26 3 3 26 22 8 21 27 27 3 18 1 30 9 9 7 11 18 3 2 27 20 10 25 11 23 7 7
split_gain=0.00654656 0.0349233 0.0427269 0.0232107 0.034161 0.0141578 0.014132 0.0397133 0.0777007 0.0530581 0.349634 0.057681 0.0301647 0.128391 0.188311 0.104163 0.185838 0.0560018 0.0799657 0.0272249 0.0614226 0.0267825 0.0525872 0.0187833 0.0200748 0.0171717 0.118735 0.0166778 0.0327571 0.0360225
threshold=1.6138250000000004e-05 -0.059557699999999998 0.21742350000000002 1.4325400000000002e-05 1.2553450000000003e-05 0.34498650000000003 0.25632850000000007 1.664075e-06 5.7538600000000004 0.36124199999999984 -0.19554999999999986 3.1622900000000005e-05 0.021754750000000003 -15.126499999999998 3.8829950000000011 1.6821300000000004e-05 8.280935000000001e-05 0.0051846250000000009 -7.7009949999999993e-05 0.020567500000000006 1.3463800000000001e-05 0.22711450000000002 -0.12303449999999989 -0.00058739099999999993 1.7935050000000002e-06 0.20581350000000001 -2.4415699999999997e-05 0.35457250000000007 0.0043134550000000016 0.00027748600000000002
decision_type=2 2 2 2 2 2 2 2 2 2 2 2 2 2 2 2 2 2 2 2 2 2 2 2 2 2 2 2 2 2
left_child=6 3 -3 4 -2 -5 12 9 -9 10 23 -11 19 14 -14 17 -17 18 -15 25 -21 -20 -23 -8 -25 27 -27 -1 29 -29
right_child=1 2 -4 5 -6 -7 7 8 -10 11 -12 -13 13 15 -16 16 -18 -19 21 20 -22 22 -24 24 -26 26 -28 28 -30 -31
leaf_value=1.1390449165748857e-05 -0.00030807069652718898 -4.1617598927914159e-05 0.0016232971475871568 -0.00024693336541957932 -0.0030331968743627404 -0.0016604673422989436 0.00090052643677265192 0.003236577593918849 -0.00065496068057435534 -0.00017102379600935751 -0.0052479077757407837 0.0021380664202414693 0.0065691688249353321 0.003061646215307216 -6.463871813257752e-05 0.0060035469540162013 -0.00058656792262690551 -0.0020552058984963772 -0.00033571042637329531 0.00070485605523572302 -0.0031668413118625597 -0.00045599458364097614 0.0026994613156168037 -5.8103680875055653e-05 -0.0016664505008678965 0.0040982025265111589 -0.00027013974251791035 -0.00032751864994431598 0.00094902684102721874 -0.0029394995982081375
leaf_weight=17622 23 3233 39 155 23 20 41 23 29 212 39 31 20 21 23 20 23 34 260 20 21 31 23 124 23 20 70 33 21 22
leaf_count=17622 23 3233 39 155 23 20 41 23 29 212 39 31 20 21 23 20 23 34 260 20 21 31 23 124 23 20 70 33 21 22
internal_value=0 -6.28612e-05 -2.1773e-05 -0.000671191 -0.00167063 -0.00040848 1.16758e-05 -0.000244846 0.0010663 -0.000389909 -0.00093956 0.000123551 1.89993e-05 0.000421014 0.00302085 0.000149671 0.0024786 -0.000121722 7.45124e-05 8.73984e-06 -0.00127821 -0.000125264 0.000887996 -4.58066e-05 -0.00030975 1.17062e-05 0.000700603 8.2029e-06 -0.000730889 -0.00137231
internal_weight=0 3493 3272 221 46 175 18806 522 52 470 227 243 18284 455 43 412 43 369 335 17829 41 314 54 188 147 17788 90 17698 76 55
internal_count=22299 3493 3272 221 46 175 18806 522 52 470 227 243 18284 455 43 412 43 369 335 17829 41 314 54 188 147 17788 90 17698 76 55
shrinkage=0.05


Tree=103
num_leaves=31
num_cat=0
split_feature=15 8 18 8 22 21 22 17 21 16 30 24 5 9 8 5 1 27 18 1 30 19 27 14 23 9 12 9 20 27
split_gain=0.006624 0.00673199 0.0381252 0.0194119 0.378628 0.0350094 0.0308649 0.0228241 0.0252823 0.0178812 0.0214223 0.017158 0.0500617 0.0130425 0.0177863 0.0206813 0.0135057 0.0124642 0.0102236 0.0214155 0.0325768 0.0368832 0.00923764 0.0294529 0.00881122 0.188211 0.379175 0.0232817 0.0130864 0.0264291
threshold=2.6390250000000006 -4.4646249999999989e-05 0.061221600000000008 -9.8723849999999978e-06 -0.6849559999999999 4.2965400000000011 -0.6849559999999999 -0.11302099999999998 0.97977400000000003 35.645800000000008 -7.7140300000000002 -1.4744749999999998e-06 4.8104400000000007e-05 -3.4047899999999997e-06 -8.8324949999999983e-08 3.2520700000000009e-05 -9.265604999999999 -0.25124499999999989 0.0013501300000000004 -15.016799999999998 3.8829950000000011 0.39300250000000009 5.6032300000000008 -8.1326699999999992 0.43230650000000009 9.794275000000002e-06 0.00066652650000000003 1.2023650000000002e-06 -0.00058739099999999993 0.63523675000000013
decision_type=2 2 2 2 2 2 2 2 2 2 2 2 2 2 2 2 2 2 2 2 2 2 2 2 2 2 2 2 2 2
left_child=1 2 18 4 -3 7 9 8 -6 10 -5 12 -9 16 15 -15 -11 -4 -1 20 21 -20 24 -24 28 27 -27 -26 29 -8
right_child=-2 3 17 6 5 -7 22 11 -10 13 -12 -13 -14 14 -16 -17 -18 -19 19 -21 -22 -23 23 -25 25 26 -28 -29 -30 -31
leaf_value=8.1410440555543135e-06 0.00086717045712496408 0.0054835138207470838 -0.00058268148752090173 0.0014416350522640728 3.4820773258946825e-05 0.0015516381278805631 -0.0016742514518305791 -0.00011951713845302862 -0.0024214531527832154 -0.0008841866836883128 -0.00030774517567936396 6.1008487592456824e-06 0.0029198221272963565 -0.0027774424572999125 -0.00064054405076509791 -0.00067547308446426707 0.00095331790420459582 -0.0022204616293982743 -0.0034943556165671907 -0.00010016827538119051 -5.6545821294443717e-05 -0.00061360743572004149 -0.00013814983060347872 0.0021931074350868586 -0.00021531478518290684 0.0083650597382802522 -0.00058392758256904295 -0.0020177037219400516 1.4157831197785126e-06 0.00011718753636978365
leaf_weight=1839 22 33 21 21 22 38 35 42 20 20 105 1104 20 25 116 22 20 26 20 524 52 25 42 20 172 20 29 20 17774 50
leaf_count=1839 22 33 21 21 22 38 35 42 20 20 105 1104 20 25 116 22 20 26 20 524 52 25 42 20 172 20 29 20 17774 50
internal_value=0 -8.56388e-07 -7.80426e-05 8.93146e-06 0.000197316 5.73124e-05 -4.09887e-06 1.03055e-05 -0.00113483 -0.00048406 -1.61818e-05 5.15541e-05 0.000860915 -0.000774468 -0.000973004 -0.00179354 3.45656e-05 -0.00148869 -5.10913e-05 -0.000226499 -0.000908945 -0.00189394 4.59551e-06 0.000613869 2.5085e-06 0.000302818 0.00306872 -0.000403064 -1.54406e-06 -0.000620464
internal_weight=0 22277 2507 19770 1279 1246 18491 1208 42 329 126 1166 62 203 163 47 40 47 2460 621 97 45 18162 62 18100 241 49 192 17859 85
internal_count=22299 22277 2507 19770 1279 1246 18491 1208 42 329 126 1166 62 203 163 47 40 47 2460 621 97 45 18162 62 18100 241 49 192 17859 85
shrinkage=0.05


Tree=104
num_leaves=31
num_cat=0
split_feature=3 15 0 21 18 5 24 27 27 12 21 27 27 24 3 27 30 9 8 4 5 27 3 27 27 24 7 1 0 30
split_gain=0.00637997 0.0406053 0.0236205 0.0158184 0.00632098 0.0149807 0.0352362 0.0480978 0.0849529 0.0229824 0.0285728 0.042618 0.0283521 0.0789294 0.234016 0.569673 0.140197 0.27634 0.384193 0.307589 0.151978 0.0870181 0.0756628 0.0614147 0.0594286 0.0577477 0.0367746 0.0478349 0.0462981 0.15393
threshold=7.7376450000000017e-06 0.56702800000000009 5.274020000000001 0.0030977750000000005 0.00070520150000000009 -0.00021834499999999997 7.0096650000000009e-06 -0.42604449999999999 0.20940800000000012 2.1900450000000003e-07 0.042265750000000012 -0.83854699999999993 0.60370500000000005 5.2881150000000013e-06 1.0329650000000002e-05 -0.19554999999999986 -3.8604949999999993 7.8753600000000015e-06 2.9352100000000003e-05 -4.8309049999999991e-05 0.00010171500000000001 -0.35332384999999972 1.6986100000000003e-05 -0.39690700000000001 -0.32627999999999996 3.675995000000001e-05 0.057564150000000001 -17.753849999999996 4.7165450000000009 -1.2055199999999993
decision_type=2 2 2 2 2 2 2 2 2 2 2 2 2 2 2 2 2 2 2 2 2 2 2 2 2 2 2 2 2 2
left_child=1 2 3 -1 -2 6 -6 -8 -9 10 11 -7 13 26 15 -15 21 19 -19 -18 22 -16 23 -21 -24 -23 27 -11 -29 -30
right_child=4 -3 -4 -5 5 9 7 8 -10 12 -12 -13 -14 14 16 -17 17 18 -20 20 -22 25 24 -25 -26 -27 -28 28 29 -31
leaf_value=-0.0011965264204600655 1.7194217878696396e-05 0.0017224044100797844 0.0016545461527460827 4.7279374252771812e-05 -8.8772788216158612e-05 6.3281015404341315e-05 -0.00026441096488269981 -0.0044683180431920018 -0.00058251819290699829 0.0023485715601924786 -0.0001353321580178459 -0.0031257962137169674 -7.4965133508131022e-05 -0.00021161227576577894 -7.0784863562514254e-05 0.0094571439772844317 0.0043897423347295968 0.0081228568909111724 -0.00063946793300353674 -0.00026979444275024007 -0.0050351264045548315 -0.0011224078924796132 -0.00035751572805955739 -0.0037615891927634949 0.0031611421694313843 -0.0046671878677443605 -0.00090956446587444261 -6.4168280723600628e-05 -0.00020761211990526251 0.0016554117142144544
leaf_weight=27 13277 39 22 480 1110 22 122 22 39 23 1716 20 2662 39 113 25 33 29 22 34 20 27 28 20 21 20 98 1717 294 178
leaf_count=27 13277 39 22 480 1110 22 122 22 39 23 1716 20 2662 39 113 25 33 29 22 34 20 27 28 20 21 20 98 1717 294 178
internal_value=0 0.000165425 5.06388e-05 -1.89588e-05 -4.32385e-06 -3.8118e-05 -0.000194754 -0.000837592 -0.00198395 -9.83552e-06 -0.000166868 -0.00145533 4.12588e-05 0.000154133 0.000775291 0.00356525 0.00028876 0.00114793 0.00434303 0.000103383 -0.00104662 -0.000822797 -0.000272148 -0.00156305 0.00115048 -0.00263082 3.82373e-05 8.02285e-05 5.63949e-05 0.000494969
internal_weight=0 568 529 507 21731 8454 1293 183 61 7161 1758 42 5403 2741 431 64 367 207 51 156 123 160 103 54 49 47 2310 2212 2189 472
internal_count=22299 568 529 507 21731 8454 1293 183 61 7161 1758 42 5403 2741 431 64 367 207 51 156 123 160 103 54 49 47 2310 2212 2189 472
shrinkage=0.05


Tree=105
num_leaves=31
num_cat=0
split_feature=3 25 23 23 12 17 27 31 31 31 31 20 21 27 27 24 9 27 10 24 9 24 27 27 27 31 1 27 9 23
split_gain=0.00591751 0.0706658 0.00850751 0.00685747 0.00614092 0.048087 0.23658 0.00837026 0.0316232 0.00730592 0.0361551 0.0418146 0.0606709 0.0306922 0.0831005 0.112296 0.145508 0.185576 0.118253 0.0710079 0.0658733 0.0562014 0.0609041 0.0622276 0.0482738 0.0448354 0.0303574 0.203849 0.224475 0.0350067
threshold=7.1526450000000005e-06 -0.012671449999999999 0.018733950000000003 0.0055626700000000013 6.8505050000000008e-10 0.0080739700000000015 -0.19554999999999986 0.39185999999999949 -0.082795000000000382 -0.49994999999999917 0.23124499999999995 0.00046085650000000006 2.8705050000000001 -0.27486499999999991 0.13134950000000004 2.2169050000000001e-07 1.2023650000000002e-06 0.044107999999999932 1.0456800000000001e-06 -4.2306749999999996e-08 -5.0692399999999991e-06 -2.5312649999999995e-07 0.017475500000000008 -0.039689999999999996 -0.010563500000000002 -0.15623999999999991 -16.232699999999998 -0.22542900000000002 -2.5981949999999996e-06 -0.8573869999999999
decision_type=2 2 2 2 2 2 2 2 2 2 2 2 2 2 2 2 2 2 2 2 2 2 2 2 2 2 2 2 2 2
left_child=1 -1 3 -3 5 7 -7 8 -2 -6 11 12 13 -11 15 16 17 20 -17 -18 -15 24 23 -23 -22 -25 27 -12 -29 -28
right_child=4 2 -4 -5 9 6 -8 -9 -10 10 26 -13 -14 14 -16 18 19 -19 -20 -21 21 22 -24 25 -26 -27 29 28 -30 -31
leaf_value=0.0030179165198378974 1.2067646961185354e-05 1.6839416968166814e-05 -0.00085444037708489655 0.00098421931679695276 -3.8532169057107448e-05 -1.1589171496548518e-05 -0.005605781201207403 -8.5573132016379899e-05 0.0017379330862347748 -6.4288468843925697e-05 -0.0019931317365262657 0.0022638568939873948 -0.0025336584402248265 -0.0017315943782806346 -3.6264864948910222e-05 0.00049658405769150706 -0.0038085615374147891 0.0054716715123504407 0.0053202114545490113 -0.00020049808605108411 0.0040178376121427087 -0.0015675486396066847 -0.0012543971980145821 0.0028626829235387659 0.00073524665467197175 0.00082951686492914326 -0.00064261759050060149 0.0070852325233863676 0.00024669690445686381 -3.2315704488913671e-06
leaf_weight=21 121 218 26 20 7536 106 23 228 34 570 35 25 20 27 584 24 25 21 27 30 24 25 39 30 21 282 218 20 30 11889
leaf_count=21 121 218 26 20 7536 106 23 228 34 570 35 25 20 27 584 24 25 21 27 30 24 25 39 30 21 282 218 20 30 11889
internal_value=0 0.000226373 4.31791e-06 9.81318e-05 -2.93069e-06 -0.000174067 -0.001009 0.000107152 0.000390645 1.14436e-06 2.25537e-05 0.000233455 0.000204433 0.000236105 0.00038384 0.00081052 0.000592529 0.000877856 0.00305027 -0.00184053 0.000662521 0.000816063 0.000616208 0.000832687 0.00248596 0.00102501 -8.1336e-06 0.000933482 0.00298211 -1.47444e-05
internal_weight=0 285 264 238 22014 512 129 383 155 21502 13966 1774 1749 1729 1159 575 524 469 51 55 448 421 376 337 45 312 12192 85 50 12107
internal_count=22299 285 264 238 22014 512 129 383 155 21502 13966 1774 1749 1729 1159 575 524 469 51 55 448 421 376 337 45 312 12192 85 50 12107
shrinkage=0.05


Tree=106
num_leaves=31
num_cat=0
split_feature=27 0 16 1 30 2 11 2 16 20 8 8 17 19 16 20 27 17 27 27 3 25 27 2 20 24 30 30 27 27
split_gain=0.00583739 0.0785834 0.00643773 0.042887 0.153394 0.0515909 0.0287194 0.0528005 0.142283 0.202077 0.0322272 0.102708 0.0354093 0.0467004 0.030119 0.0673258 0.024619 0.0923448 0.0467981 0.154621 0.0747594 0.0659865 0.114676 0.0731271 0.0221861 0.0151171 0.0592391 0.141046 0.0770034 0.399083
threshold=5.391045000000001 0.68426300000000018 10.198000000000002 -15.126499999999998 1.7234799999999997 2.3154300000000005 0.00035824400000000002 0.53187750000000011 22.760400000000004 6.2278450000000007e-05 -1.1278699999999998e-05 -1.5288449999999994e-05 -0.35794499999999996 -3.1273699999999995 35.645800000000008 0.00032810050000000007 -1.0187039999999998 2.4687050000000004 0.23661500000000005 0.044107999999999932 1.0489950000000001e-05 0.15735250000000003 -0.22542900000000002 -0.13878449999999998 0.0033850450000000002 3.9239150000000009e-06 -4.5333949999999987 -3.6634699999999998 -0.17305199999999996 0.36124199999999984
decision_type=2 2 2 2 2 2 2 2 2 2 2 2 2 2 2 2 2 2 2 2 2 2 2 2 2 2 2 2 2 2
left_child=2 -2 25 4 -4 -6 7 10 -9 -10 11 12 -5 -14 -8 -16 24 18 19 20 -18 22 -22 -23 -12 -1 -27 -28 -29 -30
right_child=1 -3 3 6 5 -7 14 8 9 -11 16 -13 13 -15 15 -17 17 -19 -20 -21 21 23 -24 -25 -26 26 27 28 29 -31
leaf_value=-7.9983856699645621e-07 0.0031565894949294273 -0.00010519105550224149 0.0036043821425742607 0.0015281262635253371 -0.00062908239477918774 0.0021550997026497497 -0.00030853225422043613 -0.00087947138439089265 0.0066480284556746485 -5.1200399175286298e-06 -4.4501976429324317e-05 0.0037701468764377447 -0.0026386464098149668 0.0001710841915846686 -0.0040222767773957458 -0.00057978926792091043 0.0018271397407760002 -0.0034357701916014776 -5.8477464590814648e-05 -0.0042892457700024053 -0.00058205849309822294 0.0028482541409175612 -0.0047864914922367621 -0.0010296625069214872 0.0015597777031159596 -0.00018596984263529687 0.0049811618887542868 -0.00078732060013635423 0.0076364601426757873 -0.00057262573347639106
leaf_weight=20117 21 153 35 25 99 20 145 47 21 25 342 21 21 50 20 49 31 25 447 30 55 20 23 31 23 242 20 64 20 57
leaf_count=20117 21 153 35 25 99 20 145 47 21 25 342 21 21 50 20 49 31 25 447 30 55 20 23 31 23 242 20 64 20 57
internal_value=0 0.000288472 -2.26866e-06 -9.87061e-05 0.000694651 -0.000161153 -0.000182908 -9.03857e-05 0.00105533 0.00303219 -0.000183525 0.000602725 -9.0148e-05 -0.000659963 -0.000717721 -0.00157761 -0.000273098 -0.000454874 -0.000337885 -0.000995226 -0.000377598 -0.000907418 -0.00182183 0.000491089 5.65896e-05 5.27433e-06 0.000308485 0.0010517 0.000494333 0.0015596
internal_weight=0 174 22125 1605 154 119 1451 1237 93 46 1144 117 96 71 214 69 1027 662 637 190 160 129 78 51 365 20520 403 161 141 77
internal_count=22299 174 22125 1605 154 119 1451 1237 93 46 1144 117 96 71 214 69 1027 662 637 190 160 129 78 51 365 20520 403 161 141 77
shrinkage=0.05


Tree=107
num_leaves=31
num_cat=0
split_feature=15 16 2 2 15 6 13 6 13 16 12 8 3 4 4 25 15 2 9 7 24 6 0 2 30 14 1 2 27 3
split_gain=0.00616007 0.00562873 0.0394035 0.236587 0.42579 0.0318519 0.0735182 0.0487703 0.0704672 0.0311844 0.0482389 0.0964508 0.0719867 0.0281822 0.0758751 0.211936 0.0368385 0.0254643 0.0287519 0.0777727 0.0231517 0.0348136 0.0582557 0.0230995 0.0206117 0.0212973 0.0328166 0.027708 0.0244278 0.0192422
threshold=2.6390250000000006 10.198000000000002 -1.2804649999999997 -2.0605549999999995 -0.95944149999999995 -6.3626149999999987e-05 -0.062333349999999989 -4.083924999999999e-05 1.3796950000000001 8.8966850000000015 0.00092522000000000014 6.2919150000000003e-07 1.0814750000000002e-05 -0.00024283949999999996 -0.00011564799999999999 -0.034001399999999994 0.71141950000000009 -0.88553049999999989 7.8753600000000015e-06 0.0011223800000000003 1.1242550000000002e-06 2.5441800000000004e-05 4.5184100000000011 -2.5874299999999995 -2.6918599999999997 -8.0189849999999989 -9.6708399999999983 0.22711450000000002 -0.5347949999999998 2.1326100000000002e-05
decision_type=2 2 2 2 2 2 2 2 2 2 2 2 2 2 2 2 2 2 2 2 2 2 2 2 2 2 2 2 2 2
left_child=1 9 3 23 -5 6 -4 8 -7 -1 11 12 -11 16 15 -15 -9 -16 20 -20 -19 24 -23 -3 -22 26 -26 29 -28 -27
right_child=-2 2 5 4 -6 7 -8 13 -10 10 -12 -13 -14 14 17 -17 -18 18 19 -21 21 22 -24 -25 25 27 28 -29 -30 -31
leaf_value=-6.3076455109379348e-08 0.00083625203062018217 -0.00044251163625104754 -0.00062480988013299387 0.0085631112546568893 -0.00069466974032197709 -0.00052811750359251159 0.0033748168469173835 -0.00024555766353695355 -0.0040397768683033061 0.0029054596941629524 -0.00046205717134788367 0.0037135364527910437 -0.00018382686230324909 0.0057946306886151435 -0.0014687313187982326 -0.00065752010750916919 -0.0029979508469114083 0.00015923811960094077 0.0034023942523344884 4.3556837010241692e-07 0.00010574925227992936 -0.00068348926463621519 -0.0035454319401315802 0.0011742431055754424 -0.00027165117967049282 -0.0001983750862359557 -0.00065819059375263312 0.0012651062847518395 -0.0028668211993663727 -0.0016053265680715538
leaf_weight=20463 22 190 27 23 27 50 20 31 20 24 70 29 88 20 39 35 20 243 20 105 250 116 21 25 62 150 21 28 31 29
leaf_count=20463 22 190 27 23 27 50 20 31 20 24 70 29 88 20 39 35 20 243 20 105 250 116 21 25 62 150 21 28 31 29
internal_value=0 -8.25854e-07 -9.10852e-05 0.000465941 0.00356391 -0.000201408 0.00107716 -0.000247955 -0.00153145 6.17259e-06 0.000610914 0.00114359 0.000478163 -0.000174373 -0.00012422 0.00168872 -0.00132493 -0.000213648 -0.000168157 0.000544749 -0.000261861 -0.000406391 -0.00112218 -0.000254517 -0.000234652 -0.000499762 -0.00104856 -0.000197525 -0.00197487 -0.000426317
internal_weight=0 22277 1603 265 50 1338 47 1291 70 20674 211 141 112 1221 1170 55 51 1115 1076 125 951 708 137 215 571 321 114 207 52 179
internal_count=22299 22277 1603 265 50 1338 47 1291 70 20674 211 141 112 1221 1170 55 51 1115 1076 125 951 708 137 215 571 321 114 207 52 179
shrinkage=0.05


Tree=108
num_leaves=31
num_cat=0
split_feature=15 10 23 22 2 11 15 15 1 27 30 26 24 25 10 7 13 26 9 3 3 10 5 2 1 22 14 24 25 14
split_gain=0.00555946 0.0061689 0.0505509 0.0332422 0.032319 0.0192339 0.512537 0.0191193 0.0549101 0.0510219 0.0242678 0.0179534 0.0217735 0.0171027 0.0755634 0.0472896 0.0160545 0.0154982 0.0897369 0.0618676 0.0302301 0.0287224 0.0154299 0.0141117 0.0134789 0.0378721 0.0536843 0.012184 0.0119006 0.0178437
threshold=2.6390250000000006 6.7812400000000007e-06 -6.5773949999999992 -0.94314649999999989 2.8307800000000003 0.00030319250000000004 0.74545400000000017 1.0940150000000004 -12.395199999999997 0.43870000000000015 -0.91560999999999992 0.34498650000000003 3.9239150000000009e-06 -0.034001399999999994 2.3722950000000003e-05 0.0046168100000000016 3.0775500000000005 0.21742350000000002 -1.7780499999999997e-05 2.9758600000000003e-05 9.9873700000000016e-06 -5.0799899999999992e-07 -0.00075634849999999985 0.39091350000000008 -15.126499999999998 -0.0066818849999999994 -15.808049999999998 -1.5535299999999998e-06 0.00059914350000000018 -14.499449999999998
decision_type=2 2 2 2 2 2 2 2 2 2 2 2 2 2 2 2 2 2 2 2 2 2 2 2 2 2 2 2 2 2
left_child=1 5 -3 4 -4 7 -7 17 9 -9 23 12 13 14 15 -5 -15 24 -19 20 -20 -22 -14 -10 25 26 -1 -28 -27 -30
right_child=-2 2 3 11 -6 6 -8 8 10 -11 -12 -13 22 16 -16 -17 -18 18 19 -21 21 -23 -24 -25 -26 28 27 -29 29 -31
leaf_value=-0.0028605310065703917 0.0007944394151722505 -0.0024420630266170276 -0.002192768322170845 0.00038732000975869599 0.00010962200215511043 -5.4637137977476001e-05 0.0068937185093610812 -0.0034334832739729721 -0.0001050774875176278 -0.0003010870780529401 0.0015859326548525133 0.0011944678182286832 -0.0017897016020253346 -3.1038951231161198e-05 -0.00039872617920549166 0.0036492455743064056 0.0012396736431401223 0.0036267009330913425 0.0015412668124190534 0.002510166323981653 -0.0020342752521033758 -0.00018147785736358875 -0.00037144930369841075 -0.001433773006746461 1.7193523701131959e-05 5.99229286378306e-05 -0.0015368541837960947 -0.00016367340139411334 -0.00097484976162936967 -3.8124159477951959e-05
leaf_weight=29 22 22 35 20 27 509 28 26 218 26 20 30 21 4333 74 25 25 20 20 23 26 107 221 22 15411 631 20 84 78 146
leaf_count=29 22 22 35 20 27 509 28 26 218 26 20 30 21 4333 74 25 25 20 20 23 26 107 221 22 15411 631 20 84 78 146
internal_value=0 -7.84561e-07 -5.07719e-05 -3.98369e-05 -0.00119011 1.30648e-05 0.000307661 3.70788e-06 -0.000384071 -0.00186729 -8.74279e-05 -2.48196e-05 -3.25709e-05 -7.60065e-06 0.000583797 0.0021995 -2.37494e-05 1.09984e-05 0.000452979 9.23288e-05 -0.000271137 -0.000543679 -0.000494521 -0.000226875 5.71592e-06 -0.000173314 -0.000958203 -0.000427747 -5.12199e-05 -0.000364305
internal_weight=0 22277 4833 4811 62 17444 537 16907 312 52 260 4749 4719 4477 119 45 4358 16595 196 176 153 133 242 240 16399 988 133 104 855 224
internal_count=22299 22277 4833 4811 62 17444 537 16907 312 52 260 4749 4719 4477 119 45 4358 16595 196 176 153 133 242 240 16399 988 133 104 855 224
shrinkage=0.05


Tree=109
num_leaves=31
num_cat=0
split_feature=2 18 11 30 26 1 26 5 23 20 21 27 27 23 22 20 30 14 18 20 7 24 8 16 25 22 23 12 27 14
split_gain=0.00526452 0.0383232 0.0207419 0.0762278 0.0172765 0.0296556 0.0233834 0.0137711 0.0113328 0.0184253 0.0124083 0.00842175 0.0554684 0.216874 0.122105 0.120621 0.0547499 0.260558 0.14791 0.0764721 0.0665376 0.0616865 0.0637874 0.101287 0.0867397 0.0860764 0.0703521 0.0590517 0.058069 0.048397
threshold=-2.4210399999999992 0.13004500000000005 -0.0042189849999999989 0.71212500000000001 1.4978200000000002 -12.923849999999998 1.0444035000000003 0.00012308650000000004 0.048279850000000006 0.00013560600000000003 5.7538600000000004 0.41121150000000001 -0.017273000000000035 0.43230650000000009 0.49056700000000003 0.00020448100000000004 -1.9709400000000008 -15.224999999999998 0.0013770250000000003 5.4934400000000007e-05 0.0032342650000000005 1.0057200000000003e-06 7.4887700000000012e-08 0.17527550000000003 -0.0042965999999999994 -0.0018547349999999999 -0.0048840399999999992 3.1220750000000008e-10 0.062192999999999977 -6.3181949999999993
decision_type=2 2 2 2 2 2 2 2 2 2 2 2 2 2 2 2 2 2 2 2 2 2 2 2 2 2 2 2 2 2
left_child=1 8 3 -2 6 -6 11 -3 10 -10 -1 12 -4 14 15 16 -14 18 -18 20 21 22 24 -24 -19 -25 -26 -28 29 -29
right_child=2 7 4 -5 5 -7 -8 -9 9 -11 -12 -13 13 -15 -16 -17 17 19 -20 -21 -22 -23 23 25 26 -27 27 28 -30 -31
leaf_value=-2.321381443148664e-05 0.0034746642231129957 -0.0006991119015895363 -1.3389977381598794e-05 -0.00019939057814137109 -0.0023873471695696935 -0.00018955998429687912 0.0012486763099380034 -0.0023707737918646837 -0.00016239395838693537 -0.0014198452827357058 0.0011690435077484423 -3.2801521400220823e-05 -0.00021902037498630655 0.0050104434553456187 -0.0034764155528550461 0.0038689557179484679 0.0016924342322454323 -0.0023953483323250271 0.0070927804602043971 0.0031689099882814017 -0.00052554843176282138 0.0027469500976925096 -0.0027347754702212704 -0.0026522773589721721 0.0030527980928684796 0.00038843032647069812 -0.0019958569154065724 0.0013335354289929144 1.5098510519247133e-05 -0.00054252067892752499
leaf_weight=2710 20 28 9536 48 20 66 38 22 137 37 22 7815 497 24 22 23 32 23 21 22 252 27 37 26 31 222 21 290 191 39
leaf_count=2710 20 28 9536 48 20 66 38 22 137 37 22 7815 497 24 22 23 32 23 21 22 252 27 37 26 31 222 21 290 191 39
internal_value=0 -6.21464e-05 9.49723e-06 0.000881214 6.42191e-06 -0.000700673 9.59092e-06 -0.00143464 -3.85316e-05 -0.000429783 -1.36129e-05 7.13229e-06 3.46625e-05 0.000289234 0.000225434 0.000271865 0.00022407 0.000402527 0.00383219 0.000248614 0.000193181 0.000392872 0.000320644 -0.000294436 0.000615263 6.96465e-05 0.000736319 0.000603582 0.000708559 0.00111115
internal_weight=0 2956 19343 68 19275 86 19189 50 2906 174 2732 19151 11336 1800 1776 1754 1731 1234 53 1181 1159 907 880 285 595 248 572 541 520 329
internal_count=22299 2956 19343 68 19275 86 19189 50 2906 174 2732 19151 11336 1800 1776 1754 1731 1234 53 1181 1159 907 880 285 595 248 572 541 520 329
shrinkage=0.05


Tree=110
num_leaves=31
num_cat=0
split_feature=29 15 15 18 10 11 15 23 13 22 19 16 3 1 16 21 1 13 4 1 9 23 28 28 6 18 23 30 30 25
split_gain=0.00532621 0.0758622 0.0063949 0.0050067 0.0154467 0.0408707 0.440075 0.0384358 0.0271015 0.0238012 0.0252662 0.0243695 0.0203811 0.0192704 0.0818206 0.0506477 0.0401525 0.0526353 0.0386964 0.0385647 0.0239388 0.119172 0.15488 0.305953 0.287143 0.0628242 0.0247151 0.0283146 0.0394691 0.0773584
threshold=5.391045000000001 0.35941150000000005 2.6390250000000006 0.00070520150000000009 6.7812400000000007e-06 0.00030319250000000004 0.74545400000000017 -6.5773949999999992 3.0607200000000003 -1.5107249999999997 10.466495000000002 68.903750000000016 7.9071800000000014e-06 -14.754349999999997 54.163350000000008 1.2951400000000002 -14.551649999999997 -0.27264999999999995 3.0248850000000001e-05 -17.030649999999998 5.1028300000000007e-07 0.093377550000000017 0.32628000000000007 -0.33758199999999988 3.8347400000000012e-05 0.061221600000000008 0.027112500000000001 -1.4406149999999995 0.76082999999999956 -0.083844549999999976
decision_type=2 2 2 2 2 2 2 2 2 2 2 2 2 2 2 2 2 2 2 2 2 2 2 2 2 2 2 2 2 2
left_child=2 -2 3 -1 5 13 -7 -6 9 -9 11 12 -11 14 15 -5 17 -15 19 -17 26 -22 23 -23 -25 -24 -18 -28 29 -29
right_child=1 -3 -4 4 7 6 -8 8 -10 10 -12 -13 -14 16 -16 18 20 -19 -20 -21 21 22 25 24 -26 -27 27 28 -30 -31
leaf_value=1.7560126372365502e-05 -0.0001112354218638626 0.0030935731406013176 -0.00089583382359705868 -0.00020721027284778686 -0.002235319981859489 -0.00019273643240187553 0.0065285573497281552 -0.0013945684782428495 0.0014394761248649115 -0.0014991204516162625 0.0012001948403277702 -0.0018495709022750989 -0.00011462395692862787 0.0034033607485616812 0.0028129883632936983 -0.0041698874032590543 -5.8175029976480509e-06 0.00011334612713360384 -0.00035727426364150905 -0.001295194165452683 -2.0423312450408365e-05 0.00020465569266969611 -0.00061565609310491713 0.008042155526687994 0.00049189716344699263 0.0023355678533500232 -8.0751621084924809e-05 -0.0032509466532172995 -0.00018536747147758094 -0.00061686503316686712
leaf_weight=13544 153 21 20 385 22 187 28 38 27 27 35 21 1716 20 20 20 3362 31 38 28 1412 68 100 34 20 22 557 37 193 113
leaf_count=13544 153 21 20 385 22 187 28 38 27 27 35 21 1716 20 20 20 3362 31 38 28 1412 68 100 34 20 22 557 37 193 113
internal_value=0 0.000275552 -2.16705e-06 -1.35849e-06 -3.12888e-05 4.41142e-06 0.000682595 -0.00015764 -0.000133118 -0.000156232 -0.000130075 -0.000156469 -0.000136071 -1.81597e-05 -0.000319258 -0.000452262 6.60816e-06 0.00140355 -0.0015493 -0.00249298 -5.43035e-06 0.000155898 0.00117625 0.00243597 0.00524576 -8.34682e-05 -6.81145e-05 -0.000300828 -0.000658212 -0.00126661
internal_weight=0 174 22125 22105 8561 6675 215 1886 1864 1837 1799 1764 1743 6460 491 471 5969 51 86 48 5918 1656 244 122 54 122 4262 900 343 150
internal_count=22299 174 22125 22105 8561 6675 215 1886 1864 1837 1799 1764 1743 6460 491 471 5969 51 86 48 5918 1656 244 122 54 122 4262 900 343 150
shrinkage=0.05


Tree=111
num_leaves=31
num_cat=0
split_feature=22 1 6 10 27 27 1 18 27 27 13 9 9 27 2 22 23 8 15 27 9 19 1 30 4 8 1 19 22 14
split_gain=0.00518626 0.0526555 0.060624 0.0331111 0.0497491 0.0775676 0.0254616 0.0100863 0.0530478 0.233362 0.217264 0.0852316 0.185795 0.0267179 0.0204693 0.015428 0.0131136 0.0123747 0.0146456 0.0107084 0.00981764 0.0118537 0.0111681 0.00830264 0.0295328 0.0138138 0.00712179 0.0569583 0.0389025 0.0536657
threshold=0.49056700000000003 -16.232699999999998 -5.1063549999999993e-05 1.2644700000000002e-06 0.26162950000000007 -1.1693709999999997 -5.3980549999999994 0.025661000000000003 0.57461550000000006 0.026820000000000014 0.73928000000000005 1.6821300000000004e-05 6.6670550000000008e-05 -0.32627999999999996 3.4442300000000006 -0.94314649999999989 0.46573400000000004 -3.4258599999999994e-06 -1.7384499999999996 1.8482720000000004 2.0638600000000004e-06 7.0867350000000009 -14.124499999999999 -4.0858649999999992 -4.8309049999999991e-05 1.006097e-05 -15.126499999999998 2.7505450000000002 -0.0078427699999999989 -16.265799999999995
decision_type=2 2 2 2 2 2 2 2 2 2 2 2 2 2 2 2 2 2 2 2 2 2 2 2 2 2 2 2 2 2
left_child=7 -2 -3 6 5 -5 23 15 9 11 -11 13 -13 20 17 -1 26 -10 -19 -18 21 22 -9 25 -25 -4 27 28 29 -17
right_child=1 2 3 4 -6 -7 -8 8 14 10 -12 12 -14 -15 -16 16 19 18 -20 -21 -22 -23 -24 24 -26 -27 -28 -29 -30 -31
leaf_value=-0.001356894710278582 0.0020557355430210009 -0.0029926970766246085 -3.1030698324763723e-05 -0.00019334782745041278 -7.6285871300324037e-05 -0.0043963834859563839 0.0018530830817690006 -0.0012392268844580809 -0.0013735274612877726 0.00088078146258465436 0.0074700656484558495 0.0057027731474954641 -0.00027869988670981667 -0.0018066960257581541 0.00095768077522874462 -0.0024793363522385824 -0.0016819922536212421 -0.0012760224436767333 -0.00013645169588236405 -8.523777595699012e-05 -0.00098487405319853385 0.0010273398116017538 -8.6033913489610013e-06 0.0020248985193791753 -0.00012022975698688671 -0.0013801052096162247 9.994509420230296e-06 0.0024997979523136782 -3.753690676142992e-05 -0.00039336648132489615
leaf_weight=21 25 20 138 23 74 21 20 21 36 29 22 20 37 27 26 37 21 35 145 21 30 24 151 21 68 22 19246 21 1712 185
leaf_count=21 25 20 138 23 74 21 20 21 36 29 22 20 37 27 26 37 21 35 145 21 30 24 151 21 68 22 19246 21 1712 185
internal_value=0 -0.000171556 -0.000308368 -0.000169643 -0.000867934 -0.00219934 0.00013667 3.38924e-06 0.000205042 0.000589014 0.00372322 7.33866e-05 0.00182006 -0.000320133 -0.000367742 -2.32919e-06 -9.90123e-07 -0.000527284 -0.000358035 -0.000883615 -0.000142535 -1.36057e-05 -0.000158854 -1.194e-06 0.000385924 -0.000216528 7.58391e-07 -9.01666e-05 -0.000118289 -0.000741028
internal_weight=0 432 407 387 118 44 269 21867 603 361 51 310 57 253 242 21264 21243 216 180 42 226 196 172 249 89 160 21201 1955 1934 222
internal_count=22299 432 407 387 118 44 269 21867 603 361 51 310 57 253 242 21264 21243 216 180 42 226 196 172 249 89 160 21201 1955 1934 222
shrinkage=0.05


Tree=112
num_leaves=31
num_cat=0
split_feature=15 16 10 15 10 10 27 20 7 6 1 1 19 10 2 15 27 27 27 5 27 23 16 27 27 4 2 4 27 27
split_gain=0.00509991 0.0049139 0.0406002 0.0985058 0.223734 0.0899653 0.104275 0.0310856 0.0274941 0.0764657 0.0396471 0.0469234 0.0959626 0.035893 0.0667633 0.0980956 0.0534818 0.0408323 0.200005 0.0384382 0.172106 0.0298171 0.027319 0.0432799 0.101219 0.0332522 0.0234632 0.0150714 0.0209875 0.0528234
threshold=2.6390250000000006 10.198000000000002 -1.2766349999999999e-06 -1.7384499999999996 -3.5820349999999997e-05 -4.6445099999999992e-06 0.33758199999999999 0.00094370300000000005 0.052691600000000005 0.00051479700000000011 -16.595249999999997 -15.395849999999998 -0.32189749999999995 6.7812400000000007e-06 0.43777950000000004 0.81367600000000018 0.062192999999999977 0.41121150000000001 -0.27486499999999991 9.5721450000000005e-05 0.18449200000000018 -0.14712849999999997 8.8966850000000015 -0.64621549999999994 0.28691050000000012 -2.8854049999999999e-05 -1.2804649999999997 -7.7401649999999984e-06 -1.2254739999999997 0.36124199999999984
decision_type=2 2 2 2 2 2 2 2 2 2 2 2 2 2 2 2 2 2 2 2 2 2 2 2 2 2 2 2 2 2
left_child=1 22 3 4 -3 7 -7 26 10 -10 21 12 -12 14 19 16 -16 18 -15 27 -21 -4 -1 -24 -25 -26 -5 28 -13 -30
right_child=-2 2 8 5 -6 6 -8 -9 9 -11 11 13 -14 17 15 -17 -18 -19 -20 20 -22 -23 23 24 25 -27 -28 -29 29 -31
leaf_value=-4.8889633463085176e-08 0.00076089642455124046 -0.00096811700544397665 -0.0031238734174985441 5.3051690064102008e-05 0.0063305064495320293 0.0033731266531456063 -0.00083664547055377629 -0.0022533624521678406 0.0033688782138051468 -0.00028919574397150426 -0.00073210051220182031 1.2645423370111336e-05 0.0039574015262769536 -9.0882549729707165e-05 0.0013211344320249434 0.0035773855134250661 -0.0019245244933038274 -0.00017013484450093899 -0.0046402220747300557 -0.0053207260786439295 -2.6166538406290454e-05 -0.00067724102019300599 -0.00022710508692204927 0.0037180968684454758 0.0021392143033676803 -0.0001839900578814385 -0.0013864903105422855 3.2663649677315277e-05 -0.0021664467381197028 -0.00012274111503820465
leaf_weight=20463 22 21 20 148 21 38 24 21 20 50 24 131 20 78 30 29 22 118 35 20 66 33 94 30 20 67 35 463 50 86
leaf_count=20463 22 21 20 148 21 38 24 21 20 50 24 131 20 78 30 29 22 118 35 20 66 33 94 30 20 67 35 463 50 86
internal_value=0 -7.51435e-07 -8.5085e-05 0.000430888 0.00268119 7.55759e-05 0.00174354 -0.000431354 -0.000207803 0.000755968 -0.000262875 -0.000202386 0.00139949 -0.00026487 -0.00012174 0.00124739 -5.2029e-05 -0.00082066 -0.00149997 -0.000257647 -0.00125746 -0.0016005 5.78754e-06 0.00057181 0.00121367 0.00035008 -0.000222271 -0.000139861 -0.000439032 -0.000874103
internal_weight=0 22277 1603 308 42 266 62 204 1295 70 1225 1172 44 1128 897 81 52 231 113 816 86 53 20674 211 117 87 183 730 267 136
internal_count=22299 22277 1603 308 42 266 62 204 1295 70 1225 1172 44 1128 897 81 52 231 113 816 86 53 20674 211 117 87 183 730 267 136
shrinkage=0.05


Tree=113
num_leaves=31
num_cat=0
split_feature=3 13 0 0 17 21 24 0 12 17 28 30 30 18 1 9 10 2 20 20 5 9 28 22 8 11 11 28 28 4
split_gain=0.00492935 0.0380283 0.017604 0.0195195 0.0397698 0.0158545 0.00796859 0.0074746 0.00518984 0.043495 0.211023 0.00769118 0.028826 0.00615954 0.0541968 0.314917 0.0440056 0.0799103 0.148485 0.0297719 0.0345238 0.0342539 0.161925 0.237655 0.0292328 0.0271199 0.0252786 0.0243922 0.0549938 0.0200137
threshold=7.7376450000000017e-06 -2.8657299999999997 5.274020000000001 -4.2393499999999991 -0.0089821649999999986 0.0030977750000000005 6.927555000000001e-07 -2.1615799999999994 6.8505050000000008e-10 0.0080739700000000015 0.12303449999999992 -0.38658499999999968 0.08279500000000041 0.025661000000000003 -15.973449999999998 -8.0984749999999987e-06 5.4702100000000004e-06 0.53187750000000011 0.00013560600000000003 -0.00058739099999999993 0.00011346550000000001 1.0318250000000003e-06 1.1972595000000001 0.6401960000000001 3.6318200000000007e-06 -0.00017200049999999999 0.0074401650000000012 -1.2290654999999997 0.32628000000000007 3.4705950000000006e-05
decision_type=2 2 2 2 2 2 2 2 2 2 2 2 2 2 2 2 2 2 2 2 2 2 2 2 2 2 2 2 2 2
left_child=1 -1 3 4 -3 -5 -7 -8 9 11 -11 -2 -13 -10 15 -15 17 19 -19 20 -16 24 23 -23 25 -21 27 -18 -29 -27
right_child=8 2 -4 5 -6 6 7 -9 13 10 -12 12 -14 14 16 -17 26 18 -20 21 -22 22 -24 -25 -26 29 -28 28 -30 -31
leaf_value=0.0022869389280458564 -7.8390055757020555e-05 0.0026403229231073059 0.0013914261755417102 -0.0014742623087451129 0.00011998164246291607 1.8031319863981572e-05 -0.0014025027064781172 -0.00017031800567544054 -5.7758572005987098e-06 -0.0056762238842202354 -8.892562213945102e-05 0.001664422175021815 1.6655867648296409e-05 0.0060036969783444274 -0.00016389134297875872 -0.0014325585124814618 -0.00017888712872473451 0.0051036134778532083 -0.00023618550835332523 -0.0018252872188375996 -0.0019824805716428186 0.0074200003792066127 -0.00055754080643358368 -0.00019572021694676508 0.0016870569446473381 -7.9344325490724981e-05 0.0001984897321709732 -0.002918528147599248 -0.00031110055980596891 0.0015618202512268911
leaf_weight=20 228 20 24 21 72 359 20 32 20288 20 109 34 121 24 165 35 52 23 30 21 31 20 60 21 25 261 62 39 42 20
leaf_count=20 228 20 24 21 72 359 20 32 20288 20 109 34 121 24 165 35 52 23 30 21 31 20 60 21 25 261 62 39 42 20
internal_value=0 0.000145408 6.72498e-05 6.60046e-06 0.000667882 -0.000134228 -6.57591e-05 -0.000644235 -3.80064e-06 -0.000161103 -0.000955173 0.000106352 0.000378101 -5.04556e-09 0.00012575 0.00159236 2.65187e-05 0.000217148 0.00208109 5.88324e-05 -0.000451525 0.000292548 0.0010974 0.00351927 4.39539e-05 -9.20646e-05 -0.000635306 -0.00102399 -0.00156653 3.74645e-05
internal_weight=0 568 548 524 92 432 411 52 21731 512 129 383 155 21219 931 59 872 677 53 624 196 428 101 41 327 302 195 133 81 281
internal_count=22299 568 548 524 92 432 411 52 21731 512 129 383 155 21219 931 59 872 677 53 624 196 428 101 41 327 302 195 133 81 281
shrinkage=0.05


Tree=114
num_leaves=31
num_cat=0
split_feature=15 16 10 16 10 2 5 27 5 27 11 14 1 15 7 10 2 27 27 30 3 27 27 27 27 16 1 3 10 3
split_gain=0.0046771 0.00473866 0.0347511 0.0865768 0.287551 0.316689 0.0550441 0.0534408 0.0311306 0.0410753 0.0253478 0.045143 0.0390793 0.151053 0.0428502 0.0315705 0.053421 0.0931715 0.170949 0.0288093 0.0616865 0.0285554 0.0283635 0.122331 0.0763319 0.024508 0.0407197 0.0468503 0.132767 0.0208232
threshold=2.6390250000000006 10.198000000000002 -1.2766349999999999e-06 35.645800000000008 -2.8658149999999996e-05 -1.1568099999999999 0.00012976200000000004 0.20940800000000012 -0.00010608699999999998 -0.22542900000000002 -6.8116549999999981e-05 -9.1575349999999975 -15.016799999999998 0.97722050000000016 0.004937775000000001 6.7812400000000007e-06 0.43777950000000004 -0.19554999999999986 0.41121150000000001 -0.91560999999999992 2.6096450000000003e-05 0.36124199999999984 0.74812550000000011 -0.27486499999999991 0.31155200000000016 8.8966850000000015 -13.799749999999998 1.4239100000000002e-05 4.2018000000000005e-07 1.1795000000000003e-05
decision_type=2 2 2 2 2 2 2 2 2 2 2 2 2 2 2 2 2 2 2 2 2 2 2 2 2 2 2 2 2 2
left_child=1 25 3 6 -5 -6 8 -8 -3 -10 11 21 13 14 -12 16 19 -18 -19 -14 -21 -4 23 -17 -25 -1 -27 28 29 -28
right_child=-2 2 10 4 5 -7 7 -9 9 -11 12 -13 15 -15 -16 22 17 18 -20 20 -22 -23 -24 24 -26 26 27 -29 -30 -31
leaf_value=1.7370350610088473e-07 0.0007286729714409872 -0.00023424585702127546 -0.0030174441456674011 -0.00064879403516613374 0.0090604508930395931 0.00073158725281246011 0.0024836114418333942 -0.00027942973124265251 -0.00048482919967052744 -0.0033855621333476965 0.0015243501691050675 0.00032796897629894028 3.7079078810039653e-05 0.0041768786066677423 -0.0011836002557686243 -2.0699475316591763e-05 -0.00082590954484390653 0.0061011641443474221 -4.75015974818514e-05 -0.00039480649705026476 -0.0032737659729536977 -0.0008663916357464687 -0.0001021728535008967 -0.004867612700659915 -0.0010664890810003272 -0.0012339194696063974 -0.00061777329100323188 9.2656688618019583e-05 0.0043501883923939512 0.0014388533153760364
leaf_weight=20463 22 77 27 64 21 25 30 42 26 23 21 42 483 25 48 86 34 20 26 267 20 36 107 28 25 28 32 101 30 20
leaf_count=20463 22 77 27 64 21 25 30 42 26 23 21 42 483 25 48 86 34 20 26 267 20 36 107 28 25 28 32 101 30 20
internal_value=0 -7.19612e-07 -8.35358e-05 0.000393825 0.00151851 0.00453389 -0.000231001 0.000871837 -0.000861194 -0.0018464 -0.00019707 -0.000941775 -0.000131361 0.000847027 -0.000359441 -0.000215274 -7.09084e-05 0.00115884 0.00262583 -0.000198675 -0.000595431 -0.00178827 -0.000714098 -0.00118515 -0.00307463 5.7017e-06 0.000541813 0.00081351 0.00170139 0.000173237
internal_weight=0 22277 1603 308 110 46 198 72 126 49 1295 105 1190 94 69 1096 850 80 46 770 287 63 246 139 53 20674 211 183 82 52
internal_count=22299 22277 1603 308 110 46 198 72 126 49 1295 105 1190 94 69 1096 850 80 46 770 287 63 246 139 53 20674 211 183 82 52
shrinkage=0.05


Tree=115
num_leaves=31
num_cat=0
split_feature=8 22 26 3 3 12 17 27 27 21 26 12 21 8 5 8 27 27 22 18 15 17 0 14 27 2 26 30 14 4
split_gain=0.00481936 0.0253808 0.0289695 0.0184241 0.0277437 0.0149054 0.0131656 0.02465 0.0217819 0.0130708 0.0117144 0.195392 0.0107508 0.0856975 0.0100746 0.00997748 0.00897405 0.0532934 0.122466 0.262567 0.0900443 0.0915984 0.23568 0.153943 0.0826295 0.0412601 0.0465702 0.0451469 0.143416 0.185077
threshold=1.6138250000000004e-05 -0.059557699999999998 0.21742350000000002 1.4325400000000002e-05 1.2553450000000003e-05 0.00043062950000000009 -0.085570549999999981 0.33758199999999999 -0.5347949999999998 6.0983350000000014 1.0444035000000003 0.0045127600000000011 21.286350000000002 -1.4587449999999997e-06 -0.00010608699999999998 -6.1567449999999989e-08 0.41121150000000001 -0.10215499999999998 0.49056700000000003 0.025661000000000003 1.0940150000000004 -0.071415199999999984 -6.8411299999999988 -12.295749999999998 0.044107999999999932 1.7689400000000002 0.00012946900000000003 -1.9709400000000008 -13.359599999999999 -4.1686999999999989e-05
decision_type=2 2 2 2 2 2 2 2 2 2 2 2 2 2 2 2 2 2 2 2 2 2 2 2 2 2 2 2 2 2
left_child=10 3 6 4 -2 -5 7 8 -3 -7 12 14 16 -14 -12 -15 17 -1 19 20 21 22 24 -24 -19 27 -27 -23 29 -29
right_child=1 2 -4 5 -6 9 -8 -9 -10 -11 11 -13 13 15 -16 -17 -18 18 -20 -21 -22 25 23 -25 -26 26 -28 28 -30 -31
leaf_value=-1.5989427780047576e-05 -0.00023505252434203968 -0.00049047532968688758 0.0013356708215537649 -0.0014431370586232963 -0.0026909110217314702 0.00010406197298866104 -1.5351874795307325e-05 2.1947374103834399e-06 -0.0027042783633805813 -0.0010237276736668056 -0.0013172420563271525 0.005023407286498696 -0.0034216516882588626 0.0012399088512756863 -0.00011529413684565086 -8.9318334130439328e-05 -3.2011255659901197e-05 0.0019511421855825644 -0.003366291019325297 0.0051116647298580838 -0.0027452784050256019 -0.00016032014336107123 0.007632012460235274 0.0019688400538871065 -0.0016194571735679856 -0.0002161850210577908 -0.0026711962007539116 0.004518908622634152 0.00022600289121198788 0.00062749848015360783
leaf_weight=8774 23 25 39 26 23 116 3112 76 20 33 22 20 20 20 84 48 7682 26 23 28 25 488 20 30 43 99 24 46 1193 91
leaf_count=8774 23 25 39 26 23 116 3112 76 20 33 22 20 20 20 84 48 7682 26 23 28 25 488 20 30 43 99 24 46 1193 91
internal_value=0 -5.3935e-05 -1.89073e-05 -0.000572536 -0.00146298 -0.000338477 -3.52477e-05 -0.000546948 -0.00147439 -0.000145717 1.00178e-05 0.000490509 6.77682e-06 -0.00054457 -0.000364755 0.000301631 9.38646e-06 3.85356e-05 0.000262507 0.000302006 0.000237416 0.000273614 0.00162016 0.00423411 -0.000274014 0.000191059 -0.000695212 0.000251022 0.00040195 0.0019341
internal_weight=0 3493 3272 221 46 175 3233 121 45 149 18806 126 18680 88 106 68 18592 10910 2136 2113 2085 2060 119 50 69 1941 123 1818 1330 137
internal_count=22299 3493 3272 221 46 175 3233 121 45 149 18806 126 18680 88 106 68 18592 10910 2136 2113 2085 2060 119 50 69 1941 123 1818 1330 137
shrinkage=0.05


Tree=116
num_leaves=31
num_cat=0
split_feature=27 23 15 18 0 8 8 21 21 6 20 21 12 6 27 17 27 22 31 14 7 0 7 21 9 18 21 3 1 23
split_gain=0.00464348 0.0689476 0.00607524 0.00444802 0.0131112 0.0108819 0.0329802 0.17851 0.0225833 0.013237 0.0228434 0.0580356 0.0204042 0.0370329 0.0710224 0.259224 0.171053 0.223713 0.0992694 0.137265 0.135111 0.164897 0.135643 0.116382 0.0601291 0.033716 0.0265013 0.0421241 0.0204873 0.0192512
threshold=5.391045000000001 -0.007024574999999999 2.6390250000000006 0.00070520150000000009 15.501500000000002 -4.4646249999999989e-05 -3.0373299999999996e-05 2.1325750000000006 21.286350000000002 0.00010717200000000001 0.0024570250000000003 15.220100000000002 2.1900450000000003e-07 1.4468100000000001e-05 -0.64621549999999994 0.36560600000000004 0.33758199999999999 -0.12344349999999998 4.3633900000000008 -15.224999999999998 0.0016623800000000004 5.2050400000000012 0.0033772100000000007 0.43092550000000007 -3.6042799999999995e-07 0.0015579700000000003 0.042265750000000012 1.3536250000000003e-05 -16.772799999999997 -0.33569149999999998
decision_type=2 2 2 2 2 2 2 2 2 2 2 2 2 2 2 2 2 2 2 2 2 2 2 2 2 2 2 2 2 2
left_child=2 -2 3 -1 5 8 7 -7 -5 12 11 -11 26 29 -15 16 17 -16 19 -19 21 25 24 -24 -22 -21 27 -8 -28 -14
right_child=1 -3 -4 4 -6 6 9 -9 -10 10 -12 -13 13 14 15 -17 -18 18 -20 20 22 -23 23 -25 -26 -27 28 -29 -30 -31
leaf_value=1.6596569977065534e-05 0.0030191364558413629 -0.00010139590593736374 -0.00087306804256513713 -0.00015694996607193 0.0011627368569584772 -6.3523365456731143e-05 -0.0030434202027026912 0.0048817793547641488 -0.0018552453932352366 -0.00021341535660064512 -0.001576092922688735 0.0022262069670250639 -0.00050708855599474682 -0.00012366677098986942 0.0055199836051605389 0.0055820618452853523 -0.00015645253189607375 0.0054158307140460236 -0.00063554838031306749 0.0029193034276977416 -0.0043126494951866339 0.0065623133056215005 -0.00043575325508311673 0.0038346640339888705 -0.000481937554944861 0.00035885594412926971 -0.0016283814230560398 0.00012712152853385886 -9.3077473490887303e-05 -9.0837455863424342e-06
leaf_weight=13544 20 154 20 921 23 107 20 22 20 979 29 25 208 670 29 25 502 20 76 20 20 20 39 27 21 36 22 22 1763 2895
leaf_count=13544 20 154 20 921 23 107 20 22 20 979 29 25 208 670 29 25 502 20 76 20 20 20 39 27 21 36 22 22 1763 2895
internal_value=0 0.000257286 -2.0234e-06 -1.2353e-06 -2.94464e-05 -3.26579e-05 -1.27916e-05 0.000779862 -0.000193046 -2.64836e-05 -0.000192628 -0.000152668 1.87343e-07 5.62494e-05 0.00025978 0.000567456 0.000412684 0.0013403 0.000905856 0.00148293 0.00105311 0.00266515 -9.1889e-05 0.00131124 -0.00235058 0.0012733 -0.000141211 -0.00138266 -0.000112 -4.2466e-05
internal_weight=0 174 22125 22105 8561 8538 7597 129 941 7468 1033 1004 6435 4608 1505 835 810 308 279 203 183 76 107 66 41 56 1827 42 1785 3103
internal_count=22299 174 22125 22105 8561 8538 7597 129 941 7468 1033 1004 6435 4608 1505 835 810 308 279 203 183 76 107 66 41 56 1827 42 1785 3103
shrinkage=0.05


Tree=117
num_leaves=31
num_cat=0
split_feature=15 16 10 10 12 15 27 18 7 2 1 1 19 1 14 9 27 27 22 12 12 27 27 8 4 2 16 12 8 3
split_gain=0.00466941 0.00455517 0.0306105 0.0836941 0.136067 0.0685992 0.100552 0.0265067 0.0239546 0.0710559 0.038651 0.0347832 0.086594 0.0315038 0.0379886 0.112181 0.0316469 0.129979 0.116011 0.0806643 0.142587 0.111839 0.069716 0.0660556 0.0226913 0.0221772 0.0218317 0.0412747 0.0798938 0.0625698
threshold=2.6390250000000006 10.198000000000002 -1.2766349999999999e-06 -4.6445099999999992e-06 0.00049788050000000009 -1.7384499999999996 -1.4721349999999997 0.14244100000000001 0.065046350000000017 5.8162350000000007 -16.595249999999997 -15.395849999999998 1.0397800000000001 -6.4339449999999987 -6.3955149999999987 1.1245350000000001e-07 -0.83854699999999993 0.31155200000000016 0.49056700000000003 5.5577300000000006e-06 0.00092522000000000014 -0.1481925000000002 -0.27486499999999991 -2.3327649999999996e-07 -0.00010903749999999999 -1.2804649999999997 8.8966850000000015 0.00092522000000000014 6.2919150000000003e-07 1.0814750000000002e-05
decision_type=2 2 2 2 2 2 2 2 2 2 2 2 2 2 2 2 2 2 2 2 2 2 2 2 2 2 2 2 2 2
left_child=1 26 3 5 -5 6 -3 25 10 -10 24 12 -12 16 -15 -16 -13 18 19 21 23 -18 -22 -21 -4 -7 -1 28 29 -28
right_child=-2 2 8 4 -6 7 -8 -9 9 -11 11 13 -14 14 15 -17 17 -19 -20 20 22 -23 -24 -25 -26 -27 27 -29 -30 -31
leaf_value=3.5930398705844692e-07 0.00072807331294329333 -0.00066960728880076207 -0.0028791713132523002 0.00012960243525762612 0.004854948842286831 6.1762823755392074e-05 0.0043441750039346517 -0.0019185224097292613 0.0032148689555833703 -0.00048419303761014867 -0.0006514051091341701 4.1073340429180998e-05 0.0036562456791898513 -4.2160056806722706e-05 -0.00071140140784196914 0.0042020104883704334 -0.00075854874697445967 -0.00011853182061377208 -0.0053021314842182964 0.0036340537073556336 -0.00036914900410920385 -0.0058211291610496124 -0.0044055247466768263 -0.00015714923873828311 -0.00075669932386303762 -0.001357991190161556 0.0026616431087253052 -0.00048093225971180284 0.0033432844355862977 -0.0002185024523462496
leaf_weight=20463 22 20 20 39 25 144 20 26 20 37 28 261 20 308 26 21 24 365 21 20 20 20 23 27 34 34 24 70 29 88
leaf_count=20463 22 20 20 39 25 144 20 26 20 37 28 261 20 308 26 21 24 365 21 20 20 20 23 27 34 34 24 70 29 88
internal_value=0 -7.19021e-07 -8.19159e-05 0.000366104 0.00197544 -5.60167e-05 0.00183728 -0.000427252 -0.000188472 0.000813723 -0.000234615 -0.000174951 0.00114345 -0.000230658 0.000159889 0.00148395 -0.00040818 -0.00063367 -0.00184674 -0.00130522 -0.000447467 -0.00305972 -0.00252814 0.00145613 -0.0015428 -0.000209426 5.57675e-06 0.00051157 0.0010043 0.000398672
internal_weight=0 22277 1603 308 64 244 40 204 1295 57 1238 1184 48 1136 355 47 781 520 155 134 90 44 43 47 54 178 20674 211 141 112
internal_count=22299 22277 1603 308 64 244 40 204 1295 57 1238 1184 48 1136 355 47 781 520 155 134 90 44 43 47 54 178 20674 211 141 112
shrinkage=0.05


Tree=118
num_leaves=31
num_cat=0
split_feature=8 22 3 27 27 21 12 27 27 22 25 20 0 27 27 30 30 6 27 9 17 12 20 30 2 11 15 17 17 13
split_gain=0.00459154 0.0659482 0.110952 0.114634 0.397153 0.249416 0.214892 0.129964 0.0761001 0.04548 0.0446868 0.0317156 0.0421953 0.0267199 0.296944 0.132914 0.273334 0.0249633 0.0227071 0.0223769 0.0203946 0.0201632 0.0193045 0.0469516 0.0881336 0.29652 0.0566956 0.0141382 0.0232981 0.0135703
threshold=-9.7636649999999977e-08 -0.040574149999999996 2.2511200000000002e-05 0.41121150000000001 -0.56077824999999992 3.4887250000000005 0.00024885700000000006 0.10539999999999995 4.8725500000000013 -0.0073437949999999993 -0.18951049999999997 0.00032810050000000007 3.7059600000000006 0.20940800000000012 -0.22542900000000002 -1.8793449999999992 0.08279500000000041 -9.2649699999999981e-06 0.4639100000000001 3.2616700000000009e-05 -0.35794499999999996 8.2844450000000015e-08 6.2278450000000007e-05 -3.1346799999999995 -0.31037149999999997 -0.00081432499999999997 0.54616000000000009 0.55062400000000011 0.47103600000000007 -0.17413599999999999
decision_type=2 2 2 2 2 2 2 2 2 2 2 2 2 2 2 2 2 2 2 2 2 2 2 2 2 2 2 2 2 2
left_child=1 2 3 4 -1 6 -6 -8 -5 13 -4 -3 18 14 20 21 -17 -14 -13 -12 -2 -16 27 -24 25 -25 -26 28 -11 -23
right_child=9 11 10 8 5 -7 7 -9 -10 22 19 12 17 -15 15 16 -18 -19 -20 -21 -22 29 23 24 26 -27 -28 -29 -30 -31
leaf_value=-0.00019687623721941327 -0.00097573637641260383 3.8819559801079216e-06 -0.0021842695254070516 -0.00027821921924044092 0.0061061243623407799 0.0089931537480359633 0.003046334888553247 -0.0023612423910526559 0.002923124669559045 4.6410330796961996e-06 0.00023224826808973377 -0.00066521948177889899 -0.0032132541184017268 -4.4108977590380071e-05 0.00013374614456552081 -0.0092118652292992927 -0.001956849352211213 -0.00090390911861322823 0.0013897662519593724 -0.0013452401728135683 -3.4536507351900559e-05 -0.0026590333243472165 -9.0011181774648572e-05 -0.00028671106992987915 -0.00018905954443684464 0.0074741259559232276 0.0027070257007108015 -0.0010281034442951669 0.00137718835753584 -0.00090285327036822727
leaf_weight=113 62 7666 33 160 30 21 25 20 21 11633 100 41 22 851 20 20 37 25 20 29 803 22 258 32 109 20 20 33 31 22
leaf_count=113 62 7666 33 160 30 21 25 20 21 11633 100 41 22 851 20 20 37 25 20 29 803 22 258 32 109 20 20 33 31 22
internal_value=0 2.93923e-05 0.00055748 0.00101435 0.00181209 0.00417681 0.00282823 0.000642967 9.32074e-05 -1.75138e-05 -0.000542395 -8.10508e-06 -0.000858963 -0.00024937 -0.000426527 -0.00274651 -0.00450247 -0.00198488 8.54633e-06 -0.000122381 -0.000101998 -0.0011826 1.75818e-05 0.000343093 0.000960446 0.00269823 0.000259946 5.36501e-06 8.28892e-06 -0.00178094
internal_weight=0 8326 552 390 209 96 75 45 181 13973 162 7774 108 1837 986 121 57 47 61 129 865 64 12136 439 181 52 129 11697 11664 44
internal_count=22299 8326 552 390 209 96 75 45 181 13973 162 7774 108 1837 986 121 57 47 61 129 865 64 12136 439 181 52 129 11697 11664 44
shrinkage=0.05


Tree=119
num_leaves=31
num_cat=0
split_feature=15 13 11 13 18 0 10 11 20 21 13 25 8 27 17 5 1 14 22 14 19 1 18 19 4 9 26 14 27 27
split_gain=0.00430016 0.00427447 0.0335705 0.0556871 0.00441142 0.0116768 0.0101369 0.033243 0.372457 0.0297482 0.0234483 0.0214809 0.0331879 0.0319706 0.0209369 0.0916514 0.0233947 0.0333999 0.0459782 0.0336355 0.0239887 0.0223574 0.0205191 0.0290838 0.0462033 0.0187065 0.0925436 0.0464024 0.0763174 0.225837
threshold=2.6390250000000006 -3.0908149999999996 3.5458750000000003e-05 -3.1146149999999992 0.00070520150000000009 15.501500000000002 6.7812400000000007e-06 0.00030319250000000004 -0.00010740549999999999 47.834100000000007 3.0607200000000003 -0.28524949999999993 1.4151350000000003e-06 -0.77620499999999981 0.95288800000000007 6.746700000000001e-05 -14.754349999999997 -15.808049999999998 -0.0073437949999999993 -15.099999999999998 0.26402450000000005 -14.650449999999998 0.13004500000000005 3.8695450000000005 -6.6900949999999985e-05 5.1028300000000007e-07 0.12041550000000001 -8.7470849999999984 -0.30126800000000004 0.33758199999999999
decision_type=2 2 2 2 2 2 2 2 2 2 2 2 2 2 2 2 2 2 2 2 2 2 2 2 2 2 2 2 2 2
left_child=1 2 -1 -4 -3 6 7 11 -9 10 22 12 -6 -14 16 -16 17 18 -13 -19 -20 -18 23 -8 -25 -23 27 -27 -29 -30
right_child=-2 4 3 -5 5 -7 9 8 -10 -11 -12 14 13 -15 15 -17 21 19 20 -21 -22 25 -24 24 -26 26 -28 28 29 -31
leaf_value=-0.00013892611790014889 0.00069869321093640551 1.4957502995221708e-05 -8.5067059761193516e-05 0.0033958953320052387 -0.00021466015409398256 0.0010941131406149867 -0.00010932913678591915 0.0060982076492143321 -0.00018188922245086515 -0.0016721500940958881 0.0013523334639440119 -0.003074104210342436 -0.00020939254070981408 -0.0028914418329950425 -5.3831542541823784e-05 0.0036482132738456133 0.0015662171178796006 0.0018070379137671332 0.00023795812376192771 -0.00025454041177539052 -0.0015344340701787069 -5.2879206505968548e-05 0.0011035803014899351 -0.0024178712273068316 -7.8334995915236726e-05 -6.6067285508411593e-05 0.0029504723798740528 -9.4883333436971562e-05 0.0034435328442349285 -0.0001289054045997579
leaf_weight=147 22 13570 27 20 230 23 1715 27 188 31 27 24 20 25 82 21 23 21 42 342 35 3990 33 36 51 1109 29 205 74 110
leaf_count=147 22 13570 27 20 230 23 1715 27 188 31 27 24 20 25 82 21 23 21 42 342 35 3990 33 36 51 1109 29 205 74 110
internal_value=0 -6.90005e-07 0.000232984 0.00139619 -2.74284e-06 -3.09578e-05 -3.40057e-05 -4.73923e-06 0.000606774 -0.000135998 -0.000110423 -2.53402e-05 -0.000457621 -0.00169942 -5.87447e-06 0.000700954 -1.80003e-05 -0.00035904 -0.00116326 -0.000135276 -0.000567675 1.05633e-05 -0.000131945 -0.000154572 -0.00104642 4.0779e-06 0.000152905 9.87464e-05 0.000568614 0.00130784
internal_weight=0 22277 194 47 22083 8513 8490 6597 215 1893 1862 6382 275 45 6107 103 6004 464 101 363 77 5540 1835 1802 87 5517 1527 1498 389 184
internal_count=22299 22277 194 47 22083 8513 8490 6597 215 1893 1862 6382 275 45 6107 103 6004 464 101 363 77 5540 1835 1802 87 5517 1527 1498 389 184
shrinkage=0.05


Tree=120
num_leaves=31
num_cat=0
split_feature=3 13 0 0 17 21 17 30 1 1 0 30 7 12 28 19 20 28 28 24 24 24 17 30 30 1 23 22 14 1
split_gain=0.00395733 0.032923 0.0161955 0.0167168 0.032499 0.0142687 0.0073008 0.00444827 0.0530868 0.0565039 0.0479755 0.0319038 0.0595463 0.0732096 0.0471274 0.0669444 0.0569233 0.0443919 0.132702 0.0413029 0.0406563 0.047308 0.0367936 0.0286953 0.0274463 0.0191812 0.247199 0.068366 0.0710354 0.0398285
threshold=7.7376450000000017e-06 -2.8657299999999997 5.274020000000001 -4.2393499999999991 -0.0089821649999999986 0.0030977750000000005 -0.13629249999999996 0.15623999999999996 -6.3047499999999994 -6.6628949999999989 8.5772100000000027 -0.22689999999999963 0.00039250700000000006 8.0527250000000027e-09 0.10215500000000001 0.13529900000000003 -6.9993649999999995e-06 -0.15626499999999985 -0.017475500000000001 1.2262350000000004e-07 1.1242550000000002e-06 4.1155250000000007e-07 0.0059947300000000011 -0.13209500000000049 1.0000000180025095e-35 -15.526149999999999 -0.14712849999999997 -0.0022306949999999996 -18.853249999999996 -15.395849999999998
decision_type=2 2 2 2 2 2 2 2 2 2 2 2 2 2 2 2 2 2 2 2 2 2 2 2 2 2 2 2 2 2
left_child=1 -1 3 4 -3 -5 -7 11 9 -9 -11 25 14 -14 15 16 -13 -18 -19 -15 21 -21 -20 -22 -24 26 -2 -28 -29 -27
right_child=7 2 -4 5 -6 6 -8 8 -10 10 -12 12 13 19 -16 -17 17 18 22 20 23 -23 24 -25 -26 29 27 28 -30 -31
leaf_value=0.0021228888428595385 0.0055713605778735312 0.0023944040641072206 0.0013276606977645619 -0.0014021869083600386 0.0001160670795292794 -0.00087690225443041612 -1.1219080146053723e-05 -2.8737069777714625e-05 0.002366395026784512 -0.00046643866030095639 -0.0036074464693047052 -0.0018664696881023702 -0.0029856808664806608 -0.00021912792626563077 -0.00019531783124975279 0.0032628142958856191 -3.9629148242353522e-05 0.0044616075495598909 0.0005493670516857897 0.0004987006822250574 0.00097576296451734384 0.0029283020667207893 0.0008665879574255086 -0.0015886107001279017 0.0034546754487174828 -0.0018660858002037678 -0.0020977415006864001 0.0025301263985186648 -0.00060429163157309901 -1.0922909484406751e-05
leaf_weight=20 21 20 24 21 72 26 385 8152 23 31 20 20 21 415 128 28 98 28 202 51 20 33 20 24 21 29 37 28 51 12230
leaf_count=20 21 20 24 21 72 26 385 8152 23 31 20 20 21 415 128 28 98 28 202 51 20 33 20 24 21 29 37 28 51 12230
internal_value=0 0.000130285 5.75621e-05 -6.10341e-07 0.000611358 -0.000130937 -6.59825e-05 -3.40536e-06 -3.23907e-05 -3.91166e-05 -0.00169821 1.42498e-05 0.000271182 -8.89735e-05 0.000643894 0.000901494 0.000731527 0.00087234 0.00120213 2.30538e-05 0.000808252 0.00145319 0.000826552 -0.000422986 0.00219219 -8.73644e-06 0.000579612 -0.000324067 0.000506641 -1.53115e-05
internal_weight=0 568 548 524 92 432 411 21731 8226 8203 51 13505 1109 564 545 417 389 369 271 543 128 84 243 44 41 12396 137 116 79 12259
internal_count=22299 568 548 524 92 432 411 21731 8226 8203 51 13505 1109 564 545 417 389 369 271 543 128 84 243 44 41 12396 137 116 79 12259
shrinkage=0.05


Tree=121
num_leaves=31
num_cat=0
split_feature=8 22 3 27 27 1 21 27 19 22 1 14 20 30 18 9 0 20 30 30 4 19 21 17 17 26 16 16 15 27
split_gain=0.00404468 0.0580917 0.0980845 0.101207 0.349389 0.293256 0.491913 0.0670255 0.0439917 0.0398312 0.0347083 0.0657035 0.0295651 0.0400569 0.0230641 0.0187645 0.0187222 0.0172365 0.0418613 0.0778016 0.301528 0.057757 0.0144234 0.012816 0.0208572 0.0127287 0.012536 0.0202647 0.0175507 0.0131224
threshold=-9.7636649999999977e-08 -0.040574149999999996 2.2511200000000002e-05 0.41121150000000001 -0.56077824999999992 -8.494749999999998 2.6566550000000002 4.8725500000000013 3.8695450000000005 -0.0073437949999999993 -16.595249999999997 -15.808049999999998 0.00032810050000000007 -0.78714500000000009 0.00080517000000000013 3.2616700000000009e-05 1.3632550000000003 6.2278450000000007e-05 -3.1346799999999995 1.2260500000000001 -4.1686999999999989e-05 0.67711850000000007 187.30050000000003 0.55062400000000011 0.47103600000000007 0.34498650000000003 54.163350000000008 7.093795000000001 -0.88605199999999995 0.26162950000000007
decision_type=2 2 2 2 2 2 2 2 2 2 2 2 2 2 2 2 2 2 2 2 2 2 2 2 2 2 2 2 2 2
left_child=1 2 3 4 -1 6 -6 -5 15 10 11 -2 26 16 -12 -4 -14 23 -19 20 -20 -22 25 24 -11 -16 27 28 -3 -29
right_child=9 12 8 7 5 -7 -8 -9 -10 17 14 -13 13 -15 22 -17 -18 18 19 -21 21 -23 -24 -25 -26 -27 -28 29 -30 -31
leaf_value=-0.00018194092455406862 -0.0036622328068395813 0.0014270914601762674 0.00017667842317790485 -0.00026131582211064597 0.0023858588822322953 0.00057941993507437217 0.011853635595585018 0.0027430981536218455 -0.0023133929137007466 4.1944995160879574e-06 -0.0018774961267808976 -0.00034852485497280074 0.00074621854106556972 -0.0021360468837022047 -0.00015990515094966483 -0.0012601242745937458 -0.00089187727484189763 -8.4964323788296124e-05 0.0071048677395862932 -0.00047791658388160403 0.0026656466432462408 -0.00021243944215711965 0.0011326128083358831 -0.00097909549240284845 0.0013028517705283922 -0.00090118701720105798 0.0010074019862522912 -0.00073224375215651539 1.2730796034626096e-05 -9.2084521452964096e-05
leaf_weight=113 21 22 105 160 34 39 23 21 28 11633 20 52 33 38 1663 29 37 258 21 65 23 72 21 33 31 60 31 149 7291 173
leaf_count=113 21 22 105 160 34 39 23 21 28 11633 20 52 33 38 1663 29 37 258 21 65 23 72 21 33 31 60 31 149 7291 173
internal_value=0 2.75864e-05 0.000523221 0.000952783 0.00170235 0.00392031 0.00620619 8.72626e-05 -0.00051091 -1.64378e-05 -0.000233418 -0.00130178 -7.60654e-06 -0.000829111 -0.000189206 -0.000134271 -0.000119632 1.64061e-05 0.000323989 0.000906916 0.0016829 0.00048436 -0.000169844 4.86218e-06 7.64601e-06 -0.000185719 3.96697e-06 -1.07229e-07 1.69857e-05 -0.000388307
internal_weight=0 8326 552 390 209 96 57 181 162 13973 1837 73 7774 108 1764 134 70 12136 439 181 116 95 1744 11697 11664 1723 7666 7635 7313 322
internal_count=22299 8326 552 390 209 96 57 181 162 13973 1837 73 7774 108 1764 134 70 12136 439 181 116 95 1744 11697 11664 1723 7666 7635 7313 322
shrinkage=0.05


Tree=122
num_leaves=31
num_cat=0
split_feature=15 16 2 2 15 10 7 11 1 6 6 1 23 10 2 4 30 30 30 8 19 1 2 4 25 16 12 12 3 26
split_gain=0.00413782 0.00421768 0.025935 0.151581 0.298609 0.0306047 0.0206626 0.0688631 0.0311796 0.0452961 0.042828 0.0230649 0.0225042 0.0211588 0.031429 0.0745631 0.0411567 0.0215399 0.0416967 0.0386427 0.0247328 0.0489604 0.0214321 0.0204824 0.0224854 0.0194048 0.0359861 0.0696128 0.14099 0.0170152
threshold=2.6390250000000006 10.198000000000002 -1.2804649999999997 -2.0605549999999995 -0.95944149999999995 -7.9457749999999976e-06 0.052691600000000005 0.030130500000000001 -16.595249999999997 -6.3626149999999987e-05 -5.1063549999999993e-05 -15.395849999999998 0.21106750000000005 6.7812400000000007e-06 0.43777950000000004 -2.5366249999999995e-05 -1.3211999999999995 -0.91560999999999992 -0.34826499999999999 -5.5989399999999988e-08 -4.0114499999999991 -9.5552499999999991 -0.41304449999999998 0.000199638 5.6022800000000013 8.8966850000000015 0.00092522000000000014 1.1867000000000002e-05 1.4403400000000002e-05 0.12041550000000001
decision_type=2 2 2 2 2 2 2 2 2 2 2 2 2 2 2 2 2 2 2 2 2 2 2 2 2 2 2 2 2 2
left_child=1 25 3 23 -5 -4 8 -8 12 -10 -11 -12 -7 14 17 -16 -17 -13 19 -19 21 -20 -22 24 -3 -1 27 -27 -29 -15
right_child=-2 2 5 4 -6 6 7 -9 9 10 11 13 -14 29 15 16 -18 18 20 -21 22 -23 -24 -25 -26 26 -28 28 -30 -31
leaf_value=4.6228340234616324e-07 0.00068537797143852167 -0.00025960140544150826 -0.001721030215717732 0.0070393560816149189 -0.00071347919637682273 -0.0024138180832289019 0.0030146314721853497 -0.00041144886517114091 0.0016476430746843109 -0.0021097820601945778 0.0015114019342165972 3.5463671286161677e-05 -0.00035284939852620788 -0.00040604283958464975 0.0034262843784831822 -0.0012593675779609124 0.0011398366140686752 -0.0033973783774523657 0.0001972725197473275 -0.00043386065381954809 0.0013822575736558065 -0.0025086852739150348 -0.00017749608373698129 0.00066046045737423883 -0.0020495110441697763 -0.00029367615447665145 -0.00044431520695005543 0.0044233291012377857 0.00012055323044074209 -0.0016047385303720246
leaf_weight=20463 22 143 31 23 27 26 22 44 35 28 21 518 27 134 21 33 39 22 35 22 25 32 185 52 20 63 70 33 45 38
leaf_count=20463 22 143 31 23 27 26 22 44 35 28 21 518 27 134 21 33 39 22 35 22 25 32 185 52 20 63 70 33 45 38
internal_value=0 -6.76856e-07 -7.88079e-05 0.000373102 0.00285283 -0.000168312 -0.000131484 0.000730578 -0.000177331 -0.000124395 -0.000178186 -0.000130111 -0.00136389 -0.000161335 -6.73008e-05 0.000804801 4.02014e-05 -0.00016397 -0.000485797 -0.00191562 -0.000258678 -0.00109513 8.18888e-06 -0.000203578 -0.000479222 5.38119e-06 0.000482422 0.000942505 0.00194096 -0.000670871
internal_weight=0 22277 1603 265 50 1338 1307 66 1241 1188 1153 1125 53 1104 932 93 72 839 321 44 277 67 210 215 163 20674 211 141 78 172
internal_count=22299 22277 1603 265 50 1338 1307 66 1241 1188 1153 1125 53 1104 932 93 72 839 321 44 277 67 210 215 163 20674 211 141 78 172
shrinkage=0.05


Tree=123
num_leaves=31
num_cat=0
split_feature=13 3 15 18 0 2 11 15 15 1 30 15 16 13 1 8 27 27 9 27 19 27 2 25 2 9 12 3 9 25
split_gain=0.00384133 0.0666087 0.00375675 0.003897 0.0104434 0.00962187 0.0960467 0.431371 0.0270165 0.0530356 0.0246912 0.183298 0.0391691 0.0236632 0.0235673 0.0229372 0.0177424 0.159508 0.0168695 0.0235203 0.0168245 0.0152426 0.0128205 0.0503593 0.118059 0.328476 0.0730007 0.225348 0.0697952 0.0252413
threshold=-3.0908149999999996 1.0109050000000003e-05 2.6390250000000006 0.00070520150000000009 15.501500000000002 0.9753535000000001 0.00030319250000000004 0.63004300000000013 0.97722050000000016 -15.456499999999998 1.1659150000000011 0.97722050000000016 35.645800000000008 -0.57501449999999987 -14.166599999999997 6.4689150000000014e-05 0.23661500000000005 -0.10215499999999998 -2.0671399999999999e-06 -0.77620499999999981 -0.32189749999999995 -0.27486499999999991 -0.18184499999999995 0.15735250000000003 -2.5874299999999995 -1.7780499999999997e-05 0.00049788050000000009 1.3774450000000002e-05 9.794275000000002e-06 0.12739700000000004
decision_type=2 2 2 2 2 2 2 2 2 2 2 2 2 2 2 2 2 2 2 2 2 2 2 2 2 2 2 2 2 2
left_child=1 -1 3 -2 5 6 8 20 22 -10 12 -12 14 -14 15 21 17 18 -11 -20 -8 -7 23 29 -25 -26 28 -28 -27 -5
right_child=2 -3 -4 4 -6 10 7 -9 9 16 11 -13 13 -15 -16 -17 -18 -19 19 -21 -22 -23 -24 24 25 26 27 -29 -30 -31
leaf_value=0.0026872957372158154 1.4041618375400063e-05 -0.00012658979637013973 0.00065110916673967792 2.3697289467165763e-05 0.0010348801999656566 -0.00050430865282275297 -0.0015299543757767728 0.0077013632811775258 -0.0021892897680548854 0.0013079341840983201 -6.5802014249063021e-05 0.0046189657084389846 -0.0029152876243460925 -0.00081748656868911921 -0.0001256194210779135 0.00024612171562492019 9.3374724849970184e-05 -0.0038724129869332235 0.00017342057552014012 -0.0012539514054017338 0.00017234888168302939 -0.0021058252355653797 -5.9396496997657789e-05 -0.00059597078357468509 0.0072250345298512418 -0.00084719995351597872 0.0053055079159094022 -0.0010380503235085468 0.0023507936983977826 -0.0016064493357286363
leaf_weight=24 13570 170 22 2248 23 24 21 22 38 22 410 22 20 41 925 27 205 31 120 38 47 39 3883 107 22 76 28 28 22 24
leaf_count=24 13570 170 22 2248 23 24 21 22 38 22 410 22 20 41 925 27 205 31 120 38 47 39 3883 107 22 76 28 28 22 24
internal_value=0 0.00022152 -1.94412e-06 -2.59472e-06 -2.91136e-05 -3.1996e-05 -7.25848e-06 0.00161557 -2.84504e-05 -0.000401236 -0.00014653 0.000172774 -0.000274727 -0.00150529 -0.000200772 -0.00097317 -0.000237904 -0.000559763 1.07493e-05 -0.000169871 -0.000353362 -0.00149572 -2.16199e-06 8.4821e-05 0.000713784 0.00151006 0.00069363 0.00213373 -0.000129283 6.47743e-06
internal_weight=0 194 22105 22083 8513 8490 6982 90 6892 454 1508 432 1076 61 1015 90 416 211 180 158 68 63 6438 2555 283 176 154 56 98 2272
internal_count=22299 194 22105 22083 8513 8490 6982 90 6892 454 1508 432 1076 61 1015 90 416 211 180 158 68 63 6438 2555 283 176 154 56 98 2272
shrinkage=0.05


Tree=124
num_leaves=31
num_cat=0
split_feature=12 4 13 23 27 27 9 30 31 20 21 7 14 17 24 30 24 27 27 27 27 27 27 7 0 27 26 9 26 1
split_gain=0.00364761 0.040038 0.0498425 0.0204253 0.00810923 0.0515541 0.00543291 0.00428653 0.0255728 0.0297105 0.0501608 0.0293579 0.0414517 0.0579908 0.0411249 0.0382827 0.0460425 0.0411345 0.0733333 0.420982 0.0682023 0.0370856 0.165222 0.0843681 0.0311819 0.080195 0.0373618 0.0458028 0.0288723 0.0273392
threshold=6.8505050000000008e-10 2.9580150000000005e-05 0.55607300000000015 0.048279850000000006 -0.039689999999999996 0.026820000000000014 5.7676100000000005e-08 0.49994999999999928 0.23124499999999995 0.00046085650000000006 2.8705050000000001 0.00080265400000000008 -13.228949999999999 0.014898700000000003 -4.888914999999999e-08 0.15623999999999996 -1.3234699999999999e-07 -0.17305199999999996 0.1562649999999999 0.026820000000000014 -0.025773999999999905 0.26162950000000007 -0.17305199999999996 0.0022170600000000003 8.503045000000002 0.41121150000000001 1.0650950000000003e-06 1.5171700000000003e-07 0.0034446850000000007 -16.232699999999998
decision_type=2 2 2 2 2 2 2 2 2 2 2 2 2 2 2 2 2 2 2 2 2 2 2 2 2 2 2 2 2 2
left_child=1 3 -3 4 6 -6 -1 8 9 10 11 15 13 -13 21 17 -17 -2 19 20 -19 22 -14 -24 26 -26 27 -18 -16 -10
right_child=7 2 -4 -5 5 -7 -8 -9 29 -11 -12 12 14 -15 28 16 24 18 -20 -21 -22 -23 23 -25 25 -27 -28 -29 -30 -31
leaf_value=-1.7941115297316165e-05 -0.00010764604986724042 -4.5902646809775867e-06 -0.0034175021160035611 -0.0014275496993529184 0.0022261029973742554 -5.5084468614732552e-05 -0.00073604919655359665 -2.6965937396720559e-05 0.00088224702003360505 0.0018738820792910142 -0.0023185138974804432 0.00032255423005511023 -1.3077435536045087e-05 0.0032454447422787785 1.6061847609710227e-05 0.0012152861524392783 2.2077734926521467e-05 0.0029384334102360299 -9.8208458826008836e-05 0.0075893203627250237 0.0005146352293639194 5.2947258630043651e-05 -0.0018952166661620141 -0.0059878386574564501 -0.0039457532118103702 6.6697031899931253e-05 0.00028682267575015012 -0.0031348746358617063 0.0017482127631620434 -1.2364552610452597e-05
leaf_weight=287 164 23 20 24 30 142 29 7629 86 26 20 112 106 20 322 56 27 32 159 24 312 104 34 20 20 33 156 20 26 12236
leaf_count=287 164 23 20 24 30 142 29 7629 86 26 20 112 106 20 322 56 27 32 159 24 312 104 34 20 20 33 156 20 26 12236
internal_value=0 -0.000126577 -0.00159199 -3.50513e-06 6.65299e-05 0.000342797 -8.38434e-05 3.23079e-06 1.95518e-05 0.00019598 0.000171291 0.000199795 -3.81901e-05 0.000765416 -0.000211517 0.000376327 -8.33817e-05 0.000583894 0.000799098 0.00118679 0.000740105 -0.000682098 -0.00115988 -0.003411 -0.000367465 -0.00144744 -8.55027e-05 -0.00132131 0.000145475 -6.12071e-06
internal_weight=0 555 43 512 488 172 316 21744 14115 1793 1767 1747 744 132 612 1003 312 691 527 368 344 264 160 54 256 53 203 47 348 12322
internal_count=22299 555 43 512 488 172 316 21744 14115 1793 1767 1747 744 132 612 1003 312 691 527 368 344 264 160 54 256 53 203 47 348 12322
shrinkage=0.05


Tree=125
num_leaves=31
num_cat=0
split_feature=13 6 29 0 15 23 16 6 7 21 6 17 13 28 4 15 30 1 25 30 28 28 22 6 9 30 1 6 23 28
split_gain=0.00365916 0.0146426 0.00361866 0.0628133 0.00658362 0.00519546 0.00482838 0.0193419 0.0230908 0.037467 0.0201428 0.0453814 0.0279676 0.0477907 0.0191546 0.0327573 0.0409481 0.0211323 0.0600914 0.0604909 0.109457 0.291625 0.225164 0.176247 0.033602 0.0785372 0.230734 0.0824732 0.183509 0.227721
threshold=3.0931050000000004 -1.0213099999999999e-05 5.391045000000001 0.68426300000000018 2.6390250000000006 -0.0017994199999999997 3.1555500000000003 -2.2745549999999994e-05 0.006874540000000001 1.2951400000000002 -6.3626149999999987e-05 0.17157850000000002 1.856025 -0.062192999999999964 -0.00023085149999999997 0.92477500000000001 -1.5752549999999992 -11.086249999999998 -0.80259099999999994 1.9665349999999997 0.58802650000000023 -0.54918999999999984 -0.10243004999999998 4.0270400000000007e-05 5.1028300000000007e-07 -1.485365 -6.1926199999999989 4.7200350000000006e-05 0.027526950000000005 -0.33758199999999988
decision_type=2 2 2 2 2 2 2 2 2 2 2 2 2 2 2 2 2 2 2 2 2 2 2 2 2 2 2 2 2 2
left_child=2 -2 4 -4 6 -5 -1 8 10 -10 11 -8 -12 -14 15 -9 -17 18 -16 20 21 -20 -23 -24 -19 -26 27 28 -27 -30
right_child=1 -3 3 5 -6 -7 7 14 9 -11 12 -13 13 -15 17 16 -18 24 19 -21 -22 22 23 -25 25 26 -28 -29 29 -31
leaf_value=8.4617138069626031e-06 0.0015084877172739652 -6.042101727432275e-05 0.002790155237363208 -0.00083701485815585006 -0.00090974832302890727 -6.627560642369951e-06 -0.00014928356946663707 -0.00015864165938442708 4.8696061340331871e-05 -0.0022360066686384307 -0.00016443511370813245 0.0023855871596859526 -0.0029632098137636394 -0.00028130991831462978 0.0023498985662379051 -0.00031513637256396648 -0.003324428282212466 -0.00016881559116890767 -0.00022076620623259009 -0.00018708689547543248 -0.00047556831318571732 0.0084626841824501763 0.0052099578077269889 -0.001275333426310681 -0.00024150880135917344 -0.00031218766743108974 0.0058048724460108628 -0.00053997069373943197 -0.00077403600319237082 0.0055592106229596545
leaf_weight=18261 20 58 21 22 20 131 76 224 34 38 338 23 26 46 33 26 20 1568 88 442 103 21 22 20 341 80 22 113 22 40
leaf_count=18261 20 58 21 22 20 131 76 224 34 38 338 23 26 46 33 26 20 1568 88 442 103 21 22 20 341 80 22 113 22 40
internal_value=0 0.000341863 -1.20001e-06 0.000225924 -2.99252e-06 -0.00012603 -2.1692e-06 -5.37176e-05 -0.000319023 -0.00115712 -0.000200471 0.000439626 -0.000355031 -0.00124977 -5.3212e-06 -0.000408214 -0.00162352 3.19965e-05 0.000265119 0.000166272 0.000781172 0.00163842 0.00423538 0.00212172 -4.57467e-05 0.000266506 0.000891896 0.000468031 0.00127017 0.00331193
internal_weight=0 78 22221 174 22047 153 22027 3766 581 72 509 99 410 72 3185 270 46 2915 729 696 254 151 63 42 2186 618 277 255 142 62
internal_count=22299 78 22221 174 22047 153 22027 3766 581 72 509 99 410 72 3185 270 46 2915 729 696 254 151 63 42 2186 618 277 255 142 62
shrinkage=0.05


Tree=126
num_leaves=31
num_cat=0
split_feature=15 16 1 30 2 10 8 22 28 28 28 30 3 1 14 9 8 3 30 12 28 16 20 16 1 2 25 28 8 4
split_gain=0.00376822 0.00360661 0.0233398 0.0929095 0.0324327 0.0239469 0.0355304 0.119903 0.0245395 0.0995916 0.0581945 0.0199259 0.0198545 0.0175036 0.0823522 0.195005 0.0258212 0.0255946 0.0206188 0.0442902 0.0606807 0.0186467 0.0205576 0.0168744 0.034814 0.0429232 0.0284995 0.0652538 0.0146518 0.0141116
threshold=2.6390250000000006 10.198000000000002 -15.016799999999998 1.7234799999999997 2.3154300000000005 6.7812400000000007e-06 -9.1923799999999972e-06 -0.94314649999999989 -0.71866899999999989 0.32628000000000007 -0.15626499999999985 -1.485365 1.5212750000000003e-05 -6.4339449999999987 -6.3955149999999987 1.3446450000000005e-07 6.8359600000000009e-06 9.9873700000000016e-06 0.76082999999999956 5.5577300000000006e-06 -0.31155200000000005 10.505650000000001 -0.0016106259999999998 8.8966850000000015 -13.799749999999998 0.43777950000000004 0.054843700000000009 0.10215500000000001 -5.7326449999999989e-06 -8.5983699999999985e-06
decision_type=2 2 2 2 2 2 2 2 2 2 2 2 2 2 2 2 2 2 2 2 2 2 2 2 2 2 2 2 2 2
left_child=1 23 3 -3 28 6 7 -4 -7 10 -10 -9 -13 17 16 -16 -15 18 19 -8 -21 -19 -23 -1 -25 26 -26 -28 -5 -24
right_child=-2 2 5 4 -6 8 13 11 9 -11 -12 12 -14 14 15 -17 -18 21 -20 20 -22 22 29 24 25 -27 27 -29 -30 -31
leaf_value=3.6911557842916752e-07 0.00065405190054496586 0.0027770541351180458 0.0039376947820225416 -0.0013614232708333118 0.0017078886565286668 -3.2865519511037343e-05 -0.00041797908173369551 -0.0007798333367099986 -0.0013263202523480038 2.9855899065883172e-05 -0.0045639482230636413 -0.00048373179653770585 0.0014938256321571923 -1.5896743708453425e-05 -0.00079054845008067788 0.0058333643476271395 -0.0018740073846129236 -0.0017909691098490538 -0.00036393706030745916 0.00015993930289617063 0.0039652806438971308 -0.0015950526476444793 -0.00054578536722873149 -0.00119211359768607 -7.1618254216149871e-05 0.0024303513815054131 0.0035453056165624733 -0.00032173351955862018 -8.9129122511621975e-05 -1.5383196874668621e-05
leaf_weight=20463 22 35 24 33 20 123 36 45 35 93 23 22 30 287 25 20 20 24 60 22 20 32 258 28 109 30 20 24 72 244
leaf_count=20463 22 35 24 33 20 123 36 45 35 93 23 22 30 287 25 20 20 24 60 22 20 32 258 28 109 30 20 24 72 244
internal_value=0 -6.45919e-07 -7.28957e-05 0.000500065 -0.000137492 -0.000136426 -3.78138e-05 0.000773428 -0.000557146 -0.000984208 -0.00261021 -9.48279e-06 0.000657167 -0.000131478 0.000155855 0.00215341 -0.000136946 -0.000276796 0.000332904 0.000868936 0.00197201 -0.000427583 -0.000366307 4.95611e-06 0.000449808 0.000701031 0.000361948 0.00143601 -0.000488993 -0.00028798
internal_weight=0 22277 1603 160 125 1443 1169 121 274 151 58 97 52 1048 352 45 307 696 138 78 42 558 534 20674 211 183 153 44 105 502
internal_count=22299 22277 1603 160 125 1443 1169 121 274 151 58 97 52 1048 352 45 307 696 138 78 42 558 534 20674 211 183 153 44 105 502
shrinkage=0.05


Tree=127
num_leaves=31
num_cat=0
split_feature=13 3 15 13 4 1 23 31 1 14 14 25 16 6 25 4 14 31 27 14 6 23 31 4 3 17 8 1 17 18
split_gain=0.00355543 0.0593759 0.00342135 0.00335299 0.0140521 0.00451085 0.0917031 0.0376464 0.0820867 0.0455257 0.0304709 0.0434026 0.0301659 0.0312258 0.0194541 0.0188506 0.0140196 0.0182232 0.031015 0.0242248 0.0284834 0.0136561 0.0522081 0.0103544 0.00938147 0.00877383 0.00807683 0.00755704 0.069988 0.100831
threshold=-3.0908149999999996 1.0109050000000003e-05 2.6390250000000006 3.0931050000000004 -2.5366249999999995e-05 -15.126499999999998 -2.8015299999999996 2.1630100000000008 -16.232699999999998 -18.723649999999996 -16.786249999999999 -0.28524949999999993 0.88139100000000015 6.7684000000000011e-05 -0.083844549999999976 -4.6651999999999993e-05 -16.571949999999998 -0.81491999999999976 0.026820000000000014 -15.441949999999999 3.7887350000000002e-06 -0.8573869999999999 0.79070500000000055 -5.6963349999999994e-05 1.358775e-05 2.9088150000000002 8.9866000000000013e-06 -14.166599999999997 -0.11302099999999998 0.013089950000000001
decision_type=2 2 2 2 2 2 2 2 2 2 2 2 2 2 2 2 2 2 2 2 2 2 2 2 2 2 2 2 2 2
left_child=1 -1 3 5 -5 6 -2 9 -9 -8 12 -12 13 -11 15 -13 -16 19 -19 20 -18 22 -7 -24 -20 27 -10 28 29 -23
right_child=2 -3 -4 4 -6 21 7 8 26 10 11 14 -14 -15 16 -17 17 18 24 -21 -22 25 23 -25 -26 -27 -28 -29 -30 -31
leaf_value=0.0025411705662008901 0.0032946334197185936 -0.00011554971941891649 0.00062134933911941277 0.0014676086423514789 -6.9336941103380204e-05 -0.0022552901287781423 0.0021444646019043159 -0.0036174915604836621 -0.00061751310837280474 -0.0014729248821940049 0.001939604117931729 -0.0022521619300823656 -0.0023974857164257967 0.00083059898952342337 0.0012001939538260394 -0.0001737207729471872 0.0025130013045418309 -0.002075628412809844 0.00081684133234375626 -6.6625734370688873e-05 -0.00015548871830105781 0.004591126005314956 -0.00090434654322903488 9.6138041753408463e-05 -0.00071461804998762101 -0.0010387729645299261 0.00071260321863173025 2.5887112898734088e-06 5.1361225736810502e-05 -0.00036948623281205076
leaf_weight=24 20 170 22 20 58 32 23 24 25 31 27 20 27 28 22 24 20 30 20 1640 20 21 31 156 20 20 21 18911 772 20
leaf_count=24 20 170 22 20 58 32 23 24 25 31 27 20 27 28 22 24 20 30 20 1640 20 21 31 156 20 20 21 18911 772 20
internal_value=0 0.000213117 -1.87038e-06 -2.49125e-06 0.000324752 -3.65121e-06 -7.44334e-05 -0.000107757 -0.00124704 -6.6902e-05 -9.32687e-05 -5.03415e-05 -0.00101321 -0.000379727 -7.99276e-05 -0.00111847 -5.414e-05 -6.99088e-05 -0.000860348 -3.69738e-05 0.00117876 3.58904e-06 -0.000389071 -6.97177e-05 5.11116e-05 7.94441e-06 -1.02861e-05 9.00578e-06 0.000158272 0.00217132
internal_weight=0 194 22105 22083 78 22005 2042 2022 70 1952 1929 1843 86 59 1816 44 1772 1750 70 1680 40 19963 219 187 40 19744 46 19724 813 41
internal_count=22299 194 22105 22083 78 22005 2042 2022 70 1952 1929 1843 86 59 1816 44 1772 1750 70 1680 40 19963 219 187 40 19744 46 19724 813 41
shrinkage=0.05


Tree=128
num_leaves=31
num_cat=0
split_feature=12 4 19 22 22 11 27 27 12 18 1 9 9 9 7 9 20 0 27 27 30 27 21 6 22 17 23 0 20 30
split_gain=0.00325863 0.036255 0.0727455 0.0221331 0.00592824 0.00810633 0.00776926 0.0339959 0.00634228 0.00445671 0.0284812 0.223417 0.0355522 0.217275 0.0442216 0.0439112 0.0242295 0.0520288 0.0214154 0.216549 0.233935 0.0215158 0.0202461 0.0203711 0.0165655 0.0107725 0.0107679 0.0218827 0.0107293 0.00946431
threshold=8.0854550000000008e-10 2.9580150000000005e-05 -0.016106049999999997 0.22827000000000003 0.00034069250000000009 1.0000000180025095e-35 -0.19554999999999986 0.026820000000000014 3.6202450000000005e-10 0.025661000000000003 -15.973449999999998 -8.0984749999999987e-06 1.5605150000000004e-05 3.2616700000000009e-05 0.0044422700000000008 -5.7636699999999991e-06 -0.0016106259999999998 7.3648950000000015 -0.12303449999999989 0.41121150000000001 -3.1346799999999995 -0.45360049999999991 32.124900000000004 0.00013189800000000003 -0.94314649999999989 0.36560600000000004 0.46573400000000004 -5.6614199999999988 0.00023928850000000002 1.1138800000000002
decision_type=2 2 2 2 2 2 2 2 2 2 2 2 2 2 2 2 2 2 2 2 2 2 2 2 2 2 2 2 2 2
left_child=1 3 -3 4 6 -6 -1 8 -8 24 11 -11 14 -14 16 22 17 -12 21 20 -20 -18 23 -16 -2 -21 -26 -28 -25 -15
right_child=9 2 -4 -5 5 -7 7 -9 -10 10 12 -13 13 29 15 -17 18 -19 19 25 -22 -23 -24 28 26 -27 27 -29 -30 -31
leaf_value=-1.5193253570862253e-05 -0.0014398254796469702 -0.0037187427279422995 0.00040440102381145826 -0.0016462549409334316 -0.00081646722903361735 -1.890436564576442e-05 0.0022648589103482666 -4.2211435681052216e-05 0.0010360110770090529 0.0047968838852830232 8.5507030010550353e-05 -0.0013217327504330694 0.0043270538096266773 -0.00046325914845135808 -0.001319531008961018 -0.0025219029005105163 6.2308826648060286e-06 -0.0029593395589108695 0.00015400008636615463 4.9714851759312548e-05 0.0077098805893911051 -0.0014948760692412315 -0.001753540562706555 -6.8134007040712545e-05 1.8339360582135923e-06 -0.00088774371239802954 -0.0020193251606542618 -9.8773472841241457e-06 0.0013693023594983278 0.00049587983600628965
leaf_weight=228 20 20 23 20 39 174 21 101 21 25 47 37 33 97 22 33 206 20 21 206 20 27 22 34 20628 36 20 42 21 35
leaf_count=228 20 20 23 20 39 174 21 101 21 25 47 37 33 97 22 33 206 20 21 206 20 27 22 34 20628 36 20 42 21 35
internal_value=0 -0.000110571 -0.00151334 -1.0705e-05 4.5307e-05 -0.000164937 0.000166013 0.000454929 0.00165043 3.30406e-06 0.000109668 0.00114545 3.66919e-05 0.000698257 -0.000115977 -0.00094236 7.11287e-05 -0.000823402 0.000187279 0.000479555 0.0038398 -0.000167717 -0.000415846 -3.36479e-05 -1.53392e-06 -8.97418e-05 -1.43592e-07 -0.000658086 0.000480705 -0.000208942
internal_weight=0 647 43 604 584 213 371 143 42 21652 942 62 880 165 715 132 583 67 516 283 41 233 99 77 20710 242 20690 62 55 132
internal_count=22299 647 43 604 584 213 371 143 42 21652 942 62 880 165 715 132 583 67 516 283 41 233 99 77 20710 242 20690 62 55 132
shrinkage=0.05


Tree=129
num_leaves=31
num_cat=0
split_feature=8 22 8 27 27 8 30 7 23 14 22 22 1 14 3 20 27 27 18 20 20 30 9 9 0 9 24 25 3 16
split_gain=0.00316147 0.0474287 0.0703333 0.118932 0.319123 0.468411 0.164235 0.220624 0.0891481 0.0450749 0.0394822 0.0326227 0.0307196 0.0613223 0.0281636 0.0232966 0.0388364 0.0666019 0.0210117 0.0166378 0.0152817 0.0428942 0.086461 0.205163 0.028782 0.0163584 0.0150226 0.0127575 0.0296144 0.0273761
threshold=-9.7636649999999977e-08 -0.0093454599999999981 -1.8560199999999996e-05 0.41121150000000001 -0.56077824999999992 -3.0672449999999994e-06 0.26367500000000016 0.00027030200000000004 0.022715250000000003 -18.853249999999996 -0.94314649999999989 -0.0073437949999999993 -16.595249999999997 -15.808049999999998 7.9965000000000021e-06 0.00032810050000000007 0.43870000000000015 -0.27486499999999991 0.00080517000000000013 0.00017574100000000001 5.6886350000000008e-05 -2.2627249999999997 -3.8034799999999999e-07 -8.2757349999999978e-05 -3.1189549999999993 -7.3772549999999982e-05 7.0096650000000009e-06 -0.0031068049999999994 1.2181950000000001e-05 54.163350000000008
decision_type=2 2 2 2 2 2 2 2 2 2 2 2 2 2 2 2 2 2 2 2 2 2 2 2 2 2 2 2 2 2
left_child=1 2 9 4 -4 8 7 -7 -6 -1 -11 12 13 -2 -5 27 17 -17 -14 26 -13 25 23 -23 -24 -22 -12 28 -3 -30
right_child=11 15 3 14 5 6 -8 -9 -10 10 19 20 18 -15 -16 16 -18 -19 -20 -21 21 22 24 -25 -26 -27 -28 -29 29 -31
leaf_value=0.0020222877342761917 -0.0034963972590741745 -0.00067371898059918596 -0.00013004304541787249 0.0017422743133682249 0.0097231500554533501 -0.00024156004775506567 -0.0021710234991937447 0.0050768152730690935 0.0051107765198685233 -0.0018120735899384063 -0.00013514012032535844 3.5846603759893892e-06 -0.0017807280441047625 -0.00029507626341700627 -0.00015528299574956255 -0.00047625051581864962 0.0005919770502562945 -0.003871430058497936 -0.00015082546353505888 0.0010358435158845428 -0.0014279244861972985 -0.0005370546534929115 0.0013479182295812184 0.006000702211410195 -0.00032330524032886387 4.7159153618463572e-05 -0.0014384073481778616 1.3666667546738738e-05 -7.2522421254769302e-05 0.0016917967175528329
leaf_weight=22 21 232 167 21 22 39 26 39 20 39 281 11638 20 52 284 52 36 20 1744 28 20 24 38 24 80 312 24 6452 499 23
leaf_count=22 21 232 167 21 22 39 26 39 20 39 281 11638 20 52 284 52 36 20 1744 28 20 24 38 24 80 312 24 6452 499 23
internal_value=0 2.43893e-05 0.000345208 0.000678031 0.00136273 0.00307023 0.00127046 0.00241763 0.00752678 -0.000176835 -0.000306891 -1.45327e-05 -0.0002109 -0.001216 -2.46315e-05 -2.00007e-05 -0.000748912 -0.00141936 -0.000169305 -0.000130608 1.5191e-05 0.000286424 0.000942675 0.00273182 0.000214885 -4.17013e-05 -0.000237692 -9.07616e-06 -0.000203687 5.21578e-06
internal_weight=0 8326 1012 618 313 146 104 78 42 394 372 13973 1837 73 305 7314 108 72 1764 333 12136 498 166 48 118 332 305 7206 754 522
internal_count=22299 8326 1012 618 313 146 104 78 42 394 372 13973 1837 73 305 7314 108 72 1764 333 12136 498 166 48 118 332 305 7206 754 522
shrinkage=0.05


Tree=130
num_leaves=31
num_cat=0
split_feature=15 16 2 2 15 2 4 25 7 27 1 6 6 23 0 16 16 6 1 5 14 9 5 5 27 27 22 10 22 27
split_gain=0.00337466 0.00342045 0.0202082 0.112656 0.236248 0.0336064 0.0180047 0.0210712 0.0179756 0.0600948 0.0333808 0.0362752 0.0277579 0.0221633 0.0165984 0.0169161 0.0158659 0.0803546 0.0152698 0.0148766 0.0136914 0.0125895 0.0213799 0.0176779 0.0205136 0.066887 0.0769492 0.0451117 0.0168101 0.0223587
threshold=2.6390250000000006 10.198000000000002 -1.2804649999999997 -2.0605549999999995 -0.95944149999999995 -1.0451899999999996 0.000199638 5.6022800000000013 0.065046350000000017 0.20940800000000012 -16.595249999999997 -6.3626149999999987e-05 -5.1063549999999993e-05 -0.022684299999999994 13.899050000000001 125.7895 9.792365000000002 1.2570300000000002e-05 -15.456499999999998 -9.6573999999999987e-05 -14.341999999999999 1.0079050000000002e-07 0.00016940400000000003 0.00011884250000000002 -0.42604449999999999 0.36124199999999984 0.15332500000000002 1.0093650000000003e-06 -0.10243004999999998 0.33758199999999999
decision_type=2 2 2 2 2 2 2 2 2 2 2 2 2 2 2 2 2 2 2 2 2 2 2 2 2 2 2 2 2 2
left_child=1 16 3 6 -5 -4 7 20 10 -10 13 -12 -13 -7 15 18 -1 -18 -14 -8 -3 22 23 24 -20 26 27 -26 -23 -30
right_child=-2 2 5 4 -6 8 19 -9 9 -11 11 12 14 -15 -16 -17 17 -19 21 -21 -22 28 -24 -25 25 -27 -28 -29 29 -31
leaf_value=2.4226415973913198e-06 0.00061895518500188536 0.00099823536438634628 -0.0018045909561139222 0.0061895010486731072 -0.00070643438310879808 -0.0026968284347094595 -2.7712184908068595e-05 -0.0019477577689576719 0.0027968800721944057 -0.00057678170586851517 0.0014888939046899656 -0.0015742312853090524 0.0012393281955848494 -0.00057505587183186439 0.0013245084821392084 -0.0012804007360471352 0.003415435313991111 -0.00042072149429491965 4.6100435637311011e-05 0.0017106206192693209 -0.00041233247241958393 -0.00025036422323311222 -0.0018655934158596213 0.0012576258662738839 -0.0018671502249263641 -0.00010999999654618591 -0.0041434148602396215 0.0010067122829654678 0.00084098228144580578 -0.00019279557881828215
leaf_weight=20611 22 20 30 23 27 20 32 20 22 33 35 33 21 32 20 31 20 43 299 20 123 184 20 20 36 242 24 22 123 91
leaf_count=20611 22 20 30 23 27 20 32 20 22 33 35 33 21 32 20 31 20 43 299 20 123 184 20 20 36 242 24 22 123 91
internal_value=0 -6.11259e-07 -7.09718e-05 0.000327936 0.0024657 -0.000149978 -0.000169217 -0.000427652 -0.000112028 0.000772683 -0.000150862 -9.71626e-05 -0.000144772 -0.00139112 -0.000103137 -0.000128791 4.84428e-06 0.000797106 -9.57964e-05 0.000640877 -0.00021505 -0.000122222 -0.000255667 -0.000205591 -0.000252564 -0.000528184 -0.00176234 -0.000777064 0.000100074 0.000401385
internal_weight=0 22277 1603 265 50 1338 215 163 1308 55 1253 1201 1166 52 1133 1113 20674 63 1082 52 143 1061 663 643 623 324 82 58 398 214
internal_count=22299 22277 1603 265 50 1338 215 163 1308 55 1253 1201 1166 52 1133 1113 20674 63 1082 52 143 1061 663 643 623 324 82 58 398 214
shrinkage=0.05


Tree=131
num_leaves=31
num_cat=0
split_feature=13 3 15 16 6 7 21 4 15 30 1 30 27 27 25 1 30 30 30 4 2 11 9 14 24 30 12 14 7 30
split_gain=0.00317065 0.0517103 0.00306398 0.00320803 0.0173349 0.0218322 0.0315167 0.0175343 0.0273533 0.0360655 0.0244477 0.089247 0.196303 0.352662 0.0476566 0.0224505 0.035306 0.0315668 0.0242859 0.019598 0.0178764 0.0417733 0.0199826 0.0853758 0.0944222 0.172178 0.173208 0.0297506 0.0338333 0.0900027
threshold=-3.0908149999999996 1.0109050000000003e-05 2.6390250000000006 3.1555500000000003 -2.2745549999999994e-05 0.006874540000000001 1.2951400000000002 -0.00024283949999999996 0.81367600000000018 -0.10195000000000042 -12.457899999999997 -1.8362999999999998 -0.64621549999999994 0.63523675000000013 -0.28524949999999993 -12.748049999999997 1.665195 2.9741500000000003 2.4660350000000002 3.0248850000000001e-05 0.9753535000000001 0.00018843350000000004 5.1028300000000007e-07 -8.7470849999999984 9.4814400000000013e-07 0.88446499999999972 1.3381100000000001e-05 -8.969479999999999 0.00088515050000000019 -1.9709400000000008
decision_type=2 2 2 2 2 2 2 2 2 2 2 2 2 2 2 2 2 2 2 2 2 2 2 2 2 2 2 2 2 2
left_child=1 -1 3 -2 5 -5 -7 8 -6 -10 11 12 -9 -14 -13 16 19 -17 -18 -16 21 22 27 -24 -25 26 -26 28 -12 -30
right_child=2 -3 -4 4 7 6 -8 10 9 -11 20 14 13 -15 15 17 18 -19 -20 -21 -22 -23 23 24 25 -27 -28 -29 29 -31
leaf_value=0.00237383922006605 6.2956530440253941e-06 -0.00010546323919911898 0.00058800734219733967 -0.00018181763628022504 -0.00012758329192827169 3.3416318115087054e-05 -0.0020963056698459887 -0.0010253956693194403 -0.00028207038431578589 -0.0028952438069846601 -5.529368707411951e-05 0.001775048907534495 0.0085775253997946339 -0.0002773032101053421 -0.00048733100271160115 0.0024647835925134132 0.0016593343269778417 -0.00013604768771204232 -0.0001362989012899821 -0.0026474691303779506 -0.00038711358815127765 0.0019381553384716557 -0.00023224947363515398 0.00010134492297395438 0.0016708213976623183 -0.00015296192432288081 0.0077253801963663481 -0.00039643857274006527 -0.00018584593708712623 0.002411361196724136
leaf_weight=24 18311 170 22 517 201 32 38 33 31 23 839 38 22 23 21 20 20 28 322 21 310 28 328 108 27 39 21 539 90 53
leaf_count=24 18311 170 22 517 201 32 38 33 31 23 839 38 22 23 21 20 20 28 322 21 310 28 328 108 27 39 21 539 90 53
internal_value=0 0.000201255 -1.76627e-06 -2.35383e-06 -4.43423e-05 -0.00029402 -0.00112272 1.67371e-06 -0.000395996 -0.00139509 3.62832e-05 0.0003374 0.00190371 0.00405172 7.74592e-05 -7.18658e-05 -0.000199303 0.000947632 -3.12911e-05 -0.0015674 -3.29914e-05 1.99902e-05 -6.28606e-06 0.000260319 0.00108885 0.00231471 0.00431969 -9.79591e-05 6.58703e-05 0.000776755
internal_weight=0 194 22105 22083 3772 587 70 3185 255 54 2930 548 78 45 470 432 384 48 342 42 2382 2072 2044 523 195 87 48 1521 982 143
internal_count=22299 194 22105 22083 3772 587 70 3185 255 54 2930 548 78 45 470 432 384 48 342 42 2382 2072 2044 523 195 87 48 1521 982 143
shrinkage=0.05


Tree=132
num_leaves=31
num_cat=0
split_feature=13 5 9 23 15 30 15 11 10 8 7 15 7 7 28 24 1 30 15 11 2 28 5 11 11 15 2 1 30 0
split_gain=0.00298687 0.0135934 0.00315702 0.0271933 0.0334543 0.0227843 0.00828534 0.216177 0.0231042 0.0641867 0.0101043 0.00821741 0.0207044 0.0162037 0.015672 0.00783072 0.0178543 0.025696 0.0069654 0.0863292 0.189257 0.194771 0.136262 0.0386753 0.0275325 0.0502714 0.0138455 0.0199273 0.0106849 0.0253372
threshold=3.0931050000000004 6.746700000000001e-05 -7.3772549999999982e-05 -2.8015299999999996 0.92477500000000001 -0.74348500000000006 1.3124250000000002 0.00062990250000000017 5.0497150000000003e-06 -4.3415099999999989e-06 0.00080265400000000008 1.0940150000000004 0.0032342650000000005 0.0013165550000000003 -0.18449200000000013 -1.2698049999999998e-06 -14.372349999999999 2.8018300000000007 0.54616000000000009 3.0948650000000007e-05 0.9753535000000001 0.35332384999999983 0.00012308650000000004 1.2608950000000002e-05 2.4958100000000002e-06 0.70144250000000008 2.4591750000000006 -12.248949999999999 -1.7031500000000006 6.8084300000000004
decision_type=2 2 2 2 2 2 2 2 2 2 2 2 2 2 2 2 2 2 2 2 2 2 2 2 2 2 2 2 2 2
left_child=2 -2 3 -1 15 -6 11 8 9 -8 -11 18 13 14 -13 16 17 -5 -4 23 21 22 -21 24 28 -26 -22 -28 -20 -30
right_child=1 -3 6 4 5 -7 7 -9 -10 10 -12 12 -14 -15 -16 -17 -18 -19 19 20 26 -23 -24 -25 25 -27 27 -29 29 -31
leaf_value=0.0016943843257401815 -7.8737273674803497e-05 0.0014329148526212522 -2.4319969956482796e-06 -0.0025587925192667171 -0.00048737787452409983 -0.0024623632096968918 0.0027406110684387386 0.0052802000724477697 -0.0015082427894985476 -3.7850451426360466e-06 -0.00080094942199398903 0.00035604382487567699 -0.0014762997039890087 0.0011667663414052433 -0.0010896291827329583 -1.4547425472866054e-05 -7.3635029673368996e-05 -8.2502949755342518e-05 -1.1519914652227375e-06 0.0073833911078982064 -0.00073550800922984145 -0.0010825826431391761 0.0022605910653219832 -0.0022767638083314523 0.002872179514253565 4.0383057857980025e-06 0.0016842287118197419 -0.00015439093533911678 -0.00022528653517811905 -0.0018038099426434953
leaf_weight=22 58 20 18484 20 40 23 20 20 27 137 56 37 33 22 38 2134 128 22 432 25 51 20 27 20 22 50 20 56 206 29
leaf_count=22 58 20 18484 20 40 23 20 20 27 137 56 37 33 22 38 2134 128 22 432 25 51 20 27 20 22 50 20 56 206 29
internal_value=0 0.000308866 -1.08418e-06 -5.53844e-05 -7.16476e-05 -0.0012084 5.45693e-06 0.000285854 -0.000130342 4.43216e-05 -0.000235087 1.73206e-06 -0.000394472 -2.64271e-05 -0.00037643 -4.05644e-05 -0.000367154 -0.00126169 4.3813e-06 0.00013584 0.0010628 0.00311068 0.00472348 -0.000107197 -4.84808e-05 0.000880415 -9.82065e-05 0.000329456 -0.000148751 -0.000420083
internal_weight=0 78 22221 2389 2367 63 19832 260 240 213 193 19572 130 97 75 2304 170 42 19442 958 199 72 52 759 739 72 127 76 667 235
internal_count=22299 78 22221 2389 2367 63 19832 260 240 213 193 19572 130 97 75 2304 170 42 19442 958 199 72 52 759 739 72 127 76 667 235
shrinkage=0.05


Tree=133
num_leaves=31
num_cat=0
split_feature=18 4 26 12 7 1 21 2 15 21 19 14 30 4 15 19 30 30 27 27 23 30 9 1 17 25 27 21 30 14
split_gain=0.00317181 0.0220987 0.005518 0.122141 0.00986176 0.00358604 0.0441915 0.20218 0.0741949 0.0321829 0.0208115 0.0514036 0.0254182 0.0344282 0.0186673 0.0163523 0.0432319 0.0362233 0.0278168 0.0630196 0.0101857 0.0495418 0.00989174 0.00955175 0.0630796 0.0260297 0.0719732 0.0125289 0.0163588 0.0328945
threshold=0.40728000000000003 5.7542750000000009e-06 1.0444035000000003 0.0057751600000000005 0.00065207900000000018 -15.126499999999998 4.2965400000000011 0.7894500000000001 -0.64547099999999991 3.0089350000000006 0.24899600000000002 -18.127749999999995 0.88446499999999972 -1.1842549999999999e-06 0.74545400000000017 0.097819300000000012 1.2260500000000001 1.665195 0.026820000000000014 -0.017273000000000035 -0.8573869999999999 -0.78714500000000009 2.2651350000000005e-06 -14.166599999999997 -0.11302099999999998 -0.007539704999999999 -0.061827999999999932 0.14834200000000003 0.76082999999999956 -14.71815
decision_type=2 2 2 2 2 2 2 2 2 2 2 2 2 2 2 2 2 2 2 2 2 2 2 2 2 2 2 2 2 2
left_child=2 -2 5 4 -4 6 9 8 -8 10 11 -1 13 -12 -14 17 -17 18 19 -13 21 22 -7 24 -22 26 -26 28 29 -27
right_child=1 -3 3 -5 -6 20 7 -9 -10 -11 12 15 14 -15 -16 16 -18 -19 -20 -21 23 -23 -24 -25 25 27 -28 -29 -30 -31
leaf_value=0.0020626646487879297 -0.0011918577502858952 0.00069270614933754718 -8.9301617615427338e-05 0.0036371369232338943 -0.0012806245484171088 0.00035600921273975448 0.0012972777508756346 0.0048251108461990957 -0.0022814727046837411 -0.0018589505245192692 -0.0026361492052995438 -0.00061973843326275835 -1.3995830055518811e-05 -0.00040689236340640919 -0.0015984130509986288 0.0024863965668456248 8.2784882061241673e-05 -3.202169958015443e-05 -0.0001823655792109743 -0.00396035554658738 0.0021379218089350618 -0.0024349406589753929 -0.00076410681818001817 1.4493418746489932e-06 -0.00025128714688106172 -0.00030053374088870793 0.0029161951290885119 -0.00042906990124159678 5.772709689369871e-06 0.0022396192819287538
leaf_weight=29 35 28 38 22 32 73 28 25 30 26 29 48 162 43 21 22 125 1366 70 20 39 25 27 19149 47 26 29 146 514 25
leaf_count=29 35 28 38 22 32 73 28 25 30 26 29 48 162 43 21 22 125 1366 70 20 39 25 27 19149 47 26 29 146 514 25
internal_value=0 -0.000354274 1.00374e-06 0.00038743 -0.000633906 -6.01712e-07 -6.36985e-05 0.00106635 -0.0005538 -0.000111528 -8.80488e-05 -2.41641e-05 -0.000508936 -0.00130479 -0.000195814 -6.08195e-05 0.000442509 -0.000110014 -0.00088203 -0.00160227 5.8147e-06 -0.000444126 5.35779e-05 8.63034e-06 0.000175106 7.78383e-05 0.000957357 -1.6175e-05 9.052e-05 0.000944639
internal_weight=0 63 22236 92 70 22144 2044 83 58 1961 1935 1680 255 72 183 1651 147 1504 138 68 20100 125 100 19975 826 787 76 711 565 51
internal_count=22299 63 22236 92 70 22144 2044 83 58 1961 1935 1680 255 72 183 1651 147 1504 138 68 20100 125 100 19975 826 787 76 711 565 51
shrinkage=0.05


Tree=134
num_leaves=31
num_cat=0
split_feature=12 17 27 31 31 22 17 10 0 16 9 27 3 15 0 27 7 16 1 11 2 11 26 27 4 16 20 16 6 7
split_gain=0.002898 0.0342056 0.174418 0.00663133 0.0247022 0.00540894 0.0035322 0.0404742 0.195542 0.0256535 0.0633992 0.0564645 0.0430646 0.0235815 0.0220519 0.0111713 0.00879666 0.00519461 0.0203633 0.0644901 0.0210238 0.0770875 0.0238813 0.0196467 0.0189649 0.0925509 0.0436304 0.0155805 0.0697478 0.0144201
threshold=6.8505050000000008e-10 0.0080739700000000015 -0.19554999999999986 0.39185999999999949 -0.082795000000000382 -0.00081900949999999995 0.36560600000000004 -1.148465e-07 3.7958100000000004 54.163350000000008 1.2023650000000002e-06 -0.77620499999999981 2.5815900000000001e-05 0.97722050000000016 6.1518400000000009 0.31155200000000016 0.0025956900000000003 10.198000000000002 -16.889399999999998 -3.5889049999999996e-06 1.2303800000000003 0.00022125750000000002 0.12041550000000001 1.2262116500000002 6.9856950000000016e-05 35.645800000000008 0.00013560600000000003 9.792365000000002 1.2570300000000002e-05 0.0032342650000000005
decision_type=2 2 2 2 2 2 2 2 2 2 2 2 2 2 2 2 2 2 2 2 2 2 2 2 2 2 2 2 2 2
left_child=1 3 -3 4 5 -1 17 8 -8 10 14 -11 13 -13 15 16 -9 27 19 -19 21 24 -22 -24 29 26 -26 -2 -29 -20
right_child=6 2 -4 -5 -6 -7 7 9 -10 11 -12 12 -14 -15 -16 -17 -18 18 20 -21 22 -23 23 -25 25 -27 -28 28 -30 -31
leaf_value=0.00064164752740029582 3.3863723656130455e-06 3.4017085770094792e-05 -0.0046705136467304932 -6.1208050132478437e-05 0.0014710642853299905 -0.0001252364909813476 -0.00042292320361518148 0.00020759747427264439 0.0041297559342210128 0.00026253378454494741 0.0021016733238387753 -0.0017456457812841109 -0.0035772561353223861 0.00035328577783809087 -0.0013751301911167592 0.0012018998467829079 -0.00086139243406554078 -0.00061405582518394425 -0.00010553118592978408 0.0029986383803632288 -0.00033784857724448991 0.00302171905577211 -0.0028190494763839524 -0.00060282234502665236 0.00046114288671459595 0.0029092152556805906 -0.0021786938677905709 0.0032274676001179618 -0.00036002804095222108 -0.00068876378608914073
leaf_weight=29 20068 110 24 243 38 111 77 67 34 91 38 32 20 23 31 20 27 30 667 21 152 20 20 20 45 29 24 20 42 126
leaf_count=29 20068 110 24 243 38 111 77 67 34 91 38 32 20 23 31 20 27 30 667 21 152 20 20 20 45 29 24 20 42 126
internal_value=0 -0.000112823 -0.000808585 0.00010863 0.000340489 3.36181e-05 2.87974e-06 0.000139959 0.000971591 -0.000124543 0.000283738 -0.000574636 -0.0015904 -0.000867911 -0.000192687 0.000128855 -9.94528e-05 -8.28759e-08 -0.000103249 0.000873524 -0.000148413 -4.81988e-05 -0.000623908 -0.00171094 -0.000117108 0.000539082 -0.000457061 5.83139e-06 0.000797229 -0.000198201
internal_weight=0 555 134 421 178 140 21744 460 111 349 183 166 75 55 145 114 94 21284 1154 51 1103 911 192 40 891 98 69 20130 62 793
internal_count=22299 555 134 421 178 140 21744 460 111 349 183 166 75 55 145 114 94 21284 1154 51 1103 911 192 40 891 98 69 20130 62 793
shrinkage=0.05


Tree=135
num_leaves=31
num_cat=0
split_feature=27 16 15 0 20 4 16 11 25 30 30 0 11 25 3 16 3 6 21 12 15 12 30 30 23 25 2 19 31 27
split_gain=0.00280895 0.0583352 0.0071647 0.0046783 0.00303439 0.0135505 0.0697475 0.0230856 0.154038 0.221358 0.0200081 0.0416446 0.0190852 0.0676774 0.0638547 0.0761503 0.0292171 0.0307676 0.0269769 0.0349663 0.0260919 0.0705672 0.0508028 0.0658271 0.0256489 0.0189977 0.0941829 0.0161767 0.0154565 0.0373778
threshold=5.391045000000001 9.792365000000002 2.6390250000000006 0.81388450000000012 -1.0960499999999998e-05 -0.00023085149999999997 27.517200000000006 3.0948650000000007e-05 -0.244754 -3.7945649999999991 -0.82755000000000034 8.9380700000000015 -7.6351549999999983e-09 -0.00067998549999999998 1.2181950000000001e-05 0.38138150000000004 1.5066350000000002e-05 2.2173350000000003e-05 1.8908100000000003 0.00048168300000000006 0.11976500000000001 1.1867000000000002e-05 1.1138800000000002 0.021970000000000049 -0.004493984999999999 -0.034001399999999994 0.9753535000000001 -0.32189749999999995 1.1102250000000005 0.28691050000000012
decision_type=2 2 2 2 2 2 2 2 2 2 2 2 2 2 2 2 2 2 2 2 2 2 2 2 2 2 2 2 2 2
left_child=2 3 4 -2 5 6 -1 10 9 -9 28 12 18 16 -15 -16 24 -18 20 -20 21 22 23 -12 -14 26 -10 -28 29 -7
right_child=1 -3 -4 -5 -6 7 -8 8 25 -11 11 -13 13 14 15 -17 17 -19 19 -21 -22 -23 -24 -25 -26 -27 27 -29 -30 -31
leaf_value=-0.00016284292246408232 -0.0008410048836681415 0.0026065283745992929 -0.00094750058837234975 -3.7126555733488453e-05 8.855355306783443e-06 0.002512985899265914 -0.0031982676972984337 -0.00053709780289474499 0.0030823158461536315 0.005596050961438807 0.00082056323350116151 -0.0020713439111615674 -0.0019480921917420348 -5.4357373166215351e-05 -0.0050246855719192161 -0.00095597324872632398 -0.00024237081961170286 0.0020415605402502417 -0.0023642155539294308 -6.0440097113314553e-05 -0.00018045963694784543 -0.00018607809858841738 -0.00011532220766336348 0.0047839886537985876 -7.0136115173227164e-05 -5.1335728731749676e-05 0.00055938537581823767 -0.00098496865084132129 -1.2821254698604748e-05 -0.00050727146955025437
leaf_weight=352 21 22 20 131 17446 20 20 28 29 31 20 31 24 31 23 23 30 29 28 40 401 116 21 22 75 709 30 39 2466 21
leaf_count=352 21 22 20 131 17446 20 20 28 29 31 20 31 24 31 23 23 30 29 28 40 401 116 21 22 75 709 30 39 2466 21
internal_value=0 0.000200109 -1.57374e-06 -0.000148189 -7.17888e-07 -3.65657e-05 -0.000326038 -1.1447e-05 0.000219165 0.0026854 -6.98247e-05 -0.000270087 -0.00020685 -0.000592853 -0.00180831 -0.00299033 -5.08166e-07 0.00088024 -6.68638e-05 -0.00100905 4.35998e-05 0.000545543 0.00189265 0.00289664 -0.000525398 3.88574e-05 0.000691377 -0.00031351 3.187e-06 0.000966025
internal_weight=0 174 22125 152 22105 4659 372 4287 866 59 3421 914 883 235 77 46 158 59 648 68 580 179 63 42 99 807 98 69 2507 41
internal_count=22299 174 22125 152 22105 4659 372 4287 866 59 3421 914 883 235 77 46 158 59 648 68 580 179 63 42 99 807 98 69 2507 41
shrinkage=0.05


Tree=136
num_leaves=31
num_cat=0
split_feature=3 15 7 18 27 27 30 1 1 16 30 7 23 11 19 1 24 24 30 18 7 16 30 3 14 30 30 3 18 24
split_gain=0.00278138 0.026969 0.0674207 0.0106228 0.00702908 0.0706684 0.0033335 0.0412492 0.0459965 0.0437897 0.024045 0.0494156 0.0400364 0.0567376 0.0434602 0.0468647 0.0344337 0.0581617 0.0536221 0.0244146 0.0342151 0.0213939 0.0236036 0.0388744 0.0610278 0.0211329 0.0203334 0.0176466 0.0460455 0.0186909
threshold=7.7376450000000017e-06 0.41062350000000009 0.00073300000000000004 6.7226250000000014e-05 0.082175499999999971 -0.08291700000000006 0.15623999999999996 -6.3047499999999994 -6.6628949999999989 0.50678900000000004 -0.22689999999999963 0.00039250700000000006 -0.00088139499999999988 9.4606100000000012e-07 -0.12772649999999997 -6.6945549999999994 2.2169050000000001e-07 1.1242550000000002e-06 -0.076525000000000162 0.00022192100000000003 0.00050069100000000005 0.39197250000000006 -0.13209500000000049 1.2057750000000003e-05 -6.376644999999999 -0.13209500000000049 1.0000000180025095e-35 1.7888300000000003e-05 0.00033744300000000004 -9.0601949999999989e-07
decision_type=2 2 2 2 2 2 2 2 2 2 2 2 2 2 2 2 2 2 2 2 2 2 2 2 2 2 2 2 2 2
left_child=1 3 -3 -1 5 -5 10 8 -8 -10 -2 12 13 26 15 -14 19 18 -18 -13 -21 -16 -23 -24 -25 -19 -12 28 -22 -30
right_child=6 2 -4 4 -6 -7 7 -9 9 -11 11 16 14 -15 21 -17 17 25 -20 20 27 22 23 24 -26 -27 -28 -29 29 -31
leaf_value=-0.00088570896689361695 -7.5266406380160152e-06 -0.00021435674001729827 0.0033889292275056334 -8.7582889142849736e-05 -0.00016203064156743928 0.0023199780810890451 -2.4510712960210764e-05 0.0020865454065168033 -9.411588984518788e-05 -0.0030249028611142423 7.9988181256627092e-05 0.00019150472058160835 -0.0028954735530169274 0.0037579763270969126 0.00030451131325762246 0.00052741793736458935 0.0039746452653344018 0.00070662648256984543 0.00058488958124403977 -0.0022446562626606062 -0.0022588667791677763 -7.2253789590886843e-05 0.00031917179166623282 0.0037021400273701921 0.00025416587551652423 -0.0014739478277042508 0.0019160337598877961 0.00010773837496923409 -0.0015484758473410859 6.8877638845342998e-05
leaf_weight=32 12396 34 21 236 210 35 8152 23 26 25 38 180 20 22 292 20 20 20 28 27 37 33 41 33 21 25 25 110 22 95
leaf_count=32 12396 34 21 236 210 35 8152 23 26 25 38 180 20 22 292 20 20 20 28 27 37 33 41 33 21 25 25 110 22 95
internal_value=0 0.000109225 0.00116144 -3.58567e-06 5.51003e-05 0.000223357 -2.8549e-06 -2.79468e-05 -3.38755e-05 -0.00153078 1.24288e-05 0.000235483 0.000575013 0.00157195 0.000390796 -0.00118403 -9.26084e-05 0.000786598 0.00199729 -0.00026621 -0.000549332 0.000540779 0.00107976 0.00147994 0.00236126 -0.000504804 0.000808578 -0.000375947 -0.000721436 -0.00023524
internal_weight=0 568 55 513 481 271 21731 8226 8203 51 13505 1109 545 85 460 40 564 93 48 471 291 420 128 95 54 45 63 264 154 117
internal_count=22299 568 55 513 481 271 21731 8226 8203 51 13505 1109 545 85 460 40 564 93 48 471 291 420 128 95 54 45 63 264 154 117
shrinkage=0.05


Tree=137
num_leaves=31
num_cat=0
split_feature=5 25 5 17 27 27 2 1 19 20 25 1 21 2 30 14 24 27 1 21 27 27 14 1 1 24 21 16 25 9
split_gain=0.0027093 0.0193075 0.00704076 0.069573 0.0290613 0.117381 0.0119204 0.00639504 0.0461151 0.0193731 0.0286496 0.0172954 0.049082 0.0128009 0.0113695 0.00877457 0.00802673 0.0101781 0.0057866 0.07039 0.136767 0.40013 0.28945 0.0242709 0.0188988 0.0647082 0.0129441 0.0124859 0.01016 0.0482324
threshold=-0.0018136649999999997 -0.034001399999999994 -0.00049962949999999987 -0.048691849999999995 -0.30126800000000004 0.1562649999999999 -0.7010829999999999 -17.461949999999998 0.56748650000000012 -5.0129249999999991e-05 0.024575250000000003 -17.279499999999995 0.19237200000000002 -0.21280149999999998 2.2384500000000007 -5.3131849999999989 0.00055018350000000016 0.18449200000000018 -13.252699999999999 2.8705050000000001 0.60370500000000005 -0.64621549999999994 -15.808049999999998 -15.526149999999999 -13.073449999999998 -4.0771349999999993e-07 0.27248800000000006 0.15031150000000001 -0.04896579999999999 -2.2556699999999994e-06
decision_type=2 2 2 2 2 2 2 2 2 2 2 2 2 2 2 2 2 2 2 2 2 2 2 2 2 2 2 2 2 2
left_child=1 -1 3 4 -2 -6 -7 8 9 -4 14 12 -9 -10 -11 16 18 -18 19 27 21 23 -23 -21 25 -20 -27 -13 29 -29
right_child=2 -3 7 -5 5 6 -8 11 13 10 -12 15 -14 -15 -16 -17 17 -19 24 20 -22 22 -24 -25 -26 26 -28 28 -30 -31
leaf_value=0.0016009909156266423 -0.00015998384350961894 4.9309803614145563e-05 0.0014589055924997887 3.2124423573921565e-06 -0.0044174507676091584 0.00026161655360142349 -0.0012282331008464098 -9.3153209422275224e-05 -0.00090938919864129268 0.0010823820024844955 -0.0018949245609941761 0.00091081657754952378 0.0028837635612580926 -0.0026983049699629193 -7.1256748672181172e-05 0.0010274176668774869 0.00014736040437128396 -0.0013949006881929288 -0.0025050818097070355 -0.0019230083525392482 -0.00075999855010498631 0.010256821350412794 0.002032273533531343 0.00026345503303067136 1.6745221311770593e-06 7.3826931644589418e-05 -0.0010424735327345138 0.0024152218792247975 -1.9869053496324824e-05 -0.00032065900842117488
leaf_weight=21 41 442 21 1170 28 29 25 45 20 23 21 38 20 20 299 21 20 23 33 22 60 20 23 30 17094 160 31 24 2426 49
leaf_count=21 41 442 21 1170 28 29 25 45 20 23 21 38 20 20 299 21 20 23 33 22 60 20 23 30 17094 160 31 24 2426 49
internal_value=0 0.000119688 -2.53782e-06 -0.000115706 -0.00124689 -0.00179034 -0.000428129 4.58514e-06 -0.000192379 -1.5295e-05 -0.000105552 8.53637e-06 0.000822821 -0.00180385 1.1146e-05 5.8997e-06 4.82994e-06 -0.00067757 6.29636e-06 7.44941e-05 0.00110888 0.00228922 0.00585764 -0.000661587 -4.30464e-06 -0.00046059 -0.000107353 1.12975e-05 -2.38067e-06 0.000578809
internal_weight=0 463 21836 1293 123 82 54 20543 404 364 343 20139 65 40 322 20074 20053 43 20010 2692 155 95 43 52 17318 224 191 2537 2499 73
internal_count=22299 463 21836 1293 123 82 54 20543 404 364 343 20139 65 40 322 20074 20053 43 20010 2692 155 95 43 52 17318 224 191 2537 2499 73
shrinkage=0.05


Tree=138
num_leaves=31
num_cat=0
split_feature=15 16 3 18 16 27 27 12 12 30 11 13 27 6 24 16 6 1 17 1 9 6 4 19 17 27 2 1 1 23
split_gain=0.00319303 0.00289471 0.0183828 0.091038 0.0229451 0.0170451 0.139228 0.144536 0.104281 0.0819368 0.0554757 0.053393 0.0202189 0.100193 0.0351255 0.0137043 0.0627288 0.0131914 0.011792 0.0104376 0.0209705 0.00987733 0.00928946 0.0395502 0.0152016 0.0120447 0.00861043 0.00854252 0.00728059 0.034681
threshold=2.6390250000000006 10.198000000000002 9.9873700000000016e-06 0.14244100000000001 60.368000000000002 -0.22542900000000002 0.18449200000000018 8.1708200000000029e-06 0.00018404150000000003 1.8516500000000005 -2.4080299999999996e-07 -1.2431299999999996 0.41121150000000001 1.9633850000000002e-05 0.0003820330000000001 9.792365000000002 1.2570300000000002e-05 -16.135999999999999 0.31196950000000007 -12.923849999999998 -1.5582799999999996e-06 3.7887350000000002e-06 7.4527200000000014e-05 -9.0404899999999984 -0.35794499999999996 -0.61496749999999989 0.18789900000000004 -9.6708399999999983 -15.126499999999998 0.093377550000000017
decision_type=2 2 2 2 2 2 2 2 2 2 2 2 2 2 2 2 2 2 2 2 2 2 2 2 2 2 2 2 2 2
left_child=1 15 3 4 19 11 7 -7 -9 10 -10 -4 13 -8 17 28 -17 -14 -19 -3 -21 -20 24 -24 27 -26 -22 -13 29 -1
right_child=-2 2 5 -5 -6 6 12 8 9 -11 -12 22 14 -15 -16 16 -18 18 21 20 26 -23 23 -25 25 -27 -28 -29 -30 -31
leaf_value=-6.0554387240364954e-05 0.00060206807631237264 -0.00043231534032383938 0.0019017403253324243 0.0031347880767603228 -0.0014943224294414826 -0.0056506471835919437 -0.0011955008205781082 0.0015596627387114697 -0.0049530228037231918 0.00054285719874314965 -0.0014769934238178064 -0.0015234590273134278 -0.0012343981016394018 0.0029607769970958733 0.0017767984485544731 0.0030541503515996737 -0.00033526287280797397 2.4684253904048267e-07 -0.00012834519958264068 0.0018647006629700109 0.00034896962402045681 -0.0010726218138171256 0.0022510212716621357 -9.9361328473908839e-05 4.4335920867112654e-05 -0.00092701032142420965 -0.00079797531434451236 -0.00037248886939395513 1.1645912776412996e-05 -0.0015863932370752754
leaf_weight=1863 22 50 37 26 23 21 29 27 24 20 22 28 28 29 24 20 43 420 58 21 90 53 22 96 362 35 20 38 18710 38
leaf_count=1863 22 50 37 26 23 21 29 27 24 20 22 28 28 29 24 20 43 420 58 21 90 53 22 96 362 35 20 38 18710 38
internal_value=0 -5.94582e-07 -6.53222e-05 0.000348373 -6.75838e-06 -0.000134623 -0.000294011 -0.00190405 -0.00105805 -0.00212893 -0.00329057 6.00987e-05 -7.6697e-06 0.000882638 -9.62423e-05 4.4242e-06 0.000740741 -0.000176659 -0.000120884 0.000182269 0.000416843 -0.000579216 -5.71831e-05 0.000338846 -0.000158115 -4.12991e-05 0.000140434 -0.000860779 2.17356e-06 -9.10551e-05
internal_weight=0 22277 1603 230 204 1373 755 114 93 66 46 618 641 58 583 20674 63 559 531 181 131 111 581 118 463 397 110 66 20611 1901
internal_count=22299 22277 1603 230 204 1373 755 114 93 66 46 618 641 58 583 20674 63 559 531 181 131 111 581 118 463 397 110 66 20611 1901
shrinkage=0.05


Tree=139
num_leaves=31
num_cat=0
split_feature=15 16 2 2 15 2 7 11 1 1 16 10 9 30 16 27 30 24 11 9 14 1 5 7 16 25 10 27 4 25
split_gain=0.00288171 0.00261247 0.0172869 0.0964904 0.197984 0.0309568 0.0152949 0.0483314 0.0289386 0.0352116 0.018336 0.0171698 0.0393291 0.112179 0.0274797 0.0329797 0.0231093 0.021448 0.0376685 0.0248884 0.0239171 0.05255 0.0296667 0.0251767 0.0190437 0.016373 0.0148606 0.0157219 0.0135588 0.0196331
threshold=2.6390250000000006 10.198000000000002 -1.2804649999999997 -2.0605549999999995 -0.95944149999999995 -1.0451899999999996 0.052691600000000005 0.030130500000000001 -16.417249999999999 -15.526149999999999 35.645800000000008 6.7812400000000007e-06 7.8753600000000015e-06 -1.485365 35.645800000000008 0.4639100000000001 -2.0636199999999998 1.1242550000000002e-06 -5.7365999999999993e-05 1.6685900000000001e-06 -8.4787649999999974 -10.366749999999998 -1.6098999999999996e-05 0.00011475850000000001 24.120400000000004 -0.039763049999999987 2.242525e-07 -0.37395999999999979 0.000199638 5.6022800000000013
decision_type=2 2 2 2 2 2 2 2 2 2 2 2 2 2 2 2 2 2 2 2 2 2 2 2 2 2 2 2 2 2
left_child=1 -1 3 28 -5 -4 8 -8 10 -10 -7 12 16 -14 -13 -16 -11 26 -19 20 21 -20 -23 25 -25 -22 27 -18 29 -3
right_child=-2 2 5 4 -6 6 7 -9 9 11 -12 14 13 -15 15 -17 17 18 19 -21 23 22 -24 24 -26 -27 -28 -29 -30 -31
leaf_value=4.2029925340320446e-06 0.00057196467479860241 -0.00017225949429614646 -0.0017231755858908096 0.0056942691621573076 -0.00061857084284484799 -0.00051393279435146594 0.0025564901128580625 -0.00031375529202209279 0.0018095416977303104 0.00014263397007110084 -0.0023774597836150367 -0.00014423773804466482 -0.0011209437601232472 0.0034020023697441254 -0.0023979689746839641 -0.00019188740252502613 0.00015354827549648084 -0.0025905420396676558 0.00019632786331284379 -0.0017598644484443809 -0.0019270090693940542 -0.00096572863217477879 -0.0036564717208966615 0.0013433622251293282 4.5021083033961164e-05 -0.00028990593252404195 -0.00043878036540768843 0.0019373132395447187 0.00054978632649111271 -0.0018447959393961357
leaf_weight=20674 22 143 30 23 27 33 22 44 24 443 22 147 26 29 36 32 30 21 45 31 21 21 20 38 110 56 36 21 52 20
leaf_count=20674 22 143 30 23 27 33 22 44 24 443 22 147 26 29 36 32 30 21 45 31 21 21 20 38 110 56 36 21 52 20
internal_value=0 -5.64853e-07 -6.20561e-05 0.000306893 0.00228534 -0.000135129 -9.87059e-05 0.000642993 -0.00013812 -8.61676e-05 -0.00125934 -0.000125288 -3.37971e-05 0.00126388 -0.000528699 -0.00135981 -0.000113721 -0.000366089 -0.00053508 -0.000408867 -0.000274202 -0.00098343 -0.00227829 -3.11928e-06 0.000378379 -0.000736389 0.000339011 0.00088804 -0.00015321 -0.000377479
internal_weight=0 22277 1603 265 50 1338 1308 66 1242 1187 55 1163 948 55 215 68 893 450 363 342 311 86 41 225 148 77 87 51 215 163
internal_count=22299 22277 1603 265 50 1338 1308 66 1242 1187 55 1163 948 55 215 68 893 450 363 342 311 86 41 225 148 77 87 51 215 163
shrinkage=0.05


Tree=140
num_leaves=31
num_cat=0
split_feature=7 30 25 2 27 27 1 25 10 30 22 2 4 30 30 6 26 6 27 27 18 2 15 24 27 27 2 30 30 11
split_gain=0.00260144 0.00855337 0.00276214 0.061227 0.0382368 0.161706 0.160112 0.578389 0.108892 0.126233 0.116481 0.142678 0.1708 0.107835 0.0750716 0.0779486 0.0588438 0.0486116 0.0477108 0.0435381 0.0409207 0.0380014 0.036933 0.0324359 0.0740024 0.243089 0.294656 0.293083 0.353711 0.133365
threshold=0.87985700000000011 5.2984150000000012 -6.2409049999999981e-05 1.0000000180025095e-35 -0.64621549999999994 0.33758199999999999 -14.166599999999997 -0.039763049999999987 1.3016150000000001e-05 -1.3211999999999995 0.0027989300000000003 0.22711450000000002 3.3620300000000007e-05 0.54938500000000012 2.3943700000000008 2.8108550000000004e-05 0.00055719350000000016 3.9421150000000005e-05 0.026820000000000014 5.391045000000001 0.00059996800000000009 -0.078387699999999991 1.0471900000000003 8.1448900000000001e-07 -0.51466749999999983 0.60370500000000005 -2.4210399999999992 0.71212500000000001 -2.5203599999999997 -3.8501649999999994e-05
decision_type=2 2 2 2 2 2 2 2 2 2 2 2 2 2 2 2 2 2 2 2 2 2 2 2 2 2 2 2 2 2
left_child=2 -2 3 -1 -5 6 7 -6 9 17 13 -12 -13 18 15 -9 -10 22 -11 -7 -15 23 -8 -4 -25 26 -26 28 -28 -30
right_child=1 -3 21 4 5 19 8 14 16 10 11 12 -14 20 -16 -17 -18 -19 -20 -21 -22 -23 -24 24 25 -27 27 -29 29 -31
leaf_value=-0.00010324391843922589 -0.0011682995044247945 0.00012789771692561252 4.0853156363723025e-05 -3.0668915731873141e-05 0.0087648789227906879 -3.8592740174005928e-05 -7.5697319625449497e-05 0.0045805718511387353 -0.00012049133775551542 0.0011435500939287954 0.00037213593545857296 0.0080897581918785971 0.0022104204122054701 1.617026623467039e-05 -0.0002544562519150032 0.00040933114554112156 -0.0023607438816002405 0.0023082940356107429 0.0030774713977636467 0.0017163564229324239 -0.0024691826115568719 -8.8212189072488868e-05 -0.0023142700409516694 -0.00015118603630268654 -0.0015765376007252866 -0.00017045369027511711 0.0014863705514355204 -0.0014126576496478679 0.010033861171165162 0.0047265441060881132
leaf_weight=4934 20 35 4501 1864 28 1931 234 21 118 231 32 21 30 67 71 24 39 20 37 36 22 7298 20 309 34 212 39 22 29 20
leaf_count=4934 20 35 4501 1864 28 1931 234 21 118 231 32 21 30 67 71 24 39 20 37 36 22 7298 20 309 34 212 39 22 29 20
internal_value=0 -0.000343447 8.49198e-07 2.07397e-05 0.000146975 0.000258017 0.000770582 0.00231504 0.00051524 0.000777396 0.00130203 0.00298923 0.00463132 0.00090977 0.000758186 0.00235591 -0.000676987 -6.50828e-05 0.00141055 -6.47369e-06 -0.000598187 -1.47581e-05 -0.000251963 8.90104e-05 0.000414959 0.000906361 0.00249167 0.00374912 0.00503956 0.00786761
internal_weight=0 55 22244 9780 4846 2982 1015 144 871 714 440 83 51 357 116 45 157 274 268 1967 89 12464 254 5166 665 356 144 110 88 49
internal_count=22299 55 22244 9780 4846 2982 1015 144 871 714 440 83 51 357 116 45 157 274 268 1967 89 12464 254 5166 665 356 144 110 88 49
shrinkage=0.05


Tree=141
num_leaves=31
num_cat=0
split_feature=5 25 5 17 30 28 9 1 24 15 21 11 1 21 14 24 28 1 17 5 20 28 1 24 30 28 28 23 8 18
split_gain=0.00259956 0.0168991 0.00600043 0.0622484 0.0283713 0.0495556 0.0109031 0.00555191 0.0258432 0.018455 0.0308953 0.0386712 0.0153441 0.0431332 0.00707564 0.00750245 0.00999966 0.0049726 0.0595637 0.157485 0.0408882 0.145225 0.0166786 0.0582194 0.0118634 0.0565301 0.137264 0.183877 0.134266 0.107923
threshold=-0.0018136649999999997 -0.034001399999999994 -0.00049962949999999987 -0.048691849999999995 1.9665349999999997 -0.017475500000000001 0.00012613600000000003 -17.461949999999998 7.0096650000000009e-06 0.54616000000000009 0.59253850000000008 -1.4324099999999999e-05 -17.279499999999995 0.19237200000000002 -5.3131849999999989 0.00055018350000000016 0.98495850000000007 -13.252699999999999 0.47103600000000007 0.00015368350000000003 -0.00010740549999999999 -0.33758199999999988 -13.073449999999998 -4.0771349999999993e-07 1.5539100000000003 -0.13134949999999998 0.32628000000000007 0.00070211550000000018 -7.5570549999999986e-07 0.0013770250000000003
decision_type=2 2 2 2 2 2 2 2 2 2 2 2 2 2 2 2 2 2 2 2 2 2 2 2 2 2 2 2 2 2
left_child=1 -1 3 4 5 6 -2 8 9 10 -4 -12 13 -9 15 17 -17 18 20 -20 21 -14 23 -19 25 -22 27 29 -29 -27
right_child=2 -3 7 -5 -6 -7 -8 12 -10 -11 11 -13 14 -15 -16 16 -18 22 19 -21 24 -23 -24 -25 -26 26 -28 28 -30 -31
leaf_value=0.0015030787340254478 -0.001490112547762692 5.1396317369418608e-05 8.344337469199479e-07 5.5252646700167054e-06 -0.00022771829735575012 -0.003234389524864541 0.00012291748703732578 -8.3924822255943988e-05 -0.0018070432058859454 0.0013596296587604145 4.1329186032747939e-05 -0.0030307399918092417 -0.00048345734273760557 0.0027067629813973329 0.00092259777066785661 -0.0013664267543746342 0.00016225821149419063 -0.0023720035840321518 -0.0006576788620333429 0.0051961776305688547 -0.00034965418120597516 0.0036083349862435299 1.5348159397534015e-06 -9.7669423691718418e-05 -5.9512212198586395e-05 0.0023960045450367035 -0.00019460319235804492 0.003178634620382495 -0.0017179076079281959 0.0067418577964417636
leaf_weight=21 20 442 319 1170 48 33 22 45 23 21 21 20 57 20 21 23 20 33 27 20 266 35 17094 191 1952 50 202 21 42 20
leaf_count=21 20 442 319 1170 48 33 22 45 23 21 21 20 57 20 21 23 20 33 27 20 266 35 17094 191 1952 50 202 21 42 20
internal_value=0 0.000117239 -2.48589e-06 -0.00010696 -0.00117694 -0.00178444 -0.000645192 4.08981e-06 -0.000179432 -8.11771e-05 -0.000165224 -0.00145724 7.77136e-06 0.000774748 5.28788e-06 4.32725e-06 -0.00065541 5.74497e-06 6.89643e-05 0.00183332 3.76127e-05 0.0010732 -4.08216e-06 -0.000432728 2.94123e-07 0.00019454 0.000626647 0.00187396 -8.57269e-05 0.00363768
internal_weight=0 463 21836 1293 123 75 42 20543 404 381 360 41 20139 65 20074 20053 43 20010 2692 47 2645 92 17318 224 2553 601 335 133 63 70
internal_count=22299 463 21836 1293 123 75 42 20543 404 381 360 41 20139 65 20074 20053 43 20010 2692 47 2645 92 17318 224 2553 601 335 133 63 70
shrinkage=0.05


Tree=142
num_leaves=31
num_cat=0
split_feature=22 3 24 8 16 6 9 6 30 30 24 4 1 30 19 1 4 4 30 4 1 19 14 4 19 14 25 30 27 7
split_gain=0.00244727 0.0288581 0.11283 0.0303187 0.02441 0.0488771 0.0450798 0.0239811 0.0410573 0.080028 0.0195467 0.0125728 0.0109801 0.00903043 0.00481662 0.12395 0.032337 0.0328471 0.0767557 0.0114398 0.00807051 0.0201033 0.0218841 0.0335241 0.0163437 0.0409324 0.0179962 0.028508 0.042017 0.0506807
threshold=0.25632850000000007 3.0515950000000004e-05 7.4467800000000019e-05 -5.2492849999999988e-07 81.672750000000022 4.8591750000000008e-05 -1.3472549999999999e-05 0.00013189800000000003 -1.9709400000000008 1.0479900000000002 3.2690150000000004e-05 -2.2497199999999995e-05 -14.650449999999998 0.15623999999999996 2.9641550000000003 -15.395849999999998 -0.00023085149999999997 -4.4342899999999992e-05 -2.5203599999999997 -2.1554449999999998e-05 -15.126499999999998 0.24899600000000002 -16.075299999999995 -1.1842549999999999e-06 0.097819300000000012 -14.413249999999998 0.00059914350000000018 2.2384500000000007 0.044107999999999932 0.020030800000000005
decision_type=2 2 2 2 2 2 2 2 2 2 2 2 2 2 2 2 2 2 2 2 2 2 2 2 2 2 2 2 2 2
left_child=14 3 11 7 6 -6 -5 8 -2 -10 -9 -3 -8 -14 20 -16 -17 18 -18 -19 21 24 23 -23 26 -26 -1 28 29 -28
right_child=1 2 -4 4 5 -7 12 10 9 -11 -12 -13 13 -15 15 16 17 19 -20 -21 -22 22 -24 -25 25 -27 27 -29 -30 -31
leaf_value=1.5861183585676669e-05 -0.00016765086431860257 -0.001347334682456373 0.0033677266495033111 0.0019447431544583251 8.0932222012214972e-05 -0.002320207975759742 -0.0011186493306013291 0.0010676544990856202 -0.0043551493571915975 -0.00058412115093447298 -0.00090954941988456999 0.00010717908175697982 -5.7757048256672329e-06 0.00099999837845098235 0.0033748296195491483 -0.0019484664630991491 -0.00073968440980103848 -0.0011628891018551292 0.0033913259692119691 -6.8934240974928028e-05 9.7128408000156822e-06 -0.0024955758821189164 -0.00022740461672634863 -0.00026651798822992554 0.0019876977460465723 1.6820225417315403e-05 -0.00096900643152871956 -7.4294273503759764e-05 -7.6159235651439607e-07 -0.0039154293422325277
leaf_weight=1169 48 24 28 34 67 31 20 25 24 34 25 39 208 25 28 22 23 27 22 208 19364 31 177 37 34 117 54 272 62 20
leaf_count=1169 48 24 28 34 67 31 20 25 24 34 25 39 208 25 28 22 23 27 22 208 19364 31 177 37 34 117 54 272 62 20
internal_value=0 -9.69859e-05 0.000726816 -0.000235555 2.70884e-06 -0.000678612 0.000235355 -0.000823579 -0.00124935 -0.00214455 7.90525e-05 -0.000446921 5.63489e-06 0.00010214 2.82896e-06 0.000192391 -0.000102669 4.23575e-05 0.00127992 -0.000194623 -1.02825e-07 -9.64386e-05 -0.000520305 -0.00128271 -3.63419e-05 0.000460594 -8.39242e-05 -0.000369829 -0.000960898 -0.00176534
internal_weight=0 632 91 541 385 98 287 156 106 58 50 63 253 233 21667 330 302 280 45 235 21337 1973 245 68 1728 151 1577 408 136 74
internal_count=22299 632 91 541 385 98 287 156 106 58 50 63 253 233 21667 330 302 280 45 235 21337 1973 245 68 1728 151 1577 408 136 74
shrinkage=0.05


Tree=143
num_leaves=31
num_cat=0
split_feature=15 16 3 18 16 27 27 12 10 2 31 13 27 6 24 16 12 8 3 1 17 3 1 9 6 10 17 13 27 2
split_gain=0.00332058 0.00292509 0.0162573 0.0811705 0.0189976 0.0158884 0.131576 0.123904 0.116024 0.129769 0.0457439 0.0448366 0.016638 0.088748 0.029168 0.0121606 0.0296045 0.0617238 0.0475023 0.0119704 0.0106227 0.00962556 0.00961596 0.0183264 0.00898417 0.00820965 0.0155855 0.0140626 0.0125533 0.00941522
threshold=2.6390250000000006 10.198000000000002 9.9873700000000016e-06 0.14244100000000001 60.368000000000002 -0.22542900000000002 0.18449200000000018 8.1708200000000029e-06 8.5666750000000021e-06 0.14464150000000003 0.23124499999999995 -1.2431299999999996 0.41121150000000001 1.9633850000000002e-05 0.0003820330000000001 8.8966850000000015 0.00086203300000000011 6.2919150000000003e-07 1.0814750000000002e-05 -16.135999999999999 0.31196950000000007 1.3823800000000003e-05 -12.923849999999998 -1.5582799999999996e-06 3.7887350000000002e-06 5.2476650000000009e-05 -0.35794499999999996 1.2871600000000003 -0.42604449999999999 0.53187750000000011
decision_type=2 2 2 2 2 2 2 2 2 2 2 2 2 2 2 2 2 2 2 2 2 2 2 2 2 2 2 2 2 2
left_child=1 15 3 4 22 11 7 -7 9 10 -9 -4 13 -8 19 -1 17 18 -17 -14 -21 -18 -3 -24 -22 26 -13 -27 29 -28
right_child=-2 2 5 -5 -6 6 12 8 -10 -11 -12 25 14 -15 -16 16 21 -19 -20 20 24 -23 23 -25 -26 27 28 -29 -30 -31
leaf_value=5.4475837815493552e-07 0.00061397563390941791 -0.00042986045707834827 0.0017447924651237002 0.0029544484562603222 -0.0013655297816275499 -0.0053188067871988536 -0.00115458754087991 0.00023006881162038317 -0.0042392316210845653 0.0033299408527091147 -0.0027793227665824818 -0.0008110252089059888 -0.0011675914944394858 0.002757109377075565 0.0016201111936728315 0.0022437987029358436 -0.0011546827196850377 0.0029113222999772657 -0.00027518597014932313 8.1041950120596171e-06 -0.00011187502659595339 2.1137716422621769e-05 0.0017386965952547536 0.00012679413393925642 -0.0010124474554103009 0.0015888711487059483 0.00015805259300419902 -8.2010406528270868e-05 -0.0011702715611053545 -0.00046426744688625611
leaf_weight=20463 22 50 37 26 23 21 29 23 22 20 28 69 28 29 24 24 28 28 85 420 58 46 21 110 53 20 363 34 22 73
leaf_count=20463 22 50 37 26 23 21 29 23 22 20 28 69 28 29 24 24 28 28 85 420 58 46 21 110 53 20 363 34 22 73
internal_value=0 -6.06341e-07 -6.56728e-05 0.000323371 -1.19619e-05 -0.000130844 -0.000284729 -0.0018499 -0.0010666 -8.35301e-05 -0.00142215 5.71541e-05 -6.36734e-06 0.000801261 -8.67146e-05 4.43872e-06 0.000382079 0.000817353 0.000279453 -0.000159995 -0.000106864 -0.000423767 0.000160038 0.000385191 -0.000541878 -5.03203e-05 -0.000110484 0.000536835 -4.94412e-06 5.38568e-05
internal_weight=0 22277 1603 230 204 1373 755 114 93 71 51 618 641 58 583 20674 211 137 109 559 531 74 181 131 111 581 527 54 458 436
internal_count=22299 22277 1603 230 204 1373 755 114 93 71 51 618 641 58 583 20674 211 137 109 559 531 74 181 131 111 581 527 54 458 436
shrinkage=0.05


Tree=144
num_leaves=31
num_cat=0
split_feature=15 16 3 18 16 1 14 9 30 27 27 10 8 15 16 27 4 27 16 27 27 9 22 17 30 1 9 23 8 2
split_gain=0.00299682 0.0026399 0.0146722 0.0732564 0.0171454 0.0150539 0.0586676 0.136085 0.0253396 0.0217113 0.119712 0.202966 0.0757082 0.0377592 0.0171198 0.0386337 0.0175311 0.0149065 0.0118409 0.057435 0.0111546 0.0102054 0.0100126 0.0113817 0.00963847 0.0086784 0.0165396 0.00825382 0.00978152 0.00748572
threshold=2.6390250000000006 10.198000000000002 9.9873700000000016e-06 0.14244100000000001 60.368000000000002 -6.4339449999999987 -6.3955149999999987 1.3446450000000005e-07 -1.1509949999999998 -0.22542900000000002 0.18449200000000018 -7.9364699999999983e-07 -5.1352399999999991e-08 1.3124250000000002 81.672750000000022 0.41121150000000001 -9.1076949999999978e-05 -0.42604449999999999 9.792365000000002 0.20940800000000012 -0.67178149999999981 1.1389700000000002e-05 1.1047800000000001 0.31196950000000007 0.81491999999999998 -12.923849999999998 -1.5582799999999996e-06 0.46573400000000004 8.6769100000000006e-08 0.18789900000000004
decision_type=2 2 2 2 2 2 2 2 2 2 2 2 2 2 2 2 2 2 2 2 2 2 2 2 2 2 2 2 2 2
left_child=1 18 3 4 25 9 8 -8 21 13 11 -11 -13 17 15 -12 -16 20 -1 -20 27 -7 23 -17 -25 -3 -27 -4 -29 -28
right_child=-2 2 5 -5 -6 6 7 -9 -10 10 14 12 -14 -15 16 22 -18 -19 19 -21 -22 -23 -24 24 -26 26 29 28 -30 -31
leaf_value=2.1247384869395821e-06 0.0005832768320529299 -0.00040836743576801382 2.1705427943339887e-06 0.0028067259928390674 -0.0012972533002460337 0.00010831880274378219 -0.00051551486906612778 0.0049260963783308402 -0.0018157727731886555 0.0010679884183713618 0.0016235649984862124 -0.0054863105360005472 -0.0019918862906765315 0.0015490497226940199 -0.0019570756862363355 -4.8823440228586546e-05 -0.00032415040567194899 -0.0011535921261735982 -0.00037886640363597382 0.002823670667255231 0.00092929067794667107 -0.00098837371206963835 0.00065040324361210599 -0.0013742103347527412 -0.00020803761486800991 0.0016517617588501059 0.00031489386328960084 3.2213529837982995e-05 -0.0014764295713658531 -0.00075452298973686992
leaf_weight=20611 22 50 293 26 23 273 27 20 20 34 35 31 31 38 22 249 65 31 42 21 29 23 38 34 37 21 90 21 22 20
leaf_count=20611 22 50 293 26 23 273 27 20 20 34 35 31 31 38 22 249 65 31 42 21 29 23 38 34 37 21 90 21 22 20
internal_value=0 -5.76025e-07 -6.23891e-05 0.000307203 -1.13638e-05 -0.000124302 0.000151862 0.00180006 -9.32817e-05 -0.000223557 -0.000424784 -0.00203659 -0.0037391 4.35091e-05 -0.000102423 3.80726e-05 -0.000737074 -0.000100962 4.21678e-06 0.000688646 -1.15605e-05 2.31028e-05 -0.000116934 -0.000208055 -0.000766487 0.000152037 0.000365931 -9.27649e-05 -0.00073965 0.000120454
internal_weight=0 22277 1603 230 204 1373 363 47 316 1010 576 96 62 434 480 393 87 396 20674 63 365 296 358 320 71 181 131 336 43 110
internal_count=22299 22277 1603 230 204 1373 363 47 316 1010 576 96 62 434 480 393 87 396 20674 63 365 296 358 320 71 181 131 336 43 110
shrinkage=0.05


end of trees

feature_importances:
feature_3_diff_feature_23=653
feature_24_ratio_feature_4=525
feature_35=192
feature_4=191
feature_25=164
feature_5=157
feature_29=154
feature_36=129
feature_17=128
feature_26=124
feature_24=122
feature_15=114
feature_37=112
feature_16=110
feature_34=109
feature_19=108
feature_38=108
feature_6=103
feature_31=103
feature_4_ratio_feature_24=98
feature_39=97
feature_18=95
feature_40=87
feature_12=84
feature_20=82
feature_14=81
feature_32=73
feature_23_ratio_feature_3=66
feature_2=65
feature_13=61
feature_23=53
feature_3_ratio_feature_23=2

parameters:
[boosting: gbdt]
[objective: regression]
[metric: l2]
[tree_learner: serial]
[device_type: cpu]
[data: ]
[valid: ]
[num_iterations: 10000]
[learning_rate: 0.05]
[num_leaves: 31]
[num_threads: 24]
[force_col_wise: 0]
[force_row_wise: 0]
[histogram_pool_size: -1]
[max_depth: -1]
[min_data_in_leaf: 20]
[min_sum_hessian_in_leaf: 0.001]
[bagging_fraction: 0.9]
[pos_bagging_fraction: 1]
[neg_bagging_fraction: 1]
[bagging_freq: 0]
[bagging_seed: 10438]
[feature_fraction: 0.9]
[feature_fraction_bynode: 1]
[feature_fraction_seed: 6707]
[extra_trees: 0]
[extra_seed: 23424]
[early_stopping_round: 50]
[first_metric_only: 0]
[max_delta_step: 0]
[lambda_l1: 0]
[lambda_l2: 0]
[min_gain_to_split: 0]
[drop_rate: 0.1]
[max_drop: 50]
[skip_drop: 0.5]
[xgboost_dart_mode: 0]
[uniform_drop: 0]
[drop_seed: 18682]
[top_rate: 0.2]
[other_rate: 0.1]
[min_data_per_group: 100]
[max_cat_threshold: 32]
[cat_l2: 10]
[cat_smooth: 10]
[max_cat_to_onehot: 4]
[top_k: 20]
[monotone_constraints: ]
[monotone_constraints_method: basic]
[monotone_penalty: 0]
[feature_contri: ]
[forcedsplits_filename: ]
[refit_decay_rate: 0.9]
[cegb_tradeoff: 1]
[cegb_penalty_split: 0]
[cegb_penalty_feature_lazy: ]
[cegb_penalty_feature_coupled: ]
[path_smooth: 0]
[interaction_constraints: ]
[verbosity: -1]
[saved_feature_importance_type: 0]
[max_bin: 255]
[max_bin_by_feature: ]
[min_data_in_bin: 3]
[bin_construct_sample_cnt: 200000]
[data_random_seed: 4081]
[is_enable_sparse: 1]
[enable_bundle: 1]
[use_missing: 1]
[zero_as_missing: 0]
[feature_pre_filter: 1]
[pre_partition: 0]
[two_round: 0]
[header: 0]
[label_column: ]
[weight_column: ]
[group_column: ]
[ignore_column: ]
[categorical_feature: ]
[forcedbins_filename: ]
[objective_seed: 31546]
[num_class: 1]
[is_unbalance: 0]
[scale_pos_weight: 1]
[sigmoid: 1]
[boost_from_average: 1]
[reg_sqrt: 0]
[alpha: 0.9]
[fair_c: 1]
[poisson_max_delta_step: 0.7]
[tweedie_variance_power: 1.5]
[lambdarank_truncation_level: 20]
[lambdarank_norm: 1]
[label_gain: ]
[eval_at: ]
[multi_error_top_k: 1]
[auc_mu_weights: ]
[num_machines: 1]
[local_listen_port: 12400]
[time_out: 120]
[machine_list_filename: ]
[machines: ]
[gpu_platform_id: -1]
[gpu_device_id: -1]
[gpu_use_dp: 0]

end of parameters

pandas_categorical:[]
