tree
version=v3
num_class=1
num_tree_per_iteration=1
label_index=0
max_feature_idx=39
objective=regression
feature_names=feature_1 feature_2 feature_3 feature_4 feature_5 feature_6 feature_7 feature_8 feature_9 feature_10 feature_11 feature_12 feature_13 feature_14 feature_15 feature_16 feature_17 feature_18 feature_19 feature_20 feature_21 feature_22 feature_23 feature_24 feature_25 feature_26 feature_27 feature_28 feature_29 feature_30 feature_31 feature_32 feature_33 feature_34 feature_35 feature_36 feature_37 feature_38 feature_39 feature_40
feature_infos=[-15.8245:15.921099999999999] [-16.752600000000001:16.246099999999998] [-3.1493500000000001:3.1103800000000001] [-20.319500000000001:-4.4782599999999997] [-30.8093:57.964799999999997] [5.6674000000000002e-06:0.0023298199999999998] [-0.0010846199999999999:0.00061244499999999998] [8.30501e-06:0.0033717199999999999] [-0.000353588:0.0014071000000000001] [-0.00100786:0.0027983999999999999] [6.1481999999999999e-06:0.0032004400000000001] [-0.027832200000000001:0.0078196399999999992] [-0.020958899999999999:0.028236500000000001] [-0.00035657799999999997:0.0069399600000000002] [1.8339399999999999e-05:1.9515199999999999] [-0.014945999999999999:0.075138999999999997] [-0.0085839799999999997:0.045257800000000001] [-0.0045334399999999997:0.0084634500000000008] [-1.60745:1.84223] [5.1740399999999999e-11:2.4526500000000002] [-54.533999999999999:31.301600000000001] [-20.972899999999999:40.377200000000002] [-3.12656:3.13436] [-42.0899:-5.0951899999999997] [-7.7456100000000001:2.8789500000000001] [0.14570900000000001:337.255] [-2.75034:0.362012] [0.12942899999999999:334.22399999999999] [-4.7191000000000001:12.0253] [-4.327:7.9303699999999999] [4.4848100000000002e-05:4.6588900000000004] [-68.897000000000006:335.04500000000002] [-503.78100000000001:24.742899999999999] [-0.00521471:0.153891] [0.0017619599999999999:8246.0400000000009] [-8.2586999999999993:61.6145] [-92.653999999999996:8.7547599999999992] [-0.00054633199999999996:0.0268715] [-10.6465:1516.5799999999999] [4.26018e-07:279.03699999999998]
tree_sizes=1464 1502 1475 1474 1451 1459 1471 1473 1446 1498 1489 1496 1514 1455 1478 1462 1456 1459 1488 1466 1447 1476 1478 1488 1476 1534 1439 1490 1441 1498 1467 1477 1462 1443 1477 1484 1474 1461 1443 1509 1495 1490 1496 1444 1462 1470 1502 1489 1461 1473 1467 1445 1509 1511 1465 1483 1452 1489 1539 1477 1489 1465 1465 1488 1455 1460 1476 1503 1471 1531 1496 1496 1507 1495 1499 1462 1446 1467 1495 1486 1483 1519 1459 1490 1448 1488 1489 1467 1502 1464 1474 1507 1481 1474 1500 1461 1518 1484 1485 1481 1468 1522 1465 1529 1525 1484 1495 1502 1488 1459 1476 1530 1501 1517 1476 1491 1472 1478 1486 1507 1515 1490 1475 1474 1459 1472 1486 1514 1500 1484 1452 1533 1504 1473 1480 1528 1492 1468 1485 1490 1471 1501 1468 1486 1499 1497 1498 1484 1501 1502 1486 1486 1492 1467 1477 1486 1502 1476 1527 1478 1513 1486 1517 1475 1505 1478 1504 1478 1471 1453 1501 1479 1503 1481 1513 1503 1517 1521 1499 1472 1505 1518 1476 1491 1509 1470 1464 1489 1491 1505 1472 1505 1488 1506 1502 1501 1490 1490 1470 1508 1482 1512 1484 1477 1484 1464 1523 1510 1501 1482 1482 1469 1504 1487 1514 1482 1489 1519 1503 1499 1467 1502 1489 1493 1476 1511 1511 1494 1505 1554 1514 1476 1495 1500 1494 1478 1513 1539 1488 1505 1461 1488 1507 1467 1492 1504 1477 1475 1490 1500 1498 1503 1530 1504 1483 1487 1482 1524 1466 1483 1492 1488 1505 1490 1508 1464 1481 1540 1498 1495 1484 1493 1488 1511 1487 1524 1517 1470 1499 1513 1461 1487 1492 1490 1497 1484 1516 1489 1486 1501 1509 1484 1493 1508 1462 1499 1470 1495 1513 1490 1498 1446 1512 1502 1516 1490 1486 1451 1494 1460 1472 1482 1497 1472 1488 1508 1489 1493 1468 1493 1467 1466 1514 1515 1491 1518 1483 1485 1511 1518 1493 1495 1487 1510 1544 1493 1478 1507 1498 1518 1510 1522 1506 1521 1500 1459 1495 1484 1490 1512 1463 1487 1517 1546 1489 1510 1486 1529 1506 1506 1508 1525 1508 1520 1496 1495 1514 1500 1489 1488 1484 1507 1487 1483 1503 1491 1508 1500 1493 1509 1483 1498 1521 1504 1503 1509 1474 1520 1527 1512 1510 1490 1538 1501 1487 1517 1507 1506 1491 1486 1488 1523 1478 1527 1500 1514 1505 1494 1494 1489 1507 1496 1508 1522 1513 1497 1520 1517 1507 1523 1482 1481 1495 1480 1473 1474 1512 1528 1516 1462 1482 1513 1526 1494 1498 1481 1497 1497

Tree=0
num_leaves=15
num_cat=0
split_feature=13 3 4 4 33 13 18 4 38 13 38 24 19 33
split_gain=6.24327 8.63019 4.09331 4.21367 1.46921 3.75998 2.50149 0.982218 5.10912 1.45455 1.02142 0.961416 0.788476 3.09492
threshold=7.0396950000000007e-05 -6.0660849999999993 -1.4013599999999997 0.95366300000000004 -3.5676149999999992e-05 3.9724150000000005e-05 7.2949150000000006e-05 0.4097745000000001 -0.0089646749999999983 -7.2806499999999986e-06 -0.027667149999999998 1.0940150000000004 0.00012176650000000002 -3.9331299999999994e-05
decision_type=2 2 2 2 2 2 2 2 2 2 2 2 2 2
left_child=1 2 -1 4 5 -4 -7 10 9 -9 -6 -5 13 -2
right_child=12 -3 3 11 7 6 -8 8 -10 -11 -12 -13 -14 -15
leaf_value=0.02986955613635953 0.071504887303469933 0.030133121937385647 0.030955916172233172 0.029768277329501505 0.030856239714817407 0.049504887877164644 0.10807631492122419 0.11132306808331174 0.031045984248929039 0.05677761496024078 0.041162372563122024 0.059504887616394324 0.029800804745299184 0.032016850055688821
leaf_weight=1234 50 4059 827 1139 222 75 21 22 584 22 8531 25 5069 418
leaf_count=1234 50 4059 827 1139 222 75 21 22 584 22 8531 25 5069 418
internal_value=0.0347116 0.0361543 0.0380783 0.0389616 0.039928 0.0342178 0.0623174 0.0404899 0.0347597 0.0840503 0.040901 0.030407 0.0303447 0.0362357
internal_weight=0 16761 12702 11468 10304 923 96 9381 628 44 8753 1164 5537 468
internal_count=22298 16761 12702 11468 10304 923 96 9381 628 44 8753 1164 5537 468
shrinkage=1


Tree=1
num_leaves=15
num_cat=0
split_feature=13 7 14 34 34 15 35 23 14 14 23 34 34 17
split_gain=4.51077 3.01706 2.45423 4.25853 1.27317 1.24323 1.54677 1.0217 3.4938 1.46012 5.59867 2.40224 2.01108 2.28413
threshold=7.0396950000000007e-05 5.6005050000000007e-05 8.4007050000000014e-05 0.0037225250000000004 0.0021002450000000001 5.5916500000000009e-06 0.12762500000000002 -15.561499999999999 0.0034814500000000005 0.0014883200000000002 -11.541849999999998 0.18738650000000004 0.46381850000000008 -4.1708049999999993e-07
decision_type=2 2 2 2 2 2 2 2 2 2 2 2 2 2
left_child=1 2 3 4 -1 7 -7 8 -4 11 -11 -9 -12 -14
right_child=-2 -3 5 -5 -6 6 -8 9 -10 10 12 -13 13 -15
leaf_value=0.052217884963521588 -0.0037118990209908317 -0.0020269556657824118 -0.0033942041412420997 -0.003844671383679043 0.015833152302129325 -0.0035952548502528182 0.02910348795190015 0.0073351086933284154 0.021300741999309408 0.013772826249460413 -0.0052085354914294278 -0.00028845030476183674 0.047271788580452688 0.0030173906011749865
leaf_weight=26 5537 4639 999 2061 129 763 34 4658 148 583 1410 1162 34 115
leaf_count=26 5537 4639 999 2061 129 763 34 4658 148 583 1410 1162 34 115
internal_value=0 0.00122623 0.0024712 -0.00204139 0.0219364 0.00348067 -0.00220033 0.00397774 -0.000207759 0.0045807 0.00123238 0.00581302 -0.00345721 0.0131157
internal_weight=0 16761 12122 2216 155 9906 797 9109 1147 7962 2142 5820 1559 149
internal_count=22298 16761 12122 2216 155 9906 797 9109 1147 7962 2142 5820 1559 149
shrinkage=0.15


Tree=2
num_leaves=15
num_cat=0
split_feature=3 14 4 4 23 3 23 3 34 3 25 19 25 17
split_gain=3.35794 5.84688 2.49742 2.81875 1.48304 5.15293 1.08172 3.02075 0.626996 0.854166 2.19595 0.614769 0.550572 3.3087
threshold=-6.0660849999999993 0.0067837250000000009 -1.4013599999999997 0.87133500000000008 -17.204649999999997 -16.733749999999997 -6.0874249999999988 -5.8314849999999989 0.9139250000000001 -17.219549999999995 5.7767250000000017 0.00016276350000000002 9.2989400000000018 -1.2297799999999997e-06
decision_type=2 2 2 2 2 2 2 2 2 2 2 2 2 2
left_child=1 2 -1 4 5 -4 -2 -8 -3 10 -10 -11 -6 -14
right_child=6 8 3 -5 12 -7 7 -9 9 11 -12 -13 13 -15
leaf_value=-0.0040286358296370024 -0.004035050139066393 -0.0036749222608141612 0.070562517749411718 -0.0036770768874610088 0.0050317606091401399 -0.0049244035556570646 0.059471824388627123 -0.0044645860791206358 0.058970447159372268 0.018510580575093628 -0.0016558190217105353 -0.0017447979178932091 0.041510183756638848 -0.0019002450348571279
leaf_weight=1115 4323 4961 21 1133 8673 654 23 60 20 36 41 531 42 665
leaf_count=1115 4323 4961 21 1133 8673 654 23 60 20 36 41 531 42 665
internal_value=0 0.000913455 0.00274107 0.00341574 0.00421497 -0.00257592 -0.00370938 0.0132527 -0.00310966 0.00135575 0.0182216 -0.000458742 0.00470365 0.000678592
internal_weight=0 17892 12303 11188 10055 675 4406 83 5589 628 61 567 9380 707
internal_count=22298 17892 12303 11188 10055 675 4406 83 5589 628 61 567 9380 707
shrinkage=0.15


Tree=3
num_leaves=15
num_cat=0
split_feature=3 14 15 15 23 3 3 23 23 25 14 3 23 35
split_gain=2.42611 4.22437 1.52651 1.49659 1.50027 13.1323 3.16056 3.00697 2.0524 1.42877 2.46855 1.17571 0.977657 0.880615
threshold=-6.0660849999999993 0.0067837250000000009 5.5916500000000009e-06 -1.1511849999999999e-05 -13.790199999999997 -13.799749999999998 -13.736049999999999 -13.414149999999998 -17.204649999999997 1.2179900000000001 0.0041861650000000012 -16.190649999999994 -15.268449999999998 -0.83723649999999994
decision_type=2 2 2 2 2 2 2 2 2 2 2 2 2 2
left_child=1 2 3 13 5 8 7 -6 11 10 -10 -5 -11 -1
right_child=-2 -3 -4 4 6 -7 -8 -9 9 12 -12 -13 -14 -15
leaf_value=0.027341590182517063 -0.0031529761906848529 -0.0026432088240821131 -0.0021849551117462426 0.038563377102836964 0.047965167043730619 -0.0050877933687835672 0.0054897760349414829 -0.0059229259037995802 0.058146530715313463 0.040507839768278327 0.012738068091372647 -0.0051462168370683984 -0.0020901766916116078 -0.0029804834899840702
leaf_weight=22 4406 5589 1482 20 24 1666 7001 797 107 22 36 45 27 1054
leaf_count=22 4406 5589 1482 20 24 1666 7001 797 107 22 36 45 27 1054
internal_value=0 0.000776437 0.00232991 0.00294825 0.00353442 -0.000219235 0.00445724 -0.00434763 0.0313411 0.0391406 0.046715 0.00830289 0.0170355 -0.00236052
internal_weight=0 17892 12303 10821 9745 1923 7822 821 257 192 143 65 49 1076
internal_count=22298 17892 12303 10821 9745 1923 7822 821 257 192 143 65 49 1076
shrinkage=0.15


Tree=4
num_leaves=15
num_cat=0
split_feature=13 3 4 4 24 4 23 3 27 4 24 4 39 4
split_gain=1.80798 2.78221 1.6053 1.8692 1.1745 1.56763 0.846714 2.49997 0.697502 1.58776 1.5255 0.628025 0.932032 0.500213
threshold=0.00010003855 -6.0660849999999993 -0.87358199999999997 1.0464400000000003 -1.1249249999999997 -1.4013599999999997 -6.0874249999999988 -5.8314849999999989 8.9235350000000029 0.50027650000000012 0.73351250000000012 -0.47419699999999992 0.037960500000000008 0.4097745000000001
decision_type=2 2 2 2 2 2 2 2 2 2 2 2 2 2
left_child=1 2 4 8 5 -1 -3 -8 13 11 -11 12 -10 -4
right_child=-2 6 3 -5 -6 -7 7 -9 9 10 -12 -13 -14 -15
leaf_value=-0.00027073761448264121 -0.0025961048049166009 -0.0029622405787804989 0.0037794586024527338 -0.0028541169886833894 -0.003159660744956265 0.051298433648688448 0.057060680165886876 -0.0033409604738498556 0.030269910749047991 -0.00035562211527459086 0.047946191778672591 -0.0042044077067231083 -0.0089455628916621198 -0.00023869496824264054
leaf_weight=36 4750 4116 8674 1345 1708 21 21 58 30 31 28 697 25 758
leaf_count=36 4750 4116 8674 1345 1708 21 21 58 30 31 28 697 25 758
internal_value=0 0.00070273 0.00176137 0.00240324 -0.00245279 0.0187284 -0.002667 0.0127152 0.00309358 -0.00112768 0.0225673 -0.00298672 0.0124447 0.00345654
internal_weight=0 17548 13353 11588 1765 57 4195 79 10243 811 59 752 55 9432
internal_count=22298 17548 13353 11588 1765 57 4195 79 10243 811 59 752 55 9432
shrinkage=0.15


Tree=5
num_leaves=15
num_cat=0
split_feature=13 3 4 4 38 4 25 4 20 21 14 2 4 38
split_gain=1.30627 2.01014 1.15983 1.3505 0.76675 1.25139 0.521356 1.15973 1.33432 0.496173 1.05293 0.367346 0.361894 4.41726
threshold=0.00010003855 -6.0660849999999993 -0.87358199999999997 1.0464400000000003 0.11573800000000002 -1.4013599999999997 9.2989400000000018 0.50027650000000012 -4.3366399999999992 13.704450000000003 0.00010474400000000001 2.8438800000000004 0.4097745000000001 -0.023927849999999997
decision_type=2 2 2 2 2 2 2 2 2 2 2 2 2 2
left_child=1 2 4 6 -1 -6 12 11 -9 -3 -11 -8 -4 -14
right_child=-2 9 3 -5 5 -7 7 8 -10 10 -12 -13 13 -15
leaf_value=-0.0027526103569221159 -0.0022066891166920722 -0.0024567065427251256 0.0032146341835652885 -0.0024259994763077748 -0.0011001785121419849 0.039335093088448049 -0.0033849537717547825 0.044595745187969167 -0.00084062522615898738 -0.0035728483848894632 0.039353005068842317 0.013046639921958559 0.048310916293412443 -0.0029056097348389267
leaf_weight=1688 4750 4139 8688 1345 51 26 706 26 33 36 20 32 40 718
leaf_count=1688 4750 4139 8688 1345 51 26 706 26 33 36 20 32 40 718
internal_value=0 0.00059732 0.00149716 0.00204276 -0.00208487 0.0125533 0.00262954 -0.00105463 0.0191822 -0.00226695 0.0117578 -0.00267247 0.00294039 -0.000202891
internal_weight=0 17548 13353 11588 1765 77 10243 797 59 4195 56 738 9446 758
internal_count=22298 17548 13353 11588 1765 77 10243 797 59 4195 56 738 9446 758
shrinkage=0.15


Tree=6
num_leaves=15
num_cat=0
split_feature=13 7 14 34 14 5 19 23 34 14 4 4 35 37
split_gain=0.943777 0.780413 0.5034 3.08624 1.25146 1.34881 1.11411 1.21222 0.861254 5.09049 1.36042 2.07794 1.45135 1.05039
threshold=0.00010003855 7.0814000000000017e-05 8.2261600000000005e-05 0.0037225250000000004 4.3746600000000006e-05 1.4929000000000001e-05 0.00010274350000000002 -6.4589649999999992 0.0053288800000000002 0.00012106850000000002 -0.099698899999999993 0.097214650000000014 -0.00013485249999999996 -2.2968999999999995e-08
decision_type=2 2 2 2 2 2 2 2 2 2 2 2 2 2
left_child=1 2 3 4 -1 6 7 -6 9 10 -4 12 -12 -14
right_child=-2 -3 8 -5 5 -7 -8 -9 -10 -11 11 -13 13 -15
leaf_value=0.00068303541781810609 -0.0018756856927059982 -0.0017225101797398801 -0.0020570477909025026 -0.0024593927455184542 0.04744049658163868 0.0064404441360780525 0.066336412331008385 0.0018667653901502487 0.0018065902635670491 -0.0054437982898752806 0.010896991972218859 -0.0031878402090764471 0.083022049069404594 0.041768635071178034
leaf_weight=65 4750 2939 34 2335 29 47 23 24 10742 1198 22 28 21 41
leaf_count=65 4750 2939 34 2335 29 47 23 24 10742 1198 22 28 21 41
internal_value=0 0.000507722 0.000956394 -0.000970777 0.0175182 0.0264148 0.0387673 0.0268033 0.0013587 -0.0022211 0.0242227 0.0322005 0.0439966 0.0557416
internal_weight=0 17548 14609 2523 188 123 76 53 12086 1344 146 112 84 62
internal_count=22298 17548 14609 2523 188 123 76 53 12086 1344 146 112 84 62
shrinkage=0.15


Tree=7
num_leaves=15
num_cat=0
split_feature=4 4 14 34 34 14 1 22 5 14 10 4 4 20
split_gain=0.764006 1.11392 0.882263 3.52694 1.57617 1.64893 0.961474 1.73737 0.897901 1.48984 1.20413 1.23839 1.57609 1.5322
threshold=-1.4429999999999998 0.95366300000000004 9.6812750000000019e-05 0.0053288800000000002 0.0053288800000000002 0.00012106850000000002 9.6850400000000025 1.2647150000000003 2.6214500000000005e-05 4.3746600000000006e-05 2.1779250000000003e-05 -0.10854049999999998 0.10185200000000001 6.3035950000000005
decision_type=2 2 2 2 2 2 2 2 2 2 2 2 2 2
left_child=-1 2 3 8 5 -4 -7 -8 9 -2 -11 -12 13 -13
right_child=1 -3 4 -5 -6 6 7 -9 -10 10 11 12 -14 -15
leaf_value=-0.0019934390063351057 0.0015656729880720378 -0.001834331709962911 0.01605837206666668 -0.0025825746436825754 0.0023317633138212109 -0.0062540892945889938 -0.0064807964124433378 0.040910085533479496 -0.0012903407865175697 0.00028149372838596077 -0.0063936849865554408 0.024976398178029716 -0.0025315524132635734 0.056688845652694761
leaf_weight=3623 125 3994 90 3455 9576 1024 46 28 99 47 22 86 26 57
leaf_count=3623 125 3994 90 3455 9576 1024 46 28 99 47 22 86 26 57
internal_value=0 0.000386733 0.000990978 -0.000936647 0.00169244 -0.00346092 -0.00506086 0.0114509 0.0113722 0.0148256 0.0217898 0.0270825 0.0314403 0.037617
internal_weight=0 18675 14681 3917 10764 1188 1098 74 462 363 238 191 169 143
internal_count=22298 18675 14681 3917 10764 1188 1098 74 462 363 238 191 169 143
shrinkage=0.15


Tree=8
num_leaves=15
num_cat=0
split_feature=3 14 23 3 3 34 3 14 23 3 3 23 16 10
split_gain=0.684106 0.868646 0.618865 13.4933 3.16958 1.84875 1.55129 1.47599 1.4437 4.12151 3.20635 1.93404 1.45192 1.05637
threshold=-5.8314849999999989 0.0067837250000000009 -13.370399999999998 -13.373099999999999 -13.373099999999999 0.35781150000000006 -17.219549999999995 0.0044949950000000008 -14.884599999999999 -15.057149999999998 -14.405299999999999 -14.105999999999998 -7.4629899999999995e-08 2.2124300000000004e-05
decision_type=2 2 2 2 2 2 2 2 2 2 2 2 2 2
left_child=1 2 3 5 -4 7 -7 8 9 12 11 -10 -1 -9
right_child=-2 -3 4 -5 -6 6 -8 13 10 -11 -12 -13 -14 -15
leaf_value=0.02491593422854076 -0.0019064664134094199 -0.0011956898812969059 -0.0057307559775683897 -0.0050634643787710598 0.0025481150558192044 0.048777785180541482 0.0071482408791780474 0.034238052004101599 0.05162956345487725 -0.0068278401525334476 0.076905717363800197 -0.012820279479492457 0.074324813339626414 -0.0093506937188192682
leaf_weight=23 3559 5633 1177 2526 8972 23 162 22 22 47 51 20 32 29
leaf_count=23 3559 5633 1177 2526 8972 23 162 22 22 47 51 20 32 29
internal_value=0 0.000362085 0.00103162 -0.000877968 0.001588 0.0236523 0.0123238 0.0321718 0.0381138 0.0257897 0.0516305 0.0209392 0.0536629 0.00945229
internal_weight=0 18739 13106 2957 10149 431 185 246 195 102 93 42 55 51
internal_count=22298 18739 13106 2957 10149 431 185 246 195 102 93 42 55 51
shrinkage=0.15


Tree=9
num_leaves=15
num_cat=0
split_feature=4 4 24 4 19 33 33 19 19 23 18 37 4 23
split_gain=0.495964 0.708184 0.574723 0.610876 0.339703 12.5002 3.67561 3.59868 3.20344 2.03883 1.77746 1.85392 2.17977 1.73741
threshold=-1.4429999999999998 0.90505000000000013 1.0940150000000004 2.5011650000000007 0.00049748250000000011 1.4131300000000003e-06 2.1345000000000001e-06 4.4289900000000011e-05 4.9287000000000004e-05 -9.0060449999999985 -3.1663749999999999e-07 -8.5973499999999982e-09 -0.34135149999999997 -9.0362549999999988
decision_type=2 2 2 2 2 2 2 2 2 2 2 2 2 2
left_child=-1 4 -3 -4 6 -6 7 -2 -8 -10 11 -11 -13 -7
right_child=1 2 3 -5 5 13 8 -9 9 10 -12 12 -14 -15
leaf_value=-0.0016061257073091994 0.0044716441631200135 -0.0017006351189923303 0.027914423039183022 0.0016253031218045597 -0.0066099819633099284 0.016823132287133866 -0.0052705666995824293 -0.0034237988179227647 -0.0012494894676909746 0.0050053471697220969 0.0011861672652071541 0.0080218980000514931 0.045231474221653335 0.0056147927616704034
leaf_weight=3623 5373 3993 30 59 1636 878 3348 1713 699 109 206 58 91 482
leaf_count=3623 5373 3993 30 59 1636 878 3348 1713 699 109 206 58 91 482
internal_value=0 0.000311593 -0.00143491 0.0104868 0.00080013 0.002224 0.000432284 0.00256297 -0.00291465 0.00386748 0.011576 0.0198718 0.0307472 0.0128508
internal_weight=0 18675 4082 89 14593 2996 11597 7086 4511 1163 464 258 149 1360
internal_count=22298 18675 4082 89 14593 2996 11597 7086 4511 1163 464 258 149 1360
shrinkage=0.15


Tree=10
num_leaves=15
num_cat=0
split_feature=4 4 38 14 39 39 23 4 4 26 14 14 30 17
split_gain=0.358334 0.514681 0.492638 0.446684 2.22247 1.06213 0.762658 0.704255 1.32008 2.34742 1.43409 1.04717 0.644204 0.748741
threshold=-1.4429999999999998 1.0464400000000003 -1.7284199999999998 9.6812750000000019e-05 8.0563250000000001e-07 8.0563250000000001e-07 -6.6972249999999987 -0.06234689999999999 -0.015826499999999997 -4.2902149999999994e-05 5.4733000000000006e-05 4.8743750000000009e-05 0.00022658350000000002 1.4605350000000003e-07
decision_type=2 2 2 2 2 2 2 2 2 2 2 2 2 2
left_child=-1 3 -3 4 7 -5 -6 -2 11 10 -10 -9 13 -8
right_child=1 2 -4 5 6 -7 12 8 9 -11 -12 -13 -14 -15
leaf_value=-0.0013652068046295001 0.00069602306238139816 0.021118163302625444 -0.0013914752779897721 -0.0047419909634181349 -0.002406116457663502 0.0015390052828756814 0.024166348651686514 0.013984423549845814 0.0042069228107316625 -0.0092546713059501982 0.049672954406186534 0.056842991333968675 -0.00058074301537768957 0.0033676521975154936
leaf_weight=3623 79 22 3890 644 3270 10202 66 23 27 70 37 29 221 95
leaf_count=3623 79 22 3890 644 3270 10202 66 23 27 70 37 29 221 95
internal_value=0 0.000264854 -0.00126489 0.000670215 -0.000702759 0.00116606 -0.00166524 0.0125613 0.0176008 0.0097288 0.030492 0.0378863 0.00467686 0.0118938
internal_weight=0 18675 3912 14763 3917 10846 3652 265 186 134 64 52 382 161
internal_count=22298 18675 3912 14763 3917 10846 3652 265 186 134 64 52 382 161
shrinkage=0.15


Tree=11
num_leaves=15
num_cat=0
split_feature=3 19 33 30 33 19 14 34 4 4 19 39 14 5
split_gain=0.44119 0.629953 11.1307 5.89292 1.9621 2.74489 3.71677 2.88727 3.6659 2.98952 2.70714 2.6216 2.12759 1.8572
threshold=-6.2709449999999984 1.17105e-07 1.0000000180025095e-35 0.00061480200000000012 7.1091050000000012e-07 3.6465450000000008e-06 0.0014883200000000002 0.089497800000000002 -0.24920649999999997 0.26439750000000006 2.5573700000000003e-06 4.752445000000001e-06 0.00063063750000000014 1.5522700000000003e-05
decision_type=2 2 2 2 2 2 2 2 2 2 2 2 2 2
left_child=1 2 3 -1 10 -6 7 8 -7 -10 11 -3 -9 -14
right_child=-2 4 -4 -5 5 6 -8 12 9 -11 -12 -13 13 -15
leaf_value=0.017415123053565046 -0.001226342081242686 -0.0063121016307989145 -0.0081294136876476544 -0.002040051606251367 -0.006303691174220907 -0.003419112972776583 0.0002186900131421011 -0.0046291821906654443 0.020775401206470829 -0.00071561895350119879 -0.0027346123349439562 0.010968380492474688 0.025030645424148113 0.0011145321777168943
leaf_weight=1037 5093 281 1252 529 819 252 3851 516 801 178 6725 665 127 172
leaf_count=1037 5093 281 1252 529 819 252 3851 516 801 178 6725 665 127 172
internal_value=0 0.00036302 0.00241386 0.0108431 -3.86815e-05 0.00183346 0.00296358 0.00813003 0.0127149 0.0168679 -0.00167775 0.00583538 0.00120483 0.0112729
internal_weight=0 17205 2818 1566 14387 6716 5897 2046 1231 979 7671 946 815 299
internal_count=22298 17205 2818 1566 14387 6716 5897 2046 1231 979 7671 946 815 299
shrinkage=0.15


Tree=12
num_leaves=15
num_cat=0
split_feature=3 19 33 34 3 25 14 33 13 13 19 39 25 4
split_gain=0.322287 0.381995 8.11808 5.50387 4.36578 5.13736 3.47512 1.61315 6.03738 3.74967 1.51456 3.46751 1.42212 1.6652
threshold=-5.9150349999999987 1.3371400000000003e-07 3.9863900000000005e-07 0.039383950000000008 -12.474749999999998 0.40575300000000009 0.0009749060000000001 1.0000000180025095e-35 -4.4920299999999995e-07 5.8115950000000009e-06 1.7628450000000002e-05 6.2784800000000004e-06 6.936935000000001 0.63880700000000012
decision_type=2 2 2 2 2 2 2 2 2 2 2 2 2 2
left_child=1 2 3 6 5 -5 -1 9 12 -3 11 -11 13 -9
right_child=-2 7 -4 4 -6 -7 -8 8 -10 10 -12 -13 -14 -15
leaf_value=0.019469238301515313 -0.0012554144786960154 -0.0055624170428483421 -0.0067757853153508534 0.072002008212478583 -0.0049137824859075323 0.0065804748781956735 -0.0077023784691575628 0.0095612533226014686 -0.001966982477898374 -0.0056007471207605948 -0.000430048219735579 0.011536802411561043 -0.0022855168523143649 -0.0014748874095131834
leaf_weight=849 3814 3144 1424 37 736 100 121 2224 4390 401 3574 787 340 357
leaf_count=849 3814 3144 1424 37 736 100 121 2224 4390 401 3574 787 340 357
internal_value=0 0.000259043 0.00173072 0.0083033 -0.000337253 0.0242491 0.0160798 -5.69169e-05 0.00154911 -0.00154208 0.00111226 0.00575216 0.00683349 0.00803475
internal_weight=0 18484 3267 1843 873 137 970 15217 7311 7906 4762 1188 2921 2581
internal_count=22298 18484 3267 1843 873 137 970 15217 7311 7906 4762 1188 2921 2581
shrinkage=0.15


Tree=13
num_leaves=15
num_cat=0
split_feature=16 29 2 33 5 23 21 25 17 37 19 0 18 37
split_gain=0.165664 0.921708 2.30477 4.6275 2.2847 1.75894 1.90357 2.27485 3.11766 1.57787 1.16291 0.907627 1.2322 0.818869
threshold=-6.2511249999999987e-07 0.0044657050000000012 2.0829600000000004 2.7049750000000007e-06 1.4929000000000001e-05 -15.905149999999997 4.499245000000001 4.8222350000000009 3.7160050000000004e-06 -3.6323399999999989e-08 0.0022709550000000003 -6.3750649999999984 -0.00025624299999999991 -5.7540249999999989e-07
decision_type=2 2 2 2 2 2 2 2 2 2 2 2 2 2
left_child=1 13 -3 -4 5 -5 7 8 -7 -10 -8 -6 -13 -1
right_child=-2 2 3 4 11 6 10 -9 9 -11 -12 12 -14 -15
leaf_value=0.0049542922929519976 0.00027818269880967552 -0.0012096169523618772 -0.003273485462783944 -0.0050120603526011111 0.0004422369765205364 0.022257759467734454 0.038533210930181666 0.011415267860866152 0.10897143126047891 0.054982761639569479 -0.012619070538785309 0.00035413827897761677 0.038189730459513758 -0.0023667898967218133
leaf_weight=373 15242 1620 337 22 101 26 20 24 29 21 20 34 45 4384
leaf_count=373 15242 1620 337 22 101 26 20 24 29 21 20 34 45 4384
internal_value=0 -0.000600916 0.00186516 0.00920114 0.0214934 0.0344166 0.0406126 0.0516748 0.0643883 0.0862962 0.0129571 0.00986247 0.0219061 -0.00179274
internal_weight=0 7056 2299 679 342 162 140 100 76 50 40 180 79 4757
internal_count=22298 7056 2299 679 342 162 140 100 76 50 40 180 79 4757
shrinkage=0.15


Tree=14
num_leaves=15
num_cat=0
split_feature=3 23 23 3 14 14 23 3 3 34 14 23 39 34
split_gain=0.241227 6.9573 6.76775 2.79998 3.86108 1.91421 3.59696 3.77503 2.28072 1.98309 1.79678 1.67433 1.51838 1.3552
threshold=-8.3121399999999976 -8.2647199999999987 -8.2241149999999994 -6.0183449999999992 0.00040445950000000003 0.0025426050000000003 -13.67085 -13.373099999999999 -13.373099999999999 0.25589250000000002 0.0025870350000000005 -13.0406 0.00075725500000000008 0.55322950000000015
decision_type=2 2 2 2 2 2 2 2 2 2 2 2 2 2
left_child=1 5 -2 4 12 6 7 9 11 -1 -3 -8 -4 -7
right_child=2 10 3 -5 -6 13 8 -9 -10 -11 -12 -13 -14 -15
leaf_value=0.035125469813545689 -0.0034557771719817567 -0.0080741302372292316 0.013244261296523903 -0.00075616023865332732 -0.00023885813124938744 -0.00045674459644482173 0.030195125574567196 -0.0053348429260850405 0.010991382507031296 0.002522201684485303 -0.0017372612258955728 -0.0079975628174429013 -0.0033805098382031751 0.005929581534756854
leaf_weight=86 6671 1778 1465 1539 948 3153 29 876 1999 82 2321 236 135 980
leaf_count=86 6671 1778 1465 1539 948 3153 29 876 1999 82 2321 236 135 980
internal_value=0 0.000476359 -0.000510986 0.00429565 0.00734695 0.00320994 0.00589912 -0.00138478 0.00925795 0.019212 -0.00448597 -0.00381799 0.0118415 0.00105755
internal_weight=0 11540 10758 4087 2548 7441 3308 1044 2264 168 4099 265 1600 4133
internal_count=22298 11540 10758 4087 2548 7441 3308 1044 2264 168 4099 265 1600 4133
shrinkage=0.15


Tree=15
num_leaves=15
num_cat=0
split_feature=3 34 34 14 3 27 34 4 4 3 19 19 1 32
split_gain=0.174287 1.2609 1.0466 1.16353 2.45748 1.16747 1.77135 2.47787 1.96089 1.69669 1.44171 1.9248 1.56367 2.23355
threshold=-8.3121399999999976 0.0081884650000000007 0.017854750000000003 0.00024211700000000003 -6.0183449999999992 0.41993400000000003 0.0068507800000000008 0.11170150000000002 -0.10854049999999998 -7.5570249999999985 1.1201050000000003e-08 2.4071900000000006e-05 -4.811234999999999 0.028839450000000006
decision_type=2 2 2 2 2 2 2 2 2 2 2 2 2 2
left_child=1 -1 3 4 5 6 7 8 -2 -8 -7 12 -12 -14
right_child=2 -3 -4 -5 -6 10 9 -9 -10 -11 11 -13 13 -15
leaf_value=-0.0029340170433334711 -0.0025013245307491157 0.0011411984864189253 -0.0014807213068595306 -0.0019825869622548406 -0.0012415983134005072 -0.0024704690778353171 0.018824235738619514 -0.00818990336666847 0.021744058896018582 -0.0073995894341338415 0.068900735130799667 0.0089368325707159541 0.045195983487950724 -0.013842863004122461
leaf_weight=2085 96 9455 7171 1274 1153 61 69 116 344 284 28 95 46 21
leaf_count=2085 96 9455 7171 1274 1153 61 69 116 344 284 28 95 46 21
internal_value=0 0.000404905 -0.000434338 0.00165755 0.00366254 0.00853709 0.00603651 0.0113126 0.0164542 -0.00227369 0.017593 0.0240344 0.039132 0.0266913
internal_weight=0 11540 10758 3587 2313 1160 909 556 440 353 251 190 95 67
internal_count=22298 11540 10758 3587 2313 1160 909 556 440 353 251 190 95 67
shrinkage=0.15


Tree=16
num_leaves=15
num_cat=0
split_feature=3 23 23 3 19 22 29 0 0 28 29 34 3 4
split_gain=0.125922 4.64518 4.33272 1.69314 1.64914 3.151 1.59891 11.0323 6.65975 4.80898 1.74463 1.48562 1.89029 1.54669
threshold=-8.3121399999999976 -8.291344999999998 -8.1679949999999977 -6.0660849999999993 1.5736100000000003e-05 1.775965 -0.0012305049999999998 1.4765200000000001 0.94625250000000005 0.00027332350000000002 -0.00041527449999999994 0.0053288800000000002 -7.3572699999999989 -0.17146349999999996
decision_type=2 2 2 2 2 2 2 2 2 2 2 2 2 2
left_child=1 -1 -2 4 5 6 8 11 -4 -10 -9 12 -8 -13
right_child=2 -3 3 -5 -6 -7 7 10 9 -11 -12 13 -14 -15
leaf_value=0.0026027991208800801 -0.0026855844515956081 -0.0036657401952255105 -0.013497890045255189 -0.0003089771801693304 0.0027264542809157556 -0.01041895630263278 -0.0032813238108466412 0.030563877184834814 -0.0036491737547995791 0.036132058961440484 -0.013946864348217531 0.090424724481999869 0.045416988440333525 0.046242251306361816
leaf_weight=7382 6757 4158 192 1564 1425 138 29 23 105 196 143 21 47 118
leaf_count=7382 6757 4158 192 1564 1425 138 29 23 105 196 143 21 47 118
internal_value=0 0.000344169 -0.000369187 0.00354281 0.00601478 0.0106451 0.013971 0.0212691 0.00833088 0.0222549 -0.00777971 0.0436974 0.0268347 0.0529173
internal_weight=0 11540 10758 4001 2437 1012 874 381 493 301 166 215 76 139
internal_count=22298 11540 10758 4001 2437 1012 874 381 493 301 166 215 76 139
shrinkage=0.15


Tree=17
num_leaves=15
num_cat=0
split_feature=3 23 18 35 4 18 39 12 23 3 14 2 36 3
split_gain=0.104952 6.83188 1.63467 1.56803 1.19879 0.882788 0.914975 0.658007 0.399231 0.795816 1.22285 1.28859 0.305237 0.28421
threshold=-16.190649999999994 -15.447399999999998 -0.00096328849999999992 -0.00081187399999999986 0.43777950000000004 0.0011822150000000001 0.00068107450000000011 -0.00023571749999999996 -15.099999999999998 -14.632849999999998 0.0036806550000000001 0.93079650000000014 0.0083285550000000014 -8.5562249999999977
decision_type=2 2 2 2 2 2 2 2 2 2 2 2 2 2
left_child=1 2 -1 5 7 6 -4 -5 9 10 11 -2 -12 -11
right_child=8 -3 3 4 -6 -7 -8 -9 -10 13 12 -13 -14 -15
leaf_value=-0.0031172447634162381 0.056542332363980159 -0.0033867263397392368 0.013241354397697639 0.041202704994274038 0.023002469198157387 -0.0031594431131250328 0.055248424820601945 0.075373883373686112 0.00018188139596438157 -0.0041181455548873844 -0.0022776031585248265 0.0045952295842157168 0.01544481597116424 -0.0010181635973676724
leaf_weight=32 21 1043 28 21 27 27 20 32 18175 1177 115 22 27 1531
leaf_count=32 21 1043 28 21 27 27 20 32 18175 1177 115 22 27 1531
internal_value=0 0.00134683 0.0277484 0.0341207 0.0487286 0.018539 0.0307443 0.0618344 -7.86312e-05 -0.00171528 0.00780308 0.0299647 0.00109215 -0.00236553
internal_weight=0 1230 187 155 80 75 48 53 21068 2893 185 43 142 2708
internal_count=22298 1230 187 155 80 75 48 53 21068 2893 185 43 142 2708
shrinkage=0.15


Tree=18
num_leaves=15
num_cat=0
split_feature=32 2 2 22 2 22 22 7 13 3 14 22 3 13
split_gain=0.0985579 7.71053 4.94936 1.95994 2.88983 4.80329 1.90394 1.75619 1.26083 1.73774 1.2483 1.32815 1.58392 1.10451
threshold=0.021522650000000001 -0.11563949999999999 -0.28979049999999995 -0.34255499999999994 -2.8543249999999998 -2.7794649999999996 -0.28379899999999997 4.7774700000000009e-05 8.1076600000000009e-05 -6.2709449999999984 0.00012598550000000004 -2.7794649999999996 -5.8103499999999988 6.3094200000000003e-05
decision_type=2 2 2 2 2 2 2 2 2 2 2 2 2 2
left_child=2 7 3 4 5 -1 -4 8 9 -2 11 -6 -13 -5
right_child=1 -3 6 13 10 -7 -8 -9 -10 -11 -12 12 -14 -15
leaf_value=0.074654763077375147 0.010796097050095673 -0.0042274839759757392 -0.0048712267961679694 -0.0057452159720111605 -0.0046964231988086422 -0.0040592254300340636 0.0031801695731398126 0.0010051886869407451 0.00070736851956249242 0.00093424038917840069 -0.0027313838074189065 0.042210347768850624 -0.003434691741355122 -0.0009188956711669422
leaf_weight=33 1738 4284 735 3856 51 37 6549 1885 586 523 470 50 26 1475
leaf_count=33 1738 4284 735 3856 51 37 6549 1885 586 523 470 50 26 1475
internal_value=0 0.000382762 -0.000259824 -0.00345074 0.00421494 0.0330488 0.00236773 0.00455653 0.00690788 0.00851492 0.000834083 0.0140291 0.0265949 -0.00440985
internal_weight=0 9016 13282 5998 667 70 7284 4732 2847 2261 597 127 76 5331
internal_count=22298 9016 13282 5998 667 70 7284 4732 2847 2261 597 127 76 5331
shrinkage=0.15


Tree=19
num_leaves=15
num_cat=0
split_feature=3 23 18 35 15 15 15 21 23 3 36 14 21 3
split_gain=0.0792969 4.88055 1.15563 1.11248 1.75294 0.865452 0.85043 0.603231 0.284838 0.48817 0.692382 0.240949 0.210505 0.342171
threshold=-16.190649999999994 -15.447399999999998 -0.00096328849999999992 -0.00081187399999999986 -5.8009949999999992e-08 -8.6709949999999985e-06 -5.2325449999999994e-07 -0.10623099999999998 -15.561499999999999 -15.748799999999997 0.00044719850000000006 0.014849550000000001 -7.4522599999999999 -13.799749999999998
decision_type=2 2 2 2 2 2 2 2 2 2 2 2 2 2
left_child=1 2 -1 4 5 -4 -5 -8 9 10 -2 -3 13 -11
right_child=8 11 3 6 -6 -7 7 -9 -10 12 -12 -13 -14 -15
leaf_value=-0.0024663964191859121 -0.0038525464473818626 -0.0047207977194737441 0.014097951227576349 0.021181767778471115 -0.012367219992447644 0.055712357416368007 0.067147623927428804 0.033765854473624908 0.00013859686854633275 0.021348287968430666 0.033819298838664379 -8.0909783732803435e-05 -0.0022236366123860487 0.0007612751381119861
leaf_weight=32 23 618 23 30 30 22 29 21 18468 20 21 425 2338 198
leaf_count=32 23 618 23 30 30 22 29 21 18468 20 21 425 2338 198
internal_value=0 0.0011707 0.0234856 0.0288434 0.0157188 0.0344428 0.0411477 0.0531273 -6.83482e-05 -0.0015383 0.0141272 -0.00283014 -0.00180797 0.00264999
internal_weight=0 1230 187 155 75 45 80 50 21068 2600 44 1043 2556 218
internal_count=22298 1230 187 155 75 45 80 50 21068 2600 44 1043 2556 218
shrinkage=0.15


Tree=20
num_leaves=15
num_cat=0
split_feature=7 37 21 1 7 1 14 14 34 23 1 1 5 0
split_gain=0.0885312 0.135507 0.0761248 7.73748 2.69119 1.79775 1.69392 2.63591 1.73512 1.16937 3.53871 3.49145 1.48493 1.3259
threshold=1.33204e-05 2.5544450000000003e-07 -7.0993049999999984 -6.6576299999999993 4.5267500000000007e-05 -6.6576299999999993 8.2261600000000005e-05 0.0021166150000000005 1.3540300000000001 -6.9149849999999988 -9.5210399999999975 -11.173299999999999 1.5763300000000002e-05 5.4345850000000011
decision_type=2 2 2 2 2 2 2 2 2 2 2 2 2 2
left_child=1 -1 3 4 6 -4 -2 8 9 11 12 -8 -11 -13
right_child=2 -3 5 -5 -6 -7 7 -9 -10 10 -12 13 -14 -15
leaf_value=-0.0053622953815722907 0.0045605031405926196 0.0048077352530625011 -0.0029555136099059772 -0.0032897533439608601 0.0026032921363678325 0.00066789226676112849 -0.010156765134217073 -0.0015707278544747777 -4.4341843060560918e-05 0.02821530366942672 -0.0062786864989902826 0.054931054972922021 0.081343859927728773 0.018584146267837949
leaf_weight=145 127 37 3903 2714 343 14627 26 72 38 29 52 138 20 27
leaf_count=145 127 37 3903 2714 343 14627 26 72 38 29 52 138 20 27
internal_value=0 -0.00329476 2.71137e-05 0.00065972 0.012952 -9.53108e-05 0.019662 0.0244329 0.0301064 0.0340302 0.0209765 0.0409329 0.0499004 0.0489834
internal_weight=0 182 22116 3586 872 18530 529 402 330 292 101 191 49 165
internal_count=22298 182 22116 3586 872 18530 529 402 330 292 101 191 49 165
shrinkage=0.15


Tree=21
num_leaves=15
num_cat=0
split_feature=32 1 18 16 16 3 1 4 24 4 24 4 4 30
split_gain=0.0782062 0.330742 0.441627 1.55215 0.396914 0.946316 0.154819 0.0732104 5.20567 3.55172 2.53443 2.13571 1.75268 1.63915
threshold=3.0903150000000008 0.40718150000000003 -0.00014209099999999998 3.4609550000000005e-05 -1.5297249999999998e-06 -10.982099999999997 -1.5487499999999998 -0.15844549999999999 -0.14500749999999998 -0.87358199999999997 -0.14500749999999998 -1.1063349999999998 -0.1018225 0.00057800250000000005
decision_type=2 2 2 2 2 2 2 2 2 2 2 2 2 2
left_child=7 2 3 -2 5 -4 -6 8 9 -1 12 -10 13 -9
right_child=1 -3 4 -5 6 -7 -8 10 11 -11 -12 -13 -14 -15
leaf_value=5.59665396445484e-05 0.039599447505580344 -0.0019285862925333421 0.03351735191730161 -0.0016924068913390835 -0.0034432424995512437 -0.00012812755923087316 0.01018284270040957 0.01822712734668 -0.00050444510429297276 0.011432517840542104 0.0015831027893486844 -0.0069654586324305635 -0.0034236853442305513 -0.0013732955288690261
leaf_weight=1401 33 326 27 54 176 62 21 168 2558 1104 9473 2093 4578 224
leaf_count=1401 33 326 27 54 176 62 21 168 2558 1104 9473 2093 4578 224
internal_value=0 0.00156155 0.00461192 0.01397 0.00176522 0.0100789 -0.00199072 -5.0536e-05 -0.000442868 0.00506982 0.000143851 -0.00341197 -0.00259941 0.00702689
internal_weight=0 699 373 87 286 89 197 21599 7156 2505 14443 4651 4970 392
internal_count=22298 699 373 87 286 89 197 21599 7156 2505 14443 4651 4970 392
shrinkage=0.15


Tree=22
num_leaves=15
num_cat=0
split_feature=22 2 26 4 0 20 2 22 1 21 4 38 4 38
split_gain=0.0697931 0.160798 0.0687958 0.685652 0.942789 1.89821 0.829704 0.520928 0.241317 0.448749 0.146088 3.30227 2.31149 1.70754
threshold=3.0427950000000004 2.6109400000000007 0.0014206400000000001 -0.24920649999999997 5.0141550000000015 3.5876650000000003 -2.5332949999999994 2.2655950000000007 10.604100000000001 1.0541300000000002 -0.15844549999999999 0.00026179400000000003 -0.50756149999999989 0.00026179400000000003
decision_type=2 2 2 2 2 2 2 2 2 2 2 2 2 2
left_child=2 -2 10 4 6 -6 -4 -8 -5 -10 11 -1 -13 -12
right_child=1 -3 3 8 5 -7 7 -9 9 -11 13 12 -14 -15
leaf_value=-0.0029433066446815587 -0.0034687018657032537 0.010201409264534179 0.024842842890511214 -0.0020891996448095412 -0.0048945768143832018 0.048205129327570005 -0.0027444954824644933 0.022107747620715858 -0.0011199236456637402 0.026179238038057519 0.0014257020152752611 0.00053251120071800249 0.010385756643210073 -0.0020762084890516203
leaf_weight=4577 248 21 34 680 28 33 197 21 42 20 9317 1538 822 4720
leaf_count=4577 248 21 34 680 28 33 197 21 42 20 9317 1538 822 4720
internal_value=0 -0.00240152 2.93254e-05 0.00121125 0.00709896 0.0238315 0.00304863 -0.000350472 -0.00127238 0.00768626 -3.01258e-05 -0.000593256 0.00396445 0.00024817
internal_weight=0 269 22029 1055 313 61 252 218 742 62 20974 6937 2360 14037
internal_count=22298 269 22029 1055 313 61 252 218 742 62 20974 6937 2360 14037
shrinkage=0.15


Tree=23
num_leaves=15
num_cat=0
split_feature=7 37 34 14 19 19 34 33 5 15 15 35 7 17
split_gain=0.0627265 0.0913739 0.062487 0.398923 0.414732 1.63265 1.49414 0.731552 0.306236 0.189873 0.545292 1.00229 0.935996 0.598056
threshold=1.33204e-05 2.5544450000000003e-07 0.83108850000000012 0.00084742650000000014 4.4289900000000011e-05 7.5845250000000009e-06 1.6604550000000002 -0.00012688699999999998 8.1120300000000017e-06 -6.8344449999999991e-06 -4.4646249999999989e-05 -0.14568599999999995 4.1823600000000004e-05 3.8643850000000008e-05
decision_type=2 2 2 2 2 2 2 2 2 2 2 2 2 2
left_child=1 -1 -2 -4 5 8 -7 -8 -5 10 -6 12 -12 -13
right_child=2 -3 3 4 9 6 7 -9 -10 -11 11 13 -14 -15
leaf_value=-0.0044711176797562948 -7.0902746002954905e-05 0.0038801626585474283 -0.0011540186553916595 0.015738312712346669 -0.00056161952794166929 0.045650624641432214 0.025918084266595542 -0.0057975800513910747 -0.0040869038951506145 -0.00041139336446801921 0.051408723923271858 -0.0015993628056201164 0.0093698804188394342 0.026768529850742195
leaf_weight=145 19431 37 1323 20 271 39 30 36 142 654 22 102 26 20
leaf_count=145 19431 37 1323 20 271 39 30 36 142 654 22 102 26 20
internal_value=0 -0.00277333 2.28227e-05 0.000701101 0.0025031 0.00780386 0.0223734 0.00861863 -0.00163935 0.00121059 0.00361598 0.0102756 0.0286377 0.00305111
internal_weight=0 182 22116 2685 1362 267 105 66 162 1095 441 170 48 122
internal_count=22298 182 22116 2685 1362 267 105 66 162 1095 441 170 48 122
shrinkage=0.15


Tree=24
num_leaves=15
num_cat=0
split_feature=31 11 3 22 2 2 22 5 8 3 34 4 4 3
split_gain=0.060814 0.690836 0.111001 0.062762 3.108 0.237727 0.658296 0.169635 0.104168 0.131244 0.111969 0.0959124 0.146055 0.174446
threshold=11.473200000000002 -0.00011490849999999999 -8.3121399999999976 -2.9943999999999997 -2.9705399999999993 -2.9239399999999995 -2.7794649999999996 1.6676400000000005e-05 6.391400000000001e-07 -5.9574799999999994 0.55322950000000015 -1.4013599999999997 0.63880700000000012 -6.0660849999999993
decision_type=2 2 2 2 2 2 2 2 2 2 2 2 2 2
left_child=3 -2 -3 4 -1 6 -5 8 -8 10 -10 -6 13 -13
right_child=1 2 -4 5 11 -7 7 -9 9 -11 -12 12 -14 -15
leaf_value=0.052141443518516815 0.022439022040634884 -0.0059758189827655711 0.0018793327607709216 0.022857341869117091 0.00066530489597027228 0.00010628580382198875 -0.00058731498794294525 -0.0007748009783779484 -0.0098516137029928622 -0.0011580985120803831 -0.0012576328617486556 -0.0089741383289898887 -0.00015608546605108131 -0.00066211993092254388
leaf_weight=23 33 68 100 22 73 20894 77 294 203 73 41 225 96 76
leaf_count=23 33 68 100 22 73 20894 77 294 203 73 41 225 96 76
internal_value=0 0.00259734 -0.00130013 -2.36261e-05 -0.00169709 1.45621e-05 -0.0026847 -0.00350145 -0.00553605 -0.00673811 -0.00840754 -0.00433174 -0.0052506 -0.00687542
internal_weight=0 201 168 22097 493 21604 710 688 394 317 244 470 397 301
internal_count=22298 201 168 22097 493 21604 710 688 394 317 244 470 397 301
shrinkage=0.15


Tree=25
num_leaves=15
num_cat=0
split_feature=21 8 8 14 14 14 14 4 4 21 8 14 39 14
split_gain=0.0569202 5.81026 4.06822 0.836621 0.739961 0.703979 0.784928 0.69816 0.846981 0.883654 1.42075 0.780768 1.9493 1.33787
threshold=-1.2988399999999998 2.6357100000000003e-06 2.3267850000000005e-06 0.007300430000000001 0.0035620550000000006 0.0023768750000000005 8.2261600000000005e-05 1.0464400000000003 -0.78269099999999991 0.10095660000000002 -2.3517249999999995e-06 9.6812750000000019e-05 8.0563250000000001e-07 5.1133000000000007e-05
decision_type=2 2 2 2 2 2 2 2 2 2 2 2 2 2
left_child=1 3 7 -1 -3 6 -4 8 -2 10 -10 12 13 -11
right_child=2 4 5 -5 -6 -7 -8 -9 9 11 -12 -13 -14 -15
leaf_value=-0.0045392633546846176 -0.00044834916586520532 0.0051049109591432724 -0.00043780661568041605 -0.00010313710508166341 0.0011349698733571641 -0.00099471073092272382 -0.0056856141281214001 -0.00099200262474665162 -0.0050854609713420779 -0.0023134550054757187 0.022725924657677987 0.0060304735212572949 -0.00074999280503800143 0.038639165848027908
leaf_weight=3644 1242 3448 838 1297 1523 2104 2732 1201 407 28 46 2809 929 50
leaf_count=3644 1242 3448 838 1297 1523 2104 2732 1201 407 28 46 2809 929 50
internal_value=0 0.000267902 -0.000214391 -0.00337479 0.00388861 -0.00317111 -0.00445378 0.00228507 0.00299924 0.00400226 -0.00226135 0.00474582 0.0011623 0.0239382
internal_weight=0 9912 12386 4941 4971 5674 3570 6712 5511 4269 453 3816 1007 78
internal_count=22298 9912 12386 4941 4971 5674 3570 6712 5511 4269 453 3816 1007 78
shrinkage=0.15


Tree=26
num_leaves=15
num_cat=0
split_feature=32 2 10 22 22 22 2 17 3 13 22 2 2 19
split_gain=0.0543281 2.08355 1.41034 1.47082 2.19192 1.31619 1.97268 2.37207 1.19056 1.55909 0.890253 4.42391 2.12564 0.715425
threshold=0.119938 -0.94800599999999979 2.2400650000000004e-05 -2.3239949999999996 -1.0689799999999998 -2.3731699999999996 -2.4841749999999996 5.5141600000000003e-08 -6.3033449999999993 8.6435950000000007e-05 -1.9394849999999997 -1.9404149999999998 -1.9404149999999998 2.9854050000000003e-05
decision_type=2 2 2 2 2 2 2 2 2 2 2 2 2 2
left_child=-1 2 3 -2 8 6 7 13 9 10 11 -5 -12 -4
right_child=1 -3 5 4 -6 -7 -8 -9 -10 -11 12 -13 -14 -15
leaf_value=-0.00012186465822229215 -0.0052409952318891052 -0.0020873099246667844 0.071735441571344497 0.071383537716515677 -0.0025639625659806043 -0.0013173392110783716 -0.0013995912619291569 0.0072023610348596464 -0.0013785118066880386 0.0038154561921021073 -0.011403932879594238 -0.0047185982654542281 0.038113873566349911 0.032944641878711989
leaf_weight=17545 124 2876 23 23 155 944 121 58 60 87 22 68 172 20
leaf_count=17545 124 2876 23 23 155 944 121 58 60 87 22 68 172 20
internal_value=0 0.000449845 0.00433736 0.0096028 0.0127385 0.00112661 0.0115189 0.0269955 0.0182289 0.0213914 0.0267567 0.014516 0.0324985 0.0536932
internal_weight=0 4753 1877 711 587 1166 222 101 432 372 285 91 194 43
internal_count=22298 4753 1877 711 587 1166 222 101 432 372 285 91 194 43
shrinkage=0.15


Tree=27
num_leaves=15
num_cat=0
split_feature=32 12 12 5 5 13 11 30 17 19 23 3 3 11
split_gain=0.0481257 0.298163 0.370149 0.215607 0.524219 0.123406 0.184858 0.0699193 0.109609 0.0492253 0.0486053 0.0619634 0.111522 0.0498304
threshold=3.0903150000000008 -8.2643299999999982e-05 -0.00011439349999999998 1.4480650000000002e-05 1.1439400000000003e-05 6.6789350000000011e-05 -0.00014765899999999999 0.14244100000000001 1.6740550000000002e-06 2.7383300000000004e-09 -19.790449999999996 -16.555249999999997 -12.629099999999998 1.44886e-05
decision_type=2 2 2 2 2 2 2 2 2 2 2 2 2 2
left_child=10 2 3 4 -2 -5 -7 9 -9 -3 11 -1 -13 -12
right_child=1 7 -4 5 -6 6 -8 8 -10 -11 13 12 -14 -15
leaf_value=0.0061428423807956276 -0.0021962562414046261 0.0043958587095143491 0.021767313189900897 -0.0057769951533474442 0.024414228918331286 -0.0038190976803889496 0.014121094693837221 -0.00046489139561731147 0.010181159870943144 -0.0021302776918798358 -0.00018877629997507382 -0.0087723241872691479 -0.0010835507735606229 0.00028637662214608055
leaf_weight=20 36 28 29 54 31 28 24 73 31 365 13409 52 231 7887
leaf_count=20 36 28 29 54 31 28 24 73 31 365 13409 52 231 7887
internal_value=0 0.00122497 0.00608437 0.00345543 0.0101161 -0.000754587 0.00446099 -0.000750077 0.00270845 -0.00166531 -3.96432e-05 -0.00192609 -0.00249633 -1.28028e-05
internal_weight=0 699 202 173 67 106 52 497 104 393 21599 303 283 21296
internal_count=22298 699 202 173 67 106 52 497 104 393 21599 303 283 21296
shrinkage=0.15


Tree=28
num_leaves=15
num_cat=0
split_feature=22 2 2 13 3 23 4 2 22 22 38 0 33 18
split_gain=0.0423758 6.71032 1.87841 1.39794 1.80346 0.964429 1.01337 0.806495 6.00789 4.99416 1.48472 1.74467 0.909286 2.25892
threshold=1.8027200000000001 1.8115200000000002 1.8115200000000002 1.2983800000000001e-05 -6.1926199999999989 -16.840049999999994 1.9477800000000001 2.4785100000000004 2.4511500000000006 2.5478750000000003 -0.0026920549999999996 -5.3024349999999991 4.8708550000000005e-06 -1.4155299999999998e-06
decision_type=2 2 2 2 2 2 2 2 2 2 2 2 2 2
left_child=2 -2 -1 4 5 -3 7 9 -9 -7 -10 12 -12 -14
right_child=1 3 -4 -5 -6 6 -8 8 10 -11 11 -13 13 -15
leaf_value=0.00080376988208593248 -0.0034784010774388274 -0.00078011290428953042 -0.003231135083514127 -0.00033757460099644336 -0.00025596470596363793 0.031616707826584677 -0.0019582279363281226 -0.006875723100800776 0.018502000745803375 -0.012870502194444484 0.088315646337537926 0.01852894701961694 0.080406103345505409 0.015746800331398844
leaf_weight=14894 3373 54 3144 187 151 171 42 67 29 85 29 21 31 20
leaf_count=14894 3373 54 3144 187 151 171 42 67 29 85 29 21 31 20
internal_value=0 -0.000425507 0.000100491 0.0111838 0.0142616 0.0182546 0.0203311 0.0223977 0.0296125 0.0168456 0.048418 0.0570078 0.0671085 0.0550495
internal_weight=0 4260 18038 887 700 549 495 453 197 256 130 101 80 51
internal_count=22298 4260 18038 887 700 549 495 453 197 256 130 101 80 51
shrinkage=0.15


Tree=29
num_leaves=15
num_cat=0
split_feature=10 20 20 9 9 20 20 9 9 20 5 22 26 4
split_gain=0.0623502 1.2931 1.73016 1.25734 0.966268 0.857703 0.828881 5.08333 1.97328 2.42123 1.81954 2.52399 2.18998 5.6477
threshold=2.5689950000000003e-05 5.1367550000000017 -4.6417749999999991 -1.9313849999999998e-05 2.1432500000000002e-05 -6.0588699999999989 4.600575000000001 1.6530500000000004e-05 1.9997450000000006e-05 -5.4777449999999996 1.2965350000000001e-05 0.74651100000000015 5.7274000000000008e-05 0.017115750000000002
decision_type=2 2 2 2 2 2 2 2 2 2 2 2 2 2
left_child=1 2 3 5 -3 -1 8 -8 9 -2 11 12 -9 -14
right_child=6 4 -4 -5 -6 -7 7 10 -10 -11 -12 -13 13 -15
leaf_value=0.0021518045746316519 0.005875200313098702 -0.0045377197900406526 0.0026302657488781818 -0.003965909255215839 0.0067860777346199497 0.022429514497343917 -0.0032291898025902555 0.010842007861615913 -0.0028329945531406224 -0.00086271714813403026 0.004668203998437862 -0.0096054382631950829 0.05137268479779894 -0.0058725469135016946
leaf_weight=176 1807 1917 3965 1892 186 64 2086 269 4591 3572 1518 80 117 58
leaf_count=176 1807 1917 3965 1892 186 64 2086 269 4591 3572 1518 80 117 58
internal_value=0 -0.000328889 0.000777384 -0.00266852 -0.00353619 0.00755919 0.000191296 0.00197876 -0.000548788 0.00140079 0.00729892 0.01492 0.019339 0.0324
internal_weight=0 8200 6097 2132 2103 240 14098 4128 9970 5379 2042 524 444 175
internal_count=22298 8200 6097 2132 2103 240 14098 4128 9970 5379 2042 524 444 175
shrinkage=0.15


Tree=30
num_leaves=15
num_cat=0
split_feature=5 23 1 22 14 10 22 5 23 1 22 14 18 26
split_gain=0.0510781 0.24254 0.830616 1.25506 0.561632 0.765002 0.885951 0.240505 0.148866 0.429292 0.847653 0.406464 0.600799 2.51137
threshold=1.8961900000000002e-05 -6.518324999999999 11.472500000000002 1.1593750000000003 0.00014721100000000004 5.2362800000000006e-05 -0.30445799999999995 2.3034700000000002e-05 -6.5572499999999989 11.152950000000002 0.80796800000000013 8.5393400000000015e-05 -2.5501699999999999e-07 5.4080950000000009e-05
decision_type=2 2 2 2 2 2 2 2 2 2 2 2 2 2
left_child=8 -2 4 -4 5 6 -3 -7 -1 11 -11 12 13 -10
right_child=1 2 3 -5 -6 7 -8 -9 9 10 -12 -13 -14 -15
leaf_value=-3.1893068848763827e-06 3.89728937439425e-05 0.047803559723044078 0.0037239636207232248 0.05058924721398398 -0.0010426782087450295 0.016315577437688425 0.008152997263277938 -0.0010723197441734555 -0.006445137409782792 -0.0059927622547547802 0.035819726294721473 -0.0030571883710412313 -0.00089118256899936815 0.05850046542473137
leaf_weight=13094 6974 21 36 20 509 22 32 96 37 24 20 1241 151 21
leaf_count=13094 6974 21 36 20 509 22 32 96 37 24 20 1241 151 21
internal_value=0 0.000312282 0.00290203 0.0204616 0.00145595 0.0088934 0.0238636 0.00216949 -0.000165046 -0.00158362 0.0130129 -0.00202655 0.00409316 0.0170696
internal_weight=0 7710 736 56 680 171 53 118 14588 1494 44 1450 209 58
internal_count=22298 7710 736 56 680 171 53 118 14588 1494 44 1450 209 58
shrinkage=0.15


Tree=31
num_leaves=15
num_cat=0
split_feature=11 31 19 33 21 24 31 11 11 31 23 3 21 3
split_gain=0.0564249 1.45146 1.48655 3.02564 1.41456 1.27971 0.533878 2.76769 1.96762 2.33368 1.38945 1.17425 1.27034 0.985778
threshold=-4.7457199999999997e-05 0.060895100000000008 4.0609300000000004e-05 -4.7080299999999992e-06 -3.9501949999999995 0.24043700000000004 0.046265150000000012 -1.3820699999999998e-05 -1.3820699999999998e-05 0.015932000000000005 -11.717349999999998 -12.474749999999998 -2.2625849999999996 -11.89805
decision_type=2 2 2 2 2 2 2 2 2 2 2 2 2 2
left_child=1 -1 3 4 -3 -6 8 10 9 -2 11 12 -8 -12
right_child=6 2 -4 -5 5 -7 7 -9 -10 -11 13 -13 -14 -15
leaf_value=-0.0012320017850225343 -0.0058671491173709353 0.016689231575790994 0.0024942485111626761 -0.0035184778511099845 0.079650255399090888 0.031996212244121122 0.038216012618398625 -0.0030687346138929946 0.0013440825604279117 0.0070464851882622217 -0.0040429063685683553 -0.0039880890595790242 0.0024336463739334999 0.012933110070409242
leaf_weight=3442 1814 56 1259 93 21 32 33 4326 9775 381 91 407 69 499
leaf_count=3442 1814 56 1259 93 21 32 33 4326 9775 381 91 407 69 499
internal_value=0 0.000449443 0.0044108 0.016356 0.0333131 0.050878 -0.000126681 -0.00136106 0.000432758 -0.00362565 0.00536089 -0.00038134 0.0140103 0.0103148
internal_weight=0 4903 1461 202 109 53 17395 5425 11970 2195 1099 509 102 590
internal_count=22298 4903 1461 202 109 53 17395 5425 11970 2195 1099 509 102 590
shrinkage=0.15


Tree=32
num_leaves=15
num_cat=0
split_feature=39 19 33 3 30 11 29 29 0 23 21 0 20 13
split_gain=0.0535464 0.501359 3.3026 1.56169 1.49438 1.29242 5.4038 2.07855 2.34478 1.57105 1.33195 1.28522 0.970246 0.889715
threshold=1.7267950000000005e-05 7.6666750000000014e-08 -5.1653849999999984e-07 -5.9773749999999994 0.00024013050000000003 1.6025900000000002e-05 -0.0017571099999999999 -0.0021837799999999993 3.8797800000000007 -7.7439199999999992 6.1674900000000017 3.8797800000000007 1.6452800000000003 4.0561350000000011e-05
decision_type=2 2 2 2 2 2 2 2 2 2 2 2 2 2
left_child=1 2 3 4 5 7 9 8 -1 -7 -10 13 -13 -9
right_child=-2 -3 -4 -5 -6 6 -8 11 10 -11 -12 12 -14 -15
leaf_value=-0.013700631628509517 0.0002337640211438354 -0.00073106959698938576 -0.0047214238639654606 -0.00098167001836730662 0.0010816060951170088 0.064756026854417448 -0.0095336483960801899 0.026377989902560198 -0.00049209265038371083 0.021490483498200773 0.052993171759457752 -0.014795844408217816 0.025667594703845678 -0.0046977250305328356
leaf_weight=119 11086 8981 983 389 264 58 55 210 20 28 22 40 20 23
leaf_count=119 11086 8981 983 389 264 58 55 210 20 28 22 40 20 23
internal_value=0 -0.000231137 0.00178137 0.00690336 0.0104741 0.0146415 0.027186 0.0107456 -0.00294638 0.0506696 0.027524 0.0182691 -0.00130803 0.0233104
internal_weight=0 11212 2231 1248 859 595 141 454 161 86 42 293 60 233
internal_count=22298 11212 2231 1248 859 595 141 454 161 86 42 293 60 233
shrinkage=0.15


Tree=33
num_leaves=15
num_cat=0
split_feature=19 33 13 25 7 23 3 14 3 20 28 0 20 20
split_gain=0.0537043 1.14139 1.28258 1.27348 1.76292 1.18681 1.88202 1.81405 1.07794 1.00283 1.1899 1.3993 2.28294 2.0111
threshold=0.00045611650000000002 5.5932250000000001e-06 -1.3883599999999999e-05 3.2512000000000003 5.2731350000000011e-05 -14.375449999999999 -14.548599999999999 0.0023768750000000005 -8.4891399999999972 -6.908199999999999 -0.021357199999999996 4.8287050000000011 4.4684250000000008 5.0566400000000007
decision_type=2 2 2 2 2 2 2 2 2 2 2 2 2 2
left_child=-1 -2 3 4 5 6 -3 8 9 -7 -11 12 -12 -13
right_child=1 2 -4 -5 -6 7 -8 -9 -10 10 11 13 -14 -15
leaf_value=-0.0001994811806610484 -0.00080879433591800928 0.030581585020281191 0.00042127752535801172 -0.0016807205038436651 0.0021271110316048937 0.0048448064651053684 -0.0089422645303420725 -0.0020581260572985877 0.0033695327419349373 0.0020830268296413122 0.043469362918735488 0.02584146922454238 -0.0093554393562953926 0.08811940282051052
leaf_weight=12857 6606 41 1828 272 327 26 80 56 34 20 79 20 24 28
leaf_count=12857 6606 41 1828 272 327 26 80 56 34 20 79 20 24 28
internal_value=0 0.000271659 0.00278929 0.00708791 0.0103329 0.0169096 0.00445011 0.0221626 0.0280342 0.0322911 0.0364642 0.041018 0.0311607 0.0621703
internal_weight=0 9441 2835 1007 735 408 121 287 231 197 171 151 103 48
internal_count=22298 9441 2835 1007 735 408 121 287 231 197 171 151 103 48
shrinkage=0.15


Tree=34
num_leaves=15
num_cat=0
split_feature=7 20 0 3 23 11 35 0 3 11 20 0 38 4
split_gain=0.0617531 0.307893 2.19448 2.08328 1.21341 1.56624 0.728824 0.332459 0.426398 0.400706 0.30288 1.76925 0.679272 1.9246
threshold=4.7075400000000007e-05 -8.9546649999999985 -8.8041249999999973 -5.8709549999999995 -8.8168249999999979 -3.8506649999999998e-05 -0.00020296399999999995 -8.043944999999999 -6.0418049999999992 -3.4860049999999992e-05 -8.2413599999999985 -7.4403249999999987 0.00024943800000000005 -0.066919399999999976
decision_type=2 2 2 2 2 2 2 2 2 2 2 2 2 2
left_child=10 2 3 4 -2 -6 -7 8 9 -3 11 12 -1 -14
right_child=1 7 -4 -5 5 6 -8 -9 -10 -11 -12 -13 13 -15
leaf_value=0.0052149481282218139 0.0011529530922416596 -0.0011107060442625304 -0.0010587372460810842 -0.0013937536546924187 0.0060401531729756082 0.071649051904678338 0.038310537998768268 0.00048487579178137794 0.00058841385630330483 -0.0076956609012304401 3.4214650191675668e-05 -0.0044195805438182736 0.051477904635248706 -0.0037243051292736909
leaf_weight=112 24 433 650 77 23 25 36 6794 792 400 11705 1170 30 27
leaf_count=112 24 433 650 77 23 25 36 6794 792 400 11705 1170 30 27
internal_value=0 0.000296366 0.00304371 0.0174577 0.0308981 0.0393968 0.0519739 2.38829e-05 -0.00190349 -0.00427275 -0.000210255 -0.00234731 0.0119991 0.0253295
internal_weight=0 9254 835 185 108 84 61 8419 1625 833 13044 1339 169 57
internal_count=22298 9254 835 185 108 84 61 8419 1625 833 13044 1339 169 57
shrinkage=0.15


Tree=35
num_leaves=15
num_cat=0
split_feature=11 31 13 7 24 2 23 36 14 19 31 11 11 31
split_gain=0.0516139 0.995723 1.17093 0.578529 0.904256 0.537171 0.464446 0.678038 0.477296 0.42533 0.393393 1.82345 1.51955 1.8409
threshold=-4.7457199999999997e-05 0.14223150000000004 0.00010003855 4.8273800000000005e-05 0.92477500000000001 2.6109400000000007 -8.2647199999999987 0.0036438750000000004 0.0023768750000000005 7.3671800000000008e-05 0.041261750000000007 -1.2586399999999999e-05 -1.1167499999999999e-05 0.015596550000000002
decision_type=2 2 2 2 2 2 2 2 2 2 2 2 2 2
left_child=1 -1 3 4 5 6 7 8 -3 -9 12 -12 13 -2
right_child=10 2 -4 -5 -6 -7 -8 9 -10 -11 11 -13 -14 -15
leaf_value=-0.00064535185319741556 -0.0047687122613376248 0.019619022053666411 -0.00098295058293593738 0.0048496396261788035 0.043026432742708891 0.031254210812039669 -0.0056113178101301082 0.041747732016268517 -0.0025315253637605705 0.015663638774556322 0.0039860862985163243 -0.0025625182769662322 0.0012414023703599792 0.0066304542151816087
leaf_weight=3913 2034 33 449 292 23 28 39 22 65 39 1220 4433 9330 378
leaf_count=3913 2034 33 449 292 23 28 39 22 65 39 1220 4433 9330 378
internal_value=0 0.000429856 0.00467964 0.00937928 0.0146911 0.0118075 0.00905742 0.0126554 0.00492733 0.025071 -0.00012116 -0.00114923 0.000373789 -0.00298228
internal_weight=0 4903 990 541 249 226 198 159 98 61 17395 5653 11742 2412
internal_count=22298 4903 990 541 249 226 198 159 98 61 17395 5653 11742 2412
shrinkage=0.15


Tree=36
num_leaves=15
num_cat=0
split_feature=13 32 31 11 10 24 11 3 5 21 1 3 15 15
split_gain=0.0579216 0.209228 0.104527 1.26822 0.781771 1.24743 0.462392 0.129677 0.103405 0.340179 2.5333 0.895523 1.15823 0.79928
threshold=7.7433650000000007e-05 16.002050000000004 2.0316600000000005 -4.0479249999999994e-05 4.0857400000000006e-05 -1.1249249999999997 -0.00016108599999999998 -6.8924949999999994 1.8961900000000002e-05 8.9762600000000017 8.503045000000002 -5.7568699999999984 -2.2807299999999995e-07 2.9146350000000009e-07
decision_type=2 2 2 2 2 2 2 2 2 2 2 2 2 2
left_child=2 -2 8 4 5 -4 -6 -5 -1 -10 -11 12 -12 -14
right_child=1 -3 3 7 6 -7 -8 -9 9 10 11 -13 13 -15
leaf_value=-0.00047577131136987357 0.00036174200294995535 0.012721229229927919 0.0025237326925732838 -0.00367003625224118 0.020434838865185156 0.043603048179871762 -0.006521647195786056 0.0010471291850129611 -9.0112616241221728e-05 -0.0021842745219054524 -0.0010853378956380765 0.0026306577021890181 0.044073237948759926 0.010930479775627397
leaf_weight=10912 5242 31 29 292 22 39 41 238 4858 436 25 47 64 22
leaf_count=10912 5242 31 29 292 22 39 41 238 4858 436 25 47 64 22
internal_value=0 0.000434404 -0.000134544 0.00171475 0.0149304 0.0260839 0.00289173 -0.00155176 -0.000209244 0.000324203 0.00371266 0.0199852 0.0273336 0.0355949
internal_weight=0 5273 17025 661 131 68 63 530 16364 5452 594 158 111 86
internal_count=22298 5273 17025 661 131 68 63 530 16364 5452 594 158 111 86
shrinkage=0.15


Tree=37
num_leaves=15
num_cat=0
split_feature=3 21 21 34 14 34 20 0 0 38 9 20 0 0
split_gain=0.0558711 0.252033 0.193296 0.145741 0.134453 2.37536 0.722911 7.11603 3.18258 1.74854 1.20905 0.855528 5.12004 2.42862
threshold=-6.0660849999999993 17.104850000000003 -14.668149999999999 0.008717105000000001 0.00017606900000000002 0.017854750000000003 8.1619350000000015 7.1825050000000008 7.544995000000001 6.7990150000000015e-05 3.1133400000000009e-05 -7.3959049999999991 -6.8858449999999989 -7.3126599999999993
decision_type=2 2 2 2 2 2 2 2 2 2 2 2 2 2
left_child=4 2 -2 -4 5 6 8 -8 11 10 -9 12 -1 -13
right_child=1 -3 3 -5 -6 -7 7 9 -10 -11 -12 13 -14 -15
leaf_value=0.040490003888525306 0.011175777675030198 0.013538092009680853 -0.0014785022480088841 0.00071596341117335937 5.8911924252736125e-05 -0.0043713849196403689 -0.01298218093546776 0.0067594798391356183 -0.012187850100474013 0.073914026118814952 0.042618679081455675 -0.010720917329454094 -0.015158907310180967 0.014063442911433636
leaf_weight=93 37 33 846 3490 15102 1780 124 34 232 25 56 140 62 244
leaf_count=93 37 33 846 3490 15102 1780 124 34 232 25 56 140 62 244
internal_value=0 0.000478475 0.000379923 0.0002878 -0.000117827 -0.0010745 0.00473586 0.0119436 0.00250154 0.0388202 0.0290719 0.00882425 0.0182304 0.00502748
internal_weight=0 4406 4373 4336 17892 2790 1010 239 771 115 90 539 155 384
internal_count=22298 4406 4373 4336 17892 2790 1010 239 771 115 90 539 155 384
shrinkage=0.15


Tree=38
num_leaves=15
num_cat=0
split_feature=39 4 38 4 23 3 3 3 23 23 3 3 29 24
split_gain=0.0485231 0.419009 1.52626 2.43848 1.11066 3.09155 2.64538 1.66888 2.22397 1.49471 2.01723 1.7585 1.05102 0.741642
threshold=1.8053650000000003e-05 0.21259850000000002 -0.0012597349999999999 1.0464400000000003 -12.376299999999999 -13.060049999999999 -12.678699999999997 -7.0056449999999986 -6.8832049999999994 -8.3693049999999989 -8.6049549999999986 -8.7792149999999989 -0.012745949999999997 0.25257150000000006
decision_type=2 2 2 2 2 2 2 2 2 2 2 2 2 2
left_child=-1 13 3 4 5 -3 -6 9 -9 11 -11 12 -8 -2
right_child=1 2 -4 -5 6 -7 7 8 -10 10 -12 -13 -14 -15
leaf_value=-0.00021660086404211933 0.00069409501889163819 0.029781122790539964 -0.0011503656971302266 0.00024676065022481366 -0.0040310264788690556 -0.005023267451585941 0.093519757450981567 -0.0033482837207591699 0.0500343165337108 -0.0075179668402092321 0.053671114730902691 0.016317093386314808 0.050041582396831999 -0.0023946458259380809
leaf_weight=11387 5093 85 1815 797 76 177 22 59 25 27 22 20 29 2664
leaf_count=11387 5093 85 1815 797 76 177 22 59 25 27 22 20 29 2664
internal_value=0 0.00022605 0.00168381 0.00552551 0.0132878 0.00626823 0.0198561 0.0287553 0.0125394 0.0401063 0.0199547 0.0540138 0.0687969 -0.000366677
internal_weight=0 10911 3154 1339 542 262 280 204 84 120 49 71 51 7757
internal_count=22298 10911 3154 1339 542 262 280 204 84 120 49 71 51 7757
shrinkage=0.15


Tree=39
num_leaves=15
num_cat=0
split_feature=14 21 39 3 22 3 3 14 34 34 3 21 1 14
split_gain=0.0522772 0.126768 0.195736 1.1207 1.0573 0.147792 0.146881 0.0742333 0.922368 0.524746 0.522058 0.612039 2.76382 0.462437
threshold=6.2799850000000012e-05 10.337350000000002 9.5885350000000014e-07 -5.8532899999999985 -0.63044599999999995 -6.4251549999999993 -6.1926199999999989 0.00032540650000000004 0.025461900000000006 0.022130950000000003 -6.2311749999999995 -9.3396699999999981 -9.7711149999999982 0.0067837250000000009
decision_type=2 2 2 2 2 2 2 2 2 2 2 2 2 2
left_child=1 2 3 4 -1 -4 -3 8 -2 13 11 12 -10 -9
right_child=7 6 5 -5 -6 -7 -8 9 10 -11 -12 -13 -14 -15
leaf_value=-0.0027276833305950278 0.0016553249439216966 -0.015496940966695547 -0.0042777388952806809 -0.0036705291990559389 0.04150873099194629 0.00096250330713803622 -0.0016744921363354593 -0.0022852970376154263 0.054850449854910201 0.00080267832842969699 0.00014076514266073503 -0.0042249969451031918 -0.004093653304153122 0.00062790457845622876
leaf_weight=20 2548 20 130 90 31 1768 128 3024 22 8980 1404 1975 96 2062
leaf_count=20 2548 20 130 90 31 1768 128 3024 22 8980 1404 1975 96 2062
internal_value=0 0.000696477 0.00100415 0.00639624 0.0241611 0.000603583 -0.00354239 -7.57394e-05 -0.000515343 0.000113184 -0.00209694 -0.00359802 0.00689593 -0.00110421
internal_weight=0 2187 2039 141 51 1898 148 20111 6045 14066 3497 2093 118 5086
internal_count=22298 2187 2039 141 51 1898 148 20111 6045 14066 3497 2093 118 5086
shrinkage=0.15


Tree=40
num_leaves=15
num_cat=0
split_feature=37 17 26 19 13 14 34 34 13 3 10 19 26 3
split_gain=0.0408467 0.605577 1.06624 1.81203 1.35888 0.880305 3.43356 1.10508 2.24181 0.862036 0.459491 0.448353 0.702554 0.527133
threshold=-1.5159999999999998e-07 2.1744400000000004e-08 7.5268950000000011e-05 7.9041000000000004e-05 1.3467450000000001e-05 0.0041861650000000012 0.28311400000000003 0.061870450000000007 3.182580000000001e-05 -9.9278899999999979 2.4647200000000003e-05 0.00025134050000000008 -4.8340799999999996e-05 -6.3033449999999993
decision_type=2 2 2 2 2 2 2 2 2 2 2 2 2 2
left_child=1 2 -1 4 -4 7 -7 8 -6 10 -9 13 -13 -3
right_child=-2 11 3 -5 5 6 -8 9 -10 -11 -12 12 -14 -15
leaf_value=-0.00037530425078444147 -0.00012692243126933889 -0.0040963525854653361 -0.0012490219568751534 0.00038001199347740909 0.055778888110561586 -0.0015632986057815808 0.085278872027993197 0.012686509425823696 -0.0062649009050801396 -0.00095497679520541656 0.037240076106455591 0.0035969921470310443 -0.0018301923737164883 0.00054295451926641752
leaf_weight=1109 16032 1290 85 422 38 21 20 47 20 78 27 1086 1061 962
leaf_count=1109 16032 1290 85 422 38 21 20 47 20 78 27 1086 1061 962
internal_value=0 0.00032474 0.00258827 0.00692415 0.0151433 0.0206945 0.0407987 0.0167693 0.0343845 0.0100478 0.0216452 -0.000635934 0.000914997 -0.00211455
internal_weight=0 6266 1867 758 336 251 41 210 58 152 74 4399 2147 2252
internal_count=22298 6266 1867 758 336 251 41 210 58 152 74 4399 2147 2252
shrinkage=0.15


Tree=41
num_leaves=15
num_cat=0
split_feature=15 35 35 15 15 1 28 4 21 20 7 9 24 38
split_gain=0.0489313 1.54062 1.00301 0.863051 0.690734 0.617111 1.44365 1.16608 0.838277 0.830245 0.611496 0.808727 3.80156 2.04815
threshold=-1.4305749999999997e-07 -0.00081900949999999995 -0.00084634199999999982 -8.6709949999999985e-06 -1.9074249999999998e-05 4.1257350000000015 0.037621450000000008 0.18586750000000002 4.7767350000000013 2.2640200000000008 5.801670000000001e-05 5.3509350000000006e-06 -0.104141 -0.00034044749999999991
decision_type=2 2 2 2 2 2 2 2 2 2 2 2 2 2
left_child=1 4 -2 -3 -1 8 -7 9 10 -8 11 13 -13 -6
right_child=2 3 -4 -5 5 6 7 -9 -10 -11 -12 12 -14 -15
leaf_value=-0.00010682555283809066 -0.0018053910253424178 0.00017687745433345623 0.00095539848796156145 -0.0035803408851851327 0.018926466160972429 -0.0025314713625256202 -0.0065619918526083768 0.050551485369869621 -0.0028125293191774321 0.02744408281520009 0.0020131017734488603 0.035602075158656293 -0.0055513473206581215 -0.0054647621538905485
leaf_weight=973 4152 2800 10321 2704 165 426 35 20 143 30 171 129 83 146
leaf_count=973 4152 2800 10321 2704 165 426 35 20 143 30 171 129 83 146
internal_value=0 -0.000302196 0.000163386 -0.00166897 0.00293895 0.00513742 0.00102989 0.0188786 0.00764512 0.00913312 0.00979994 0.0123459 0.0194901 0.00747592
internal_weight=0 7825 14473 5504 2321 1348 511 85 837 65 694 523 212 311
internal_count=22298 7825 14473 5504 2321 1348 511 85 837 65 694 523 212 311
shrinkage=0.15


Tree=42
num_leaves=15
num_cat=0
split_feature=4 38 38 4 4 39 3 23 4 3 3 4 38 4
split_gain=0.0537533 3.24705 2.49647 1.72838 1.22526 2.60571 2.23282 1.75486 1.25083 1.6598 1.17653 1.02568 1.39792 1.39077
threshold=-0.066919399999999976 2.6721550000000005e-05 2.6721550000000005e-05 -0.71036149999999987 -0.0086232949999999978 3.8185000000000008e-06 -7.2104349999999995 -7.8342649999999994 0.95366300000000004 -6.0660849999999993 -6.0660849999999993 0.017115750000000002 1.0000000180025095e-35 0.70090000000000008
decision_type=2 2 2 2 2 2 2 2 2 2 2 2 2 2
left_child=1 3 11 -1 5 6 7 -4 9 -6 -5 12 -2 -13
right_child=2 -3 4 10 8 -7 -8 -9 -10 -11 -12 13 -14 -15
leaf_value=5.1054671105365557e-05 -0.0037548368582164546 0.0025040297191400948 0.061671978958183896 -0.0073635223895084524 -0.0065053584018523892 -0.0011794485034468689 0.0057287888434154367 0.012179695720422186 0.0003255764908058318 0.00059649121913146091 9.3006213394521465e-05 0.0049635468499472342 0.027728583269411255 0.00011726355255466011
leaf_weight=2271 826 4810 40 2009 2467 494 92 27 1996 1058 624 3330 33 2221
leaf_count=2271 826 4810 40 2009 2467 494 92 27 1996 1058 624 3330 33 2221
internal_value=0 -0.000265076 0.000204621 -0.0029811 -0.00194811 0.00419622 0.020898 0.0417273 -0.00267484 -0.0043738 -0.00559638 0.0022781 -0.00254535 0.00302451
internal_weight=0 9714 12584 4904 6174 653 159 67 5521 3525 2633 6410 859 5551
internal_count=22298 9714 12584 4904 6174 653 159 67 5521 3525 2633 6410 859 5551
shrinkage=0.15


Tree=43
num_leaves=15
num_cat=0
split_feature=39 4 4 4 3 3 21 9 20 24 4 7 16 20
split_gain=0.0426762 0.170766 0.43679 0.188735 0.50119 1.10857 0.383851 0.506253 0.833417 0.413339 1.00825 0.403523 0.341416 0.879753
threshold=1.27206e-06 0.097214650000000014 0.33837000000000006 -0.084079799999999996 -8.4607949999999992 -5.9574799999999994 10.970250000000002 4.1540900000000001e-05 10.745300000000002 -0.074156999999999987 -0.040441799999999993 2.7259350000000005e-05 -3.824109999999999e-08 6.147990000000001
decision_type=2 2 2 2 2 2 2 2 2 2 2 2 2 2
left_child=1 3 -3 -1 -5 6 7 8 9 10 -6 -11 -13 -14
right_child=-2 2 -4 4 5 -7 -8 -9 -10 11 -12 12 13 -15
leaf_value=-0.00083244114872539079 7.5244517149658573e-05 -0.0065219317633558862 0.00024317312930202396 -0.0055614316347142667 0.040399213250854923 -0.0033740272085851755 0.03010292995073225 0.028245769177788288 -0.017456826138206653 -0.013272366214951035 -0.0033791420799389013 0.021013235761067613 -0.014004823713912628 0.022402870242616956
leaf_weight=1080 19707 336 595 133 29 200 23 29 27 20 20 39 32 28
leaf_count=1080 19707 336 595 133 29 200 23 29 27 20 20 39 32 28
internal_value=0 -0.000572306 -0.00219837 0.000339661 0.0025222 0.00492739 0.0116492 0.00975438 0.00700438 0.0109357 0.0225305 0.0061613 0.0100873 0.00298543
internal_weight=0 2591 931 1660 580 447 247 224 195 168 49 119 99 60
internal_count=22298 2591 931 1660 580 447 247 224 195 168 49 119 99 60
shrinkage=0.15


Tree=44
num_leaves=15
num_cat=0
split_feature=23 3 14 20 21 1 2 22 3 3 21 12 23 14
split_gain=0.0485482 2.24493 0.991455 1.46067 0.36547 1.48224 0.816973 1.5803 0.299126 0.287066 0.251822 0.275747 0.223092 0.225653
threshold=-15.447399999999998 -15.748799999999997 0.0050396650000000013 2.4290000000000007 2.5633500000000002 1.3632550000000003 -1.3276849999999998 -1.3165899999999997 -8.5562249999999977 -15.501799999999998 -7.6390449999999985 -7.5185999999999995e-05 -8.1484599999999983 0.014849550000000001
decision_type=2 2 2 2 2 2 2 2 2 2 2 2 2 2
left_child=1 2 3 -1 6 -6 7 -4 10 12 11 -3 13 -2
right_child=9 8 4 -5 5 -7 -8 -9 -10 -11 -12 -13 -14 -15
leaf_value=0.013835675625928811 -0.0055600693588362532 0.015943077246287001 0.042815050260958672 0.064651585333049294 -0.0042640207870415624 0.048011510560046072 -0.0048725998648335104 -0.0098350545310455818 0.0008109404361865268 7.8293057257114906e-05 -0.0029795520457099258 -0.0014291177620949524 0.00023748588498865303 -0.00068952643879524242
leaf_weight=35 530 34 29 20 26 23 76 23 1426 17973 1136 52 556 359
leaf_count=35 530 34 29 20 26 23 76 23 1426 17973 1136 52 556 359
internal_value=0 0.000574713 0.0147232 0.0323142 0.00925713 0.0202735 0.00503994 0.0195275 -0.000664887 -8.52391e-05 -0.00238709 0.00543896 -0.00211926 -0.00359322
internal_weight=0 2880 232 55 177 49 128 52 2648 19418 1222 86 1445 889
internal_count=22298 2880 232 55 177 49 128 52 2648 19418 1222 86 1445 889
shrinkage=0.15


Tree=45
num_leaves=15
num_cat=0
split_feature=23 3 3 14 25 14 19 33 14 23 39 20 20 23
split_gain=0.0355793 0.779762 1.16215 0.309595 0.117058 0.136166 0.0545457 1.43157 1.01167 2.59734 2.42923 1.90534 1.81231 1.47458
threshold=-6.0874249999999988 -6.1926199999999989 -5.8314849999999989 0.00052619350000000017 3.974955 0.00016267400000000002 1.3371400000000003e-07 -5.1653849999999984e-07 0.00017158350000000004 -7.1221599999999992 8.8485300000000012e-05 8.1619350000000015 -6.8075899999999985 -7.5119499999999997
decision_type=2 2 2 2 2 2 2 2 2 2 2 2 2 2
left_child=6 3 -3 4 5 -2 7 8 13 10 11 12 -10 -1
right_child=1 2 -4 -5 -6 -7 -8 -9 9 -11 -12 -13 -14 -15
leaf_value=-0.002208136966533639 -0.022079835995100439 0.034035962139023469 -0.0013610143450205213 -0.0015213109628432391 -0.0048707096563053442 -0.0087177368510015802 -9.3858949198951056e-05 -0.0024023503868857939 -0.0061495841281222442 -0.011010466955351721 -0.0021917465112260364 -0.01031016531231051 0.022589677425851818 0.0084238024653122863
leaf_weight=1118 32 32 60 238 42 37 17350 2075 56 152 236 55 417 398
leaf_count=1118 32 32 60 238 42 37 17350 2075 56 152 236 55 417 398
internal_value=0 -0.00133393 0.010951 -0.00457236 -0.0111142 -0.0149147 2.69142e-05 0.000491838 0.00296118 0.00689696 0.0104597 0.0161145 0.0191871 0.000583098
internal_weight=0 441 92 349 111 69 21857 4507 2432 916 764 528 473 1516
internal_count=22298 441 92 349 111 69 21857 4507 2432 916 764 528 473 1516
shrinkage=0.15


Tree=46
num_leaves=15
num_cat=0
split_feature=39 19 33 14 23 23 33 13 4 4 31 7 22 14
split_gain=0.0402971 0.230834 2.19305 1.15832 6.26453 1.72772 1.01958 0.972045 1.49796 1.25916 0.891938 0.91321 1.63698 0.877573
threshold=2.7466600000000002e-05 2.6393800000000007e-07 -2.3256649999999995e-07 0.00029359200000000007 -8.8665399999999988 -9.0362549999999988 1.0000000180025095e-35 -4.4920299999999995e-07 -0.192105 0.19323650000000001 -0.089111699999999988 3.5486300000000006e-05 -1.9905599999999997 0.0015300550000000002
decision_type=2 2 2 2 2 2 2 2 2 2 2 2 2 2
left_child=1 2 3 5 10 -1 13 8 -8 -10 -5 12 -12 -3
right_child=-2 6 -4 4 -6 -7 7 -9 9 -11 11 -13 -14 -15
leaf_value=-0.0055708215895252855 0.00022384413920251191 -0.0041295361103351313 -0.0037051472334969447 0.0034158706931131226 -0.0051008978863042575 0.0061935279997015428 -0.0045796467963536624 -0.0008978272910139662 0.0083821625568834511 -0.0015037547702898236 0.01435299973715754 0.021496493644936353 0.054200734733922833 -0.0001739940410688356
leaf_weight=438 9989 2323 1295 28 268 783 392 2302 1121 391 34 98 73 2763
leaf_count=438 9989 2323 1295 28 268 783 392 2302 1121 391 34 98 73 2763
internal_value=0 -0.000181654 0.000958324 0.00446541 0.0105388 0.00197339 -0.000551791 0.00117604 0.00368341 0.00582569 0.0285277 0.0319576 0.0415388 -0.00198066
internal_weight=0 12309 3017 1722 501 1221 9292 4206 1904 1512 233 205 107 5086
internal_count=22298 12309 3017 1722 501 1221 9292 4206 1904 1512 233 205 107 5086
shrinkage=0.15


Tree=47
num_leaves=15
num_cat=0
split_feature=7 20 0 38 4 13 15 0 20 0 3 13 37 3
split_gain=0.0388276 0.16144 0.892 0.545163 1.25903 0.33387 0.263667 0.221335 1.05986 1.03577 0.316977 0.39556 0.196698 0.183137
threshold=4.7075400000000007e-05 -8.2413599999999985 -7.4403249999999987 0.00024943800000000005 -0.066919399999999976 4.0561350000000011e-05 -3.9843549999999994e-07 -7.4403249999999987 -7.3959049999999991 -8.9347549999999973 -6.0660849999999993 3.7806000000000004e-05 2.4814450000000007e-06 -5.9150349999999987
decision_type=2 2 2 2 2 2 2 2 2 2 2 2 2 2
left_child=1 2 3 6 -5 12 -1 8 9 -3 11 -10 13 -4
right_child=-2 7 5 4 -6 -7 -8 -9 10 -11 -12 -13 -14 -15
leaf_value=0.013889519620897772 0.00023500076923123136 -0.0052217150363999699 -0.0070900744542302923 0.041551047014072535 -0.0030971417882634947 0.00058727969012454075 -0.002220952898069299 0.00023881464409528731 -0.0070626403274997879 0.037939974852709162 0.00043424356277662376 9.5869652121212498e-05 -0.00012870232141930772 5.5076662192732327e-06
leaf_weight=32 9254 22 555 30 27 362 80 10440 504 29 445 265 157 96
leaf_count=32 9254 22 555 30 27 362 80 10440 504 29 445 265 157 96
internal_value=0 -0.00016672 -0.00172694 0.00845975 0.0204019 -0.00319835 0.00238204 1.17625e-05 -0.00186209 0.0193212 -0.002752 -0.00459579 -0.00489439 -0.00604372
internal_weight=0 13044 1339 169 57 1170 112 11705 1265 51 1214 769 808 651
internal_count=22298 13044 1339 169 57 1170 112 11705 1265 51 1214 769 808 651
shrinkage=0.15


Tree=48
num_leaves=15
num_cat=0
split_feature=23 3 14 23 3 3 19 29 36 3 3 21 12 23
split_gain=0.0357142 1.56093 0.696458 0.894663 1.25448 0.561186 0.461415 0.690339 0.260981 0.246361 0.207414 0.187044 0.19733 0.183372
threshold=-15.447399999999998 -15.748799999999997 0.007300430000000001 -17.401049999999994 -16.859749999999995 -16.859749999999995 0.0013837450000000002 0.0077602100000000009 -0.029879349999999995 -8.5562249999999977 -15.501799999999998 -7.6390449999999985 -7.5185999999999995e-05 -8.1484599999999983
decision_type=2 2 2 2 2 2 2 2 2 2 2 2 2 2
left_child=1 2 3 4 -1 -5 7 -4 -8 11 13 12 -3 -2
right_child=10 9 6 5 -6 -7 8 -9 -10 -11 -12 -13 -14 -15
leaf_value=0.03298236676608212 -0.0031383905412135202 0.013526999217677202 0.032864974548075611 0.018061252012028656 -0.01950929917927299 0.050075212182543641 0.014584419754974078 -0.0031125907719667468 -0.0047846448949712787 0.00079863458667279107 6.5896250728523481e-05 -0.0026142660658972318 -0.0011688948190287471 0.00033460326415498987
leaf_weight=20 889 34 28 22 21 28 20 21 72 1426 17973 1136 52 556
leaf_count=20 889 34 28 22 21 28 20 21 72 1426 17973 1136 52 556
internal_value=0 0.000492929 0.0122908 0.0225209 0.00609639 0.0359891 0.00568829 0.017446 -0.000573979 -0.000540717 -7.31093e-05 -0.00210366 0.00464111 -0.00180207
internal_weight=0 2880 232 91 41 50 141 49 92 2648 19418 1222 86 1445
internal_count=22298 2880 232 91 41 50 141 49 92 2648 19418 1222 86 1445
shrinkage=0.15


Tree=49
num_leaves=15
num_cat=0
split_feature=20 0 6 23 7 3 33 20 22 2 0 22 20 3
split_gain=0.033866 0.188966 0.0329344 0.162137 0.448846 0.331944 0.174981 0.0564383 0.0557232 0.216957 1.1099 0.0596354 0.110551 0.376438
threshold=18.934700000000003 7.7758650000000005 -6.1646349999999984e-06 -6.4999049999999992 5.7311500000000009e-05 -6.3990199999999993 -3.1858049999999996e-06 11.091700000000001 -2.2516349999999998 -2.3856249999999997 -9.8644199999999973 0.21877800000000003 5.1367550000000017 -8.8143499999999975
decision_type=2 2 2 2 2 2 2 2 2 2 2 2 2 2
left_child=2 -2 3 8 5 -5 -6 -8 9 10 -1 -10 -13 -14
right_child=1 -3 -4 4 6 -7 7 -9 11 -11 -12 12 13 -15
leaf_value=-0.0043952316555607301 -0.0008328715965142371 0.015753641329938544 -7.759483883693202e-05 0.0024918288657707825 0.014126829654633183 0.027254627842520331 -0.0017544352591432136 0.0065586949661207783 -0.0011385168605350787 -9.9532682894347036e-05 0.031095960019733717 -0.00036586320849042264 0.012808455910132634 -0.00010259964334154711
leaf_weight=55 68 20 19648 21 20 29 147 21 874 316 31 779 68 201
leaf_count=55 68 20 19648 21 20 29 147 21 874 316 31 779 68 201
internal_value=0 0.00293679 -1.16361e-05 0.000494202 0.00422302 0.0168543 0.000863655 -0.000715294 0.000112335 0.00171837 0.0083981 -0.000223579 0.000539451 0.00316116
internal_weight=0 88 22210 2562 238 50 188 168 2324 402 86 1922 1048 269
internal_count=22298 88 22210 2562 238 50 188 168 2324 402 86 1922 1048 269
shrinkage=0.15


Tree=50
num_leaves=15
num_cat=0
split_feature=2 22 3 11 23 22 10 8 30 13 5 3 31 6
split_gain=0.0317195 3.46923 1.2973 1.43691 2.719 0.537171 0.519775 0.599058 0.401595 0.310458 0.296104 0.190161 0.167657 0.15171
threshold=2.4785100000000004 2.5246950000000008 -6.1453949999999988 -9.4295849999999996e-05 -12.773699999999998 2.5246950000000008 3.7139250000000009e-05 -5.918979999999999e-06 0.0025219750000000005 -9.2649699999999981e-06 1.3917200000000001e-05 -5.9574799999999994 7.3528600000000006 2.2021300000000004e-07
decision_type=2 2 2 2 2 2 2 2 2 2 2 2 2 2
left_child=5 10 3 8 -5 -1 7 -6 -3 11 -2 13 -12 -7
right_child=1 2 -4 4 6 9 -8 -9 -10 -11 12 -13 -14 -15
leaf_value=0.00018016498835746105 -0.0041983634460181713 -0.0025400835123686452 -0.0044156634264315162 0.00086090403822930276 0.057031774059869346 -0.0017183474256051018 0.063519204842547569 0.02031827199272811 0.023284978285082615 -0.0015058235155900345 -0.0004180430289713365 0.00039425352684032219 0.01253570739240588 -0.0097372930923626897
leaf_weight=18660 663 42 45 37 20 68 36 20 20 1350 996 76 23 242
leaf_count=18660 663 42 45 37 20 68 36 20 20 1350 996 76 23 242
internal_value=0 0.000585853 0.0182993 0.0241404 0.0342084 -5.46329e-05 0.0504433 0.038675 0.00579058 -0.00257844 -0.00173101 -0.00632982 -0.000125662 -0.0079783
internal_weight=0 1902 220 175 113 20396 76 40 62 1736 1682 386 1019 310
internal_count=22298 1902 220 175 113 20396 76 40 62 1736 1682 386 1019 310
shrinkage=0.15


Tree=51
num_leaves=15
num_cat=0
split_feature=23 3 13 34 3 23 3 3 16 5 8 21 8 20
split_gain=0.0325487 1.12003 0.428008 0.49537 1.17041 0.296878 1.51247 0.749901 0.680473 0.621777 0.410407 0.437007 0.392033 0.514873
threshold=-13.747299999999997 -13.453149999999999 0.00023070150000000002 0.077197050000000003 -15.282399999999997 -16.680599999999995 -17.219549999999995 -16.555249999999997 3.4630900000000005e-06 1.4079600000000002e-05 -9.1886899999999982e-06 -3.1887149999999997 3.1121200000000004e-06 -3.0532049999999997
decision_type=2 2 2 2 2 2 2 2 2 2 2 2 2 2
left_child=1 2 3 4 -1 6 8 -7 -5 10 -9 -12 13 -13
right_child=-2 -3 -4 5 -6 7 -8 9 -10 -11 11 12 -14 -15
leaf_value=-0.0046150373521186335 -9.17731812422938e-05 -0.0007731102003869743 -0.0015824471486875077 0.040574983860655077 0.039205018191205455 -0.0018873075451147003 -0.0031121078286143063 0.037286595569457862 0.0051203489503157994 0.0039659335760392645 0.031245600267110631 0.032969578630470023 -0.0063068390401262468 0.0062305877569976235
leaf_weight=24 17747 3697 166 29 32 107 229 24 21 99 31 26 23 43
leaf_count=24 17747 3697 166 29 32 107 229 24 21 99 31 26 23 43
internal_value=0 0.000357877 0.00525397 0.00690345 0.020425 0.00570534 0.00204849 0.00859559 0.025684 0.0131552 0.0193439 0.0158429 0.0106529 0.0163061
internal_weight=0 4551 854 688 56 632 279 353 50 246 147 123 92 69
internal_count=22298 4551 854 688 56 632 279 353 50 246 147 123 92 69
shrinkage=0.15


Tree=52
num_leaves=15
num_cat=0
split_feature=2 35 20 15 20 6 15 3 2 33 33 10 20 9
split_gain=0.0339825 0.0821176 0.171827 0.272626 0.0888196 0.0431147 0.0462188 0.0394617 0.0389405 0.0385859 0.0624898 0.0334064 0.463551 0.709514
threshold=-2.9850299999999996 -0.00024995149999999995 -6.242659999999999 -4.9996399999999987e-09 -6.908199999999999 -3.1834499999999993e-08 3.8573000000000004e-08 -12.836399999999999 -3.0364449999999996 -5.1653849999999984e-07 -1.0262299999999998e-05 3.0953850000000005e-05 6.6102350000000003 2.1642800000000006e-05
decision_type=2 2 2 2 2 2 2 2 2 2 2 2 2 2
left_child=1 2 3 -1 8 6 9 -4 -3 10 -6 12 -2 -14
right_child=11 4 7 -5 5 -7 -8 -9 -10 -11 -12 -13 13 -15
leaf_value=0.018273541665483457 0.0003234017487648745 -0.0047006962155657162 -0.0071400213034146214 -0.0035946997336830698 -0.0017078989185392854 3.3304180809913352e-05 6.1447493023980321e-05 -0.00035930495521456518 -0.013948945803567767 -0.0017703003183539424 -0.012114963223404414 0.00021568862849016365 -0.0033716266902768118 0.0040949040795870435
leaf_weight=29 8768 21 22 23 21 148 49 158 20 35 34 10868 1760 342
leaf_count=29 8768 21 22 23 21 148 49 158 20 35 34 10868 1760 342
internal_value=0 -0.00115372 0.00100605 0.00860105 -0.00268137 -0.00174842 -0.0036455 -0.00118806 -0.00921204 -0.00566372 -0.00814136 2.97214e-05 -0.000156212 -0.00215681
internal_weight=0 560 232 52 328 287 139 180 41 90 55 21738 10870 2102
internal_count=22298 560 232 52 328 287 139 180 41 90 55 21738 10870 2102
shrinkage=0.15


Tree=53
num_leaves=15
num_cat=0
split_feature=22 0 1 11 13 11 19 19 3 14 15 35 15 35
split_gain=0.0344454 0.0968061 0.279662 0.131505 0.376734 0.135665 0.0791496 0.0495408 0.04739 0.0471421 0.0361961 0.978209 0.579689 0.578071
threshold=-2.9943999999999997 -9.7577099999999977 -1.8392899999999999 -7.7323599999999993e-05 4.7508550000000011e-05 -4.1811249999999989e-06 2.5573700000000003e-06 8.904350000000001e-07 -6.2311749999999995 0.012822650000000003 -1.4305749999999997e-07 -0.00063141199999999992 -8.6709949999999985e-06 -0.00081900949999999995
decision_type=2 2 2 2 2 2 2 2 2 2 2 2 2 2
left_child=1 2 -1 4 -3 6 -5 8 -7 -6 11 -2 -13 -12
right_child=10 3 -4 5 9 7 -8 -9 -10 -11 13 12 -14 -15
leaf_value=-0.006552818447484501 0.0022111125557014591 0.017767577661184725 0.017927273505483753 -0.01342340436342449 -0.0092815592070110142 -0.00717447558579099 -0.0044172694291369731 -0.00025067738989863252 0.00052211499391382349 -0.00032431744643522854 -0.001341523824197902 0.00014936308725134399 -0.0030315389441324296 0.00077892994429570287
leaf_weight=21 2484 28 21 37 20 54 54 213 27 39 4056 2626 2532 10086
leaf_count=21 2484 28 21 37 20 54 54 213 27 39 4056 2626 2532 10086
internal_value=0 -0.0012137 0.00568723 -0.00182776 0.00343923 -0.00301797 -0.0080791 -0.00145142 -0.00460895 -0.00336067 2.86376e-05 -0.000234392 -0.0014121 0.000170773
internal_weight=0 514 42 472 87 385 91 294 81 59 21784 7642 5158 14142
internal_count=22298 514 42 472 87 385 91 294 81 59 21784 7642 5158 14142
shrinkage=0.15


Tree=54
num_leaves=15
num_cat=0
split_feature=23 1 0 14 36 17 17 5 8 6 27 1 21 34
split_gain=0.0293155 0.651069 0.394786 0.273327 0.154204 0.0852601 0.0863885 0.0658623 0.0541731 0.0394921 0.0363611 0.03232 1.4291 0.221893
threshold=-6.0874249999999988 11.736000000000002 11.064900000000002 0.00016623950000000003 0.0024593050000000006 -8.6168149999999979e-06 6.0826950000000007e-07 1.3218050000000003e-05 1.02146e-05 -2.3045899999999996e-06 0.34897100000000009 11.472500000000002 12.673150000000001 0.0057315500000000011
decision_type=2 2 2 2 2 2 2 2 2 2 2 2 2 2
left_child=11 2 3 4 7 8 10 -2 -5 -8 -7 -1 13 -13
right_child=1 -3 -4 5 -6 6 9 -9 -10 -11 -12 12 -14 -15
leaf_value=6.307638217817282e-05 -0.024123239843174816 0.025232220879988745 0.0135481210785656 9.9223512127840266e-05 -0.0050309244717936961 -0.0020864425172060562 0.0048324883611013105 -0.012095694789396866 0.0098359057758352717 -0.0016407312752436036 -0.0079542115418007597 -0.0082667690439008693 0.03694365549970164 -0.00090833052734635295
leaf_weight=20918 20 20 32 36 42 35 26 21 20 115 74 104 22 813
leaf_count=20918 20 20 32 36 42 35 26 21 20 115 74 104 22 813
internal_value=0 -0.00121083 -0.00246703 -0.00378447 -0.011419 -0.00171368 -0.00289871 -0.0179628 0.00357661 -0.000447088 -0.00607007 2.44304e-05 -0.000836482 -0.00174288
internal_weight=0 441 421 389 83 306 250 41 56 141 109 21857 939 917
internal_count=22298 441 421 389 83 306 250 41 56 141 109 21857 939 917
shrinkage=0.15


Tree=55
num_leaves=15
num_cat=0
split_feature=8 21 7 31 17 7 3 34 23 0 14 27 3 14
split_gain=0.0304302 0.395765 1.10806 0.725321 0.600158 0.209983 0.115112 0.100971 0.0609629 0.298641 0.162433 0.192238 0.124848 0.0759933
threshold=-2.6429649999999995e-05 7.6507000000000014 7.0814000000000017e-05 -0.016106049999999997 2.3419300000000001e-07 5.9500350000000007e-05 -5.9356799999999987 0.060838350000000006 -6.0874249999999988 11.064900000000002 0.00013992500000000003 0.83672900000000017 -6.3220499999999991 0.0018048000000000003
decision_type=2 2 2 2 2 2 2 2 2 2 2 2 2 2
left_child=1 5 3 -3 -5 6 7 -1 -2 10 11 -10 13 -12
right_child=8 2 -4 4 -6 -7 -8 -9 9 -11 12 -13 -14 -15
leaf_value=-0.011322197136768089 -1.2070394926797502e-05 -0.0023281379993105389 -0.00043184309107598145 0.041939042857848108 0.010322384500283409 0.00036236362906302898 -0.00064448569533447466 -0.0019682212912448447 -0.017777519844027912 0.012537676620995626 -0.005009338065321541 -0.0029052991023490907 0.010060296168085186 2.4560321116360362e-06
leaf_weight=74 20304 22 184 35 22 1129 81 40 33 30 122 48 20 154
leaf_count=74 20304 22 184 35 22 1129 81 40 33 30 122 48 20 154
internal_value=0 0.000633027 0.00594784 0.0208068 0.0297361 -0.000422709 -0.00496808 -0.0080401 -4.85063e-05 -0.00186619 -0.00301238 -0.00896435 -0.00138363 -0.0022129
internal_weight=0 1587 263 79 57 1324 195 114 20711 407 377 81 296 276
internal_count=22298 1587 263 79 57 1324 195 114 20711 407 377 81 296 276
shrinkage=0.15


Tree=56
num_leaves=15
num_cat=0
split_feature=20 14 23 3 14 23 3 3 19 21 3 36 14 3
split_gain=0.0281025 0.14781 0.0266859 0.975815 0.472283 0.88996 0.903528 0.461195 0.279189 0.68836 0.2052 0.170923 0.150392 0.147177
threshold=18.934700000000003 0.00028607250000000007 -15.447399999999998 -15.591149999999997 0.007300430000000001 -17.401049999999994 -16.733749999999997 -16.733749999999997 0.0013837450000000002 -1.8524549999999997 -8.2700699999999987 -0.029879349999999995 0.014849550000000001 -15.501799999999998
decision_type=2 2 2 2 2 2 2 2 2 2 2 2 2 2
left_child=2 -2 3 4 5 6 -1 -7 9 -6 -5 -10 -13 -4
right_child=1 -3 13 10 8 7 -8 -9 11 -11 -12 12 -14 -15
leaf_value=0.021364718120545152 0.01101126782107918 -0.001858383226652605 -0.0015314072611336345 -0.0017815359001524356 0.033819894692195311 0.017308147831891593 -0.021409622202627362 0.045842117473483081 0.011359944654811572 -0.002390071780731281 0.00088655916978896911 -0.013161089771221247 0.001003788105208514 4.3744151961770607e-05
leaf_weight=25 31 57 1442 1276 21 26 20 25 21 27 1319 26 48 17934
leaf_count=25 31 57 1442 1276 21 26 20 25 21 27 1319 26 48 17934
internal_value=0 0.00267524 -1.05998e-05 0.000419323 0.00959091 0.0177291 0.0023539 0.0312954 0.00412754 0.0134518 -0.000425383 -0.00058366 -0.00397306 -7.34817e-05
internal_weight=0 88 22210 2834 239 96 45 51 143 48 2595 95 74 19376
internal_count=22298 88 22210 2834 239 96 45 51 143 48 2595 95 74 19376
shrinkage=0.15


Tree=57
num_leaves=15
num_cat=0
split_feature=26 18 4 3 15 10 17 10 3 16 15 35 5 23
split_gain=0.0277066 0.136837 0.445502 0.137295 0.138819 0.128449 0.484326 0.0846199 0.0757054 0.154649 0.0665221 0.11372 0.160019 0.0649157
threshold=-0.0012592649999999999 0.00023698150000000002 1.7547750000000002 -13.123699999999998 2.7377700000000004e-05 1.4539000000000003e-05 -1.6445199999999997e-08 2.0670150000000004e-05 -5.9773749999999994 1.2910650000000001e-06 4.5510550000000005e-08 -0.11664549999999999 1.4313700000000003e-05 -12.174849999999998
decision_type=2 2 2 2 2 2 2 2 2 2 2 2 2 2
left_child=1 3 -3 4 13 6 -5 -4 10 -10 11 12 -7 -1
right_child=-2 2 7 5 -6 8 -8 -9 9 -11 -12 -13 -14 -15
leaf_value=-0.013059423309168778 3.4191963944021899e-05 0.021180245280041934 0.0077264576978252628 0.024760373008903113 0.0053370351379271597 0.012417388992523022 -0.0048215428991666568 -0.0023833587106105833 -0.00048718767534374478 0.013134939090444027 -0.0044676193621512534 -0.0028239078859069026 -0.0023816901698176349 -0.0054229914109524928
leaf_weight=40 21403 26 23 20 20 31 33 98 127 22 192 161 35 67
leaf_count=40 21403 26 23 20 20 31 33 98 127 22 192 161 35 67
internal_value=0 -0.000817666 0.00336616 -0.00163989 -0.00613367 -0.000720869 0.00634144 -0.000461658 -0.00137985 0.00152413 -0.00241254 -0.000674314 0.00456939 -0.00827773
internal_weight=0 895 147 748 127 621 53 121 568 149 419 227 66 107
internal_count=22298 895 147 748 127 621 53 121 568 149 419 227 66 107
shrinkage=0.15


Tree=58
num_leaves=15
num_cat=0
split_feature=33 13 13 19 3 38 18 3 30 3 18 19 3 34
split_gain=0.0261869 1.46939 1.46531 0.55225 0.640993 0.518831 0.876939 0.498714 0.399141 0.543376 0.450141 0.394965 0.492562 0.679026
threshold=-1.1829249999999999e-07 1.3072050000000001e-06 2.0248650000000004e-06 6.6825450000000016e-05 -6.0660849999999993 0.026441350000000002 -4.8256399999999994e-05 -6.0660849999999993 0.0071484900000000013 -6.0660849999999993 -0.00020608349999999995 2.5573700000000003e-06 -6.0851049999999995 0.31666400000000006
decision_type=2 2 2 2 2 2 2 2 2 2 2 2 2 2
left_child=1 7 8 4 5 -4 -7 -1 9 10 -2 12 13 -3
right_child=2 11 3 -5 -6 6 -8 -9 -10 -11 -12 -13 -14 -15
leaf_value=-0.0034884728320793072 -0.001559931928482034 0.0044626774206925771 -0.0045297436114899578 0.00024158427882169 0.00099276663902785728 0.022903598332777619 -0.00097959986063263682 0.00034102578964054204 -0.0014122308917268059 -0.00023744947300482805 0.0048318610019125281 8.5060122091138376e-05 -0.00064152729821292172 -0.0021168485089111686
leaf_weight=2951 278 2081 2234 3164 881 39 306 1033 519 849 2290 4283 965 425
leaf_count=2951 278 2081 2234 3164 881 39 306 1033 519 849 2290 4283 965 425
internal_value=0 -0.000154182 0.000171382 -0.00119066 -0.00250039 -0.00369367 0.00172024 -0.00249553 0.00246361 0.0030523 0.00413991 0.0010488 0.002238 0.00334684
internal_weight=0 11738 10560 6624 3460 2579 345 3984 3936 3417 2568 7754 3471 2506
internal_count=22298 11738 10560 6624 3460 2579 345 3984 3936 3417 2568 7754 3471 2506
shrinkage=0.15


Tree=59
num_leaves=15
num_cat=0
split_feature=34 4 4 26 37 13 19 3 1 1 18 14 3 14
split_gain=0.0352543 0.200364 0.758533 1.07982 0.80343 1.50481 0.903553 0.715825 0.538395 0.27387 0.145871 0.172875 0.158309 0.353686
threshold=0.29348650000000004 -0.47419699999999992 -1.4429999999999998 7.6466100000000017e-05 2.3077800000000002e-08 2.8750850000000003e-05 0.0021928650000000004 -9.2021999999999995 -5.9840399999999994 8.1325300000000009 -4.0664749999999994e-07 0.0052234150000000012 -12.531649999999999 0.0013268100000000001
decision_type=2 2 2 2 2 2 2 2 2 2 2 2 2 2
left_child=-1 2 -2 8 5 -5 7 -6 -4 -10 11 12 -3 -14
right_child=1 10 3 4 6 -7 -8 -9 9 -11 -12 -13 13 -15
leaf_value=-9.9898746348557567e-05 -0.00041988136071496174 -0.0054416357690593919 0.016198017768359326 0.0021070692491216153 -0.010936895582278299 0.048939096645795196 0.036907494915649292 0.017765706014709875 -0.0074263503492819957 0.010190032869286368 0.00042280333728163158 0.0092182379405130622 -0.0015818891369648424 0.015572491525589222
leaf_weight=17413 801 231 36 26 46 38 20 34 115 24 2663 32 791 28
leaf_count=17413 801 231 36 26 46 38 20 34 115 24 2663 32 791 28
internal_value=0 0.000356098 0.00209727 0.00804488 0.01679 0.0299136 0.00839087 0.00126171 -0.000150519 -0.00438467 -0.000173926 -0.00164259 -0.00197358 -0.000995415
internal_weight=0 4885 1140 339 164 64 100 80 175 139 3745 1082 1050 819
internal_count=22298 4885 1140 339 164 64 100 80 175 139 3745 1082 1050 819
shrinkage=0.15


Tree=60
num_leaves=15
num_cat=0
split_feature=31 11 23 3 5 11 11 12 5 23 3 3 16 34
split_gain=0.0285009 0.273096 0.448507 0.103884 0.0932224 0.0965186 0.0470183 0.034456 0.0328747 0.148731 0.727132 2.13677 1.34109 0.834798
threshold=-4.7897999999999987 0.00021648550000000002 -10.159249999999998 -12.582649999999999 9.2166400000000019e-06 7.0004500000000024e-05 2.1529850000000005e-05 0.00018950150000000002 1.5992050000000006e-05 -6.4723549999999994 -6.4251549999999993 -5.9150349999999987 -6.2511249999999987e-07 0.0035557600000000003
decision_type=2 2 2 2 2 2 2 2 2 2 2 2 2 2
left_child=1 3 -3 -1 -5 6 7 -6 -2 -10 -11 12 -12 -14
right_child=8 2 -4 4 5 -7 -8 -9 9 10 11 -13 13 -15
leaf_value=-0.0053160405851920816 -0.00019288958752015285 0.028955289674922821 -0.0020812983148392628 0.0090747685823589549 -0.00062450581808012168 0.0073548923830605564 -0.0056468833336391694 0.0059616642905166379 2.3052441471912669e-06 -0.0011467236161856666 -0.0057391520367236805 -0.0017429532682597154 0.017383695126964565 0.047427218922277227
leaf_weight=69 11811 20 22 30 168 37 39 20 9243 546 25 184 38 46
leaf_count=69 11811 20 22 30 168 37 39 20 9243 546 25 184 38 46
internal_value=0 0.00124685 0.012698 -7.8085e-05 0.00115123 0.000250829 -0.000907102 7.61506e-05 -2.30655e-05 0.000175882 0.00208813 0.00811621 0.0247592 0.0338361
internal_weight=0 405 42 363 294 264 227 188 21893 10082 839 293 109 84
internal_count=22298 405 42 363 294 264 227 188 21893 10082 839 293 109 84
shrinkage=0.15


Tree=61
num_leaves=15
num_cat=0
split_feature=34 3 27 21 19 16 36 16 14 13 0 23 27 12
split_gain=0.0266271 0.207096 0.907572 0.191574 0.132936 0.134715 0.937924 1.02951 0.142621 0.386779 0.178841 0.1272 0.110811 0.10706
threshold=0.83108850000000012 -17.219549999999995 4.1141750000000004 -3.7857749999999997 0.00093941050000000018 6.9737300000000002e-06 0.23757050000000002 3.0959200000000007e-05 0.0046775900000000006 6.4247400000000011e-05 2.6078950000000005 -12.663799999999998 10.529500000000001 0.00017594950000000004
decision_type=2 2 2 2 2 2 2 2 2 2 2 2 2 2
left_child=-1 2 -2 -4 5 8 12 -8 13 -10 -11 -5 -7 -3
right_child=1 4 3 11 -6 6 7 -9 9 10 -12 -13 -14 -15
leaf_value=-6.0943516155852233e-05 0.033186757777129178 0.00044358930690853839 -0.013755220913153609 0.012364822290172533 -0.0012409389568877054 0.0016347205015572162 0.040599693836451602 -0.0036377091654867396 0.021746409453379995 -0.0065078003326217741 0.011097628312418237 -0.0039562351117968901 -0.0074901025291294401 -0.0064259410519504319
leaf_weight=19590 23 1384 20 21 927 77 29 20 26 37 20 22 49 53
leaf_count=19590 23 1384 20 21 927 77 29 20 26 37 20 22 49 53
internal_value=0 0.000440873 0.0076839 -0.00162667 0.000203306 0.000993167 0.00493426 0.0225436 0.000539423 0.00658519 -0.000330457 0.00401451 -0.00191382 0.000190225
internal_weight=0 2708 86 63 2622 1695 175 49 1520 83 57 43 126 1437
internal_count=22298 2708 86 63 2622 1695 175 49 1520 83 57 43 126 1437
shrinkage=0.15


Tree=62
num_leaves=15
num_cat=0
split_feature=2 22 3 11 20 3 21 11 22 31 13 3 5 18
split_gain=0.0265946 2.30042 0.851343 1.13882 1.22256 1.1001 0.568122 0.479313 0.374462 0.31216 0.29597 0.200915 0.197782 0.138741
threshold=2.4785100000000004 2.4511500000000006 -6.1453949999999988 -9.4295849999999996e-05 -5.6526349999999992 -10.484399999999999 4.9104650000000012 -2.7535249999999997e-05 2.5246950000000008 0.7439150000000001 -3.7341549999999996e-06 -6.0660849999999993 1.3917200000000001e-05 8.5055700000000013e-05
decision_type=2 2 2 2 2 2 2 2 2 2 2 2 2 2
left_child=8 12 3 9 6 -6 7 -5 -1 -3 11 13 -2 -10
right_child=1 2 -4 4 5 -7 -8 -9 10 -11 -12 -13 -14 -15
leaf_value=0.00014601357088113274 -0.0034697124035331286 -0.0036468212412573654 -0.0033741164714340311 0.058890999178402126 0.034356771600432691 -0.012436575882356219 0.018944782783965702 0.030502437524821447 -0.0083563222127057725 0.018727669450454412 -0.00096733471531556614 0.00043336415667279371 -0.0001228763142743032 -0.00051555487419837384
leaf_weight=18660 657 47 49 32 20 26 23 23 303 20 1268 104 1005 61
leaf_count=18660 657 47 49 32 20 26 23 23 303 20 1268 104 1005 61
internal_value=0 0.000536442 0.0142642 0.0187892 0.0273031 0.00790836 0.038741 0.0470194 -5.00251e-05 0.00303213 -0.00215721 -0.00538108 -0.0014459 -0.00704235
internal_weight=0 1902 240 191 124 46 78 55 20396 67 1736 468 1662 364
internal_count=22298 1902 240 191 124 46 78 55 20396 67 1736 468 1662 364
shrinkage=0.15


Tree=63
num_leaves=15
num_cat=0
split_feature=2 22 22 22 5 18 4 2 3 6 3 34 5 13
split_gain=0.0230695 0.737225 0.115659 0.0990065 0.0967634 0.0706268 0.0738069 0.133503 0.0583039 0.0549895 0.0506802 0.0492808 0.0394062 0.0329995
threshold=-2.9850299999999996 -2.9566549999999991 -2.1177949999999996 -2.9943999999999997 1.5599150000000005e-05 2.9253900000000005e-05 -0.11892999999999999 -2.2193199999999993 -6.3033449999999993 -3.1834499999999993e-08 -5.9574799999999994 0.55322950000000015 1.2930850000000002e-05 4.2660450000000009e-06
decision_type=2 2 2 2 2 2 2 2 2 2 2 2 2 2
left_child=1 -1 4 5 -3 6 -2 -8 13 10 11 12 -4 -9
right_child=3 2 9 -5 -6 -7 7 8 -10 -11 -12 -13 -14 -15
leaf_value=0.024769599153660237 -0.0008737442706137317 -0.015152563396483087 -0.0095025739399943621 7.3253484411386801e-05 -0.0032118720601067401 0.0011415423810271581 -0.014294737706659361 -0.0033541403352010568 -2.6125191652681676e-06 0.00027539437793442642 0.00047626053864780041 0.0015804074292715925 -0.0038988423383671035 -0.0088580717078171837
leaf_weight=24 179 26 40 21245 37 117 30 57 67 243 68 26 96 43
leaf_count=24 179 26 40 21245 37 117 30 57 67 243 68 26 96 43
internal_value=0 -0.00095059 -0.00210224 2.44885e-05 -0.00813978 -0.00207696 -0.00307846 -0.00508173 -0.0034267 -0.00129809 -0.0029605 -0.00440309 -0.005547 -0.00572083
internal_weight=0 560 536 21738 63 493 376 197 167 473 230 162 136 100
internal_count=22298 560 536 21738 63 493 376 197 167 473 230 162 136 100
shrinkage=0.15


Tree=64
num_leaves=15
num_cat=0
split_feature=39 4 24 4 23 17 1 21 22 2 2 20 22 15
split_gain=0.0240493 0.233527 1.02776 1.38551 0.926694 0.83017 0.729794 3.61043 0.753709 1.12566 0.900083 3.16492 0.974931 0.936602
threshold=1.7267950000000005e-05 0.15027300000000002 -0.19643699999999994 1.0464400000000003 -12.376299999999999 1.8891650000000004e-05 6.0199700000000016 1.3022850000000001 0.69883800000000007 0.6647360000000001 -1.3276849999999998 1.1550850000000004 -1.3165899999999997 2.7643650000000007e-06
decision_type=2 2 2 2 2 2 2 2 2 2 2 2 2 2
left_child=-1 -2 -3 4 5 -4 8 -8 9 10 12 -12 -6 -13
right_child=1 2 3 -5 6 -7 7 -9 -10 -11 11 13 -14 -15
leaf_value=-0.00015490147085254081 -0.00032902596759532828 -0.0013057691294926213 0.00081241538797491536 -0.00030862756406760682 0.021940070035252873 0.032214914113283158 -0.0090965158742619678 0.049308596204288978 -0.00058656922668048471 -0.0081232354415988074 -0.005185653199228776 0.05979204941743417 -0.0055997402761634217 0.022719658506305317
leaf_weight=11212 7402 1892 358 930 61 20 42 55 117 44 41 46 55 23
leaf_count=11212 7402 1892 358 930 61 20 42 55 117 44 41 46 55 23
internal_value=0 0.000156662 0.00113252 0.00370688 0.00803915 0.00247392 0.0123855 0.0240198 0.00946946 0.0138271 0.0181006 0.0278216 0.0088824 0.0474346
internal_weight=0 11086 3684 1792 862 378 484 97 387 270 226 110 116 69
internal_count=22298 11086 3684 1792 862 378 484 97 387 270 226 110 116 69
shrinkage=0.15


Tree=65
num_leaves=15
num_cat=0
split_feature=23 3 25 1 1 28 2 2 39 3 4 18 22 26
split_gain=0.0256381 0.555462 0.339384 0.294759 0.368063 0.372482 0.797671 0.750105 0.510851 0.147989 0.106986 0.183403 0.111094 0.0961762
threshold=-15.447399999999998 -15.591149999999997 0.18197100000000002 4.052690000000001 3.5878250000000005 -0.007694214999999999 -0.28979049999999995 -0.28979049999999995 0.00085868100000000014 -9.6591949999999986 -1.4429999999999998 -6.5097399999999991e-06 -2.8570549999999995 -6.0461749999999994e-05
decision_type=2 2 2 2 2 2 2 2 2 2 2 2 2 2
left_child=1 2 -1 4 5 6 8 13 -4 10 -3 -12 -13 -7
right_child=-2 9 3 -5 -6 7 -8 -9 -10 -11 11 12 -14 -15
leaf_value=0.024629030257726656 -6.1943458824538381e-05 0.001642715611998418 0.03942071767989546 -0.0086107086863946806 0.024987952502124246 -0.018902117311621884 -0.010278622909182949 0.016294248157213882 0.0072574769135098907 0.00059653393171720589 -0.0062013700448564739 0.0096734395319279954 -0.0014656378446684497 -0.0064695453204746756
leaf_weight=23 19418 168 25 29 24 21 21 37 20 1736 218 21 495 42
leaf_count=23 19418 168 25 29 24 21 21 37 20 1736 218 21 495 42
internal_value=0 0.000417645 0.00729548 0.00547506 0.007625 0.00511469 0.0138609 -0.000657782 0.0251259 -0.000213301 -0.00177192 -0.00255347 -0.0010123 -0.0106137
internal_weight=0 2880 242 219 190 166 66 100 45 2638 902 734 516 63
internal_count=22298 2880 242 219 190 166 66 100 45 2638 902 734 516 63
shrinkage=0.15


Tree=66
num_leaves=15
num_cat=0
split_feature=39 11 16 4 3 13 34 26 5 4 4 3 4 16
split_gain=0.0246008 0.0988394 0.12439 0.0815256 0.0650001 0.0339375 0.032947 0.028693 0.086805 0.158485 0.124231 0.398084 0.0621716 0.0610451
threshold=0.4654120000000001 0.00024582450000000007 1.6511150000000002e-06 -0.20699899999999996 -8.1590299999999996 2.6986250000000003e-05 70.125000000000014 -0.0022811249999999997 1.3964800000000001e-05 0.81704150000000009 -0.30653749999999996 -9.5728199999999983 0.18917350000000002 2.2875050000000004e-05
decision_type=2 2 2 2 2 2 2 2 2 2 2 2 2 2
left_child=7 2 3 -2 -4 6 -5 8 9 10 11 -1 -12 -10
right_child=1 -3 4 5 -6 -7 -8 -9 13 -11 12 -13 -14 -15
leaf_value=-0.0072938662284286688 0.0090068858155670263 0.011584141163039021 -0.008902365302828211 -2.7852658801035631e-06 0.0011518398148599889 -0.0047172214836609773 0.0051092654108525369 9.0290845396500635e-06 -0.0038123018310706738 0.013601598740621869 -0.00093256088510761917 0.020026589900226099 -0.0091178601276344397 0.0016080802436120173
leaf_weight=24 36 20 39 74 23 20 46 21540 241 21 106 24 26 58
leaf_count=24 36 20 39 74 23 20 46 21540 241 21 106 24 26 58
internal_value=0 0.00145623 0.000605141 0.00264047 -0.00517258 0.0010034 0.00195683 -1.70466e-05 -0.00114039 0.00127016 -0.000168502 0.00636636 -0.00254482 -0.00276086
internal_weight=0 258 238 176 62 140 120 22040 500 201 180 48 132 299
internal_count=22298 258 238 176 62 140 120 22040 500 201 180 48 132 299
shrinkage=0.15


Tree=67
num_leaves=15
num_cat=0
split_feature=11 39 29 36 20 29 19 3 2 36 16 7 15 30
split_gain=0.0240367 0.104298 0.173277 0.0864236 0.0550992 0.0785262 0.544076 0.092334 0.0503775 0.0394508 0.860003 1.06408 0.759564 0.638959
threshold=-0.00011877849999999999 0.34498650000000003 -0.38862699999999994 -0.058559549999999995 -6.1034699999999988 0.033157750000000007 0.00019692300000000003 -15.419399999999998 -2.7022149999999994 -0.011433849999999997 -8.1175449999999991e-07 3.3308550000000005e-05 4.5256500000000006e-07 0.0058542200000000011
decision_type=2 2 2 2 2 2 2 2 2 2 2 2 2 2
left_child=1 3 -3 -1 8 -6 -7 -8 -5 10 11 12 13 -2
right_child=9 2 -4 4 5 6 7 -9 -10 -11 -12 -13 -14 -15
leaf_value=-0.0038116504069310737 0.025696111842989922 -0.0026609099124198106 0.016243678424507378 -0.004159777413795902 0.00054237344806301136 0.027121652676723895 0.0092741885431513026 -0.0014403038528090452 -0.00025581022788080009 -0.00013139903679432451 -0.0014454059471907337 0.00216439057365473 0.039257787850159535 8.0465039703994984e-05
leaf_weight=111 39 20 24 91 2095 20 22 102 407 17466 1374 448 29 50
leaf_count=111 39 20 24 91 2095 20 22 102 407 17466 1374 448 29 50
internal_value=0 0.000403426 0.00765068 0.00029146 0.000457863 0.000775269 0.00416357 0.000460654 -0.000969186 -6.0121e-05 0.000581601 0.00550229 0.018175 0.0113053
internal_weight=0 2892 44 2848 2737 2239 144 124 498 19406 1940 566 118 89
internal_count=22298 2892 44 2848 2737 2239 144 124 498 19406 1940 566 118 89
shrinkage=0.15


Tree=68
num_leaves=15
num_cat=0
split_feature=19 22 2 14 32 20 11 30 32 22 14 1 32 1
split_gain=0.0289626 0.291207 2.07468 1.02021 1.22208 0.968495 0.882343 0.564542 1.07133 2.01082 1.25462 1.1171 0.93336 1.76336
threshold=1.17105e-07 -1.5341449999999999 -1.5477299999999998 9.6812750000000019e-05 0.19118650000000001 -10.189649999999999 1.0000000180025095e-35 0.00023115050000000004 -0.0027763199999999997 1.6045750000000003 5.9728650000000006e-05 11.472500000000002 -0.020801549999999999 4.216705000000001
decision_type=2 2 2 2 2 2 2 2 2 2 2 2 2 2
left_child=1 2 3 -1 5 -5 -3 8 9 10 -8 12 13 -12
right_child=-2 6 -4 4 -6 -7 7 -9 -10 -11 11 -13 -14 -15
leaf_value=0.00073309419925691435 -8.6211420319954547e-05 -0.0030748813193440584 -0.0043440311497668898 -0.0074896599212661381 -0.00013399288360171525 0.020997061494153969 -0.0021404074700382934 -0.00015131846455761376 -0.0049664384768911109 -0.0034300580145436616 -0.0017264283989788963 -0.0043123392657435028 0.013798910861701838 0.043878038673316154
leaf_weight=265 17777 1504 571 30 118 256 63 1134 166 181 24 32 84 93
leaf_count=265 17777 1504 571 30 118 256 63 1134 166 181 24 32 84 93
internal_value=0 0.000338991 0.00229724 0.00796565 0.0127098 0.0180089 -0.000401096 0.00186192 0.00541248 0.00902443 0.0166402 0.0217182 0.0258623 0.0345233
internal_weight=0 4521 1240 669 404 286 3281 1777 643 477 296 233 201 117
internal_count=22298 4521 1240 669 404 286 3281 1777 643 477 296 233 201 117
shrinkage=0.15


Tree=69
num_leaves=15
num_cat=0
split_feature=33 13 13 3 4 4 23 19 3 24 37 17 30 3
split_gain=0.0425815 0.928759 0.885672 0.359651 0.342395 0.414095 0.361915 0.32171 0.496142 0.344762 0.303481 1.05993 0.270426 0.354234
threshold=-1.1829249999999999e-07 1.3072050000000001e-06 1.3072050000000001e-06 -5.8709549999999995 0.81704150000000009 -0.71036149999999987 -16.099999999999998 6.0027400000000007e-05 -5.8532899999999985 -0.46214999999999995 2.3983450000000005e-08 -3.1235699999999993e-08 0.0071484900000000013 -6.1453949999999988
decision_type=2 2 2 2 2 2 2 2 2 2 2 2 2 2
left_child=2 12 3 4 5 -1 -7 8 9 10 11 -3 13 -2
right_child=1 7 -4 -5 -6 6 -8 -9 -10 -11 -12 -13 -14 -15
leaf_value=0.0014035133053979553 0.0034602817690081509 0.039144987431354819 0.00073734897438893572 0.00060691867979870519 0.001510326132789705 0.0012553684146371054 -0.0047395381079294195 0.00023150083222384102 0.001582406924494088 -0.0035592445889201241 -0.00062260924999544144 -0.0023566109181653396 -0.0011468436750375404 -3.2448921161723497e-05
leaf_weight=355 2496 20 7754 909 367 254 2099 3188 743 2261 408 45 514 885
leaf_count=355 2496 20 7754 909 367 254 2099 3188 743 2261 408 45 514 885
internal_value=0 0.000218541 -0.000196609 -0.00201436 -0.00278923 -0.00337193 -0.0040924 -0.000856845 -0.00185473 -0.00278882 0.000893927 0.0104131 0.00205871 0.00254604
internal_weight=0 10560 11738 3984 3075 2708 2353 6665 3477 2734 473 65 3895 3381
internal_count=22298 10560 11738 3984 3075 2708 2353 6665 3477 2734 473 65 3895 3381
shrinkage=0.15


Tree=70
num_leaves=15
num_cat=0
split_feature=14 25 21 39 28 14 21 23 35 30 30 23 21 1
split_gain=0.0416076 0.131133 0.108838 0.14481 0.366767 0.428697 0.268299 0.0850586 0.065611 0.225432 0.0657188 0.0609935 0.0437742 4.25241
threshold=6.2799850000000012e-05 0.15309000000000003 10.261200000000001 9.5885350000000014e-07 -0.0020824199999999993 4.7071450000000008e-05 0.81473100000000009 -8.1980949999999986 -0.00052676799999999983 0.00013964850000000001 0.00013964850000000001 -6.9302799999999989 -9.3396699999999981 -8.6728899999999971
decision_type=2 2 2 2 2 2 2 2 2 2 2 2 2 2
left_child=1 7 3 4 -3 6 -6 -1 9 -5 -10 -4 13 -2
right_child=12 2 11 8 5 -7 -8 -9 10 -11 -12 -13 -14 -15
leaf_value=-0.00075460527674295005 0.01829422150276723 -0.0078525123391544535 0.00030865883099977508 0.017220541507205259 0.016873926081877599 0.025317071603551029 -0.0044603342340451485 -0.012147042620927095 -0.0023847307842841665 0.0014457842286570819 0.00060129678857817994 -0.005886956634586331 -0.00013537631461468807 -0.0024879129221262513
leaf_weight=30 261 31 64 21 21 31 36 29 201 694 948 81 18385 1465
leaf_count=30 261 31 64 21 21 31 36 29 201 694 948 81 18385 1465
internal_value=0 0.000621351 0.000814754 0.00110483 0.006178 0.0111206 0.00339966 -0.00635428 0.000780957 0.0019091 7.89369e-05 -0.00315234 -6.75697e-05 0.000654693
internal_weight=0 2187 2128 1983 119 88 57 59 1864 715 1149 145 20111 1726
internal_count=22298 2187 2128 1983 119 88 57 59 1864 715 1149 145 20111 1726
shrinkage=0.15


Tree=71
num_leaves=15
num_cat=0
split_feature=14 20 3 3 20 34 3 23 23 3 23 3 14 37
split_gain=0.0300615 0.197709 1.00491 0.192088 0.55653 0.410971 0.164193 0.126542 0.121619 0.0560587 1.52446 0.946552 0.784701 0.89931
threshold=6.2799850000000012e-05 10.001280000000001 -6.3760599999999998 -6.0183449999999992 -10.058949999999998 0.0054004050000000014 -5.8532899999999985 -7.3758649999999992 -8.4671399999999988 -7.2907849999999987 -7.3263099999999985 -6.0183449999999992 0.00084742650000000014 -9.0094499999999987e-08
decision_type=2 2 2 2 2 2 2 2 2 2 2 2 2 2
left_child=1 3 -3 4 -1 -6 -4 -5 -7 -2 -11 12 13 -12
right_child=9 2 6 7 5 8 -8 -9 -10 10 11 -13 -14 -15
leaf_value=0.015931381002883428 0.00010327308755096219 0.034621042389746594 0.01092750839639588 0.0014702844304823562 -0.021525063081644476 -0.0011674165736208634 -0.0019747156373069569 -0.0018072988401905505 -0.0076889908171838411 -0.0018593503989470263 0.020833912335596016 -0.0010689946140994759 -0.00097674299753296796 0.0066826616842767875
leaf_weight=32 14245 23 28 1330 30 214 107 331 92 4375 123 576 226 566
leaf_count=32 14245 23 28 1330 30 214 107 331 92 4375 123 576 226 566
internal_value=0 0.000528148 0.00563899 0.000130163 -0.00297055 -0.00477073 0.000701301 0.000817136 -0.00312815 -5.74342e-05 -0.000447696 0.00369448 0.00669313 0.00920894
internal_weight=0 2187 158 2029 368 336 135 1661 306 20111 5866 1491 915 689
internal_count=22298 2187 158 2029 368 336 135 1661 306 20111 5866 1491 915 689
shrinkage=0.15


Tree=72
num_leaves=15
num_cat=0
split_feature=33 13 13 7 7 20 2 2 3 33 15 25 18 35
split_gain=0.03122 0.632586 0.630429 0.360313 0.297654 0.427182 2.19782 2.07512 0.888805 0.971226 1.15224 0.996624 0.908958 1.02914
threshold=-1.1829249999999999e-07 1.0000000180025095e-35 2.0248650000000004e-06 5.0230150000000002e-05 4.3706500000000006e-05 -2.4607299999999994 1.8038550000000002 1.7695450000000001 -6.1453949999999988 2.2153950000000005e-05 2.5858200000000004e-06 0.21140000000000003 -2.4415699999999997e-05 -0.0010023884999999998
decision_type=2 2 2 2 2 2 2 2 2 2 2 2 2 2
left_child=2 4 3 -1 5 7 8 -2 9 10 11 -7 -13 -14
right_child=1 -3 -4 -5 -6 6 -8 -9 -10 -11 -12 12 13 -15
leaf_value=-0.0027637262723151502 -0.0060115177348201735 -0.00068420405928126262 0.00062726832113796599 0.00017916772163365142 0.00033232142041890418 0.0052885484397411347 -0.0045887388873965297 0.0095720095669386846 -0.00017907437516745023 0.0022448029804598428 -0.0033839913837709901 -0.0048491647727787494 0.011695632235450525 0.031241702263390549
leaf_weight=2559 475 6755 7703 1476 1798 100 385 323 180 176 64 25 89 190
leaf_count=2559 475 6755 7703 1476 1798 100 385 323 180 176 64 25 89 190
internal_value=0 0.000187128 -0.000168349 -0.00168722 0.001734 0.00298972 0.00476764 0.0002961 0.00913924 0.0117437 0.015316 0.0182784 0.0225513 0.0250066
internal_weight=0 10560 11738 4035 3805 2007 1209 798 824 644 468 404 304 279
internal_count=22298 10560 11738 4035 3805 2007 1209 798 824 644 468 404 304 279
shrinkage=0.15


Tree=73
num_leaves=15
num_cat=0
split_feature=39 12 16 17 23 16 22 13 3 23 12 12 17 39
split_gain=0.0317221 0.107737 0.126887 0.703679 0.547737 0.175641 0.164829 0.118905 0.10551 0.527471 0.0977365 0.264884 0.0950569 0.0914647
threshold=0.0063289800000000005 -0.00020683749999999998 7.7987000000000021e-06 5.5808600000000008e-06 -10.650649999999999 2.9850350000000006e-06 -0.16692499999999996 4.7508550000000011e-05 -15.282399999999997 -14.549349999999999 0.00016167850000000004 0.00012940200000000003 -1.6445199999999997e-08 0.011517250000000001
decision_type=2 2 2 2 2 2 2 2 2 2 2 2 2 2
left_child=-1 -2 5 4 6 8 -4 -7 9 -3 11 12 13 -10
right_child=1 2 3 -5 -6 7 -8 -9 10 -11 -12 -13 -14 -15
leaf_value=-5.4525190912910844e-05 -0.0020575776880786003 0.026067002388715212 -0.0051421305688563734 -0.0013411081590731656 0.03032400768904207 -0.002867772708304983 0.013672972027879125 -0.016633848901838066 0.0044668111538950115 -0.0040035044159074974 -0.0029870201690981339 0.015509658044304941 0.0013015740224519041 -0.0046888391424314028
leaf_weight=20403 293 21 20 161 34 48 22 20 31 35 149 28 915 118
leaf_count=20403 293 21 20 161 34 48 22 20 31 35 149 28 915 118
internal_value=0 0.000587059 0.00107075 0.00427452 0.0161708 0.000514496 0.0047134 -0.00691662 0.0009041 0.00727294 0.000616707 0.00110842 0.000729444 -0.00278397
internal_weight=0 1895 1602 237 76 1365 42 68 1297 56 1241 1092 1064 149
internal_count=22298 1895 1602 237 76 1365 42 68 1297 56 1241 1092 1064 149
shrinkage=0.15


Tree=74
num_leaves=15
num_cat=0
split_feature=3 34 19 10 37 3 25 34 4 18 1 21 34 19
split_gain=0.0290126 0.123045 0.101013 0.0863523 0.0819721 0.0793956 0.391487 0.643696 0.565462 0.79484 0.703808 1.13465 0.552557 0.621576
threshold=-6.0660849999999993 0.0037225250000000004 0.00021264750000000003 3.2684100000000008e-05 8.2374600000000023e-09 -7.2907849999999987 0.51543650000000019 0.017854750000000003 0.19323650000000001 7.1537300000000017e-07 -2.2391849999999995 -2.6891449999999995 0.0053288800000000002 8.3063100000000007e-10
decision_type=2 2 2 2 2 2 2 2 2 2 2 2 2 2
left_child=5 2 3 -2 -4 -1 12 8 9 10 11 -8 13 -7
right_child=1 -3 4 -5 -6 6 7 -9 -10 -11 -12 -13 -14 -15
leaf_value=7.4643301231013302e-05 -0.0082294431753689411 0.00056020611585407725 -0.00077406014031165642 -0.0020102269540332902 0.010150306198775071 0.025675851572304963 0.044161827803607313 -0.00011890993288306786 -0.0052869963076986135 0.038584127975627776 -0.00064864849355964827 -0.0010669394621800165 -0.0037633578940650496 0.00090899835613048421
leaf_weight=14257 80 4103 68 135 20 24 26 1585 47 24 73 24 1376 456
leaf_count=14257 80 4103 68 135 20 24 26 1585 47 24 73 24 1376 456
internal_value=0 0.000344793 -0.00257217 -0.00432435 0.00170875 -8.49072e-05 -0.000710688 0.000879319 0.00903495 0.0136141 0.00874187 0.022452 -0.00223473 0.00214734
internal_weight=0 4406 303 215 88 17892 3635 1779 194 147 123 50 1856 480
internal_count=22298 4406 303 215 88 17892 3635 1779 194 147 123 50 1856 480
shrinkage=0.15


Tree=75
num_leaves=15
num_cat=0
split_feature=23 3 14 3 14 34 14 8 32 23 23 3 3 14
split_gain=0.0355489 0.974215 1.27736 0.943126 1.22057 1.92156 3.162 1.41507 2.76958 0.847804 0.812099 4.09628 3.1235 0.743506
threshold=-8.723844999999999 -8.7185599999999983 0.0014449400000000002 -8.7529949999999985 0.0014883200000000002 0.038470900000000009 0.00052619350000000017 -8.686864999999999e-06 -0.030737549999999999 -11.973199999999999 -10.020849999999998 -10.062549999999998 -10.062549999999998 0.0007529835000000001
decision_type=2 2 2 2 2 2 2 2 2 2 2 2 2 2
left_child=3 2 -2 4 5 6 10 8 13 -9 11 -1 -12 -8
right_child=1 -3 -4 -5 -6 -7 7 9 -10 -11 12 -13 -14 -15
leaf_value=0.057651128489524119 -0.0058370964593241577 0.0011566879098447427 -0.0001880743278285388 -0.0010713672924609896 3.48115610702362e-05 0.0018138350881525089 0.063662988109433133 0.016904826527206748 -0.0072580530162048625 -0.0083590050859294763 -0.01184286106791761 -0.013293881617000999 0.045305375947906935 0.025091657072136345
leaf_weight=30 1293 5203 2968 6681 4150 1489 23 36 47 176 27 47 106 22
leaf_count=30 1293 5203 2968 6681 4150 1489 23 36 47 176 27 47 106 22
internal_value=0 -0.000220554 -0.00190227 0.00016264 0.00150254 0.00454351 0.0124511 0.00267278 0.018208 -0.00406892 0.0266064 0.014347 0.0337039 0.0448059
internal_weight=0 9464 4261 12834 6153 2003 514 304 92 212 210 77 133 45
internal_count=22298 9464 4261 12834 6153 2003 514 304 92 212 210 77 133 45
shrinkage=0.15


Tree=76
num_leaves=15
num_cat=0
split_feature=23 3 23 3 13 37 4 9 3 23 3 21 15 28
split_gain=0.0378076 0.450682 0.450445 1.46506 0.768432 0.51563 0.865972 0.55708 0.64395 0.488871 0.424037 0.28093 0.279862 0.348538
threshold=-13.747299999999997 -13.252699999999999 -15.561499999999999 -15.748799999999997 0.00010003855 -1.0757349999999998e-06 0.63880700000000012 -2.5898149999999995e-05 -14.946699999999998 -14.442299999999998 -15.748799999999997 -7.6390449999999985 -0.00011317199999999999 -0.060495499999999994
decision_type=2 2 2 2 2 2 2 2 2 2 2 2 2 2
left_child=1 2 10 -4 5 -5 7 -7 -9 -10 12 -12 -1 -14
right_child=-2 -3 3 4 -6 6 -8 8 9 -11 11 -13 13 -15
leaf_value=-0.0091334614540056255 -9.890967079699221e-05 -0.00034822042896788074 -0.0046242970299863375 0.0036326721476250576 0.00032640661282130168 0.011905720448121427 -0.0044382642218261025 0.05845780546577381 0.013857823164816464 0.040552708496000948 0.012395994371036069 -0.0045361124002584125 -0.0091360853717196728 0.0098115737653253973
leaf_weight=26 17747 3665 140 34 60 30 20 21 29 33 24 271 25 173
leaf_count=26 17747 3665 140 34 60 30 20 21 29 33 24 271 25 173
internal_value=0 0.000385706 0.00342165 0.00744368 0.0148865 0.0201176 0.0243319 0.0294239 0.0357558 0.0280664 0.000577548 -0.00315859 0.0054979 0.00741919
internal_weight=0 4551 886 367 227 167 133 113 83 62 519 295 224 198
internal_count=22298 4551 886 367 227 167 133 113 83 62 519 295 224 198
shrinkage=0.15


Tree=77
num_leaves=15
num_cat=0
split_feature=34 4 4 24 34 24 24 4 16 14 4 24 7 23
split_gain=0.03265 0.109194 0.474478 0.767042 1.6374 1.24554 0.143543 0.348366 0.265256 0.107984 0.171636 0.311499 0.693248 0.449389
threshold=0.29348650000000004 -0.47419699999999992 -0.78269099999999991 -0.21663299999999996 1.5710850000000003 -0.58118899999999984 -1.1249249999999997 -2.5874299999999995 9.7663200000000014e-06 9.4105750000000006e-05 0.23991900000000002 0.31471100000000007 3.5303100000000011e-05 -12.376299999999999
decision_type=2 2 2 2 2 2 2 2 2 2 2 2 2 2
left_child=-1 2 6 4 5 -4 7 -2 -9 -3 -11 -12 13 -13
right_child=1 9 3 -5 -6 -7 -8 8 -10 10 11 12 -14 -15
leaf_value=-9.6138015572922231e-05 -0.0017917415791410295 0.0014870591164807513 0.057303322686089411 -0.0034089994306365648 -0.0068840349325910207 0.01253371921665003 -0.00026030098148522359 0.0042090200612114534 0.025651451251236721 -0.0015078102032956924 -0.0011909840588484658 0.0069484343416964592 0.00084797918419509484 0.02677808715670835
leaf_weight=17413 68 808 27 63 36 29 865 27 25 1616 757 72 452 40
leaf_count=17413 68 808 27 63 36 29 865 27 25 1616 757 72 452 40
internal_value=0 0.000342692 0.00162808 0.00934242 0.0180744 0.0341191 0.000414143 0.00527576 0.0145179 -4.85861e-05 -0.000471059 0.000797216 0.00346578 0.0140305
internal_weight=0 4885 1140 155 92 56 985 120 52 3745 2937 1321 564 112
internal_count=22298 4885 1140 155 92 56 985 120 52 3745 2937 1321 564 112
shrinkage=0.15


Tree=78
num_leaves=15
num_cat=0
split_feature=8 21 10 22 38 7 3 30 21 1 1 7 22 3
split_gain=0.0320631 0.186084 0.707123 0.928685 0.250225 0.125654 0.0758936 0.0678365 0.0508536 2.78453 0.944745 0.918293 0.588994 0.883296
threshold=-2.6429649999999995e-05 7.6507000000000014 4.9157950000000009e-05 1.2871600000000003 -7.7933949999999986e-05 5.9862050000000007e-05 -5.9356799999999987 0.00088046750000000007 6.713585000000001 6.8510650000000011 6.8510650000000011 3.6502700000000012e-05 0.79542950000000012 -6.5968699999999991
decision_type=2 2 2 2 2 2 2 2 2 2 2 2 2 2
left_child=1 5 3 -3 -5 6 7 -1 10 -10 -2 12 -11 -14
right_child=8 2 -4 4 -6 -7 -8 -9 9 11 -12 -13 13 -15
leaf_value=-0.0084598552348779769 0.00052459966088944945 -0.0033342072250449961 -0.00038998830095853752 0.043747333057690407 0.02030375969729253 0.00054409044788871527 -0.00019169114936536563 -0.00046167869886095796 -0.0024167109302510475 -0.0026469077387288134 -0.0026658353588942208 0.0022061339173677866 0.021314545525725544 0.0048864151126365059
leaf_weight=80 14419 29 193 20 21 1123 87 34 3166 46 2442 316 208 114
leaf_count=80 14419 29 193 20 21 1123 87 34 3166 46 2442 316 208 114
internal_value=0 0.00064979 0.00429417 0.0172091 0.0317396 -7.41307e-05 -0.00352817 -0.00607443 -4.97908e-05 -0.000541675 6.25249e-05 0.00813722 0.0132302 0.0154984
internal_weight=0 1587 263 70 41 1324 201 114 20711 3850 16861 684 368 322
internal_count=22298 1587 263 70 41 1324 201 114 20711 3850 16861 684 368 322
shrinkage=0.15


Tree=79
num_leaves=15
num_cat=0
split_feature=19 33 13 39 5 6 6 33 5 29 7 9 24 13
split_gain=0.0295515 0.234479 0.663274 0.869062 1.11116 1.31157 0.950543 0.777706 0.748452 0.290784 0.485543 1.27993 0.540442 0.427372
threshold=0.00045611650000000002 8.439900000000002e-06 -2.5043649999999999e-05 3.4279950000000007e-05 2.5797550000000005e-05 2.0434350000000005e-06 3.6822250000000006e-06 1.7391700000000002e-05 1.2674800000000001e-05 -0.018575999999999999 3.4006550000000004e-05 1.1266400000000003e-05 -0.32660699999999993 1.3072050000000001e-06
decision_type=2 2 2 2 2 2 2 2 2 2 2 2 2 2
left_child=-1 -2 3 4 5 7 -7 -3 -9 10 11 -4 -13 -11
right_child=1 2 9 -5 -6 6 -8 8 -10 13 -12 12 -14 -15
leaf_value=-0.00014797462373375195 -0.00023845870096883261 -0.0099054401882195595 -0.0041131380953932728 0.0021847486901828144 -0.0045118125782156468 0.056283960799356138 0.018156016162330549 0.040508991746570577 0.00041572232090402394 -0.0063608223740633119 0.00082877077842209972 0.015718602623590931 0.050172097945469431 0.00022817913699963772
leaf_weight=12857 7012 31 45 492 51 31 28 22 20 283 366 21 20 1019
leaf_count=12857 7012 31 45 492 51 31 28 22 20 283 366 21 20 1019
internal_value=0 0.000201516 0.00147163 0.00546727 0.0142924 0.0215577 0.0381893 0.00811567 0.021417 -6.60357e-05 0.00321188 0.013354 0.0325252 -0.00120399
internal_weight=0 9441 2429 675 183 132 59 73 42 1754 452 86 41 1302
internal_count=22298 9441 2429 675 183 132 59 73 42 1754 452 86 41 1302
shrinkage=0.15


Tree=80
num_leaves=15
num_cat=0
split_feature=14 21 21 10 21 39 11 20 31 39 34 5 25 19
split_gain=0.0359693 0.118806 0.0876535 0.140972 0.146084 0.12192 0.404723 0.659843 0.514394 0.14333 0.167553 0.144307 0.118168 0.0887015
threshold=8.5393400000000015e-05 10.337350000000002 -8.4047699999999974 2.1917300000000004e-05 -11.380349999999998 8.6575650000000011e-07 7.5451000000000008e-06 8.504920000000002 0.015596550000000002 1.3141650000000004e-06 0.0054004050000000014 1.1003350000000002e-05 0.17568000000000003 2.4500700000000002e-08
decision_type=2 2 2 2 2 2 2 2 2 2 2 2 2 2
left_child=1 2 3 4 -1 6 8 -8 13 11 -11 -7 -5 -4
right_child=-2 -3 5 12 -6 9 7 -9 -10 10 -12 -13 -14 -15
leaf_value=0.015440946326790644 -8.0738166948821438e-05 -0.0028268588948839319 -0.016087266000580382 -0.010856410227383354 -0.00065977038739220009 -0.013760504309643044 -0.002710417606140254 0.027225150626681342 0.019188186064129694 0.011601835914453575 0.00084265784272928243 -0.0014462166045092629 -0.0016296287263773185 -0.004329880789321448
leaf_weight=21 18903 232 22 35 32 28 30 37 20 33 2482 91 290 42
leaf_count=21 18903 232 22 35 32 28 30 37 20 33 2482 91 290 42
internal_value=0 0.000449542 0.000689859 -0.00145349 0.00571976 0.00098077 0.00512587 0.0138212 -0.00180966 0.000743143 0.000983832 -0.0043437 -0.00262328 -0.00837148
internal_weight=0 3395 3163 378 53 2785 151 67 84 2634 2515 119 325 64
internal_count=22298 3395 3163 378 53 2785 151 67 84 2634 2515 119 325 64
shrinkage=0.15


Tree=81
num_leaves=15
num_cat=0
split_feature=3 34 21 2 21 19 33 38 19 21 19 21 3 25
split_gain=0.0306508 0.104606 0.0704521 0.33932 0.0643498 0.0503239 0.375115 0.247658 0.204191 0.456115 0.203798 0.33007 0.198063 0.554898
threshold=-6.0660849999999993 0.008717105000000001 12.877700000000003 0.93079650000000014 -14.668149999999999 0.00049748250000000011 5.5932250000000001e-06 0.015857250000000003 0.00033266050000000004 -6.4334649999999991 1.3371400000000003e-07 -11.380349999999998 -7.4544349999999993 0.59904600000000008
decision_type=2 2 2 2 2 2 2 2 2 2 2 2 2 2
left_child=5 -2 4 -4 -3 6 12 8 10 -10 -8 -12 -1 -14
right_child=1 2 3 -5 -6 -7 7 -9 9 -11 11 -13 13 -15
leaf_value=0.00084306619634145878 -0.0011449037412580925 0.0068449453553782675 -0.0023415630837553178 0.021204659735251753 0.00055608007629208466 0.0001698088086908083 -0.0010230692394258573 0.00054224811282607374 0.023233517041496402 -0.0010220324555580058 0.014193295872038495 -0.0047933150882513023 -0.0027456546246916757 0.0021607898374777679
leaf_weight=4400 846 37 40 21 3462 8752 613 688 21 103 21 1085 1377 832
leaf_count=4400 846 37 40 21 3462 8752 613 688 21 103 21 1085 1377 832
internal_value=0 0.000354394 0.000710688 0.00576451 0.000622581 -8.72714e-05 -0.000333438 -0.00188626 -0.00279283 0.00308576 -0.00321689 -0.00443281 0.000261235 -0.000897686
internal_weight=0 4406 3560 61 3499 17892 9140 2531 1843 124 1719 1106 6609 2209
internal_count=22298 4406 3560 61 3499 17892 9140 2531 1843 124 1719 1106 6609 2209
shrinkage=0.15


Tree=82
num_leaves=15
num_cat=0
split_feature=23 3 23 3 13 35 11 29 26 4 30 3 25 3
split_gain=0.0270465 0.288378 0.320785 1.01884 0.53543 0.382323 0.472069 0.785726 0.500216 1.33918 0.309387 0.302008 0.264672 0.260949
threshold=-13.747299999999997 -13.252699999999999 -15.561499999999999 -15.748799999999997 0.00010003855 0.0099769250000000028 -8.5009199999999986e-05 0.014658200000000001 5.4080950000000009e-05 -0.076193249999999976 0.0010396100000000003 -15.748799999999997 0.18197100000000002 -8.3121399999999976
decision_type=2 2 2 2 2 2 2 2 2 2 2 2 2 2
left_child=1 2 11 -4 5 6 10 8 -8 -10 -5 12 -1 -3
right_child=-2 13 3 4 -6 -7 7 -9 9 -11 -12 -13 -14 -15
leaf_value=0.020130822886659929 -8.3657424043830013e-05 -0.0017712057594223554 -0.0039148551752389588 -0.0058865127307151195 0.00020180108287604523 -0.00038272287882864473 0.044773452552790576 -0.0012536961562000216 0.046846995248713275 -0.0061100614157372285 0.019890960773918775 -0.0027984161931620339 0.0028054768782648453 0.0007998314341076361
leaf_weight=22 17747 1512 140 22 60 25 37 20 22 21 20 295 202 2153
leaf_count=22 17747 1512 140 22 60 25 37 20 22 21 20 295 202 2153
internal_value=0 0.000326229 0.00275473 0.00614889 0.0123556 0.0167222 0.0197337 0.0253387 0.0319868 0.0209842 0.00638847 0.000354627 0.00450707 -0.000260853
internal_weight=0 4551 886 367 227 167 142 100 80 43 42 519 224 3665
internal_count=22298 4551 886 367 227 167 142 100 80 43 42 519 224 3665
shrinkage=0.15


Tree=83
num_leaves=15
num_cat=0
split_feature=5 37 13 22 11 33 17 38 19 23 13 17 18 23
split_gain=0.0274225 0.139825 0.322468 1.37336 0.763426 0.426579 0.278656 0.503313 0.933935 1.14378 1.20877 0.496504 0.361311 0.283845
threshold=1.5992050000000006e-05 -3.1332799999999996e-07 -3.1082999999999994e-05 1.5154700000000003 -3.0942649999999987e-05 1.6769150000000002e-05 -3.1235699999999993e-08 0.00074033250000000007 7.3671800000000008e-05 -12.0588 4.5673450000000006e-05 -4.960349999999999e-07 -1.6727099999999997e-06 -15.782499999999997
decision_type=2 2 2 2 2 2 2 2 2 2 2 2 2 2
left_child=1 2 3 5 -5 -1 7 -4 9 10 -9 -11 13 -8
right_child=-2 -3 6 4 -6 -7 12 8 -10 11 -12 -13 -14 -15
leaf_value=-0.0053684623391018248 0.00018003744987432407 -0.0003959143798793499 -0.001514292858205758 0.045465868504510988 0.0068000890966504806 0.017287360203108223 0.0033277071671834382 -0.0073545783600171225 -0.00061524677131207818 0.047139269801286549 0.035605156235396861 0.020238528729073311 0.00038561882072123149 -0.0086462366006372811
leaf_weight=100 10269 9825 260 27 20 23 58 56 151 26 20 38 1233 192
leaf_count=100 10269 9825 260 27 20 23 58 56 151 26 20 38 1233 192
internal_value=0 -0.000153696 0.000926068 0.00720202 0.0290123 -0.00113201 0.00040153 0.00328188 0.00756711 0.0163924 0.00395061 0.031167 -0.000668646 -0.00586828
internal_weight=0 12029 2204 170 47 123 2034 551 291 140 76 64 1483 250
internal_count=22298 12029 2204 170 47 123 2034 551 291 140 76 64 1483 250
shrinkage=0.15


Tree=84
num_leaves=15
num_cat=0
split_feature=4 24 4 18 24 34 3 4 14 23 18 8 6 25
split_gain=0.0289192 0.118132 0.1793 0.0877678 0.985372 0.643315 0.746424 0.911203 0.992349 0.661712 0.59083 0.384735 0.318206 0.21756
threshold=-1.2753049999999997 -1.5736749999999997 -3.0862599999999998 -2.4415699999999997e-05 -0.3633134999999999 1.7517900000000002 -12.196949999999998 -0.71036149999999987 0.00084742650000000014 -13.0406 -0.00016519649999999998 -1.6342049999999997e-06 6.6664450000000012e-08 0.38056100000000004
decision_type=2 2 2 2 2 2 2 2 2 2 2 2 2 2
left_child=1 2 -1 4 5 6 9 11 -9 10 -2 -8 -7 -6
right_child=3 -3 -4 -5 13 12 7 8 -10 -11 -12 -13 -14 -15
leaf_value=-0.00065140070999041195 0.036071637611530601 0.00028392971852419206 0.018149589178418475 3.3574524686347396e-05 -0.0006777752284172874 -0.012610240914033387 -0.010278173609403893 0.0076170941186137486 0.049725213609909745 -0.0068271927704613303 -0.00038885079149622473 0.017633998218923808 0.004721922759647266 -0.0041601540325523238
leaf_weight=25 20 3765 21 16571 772 44 20 20 34 63 20 25 52 846
leaf_count=25 20 3765 21 16571 772 44 20 20 34 63 20 25 52 846
internal_value=0 0.00037624 0.00793166 -7.756e-05 -0.00103873 0.00688764 0.0116922 0.0209928 0.0341296 0.00275284 0.0178414 0.00522859 -0.00322199 -0.0024986
internal_weight=0 3811 46 18487 1916 298 202 99 54 103 40 45 96 1618
internal_count=22298 3811 46 18487 1916 298 202 99 54 103 40 45 96 1618
shrinkage=0.15


Tree=85
num_leaves=15
num_cat=0
split_feature=2 20 32 5 13 13 11 19 3 11 33 7 23 35
split_gain=0.0256091 0.234599 0.660198 0.539333 0.75287 0.317964 0.366048 0.556608 0.0913335 0.202218 0.19992 0.286949 0.26332 0.105787
threshold=2.4785100000000004 -6.3708349999999987 -0.0027763199999999997 1.1003350000000002e-05 -9.2649699999999981e-06 -3.9352299999999993e-05 -0.00010487699999999998 0.00064941800000000013 -6.0183449999999992 -7.5010899999999983e-05 1.0000000180025095e-35 3.1244600000000009e-05 -10.808449999999999 -0.024584299999999996
decision_type=2 2 2 2 2 2 2 2 2 2 2 2 2 2
left_child=-1 2 3 4 -2 -5 -7 -8 9 13 -11 12 -12 -3
right_child=1 8 -4 5 -6 6 7 -9 -10 10 11 -13 -14 -15
leaf_value=-4.9089446993031385e-05 0.04495612772713814 0.0077433760483472721 -0.0025931428447730359 -0.00775110155174678 0.0084046833418142345 -0.0020404022114589898 0.0041814427597273605 0.032053376781654409 0.0018521497078625034 -0.00034931529559564236 0.016695439347081859 -0.0081778691032252434 -0.0062588572886812938 0.00040542876359171313
leaf_weight=20396 21 48 182 33 32 41 38 28 344 310 22 221 23 559
leaf_count=20396 21 48 182 33 32 41 38 28 344 310 22 221 23 559
internal_value=0 0.000526408 0.00388806 0.00999987 0.0228873 0.00512105 0.00909096 0.0160059 -0.000299145 -0.000924712 -0.00293794 -0.00595475 0.00496324 0.000985695
internal_weight=0 1902 375 193 53 140 107 66 1527 1183 576 266 45 607
internal_count=22298 1902 375 193 53 140 107 66 1527 1183 576 266 45 607
shrinkage=0.15


Tree=86
num_leaves=15
num_cat=0
split_feature=14 20 16 36 5 16 36 34 3 19 14 16 6 14
split_gain=0.0260423 0.108815 0.0282518 0.111722 0.262463 0.0708787 0.826344 0.543325 0.708618 0.627679 0.551492 0.620891 0.328114 0.53317
threshold=3.8653200000000005e-05 12.665100000000001 -1.7145149999999996e-05 -0.72559949999999984 1.6250300000000003e-05 -6.2511249999999987e-07 -0.0081398299999999989 1.0006340000000002 -6.4683699999999993 0.00093941050000000018 0.0019805000000000001 -1.1643149999999998e-06 1.8296850000000004e-07 0.0027600450000000005
decision_type=2 2 2 2 2 2 2 2 2 2 2 2 2 2
left_child=1 -1 3 4 -2 6 7 8 9 10 11 -4 13 -9
right_child=2 -3 5 -5 -6 -7 -8 12 -10 -11 -12 -13 -14 -15
leaf_value=0.00055530083673440984 0.02071870471641887 0.011755957689892965 0.046435260051988399 0.00025100533781625083 -0.0013214596874135049 3.6204440322543775e-05 -0.0016046339919332838 -0.0012773075833464181 -0.0030511233539042316 0.003184432413139082 0.010981401639979925 0.013441688993147441 -0.0043601160351115845 0.024021160093553623
leaf_weight=806 20 20 33 3560 31 14443 2991 53 59 53 44 21 135 29
leaf_count=806 20 20 33 3560 31 14443 2991 53 59 53 44 21 135 29
internal_value=0 0.000826503 -3.17945e-05 0.000350869 0.00732174 -0.000109158 -0.0007234 0.00544937 0.0108885 0.0163351 0.0234472 0.0336044 0.000185717 0.00766971
internal_weight=0 826 21472 3611 51 17861 3418 427 210 151 98 54 217 82
internal_count=22298 826 21472 3611 51 17861 3418 427 210 151 98 54 217 82
shrinkage=0.15


Tree=87
num_leaves=15
num_cat=0
split_feature=10 20 9 5 21 22 3 38 4 4 11 3 35 19
split_gain=0.030228 0.313348 0.956172 0.90905 0.804334 1.14777 1.35324 1.0632 2.02586 1.85837 0.315785 0.737554 0.585136 1.07174
threshold=3.0953850000000005e-05 6.7425350000000011 2.9696200000000005e-05 1.2965350000000001e-05 5.5752350000000011 -0.40206949999999991 -6.3760599999999998 0.00010500550000000002 -0.084079799999999996 0.034774250000000007 0.00010246950000000002 -5.9356799999999987 0.00034561950000000003 8.1708200000000029e-06
decision_type=2 2 2 2 2 2 2 2 2 2 2 2 2 2
left_child=-1 -2 -3 4 5 -4 7 9 -9 -7 11 12 -5 -14
right_child=1 2 3 10 -6 6 -8 8 -10 -11 -12 -13 13 -15
leaf_value=-0.00017840067085494064 -0.00021368637060435101 -0.0011422887826029763 -0.0087858426268212497 0.0048031305214314883 -0.0061173553374828772 -0.0047260485048330313 -0.00099177674515626025 0.081066086651249356 0.016693624869433484 0.041378640493245002 -0.0008297190413761019 -0.0021648518669008148 0.038316546858254696 0.006823778469451129
leaf_weight=10912 9190 1173 32 170 40 37 42 22 22 42 333 181 40 62
leaf_count=10912 9190 1173 32 170 40 37 42 22 22 42 333 181 40 62
internal_value=0 0.000170974 0.00178073 0.00513235 0.0132753 0.017213 0.0222551 0.0301931 0.0488799 0.0197853 0.00267701 0.00525481 0.0101922 0.0191739
internal_weight=0 11386 2196 1023 237 197 165 123 44 79 786 453 272 102
internal_count=22298 11386 2196 1023 237 197 165 123 44 79 786 453 272 102
shrinkage=0.15


Tree=88
num_leaves=15
num_cat=0
split_feature=3 23 21 21 23 14 3 25 11 14 19 23 0 21
split_gain=0.0295406 0.0987783 0.116835 0.0982616 0.056599 0.298996 0.205048 0.111231 0.0694754 0.048177 0.0466623 0.0513955 0.0424493 0.0432493
threshold=-6.0660849999999993 -8.4036099999999987 13.704450000000003 -14.668149999999999 -6.0874249999999988 0.00013992500000000003 -6.7843599999999986 2.7097750000000005 -8.7235299999999991e-06 9.6812750000000019e-05 0.00019692300000000003 -5.9402799999999987 12.186800000000002 0.81473100000000009
decision_type=2 2 2 2 2 2 2 2 2 2 2 2 2 2
left_child=4 9 3 -3 12 7 8 -6 -7 -2 11 -10 -1 -14
right_child=1 2 -4 -5 5 6 -8 -9 10 -11 -12 -13 13 -15
leaf_value=-3.6118578893890861e-05 0.0013912847252822978 0.0077729865277069623 0.0076776827002552304 -0.00089001503307246683 -0.018646828618285986 0.0015463009194794752 0.014138668615903172 -0.0046785432926338653 -0.010076254918628061 7.5016069108253924e-05 -0.00097456668996939331 -0.0021153384039329518 0.00023782441683579237 -0.0094000052991429009
leaf_weight=17492 1718 30 38 1636 29 119 21 23 36 984 93 37 20 22
leaf_count=17492 1718 30 38 1636 29 119 21 23 36 984 93 37 20 22
internal_value=0 0.000347916 -0.000546434 -0.000734019 -8.56763e-05 -0.00195277 -0.00016577 -0.0124685 -0.00121978 0.000911933 -0.0032027 -0.00604127 -4.7555e-05 -0.00481056
internal_weight=0 4406 1704 1666 17892 358 306 52 285 2702 166 73 17534 42
internal_count=22298 4406 1704 1666 17892 358 306 52 285 2702 166 73 17534 42
shrinkage=0.15


Tree=89
num_leaves=15
num_cat=0
split_feature=2 29 25 33 6 21 28 10 33 21 18 18 21 33
split_gain=0.0304438 0.094372 0.269009 0.341947 0.632134 0.127777 0.276648 0.497373 0.3864 0.388354 0.349749 0.37482 0.442377 0.0958559
threshold=2.4785100000000004 0.0027583450000000002 0.23472700000000002 1.3750400000000002e-06 1.2623400000000002e-06 6.5488450000000009 0.0014869050000000004 2.9373550000000006e-05 5.5932250000000001e-06 2.1064400000000005 -1.7750149999999999e-06 -0.00020608349999999995 1.9809350000000003 8.7255100000000015e-07
decision_type=2 2 2 2 2 2 2 2 2 2 2 2 2 2
left_child=-1 13 3 -3 -5 6 -4 -8 9 -9 11 -10 -13 -2
right_child=1 2 5 4 -6 -7 7 8 10 -11 -12 12 -14 -15
leaf_value=-5.3522991079472539e-05 0.0009009558628826817 0.0004936302386842475 -0.0012095258099595319 -0.0021629426099420727 0.03023137877779928 -0.004572617221013691 0.023826575751119322 0.0013811880868161096 -0.0076947212144399865 0.030941222589171955 -0.0069703578507933125 0.027971391846837761 0.001629932657306199 -0.001912979572431016
leaf_weight=20396 628 58 348 23 33 90 29 20 28 20 86 26 32 481
leaf_count=20396 628 58 348 23 33 90 29 20 28 20 86 26 32 481
internal_value=0 0.000573951 0.00182345 0.00856595 0.0169266 0.000691428 0.00149578 0.0054022 0.00288188 0.0161612 -0.000206331 0.0065577 0.0134382 -0.000319516
internal_weight=0 1902 793 114 56 679 589 241 212 40 172 86 58 1109
internal_count=22298 1902 793 114 56 679 589 241 212 40 172 86 58 1109
shrinkage=0.15


Tree=90
num_leaves=15
num_cat=0
split_feature=5 20 0 15 9 37 0 20 16 16 3 27 20 0
split_gain=0.0287946 0.105132 1.0263 0.105345 0.118977 0.103118 0.129022 0.482914 0.476391 1.15188 0.434178 0.625112 0.452848 0.752382
threshold=1.5992050000000006e-05 12.896400000000002 10.370900000000001 -3.2543299999999995e-07 1.0979450000000002e-05 -3.1332799999999996e-07 -1.9182049999999997 -1.5805649999999998 6.8233950000000015e-07 2.0336900000000003e-06 -11.287699999999999 2.6327600000000007 -3.4097949999999995 -3.9455449999999996
decision_type=2 2 2 2 2 2 2 2 2 2 2 2 2 2
left_child=1 5 3 4 -3 6 7 8 10 -10 11 12 13 -1
right_child=-2 2 -4 -5 -6 -7 -8 -9 9 -11 -12 -13 -14 -15
leaf_value=0.024398535565705967 0.0001844863276066006 -0.00081667928807919142 0.031074747860503307 -0.0027375182476777164 0.014221922579454259 -0.00042937671216580872 -0.00018564053658617642 -0.002056201175203394 0.046810563096951224 0.0061792532678961445 -0.00079484040403302416 -0.005054107438032091 0.036635405028937383 -0.0061314591449445283
leaf_weight=42 10269 29 26 143 20 9618 1365 349 20 73 248 44 20 32
leaf_count=42 10269 29 26 143 20 9618 1365 349 20 73 248 44 20 32
internal_value=0 -0.000157494 0.00310657 -0.000680783 0.00532153 -0.00021774 0.000710452 0.00218771 0.00527982 0.0149172 0.00295787 0.00970188 0.0166089 0.0111964
internal_weight=0 12029 218 192 49 11811 2193 828 479 93 386 138 94 74
internal_count=22298 12029 218 192 49 11811 2193 828 479 93 386 138 94 74
shrinkage=0.15


Tree=91
num_leaves=15
num_cat=0
split_feature=13 31 32 19 29 11 33 19 24 39 29 24 28 8
split_gain=0.0278755 0.0753889 0.188515 0.104443 0.0653089 0.0554542 0.0535514 0.37933 0.335305 0.0973354 0.0525373 0.0704185 0.0448406 0.0389892
threshold=7.7433650000000007e-05 1.2497650000000002 16.002050000000004 9.9003350000000012e-05 1.4102300000000001 -2.9131199999999996e-05 -3.3149549999999995e-05 0.00016276350000000002 0.19848000000000002 3.4279950000000007e-05 1.4102300000000001 -1.3280449999999997 -1.4820749999999998 -2.6429649999999995e-05
decision_type=2 2 2 2 2 2 2 2 2 2 2 2 2 2
left_child=4 2 6 -3 12 -6 7 8 -2 -9 11 -5 -1 -14
right_child=1 3 -4 10 5 -7 -8 9 -10 -11 -12 -13 13 -15
leaf_value=-0.005008769098536244 0.029527221224270761 -0.011927115638867359 0.01497693016048288 0.0065867417731299482 0.011010130627546459 0.0019084598385293767 0.0002344458285510858 0.0085083453761340463 0.0032295837443598431 -0.00026842352355541539 -0.007148164253521827 -0.0013785081475220209 0.00076707583422783979 -0.00016124296798987925
leaf_weight=42 20 22 20 28 20 61 4524 31 24 343 30 231 1088 15814
leaf_count=42 20 22 20 28 20 61 4524 31 24 343 30 231 1088 15814
internal_value=0 0.000301359 0.000443353 -0.00196414 -9.33373e-05 0.00415579 0.000384536 0.00200896 0.0151831 0.000459063 -0.00120571 -0.0005174 -0.00011365 -0.000101486
internal_weight=0 5273 4962 311 17025 81 4942 418 44 374 289 259 16944 16902
internal_count=22298 5273 4962 311 17025 81 4942 418 44 374 289 259 16944 16902
shrinkage=0.15


Tree=92
num_leaves=15
num_cat=0
split_feature=4 24 17 38 31 4 24 34 4 34 24 34 39 13
split_gain=0.0225084 0.0744639 0.162096 0.0756622 0.0680504 0.0575544 0.688086 0.593254 0.486741 0.429663 0.204433 0.183533 0.14599 0.0750141
threshold=-1.2753049999999997 -1.5736749999999997 -3.6127349999999992e-05 0.00021858200000000002 -3.5056549999999995 -0.54522599999999988 -0.45282499999999992 1.1709150000000002 -0.66792299999999993 0.51822350000000006 -1.5736749999999997 2.5533900000000003 6.9449100000000009e-06 7.0396950000000007e-05
decision_type=2 2 2 2 2 2 2 2 2 2 2 2 2 2
left_child=1 2 -1 -3 -5 6 7 8 9 -2 -9 -12 -8 -14
right_child=5 3 -4 4 -6 -7 12 10 -10 -11 11 -13 13 -15
leaf_value=-0.0021946982709778241 -0.007186022003588732 0.00076459185168821205 0.015630728918635709 0.0057097900025640932 -0.00081236083720487718 -5.638063629947261e-06 -0.00031912179980113603 -0.013242485375224572 0.037678419300355016 0.020374522769291487 -0.0050487145532552733 0.014346809472356524 -0.005219158613129847 -0.00051597710633945236
leaf_weight=24 20 2404 22 37 1324 17502 325 23 20 35 23 21 425 93
leaf_count=24 20 2404 22 37 1324 17502 325 23 20 35 23 21 425 93
internal_value=0 0.000331928 0.00633051 0.000258639 -0.00063505 -6.84253e-05 -0.00118406 0.00847565 0.0176394 0.0103525 -0.00178231 0.00420824 -0.0028112 -0.00437477
internal_weight=0 3811 46 3765 1361 18487 985 142 75 55 67 44 843 518
internal_count=22298 3811 46 3765 1361 18487 985 142 75 55 67 44 843 518
shrinkage=0.15


Tree=93
num_leaves=15
num_cat=0
split_feature=3 23 21 21 34 14 31 0 20 20 23 3 3 4
split_gain=0.0226578 0.0755457 0.0896697 0.0840342 0.0428898 0.445384 0.595874 0.373502 1.67616 1.30256 0.44111 1.14028 0.691077 0.425173
threshold=-6.0660849999999993 -8.1679949999999977 17.104850000000003 -14.668149999999999 0.0077461050000000005 0.00013442100000000005 -0.026535699999999999 7.4476300000000011 8.1619350000000015 7.9978200000000008 -7.1566449999999993 -7.1259249999999996 -7.0804149999999995 -0.065399349999999981
decision_type=2 2 2 2 2 2 2 2 2 2 2 2 2 2
left_child=4 -2 3 -3 5 6 -1 9 -9 10 11 -8 -12 -14
right_child=1 2 -4 -5 -6 -7 7 8 -10 -11 12 -13 13 -15
leaf_value=0.025751451844076529 0.00076546725377832532 0.0077872800600464242 0.0089762441497772336 -0.00081325187573355227 -0.00018172538003772206 -0.00027000710400602363 0.025921691872179509 -0.014570916993468398 0.019267022165962881 -0.014740925760255479 -0.0045009024651685298 -0.016548391052691094 0.0092021499973322669 0.029356367657116304
leaf_weight=29 2842 26 22 1516 14774 2705 25 93 51 49 26 33 35 72
leaf_count=29 2842 26 22 1516 14774 2705 25 93 51 49 26 33 35 72
internal_value=0 0.000304701 -0.000532572 -0.000668236 -7.50344e-05 0.000430499 0.00501856 0.00345279 -0.00258665 0.00707646 0.0126736 0.00175768 0.0174339 0.0227639
internal_weight=0 4406 1564 1542 17892 3118 413 384 144 240 191 58 133 107
internal_count=22298 4406 1564 1542 17892 3118 413 384 144 240 191 58 133 107
shrinkage=0.15


Tree=94
num_leaves=15
num_cat=0
split_feature=11 35 3 25 8 23 11 1 23 31 14 34 23 23
split_gain=0.0237191 0.0818236 0.157186 0.0664158 0.056419 0.0704599 0.0986662 0.0572941 0.0537088 0.0478382 0.196183 0.0361992 0.0401809 0.0329744
threshold=-0.00011877849999999999 0.65807750000000009 -12.918249999999999 4.2038300000000008 2.8631450000000004e-06 -13.653549999999997 -0.00038828049999999997 -3.5330399999999993 -19.685249999999996 0.85253850000000009 0.020478800000000002 0.89026900000000009 -7.313089999999999 -7.0749549999999992
decision_type=2 2 2 2 2 2 2 2 2 2 2 2 2 2
left_child=1 3 -3 8 5 6 -5 -6 -1 11 -11 12 -10 -2
right_child=13 2 -4 4 7 -7 -8 -9 9 10 -12 -13 -14 -15
leaf_value=-0.0054250103839546104 3.5417960318728384e-05 0.016641018890077248 -0.0013644297891005407 -0.0011868217712617478 -0.0019643418454988399 -0.001357485887227483 0.013078485424630344 -0.0085470197778574532 0.00015254686739359327 0.016627642718085554 -0.003132917767148823 0.005842336782521231 0.0015811102791566862 -0.00046156644103431227
leaf_weight=33 15691 20 24 24 102 192 20 42 1769 20 26 29 591 3715
leaf_count=33 15691 20 24 24 102 192 20 42 1769 20 26 29 591 3715
internal_value=0 0.000400752 0.00681987 0.000301581 -0.00154444 -0.000116743 0.00529741 -0.00388429 0.000585815 0.000667276 0.00545863 0.000575019 0.000510293 -5.97226e-05
internal_weight=0 2892 44 2848 380 236 44 144 2468 2435 46 2389 2360 19406
internal_count=22298 2892 44 2848 380 236 44 144 2468 2435 46 2389 2360 19406
shrinkage=0.15


Tree=95
num_leaves=15
num_cat=0
split_feature=28 14 7 21 12 23 25 28 11 21 8 28 25 7
split_gain=0.0226286 0.0584362 0.0226882 0.346101 0.573107 0.67533 0.782644 0.60439 0.413398 0.192909 0.14813 0.22456 0.468805 0.185964
threshold=2.9088150000000002 0.0018774850000000001 2.3659150000000005e-05 -3.8987349999999998 -3.6166999999999988e-05 -8.1980949999999986 0.5475310000000001 -0.0063236349999999993 -3.6425399999999993e-06 -9.9568249999999985 5.5664100000000013e-06 0.0054873100000000013 0.47981200000000007 1.9056100000000005e-05
decision_type=2 2 2 2 2 2 2 2 2 2 2 2 2 2
left_child=2 -2 3 4 5 6 7 -1 -8 -7 11 13 -13 -5
right_child=1 -3 -4 10 -6 9 8 -9 -10 -11 -12 12 -14 -15
leaf_value=0.05039584376765719 0.00041547327185980975 -0.008351854595037787 -2.2625369303860771e-05 0.0037793221123311447 -0.0025732087112031875 0.006226409055096538 0.02175892943474041 0.015619736852716993 -0.0055088797576147413 -0.010182075054243407 -0.0033924950130694159 0.021907729753706182 0.00091438851127999699 -0.0066663348434340894
leaf_weight=23 50 26 21304 63 125 38 22 22 29 28 334 31 105 98
leaf_count=23 50 26 21304 63 125 38 22 22 29 28 334 31 105 98
internal_value=0 -0.00258388 8.83695e-06 0.000738982 0.0050576 0.0109456 0.0189758 0.0333942 0.0062537 -0.000734766 -0.00122527 0.00121194 0.00569964 -0.0025789
internal_weight=0 76 22222 918 287 162 96 45 51 66 631 297 136 161
internal_count=22298 76 22222 918 287 162 96 45 51 66 631 297 136 161
shrinkage=0.15


Tree=96
num_leaves=15
num_cat=0
split_feature=14 22 20 13 23 23 3 38 36 33 13 4 5 29
split_gain=0.0198649 0.0231932 0.0350514 0.0223673 0.0509473 0.0699213 0.172046 0.0497034 0.0754386 0.0662214 0.324281 0.0543419 0.045586 0.0444505
threshold=3.2706200000000002e-05 -0.42655349999999997 9.656480000000002 7.7433650000000007e-05 -22.260449999999995 -18.777899999999999 -15.501799999999998 -0.0089646749999999983 -0.72559949999999984 -3.4364499999999993e-05 0.00010337800000000001 -1.7843149999999997 1.0899900000000002e-05 1.4102300000000001
decision_type=2 2 2 2 2 2 2 2 2 2 2 2 2 2
left_child=1 -1 -3 13 -5 6 -6 8 -7 10 -9 -10 -12 -2
right_child=3 2 -4 4 5 7 -8 9 11 -11 12 -13 -14 -15
leaf_value=0.0022281685415168678 -0.00012334331943831007 0.00055869170524425909 -0.0059691589535214003 -0.0050844655721448357 0.015794651379639452 0.0068266902174800633 0.0012959074108787724 0.020213973927920133 0.00025286870514305111 0.00023583565021520714 0.0076140183303505179 -0.002972679150877421 -9.6981633510486234e-07 0.0034210020891987367
leaf_weight=193 16484 248 20 40 22 25 113 22 202 4395 20 281 153 80
leaf_count=193 16484 248 20 40 22 25 113 22 202 4395 20 281 153 80
internal_value=0 0.000974423 7.15387e-05 -2.0571e-05 0.000248493 0.000289257 0.00365867 0.000200032 -0.00120783 0.000355847 0.00306071 -0.00162369 0.000879376 -0.000106225
internal_weight=0 461 268 21837 5273 5233 135 5098 508 4590 195 483 173 16564
internal_count=22298 461 268 21837 5273 5233 135 5098 508 4590 195 483 173 16564
shrinkage=0.15


Tree=97
num_leaves=15
num_cat=0
split_feature=5 20 0 24 21 7 14 1 26 23 3 3 14 16
split_gain=0.0179988 0.076196 0.720312 0.0926872 0.0749016 0.11539 0.116181 0.0829442 0.0710023 0.0699772 0.361611 1.2212 0.982017 0.444884
threshold=1.5992050000000006e-05 12.896400000000002 10.370900000000001 -1.1249249999999997 -13.731299999999999 2.6647950000000003e-05 0.0056182850000000015 -4.811234999999999 -0.0015291349999999998 -6.4723549999999994 -6.4251549999999993 -5.9940599999999984 0.00015957300000000001 3.8575050000000002e-08
decision_type=2 2 2 2 2 2 2 2 2 2 2 2 2 2
left_child=1 4 3 -3 5 -1 7 -7 -2 -10 -11 12 13 -12
right_child=8 2 -4 -5 -6 6 -8 -9 9 10 11 -13 -14 -15
leaf_value=0.0045372534127091054 -0.0019029055222787358 0.0067155915788713501 0.026085096375586894 -0.0020200796060309135 -0.00013503715131820977 -0.016673417537557807 0.0027108215504155781 -0.0058564922978050537 0.00010341291187571024 -0.00077416009397825419 0.022290035651531068 -0.00077518005163223038 0.0010472433102716291 0.050387544663889068
leaf_weight=30 367 33 26 159 11675 22 26 58 9100 521 32 193 35 21
leaf_count=30 367 33 26 159 11675 22 26 58 9100 521 32 193 35 21
internal_value=0 -0.000124517 0.00265429 -0.000518636 -0.000175807 -0.00367568 -0.0060001 -0.00883115 0.000145858 0.000221792 0.00156499 0.005902 0.0205463 0.033423
internal_weight=0 12029 218 192 11811 136 106 80 10269 9902 802 281 88 53
internal_count=22298 12029 218 192 11811 136 106 80 10269 9902 802 281 88 53
shrinkage=0.15


Tree=98
num_leaves=15
num_cat=0
split_feature=20 0 0 13 1 11 20 7 37 18 16 37 11 4
split_gain=0.0223138 0.334617 0.581581 0.202246 0.127001 0.100811 0.0599332 0.0585751 0.0445982 0.0745641 0.0596851 0.0384266 0.0287623 0.0243521
threshold=11.655300000000002 10.841800000000001 12.901050000000001 2.9467400000000005e-05 8.1325300000000009 -1.4440299999999998e-05 12.097600000000002 2.9530300000000004e-05 6.1355800000000005e-06 -9.5550599999999983e-06 3.6956550000000003e-07 -2.6553749999999996e-09 3.4566700000000009e-05 -0.055414349999999994
decision_type=2 2 2 2 2 2 2 2 2 2 2 2 2 2
left_child=-1 3 -3 5 7 -2 -7 -5 9 -8 11 -11 -10 -13
right_child=1 2 -4 4 -6 6 8 -9 12 10 -12 13 -14 -15
leaf_value=2.8052343470785733e-05 -0.00020024507183507011 0.023114618917249821 -0.0079574067251878249 0.0069607597409880586 0.01193756266584387 -0.011709440015416978 0.00053532787299315839 -0.00032914772058290174 0.00035065425125966693 -0.0096657198891547079 -0.012685070415719726 -0.0074829710880294437 -0.0061749167376547124 -0.0021890233232625179
leaf_weight=21545 128 33 23 28 24 29 35 217 55 37 34 29 21 60
leaf_count=21545 128 33 23 28 24 29 35 217 55 37 34 29 21 60
internal_value=0 -0.00080264 0.0103529 -0.00169892 0.00152408 -0.0037246 -0.00522832 0.000503985 -0.00453477 -0.00573608 -0.00710795 -0.00560301 -0.00145246 -0.00391402
internal_weight=0 753 56 697 269 428 300 245 271 195 160 126 76 89
internal_count=22298 753 56 697 269 428 300 245 271 195 160 126 76 89
shrinkage=0.15


Tree=99
num_leaves=15
num_cat=0
split_feature=3 23 30 14 23 3 3 34 20 11 20 13 34 20
split_gain=0.0175901 0.0674 0.117593 0.0499649 0.421077 1.39661 0.552364 2.03854 1.25299 1.58626 0.868559 0.757649 0.697941 0.520054
threshold=-5.8709549999999995 -7.5004549999999997 0.027854300000000002 0.00020048900000000004 -7.6100699999999994 -7.6576999999999993 -7.6085299999999991 0.017236800000000004 6.6102350000000003 1.6025900000000002e-05 -7.3959049999999991 -1.0765599999999999e-05 0.077197050000000003 -8.434314999999998
decision_type=2 2 2 2 2 2 2 2 2 2 2 2 2 2
left_child=3 -2 -3 4 6 -6 7 8 10 -10 -1 -12 -8 -9
right_child=1 2 -4 -5 5 -7 12 13 9 -11 11 -13 -14 -15
leaf_value=0.029117796403468295 0.00066063143061161371 -0.0011207007474075585 0.0089283759644280918 6.0304563043675266e-05 -0.0095744142548306738 0.0044068067656199434 -0.0059168774953393148 0.016895022256508598 0.0063598135618535287 0.059773644188354756 0.019784351536414443 -0.014083955310551182 -0.00011230391473551391 -0.0038463734581804204
leaf_weight=29 2814 885 27 15004 196 894 905 29 22 29 23 42 961 438
leaf_count=29 2814 885 27 15004 196 894 905 29 22 29 23 42 961 438
internal_value=0 0.00029744 -0.000823195 -5.96739e-05 -0.000564202 0.00189275 -0.00164494 0.00226556 0.0178019 0.0367324 0.00753117 -0.00209979 -0.00292749 -0.00255836
internal_weight=0 3726 912 18572 3568 1090 2478 612 145 51 94 65 1866 467
internal_count=22298 3726 912 18572 3568 1090 2478 612 145 51 94 65 1866 467
shrinkage=0.15


Tree=100
num_leaves=15
num_cat=0
split_feature=7 21 8 26 18 1 35 36 26 13 0 20 36 33
split_gain=0.018857 0.286519 0.649147 0.482593 0.399726 0.16911 0.150285 0.193357 0.324882 0.276083 0.265075 0.257569 0.295161 0.108529
threshold=2.3366750000000001e-05 -6.1329049999999992 8.199625000000002e-06 5.6651650000000008e-05 -2.4308499999999994e-06 -6.1443249999999994 -0.0020210299999999996 -0.00098935999999999968 8.623330000000002e-05 4.2660450000000009e-06 1.5591350000000002 2.4290000000000007 0.00047756400000000004 -3.8480099999999993e-06
decision_type=2 2 2 2 2 2 2 2 2 2 2 2 2 2
left_child=1 2 13 4 -4 -3 -7 8 9 -8 -9 -12 -13 -1
right_child=-2 5 3 -5 -6 6 7 10 -10 -11 11 12 -14 -15
leaf_value=0.0061400725760243158 -2.7106031690608746e-05 -0.004116106943754424 -0.0062240755517268551 0.036915050428693315 0.023406483367268395 -0.0047311946338075873 0.029547359751516275 -0.0027409261707247137 -0.00059647012967616313 0.0051967799122212451 -0.00091289878338250479 0.0039162771495403316 0.028832154341507699 -0.0042709601016507753
leaf_weight=33 21469 218 20 21 21 84 22 190 43 20 43 23 20 71
leaf_count=33 21469 218 20 21 21 84 22 190 43 20 43 23 20 71
internal_value=0 0.000701978 0.00627503 0.0184237 0.00895255 -0.000693387 0.000983361 0.00231306 0.00856858 0.0179518 0.000386547 0.00729608 0.0155051 -0.000967459
internal_weight=0 829 166 62 41 663 445 361 85 42 276 86 43 104
internal_count=22298 829 166 62 41 663 445 361 85 42 276 86 43 104
shrinkage=0.15


Tree=101
num_leaves=15
num_cat=0
split_feature=33 6 13 33 19 33 13 17 34 19 34 3 5 22
split_gain=0.0166763 0.288923 0.278797 0.389378 0.424415 0.324013 1.48465 0.530335 0.434723 0.334136 0.4235 0.339229 0.289407 0.376209
threshold=-1.1829249999999999e-07 -7.1669899999999974e-08 5.8115950000000009e-06 -1.3310049999999998e-06 2.1900450000000003e-07 -1.3310049999999998e-06 7.0126500000000016e-07 8.9112650000000013e-08 0.014018200000000003 3.2503650000000009e-05 0.024040550000000004 -5.8314849999999989 8.885070000000002e-06 0.81899700000000009
decision_type=2 2 2 2 2 2 2 2 2 2 2 2 2 2
left_child=2 -2 5 12 -5 9 -7 8 -8 10 11 -1 13 -4
right_child=1 -3 3 4 -6 6 7 -9 -10 -11 -12 -13 -14 -15
leaf_value=-0.011946168790883298 -0.00065876320969398617 0.00091059466692595069 0.0068238733984336448 -0.0084925430989995082 -0.00045247482495519846 -0.00089147823996614756 0.045442484082654118 0.0045039123524475144 0.016531349792124023 -0.00081284248465653889 -0.0015849164080653281 -0.00073014803708407693 0.0005374405796107249 -0.004075798662767435
leaf_weight=212 5207 5353 342 214 477 400 25 24 22 3159 500 85 6188 90
leaf_count=212 5207 5353 342 214 477 400 25 24 22 3159 500 85 6188 90
internal_value=0 0.000136765 -0.000123039 0.00044582 -0.00294245 -0.00106249 0.00265659 0.0226457 0.0319096 -0.00150528 -0.00424982 -0.0087362 0.00079949 0.00455311
internal_weight=0 10560 11738 7311 691 4427 471 71 47 3956 797 297 6620 432
internal_count=22298 10560 11738 7311 691 4427 471 71 47 3956 797 297 6620 432
shrinkage=0.15


Tree=102
num_leaves=15
num_cat=0
split_feature=19 23 3 3 33 3 33 28 20 6 33 3 33 29
split_gain=0.0173537 0.230245 0.609904 0.538385 0.40326 1.06151 1.13838 0.87207 0.718438 0.382369 0.359578 0.242557 0.204341 0.194289
threshold=1.17105e-07 -7.0012099999999995 -7.0804149999999995 -8.2700699999999987 7.1091050000000012e-07 -6.0851049999999995 -4.6349649999999989e-06 0.0027317700000000001 -6.242659999999999 -4.245869999999999e-06 9.9369500000000019e-07 -6.0183449999999992 1.0000000180025095e-35 -0.0048357199999999991
decision_type=2 2 2 2 2 2 2 2 2 2 2 2 2 2
left_child=1 13 3 12 5 6 -4 8 -8 -10 -5 -6 -3 -1
right_child=-2 2 4 10 11 -7 7 -9 9 -11 -12 -13 -14 -15
leaf_value=-0.00084238591457176475 -6.6733210923819046e-05 -0.0062787306387889642 -0.013915074543784494 -0.020202529800646914 -0.010904677183568868 -0.0027000810914706804 0.036048331973142923 0.044969709705689857 0.015340076509863137 -0.012486121034016832 -0.0042572648105516026 0.0004492824146892298 0.0021619716012224433 0.0015134310480825316
leaf_weight=1145 17777 137 23 82 67 158 22 29 25 20 52 115 122 2524
leaf_count=1145 17777 137 23 82 67 158 22 29 25 20 52 115 122 2524
internal_value=0 0.000262401 -0.00195898 -0.00629621 0.00175459 0.0053585 0.0160581 0.0232392 0.0138335 0.00297288 -0.0140148 -0.00373047 -0.0023028 0.000778242
internal_weight=0 4521 852 393 459 277 119 96 67 45 134 182 259 3669
internal_count=22298 4521 852 393 459 277 119 96 67 45 134 182 259 3669
shrinkage=0.15


Tree=103
num_leaves=15
num_cat=0
split_feature=20 0 0 19 3 3 13 3 23 23 3 11 34 4
split_gain=0.0182549 1.42708 1.20011 0.455291 0.611624 0.412953 0.603679 0.362719 1.20341 1.1835 1.13044 1.04993 0.680897 0.976924
threshold=-0.26438899999999993 -0.57813599999999987 -0.8145349999999999 2.9854050000000003e-05 -5.9940599999999984 -6.0660849999999993 8.9030150000000017e-05 -7.0056449999999986 -6.9873149999999988 -7.0597849999999989 -5.8314849999999989 8.9359100000000017e-05 0.19471550000000001 -0.26415599999999995
decision_type=2 2 2 2 2 2 2 2 2 2 2 2 2 2
left_child=1 -1 3 4 -2 6 -3 9 -9 11 -10 12 13 -4
right_child=2 5 7 -5 -6 -7 -8 8 10 -11 -12 -13 -14 -15
leaf_value=0.0016668209622902142 -0.0053083973243623845 -0.0035160145654535685 -0.00027463279925970434 -0.00055715055799372541 0.0008122736331193475 0.00076715777084341793 0.00045081552335207156 -0.0019864318239505747 0.012186403445419273 -0.0027196599235598182 -0.0025767114671545726 6.1727031564067766e-05 0.001366391105114842 0.0090339927543623619
leaf_weight=5106 1263 3245 318 3331 518 1117 1176 1701 300 859 191 1273 646 1254
leaf_count=5106 1263 3245 318 3331 518 1117 1176 1701 300 859 191 1273 646 1254
internal_value=0 -0.000142015 0.000129707 -0.00159226 -0.00352821 -0.00180975 -0.00246083 0.00147527 -9.8153e-05 0.00226813 0.00644352 0.00349543 0.00546618 0.00715095
internal_weight=0 10644 11654 5112 1781 5538 4421 6542 2192 4350 491 3491 2218 1572
internal_count=22298 10644 11654 5112 1781 5538 4421 6542 2192 4350 491 3491 2218 1572
shrinkage=0.15


Tree=104
num_leaves=15
num_cat=0
split_feature=7 25 29 26 28 23 28 18 1 25 25 7 28 29
split_gain=0.0169316 0.118578 0.0752817 0.0649471 0.0600086 0.0765273 0.0604728 0.0481965 0.0457532 0.0427416 0.0818756 0.0472349 0.07983 0.148625
threshold=5.9862050000000007e-05 112.04900000000002 -0.15649199999999996 0.022386850000000003 -0.0053803399999999991 -13.333999999999998 -0.0052695799999999994 0.0082976200000000021 1.9156850000000003 0.18021350000000003 0.18197100000000002 9.3411350000000015e-05 0.0065513600000000009 -0.017584299999999997
decision_type=2 2 2 2 2 2 2 2 2 2 2 2 2 2
left_child=-1 2 7 4 5 -4 -6 -2 -7 -8 -11 12 13 -12
right_child=1 -3 3 -5 6 8 9 -9 -10 10 11 -13 -14 -15
leaf_value=-7.7148529611479035e-05 -0.0030605128763997783 0.01175128018585383 0.0010861178189160558 0.0073750843125363359 0.0080838069796300253 -0.0019611048011430442 -0.00061631767748400034 0.0044591963956398624 -1.1347570572979749e-05 0.009299902646744157 0.012016510569876781 5.2113691885969132e-05 8.4262792729201483e-05 0.0017727405701006992
leaf_weight=16537 221 20 474 29 24 680 614 21 450 25 33 1458 783 929
leaf_count=16537 221 20 474 29 24 680 614 21 450 25 33 1458 783 929
internal_value=0 0.000221456 0.000181289 0.000295237 0.000257702 -0.000513615 0.000577721 -0.00240798 -0.00118465 0.000530833 0.000749033 0.000682292 0.00120882 0.00212414
internal_weight=0 5761 5741 5499 5470 1604 3866 242 1130 3842 3228 3203 1745 962
internal_count=22298 5761 5741 5499 5470 1604 3866 242 1130 3842 3228 3203 1745 962
shrinkage=0.15


Tree=105
num_leaves=15
num_cat=0
split_feature=7 29 32 12 29 19 25 2 13 33 33 33 36 33
split_gain=0.0159207 0.226525 0.310088 0.733937 0.965538 0.315591 0.116823 0.0956296 0.115513 0.416511 0.0926398 0.0815778 0.0939596 0.0823022
threshold=2.3366750000000001e-05 -0.010933649999999998 0.071193100000000023 -3.5175749999999993e-05 0.005042345000000001 4.442305000000001e-06 1.2179900000000001 -1.0898149999999998 -8.9274649999999981e-06 2.7049750000000007e-06 -4.6806049999999992e-06 1.9879800000000006e-06 -0.0021949849999999996 5.1041500000000011e-07
decision_type=2 2 2 2 2 2 2 2 2 2 2 2 2 2
left_child=1 6 7 4 -4 -6 -1 10 9 -9 -3 13 -13 -10
right_child=-2 2 3 -5 5 -7 -8 8 11 -11 -12 12 -14 -15
leaf_value=-0.011138466630460848 -2.4906423915565894e-05 -0.0076822312746015892 0.036695136297417129 -0.0031021472238618032 0.016095160142518581 -0.0075086365507629049 -0.0018760822048079716 -0.0032483121953971153 0.0013555843866732127 0.025093731038505211 -0.0006205793654943762 0.0050321513541146277 -0.0052177400799037861 0.011588613476072039
leaf_weight=45 21469 54 34 77 25 26 96 28 112 20 185 27 79 21
leaf_count=45 21469 54 34 77 25 26 96 28 112 20 185 27 79 21
internal_value=0 0.000645013 0.00176752 0.0075057 0.0171152 0.00406185 -0.00483216 2.41754e-07 0.00184591 0.00856087 -0.0022161 0.000497293 -0.00260692 0.00297133
internal_weight=0 829 688 162 85 51 141 526 287 48 239 239 106 133
internal_count=22298 829 688 162 85 51 141 526 287 48 239 239 106 133
shrinkage=0.15


Tree=106
num_leaves=15
num_cat=0
split_feature=21 1 3 14 22 34 31 14 3 22 1 1 3 14
split_gain=0.0172882 1.93115 1.60083 2.7594 1.48834 0.752137 0.42292 0.336056 0.398147 0.427568 0.478076 0.321833 0.3916 0.632012
threshold=-7.333029999999999 -7.5879649999999996 -6.2709449999999984 0.00049834000000000011 -0.80414149999999995 0.085718550000000018 -0.10043149999999999 0.0014883200000000002 -6.0183449999999992 -0.80414149999999995 -5.3311249999999992 -7.4202299999999992 -6.0660849999999993 0.00087164550000000016
decision_type=2 2 2 2 2 2 2 2 2 2 2 2 2 2
left_child=1 2 3 4 5 -1 -5 8 9 -3 -11 12 13 -2
right_child=11 7 -4 6 -6 -7 -8 -9 -10 10 -12 -13 -14 -15
leaf_value=0.032814829688303529 -0.005134565557513157 -0.0058591070029687968 -0.0012993600235308754 0.018343754703979358 -0.0095804946441203336 0.0044480227545136584 -0.0025918429102007806 0.00031264069019283706 0.00088933485329385342 0.023656694843832936 -0.00062519317612305452 0.00022774158896473094 0.00061241380223381369 0.00026487654117912115
leaf_weight=170 1099 892 282 25 25 24 165 1266 419 21 139 15592 1302 877
leaf_count=170 1099 892 282 25 25 24 165 1266 419 21 139 15592 1302 877
internal_value=0 0.000309884 0.00739549 0.0133905 0.0248665 0.0293055 0.000162841 -0.00147899 -0.00302094 -0.00457836 0.0025618 -5.62947e-05 -0.00140733 -0.00273815
internal_weight=0 3428 691 409 219 194 190 2737 1471 1052 160 18870 3278 1976
internal_count=22298 3428 691 409 219 194 190 2737 1471 1052 160 18870 3278 1976
shrinkage=0.15


Tree=107
num_leaves=15
num_cat=0
split_feature=39 4 14 14 3 34 14 10 20 22 2 7 2 2
split_gain=0.0146917 0.0617206 0.0945764 0.0709284 0.158686 0.0374585 0.0371919 0.0172657 0.216146 0.285532 1.43545 0.534822 0.365534 0.335365
threshold=5.4814300000000012e-07 0.025549650000000004 0.000128462 0.00033990750000000009 -6.1453949999999988 0.0019798600000000004 0.00039520800000000003 3.0953850000000005e-05 6.6102350000000003 -2.3514699999999995 -2.4146049999999994 3.1110600000000007e-05 -1.5721549999999997 -2.3306399999999994
decision_type=2 2 2 2 2 2 2 2 2 2 2 2 2 2
left_child=1 2 -1 4 -3 -2 -4 8 9 10 11 -7 -12 -11
right_child=5 3 6 -5 -6 7 -8 -9 -10 13 12 -13 -14 -15
leaf_value=0.011925666779279708 -0.0047192854391668289 -0.013780141602350901 -0.0036846172952209599 0.0013220620902144699 0.0029573071331251413 0.028055750305065883 0.0029769700820038865 0.00012443413023723141 -0.0015339241546135248 -0.0035249480507721104 -0.0073421772495383918 -0.00064480098662897942 -0.0014899915750203169 0.00081190054096511499
leaf_weight=24 38 26 24 98 25 48 88 11222 2034 426 314 21 1021 6889
leaf_count=24 38 26 24 98 25 48 88 11222 2034 426 314 21 1021 6889
internal_value=0 0.00107007 0.00338058 -0.00103885 -0.00557551 -1.38541e-05 0.00154949 -5.71726e-06 -0.000141545 0.000183274 -0.00177606 0.0193208 -0.00286646 0.000559338
internal_weight=0 285 136 149 51 22013 112 21975 10753 8719 1404 69 1335 7315
internal_count=22298 285 136 149 51 22013 112 21975 10753 8719 1404 69 1335 7315
shrinkage=0.15


Tree=108
num_leaves=15
num_cat=0
split_feature=28 14 35 15 7 0 8 30 13 14 15 0 10 14
split_gain=0.0155455 0.0401809 0.0208221 0.285655 0.289288 0.51765 0.31287 0.248818 0.108115 0.0980091 0.0620528 0.0561169 0.0472125 0.0555223
threshold=2.9088150000000002 0.0018774850000000001 -0.13470549999999998 -2.2807299999999995e-07 4.3519750000000006e-05 5.0141550000000015 2.0337550000000006e-06 0.009019095000000003 6.2961800000000011e-06 0.00063063750000000014 2.7377700000000004e-05 -4.205004999999999 5.1677100000000007e-05 0.0025870350000000005
decision_type=2 2 2 2 2 2 2 2 2 2 2 2 2 2
left_child=2 -2 3 4 5 6 8 -6 -1 -5 11 -11 -9 -14
right_child=1 -3 -4 9 7 -7 -8 12 -10 10 -12 -13 13 -15
leaf_value=0.0058382101823553963 0.00034548064894624988 -0.0069245455141824022 -2.281616202993783e-05 0.00068724730150464622 0.014518565979960841 0.026405843816974084 0.018536583554165331 0.0010246538810861239 -0.0058593362323881596 -0.011639640203677117 -0.00078239020940860167 -0.0038937575794332768 -0.0018043521444067461 -0.010475367970866499
leaf_weight=32 50 26 21304 324 24 32 26 64 40 25 140 133 54 24
leaf_count=32 50 26 21304 324 24 32 26 64 40 25 140 133 54 24
internal_value=0 -0.00214163 7.32446e-06 0.000706797 0.00454246 0.00984144 0.00443266 0.000392648 -0.000660427 -0.00111853 -0.00308186 -0.00511937 -0.00199483 -0.00447236
internal_weight=0 76 22222 918 296 130 98 166 72 622 298 158 142 78
internal_count=22298 76 22222 918 296 130 98 166 72 622 298 158 142 78
shrinkage=0.15


Tree=109
num_leaves=15
num_cat=0
split_feature=19 23 3 33 3 3 33 33 17 37 23 35 3 3
split_gain=0.0182817 0.167138 0.42215 0.480271 0.38747 0.381426 0.994377 0.664536 0.611453 0.496074 0.238907 0.336044 0.589992 0.270176
threshold=1.17105e-07 -7.0941599999999996 -7.1259249999999996 7.1091050000000012e-07 -8.7529949999999985 -6.3033449999999993 -5.1653849999999984e-07 -4.6349649999999989e-06 6.286725000000001e-08 -1.6253999999999998e-08 -6.3078499999999993 0.00077765450000000008 -5.8532899999999985 -6.0660849999999993
decision_type=2 2 2 2 2 2 2 2 2 2 2 2 2 2
left_child=1 -1 3 4 -3 6 7 -4 -9 -10 13 12 -12 -7
right_child=-2 2 5 -5 -6 10 -8 8 9 -11 11 -13 -14 -15
leaf_value=0.00073126191034112787 -6.8494344622228498e-05 -0.0044010463607264683 -0.0063562413361588754 0.0010229751490987836 -0.016455150205059908 -0.018052791416024169 -0.0072267737585089854 0.041866855695843697 -0.0043627013079822058 0.026805843081739212 0.026553786464099741 -0.010556297221046408 -0.00088247164540613686 -0.00213770867147913
leaf_weight=3598 17777 150 21 175 100 27 62 27 20 27 29 24 45 216
leaf_count=3598 17777 150 21 175 100 27 62 27 20 27 29 24 45 216
internal_value=0 0.000269326 -0.00153137 -0.00500389 -0.00922269 0.00143212 0.00755011 0.017194 0.0238771 0.0135426 -0.00138467 0.00486732 0.00986958 -0.00390605
internal_weight=0 4521 923 425 250 498 157 95 74 47 341 98 74 243
internal_count=22298 4521 923 425 250 498 157 95 74 47 341 98 74 243
shrinkage=0.15


Tree=110
num_leaves=15
num_cat=0
split_feature=4 34 24 4 4 3 4 24 34 3 26 24 26 24
split_gain=0.0143843 0.0525681 0.0585637 0.37336 0.0597931 0.0482233 0.0372582 0.479355 0.497749 0.377624 0.269195 0.13569 0.167328 0.101961
threshold=-1.2753049999999997 0.015784450000000002 -1.0171649999999997 -2.5874299999999995 -1.4013599999999997 -8.9964949999999977 -0.54522599999999988 -0.49633099999999991 1.1709150000000002 -13.373099999999999 0.00028852750000000002 -1.5736749999999997 0.00075147000000000007 -0.14870849999999999
decision_type=2 2 2 2 2 2 2 2 2 2 2 2 2 2
left_child=1 -1 3 -3 -4 -6 7 8 9 -2 -11 -10 -13 -9
right_child=6 2 4 -5 5 -7 -8 13 11 10 -12 12 -14 -15
leaf_value=0.0010956829010454166 0.00051856403646524988 -0.0022202933006799245 -0.00014353408760416531 0.01667441025281071 -0.0015357262828681422 -0.010124244636062941 -4.1825151637589392e-06 -0.0048417861391589741 -0.010678928747327756 0.013797884834431378 0.038113902127370237 -0.0051306918668358225 0.013629217527341097 -0.0012034650784486631
leaf_weight=1183 20 82 2451 33 38 24 17502 241 23 21 20 23 20 617
leaf_count=1183 20 82 2451 33 38 24 17502 241 23 21 20 23 20 617
internal_value=0 0.000265348 -0.000108428 0.00320167 -0.000259905 -0.00486031 -5.47002e-05 -0.000952325 0.00764857 0.0174165 0.0256594 -0.00137935 0.00359485 -0.00222542
internal_weight=0 3811 2628 115 2513 62 18487 985 127 61 41 66 43 858
internal_count=22298 3811 2628 115 2513 62 18487 985 127 61 41 66 43 858
shrinkage=0.15


Tree=111
num_leaves=15
num_cat=0
split_feature=20 9 9 3 14 20 34 29 30 4 4 33 4 29
split_gain=0.0139236 1.11029 0.978428 0.374319 0.706402 0.658127 0.609607 0.401334 0.380032 0.402587 0.416919 0.404328 0.395475 0.350771
threshold=0.17695500000000003 2.3755750000000005e-06 2.3755750000000005e-06 -7.0056449999999986 0.0024903750000000004 10.243750000000002 0.50594200000000011 -0.00030126849999999994 7.3466750000000003e-05 -0.78269099999999991 0.70090000000000008 -2.7636449999999999e-05 0.14757200000000004 -0.00030126849999999994
decision_type=2 2 2 2 2 2 2 2 2 2 2 2 2 2
left_child=1 -1 13 4 5 6 7 8 -4 -10 11 12 -11 -2
right_child=2 -3 3 -5 -6 -7 -8 -9 9 10 -12 -13 -14 -15
leaf_value=0.0013077043785410976 -0.0015846812300078178 -0.0016908493489068384 -0.0019396960027806924 -0.00015192259072951072 0.00017629158161390292 -0.0027284076375149622 -0.0017116092359581922 -0.0084470236029189367 -0.0013549724059152299 -0.0069973325910752697 -0.0015346179335954894 0.0099915871472214014 0.016033009941558068 0.0036646826032089245
leaf_weight=5841 5232 5299 100 1974 1699 256 232 39 103 62 88 1047 23 303
leaf_count=5841 5232 5299 100 1974 1699 256 232 39 103 62 88 1047 23 303
internal_value=0 -0.000118627 0.000118436 0.00151203 0.00241218 0.00436028 0.00543153 0.00656505 0.00697649 0.00765042 0.00841071 0.00918385 -0.000765593 -0.00129732
internal_weight=0 11140 11158 5623 3649 1950 1694 1462 1423 1323 1220 1132 85 5535
internal_count=22298 11140 11158 5623 3649 1950 1694 1462 1423 1323 1220 1132 85 5535
shrinkage=0.15


Tree=112
num_leaves=15
num_cat=0
split_feature=3 30 16 34 3 3 33 13 19 16 22 17 13 36
split_gain=0.0157215 0.0480391 0.0457024 0.0296185 0.127654 0.135663 0.214452 0.821164 0.376343 0.238546 0.469395 0.43267 0.167467 0.211905
threshold=-5.6285499999999988 6.530400000000001e-05 -7.3436099999999999e-07 0.0043944300000000004 -8.6049549999999986 -7.1259249999999996 1.0000000180025095e-35 7.0126500000000016e-07 1.0399100000000002e-09 -2.7965149999999993e-07 2.2846800000000003 2.8058700000000002e-07 2.0248650000000004e-06 2.3251950000000004e-05
decision_type=2 2 2 2 2 2 2 2 2 2 2 2 2 2
left_child=3 2 -2 4 -1 -6 8 9 -7 -8 11 -11 -10 -14
right_child=1 -3 -4 -5 5 6 7 -9 12 10 -12 -13 13 -15
leaf_value=0.0017323095789552995 0.0023359853346898618 0.00045868197233170691 -0.0039082433442910475 -0.00010707896346023127 -0.0031314519964061086 0.016788615126694953 0.0017183159581489033 -0.0046204762965486078 -0.0090603869252726833 0.040883006285002924 0.00070014840712246957 0.013655818721825448 -0.0070133140251671553 0.0058107881760915293
leaf_weight=932 35 2808 107 17632 338 21 27 113 92 24 24 29 57 59
leaf_count=932 35 2808 107 17632 338 21 27 113 92 24 24 29 57 59
internal_value=0 0.000322562 -0.00236917 -4.91811e-05 0.000545723 -0.000864863 0.000852866 0.00423177 -0.00234898 0.0138501 0.0181041 0.0259851 -0.00428114 -0.00049071
internal_weight=0 2950 142 19348 1716 784 446 217 229 104 77 53 208 116
internal_count=22298 2950 142 19348 1716 784 446 217 229 104 77 53 208 116
shrinkage=0.15


Tree=113
num_leaves=15
num_cat=0
split_feature=4 34 30 4 3 38 14 38 34 9 24 24 4 4
split_gain=0.018706 0.0411642 0.0409966 0.153423 0.16598 0.354156 0.851192 0.152733 0.133692 0.103299 0.0978667 0.094289 0.114691 0.0861976
threshold=-1.2753049999999997 0.0073015700000000011 0.00062225000000000008 -0.23257249999999996 -12.268599999999998 0.00074033250000000007 0.0039879200000000007 0.00035511300000000005 0.046840700000000006 -4.0856349999999994e-05 -0.13118299999999997 -0.14500749999999998 -0.34135149999999997 0.21259850000000002
decision_type=2 2 2 2 2 2 2 2 2 2 2 2 2 2
left_child=1 -1 3 4 5 8 -7 11 9 -2 -11 -6 -13 -4
right_child=2 -3 13 -5 7 6 -8 -9 -10 10 -12 12 -14 -15
leaf_value=0.00139685015816682 0.0095403219122090367 8.0497418246559184e-05 -0.00016155559354861121 -3.2018252771643661e-05 0.0061415893513889564 0.026428758605782473 -0.0098102817493490868 -0.0068905707540548537 -0.0080312186045976321 -0.0060890497634049929 0.00053097176201462337 -0.00099771208320383812 -0.0050442109952989044 0.00090525233803100146
leaf_weight=643 24 3168 4935 9541 31 35 25 174 53 61 285 487 233 2603
leaf_count=643 24 3168 4935 9541 31 35 25 174 53 61 285 487 233 2603
internal_value=0 0.000302595 -6.23785e-05 -0.00024772 -0.00170937 0.000544426 0.0113292 -0.00288622 -0.000985324 2.39531e-05 -0.000636142 -0.00195845 -0.0023072 0.000206831
internal_weight=0 3811 18487 10949 1408 483 60 925 423 370 346 751 720 7538
internal_count=22298 3811 18487 10949 1408 483 60 925 423 370 346 751 720 7538
shrinkage=0.15


Tree=114
num_leaves=15
num_cat=0
split_feature=5 20 0 14 39 13 1 22 33 0 3 18 24 37
split_gain=0.0181554 0.0798304 1.34959 0.621758 0.820357 0.775548 0.593802 1.00346 1.2208 0.459405 0.373146 0.327644 2.31146 1.17025
threshold=1.5931550000000002e-05 6.7425350000000011 6.3174200000000011 8.9943600000000018e-05 1.2426400000000002e-06 4.3202500000000012e-05 -3.4755699999999994 -0.40206949999999991 3.6521050000000005e-06 6.3174200000000011 -6.2311749999999995 2.5037200000000004e-07 0.099990550000000025 3.9191750000000011e-08
decision_type=2 2 2 2 2 2 2 2 2 2 2 2 2 2
left_child=1 9 -3 -4 -5 6 -6 -8 11 -1 -11 12 -9 -13
right_child=-2 2 3 4 5 -7 7 8 -10 10 -12 13 -14 -15
leaf_value=0.00022036985035015814 0.00014535944343763854 -0.0014614034008278232 0.00034646760533982215 -0.0056126658919156856 0.0021341781131923197 -0.0023149927149591219 -0.005241340952012126 0.03848726232012268 0.052443651341600346 -0.0038734433476389032 0.00032653508360862488 0.0084026258846279234 -0.012194934543633901 0.047826536610955372
leaf_weight=7632 10355 1694 207 59 48 56 29 40 30 1282 757 36 41 32
leaf_count=7632 10355 1694 207 59 48 56 29 40 30 1282 757 36 41 32
internal_value=0 -0.000126032 0.000674079 0.00693274 0.0106076 0.0136749 0.0171726 0.020643 0.0248366 -0.000314001 -0.00231416 0.0192781 0.0128333 0.0269551
internal_weight=0 11943 2272 578 371 312 256 208 179 9671 2039 149 81 68
internal_count=22298 11943 2272 578 371 312 256 208 179 9671 2039 149 81 68
shrinkage=0.15


Tree=115
num_leaves=15
num_cat=0
split_feature=13 36 5 32 32 5 10 31 38 37 30 32 37 15
split_gain=0.01564 0.147579 0.128775 0.143109 0.120224 0.157261 0.0962535 0.172414 0.115717 0.201442 0.07744 0.0729914 0.143146 0.0695461
threshold=-5.3656799999999991e-05 -0.0019384549999999997 1.6457450000000003e-05 -0.77736949999999994 -0.30838849999999995 2.3546000000000005e-05 4.8749750000000009e-05 0.18069800000000005 -0.00037538599999999996 -1.0649599999999999e-07 6.3954700000000027e-05 0.30019650000000003 3.4780550000000008e-07 2.7377700000000004e-05
decision_type=2 2 2 2 2 2 2 2 2 2 2 2 2 2
left_child=1 2 -1 -4 5 -3 7 11 9 -8 -10 12 -6 -5
right_child=-2 4 3 13 6 -7 8 -9 10 -11 -12 -13 -14 -15
leaf_value=-0.010991731309150056 2.6222874029646067e-05 0.01697385613171553 0.0080526747901435904 -0.0066504563371771437 -0.001180604854627386 -0.00011078703941570388 0.015808170292325483 -0.011495737628205174 0.0090968302788678561 0.00050660812366357057 -0.00059336166837675524 -0.0094841049180831756 0.010962453869706222 0.00088571936648804692
leaf_weight=48 21367 22 26 84 243 27 32 38 20 49 257 20 24 41
leaf_count=48 21367 22 26 84 243 27 32 38 20 49 257 20 24 41
internal_value=0 -0.00060183 -0.00422391 -0.00207254 0.00038286 0.00755987 -0.000132036 -0.00200095 0.0015646 0.00655167 0.000106291 -0.000743799 -8.9094e-05 -0.00417859
internal_weight=0 931 199 151 732 49 683 325 358 81 277 287 267 125
internal_count=22298 931 199 151 732 49 683 325 358 81 277 287 267 125
shrinkage=0.15


Tree=116
num_leaves=15
num_cat=0
split_feature=23 14 3 20 0 16 26 36 11 7 17 14 4 18
split_gain=0.015583 0.0809035 0.105295 0.22712 1.1847 0.412677 0.393415 0.250092 0.309679 0.355578 0.131491 0.0859449 0.0782686 0.105435
threshold=-15.447399999999998 0.00028607250000000007 -15.591149999999997 1.3299850000000002 0.3655675000000001 2.0018450000000003e-07 4.9198200000000006e-05 -0.020281949999999997 -3.8506649999999998e-05 5.2731350000000011e-05 1.1607050000000001e-07 0.016793500000000006 -1.4429999999999998 -6.5097399999999991e-06
decision_type=2 2 2 2 2 2 2 2 2 2 2 2 2 2
left_child=1 -1 3 5 -5 7 -6 -3 9 -9 -7 -12 -4 -14
right_child=-2 2 12 4 6 10 -8 8 -10 -11 11 -13 13 -15
leaf_value=0.0014274741434471951 -4.8292356051533666e-05 0.02094917834869453 0.0011326579975264107 -0.01372485350817442 0.036756172666523174 -0.00024824235106593573 0.0087731883488595484 0.02353251482626157 -0.012375663706651805 -0.003464225523740701 -0.018684112702289389 -0.0062062402544340685 -0.003517864797832932 -0.00042016846466730388
leaf_weight=986 19418 21 406 30 26 29 20 21 22 23 27 23 340 906
leaf_count=986 19418 21 406 30 26 29 20 21 22 23 27 23 340 906
internal_value=0 0.000325604 -0.000248019 0.00267413 0.00946551 -0.00043518 0.0245897 0.00669165 0.00215517 0.00942058 -0.00828372 -0.0129443 -0.000676082 -0.00126545
internal_weight=0 2880 1894 242 76 166 46 87 66 44 79 50 1652 1246
internal_count=22298 2880 1894 242 76 166 46 87 66 44 79 50 1652 1246
shrinkage=0.15


Tree=117
num_leaves=15
num_cat=0
split_feature=14 23 3 3 23 23 3 3 10 20 20 27 32 10
split_gain=0.0151622 0.170461 0.381138 0.715617 4.53448 0.615944 0.682462 0.598161 0.441895 1.18002 1.08694 0.971382 0.834225 0.612599
threshold=0.00030207300000000009 -8.596409999999997 -8.7185599999999983 -7.1437349999999986 -7.1876599999999993 -7.2010749999999994 -6.0660849999999993 -6.0851049999999995 3.0111200000000004e-05 7.2319950000000004 -6.908199999999999 1.9368750000000003 0.04973120000000001 2.4169550000000006e-05
decision_type=2 2 2 2 2 2 2 2 2 2 2 2 2 2
left_child=1 -1 -3 4 8 6 -5 -7 9 10 -4 -12 -10 -11
right_child=-2 2 3 5 -6 7 -8 -9 12 13 11 -13 -14 -15
leaf_value=-0.00076125280084850342 9.3009902716783055e-05 -0.0062490632845987586 0.0050722627030265312 -0.0077621565003048384 -0.0074925334179326295 0.005669558147396783 -0.00010862510176684736 -0.00073917079147721009 0.015338321664666909 -0.008838051110651576 0.039172497378301994 0.0051658128367979891 -0.009058915293153405 0.023314113202504812
leaf_weight=4608 14244 172 41 403 355 563 750 784 149 40 106 23 40 20
leaf_count=4608 14244 172 41 403 355 563 750 784 149 40 106 23 40 20
internal_value=0 -0.000164494 0.000633494 0.00099507 0.00498065 -0.000238867 -0.00278371 0.00193946 0.0155486 0.0199644 0.0263474 0.0331093 0.0101749 0.00187934
internal_weight=0 8054 3446 3274 774 2500 1153 1347 419 230 170 129 189 60
internal_count=22298 8054 3446 3274 774 2500 1153 1347 419 230 170 129 189 60
shrinkage=0.15


Tree=118
num_leaves=15
num_cat=0
split_feature=36 15 13 35 18 21 15 2 22 20 9 6 35 7
split_gain=0.0167156 0.111749 0.401504 0.34282 0.612807 1.02516 1.29432 0.69539 1.59226 0.323924 0.609456 0.304773 0.641995 0.616636
threshold=0.0015212650000000002 -4.9996399999999987e-09 4.6590500000000007e-06 6.4614200000000016e-05 2.4600650000000005e-06 3.0961150000000006 -2.4382999999999996e-06 -0.98238349999999985 -0.80414149999999995 6.9333050000000016 2.671945e-05 1.0000000180025095e-35 6.4614200000000016e-05 2.9073450000000005e-05
decision_type=2 2 2 2 2 2 2 2 2 2 2 2 2 2
left_child=-1 2 3 4 7 -6 -7 8 -2 -9 -11 12 -3 -14
right_child=1 11 -4 -5 5 6 -8 9 -10 10 -12 -13 13 -15
leaf_value=-7.6314121959045349e-05 0.049825593167250708 -0.00091002901218664842 -0.0019052014331625848 -0.00089791954991266137 0.0020749973545379531 0.0068788167787715787 0.05335635788595447 -0.0029891273895781959 -0.0024199518115658844 -0.0023748313734114805 0.027722054702462629 -0.00068716909362373751 0.014646338019090101 0.0034212114447627643
leaf_weight=16575 21 715 1689 528 74 28 26 287 35 41 24 1459 132 664
leaf_count=16575 21 715 1689 528 74 28 26 287 35 41 24 1459 132 664
internal_value=0 0.000221022 -0.000467433 0.00181489 0.00448721 0.0135424 0.0292569 0.00164637 0.0171721 -0.000823632 0.00873787 0.000859175 0.0023523 0.00528266
internal_weight=0 5723 2753 1064 536 128 54 408 56 352 65 2970 1511 796
internal_count=22298 5723 2753 1064 536 128 54 408 56 352 65 2970 1511 796
shrinkage=0.15


Tree=119
num_leaves=15
num_cat=0
split_feature=7 36 16 10 8 22 23 16 10 10 1 22 2 34
split_gain=0.0200829 0.0838062 0.0782893 0.12936 0.145385 0.523331 0.118569 0.0820997 0.0962473 0.0755784 0.119626 0.0922168 0.172795 0.0825253
threshold=4.6796750000000009e-05 -0.00059287749999999985 -3.0616149999999996e-08 4.8749750000000009e-05 -2.2330899999999997e-05 1.4417250000000001 -18.777899999999999 5.1865800000000007e-05 5.4297700000000007e-05 6.6086700000000012e-05 -5.9840399999999994 1.7890850000000003 1.1075350000000002 0.061870450000000007
decision_type=2 2 2 2 2 2 2 2 2 2 2 2 2 2
left_child=-1 2 3 4 5 -2 -6 8 -4 10 13 -12 -13 -5
right_child=1 -3 7 9 6 -7 -8 -9 -10 -11 11 12 -14 -15
leaf_value=-0.00012083583248360013 -0.0010747810515485154 0.00046824603634662164 -0.0039614397202427367 0.011766015113680623 0.010836226764755943 0.026461287133861332 0.00058225524041135548 0.0001072587243264064 -0.00078891389139667666 0.00038852962338192478 -0.0023333879725169508 -0.001648065220022897 -0.018601261830190195 -0.00019330285524759078
leaf_weight=12960 44 6452 388 20 27 24 421 575 483 529 283 31 24 37
leaf_count=12960 44 6452 388 20 27 24 421 575 483 529 283 31 24 37
internal_value=0 0.000167705 -0.00050419 0.000278694 0.00218118 0.00864383 0.00120024 -0.00128382 -0.00220216 -0.000783733 -0.00235367 -0.00342565 -0.00904582 0.00400295
internal_weight=0 9338 2886 1440 516 68 448 1446 871 924 395 338 55 57
internal_count=22298 9338 2886 1440 516 68 448 1446 871 924 395 338 55 57
shrinkage=0.15


Tree=120
num_leaves=15
num_cat=0
split_feature=14 23 33 20 19 9 24 21 13 34 33 31 34 14
split_gain=0.0184308 0.0885769 0.0941267 0.159696 0.324705 0.0910468 0.0782999 0.0879699 0.0833714 0.0896477 0.0687181 0.0686666 0.0574337 0.0465991
threshold=8.5393400000000015e-05 -7.7487749999999993 -1.1829249999999999e-07 10.287650000000001 0.00022022600000000004 -5.6092049999999994e-05 -0.076125699999999977 -11.776899999999998 -1.3883599999999999e-05 0.0028920900000000004 1.7107900000000001e-06 0.011748200000000002 0.0054544700000000003 0.00030207300000000009
decision_type=2 2 2 2 2 2 2 2 2 2 2 2 2 2
left_child=1 -1 -3 5 10 11 12 -8 -9 -10 -5 -4 -7 -2
right_child=13 2 3 4 -6 6 7 8 9 -11 -12 -13 -14 -15
leaf_value=0.00082144188005420422 -0.00046959215910809401 -0.0021354851526305695 0.0010947142177846635 0.0074776525190100073 0.022424871862379157 0.0070571978710566845 -0.011995082319248469 0.0061393832318241371 -0.011877510244958102 -0.0016859616628639273 -0.0037999294533003717 0.011833806256098407 -0.00044265756484946901 7.6898644214978151e-05
leaf_weight=2382 4659 567 37 20 22 28 25 22 25 87 31 21 128 14244
leaf_count=2382 4659 567 37 20 22 28 25 22 25 87 31 21 128 14244
internal_value=0 0.000321793 -0.000853099 0.0007772 0.00719318 -0.000478475 -0.00148408 -0.00382659 -0.00230261 -0.00396086 0.000622652 0.00498301 0.00090347 -5.77943e-05
internal_weight=0 3395 1013 446 73 373 315 159 134 112 51 58 156 18903
internal_count=22298 3395 1013 446 73 373 315 159 134 112 51 58 156 18903
shrinkage=0.15


Tree=121
num_leaves=15
num_cat=0
split_feature=3 30 7 34 14 8 21 14 0 4 21 14 2 14
split_gain=0.0165877 0.0317603 0.0363755 0.0258037 0.0891855 0.148855 0.168295 0.193938 0.303162 0.113174 0.0967761 0.295713 0.10362 0.0693731
threshold=-5.6285499999999988 6.530400000000001e-05 4.1972450000000008e-05 0.0029143000000000003 0.00039520800000000003 2.0366550000000002e-05 -8.4047699999999974 6.8656300000000009e-05 -9.5725449999999999 -0.046025099999999992 10.479100000000001 0.00015685400000000003 -1.1111349999999998 0.00012460750000000003
decision_type=2 2 2 2 2 2 2 2 2 2 2 2 2 2
left_child=3 2 -2 4 5 6 9 8 -8 -1 12 -12 -9 -11
right_child=1 -3 -4 -5 -6 -7 7 10 -10 13 11 -13 -14 -15
leaf_value=-0.00096939731425104228 -0.0051138930488086771 0.00044200812528942166 -8.7448806057775235e-05 -8.9575085764601538e-05 0.0017407015015728161 0.0099639979889616353 -0.0065882810018956656 0.00098707797957243971 0.017099142650653036 -0.019966708591455242 0.015230127320999442 -0.007724422848800064 -0.0085899161101137093 -0.0078873974939241351
leaf_weight=26 50 2808 92 18412 629 24 20 39 31 20 23 28 73 23
leaf_count=26 50 2808 92 18412 629 24 20 39 31 20 23 28 73 23
internal_value=0 0.000331328 -0.00185732 -5.05178e-05 0.000717775 -0.00137806 -0.00233993 -0.000262855 0.00780996 -0.00878186 -0.0027887 0.00262763 -0.00525507 -0.0135057
internal_weight=0 2950 142 19348 936 307 283 214 51 69 163 51 112 43
internal_count=22298 2950 142 19348 936 307 283 214 51 69 163 51 112 43
shrinkage=0.15


Tree=122
num_leaves=15
num_cat=0
split_feature=24 4 4 34 7 3 14 18 37 4 4 3 19 24
split_gain=0.0164277 0.206324 0.694604 0.505346 0.571711 0.139045 0.11545 0.116821 0.100512 0.0653294 0.104349 0.0584266 0.0539513 0.0641537
threshold=0.50494800000000006 0.39091350000000008 1.0464400000000003 2.7222300000000006 4.3519750000000006e-05 -16.190649999999994 0.0016468900000000002 2.2429050000000002e-07 -1.5826649999999995e-05 0.27629100000000006 0.22294900000000004 -12.582649999999999 0.00012176650000000002 0.97722050000000016
decision_type=2 2 2 2 2 2 2 2 2 2 2 2 2 2
left_child=-1 6 3 4 -3 -4 9 12 -7 10 11 -2 13 -8
right_child=1 2 5 -5 -6 8 7 -9 -10 -11 -12 -13 -14 -15
leaf_value=-3.6751702334305725e-05 0.0066310927502854613 0.034325007877002156 0.010096520024504009 -0.00024197806890767355 0.0075922852993244297 0.0073043517820123166 -0.0083614101482774403 -0.010615060151227422 -0.0023368829875125368 -0.0075823346131735228 0.0087160522426295624 9.0647397171602682e-05 -0.00086565782088562904 0.0011812374884713158
leaf_weight=20618 32 36 26 39 36 27 51 37 246 22 35 775 295 23
leaf_count=20618 32 36 26 39 36 27 51 37 246 22 35 775 295 23
internal_value=0 0.00045104 0.00337668 0.0135098 0.0209586 -0.000385104 -0.000493459 -0.00257978 -0.00138335 0.000486918 0.000697754 0.000349996 -0.00177407 -0.00539545
internal_weight=0 1680 410 111 72 299 1270 406 273 864 842 807 369 74
internal_count=22298 1680 410 111 72 299 1270 406 273 864 842 807 369 74
shrinkage=0.15


Tree=123
num_leaves=15
num_cat=0
split_feature=10 22 8 19 8 3 22 0 13 20 11 3 23 14
split_gain=0.0170661 0.174601 0.477977 1.01038 1.73016 1.45174 0.851988 0.785697 0.642173 0.209571 0.310319 0.399855 1.84641 2.79227
threshold=3.0953850000000005e-05 -2.4895149999999995 2.8631450000000004e-06 6.6825450000000016e-05 1.6470850000000005e-05 -6.4683699999999993 -2.8657299999999997 -7.0536649999999996 2.3062650000000005e-05 5.0566400000000007 1.44886e-05 -8.7529949999999985 -8.723844999999999 0.00093646950000000017
decision_type=2 2 2 2 2 2 2 2 2 2 2 2 2 2
left_child=-1 2 -2 4 5 6 8 -8 -4 -3 -11 12 13 -12
right_child=1 9 3 -5 -6 -7 7 -9 -10 10 11 -13 -14 -15
leaf_value=-0.0001340475975461121 -0.00090066748000986352 -0.00053500318923844136 0.037008132599294183 0.00011338256660609821 -0.0032725995964111377 0.00010459876459208316 0.030370708804444542 0.067787017073968184 -0.0010035692341625691 -0.00040879834769650195 0.034418936222966295 0.00052704266118561009 -0.0028888310410155721 0.0031572129751536219
leaf_weight=10912 686 7002 20 366 88 40 28 23 20 1714 100 838 281 180
leaf_count=10912 686 7002 20 366 88 40 28 23 20 1714 100 838 281 180
internal_value=0 0.000128467 0.00178553 0.0049355 0.0129944 0.0239218 0.0343909 0.0472447 0.0180023 -7.97509e-05 0.000944238 0.00260192 0.0057013 0.0143221
internal_weight=0 11386 1271 585 219 131 91 51 40 10115 3113 1399 561 280
internal_count=22298 11386 1271 585 219 131 91 51 40 10115 3113 1399 561 280
shrinkage=0.15


Tree=124
num_leaves=15
num_cat=0
split_feature=2 22 3 6 34 34 12 1 22 2 6 3 34 22
split_gain=0.0183817 0.485957 0.382196 0.535858 0.588017 0.440588 0.53126 0.332244 0.151481 0.189721 0.110549 0.116786 0.106043 0.0925609
threshold=2.4785100000000004 2.5246950000000008 -6.1453949999999988 6.3016950000000013e-07 0.092190600000000011 0.029300950000000003 3.5611300000000009e-05 3.5878250000000005 1.6390350000000002 2.5560000000000005 1.3746400000000004e-06 -9.3717349999999993 0.092190600000000011 2.5246950000000008
decision_type=2 2 2 2 2 2 2 2 2 2 2 2 2 2
left_child=13 8 3 12 5 6 -5 -6 -2 -10 -11 -12 -3 -1
right_child=1 2 -4 4 7 -7 -8 -9 9 10 11 -13 -14 -15
leaf_value=5.5876086248492525e-05 0.00016100333329501472 -0.0090770420702308632 -0.0052536539675202224 0.030369874566793444 0.013372956227575396 0.040024768804701474 -0.0019927714552198136 -0.011757694969419389 0.0064825623530743856 -0.001536497888797573 -0.016157184394383378 -0.0056771975464753582 0.0042264080689554768 -0.0010892329553042371
leaf_weight=18660 1441 26 45 25 29 26 21 20 34 87 33 87 28 1736
leaf_count=18660 1441 26 45 25 29 26 21 20 34 87 33 87 28 1736
internal_value=0 0.000445984 0.00707557 0.0102459 0.0157909 0.0244173 0.0155956 0.00311555 -0.000421145 -0.00390196 -0.00560763 -0.00855919 -0.00217896 -4.15896e-05
internal_weight=0 1902 220 175 121 72 46 49 1682 241 207 120 54 20396
internal_count=22298 1902 220 175 121 72 46 49 1682 241 207 120 54 20396
shrinkage=0.15


Tree=125
num_leaves=15
num_cat=0
split_feature=3 14 23 3 3 23 23 37 23 23 3 34 31 0
split_gain=0.0206467 0.0370714 0.237855 0.583532 0.501686 4.41383 0.70239 0.574848 0.322838 0.296163 0.375773 1.07116 0.674057 1.32145
threshold=-6.0660849999999993 0.00020048900000000004 -7.6100699999999994 -7.6085299999999991 -7.1437349999999986 -7.0749549999999992 -7.2010749999999994 -1.2428449999999998e-08 -6.0874249999999988 -13.501149999999997 -7.6085299999999991 0.017236800000000004 -0.030669899999999996 7.1825050000000008
decision_type=2 2 2 2 2 2 2 2 2 2 2 2 2 2
left_child=1 2 9 -4 5 7 -6 -5 -8 -1 11 12 13 -11
right_child=-2 -3 3 4 6 -7 8 -9 -10 10 -12 -13 -14 -15
leaf_value=0.0012776520004575936 0.00029086466008199416 2.8371657339522163e-05 -0.005818102100569377 0.030388540058629586 -0.0093861833770092374 -0.009998075397492482 0.0048992847127776957 0.06074564422667026 -0.0083915822456280386 -0.00073386390111409119 -0.004040853070519281 -0.0040056803555055141 0.0050731438965372294 0.051985662884038428
leaf_weight=649 4406 14732 200 32 111 87 477 25 45 20 1091 298 102 23
leaf_count=649 4406 14732 200 32 111 87 477 25 45 20 1091 298 102 23
internal_value=0 -7.1627e-05 -0.000537823 0.00140746 0.00326733 0.0112586 0.0014494 0.0437031 0.00375352 -0.00140844 -0.00254486 0.00113942 0.0117135 0.027465
internal_weight=0 17892 3160 977 777 144 633 57 522 2183 1534 443 145 43
internal_count=22298 17892 3160 977 777 144 633 57 522 2183 1534 443 145 43
shrinkage=0.15


Tree=126
num_leaves=15
num_cat=0
split_feature=4 30 16 36 17 31 27 14 3 5 13 35 35 14
split_gain=0.0183969 0.0409294 0.138964 0.874263 0.827255 0.562152 0.488783 0.506282 0.447533 0.418069 0.403648 1.10144 0.977404 0.362798
threshold=-1.2753049999999997 0.00062225000000000008 6.8233950000000015e-07 0.0029276250000000001 1.6740550000000002e-06 -1.5261949999999997 1.3920700000000001 0.0050396650000000013 -5.9940599999999984 9.8016150000000022e-06 -4.0658949999999991e-06 -0.00053935599999999984 0.0027109000000000005 0.0048829100000000007
decision_type=2 2 2 2 2 2 2 2 2 2 2 2 2 2
left_child=-1 -2 -3 -4 5 -5 13 8 9 -8 12 -12 -11 -7
right_child=1 2 3 4 -6 6 7 -9 -10 10 11 -13 -14 -15
leaf_value=0.00030008529207117065 -0.00024705062179827971 -0.00017714370083200649 -0.0018360788914065921 -0.004516511769745395 0.00085049958413729442 -0.0014938474256996415 0.00098785062320530417 -4.9522048972833612e-05 0.00098891444899241576 0.033577210473795902 0.005951547597942408 0.040455513510353147 -0.0053671251791770217 0.019882498611442988
leaf_weight=3811 10949 5559 999 54 580 80 20 39 28 29 30 68 29 23
leaf_count=3811 10949 5559 999 54 580 80 20 39 28 29 30 68 29 23
internal_value=0 -6.1861e-05 0.000207128 0.00128655 0.00446971 0.00971757 0.0119391 0.0156096 0.0186032 0.0214055 0.0240232 0.0298931 0.014105 0.00327951
internal_weight=0 18487 7538 1979 980 400 346 243 204 176 156 98 58 103
internal_count=22298 18487 7538 1979 980 400 346 243 204 176 156 98 58 103
shrinkage=0.15


Tree=127
num_leaves=15
num_cat=0
split_feature=14 21 1 34 33 5 26 19 34 21 21 19 29 21
split_gain=0.0217575 0.0829881 0.0658244 0.0471868 0.0627325 0.120731 0.0456674 0.0896825 0.221362 0.0627177 0.0586892 0.0472095 0.0429738 0.03334
threshold=8.5393400000000015e-05 12.350850000000001 8.8117350000000005 0.029557850000000004 -1.1829249999999999e-07 8.2215450000000006e-06 5.0205600000000006e-05 0.00022022600000000004 0.0097646550000000023 -10.575199999999997 -11.776899999999998 0.00010274350000000002 -0.012745949999999997 10.826150000000002
decision_type=2 2 2 2 2 2 2 2 2 2 2 2 2 2
left_child=1 3 -3 4 12 -6 10 9 -9 -8 -7 -11 -1 -2
right_child=13 2 -4 -5 5 6 7 8 -10 11 -12 -13 -14 -15
leaf_value=-0.0069591590953576891 -0.00011323674266784734 -0.0018998781079496996 -0.011524394547034586 0.00097128881366710174 0.010199905129848048 -0.0078301819798070934 0.0079045786510940404 0.017107448949375086 -0.0012064015281132677 0.0004291471451903238 -0.0001483450460962014 -0.007095274851391358 -0.00086924169120433995 0.00072392084899636255
leaf_weight=27 17764 67 21 1857 30 24 23 27 33 176 331 21 758 1139
leaf_count=27 17764 67 21 1857 30 24 23 27 33 176 331 21 758 1139
internal_value=0 0.000349629 -0.00419664 0.000470607 -0.000170612 0.000901346 0.000462044 0.00189437 0.00703483 0.000492429 -0.000667681 -0.000372949 -0.0010787 -6.27938e-05
internal_weight=0 3395 88 3307 1450 665 635 280 60 220 355 197 785 18903
internal_count=22298 3395 88 3307 1450 665 635 280 60 220 355 197 785 18903
shrinkage=0.15


Tree=128
num_leaves=15
num_cat=0
split_feature=3 39 3 3 4 34 20 25 14 23 15 31 7 9
split_gain=0.0171494 0.02703 0.0606483 0.0537989 0.0556177 0.0276181 0.0266257 0.0333165 0.0297469 0.0277 0.0243353 0.0241315 0.12316 0.311076
threshold=-5.6285499999999988 5.4814300000000012e-07 -6.3570149999999996 -8.3853449999999992 0.025549650000000004 0.0019798600000000004 -13.7966 21.777050000000006 8.7428400000000005e-05 -6.8980549999999985 2.3408800000000002e-07 -3.0264299999999995 4.0471750000000004e-05 2.4324200000000003e-05
decision_type=2 2 2 2 2 2 2 2 2 2 2 2 2 2
left_child=1 2 3 -1 -5 -3 -2 9 -9 -8 -11 12 13 -7
right_child=6 5 -4 4 -6 11 7 8 -10 10 -12 -13 -14 -15
leaf_value=0.0020554664434130469 0.0046401614064620839 -0.0044746502728230551 0.0078249914792831981 0.0016065467940019776 -0.0076162732171548165 0.00026423391711925771 0.00059605666325609965 -0.00060130622096787108 -0.005972896636333591 -0.0013332596138485523 0.0011542324329457188 -9.2293909158546304e-05 -0.001216619768256616 0.012685371208988458
leaf_weight=161 32 32 30 28 31 177 2354 73 34 337 120 18554 274 61
leaf_count=161 32 32 30 28 31 177 2354 73 34 337 120 18554 274 61
internal_value=0 -5.13659e-05 0.00149823 0.000635495 -0.00323934 -7.16508e-05 0.000336891 0.000289699 -0.00230817 0.000388587 -0.000680089 -6.42609e-05 0.000951608 0.0034478
internal_weight=0 19348 250 220 59 19098 2950 2918 107 2811 457 19066 512 238
internal_count=22298 19348 250 220 59 19098 2950 2918 107 2811 457 19066 512 238
shrinkage=0.15


Tree=129
num_leaves=15
num_cat=0
split_feature=12 32 19 29 29 13 9 19 34 37 32 28 9 27
split_gain=0.0165159 0.289881 0.556613 0.751208 1.08327 1.30291 0.424693 0.187273 0.20898 0.16866 0.138991 0.0959096 0.202112 0.0882894
threshold=0.00015368350000000003 -0.091684249999999981 8.9050550000000007e-05 0.0026523850000000006 -0.0050750449999999994 1.9728250000000005e-05 1.0582550000000001e-05 2.7200000000000004e-05 0.14197300000000004 -1.5826649999999995e-05 -1.0340799999999997 0.0087844750000000017 -1.0630249999999999e-05 2.9585750000000002
decision_type=2 2 2 2 2 2 2 2 2 2 2 2 2 2
left_child=-1 2 3 4 6 -6 10 8 -3 -4 -2 12 -11 -10
right_child=1 7 9 -5 5 -7 -8 -9 13 11 -12 -13 -14 -15
leaf_value=-5.8770830300197745e-05 0.0062788667559454383 -0.0016336004868892028 0.013918922981247306 -0.0029839471963382298 0.063787031010724596 0.011948343884068889 0.018886592185420641 5.8658344430186032e-05 -0.014122211176436394 0.017860122021686818 -0.0097827423053483149 -0.00023458802978566269 -0.00085614816283957813 -0.0047636030482122839
leaf_weight=18470 22 351 21 69 20 24 36 2465 48 21 27 647 34 43
leaf_count=18470 22 351 21 69 20 24 36 2465 48 21 27 647 34 43
internal_value=0 0.000283568 0.00260261 0.00964913 0.0164064 0.0355114 0.00651669 -0.000451153 -0.00329433 0.000672853 -0.00257141 0.000276603 0.00629006 -0.00970001
internal_weight=0 3828 921 198 129 44 85 2907 442 723 49 702 55 91
internal_count=22298 3828 921 198 129 44 85 2907 442 723 49 702 55 91
shrinkage=0.15


Tree=130
num_leaves=15
num_cat=0
split_feature=0 20 3 19 22 14 22 11 23 8 27 16 24 23
split_gain=0.0164561 0.580234 0.67177 0.617983 2.06867 1.29235 0.762343 0.727782 0.666459 0.535704 0.502126 0.37959 0.454826 0.312461
threshold=-5.7937299999999992 -5.8760399999999988 -6.1926199999999989 2.5573700000000003e-06 -2.0338549999999995 0.00030207300000000009 2.2215250000000002 -0.00010487699999999998 -9.6343949999999978 -2.0079799999999995e-06 0.62480400000000014 -1.9567599999999998e-07 -0.078674499999999981 -7.8051399999999989
decision_type=2 2 2 2 2 2 2 2 2 2 2 2 2 2
left_child=1 2 3 4 5 8 -5 -8 -1 13 11 -10 -13 -9
right_child=-2 -3 -4 6 -6 -7 7 9 10 -11 -12 12 -14 -15
leaf_value=-0.0088288982177618883 -6.655868171102576e-05 -0.00063431274689937497 -0.0016676651615012813 -0.0026257573861562656 -0.0048330556062865073 0.050139531352033369 -0.0024390954568227767 0.017685094187982031 -0.00097962350118905315 -0.0041511582577368243 0.037749325933641401 0.0077850721437822687 0.039039546679705377 0.03806935866646792
leaf_weight=20 17602 3666 375 243 96 32 62 64 24 20 29 22 20 23
leaf_count=20 17602 3666 375 243 96 32 62 64 24 20 29 22 20 23
internal_value=0 0.000249482 0.0033951 0.00629363 0.012293 0.0234773 0.00275518 0.0104923 0.0160583 0.0179852 0.0212977 0.014069 0.0226682 0.023074
internal_weight=0 4696 1030 655 243 147 412 169 115 107 95 66 42 87
internal_count=22298 4696 1030 655 243 147 412 169 115 107 95 66 42 87
shrinkage=0.15


Tree=131
num_leaves=15
num_cat=0
split_feature=16 36 10 23 10 34 17 38 34 16 13 8 0 16
split_gain=0.0184104 0.0592733 0.167088 0.0365089 0.0823867 0.0557055 0.035359 0.0313188 0.0335464 0.0371969 0.0365441 0.0292597 0.0453569 0.0265972
threshold=-1.4839649999999998e-05 -0.72559949999999984 2.4974600000000006e-05 -18.671999999999993 1.8787700000000003e-05 2.7222300000000006 0.00021931550000000002 0.20218650000000002 0.022909750000000003 -2.2228749999999996e-05 -1.4346749999999998e-05 -9.3534949999999991e-06 -0.88545849999999982 -5.9821999999999986e-07
decision_type=2 2 2 2 2 2 2 2 2 2 2 2 2 2
left_child=1 2 -1 4 -3 7 -6 8 -5 -10 -11 -7 -13 -2
right_child=13 3 -4 5 6 11 -8 -9 9 10 -12 12 -14 -15
leaf_value=0.01608914516516961 -0.00043780318650503387 0.011251190434476093 -0.0013882238260521263 0.00076330518442809686 -0.00013246666997357613 -0.00037457574935009081 0.0062726921782086716 0.0058831630936104122 -2.8559045075206313e-06 -0.0068456673152468275 -0.0012289616519146581 -0.010665316129629702 -0.0021828136962171443 2.4531576814664551e-05
leaf_weight=20 3434 21 32 1412 101 45 24 22 1814 33 124 23 37 15156
leaf_count=20 3434 21 32 1412 101 45 24 22 1814 33 124 23 37 15156
internal_value=0 0.000305182 0.00533384 0.000233659 0.00255781 0.000136984 0.00109732 0.00024192 0.000205234 -0.000194561 -0.00240954 -0.00326593 -0.00543444 -6.08723e-05
internal_weight=0 3708 52 3656 146 3510 125 3405 3383 1971 157 105 60 18590
internal_count=22298 3708 52 3656 146 3510 125 3405 3383 1971 157 105 60 18590
shrinkage=0.15


Tree=132
num_leaves=15
num_cat=0
split_feature=3 14 29 33 23 6 33 34 18 6 18 14 23 33
split_gain=0.0206047 0.0346385 0.169609 0.246678 0.229336 0.91044 0.622006 0.527012 0.632872 0.364007 0.305755 0.460389 0.958817 0.280984
threshold=-6.0660849999999993 0.00020048900000000004 0.0089962400000000008 -1.1829249999999999e-07 -8.596409999999997 -1.0093574999999998e-07 8.7255100000000015e-07 0.017854750000000003 -2.6498299999999996e-06 -1.4189549999999998e-07 5.9504550000000011e-07 0.00011671000000000001 -7.1876599999999993 3.2973150000000004e-06
decision_type=2 2 2 2 2 2 2 2 2 2 2 2 2 2
left_child=1 2 3 -1 9 -6 -7 8 -8 -5 11 13 -13 -10
right_child=-2 -3 -4 4 5 6 7 -9 10 -11 -12 12 -14 -15
leaf_value=-0.0024861218990006729 0.00029056869554852627 2.5107591213547853e-05 0.0015589347044517525 0.0019515477894506497 -0.003625677881497705 0.031684041174594314 -0.015086923982016741 -0.0055055920586233867 0.013959643636525678 -0.0055485240460896685 -0.0031126446728392139 0.043840412116579471 0.0034190187190213926 -0.0043143604248762129
leaf_weight=1334 4406 14732 689 312 265 24 20 63 78 273 23 31 23 25
leaf_count=1334 4406 14732 689 312 265 24 20 63 78 273 23 31 23 25
internal_value=0 -7.15541e-05 -0.000522193 -0.00110248 0.000520888 0.00271397 0.00856766 0.00645818 0.0102268 -0.00154849 0.0130394 0.0154056 0.0266239 0.00952421
internal_weight=0 17892 3160 2471 1137 552 287 263 200 585 180 157 54 103
internal_count=22298 17892 3160 2471 1137 552 287 263 200 585 180 157 54 103
shrinkage=0.15


Tree=133
num_leaves=15
num_cat=0
split_feature=2 22 0 6 23 24 18 23 33 16 5 23 7 22
split_gain=0.018449 0.239357 0.307106 0.376172 0.688237 0.520296 0.511428 0.178459 0.125072 0.130856 0.101477 0.0983698 0.0788321 0.0918207
threshold=2.4785100000000004 2.5246950000000008 -9.7577099999999977 6.3016950000000013e-07 -12.773699999999998 -0.10210749999999999 -1.3027099999999999e-06 -7.7487749999999993 1.3750400000000002e-06 -3.3148899999999998e-07 1.6041900000000003e-05 -12.295749999999998 3.8688750000000005e-05 1.9407300000000003
decision_type=2 2 2 2 2 2 2 2 2 2 2 2 2 2
left_child=-1 8 7 11 -5 -6 -7 -3 -2 10 12 -4 -10 -14
right_child=1 2 3 4 5 6 -8 -9 9 -11 -12 -13 13 -15
leaf_value=-4.1665547934109416e-05 0.00084301367922462022 -0.0077243440219557239 0.0058512302647743906 -0.0025796341554295004 0.042268339544534683 -0.0035673161968588826 0.029574920355596324 0.0084388094806027679 -0.0033717481030556694 0.0014786909519609744 -0.0012545777236395918 -0.0078371250691513222 -0.0064711412681455324 -0.01831134888518136
leaf_weight=20396 1049 51 21 35 22 20 22 22 116 189 252 27 56 20
leaf_count=20396 1049 51 21 35 22 20 22 22 116 189 252 27 56 20
internal_value=0 0.000446798 0.00509956 0.00904892 0.0143325 0.0235813 0.0137929 -0.00285326 -0.000161768 -0.00182688 -0.00323398 -0.00184847 -0.00583195 -0.00958699
internal_weight=0 1902 220 147 99 64 42 73 1682 633 444 48 192 76
internal_count=22298 1902 220 147 99 64 42 73 1682 633 444 48 192 76
shrinkage=0.15


Tree=134
num_leaves=15
num_cat=0
split_feature=23 14 9 3 3 23 3 21 19 3 23 3 3 11
split_gain=0.0183192 0.0612231 0.056215 0.0884644 0.0617115 0.366771 0.161495 0.0610831 0.14608 0.0541747 0.0753747 0.379163 0.265275 0.288277
threshold=-15.447399999999998 0.00028607250000000007 4.8533350000000009e-05 -13.453149999999999 -17.219549999999995 -17.905199999999997 -18.343149999999998 -8.1337099999999989 0.00017160800000000004 -11.202249999999998 -17.401049999999994 -16.017899999999994 -15.591149999999997 7.7357200000000012e-05
decision_type=2 2 2 2 2 2 2 2 2 2 2 2 2 2
left_child=1 -1 4 -4 5 -3 -7 8 -6 10 11 -9 13 -12
right_child=-2 2 3 -5 7 6 -8 9 -10 -11 12 -13 -14 -15
leaf_value=0.0013115613510211238 -5.2360649374646571e-05 0.014891211934563879 0.011047213188494028 0.0011021468121573251 0.014544005845673381 -0.015191287952475249 0.0017955950913293396 -0.01771793397823097 -0.00081153354524007143 -4.551438376898057e-06 0.015840644562350851 -0.0016499203731513861 -0.0021994432461161805 -0.0045034968741238116
leaf_weight=986 19418 37 23 161 20 20 34 37 46 843 42 309 297 25
leaf_count=986 19418 37 23 161 20 20 34 37 46 843 42 309 297 25
internal_value=0 0.000353034 -0.000145966 0.00234528 -0.00041403 0.00338681 -0.00449584 -0.000627666 0.00384166 -0.000817605 -0.00178296 -0.00336818 -0.00027614 0.00824955
internal_weight=0 2880 1894 184 1710 91 54 1619 66 1553 710 346 364 67
internal_count=22298 2880 1894 184 1710 91 54 1619 66 1553 710 346 364 67
shrinkage=0.15


Tree=135
num_leaves=15
num_cat=0
split_feature=4 24 4 20 34 18 34 30 3 33 19 33 3 33
split_gain=0.0172354 0.0336511 0.100616 0.286204 0.0297946 0.125593 0.200597 0.109833 0.103375 0.310133 0.318398 0.417602 0.197085 0.430383
threshold=-1.2753049999999997 -0.22278649999999997 -1.4429999999999998 -0.61434 0.029557850000000004 -7.3056799999999988e-06 0.019164450000000003 7.503375000000001e-05 -10.793699999999999 -1.2726999999999999e-05 1.0039915000000001e-06 -3.0503249999999999e-06 -8.2462449999999983 -5.8740449999999989e-06
decision_type=2 2 2 2 2 2 2 2 2 2 2 2 2 2
left_child=1 2 -1 -4 5 6 7 -2 9 -7 11 -11 13 -10
right_child=4 -3 3 -5 -6 8 -8 -9 12 10 -12 -13 -14 -15
leaf_value=-0.00090686033810077752 0.002318256266985722 0.00053270510367526603 -0.0053225224078430429 0.018608439582153965 0.00010257390233018412 0.012643770441354717 -0.0056132154149871267 -0.0015723622518378207 0.0089727588919694401 -0.013092974613350378 -7.1244607003074999e-05 -0.0021864727536892808 -0.00026929745649803826 0.00084572096285986747
leaf_weight=824 208 2942 23 22 10700 36 236 759 167 106 1064 310 3700 1201
leaf_count=824 208 2942 23 22 10700 36 236 759 167 106 1064 310 3700 1201
internal_value=0 0.000290457 -0.000529672 0.00637706 -5.98763e-05 -0.000283097 -0.00169239 -0.000735497 -2.55968e-05 -0.00111233 -0.00144694 -0.00496553 0.000299479 0.00183784
internal_weight=0 3811 869 45 18487 7787 1203 967 6584 1516 1480 416 5068 1368
internal_count=22298 3811 869 45 18487 7787 1203 967 6584 1516 1480 416 5068 1368
shrinkage=0.15


Tree=136
num_leaves=15
num_cat=0
split_feature=3 20 0 14 23 3 39 19 3 23 23 16 25 29
split_gain=0.0154086 0.030186 0.0467589 0.0241042 0.243218 0.348784 0.400176 0.628224 0.364726 2.36985 1.24946 0.74043 1.2489 0.569024
threshold=-5.8709549999999995 12.896400000000002 10.028350000000001 0.00032540650000000004 -8.596409999999997 -8.7529949999999985 1.2426400000000002e-06 1.2666300000000002e-08 -7.1437349999999986 -7.1221599999999992 -7.0941599999999996 3.1444050000000007e-07 0.71141650000000012 0.048127750000000004
decision_type=2 2 2 2 2 2 2 2 2 2 2 2 2 2
left_child=3 -2 -3 4 -1 -6 -7 -8 9 13 -10 -12 -13 -9
right_child=1 2 -4 -5 5 6 7 8 10 -11 11 12 -14 -15
leaf_value=-0.0012663537780904172 0.00033112585959263718 0.0010043523836617983 -0.0076699855397843438 4.7289069119461952e-05 -0.0052882654162883565 -0.002056827700956056 -0.0030787895614964697 0.017029083969694565 -0.0042488070740203292 -0.0061747891641521606 0.0047726415908578524 -0.0068592838922758468 0.035244562914629247 -0.0085290044263404384
leaf_weight=2787 3670 29 27 13613 190 537 324 294 334 182 216 23 51 21
leaf_count=2787 3670 29 27 13613 190 537 324 294 334 182 216 23 51 21
internal_value=0 0.000278387 -0.00317792 -5.58512e-05 -0.000338983 0.000850973 0.0014395 0.00273882 0.00442027 0.00745197 0.00200561 0.00920896 0.0221582 0.0153252
internal_weight=0 3726 56 18572 4959 2172 1982 1445 1121 497 624 290 74 315
internal_count=22298 3726 56 18572 4959 2172 1982 1445 1121 497 624 290 74 315
shrinkage=0.15


Tree=137
num_leaves=15
num_cat=0
split_feature=14 23 3 23 34 23 3 21 25 3 4 26 23 21
split_gain=0.0160074 0.0697689 0.074171 0.437576 0.296299 0.0503363 0.348105 0.255258 0.253735 0.234193 0.124853 0.10285 0.0891043 0.0414461
threshold=8.5393400000000015e-05 -7.7487749999999993 -6.6798249999999992 -6.6423099999999993 0.0043944300000000004 -6.6704199999999991 -6.0660849999999993 -9.1152649999999991 0.66376400000000013 -5.9940599999999984 -0.034778199999999988 8.0350800000000017e-05 -7.0012099999999995 -1.2341999999999997
decision_type=2 2 2 2 2 2 2 2 2 2 2 2 2 2
left_child=1 -1 3 4 -3 9 7 -7 10 11 -9 12 -4 -8
right_child=-2 2 5 -5 -6 6 13 8 -10 -11 -12 -13 -14 -15
leaf_value=0.0007433326231389303 -5.3860793971695318e-05 0.016222337633371352 -0.0065752226929816967 -0.022071888527716511 -0.0063152250853766283 -0.0047547806477682151 0.00048439479242960216 0.012864859425462781 0.00028745661922065273 0.00033959768396460096 0.028702182841620273 0.0014147315974696541 -0.016850402196400358 -0.0029492335616989785
leaf_weight=2382 18903 21 64 24 35 22 143 24 21 410 21 24 27 177
leaf_count=2382 18903 21 64 24 35 22 143 24 21 410 21 24 27 177
internal_value=0 0.000299891 -0.000742831 -0.00512611 0.00213636 -0.000366987 0.000882814 0.00923789 0.0139021 -0.00133826 0.0202556 -0.00732019 -0.0096239 -0.00141483
internal_weight=0 3395 1013 80 56 933 408 88 66 525 45 115 91 320
internal_count=22298 3395 1013 80 56 933 408 88 66 525 45 115 91 320
shrinkage=0.15


Tree=138
num_leaves=15
num_cat=0
split_feature=20 0 5 27 14 34 0 36 31 0 22 23 14 14
split_gain=0.015064 0.288595 0.307628 0.311619 0.204631 0.251307 0.243313 0.198302 0.287869 0.283889 0.119036 0.148365 0.222424 0.286182
threshold=-6.908199999999999 -6.6329049999999992 1.0742400000000002e-05 0.18832000000000002 0.0014883200000000002 0.28311400000000003 -0.14529699999999998 -0.0025049649999999996 0.057727650000000012 -9.2655099999999972 2.9842100000000005 -8.8487049999999989 0.00050767250000000009 0.00010474400000000001
decision_type=2 2 2 2 2 2 2 2 2 2 2 2 2 2
left_child=1 2 3 -1 5 6 -3 -5 -9 -10 11 -4 13 -13
right_child=-2 4 10 7 -6 -7 -8 8 9 -11 -12 12 -14 -15
leaf_value=0.026274635551963001 5.2512553472022324e-05 -0.0065171232532963939 -0.0023021708312977811 -0.0052441794981455637 0.00037995714792382515 0.0014445710071285152 -0.0017595725901293916 -0.0038430040930397804 0.0010644256160594523 0.023245733387050896 -0.0082571079814806585 0.0010165806928853272 -0.0025978476385920928 0.011099214555288199
leaf_weight=20 18874 357 163 27 1306 326 750 25 20 37 30 141 107 115
leaf_count=20 18874 357 163 27 1306 326 750 25 20 37 30 141 107 115
internal_value=0 -0.000289463 0.00246426 0.00906361 -0.000978145 -0.00221588 -0.00329385 0.00590562 0.0095769 0.0154628 0.000933113 0.00145727 0.00314539 0.00554589
internal_weight=0 3424 685 129 2739 1433 1107 109 82 57 556 526 363 256
internal_count=22298 3424 685 129 2739 1433 1107 109 82 57 556 526 363 256
shrinkage=0.15


Tree=139
num_leaves=15
num_cat=0
split_feature=8 21 10 37 32 10 34 28 1 20 21 7 26 0
split_gain=0.0150687 0.0896977 0.283087 0.45741 0.180881 0.0503564 0.128735 0.0808395 0.0604183 0.028023 0.0298727 0.173795 0.0252419 0.0243061
threshold=-2.6429649999999995e-05 7.8746950000000009 6.2210950000000015e-05 8.2374600000000023e-09 -0.03156164999999999 6.1490500000000017e-05 0.0037225250000000004 0.035472750000000004 6.5703850000000008 4.1304500000000006 5.2304250000000012 0.00012162700000000001 0.15587000000000004 -8.6250749999999972
decision_type=2 2 2 2 2 2 2 2 2 2 2 2 2 2
left_child=1 5 3 4 -3 6 -1 8 -8 10 -7 -12 -2 -11
right_child=12 2 -4 -5 -6 9 7 -9 -10 13 11 -13 -14 -15
leaf_value=-0.01238526067311835 -2.712820599867877e-05 0.027919347553203504 -0.00047731557674302256 -0.0031295687378257173 0.0090984867734368886 0.00070743042673434046 -0.0091071202737194566 0.0063860858314001229 -0.00096042952390570165 0.0015995882198716659 0.015951885315589606 -3.8069612480914941e-05 -0.0039485137558831649 -0.0013814917837843487
leaf_weight=23 20674 27 164 33 20 563 22 32 297 83 20 65 37 238
leaf_count=23 20674 27 164 33 20 563 22 32 297 83 20 65 37 238
internal_value=0 0.000445459 0.00309113 0.0104065 0.0199105 -3.52146e-05 -0.00151366 -0.000801281 -0.00152227 0.000535415 0.00110316 0.00372427 -3.41337e-05 -0.000610683
internal_weight=0 1587 244 80 47 1343 374 351 319 969 648 85 20711 321
internal_count=22298 1587 244 80 47 1343 374 351 319 969 648 85 20711 321
shrinkage=0.15


Tree=140
num_leaves=15
num_cat=0
split_feature=7 31 22 32 12 25 17 11 9 12 32 32 22 3
split_gain=0.0142769 0.127927 0.159001 0.206208 0.666961 0.705607 0.322959 0.121913 0.107817 0.0946621 0.304614 0.0746106 0.0903006 0.0684066
threshold=2.3366750000000001e-05 -0.046675499999999988 -2.2909299999999999 0.045972000000000006 -3.5175749999999993e-05 0.56615050000000011 1.9559650000000001e-07 4.8637800000000011e-05 -6.1783549999999994e-06 3.737620000000001e-05 -0.04994574999999999 0.022886650000000005 1.0000000180025095e-35 -11.639899999999999
decision_type=2 2 2 2 2 2 2 2 2 2 2 2 2 2
left_child=1 7 8 9 5 -5 -7 -1 -3 11 -11 12 -4 -12
right_child=-2 2 3 4 -6 6 -8 -9 -10 10 13 -13 -14 -15
leaf_value=-0.0034083898962642199 -2.3585573802635898e-05 -0.01140832013675365 0.010243289995202076 0.041938598730948802 -0.0036298352211000242 0.019474136991014416 -0.00553609841985495 0.0085657202904777865 -0.00050836890029882934 0.015213285648750866 0.0024050640553468839 -0.0080200047637335944 -0.00024402892916494104 -0.0094730115617858244
leaf_weight=215 21469 29 20 20 58 26 21 21 69 39 24 25 242 20
leaf_count=215 21469 29 20 20 58 26 21 21 69 39 24 25 242 20
internal_value=0 0.000610807 0.00178631 0.00287919 0.00814649 0.0183409 0.00829935 -0.0023429 -0.00373386 0.0010997 0.0055612 -0.000190555 0.00055653 -0.00299406
internal_weight=0 829 593 495 125 67 47 236 98 370 83 287 262 44
internal_count=22298 829 593 495 125 67 47 236 98 370 83 287 262 44
shrinkage=0.15


Tree=141
num_leaves=15
num_cat=0
split_feature=14 23 35 5 20 7 37 18 13 0 37 24 32 23
split_gain=0.0141958 0.0508728 0.0488839 0.109318 0.293927 0.0928511 0.105185 0.240456 0.0962596 0.0873387 0.0664799 0.0668055 0.0548499 0.054807
threshold=8.5393400000000015e-05 -7.7487749999999993 -0.00014393299999999998 1.0097350000000001e-05 1.3299850000000002 4.8593700000000009e-05 1.8378350000000003e-08 1.5021800000000003e-07 1.1327450000000001e-05 6.6959050000000007 -2.1911099999999999e-08 -0.067002399999999976 0.012815700000000001 -6.7222749999999989
decision_type=2 2 2 2 2 2 2 2 2 2 2 2 2 2
left_child=1 -1 3 4 -3 6 8 -8 10 -10 -4 -12 -5 -13
right_child=-2 2 5 12 -6 -7 7 -9 9 -11 11 13 -14 -15
leaf_value=0.00066107157051183022 -5.0721655709316791e-05 -0.0027314319352929788 -0.00085351100868588745 -0.0021301111656764652 0.021260378239676355 0.00057683745866362191 -0.0029445806914288231 0.015269281007359884 -0.0038793032743140226 -0.015548633186957768 0.00059070026502013203 -0.0038309373277505593 0.0016101970424642787 -0.013892970911773113
leaf_weight=2382 18903 27 113 173 20 278 73 21 27 31 20 21 180 29
leaf_count=2382 18903 27 113 173 20 278 73 21 27 31 20 21 180 29
internal_value=0 0.000282413 -0.000607977 0.000681963 0.00747785 -0.0014497 -0.00313142 0.00112447 -0.0047914 -0.0101164 -0.00310371 -0.00673617 -0.000222872 -0.00966692
internal_weight=0 3395 1013 400 47 613 335 94 241 58 183 70 353 50
internal_count=22298 3395 1013 400 47 613 335 94 241 58 183 70 353 50
shrinkage=0.15


Tree=142
num_leaves=15
num_cat=0
split_feature=8 22 3 22 14 23 3 12 14 23 23 27 17 25
split_gain=0.0139507 0.207552 0.251714 0.326722 0.407281 0.454137 1.63108 0.479944 0.467468 0.697506 0.664904 0.547117 0.755824 0.788903
threshold=1.2981850000000002e-05 -0.48205149999999991 -5.9150349999999987 -2.5366299999999997 0.0031252900000000006 -11.212849999999998 -11.757099999999998 -0.00015921049999999997 0.00018910500000000004 -6.5572499999999989 -6.518324999999999 1.229535 6.009005000000001e-09 0.36656450000000002
decision_type=2 2 2 2 2 2 2 2 2 2 2 2 2 2
left_child=-1 2 3 -2 5 6 -5 -7 10 11 -9 12 -10 -14
right_child=1 -3 -4 4 -6 7 -8 8 9 -11 -12 -13 13 -15
leaf_value=-6.2224109680232567e-05 -0.001767360074922732 -0.00065182233224363964 -0.0013589921898338295 0.035748568503186105 -0.00028837637876103753 -0.0008659436018076252 -0.0030074568234729677 0.00022645229636899394 -0.0089109531481101709 -0.0057142076184391044 0.025181087121720715 0.030572148867864406 0.030326141964941912 0.0056693266617782812
leaf_weight=17488 343 2681 572 27 422 105 257 140 28 32 29 57 61 56
leaf_count=17488 343 2681 572 27 422 105 257 140 28 32 29 57 61 56
internal_value=0 0.000226232 0.00133195 0.00232052 0.0034755 0.005481 0.000677095 0.00816665 0.0105201 0.0148617 0.00450861 0.0181212 0.0132267 0.0185246
internal_weight=0 4810 2129 1557 1214 792 284 508 403 234 169 202 145 117
internal_count=22298 4810 2129 1557 1214 792 284 508 403 234 169 202 145 117
shrinkage=0.15


Tree=143
num_leaves=15
num_cat=0
split_feature=4 24 3 28 2 24 14 15 17 10 14 6 28 20
split_gain=0.0176356 0.0340989 0.118544 0.042492 0.0522226 0.0244503 0.156194 0.144212 0.106789 0.0739304 0.0358754 0.0358394 0.037231 0.0312597
threshold=-1.2753049999999997 -1.5736749999999997 -8.5126099999999987 -0.018294949999999994 -0.10328099999999998 1.3124250000000002 0.017873850000000004 9.6953850000000031e-07 5.6394650000000004e-08 2.5184550000000003e-05 0.0015781900000000004 -4.845394999999999e-07 -0.12963549999999999 -11.509499999999997
decision_type=2 2 2 2 2 2 2 2 2 2 2 2 2 2
left_child=1 2 -1 4 -3 -2 7 8 9 -7 -9 12 -10 -13
right_child=5 3 -4 -5 -6 6 -8 10 11 -11 -12 13 -14 -15
leaf_value=0.011332024935632944 -8.0887228804130183e-05 -0.0021866672975126519 -0.0039552316368956647 0.00046231587503765917 0.00064170144094094928 0.0026905824610366832 0.011565345954732039 -0.0034978696423682517 0.00014483553066384048 0.015038916460471228 -0.012265754640767616 0.0061635200539603826 -0.0079792265055320145 -0.00014965039386879652
leaf_weight=25 18234 328 21 3171 266 24 30 21 30 20 21 25 22 60
leaf_count=25 18234 328 21 3171 266 24 30 21 30 20 21 25 22 60
internal_value=0 0.00029381 0.00435306 0.000244215 -0.000920091 -6.05674e-05 0.0014039 3.68935e-05 0.00187438 0.00830346 -0.00788181 -0.00019043 -0.00329227 0.00170716
internal_weight=0 3811 46 3765 594 18487 253 223 181 44 42 137 52 85
internal_count=22298 3811 46 3765 594 18487 253 223 181 44 42 137 52 85
shrinkage=0.15


Tree=144
num_leaves=15
num_cat=0
split_feature=3 14 34 21 1 1 29 11 34 21 1 1 34 35
split_gain=0.0158091 0.034275 0.132854 0.0944634 3.03083 0.455959 0.452913 0.526307 0.237207 0.221201 2.81712 0.502835 0.520136 0.363821
threshold=-6.0660849999999993 0.00032540650000000004 1.1379750000000002 10.010650000000002 9.2952400000000015 9.2952400000000015 0.0013296750000000002 1.5077750000000001e-06 0.042997250000000008 -7.8433199999999994 -7.6665399999999986 -8.1643199999999982 0.022130950000000003 -0.00055351899999999993
decision_type=2 2 2 2 2 2 2 2 2 2 2 2 2 2
left_child=1 2 3 5 -5 9 7 -6 -7 10 -1 -11 13 -13
right_child=-2 -3 -4 4 6 8 -8 -9 -10 11 -12 12 -14 -15
leaf_value=0.019251527849925107 0.0002545180780157156 5.7813205132381422e-05 0.0020279400536990879 -0.0076062102226155176 0.0050035164691507811 -0.0076665079629920181 0.044815828339196742 0.030959202736043013 -0.0016441318232043667 -0.0044896014167612446 -0.0055165368282377681 0.0095467197793993128 -0.0015756917164302458 0.001725161158822669
leaf_weight=156 4406 13384 449 223 32 302 20 39 287 611 306 166 1227 690
leaf_count=156 4406 13384 449 223 32 302 20 39 287 611 306 166 1227 690
internal_value=0 -6.26764e-05 -0.000420403 -0.000691235 0.00180781 -0.000900768 0.0248773 0.0192609 -0.00473201 -0.00018575 0.00284671 -0.000705792 0.000404101 0.00324196
internal_weight=0 17892 4508 4059 314 3745 91 71 589 3156 462 2694 2083 856
internal_count=22298 17892 4508 4059 314 3745 91 71 589 3156 462 2694 2083 856
shrinkage=0.15


Tree=145
num_leaves=15
num_cat=0
split_feature=14 34 0 16 38 25 3 39 35 21 17 7 11 29
split_gain=0.0141394 0.0451958 0.0644965 0.105413 0.0892614 0.0813897 0.0604019 0.0452732 0.0446314 0.0406044 0.037373 0.0909452 0.0337143 0.105298
threshold=8.5393400000000015e-05 0.0032332500000000004 10.841800000000001 1.2108200000000003e-07 3.0214850000000001e-05 0.19963550000000002 -5.7568699999999984 8.6575650000000011e-07 0.00012241700000000002 14.437200000000002 7.1999850000000008e-08 4.4335150000000005e-05 7.9731800000000022e-06 0.0018253700000000002
decision_type=2 2 2 2 2 2 2 2 2 2 2 2 2 2
left_child=1 2 3 4 5 8 -4 -3 10 12 -1 -12 -9 -14
right_child=-2 7 6 -5 -6 -7 -8 9 -10 -11 11 -13 13 -15
leaf_value=0.0018808377702953293 -5.0620649200438856e-05 0.0063298737808885376 0.00907895120268222 -0.011907877683147996 0.0076069762359838927 -0.01169660854086812 -0.00073255054376204494 0.00078965334646151559 0.0034114385582506655 -0.0051161564685753549 -0.013202911608719399 6.9009651465771292e-05 -0.0015794444149983817 0.0014028546988646782
leaf_weight=20 18903 29 20 27 20 21 48 2025 30 30 21 26 597 481
leaf_count=20 18903 29 20 27 20 21 48 2025 30 30 21 26 597 481
internal_value=0 0.00028185 -0.0017343 -0.00333642 -0.00165939 -0.00322996 0.00215319 0.000430416 -0.00139698 0.000375809 -0.00355 -0.005861 0.000428905 -0.000248753
internal_weight=0 3395 233 165 138 118 68 3162 97 3133 67 47 3103 1078
internal_count=22298 3395 233 165 138 118 68 3162 97 3133 67 47 3103 1078
shrinkage=0.15


Tree=146
num_leaves=15
num_cat=0
split_feature=15 27 23 35 15 2 35 31 25 3 4 15 35 23
split_gain=0.014734 0.0274052 0.0363177 0.0633995 0.339318 0.0327309 0.0301623 0.0268415 0.02553 0.0248552 0.0230329 0.0227545 0.910481 0.421083
threshold=1.3180150000000001e-05 1.6128600000000002 -17.037399999999995 0.40066000000000007 5.9191200000000003e-05 -2.2968099999999994 0.25632850000000007 0.50766850000000019 39.016550000000002 -13.736049999999999 -1.7843149999999997 3.1330250000000005e-07 0.0026070400000000001 -12.174849999999998
decision_type=2 2 2 2 2 2 2 2 2 2 2 2 2 2
left_child=11 -2 6 5 -5 7 9 10 -6 -3 -4 -1 -13 -14
right_child=1 2 3 4 8 -7 -8 -9 -10 -11 -12 12 13 -15
leaf_value=2.4355265694056159e-05 0.00051368191589025555 -0.0061426860687788572 0.00027794957946493273 0.015783585928511455 -0.0012182311111246236 -0.00010121859192508964 -0.0075019968160911672 -0.0062547714730802296 -0.0084746508265379824 3.3139617268094105e-06 -0.0056521693620015861 -0.0017080530744495019 -0.00045766959895484868 0.0069065356670980228
leaf_weight=15218 2739 20 56 32 24 640 26 36 20 57 20 2658 276 476
leaf_count=15218 2739 20 56 32 24 640 26 36 20 57 20 2658 276 476
internal_value=0 0.000274706 -0.000428359 -9.79296e-05 0.00403084 -0.000515199 -0.00308463 -0.0028808 -0.0045166 -0.00159305 -0.00128261 -5.41213e-05 -0.000404343 0.00420372
internal_weight=0 3670 931 828 76 752 103 112 44 77 76 18628 3410 752
internal_count=22298 3670 931 828 76 752 103 112 44 77 76 18628 3410 752
shrinkage=0.15


Tree=147
num_leaves=15
num_cat=0
split_feature=23 14 11 20 8 3 39 21 3 29 14 22 3 2
split_gain=0.0171852 0.0457725 0.0532648 0.170799 0.309535 0.0607533 0.277961 0.387924 0.0483626 0.0604995 0.0514688 0.0481318 0.180846 0.96264
threshold=-15.447399999999998 0.00032540650000000004 0.00013889850000000002 4.3684300000000009 6.3061400000000007e-06 -17.219549999999995 0.00021084750000000004 -0.88088699999999986 -14.946699999999998 -0.0078364649999999991 0.017218350000000004 -1.6888299999999996 -14.405299999999999 -1.6899999999999997
decision_type=2 2 2 2 2 2 2 2 2 2 2 2 2 2
left_child=1 -1 5 8 -5 6 -3 -8 9 -4 -11 12 13 -7
right_child=-2 2 3 4 -6 11 7 -9 -10 10 -12 -13 -14 -15
leaf_value=0.0011409449764661218 -5.0714236459394934e-05 -0.0061832339561910228 0.0043668715842068188 0.020532445939898024 -0.0034365981150503186 0.030903340451885013 -0.0029344569845125078 0.026255395582744055 0.0013992714171350811 -0.011394001292064786 -0.0022167612094728447 -0.0012783902298233172 -0.00068661101656938893 -0.0069959944196039264
leaf_weight=1034 19418 35 20 27 22 25 20 21 219 20 44 1005 350 38
leaf_count=1034 19418 35 20 27 22 25 20 21 219 20 44 1005 350 38
internal_value=0 0.000341934 -0.000105617 0.00155435 0.00977083 -0.00049672 0.00363501 0.0120164 0.000225612 -0.00283429 -0.00508465 -0.000718167 0.000645089 0.00804342
internal_weight=0 2880 1846 352 49 1494 76 41 303 84 64 1418 413 63
internal_count=22298 2880 1846 352 49 1494 76 41 303 84 64 1418 413 63
shrinkage=0.15


Tree=148
num_leaves=15
num_cat=0
split_feature=34 3 33 19 16 16 19 35 19 3 7 14 3 7
split_gain=0.0147742 0.132294 0.0643996 0.12367 0.108779 0.105408 0.105127 0.139737 0.0952047 0.0950533 0.110587 0.284225 0.0789766 0.0788708
threshold=0.0045174200000000003 -8.5562249999999977 1.0000000180025095e-35 8.3063100000000007e-10 -6.2511249999999987e-07 3.8575050000000002e-08 1.1201050000000003e-08 5.2881600000000005e-05 3.1354600000000003e-08 -7.9279049999999991 3.2058050000000007e-05 0.00012460750000000003 -5.8709549999999995 3.4900750000000006e-05
decision_type=2 2 2 2 2 2 2 2 2 2 2 2 2 2
left_child=1 -1 3 -3 -5 -6 7 -7 12 -10 11 -11 -4 -12
right_child=-2 2 8 4 5 6 -8 -9 9 10 13 -13 -14 -15
leaf_value=0.0016435452895897393 -3.9110821490329378e-05 0.0086857511516427611 -0.007436076593590509 0.0011116597213443533 -0.0067887510323064795 -0.0035546946572139857 -0.0030824367479913039 0.014176877442623663 -0.0041168917677369193 0.020092063241351682 -0.0076860663713887323 -0.00048960045108591046 0.00090296412084345755 0.0018510992293582107
leaf_weight=983 20223 24 56 151 148 20 209 20 59 26 21 36 47 275
leaf_count=983 20223 24 56 151 148 20 209 20 59 26 21 36 47 275
internal_value=0 0.000381175 -0.000755189 -0.0018535 -0.00231507 -0.00361844 -0.00173408 0.00531109 0.000452953 0.00146167 0.00238104 0.00814142 -0.00363088 0.00117448
internal_weight=0 2075 1092 572 548 397 249 40 520 417 358 62 103 296
internal_count=22298 2075 1092 572 548 397 249 40 520 417 358 62 103 296
shrinkage=0.15


Tree=149
num_leaves=15
num_cat=0
split_feature=23 19 10 21 29 11 35 30 33 19 11 20 11 33
split_gain=0.0135275 0.0516314 0.0776523 0.124729 0.102722 0.142873 0.1311 0.0768731 0.0636476 0.0524718 0.049077 0.236237 0.408512 0.0390779
threshold=-14.171799999999999 1.8585350000000003e-08 1.2403150000000002e-05 -4.5474549999999985 0.0020838050000000006 1.0000000180025095e-35 -0.0012853949999999997 0.00031589200000000007 -1.9216999999999999e-05 1.7694650000000002e-10 0.00013889850000000002 4.600575000000001 0.00030455050000000007 -2.9835749999999996e-05
decision_type=2 2 2 2 2 2 2 2 2 2 2 2 2 2
left_child=1 7 3 -3 5 8 -7 -1 -5 -9 13 -12 -13 -4
right_child=-2 2 10 4 -6 6 -8 9 -10 -11 11 12 -14 -15
leaf_value=0.010121237384484392 -5.4334013229216176e-05 0.005551945601387962 0.00077062553352380992 -0.008617416644410696 -0.00067970983340231658 -0.0095226917428792354 0.0060763475850266818 -0.0049406064917124669 -0.020584336963947861 0.0016342050318026852 0.00051476875305394784 0.023765719577204435 -0.0045185949769802388 -0.00042061469672772047
leaf_weight=23 18333 34 936 20 86 27 22 29 20 469 419 27 20 1833
leaf_count=23 18333 34 936 20 86 27 22 29 20 469 419 27 20 1833
internal_value=0 0.000251225 4.06947e-05 -0.00276152 -0.0043767 -0.00794908 -0.00251904 0.0016429 -0.0146009 0.00125133 0.000221734 0.0016459 0.0117298 -1.79419e-05
internal_weight=0 3965 3444 209 175 89 49 521 40 498 3235 466 47 2769
internal_count=22298 3965 3444 209 175 89 49 521 40 498 3235 466 47 2769
shrinkage=0.15


Tree=150
num_leaves=15
num_cat=0
split_feature=37 3 14 14 21 16 16 0 25 16 0 10 17 3
split_gain=0.0138378 0.150436 0.114936 0.14445 0.10389 0.0541823 0.192763 0.299998 0.163686 0.0813062 0.0928719 0.128109 0.301404 0.0639465
threshold=-1.8534299999999997e-06 -14.852049999999998 0.017873850000000004 0.006967290000000001 -1.1094799999999998 4.1022450000000009e-06 1.2969300000000001e-05 -0.57813599999999987 29.822400000000005 7.5363400000000006e-07 1.9706600000000003 3.4127000000000007e-05 -3.7786949999999997e-07 -8.2462449999999983
decision_type=2 2 2 2 2 2 2 2 2 2 2 2 2 2
left_child=1 2 3 4 -1 9 7 -7 -8 10 13 12 -12 -3
right_child=-2 5 -4 -5 -6 6 8 -9 -10 -11 11 -13 -14 -15
leaf_value=-0.01304580076597631 2.8600869203780871e-05 -0.0032646323593350669 0.00057108145129556448 -0.01834726569475606 0.00065494661605705249 0.024583660393254832 -0.0015834321752346261 0.00070364127519685008 0.012753910779138095 -0.0052096055120928212 0.022146291168755852 -0.00091961556789091283 0.0024607881418757774 0.00028920572339978745
leaf_weight=20 21064 222 45 25 33 20 172 29 20 75 20 179 140 234
leaf_count=20 21064 222 45 25 33 20 172 29 20 75 20 179 140 234
internal_value=0 -0.000488208 -0.00546574 -0.00894852 -0.00451515 6.28596e-05 0.00205314 0.0104506 -8.9959e-05 -0.000488471 -4.30808e-05 0.00183724 0.00492148 -0.00144095
internal_weight=0 1234 123 78 53 1111 241 49 192 870 795 339 160 456
internal_count=22298 1234 123 78 53 1111 241 49 192 870 795 339 160 456
shrinkage=0.15


Tree=151
num_leaves=15
num_cat=0
split_feature=28 1 10 11 6 24 7 4 14 16 16 17 17 18
split_gain=0.014036 0.0681419 0.160839 0.3245 0.222215 0.128583 0.181027 0.269292 0.104869 0.0916496 0.239843 0.0912189 0.107189 0.107886
threshold=-0.04635754999999999 -5.530384999999999 1.4539000000000003e-05 -3.6425399999999993e-06 3.9101200000000006e-07 0.70485900000000012 3.5735950000000008e-05 0.27629100000000006 0.00032540650000000004 -5.6284599999999985e-06 -3.5470449999999995e-05 -2.0358549999999997e-06 3.3120800000000003e-05 -1.1435e-05
decision_type=2 2 2 2 2 2 2 2 2 2 2 2 2 2
left_child=1 2 3 -1 -5 8 7 -7 -3 10 -8 -10 13 -13
right_child=-2 5 -4 4 -6 6 9 -9 11 -11 -12 12 -14 -15
leaf_value=0.023864372726529835 3.7673924624985894e-05 0.0004428885725982305 4.108768770291139e-05 -0.0058823502752656 0.014043643373006488 0.0031037417176211705 -0.0012164087045048603 0.022406532940221949 0.00011086179364383497 -0.0024878185397877437 0.017832619672408328 -0.0081400501076763134 -4.1244808685207876e-05 -0.0031187250006550257
leaf_weight=20 20267 345 491 34 20 87 58 20 192 180 20 147 138 279
leaf_count=20 20267 345 491 34 20 87 58 20 192 180 20 147 138 279
internal_value=0 -0.000375942 0.0010236 0.00754271 0.00149765 -0.000915329 0.00152452 0.00671174 -0.00172418 -0.00062677 0.00366796 -0.00271312 -0.00367447 -0.00485144
internal_weight=0 2031 565 74 54 1466 365 107 1101 258 78 756 564 426
internal_count=22298 2031 565 74 54 1466 365 107 1101 258 78 756 564 426
shrinkage=0.15


Tree=152
num_leaves=15
num_cat=0
split_feature=7 25 20 0 20 14 22 2 17 2 32 28 31 8
split_gain=0.0126408 0.0825872 0.0669908 0.059166 0.0429111 0.117614 0.0408574 0.377505 0.481167 0.0410517 0.0392735 0.050967 0.112106 0.0514595
threshold=5.9862050000000007e-05 112.04900000000002 13.652850000000003 2.8747750000000001 18.934700000000003 0.00028607250000000007 -2.7017049999999996 -2.6733199999999999 1.5760850000000003e-07 -2.3856249999999997 0.033812700000000008 -0.0033765249999999996 -0.037791599999999995 4.0390050000000008e-05
decision_type=2 2 2 2 2 2 2 2 2 2 2 2 2 2
left_child=4 2 6 -4 -1 -6 7 8 -2 -9 11 12 -8 -14
right_child=1 -3 3 -5 5 -7 10 9 -10 -11 -12 -13 13 -15
leaf_value=-8.1602498027000738e-05 0.02981201851001495 0.0098136183328460906 -0.0006091730156913399 -0.0093398047674019182 0.013006355598502394 -0.00074221714728212517 0.01336798263343683 -0.0061549505179003894 0.000531333149306842 0.00038481185275193605 -0.00047517259775622142 0.00028256420727188278 -0.00040441976819120432 0.0077762527330461038
leaf_weight=16474 23 20 40 31 21 42 21 23 28 354 1769 3349 81 22
leaf_count=16474 23 20 40 31 21 42 21 23 28 354 1769 3349 81 22
internal_value=0 0.000191349 0.000157827 -0.00442114 -6.66602e-05 0.00384064 0.000215165 0.00162433 0.0137363 -1.41657e-05 0.00010011 0.000393134 0.00337941 0.00134291
internal_weight=0 5761 5741 71 16537 63 5670 428 51 377 5242 3473 124 103
internal_count=22298 5761 5741 71 16537 63 5670 428 51 377 5242 3473 124 103
shrinkage=0.15


Tree=153
num_leaves=15
num_cat=0
split_feature=20 0 3 13 23 8 7 33 33 19 20 14 9 32
split_gain=0.0140853 0.18279 0.252719 0.303229 0.271177 0.313479 0.212653 0.62685 0.185251 0.254529 0.470076 0.241976 0.226662 0.190382
threshold=-6.908199999999999 -6.6329049999999992 -6.1926199999999989 3.4124850000000006e-05 -10.650649999999999 1.2981850000000002e-05 3.1647100000000004e-05 -1.3310049999999998e-06 -2.1338099999999992e-06 0.0012412450000000004 -8.5909699999999987 0.00040445950000000003 -4.4814099999999995e-05 -0.0041463049999999994
decision_type=2 2 2 2 2 2 2 2 2 2 2 2 2 2
left_child=1 2 3 4 -1 6 7 -6 11 10 12 -8 13 -10
right_child=-2 -3 -4 -5 5 -7 8 -9 9 -11 -12 -13 -14 -15
leaf_value=-0.0051638902663590242 5.0778024997476292e-05 -0.00082798899256851348 -0.0017043762135410662 -0.0023535566553524088 0.035220577394855873 0.025970902103498315 -0.0066167588946453451 0.00037677434917825914 0.0074725973636044982 0.019789252599821339 -0.01486762421793008 0.012409169380303604 0.00012009691663792935 0.027921556981746108
leaf_weight=38 18874 2739 266 115 21 21 53 26 21 32 22 21 29 20
leaf_count=38 18874 2739 266 115 21 21 53 26 21 32 22 21 29 20
internal_value=0 -0.000279902 0.00191165 0.00420726 0.00668915 0.00838244 0.00687485 0.0159453 0.00472177 0.00826618 0.00425816 -0.00121751 0.0102691 0.0174477
internal_weight=0 3424 685 419 304 266 245 47 198 124 92 74 70 41
internal_count=22298 3424 685 419 304 266 245 47 198 124 92 74 70 41
shrinkage=0.15


Tree=154
num_leaves=15
num_cat=0
split_feature=14 23 23 3 3 23 30 14 3 3 23 23 3 3
split_gain=0.0134841 0.0698946 0.149604 0.464773 0.688609 0.672742 0.14036 0.11596 0.110686 0.170941 1.03543 0.32981 2.47284 1.934
threshold=0.00032540650000000004 -13.501149999999997 -9.275014999999998 -9.4073549999999972 -6.795914999999999 -10.747449999999999 0.0025811300000000005 0.00018910500000000004 -9.5215949999999996 -7.1437349999999986 -7.2147949999999996 -7.86991 -7.9004899999999987 -7.8373049999999997
decision_type=2 2 2 2 2 2 2 2 2 2 2 2 2 2
left_child=1 -1 3 5 6 -3 7 -5 -4 10 11 13 -13 -10
right_child=-2 2 8 4 -6 -7 -8 -9 9 -11 -12 12 -14 -15
leaf_value=0.00069301374523247884 8.9235320588226479e-05 -0.0088584291657594887 -0.005581856232547088 -0.0046035869222910654 0.00017149704574012146 0.023487163875968411 -0.0017577329216042666 -0.0088549724275935656 0.010878076622517862 -0.00032111048243025974 -0.0036207648874696076 -0.0087522728799861709 0.023492366225003603 -0.010319702588164382
leaf_weight=1736 14066 23 74 331 1532 39 189 256 270 2956 453 90 132 151
leaf_count=1736 14066 23 74 331 1532 39 189 256 270 2956 453 90 132 151
internal_value=0 -0.000152476 -0.000378426 -0.00132822 -0.0016725 0.011488 -0.00531298 -0.00645768 0.000167142 0.000272133 0.00187216 0.00574198 0.0104202 0.00327507
internal_weight=0 8232 6496 2370 2308 62 776 587 4126 4052 1096 643 222 421
internal_count=22298 8232 6496 2370 2308 62 776 587 4126 4052 1096 643 222 421
shrinkage=0.15


Tree=155
num_leaves=15
num_cat=0
split_feature=23 3 19 33 34 3 3 31 2 20 23 3 23 3
split_gain=0.016023 0.705446 0.638338 1.67218 1.81723 0.608384 0.555154 0.564296 0.773223 1.18186 0.454363 0.43948 0.453338 0.408077
threshold=-10.159249999999998 -10.062549999999998 2.6393800000000007e-07 -1.1343549999999997e-06 0.11402900000000001 -8.3121399999999976 -14.405299999999999 -0.064782049999999994 -1.8779099999999997 -0.26438899999999993 -14.742949999999999 -10.130899999999999 -8.291344999999998 -13.060049999999999
decision_type=2 2 2 2 2 2 2 2 2 2 2 2 2 2
left_child=1 2 3 4 6 10 -1 -8 -9 -10 -3 12 -2 -4
right_child=11 5 13 -5 -6 -7 7 8 9 -11 -12 -13 -14 -15
leaf_value=0.0078650935990735877 -0.0034993642455605342 1.7851741097172446e-05 -0.00050891009559734699 -0.0033265576507190741 0.0030887747812580238 4.8066044537836849e-05 0.010947675763496329 0.05663686192128807 -0.0013145410269498824 0.046427570436415926 -0.0053454040515783013 0.00050909536217761515 -0.00023245208554800267 0.0030171176774995774
leaf_weight=25 1460 557 1670 201 141 4526 21 32 20 28 982 8544 2767 1324
leaf_count=25 1460 557 1670 201 141 4526 21 32 20 28 982 8544 2767 1324
internal_value=0 0.000147219 0.00185565 0.00700741 0.0147869 -0.00082798 0.0278777 0.0328313 0.0385758 0.026535 -0.00340432 -0.000109824 -0.00136084 0.00105036
internal_weight=0 9527 3462 468 267 6065 126 101 80 48 1539 12771 4227 2994
internal_count=22298 9527 3462 468 267 6065 126 101 80 48 1539 12771 4227 2994
shrinkage=0.15


Tree=156
num_leaves=15
num_cat=0
split_feature=16 36 1 22 14 32 32 2 31 4 36 36 18 22
split_gain=0.0175095 0.0444703 0.233107 0.0330536 0.0893471 0.0262622 0.0232436 0.0332226 0.0623414 0.121987 0.0365889 0.0225996 0.0894678 0.0626817
threshold=-1.1726349999999998e-05 -0.72559949999999984 -4.3707999999999991 2.6208450000000005 0.0007529835000000001 4.8527700000000005 -0.10278899999999998 0.85217000000000009 0.7439150000000001 -0.87358199999999997 -0.23276699999999997 -0.72559949999999984 -2.9477349999999997e-06 1.8926700000000003
decision_type=2 2 2 2 2 2 2 2 2 2 2 2 2 2
left_child=1 2 -1 5 -5 6 7 10 9 -9 -3 12 13 -2
right_child=11 3 -4 4 -6 -7 -8 8 -10 -11 -12 -13 -14 -15
leaf_value=-0.0076753951160104146 -0.0025539403307953353 0.0064895004371646791 0.012663257843541942 0.010707254235065826 0.0009933022611951644 -0.0030395188479229486 0.00035650983507417428 -0.001305111895775672 0.0046539676387328654 -0.010810551188748961 -7.1803038870027833e-05 -4.1536977296369031e-05 0.00049798781581008775 -0.011299601294532684
leaf_weight=21 54 20 32 23 289 59 2712 230 30 35 436 18160 169 28
leaf_count=21 54 20 32 23 289 59 2712 230 30 35 436 18160 169 28
internal_value=0 0.000289286 0.00460455 0.000229633 0.00170939 9.85465e-05 0.000152011 -0.000586474 -0.00182687 -0.00256055 0.000215973 -6.10751e-05 -0.00147467 -0.00554026
internal_weight=0 3887 53 3834 312 3522 3463 751 295 265 456 18411 251 82
internal_count=22298 3887 53 3834 312 3522 3463 751 295 265 456 18411 251 82
shrinkage=0.15


Tree=157
num_leaves=15
num_cat=0
split_feature=19 20 33 0 11 28 23 0 13 1 9 10 36 0
split_gain=0.0171416 0.126078 0.175609 1.09568 1.76429 0.821299 0.492337 0.749023 0.197111 0.12554 0.103206 0.0980003 0.0935086 0.0765985
threshold=0.00099624750000000019 3.7782100000000005 5.9223100000000007e-06 4.011140000000001 6.1237350000000008e-05 -0.010703999999999998 -12.434149999999997 5.7268000000000008 -3.3876049999999996e-05 -3.0428099999999998 1.6784550000000002e-05 2.4169550000000006e-05 0.00081568900000000019 7.7758650000000005
decision_type=2 2 2 2 2 2 2 2 2 2 2 2 2 2
left_child=-1 -2 10 8 5 -5 7 -6 11 -8 -3 -4 -9 -12
right_child=1 2 3 4 6 -7 9 12 -10 -11 13 -13 -14 -15
leaf_value=-9.5025141648304271e-05 -0.00025099026073877392 0.0011166309208903301 -0.013421031108494692 0.013302341722883283 0.029766969763538022 0.052814072235647977 0.0070472496917419539 -0.0055959697638172656 0.0003876726119446449 -0.004745277360904388 -0.0021340281826283725 -0.0034901083510549607 0.007942794865812175 0.0015462020789495641
leaf_weight=14650 5080 1178 36 20 36 29 27 24 379 82 506 59 22 170
leaf_count=14650 5080 1178 36 20 36 29 27 24 379 82 506 59 22 170
internal_value=0 0.000182024 0.00103861 0.00303743 0.0112953 0.0366868 0.00478122 0.0135616 -0.00114377 -0.00182419 0.000268839 -0.00725341 0.000879092 -0.00120853
internal_weight=0 7648 2568 714 240 49 191 82 474 109 1854 95 46 676
internal_count=22298 7648 2568 714 240 49 191 82 474 109 1854 95 46 676
shrinkage=0.15


Tree=158
num_leaves=15
num_cat=0
split_feature=13 31 13 32 13 35 7 23 3 14 23 3 14 23
split_gain=0.0145039 0.0437076 0.0564224 0.0536512 0.0432575 0.0668836 0.0317714 0.0300794 0.394343 0.490008 0.508468 0.291636 0.377836 0.844889
threshold=7.7433650000000007e-05 1.6347000000000003 0.00012168400000000002 16.002050000000004 0.00017159400000000004 0.16262000000000001 5.7311500000000009e-05 -8.723844999999999 -8.8143499999999975 0.0009749060000000001 -7.0308899999999985 -8.6759999999999984 0.0015300550000000002 -12.174849999999998
decision_type=2 2 2 2 2 2 2 2 2 2 2 2 2 2
left_child=7 3 6 -2 5 -4 -3 11 9 10 -9 12 13 -1
right_child=1 2 4 -5 -6 -7 -8 8 -10 -11 -12 -13 -14 -15
leaf_value=-0.00055609670194207083 0.0002837033401613494 -0.01021006360388128 -0.0020445137698102784 0.0080682504453579891 -0.0017258093996352696 0.0099408025074808389 -0.0024083738007744694 -0.0075288156672503465 0.00055384567728666151 -0.00025735675764437799 -0.00048165617833664061 -0.00060006648079412664 -0.00037415867190544825 0.0054888631819837242
leaf_weight=1034 4998 24 22 20 166 20 23 536 4544 1758 404 5624 2078 1047
leaf_count=1034 4998 24 22 20 166 20 23 536 4544 1758 404 5624 2078 1047
internal_value=0 0.000217378 -0.00169836 0.00031473 -0.000637729 0.00366278 -0.00639222 -6.73264e-05 -0.00029906 -0.00173553 -0.00450004 0.000104218 0.00105658 0.00248526
internal_weight=0 5273 255 5018 208 42 47 17025 7242 2698 940 9783 4159 2081
internal_count=22298 5273 255 5018 208 42 47 17025 7242 2698 940 9783 4159 2081
shrinkage=0.15


Tree=159
num_leaves=15
num_cat=0
split_feature=12 32 19 22 22 20 15 13 37 19 4 4 15 23
split_gain=0.0167908 0.190294 0.396236 0.526241 0.841891 0.520395 0.629694 0.134232 0.29556 0.416032 0.196709 0.153689 0.124711 0.101922
threshold=0.00015368350000000003 -0.091684249999999981 8.9050550000000007e-05 1.7583250000000004 0.95102700000000007 -0.26438899999999993 -2.6917449999999996e-09 1.0000000180025095e-35 -1.8514199999999998e-07 0.0020999600000000005 -0.088246799999999986 -0.66792299999999993 -2.3788299999999997e-08 -10.556599999999998
decision_type=2 2 2 2 2 2 2 2 2 2 2 2 2 2
left_child=-1 2 3 4 12 -6 -7 8 9 -4 11 -10 -2 -3
right_child=1 13 7 -5 5 6 -8 -9 10 -11 -12 -13 -14 -15
leaf_value=-5.9258004427487119e-05 0.0041604229266522449 -0.0015293803479783854 0.029748826953333005 -0.0030794041189039943 0.0039598695730092004 0.017978926088560273 0.049584722271917951 -0.0005703815136643217 -0.0010296542288573539 0.0034413499010138605 -0.0058701511110073974 0.016949422876350581 -0.011131201257230714 0.00033724123919194566
leaf_weight=18470 30 1007 21 64 24 37 23 559 23 38 62 20 20 1900
leaf_count=18470 30 1007 21 64 24 37 23 559 23 38 62 20 20 1900
internal_value=0 0.000285918 0.00216485 0.00811016 0.0134544 0.0226274 0.0300945 0.000536667 0.00431008 0.012805 -0.000463266 0.00733271 -0.00195623 -0.000309366
internal_weight=0 3828 921 198 134 84 60 723 164 59 105 43 50 2907
internal_count=22298 3828 921 198 134 84 60 723 164 59 105 43 50 2907
shrinkage=0.15


Tree=160
num_leaves=15
num_cat=0
split_feature=4 24 5 32 24 35 18 34 18 33 19 0 23 14
split_gain=0.0154631 0.0293118 0.088426 0.0311514 0.0306256 0.0355292 0.0785113 0.0258454 0.0629717 0.139369 0.210252 0.204586 0.16913 0.096498
threshold=-1.2753049999999997 -1.5736749999999997 1.6141900000000005e-05 6.2571250000000012 -0.13799499999999995 -0.16307499999999997 -0.0027685049999999997 0.029557850000000004 -6.9364099999999992e-06 2.4303400000000005e-06 0.00019692300000000003 -5.4427149999999989 -8.8168249999999979 0.0015781900000000004
decision_type=2 2 2 2 2 2 2 2 2 2 2 2 2 2
left_child=1 2 -1 4 5 6 -3 8 9 -2 -11 -12 13 -13
right_child=7 3 -4 -5 -6 -7 -8 -9 -10 10 11 12 -14 -15
leaf_value=0.011537154284887946 -0.00026498502284958607 -0.0013031088805291803 -0.0017294125263176213 -0.0042250479894158028 0.00058828143774784032 -0.00047550834722469081 0.010113325507542037 9.4587123626582137e-05 -7.94218065603875e-05 -0.00073050187467145662 0.0057192532159388064 -0.025874847024679182 -0.0065006886214951593 -0.011478619611906734
leaf_weight=20 895 33 26 35 2414 1260 23 10700 6552 201 20 20 77 22
leaf_count=20 895 33 26 35 2414 1260 23 10700 6552 201 20 20 77 22
internal_value=0 0.000275118 0.00403866 0.000229136 0.000270932 -0.000311198 0.00338578 -5.67143e-05 -0.000264615 -0.00124711 -0.00383243 -0.00831795 -0.0106771 -0.018334
internal_weight=0 3811 46 3765 3730 1316 56 18487 7787 1235 340 139 119 42
internal_count=22298 3811 46 3765 3730 1316 56 18487 7787 1235 340 139 119 42
shrinkage=0.15


Tree=161
num_leaves=15
num_cat=0
split_feature=19 32 12 12 22 14 23 23 39 19 2 22 31 8
split_gain=0.0147978 0.112084 0.632639 0.593494 0.532601 0.67755 1.36194 0.794265 0.629871 1.43462 0.709893 0.668718 0.622809 0.804254
threshold=2.9854050000000003e-05 -0.011326149999999998 2.8927550000000004e-05 1.7748800000000002e-05 1.775965 0.00030207300000000009 -8.5542299999999987 -8.8487049999999989 1.1341500000000001e-05 5.2381950000000008e-07 0.26534300000000005 0.36829550000000005 -0.044745249999999993 -1.0732099999999998e-05
decision_type=2 2 2 2 2 2 2 2 2 2 2 2 2 2
left_child=1 3 -3 -1 5 7 8 -5 9 12 -10 -12 -7 -14
right_child=-2 2 -4 4 -6 6 -8 -9 10 -11 11 -13 13 -15
leaf_value=-0.0014186644702571555 9.5608026110399186e-05 0.00069360629013406666 -0.00302299816891392 -0.0045926905477808025 -0.00098418559830703418 0.054650597870349885 -0.0014306924144361604 0.0056460665767666379 0.036088256933726366 0.0026638057507464992 -0.0087490463453577839 0.010780008250684354 0.042577106836769317 0.0034374639458422149
leaf_weight=2003 13831 2793 1633 323 743 25 230 361 20 51 50 187 27 21
leaf_count=2003 13831 2793 1633 323 743 25 230 361 20 51 50 187 27 21
internal_value=0 -0.000156177 -0.000677658 0.000414986 0.00221715 0.00405389 0.00768413 0.000811098 0.0131865 0.0219668 0.00895009 0.00665995 0.0354525 0.0254535
internal_weight=0 8467 4426 4041 2038 1295 611 684 381 124 257 237 73 48
internal_count=22298 8467 4426 4041 2038 1295 611 684 381 124 257 237 73 48
shrinkage=0.15


Tree=162
num_leaves=15
num_cat=0
split_feature=33 3 19 34 23 14 14 23 3 3 13 33 33 30
split_gain=0.0203302 0.0533316 0.148256 0.20749 0.16058 0.382065 0.307499 0.633511 0.549538 0.397548 0.412095 1.49895 1.01956 0.590685
threshold=1.0000000180025095e-35 -7.7749399999999991 2.1658550000000005e-06 0.0053288800000000002 -7.9811899999999989 0.00079036350000000015 0.0022150250000000002 -13.501149999999997 -13.373099999999999 -13.799749999999998 -8.9274649999999981e-06 1.7936250000000003e-06 1.9879800000000006e-06 0.0048803000000000015
decision_type=2 2 2 2 2 2 2 2 2 2 2 2 2 2
left_child=-1 2 3 -2 6 -6 7 8 -4 -9 12 -12 -11 -14
right_child=1 -3 4 -5 5 -7 -8 9 -10 10 11 -13 13 -15
leaf_value=-0.00013553413401618786 0.0036713668020728926 0.00055126650511382622 0.016017479353467933 -0.0022430583213033438 -0.0066261135039123965 2.048390644510206e-05 -0.00022965395507745806 -0.010505769919836894 -0.0046228658638740967 -0.018913677887758242 0.037449081304847545 -0.00258036779532411 0.011552902193881744 -0.0031776172406545147
leaf_weight=11764 151 4382 32 1149 236 1109 2309 36 312 30 23 248 446 71
leaf_count=11764 151 4382 32 1149 236 1109 2309 36 312 30 23 248 446 71
internal_value=0 0.00015136 -0.000133489 -0.00155608 0.000247665 -0.00114576 0.000782069 0.00273204 -0.00270283 0.00492127 0.00560021 0.000816966 0.00796997 0.00952995
internal_weight=0 10534 6152 1300 4852 1345 3507 1198 344 854 818 271 547 517
internal_count=22298 10534 6152 1300 4852 1345 3507 1198 344 854 818 271 547 517
shrinkage=0.15


Tree=163
num_leaves=15
num_cat=0
split_feature=7 38 32 25 23 1 3 32 8 28 32 28 12 32
split_gain=0.0148853 0.095868 0.156588 0.455326 0.167947 0.245451 0.0985239 0.0897285 0.0713687 0.0584095 0.0767234 0.0393952 0.0474322 0.15693
threshold=2.3366750000000001e-05 0.0031170050000000004 0.071193100000000023 0.42606250000000007 -11.717349999999998 -7.6665399999999986 -14.101899999999999 0.052183250000000007 7.8946600000000014e-06 -0.0044687099999999999 0.014731750000000002 -0.00054141299999999981 3.737620000000001e-05 -0.04994574999999999
decision_type=2 2 2 2 2 2 2 2 2 2 2 2 2 2
left_child=1 2 7 -4 -5 -6 -3 9 -7 -1 11 -11 -13 -14
right_child=-2 6 3 4 5 8 -8 -9 -10 10 -12 12 13 -15
leaf_value=0.0085900126083288345 -2.4082891410601279e-05 -0.0098831738084637823 0.025071892143308142 0.010212522154100812 0.012805959951365365 -0.0026061822827614378 -0.00063630234354059207 -0.007666324727582715 -0.0131524624789811 0.0073556504638294089 -0.0037235392570029689 -0.00013999645608303276 0.0091160786182930068 -0.0028777814823358009
leaf_weight=20 21469 35 23 39 20 42 100 31 22 22 87 289 54 45
leaf_count=20 21469 35 23 39 20 42 100 31 22 22 87 289 54 45
internal_value=0 0.000623686 0.00133513 0.00570032 0.002078 -0.00169875 -0.00303364 0.000172134 -0.00623147 0.000642139 0.000322305 0.00118081 0.000830694 0.00366432
internal_weight=0 829 694 146 123 84 135 548 64 517 497 410 388 99
internal_count=22298 829 694 146 123 84 135 548 64 517 497 410 388 99
shrinkage=0.15


Tree=164
num_leaves=15
num_cat=0
split_feature=33 6 3 19 23 23 14 14 23 3 3 0 20 20
split_gain=0.0149916 0.0659901 0.0632222 0.113535 0.163024 0.132899 0.271058 0.242979 0.611642 1.02526 0.622776 0.322917 0.721036 0.650558
threshold=1.0000000180025095e-35 9.0891300000000012e-06 -7.7749399999999991 2.1658550000000005e-06 -7.0749549999999992 -7.9811899999999989 0.00079036350000000015 0.0014449400000000002 -12.845349999999998 -12.268599999999998 -12.629099999999998 -7.5570549999999992 -7.2012249999999991 -7.0837649999999988
decision_type=2 2 2 2 2 2 2 2 2 2 2 2 2 2
left_child=-1 2 3 4 -2 7 -7 8 9 -5 -10 13 -13 -12
right_child=1 -3 -4 5 -6 6 -8 -9 10 -11 11 12 -14 -15
leaf_value=-0.00011638613181982324 -0.002111919600362 -0.0011894546446424811 0.00070673955650797833 0.025360694641454355 0.0022105583373536412 -0.0057127341272797299 1.0582605513548829e-06 -3.2602191489051975e-05 -0.012113960552960634 -0.0052132127458451834 0.019901102080779231 -0.0073062703670476077 0.010355176476180351 -0.0095735950313696992
leaf_weight=11764 1059 789 3878 27 241 228 1034 2365 42 287 23 59 439 63
leaf_count=11764 1059 789 3878 27 241 228 1034 2365 42 287 23 59 439 63
internal_value=0 0.000129976 0.000236803 -7.38179e-05 -0.0013106 0.000278233 -0.00103123 0.000778244 0.0028183 -0.00258425 0.0055282 0.00679699 0.00826276 -0.00169083
internal_weight=0 10534 9745 5867 1300 4567 1262 3305 940 314 626 584 498 86
internal_count=22298 10534 9745 5867 1300 4567 1262 3305 940 314 626 584 498 86
shrinkage=0.15


Tree=165
num_leaves=15
num_cat=0
split_feature=23 3 3 23 3 13 17 37 35 36 18 33 23 13
split_gain=0.0187057 0.0521208 0.117856 0.204095 0.42503 0.249017 0.247798 0.526409 0.410528 0.439888 0.409206 0.327563 0.170199 0.0973854
threshold=-13.747299999999997 -8.6405549999999973 -13.060049999999999 -15.561499999999999 -15.748799999999997 0.00010003855 5.0846750000000005e-08 4.5941200000000005e-08 0.0072457650000000004 0.0014430600000000001 2.9253900000000005e-05 7.5131400000000012e-06 -15.561499999999999 4.5673450000000006e-05
decision_type=2 2 2 2 2 2 2 2 2 2 2 2 2 2
left_child=1 2 3 -1 -5 6 7 -6 9 10 11 -8 -4 -14
right_child=-2 -3 12 4 5 -7 8 -9 -10 -11 -12 -13 13 -15
leaf_value=-0.00083615622608674319 -6.9572224005065938e-05 0.00076800289658023101 8.7587080095349326e-05 -0.0029737783241944272 0.01339221636444563 -0.00040900887680061929 0.0082856219732023485 -0.017629420550074427 -0.0044966425098802729 0.031697393705660618 -0.0036313510992234416 0.033473489034388744 -0.0053002437218987808 -0.00078621218750505879
leaf_weight=549 17747 2325 835 140 32 68 26 20 23 34 27 21 274 177
leaf_count=549 17747 2325 835 140 32 68 26 20 23 34 27 21 274 177
internal_value=0 0.000271303 -0.000247488 0.00102913 0.00364816 0.00734168 0.0102217 0.00146082 0.0136993 0.0175744 0.0110854 0.0195398 -0.00118063 -0.00352866
internal_weight=0 4551 2226 940 391 251 183 52 131 108 74 47 1286 451
internal_count=22298 4551 2226 940 391 251 183 52 131 108 74 47 1286 451
shrinkage=0.15


Tree=166
num_leaves=15
num_cat=0
split_feature=15 19 35 15 7 2 20 30 13 14 15 11 4 9
split_gain=0.0165036 0.0355215 0.0303249 0.0972946 0.157956 0.284785 0.352239 0.121505 0.0927688 0.0821351 0.0335878 0.0328496 0.0706558 0.055082
threshold=7.9817200000000016e-06 1.8396200000000002e-05 -0.13470549999999998 -2.2807299999999995e-07 4.3158050000000006e-05 0.85217000000000009 1.1550850000000004 0.009019095000000003 6.2961800000000011e-06 0.00070241750000000016 3.8573000000000004e-08 -7.2774099999999985e-05 1.9477800000000001 5.0581050000000006e-05
decision_type=2 2 2 2 2 2 2 2 2 2 2 2 2 2
left_child=2 -2 3 4 5 6 -1 -6 -7 -5 -11 12 -9 -13
right_child=1 -3 -4 9 7 8 -8 11 -10 10 -12 13 -14 -15
leaf_value=0.0042093240095159431 -0.0060313418702571649 0.0003059061768487687 -0.00010138606437331624 0.00068608939209457672 0.0099277205881662649 0.0053546645996076139 0.026160451967333413 -0.011612281532725319 -0.0059802166669214781 -0.00010637396159214211 -0.0054612787299299454 0.0019653506676639574 -0.0001023027452174574 -0.0060068597830160381
leaf_weight=38 20 4016 17486 342 24 33 29 20 32 38 86 78 30 26
leaf_count=38 20 4016 17486 342 24 33 29 20 32 38 86 78 30 26
internal_value=0 0.000274503 -6.06665e-05 0.000856887 0.00291617 0.00684806 0.0137106 3.90892e-07 -0.000225585 -0.000513025 -0.00382026 -0.00154673 -0.00470629 -2.77019e-05
internal_weight=0 4036 18262 776 310 132 67 178 65 466 124 154 50 104
internal_count=22298 4036 18262 776 310 132 67 178 65 466 124 154 50 104
shrinkage=0.15


Tree=167
num_leaves=15
num_cat=0
split_feature=4 26 4 33 4 24 34 4 4 10 23 3 16 25
split_gain=0.0145803 0.048763 0.0445644 0.0777375 0.0313053 0.694034 0.517147 1.19539 0.319398 0.213061 0.259721 0.688937 0.308398 0.235123
threshold=1.6592800000000003 -5.4549499999999997e-05 1.8394650000000003 -8.1768449999999974e-06 0.18086350000000004 0.25520250000000005 0.078429700000000005 0.35551300000000002 0.26439750000000006 3.5696000000000005e-05 -15.268449999999998 -15.748799999999997 -3.2739949999999996e-06 19.410150000000005
decision_type=2 2 2 2 2 2 2 2 2 2 2 2 2 2
left_child=4 -2 3 -3 -1 -6 7 -7 -8 10 -10 -12 -13 -14
right_child=1 2 -4 -5 5 6 8 -9 9 -11 11 12 13 -15
leaf_value=3.5910658351317642e-05 -0.00034279465544283824 0.012281169959460386 0.00063209734151541857 0.0017411930282833054 -0.0015274416944160969 0.037288823045855679 -0.00353241664847014 -0.004389179539575707 -4.9524500597423556e-05 0.00027824352711643862 -0.012933922758384141 0.0040485548140713938 0.022439590556833925 0.0046942727490594345
leaf_weight=15701 1524 20 1770 74 2617 32 139 30 72 145 24 45 84 21
leaf_count=15701 1524 20 1770 74 2617 32 139 30 72 145 24 45 84 21
internal_value=0 0.00028656 0.000801118 0.00398374 -5.13413e-05 -0.000478248 0.00415983 0.017122 0.00264349 0.00483902 0.00752728 0.0106625 0.0144379 0.0188905
internal_weight=0 3388 1864 94 18910 3209 592 62 530 391 246 174 150 105
internal_count=22298 3388 1864 94 18910 3209 592 62 530 391 246 174 150 105
shrinkage=0.15


Tree=168
num_leaves=15
num_cat=0
split_feature=23 3 14 23 19 18 28 2 14 12 21 3 28 39
split_gain=0.0151017 0.0719476 0.273574 0.675109 0.366166 0.478235 0.188212 0.468252 0.353703 0.172679 0.293095 0.148491 0.126718 0.0850248
threshold=-14.171799999999999 -14.226749999999997 0.0036806550000000001 -16.680599999999995 1.6101600000000002e-06 -2.0395149999999997e-05 0.017843950000000004 0.31794500000000003 0.012822650000000003 -0.00035569499999999995 -2.6112399999999996 -9.6591949999999986 -0.0017367899999999998 1.2073950000000002e-05
decision_type=2 2 2 2 2 2 2 2 2 2 2 2 2 2
left_child=1 2 3 12 -5 -6 9 -8 -9 10 -4 13 -1 -3
right_child=-2 11 6 4 5 -7 7 8 -10 -11 -12 -13 -14 -15
leaf_value=0.001086918574408628 -5.7408531982441642e-05 -0.006550352058845201 0.014102650589523586 0.026422458292486573 0.019508882056522583 -0.010860682486672884 -0.0048087069543708942 0.02525469675165368 0.0017008023790997238 -0.0039128920400526117 -0.0027172841856857605 0.00063759436562093675 -0.014172304452404205 -0.0011619163311551064
leaf_weight=25 18333 71 37 39 28 20 53 32 26 240 63 2392 24 915
leaf_count=25 18333 71 37 39 28 20 53 32 26 240 63 2392 24 915
internal_value=0 0.00026544 0.00179825 0.00769521 0.0156266 0.0068549 2.00106e-05 0.00538297 0.0146961 -0.00173084 0.00350609 -9.18507e-07 -0.00638699 -0.00154993
internal_weight=0 3965 587 136 87 48 451 111 58 340 100 3378 49 986
internal_count=22298 3965 587 136 87 48 451 111 58 340 100 3378 49 986
shrinkage=0.15


Tree=169
num_leaves=15
num_cat=0
split_feature=4 4 24 23 3 3 23 23 35 0 11 3 23 3
split_gain=0.0160138 0.0414446 0.672121 0.40612 0.70887 0.559381 0.970347 0.601984 0.794817 1.9447 0.654264 0.44639 0.838544 0.405955
threshold=0.81704150000000009 0.18086350000000004 0.15455400000000002 -12.295749999999998 -13.060049999999999 -6.6205399999999992 -6.828269999999999 -6.6777599999999984 0.0029260650000000007 3.0214450000000004 3.0004050000000003e-05 -9.7788349999999991 -9.1930949999999978 -12.678699999999997
decision_type=2 2 2 2 2 2 2 2 2 2 2 2 2 2
left_child=1 -1 -3 13 -5 7 -7 8 10 -10 11 -6 -13 -4
right_child=-2 2 3 4 5 6 -8 -9 9 -11 -12 12 -14 -15
leaf_value=2.5969423059808443e-05 0.00026161206841510208 -0.0024887036680132368 0.0063502678702301949 -0.0054400265990974432 0.028154655278194694 -0.0073753790193034638 0.025175718145651949 -0.010539233259359291 0.002573551125533413 0.050629012787248941 -0.0082947370973989881 -0.010456117678944383 0.023199650402724124 -0.0045184633279736234
leaf_weight=15701 4259 1536 115 98 37 87 27 22 36 40 37 31 36 236
leaf_count=15701 4259 1536 115 98 37 87 27 22 36 40 37 31 36 236
internal_value=0 -6.17665e-05 -0.000650963 0.0028687 0.00584651 0.00897988 0.000334091 0.0131038 0.0155008 0.0278659 0.00883592 0.0149305 0.00762758 -0.000957483
internal_weight=0 18039 2338 802 451 353 114 239 217 76 141 104 67 351
internal_count=22298 18039 2338 802 451 353 114 239 217 76 141 104 67 351
shrinkage=0.15


Tree=170
num_leaves=15
num_cat=0
split_feature=24 18 18 34 36 1 1 18 19 37 38 24 31 0
split_gain=0.0181931 0.415197 0.389598 0.476106 0.288649 1.70733 0.433035 0.255077 0.233016 1.11515 0.494076 0.478871 0.46815 2.23407
threshold=0.10879450000000002 5.4789750000000012e-07 2.1264150000000005e-05 0.14197300000000004 0.0013956900000000004 5.5813050000000013 9.8638700000000021 -6.2723849999999985e-08 5.5577300000000006e-06 -3.3223099999999991e-08 0.019058700000000001 -0.092075249999999983 0.013088650000000002 -0.8145349999999999
decision_type=2 2 2 2 2 2 2 2 2 2 2 2 2 2
left_child=7 -2 3 4 -3 -6 -7 8 9 10 11 12 13 -1
right_child=1 2 -4 -5 5 6 -8 -9 -10 -11 -12 -13 -14 -15
leaf_value=-0.0024765560509695203 -0.00093520050689087158 0.0042011915002157802 -4.901128440489362e-05 -0.00081612984010514405 -0.0022236857645179108 0.041647033758151028 0.014543275714718869 -0.00057353305346865093 0.00024196684152127943 -0.0013665048323010999 -0.003648191733306951 -0.00010550366663715926 0.0057231953292752489 0.025973938447120752
leaf_weight=105 5706 633 2062 401 81 36 21 6391 5247 906 99 143 315 152
leaf_count=105 5706 633 2062 401 81 36 21 6391 5247 906 99 143 315 152
internal_value=0 -0.00016562 0.00119221 0.003376 0.00555634 0.0117723 0.0316614 0.000110843 0.000738639 0.00225378 0.00628323 0.00765835 0.00959931 0.0143502
internal_weight=0 8940 3234 1172 771 138 57 13358 6967 1720 814 715 572 257
internal_count=22298 8940 3234 1172 771 138 57 13358 6967 1720 814 715 572 257
shrinkage=0.15


Tree=171
num_leaves=15
num_cat=0
split_feature=34 3 1 21 3 14 1 32 3 7 21 10 23 7
split_gain=0.0205162 0.108026 0.0563372 0.222453 0.209985 0.187443 0.111388 0.52507 0.777084 0.0947401 0.131659 0.0392401 0.0382742 0.0500654
threshold=0.0077461050000000005 -13.618449999999998 -10.482449999999998 -11.252849999999997 -6.0183449999999992 0.00022980550000000001 -8.6728899999999971 0.022737450000000003 -7.3930649999999991 3.006305e-05 -8.2781399999999987 2.1779250000000003e-05 -8.1484599999999983 3.0266350000000005e-05
decision_type=2 2 2 2 2 2 2 2 2 2 2 2 2 2
left_child=1 -1 3 -3 5 11 7 9 -9 -4 -11 -5 13 -8
right_child=-2 2 6 4 -6 -7 12 8 -10 10 -12 -13 -14 -15
leaf_value=0.0022367584967521751 -6.5822725127418717e-05 0.0091164170185734014 -0.0070223275468950823 -0.011509606660009646 -0.00055708694019374419 -0.00035835357056283906 -0.0057262025765989428 0.039886181090259924 -0.0014273581161562885 0.012977204169728794 -3.9234019757766465e-05 -0.020094658479094505 9.8513787700775168e-05 -0.00077485547396634043
leaf_weight=562 18439 34 35 23 143 27 56 20 21 20 139 25 2498 256
leaf_count=562 18439 34 35 23 143 27 56 20 21 20 139 25 2498 256
internal_value=0 0.000314513 -1.31492e-05 -0.00216852 -0.00392856 -0.0103568 0.000165227 0.00330238 0.0187256 4.28304e-05 0.00159805 -0.015981 -9.71327e-05 -0.00166356
internal_weight=0 3859 3297 252 218 75 3045 235 41 194 159 48 2810 312
internal_count=22298 3859 3297 252 218 75 3045 235 41 194 159 48 2810 312
shrinkage=0.15


Tree=172
num_leaves=15
num_cat=0
split_feature=33 13 33 17 5 25 25 35 0 25 2 17 30 13
split_gain=0.0198034 0.0554208 0.169846 0.229485 0.301649 0.125306 0.154471 0.112523 0.122687 0.109532 0.0550408 0.0546372 0.0484388 0.0456209
threshold=1.0000000180025095e-35 -5.3656799999999991e-05 2.2153950000000005e-05 1.1210850000000001e-05 1.5234150000000002e-05 0.56615050000000011 2.3085700000000005 0.0024982850000000007 6.1044200000000011 8.379780000000002 2.1395600000000004 6.5167450000000004e-06 0.00026597600000000007 1.1327450000000001e-05
decision_type=2 2 2 2 2 2 2 2 2 2 2 2 2 2
left_child=10 2 7 11 -5 -6 -7 8 12 -8 13 -4 -2 -1
right_child=1 -3 3 4 5 6 9 -9 -10 -11 -12 -13 -14 -15
leaf_value=-0.00066018458753566267 -0.0017311733046062726 0.00022240359836912726 -0.0019356144582242185 0.021435358934104441 0.01210414408970709 -0.011637454329840173 0.01227876415112405 -0.011786931990055188 0.0065841513689896417 -0.0021505241652103623 0.00068756647825152781 -0.011844996080201653 -0.0061540499589262674 -8.6487684844597506e-06
leaf_weight=3956 120 10080 31 23 22 21 20 34 29 29 1588 21 104 6220
leaf_count=3956 120 10080 31 23 22 21 20 34 29 29 1588 21 104 6220
internal_value=0 0.000149386 -0.0014718 0.00233161 0.00607068 0.00222951 -0.000873949 -0.00368494 -0.00259613 0.00373898 -0.000133767 -0.00593748 -0.00378465 -0.000261938
internal_weight=0 10534 454 167 115 92 70 287 253 49 11764 52 224 10176
internal_count=22298 10534 454 167 115 92 70 287 253 49 11764 52 224 10176
shrinkage=0.15


Tree=173
num_leaves=15
num_cat=0
split_feature=23 3 7 21 21 12 12 20 3 16 3 33 3 16
split_gain=0.0187376 0.0416375 0.0608113 0.413708 0.17614 0.35309 0.102447 0.0771501 0.200638 0.0875254 0.105393 0.130429 0.204475 0.200965
threshold=-15.447399999999998 -11.202249999999998 2.9331850000000003e-05 -4.5474549999999985 3.1487850000000006 7.6022250000000016e-05 0.00018950150000000002 4.3684300000000009 -14.700899999999999 -3.9258449999999995e-06 -13.453149999999999 1.9133400000000006e-05 -17.219549999999995 4.2801000000000006e-05
decision_type=2 2 2 2 2 2 2 2 2 2 2 2 2 2
left_child=1 2 3 -1 6 -6 -5 9 -9 -4 11 12 -11 -13
right_child=-2 -3 7 4 5 -7 -8 8 -10 10 -12 13 -14 -15
leaf_value=0.021210537398424507 -5.2955248194919387e-05 0.00073505778103832929 0.00065918637595542074 -0.0014939744839794001 -0.0040123868112762768 0.022283390667289495 -0.012407002000691135 0.01245995551607848 -0.0023816257200546952 0.010294146579690277 -0.00028435385148517831 -0.017241954598076908 -0.0051347939231411802 -0.0014633847921857069
leaf_weight=22 19418 2001 213 100 27 20 24 32 57 23 166 42 121 32
leaf_count=22 19418 2001 213 100 27 20 24 32 57 23 166 42 121 32
internal_value=0 0.000357043 -0.000503488 0.0018487 -0.000642293 0.00717731 -0.00360617 -0.00116526 0.00295467 -0.00177945 -0.00313213 -0.00530062 -0.00267045 -0.0104188
internal_weight=0 2880 879 193 171 47 124 686 89 597 384 218 144 74
internal_count=22298 2880 879 193 171 47 124 686 89 597 384 218 144 74
shrinkage=0.15


Tree=174
num_leaves=15
num_cat=0
split_feature=5 20 8 5 20 5 10 15 9 14 23 24 19 39
split_gain=0.0171847 0.0527525 0.0507547 0.0471547 0.0458805 0.208683 0.293495 0.0493656 0.0701841 0.0479248 0.0965203 0.0964984 0.0846722 0.154754
threshold=1.8961900000000002e-05 13.153 -1.9074099999999998e-05 1.8740850000000002e-05 12.896400000000002 9.2166400000000019e-06 2.4974600000000006e-05 -1.3058449999999998e-06 -2.4939849999999996e-06 0.0075158900000000008 -20.381849999999996 1.3991600000000002 6.6825450000000016e-05 0.00012866450000000005
decision_type=2 2 2 2 2 2 2 2 2 2 2 2 2 2
left_child=2 -2 3 -1 9 6 -6 -7 -9 -4 -11 12 13 -12
right_child=1 -3 4 -5 5 7 -8 8 -10 10 11 -13 -14 -15
leaf_value=-0.0016762759769783141 0.00022941421580104419 -0.0030074706078385529 -0.00026187702097524968 -0.0097105291916787708 -0.00098277252285697606 0.0050179688444921726 0.024714790696743875 0.0027332322570449226 -0.0032694339684374942 -0.0078090267173138266 0.00121720256596084 0.0093996059537554775 0.00023056194463723747 0.012795849057660876
leaf_weight=65 7595 115 10923 22 20 38 20 72 112 32 110 27 3113 34
leaf_count=65 7595 115 10923 22 20 38 20 72 112 32 110 27 3113 34
internal_value=0 0.000181134 -9.57322e-05 -0.00370793 -7.40606e-05 0.0018929 0.011866 9.59411e-05 -0.000920565 -0.000110253 0.000389201 0.000469086 0.000395054 0.00395105
internal_weight=0 7710 14588 87 14501 262 40 222 184 14239 3316 3284 3257 144
internal_count=22298 7710 14588 87 14501 262 40 222 184 14239 3316 3284 3257 144
shrinkage=0.15


Tree=175
num_leaves=15
num_cat=0
split_feature=31 11 11 7 0 36 16 16 38 4 24 32 14 12
split_gain=0.0161829 0.28194 0.246886 0.390753 0.222202 0.201424 0.793038 0.624761 0.385297 0.899642 0.322141 0.681875 0.511989 0.342735
threshold=-0.019685049999999996 6.4356100000000014e-06 1.4148700000000002e-05 3.4006550000000004e-05 -8.2936799999999984 -7.6543299999999996e-05 6.1286400000000019e-08 6.5175600000000019e-08 -7.7933949999999986e-05 0.034774250000000007 -0.092075249999999983 -0.17057449999999999 0.00087164550000000016 1.2724750000000002e-05
decision_type=2 2 2 2 2 2 2 2 2 2 2 2 2 2
left_child=2 -2 4 5 -1 6 10 -7 9 -8 11 -4 -13 -12
right_child=1 -3 3 -5 -6 7 8 -9 -10 -11 13 12 -14 -15
leaf_value=0.0010828392211397048 0.00072752236699649795 -0.00069218612258264858 0.0069177471545117438 5.6793281606392546e-05 -0.0012354112978274314 -0.0052920242493354345 -0.011834472450517261 0.0064608688496350678 -0.0065297717832356363 0.025474090998547829 0.022797397614922374 0.052343823979608711 0.018403067728359018 -0.0015746529031988562
leaf_weight=1167 7236 5570 36 3027 4586 166 26 263 91 33 20 20 20 37
leaf_count=1167 7236 5570 36 3027 4586 166 26 263 91 33 20 20 20 37
internal_value=0 0.000110017 -0.000148428 0.000800494 -0.000765153 0.00396227 0.00706856 0.00191313 -0.000408403 0.00903303 0.0155012 0.0218944 0.0353734 0.00697694
internal_weight=0 12806 9492 3739 5753 712 283 429 150 59 133 76 40 57
internal_count=22298 12806 9492 3739 5753 712 283 429 150 59 133 76 40 57
shrinkage=0.15


Tree=176
num_leaves=15
num_cat=0
split_feature=7 36 16 16 36 36 19 10 26 22 2 12 21 26
split_gain=0.016029 0.0934271 0.771125 0.29343 0.34337 0.274793 0.27386 0.252396 0.48196 0.701079 1.00747 0.550793 0.619737 0.461783
threshold=3.8462700000000007e-05 -0.0010818149999999999 4.3778400000000007e-09 -2.2442049999999996e-08 -0.00012281349999999997 0.00023460450000000003 0.0010463850000000002 1.7850200000000004e-05 9.1169900000000016e-05 1.3160150000000002 1.3206000000000002 -3.1474349999999995e-05 -3.9946799999999993 -0.00014341149999999995
decision_type=2 2 2 2 2 2 2 2 2 2 2 2 2 2
left_child=1 2 7 4 -3 -5 -6 8 9 11 -11 12 13 -1
right_child=-2 3 -4 5 6 -7 -8 -9 -10 10 -12 -13 -14 -15
leaf_value=0.0037407481770787851 0.00010543690045295922 0.0014852048164349242 -0.0022679331464123815 -0.0012788502117625571 -0.0033401732846158228 0.0014502824842840248 0.00013513421619597196 0.0016035745377154526 -0.00048696125598966051 0.00099203737523306953 0.0379035013636983 -0.0017667647111920814 -0.00064484627144465346 0.031229730670086359
leaf_weight=20 13215 681 1075 1285 1739 2345 722 786 162 28 41 112 43 44
leaf_count=20 13215 681 1075 1285 1739 2345 722 786 162 28 41 112 43 44
internal_value=0 -0.000153402 0.000670113 -0.000434433 -0.00149573 0.000484185 -0.0023206 0.00322545 0.00605833 0.00974006 0.0229249 0.00558592 0.0132822 0.0226394
internal_weight=0 9083 2311 6772 3142 3630 2461 1236 450 288 69 219 107 64
internal_count=22298 9083 2311 6772 3142 3630 2461 1236 450 288 69 219 107 64
shrinkage=0.15


Tree=177
num_leaves=15
num_cat=0
split_feature=3 23 14 14 23 3 30 23 3 3 1 23 35 15
split_gain=0.0156468 0.0278072 0.0704633 0.0613518 0.181558 0.226959 0.978618 0.282865 0.248585 0.244802 0.218058 0.215528 0.179157 0.707573
threshold=-6.0660849999999993 -15.447399999999998 0.00032540650000000004 0.00032540650000000004 -8.596409999999997 -8.7529949999999985 0.00012004050000000002 -9.3185099999999981 -7.0056449999999986 -10.130899999999999 -2.1588699999999998 -10.556599999999998 -0.00021580649999999995 -2.3788299999999997e-08
decision_type=2 2 2 2 2 2 2 2 2 2 2 2 2 2
left_child=1 2 -1 4 5 6 -3 9 11 -8 -9 -7 13 -6
right_child=-2 3 -4 -5 12 8 7 10 -10 -11 -12 -13 -14 -15
leaf_value=0.0019141325308176861 0.00025320827747801224 0.032851746559820393 -3.6705944147569047e-05 3.9459750930145793e-05 0.0073613222449694145 -0.0021927806685086001 0.008891913032669934 -0.00016858856339240449 -0.00043008560028025663 -0.0058789715466606562 0.021981596988625826 -0.0070280422128423383 -0.00069589450872339367 -0.0021155578167422117
leaf_weight=545 4406 22 1768 11616 330 550 31 20 857 136 20 333 1281 383
leaf_count=545 4406 22 1768 11616 330 550 31 20 857 136 20 333 1281 383
internal_value=0 -6.23539e-05 0.00042296 -0.000134408 -0.000644034 -0.00166574 0.0027734 -0.000423337 -0.00224997 -0.00313707 0.0109065 -0.00401627 0.000364863 0.00227066
internal_weight=0 17892 2313 15579 3963 1969 229 207 1740 167 40 883 1994 713
internal_count=22298 17892 2313 15579 3963 1969 229 207 1740 167 40 883 1994 713
shrinkage=0.15


Tree=178
num_leaves=15
num_cat=0
split_feature=34 19 14 3 1 20 0 0 14 18 4 32 4 14
split_gain=0.0190561 0.0896277 0.0994173 0.0830232 0.0645502 0.0613394 0.11981 0.177807 0.0944144 0.0745881 0.133101 0.118184 0.0830348 0.140915
threshold=0.0077461050000000005 3.1641700000000006e-10 0.00040445950000000003 -8.2462449999999983 -8.6728899999999971 -10.491749999999998 -10.550049999999997 -5.1818899999999992 0.00011475850000000001 1.1728650000000001e-06 0.22294900000000004 -0.013571549999999998 -0.13816999999999999 0.00020352350000000003
decision_type=2 2 2 2 2 2 2 2 2 2 2 2 2 2
left_child=1 2 -1 4 -3 6 -5 -8 -9 12 11 -11 -7 -14
right_child=-2 3 -4 5 -6 9 7 8 -10 10 -12 -13 13 -15
leaf_value=0.014804485846543685 -6.3437183674514152e-05 0.0080576295442629734 0.0011513774050399661 0.0042487856576371996 0.00080295198888550407 -0.0013188921806985736 -0.016596335197391454 -0.0087531166683350297 0.001080520585390455 -0.013896255067250292 -0.00055489516749576728 -0.0027849954135100623 0.00077770602086727684 0.010123349898984951
leaf_weight=20 18439 28 30 36 1912 453 26 35 59 35 319 56 812 38
leaf_count=20 18439 28 30 36 1912 453 26 35 59 35 319 56 812 38
internal_value=0 0.000303114 0.00661262 0.000220291 0.000907659 -0.000493189 -0.00334075 -0.00561761 -0.00258094 -0.000233867 -0.00199839 -0.00705856 0.000321356 0.00119551
internal_weight=0 3859 50 3809 1940 1869 156 120 94 1713 410 91 1303 850
internal_count=22298 3859 50 3809 1940 1869 156 120 94 1713 410 91 1303 850
shrinkage=0.15


Tree=179
num_leaves=15
num_cat=0
split_feature=23 3 14 23 39 29 0 20 9 29 3 23 9 14
split_gain=0.0156594 0.378787 0.995247 1.40909 0.584152 0.819349 0.82689 0.878083 0.642846 0.418498 0.345662 0.415009 0.28909 0.271549
threshold=-11.864199999999999 -11.557899999999998 0.0015781900000000004 -14.105999999999998 0.00092049950000000014 -0.0033543849999999997 0.3655675000000001 -1.2624499999999996 1.9997450000000006e-05 0.005687895000000001 -8.3121399999999976 -15.099999999999998 -2.3277349999999995e-05 0.0036806550000000001
decision_type=2 2 2 2 2 2 2 2 2 2 2 2 2 2
left_child=1 2 3 -1 5 8 7 9 -5 -7 11 -3 -11 -13
right_child=-2 10 -4 4 -6 6 -8 -9 -10 12 -12 13 -14 -15
leaf_value=-0.00035774879122014216 -8.7359113033452717e-05 0.00032701630273215034 0.00035427770525169858 0.017713841918988952 -0.0032932470414089037 0.049455148726701738 -0.0060910371874342674 -0.0032944602489640767 0.052431798752929484 0.035632415749132632 0.00036069769615383081 -0.0063102115500671919 0.010128464908339083 -0.0010648202820653162
leaf_weight=186 15036 779 1705 21 25 20 32 22 28 20 3456 593 20 355
leaf_count=186 15036 779 1705 21 25 20 32 22 28 20 3456 593 20 355
internal_value=0 0.000180877 0.00189138 0.00889876 0.0180568 0.0213314 0.014359 0.0223395 0.0375527 0.0317387 -0.000505238 -0.00223811 0.0228804 -0.00434596
internal_weight=0 7262 2079 374 188 163 114 82 49 60 5183 1727 40 948
internal_count=22298 7262 2079 374 188 163 114 82 49 60 5183 1727 40 948
shrinkage=0.15


Tree=180
num_leaves=15
num_cat=0
split_feature=34 14 33 16 19 23 7 6 4 30 10 10 26 7
split_gain=0.0163676 0.0790507 0.0671337 0.0702823 0.0938144 0.184968 0.174806 0.120098 0.0805584 0.0788914 0.0633637 0.0856386 0.0693773 0.0686217
threshold=0.0045174200000000003 0.00045392150000000004 1.0000000180025095e-35 -6.2511249999999987e-07 1.1201050000000003e-08 -6.786319999999999 3.5138500000000009e-05 -8.2868549999999988e-06 -0.043634399999999997 5.6698900000000007e-05 1.5459600000000004e-05 2.2583100000000004e-05 5.3092300000000007e-05 3.2058050000000007e-05
decision_type=2 2 2 2 2 2 2 2 2 2 2 2 2 2
left_child=1 2 3 -1 5 6 -5 -7 -9 -6 -4 12 -12 -13
right_child=-2 -3 10 4 9 7 -8 8 -10 -11 11 13 -14 -15
leaf_value=0.0023796927278453947 -4.1165811730920534e-05 0.0011996264476944716 0.0070017687383700494 0.018454018631600774 0.00064039493996748012 0.0051327637845783366 0.00068205062469298193 -0.015448318245554609 -0.0031581970946198061 -0.0056551946367612814 -0.010203415599662547 0.0060319938382935312 0.0010378423679087844 0.00011142291746845481
leaf_weight=72 20223 1190 33 20 57 21 33 21 28 209 30 52 21 288
leaf_count=72 20223 1190 33 20 57 21 33 21 28 209 30 52 21 288
internal_value=0 0.000401203 -0.000672383 -0.0019253 -0.00272211 0.000703511 0.00738845 -0.00435795 -0.00842539 -0.00430614 0.000689868 0.00015715 -0.00557466 0.00101692
internal_weight=0 2075 885 461 389 123 53 70 49 266 424 391 51 340
internal_count=22298 2075 885 461 389 123 53 70 49 266 424 391 51 340
shrinkage=0.15


Tree=181
num_leaves=15
num_cat=0
split_feature=5 37 10 31 11 20 17 10 37 20 28 20 20 9
split_gain=0.0152659 0.0609919 0.0853431 0.0724756 0.0779658 0.0670136 0.142873 0.0920321 0.257391 0.397265 0.162544 0.143008 0.456975 0.394301
threshold=1.5861050000000003e-05 -3.1332799999999996e-07 2.2124300000000004e-05 -0.042848449999999989 1.8812600000000001e-06 6.4342100000000011 4.0225050000000006e-07 2.2124300000000004e-05 -1.6936599999999996e-07 -3.4985249999999994 -0.24461849999999999 -0.68877199999999983 2.7610150000000004 -4.4424349999999999e-06
decision_type=2 2 2 2 2 2 2 2 2 2 2 2 2 2
left_child=-1 2 3 4 -2 7 -7 8 9 -3 -10 -12 13 -13
right_child=1 5 -4 -5 -6 6 -8 -9 10 -11 11 12 -14 -15
leaf_value=-0.00011654061271119471 -0.0024462497942206425 -0.00061868514167144888 -0.00027191345979829534 -0.0013536817073759267 -0.011814618066777116 -0.0017451187897743984 0.00080334548751278211 0.00034309213442743151 0.014144629005542289 0.021514346583972908 -0.001424485258103572 -0.00076857653346051825 -0.0017789357750088029 0.01790758462221172
leaf_weight=11850 41 36 1699 140 39 982 998 5864 21 37 321 41 162 67
leaf_count=11850 41 36 1699 140 39 982 998 5864 21 37 321 41 162 67
internal_value=0 0.000132179 -0.000631872 -0.00341174 -0.00701333 0.000304088 -0.00046059 0.000535278 0.0021805 0.0105994 0.00117628 0.000715481 0.00325966 0.0108176
internal_weight=0 10448 1919 220 80 8529 1980 6549 685 73 612 591 270 108
internal_count=22298 10448 1919 220 80 8529 1980 6549 685 73 612 591 270 108
shrinkage=0.15


Tree=182
num_leaves=15
num_cat=0
split_feature=34 3 36 5 36 23 5 32 36 11 11 2 13 23
split_gain=0.0145175 0.0591974 0.137297 0.0830066 0.101762 0.168325 0.198405 0.212729 0.0828447 0.174138 0.186705 0.0794992 0.0747647 0.0983433
threshold=0.11925900000000002 -14.946699999999998 -1.64184 9.312295000000002e-06 0.0018332000000000003 -14.549349999999999 1.0899900000000002e-05 -0.41504749999999996 -0.0014052149999999998 0.00012585200000000003 -0.00010844399999999998 -0.97551199999999982 -6.3042249999999988e-05 -15.268449999999998
decision_type=2 2 2 2 2 2 2 2 2 2 2 2 2 2
left_child=-1 2 -2 -4 8 6 -6 -8 12 10 -10 -9 -5 -14
right_child=1 -3 3 4 5 -7 7 11 9 -11 -12 -13 13 -15
leaf_value=-8.5171952739099421e-05 0.010101100478641456 0.00031751562986597008 -0.0049033996078833297 -0.0064783205685671422 0.019531987693626431 -0.0013850560197805329 0.016112858047043637 0.0052367146413486729 -0.0028504191059619188 0.0043518455068924985 -0.019881559489814595 -0.0054176622819795735 0.004359194091490568 -0.0025040708946418326
leaf_weight=14913 24 6609 128 48 20 189 21 26 30 23 28 40 76 123
leaf_count=14913 24 6609 128 48 20 189 21 26 30 23 28 40 76 123
internal_value=0 0.000171993 -0.00106739 -0.00142383 -0.000710069 0.00130636 0.00606035 0.00296343 -0.00252977 -0.00669264 -0.0110723 -0.00122048 -0.00116462 0.000117076
internal_weight=0 7385 776 752 624 296 107 87 328 81 58 66 247 199
internal_count=22298 7385 776 752 624 296 107 87 328 81 58 66 247 199
shrinkage=0.15


Tree=183
num_leaves=15
num_cat=0
split_feature=4 24 4 3 38 18 19 11 31 3 26 19 18 6
split_gain=0.0139226 0.0324292 0.226097 0.231782 0.264939 0.511315 0.842012 0.915448 0.897253 0.570958 0.235043 0.205634 0.187463 0.181555
threshold=-1.2753049999999997 -0.18967399999999998 -0.099698899999999993 -6.3990199999999993 0.0018724650000000002 -5.7365999999999993e-05 1.4797350000000001e-06 -1.5941849999999997e-05 0.050211650000000004 -9.5728199999999983 0.00010428850000000001 1.4469750000000003e-07 -4.2913199999999993e-07 4.7175650000000005e-06
decision_type=2 2 2 2 2 2 2 2 2 2 2 2 2 2
left_child=-1 2 3 4 5 -2 10 -8 9 -9 11 -7 -4 -6
right_child=1 -3 12 -5 13 6 7 8 -10 -11 -12 -13 -14 -15
leaf_value=0.00026105482280053602 -0.0036609798289967276 -0.00017588967805476518 -0.0035891796318708517 -0.0018078173291624169 0.0011115897150951732 0.0025372937084175641 0.00011881801328854634 0.06200483656022697 0.0056018355551974049 0.02768863821402192 0.011004070010788451 -0.017346843572820281 6.1443579965459056e-06 0.010096161493856925
leaf_weight=3811 68 13420 362 299 805 25 32 20 21 24 26 22 3309 54
leaf_count=3811 68 13420 362 299 805 25 32 20 21 24 26 22 3309 54
internal_value=0 -5.38151e-05 0.000269501 0.00189435 0.00290342 0.00733204 0.0117292 0.0208873 0.0311117 0.0432869 -0.000439622 -0.00677017 -0.000348393 0.00167639
internal_weight=0 18487 5067 1396 1097 238 170 97 65 44 73 47 3671 859
internal_count=22298 18487 5067 1396 1097 238 170 97 65 44 73 47 3671 859
shrinkage=0.15


Tree=184
num_leaves=15
num_cat=0
split_feature=14 21 39 14 14 11 20 39 14 34 18 1 34 1
split_gain=0.0158625 0.0560029 0.0564909 0.098303 0.179302 0.137301 0.165368 0.0501116 0.210412 0.0534512 0.0485684 0.0674124 0.037927 0.083108
threshold=0.00010145900000000002 14.437200000000002 7.2270150000000013e-07 8.2261600000000005e-05 8.9943600000000018e-05 1.0575450000000002e-05 9.426420000000002 8.0563250000000001e-07 7.4677250000000007e-05 0.0032332500000000004 -2.3655349999999998e-08 -6.5349399999999997 0.0045174200000000003 7.9890250000000007
decision_type=2 2 2 2 2 2 2 2 2 2 2 2 2 2
left_child=1 2 3 5 -5 10 -7 8 -4 -9 -1 -12 13 -2
right_child=12 -3 7 4 -6 6 -8 9 -10 -11 11 -13 -14 -15
leaf_value=-3.1458788240949315e-05 0.0010226055694588668 -0.0052511007067351321 -0.0022125939476037664 -0.017993412996557625 -0.00028702331286284232 -0.0022024329086499555 0.016622001439931668 -0.0073445829705451604 0.016779684651243899 0.000430355776339941 7.6370080991182472e-05 -0.010184346124707885 -0.00012932882404944923 -0.0021689576142515372
leaf_weight=72 1459 41 35 22 31 21 21 20 21 3793 25 34 16493 210
leaf_count=72 1459 41 35 22 31 21 21 20 21 3793 25 34 16493 210
internal_value=0 0.000265116 0.000320346 -0.0019848 -0.00763685 -0.000253252 0.00720978 0.000454996 0.00490951 0.000389575 -0.00264598 -0.00583659 -6.03744e-05 0.000621031
internal_weight=0 4136 4095 226 53 173 42 3869 56 3813 131 59 18162 1669
internal_count=22298 4136 4095 226 53 173 42 3869 56 3813 131 59 18162 1669
shrinkage=0.15


Tree=185
num_leaves=15
num_cat=0
split_feature=31 0 3 0 10 23 22 2 14 2 19 21 19 19
split_gain=0.0136192 0.0621812 0.0756955 0.158847 0.281035 0.226163 0.221889 1.44239 0.929655 0.29134 0.193087 0.150487 0.132949 0.186814
threshold=0.072897150000000008 -12.3728 -8.2462449999999983 -3.6001199999999995 1.9903100000000003e-05 -13.370399999999998 -2.7017049999999996 -2.6733199999999999 0.0028691050000000003 -2.6733199999999999 3.5907350000000011e-05 -0.056803049999999994 3.8519400000000004e-08 2.5573700000000003e-06
decision_type=2 2 2 2 2 2 2 2 2 2 2 2 2 2
left_child=-1 -2 3 4 5 -3 7 8 -6 11 -9 -8 -11 -14
right_child=1 2 -4 -5 6 -7 9 10 -10 12 -12 -13 13 -15
leaf_value=-6.8754551468860892e-05 -0.0023782712304686524 0.0010094016982728372 0.00091284577686197158 -0.00094078740387713736 0.039649197732297962 0.020927157415205549 -0.010685391898543646 -0.01840911869541742 0.0050765157650624008 -0.0093793602923979043 -0.0021629700124321969 -0.0018437353740657933 0.011410923139192163 0.00097759725388780116
leaf_weight=16591 203 23 2464 2083 35 29 77 20 35 25 93 99 42 479
leaf_count=16591 203 23 2464 2083 35 29 77 20 35 25 93 99 42 479
internal_value=0 0.000199879 0.000294967 -0.000205841 0.00139384 0.0121174 0.00077768 0.00544296 0.0223629 -0.000404794 -0.00503839 -0.00571196 0.00130594 0.00181867
internal_weight=0 5707 5504 3040 957 52 905 183 70 722 113 176 546 521
internal_count=22298 5707 5504 3040 957 52 905 183 70 722 113 176 546 521
shrinkage=0.15


Tree=186
num_leaves=15
num_cat=0
split_feature=4 4 24 23 3 3 23 23 15 29 29 0 14 3
split_gain=0.0144667 0.0371437 0.397981 0.221296 0.51221 0.414057 0.819729 0.507311 0.617419 1.26659 0.338381 0.395507 0.326066 0.306437
threshold=0.73769000000000007 0.17582550000000002 0.16243000000000005 -12.111049999999999 -12.678699999999997 -6.834204999999999 -6.8666249999999991 -6.8832049999999994 2.3408800000000002e-07 -0.0010327499999999996 -0.0019501249999999998 -6.4393749999999992 0.00073300000000000004 -12.474749999999998
decision_type=2 2 2 2 2 2 2 2 2 2 2 2 2 2
left_child=1 -1 -3 13 -5 7 -7 8 10 12 -6 -12 -10 -4
right_child=-2 2 3 4 5 6 -8 -9 9 -11 11 -13 -14 -15
leaf_value=2.4095454878378537e-05 0.00024545293028127341 -0.0020004784994276073 0.0056311921495691176 -0.0044573053231777683 -0.0064470446830455332 -0.0063795212390648781 0.020761119233365582 -0.0087308905189274807 0.046377724070251647 -0.0090148377302102737 -0.0019757389207370581 0.02317422714755487 0.024660650662013461 -0.003852081236020793
leaf_weight=15608 4349 1560 115 110 32 95 34 24 28 20 24 34 35 230
leaf_count=15608 4349 1560 115 110 32 95 34 24 28 20 24 34 35 230
internal_value=0 -5.94727e-05 -0.000616641 0.00214749 0.00439354 0.00738002 0.000773826 0.0117059 0.0145411 0.0238723 0.00593556 0.0127673 0.0343127 -0.00069099
internal_weight=0 17949 2341 781 436 326 129 197 173 83 90 58 63 345
internal_count=22298 17949 2341 781 436 326 129 197 173 83 90 58 63 345
shrinkage=0.15


Tree=187
num_leaves=15
num_cat=0
split_feature=34 19 14 19 33 36 35 7 7 7 28 0 19 34
split_gain=0.0153705 0.0666208 0.0713209 0.0524457 0.0929088 0.121688 0.139528 0.115718 0.05382 0.111243 0.058604 0.0500625 0.0354508 0.117739
threshold=0.0077461050000000005 3.1641700000000006e-10 0.00040445950000000003 2.0596350000000006e-09 -2.5789099999999994e-06 0.0001040815 3.5020300000000008e-05 3.8462700000000007e-05 2.4140600000000004e-05 2.3366750000000001e-05 -0.0031931949999999998 3.5421500000000004 8.904350000000001e-07 0.0065072900000000006
decision_type=2 2 2 2 2 2 2 2 2 2 2 2 2 2
left_child=1 2 -1 4 -3 7 -7 -6 9 10 -5 -12 13 -10
right_child=-2 3 -4 8 5 6 -8 -9 12 -11 11 -13 -14 -15
leaf_value=0.012650397488032468 -5.6973343247207972e-05 0.0046364332341909172 0.0010863735782913864 -0.0062214072394583906 -0.0068218247033655643 -0.001690036554022559 -0.018432235610089262 0.005045827419350021 -0.001320246650151656 0.01089886429199396 0.00085516874588882695 0.0088287762540858235 0.0004500574564031681 0.0044934088429892487
leaf_weight=20 18439 32 30 21 36 21 24 38 717 32 91 22 2687 88
leaf_count=20 18439 32 30 21 36 21 24 38 717 32 91 22 2687 88
internal_value=0 0.000272229 0.00571198 0.000200822 -0.00253869 -0.00446814 -0.0106192 -0.000727625 0.000313908 0.00295282 0.00105525 0.00240755 0.000188461 -0.000684717
internal_weight=0 3859 50 3809 151 119 45 74 3658 166 134 113 3492 805
internal_count=22298 3859 50 3809 151 119 45 74 3658 166 134 113 3492 805
shrinkage=0.15


Tree=188
num_leaves=15
num_cat=0
split_feature=3 21 1 1 32 27 19 3 19 10 3 19 13 12
split_gain=0.0150932 0.0253935 0.0689042 0.0509268 0.0447314 0.024259 0.0750797 0.0675034 0.117797 0.0848951 0.0734396 0.16653 0.0665185 0.119748
threshold=-6.0660849999999993 17.104850000000003 5.1049750000000005 3.4731800000000006 -0.65833299999999995 12.521150000000002 1.3371400000000003e-07 -10.193299999999999 0.004308600000000001 6.3909950000000013e-05 -15.282399999999997 0.013816650000000001 0.00013637800000000001 0.00012940200000000003
decision_type=2 2 2 2 2 2 2 2 2 2 2 2 2 2
left_child=1 5 3 4 -3 -1 -7 8 -8 12 11 -10 13 -9
right_child=-2 2 -4 -5 -6 6 7 9 10 -11 -12 -13 -14 -15
leaf_value=-9.002505155375472e-05 0.00024868885802924732 0.0010004602770909274 -0.0083270222470614927 0.0063451979492258814 -0.0072712617111392319 0.0036364695776462904 -0.003697133587624574 0.0020842148567116335 0.016613232176418285 -0.0026596079969261987 -0.00055301039628338419 -0.00057735916309411552 -0.0017497800336831746 0.010627163838064516
leaf_weight=16764 4406 38 31 21 24 161 215 261 21 97 111 32 73 43
leaf_count=16764 4406 38 31 21 24 161 215 261 21 97 111 32 73 43
internal_value=0 -6.12409e-05 -0.00229282 -3.90799e-05 -0.0022015 -4.69311e-05 0.000665521 0.000104768 -0.00138751 0.00129796 0.00164036 0.00623401 0.00231622 0.00329259
internal_weight=0 17892 114 83 62 17778 1014 853 379 474 164 53 377 304
internal_count=22298 17892 114 83 62 17778 1014 853 379 474 164 53 377 304
shrinkage=0.15


Tree=189
num_leaves=15
num_cat=0
split_feature=12 32 19 25 33 5 38 13 35 2 21 19 30 36
split_gain=0.0136835 0.0490486 0.384932 0.634244 0.135084 0.0421295 0.0562863 0.257885 0.0502084 0.0443488 0.0413627 0.0539724 0.137893 0.0764859
threshold=0.00018222250000000004 -0.17874599999999996 8.9050550000000007e-05 1.5537750000000001 -1.5975849999999997e-05 9.0445300000000016e-06 -0.023927849999999997 9.6125900000000011e-06 -0.0078427699999999989 2.1983450000000002 -9.1152649999999991 1.8396200000000002e-05 0.00033141100000000004 0.0012181150000000003
decision_type=2 2 2 2 2 2 2 2 2 2 2 2 2 2
left_child=-1 2 3 -2 -5 -4 7 -7 9 -8 -3 12 -12 -14
right_child=1 10 5 4 -6 6 8 -9 -10 -11 11 -13 13 -15
leaf_value=-5.0436479137712134e-05 0.029758883412513468 0.0017551744348585619 -0.0057682825510710243 0.010268433064837674 -0.0035408245783450231 0.015064657170150894 -0.0019784973144968748 -0.0011368774330808914 0.00025718446708429218 -0.010101713837357239 0.0011516458953909543 6.6111932216118106e-05 -0.0083100727044888231 -0.00096227831981035268
leaf_weight=18829 27 278 28 28 37 30 62 84 282 20 140 2317 85 51
leaf_count=18829 27 278 28 28 37 30 62 84 282 20 140 2317 85 51
internal_value=0 0.000273759 0.00150962 0.0104347 0.00240778 -0.000113132 0.000218132 0.00312668 -0.000692789 -0.00395977 1.6342e-05 -0.000170081 -0.00215291 -0.00555465
internal_weight=0 3469 598 92 65 506 478 114 364 82 2871 2593 276 136
internal_count=22298 3469 598 92 65 506 478 114 364 82 2871 2593 276 136
shrinkage=0.15


Tree=190
num_leaves=15
num_cat=0
split_feature=8 22 3 22 14 2 19 23 3 14 3 23 23 38
split_gain=0.0135173 0.0528301 0.161344 0.151002 0.234529 0.214243 0.271543 0.198947 0.791353 0.289514 0.362031 1.03118 0.625693 0.685135
threshold=1.2981850000000002e-05 -0.48205149999999991 -5.9150349999999987 -2.5366299999999997 0.0041861650000000012 -2.5332949999999994 1.2548550000000002e-05 -11.212849999999998 -11.89805 0.00088996750000000003 -6.834204999999999 -6.9149849999999988 -6.9149849999999988 -0.0014925649999999997
decision_type=2 2 2 2 2 2 2 2 2 2 2 2 2 2
left_child=-1 2 3 5 7 -2 -7 8 -5 10 12 -12 13 -9
right_child=1 -3 -4 4 -6 6 -8 9 -10 -11 11 -13 -14 -15
leaf_value=-6.12500403847014e-05 0.012460392640787176 -0.00022030475689375191 -0.0013738540507781428 0.023370132778560922 -0.00070795922710402686 -0.0093819303847528217 0.00044463898993383512 -0.01123420109739527 -0.0019440420336853895 -0.0003639131484816199 -0.0081726122794759833 0.019104849204450148 -0.0024501515276642745 0.018072210464327196
leaf_weight=17488 24 2681 572 31 384 87 232 20 268 139 89 48 60 175
leaf_count=17488 24 2681 572 31 384 87 232 20 268 139 89 48 60 175
internal_value=0 0.00022269 0.000780544 0.00157201 0.0023572 -0.00120706 -0.00223533 0.0037753 0.000680505 0.00551795 0.00760361 0.00138445 0.0109449 0.0150664
internal_weight=0 4810 2129 1557 1214 343 319 830 299 531 392 137 255 195
internal_count=22298 4810 2129 1557 1214 343 319 830 299 531 392 137 255 195
shrinkage=0.15


Tree=191
num_leaves=15
num_cat=0
split_feature=3 13 7 21 25 21 2 5 6 31 0 20 26 25
split_gain=0.0166172 0.0250206 0.04239 0.0990895 0.121729 0.115811 0.29616 0.202766 0.386665 0.080069 0.0842173 0.0963751 0.0708364 0.162986
threshold=-6.0660849999999993 7.5100050000000013e-05 5.9862050000000007e-05 -3.0766999999999993 47.599950000000007 -0.64659849999999996 -2.8543249999999998 2.2498150000000001e-05 1.3301050000000003e-06 -0.13998099999999997 6.1044200000000011 5.3404300000000005 -0.00010250049999999999 0.66376400000000013
decision_type=2 2 2 2 2 2 2 2 2 2 2 2 2 2
left_child=1 2 -1 4 9 6 -5 8 -8 10 -4 -12 13 -7
right_child=-2 -3 3 5 -6 12 7 -9 -10 -11 11 -13 -14 -15
leaf_value=-0.00030478664968437084 0.00026094196696858072 0.00022001913036031497 -0.0014821064556109866 0.021071733845747075 0.010662249005399643 0.010991363785772893 -0.00072663675027797572 -0.00077171192001101606 0.019381211596415735 -0.00054667318711458816 -0.0011069799868710106 -0.014380474663994391 -8.9036366739097931e-06 0.00095677244551181163
leaf_weight=10490 4406 5014 78 21 20 45 48 154 39 702 20 32 1038 191
leaf_count=10490 4406 5014 78 21 20 45 48 154 39 702 20 32 1038 191
internal_value=0 -6.42583e-05 -0.000174941 0.000395446 -0.000901923 0.00111508 0.00398722 0.00249853 0.00828723 -0.00117991 -0.00459938 -0.00927528 0.000524421 0.00287015
internal_weight=0 17892 12878 2388 852 1536 262 241 87 832 130 52 1274 236
internal_count=22298 17892 12878 2388 852 1536 262 241 87 832 130 52 1274 236
shrinkage=0.15


Tree=192
num_leaves=15
num_cat=0
split_feature=23 10 19 14 33 30 28 33 19 14 21 30 14 8
split_gain=0.0141983 0.0908217 0.0660732 0.256821 0.475526 0.601833 0.481663 0.25412 0.134751 0.102269 0.452612 0.106718 0.158767 0.162821
threshold=-12.0588 8.6105100000000007e-06 2.2962050000000003e-07 0.0010172550000000001 2.5621850000000004e-06 0.0012062050000000003 -0.0026154649999999995 -2.6599849999999993e-06 1.4797350000000001e-06 0.0007529835000000001 -3.0494449999999995 0.00063974150000000016 0.00017158350000000004 -6.4758499999999992e-06
decision_type=2 2 2 2 2 2 2 2 2 2 2 2 2 2
left_child=1 -1 3 7 5 6 -5 9 -4 11 -11 12 -3 -14
right_child=-2 2 8 4 -6 -7 -8 -9 -10 10 -12 -13 13 -15
leaf_value=0.0080290098490712059 -8.019234511269395e-05 -0.0020847417083799278 -0.00282270275172168 0.040035990981215783 -0.004095959782869996 -0.0019587846249467817 0.012278255476401403 0.0023617632776321055 0.00010100371998649669 -0.010602515361970289 0.020927305704182279 -0.00057706995915410406 -0.01934495464166892 -0.0050583178490633141
leaf_weight=33 15390 180 382 22 57 37 39 700 4961 20 21 378 28 50
leaf_count=33 15390 180 382 22 57 37 39 700 4961 20 21 378 28 50
internal_value=0 0.000178657 0.000140975 0.0010094 0.00679806 0.0131344 0.0222892 0.000357805 -0.000108028 -0.00171424 0.00554691 -0.00218233 -0.00453422 -0.0101869
internal_weight=0 6908 6875 1532 155 98 61 1377 5343 677 41 636 258 78
internal_count=22298 6908 6875 1532 155 98 61 1377 5343 677 41 636 258 78
shrinkage=0.15


Tree=193
num_leaves=15
num_cat=0
split_feature=24 4 18 33 39 4 3 38 14 5 25 7 23 23
split_gain=0.0128611 0.242821 0.285428 0.759898 0.536652 0.170625 0.239612 0.185165 0.289394 0.154491 0.104772 0.104215 0.275292 0.103227
threshold=0.14921000000000004 0.056541350000000011 -4.311299999999999e-08 2.2989000000000006e-06 3.5116350000000005e-05 -1.4013599999999997 -6.795914999999999 -0.0026920549999999996 0.0026737300000000005 1.4980150000000001e-05 0.29178050000000005 2.3659150000000005e-05 -11.344899999999997 -7.0749549999999992
decision_type=2 2 2 2 2 2 2 2 2 2 2 2 2 2
left_child=-1 5 3 -3 -5 -2 7 -7 10 -6 -9 12 -4 -8
right_child=1 2 11 4 9 6 13 8 -10 -11 -12 -13 -14 -15
leaf_value=7.6146857480035977e-05 0.00052864590496951166 -0.0010845627649307197 0.016047290913675995 0.032059952408171201 0.016483805053867401 -0.0011846548071410834 0.00058525399582906546 -0.0025109558845573298 0.0010865771724408648 -0.0015421238100237172 -0.0070816146205200511 0.00030186733203365284 -0.0031849036337328416 -0.0040633544280008057
leaf_weight=15412 1177 121 33 34 20 764 962 149 166 23 465 2817 34 121
leaf_count=15412 1177 121 33 34 20 764 962 149 166 23 465 2817 34 121
internal_value=0 -0.000170429 0.000819159 0.00632835 0.0179772 -0.000972193 -0.00164463 -0.00284442 -0.00447014 0.00684203 -0.00597245 0.000440927 0.00628767 6.58804e-05
internal_weight=0 6886 3082 198 77 3804 2627 1544 780 43 614 2884 67 1083
internal_count=22298 6886 3082 198 77 3804 2627 1544 780 43 614 2884 67 1083
shrinkage=0.15


Tree=194
num_leaves=15
num_cat=0
split_feature=17 37 4 13 4 19 26 3 18 34 20 0 31 3
split_gain=0.0142482 0.206101 0.4879 0.547983 0.281923 0.470214 0.269248 0.499598 0.661789 0.697964 0.596691 0.452688 0.380874 0.383762
threshold=1.5760850000000003e-07 5.8403950000000007e-09 -0.055414349999999994 8.2038750000000011e-06 -0.055414349999999994 1.7628450000000002e-05 5.8633800000000008e-05 -8.0227549999999983 -5.7365999999999993e-05 0.55322950000000015 7.5974850000000007 4.8287050000000011 -0.078114299999999984 -11.839049999999999
decision_type=2 2 2 2 2 2 2 2 2 2 2 2 2 2
left_child=-1 4 6 -4 -2 -6 -3 8 -8 10 11 12 -10 -14
right_child=1 2 3 -5 5 -7 7 -9 9 -11 -12 -13 13 -15
leaf_value=0.00012776594697222135 -0.002293445477293102 0.0013775759601972813 -0.0025474514712312728 0.0011501028689219011 -0.0028306987802140227 0.00071009108888134363 0.0022555928642477865 0.00038840892091303585 0.002202183427289128 -0.0041905748215503988 -0.0025334642815869305 0.042914161078918441 0.0096350848674774166 0.034675858919508751
leaf_weight=10442 1762 913 1486 2294 1086 3785 142 231 20 30 20 26 21 40
leaf_count=10442 1762 913 1486 2294 1086 3785 142 231 20 30 20 26 21 40
internal_value=0 -0.000112528 0.000592258 -0.000303486 -0.000667495 -7.93357e-05 0.0029387 0.00562795 0.00967589 0.0163872 0.0212481 0.0256933 0.0201656 0.0260553
internal_weight=0 11856 5223 3780 6633 4871 1443 530 299 157 127 107 81 61
internal_count=22298 11856 5223 3780 6633 4871 1443 530 299 157 127 107 81 61
shrinkage=0.15


Tree=195
num_leaves=15
num_cat=0
split_feature=30 5 19 8 12 1 1 8 21 19 31 5 26 15
split_gain=0.0129759 0.0683848 0.088242 0.0473785 0.0715653 0.0391621 0.0342864 0.0167037 0.112008 0.19242 0.417755 0.508972 0.4124 0.742571
threshold=5.7750700000000009e-05 1.0659650000000001e-05 1.0399100000000002e-09 5.8085500000000013e-06 -3.3832099999999997e-05 -10.482449999999998 -13.032499999999997 1.2981850000000002e-05 -4.6993299999999989 6.4213950000000014e-06 0.0040351000000000007 2.0134900000000006e-05 5.4080950000000009e-05 3.4128450000000004e-08
decision_type=2 2 2 2 2 2 2 2 2 2 2 2 2 2
left_child=1 3 -3 -1 -5 6 -4 -2 9 10 -9 12 13 -12
right_child=7 2 5 4 -6 -7 -8 8 -10 -11 11 -13 -14 -15
leaf_value=0.0013592146280248212 -8.7904218411736794e-05 -0.0098663864471018308 0.00083543786604423076 0.002593903242538137 0.014091812351918113 0.00078360678484927656 -0.0074255061117862791 -0.0014188462477893783 -0.00023498216990136883 9.0805034070358916e-05 0.033551856220389406 0.00028048496512779724 0.0040686766678875077 0.0061473126931973219
leaf_weight=69 17024 20 20 29 21 407 26 195 3332 887 45 117 62 44
leaf_count=69 17024 20 20 29 21 407 26 195 3332 887 45 117 62 44
internal_value=0 0.000692877 -0.000115759 0.00390703 0.00742303 0.000314732 -0.00383379 -1.88972e-05 0.000232016 0.00138464 0.00386332 0.00770668 0.0134607 0.0200035
internal_weight=0 592 473 119 50 453 46 21706 4682 1350 463 268 151 89
internal_count=22298 592 473 119 50 453 46 21706 4682 1350 463 268 151 89
shrinkage=0.15


Tree=196
num_leaves=15
num_cat=0
split_feature=3 34 19 7 3 14 25 3 23 36 3 23 33 13
split_gain=0.0182583 0.0243029 0.0598571 0.078627 0.0525942 0.0447567 0.276882 0.396675 0.419253 0.278908 0.183822 0.286941 0.164277 0.444252
threshold=-6.0660849999999993 0.0077461050000000005 3.1641700000000006e-10 3.0984100000000007e-05 -13.618449999999998 0.00013992500000000003 0.27668250000000005 -6.4251549999999993 -6.5572499999999989 -0.00019148049999999998 -7.2104349999999995 -7.2618449999999992 1.9879800000000006e-06 -1.2186799999999998e-05
decision_type=2 2 2 2 2 2 2 2 2 2 2 2 2 2
left_child=1 2 3 -1 -4 6 9 8 -8 -6 11 -11 -12 -14
right_child=-2 -3 4 -5 5 -7 7 -9 -10 10 12 -13 13 -15
leaf_value=-0.00082945221885373543 0.00027352417295233472 -0.00014766872211500472 0.0015696146869511442 0.011865463617014821 -0.0095174332711702343 -0.0003407272825040845 0.012822761612703964 0.020617125002428183 -0.012499088869247187 0.017856553432476871 -0.0031368799490748846 -0.0026487016435047341 0.022205726437918516 -0.0055031683505512774
leaf_weight=21 4406 14774 546 23 65 2095 31 37 28 34 157 28 23 30
leaf_count=21 4406 14774 546 23 65 2095 31 37 28 34 157 28 23 30
internal_value=0 -6.73568e-05 0.000313185 0.00580653 0.000234555 -5.37921e-05 0.0013345 0.0084413 0.000805612 -0.000689993 0.00141951 0.00859612 -0.000699302 0.00652145
internal_weight=0 17892 3118 44 3074 2528 433 96 59 337 272 62 210 53
internal_count=22298 17892 3118 44 3074 2528 433 96 59 337 272 62 210 53
shrinkage=0.15


Tree=197
num_leaves=15
num_cat=0
split_feature=3 34 0 0 14 3 20 2 14 25 14 37 35 3
split_gain=0.0131916 0.021399 0.0624968 0.0649691 0.0999268 0.209316 0.187288 0.0469014 0.0449321 0.0395519 0.113409 0.0547828 0.0505453 0.0346947
threshold=-6.0660849999999993 0.0043944300000000004 -9.8644199999999973 8.022725000000003 0.00011168900000000001 -6.3033449999999993 1.6452800000000003 -0.41245199999999999 0.00017970100000000002 0.21351350000000005 7.1712500000000002e-05 1.7337650000000004e-08 -5.3073649999999996e-05 -8.5562249999999977
decision_type=2 2 2 2 2 2 2 2 2 2 2 2 2 2
left_child=1 2 8 4 5 6 -4 -5 -1 10 -9 12 -12 -6
right_child=-2 -3 3 7 13 -7 -8 9 -10 -11 11 -13 -14 -15
leaf_value=-0.0079676720906387676 0.00023249554383935245 -0.00010869661616015277 0.020527689945366648 -0.0089220768021186815 0.0011663880655244882 -0.0037067615532226138 0.0025101436134427782 0.010054043095026697 -0.00014008760402000256 -0.0059684430539956304 -0.006183988444099669 -0.0075641003542214402 0.0027383869517943822 -0.00057001433236507641
leaf_weight=33 4406 16290 27 20 922 31 25 21 33 31 20 29 50 360
leaf_count=33 4406 16290 27 20 922 31 25 21 33 31 20 29 50 360
internal_value=0 -5.72533e-05 0.00046585 0.000660058 0.00100535 0.0060493 0.0118654 -0.00209619 -0.00405388 -0.00119209 4.17964e-05 -0.00208201 0.000189137 0.000678787
internal_weight=0 17892 1602 1536 1365 83 52 171 66 151 120 99 70 1282
internal_count=22298 17892 1602 1536 1365 83 52 171 66 151 120 99 70 1282
shrinkage=0.15


Tree=198
num_leaves=15
num_cat=0
split_feature=21 1 3 13 13 29 33 14 20 1 21 12 20 6
split_gain=0.0131366 0.415778 0.410302 0.59187 0.360419 2.01537 0.942401 0.927088 0.622149 0.300579 0.515208 0.319359 0.415974 0.31376
threshold=-5.7425949999999988 -5.9840399999999994 -5.9940599999999984 2.3375550000000004e-05 9.6125900000000011e-06 0.00091205500000000016 -2.2755499999999993e-06 0.00020048900000000004 -3.5980049999999992 -6.5349399999999997 -6.8925349999999987 -0.00018521949999999996 -1.7036499999999999 -7.7375899999999993e-07
decision_type=2 2 2 2 2 2 2 2 2 2 2 2 2 2
left_child=1 2 3 4 6 -6 -1 -7 -9 10 11 -8 -13 -14
right_child=-2 -3 -4 -5 5 7 9 8 -10 -11 -12 12 13 -15
leaf_value=-0.0068233445530664939 6.0036973112773757e-05 -0.0010541366195281627 -0.0020063561538287839 -0.0013746572914283873 -0.0060478738747010733 0.013336224634919994 -0.0058723605560282105 0.025752670720685274 0.062718944351321873 0.025926174991764129 -0.012378699221601262 -0.002310746421930022 -0.0024256596682659748 0.017097063488356625
leaf_weight=118 17531 3521 376 307 69 44 26 20 21 22 26 39 21 157
leaf_count=118 17531 3521 376 307 69 44 26 20 21 22 26 39 21 157
internal_value=0 -0.00022079 0.00213411 0.00392356 0.00681264 0.0129977 0.0044838 0.0284582 0.0446866 0.00906883 0.00769016 0.00983745 0.0117197 0.0147938
internal_weight=0 4767 1246 870 563 154 409 85 41 291 269 243 217 178
internal_count=22298 4767 1246 870 563 154 409 85 41 291 269 243 217 178
shrinkage=0.15


Tree=199
num_leaves=15
num_cat=0
split_feature=18 35 29 31 38 7 36 23 19 14 23 33 33 13
split_gain=0.0133833 0.0407338 0.0582155 0.0337807 0.0358571 0.168494 0.0360046 0.0279164 0.0627506 0.221901 0.476712 0.381497 0.472524 0.206608
threshold=-0.00031479449999999998 3.1794550000000004 0.8308350000000001 6.5602550000000006 0.20218650000000002 4.1823600000000004e-05 -0.013252499999999999 -12.773699999999998 2.2962050000000003e-07 0.0010172550000000001 -13.370399999999998 -1.1602499999999998e-05 -3.4364499999999993e-05 3.4925750000000007e-05
decision_type=2 2 2 2 2 2 2 2 2 2 2 2 2 2
left_child=1 2 3 4 6 -6 -1 8 9 -2 11 12 -11 -13
right_child=7 -3 -4 -5 5 -7 -8 -9 -10 10 -12 13 -14 -15
leaf_value=-0.0014275778106586526 0.00048070472815028642 -0.0063356133310922555 0.0076532754104846386 -0.004771136554190889 0.011748373837062074 -0.001809347029881213 0.00034403431788341296 -0.00016320704925350455 -7.3563719686473055e-05 -0.0029032858476663631 0.02767141725136233 0.0036893202768017849 0.024239506533429506 -0.014544509569632595
leaf_weight=279 1170 21 24 30 33 55 3447 13603 3501 27 21 27 31 29
leaf_count=279 1170 21 24 30 33 55 3447 13603 3501 27 21 27 31 29
internal_value=0 0.000252834 0.000288604 0.000242622 0.000282059 0.0032748 0.000211377 -5.34125e-05 0.000257352 0.00114512 0.00690338 0.00307769 0.0116041 -0.0057532
internal_weight=0 3889 3868 3844 3814 88 3726 18409 4806 1305 135 114 58 56
internal_count=22298 3889 3868 3844 3814 88 3726 18409 4806 1305 135 114 58 56
shrinkage=0.15


Tree=200
num_leaves=15
num_cat=0
split_feature=3 23 14 32 21 3 1 5 3 33 13 19 12 5
split_gain=0.0150932 0.0224901 0.0621778 0.0457884 0.0770186 0.176912 0.497856 0.127474 0.147184 0.352268 0.118671 0.102417 0.145783 0.0992827
threshold=-6.0660849999999993 -15.447399999999998 0.0016179300000000003 2.7275950000000004 -3.3987249999999993 -14.340549999999999 -3.3349949999999997 1.6351100000000003e-05 -15.9339 -2.0054049999999995e-05 -5.3656799999999991e-05 0.00057708350000000011 -0.000223215 1.0899900000000002e-05
decision_type=2 2 2 2 2 2 2 2 2 2 2 2 2 2
left_child=1 2 -1 4 5 6 -4 10 9 -9 -6 12 -12 -14
right_child=-2 -3 3 -5 7 -7 -8 8 -10 -11 11 -13 13 -15
leaf_value=0.0011751018794345508 0.0002486885313888516 -0.00012604100423723287 0.026628317156712947 -0.0030967205366876438 -0.012198036028586592 -0.00011165723420466141 -0.0027046741207595914 0.024401107910089193 6.3897051144465251e-05 0.0002139768077800649 -0.013795601348101627 1.7597919479463384e-05 0.002018356909393333 -0.0061439904728199744
leaf_weight=1124 4406 15579 23 125 26 144 30 20 337 42 32 274 60 76
leaf_count=1124 4406 15579 23 125 26 144 30 20 337 42 32 274 60 76
internal_value=0 -6.12409e-05 0.000375215 -0.000380945 -6.18922e-05 0.00261539 0.0100247 -0.000670226 0.00129961 0.00801628 -0.00234963 -0.00177032 -0.00468632 -0.00254295
internal_weight=0 17892 2313 1189 1064 197 53 867 399 62 468 442 168 136
internal_count=22298 17892 2313 1189 1064 197 53 867 399 62 468 442 168 136
shrinkage=0.15


Tree=201
num_leaves=15
num_cat=0
split_feature=4 26 24 32 4 38 1 21 10 4 24 4 4 23
split_gain=0.0132452 0.0288839 0.0563555 0.0285914 0.0610533 0.0383564 0.188675 0.0332358 0.0257272 0.0253642 0.0244672 0.316713 0.28848 0.238855
threshold=-0.96219699999999986 -5.0580349999999998e-05 -1.1249249999999997 -0.65833299999999995 -1.2753049999999997 0.11573800000000002 -0.83635849999999989 7.4297400000000007 2.9646550000000002e-05 -2.1235899999999996 -0.14039399999999996 -0.099698899999999993 -0.1018225 -13.501149999999997
decision_type=2 2 2 2 2 2 2 2 2 2 2 2 2 2
left_child=1 2 -1 4 7 -5 -7 9 -9 -3 11 13 -12 -2
right_child=10 3 -4 5 -6 6 -8 8 -10 -11 12 -13 -14 -15
leaf_value=0.0080277999895928508 -0.00084805207416529312 -0.0011838749042620788 0.00056055965568651048 -0.00010882042769657284 -0.0097958719544112682 0.013559304676108205 -0.0026995984547803732 0.0062373027471559388 -0.00082164887437381989 -0.0067519024079501829 -0.0015157700794829311 -0.00043195415484576161 0.00023746998138249483 0.0030845100913854569
leaf_weight=23 489 79 2015 1895 20 26 42 21 26 24 2788 4945 8704 1201
leaf_count=23 489 79 2015 1895 20 26 42 21 26 24 2788 4945 8704 1201
internal_value=0 0.000241008 0.000644832 -0.000144831 -0.00201099 1.67825e-05 0.00351704 -0.000973009 0.00233235 -0.00248128 -5.54555e-05 0.000173894 -0.000187872 0.00194663
internal_weight=0 4171 2038 2133 170 1963 68 150 47 103 18127 6635 11492 1690
internal_count=22298 4171 2038 2133 170 1963 68 150 47 103 18127 6635 11492 1690
shrinkage=0.15


Tree=202
num_leaves=15
num_cat=0
split_feature=23 3 37 35 15 23 16 8 15 6 15 3 23 29
split_gain=0.0116853 0.0360634 0.0959379 0.087553 0.164904 0.200957 0.270547 0.195075 0.130107 0.100884 0.0759742 0.0751097 0.13407 0.218095
threshold=-13.747299999999997 -16.017899999999994 -2.2424449999999992e-06 -0.00081187399999999986 -5.4419749999999993e-05 -15.447399999999998 -4.2930449999999993e-07 6.9913150000000005e-06 -5.2325449999999994e-07 6.3016950000000013e-07 6.1879900000000009e-06 -14.548599999999999 -16.680599999999995 -0.015167549999999998
decision_type=2 2 2 2 2 2 2 2 2 2 2 2 2 2
left_child=1 2 -1 8 -5 6 -6 -8 9 -4 -10 12 -3 -14
right_child=-2 11 3 4 5 -7 7 -9 10 -11 -12 -13 13 -15
leaf_value=-0.0095456929106650674 -5.4988190871156482e-05 -0.0014061845739029237 0.0071152419801150876 -0.0078155484518902078 0.023617189191281796 -0.0029036734427791088 0.01219530166929652 -0.0055222908164271048 -0.01303021420939 -0.0051661208957537183 -0.003130665118491428 0.00016261775801621207 -0.0052341615544199676 0.008043094323310844
leaf_weight=29 17747 109 34 32 21 53 29 27 33 27 37 3949 35 136
leaf_count=29 17747 109 34 32 21 53 29 27 33 27 37 3949 35 136
internal_value=0 0.000214431 -0.00131582 -0.000501256 0.00183044 0.00420483 0.0090977 0.00365289 -0.00338472 0.00167923 -0.0077976 0.000330946 0.00270497 0.00532553
internal_weight=0 4551 322 293 162 130 77 56 131 61 70 4229 280 171
internal_count=22298 4551 322 293 162 130 77 56 131 61 70 4229 280 171
shrinkage=0.15


Tree=203
num_leaves=15
num_cat=0
split_feature=3 34 3 3 32 1 19 23 3 14 31 14 3 14
split_gain=0.0118412 0.0208285 0.0539615 0.0496228 0.11388 0.517927 0.076602 0.0708269 0.341479 0.385912 0.28552 0.167574 0.150847 0.364748
threshold=-6.0660849999999993 0.0054004050000000014 -8.7185599999999983 -7.6938699999999995 -0.023631099999999999 8.9291600000000013 3.1354600000000003e-08 -6.7467449999999998 -6.5727499999999992 0.00010474400000000001 -0.012929949999999997 0.000128462 -6.6798249999999992 0.00012460750000000003
decision_type=2 2 2 2 2 2 2 2 2 2 2 2 2 2
left_child=1 2 -1 6 5 -5 -4 8 9 10 -6 -10 13 -9
right_child=-2 -3 3 4 7 -7 -8 12 11 -11 -12 -13 -14 -15
leaf_value=0.0010625355077026383 0.00022027434950733785 -0.00011307009698953152 -0.0084603037584079048 -0.003867706659262434 0.029664444258170466 0.023755056656955275 -0.0011603924823180996 -0.017457385879824868 -0.013848480885571916 0.00089513815720515001 0.0057147403113049222 0.0011273070256595083 0.0018215180991980806 -0.0010474225736516018
leaf_weight=1176 4406 15804 37 42 21 24 257 40 40 138 24 29 132 128
leaf_count=1176 4406 15804 37 42 21 24 257 40 40 138 24 29 132 128
internal_value=0 -5.42437e-05 0.000391011 -0.000474902 0.000288255 0.00617693 -0.00207909 -0.000415827 0.00143805 0.00482861 0.0168913 -0.00755431 -0.00197308 -0.00495456
internal_weight=0 17892 2088 912 618 66 294 552 252 183 45 69 300 168
internal_count=22298 17892 2088 912 618 66 294 552 252 183 45 69 300 168
shrinkage=0.15


Tree=204
num_leaves=15
num_cat=0
split_feature=10 31 0 32 28 19 19 30 16 28 16 21 26 15
split_gain=0.0112183 0.0696181 0.157317 0.244326 0.33872 0.347544 0.513277 0.622524 0.299944 0.539376 0.83929 0.251366 0.229973 0.227873
threshold=3.0953850000000005e-05 -0.066667899999999988 2.4294000000000007 0.082573350000000004 0.0059509700000000007 3.1354600000000003e-08 1.5736100000000003e-05 0.00097153750000000003 3.4459650000000006e-07 -0.021357199999999996 2.9850350000000006e-06 -7.567639999999999 0.0001691955 3.1330250000000005e-07
decision_type=2 2 2 2 2 2 2 2 2 2 2 2 2 2
left_child=1 2 -1 4 -4 -6 7 -7 13 11 -11 -10 -9 -5
right_child=-2 -3 3 8 5 6 -8 12 9 10 -12 -13 -14 -15
leaf_value=-0.0015015924128373708 0.0001041568183454129 0.0001220476450561008 -0.0055349732860026724 -0.0019303846516273355 -0.0078018439385232332 0.028746918056692397 -0.00018784979007780092 -0.0029693999060815793 0.016192971487180328 0.042222612270052189 0.0033234816810223632 -0.0034926415948171373 0.014665921445823316 0.0099007032017788283
leaf_weight=1974 11386 7960 228 166 72 35 237 41 20 24 26 54 28 47
leaf_count=1974 11386 7960 228 166 72 35 237 41 20 24 26 54 28 47
internal_value=0 -0.000108681 -0.000730836 0.000824862 -0.000894204 0.00166777 0.00366722 0.0124523 0.00409466 0.00995976 0.0219951 0.00182779 0.00418696 0.000680231
internal_weight=0 10912 2952 978 641 413 341 104 337 124 50 74 69 213
internal_count=22298 10912 2952 978 641 413 341 104 337 124 50 74 69 213
shrinkage=0.15


Tree=205
num_leaves=15
num_cat=0
split_feature=21 1 3 23 14 23 23 3 16 33 23 19 14 18
split_gain=0.0126606 0.292281 0.299259 0.89333 1.02846 0.852152 0.446897 0.7268 0.730089 0.438281 0.417922 0.64575 0.302061 0.525694
threshold=-5.8009399999999998 -5.9840399999999994 -6.9241599999999996 -7.0308899999999985 0.00054378450000000013 -9.9434149999999999 -7.0749549999999992 -5.9940599999999984 -5.321439999999999e-07 7.0514950000000007e-06 -9.898279999999998 3.1037600000000004e-06 9.6812750000000019e-05 -2.7948849999999995e-06
decision_type=2 2 2 2 2 2 2 2 2 2 2 2 2 2
left_child=1 2 3 4 5 -1 -4 8 -8 -7 11 -6 -10 -14
right_child=-2 -3 6 -5 10 9 7 -9 12 -11 -12 -13 13 -15
leaf_value=-0.0055737899031555573 5.820733677919237e-05 -0.00092639605792638603 -0.0035817379401662402 -0.0054209104919142126 0.033010845218918151 0.025419435266088933 -0.0059885247662249536 -0.0025927505998143241 0.010968834802042693 0.0038888520149227518 -0.0025344042013950288 0.0032946713148129148 0.014306376138702035 0.048698401954025035
leaf_weight=32 17624 3449 395 162 21 117 27 126 27 26 176 76 20 20
leaf_count=32 17624 3449 395 162 21 117 27 126 27 26 176 76 20 20
internal_value=0 -0.000219479 0.00177085 0.00412492 0.00757676 0.0165533 -0.00056408 0.00485399 0.0148358 0.0215048 0.00182259 0.00972807 0.0232277 0.0315024
internal_weight=0 4674 1225 610 448 175 615 220 94 143 273 97 67 40
internal_count=22298 4674 1225 610 448 175 615 220 94 143 273 97 67 40
shrinkage=0.15


Tree=206
num_leaves=15
num_cat=0
split_feature=7 29 11 7 38 11 20 22 16 16 14 20 35 39
split_gain=0.0145961 0.0378968 0.158212 0.441861 0.157343 0.0761793 0.0432646 0.0385696 0.066556 0.0497818 0.0350861 0.118015 0.0502078 0.0475077
threshold=4.8417350000000005e-05 -0.15649199999999996 5.9329950000000006e-05 3.4278550000000004e-05 0.068098300000000014 3.1999850000000002e-05 18.934700000000003 0.90042650000000013 2.2384950000000007e-06 5.1865800000000007e-05 8.4007050000000014e-05 12.665100000000001 -0.00059238649999999993 1.7122800000000002e-06
decision_type=2 2 2 2 2 2 2 2 2 2 2 2 2 2
left_child=1 2 5 -4 -5 6 7 8 -1 -10 11 12 -3 -12
right_child=-2 10 3 4 -6 -7 -8 -9 9 -11 13 -13 -14 -15
leaf_value=0.00032488691601453889 0.00015017705710033489 0.0014819622611436775 0.023815378610976042 -0.0067212475104230073 0.0077095760344116776 -0.0080924255009740577 0.0055606216734090325 0.0048697997964071956 -0.011192155486371902 -0.0012855242905206979 0.00044410160756539342 0.011377872869541698 -0.0002109474440628988 -0.00038789676633608101
leaf_weight=296 8809 577 25 34 34 25 34 33 21 25 1853 22 1244 9266
leaf_count=296 8809 577 25 34 34 25 34 33 21 25 1853 22 1244 9266
internal_value=0 -9.80732e-05 0.00114883 0.00676331 0.000494164 -5.42695e-05 0.00043706 -2.74759e-05 -0.00050002 -0.00580812 -0.000148769 0.000457399 0.000325466 -0.000249243
internal_weight=0 13489 527 93 68 434 409 375 342 46 12962 1843 1821 11119
internal_count=22298 13489 527 93 68 434 409 375 342 46 12962 1843 1821 11119
shrinkage=0.15


Tree=207
num_leaves=15
num_cat=0
split_feature=16 36 26 36 16 16 21 3 37 19 29 11 16 37
split_gain=0.0142802 0.205731 0.0497739 0.0484181 0.278714 0.0427976 0.042397 0.0391912 0.0381273 0.0379564 0.03144 0.0581851 0.107604 0.127518
threshold=1.5438900000000002e-05 1.4186750000000001 -0.00056697299999999991 0.14832100000000004 4.0949200000000004e-05 2.2875050000000004e-05 20.871500000000001 -16.190649999999994 -1.5826649999999995e-05 1.1605450000000001e-06 -0.18817949999999997 6.2917850000000013e-05 -2.2228749999999996e-05 1.0743500000000001e-06
decision_type=2 2 2 2 2 2 2 2 2 2 2 2 2 2
left_child=6 2 5 -4 -5 -2 10 -7 -9 -8 11 -1 -13 -14
right_child=1 -3 3 4 -6 7 9 8 -10 -11 -12 12 13 -15
leaf_value=0.00034936273368222753 -0.0079637362237047898 0.013826000473927706 0.00024193736943795881 0.017886654036524504 -0.0017773902406968936 -0.0072527792034882367 0.0011830026327515951 0.0051679661810339894 -0.0012696385506404217 -0.0061228953709360203 -7.679853883635274e-05 -0.00090125578156273272 0.016989091981668026 0.0025250136322000571
leaf_weight=502 23 25 3465 23 55 22 24 23 207 48 17776 49 24 32
leaf_count=502 23 25 3465 23 55 22 24 23 207 48 17776 49 24 32
internal_value=0 0.000263055 0.000174246 0.000325134 0.00402098 -0.00176974 -5.47776e-05 -0.00120442 -0.000625878 -0.0036876 -4.05491e-05 0.00102102 0.00423216 0.0087239
internal_weight=0 3843 3818 3543 78 275 18455 252 230 72 18383 607 105 56
internal_count=22298 3843 3818 3543 78 275 18455 252 230 72 18383 607 105 56
shrinkage=0.15


Tree=208
num_leaves=15
num_cat=0
split_feature=16 36 1 25 19 29 13 15 16 36 1 23 4 33
split_gain=0.0130994 0.028099 0.148602 0.029447 0.0648275 0.0296133 0.106811 0.14157 0.190008 0.0272361 0.0223619 0.0279531 0.0238132 0.021986
threshold=-9.3102949999999976e-06 -0.72559949999999984 -4.3707999999999991 5.1846950000000005 4.4289900000000011e-05 0.032116500000000006 6.4247400000000011e-05 -1.4814549999999997e-06 -3.5470449999999995e-05 -0.029879349999999995 2.9267950000000007 -10.105699999999997 1.5802500000000002 -5.2086299999999991e-06
decision_type=2 2 2 2 2 2 2 2 2 2 2 2 2 2
left_child=1 2 -1 5 -5 -3 7 8 -7 -8 11 12 -6 -12
right_child=-2 3 -4 4 10 6 9 -9 -10 -11 13 -13 -14 -15
leaf_value=-0.0063954412587918343 -5.4351053450246611e-05 0.00022481457189904764 0.0095653428120671645 -0.0083717995416373002 -0.0072953963948888343 0.0019370404128494555 -0.0051038032625801855 -0.00018264304730109871 0.020622300359420479 0.00033855311515253557 0.0023346718855112069 -3.4088860203545272e-05 -0.0020274227540940043 -0.00084682982881187265
leaf_weight=21 18225 3330 35 25 26 24 25 45 25 120 93 126 75 103
leaf_count=21 18225 3330 35 25 26 24 25 45 25 120 93 126 75 103
internal_value=0 0.000243199 0.00358005 0.00019668 -0.000949612 0.000340569 0.00195338 0.00589178 0.0114703 -0.000599784 -0.000510948 -0.00152437 -0.00338353 0.00066276
internal_weight=0 4073 56 4017 448 3569 239 94 49 145 423 227 101 196
internal_count=22298 4073 56 4017 448 3569 239 94 49 145 423 227 101 196
shrinkage=0.15


Tree=209
num_leaves=15
num_cat=0
split_feature=18 23 14 23 19 3 23 16 3 27 36 30 3 23
split_gain=0.0121476 0.0250368 0.0447605 0.025694 0.0707225 0.0211258 0.11407 0.294734 0.537029 0.545782 0.121765 0.0720171 0.167005 0.0606722
threshold=0.00022125750000000002 -19.790449999999996 0.01401315 -18.671999999999993 0.0010463850000000002 -6.2311749999999995 -6.3135599999999998 8.7363350000000012e-08 -5.8532899999999985 0.39789350000000007 -0.00029506749999999994 7.9767750000000009e-05 -5.8709549999999995 -7.5004549999999997
decision_type=2 2 2 2 2 2 2 2 2 2 2 2 2 2
left_child=5 2 -2 4 -3 -1 13 10 9 -9 -8 -12 -13 -7
right_child=1 3 -4 -5 -6 6 7 8 -10 -11 11 12 -14 -15
leaf_value=-0.00014675795958710017 0.0012477060113186863 0.0083254349615096788 -0.0065649172666863613 0.00022758272546148466 -0.00034580322313497349 0.00031878267021457604 0.0095433628090956634 0.0036775382743640377 0.00052513234943649925 0.035778887399758853 0.0018705453083384782 -0.01596714802144561 -0.0012630082830756215 -0.0010462916155264202
leaf_weight=13579 33 33 33 3797 59 3566 21 22 71 26 49 24 63 922
leaf_count=13579 33 33 33 3797 59 3566 21 22 71 26 49 24 63 922
internal_value=0 0.000238433 -0.00265861 0.000287598 0.00276453 -5.14093e-05 0.000220366 0.00318017 0.00881043 0.0210658 -0.00108735 -0.00272886 -0.00531932 3.83463e-05
internal_weight=0 3955 66 3889 92 18343 4764 276 119 48 157 136 87 4488
internal_count=22298 3955 66 3889 92 18343 4764 276 119 48 157 136 87 4488
shrinkage=0.15


Tree=210
num_leaves=15
num_cat=0
split_feature=18 33 7 38 17 10 23 2 32 12 3 24 5 24
split_gain=0.0107105 0.0496598 0.0664391 0.0349661 0.132644 0.173681 0.194644 0.178061 0.36174 0.269948 0.175379 0.0584922 0.0730183 0.140137
threshold=-9.6962749999999996e-05 -0.00034533349999999998 4.0921950000000009e-05 0.023036500000000005 -2.6095699999999998e-05 5.4860750000000005e-05 -9.5672149999999991 1.5553200000000003 -0.5125829999999999 -0.00013899949999999998 -9.7788349999999991 -0.22278649999999997 8.0609550000000015e-06 -0.13118299999999997
decision_type=2 2 2 2 2 2 2 2 2 2 2 2 2 2
left_child=1 2 -1 11 -5 6 7 8 -6 -10 -8 -3 13 -13
right_child=-2 3 -4 4 5 -7 10 -9 9 -11 -12 12 -14 -15
leaf_value=-0.0098690781611949201 -5.4448901189063381e-05 -0.0010996788587393543 -0.00075026917397735815 -0.0014392126243763599 -0.0032064229260537432 -0.0035180579081777693 -0.009641130202605078 0.020439219710210132 0.028926893302705137 0.0059345620930091368 0.0079817734658718109 0.01574148144456558 0.0002846985333137694 0.0012430341576691716
leaf_weight=25 17498 714 64 178 44 52 27 27 20 27 24 20 3518 60
leaf_count=25 17498 714 64 178 44 52 27 27 20 27 24 20 3518 60
internal_value=0 0.000198489 -0.00331173 0.000264804 0.00160822 0.00406272 0.00639526 0.00974193 0.006568 0.0157185 -0.001348 0.000140494 0.000386598 0.00486765
internal_weight=0 4800 89 4711 399 221 169 118 91 47 51 4312 3598 80
internal_count=22298 4800 89 4711 399 221 169 118 91 47 51 4312 3598 80
shrinkage=0.15


Tree=211
num_leaves=15
num_cat=0
split_feature=21 1 3 23 13 23 3 16 34 34 18 26 38 7
split_gain=0.0108225 0.2162 0.218634 0.650566 0.757245 0.320168 0.507994 0.515144 0.306208 0.259927 0.565172 0.505279 0.481891 0.362914
threshold=-5.8009399999999998 -5.9840399999999994 -6.9241599999999996 -7.0308899999999985 2.2647150000000002e-05 -7.0749549999999992 -5.9940599999999984 -5.321439999999999e-07 1.1379750000000002 0.14344500000000002 -2.7948849999999995e-06 6.9413400000000009e-05 0.00032263950000000001 3.8462700000000007e-05
decision_type=2 2 2 2 2 2 2 2 2 2 2 2 2 2
left_child=1 2 3 4 8 -4 7 -7 9 10 12 13 -1 -12
right_child=-2 -3 5 -5 -6 6 -8 -9 -10 -11 11 -13 -14 -15
leaf_value=-0.010134664443321527 5.3816253209806225e-05 -0.00081091135967216021 -0.0030410908542716575 -0.0046251685646152675 -0.0013452592439751579 -0.0050481490739103813 -0.002126623766179407 0.019493292504400291 -0.00062649670616360148 0.027880427306983618 0.017335973509902795 -0.00014324855029342637 0.016750957799376919 0.038759401553860783
leaf_weight=40 17624 3449 395 162 172 27 126 67 41 25 93 31 24 22
leaf_count=40 17624 3449 395 162 172 27 126 67 41 25 93 31 24 22
internal_value=0 -0.000202922 0.00150888 0.003521 0.00646671 -0.000486886 0.00409907 0.0124442 0.011335 0.013422 0.0117007 0.0168528 -5.25561e-05 0.0214344
internal_weight=0 4674 1225 610 448 615 220 94 276 235 210 146 64 115
internal_count=22298 4674 1225 610 448 615 220 94 276 235 210 146 64 115
shrinkage=0.15


Tree=212
num_leaves=15
num_cat=0
split_feature=3 14 23 22 2 2 23 3 3 23 23 17 37 36
split_gain=0.0148613 0.0261851 0.0946276 0.0900344 0.543809 0.50617 0.233017 0.224339 0.200863 0.612072 0.465737 0.202819 1.047 0.773004
threshold=-6.0660849999999993 0.0009749060000000001 -14.742949999999999 -0.6904404999999999 -0.71810999999999992 -0.71810999999999992 -11.648899999999998 -12.196949999999998 -6.5968699999999991 -6.7222749999999989 -6.6126999999999994 5.304930000000001e-08 -1.2428449999999998e-08 0.00025933400000000006
decision_type=2 2 2 2 2 2 2 2 2 2 2 2 2 2
left_child=1 2 -1 4 6 -5 -4 -8 10 -10 11 12 13 -9
right_child=-2 -3 3 5 -6 -7 7 8 9 -11 -12 -13 -14 -15
leaf_value=0.00099047456220147621 0.00024677068275537236 9.5095942674476751e-05 -0.0035140965731831806 -0.0023895076741196277 -0.0031707712672215519 0.0011639212240046653 -0.012619863041221502 -0.0018685813316090998 -0.0094210062271350634 0.011695096481834416 -0.0060083585809479704 0.0074106297139831835 -0.011518912467304184 0.018627126532574666
leaf_weight=1136 4406 10296 185 1373 1386 2629 22 79 94 46 96 377 86 87
leaf_count=1136 4406 10296 185 1373 1386 2629 22 79 94 46 96 377 86 87
internal_value=0 -6.07686e-05 -0.000272035 -0.000494049 -0.00120859 -5.51837e-05 0.00132834 0.00233831 0.00271875 -0.00248286 0.0037232 0.00520846 0.00191395 0.00887315
internal_weight=0 17892 7596 6460 2458 4002 1072 887 865 140 725 629 252 166
internal_count=22298 17892 7596 6460 2458 4002 1072 887 865 140 725 629 252 166
shrinkage=0.15


Tree=213
num_leaves=15
num_cat=0
split_feature=4 32 34 3 13 35 4 33 4 26 3 24 1 32
split_gain=0.0128657 0.0224582 0.0203345 0.0560772 0.104157 0.0911388 0.118382 0.0861615 0.162458 0.454874 0.214862 0.123114 0.119511 0.304172
threshold=-1.7843149999999997 9.0511800000000004 0.22283100000000003 -12.918249999999999 -2.2830449999999998e-05 -0.024584299999999996 0.33837000000000006 5.6886350000000008e-05 -0.40344049999999992 9.2492850000000013e-05 -14.852049999999998 0.31471100000000007 -4.2295399999999992 0.30019650000000003
decision_type=2 2 2 2 2 2 2 2 2 2 2 2 2 2
left_child=1 -1 -2 4 5 6 -4 8 9 -6 -11 -10 13 -13
right_child=2 -3 3 -5 7 -7 -8 -9 11 10 -12 12 -14 -15
leaf_value=0.00031048898781683092 -0.00013943586578538588 -0.0036221136809961702 -0.0030442606596241023 0.00046677652944183761 -0.0023790679622038625 -0.005387274112160269 0.0098423334683858492 -0.0027982520632396451 -0.0027570576369259003 0.0087900715820010619 0.028731684609374496 -0.0033451451174029067 0.00036568473211284785 0.020794457958254499
leaf_weight=3304 14066 33 53 3932 64 171 23 174 222 31 20 23 158 24
leaf_count=3304 14066 33 53 3932 64 171 23 174 222 31 20 23 158 24
internal_value=0 0.000271599 -4.77995e-05 0.000215522 -0.00081037 -0.00346638 0.00085563 0.00010588 0.0010382 0.00604231 0.0166103 -0.000309508 0.00234101 0.00898146
internal_weight=0 3337 18961 4895 963 247 76 716 542 115 51 427 205 47
internal_count=22298 3337 18961 4895 963 247 76 716 542 115 51 427 205 47
shrinkage=0.15


Tree=214
num_leaves=15
num_cat=0
split_feature=4 38 31 7 6 13 30 32 20 18 38 28 7 5
split_gain=0.0127628 0.0390145 0.0445961 0.274401 0.103774 0.0510724 0.0381304 0.0353929 0.0288896 0.0735804 0.0255733 0.0231943 0.0370182 0.028015
threshold=0.81704150000000009 0.00024943800000000005 -1.3107849999999999 3.7174900000000009e-05 1.8240950000000003e-06 -6.8449349999999992e-05 0.0043531700000000008 -3.4156849999999994 -11.965299999999997 0.0033703800000000005 -0.53959199999999985 -0.078249449999999984 5.801670000000001e-05 7.9919950000000021e-06
decision_type=2 2 2 2 2 2 2 2 2 2 2 2 2 2
left_child=-1 2 3 -2 10 -4 -3 -7 9 -9 -5 12 -10 -13
right_child=1 6 5 4 -6 7 -8 8 11 -11 -12 13 -14 -15
leaf_value=-5.5141537707169574e-05 0.018685002798156346 0.0011813015683154362 0.0052909950519254359 -0.009035115274018608 0.0070969361810512051 -0.0063128512395037853 -0.0006301170941397442 0.0099999438505619757 -0.0052784535093279667 -0.0020440775882452724 -0.0021976251554406191 0.0047479553125449455 0.00064482705053050334 -0.00030033219252028048
leaf_weight=18039 20 1289 37 20 24 22 328 21 53 25 32 25 43 2320
leaf_count=18039 20 1289 37 20 24 22 328 21 53 25 32 25 43 2320
internal_value=0 0.000233552 -0.00012162 0.00305209 -0.00106184 -0.000241289 0.000813865 -0.000322873 -0.000269886 0.00345428 -0.00482743 -0.000340066 -0.00262532 -0.000246512
internal_weight=0 4259 2642 96 76 2546 1617 2509 2487 46 52 2441 96 2345
internal_count=22298 4259 2642 96 76 2546 1617 2509 2487 46 52 2441 96 2345
shrinkage=0.15


Tree=215
num_leaves=15
num_cat=0
split_feature=1 32 36 23 32 1 32 14 30 15 15 14 23 23
split_gain=0.0106486 0.0193593 0.0296446 0.0297294 0.0143802 0.0128324 0.0653832 0.143158 0.205442 0.306826 0.411571 0.488467 0.848685 0.418208
threshold=-13.427799999999998 0.14735350000000003 -0.0020784399999999995 -9.9434149999999999 0.016195950000000004 -4.687104999999999 0.119938 0.00018910500000000004 0.00093897250000000011 -1.1811249999999999e-07 4.9070950000000013e-06 0.00088996750000000003 -10.628099999999998 -9.898279999999998
decision_type=2 2 2 2 2 2 2 2 2 2 2 2 2 2
left_child=1 2 3 -1 -4 6 -2 -8 9 -9 11 13 -13 -11
right_child=5 -3 4 -5 -6 -7 7 8 -10 10 -12 12 -14 -15
leaf_value=0.0015540192313242837 -0.00044056712861388153 -0.0010933158862314388 0.00140539211282745 0.0091260219574905935 -0.00079849402676960115 6.0461803340392664e-05 -0.0016308830283044207 -0.0014527130440515263 0.00020660285586744577 -0.0046963452087116558 -0.00063156256530515079 0.038224304434843363 0.00062700686817565414 0.017504737873428634
leaf_weight=28 5136 103 208 20 98 15266 419 115 695 42 76 35 22 35
leaf_count=28 5136 103 208 20 98 15266 419 115 695 42 76 35 22 35
internal_value=0 0.00071661 0.00124323 0.00470902 0.000699572 -1.49943e-05 -0.00019019 0.000703442 0.00166235 0.0047754 0.00818603 0.013187 0.0237131 0.00539506
internal_weight=0 457 354 48 306 21841 6575 1439 1020 325 210 134 57 77
internal_count=22298 457 354 48 306 21841 6575 1439 1020 325 210 134 57 77
shrinkage=0.15


Tree=216
num_leaves=15
num_cat=0
split_feature=0 20 0 20 30 11 20 7 31 35 0 19 28 21
split_gain=0.0123173 0.0786786 0.231535 1.15122 0.870591 0.318744 0.186208 0.182928 0.154286 0.145033 0.137252 0.157376 0.50498 0.353621
threshold=-5.7937299999999992 -5.8760399999999988 -7.5570549999999992 -7.2012249999999991 0.00049439200000000007 -2.5642899999999998e-05 -7.3959049999999991 3.2395100000000004e-05 0.0021551200000000004 0.00018384850000000003 -11.903549999999997 8.9050550000000007e-05 -0.00060432649999999993 0.36464150000000006
decision_type=2 2 2 2 2 2 2 2 2 2 2 2 2 2
left_child=1 2 6 7 5 -5 10 9 -3 -4 -1 12 -12 -13
right_child=-2 8 3 4 -6 -7 -8 -9 -10 -11 11 13 -14 -15
leaf_value=-0.0028810631047544106 -5.7583718442643492e-05 0.00061989301892450503 0.013497986120336432 0.038539249841375522 -0.00094116114534347525 0.015035696182167158 -0.0035154859998745109 -0.0038636425939521835 -0.0014076563810564125 -0.00245209549928246 0.013013251755642026 -0.0050237326704458988 -0.0034287626704227335 0.0074514931668504267
leaf_weight=118 17602 2347 29 37 31 20 236 152 1319 23 103 122 71 88
leaf_count=118 17602 2347 29 37 31 20 236 152 1319 23 103 122 71 88
internal_value=0 0.000215841 0.00137417 0.00494952 0.0192897 0.0302924 -4.04625e-05 -0.00123642 -0.000109604 0.00644314 0.00159321 0.00296812 0.00630415 0.000203981
internal_weight=0 4696 1030 292 88 57 738 204 3666 52 502 384 174 210
internal_count=22298 4696 1030 292 88 57 738 204 3666 52 502 384 174 210
shrinkage=0.15


Tree=217
num_leaves=15
num_cat=0
split_feature=3 34 3 7 19 8 32 8 26 22 2 33 19 33
split_gain=0.0158034 0.0247725 0.062374 0.0521968 0.0422294 0.0946158 0.284391 0.538082 0.25127 0.134124 0.171611 0.222923 0.243781 0.188349
threshold=-6.0660849999999993 0.11925900000000002 -15.9339 1.33204e-05 0.00099624750000000019 6.9913150000000005e-06 0.022401000000000001 6.1391050000000014e-06 5.3092300000000007e-05 -0.80414149999999995 -1.5477299999999998 -2.3256649999999995e-07 2.1900450000000003e-07 1.0000000180025095e-35
decision_type=2 2 2 2 2 2 2 2 2 2 2 2 2 2
left_child=1 2 -1 -3 5 6 -4 -8 -9 -7 11 12 -11 -12
right_child=-2 3 4 -5 -6 9 7 8 -10 10 13 -13 -14 -15
leaf_value=0.0010107346053628455 0.00025447250287082246 -0.0052820110156272465 0.00075852664740676983 0.0002236604198670659 7.723746113757251e-05 7.6013911148724536e-05 -0.0024972558930912592 0.0037036445654600601 0.02693420579074882 -0.0065122489519243605 -0.001237444903188134 0.0011689789819704845 0.00066055366110851855 -0.0067679697584568229
leaf_weight=904 4406 39 2841 5906 4370 1034 1241 22 20 248 256 522 187 302
leaf_count=904 4406 39 2841 5906 4370 1034 1241 22 20 248 256 522 187 302
internal_value=0 -6.26652e-05 -0.000187172 0.000187542 -0.000285235 -0.00052261 -7.85538e-05 -0.00193214 0.0147658 -0.00124104 -0.00213995 -0.000920906 -0.00342877 -0.00423067
internal_weight=0 17892 11947 5945 11043 6673 4124 1283 42 2549 1515 957 435 558
internal_count=22298 17892 11947 5945 11043 6673 4124 1283 42 2549 1515 957 435 558
shrinkage=0.15


Tree=218
num_leaves=15
num_cat=0
split_feature=0 31 31 0 0 10 31 17 16 38 13 32 33 0
split_gain=0.013934 0.0497406 0.0169762 0.0552699 0.0498553 0.0904781 0.138614 0.401628 0.172525 0.0794364 0.0716856 0.282426 0.322494 0.314549
threshold=-13.443849999999998 0.018731250000000001 0.072897150000000008 6.5158000000000014 -3.1423849999999995 1.9425050000000005e-05 0.18069800000000005 5.304930000000001e-08 -1.0580749999999998e-06 0.0078568050000000014 -2.2387649999999996e-05 -0.05145584999999999 4.379045000000001e-05 -5.6483999999999996
decision_type=2 2 2 2 2 2 2 2 2 2 2 2 2 2
left_child=1 -1 -2 4 5 6 7 -4 -8 -10 11 12 13 -7
right_child=2 -3 3 -5 -6 10 8 -9 9 -11 -12 -13 -14 -15
leaf_value=0.0021870152037269594 -9.4902708795413889e-05 -0.00092659509719469229 0.027002913148608056 0.0011160535283207327 -0.00049118017221690005 0.0050997661775909362 0.011019361469273766 0.00021456792661303875 0.001363394478435761 -0.0084710548102686356 -0.00021457527920170429 -0.0014598663169147728 -0.0011086244799766323 0.024353818264124649
leaf_weight=261 16247 207 20 1188 2431 42 27 34 42 33 1485 190 56 35
leaf_count=261 16247 207 20 1188 2431 42 27 34 42 33 1485 190 56 35
internal_value=0 0.000809841 -1.73617e-05 0.000208289 -3.7086e-05 0.000524983 0.00399099 0.0101362 0.000737652 -0.00296376 0.000225925 0.00225113 0.00755256 0.0138516
internal_weight=0 468 21830 5583 4395 1964 156 54 102 75 1808 323 133 77
internal_count=22298 468 21830 5583 4395 1964 156 54 102 75 1808 323 133 77
shrinkage=0.15


Tree=219
num_leaves=15
num_cat=0
split_feature=14 39 14 16 11 0 35 14 19 34 21 23 14 1
split_gain=0.0108928 0.0532358 0.0515145 0.119107 0.0903695 0.101481 0.0889469 0.0548788 0.0602545 0.0434393 0.0394539 0.0357624 0.106784 0.0784915
threshold=0.00010145900000000002 7.2270150000000013e-07 7.1712500000000002e-05 6.1286400000000019e-08 9.330095000000002e-06 11.85205 -2.7152999999999996e-05 4.2968150000000003e-05 7.3629500000000009e-09 0.0025456750000000003 14.437200000000002 -7.1566449999999993 0.00010370600000000001 10.604100000000001
decision_type=2 2 2 2 2 2 2 2 2 2 2 2 2 2
left_child=1 2 4 6 7 -6 -4 -1 -9 -10 -3 -2 -13 -14
right_child=11 10 3 -5 5 -7 -8 8 9 -11 -12 12 13 -15
leaf_value=0.0021799264970468355 -0.00015691167658538099 0.0003981249963240006 -0.0074603205448231444 -0.014220157564293755 0.013091687466949225 -0.00079721270514459435 0.0049471978895151269 -0.01227685118559748 0.0010748100047931076 -0.0079500789029407319 -0.0042795841787975821 -0.0098246032969378245 0.00028384962547319599 0.0037430330327040719
leaf_weight=32 14439 3869 26 23 20 29 26 20 30 20 41 23 3546 154
leaf_count=32 14439 3869 26 23 20 29 26 20 30 20 41 23 3546 154
internal_value=0 0.000219694 -0.0020187 -0.00523206 -0.000422663 0.00487173 -0.00125656 -0.00296605 -0.00531849 -0.00253515 0.000349075 -5.00306e-05 0.000364489 0.000427826
internal_weight=0 4136 226 75 151 49 52 102 70 50 3910 18162 3723 3700
internal_count=22298 4136 226 75 151 49 52 102 70 50 3910 18162 3723 3700
shrinkage=0.15


Tree=220
num_leaves=15
num_cat=0
split_feature=4 28 38 4 23 3 3 14 3 23 31 23 12 30
split_gain=0.0108261 0.0178879 0.0170388 0.120021 0.237069 0.166654 0.164943 0.412431 0.433215 0.377224 0.21998 0.192609 0.111852 0.153599
threshold=-1.7843149999999997 -1.0654399999999997 0.0043895650000000007 -0.29032849999999993 -16.099999999999998 -14.632849999999998 -6.4251549999999993 0.0019805000000000001 -10.062549999999998 -10.709549999999998 0.13086650000000002 -9.6068099999999976 0.00017594950000000004 0.0035362600000000007
decision_type=2 2 2 2 2 2 2 2 2 2 2 2 2 2
left_child=1 -1 -2 4 5 -4 7 8 -6 -10 -11 12 13 -9
right_child=2 -3 3 -5 6 -7 -8 11 9 10 -12 -13 -14 -15
leaf_value=-0.0032802758920752241 -0.00010471103722506347 0.00028331539467078257 0.0077912404625253232 -0.00011485185639747338 0.031967771553900091 -0.0069503224762593159 -0.0025862127581141796 0.0023096123213797587 -0.0065660339200403544 0.0057566452649948389 0.02628538660646882 -0.0050176969263464079 -0.0028280580042989857 0.014559086536922092
leaf_weight=32 16025 3305 22 2495 23 80 61 51 25 23 24 61 29 42
leaf_count=32 16025 3305 22 2495 23 80 61 51 25 23 24 61 29 42
internal_value=0 0.000249143 -4.38473e-05 0.000288353 0.00256953 -0.00377077 0.00447723 0.00602712 0.0140459 0.00832085 0.0162394 0.00186436 0.00530539 0.00784163
internal_weight=0 3337 18961 2936 441 102 339 278 95 72 47 183 122 93
internal_count=22298 3337 18961 2936 441 102 339 278 95 72 47 183 122 93
shrinkage=0.15


Tree=221
num_leaves=15
num_cat=0
split_feature=4 24 4 24 3 38 4 3 38 5 37 5 4 38
split_gain=0.0118472 0.0360298 0.290363 0.55221 0.0838435 0.0448982 0.0509033 0.0377399 0.0370355 0.031008 0.0438567 0.0293741 0.0347028 0.0246346
threshold=0.63880700000000012 0.57638050000000007 1.0464400000000003 0.97722050000000016 -15.419399999999998 -0.00014301099999999999 0.90505000000000013 -6.0660849999999993 -0.0033872199999999994 1.2045200000000003e-05 -1.5826649999999995e-05 8.2215450000000006e-06 0.95366300000000004 0.30857150000000005
decision_type=2 2 2 2 2 2 2 2 2 2 2 2 2 2
left_child=-1 5 3 -3 -4 6 7 8 -2 -6 -11 -8 -13 -7
right_child=1 2 4 -5 9 13 11 -9 -10 10 -12 12 -14 -15
leaf_value=-5.5191838552899475e-05 -0.010485780407075903 0.025557190407998861 0.0070635036934680977 -0.002990238357245201 -0.0066087255763704889 0.0005303433723659128 0.0053718355917703768 0.0022374347711593147 -0.0033151822249096832 0.0055795510798426614 -0.0016817393815324257 -0.0059548460341757158 -0.0003088449449624578 -0.0017392663904437151
leaf_weight=17770 21 30 29 31 24 2741 20 20 71 21 172 25 1211 112
leaf_count=17770 21 30 29 31 24 2741 20 20 71 21 172 25 1211 112
internal_value=0 0.000216599 0.00178554 0.0110495 -0.000511611 0.000102487 -0.000604003 -0.00366813 -0.00495195 -0.00152395 -0.000891651 -0.000330769 -0.000423044 0.000441245
internal_weight=0 4528 307 61 246 4221 1368 112 92 217 193 1256 1236 2853
internal_count=22298 4528 307 61 246 4221 1368 112 92 217 193 1256 1236 2853
shrinkage=0.15


Tree=222
num_leaves=15
num_cat=0
split_feature=1 21 5 21 23 3 23 3 7 21 7 3 3 24
split_gain=0.0108791 0.108351 0.163937 0.0795242 0.0406857 0.0633471 0.0270946 0.0593712 0.0919494 0.0157799 0.0706439 0.0587452 0.105194 0.0885841
threshold=-11.277949999999999 -12.002549999999998 2.2498150000000001e-05 -1.5499499999999997 -7.1447699999999994 -6.0660849999999993 -8.8982099999999971 -5.9574799999999994 3.6993850000000002e-05 -12.002549999999998 2.4140600000000004e-05 -7.248829999999999 -7.5570249999999985 -0.16434549999999995
decision_type=2 2 2 2 2 2 2 2 2 2 2 2 2 2
left_child=1 2 -1 6 -5 -6 -3 8 -8 10 -2 12 -12 -13
right_child=9 3 -4 4 5 -7 7 -9 -10 -11 11 13 -14 -15
leaf_value=0.01612839728477411 -0.0072198843691391318 -0.00028315283293522953 -0.0020192747070853197 0.0017264794870055344 -0.0088488813897129141 0.00034053056957037732 -0.014862748799496329 -0.001040567553223095 -0.0023531202069044898 -2.5528095941426956e-06 5.1087655237544385e-05 0.0014123826839042724 0.0099363754181048033 -0.0049863611089497927
leaf_weight=24 36 272 21 566 21 86 20 163 39 20467 354 81 26 122
leaf_count=24 36 272 21 566 21 86 20 163 39 20467 354 81 26 122
internal_value=0 0.000437019 0.00765948 0.000158517 0.00121939 -0.001463 -0.00128675 -0.00251639 -0.00659367 -2.51193e-05 -0.000771273 -0.000373074 0.000727449 -0.00243317
internal_weight=0 1212 45 1167 673 107 494 222 59 21086 619 583 380 203
internal_count=22298 1212 45 1167 673 107 494 222 59 21086 619 583 380 203
shrinkage=0.15


Tree=223
num_leaves=15
num_cat=0
split_feature=25 18 4 4 4 16 12 3 14 23 3 25 8 8
split_gain=0.0102253 0.0647651 0.20203 0.199655 0.0448461 0.0406682 0.0458539 0.071254 0.0393084 0.0293329 0.0177607 0.0160923 0.0862983 0.136966
threshold=0.15184650000000002 -2.3655349999999998e-08 -0.078219199999999989 0.031286900000000006 -0.12646499999999997 -1.1655899999999999e-07 8.3489800000000001e-05 -7.5365049999999991 0.00060280150000000009 -9.5672149999999991 -13.252699999999999 0.16482350000000004 -1.4818749999999999e-05 -1.8153699999999999e-05
decision_type=2 2 2 2 2 2 2 2 2 2 2 2 2 2
left_child=1 2 4 -4 10 8 7 -7 -3 -9 -1 12 13 -2
right_child=11 5 3 -5 -6 6 -8 9 -10 -11 -12 -13 -14 -15
leaf_value=0.0048325665324227881 -7.4821022584122444e-06 0.0060991475074034596 0.0180287385952397 0.00068461112176529621 -0.0059833402087231379 -0.012286242697661256 0.00036658444231660623 0.0020719497942471728 -0.00097891683516910925 -0.0055325075418222692 7.5524561012767861e-05 1.527151002307322e-05 -0.0012011681057795293 0.0092447379034410904
leaf_weight=21 144 27 32 28 26 23 54 21 51 25 111 20798 889 48
leaf_count=21 144 27 32 28 26 23 54 21 51 25 111 20798 889 48
internal_value=0 0.000734013 0.00252472 0.00993481 -0.000289239 -0.00120815 -0.00290723 -0.00546935 0.00147118 -0.00206091 0.000832327 -1.40569e-05 -0.000578324 0.00230557
internal_weight=0 419 218 60 158 201 123 69 78 46 132 21879 1081 192
internal_count=22298 419 218 60 158 201 123 69 78 46 132 21879 1081 192
shrinkage=0.15


Tree=224
num_leaves=15
num_cat=0
split_feature=0 20 20 7 11 14 34 21 23 18 33 32 21 15
split_gain=0.0109922 0.0743684 0.148792 0.196515 0.118879 0.158071 0.219631 0.257643 0.113525 0.123364 0.0690255 0.0619584 0.0653953 0.0500469
threshold=-8.2936799999999984 1.0000000180025095e-35 -8.5909699999999987 3.2395100000000004e-05 -4.1554949999999994e-05 0.00010832200000000001 0.061870450000000007 -1.6732699999999998 -6.828269999999999 -2.5501699999999999e-07 8.6099450000000018e-06 0.017233400000000006 0.89582100000000009 1.8531400000000003e-09
decision_type=2 2 2 2 2 2 2 2 2 2 2 2 2 2
left_child=1 2 3 -1 10 8 7 -7 9 -6 -5 12 -11 -10
right_child=-2 -3 -4 4 5 6 -8 -9 13 11 -12 -13 -14 -15
leaf_value=0.016400535986758769 -4.0454488249314557e-05 0.0010469854978343751 -0.0012896374644119171 -0.0045919443388161849 -0.013215158815582983 0.027342339024603871 -0.0010099916581696431 0.0038190201669931409 0.0019306221557781099 0.0098614832293242201 0.0052132912250817754 -0.0064287749229697509 -0.0022686192466062492 0.01199764892575331
leaf_weight=21 19431 1417 1130 84 20 22 28 20 25 20 20 20 20 20
leaf_count=21 19431 1417 1130 84 20 22 28 20 25 20 20 20 20 20
internal_value=0 0.000274179 -0.00048104 0.00237432 0.0013892 0.00357348 0.00928046 0.0161408 0.000377577 -0.00301277 -0.00270632 0.00038803 0.00379643 0.00640486
internal_weight=0 2867 1450 320 299 195 70 42 125 80 104 60 40 45
internal_count=22298 2867 1450 320 299 195 70 42 125 80 104 60 40 45
shrinkage=0.15


Tree=225
num_leaves=15
num_cat=0
split_feature=0 31 31 0 5 31 18 31 37 12 0 0 4 15
split_gain=0.0112862 0.0288248 0.0128639 0.035101 0.0427953 0.108712 0.0969245 0.08571 0.0524586 0.046917 0.0336142 0.0368272 0.111144 0.420456
threshold=-13.443849999999998 0.021097800000000003 0.13690300000000002 6.1955100000000014 8.4746200000000015e-06 0.24782150000000003 -4.2913199999999993e-07 0.63203750000000014 -2.6927549999999997e-06 -3.0261949999999996e-05 -12.749799999999999 -3.1423849999999995 -0.19847699999999999 8.9196400000000029e-06
decision_type=2 2 2 2 2 2 2 2 2 2 2 2 2 2
left_child=1 -1 -2 4 5 6 -4 -7 -9 -10 -6 12 13 -12
right_child=2 -3 3 -5 10 7 -8 8 9 -11 11 -13 -14 -15
leaf_value=0.0017325387761447121 -7.1528546583350612e-05 -0.00065186513568774615 -0.0015327855441682914 0.0010292030637653307 -0.0041981769246922339 -0.0095691760885529206 0.011778492653975263 -0.008358331981580704 0.0049166364458807068 -0.003190413884779749 0.0091244557619201624 -0.00028439588351077859 -0.00017825509642834352 -0.00073980826567564219
leaf_weight=271 17666 197 32 938 40 48 20 20 29 36 151 1688 889 273
leaf_count=271 17666 197 32 938 40 48 20 20 29 36 151 1688 889 273
internal_value=0 0.000728847 -1.56253e-05 0.000221547 -1.32888e-05 -0.00222832 0.00358694 -0.00450195 -0.00164046 0.000426578 0.000121463 0.000179039 0.000774833 0.00277317
internal_weight=0 468 21830 4164 3226 185 52 133 85 65 3041 3001 1313 424
internal_count=22298 468 21830 4164 3226 185 52 133 85 65 3041 3001 1313 424
shrinkage=0.15


Tree=226
num_leaves=15
num_cat=0
split_feature=4 24 26 17 28 24 17 38 15 4 34 20 4 30
split_gain=0.0109212 0.0254243 0.0272351 0.0245148 0.0641752 0.0291838 0.149748 0.0296353 0.0650949 0.0777659 0.054473 0.0419428 0.0236204 0.0201463
threshold=0.81704150000000009 -0.14500749999999998 0.0014206400000000001 3.8627600000000011e-06 0.048084400000000006 1.3991600000000002 7.8937700000000015e-05 -0.073688749999999983 -9.4156899999999996e-06 2.5011650000000007 1.1379750000000002 -5.4229999999999992 1.4674050000000001 0.0056688550000000013
decision_type=2 2 2 2 2 2 2 2 2 2 2 2 2 2
left_child=-1 2 -2 4 -3 7 -7 8 9 -5 13 -10 -4 -9
right_child=1 3 12 5 -6 6 -8 10 11 -11 -12 -13 -14 -15
leaf_value=-5.1008321592716822e-05 0.00092216115458360439 0.00049317545528118406 -0.0055315367917975651 -0.013726792931556701 0.0078351738177247915 0.011630300714750774 -0.0057142198705280728 -0.00033098187042479961 0.0065287369835405678 -0.0022712318059348036 0.0064995085206141483 -0.0020386333175072954 -0.00038239421427043943 0.0039523955508484502
leaf_weight=18039 1385 351 23 20 29 24 21 2102 20 40 27 36 156 25
leaf_count=18039 1385 351 23 20 29 24 21 2102 20 40 27 36 156 25
internal_value=0 0.000216046 0.000697132 -6.31448e-05 0.00105349 -0.000246436 0.00353619 -0.000321422 -0.00265691 -0.00608975 -0.000195649 0.00102114 -0.00104402 -0.000280637
internal_weight=0 4259 1564 2695 380 2315 45 2270 116 60 2154 56 179 2127
internal_count=22298 4259 1564 2695 380 2315 45 2270 116 60 2154 56 179 2127
shrinkage=0.15


Tree=227
num_leaves=15
num_cat=0
split_feature=34 19 36 7 33 14 16 19 24 19 22 3 2 14
split_gain=0.010431 0.0494315 0.159488 0.0267539 0.024828 0.0748452 0.025188 0.106625 0.104246 0.04934 0.0559242 0.0619108 0.0363765 0.0378944
threshold=0.0029143000000000003 1.0399100000000002e-09 7.0934950000000008e-05 2.7064300000000001e-05 -2.6599849999999993e-06 0.00022533650000000001 4.3778400000000007e-09 8.3917300000000013e-08 -0.068476399999999979 9.0628400000000018e-08 -0.27264999999999995 -5.9574799999999994 -0.71810999999999992 0.00025850500000000007
decision_type=2 2 2 2 2 2 2 2 2 2 2 2 2 2
left_child=1 2 -1 -3 5 -5 9 8 -8 10 -6 -12 13 -9
right_child=-2 3 -4 4 6 -7 7 12 -10 -11 11 -13 -14 -15
leaf_value=0.0046645219656056723 -2.321375899627798e-05 0.0030208152836690492 -0.01229245111417885 -0.0097548693618071929 0.0016864819969050584 0.0012571606796061641 0.00083793979820570553 0.0069333948585535241 0.013349642516714671 0.00050456067881631949 -0.012765076593495905 -0.0012339269394578878 -0.00072408844797011251 0.0011097616460341998
leaf_weight=24 21212 99 26 21 25 41 29 31 31 358 22 20 226 133
leaf_count=24 21212 99 26 21 25 41 29 31 31 358 22 20 226 133
internal_value=0 0.000453416 -0.0041531 0.000675739 0.000427966 -0.00247272 0.000633501 0.00141562 0.00730232 -0.000194625 -0.00393057 -0.00727405 0.000509973 0.00221057
internal_weight=0 1086 50 1036 937 62 875 450 60 425 67 42 390 164
internal_count=22298 1086 50 1036 937 62 875 450 60 425 67 42 390 164
shrinkage=0.15


Tree=228
num_leaves=15
num_cat=0
split_feature=4 18 24 4 23 4 33 25 33 4 39 23 3 12
split_gain=0.0108739 0.0200867 0.112466 0.196196 0.237907 0.174478 0.750171 0.682474 0.141688 0.131901 0.240047 0.102096 0.404907 0.128126
threshold=-1.7843149999999997 -1.9908949999999995e-06 0.099990550000000025 0.080399600000000015 -8.1121549999999978 0.080399600000000015 6.6265450000000006e-06 0.54230600000000007 1.3750400000000002e-06 -0.20699899999999996 5.3208500000000011e-05 -14.884599999999999 -15.591149999999997 -0.00017423949999999998
decision_type=2 2 2 2 2 2 2 2 2 2 2 2 2 2
left_child=-1 2 3 11 8 9 -7 -8 -5 -4 -11 12 13 -2
right_child=1 -3 5 4 -6 6 7 -9 -10 10 -12 -13 -14 -15
leaf_value=0.00024969157359761322 0.0028109772596508265 4.9943590553282341e-05 -0.00066163580519152786 -0.0026593288294472065 0.0027162426565694856 -0.0035485125014910156 0.037236395265790631 -0.00028164310846477746 -0.014099151010279832 -0.0055594267604098559 0.00051705491031588016 0.00089821705686284027 -0.004157040808311886 0.018154741086065768
leaf_weight=3337 24 13842 1344 42 59 94 24 20 58 393 233 2527 276 25
leaf_count=3337 24 13842 1344 42 59 94 24 20 58 393 233 2527 276 25
internal_value=0 -4.39439e-05 -0.00029782 0.000290468 -0.00483764 -0.00113811 0.00401797 0.0201827 -0.00929443 -0.0014993 -0.00329773 0.000576362 -0.00192619 0.0106394
internal_weight=0 18961 5119 3011 159 2108 138 44 100 1970 626 2852 325 49
internal_count=22298 18961 5119 3011 159 2108 138 44 100 1970 626 2852 325 49
shrinkage=0.15


Tree=229
num_leaves=15
num_cat=0
split_feature=0 31 24 17 37 4 13 19 4 33 7 13 17 26
split_gain=0.00859529 0.0203883 0.0106472 0.0100585 0.14071 0.287883 0.36205 0.213807 0.351879 0.233913 0.209864 0.164788 0.142073 0.317666
threshold=-13.443849999999998 0.021097800000000003 0.29825050000000003 1.5760850000000003e-07 5.8403950000000007e-09 -0.055414349999999994 8.2038750000000011e-06 1.5736100000000003e-05 -0.055414349999999994 -2.3256649999999995e-07 3.9065950000000012e-05 -8.1516649999999978e-06 4.7551700000000004e-07 -7.0895699999999986e-05
decision_type=2 2 2 2 2 2 2 2 2 2 2 2 2 2
left_child=1 2 -1 -2 7 -6 -7 -5 9 -9 -11 -12 13 -8
right_child=3 -3 -4 4 5 6 12 8 -10 10 11 -13 -14 -15
leaf_value=0.0017929377614260358 9.3135790676902852e-05 -0.00052515656437665287 -0.0013462472694098122 -0.0025027906763749981 0.0023237449526068662 -0.0020797508373173994 0.008751542859640464 -0.00033050723831576888 0.00061108825883128017 -0.00697311039995874 -0.0027015724725149167 0.0083145593615799127 0.0004006490786166144 0.00025863349642280768
leaf_weight=244 10397 197 27 1079 1385 1428 159 840 3725 309 412 33 1800 263
leaf_count=244 10397 197 27 1079 1385 1428 159 840 3725 309 412 33 1800 263
internal_value=0 0.000636052 0.00148018 -1.36359e-05 -0.000110733 0.00048246 -0.000216219 -0.000577554 -0.000187005 -0.00205206 -0.00396997 -0.00188465 0.000981406 0.00345857
internal_weight=0 468 271 21830 11433 5035 3650 6398 5319 1594 754 445 2222 422
internal_count=22298 468 271 21830 11433 5035 3650 6398 5319 1594 754 445 2222 422
shrinkage=0.15


Tree=230
num_leaves=15
num_cat=0
split_feature=23 11 19 9 7 30 13 36 7 13 10 33 22 1
split_gain=0.0119187 0.0476696 0.0785779 0.038066 0.0362718 0.0275327 0.0262737 0.0506169 0.0550561 0.0338902 0.0448237 0.0267822 0.0250503 0.040258
threshold=-17.905199999999997 -5.4432449999999994e-05 0.00016276350000000002 -1.0630249999999999e-05 2.1699800000000002e-05 0.00060283050000000001 -4.1981949999999995e-05 -0.034110199999999993 6.4347700000000007e-05 -1.1066549999999998e-05 1.7386300000000003e-05 5.2671350000000007e-06 -0.80414149999999995 4.052690000000001
decision_type=2 2 2 2 2 2 2 2 2 2 2 2 2 2
left_child=1 2 -1 5 -3 -4 7 -6 -9 10 -8 -12 -11 -14
right_child=-2 4 3 -5 6 -7 9 8 -10 12 11 -13 13 -15
leaf_value=-0.0076945140571440685 -2.6177358967728376e-05 -0.0049564955391954001 0.0054077553298239678 -0.0064618562698160525 0.0044865515059791502 -0.00025610201657308364 0.009783779382869397 -0.010469177925260737 -9.9498496498339455e-07 -0.00024321856179424577 0.0038427078576023632 9.2101260594537722e-07 0.0027307235336193115 -0.0004390348811284639
leaf_weight=38 21096 23 22 20 20 158 20 20 26 295 100 69 250 141
leaf_count=38 21096 23 22 20 20 158 20 20 26 295 100 69 250 141
internal_value=0 0.000459432 -0.00144169 -0.000253653 0.000928796 0.000436147 0.00107265 -0.00181331 -0.00455238 0.00129033 0.00306884 0.00227417 0.000800332 0.00158766
internal_weight=0 1202 238 200 964 180 941 66 46 875 189 169 686 391
internal_count=22298 1202 238 200 964 180 941 66 46 875 189 169 686 391
shrinkage=0.15


Tree=231
num_leaves=15
num_cat=0
split_feature=3 23 3 25 16 3 14 23 3 34 19 3 3 3
split_gain=0.00922762 0.0571847 0.230648 0.235438 0.0795562 0.149265 0.0363893 0.0361322 0.186867 0.118215 0.0659756 0.0309369 0.0293208 0.0286827
threshold=-6.2170999999999994 -6.3135599999999998 -6.0660849999999993 0.45798800000000006 8.7363350000000012e-08 -5.8532899999999985 3.8653200000000005e-05 -6.9615699999999991 -6.0660849999999993 0.42361800000000005 1.8396200000000002e-05 -5.8709549999999995 -5.7356149999999984 -5.050864999999999
decision_type=2 2 2 2 2 2 2 2 2 2 2 2 2 2
left_child=6 7 3 -3 11 -6 -1 -2 10 12 -9 -4 -10 -7
right_child=1 2 4 -5 5 13 -8 8 9 -11 -12 -13 -14 -15
leaf_value=0.0052576856820137586 0.00021416328235128934 0.0014570989529602231 -0.0073473652059744508 0.022694867308777959 0.014139492056615974 -0.0019337240272161967 -6.0232358359664699e-05 -0.013601327333890367 -0.002681689017701857 0.011180089566623792 -0.0037232200150952091 -0.0010734812204516075 5.0286421414895329e-05 0.0042008772964537561
leaf_weight=29 4067 24 21 23 23 47 17347 32 115 20 29 112 382 27
leaf_count=29 4067 24 21 23 23 47 17347 32 115 20 29 112 382 27
internal_value=0 0.000181304 0.002275 0.01185 0.000318358 0.00358502 -5.13569e-05 5.64485e-05 -0.00105329 -0.000126853 -0.00890518 -0.00206409 -0.000581861 0.000304576
internal_weight=0 4922 277 47 230 97 17376 4645 578 517 61 133 497 74
internal_count=22298 4922 277 47 230 97 17376 4645 578 517 61 133 497 74
shrinkage=0.15


Tree=232
num_leaves=15
num_cat=0
split_feature=23 3 3 2 22 5 22 8 22 8 15 3 1 21
split_gain=0.00860503 0.0659431 0.207669 0.0196903 0.081548 0.0295112 0.0228588 0.0258852 0.0341124 0.0314658 0.0184239 0.0266328 0.0177004 0.0174905
threshold=-17.905199999999997 -17.219549999999995 -16.017899999999994 -1.7769999999999999 -1.3165899999999997 1.3823800000000003e-05 -1.3165899999999997 -7.9286949999999986e-07 -0.16692499999999996 5.5664100000000013e-06 7.9817200000000016e-06 -13.373099999999999 -4.9486449999999991 2.7067450000000002
decision_type=2 2 2 2 2 2 2 2 2 2 2 2 2 2
left_child=1 -1 -3 4 5 -4 -5 10 -9 -10 11 -8 -11 -13
right_child=-2 2 3 6 -6 -7 7 8 9 12 -12 13 -14 -15
leaf_value=0.0066246485938569778 -2.2242653450834944e-05 -0.010568587412574115 -0.0072825285266279374 0.0019144037747071251 0.0015535021383277507 -0.0019607764088050315 -0.0054039980133113981 -0.0030278090152874465 0.0067961055773776017 0.0024833715922891555 0.0020108473999749144 0.00081871498590897253 -0.0010584981396360407 -0.001710443805201372
leaf_weight=37 21096 39 37 320 157 64 28 31 30 114 54 116 44 131
leaf_count=37 21096 39 37 320 157 64 28 31 30 114 54 116 44 131
internal_value=0 0.000390375 0.000192377 0.000565092 -0.00058544 -0.00391033 0.000907071 0.000318847 0.00158243 0.00234263 -0.00052226 -0.00101967 0.00149703 -0.000522661
internal_weight=0 1202 1165 1126 258 101 868 548 219 188 329 275 158 247
internal_count=22298 1202 1165 1126 258 101 868 548 219 188 329 275 158 247
shrinkage=0.15


Tree=233
num_leaves=15
num_cat=0
split_feature=30 19 7 3 1 7 39 3 14 14 14 1 25 16
split_gain=0.00817203 0.0310498 0.0292817 0.0227159 0.0223537 0.0158419 0.0214103 0.0321886 0.0150487 0.0524817 0.0231728 0.0224828 0.0117836 0.0778513
threshold=5.7750700000000009e-05 1.0399100000000002e-09 2.8944200000000003e-05 -7.5365049999999991 -10.482449999999998 3.0266350000000005e-05 6.1833650000000003e-07 -6.947284999999999 9.1256050000000012e-05 0.00015957300000000001 5.1133000000000007e-05 8.8117350000000005 0.16482350000000004 5.1631500000000008e-08
decision_type=2 2 2 2 2 2 2 2 2 2 2 2 2 2
left_child=1 -1 3 -3 -4 -6 8 -8 10 -10 -7 -11 13 -2
right_child=12 2 4 -5 5 6 7 -9 9 11 -12 -13 -14 -15
leaf_value=-0.0041519731987500561 0.00062406777585088155 0.0018887547361638017 -0.0031232354414992428 0.0075918267994314762 -0.0027880199328397534 0.0016215669420489574 0.001319673699287126 0.0083467833063332365 0.0080504424969798753 0.00066409764444446784 -0.004586769869708786 -0.0044483186365271519 1.2160910392128446e-05 -0.0017663385861203772
leaf_weight=30 673 55 38 22 28 24 55 20 21 247 31 21 20470 563
leaf_count=30 673 55 38 22 28 24 55 20 21 247 31 21 20470 563
internal_value=0 0.00054986 0.000800848 0.0035182 0.000369432 0.000666348 0.000897189 0.00319357 0.000396525 0.000829331 -0.00187768 0.000263498 -1.49966e-05 -0.000464766
internal_weight=0 592 562 77 485 447 419 75 344 289 55 268 21706 1236
internal_count=22298 592 562 77 485 447 419 75 344 289 55 268 21706 1236
shrinkage=0.15


Tree=234
num_leaves=15
num_cat=0
split_feature=36 16 19 34 7 10 16 20 4 19 20 10 7 21
split_gain=0.0085266 0.150871 0.320294 0.424782 0.123798 0.177565 0.0719145 0.111349 0.0984614 0.0665394 0.151547 0.10909 0.131137 0.309955
threshold=0.0095172200000000016 8.3700250000000006e-07 2.1658550000000005e-06 0.44138000000000005 2.7816350000000003e-05 1.2731000000000002e-05 1.4900000000000002e-07 -2.1410649999999998 0.15027300000000002 0.00030911800000000004 -8.9546649999999985 4.3447250000000003e-05 3.4278550000000004e-05 -5.3570149999999996
decision_type=2 2 2 2 2 2 2 2 2 2 2 2 2 2
left_child=-1 6 3 -3 -4 -6 -2 -8 -9 10 -7 12 -12 -14
right_child=1 2 4 -5 5 9 7 8 -10 -11 11 -13 13 -15
leaf_value=3.6663667263351036e-05 -0.00060699448942278075 0.022465190977284992 -0.0065194534232295206 -0.00013028472715702195 0.012699427403692554 0.014896077925472387 0.00036553458840524617 -0.003653324929605746 -0.012231660816961757 -0.00026835215022583727 -0.0041768912303294719 -0.0038525064239365745 0.023232456387486309 0.0025010353086504754
leaf_weight=19285 1745 36 53 39 28 21 119 132 39 600 35 60 20 86
leaf_count=19285 1745 36 53 39 28 21 119 132 39 600 35 60 20 86
internal_value=0 -0.000234669 0.00129644 0.0107155 0.000514126 0.00095269 -0.000970506 -0.00315784 -0.00560979 0.000552558 0.00277124 0.00150446 0.00378402 0.00641262
internal_weight=0 3013 978 75 903 850 2035 290 171 822 222 201 141 106
internal_count=22298 3013 978 75 903 850 2035 290 171 822 222 201 141 106
shrinkage=0.15


Tree=235
num_leaves=15
num_cat=0
split_feature=23 3 37 0 28 13 21 21 11 4 14 23 23 3
split_gain=0.00914792 0.0374429 0.0800055 0.0674236 0.0896149 0.138359 0.097112 0.0895049 0.151394 0.122714 0.0871668 0.0864811 0.0801485 0.0543424
threshold=-13.747299999999997 -16.017899999999994 -2.2424449999999992e-06 4.011140000000001 -0.019688249999999997 6.6789350000000011e-05 -2.9865249999999999 4.1972500000000013 -0.00012425349999999999 -0.068375699999999984 0.012822650000000003 -15.782499999999997 -16.571949999999998 -14.548599999999999
decision_type=2 2 2 2 2 2 2 2 2 2 2 2 2 2
left_child=1 2 -1 4 5 -4 -6 8 12 -9 11 -10 -8 -3
right_child=-2 13 3 -5 6 -7 7 9 10 -11 -12 -13 -14 -15
leaf_value=-0.0088850181084126224 -4.8653080454723094e-05 0.0023277741531429847 0.011757696193392174 0.0054539914320533471 0.0039519523348784651 -0.0046122847501205147 -0.0056095928485904419 0.0081352711948476583 -0.02151344136468002 -0.0067388451207079925 -0.0039551397575996817 -0.0088739912872652284 0.0076584344360162504 0.00016527051677175537
leaf_weight=29 17747 280 26 36 39 21 21 26 21 24 30 29 20 3949
leaf_count=29 17747 280 26 36 39 21 21 26 21 24 30 29 20 3949
internal_value=0 0.000189727 -0.00136951 -0.00062566 -0.00147728 0.00444345 -0.0028024 -0.00434287 -0.00654888 0.000995695 -0.0103473 -0.0141826 0.000862616 0.000308449
internal_weight=0 4551 322 293 257 47 210 171 121 50 80 50 41 4229
internal_count=22298 4551 322 293 257 47 210 171 121 50 80 50 41 4229
shrinkage=0.15


Tree=236
num_leaves=15
num_cat=0
split_feature=16 36 36 19 33 3 16 19 17 20 0 26 0 31
split_gain=0.00867789 0.287578 0.254105 0.249023 0.221722 0.206046 0.192846 0.218236 0.238722 1.11774 1.07998 0.974977 0.248877 0.308825
threshold=1.3949100000000004e-07 -0.00032488999999999993 -0.00025277649999999992 1.1761000000000001e-05 7.1091050000000012e-07 -6.0660849999999993 4.7333200000000009e-08 3.9135900000000011e-06 -4.4465749999999994e-09 4.3684300000000009 4.3905000000000003 8.8010350000000017e-05 4.3206550000000012 -0.010207699999999998
decision_type=2 2 2 2 2 2 2 2 2 2 2 2 2 2
left_child=2 3 6 4 5 -2 7 8 9 12 -11 -12 13 -1
right_child=1 -3 -4 -5 -6 -7 -8 -9 -10 10 11 -13 -14 -15
leaf_value=0.016832019931316607 -0.0081565411328746139 0.00050345437822489029 -0.00043371857089259696 -0.00050706290020279085 -0.000862523908493928 -0.00091529299526424499 -0.0017674703396025446 0.00050370644907791562 0.0018617677233270355 -0.0028667565376963465 0.01530460470156478 0.061012780859268131 -0.0034435398302456312 -0.0019265183301355976
leaf_weight=40 291 5864 8295 2324 356 127 538 3015 1234 22 21 21 111 39
leaf_count=40 291 5864 8295 2324 356 127 538 3015 1234 22 21 21 111 39
internal_value=0 -0.00011415 7.67105e-05 -0.00128317 -0.00361351 -0.00595645 0.000916625 0.00123731 0.00272374 0.00691146 0.0240562 0.0381587 0.00113639 0.00757148
internal_weight=0 8962 13336 3098 774 418 5041 4503 1488 254 64 42 190 79
internal_count=22298 8962 13336 3098 774 418 5041 4503 1488 254 64 42 190 79
shrinkage=0.15


Tree=237
num_leaves=15
num_cat=0
split_feature=38 18 19 37 34 3 26 17 31 38 26 3 23 37
split_gain=0.0109594 0.111482 0.181835 0.427007 0.172563 0.209368 0.227004 0.158599 0.247791 0.258526 0.203661 0.24513 0.395025 0.3792
threshold=6.7990150000000015e-05 5.9795450000000018e-08 1.6101600000000002e-06 -1.2428449999999998e-08 0.17137550000000004 -6.4683699999999993 -5.2550849999999995e-05 3.1476000000000005e-07 -0.10408799999999999 -3.0789549999999991e-05 -0.00016174749999999999 -7.1713399999999998 -7.3263099999999985 -1.0101949999999999e-07
decision_type=2 2 2 2 2 2 2 2 2 2 2 2 2 2
left_child=1 2 3 -1 5 6 -5 8 -3 10 -10 12 13 -12
right_child=-2 7 -4 4 -6 -7 -8 -9 9 -11 11 -13 -14 -15
leaf_value=0.00066764256689566537 -0.0001164816709736577 -0.0018665581424136542 0.00014413865464043052 -0.0094374695963488197 -0.00076565078272486961 -0.0016913232834814414 -0.00053168429287502581 -3.7972091822045059e-05 -0.00066756413368913804 -0.0018397072640471304 0.0013767866168680175 0.0016843022444934244 -0.0012761516294561863 0.010549838460709027
leaf_weight=896 10013 370 5236 300 257 217 82 3248 248 269 141 529 131 361
leaf_count=896 10013 370 5236 300 257 217 82 3248 248 269 141 529 131 361
internal_value=0 9.49394e-05 -0.00029847 -0.00162124 -0.00401709 -0.00541211 -0.00752576 0.00061394 0.00164733 0.00242168 0.00323467 0.0040675 0.00605915 0.00797334
internal_weight=0 12285 6988 1752 856 599 382 5297 2049 1679 1410 1162 633 502
internal_count=22298 12285 6988 1752 856 599 382 5297 2049 1679 1410 1162 633 502
shrinkage=0.15


Tree=238
num_leaves=15
num_cat=0
split_feature=14 39 30 35 8 4 3 0 28 39 4 23 3 24
split_gain=0.0100034 0.0338697 0.0563216 0.0436573 0.126999 0.0716617 0.115485 0.0594609 0.0351003 0.0342692 0.0954499 0.0336264 0.0870384 0.0738393
threshold=0.00010145900000000002 7.3418150000000012e-07 6.530400000000001e-05 -2.7152999999999996e-05 -9.081029999999997e-06 0.034774250000000007 -5.8314849999999989 8.4185900000000018 0.00095450600000000004 8.0563250000000001e-07 0.031286900000000006 -6.2555449999999988 -6.2170999999999994 0.08151810000000001
decision_type=2 2 2 2 2 2 2 2 2 2 2 2 2 2
left_child=1 2 3 5 -5 7 -7 -1 -6 10 -3 -11 -13 -14
right_child=-2 9 -4 4 8 6 -8 -9 -10 11 -12 12 13 -15
leaf_value=-0.0041992646521474197 -4.7944793276638883e-05 -0.0024320119634337191 -0.0071731484145429398 0.0089543767246816845 0.0016996518159950417 -0.014999473894766361 -9.8272100149188188e-05 0.005178469645943551 -0.0053815383328280099 0.00035220263413030846 0.012047244486166163 -0.0091932503343559804 0.0054226520607092718 -0.0032257081354177429
leaf_weight=29 18162 21 34 35 28 22 25 32 36 3730 20 30 36 58
leaf_count=29 18162 21 34 35 28 22 25 32 36 3730 20 30 36 58
internal_value=0 0.000210535 -0.00151511 -0.000585772 0.00168948 -0.00267142 -0.0070733 0.000720203 -0.00228352 0.000317308 0.00463104 0.000271417 -0.00215865 8.64298e-05
internal_weight=0 4136 241 207 99 108 47 61 64 3895 41 3854 124 94
internal_count=22298 4136 241 207 99 108 47 61 64 3895 41 3854 124 94
shrinkage=0.15


Tree=239
num_leaves=15
num_cat=0
split_feature=34 3 5 13 21 5 36 21 12 35 25 14 19 36
split_gain=0.00928727 0.041965 0.0500027 0.0483163 0.0369698 0.0350564 0.0986888 0.0673165 0.0832133 0.0719144 0.0942823 0.142223 0.0769892 0.0577866
threshold=0.0043944300000000004 -8.5562249999999977 9.2166400000000019e-06 0.00012168400000000002 -0.81330049999999987 1.3823800000000003e-05 0.00022516100000000001 9.5839550000000013 -3.6211399999999998e-06 9.8026700000000008e-05 0.17922550000000001 0.00012598550000000004 3.4937050000000006e-08 -0.00012281349999999997
decision_type=2 2 2 2 2 2 2 2 2 2 2 2 2 2
left_child=1 3 4 -1 -3 6 7 9 -9 12 11 -11 -4 -7
right_child=-2 2 5 -5 -6 13 -8 8 -10 10 -12 -13 -14 -15
leaf_value=0.0017122844711968776 -3.0261870078349504e-05 0.00010334211518056691 -0.0059283536768705786 -0.00067837570379265767 -0.008168535546639993 0.0010246718161019334 0.010460892804439936 0.00080470247856283088 -0.0097484746839497875 0.018048565673297674 1.3661411455056319e-05 0.0015420674077176956 0.0020656034768762764 -0.0017950272240457672
leaf_weight=674 20313 20 41 265 31 267 24 40 29 23 45 24 80 422
leaf_count=674 20313 20 41 265 31 267 24 40 29 23 45 24 80 422
internal_value=0 0.000309677 -0.000343787 0.0010376 -0.00492466 -0.000108988 0.00122703 0.000441168 -0.00363069 0.00176022 0.0049211 0.00961972 -0.000643093 -0.000702343
internal_weight=0 1985 1046 939 51 995 306 282 69 213 92 47 121 689
internal_count=22298 1985 1046 939 51 995 306 282 69 213 92 47 121 689
shrinkage=0.15


Tree=240
num_leaves=15
num_cat=0
split_feature=5 20 11 23 3 38 10 20 39 14 23 3 21 21
split_gain=0.00823283 0.0709311 0.172854 0.306201 0.40364 0.51397 0.747622 0.357009 0.348163 0.380693 0.185937 0.180651 0.193863 0.339355
threshold=1.1439400000000003e-05 3.5082850000000003 1.6815150000000001e-05 -9.2111499999999982 -8.9964949999999977 -0.00034044749999999991 1.9903100000000003e-05 5.3404300000000005 3.5801250000000003e-06 0.00093646950000000017 -8.0234149999999982 -8.5290449999999982 -3.5364649999999993 3.3134650000000003
decision_type=2 2 2 2 2 2 2 2 2 2 2 2 2 2
left_child=1 -1 10 4 5 -4 7 -7 -8 -10 -3 -5 -13 -14
right_child=-2 2 3 11 -6 6 8 -9 9 -11 -12 12 13 -15
leaf_value=-0.00022967470568497801 -5.2254437302144486e-05 -0.0015633543060232715 -0.00032673566237286623 -0.001897476706422036 -0.0036000615261136473 0.0140825153728656 0.007778482324210927 -0.011790100662256008 0.042130731483320555 0.01800141905925037 0.0020911132089346416 -0.0059197056848047814 0.024396653193980454 0.0014944596143716292
leaf_weight=3624 16782 766 67 257 62 24 20 24 31 28 530 22 24 37
leaf_count=3624 16782 766 67 257 62 24 20 24 31 28 530 22 24 37
internal_value=0 0.00015898 0.000903422 0.00301764 0.00693588 0.010303 0.0159109 0.00114621 0.0248818 0.0306795 -6.88576e-05 6.74401e-05 0.00615158 0.0105052
internal_weight=0 5516 1892 596 256 194 127 48 79 59 1296 340 83 61
internal_count=22298 5516 1892 596 256 194 127 48 79 59 1296 340 83 61
shrinkage=0.15


Tree=241
num_leaves=15
num_cat=0
split_feature=14 23 35 7 23 4 37 18 10 13 21 23 4 14
split_gain=0.00845083 0.0295749 0.0435789 0.0696072 0.0771487 0.0623872 0.059762 0.321428 0.0934807 0.093012 0.106718 0.0696743 0.0501297 0.0454827
threshold=0.00010145900000000002 -7.7487749999999993 -0.00018835999999999997 4.9767000000000006e-05 -6.0874249999999988 -0.14818949999999995 2.1290750000000005e-08 2.0745400000000003e-07 1.9903100000000003e-05 1.323385e-05 -2.6891449999999995 -6.9149849999999988 -0.1018225 8.7428400000000005e-05
decision_type=2 2 2 2 2 2 2 2 2 2 2 2 2 2
left_child=1 -1 5 4 6 -3 8 13 11 12 -11 -4 -10 -8
right_child=-2 2 3 -5 -6 -7 7 -9 9 10 -12 -13 -14 -15
leaf_value=0.00046051775720506625 -4.4067295313731561e-05 0.008545167622981931 -0.0040003122253567973 0.00068289266778250675 -0.0099770467392065448 0.00036098042752670003 -0.00093413881709872109 0.016288990823552011 0.0033224682275462768 -0.0015755540427562665 -0.014639661078313913 0.0069286243644143854 -0.0033572913311421281 -0.0083902713377028704
leaf_weight=2866 18162 22 21 311 27 442 79 25 29 24 34 35 197 24
leaf_count=2866 18162 22 21 311 27 442 79 25 29 24 34 35 197 24
internal_value=0 0.000193508 -0.00040905 -0.00107573 -0.00218065 0.000749024 -0.00173085 0.00103173 -0.00277089 -0.00387534 -0.00923382 0.00283027 -0.00250015 -0.00267149
internal_weight=0 4136 1270 806 495 464 468 128 340 284 58 56 226 103
internal_count=22298 4136 1270 806 495 464 468 128 340 284 58 56 226 103
shrinkage=0.15


Tree=242
num_leaves=15
num_cat=0
split_feature=38 18 7 20 33 31 5 19 33 20 24 8 34 3
split_gain=0.00931998 0.0788682 0.136855 0.199207 0.234168 0.161153 0.155677 0.128256 0.406615 0.127497 0.127246 0.241177 0.17044 0.265983
threshold=6.7990150000000015e-05 5.9795450000000018e-08 2.4140600000000004e-05 5.4334650000000009 -2.0054049999999995e-05 0.036848600000000009 9.4083500000000012e-06 2.5573700000000003e-06 -2.3256649999999995e-07 0.059550600000000002 1.0000000180025095e-35 -1.3892399999999998e-05 0.17137550000000004 -6.0183449999999992
decision_type=2 2 2 2 2 2 2 2 2 2 2 2 2 2
left_child=1 7 3 4 -3 6 -6 8 10 -8 11 -1 13 -12
right_child=-2 2 -4 -5 5 -7 9 -9 -10 -11 12 -13 -14 -15
leaf_value=0.013091095933923498 -0.00010741654761709994 0.022556641817791389 0.00038315202586137407 -0.0039528803841676558 0.0014540315301821787 -0.0033195831347256899 0.023728023588191715 0.0001425412438504922 0.0013477327333195582 0.0067908528173575176 -0.0068765109286631652 -0.002460574709378337 -0.00074938239671146158 -0.0001763987326068941
leaf_weight=30 10013 20 5122 45 34 36 20 5136 761 20 491 89 298 183
leaf_count=30 10013 20 5122 45 34 36 20 5136 761 20 491 89 298 183
internal_value=0 8.75508e-05 0.000524083 0.00464893 0.00762648 0.00491191 0.00891641 -0.000243347 -0.0013135 0.0152594 -0.00316977 0.00146001 -0.00373659 -0.00505734
internal_weight=0 12285 5297 175 130 110 74 6988 1852 40 1091 119 972 674
internal_count=22298 12285 5297 175 130 110 74 6988 1852 40 1091 119 972 674
shrinkage=0.15


Tree=243
num_leaves=15
num_cat=0
split_feature=5 32 21 12 21 27 35 37 3 33 39 33 27 1
split_gain=0.00863224 0.0713077 0.110596 0.113362 0.207517 0.129408 0.0818252 0.0795711 0.0612496 0.0542282 0.0530393 0.0574767 0.0371754 0.0306907
threshold=7.7110250000000013e-06 -0.019024949999999995 -5.3220199999999993 -2.6844949999999998e-05 -2.8446949999999998 0.17918400000000004 0.0014137800000000001 -2.8399599999999998e-08 -8.2335849999999979 2.4303400000000005e-06 1.3909650000000002e-06 -4.6806049999999992e-06 0.69879650000000015 0.81658700000000006
decision_type=2 2 2 2 2 2 2 2 2 2 2 2 2 2
left_child=1 -1 8 4 -4 -5 9 -6 10 13 -3 -12 -10 -7
right_child=-2 2 3 5 7 6 -8 -9 12 -11 11 -13 -14 -15
leaf_value=-0.0014520332129234845 -1.4910995016348039e-05 0.0017441702035284835 0.0210815030250656 0.010879467045854721 0.010554663982739755 -0.0114489028826938 0.0056882211015206472 -0.0013221159504610113 -0.0009312456669406322 0.0013259635778792602 -0.00065761757848252142 -0.010756902224966324 0.0072457540383435446 -0.0033300881947401317
leaf_weight=228 21743 24 22 26 22 20 29 30 29 28 21 32 22 22
leaf_count=228 21743 24 22 26 22 20 29 30 29 28 21 32 22 22
internal_value=0 0.000584162 0.00200389 0.0042163 0.00886935 0.00146169 -0.00101166 0.00370268 -0.00143571 -0.00378733 -0.00410611 -0.0067553 0.00259609 -0.00719619
internal_weight=0 555 327 199 74 125 99 52 128 70 77 53 51 42
internal_count=22298 555 327 199 74 125 99 52 128 70 77 53 51 42
shrinkage=0.15


Tree=244
num_leaves=15
num_cat=0
split_feature=17 31 10 1 8 33 21 19 27 1 0 17 32 1
split_gain=0.0116939 0.085531 0.0937438 0.0718595 0.114688 0.232211 0.542683 0.530174 0.763727 0.434945 0.144649 0.112191 0.185685 0.184516
threshold=1.5760850000000003e-07 -0.046675499999999988 1.5860650000000002e-05 4.3898800000000007 -2.3517249999999995e-06 -1.1144799999999997e-06 4.499245000000001 4.9287000000000004e-05 1.9021650000000003 2.9924150000000007 4.3206550000000012 3.1902450000000008e-08 0.028839450000000006 5.5813050000000013
decision_type=2 2 2 2 2 2 2 2 2 2 2 2 2 2
left_child=1 2 -1 4 5 6 7 8 9 -4 -8 -5 13 -13
right_child=-2 -3 3 11 -6 -7 10 -9 -10 -11 -12 12 -14 -15
leaf_value=-0.0022695610386442946 -0.0001019439045837618 0.00040304791665097747 0.040120216764626092 0.0001563688103480965 -0.00021117305085921047 -0.0013466427295191034 0.0015527128955181979 6.3688914491318762e-05 -0.0034045678767142813 0.014000961502181152 -0.013303772421355022 -0.014994581360597071 0.0011366182296963718 -0.0038886558081356543
leaf_weight=571 11856 7212 32 521 1412 166 30 55 24 26 29 41 135 188
leaf_count=571 11856 7212 32 521 1412 166 30 55 24 26 29 41 135 188
internal_value=0 0.000115749 -0.000525738 -0.000151266 0.000399503 0.00278148 0.00627774 0.0114574 0.0190995 0.0284116 -0.00574963 -0.00125529 -0.00327583 -0.00587705
internal_weight=0 10442 3230 2659 1774 362 196 137 82 58 59 885 364 229
internal_count=22298 10442 3230 2659 1774 362 196 137 82 58 59 885 364 229
shrinkage=0.15


Tree=245
num_leaves=15
num_cat=0
split_feature=17 31 10 13 13 39 34 10 22 22 2 21 8 2
split_gain=0.00844886 0.0617962 0.0677299 0.0693593 0.0954343 0.129651 0.240495 0.0637397 0.263991 0.271439 0.907348 0.199884 0.312356 0.181947
threshold=1.5760850000000003e-07 -0.046675499999999988 1.5860650000000002e-05 4.5673450000000006e-05 1.323385e-05 0.00037214900000000006 0.37240250000000003 1.5560950000000002e-05 -1.9394849999999997 -1.4951299999999998 -1.5033299999999998 10.970250000000002 -9.8100899999999971e-06 -1.6238649999999997
decision_type=2 2 2 2 2 2 2 2 2 2 2 2 2 2
left_child=1 2 3 4 5 -1 -7 8 13 10 -10 -11 -13 -3
right_child=-2 7 -4 -5 -6 6 -8 -9 9 11 -12 12 -14 -15
leaf_value=-0.0037644296132043563 -8.665230787920955e-05 -0.0077948688704054794 -0.00012857580408381618 0.0008530741243926791 -0.0067577430196251948 0.017496924087172374 -0.00076442295367298862 0.00013988771228436945 0.021913037581589377 0.00074440871286231747 -0.0021851889591114463 0.021081626121404354 0.00093745896132489627 -5.4252534503379872e-05
leaf_weight=208 11856 96 2659 149 108 20 86 5977 64 688 78 29 43 237
leaf_count=208 11856 96 2659 149 108 20 86 5977 64 688 78 29 43 237
internal_value=0 9.83863e-05 -0.000446878 -0.00192913 -0.00291147 -0.00158855 0.00268111 0.000342591 0.00132361 0.00265612 0.00867598 0.00153136 0.00905108 -0.00228578
internal_weight=0 10442 3230 571 422 314 106 7212 1235 902 142 760 72 333
internal_count=22298 10442 3230 571 422 314 106 7212 1235 902 142 760 72 333
shrinkage=0.15


Tree=246
num_leaves=15
num_cat=0
split_feature=35 15 3 0 20 4 4 3 28 28 18 37 19 15
split_gain=0.00920302 0.0491455 0.0528629 0.142299 0.273462 0.0935267 0.350433 0.0573077 0.0675653 0.0702106 0.0461416 0.0454017 0.0410312 0.0436373
threshold=-0.13470549999999998 2.685150000000001e-07 -8.0227549999999983 4.9297100000000009 1.8487150000000001 0.39091350000000008 1.7547750000000002 -14.405299999999999 -0.23584399999999997 -0.47810599999999998 -4.2751549999999987e-06 1.0790650000000003e-05 6.0027400000000007e-05 1.5331400000000002e-06
decision_type=2 2 2 2 2 2 2 2 2 2 2 2 2 2
left_child=1 2 3 5 -5 7 -7 -1 9 -9 -4 -8 13 -3
right_child=-2 12 10 4 -6 6 11 8 -10 -11 -12 -13 -14 -15
leaf_value=-0.0054942401463915474 -2.0595334849788378e-05 -0.0012747884188138415 -0.0044489160434750376 -0.00010538768935172508 0.022423769684974105 0.018721961399067618 -0.0063471227141025542 -0.0017781448234537882 -0.0014814348200589472 0.0092531080423642002 0.00060398449829534044 0.0027001959591871128 -0.00014477012420941433 -0.008816961829350994
leaf_weight=41 21324 45 48 27 22 29 26 21 102 34 266 24 261 28
leaf_count=41 21324 45 48 27 22 29 26 21 102 34 266 24 261 28
internal_value=0 0.000450898 0.00122063 0.00255855 0.0100097 0.00124047 0.005604 -0.000500533 0.000803556 0.00504118 -0.000168433 -0.00200441 -0.00102403 -0.00416768
internal_weight=0 974 640 326 49 277 79 198 157 55 314 50 334 73
internal_count=22298 974 640 326 49 277 79 198 157 55 314 50 334 73
shrinkage=0.15


Tree=247
num_leaves=15
num_cat=0
split_feature=0 22 22 2 33 6 1 19 0 28 31 31 0 22
split_gain=0.00841848 0.0528656 0.09874 1.1275 0.179395 0.114441 0.0847308 0.0530835 0.0501029 0.101151 0.048926 0.101413 0.0955421 0.0688231
threshold=-5.7937299999999992 -2.9943999999999997 -2.7873649999999994 -2.7850449999999998 -3.4345499999999996e-06 2.4729600000000005e-07 -3.4755699999999994 0.00071549350000000005 -9.7577099999999977 -0.00064309699999999992 0.080014650000000007 0.074056000000000025 -10.358349999999998 3.0357900000000004
decision_type=2 2 2 2 2 2 2 2 2 2 2 2 2 2
left_child=1 8 3 -3 6 -6 -5 -8 -1 -10 11 13 -13 -4
right_child=-2 2 10 4 5 -7 7 -9 9 -11 -12 12 -14 -15
leaf_value=0.0007743373970567648 -4.7605626370426083e-05 0.026466120316303875 0.0003475232529042438 -0.0041498800941075099 -0.019340835807379334 -0.0034864675885598576 0.010958346057616706 0.00029296457713436601 -0.0014612566576733324 -0.014373720729989664 -0.00083183302678077294 0.00037835777588952625 0.014864608352737767 -0.008069119689802888
leaf_weight=42 17602 38 3421 38 20 21 21 21 39 21 951 20 21 22
leaf_count=42 17602 38 3421 38 20 21 21 21 39 21 951 20 21 22
internal_value=0 0.00017844 0.000253433 0.00392618 -0.00315248 -0.0112203 0.000982276 0.00562566 -0.00319917 -0.00598062 0.00012176 0.000382055 0.00779814 0.000293743
internal_weight=0 4696 4594 159 121 41 80 42 102 60 4435 3484 41 3443
internal_count=22298 4696 4594 159 121 41 80 42 102 60 4435 3484 41 3443
shrinkage=0.15


Tree=248
num_leaves=15
num_cat=0
split_feature=2 20 20 0 28 33 18 33 2 20 30 20 15 29
split_gain=0.00780603 0.0402645 0.0526598 0.0974049 0.171726 0.110428 0.0555303 0.038962 0.0797377 0.206014 0.16787 0.137383 0.0647728 0.120755
threshold=2.5103650000000006 -12.957699999999997 -8.9546649999999985 -8.2936799999999984 1.0000000180025095e-35 1.3750400000000002e-06 -8.0309749999999992e-07 5.0276050000000003e-06 2.6933450000000003 -6.8075899999999985 0.00028527300000000006 -6.625424999999999 -1.7147549999999997e-06 0.0048613550000000012
decision_type=2 2 2 2 2 2 2 2 2 2 2 2 2 2
left_child=-1 -2 3 5 -5 6 -3 -4 9 -9 11 -10 13 -11
right_child=1 2 7 4 -6 -7 -8 8 10 12 -12 -13 -14 -15
leaf_value=-2.6434751356799438e-05 0.0055717140116030347 -0.010227074220310895 0.00094935786849999941 -0.00075633428988941672 -0.017764324232385578 0.0065382821565995427 -8.9234668919215761e-05 0.016216551771503874 -0.019638889624038713 -0.0015219638622413088 -0.00059206771237804007 -0.0036930520681761987 -0.0020387900960191175 0.011817151981533523
leaf_weight=20481 32 20 1113 34 22 39 31 20 20 37 281 31 111 26
leaf_count=20481 32 20 1113 34 22 39 31 20 20 37 281 31 111 26
internal_value=0 0.000297969 0.000203426 -0.00252634 -0.00743804 0.000529836 -0.00406486 0.00044659 -0.000617252 0.00179876 -0.00202902 -0.00994632 0.000141538 0.00398307
internal_weight=0 1817 1785 146 56 90 51 1639 526 194 332 51 174 63
internal_count=22298 1817 1785 146 56 90 51 1639 526 194 332 51 174 63
shrinkage=0.15


Tree=249
num_leaves=15
num_cat=0
split_feature=12 37 23 3 13 13 32 11 32 3 37 28 25 1
split_gain=0.00764645 0.0425966 0.0566491 0.0283928 0.0345176 0.0240646 0.114163 0.36562 0.0317992 0.0297171 0.0435901 0.0261571 0.0230463 0.0217833
threshold=-0.00028365249999999991 -7.6291349999999988e-07 -18.949549999999999 -16.555249999999997 2.3375550000000004e-05 7.5100050000000013e-05 0.18266200000000002 3.0655000000000004e-05 0.071193100000000023 -17.753849999999996 1.5780800000000003e-07 -0.04635754999999999 31.953800000000005 -5.9840399999999994
decision_type=2 2 2 2 2 2 2 2 2 2 2 2 2 2
left_child=1 2 -1 -4 -5 6 8 -8 -3 10 -7 -9 -11 -10
right_child=-2 5 3 4 -6 9 7 11 13 12 -12 -13 -14 -15
leaf_value=-0.008404557914764155 -3.2403957575873068e-05 0.00086601515504357415 0.0032511486305499119 -0.0059709269737595605 -0.00070576291225370375 0.00075287114304956049 0.020311890984053858 -0.0045655025559636457 -0.00040542613728226012 0.00013070549905680573 0.0081724451885092989 0.0026499468914698812 -0.0034276720685219122 -0.0069900471947039475
leaf_weight=24 19627 465 34 32 225 62 28 26 26 1642 25 20 42 20
leaf_count=24 19627 465 34 32 225 62 28 26 26 1642 25 20 42 20
internal_value=0 0.00023811 -0.00140012 -0.00082243 -0.00136135 0.000457143 0.00129125 0.00679769 0.000493845 0.000181618 0.00288493 -0.00142835 4.19574e-05 -0.0032683
internal_weight=0 2671 315 291 257 2356 585 74 511 1771 87 46 1684 46
internal_count=22298 2671 315 291 257 2356 585 74 511 1771 87 46 1684 46
shrinkage=0.15


Tree=250
num_leaves=15
num_cat=0
split_feature=2 29 29 13 31 5 10 15 26 0 28 15 19 4
split_gain=0.00729454 0.0217007 0.0161556 0.00910603 0.00771841 0.0384868 0.0669618 0.0589449 0.121214 0.41399 0.0719188 0.0660081 0.0664086 0.0515003
threshold=3.0568150000000007 0.0070091150000000007 0.00160125 -1.7414199999999999e-06 -0.89672849999999993 1.8191400000000003e-05 1.5560950000000002e-05 -1.5812349999999995e-07 0.00081466000000000015 5.0141550000000015 -0.051721699999999995 -2.9420299999999999e-06 2.1658550000000005e-06 0.077689850000000019
decision_type=2 2 2 2 2 2 2 2 2 2 2 2 2 2
left_child=4 2 3 -2 5 6 -1 8 11 10 -10 -8 -13 -7
right_child=1 -3 -4 -5 -6 13 7 -9 9 -11 -12 12 -14 -15
leaf_value=-0.0017898548615599469 -0.00079455465941767514 0.0044429762855129817 -0.0038069533705129286 0.0024390269459873644 -2.9708202835805275e-05 -0.0020073649373549452 -0.0026887979080923506 0.00060084969037123249 0.0092618493839505718 0.023292141032612158 -0.00074218923405392986 -0.0011949523651440229 0.0088829359640986948 0.00092664851804274582
leaf_weight=163 36 33 20 43 20754 293 71 467 22 27 61 28 31 249
leaf_count=163 36 33 20 43 20754 293 71 467 22 27 61 28 31 249
internal_value=0 0.00111177 1.36488e-06 0.000965496 -6.62065e-06 0.000332727 0.000950843 0.00158271 0.00349326 0.00715795 0.00190948 0.000392367 0.00410021 -0.000659451
internal_weight=0 132 99 79 22166 1412 870 707 240 110 83 130 59 542
internal_count=22298 132 99 79 22166 1412 870 707 240 110 83 130 59 542
shrinkage=0.15


Tree=251
num_leaves=15
num_cat=0
split_feature=38 4 4 3 34 3 4 24 14 3 16 28 36 14
split_gain=0.00744712 0.168292 0.236018 0.389518 0.412256 0.220556 0.202462 0.425109 0.537797 0.462626 0.362663 0.590264 0.494378 0.299056
threshold=6.7990150000000015e-05 -0.0086232949999999978 0.50027650000000012 -6.834204999999999 0.14024950000000003 -12.196949999999998 -0.15315299999999996 -0.14458649999999998 0.00011168900000000001 -11.729749999999997 2.8010150000000002e-08 0.0014151900000000002 0.00032938950000000004 0.00024889150000000006
decision_type=2 2 2 2 2 2 2 2 2 2 2 2 2 2
left_child=-1 6 3 4 5 -3 -2 -8 -9 -10 11 -11 13 -12
right_child=1 2 -4 -5 -6 -7 7 8 9 10 12 -13 -14 -15
leaf_value=7.8261283108217928e-05 -0.00013103611886480031 -0.0013765146667817265 0.00046236608510876159 0.00039275019532355039 3.0719198081884589e-05 -0.0063163788198940043 0.00057562137249308272 0.0007798837221382911 -0.0021656995267571449 -0.0032294508870108984 0.027641494466224683 0.02305681556966659 0.042270802343567913 0.0017016317951492963
leaf_weight=12285 3395 280 2191 1236 584 743 1218 187 39 40 20 37 23 20
leaf_count=12285 3395 280 2191 1236 584 743 1218 187 39 40 20 37 23 20
internal_value=0 -9.60192e-05 -0.000707602 -0.00160926 -0.00314907 -0.00496431 0.00052232 0.00192266 0.00640544 0.0122824 0.0163073 0.00940161 0.0247475 0.0146716
internal_weight=0 10013 5034 2843 1607 1023 4979 1584 366 179 140 77 63 40
internal_count=22298 10013 5034 2843 1607 1023 4979 1584 366 179 140 77 63 40
shrinkage=0.15


Tree=252
num_leaves=15
num_cat=0
split_feature=6 33 6 39 3 24 22 33 18 10 13 39 24 37
split_gain=0.00824737 0.0667695 0.144812 0.076366 0.0669134 0.103007 0.0632378 0.0589673 0.0534554 0.0443667 0.0722564 0.168242 0.0647375 0.105493
threshold=-2.7146999999999993e-07 5.9490900000000003e-05 5.4479300000000019e-07 0.00072011800000000006 -9.2021999999999995 0.34782900000000005 -0.47132899999999994 3.2777200000000009e-05 -0.00011063699999999998 5.2362800000000006e-05 -1.3111899999999999e-05 0.00092049950000000014 -0.49633099999999991 -1.7516699999999999e-06
decision_type=2 2 2 2 2 2 2 2 2 2 2 2 2 2
left_child=7 3 4 -2 5 8 -6 -1 -3 10 11 -5 -13 -14
right_child=1 2 -4 9 6 -7 -8 -9 -10 -11 -12 12 13 -15
leaf_value=-3.090896254024763e-05 -0.00014462811608346689 -0.0091650650640076499 -0.0003222918674839196 0.012650710642181085 -0.007210504920154702 -0.015593381417501303 0.0023398005734354506 0.0010812301620733871 -0.0013711702561109136 -0.00052133171814423395 0.00072303372998896564 -0.00060591398137866662 0.013025737110525369 0.0023926458635433212
leaf_weight=9453 9494 36 582 39 26 27 39 1210 44 314 764 114 25 131
leaf_count=9453 9494 36 582 39 26 27 39 1210 44 314 764 114 25 131
internal_value=0 -8.73318e-05 -0.00145237 7.25888e-06 -0.00527626 -0.0075822 -0.00148032 9.52927e-05 -0.00487842 0.00104692 0.00150585 0.00344137 0.00211113 0.00409667
internal_weight=0 11635 754 10881 172 107 65 10663 80 1387 1073 309 270 156
internal_count=22298 11635 754 10881 172 107 65 10663 80 1387 1073 309 270 156
shrinkage=0.15


Tree=253
num_leaves=15
num_cat=0
split_feature=4 21 14 36 26 21 1 3 20 4 29 6 11 5
split_gain=0.00729213 0.0161021 0.0224197 0.0213001 0.0149208 0.0146301 0.131507 0.177298 0.279892 0.241554 0.260937 1.46037 0.867643 0.261701
threshold=-1.7843149999999997 -10.146049999999999 0.0015300550000000002 0.44843200000000005 -6.6887099999999978e-05 -5.8009399999999998 -5.9840399999999994 -6.9241599999999996 -6.0588699999999989 0.56660300000000008 0.00063686400000000011 -3.9715349999999992e-07 1.8812600000000001e-06 1.9159600000000002e-05
decision_type=2 2 2 2 2 2 2 2 2 2 2 2 2 2
left_child=1 2 -1 4 -3 6 7 8 -2 10 12 -12 -10 -14
right_child=5 3 -4 -5 -6 -7 -8 -9 9 -11 11 -13 13 -15
leaf_value=0.004932200476926352 -0.00621222245390527 0.00059199205640508899 0.00078495865511527148 -0.0029849650972636832 -9.0031559821994797e-05 3.1614071511916518e-05 -0.00081411008724595454 -0.00057940411083741233 -0.0070768651562148552 -0.0024929083394409847 0.028818963809033572 -0.0049993265232452745 0.0084222064295317971 0.025643415405200078
leaf_weight=35 60 1159 181 49 1913 15010 2899 590 95 82 59 56 84 26
leaf_count=35 60 1159 181 49 1913 15010 2899 590 95 82 59 56 84 26
internal_value=0 0.000204474 0.00145697 0.000117791 0.000167281 -3.5986e-05 -0.000292801 0.00114377 0.00334437 0.00477072 0.00663203 0.0123509 0.00342386 0.0124927
internal_weight=0 3337 216 3121 3072 18961 3951 1052 462 402 320 115 205 110
internal_count=22298 3337 216 3121 3072 18961 3951 1052 462 402 320 115 205 110
shrinkage=0.15


Tree=254
num_leaves=15
num_cat=0
split_feature=23 3 3 23 3 3 16 36 16 16 16 36 0 4
split_gain=0.00873603 0.0613972 0.0996534 0.106871 0.382449 0.357554 0.229019 0.196968 0.590309 0.582539 0.52516 0.382076 0.376177 0.290537
threshold=-7.1566449999999993 -8.8436099999999982 -7.248829999999999 -6.3292749999999991 -6.3220499999999991 -6.3760599999999998 -9.7936149999999978e-07 0.00022516100000000001 -5.6015949999999987e-08 -5.5038199999999989e-09 4.4589650000000009e-06 -0.00014061349999999997 -3.8380949999999996 0.067984400000000014
decision_type=2 2 2 2 2 2 2 2 2 2 2 2 2 2
left_child=-1 -2 -3 4 6 -5 -4 8 11 -9 13 12 -8 -11
right_child=1 2 3 5 -6 -7 7 9 -10 10 -12 -13 -14 -15
leaf_value=-4.7991086386380405e-05 0.0008031901562686809 -0.0016369092871097708 -0.0016598180226918139 -0.0073788066909709973 -0.0009940753584006454 0.0012929623026572757 0.010696206404645636 -0.004140019719488919 -0.0017435343471522669 0.016506363812981074 -0.0044043264684400386 -0.0027677127143501171 0.036176106524230402 0.036479003350857804
leaf_weight=17679 2023 845 110 159 777 327 32 43 159 57 21 21 22 23
leaf_count=17679 2023 845 110 159 777 327 32 43 159 57 21 21 22 23
internal_value=0 0.000183684 -0.000299083 0.000346527 0.00107289 -0.0015441 0.00436393 0.00611687 0.00343081 0.0104817 0.0167068 0.0144004 0.0210769 0.0222485
internal_weight=0 4619 2596 1751 1265 486 488 378 234 144 101 75 54 80
internal_count=22298 4619 2596 1751 1265 486 488 378 234 144 101 75 54 80
shrinkage=0.15


Tree=255
num_leaves=15
num_cat=0
split_feature=2 22 22 18 18 38 26 22 18 24 32 14 3 20
split_gain=0.00739673 0.0456683 0.0921489 0.154254 0.25831 0.226019 0.222828 0.11909 0.112515 0.0846621 0.076327 0.0516224 0.108593 0.0431132
threshold=2.5103650000000006 3.0427950000000004 2.5246950000000008 -0.00025624299999999991 -8.8025999999999992e-07 0.00013260650000000002 -9.8339849999999986e-05 1.6390350000000002 -3.2867899999999993e-06 0.50494800000000006 -0.022047799999999996 0.0032747450000000003 -9.6926649999999981 -5.9817249999999991
decision_type=2 2 2 2 2 2 2 2 2 2 2 2 2 2
left_child=-1 2 7 -4 5 8 -6 13 -5 11 -8 12 -9 -2
right_child=1 -3 3 4 6 -7 10 9 -10 -11 -12 -13 -14 -15
leaf_value=-2.573238996080763e-05 -0.0013976184588174745 -0.0056147565388779061 -0.0073441449382225981 -0.0037164715597202756 0.012072701750793899 0.021012946573848071 -0.0091966129328983903 -0.012560793732779062 0.012003927997180393 0.0057238633887291964 0.0022008754085982218 -0.00016217448498017411 -0.0032280913507465496 0.00091482107517049018
leaf_weight=20481 215 29 25 20 23 33 39 37 21 22 20 56 116 1161
leaf_count=20481 215 29 25 20 23 33 39 37 21 22 20 56 116 1161
internal_value=0 0.000290052 0.000385824 0.00359447 0.00534745 0.0117727 -0.000450954 2.44272e-05 0.00433544 -0.00312712 -0.00533306 -0.0040588 -0.00548502 0.000553502
internal_weight=0 1817 1788 181 156 74 82 1607 41 231 59 209 153 1376
internal_count=22298 1817 1788 181 156 74 82 1607 41 231 59 209 153 1376
shrinkage=0.15


Tree=256
num_leaves=15
num_cat=0
split_feature=12 21 32 13 20 19 20 23 24 8 33 19 26 24
split_gain=0.00717314 0.0520809 0.0556831 0.158569 0.407314 0.695684 0.714885 0.14171 0.27219 0.199139 0.0841762 0.18311 0.198632 0.180632
threshold=0.00014817500000000004 -7.4522599999999999 -0.091684249999999981 1.9728250000000005e-05 1.2730250000000003 0.00062994050000000012 -1.4322999999999997 -13.844799999999998 -0.24519399999999997 -1.4070649999999999e-05 -8.0373449999999982e-06 0.00018511750000000003 -0.00023404449999999996 -0.20980899999999997
decision_type=2 2 2 2 2 2 2 2 2 2 2 2 2 2
left_child=-1 -2 3 4 5 6 -3 8 -7 -9 11 12 -5 -14
right_child=1 2 -4 10 -6 7 -8 9 -10 -11 -12 -13 13 -15
leaf_value=-3.924357405192165e-05 0.0015404685842316545 0.0088728020516679277 -0.00041116597427684785 -0.0036562297903203768 -0.0037808444699718772 -0.0036410724627785386 0.044275768130319193 0.0032836648830102361 0.020809808566700668 -0.0149172690433001 -0.0015780600366177931 -0.00064734358347492027 0.0036456875978037712 0.021044365599839788
leaf_weight=18386 548 33 2443 23 90 21 21 38 20 21 409 191 25 29
leaf_count=18386 548 33 2443 23 90 21 21 38 20 21 409 191 25 29
internal_value=0 0.000184441 -3.64579e-05 0.000957475 0.00423593 0.00892106 0.0226406 0.0015125 0.00828619 -0.00319463 -0.000224127 0.00184214 0.00801734 0.0129894
internal_weight=0 3912 3364 921 244 154 54 100 41 59 677 268 77 54
internal_count=22298 3912 3364 921 244 154 54 100 41 59 677 268 77 54
shrinkage=0.15


Tree=257
num_leaves=15
num_cat=0
split_feature=16 21 1 3 23 3 4 39 14 23 2 22 13 19
split_gain=0.00809056 0.0182094 0.106247 0.137909 0.821355 0.128771 0.133272 0.1329 0.125074 0.088169 0.0818492 0.094217 0.385312 0.345685
threshold=-1.1726349999999998e-05 -5.7425949999999988 -5.7527549999999996 -10.544849999999999 -10.511199999999997 -6.0183449999999992 0.43777950000000004 0.0059673100000000008 0.0016949550000000002 -10.709549999999998 2.3150750000000007 -1.4951299999999998 -1.2673249999999998e-06 8.1708200000000029e-06
decision_type=2 2 2 2 2 2 2 2 2 2 2 2 2 2
left_child=-1 2 3 4 -2 6 7 8 10 -10 11 13 -13 -4
right_child=1 -3 5 -5 -6 -7 -8 -9 9 -11 -12 12 -14 -15
leaf_value=0.00019664318349484593 0.024864889543719723 3.6323405103716371e-05 -0.0083674599976212762 0.00037148536732391869 -0.0032118367710852547 0.0013175403908998846 0.0008693888152192812 0.0017792501829509613 -0.0057406459798078338 0.00034124241074526225 -2.3880187975865896e-05 -0.0079020919314767152 0.00085959820734772692 0.00020082462639865381
leaf_weight=3887 35 14471 296 1010 71 519 500 197 61 444 153 177 312 165
leaf_count=3887 35 14471 296 1010 71 519 500 197 61 444 153 177 312 165
internal_value=0 -4.15161e-05 -0.000327408 0.000911676 0.00605878 -0.000817075 -0.00129771 -0.00189801 -0.00234853 -0.000393402 -0.00324366 -0.00376222 -0.00231181 -0.00530072
internal_weight=0 18411 3940 1116 106 2824 2305 1805 1608 505 1103 950 489 461
internal_count=22298 18411 3940 1116 106 2824 2305 1805 1608 505 1103 950 489 461
shrinkage=0.15


Tree=258
num_leaves=15
num_cat=0
split_feature=5 24 32 1 24 28 2 8 23 0 3 24 19 34
split_gain=0.00802163 0.08216 0.0649525 0.132381 0.10681 0.0834712 0.107481 0.0979948 0.25041 0.310575 0.0915488 0.0750912 0.0736938 0.0715414
threshold=8.8041250000000027e-06 -0.27434399999999992 -0.025499399999999995 5.0567350000000006 -0.23322699999999999 -0.0022530449999999995 -2.8543249999999998 4.2124000000000014e-06 -10.628099999999998 -1.5586149999999999 -12.629099999999998 0.1816885 2.5573700000000003e-06 0.20270750000000001
decision_type=2 2 2 2 2 2 2 2 2 2 2 2 2 2
left_child=1 -1 3 11 -4 7 -7 -6 9 -9 -11 -3 -10 -13
right_child=-2 2 4 -5 5 6 -8 8 12 10 -12 13 -14 -15
leaf_value=-0.0019157861325909218 -2.4786009521415147e-05 -0.0024992949034100039 0.011762762127656732 0.0094989604069269252 -0.001565389190030449 0.014051975870970635 0.0026391266445045195 0.021153896617179268 -0.0069898965970113325 0.0086351150944311578 -0.0034044963744236157 0.0049752833446876903 0.00099730583926020059 -0.0014807756831188026
leaf_weight=298 20725 303 23 28 288 20 259 30 41 27 30 73 71 82
leaf_count=298 20725 303 23 28 288 20 259 30 41 27 30 73 71 82
internal_value=0 0.000326567 0.000850662 -0.000513464 0.00169092 0.0013885 0.00345725 0.000203329 0.00276308 0.00880035 0.00229848 -0.00112558 -0.00192658 0.00155982
internal_weight=0 1573 1275 486 789 766 279 487 199 87 57 458 112 155
internal_count=22298 1573 1275 486 789 766 279 487 199 87 57 458 112 155
shrinkage=0.15


Tree=259
num_leaves=15
num_cat=0
split_feature=0 31 20 5 21 17 5 5 21 19 21 5 29 39
split_gain=0.0075526 0.0522316 0.118109 0.16729 0.16661 0.0997962 0.0878328 0.0813897 0.0764108 0.121409 0.067337 0.0407277 0.0657011 0.0815381
threshold=-8.2936799999999984 0.015932000000000005 -8.5909699999999987 1.3283600000000001e-05 0.81473100000000009 3.6942600000000004e-07 1.5049050000000001e-05 1.6785700000000001e-05 -4.3842199999999991 0.00014996100000000002 0.38053450000000005 9.1286900000000005e-06 0.0042239400000000007 8.8485300000000012e-05
decision_type=2 2 2 2 2 2 2 2 2 2 2 2 2 2
left_child=1 -1 3 4 5 -3 -5 -8 9 -9 -10 12 -4 -14
right_child=-2 2 11 6 -6 -7 7 8 10 -11 -12 -13 13 -15
leaf_value=0.00078620358513770258 -3.3533021757499325e-05 0.017348437786430998 0.0028420431003905833 -0.0061771570789543066 -0.0020345025291719919 0.0051334854129688919 0.0094410662979498728 0.013797410259721799 -0.0058000438897711729 -0.0021824030939530093 0.0021761951764347029 -0.0010295942390282815 -0.012973710131856412 -0.0018066768104495901
leaf_weight=1627 19431 34 20 44 28 27 24 20 55 23 42 864 28 31
leaf_count=1627 19431 34 20 44 28 27 24 20 55 23 42 864 28 31
internal_value=0 0.000227269 -0.000506107 0.00210245 0.00754477 0.0119418 -0.000226243 0.00137034 -1.32092e-05 0.00525007 -0.00234641 -0.00132768 -0.00458772 -0.00710629
internal_weight=0 2867 1240 297 89 61 208 164 140 43 97 943 79 59
internal_count=22298 2867 1240 297 89 61 208 164 140 43 97 943 79 59
shrinkage=0.15


Tree=260
num_leaves=15
num_cat=0
split_feature=8 20 21 5 21 23 10 10 20 10 21 28 21 20
split_gain=0.00722508 0.0590013 0.0503545 0.0475433 0.0646452 0.0412306 0.0662308 0.047903 0.214599 0.0403441 0.0210524 0.0197515 0.0449491 0.0375726
threshold=-2.6429649999999995e-05 4.7828350000000013 13.228000000000002 2.6613700000000002e-05 5.2304250000000012 -7.1876599999999993 4.4225250000000008e-05 3.2846550000000008e-05 -1.7617049999999999 3.1564050000000008e-05 0.25246300000000005 0.0065513600000000009 8.6680700000000019 -4.4940249999999997
decision_type=2 2 2 2 2 2 2 2 2 2 2 2 2 2
left_child=1 2 3 4 -1 7 -7 8 -5 -3 -8 12 -9 -13
right_child=-2 9 -4 5 -6 6 10 11 -10 -11 -12 13 -14 -15
leaf_value=0.0012704811406365477 -2.3635644019315873e-05 -0.0068660961526732607 0.0068528734568145963 -0.0025023708403750788 0.01080501588548941 -0.0080013825790956616 0.0015189061704458094 0.00079210100660890052 0.017012152243114542 -0.00078214625141046986 -0.0024481665621149461 0.0026726032036681465 0.007561463186021169 -0.0015827636772652142
leaf_weight=48 20711 26 31 32 24 31 68 546 21 432 54 62 23 189
leaf_count=48 20711 26 31 32 24 31 68 546 21 432 54 62 23 189
internal_value=0 0.000308455 0.000890986 0.000722663 0.00444866 0.00046119 -0.00181018 0.000859266 0.0052298 -0.00112752 -0.000237011 0.00057678 0.00106573 -0.000531637
internal_weight=0 1587 1129 1098 72 1026 153 873 53 458 122 820 569 251
internal_count=22298 1587 1129 1098 72 1026 153 873 53 458 122 820 569 251
shrinkage=0.15


Tree=261
num_leaves=15
num_cat=0
split_feature=2 29 23 22 5 22 2 33 11 29 22 8 8 28
split_gain=0.0069821 0.0211108 0.0197724 0.0260935 0.00686416 0.0442932 0.110573 0.177498 0.630512 0.661537 0.132269 0.149844 0.0702506 0.166303
threshold=3.0568150000000007 0.0070091150000000007 -8.1980949999999986 0.21877800000000003 1.1439400000000003e-05 0.86529700000000009 0.87208400000000008 -3.0503249999999999e-06 3.1632750000000002e-06 -0.0050750449999999994 1.775965 -2.0079799999999995e-06 -1.0732099999999998e-05 0.0070671550000000012
decision_type=2 2 2 2 2 2 2 2 2 2 2 2 2 2
left_child=4 2 3 -2 5 -1 10 8 -8 -10 11 -7 13 -9
right_child=1 -3 -4 -5 -6 6 7 12 9 -11 -12 -13 -14 -15
leaf_value=0.00046112005986805873 0.00066355330104431078 0.0043733138561947273 0.0026218349602109251 -0.0058277212087969842 -5.4191630552735084e-05 -0.0077502248308752679 -9.7002798015480578e-05 -0.0044248730463620559 0.002019359772093594 0.04013785640709102 7.1829532220363029e-05 -0.001711902616263033 -0.00085906911394673568 0.01151153630695155
leaf_weight=3485 38 33 39 22 16707 117 116 26 20 21 750 441 449 34
leaf_count=3485 38 33 39 22 16707 117 116 26 20 21 750 441 449 34
internal_value=0 0.0010877 -7.50786e-06 -0.00171658 -6.47731e-06 0.00013955 -0.000428166 0.00114513 0.00555433 0.0215435 -0.00122925 -0.002978 -0.000214885 0.00460576
internal_weight=0 132 99 60 22166 5459 1974 666 157 41 1308 558 509 60
internal_count=22298 132 99 60 22166 5459 1974 666 157 41 1308 558 509 60
shrinkage=0.15


Tree=262
num_leaves=15
num_cat=0
split_feature=23 3 19 4 25 30 19 37 33 24 3 21 13 3
split_gain=0.00760375 0.050554 0.0400253 0.0496265 0.108121 0.0711056 0.0999918 0.0647449 0.0918918 0.0841909 0.264522 0.0468913 0.0425015 0.0385448
threshold=-7.1566449999999993 -13.373099999999999 5.9416200000000008e-09 -0.034778199999999988 0.17207800000000004 0.00080032300000000014 1.3697700000000001e-09 -2.1911099999999999e-08 -4.3640899999999996e-06 0.070001250000000001 -6.0183449999999992 -4.3842199999999991 1.4039500000000002e-05 -9.8557949999999988
decision_type=2 2 2 2 2 2 2 2 2 2 2 2 2 2
left_child=13 -2 3 4 -3 6 -6 -5 -9 12 -11 -8 -10 -1
right_child=1 2 -4 7 5 -7 11 8 9 10 -12 -13 -14 -15
leaf_value=-0.00033815548411040398 0.0013111964455444906 0.0063941564311140349 0.0001198830500963063 -0.0028893381304909336 -0.014129308259791949 -2.1857973372722726e-05 0.0016725222220305691 -0.0061273574363440277 -0.0037618713383562861 0.020579944263127717 -0.0024267074935462167 -0.0071649808716444698 0.0036303375860110721 0.00012243478362068146
leaf_weight=6418 736 21 3477 111 33 41 22 26 30 22 23 35 42 11261
leaf_count=6418 736 21 3477 111 33 41 22 26 30 22 23 35 42 11261
internal_value=0 0.000171367 -4.46811e-05 -0.00145402 -0.0035978 -0.00519956 -0.00755829 -0.000171123 0.00193882 0.0037313 0.00882099 -0.00375401 0.000550251 -4.47731e-05
internal_weight=0 4619 3883 406 152 131 90 254 143 117 45 57 72 17679
internal_count=22298 4619 3883 406 152 131 90 254 143 117 45 57 72 17679
shrinkage=0.15


Tree=263
num_leaves=15
num_cat=0
split_feature=23 3 3 0 29 7 29 3 20 14 36 23 16 19
split_gain=0.0070487 0.0330007 0.0607969 0.0197525 0.0211978 0.023064 0.0158196 0.0240425 0.015819 0.0153763 0.0126815 0.0118009 0.0108799 0.0137438
threshold=-18.671999999999993 -17.219549999999995 -16.017899999999994 -3.0331349999999992 -0.020918849999999999 2.9073450000000005e-05 0.0096774200000000008 -6.1226049999999992 -6.625424999999999 0.0033998200000000004 -0.11649999999999998 -19.226799999999997 -3.7236799999999994e-07 2.4071900000000006e-05
decision_type=2 2 2 2 2 2 2 2 2 2 2 2 2 2
left_child=1 -1 -3 4 -4 -6 10 9 -7 -8 -5 -11 13 -10
right_child=-2 2 3 6 5 8 7 -9 12 11 -12 -13 -14 -15
leaf_value=0.0053031739781727082 -1.7255982254938428e-05 -0.0061735039125778712 0.002064905781589914 0.0023236047274515252 -0.0057134718115610834 -0.0035088469187030571 0.0036827278544944594 -0.00082381081507048931 -0.0045671057937267633 -3.2248654315480961e-05 -0.00031834468084181356 0.0038282472614664586 0.0011169398474885383 -0.00024971721554432902
leaf_weight=30 21402 32 60 51 22 36 123 59 21 62 206 25 90 79
leaf_count=30 21402 32 60 51 22 36 123 59 21 62 206 25 90 79
internal_value=0 0.000412179 0.000242745 0.000488932 -0.000465042 -0.00107713 0.00104753 0.00185159 -0.0006258 0.00260325 0.000205933 0.00107709 -7.95384e-05 -0.00115637
internal_weight=0 896 866 834 308 248 526 269 226 210 257 87 190 100
internal_count=22298 896 866 834 308 248 526 269 226 210 257 87 190 100
shrinkage=0.15


Tree=264
num_leaves=15
num_cat=0
split_feature=4 4 24 3 4 24 23 3 6 3 23 24 34 16
split_gain=0.00679237 0.0135439 0.172329 0.143901 0.158943 0.267401 0.121994 0.114108 0.0969619 0.0897259 0.205054 0.209034 0.225596 0.162299
threshold=-1.7843149999999997 -0.07300944999999999 0.095676050000000012 -6.795914999999999 -0.15315299999999996 0.27674800000000005 -7.0941599999999996 -5.9574799999999994 -5.0320249999999995e-06 -6.9241599999999996 -6.9149849999999988 -0.11751549999999998 0.015237550000000001 8.3700250000000006e-07
decision_type=2 2 2 2 2 2 2 2 2 2 2 2 2 2
left_child=-1 2 9 4 -4 8 -5 -8 -6 -2 -11 12 -12 -14
right_child=1 -3 3 6 5 -7 7 -9 -10 10 11 -13 13 -15
leaf_value=0.00019734290915473274 0.00097195311556330004 5.2863213815457193e-05 -0.0010889632762690657 0.0012343832721023165 -0.016916428649398896 0.00058005944380125536 -0.010298659371827463 -0.00029719373249628749 -0.0063291972861085578 -0.001733940960481337 0.019347751233726739 -0.00043199221484001207 -0.00059197456326468717 0.013748874950956983
leaf_weight=3337 2420 12834 1293 691 21 158 42 66 266 893 29 166 56 26
leaf_count=3337 2420 12834 1293 691 21 158 42 66 266 893 29 166 56 26
internal_value=0 -3.47309e-05 -0.000218211 -0.00116452 -0.00193049 -0.00437565 0.000501627 -0.00418665 -0.00710387 0.000450532 -0.000627962 0.00293752 0.00797662 0.00395512
internal_weight=0 18961 6127 2537 1738 445 799 108 287 3590 1170 277 111 82
internal_count=22298 18961 6127 2537 1738 445 799 108 287 3590 1170 277 111 82
shrinkage=0.15


Tree=265
num_leaves=15
num_cat=0
split_feature=38 4 4 3 23 34 26 19 21 1 1 35 21 1
split_gain=0.00813351 0.113844 0.129824 0.27841 0.768844 1.06227 0.465987 0.452485 0.409797 2.87338 1.35553 0.470231 0.44176 0.489457
threshold=6.7990150000000015e-05 0.034774250000000007 0.18917350000000002 -7.9279049999999991 -8.059409999999998 0.065668900000000016 -5.1743499999999997e-05 0.0028240300000000004 3.5232400000000004 4.052690000000001 3.4731800000000006 0.00020090650000000003 -5.2057099999999989 -3.7123699999999995
decision_type=2 2 2 2 2 2 2 2 2 2 2 2 2 2
left_child=1 -1 3 4 5 6 7 8 10 -10 12 -11 -3 -14
right_child=-2 2 -4 -5 -6 -7 -8 -9 9 11 -12 -13 13 -15
leaf_value=-0.00035174120411291801 -0.00010034662573836984 0.039293417515000324 -8.9965048707374339e-06 9.3382105520089202e-05 -0.0022221991586011212 -7.6552631629314547e-05 -0.0077509462934635259 -0.0020783648360520601 -0.0042241167092015534 0.058979130103086516 -0.0092498804353454023 0.032899344842880963 0.00034878644705064029 0.025951975123358093
leaf_weight=6461 10013 24 3526 1380 338 271 23 33 48 28 48 35 28 42
leaf_count=6461 10013 24 3526 1380 338 271 23 33 48 28 48 35 28 42
internal_value=0 8.17884e-05 0.000562735 0.00143999 0.0034643 0.00677815 0.0127899 0.0144418 0.0165966 0.0234246 0.0112591 0.0444904 0.0217318 0.0157107
internal_weight=0 12285 5824 2298 918 580 309 286 253 111 142 63 94 70
internal_count=22298 12285 5824 2298 918 580 309 286 253 111 142 63 94 70
shrinkage=0.15


Tree=266
num_leaves=15
num_cat=0
split_feature=23 19 19 21 34 20 3 3 14 16 1 32 28 35
split_gain=0.00805451 0.0515884 0.0627231 0.236887 0.0845821 0.0576579 0.0524577 0.0654234 0.0506483 0.0533582 0.0650131 0.0773453 0.0716529 0.0647028
threshold=-7.86991 3.4500700000000007e-09 4.7230050000000011e-09 7.8746950000000009 0.013035050000000001 8.1619350000000015 -6.3760599999999998 -7.9004899999999987 4.3746600000000006e-05 -6.2819249999999995e-08 -6.2593649999999998 -0.040839899999999991 -0.0048893649999999988 -0.00020296399999999995
decision_type=2 2 2 2 2 2 2 2 2 2 2 2 2 2
left_child=-1 5 3 4 -3 8 7 -7 -2 13 12 -12 -11 -10
right_child=1 2 -4 -5 -6 6 -8 -9 9 10 11 -13 -14 -15
leaf_value=-6.0513746039635418e-05 0.0012719293253187947 -0.0058983018592698496 0.00018985038238842047 0.01729727264863196 0.0050954272476730926 -0.0013544278352388313 -0.0019714821559149599 0.0094890615537634952 0.0075067348711724789 -0.015061394019943216 -0.0077895536499658635 -0.00074226829005410988 -0.0042210734950940063 -0.0025417712208487186
leaf_weight=15372 74 32 6375 23 31 21 43 31 21 23 49 123 34 46
leaf_count=15372 74 32 6375 23 31 21 43 31 21 23 49 123 34 46
internal_value=0 0.000134308 0.000244133 0.00426802 -0.000488689 -0.00139167 0.00190468 0.00510996 -0.00223804 -0.00311553 -0.00420487 -0.00274993 -0.00859524 0.000607761
internal_weight=0 6926 6461 86 63 465 95 52 370 296 229 172 57 67
internal_count=22298 6926 6461 86 63 465 95 52 370 296 229 172 57 67
shrinkage=0.15


Tree=267
num_leaves=15
num_cat=0
split_feature=14 38 35 18 4 7 29 17 0 20 35 14 39 20
split_gain=0.00764697 0.027706 0.0357765 0.0473651 0.0513222 0.0459544 0.0551124 0.0750335 0.0423953 0.0548122 0.0509704 0.0781319 0.0527265 0.0480794
threshold=0.00010145900000000002 0.00042738950000000003 -0.00018835999999999997 3.5185750000000001e-07 0.099367200000000017 5.3632550000000009e-05 -0.005393059999999999 1.2050150000000002e-07 -9.2655099999999972 -10.944549999999998 -9.6976749999999986e-06 7.1712500000000002e-05 9.5885350000000014e-07 -10.016549999999997
decision_type=2 2 2 2 2 2 2 2 2 2 2 2 2 2
left_child=1 2 3 4 5 6 7 -1 13 -10 11 -11 -13 -4
right_child=-2 -3 8 -5 -6 -7 -8 -9 9 10 -12 12 -14 -15
leaf_value=0.001068014559103176 -4.1919054942570584e-05 0.00076530140771761284 0.0074009997360205849 -0.001949342375829419 0.0076240913425572217 -0.00064144022734560411 0.0011101928643739848 0.013394524325412931 -0.0077966894508930493 -0.00095839013935072534 -0.00041974504996936042 -0.013422678667914375 -0.0041952985072145422 0.00036057147961281633
leaf_weight=25 18162 1276 23 149 25 352 621 20 26 121 1011 22 38 427
leaf_count=25 18162 1276 23 149 25 352 621 20 26 121 1011 22 38 427
internal_value=0 0.000184075 -7.52415e-05 0.000552336 0.000909718 0.000744827 0.00147751 0.00654646 -0.000523726 -0.000983384 -0.000834772 -0.00315296 -0.00757867 0.000720416
internal_weight=0 4136 2860 1192 1043 1018 666 45 1668 1218 1192 181 60 450
internal_count=22298 4136 2860 1192 1043 1018 666 45 1668 1218 1192 181 60 450
shrinkage=0.15


Tree=268
num_leaves=15
num_cat=0
split_feature=4 26 18 3 4 10 32 27 21 1 22 17 39 25
split_gain=0.00757617 0.0133623 0.0130998 0.0195302 0.0269307 0.0130503 0.0122428 0.0125024 0.0112891 0.014178 0.012051 0.0111906 0.0227945 0.0245883
threshold=-1.7843149999999997 0.00015816050000000003 -0.0011345849999999998 -9.5215949999999996 -3.2479799999999996 0.00015066200000000003 3.4713550000000004 22.199000000000002 8.0172650000000019 6.7235000000000005 -2.7240749999999996 -1.1107649999999997e-05 0.011517250000000001 5.1846950000000005
decision_type=2 2 2 2 2 2 2 2 2 2 2 2 2 2
left_child=1 2 6 4 -4 -3 7 -1 10 -10 -5 12 13 -2
right_child=11 5 3 8 -6 -7 -8 -9 9 -11 -12 -13 -14 -15
leaf_value=0.00019165155458777226 0.00087613126803609315 -0.0002837376201280657 0.0013182470931813284 -0.0026235051550611388 0.0076991107388907527 -0.0031737054996100549 -0.0024538828785387943 0.0037849911464780399 0.0006727617842933306 -0.003798772602102771 0.0011559489345422699 -5.2505953152855206e-05 0.0055942195035251123 -0.0039299272305260485
leaf_weight=2241 304 470 46 20 22 38 39 22 39 27 373 18610 21 26
leaf_count=2241 304 470 46 20 22 38 39 22 39 27 373 18610 21 26
internal_value=0 0.000208418 0.000335613 0.00101023 0.00338264 -0.000499916 0.000181173 0.000226585 0.000658758 -0.0011565 0.00096361 -3.66801e-05 0.000802406 0.000497472
internal_weight=0 3337 2829 527 68 508 2302 2263 459 66 393 18961 351 330
internal_count=22298 3337 2829 527 68 508 2302 2263 459 66 393 18961 351 330
shrinkage=0.15


Tree=269
num_leaves=15
num_cat=0
split_feature=22 18 9 14 12 31 3 19 32 35 34 3 21 21
split_gain=0.00706281 0.0131824 0.0201163 0.0121437 0.00701319 0.0319793 0.025491 0.0179714 0.169722 0.125002 0.0573022 0.0315724 0.0183943 0.0485642
threshold=-3.1103099999999997 4.3066150000000005e-08 -1.3167649999999998e-05 0.0021166150000000005 -0.00028365249999999991 2.8789250000000002 -13.799749999999998 9.9003350000000012e-05 0.13072900000000001 0.00036867600000000002 0.11402900000000001 -14.226749999999997 -3.8987349999999998 -3.7012149999999995
decision_type=2 2 2 2 2 2 2 2 2 2 2 2 2 2
left_child=1 2 -1 -3 5 7 -7 8 10 -10 11 -2 -9 -14
right_child=4 3 -4 -5 -6 6 -8 12 9 -11 -12 -13 13 -15
leaf_value=-0.0038692758603825822 0.0029274864449689631 0.0058818387458450163 0.0019191139213736667 0.0010424181956165868 -3.693038344271201e-05 -0.0065971738145050871 -0.00086296196070505618 -0.00038365564942300013 0.018255282531026751 0.0016854677078663371 -0.006120600115640887 -0.0036090035573579371 0.0068077790727127446 0.00039301044189758922
leaf_weight=22 60 20 35 28 19532 26 53 787 21 20 35 23 27 1609
leaf_count=22 60 20 35 28 19532 26 53 787 21 20 35 23 27 1609
internal_value=0 0.00122733 -0.000315001 0.00305884 -5.80676e-06 0.000222644 -0.00275017 0.000313601 0.00185844 0.0101724 -0.00103033 0.00111617 0.000212227 0.000498878
internal_weight=0 105 57 48 22193 2661 79 2582 159 41 118 83 2423 1636
internal_count=22298 105 57 48 22193 2661 79 2582 159 41 118 83 2423 1636
shrinkage=0.15


Tree=270
num_leaves=15
num_cat=0
split_feature=5 25 22 26 37 2 21 36 7 36 11 24 36 9
split_gain=0.00770914 0.0473814 0.0799319 0.0959109 0.196956 0.052029 0.0667848 0.0612635 0.0507644 0.0488092 0.0390162 0.0449173 0.0417625 0.0337567
threshold=7.7110250000000013e-06 0.33087450000000002 -2.3514699999999995 6.1593200000000005e-05 -2.6595299999999997e-08 -2.2968099999999994 -3.6498049999999993 -0.044125399999999995 2.9472650000000003e-05 -0.0028209649999999995 1.6815150000000001e-05 -0.10592599999999998 0.00021108800000000004 2.671945e-05
decision_type=2 2 2 2 2 2 2 2 2 2 2 2 2 2
left_child=1 2 -1 10 -5 6 -3 -7 -8 -9 11 -4 -12 -13
right_child=-2 5 3 4 -6 7 8 9 -10 -11 12 13 -14 -15
leaf_value=0.0092368409480719314 -1.4091198890773733e-05 -0.011706606005318464 -0.0077631776774069296 -0.0022542719808370747 0.017394613542340016 0.0073297744095325466 -0.0065423187939450149 -0.0053987440417251108 0.0040170595987417202 0.00049546746231112111 0.0083148816623725003 0.00084088758205325576 -0.001155836647376418 -0.0060489842004608357
leaf_weight=31 21743 20 24 24 22 25 20 38 21 188 20 80 22 20
leaf_count=31 21743 20 24 24 22 25 20 38 21 188 20 80 22 20
internal_value=0 0.000552045 0.00212249 0.00108219 0.00714302 -0.000671091 -0.00460033 0.000283825 -0.00113386 -0.000495595 -0.000597324 -0.00193569 0.00335403 -0.000537087
internal_weight=0 555 243 212 46 312 61 251 41 226 166 124 42 100
internal_count=22298 555 243 212 46 312 61 251 41 226 166 124 42 100
shrinkage=0.15


Tree=271
num_leaves=15
num_cat=0
split_feature=1 21 3 28 23 3 33 21 3 21 8 16 5 14
split_gain=0.00720261 0.0604719 0.122282 0.0612934 0.0297619 0.0471459 0.0679946 0.0254562 0.0268249 0.0134261 0.0663025 0.113377 0.125973 0.0799293
threshold=-11.277949999999999 -12.002549999999998 -5.9150349999999987 -0.0014389649999999997 -8.8982099999999971 -5.9773749999999994 -2.4488549999999994e-06 8.7444350000000011 -6.0660849999999993 -12.002549999999998 1.4299250000000002e-05 7.5363400000000006e-07 2.7425650000000004e-05 0.0010172550000000001
decision_type=2 2 2 2 2 2 2 2 2 2 2 2 2 2
left_child=1 2 -1 4 -3 6 -6 -5 -9 10 -2 12 -12 -13
right_child=9 3 -4 7 5 -7 -8 8 -10 -11 11 13 -14 -15
leaf_value=0.014110420963593891 9.9252072800481987e-07 -0.00014050550956640421 -0.0015629958972567693 0.0015631737131579424 -0.012457668554144102 -0.0011229186894685401 -0.0016935012866592695 -0.005578420422336256 0.0002017567154204095 3.7661664156595235e-07 -0.015209018166229549 0.0073430803561400941 6.0269654786679896e-05 -0.0041759910348363599
leaf_weight=21 512 307 24 530 23 153 31 22 101 20467 31 23 20 33
leaf_count=21 512 307 24 530 23 153 31 22 101 20467 31 23 20 33
internal_value=0 0.00035559 0.00575127 0.00014753 -0.00107776 -0.00246778 -0.00627824 0.001112 -0.000832096 -2.04389e-05 -0.000708696 -0.00410459 -0.00922106 0.000555056
internal_weight=0 1212 45 1167 514 207 54 653 123 21086 619 107 51 56
internal_count=22298 1212 45 1167 514 207 54 653 123 21086 619 107 51 56
shrinkage=0.15


Tree=272
num_leaves=15
num_cat=0
split_feature=23 3 19 37 3 3 16 38 12 8 26 3 3 23
split_gain=0.00785682 0.0474841 0.039643 0.0723334 0.0524676 0.071505 0.0467302 0.0773693 0.0722742 0.0528453 0.0913082 0.038419 0.243321 1.00978
threshold=-7.86991 -14.700899999999999 1.3697700000000001e-09 -5.5813049999999994e-08 -6.3033449999999993 -7.9004899999999987 -4.7839449999999994e-08 2.0584100000000002e-05 3.737620000000001e-05 -1.8782049999999997e-05 -6.627739999999999e-05 -7.7516049999999987 -6.9667699999999995 -7.0012099999999995
decision_type=2 2 2 2 2 2 2 2 2 2 2 2 2 2
left_child=-1 -2 3 4 5 -3 -5 9 -9 -8 -11 -4 13 -13
right_child=1 2 11 6 -6 -7 7 8 -10 10 -12 12 -14 -15
leaf_value=-5.9766499148258177e-05 0.0013162449996816257 -0.0031363250199525107 -0.00027637637324742819 0.00365124744914485 -0.00048623113160085099 -0.013803011089867841 -0.011322604272281751 -0.0013726666499981851 0.0098736613811342966 -0.0075856577199374439 0.0046537232381524511 0.0096152143227797495 -0.00026636331759091015 -0.0023965102031659078
leaf_weight=15372 687 31 3148 54 33 26 20 36 20 32 24 289 2180 346
leaf_count=15372 687 31 3148 54 33 26 20 36 20 32 24 289 2180 346
internal_value=0 0.00013265 2.31934e-06 -0.00175518 -0.00524611 -0.00800183 -6.60171e-05 -0.00158672 0.00264388 -0.004704 -0.00234021 8.36659e-05 0.000486299 0.00307024
internal_weight=0 6926 6239 276 90 57 186 132 56 76 56 5963 2815 635
internal_count=22298 6926 6239 276 90 57 186 132 56 76 56 5963 2815 635
shrinkage=0.15


Tree=273
num_leaves=15
num_cat=0
split_feature=23 1 26 38 1 14 14 23 20 4 36 6 29 39
split_gain=0.0102843 0.0294545 0.0603934 0.0769243 0.0387089 0.0272457 0.0361305 0.0951454 0.112185 0.139818 0.109671 0.155436 0.125738 0.122421
threshold=-7.1566449999999993 -11.965149999999998 -5.5229049999999993e-05 -7.1974899999999981e-05 -12.475549999999998 0.00010832200000000001 0.00014375200000000003 -9.8554249999999985 7.5974850000000007 0.053887550000000006 0.00032938950000000004 4.903530000000001e-06 0.0072089100000000007 1.1973200000000003e-06
decision_type=2 2 2 2 2 2 2 2 2 2 2 2 2 2
left_child=5 2 3 -2 -4 -1 7 -7 10 -10 11 12 13 -9
right_child=1 -3 4 -5 -6 6 -8 8 9 -11 -12 -13 -14 -15
leaf_value=0.00032582900433107291 -0.0016980252513894812 0.00027666842614124549 -0.0009496928556051755 -0.012520906205265253 0.0059085313271245226 0.0003348671795437769 -8.3563960360311917e-05 0.0085134527286175963 0.0085650342382275705 -0.0041364921132089174 -0.0078376817068936729 -0.010371391655532464 0.010210082940466237 -0.0038131681066040329
leaf_weight=3454 45 4434 95 22 23 470 13375 22 39 39 114 39 24 103
leaf_count=3454 45 4434 95 22 23 470 13375 22 39 39 114 39 24 103
internal_value=0 0.000199297 -0.00165511 -0.00525181 0.00038708 -5.20704e-05 -0.000143829 -0.00109211 -0.00285707 0.00221427 -0.00416688 -0.00194097 0.000265649 -0.00164368
internal_weight=0 4619 185 67 118 17679 14225 850 380 78 302 188 149 125
internal_count=22298 4619 185 67 118 17679 14225 850 380 78 302 188 149 125
shrinkage=0.15


Tree=274
num_leaves=15
num_cat=0
split_feature=23 3 16 36 3 7 14 25 6 33 16 33 25 20
split_gain=0.0074304 0.0328997 0.0631143 0.137517 0.142494 0.142401 0.177646 0.217746 0.248641 0.285308 0.237906 0.187105 0.162158 0.161688
threshold=-7.1566449999999993 -8.8436099999999982 2.0667650000000001e-08 -0.00016481099999999998 -7.1259249999999996 6.130810000000001e-05 7.4677250000000007e-05 0.44203950000000009 -1.3363599999999998e-06 -3.1858049999999996e-06 1.3219200000000002e-07 -1.8957199999999998e-06 0.9355785000000002 8.504920000000002
decision_type=2 2 2 2 2 2 2 2 2 2 2 2 2 2
left_child=-1 -2 -3 -4 -5 6 13 10 11 -10 -8 -9 -11 -6
right_child=1 2 3 4 5 -7 7 8 9 12 -12 -13 -14 -15
leaf_value=-4.4259824373341249e-05 0.00062289197517404013 -0.00090725737101557229 -0.0020402561059771635 -0.00092715532104586126 -0.0031720517121108347 -0.00028131383539957601 0.012911464987487039 0.027565808916978279 -0.0092335648729931549 0.001502399501041509 -0.0021535753093645891 0.008974503965250083 0.018939341949298978 0.0067240814240382158
leaf_weight=17679 2023 1327 334 343 95 205 34 29 20 20 77 21 30 61
leaf_count=17679 2023 1327 334 343 95 205 34 29 20 20 77 21 30 61
internal_value=0 0.000169402 -0.000183991 0.000572332 0.0015056 0.00291512 0.00460832 0.00724933 0.0116786 0.00590796 0.00246094 0.0197575 0.0119646 0.00069759
internal_weight=0 4619 2596 1269 935 592 387 231 120 70 111 50 50 156
internal_count=22298 4619 2596 1269 935 592 387 231 120 70 111 50 50 156
shrinkage=0.15


Tree=275
num_leaves=15
num_cat=0
split_feature=16 36 36 19 3 4 1 29 21 16 4 33 4 4
split_gain=0.0078419 0.151996 0.146959 0.171374 0.141359 0.130184 0.28309 0.560738 0.65272 0.716649 0.200085 0.403802 0.121773 0.235427
threshold=1.3949100000000004e-07 -0.00025277649999999992 -9.2020399999999991e-05 0.00023132950000000002 -6.1782649999999988 0.017115750000000002 -1.3420499999999997 -0.0025529799999999994 -0.36466749999999998 4.1022450000000009e-06 -0.29032849999999993 1.7107900000000001e-06 -0.088246799999999986 -0.66792299999999993
decision_type=2 2 2 2 2 2 2 2 2 2 2 2 2 2
left_child=1 12 3 4 -2 10 7 8 9 -7 -5 -12 13 -1
right_child=2 -3 -4 5 -6 6 -8 -9 -10 -11 11 -13 -14 -15
leaf_value=-0.0001631420764448386 -0.0029413822561166559 -0.00032184862957511075 0.00040967568742795779 0.00019209411116302632 7.3217934367164614e-05 0.039293197889558297 -5.0456857730440533e-05 -0.00084080485462289926 0.0015984734358760167 0.0038465854778353655 5.7480429781198503e-05 -0.010886002901190659 0.00018185210490599522 0.0033167439916883599
leaf_weight=805 1106 8295 5187 815 512 33 797 124 49 21 193 125 3278 958
leaf_count=805 1106 8295 5187 815 512 33 797 124 49 21 193 125 3278 958
internal_value=0 7.2922e-05 -0.000108512 -0.000820523 -0.00198744 5.48007e-05 0.00128057 0.00595383 0.0141338 0.0255084 -0.00105304 -0.0042442 0.00072252 0.0017278
internal_weight=0 13336 8962 3775 1618 2157 1024 227 103 54 1133 318 5041 1763
internal_count=22298 13336 8962 3775 1618 2157 1024 227 103 54 1133 318 5041 1763
shrinkage=0.15


Tree=276
num_leaves=15
num_cat=0
split_feature=16 28 16 29 21 4 4 1 31 13 38 26 7 33
split_gain=0.00925634 0.0180124 0.0646898 0.017603 0.0171323 0.033371 0.0387351 0.0328667 0.032697 0.113126 0.0221647 0.0221246 0.0214825 0.0405695
threshold=-1.1726349999999998e-05 0.63888450000000019 -9.5450099999999983e-05 0.31284350000000005 -3.7857749999999997 1.8394650000000003 1.6592800000000003 -3.9958949999999995 0.7439150000000001 3.2886600000000005e-05 -0.046448699999999989 -0.00016821149999999996 3.1739700000000004e-05 3.8268250000000013e-06
decision_type=2 2 2 2 2 2 2 2 2 2 2 2 2 2
left_child=1 3 -3 4 5 6 10 11 12 -10 -1 -6 13 -9
right_child=-2 2 -4 -5 7 -7 -8 8 9 -11 -12 -13 -14 -15
leaf_value=0.0051281407515614708 -4.4406495648617291e-05 -0.0029757890116889033 0.0086886643094223233 -0.0020255893779722099 -0.0012086353622994227 -0.00032643474130229354 0.0063934706119653127 -0.00070633953248427526 0.011207362861023284 -0.00074856499211265425 0.00089763487911297709 0.0010315133263850205 -0.00037325616337496176 -0.0060886543913511561
leaf_weight=29 18411 20 23 80 114 463 32 111 24 69 712 764 1402 44
leaf_count=29 18411 20 23 80 114 463 32 111 24 69 712 764 1402 44
internal_value=0 0.000210334 0.00326334 0.000176182 0.000222979 0.00068065 0.00128386 -7.88033e-07 -0.000395324 0.00233684 0.0010632 0.000740651 -0.000558516 -0.00223422
internal_weight=0 3887 43 3844 3764 1236 773 2528 1650 93 741 878 1557 155
internal_count=22298 3887 43 3844 3764 1236 773 2528 1650 93 741 878 1557 155
shrinkage=0.15


Tree=277
num_leaves=15
num_cat=0
split_feature=20 0 20 0 14 4 23 20 30 3 0 25 20 20
split_gain=0.00924646 0.0400956 0.141275 0.240297 0.45205 0.234536 0.230055 0.241131 0.25427 0.227164 0.175469 0.457181 0.32448 0.30945
threshold=-3.1714899999999999 -3.4067449999999995 -8.2413599999999985 -7.4403249999999987 0.0028691050000000003 0.39091350000000008 -16.521049999999999 -7.2012249999999991 0.0037074850000000004 -5.8532899999999985 -4.5276449999999988 0.51543650000000019 -4.9436099999999987 -5.6526349999999992
decision_type=2 2 2 2 2 2 2 2 2 2 2 2 2 2
left_child=1 2 -1 -4 5 6 -5 -8 9 10 13 12 -12 -9
right_child=-2 -3 3 4 -6 -7 7 8 -10 -11 11 -13 -14 -15
leaf_value=-0.0010091776590736973 -6.9520615118061344e-05 -0.00012306579337797592 -0.00065337132317809976 -0.0024521730120721291 -0.0010799184156337614 -0.0024465948916880319 -7.644577999599278e-05 0.014862967822544213 -0.0014828674634799778 -0.00087282774833371288 -0.0053223282564431422 0.028578957926237773 0.019343441244564021 0.0044759656467965427
leaf_weight=850 14689 4883 797 61 418 79 84 119 49 39 24 41 24 141
leaf_count=850 14689 4883 797 61 418 79 84 119 49 39 24 41 24 141
internal_value=0 0.000134208 0.000595055 0.00132192 0.00278096 0.00522248 0.00626348 0.00728393 0.00869874 0.00998456 0.0111978 0.0169466 0.00701056 0.00923002
internal_weight=0 7609 2726 1876 1079 661 582 521 437 388 349 89 48 260
internal_count=22298 7609 2726 1876 1079 661 582 521 437 388 349 89 48 260
shrinkage=0.15


Tree=278
num_leaves=15
num_cat=0
split_feature=3 34 21 19 8 26 24 17 30 19 10 1 33 33
split_gain=0.00879297 0.0306034 0.0441317 0.118219 0.133982 0.145663 0.124188 0.0732741 0.0518239 0.0634657 0.0499394 0.0511628 0.20564 0.0666433
threshold=-8.9681399999999982 0.0065072900000000006 -7.0491499999999991 2.1170350000000003e-05 8.199625000000002e-06 9.5125550000000006e-05 -0.104141 5.0846750000000005e-08 0.00013040650000000005 7.6666750000000014e-08 1.1666900000000002e-05 -6.6576299999999993 6.0877350000000009e-06 2.1345000000000001e-06
decision_type=2 2 2 2 2 2 2 2 2 2 2 2 2 2
left_child=1 -1 3 4 8 6 -6 -8 -3 -10 -5 12 -12 -13
right_child=-2 2 -4 10 5 -7 7 -9 9 -11 11 13 -14 -15
leaf_value=0.00052992500197190516 8.3767592358907056e-05 -0.0078018368585617281 -7.6605115158923836e-05 -0.0053947921707451591 -0.017636504607840574 0.001527852447831939 -0.0006867637430938581 -0.01220817236614454 0.0029635355393402276 -0.002716406123161303 -0.002080031098999565 0.0010914062180743169 0.014034356687729347 -0.0017455653593584589
leaf_weight=1452 12451 24 7212 39 35 29 27 23 75 108 49 385 28 361
leaf_count=1452 12451 24 7212 39 35 29 27 23 75 108 49 385 28 361
internal_value=0 -0.00010592 -0.000215895 -0.00106506 -0.00352228 -0.00765176 -0.0107836 -0.00598661 -0.00124807 -0.000388561 -0.000150016 9.8521e-05 0.00377975 -0.000281445
internal_weight=0 9847 8395 1183 321 114 85 50 207 183 862 823 77 746
internal_count=22298 9847 8395 1183 321 114 85 50 207 183 862 823 77 746
shrinkage=0.15


Tree=279
num_leaves=15
num_cat=0
split_feature=15 28 1 36 39 35 14 28 1 33 15 23 0 1
split_gain=0.00868089 0.0283857 0.0385929 0.109716 0.0352261 0.0719677 0.0432845 0.0350179 0.0304881 0.0320296 0.0389289 0.0557385 0.0965416 0.0634473
threshold=4.9070950000000013e-06 -0.0015760949999999998 -3.2741999999999996 0.60619650000000014 0.10736300000000001 0.077117000000000005 0.022332100000000004 -0.0018583899999999997 -4.0224749999999991 0.00038278850000000007 1.3180150000000001e-05 -12.295749999999998 3.3844200000000004 2.2554350000000003
decision_type=2 2 2 2 2 2 2 2 2 2 2 2 2 2
left_child=-1 2 3 -2 5 7 -6 -4 -3 10 11 12 -10 -14
right_child=1 8 4 -5 6 -7 -8 -9 9 -11 -12 -13 13 -15
leaf_value=-4.7447216997147859e-05 -0.00049416998823488187 0.00059616317611148881 0.00097040560512183613 0.0090534488304651207 -0.0061333703741183855 0.0076417077570043214 0.0025096970449257324 0.0070139364370499441 0.00017051516607513321 0.0043326608405914154 -0.0002916559873499379 -0.0009135276630512591 -0.016398558060297674 -0.0045935834021656767
leaf_weight=17739 825 812 1109 28 32 39 22 22 34 30 1374 191 21 20
leaf_count=17739 825 812 1109 28 32 39 22 22 34 30 1374 191 21 20
internal_value=0 0.000184616 0.000593772 -0.000180766 0.00113354 0.00130642 -0.00261212 0.00108796 -0.000157775 -0.000524361 -0.000613209 -0.00227416 -0.00573925 -0.01064
internal_weight=0 4559 2077 853 1224 1170 54 1131 2482 1670 1640 266 75 41
internal_count=22298 4559 2077 853 1224 1170 54 1131 2482 1670 1640 266 75 41
shrinkage=0.15


Tree=280
num_leaves=15
num_cat=0
split_feature=22 2 2 18 33 18 23 26 4 33 2 6 1 23
split_gain=0.00800639 0.110018 0.272045 0.160418 0.307809 0.290229 0.248858 0.261397 0.231273 0.120247 0.141877 0.117459 0.114469 0.112535
threshold=2.3909050000000005 1.5973400000000002 2.3828350000000005 -8.8025999999999992e-07 2.7049750000000007e-06 -0.00025624299999999991 -14.375449999999999 -5.905694999999999e-05 -0.12646499999999997 4.8708550000000005e-06 2.6933450000000003 7.5095950000000003e-07 9.8638700000000021 -13.790199999999997
decision_type=2 2 2 2 2 2 2 2 2 2 2 2 2 2
left_child=-1 -2 11 4 -4 -6 -7 -8 -9 10 -5 -3 13 -13
right_child=1 2 3 9 5 6 7 8 -10 -11 -12 12 -14 -15
leaf_value=-3.0489659858031316e-05 0.00086015940997290501 -0.0014144824051754766 -0.0095842237377332315 -0.0041269432769955264 -0.0046221133867924607 -0.00054890751444662989 0.0058780429651960732 0.035884714963613076 0.013597715404731306 -0.0053874528176472035 0.013525897124782204 -0.0013076064343165072 -0.0028030709481021432 -0.013807046620263785
leaf_weight=19997 1731 128 27 21 31 26 30 20 22 86 20 21 67 71
leaf_count=19997 1731 128 27 21 31 26 30 20 22 86 20 21 67 71
internal_value=0 0.000264973 -0.00154252 0.00175755 0.00497983 0.00802813 0.0120297 0.016572 0.0242106 -0.00220054 0.0044842 -0.00479658 -0.00751928 -0.0109539
internal_weight=0 2301 570 283 156 129 98 72 42 127 41 287 159 92
internal_count=22298 2301 570 283 156 129 98 72 42 127 41 287 159 92
shrinkage=0.15


Tree=281
num_leaves=15
num_cat=0
split_feature=1 21 29 28 3 23 3 5 21 1 21 3 19 21
split_gain=0.00693897 0.0405646 0.0844768 0.0417036 0.0205974 0.0186378 0.0501747 0.0168802 0.012241 0.0121001 0.214307 0.425441 0.323163 0.199419
threshold=-11.277949999999999 -12.002549999999998 -0.0012654699999999997 -0.0024349749999999994 -6.2709449999999984 -6.9302799999999989 -5.6698049999999993 2.2328200000000004e-05 8.2288750000000004 -9.9080999999999992 -9.6419749999999969 -6.4251549999999993 4.0609300000000004e-05 -5.1118849999999991
decision_type=2 2 2 2 2 2 2 2 2 2 2 2 2 2
left_child=1 2 -1 4 7 -5 8 -3 -7 10 11 12 -2 -12
right_child=9 3 -4 5 -6 6 -8 -9 -10 -11 13 -13 -14 -15
leaf_value=-0.0018769588723609393 0.024533980069381574 -0.0072489056229824199 0.011124463652199863 0.0012452734396963749 -0.00060922237224713804 -0.0024830068659503013 0.0016255879037172154 -0.0010860831738682462 -0.0077310702142676744 1.9256670133266254e-06 -0.0065538125933952661 -0.0076870498755670265 0.00076295937787191086 -0.00018163225770721794
leaf_weight=22 31 20 23 590 431 20 66 20 20 20325 139 30 22 539
leaf_count=22 31 20 23 590 431 20 66 20 20 20325 139 30 22 539
internal_value=0 0.000349021 0.00476821 0.000178615 -0.000911411 0.000916262 -0.000915026 -0.00416749 -0.00510704 -2.00613e-05 -0.000607297 0.00658707 0.0146668 -0.00148802
internal_weight=0 1212 45 1167 471 696 106 40 40 21086 761 83 53 678
internal_count=22298 1212 45 1167 471 696 106 40 40 21086 761 83 53 678
shrinkage=0.15


Tree=282
num_leaves=15
num_cat=0
split_feature=16 34 36 3 23 23 5 3 14 31 25 18 16 20
split_gain=0.00733043 0.0159092 0.0625904 0.0140573 0.0308227 0.0269631 0.0385544 0.0655184 0.0291977 0.0636749 0.0629964 0.0593564 0.0561784 0.0279472
threshold=-1.1726349999999998e-05 60.273600000000009 -1.64184 -8.7185599999999983 -8.723844999999999 -18.671999999999993 3.1353200000000003e-05 -14.101899999999999 0.0043355750000000004 0.30047200000000007 0.33843800000000007 -0.00011063699999999998 -3.115849999999999e-05 -0.26438899999999993
decision_type=2 2 2 2 2 2 2 2 2 2 2 2 2 2
left_child=1 2 -1 4 5 6 7 -4 9 10 11 -7 -12 -13
right_child=-2 -3 3 -5 -6 8 -8 -9 -10 -11 12 13 -14 -15
leaf_value=0.008580164588056504 -3.9517703249603992e-05 -0.0037461724218345533 0.0090443973742618134 0.0005291756017468893 0.00058951196779134113 -0.0060891206545859644 -0.0039886836474761368 4.8938433053767858e-05 -0.00043294183804591944 0.0048276042115916913 -0.0034580500599558409 0.0064234314862088382 -0.012720492844863865 -0.0013240152586513432
leaf_weight=20 18411 23 29 1482 969 29 20 49 1142 22 34 22 26 20
leaf_count=20 18411 23 29 1482 969 29 20 49 1142 22 34 22 26 20
internal_value=0 0.000187178 0.000210591 0.000167045 -6.0169e-05 -0.000512101 0.00188686 0.0033934 -0.000693643 -0.00263953 -0.00389356 -0.000869709 -0.00747178 0.00273417
internal_weight=0 3887 3864 3844 2362 1393 98 78 1295 153 131 71 60 42
internal_count=22298 3887 3864 3844 2362 1393 98 78 1295 153 131 71 60 42
shrinkage=0.15


Tree=283
num_leaves=15
num_cat=0
split_feature=32 17 1 12 12 1 15 3 4 12 16 33 6 19
split_gain=0.00715482 0.0540266 0.100378 0.091659 0.206335 0.0569357 0.0429533 0.0337989 0.0329436 0.0221392 0.0152305 0.0148423 0.0478799 0.0549468
threshold=-4.559359999999999 1.0195050000000003e-06 3.3642200000000004 0.00010647200000000002 0.00021062400000000005 -5.7527549999999996 -1.615345e-06 -6.0183449999999992 0.90505000000000013 -1.5336149999999997e-05 4.5882950000000008e-07 -7.6517199999999986e-05 1.6852700000000002e-06 4.0609300000000004e-05
decision_type=2 2 2 2 2 2 2 2 2 2 2 2 2 2
left_child=1 3 9 5 -5 7 -7 -1 -4 -3 -8 12 13 -2
right_child=11 2 8 4 -6 6 10 -9 -10 -11 -12 -13 -14 -15
leaf_value=0.0043443194802013493 0.0011973461099289214 -0.0011494811091593039 -0.01060767034747793 0.017744107338200719 -0.0017792433385881755 -0.0090401668453705501 -0.00045959757480174506 -0.0024509552470787991 -0.0031319423886348625 0.0044010546883906827 -0.0044527875183246511 -1.4381392096104218e-05 0.002176508930122324 -0.0016120215253861633
leaf_weight=58 329 61 36 21 29 20 83 23 21 22 29 20972 295 299
leaf_count=58 329 61 36 21 29 20 83 23 21 22 29 20972 295 299
internal_value=0 -0.000626293 -0.00300673 0.000640859 0.00642056 -0.000715879 -0.00263698 0.0024148 -0.00785345 0.000321745 -0.00149355 1.15276e-05 0.000600219 -0.000140235
internal_weight=0 403 140 263 50 213 132 81 57 83 112 21895 923 628
internal_count=22298 403 140 263 50 213 132 81 57 83 112 21895 923 628
shrinkage=0.15


Tree=284
num_leaves=15
num_cat=0
split_feature=4 26 3 19 19 1 18 25 38 13 22 2 2 34
split_gain=0.00691232 0.0224968 0.0544065 0.0285682 0.0255886 0.033269 0.0183809 0.083186 0.211546 0.245917 0.162945 0.656472 0.614849 0.500137
threshold=-0.96219699999999986 0.0018695000000000003 -6.8739799999999995 0.00032222300000000006 0.0026686700000000006 -5.0396599999999987 -1.4097099999999999e-05 9.2989400000000018 0.004930180000000001 -6.3042249999999988e-05 -0.18401349999999997 -0.28979049999999995 -0.86765249999999983 0.73533900000000008
decision_type=2 2 2 2 2 2 2 2 2 2 2 2 2 2
left_child=1 -1 3 -3 5 -5 7 8 -2 -10 12 -12 -11 -13
right_child=6 2 -4 4 -6 -7 -8 -9 9 10 11 13 -14 -15
leaf_value=0.00024894294065495041 -0.00077028822946945987 0.0040142770264467867 -0.0088335931347683066 0.00062298670643940563 0.00013355307032208489 -0.0072750720568001267 1.4289919407977939e-05 -0.0035701033336917425 -0.011919379800092429 0.015251315398407832 -0.0047117287258909837 0.030802576692076398 -0.0081788463533268348 0.0052372135137292476
leaf_weight=3987 1662 26 20 20 88 30 16049 177 20 42 45 36 63 33
leaf_count=3987 1662 26 20 20 88 30 16049 177 20 42 45 36 63 33
internal_value=0 0.000174106 -0.0014475 -0.000546759 -0.00140609 -0.00411585 -4.00615e-05 -0.000459833 -0.00017024 0.00400248 0.00545653 0.00938327 0.00119322 0.0185757
internal_weight=0 4171 184 164 138 50 18127 2078 1901 239 219 114 105 69
internal_count=22298 4171 184 164 138 50 18127 2078 1901 239 219 114 105 69
shrinkage=0.15


Tree=285
num_leaves=15
num_cat=0
split_feature=5 20 24 16 33 19 35 22 18 25 14 23 33 6
split_gain=0.00711747 0.111638 0.0778797 0.0603237 0.057767 0.0835744 0.173763 0.204155 0.256573 0.231063 0.172901 0.149777 0.0547951 0.0900994
threshold=8.8041250000000027e-06 13.153 -0.39191149999999991 2.1138100000000003e-07 -2.2755499999999993e-06 5.5577300000000006e-06 0.0029260650000000007 0.58049250000000019 -2.3299849999999995e-06 0.32920750000000004 0.00068643900000000017 -11.648899999999998 7.1091050000000012e-07 -1.3740449999999999e-06
decision_type=2 2 2 2 2 2 2 2 2 2 2 2 2 2
left_child=1 2 3 -1 5 6 7 8 -4 11 -11 -10 13 -6
right_child=-2 -3 4 -5 12 -7 -8 -9 9 10 -12 -13 -14 -15
leaf_value=-0.00093729995594291787 -2.3347375905384198e-05 0.010251310443039983 0.019519916665740308 -0.0068763268792411377 -0.008172171484693536 0.00011193769111559959 0.013834873980588533 -0.004407208397363623 0.0015244107504760653 -0.008265649335226043 0.0083343568423879331 0.016407916595198913 0.00038729841248506602 -0.00063436291037099535
leaf_weight=123 20725 25 24 56 48 350 33 72 29 48 20 32 574 139
leaf_count=123 20725 25 24 56 48 350 33 72 29 48 20 32 574 139
internal_value=0 0.000307612 0.000147023 -0.00279532 0.000531741 0.00162185 0.00367018 0.00217936 0.00527892 0.00262944 -0.00338329 0.00933215 -0.0003392 -0.0025692
internal_weight=0 1573 1548 179 1369 608 258 225 153 129 68 61 761 187
internal_count=22298 1573 1548 179 1369 608 258 225 153 129 68 61 761 187
shrinkage=0.15


Tree=286
num_leaves=15
num_cat=0
split_feature=13 35 33 33 30 6 3 30 28 10 21 5 11 20
split_gain=0.00768352 0.0704888 0.163193 0.0635622 0.0433505 0.0511833 0.0479331 0.0298379 0.00915664 0.00772152 0.0503252 0.0686625 0.0588374 0.104735
threshold=-7.4854199999999985e-05 -0.0028487749999999996 3.2197100000000004e-05 1.68409e-06 0.00035219550000000003 -9.5285199999999986e-07 -13.194549999999998 0.00019449600000000003 -0.0029051349999999997 3.0809700000000011e-05 3.6804400000000004 1.1801350000000002e-05 1.6815150000000001e-05 -8.1076099999999993
decision_type=2 2 2 2 2 2 2 2 2 2 2 2 2 2
left_child=1 2 8 -3 7 -6 -7 -5 -1 -2 -11 12 13 -12
right_child=9 3 -4 4 5 6 -8 -9 -10 10 11 -13 -14 -15
leaf_value=0.0014833447392447851 -0.00010272348359025104 0.0014301147139945227 0.014684449827298522 -0.0025147553643159147 0.00033944316364795666 -0.012884560984093695 -0.0034043438921798948 0.0049165400172933001 -0.002862409215813386 0.00029786949534753505 -0.009671001735195103 -0.00013027335482248723 -0.0042197100163280134 0.00013063553964484391
leaf_weight=24 10707 190 25 31 24 24 24 20 20 7523 27 3213 178 268
leaf_count=24 10707 190 25 31 24 24 24 20 20 7523 27 3213 178 268
internal_value=0 0.000666941 0.00500672 -0.00028975 -0.00294645 -0.00531649 -0.00814445 0.000399478 -0.000491998 -1.16249e-05 7.53938e-05 -0.000378672 -0.00206599 -0.000766463
internal_weight=0 382 69 313 123 72 48 51 44 21916 11209 3686 473 295
internal_count=22298 382 69 313 123 72 48 51 44 21916 11209 3686 473 295
shrinkage=0.15


Tree=287
num_leaves=15
num_cat=0
split_feature=24 8 1 0 0 13 4 16 7 39 7 5 20 2
split_gain=0.00681514 0.039211 0.035144 0.0407296 0.064005 0.0336938 0.0196473 0.0194355 0.0187082 0.0145096 0.0103257 0.0102205 0.0518306 0.206154
threshold=-1.5736749999999997 1.1937100000000001e-05 -3.6136399999999997 -4.8600499999999984 -3.0331349999999992 -1.6986749999999998e-05 -0.046025099999999992 -2.3202749999999998e-07 5.0797350000000006e-05 0.17816300000000002 3.1244600000000009e-05 1.1439400000000003e-05 -7.6352849999999988 -2.7280149999999996
decision_type=2 2 2 2 2 2 2 2 2 2 2 2 2 2
left_child=1 2 10 6 -5 -3 -4 -6 -9 -7 -1 12 13 -2
right_child=11 5 3 4 7 9 -8 8 -10 -11 -12 -13 -14 -15
leaf_value=-0.0063264515735103151 0.011205606120638549 0.0086668148079687458 -0.0060196396484971043 0.0098201041233551226 -0.0025189092346408867 -0.00073589080812184722 0.00020397210568522236 0.0034381840542784701 -0.0016846750392173618 0.0038313097697134841 -0.0019110214757697226 -6.8419502018966311e-05 -6.0916114045736883e-06 0.00069824170705183749
leaf_weight=22 45 21 25 20 32 29 21 53 23 34 26 16550 4764 633
leaf_count=22 45 21 25 20 32 29 21 53 23 34 26 16550 4764 633
internal_value=0 0.000703019 -0.000341454 0.000649803 0.00202557 0.00346341 -0.00317843 0.00058214 0.00188785 0.00172895 -0.00393476 -9.78192e-06 0.000168544 0.00139563
internal_weight=0 306 222 174 128 84 46 108 76 63 48 21992 5442 678
internal_count=22298 306 222 174 128 84 46 108 76 63 48 21992 5442 678
shrinkage=0.15


Tree=288
num_leaves=15
num_cat=0
split_feature=15 15 35 20 18 0 3 31 9 19 26 25 21 29
split_gain=0.00674244 0.0247241 0.23418 0.304343 0.272818 0.261307 0.296886 0.161094 0.21514 0.1489 0.116595 0.110267 0.145362 0.320346
threshold=4.9070950000000013e-06 9.0245350000000003e-07 0.0030997900000000003 2.3020050000000007 -5.5633649999999984e-06 3.3844200000000004 -7.0056449999999986 0.36080850000000003 -2.0116049999999995e-05 2.7200000000000004e-05 -0.00010909499999999998 0.64650950000000018 -3.1887149999999997 -0.0064345149999999992
decision_type=2 2 2 2 2 2 2 2 2 2 2 2 2 2
left_child=1 -1 11 7 -5 -6 -7 9 -9 -4 -11 12 13 -3
right_child=-2 2 3 4 5 6 -8 8 -10 10 -12 -13 -14 -15
leaf_value=8.9483994008086514e-06 0.00016270345608792461 0.020547566660097803 -0.012132132004205088 -0.00073370697756291591 0.0027748833766963799 0.034489453946959903 0.0095550341431849765 0.013895917285844916 -0.0011674588909045269 0.0079448541779129304 -0.0057957407113545653 -0.0039535963342647992 -0.0021579624925243479 0.00070809456790032403
leaf_weight=16392 4559 20 38 37 24 22 21 32 64 24 33 335 480 217
leaf_count=16392 4559 20 38 37 24 22 21 32 64 24 33 335 480 217
internal_value=0 -4.18155e-05 -0.000659575 0.00307533 0.00960456 0.0153137 0.0223122 -0.000479853 0.00385367 -0.00485899 -1.02271e-05 -0.00170691 -0.000657202 0.00238231
internal_weight=0 17739 1347 295 104 67 43 191 96 95 57 1052 717 237
internal_count=22298 17739 1347 295 104 67 43 191 96 95 57 1052 717 237
shrinkage=0.15


Tree=289
num_leaves=15
num_cat=0
split_feature=35 15 19 17 37 37 30 29 19 8 22 2 30 2
split_gain=0.00741137 0.111398 0.146218 0.151182 0.392591 0.548304 0.188857 0.304908 0.135527 0.119319 0.134194 0.566343 0.393486 0.361905
threshold=-0.00042535149999999993 5.4489500000000011e-09 3.6465450000000008e-06 -4.4465749999999994e-09 -4.1828699999999994e-08 -1.7749449999999998e-07 0.0030361450000000005 -0.010933649999999998 0.0011338350000000004 -5.5445449999999998e-06 -2.2013349999999998 -2.1956849999999997 0.0013574800000000001 -2.6481649999999992
decision_type=2 2 2 2 2 2 2 2 2 2 2 2 2 2
left_child=1 2 3 4 5 6 7 -1 -3 -5 11 12 13 -11
right_child=-2 8 -4 9 -6 -7 -8 -9 -10 10 -12 -13 -14 -15
leaf_value=0.023072005581596621 -6.5591103058562677e-05 -0.0010624275083500833 4.4043537735552468e-05 -0.00015562074744890621 -0.0011943032891071259 0.025933104933325297 -0.006192410302957376 0.0025046985115494119 0.00078329010663751063 0.008934119930823466 0.0017458257049109578 -0.011428469594102353 -0.0019718744920101017 0.035897839335666502
leaf_weight=23 14155 2684 2783 631 118 38 26 55 1343 21 353 24 20 24
leaf_count=23 14155 2684 2783 631 118 38 26 55 1343 21 353 24 20 24
internal_value=0 0.000114017 0.000662789 0.00195459 0.00519978 0.0105132 0.00487896 0.00856942 -0.000446883 0.00116824 0.00305819 0.00826341 0.0155343 0.0233148
internal_weight=0 8143 4116 1333 260 142 104 78 4027 1073 442 89 65 45
internal_count=22298 8143 4116 1333 260 142 104 78 4027 1073 442 89 65 45
shrinkage=0.15


Tree=290
num_leaves=15
num_cat=0
split_feature=3 3 31 27 18 28 13 29 34 0 0 11 8 14
split_gain=0.0092116 0.0208681 0.0465448 0.0572377 0.0606168 0.0535318 0.0360208 0.026388 0.018213 0.0314616 0.0353471 0.0480887 0.032841 0.0482145
threshold=-6.2311749999999995 -6.3220499999999991 0.043654450000000004 0.83672900000000017 -1.7428749999999997e-07 -0.0047376999999999992 4.2660450000000009e-06 0.016348900000000003 0.0031487850000000003 -9.8644199999999973 -6.2604799999999994 -2.0464349999999997e-05 -1.4249749999999999e-05 0.00037627800000000002
decision_type=2 2 2 2 2 2 2 2 2 2 2 2 2 2
left_child=1 8 3 5 -5 -3 -7 -4 9 -1 11 -11 13 -12
right_child=-2 2 7 4 -6 6 -8 -9 -10 10 12 -13 -14 -15
leaf_value=-0.0039479027893817558 0.00017909326746660384 0.0047824667342086158 0.0045184262468152348 -0.0025123212599165497 -0.012675738376723845 -0.0062421642854324569 -0.00019072116622240019 -0.00091670505239149368 -6.9660544203537384e-05 0.0015498853580998802 -0.0078191872569732361 0.0089217648286229138 0.00084391076355297466 -0.00039263654169089844
leaf_weight=33 5010 28 37 31 23 38 53 44 16075 85 24 26 682 109
leaf_count=33 5010 28 37 31 23 38 53 44 16075 85 24 26 682 109
internal_value=0 -5.19006e-05 -0.00140149 -0.0027909 -0.00684118 -0.000952953 -0.0027177 0.00156601 -3.17764e-05 0.000603248 0.000765438 0.00327663 0.000423422 -0.00173277
internal_weight=0 17288 254 173 54 119 91 81 17034 959 926 111 815 133
internal_count=22298 17288 254 173 54 119 91 81 17034 959 926 111 815 133
shrinkage=0.15


Tree=291
num_leaves=15
num_cat=0
split_feature=23 2 28 3 3 3 3 13 33 19 21 3 3 21
split_gain=0.00763565 0.0207751 0.0498154 0.0448544 0.023981 0.0532598 0.0166823 0.0121556 0.0414258 0.0239347 0.0115838 0.0102348 0.0101004 0.0291573
threshold=-18.142349999999997 -2.2193199999999993 0.0028701500000000006 -10.793699999999999 -17.219549999999995 -16.017899999999994 -5.8314849999999989 -9.9195999999999973e-06 1.13255e-05 0.0018939200000000001 -8.1337099999999989 -7.1259249999999996 -6.2311749999999995 17.104850000000003
decision_type=2 2 2 2 2 2 2 2 2 2 2 2 2 2
left_child=1 2 3 -1 -3 -6 7 8 -7 -10 -9 -5 -2 -14
right_child=12 4 -4 11 5 6 -8 10 9 -11 -12 -13 13 -15
leaf_value=-0.0094185726570329923 -7.5637367534704813e-05 0.0048331763216992833 0.0014314224063660154 0.00054465042323701915 -0.0060391974790642662 0.0037162266575644022 -0.00075583931382145516 0.0035388076422005438 0.0017417661108281564 -0.0033095396687993065 0.00045328342175428814 -0.0034500247643013755 0.00014001083198614229 0.0044251024257391689
leaf_weight=23 16442 30 82 27 27 125 143 29 46 39 489 31 4729 36
leaf_count=23 16442 30 82 27 27 125 143 29 46 39 489 31 4729 36
internal_value=0 0.000386998 -0.00117482 -0.00381324 0.000661326 0.000521955 0.000725343 0.00101629 0.00197894 -0.000575892 0.000626025 -0.00159043 -1.99092e-05 0.000172385
internal_weight=0 1091 163 81 928 898 871 728 210 85 518 58 21207 4765
internal_count=22298 1091 163 81 928 898 871 728 210 85 518 58 21207 4765
shrinkage=0.15


Tree=292
num_leaves=15
num_cat=0
split_feature=12 14 22 5 21 3 22 23 33 21 23 7 28 3
split_gain=0.00671936 0.0303673 0.180355 0.517218 0.0915965 0.0524963 0.0530009 0.045325 0.0326946 0.0254603 0.0305132 0.100524 0.0654181 0.143807
threshold=0.00018222250000000004 0.0022150250000000002 1.4659850000000001 2.1144550000000001e-05 6.0587950000000008 -8.8983649999999983 -1.8868749999999996 -9.1930949999999978 1.4206750000000003e-05 5.1140450000000008 -10.159249999999998 2.8501100000000001e-05 0.074667700000000017 -14.101899999999999
decision_type=2 2 2 2 2 2 2 2 2 2 2 2 2 2
left_child=-1 2 5 -4 8 6 -2 -8 -5 10 11 -3 -13 -14
right_child=1 9 3 4 -6 -7 7 -9 -10 -11 -12 12 13 -15
leaf_value=-3.5343595723896764e-05 0.0023142673169082449 -0.0054955979215749228 0.028415959202684461 0.00074907573589224469 0.0072699025940472393 0.0010348805097153391 -0.0086931013681281078 -0.0017419231757309676 -0.0069164177875791211 -0.00069693909870490085 0.00084233782167794115 -0.00018736856550667476 0.014940615264432772 -9.207804570905863e-05
leaf_weight=18829 31 77 20 31 39 195 39 46 21 805 1116 983 21 45
leaf_count=18829 31 77 20 31 39 195 39 46 21 805 1116 983 21 45
internal_value=0 0.000191838 0.00138438 0.00657497 0.00177476 -0.000468217 -0.00299498 -0.00493129 -0.0023466 2.66748e-05 0.000286492 -0.000264418 0.000119567 0.00469105
internal_weight=0 3469 422 111 91 311 116 85 52 3047 2242 1126 1049 66
internal_count=22298 3469 422 111 91 311 116 85 52 3047 2242 1126 1049 66
shrinkage=0.15


Tree=293
num_leaves=15
num_cat=0
split_feature=23 14 9 31 14 15 22 34 4 17 17 19 29 5
split_gain=0.007301 0.0223377 0.0326763 0.0501773 0.0996692 0.0909927 0.111471 0.093969 0.124498 0.126281 0.0802799 0.058823 0.0414165 0.116942
threshold=-13.747299999999997 0.0012160750000000003 3.6635150000000008e-05 -0.090617699999999982 0.006967290000000001 1.6876800000000002e-07 -0.67425849999999987 3.1166000000000005 0.50027650000000012 7.1999850000000008e-08 1.4287150000000002e-06 7.0374600000000011e-08 -0.0040605649999999995 1.6974700000000002e-05
decision_type=2 2 2 2 2 2 2 2 2 2 2 2 2 2
left_child=1 -1 3 4 5 7 -7 8 9 -3 -8 -5 13 -4
right_child=-2 2 12 11 -6 6 10 -9 -10 -11 -12 -13 -14 -15
leaf_value=0.00047996919230467095 -4.3465082433993081e-05 -0.0048396210871093593 0.012229943276794915 0.0067884434311618579 0.00015123078385711 0.0085396628535818302 0.00096411310933035559 0.0019991616445342794 0.00066582158223950653 -0.015845372474619319 -0.0084063817591716831 -5.0044868824346496e-05 -0.00023587458154044553 0.0010633695868688977
leaf_weight=2430 17747 45 26 29 329 24 48 26 29 49 36 1175 193 112
leaf_count=2430 17747 45 26 29 329 24 48 26 29 49 36 1175 193 112
internal_value=0 0.000169496 -0.00018621 -0.000439387 -0.00157776 -0.00379113 -0.00047593 -0.00619409 -0.00792599 -0.0105767 -0.00305181 0.00011467 0.00118294 0.00316722
internal_weight=0 4551 2121 1790 586 257 108 149 123 94 84 1204 331 138
internal_count=22298 4551 2121 1790 586 257 108 149 123 94 84 1204 331 138
shrinkage=0.15


Tree=294
num_leaves=15
num_cat=0
split_feature=5 20 24 34 20 11 20 0 34 0 23 9 0 12
split_gain=0.00714715 0.084956 0.0533981 0.0521773 0.0515313 0.186654 0.214097 0.182412 0.120728 0.101453 0.124877 0.084368 0.0585933 0.05586
threshold=8.8041250000000027e-06 13.153 -0.39191149999999991 1.2074800000000001 4.3911700000000016 1.6815150000000001e-05 6.4960850000000008 6.8167900000000001 0.013206150000000002 11.287050000000002 -8.4206099999999982 1.4302700000000003e-05 1.4765200000000001 -7.8824549999999987e-05
decision_type=2 2 2 2 2 2 2 2 2 2 2 2 2 2
left_child=1 2 3 -1 13 9 -7 -8 -9 10 12 -12 -6 -4
right_child=-2 -3 4 -5 5 6 7 8 -10 -11 11 -13 -14 -15
leaf_value=-0.0043934815421586256 -2.3396015143819993e-05 0.0089826540587382622 0.0021243239718740422 0.00081779627117076377 -0.00074453634895742878 0.020736097321092859 -0.0048358586158663511 0.0022531821881420907 0.018734654883155597 -0.0077237389410253271 0.0022118386313581847 0.01104550948516736 -0.0088398094992153346 -0.00068374680010528167
leaf_weight=106 20725 25 201 73 103 22 31 20 20 33 113 31 25 770
leaf_count=106 20725 25 201 73 103 22 31 20 20 33 113 31 25 770
internal_value=0 0.000308253 0.000168163 -0.00226821 0.000486725 0.00192418 0.00780687 0.00380064 0.0104939 0.000130435 0.00108333 0.00411353 -0.00232564 -0.000102467
internal_weight=0 1573 1548 179 1369 398 93 71 40 305 272 144 128 971
internal_count=22298 1573 1548 179 1369 398 93 71 40 305 272 144 128 971
shrinkage=0.15


Tree=295
num_leaves=15
num_cat=0
split_feature=14 20 23 14 7 7 21 28 8 3 19 32 28 2
split_gain=0.00633167 0.0234339 0.0180075 0.0401219 0.032748 0.0390251 0.124573 0.127768 0.100333 0.076614 0.0376081 0.0428377 0.0350809 0.0357929
threshold=8.5393400000000015e-05 14.502350000000002 -15.447399999999998 0.0016179300000000003 2.4140600000000004e-05 2.9331850000000003e-05 3.1487850000000006 -0.0045597699999999986 3.1121200000000004e-06 -14.226749999999997 1.1605450000000001e-06 2.7275950000000004 -0.18709999999999996 -1.893775
decision_type=2 2 2 2 2 2 2 2 2 2 2 2 2 2
left_child=1 -1 3 -2 -5 6 7 8 -6 -9 -7 -12 13 -13
right_child=2 -3 -4 4 5 10 -8 9 -10 -11 11 12 -14 -15
leaf_value=0.00022644006997736346 0.0009579620727301159 -0.0039166478965912133 -9.0157704826721074e-05 -0.0045944292073775272 -0.00085555336912735715 -0.0050338545029884893 0.011875500805210321 -0.012871410702355207 0.013275990280089899 0.00010075658647110686 0.00011627329809592254 -0.0067896235947916021 -0.0081826159691326724 1.9018215797087309e-05
leaf_weight=3364 1213 31 16469 38 26 38 25 20 20 21 916 23 23 71
leaf_count=3364 1213 31 16469 38 26 38 25 20 20 21 916 23 23 71
internal_value=0 0.000188609 -3.38744e-05 0.000346951 -0.000260057 -0.000120829 0.00254331 -0.000138355 0.0052886 -0.00622713 -0.000399432 -0.00022895 -0.00293172 -0.00164693
internal_weight=0 3395 18903 2434 1221 1183 112 87 46 41 1071 1033 117 94
internal_count=22298 3395 18903 2434 1221 1183 112 87 46 41 1071 1033 117 94
shrinkage=0.15


Tree=296
num_leaves=15
num_cat=0
split_feature=7 37 21 3 14 21 12 22 2 2 21 11 26 22
split_gain=0.0069548 0.0364464 0.0403085 0.138442 0.116089 0.0724372 0.243357 0.0438329 0.0807275 0.0597192 0.086306 0.0342419 0.0903747 0.0814475
threshold=2.3366750000000001e-05 -1.9852999999999999e-06 -8.8586549999999971 -8.2335849999999979 0.0014016850000000002 -6.7192549999999995 -3.8002549999999991e-05 -2.1177949999999996 -1.6480249999999999 -1.4875349999999996 -3.8987349999999998 1.7558450000000005e-05 7.2118600000000004e-05 0.80796800000000013
decision_type=2 2 2 2 2 2 2 2 2 2 2 2 2 2
left_child=1 -1 3 4 -3 6 -4 8 -7 10 -9 -11 13 -13
right_child=-2 2 5 -5 -6 7 -8 9 -10 11 -12 12 -14 -15
leaf_value=-0.0046198548531279924 -1.6461593004157125e-05 -0.014792462683449824 0.016275826809255198 0.0059498921885425523 -0.001478083381960282 -0.0099244291748618717 -0.0042623810274526478 0.012125790252255022 0.00017538390567769174 -0.00069584454734530757 0.0021055951040943911 0.014163110643276012 -0.0039658073840352394 0.0014307966043886082
leaf_weight=31 21469 23 27 31 41 24 25 22 69 303 160 20 27 26
leaf_count=31 21469 23 27 31 41 24 25 22 69 303 160 20 27 26
internal_value=0 0.000426314 0.000622343 -0.0022777 -0.00626294 0.00101424 0.00640169 0.000583906 -0.00243102 0.00108639 0.00331683 6.76922e-06 0.0029231 0.00696659
internal_weight=0 829 798 95 64 703 52 651 93 558 182 376 73 46
internal_count=22298 829 798 95 64 703 52 651 93 558 182 376 73 46
shrinkage=0.15


Tree=297
num_leaves=15
num_cat=0
split_feature=12 35 21 21 13 38 35 33 12 9 21 22 32 13
split_gain=0.00699971 0.0239385 0.0315011 0.0392817 0.291482 0.376116 0.194967 0.037027 0.0979395 0.0341093 0.0334901 0.033468 0.0197641 0.0564964
threshold=0.00018222250000000004 1.7006450000000002 7.5550000000000006 4.9104650000000012 3.2380200000000006e-05 0.0013852950000000001 -0.000208073 1.4206750000000003e-05 0.00020601000000000004 -5.6092049999999994e-05 4.0469550000000014 1.2647150000000003 -1.7141299999999997 -7.8367499999999974e-06
decision_type=2 2 2 2 2 2 2 2 2 2 2 2 2 2
left_child=-1 2 3 7 5 6 -5 -2 -9 -10 12 -8 -11 -14
right_child=1 -3 -4 4 -6 -7 11 8 9 10 -12 -13 13 -15
leaf_value=-3.6073389222143792e-05 0.00043392928193064615 0.0046447837634736467 -0.00085984618559139571 0.012994111304215039 -0.00078988012470194676 0.024895136742634352 0.001405423280107243 -0.0081282725580967968 0.0055142875162086319 0.0040026738740498724 -0.0048702858750262886 -0.0060960795773375457 -0.0046289581492254955 0.00028781431128149017
leaf_weight=18829 1974 27 568 32 285 24 32 40 21 23 39 23 63 318
leaf_count=18829 1974 27 568 32 285 24 32 40 21 23 39 23 63 318
internal_value=0 0.000195799 0.0001609 0.000362634 0.00174986 0.0082708 0.00368477 0.000140947 -0.00100657 -0.000392627 -0.000672639 -0.00173157 -0.000267421 -0.000525195
internal_weight=0 3469 3442 2874 396 111 87 2478 504 464 443 55 404 381
internal_count=22298 3469 3442 2874 396 111 87 2478 504 464 443 55 404 381
shrinkage=0.15


Tree=298
num_leaves=15
num_cat=0
split_feature=12 38 38 12 7 16 36 16 33 14 35 12 11 5
split_gain=0.00654993 0.0319971 0.0358599 0.0706076 0.0325089 0.0234214 0.0216541 0.0211202 0.0188395 0.0333616 0.0172889 0.0421924 0.0738343 0.034285
threshold=-0.00024493799999999994 0.068098300000000014 0.024575250000000003 -0.00033227799999999992 3.9431050000000006e-05 2.0376700000000004e-05 0.27258550000000009 0.00014313600000000003 7.5844350000000012e-05 0.032853850000000011 -0.13470549999999998 -6.806984999999998e-05 7.0004500000000024e-05 1.3283600000000001e-05
decision_type=2 2 2 2 2 2 2 2 2 2 2 2 2 2
left_child=1 2 8 -4 -3 6 -6 -7 -1 -10 11 12 13 -2
right_child=10 4 3 -5 5 7 -8 -9 9 -11 -12 -13 -14 -15
leaf_value=0.00027988337364164397 0.0046955233138370588 -0.0063828402403581499 0.0008621252618653116 0.011175230056105646 -0.0006040972265455982 -0.006958223423862364 0.0052194880209935944 -0.0011194880297234308 -0.0071350242040352889 0.0014251338948088233 -6.2630144725967594e-05 0.00013099801998345834 0.0094230397379085912 -0.00059688924120564473
leaf_weight=2756 42 29 59 20 51 20 20 46 21 20 18418 685 31 80
leaf_count=2756 42 29 59 20 51 20 20 46 21 20 18418 685 31 80
internal_value=0 0.000204541 0.000321417 0.00347304 -0.00182038 -0.000854599 0.00103635 -0.0028888 0.000232401 -0.00295934 -3.23127e-05 0.00063402 0.00288611 0.00122509
internal_weight=0 3042 2876 79 166 137 71 66 2797 41 19256 838 153 122
internal_count=22298 3042 2876 79 166 137 71 66 2797 41 19256 838 153 122
shrinkage=0.15


Tree=299
num_leaves=15
num_cat=0
split_feature=21 1 8 19 5 8 3 10 19 28 24 24 18 33
split_gain=0.0064323 0.379952 0.0956522 0.0871625 0.0497671 0.0329447 0.0332184 0.0311005 0.0237573 0.0220142 0.020288 0.0188066 0.018205 0.0304998
threshold=12.350850000000001 11.152950000000002 -1.4635949999999998e-05 0.00014996100000000002 7.9919950000000021e-06 -1.2809899999999999e-05 -7.1437349999999986 5.1255900000000005e-05 2.7869450000000004e-08 0.55062400000000011 -0.24846099999999996 0.08151810000000001 0.0082976200000000021 4.482940000000001e-06
decision_type=2 2 2 2 2 2 2 2 2 2 2 2 2 2
left_child=-1 2 3 -2 -4 -6 9 8 -8 10 -7 -10 13 -12
right_child=1 -3 4 -5 5 6 7 -9 11 -11 12 -13 -14 -15
leaf_value=-1.3189040352669648e-05 -0.010844118472720895 0.014792956325870292 0.0074888107142344644 -0.0013019134878244844 0.0054113809717819096 -0.0029715843535632305 -0.0083235506716716496 0.0014799128286540507 -1.7042699850704096e-05 0.0046364437633504467 0.00053939004899792805 -0.0051621957376013477 -0.0032971852111032878 0.0067156339195207689
leaf_weight=21716 35 39 21 56 24 40 21 33 33 27 179 31 23 20
leaf_count=21716 35 39 21 56 24 40 21 33 33 27 179 31 23 20
internal_value=0 0.000492119 -0.000535013 -0.00497199 0.000358272 1.08447e-05 -0.000307614 -0.00242837 -0.00394571 0.000558301 0.000138034 -0.00250923 0.000698325 0.00116012
internal_weight=0 582 543 91 452 431 407 118 85 289 262 64 222 199
internal_count=22298 582 543 91 452 431 407 118 85 289 262 64 222 199
shrinkage=0.15


Tree=300
num_leaves=15
num_cat=0
split_feature=36 13 4 27 6 33 6 20 20 34 3 7 27 20
split_gain=0.00700112 0.0290543 0.0264113 0.0128288 0.00835557 0.0421052 0.0308684 0.0298332 0.0219294 0.0308158 0.0483588 0.0213394 0.0710121 0.0206366
threshold=2.4694650000000005 7.8765850000000024e-06 -0.11892999999999999 111.70800000000001 9.0891300000000012e-06 -7.909224999999999e-07 9.5763700000000016e-06 -0.082702849999999981 7.9978200000000008 0.0057315500000000011 -6.2170999999999994 5.801670000000001e-05 0.41993400000000003 9.7061100000000007
decision_type=2 2 2 2 2 2 2 2 2 2 2 2 2 2
left_child=3 -2 -3 4 -1 13 7 -7 9 10 -8 12 -11 -6
right_child=1 2 -4 -5 5 6 8 -9 -10 11 -12 -13 -14 -15
leaf_value=2.6827502566005395e-05 0.0020523682743146311 -0.000238983791812485 -0.0074274637139118884 0.0033349667768141863 0.00067595350078034143 -0.0092367618722801123 0.0073854975408822708 -0.0010437979671405629 -0.002853780262618481 -0.009071285532425262 -0.00046521755678387462 -0.00065024655827347741 0.0024092536719928664 -0.0022641591943503392
leaf_weight=20583 32 23 23 26 727 20 27 20 108 27 51 551 22 58
leaf_count=20583 32 23 23 26 727 20 27 20 108 27 51 551 22 58
internal_value=0 -0.00141862 -0.00383322 4.97986e-06 1.07882e-06 -0.0003279 -0.00107548 -0.00514028 -0.000868617 -0.000552396 0.00225234 -0.000917012 -0.00391676 0.000458722
internal_weight=0 78 46 22220 22194 1611 826 40 786 678 78 600 49 785
internal_count=22298 78 46 22220 22194 1611 826 40 786 678 78 600 49 785
shrinkage=0.15


Tree=301
num_leaves=15
num_cat=0
split_feature=22 2 2 22 6 3 23 23 3 20 3 23 15 7
split_gain=0.0066081 0.0760348 0.188242 0.138426 0.0851131 0.0752662 0.329402 0.371636 0.363714 0.160347 0.083 0.0949289 0.0829179 0.0890146
threshold=2.3909050000000005 1.5973400000000002 2.3828350000000005 2.5009900000000003 -6.492014999999999e-08 -9.2021999999999995 -9.1492199999999979 -12.773699999999998 -12.582649999999999 -7.3959049999999991 -6.1453949999999988 -13.2342 -3.9843549999999994e-07 4.6004200000000009e-05
decision_type=2 2 2 2 2 2 2 2 2 2 2 2 2 2
left_child=-1 -2 4 -4 -3 6 7 8 -5 12 11 -11 -7 -14
right_child=1 2 3 5 -6 9 -8 -9 -10 10 -12 -13 13 -15
leaf_value=-2.7699542852502344e-05 0.00073552302997094247 -0.00043635611337595033 0.010941806643067167 0.011892807044837948 -0.0058577327776988498 -0.0040659732938840296 -0.0095976373941994101 0.019685955458165458 -0.015765578979626299 -0.0040014349596193908 -0.00063239502748635044 -0.017936020365662195 0.0001840374284339222 0.013530093236097499
leaf_weight=19997 1731 100 31 23 187 23 32 36 20 22 29 22 22 23
leaf_count=19997 1731 100 31 23 187 23 32 36 20 22 29 22 22 23
internal_value=0 0.000240725 -0.0012619 0.00148321 -0.00396875 0.000319655 0.00324138 0.00844199 -0.000971559 -0.00198042 -0.00686251 -0.0109687 0.00326064 0.00700535
internal_weight=0 2301 570 283 287 252 111 79 43 141 73 44 68 45
internal_count=22298 2301 570 283 287 252 111 79 43 141 73 44 68 45
shrinkage=0.15


Tree=302
num_leaves=15
num_cat=0
split_feature=3 23 23 19 33 20 6 33 13 6 26 33 38 19
split_gain=0.00612188 0.0504693 0.0654686 0.169905 0.350857 0.106595 0.100414 0.0851515 0.278708 0.100503 0.123259 0.113202 0.100849 0.110736
threshold=-8.9681399999999982 -6.6548349999999994 -9.0060449999999985 6.2242400000000009e-07 1.0000000180025095e-35 -5.9817249999999991 -3.2236549999999995e-06 1.3750400000000002e-06 2.9744050000000006e-06 2.6416000000000006e-07 0.000119919 4.2176850000000009e-06 0.0012249850000000003 0.0019920900000000006
decision_type=2 2 2 2 2 2 2 2 2 2 2 2 2 2
left_child=1 2 -1 4 5 -4 -7 -5 9 -9 11 -11 13 -13
right_child=-2 -3 3 7 -6 6 -8 8 -10 10 -12 12 -14 -15
leaf_value=9.6430039790907152e-05 6.9895694012090859e-05 0.00083417896589661896 -0.0022644297615624963 0.00040618810841517255 0.0011294200340544883 -0.01552623577283796 -0.0069211506504055663 -0.00095528262094038213 0.00059170167728896821 -0.004277149163763685 0.0016394490115753551 -0.021945824779363143 -0.0043280716382221064 -0.0098444028809393305
leaf_weight=5541 12451 1175 90 1623 237 37 174 113 608 106 37 27 33 46
leaf_count=5541 12451 1175 90 1623 237 37 174 113 608 106 37 27 33 46
internal_value=0 -8.83793e-05 -0.00021338 -0.000761658 -0.0031875 -0.00658654 -0.0084301 -0.000258339 -0.00137022 -0.00466539 -0.00634909 -0.00774332 -0.0112095 -0.0143203
internal_weight=0 9847 8672 3131 538 301 211 2593 970 362 249 212 106 73
internal_count=22298 9847 8672 3131 538 301 211 2593 970 362 249 212 106 73
shrinkage=0.15


Tree=303
num_leaves=15
num_cat=0
split_feature=33 2 20 13 13 33 3 34 4 3 4 33 30 3
split_gain=0.00606011 0.0378792 0.0395705 0.0375925 0.0656985 0.548614 0.343945 0.308279 0.290804 0.341202 0.304207 0.168116 0.118093 0.110521
threshold=2.0802300000000004e-06 -2.4505499999999993 -6.5413999999999985 2.9744050000000006e-06 -6.9744449999999994e-06 -1.1144799999999997e-06 -6.0183449999999992 0.0048287800000000004 -0.11892999999999999 -6.9667699999999995 0.13218450000000001 -1.1829249999999999e-07 0.00019231250000000002 -6.6535949999999993
decision_type=2 2 2 2 2 2 2 2 2 2 2 2 2 2
left_child=3 2 -2 4 11 12 7 -7 -9 10 -10 -1 -6 -13
right_child=1 -3 -4 -5 5 6 -8 8 9 -11 -12 13 -14 -15
leaf_value=0.00036212476384519843 -0.0010900819382520116 -1.0897239975839911e-05 0.0014413700262486783 -0.00025062603111474364 -0.003371822694159558 0.0016667033117165433 -0.0014891143226600061 0.0036695763297029766 0.04124570855789858 0.0081515915539308349 0.017563446729372326 -0.0043426263623756014 0.00067715950062692933 0.00058155851688102944
leaf_weight=3269 169 7985 781 8618 226 47 61 30 23 29 26 307 573 154
leaf_count=3269 169 7985 781 8618 226 47 61 30 23 29 26 307 573 154
internal_value=0 9.5632e-05 0.000991038 -6.39431e-05 0.000275116 0.00134509 0.00805224 0.0118072 0.0162202 0.0210474 0.0286796 -1.6043e-05 -0.00046811 -0.00269767
internal_weight=0 8935 950 13363 4745 1015 216 155 108 78 49 3730 799 461
internal_count=22298 8935 950 13363 4745 1015 216 155 108 78 49 3730 799 461
shrinkage=0.15


Tree=304
num_leaves=15
num_cat=0
split_feature=38 4 4 38 3 19 33 33 4 30 3 3 25 0
split_gain=0.00673097 0.0660706 0.183132 0.262784 0.208618 0.179933 0.165164 0.133289 0.107753 0.143469 0.260817 0.431164 0.389707 0.409279
threshold=6.7990150000000015e-05 0.052091400000000003 0.31506600000000001 0.00051956800000000009 -6.2311749999999995 0.00049748250000000011 2.8631500000000003e-06 5.1210650000000004e-05 -0.15315299999999996 0.00021859750000000002 -8.1425199999999993 -11.757099999999998 0.30601950000000006 5.3452100000000007
decision_type=2 2 2 2 2 2 2 2 2 2 2 2 2 2
left_child=-1 8 3 4 -3 -5 -7 -8 -2 10 11 -10 13 -13
right_child=1 2 -4 5 -6 6 7 -9 9 -11 -12 12 -14 -15
leaf_value=7.4403199017499189e-05 -0.00026091051762070416 -0.0057356251895634485 0.00037516387623196478 0.00040465628202865654 4.4366741553303875e-06 0.00061793374330186958 -0.010054437660869981 -0.00084154711353135695 -0.0025228028405561214 0.00046160536863664901 0.00078171164306541855 0.013037545087893575 -0.00082263983766034507 0.038035182813182473
leaf_weight=12285 3395 467 2426 1176 205 108 106 53 54 1634 284 56 29 20
leaf_count=12285 3395 467 2426 1176 205 108 106 53 54 1634 284 56 29 20
internal_value=0 -9.12857e-05 -0.000514257 -0.00153446 -0.00398456 -0.000393458 -0.00390875 -0.00698347 0.000259722 0.00111073 0.00350502 0.0083693 0.0139709 0.0196159
internal_weight=0 10013 4541 2115 672 1443 267 159 5472 2077 443 159 105 76
internal_count=22298 10013 4541 2115 672 1443 267 159 5472 2077 443 159 105 76
shrinkage=0.15


Tree=305
num_leaves=15
num_cat=0
split_feature=12 21 12 4 4 22 14 22 3 35 22 23 13 3
split_gain=0.00643749 0.0345802 0.0442203 0.0984326 0.0465749 0.0416553 0.192711 0.464018 0.668583 0.339807 0.0702774 0.0462324 0.0970379 0.0680651
threshold=0.00013816550000000002 8.2288750000000004 0.00018222250000000004 -1.0335399999999997 0.025549650000000004 1.1118200000000003 0.0023995000000000002 2.2215250000000002 -9.5215949999999996 0.00013007050000000001 1.6390350000000002 -9.5672149999999991 4.2108750000000002e-05 -9.5215949999999996
decision_type=2 2 2 2 2 2 2 2 2 2 2 2 2 2
left_child=-1 5 3 -3 -5 11 7 8 9 -7 -10 12 13 -2
right_child=1 2 -4 4 -6 6 -8 -9 10 -11 -12 -13 -14 -15
leaf_value=-3.8152810358264131e-05 -0.0037090772876451541 0.0041833968944442659 -0.00037229015660370684 -0.01229997815284878 -0.0037712602668975971 0.038467492859648622 1.7079361607958323e-05 -0.00186513392681378 0.0061601601932438667 0.013203958086669444 -0.0045796020686024209 0.00067330938153552353 0.00027332026270938774 0.00067945344757674249
leaf_weight=18216 294 23 482 25 34 23 680 103 29 25 26 1318 911 109
leaf_count=18216 294 23 482 25 34 23 680 103 29 25 26 1318 911 109
internal_value=0 0.000170258 -0.000920121 -0.00414029 -0.00738512 0.000345065 0.00123469 0.00525397 0.0123731 0.0253094 0.00108318 4.55958e-05 -0.000584029 -0.0025221
internal_weight=0 4082 564 82 59 3518 886 206 103 48 55 2632 1314 403
internal_count=22298 4082 564 82 59 3518 886 206 103 48 55 2632 1314 403
shrinkage=0.15


Tree=306
num_leaves=15
num_cat=0
split_feature=13 35 23 24 37 23 33 33 7 32 8 17 8 0
split_gain=0.00657493 0.0483036 0.16519 0.0417324 0.0429572 0.0324771 0.0257886 0.0169886 0.0126513 0.0078342 0.0464561 0.0489218 0.104462 0.0951387
threshold=-7.4854199999999985e-05 -0.0028487749999999996 -13.501149999999997 -0.18001199999999998 1.9926000000000003e-07 -13.790199999999997 1.68409e-06 7.8829350000000028e-06 6.6515250000000013e-05 -4.559359999999999 1.2335100000000002e-05 4.5089200000000005e-08 -8.2577799999999977e-06 0.94625250000000005
decision_type=2 2 2 2 2 2 2 2 2 2 2 2 2 2
left_child=1 2 -1 4 8 -5 -7 -4 -3 10 11 12 13 -2
right_child=9 3 7 5 -6 6 -8 -9 -10 -11 -12 -13 -14 -15
leaf_value=0.014588879379848747 0.014248672139947302 -0.0030821427802688304 0.0023064618342323226 0.0066559025400783865 -0.0071416591865914487 0.00140332818259687 -0.002265382551523231 -0.0035084998611217507 0.0017182161624077707 1.4276328116669931e-06 0.0020002832014720763 -0.0030700535704703438 -0.003012627495380742 -0.00020696363478366818
leaf_weight=23 20 21 20 20 34 147 61 26 30 21519 107 190 59 21
leaf_count=23 20 21 20 20 34 147 61 26 30 21519 107 190 59 21
internal_value=0 0.000616954 0.00420946 -0.000175003 -0.00301171 0.000882539 0.000327408 -0.000980256 -0.000258402 -1.07536e-05 -0.000671027 -0.00165665 0.00102882 0.00684457
internal_weight=0 382 69 313 85 228 208 46 51 21916 397 290 100 41
internal_count=22298 382 69 313 85 228 208 46 51 21916 397 290 100 41
shrinkage=0.15


Tree=307
num_leaves=15
num_cat=0
split_feature=21 1 3 14 24 4 34 21 14 1 34 14 2 28
split_gain=0.00847086 0.388343 0.620651 0.587194 0.570785 0.882837 0.263896 0.125664 0.313762 0.152151 0.183408 0.184436 0.195877 0.124401
threshold=8.5180900000000026 8.0541100000000014 -7.041669999999999 0.00077728850000000017 -0.10210749999999999 1.0000000180025095e-35 0.010754200000000002 12.673150000000001 9.8523750000000017e-05 11.472500000000002 0.012118400000000003 0.00013192600000000004 0.98298500000000011 0.0054402900000000013
decision_type=2 2 2 2 2 2 2 2 2 2 2 2 2 2
left_child=-1 -2 3 4 -3 13 -7 9 -9 10 11 12 -4 -6
right_child=1 2 7 -5 5 6 -8 8 -10 -11 -12 -13 -14 -15
leaf_value=-3.5092527118724113e-05 -0.00056244817643116114 0.034360078586905728 0.0025015897552847217 -0.00041015079451343889 0.0029886743186839991 0.013834506897863162 0.036557164190984939 -0.0058052251122717282 0.017766389761689223 -0.005282096510683139 -0.0041817852766191776 -0.0040939438834109087 0.021682532865554091 -0.013541267918189987
leaf_weight=19490 2323 32 23 66 21 23 23 24 27 122 57 22 25 20
leaf_count=19490 2323 32 23 66 21 23 23 24 27 122 57 22 25 20
internal_value=0 0.000243573 0.00410417 0.0109373 0.0172308 0.0109304 0.0251958 -0.000109591 0.00667387 -0.00149897 0.00213521 0.00727904 0.0124917 -0.00507471
internal_weight=0 2808 485 185 119 87 46 300 51 249 127 70 48 41
internal_count=22298 2808 485 185 119 87 46 300 51 249 127 70 48 41
shrinkage=0.15


Tree=308
num_leaves=15
num_cat=0
split_feature=36 11 14 25 21 7 8 21 7 7 1 8 1 7
split_gain=0.00645934 0.0235733 0.0227544 0.00872245 0.00815356 0.068267 0.0265734 0.0079227 0.0789324 0.0508045 0.0481623 0.0523745 0.105826 0.0739477
threshold=2.4694650000000005 1.6433700000000005e-05 0.00016267400000000002 112.04900000000002 -16.273949999999996 3.062215000000001e-05 8.991090000000002e-06 -12.364599999999998 2.4140600000000004e-05 2.7259350000000005e-05 -1.6614899999999999 1.9087300000000003e-05 -10.100849999999998 6.5277000000000019e-05
decision_type=2 2 2 2 2 2 2 2 2 2 2 2 2 2
left_child=3 2 -2 4 5 -1 -7 8 -6 -10 11 12 -11 -13
right_child=1 -3 -4 -5 7 6 -8 -9 9 10 -12 13 -14 -15
leaf_value=0.0088577580646545216 -0.0032750824349932371 -0.0053951042046284543 0.0029102915970725006 0.0027505879375474668 -0.0078042613958132275 0.0013536910685738924 -0.0052293853960608512 9.4147235270585598e-06 0.0058699252561200408 -0.013650259344805297 0.00095299303567414817 0.0088964049553032967 -0.002062671947925609 -0.0026625738308542748
leaf_weight=21 23 23 32 26 32 37 22 21638 30 21 226 20 114 33
leaf_count=21 23 23 32 26 32 37 22 21638 30 21 226 20 114 33
internal_value=0 -0.00136263 0.000323681 4.7833e-06 1.56663e-06 0.00151316 -0.00110102 -3.90175e-06 -0.000609242 -9.06818e-05 -0.00052261 -0.00229647 -0.00386519 0.0016993
internal_weight=0 78 55 22220 22194 80 59 22114 476 444 414 188 135 53
internal_count=22298 78 55 22220 22194 80 59 22114 476 444 414 188 135 53
shrinkage=0.15


Tree=309
num_leaves=15
num_cat=0
split_feature=10 28 36 24 21 1 1 21 22 2 6 14 29 19
split_gain=0.00681741 0.0675673 0.0813966 0.0106953 0.00680118 0.280299 0.25363 0.410473 0.277614 0.4822 0.382953 0.365185 0.251305 0.242344
threshold=8.6105100000000007e-06 -0.0098979699999999973 0.00098317350000000033 -0.10330299999999999 8.5180900000000026 8.0541100000000014 10.749450000000001 11.302900000000003 1.1118200000000003 1.0804300000000002 -3.3639549999999993e-06 0.00077728850000000017 0.0019373000000000003 9.9003350000000012e-05
decision_type=2 2 2 2 2 2 2 2 2 2 2 2 2 2
left_child=1 -1 3 -3 -2 -6 7 8 10 -10 -7 13 -9 -11
right_child=4 2 -4 -5 5 6 -8 12 9 11 -12 -13 -14 -15
leaf_value=-0.0053242502231150863 -3.680307568490964e-05 -0.002586782936705276 0.011024722517417419 0.0022059862824707209 -0.0004739018353013327 0.019655164569849146 -0.00058530471139433692 -0.0056989785255864263 -0.0047601128652509624 0.019237924715603837 -0.00546861070267136 0.0023545553923626852 0.011666670951526613 0.038473487334558736
leaf_weight=25 19409 20 23 22 2314 20 201 75 23 56 43 22 25 20
leaf_count=25 19409 20 23 22 2314 20 201 75 23 56 43 22 25 20
internal_value=0 0.00130287 0.00385176 -7.62848e-05 -5.28001e-06 0.000213309 0.00349209 0.00637784 0.0105819 0.014786 0.00250719 0.0193734 -0.00135757 0.0242999
internal_weight=0 90 65 42 22208 2799 485 284 184 121 63 98 100 76
internal_count=22298 90 65 42 22208 2799 485 284 184 121 63 98 100 76
shrinkage=0.15


Tree=310
num_leaves=15
num_cat=0
split_feature=21 1 8 19 5 1 28 10 9 1 18 31 1 25
split_gain=0.00731803 0.23649 0.0732312 0.0734222 0.0356361 0.0241208 0.0238789 0.0544327 0.0294046 0.0200634 0.0709781 0.0256459 0.0166711 0.0107421
threshold=12.350850000000001 11.152950000000002 -1.4635949999999998e-05 0.0002259215 7.9919950000000021e-06 -10.482449999999998 0.47103600000000007 2.8789150000000005e-05 -5.4965849999999998e-05 5.1049750000000005 -3.5045149999999999e-06 0.23308050000000005 3.8150150000000003 1.5352450000000002
decision_type=2 2 2 2 2 2 2 2 2 2 2 2 2 2
left_child=-1 2 3 -2 -4 -6 8 -8 -7 11 -11 12 13 -10
right_child=1 -3 4 -5 5 6 7 -9 9 10 -12 -13 -14 -15
leaf_value=-1.4067819556696978e-05 -0.0090875913709169247 0.011807355793336263 0.0065300537705687538 -0.0004778213468783248 -0.004054992679656217 0.0050943680096679593 0.0087781824005560335 -0.00061031767347065552 0.00091304670931100374 0.0033712706012011041 -0.0072829668456132124 -0.0042662295723298136 0.0046291221761996645 -0.001515058260384566
leaf_weight=21716 39 39 21 52 28 24 24 33 161 24 34 26 22 55
leaf_count=21716 39 39 21 52 28 24 24 33 161 24 34 26 22 55
internal_value=0 0.000524909 -0.000285433 -0.00416772 0.000496179 0.000202185 0.000497969 0.00334273 2.93222e-05 -0.000348197 -0.00287432 0.000206784 0.000695433 0.000294779
internal_weight=0 582 543 91 452 431 403 57 346 322 58 264 238 216
internal_count=22298 582 543 91 452 431 403 57 346 322 58 264 238 216
shrinkage=0.15


Tree=311
num_leaves=15
num_cat=0
split_feature=22 6 19 11 22 11 22 2 2 34 11 6 21 2
split_gain=0.00656926 0.0565162 0.0429106 0.0900453 0.0745457 0.070019 0.0509086 0.132282 0.126379 0.214405 0.0354549 0.0408477 0.148767 0.202561
threshold=2.3909050000000005 1.8240950000000003e-06 0.0013837450000000002 -2.2613349999999996e-05 2.4511500000000006 -4.334244999999999e-05 2.8593400000000004 2.4142950000000005 2.4785100000000004 0.05250765000000001 -1.3820699999999998e-05 6.3016950000000013e-07 3.4655050000000007 2.2927550000000005
decision_type=2 2 2 2 2 2 2 2 2 2 2 2 2 2
left_child=-1 10 3 5 -4 -3 8 -8 -6 -10 11 -2 13 -13
right_child=1 2 4 -5 6 -7 7 -9 9 -11 -12 12 -14 -15
leaf_value=-2.7618015463478492e-05 -0.0007688224918396627 -0.0021754369815216003 0.0091091123817022886 -0.0008209652551092652 -0.00092309576254046976 -0.011349176166550023 0.00025289870563459485 -0.013925717094680294 0.018178085059575411 -0.0030575063859578223 0.0012815624901678397 -0.0023219204347137397 -0.0063685734779937771 0.012373017025959637
leaf_weight=19997 493 39 21 330 150 36 57 20 23 20 995 39 32 46
leaf_count=19997 493 39 21 330 150 36 57 20 23 20 995 39 32 46
internal_value=0 0.000240016 -0.000888875 -0.00188724 0.000500597 -0.00657883 -0.000168954 -0.00342986 0.00113203 0.00830107 0.000729554 -0.000170852 0.0023488 0.00563063
internal_weight=0 2301 696 405 291 75 270 77 193 43 1605 610 117 85
internal_count=22298 2301 696 405 291 75 270 77 193 43 1605 610 117 85
shrinkage=0.15


Tree=312
num_leaves=15
num_cat=0
split_feature=11 20 21 19 22 8 22 20 19 22 31 2 14 20
split_gain=0.00713028 0.0344881 0.0340847 0.173335 0.171869 0.183637 0.346256 0.110983 0.0794297 0.311872 0.597286 0.418431 0.652579 0.219954
threshold=-1.5941849999999997e-05 5.4334650000000009 -5.8009399999999998 1.8396200000000002e-05 -1.4951299999999998 1.2068150000000002e-05 -2.2305649999999999 -3.7402149999999996 3.6998200000000004e-07 -2.3731699999999996 0.33092200000000005 -2.4146049999999994 0.00030207300000000009 -9.1545249999999978
decision_type=2 2 2 2 2 2 2 2 2 2 2 2 2 2
left_child=1 2 3 4 5 -1 -7 -8 9 10 11 12 13 -4
right_child=-2 -3 8 -5 -6 6 7 -9 -10 -11 -12 -13 -14 -15
leaf_value=-0.0096151430246024551 -6.2535688317070479e-05 0.00067711632872732267 0.016534193169156258 0.00027822027893310473 0.001173909090831281 0.011140167761785799 -0.015989149918111609 -0.0027204155212038547 -0.00013723715364825364 -0.00012881265778935639 -0.0077775896378708149 -0.0052216381416656079 0.033346588563706196 -0.00091928677002215407
leaf_weight=133 14446 1871 33 976 111 34 23 37 3937 562 44 24 35 32
leaf_count=133 14446 1871 33 976 111 34 23 37 3937 562 44 24 35 32
internal_value=0 0.000115052 -6.07748e-05 -0.000735622 -0.00366317 -0.00602843 -0.000953618 -0.00780676 0.000129229 0.00156632 0.00723696 0.0125647 0.0168334 0.00794171
internal_weight=0 7852 5981 1314 338 227 94 60 4667 730 168 124 100 65
internal_count=22298 7852 5981 1314 338 227 94 60 4667 730 168 124 100 65
shrinkage=0.15


Tree=313
num_leaves=15
num_cat=0
split_feature=4 26 4 7 22 24 17 3 23 3 14 7 23 15
split_gain=0.00631931 0.0374419 0.099293 0.10271 0.0857226 0.0445935 0.221316 0.129083 0.117248 0.299371 0.290564 0.142466 0.180767 0.139914
threshold=0.23991900000000002 -0.0015291349999999998 0.81704150000000009 3.4278550000000004e-05 -0.47132899999999994 0.28193150000000006 5.8413400000000014e-06 -6.6205399999999992 -12.376299999999999 -14.226749999999997 0.0013653750000000003 3.6183350000000007e-05 -9.7338699999999978 4.2854450000000007e-07
decision_type=2 2 2 2 2 2 2 2 2 2 2 2 2 2
left_child=-1 2 4 -4 -2 -3 7 8 9 -7 13 12 -12 -10
right_child=1 5 3 -5 -6 6 -8 -9 10 -11 11 -13 -14 -15
leaf_value=-4.7837969888316202e-05 -0.0013471735864155122 4.1263810444603877e-05 0.0096622954048639666 -0.0014327022732004478 -0.012880509027384286 0.017269395152106883 -0.00090881889080835214 -0.0007439205440147946 0.011042567182032923 -0.0017266254132014831 0.020752517546061423 -0.0017000834314124156 0.00058505635242909191 0.028572855183156207
leaf_weight=16409 29 4927 22 128 29 24 437 84 21 84 20 44 20 20
leaf_count=16409 29 4927 22 128 29 24 437 84 21 84 20 44 20 20
internal_value=0 0.000133295 -0.00184336 0.000194564 -0.00711384 0.000205666 0.00127995 0.00429728 0.00611471 0.00249471 0.00924239 0.00418985 0.0106688 0.0195939
internal_weight=0 5889 208 150 58 5681 754 317 233 108 125 84 40 41
internal_count=22298 5889 208 150 58 5681 754 317 233 108 125 84 40 41
shrinkage=0.15


Tree=314
num_leaves=15
num_cat=0
split_feature=7 35 5 15 38 8 7 11 22 28 4 23 3 36
split_gain=0.00701314 0.04629 0.0693998 0.0747401 0.0330321 0.0486264 0.0833585 0.103964 0.0606602 0.0586369 0.218626 0.289697 0.213573 0.0460205
threshold=3.8854650000000009e-05 1.7006450000000002 1.0540700000000001e-05 8.1371250000000015e-08 -0.0018302999999999998 6.1391050000000014e-06 2.4374100000000004e-05 -1.0650799999999998e-05 -1.5341449999999999 -0.018294949999999994 0.087711700000000017 -14.300099999999999 -8.3853449999999992 -0.0019384549999999997
decision_type=2 2 2 2 2 2 2 2 2 2 2 2 2 2
left_child=1 4 -3 -4 5 -1 7 -7 -9 10 -8 -12 -13 -11
right_child=-2 2 3 -5 -6 6 9 8 -10 13 11 12 -14 -15
leaf_value=-0.00018548988319924844 7.1505405056870153e-05 -0.0035135960682633922 0.0020294065375558354 0.013476585774748985 -0.0002604323740132229 0.014821146697398613 -0.0015439231948800047 -0.0032618864813981495 0.0067730866184815977 -0.0047784413354536297 -0.0038533937075743985 0.023138396061403908 0.0033788907328562347 0.00041432047474905293
leaf_weight=985 12945 22 33 21 7635 22 99 23 33 43 26 32 20 359
leaf_count=985 12945 22 33 21 7635 22 99 23 33 43 26 32 20 359
internal_value=0 -9.89669e-05 0.00358789 0.00648109 -0.000129171 0.000481172 0.00148066 0.00608402 0.00265158 0.000860515 0.00313542 0.00907459 0.0155386 -0.000141124
internal_weight=0 9353 76 54 9277 1642 657 78 56 579 177 78 52 402
internal_count=22298 9353 76 54 9277 1642 657 78 56 579 177 78 52 402
shrinkage=0.15


Tree=315
num_leaves=15
num_cat=0
split_feature=14 34 13 2 14 14 11 20 0 19 11 7 0 22
split_gain=0.00747131 0.0165788 0.0220997 0.0294498 0.0424573 0.0531705 0.0354572 0.0251105 0.0322441 0.0444911 0.0341203 0.036686 0.0304108 0.0206728
threshold=8.5393400000000015e-05 0.0031487850000000003 0.00010337800000000001 -2.1396949999999992 0.00010832200000000001 9.8523750000000017e-05 -1.9979199999999997e-05 8.504920000000002 3.0770850000000007 2.7869450000000004e-08 3.5950300000000007e-05 3.9013150000000004e-05 6.1955100000000014 -1.6515499999999999
decision_type=2 2 2 2 2 2 2 2 2 2 2 2 2 2
left_child=-1 2 3 6 5 -5 -2 8 9 -6 11 -10 -9 -11
right_child=1 -3 -4 4 7 -7 -8 12 10 13 -12 -13 -14 -15
leaf_value=0.00020488128139153685 0.0018798229517415165 -7.0967427675780098e-05 -0.00065084259117697966 0.00040523910363845058 -0.0063635489353328018 -0.0087614639292951327 0.0084434897908729246 0.00037582162929336642 0.0034007977381115776 0.0036116383756721777 0.0013366151307141567 0.010871748110678578 -0.004585855877854296 0.00023683281441141813
leaf_weight=3395 117 17847 263 35 20 24 22 135 50 53 103 21 35 178
leaf_count=3395 117 17847 263 35 20 24 22 135 50 53 103 21 35 178
internal_value=0 -3.67969e-05 0.000540704 0.000935883 0.000514464 -0.00332359 0.00291868 0.000895044 0.00151134 0.000423514 0.00308056 0.00561052 -0.0006457 0.00101114
internal_weight=0 18903 1056 793 654 59 139 595 425 251 174 71 170 231
internal_count=22298 18903 1056 793 654 59 139 595 425 251 174 71 170 231
shrinkage=0.15


Tree=316
num_leaves=15
num_cat=0
split_feature=4 26 3 19 21 1 1 23 19 5 3 39 24 9
split_gain=0.00718141 0.0174065 0.0375346 0.0243102 0.0152282 0.163157 0.0558299 0.118224 0.0283002 0.0275998 0.0161303 0.0233842 0.0149957 0.055309
threshold=-0.96219699999999986 0.0018695000000000003 -6.8739799999999995 0.00016276350000000002 12.350850000000001 11.152950000000002 7.082110000000001 -6.828269999999999 8.1708200000000029e-06 7.9919950000000021e-06 -12.678699999999997 0.010303700000000001 -1.1249249999999997 -6.1783549999999994e-06
decision_type=2 2 2 2 2 2 2 2 2 2 2 2 2 2
left_child=1 12 3 -3 -2 6 9 -8 -9 -6 11 -11 13 -1
right_child=4 2 -4 -5 5 -7 7 8 -10 10 -12 -13 -14 -15
leaf_value=0.0078851310652680688 -6.3411153771721329e-05 0.0043996029440313581 -0.0073838002199772736 -0.0011813910835603754 0.0060838018398862914 0.010092444153717503 0.0053636156205902809 -0.012355409996499391 -0.0046570321476402951 0.00072044680752826812 -0.00017309114468026308 0.0066956166678573932 0.00021220922740627991 -0.0026558267202095262
leaf_weight=24 17651 20 20 144 20 39 20 22 21 56 278 20 3942 21
leaf_count=24 17651 20 20 144 20 39 20 22 21 56 278 20 3942 21
internal_value=0 0.000177462 -0.00124894 -0.000500782 -4.08339e-05 0.000796376 -3.32502e-05 -0.0041642 -0.00859574 0.000662604 0.000356322 0.00229286 0.000243291 0.00296602
internal_weight=0 4171 184 164 18127 476 437 63 43 374 354 76 3987 45
internal_count=22298 4171 184 164 18127 476 437 63 43 374 354 76 3987 45
shrinkage=0.15


Tree=317
num_leaves=15
num_cat=0
split_feature=1 21 5 21 3 22 7 27 23 3 23 3 3 7
split_gain=0.00697963 0.0339445 0.0856154 0.0333998 0.0161312 0.0569621 0.0151807 0.0144889 0.00899527 0.0434256 0.00861772 0.0317912 0.00995151 0.00822971
threshold=-11.277949999999999 -12.002549999999998 2.2498150000000001e-05 -1.8524549999999997 -6.3033449999999993 -1.9394849999999997 2.4630400000000004e-05 22.199000000000002 -7.6724749999999995 -5.9574799999999994 -7.1221599999999992 -5.9150349999999987 -5.9574799999999994 2.7259350000000005e-05
decision_type=2 2 2 2 2 2 2 2 2 2 2 2 2 2
left_child=1 2 -1 4 5 -3 -5 10 -6 -10 12 -12 -8 -2
right_child=13 3 -4 6 8 -7 7 -9 9 -11 11 -13 -14 -15
leaf_value=0.010512768954504282 -0.00029665379819359821 -0.0093319057580083607 -0.0026019250462663225 0.0032853062474815587 -2.9369126798805067e-05 0.0018534931720101408 0.002138834997740288 -0.0033081850782036779 -0.0074441713159498959 -0.0003291228765010601 -0.0046392747814275812 0.0014611117814446945 0.0006389889314988074 1.1635886323843444e-05
leaf_weight=24 2172 20 21 54 302 21 134 20 23 120 29 57 387 18914
leaf_count=24 2172 20 21 54 302 21 134 20 23 120 29 57 387 18914
internal_value=0 0.000350042 0.00439258 0.00019416 -0.000755751 -0.0036028 0.00087207 0.000664232 -0.000493439 -0.0014735 0.000795119 -0.000595995 0.00102475 -2.012e-05
internal_weight=0 1212 45 1167 486 41 681 627 445 143 607 86 521 21086
internal_count=22298 1212 45 1167 486 41 681 627 445 143 607 86 521 21086
shrinkage=0.15


Tree=318
num_leaves=15
num_cat=0
split_feature=5 20 11 21 32 13 37 23 14 23 3 0 13 3
split_gain=0.0066533 0.0354318 0.0698552 0.166205 0.216306 0.543461 0.171842 0.129241 0.134035 0.253244 0.33721 0.267533 0.25634 0.197941
threshold=1.1439400000000003e-05 3.5082850000000003 1.6815150000000001e-05 -5.4912699999999992 0.082573350000000004 1.4741950000000002e-05 -5.7540249999999989e-07 -14.300099999999999 0.0011409300000000003 -7.9811899999999989 -8.0227549999999983 5.3452100000000007 1.2470950000000001e-05 -8.0227549999999983
decision_type=2 2 2 2 2 2 2 2 2 2 2 2 2 2
left_child=1 -1 -3 -4 6 -6 -5 -8 9 10 11 -9 -13 -11
right_child=-2 2 3 4 5 -7 7 8 -10 13 -12 12 -14 -15
leaf_value=-0.00013177154142232964 -4.6975052381780998e-05 5.0978681526985338e-05 -0.0027528924046406286 0.015725478598687913 0.031121081473039727 0.00025328092676566236 -0.0083491083321502752 0.0012498757161665708 -0.0007207512191292081 -0.0058178897348224673 -0.0057084892854618371 0.012153741230389901 0.032816655106249856 0.010587094977761254
leaf_weight=3624 16782 1296 129 20 21 33 28 24 178 59 24 35 22 23
leaf_count=3624 16782 1296 129 20 21 33 28 24 178 59 24 35 22 23
internal_value=0 0.000142918 0.000669067 0.0020131 0.00332961 0.0122574 0.0021623 0.00147206 0.00222546 0.00502988 0.00990801 0.0145351 0.0201289 -0.00121649
internal_weight=0 5516 1892 596 467 54 413 393 365 187 105 81 57 82
internal_count=22298 5516 1892 596 467 54 413 393 365 187 105 81 57 82
shrinkage=0.15


Tree=319
num_leaves=15
num_cat=0
split_feature=16 26 16 20 30 38 22 2 34 19 35 7 26 26
split_gain=0.00664653 0.0402456 0.0789017 0.0579601 0.0343 0.0321781 0.0254125 0.0590708 0.0236596 0.0509621 0.136487 0.235491 0.121519 0.117391
threshold=2.9850350000000006e-06 -0.0022811249999999997 1.5438900000000002e-05 -8.9546649999999985 0.026447350000000005 -0.80259099999999994 -2.8570549999999995 -2.4841749999999996 0.20270750000000001 8.5782450000000018e-05 -0.00028032599999999996 4.1823600000000004e-05 -8.7028949999999993e-05 0.0001691955
decision_type=2 2 2 2 2 2 2 2 2 2 2 2 2 2
left_child=-1 2 -2 -4 -5 -3 7 -7 -8 10 -10 12 -12 -13
right_child=1 5 3 4 -6 6 8 -9 9 -11 11 13 -14 -15
leaf_value=-4.555387753731466e-05 -0.0087784324518658894 -0.0046829959217575372 0.0057732476304338956 0.00012016036455406721 -0.0062808739306825781 0.0095704729110002509 -2.171652093370646e-05 0.0010426421536839422 -0.0016330281271924225 0.00032977611316854289 0.023903755657374858 -0.0045622398226515615 0.0073684027581475678 0.0080643049650825551
leaf_weight=17029 33 30 26 48 31 20 3635 212 81 1046 20 37 20 30
leaf_count=17029 33 30 26 48 31 20 3635 212 81 1046 20 37 20 30
internal_value=0 0.000147227 -0.0023806 -0.000369857 -0.00239164 0.000215213 0.000244021 0.0017778 0.000170939 0.000738444 0.0030122 0.00652869 0.0156361 0.00109144
internal_weight=0 5269 138 105 79 5131 5101 232 4869 1234 188 107 40 67
internal_count=22298 5269 138 105 79 5131 5101 232 4869 1234 188 107 40 67
shrinkage=0.15


Tree=320
num_leaves=15
num_cat=0
split_feature=12 22 6 2 0 20 22 2 34 2 20 0 32 22
split_gain=0.00657347 0.0192666 0.0485512 0.0826569 0.242407 0.485156 0.410992 0.29499 0.367077 0.138188 0.135609 0.134793 0.106623 0.0909098
threshold=0.00013816550000000002 2.2215250000000002 1.8296850000000004e-07 2.2135850000000006 -7.8067899999999986 -8.1590649999999982 2.5009900000000003 2.5761650000000005 0.10628200000000002 1.7695450000000001 -7.4702999999999991 -9.7577099999999977 -0.023631099999999999 2.4132000000000002
decision_type=2 2 2 2 2 2 2 2 2 2 2 2 2 2
left_child=1 -1 -3 9 10 -6 -7 -8 -9 -4 11 -5 -12 -11
right_child=-2 2 3 4 5 6 7 8 -10 13 12 -13 -14 -15
leaf_value=-9.8488037363319385e-05 0.00017204637940781623 0.0010029170271102306 -0.00045572594114095079 -0.0025773400321912315 -0.0081704440499799184 0.023656073223369625 -0.0078410846080967326 0.026278202927538324 -0.0017680852806993893 -0.015296578119575445 -0.003219750941664132 0.010785003671430629 -0.015434807306737639 -0.0040621297713994246
leaf_weight=15827 4082 1252 726 41 39 39 27 21 21 21 82 29 20 71
leaf_count=15827 4082 1252 726 41 39 39 27 21 21 21 82 29 20 71
internal_value=0 -3.85536e-05 0.000358509 -0.000351078 0.00169693 0.00616968 0.0113481 0.00439135 0.0122551 -0.00114975 -0.00212571 0.00295849 -0.00561486 -0.00662651
internal_weight=0 18216 2389 1137 319 147 108 69 42 818 172 70 102 92
internal_count=22298 18216 2389 1137 319 147 108 69 42 818 172 70 102 92
shrinkage=0.15


Tree=321
num_leaves=15
num_cat=0
split_feature=23 1 21 3 23 3 3 18 29 14 3 14 5 1
split_gain=0.00738186 0.0334513 0.0942504 0.327708 0.174325 0.946597 0.434779 0.181549 0.178071 0.0872251 0.0839633 0.174332 0.0508332 0.0412403
threshold=-7.1566449999999993 8.503045000000002 8.9024600000000031 -7.1713399999999998 -6.6267649999999989 -6.5485099999999994 -6.5485099999999994 4.9285250000000014e-07 -0.0014087599999999998 0.0009749060000000001 -5.9356799999999987 0.00011475850000000001 1.0873100000000001e-05 10.445600000000001
decision_type=2 2 2 2 2 2 2 2 2 2 2 2 2 2
left_child=-1 -2 10 9 5 -5 -6 8 -8 -4 11 13 -13 -3
right_child=1 2 3 4 6 -7 7 -9 -10 -11 -12 12 -14 -15
leaf_value=-4.4115019099843215e-05 0.00032556380150777032 -0.014194190942549279 -0.015444176810793579 0.037644450896477791 -0.016835909354014564 -0.0039548101180116643 -0.0090533797642406589 0.016300558276270749 0.0079879028043030077 -0.0023308990232180802 0.00061872344093880734 0.0055245678126811977 -0.0024751408910654096 -0.0063917255261912937
leaf_weight=17679 4014 35 25 20 23 32 22 28 37 21 147 20 168 27
leaf_count=17679 4014 35 25 20 23 32 22 28 37 21 147 20 168 27
internal_value=0 0.000168848 -0.000870915 0.00171562 0.00488829 0.0120449 0.00150516 0.00635395 0.00163353 -0.00945768 -0.00222608 -0.00389882 -0.00162411 -0.0107963
internal_weight=0 4619 605 208 162 52 110 87 59 46 397 250 188 62
internal_count=22298 4619 605 208 162 52 110 87 59 46 397 250 188 62
shrinkage=0.15


Tree=322
num_leaves=15
num_cat=0
split_feature=14 30 3 11 26 39 3 16 13 0 31 0 34 37
split_gain=0.00720768 0.0198901 0.0324086 0.0343302 0.0425294 0.0254784 0.0558071 0.0240869 0.0196613 0.0175911 0.0404723 0.0197447 0.0289669 0.0211721
threshold=8.5393400000000015e-05 6.7226250000000014e-05 -6.5727499999999992 9.6194650000000009e-06 5.1584900000000008e-05 8.6575650000000011e-07 -5.8103499999999988 -2.5818749999999994e-07 9.9949150000000008e-06 10.630000000000001 -0.014971749999999997 11.287050000000002 0.033432350000000007 7.8091250000000024e-09
decision_type=2 2 2 2 2 2 2 2 2 2 2 2 2 2
left_child=1 2 -1 7 -5 6 -3 -4 -9 -7 11 12 -11 -13
right_child=-2 5 3 4 -6 9 -8 8 -10 10 -12 13 -14 -15
leaf_value=-0.0058753758941873391 -3.6141876191908272e-05 0.009774995571642648 0.0017559377450114962 -0.0013236835543066264 0.0076139501371906828 0.00046974153412041204 -0.00059939302279547388 -0.0014592747563438022 -0.0060501500306981461 -0.0083979035744310496 0.00061443945839789607 0.00041603912486976155 -0.0014561868560696511 -0.0019043194807836594
leaf_weight=29 18903 20 33 25 23 2220 28 65 31 21 494 148 38 220
leaf_count=29 18903 20 33 25 23 2220 28 65 31 21 494 148 38 220
internal_value=0 0.000201234 -0.00122728 -0.000465722 0.00295893 0.000293512 0.00372327 -0.00174001 -0.00294174 0.000241099 -0.000310027 -0.00137955 -0.00392697 -0.000971132
internal_weight=0 3395 206 177 48 3189 48 129 96 3141 921 427 59 368
internal_count=22298 3395 206 177 48 3189 48 129 96 3141 921 427 59 368
shrinkage=0.15


Tree=323
num_leaves=15
num_cat=0
split_feature=7 31 9 20 14 32 15 15 3 34 14 14 23 26
split_gain=0.00643448 0.032924 0.0746443 0.137996 0.105441 0.0374318 0.0503302 0.0317615 0.0273848 0.0460689 0.0542792 0.0638477 0.145091 0.0462989
threshold=3.8854650000000009e-05 -1.5261949999999997 2.4324200000000003e-05 9.426420000000002 0.0013268100000000001 9.0511800000000004 1.9244950000000005e-06 2.3408800000000002e-07 -6.6798249999999992 0.0056435200000000008 9.2084100000000015e-05 0.00015176150000000002 -6.7467449999999998 -5.4549499999999997e-05
decision_type=2 2 2 2 2 2 2 2 2 2 2 2 2 2
left_child=1 2 5 4 -4 6 7 -1 9 10 -3 12 -12 -11
right_child=-2 8 3 -5 -6 -7 -8 -9 -10 13 11 -13 -14 -15
leaf_value=-0.00013861497721958776 6.8491921123857032e-05 -0.0051980156561031053 -0.0026466184738092127 0.015648256599005046 0.0090772602071995476 0.0063812757236883042 -0.0055764562670186516 0.0054934066068381077 0.00034179735306888855 -2.0244958843659471e-05 0.013011146839708091 0.00057061124670718165 -0.0017413472139742225 -0.00084982463080096604
leaf_weight=228 12945 34 45 21 28 20 36 25 1955 2959 30 843 30 3099
leaf_count=228 12945 34 45 21 28 20 36 25 1955 2959 30 843 30 3099
internal_value=0 -9.47961e-05 0.00123147 0.00493275 0.00185021 0.000105515 -0.000328794 0.000417909 -0.000154515 -0.000293227 0.000685578 0.000907109 0.0056349 -0.000444621
internal_weight=0 9353 403 94 73 309 289 253 8950 6995 937 903 60 6058
internal_count=22298 9353 403 94 73 309 289 253 8950 6995 937 903 60 6058
shrinkage=0.15


Tree=324
num_leaves=15
num_cat=0
split_feature=20 35 2 2 5 10 3 18 17 17 12 20 3 28
split_gain=0.00613811 0.00629621 0.0304696 0.0359553 0.0330636 0.0217561 0.0222911 0.0282647 0.0170761 0.0347078 0.115612 0.0440501 0.020465 0.0164863
threshold=26.818400000000004 -0.13470549999999998 -2.9705399999999993 -2.7451199999999996 7.8910150000000022e-06 1.5560950000000002e-05 -14.405299999999999 -1.0197499999999997e-05 3.7160050000000004e-06 6.7226300000000004e-07 -5.7461099999999998e-05 -4.6417749999999991 -6.795914999999999 -0.47810599999999998
decision_type=2 2 2 2 2 2 2 2 2 2 2 2 2 2
left_child=1 2 -1 -4 -5 6 -6 -8 9 13 -11 -12 -13 -7
right_child=-2 -3 3 4 5 8 7 -9 -10 10 11 12 -14 -15
leaf_value=-0.0052690867999834676 -0.0023033949959846301 -1.4126994040914419e-05 0.0059024532907642419 0.0062291996087878937 -0.0062319907476194201 -0.0018471148054008014 -0.005122181676510398 0.0011569238618701798 -0.00057268350725213097 0.012294952219817789 0.0054723253706470132 -0.0045344680605921891 0.0015708994132832489 0.00074312135568254387
leaf_weight=21 26 21324 27 21 21 65 23 54 243 25 27 30 21 370
leaf_count=21 26 21324 27 21 21 65 23 54 243 25 27 30 21 370
internal_value=0 2.68895e-06 0.000380941 0.000508935 0.00034713 0.000206603 -0.00190008 -0.000718653 0.00047095 0.000942331 0.00341827 0.000573175 -0.00202049 0.000356075
internal_weight=0 22272 948 927 900 879 98 77 781 538 103 78 51 435
internal_count=22298 22272 948 927 900 879 98 77 781 538 103 78 51 435
shrinkage=0.15


Tree=325
num_leaves=15
num_cat=0
split_feature=15 37 15 30 32 34 13 37 10 7 24 18 17 34
split_gain=0.00643872 0.0379276 0.019397 0.0473037 0.0273484 0.0188121 0.0216046 0.0181916 0.0658764 0.0530996 0.0720389 0.052968 0.0392339 0.0210999
threshold=-1.5801699999999998e-05 -8.9029899999999986e-06 -7.8084199999999993e-05 0.070796800000000007 2.2959800000000006 5.6356850000000014 0.00013637800000000001 -1.5826649999999995e-05 1.5860650000000002e-05 3.4112600000000009e-05 1.0940150000000004 0.00018843350000000004 -3.0449249999999995e-06 2.5533900000000003
decision_type=2 2 2 2 2 2 2 2 2 2 2 2 2 2
left_child=1 5 -3 4 -4 6 -1 8 -2 10 -10 12 -11 -14
right_child=7 2 3 -5 -6 -7 -8 -9 9 11 -12 -13 13 -15
leaf_value=-0.0088823273555317436 -0.0047454734488604341 -5.2944197124614653e-05 0.0006690891224733445 0.0075779951808561397 -0.0037666291143978012 5.7246071620560852e-06 -0.0019937190559825724 -5.2505726380219645e-05 0.0018841224196127287 0.0074892138994764532 0.013058083444567664 -0.0044124835842688165 -0.0024882845302636272 0.0020371199640709056
leaf_weight=20 37 1923 1379 22 32 23 21 18594 34 25 21 35 30 102
leaf_count=20 37 1923 1379 22 32 23 21 18594 34 25 21 35 30 102
internal_value=0 0.000189375 0.000258357 0.000676104 0.000568492 -0.00342786 -0.00535402 -3.43078e-05 0.00115714 0.00204134 0.00615054 0.000864225 0.00204056 0.00100862
internal_weight=0 3420 3356 1433 1411 64 41 18878 284 247 55 192 157 132
internal_count=22298 3420 3356 1433 1411 64 41 18878 284 247 55 192 157 132
shrinkage=0.15


Tree=326
num_leaves=15
num_cat=0
split_feature=28 8 2 8 7 23 14 14 20 19 5 2 3 5
split_gain=0.00650362 0.043142 0.0536593 0.0806658 0.0474381 0.0494749 0.0410683 0.0382528 0.0346216 0.0391165 0.0356588 0.0296963 0.0346392 0.0210543
threshold=0.35180050000000007 -1.3664249999999999e-05 2.0557600000000007 -7.3229699999999988e-06 4.5000550000000007e-05 -7.1566449999999993 0.0016468900000000002 0.00079036350000000015 -9.7740549999999988 0.0026686700000000006 1.6250300000000003e-05 -0.74348199999999987 -6.947284999999999 1.2096900000000001e-05
decision_type=2 2 2 2 2 2 2 2 2 2 2 2 2 2
left_child=-1 4 6 -4 -2 -6 7 11 -8 10 13 12 -3 -10
right_child=1 2 3 -5 5 -7 8 -9 9 -11 -12 -13 -14 -15
leaf_value=1.2431269719837531e-05 -0.0073251613030711612 0.0055208577554219877 0.011560213788073849 -0.0016021619603270663 -0.003411167673237452 0.0047510899239568971 0.0013886412400018384 0.0061466773794030625 -0.005374414861268763 -0.00031676603299702569 -0.00049084562750067561 -0.0021793292904856488 -0.00041504979429935867 -0.011746594207361339
leaf_weight=21785 39 37 22 20 55 24 46 29 28 51 20 67 55 20
leaf_count=21785 39 37 22 20 55 24 46 29 28 51 20 67 55 20
internal_value=0 -0.000527905 0.000223934 0.00529242 -0.00304466 -0.000931494 -0.000379114 0.00113661 -0.00210612 -0.00345704 -0.00581224 0.000222823 0.00197222 -0.00802949
internal_weight=0 513 395 42 118 79 353 188 165 119 68 159 92 48
internal_count=22298 513 395 42 118 79 353 188 165 119 68 159 92 48
shrinkage=0.15


Tree=327
num_leaves=15
num_cat=0
split_feature=12 20 19 32 20 14 32 30 7 26 14 29 23 27
split_gain=0.00633634 0.0645292 0.188343 0.177067 0.0947161 0.0914616 0.173248 0.600088 0.499227 0.319416 0.172588 0.241137 0.15708 0.253251
threshold=8.3489800000000001e-05 5.5130950000000007 8.3917300000000013e-08 0.0042554950000000006 7.2319950000000004 0.0012160750000000003 -0.03156164999999999 0.00026070300000000004 4.9288500000000008e-05 -5.9322049999999996e-05 0.00077728850000000017 -0.0016327149999999999 -9.3185099999999981 0.7840180000000001
decision_type=2 2 2 2 2 2 2 2 2 2 2 2 2 2
left_child=-1 5 3 4 -3 6 7 8 9 -2 12 -12 -9 -14
right_child=1 2 -4 -5 -6 -7 -8 10 -10 -11 11 -13 13 -15
leaf_value=-4.6957775904511144e-05 0.010362535507143052 -0.02044948242022656 -0.00026810816222556201 0.0011589340805831189 -0.0079076977036882969 4.9459698004684348e-05 -2.8919811672299795e-05 -0.0035602280478555979 0.0018258892447472763 0.033995341318809699 0.019193217771593479 0.0016589861491229385 0.019145668235141786 -0.00061361175054723083
leaf_weight=16580 22 20 1313 37 42 3326 560 169 39 31 25 60 20 54
leaf_count=16580 22 20 1313 37 42 3326 560 169 39 31 25 60 20 54
internal_value=0 0.000136159 -0.000743809 -0.00705285 -0.0119534 0.000424714 0.00169828 0.00400122 0.014707 0.0241855 0.000998382 0.00681611 -0.00103663 0.00472673
internal_weight=0 5718 1412 99 62 4306 980 420 92 53 328 85 243 74
internal_count=22298 5718 1412 99 62 4306 980 420 92 53 328 85 243 74
shrinkage=0.15


Tree=328
num_leaves=15
num_cat=0
split_feature=4 26 30 13 31 34 38 23 3 38 4 4 3 33
split_gain=0.00638256 0.0192402 0.0271171 0.0185731 0.0778299 0.055155 0.118461 0.0251116 0.0680617 0.0312513 0.0445893 0.0477763 0.0249528 0.0224726
threshold=0.63880700000000012 7.2799950000000018e-05 0.14244100000000001 5.8559850000000005e-05 2.6741000000000006 2.7222300000000006 -0.037426999999999995 -18.279099999999996 -13.799749999999998 -0.018449449999999996 2.1500100000000004 2.7007850000000002 -12.836399999999999 -1.1829249999999999e-07
decision_type=2 2 2 2 2 2 2 2 2 2 2 2 2 2
left_child=-1 3 -3 4 5 6 -2 8 -5 10 12 -12 -9 -8
right_child=1 2 -4 7 -6 -7 13 9 -10 -11 11 -13 -14 -15
leaf_value=-4.0510280562455541e-05 0.0087442211284478374 0.0006909498545285671 -0.003475306013448668 0.009840349742153193 0.0085421451927126888 -0.0064574368906000412 0.00079889777354521618 -0.010303954251576214 -0.00057470051758627965 -0.00024141543330026357 0.00564965354985491 -0.0021256811721443603 -0.0033135452372435891 -0.00062639925014738136
leaf_weight=17770 37 1490 36 20 26 27 508 20 48 1664 21 116 27 488
leaf_count=17770 37 1490 36 20 26 27 508 20 48 1664 21 116 27 488
internal_value=0 0.000158981 0.000592663 -6.14712e-05 0.000434105 0.000235229 0.000410158 -0.000342367 0.00248855 -0.000446535 -0.00230153 -0.000933842 -0.00628819 0.000100559
internal_weight=0 4528 1526 3002 1086 1060 1033 1916 68 1848 184 137 47 996
internal_count=22298 4528 1526 3002 1086 1060 1033 1916 68 1848 184 137 47 996
shrinkage=0.15


Tree=329
num_leaves=15
num_cat=0
split_feature=12 36 19 32 23 14 4 38 26 6 33 31 15 35
split_gain=0.00604624 0.0237043 0.0236598 0.120947 0.0440164 0.0295044 0.0205327 0.0537068 0.0118143 0.0202319 0.0111659 0.0111381 0.0271341 0.0609357
threshold=-0.00028365249999999991 0.23757050000000002 9.9003350000000012e-05 0.13641400000000004 -14.300099999999999 0.0036806550000000001 -0.62358449999999988 0.074399400000000018 0.0026135900000000003 1.2623400000000002e-06 3.0097400000000004e-06 0.13690300000000002 -7.6434449999999986e-08 0.0066452350000000002
decision_type=2 2 2 2 2 2 2 2 2 2 2 2 2 2
left_child=1 2 3 4 -1 -6 7 -3 -4 -10 -7 -2 13 -13
right_child=11 6 8 -5 5 10 -8 -9 9 -11 -12 12 -14 -15
leaf_value=-0.0066040651331422846 -8.3658347680451409e-05 0.0008896991658839397 0.00013345410343347421 0.0098494591405739931 -0.0032135256984754676 0.0014018414328254912 0.00036907351800104287 -0.0087587082538650267 7.9964847782321161e-05 0.0061616074533958455 0.0054081236887925663 0.00049385266059862238 0.00052148757303164108 -0.0015036178670877985
leaf_weight=20 15885 25 2373 35 26 49 41 27 32 20 23 854 2313 575
leaf_count=20 15885 25 2373 35 26 49 41 27 32 20 23 854 2313 575
internal_value=0 0.000211734 0.000296607 0.00210572 -0.000191152 0.00111761 -0.00214097 -0.00412005 0.000182465 0.00241906 0.00268163 -2.88145e-05 0.000204001 -0.000309888
internal_weight=0 2671 2578 153 118 98 93 52 2425 52 72 19627 3742 1429
internal_count=22298 2671 2578 153 118 98 93 52 2425 52 72 19627 3742 1429
shrinkage=0.15


Tree=330
num_leaves=15
num_cat=0
split_feature=12 21 19 10 21 14 3 23 23 14 23 14 3 28
split_gain=0.00628554 0.0215473 0.0383777 0.0419904 0.0265083 0.192593 0.471478 0.539259 0.0705359 0.189715 0.0394371 0.0524885 0.0970027 0.0831844
threshold=0.00013816550000000002 8.2288750000000004 1.1761000000000001e-05 2.2400650000000004e-05 4.8621800000000013 0.0021166150000000005 -9.5215949999999996 -9.898279999999998 -13.67085 0.0043355750000000004 -7.9460849999999992 0.0035620550000000006 -9.5215949999999996 0.015169550000000002
decision_type=2 2 2 2 2 2 2 2 2 2 2 2 2 2
left_child=-1 4 3 -3 10 6 7 -6 9 -7 11 12 13 -2
right_child=1 2 -4 -5 5 8 -8 -9 -10 -11 -12 -13 -14 -15
leaf_value=-3.7699843399990092e-05 -0.0023305033297049246 -0.0009798672580343139 -0.00022670407976363319 -0.0084790077492860813 0.03215842188542916 0.015032435160628663 -0.00049898327974265812 0.00010908051127833979 -0.00099903027277873551 -0.00095096488556671165 0.0010408772250562707 0.00022732768558801855 0.00064235891098167951 -0.0096859321586089207
leaf_weight=18216 256 42 494 28 27 24 84 21 401 55 766 1583 261 40
leaf_count=18216 256 42 494 28 27 24 84 21 401 55 766 1583 261 40
internal_value=0 0.000168236 -0.00069248 -0.00397952 0.000306225 0.00120346 0.00627768 0.0181368 -0.00019195 0.00390475 0.000117268 -0.000213332 -0.00146569 -0.00332448
internal_weight=0 4082 564 70 3518 612 132 48 480 79 2906 2140 557 296
internal_count=22298 4082 564 70 3518 612 132 48 480 79 2906 2140 557 296
shrinkage=0.15


Tree=331
num_leaves=15
num_cat=0
split_feature=10 3 29 25 3 25 23 25 22 3 19 14 3 5
split_gain=0.00601021 0.040192 0.0308561 0.0243029 0.0412737 0.0212272 0.0210105 0.0203258 0.0213196 0.0738559 0.164287 0.0427101 0.180954 0.0474638
threshold=4.7574800000000011e-05 -17.017449999999997 0.017456950000000002 0.15051900000000004 -8.2700699999999987 112.04900000000002 -11.460899999999999 5.1846950000000005 -2.7017049999999996 -11.839049999999999 0.00071549350000000005 0.00015176150000000002 -7.1259249999999996 1.9054550000000005e-05
decision_type=2 2 2 2 2 2 2 2 2 2 2 2 2 2
left_child=-1 2 6 4 -3 7 -2 8 9 10 -5 12 -11 -13
right_child=1 3 -4 5 -6 -7 -8 -9 -10 11 -12 13 -14 -15
leaf_value=-4.8167647805586437e-05 -0.0047164160155807617 -0.0069321555562682673 -0.0077109660975772636 0.01712587482354138 1.8735901654795988e-05 0.0047626572762332533 0.00011914695773039937 -0.00054384896297009146 0.00021583552785436522 0.015784286545986105 -0.0018700284132916877 -0.0058024914367706517 0.00052439928106212371 0.00029119321564845908
leaf_weight=16128 30 29 22 20 57 23 62 731 4837 20 21 36 139 143
leaf_count=16128 30 29 22 20 57 23 62 731 4837 20 21 36 139 143
internal_value=0 0.000125907 -0.00266444 0.000178434 -0.00232517 0.000214499 -0.00145767 0.000196909 0.000300723 0.0013841 0.00739627 0.000654817 0.00244388 -0.000934352
internal_weight=0 6170 114 6056 86 5970 92 5947 5216 379 41 338 159 179
internal_count=22298 6170 114 6056 86 5970 92 5947 5216 379 41 338 159 179
shrinkage=0.15


Tree=332
num_leaves=15
num_cat=0
split_feature=5 20 20 20 10 11 23 23 3 23 3 3 3 23
split_gain=0.00631733 0.0320015 0.0592893 0.0581064 0.115655 0.054652 0.0872754 0.0765722 0.162733 0.325 0.795574 0.138934 0.213877 0.252832
threshold=1.1439400000000003e-05 3.5082850000000003 2.3020050000000007 1.7427950000000003 1.1078850000000002e-05 2.0893650000000003e-05 -8.1484599999999983 -10.105699999999997 -10.193299999999999 -11.381749999999998 -11.287699999999999 -11.438649999999997 -14.700899999999999 -13.844799999999998
decision_type=2 2 2 2 2 2 2 2 2 2 2 2 2 2
left_child=1 2 3 5 -5 7 -7 8 9 11 -11 12 -1 -14
right_child=-2 -3 -4 4 -6 6 -8 -9 -10 10 -12 -13 13 -15
leaf_value=-0.0020326056725476398 -4.5773641066154287e-05 0.00063929490384450358 -0.0019686701348100876 0.012487304678186775 0.00062388144105567892 -0.0022178162168250107 0.0010683779229269852 -0.00045118052120354921 -0.00033413217704186262 0.0023850454342615925 0.038104519307089503 -0.004588520621630148 0.0010424902266642465 0.011453572032012149
leaf_weight=121 16782 1892 353 25 71 533 276 1285 617 47 20 65 113 98
leaf_count=121 16782 1892 353 25 71 533 276 1285 617 47 20 65 113 98
internal_value=0 0.000139263 -0.000121792 7.752e-05 0.00371331 -3.24127e-05 -0.00109669 0.000331493 0.00126187 0.00338414 0.0130476 0.00175328 0.0029949 0.00587797
internal_weight=0 5516 3624 3271 96 3175 809 2366 1081 464 67 397 332 211
internal_count=22298 5516 3624 3271 96 3175 809 2366 1081 464 67 397 332 211
shrinkage=0.15


Tree=333
num_leaves=15
num_cat=0
split_feature=23 14 14 3 9 20 19 24 37 3 37 3 16 19
split_gain=0.00768079 0.0272547 0.0322533 0.0285092 0.0236077 0.0745985 0.0360071 0.117289 0.0833882 0.0492067 0.0337597 0.0286072 0.0749662 0.0239013
threshold=-15.447399999999998 5.1133000000000007e-05 0.0016468900000000002 -6.2311749999999995 4.8533350000000009e-05 3.9730950000000003 8.1708200000000029e-06 -0.21663299999999996 1.4877750000000002e-07 -14.405299999999999 6.7094050000000006e-07 -18.098299999999998 -1.8516949999999997e-07 1.3556750000000002e-05
decision_type=2 2 2 2 2 2 2 2 2 2 2 2 2 2
left_child=1 -1 3 -3 6 -6 7 9 -9 -4 -10 12 -8 -13
right_child=-2 2 4 -5 5 -7 11 8 10 -11 -12 13 -14 -15
leaf_value=-0.0014605558033254054 -3.3904338903446599e-05 0.0012417545012581017 0.0086015015904558813 -0.0002298196177668871 -0.00014432216916098346 0.010195700174372178 0.0016503190901130437 -0.013752842679619789 0.0012436991687123239 -0.0016786988615587522 -0.0072713868878781784 0.0047178839013213292 -0.010670662749325856 -7.5632617142950835e-05
leaf_weight=200 19418 1054 20 412 73 20 25 25 22 22 20 24 20 943
leaf_count=200 19418 1054 20 412 73 20 25 25 22 22 20 24 20 943
internal_value=0 0.000228595 0.000354651 0.000828188 -0.000217181 0.00207934 -0.000407704 -0.00299806 -0.00689384 0.00321663 -0.0028111 -0.000128703 -0.00382567 4.33378e-05
internal_weight=0 2880 2680 1466 1214 93 1121 109 67 42 42 1012 45 967
internal_count=22298 2880 2680 1466 1214 93 1121 109 67 42 42 1012 45 967
shrinkage=0.15


Tree=334
num_leaves=15
num_cat=0
split_feature=14 23 14 14 7 25 12 37 18 25 10 18 15 31
split_gain=0.00685773 0.016318 0.0282045 0.0270947 0.0590914 0.0763722 0.0693149 0.101075 0.0551633 0.184894 0.110591 0.0768676 0.0944724 0.0482439
threshold=8.5393400000000015e-05 -15.447399999999998 0.0016468900000000002 0.0016468900000000002 5.1474250000000006e-05 5.4411250000000004 -0.00014352299999999997 8.841540000000001e-08 -1.8944399999999998e-05 24.360500000000005 2.5184550000000003e-05 -4.2751549999999987e-06 -8.804664999999999e-07 -0.63008599999999981
decision_type=2 2 2 2 2 2 2 2 2 2 2 2 2 2
left_child=-1 2 -2 4 5 6 7 -3 9 10 -7 12 -10 -8
right_child=1 3 -4 -5 -6 8 13 -9 11 -11 -12 -13 -14 -15
leaf_value=0.00019628811986147489 0.00083662071758672729 -0.0023159832378528231 -0.00018460398305341049 0.00010936626356845354 0.00028520490660385259 0.017734506184102168 -0.003853229945026604 -0.014154607389355077 0.0059474174701608712 -0.0066216043836902832 0.0042921433341689408 0.0012474791692775379 -0.0055505694736760827 -0.00060291611495922183
leaf_weight=3395 1220 86 1214 7990 2821 21 105 20 20 24 40 469 82 4791
leaf_count=3395 1220 86 1214 7990 2821 21 105 20 20 24 40 469 82 4791
internal_value=0 -3.52536e-05 0.000327267 -8.88315e-05 -0.000275599 -0.000555208 -0.000754783 -0.00454969 0.000966557 0.00453167 0.00891984 0.000435848 -0.00329606 -0.000672623
internal_weight=0 18903 2434 16469 8479 5658 5002 106 656 85 61 571 102 4896
internal_count=22298 18903 2434 16469 8479 5658 5002 106 656 85 61 571 102 4896
shrinkage=0.15


Tree=335
num_leaves=15
num_cat=0
split_feature=36 13 19 21 2 16 13 35 23 24 25 23 20 5
split_gain=0.00629295 0.0179667 0.0214395 0.00689776 0.0622593 0.0236927 0.0069268 0.0399641 0.101777 0.0303901 0.0371245 0.0217409 0.0170183 0.00842793
threshold=2.4694650000000005 5.8115950000000009e-06 1.1605450000000001e-06 -16.273949999999996 -1.4875349999999996 2.4277200000000006e-06 -7.4854199999999985e-05 -0.0028487749999999996 -13.501149999999997 -0.18001199999999998 0.55212150000000015 -13.790199999999997 -4.4940249999999997 1.1548250000000001e-05
decision_type=2 2 2 2 2 2 2 2 2 2 2 2 2 2
left_child=3 -2 -3 4 -1 -6 7 8 -5 10 -9 -11 -12 -13
right_child=1 2 -4 6 5 -7 -8 9 -10 11 12 13 -14 -15
leaf_value=0.0086428956338932047 0.0014581836069062831 0.00052849832572974262 -0.0059511396526229672 0.012045377776920087 -0.0032888963042703263 0.0028965478964065286 -1.1360187533334554e-05 -0.0076609617949503911 -0.00026758829957212912 0.005538742451753933 -0.0037771425047970334 -0.0025665405584732069 0.0014187527839493593 0.00067229974774431385
leaf_weight=20 31 20 27 23 38 22 21762 23 44 20 23 20 37 188
leaf_count=20 31 20 27 23 38 22 21762 23 44 20 23 20 37 188
internal_value=0 -0.00134496 -0.00319385 4.72129e-06 0.00139505 -0.0010209 -3.02473e-07 0.000636306 0.00395925 -7.95696e-05 -0.00253714 0.000815072 -0.000573007 0.000360873
internal_weight=0 78 47 22220 80 60 22140 378 67 311 83 228 60 208
internal_count=22298 78 47 22220 80 60 22140 378 67 311 83 228 60 208
shrinkage=0.15


Tree=336
num_leaves=15
num_cat=0
split_feature=3 23 21 20 29 11 23 25 23 17 25 23 15 10
split_gain=0.00708425 0.0691143 0.056 0.0481388 0.111445 0.0741288 0.179223 0.0801261 0.0735655 0.0529761 0.0461807 0.0464739 0.0426539 0.0231881
threshold=-16.190649999999994 -12.845349999999998 -5.7425949999999988 -1.9123699999999999 0.0020838050000000006 1.9509100000000003e-05 -15.447399999999998 0.47588900000000006 -15.561499999999999 1.1210850000000001e-05 0.76254250000000012 -15.690899999999997 -1.5801699999999998e-05 5.0473800000000011e-05
decision_type=2 2 2 2 2 2 2 2 2 2 2 2 2 2
left_child=1 2 -1 9 5 8 7 -7 -5 10 11 -4 -11 -3
right_child=-2 13 3 4 -6 6 -8 -9 -10 12 -12 -13 -14 -15
leaf_value=-0.0082275454269256434 -2.042896872574571e-05 0.001419458769456116 -0.0090491566574200984 -0.0095558824454201382 0.0084600669403752191 0.0021485253400169309 -0.0055136466771156323 0.015266798298530788 -0.00056641387442747746 -0.0030785577441747591 0.0039752625606788864 -0.00011604229803197086 -0.011547181056306253 -0.00071453078113229232
leaf_weight=25 21068 727 20 33 34 20 35 22 54 32 31 38 23 136
leaf_count=25 21068 727 20 33 34 20 35 22 54 32 31 38 23 136
internal_value=0 0.000349917 -0.00137431 -0.000873346 0.000644314 -0.000976025 0.0024138 0.00902 -0.00397621 -0.00296013 -0.000698422 -0.00319643 -0.00661998 0.00108316
internal_weight=0 1230 367 342 198 164 77 42 87 144 89 58 55 863
internal_count=22298 1230 367 342 198 164 77 42 87 144 89 58 55 863
shrinkage=0.15


Tree=337
num_leaves=15
num_cat=0
split_feature=22 18 10 5 3 21 23 23 16 18 14 21 1 6
split_gain=0.00651864 0.00848986 0.0121604 0.0103228 0.00617549 0.0258132 0.0195849 0.0378483 0.0903841 0.0297445 0.0176224 0.0169824 0.0762986 0.0402099
threshold=-3.1103099999999997 8.7258850000000012e-06 2.5317150000000002e-05 1.7766450000000003e-05 -6.2170999999999994 -16.273949999999996 -5.7516499999999988 -6.1063599999999996 8.7363350000000012e-08 6.6588450000000013e-09 3.8653200000000005e-05 17.104850000000003 5.1049750000000005 1.1896600000000002e-06
decision_type=2 2 2 2 2 2 2 2 2 2 2 2 2 2
left_child=1 2 -1 -4 10 -6 7 -7 9 -9 -2 -12 13 -13
right_child=4 -3 3 -5 5 6 -8 8 -10 -11 11 12 -14 -15
leaf_value=0.0029928474542430194 0.003646874090592409 0.0031282094659485769 -0.0037399724917486308 0.00075619875020088831 0.0052696901558771389 8.4318372424078679e-05 -0.0043453572345077355 0.0032171461937001108 0.0088488295572067329 -0.0043098869526551828 -4.1910415196267677e-05 -0.0015134611020420992 -0.0085162254002202169 0.0060966322127829443
leaf_weight=24 29 34 20 27 22 4766 22 21 37 27 17158 61 29 21
leaf_count=24 29 34 20 27 22 4766 22 21 37 27 17158 61 29 21
internal_value=0 0.0011791 0.000245722 -0.00115707 -5.57858e-06 0.000143166 0.000120021 0.000140272 0.00327764 -0.00101681 -4.76704e-05 -5.38746e-05 -0.00190326 0.000435465
internal_weight=0 105 71 47 22193 4895 4873 4851 85 48 17298 17269 111 82
internal_count=22298 105 71 47 22193 4895 4873 4851 85 48 17298 17269 111 82
shrinkage=0.15


Tree=338
num_leaves=15
num_cat=0
split_feature=22 1 11 13 16 10 13 33 23 23 7 33 5 23
split_gain=0.00600638 0.0288128 0.0502554 0.0263472 0.019868 0.00757357 0.00625134 0.0496618 0.129753 0.036131 0.0289614 0.0174442 0.0121228 0.00731598
threshold=3.0427950000000004 1.2499250000000004 -2.2613349999999996e-05 -7.8367499999999974e-06 7.5363400000000006e-07 2.0997850000000004e-05 -7.4854199999999985e-05 2.8316550000000006e-05 -13.009749999999999 -12.773699999999998 6.6515250000000013e-05 1.1693450000000004e-06 2.2110100000000004e-05 -14.375449999999999
decision_type=2 2 2 2 2 2 2 2 2 2 2 2 2 2
left_child=6 3 -3 4 -2 -4 7 9 -9 10 -1 -11 -13 -12
right_child=1 2 5 -5 -6 -7 -8 8 -10 11 13 12 -14 -15
leaf_value=-0.0081145483005093406 0.0087269420135999091 -0.0054533300746697931 0.0032171728626753274 0.00088843349063112817 0.002040914016070019 0.00010113319868752215 -1.9132560300828997e-05 0.011029406629313598 -0.0032365809069373284 0.0015430848744303486 0.00090492983383228421 -0.0032799287023354893 0.00029886021787349726 -0.0031522797286743297
leaf_weight=20 20 39 26 110 20 54 21653 32 26 167 20 34 57 20
leaf_count=20 20 39 26 110 20 54 21653 32 26 167 20 34 57 20
internal_value=0 0.000704508 -0.00103842 0.00208723 0.00538393 0.00111385 -8.60288e-06 0.000597778 0.00463431 -0.000138444 -0.00345397 0.000632607 -0.00103827 -0.00112367
internal_weight=0 269 119 150 40 80 22029 376 58 318 60 258 91 40
internal_count=22298 269 119 150 40 80 22029 376 58 318 60 258 91 40
shrinkage=0.15


Tree=339
num_leaves=15
num_cat=0
split_feature=5 10 20 2 33 23 20 23 34 8 14 26 0 1
split_gain=0.00591958 0.028752 0.0284902 0.103812 0.628405 0.0459031 0.0449553 0.0506351 0.069629 0.0742773 0.0727652 0.0864407 0.100163 0.123238
threshold=1.1439400000000003e-05 1.1859200000000002e-05 -7.6352849999999988 -2.5828149999999996 -2.1338099999999992e-06 -8.4538249999999984 3.5082850000000003 -9.8554249999999985 0.0078647800000000018 -1.0831499999999998e-05 0.0032747450000000003 -9.0593599999999979e-05 8.7927400000000002 -9.0893049999999977
decision_type=2 2 2 2 2 2 2 2 2 2 2 2 2 2
left_child=2 -2 3 4 -1 -5 7 -4 -9 -10 11 -11 13 -13
right_child=1 -3 6 5 -6 -7 -8 8 9 10 -12 12 -14 -15
leaf_value=0.023529267541847986 0.0050388287259265771 -5.1892836259154159e-05 0.00015810695016115419 -0.0013901645363955872 -0.0068158226992877371 0.0013334212548337418 0.00057442265647911456 0.00087375471661514431 0.0057017920735484822 -0.00024530436203900588 0.00022996614943276883 0.004025793545879423 0.00044373945847231276 -0.0060287609219039943
leaf_weight=28 25 16757 1720 205 34 434 1892 299 29 198 237 30 90 320
leaf_count=28 25 16757 1720 205 34 434 1892 299 29 198 237 30 90 320
internal_value=0 -4.43092e-05 0.000134807 0.00102825 0.00688841 0.000459657 4.73413e-06 -0.000364014 -0.00111052 -0.00176682 -0.00201436 -0.00284806 -0.0040193 -0.00516694
internal_weight=0 16782 5516 701 62 639 4815 2923 1203 904 875 638 440 350
internal_count=22298 16782 5516 701 62 639 4815 2923 1203 904 875 638 440 350
shrinkage=0.15


Tree=340
num_leaves=15
num_cat=0
split_feature=26 19 19 14 18 5 15 19 28 25 13 10 1 23
split_gain=0.00542174 0.0309282 0.0683838 0.0413379 0.0950363 0.114208 0.0935042 0.0931037 0.0587443 0.0530315 0.0640187 0.0490313 0.048824 0.0668633
threshold=0.00030913050000000002 0.0022709550000000003 0.0024851300000000003 0.00034774650000000002 -6.9364099999999992e-06 1.5189850000000002e-05 2.7643650000000007e-06 6.0027400000000007e-05 -0.24461849999999999 3.7761250000000004 5.4368000000000012e-05 3.1283450000000003e-05 7.0107750000000015 -9.0659349999999979
decision_type=2 2 2 2 2 2 2 2 2 2 2 2 2 2
left_child=-1 3 -3 4 5 -2 9 -8 -9 10 12 -6 13 -5
right_child=1 2 -4 6 11 -7 7 8 -10 -11 -12 -13 -14 -15
leaf_value=2.4502461751173505e-05 0.013430658330281195 0.0079259104361491545 0.000336772959984224 -0.0095993717284207896 0.0011323731282027439 -0.00037540289844660682 0.008465137525961515 0.0067595004279864942 -0.0010221732499451528 -0.0014307855969626431 0.0003017611769213214 -0.0013291753974519213 -0.01295150331487613 -0.0017959523515310137
leaf_weight=20093 26 28 582 42 325 28 34 25 172 404 44 414 21 60
leaf_count=20093 26 28 582 42 325 28 34 25 172 404 44 414 21 60
internal_value=0 -0.000223278 0.000685127 -0.000570693 0.000197262 0.00627196 -0.00133003 0.0012164 -3.46512e-05 -0.0023602 -0.00460859 -0.000246627 -0.00636514 -0.00500913
internal_weight=0 2205 610 1595 793 54 802 231 197 571 167 739 123 102
internal_count=22298 2205 610 1595 793 54 802 231 197 571 167 739 123 102
shrinkage=0.15


Tree=341
num_leaves=15
num_cat=0
split_feature=26 6 26 4 6 20 5 33 7 14 3 24 35 13
split_gain=0.00543055 0.0117289 0.00661635 0.0317531 0.00705846 0.0256733 0.0491453 0.0246601 0.032377 0.0235212 0.026384 0.0368193 0.0181509 0.0411568
threshold=0.15587000000000004 -1.4751649999999997e-06 0.088220650000000025 0.072965900000000014 9.0891300000000012e-06 10.745300000000002 2.9758600000000003e-05 3.4627650000000006e-06 5.0981500000000006e-05 0.00035696500000000005 -6.834204999999999 -0.076125699999999977 -0.00039884699999999997 -3.3876049999999996e-05
decision_type=2 2 2 2 2 2 2 2 2 2 2 2 2 2
left_child=2 -2 4 -4 -1 7 -7 9 -9 10 11 -6 -10 -14
right_child=1 -3 3 -5 5 6 -8 8 12 -11 -12 -13 13 -15
leaf_value=2.2985915438733709e-05 -0.0043244251376017926 0.00075116544363221943 -0.0021529043922782877 0.005485572018194944 -0.00050262720091268412 -0.0084065906312316644 -0.00064408873997466717 -0.0062253094066400082 0.00028212942175664366 -0.00050418578162511976 0.00065014332899714761 0.007988810766093795 -0.0041376043537249127 -0.00030152562260756145
leaf_weight=20597 20 21 24 25 20 25 69 25 235 439 476 27 91 204
leaf_count=20597 20 21 24 25 20 25 69 25 235 439 476 27 91 204
internal_value=0 -0.00172473 3.17716e-06 0.00174428 -6.64424e-07 -0.000303039 -0.00270858 -0.000153981 -0.000950208 0.00030538 0.000984921 0.00437543 -0.000701383 -0.00148486
internal_weight=0 41 22257 49 22208 1611 94 1517 555 962 523 47 530 295
internal_count=22298 41 22257 49 22208 1611 94 1517 555 962 523 47 530 295
shrinkage=0.15


Tree=342
num_leaves=15
num_cat=0
split_feature=4 26 24 28 14 3 36 24 21 17 31 4 22 22
split_gain=0.0050431 0.014679 0.017591 0.0160439 0.0341035 0.0315571 0.0192364 0.0142794 0.0138811 0.0115669 0.0445784 0.0808739 0.0251 0.0267129
threshold=-0.96219699999999986 -5.2550849999999995e-05 -1.1249249999999997 0.10024645000000001 0.0052234150000000012 -11.287699999999999 -0.23276699999999997 -0.64547099999999991 14.437200000000002 -2.5884049999999996e-06 -0.72542949999999984 -3.5532099999999995 -1.6345599999999998 -0.30445799999999995
decision_type=2 2 2 2 2 2 2 2 2 2 2 2 2 2
left_child=1 2 -1 9 -5 7 -7 -6 -4 -3 11 -11 -12 -14
right_child=-2 3 8 4 5 6 -8 -9 -10 10 12 -13 13 -15
leaf_value=0.0045650052954442797 -3.4218757379368873e-05 -0.00021330922826538526 0.00043372137722738071 -0.0056691624227217597 -0.0060741135281568853 0.0060148132797621656 -0.00017289559809097017 -0.00047378861095889339 -0.0034433215864867503 -0.00097490742350187659 0.0020625560095284428 0.012204439204651862 -0.0026626563198196007 0.00040476688980775448
leaf_weight=23 18127 1585 1966 36 20 20 26 21 21 22 114 20 93 204
leaf_count=23 18127 1585 1966 36 20 20 26 21 21 22 114 20 93 204
internal_value=0 0.000148713 0.000440488 -0.000122674 -0.00178635 -0.000179665 0.00251741 -0.00320565 0.000392746 -2.22657e-05 0.000646176 0.00530097 0.000170503 -0.000555739
internal_weight=0 4171 2010 2161 123 87 46 41 1987 2038 453 42 411 297
internal_count=22298 4171 2010 2161 123 87 46 41 1987 2038 453 42 411 297
shrinkage=0.15


Tree=343
num_leaves=15
num_cat=0
split_feature=3 26 7 26 32 38 26 14 6 33 5 17 25 35
split_gain=0.0051395 0.0136616 0.0173925 0.0136402 0.00929581 0.0136357 0.00597522 0.0327773 0.00708804 0.020082 0.0204411 0.0411458 0.0194444 0.0237864
threshold=-4.8315549999999989 0.15587000000000004 4.3706500000000006e-05 -9.2708149999999991e-05 -0.91083399999999992 -0.0012597349999999999 0.088220650000000025 0.00070241750000000016 9.0891300000000012e-06 1.0000000180025095e-35 2.0844200000000003e-05 7.906765000000001e-07 0.16934200000000002 -0.000115708
decision_type=2 2 2 2 2 2 2 2 2 2 2 2 2 2
left_child=1 6 -3 -2 -5 -6 8 -8 -1 -10 11 -11 -12 -14
right_child=3 2 -4 4 5 -7 7 -9 9 10 12 -13 13 -15
leaf_value=1.3763119884424943e-05 -0.00099449213504083141 0.00034750523627735674 -0.0059081448214783451 0.0040579239310773113 -0.0029733386036241423 0.0009669070200590198 0.006070894407873441 -0.0019676449417602268 0.00021035628432888572 -0.00043432507951454279 -0.003545086046506185 -0.0080623641310152237 0.00049598200647988744 -0.0014048653288189093
leaf_weight=20263 109 20 20 20 21 335 21 25 755 41 48 26 312 282
leaf_count=20263 109 20 20 20 21 335 21 25 755 41 48 26 312 282
internal_value=0 -1.07382e-05 -0.00278032 0.000482954 0.000911256 0.000734477 -5.65011e-06 0.00170212 -9.26577e-06 -0.000328005 -0.000901296 -0.00339446 -0.000641106 -0.00040644
internal_weight=0 21813 40 485 376 356 21773 46 21727 1464 709 67 642 594
internal_count=22298 21813 40 485 376 356 21773 46 21727 1464 709 67 642 594
shrinkage=0.15


Tree=344
num_leaves=15
num_cat=0
split_feature=22 11 1 23 13 13 11 23 21 11 21 8 7 34
split_gain=0.0051219 0.0392687 0.0497775 0.0350893 0.0471229 0.0583681 0.0473325 0.0401431 0.0333967 0.0351893 0.0316554 0.0273877 0.0581817 0.0340208
threshold=2.4132000000000002 -4.1811249999999989e-06 5.5200400000000007 -14.442299999999998 -2.2387649999999996e-05 -3.5490599999999995e-05 -1.4440299999999998e-05 -8.4206099999999982 -1.1094799999999998 -3.1724349999999994e-05 4.2990000000000004 -1.7019699999999996e-05 0.00018501350000000002 0.033432350000000007
decision_type=2 2 2 2 2 2 2 2 2 2 2 2 2 2
left_child=-1 2 8 -4 5 -5 7 -6 9 -2 -8 12 -10 -13
right_child=1 -3 3 4 6 -7 10 -9 11 -11 -12 13 -14 -15
leaf_value=-2.3881146757629589e-05 -5.3330694936448704e-05 0.00080326346216818883 0.0014268104643506798 -0.0025763591755470585 -0.0031581670256604533 -0.012576643557986244 -0.0023733649565296808 0.0042954794371313698 0.0096655336108856949 -0.0085725953138899059 -0.0094783219793628509 -0.0010802986846007818 -0.0012548291407849476 0.001009838261714809
leaf_weight=20082 24 1189 43 29 29 24 43 37 21 20 21 310 23 403
leaf_count=20082 24 1189 43 29 29 24 43 37 21 20 21 310 23 403
internal_value=0 0.000216418 -0.000462998 -0.002429 -0.00333501 -0.00710479 -0.0017981 0.00102039 9.17048e-05 -0.00392572 -0.00470468 0.000325214 0.00395716 0.000101083
internal_weight=0 2216 1027 226 183 53 130 66 801 44 64 757 44 713
internal_count=22298 2216 1027 226 183 53 130 66 801 44 64 757 44 713
shrinkage=0.15


Tree=345
num_leaves=15
num_cat=0
split_feature=10 23 21 21 1 1 23 14 4 4 29 14 23 21
split_gain=0.00495305 0.0642328 0.0114926 0.00526823 0.183302 0.25272 0.462894 0.76363 0.756727 0.449006 0.524576 0.243042 0.305734 0.146145
threshold=8.6105100000000007e-06 -12.295749999999998 -3.0766999999999993 8.5180900000000026 8.0541100000000014 10.749450000000001 -7.3758649999999992 0.00018403700000000004 -0.31956999999999997 0.16887550000000004 -0.0011443649999999998 0.00018403700000000004 -6.6267649999999989 12.594800000000001
decision_type=2 2 2 2 2 2 2 2 2 2 2 2 2 2
left_child=1 -1 -3 -2 -5 6 7 -6 -9 10 -10 12 -8 -7
right_child=3 2 -4 4 5 13 11 8 9 -11 -12 -13 -14 -15
leaf_value=0.0066388508019548272 -3.2244479456632286e-05 -0.0047176065572421067 -0.00029500104943648553 -0.00036784561395598821 -0.0071512050181969664 -0.0032781935383971472 0.021470706007742344 -0.0035852934666909275 0.01838369254913667 0.0098427045879361675 0.049482440771624593 -0.0049698868159906489 -0.00044876943745582201 0.0067594084255510889
leaf_weight=31 19409 20 39 2314 34 160 22 25 23 24 26 89 41 41
leaf_count=31 19409 20 39 2314 34 160 22 25 23 24 26 89 41 41
internal_value=0 0.00111052 -0.00179419 -4.5005e-06 0.000187884 0.00283934 0.00571992 0.0122183 0.0189384 0.026652 0.0348851 7.6553e-05 0.00720565 -0.00123072
internal_weight=0 90 59 22208 2799 485 284 132 98 73 49 152 63 201
internal_count=22298 90 59 22208 2799 485 284 132 98 73 49 152 63 201
shrinkage=0.15


Tree=346
num_leaves=15
num_cat=0
split_feature=7 36 16 39 1 21 11 32 8 13 1 23 26 30
split_gain=0.0060046 0.0316131 0.132086 0.0917924 0.196486 0.612383 0.145925 0.119468 0.192594 0.0898562 0.0837527 0.114343 0.09729 0.134379
threshold=3.8854650000000009e-05 -0.0010818149999999999 4.3778400000000007e-09 4.2965400000000007e-05 4.8405300000000011 6.6670750000000014 1.0575450000000002e-05 0.10876500000000001 1.2651950000000002e-05 -3.7490299999999996e-05 4.497300000000001 -6.8832049999999994 5.7274000000000008e-05 0.0010825250000000002
decision_type=2 2 2 2 2 2 2 2 2 2 2 2 2 2
left_child=1 2 3 4 7 6 -6 -1 -9 -5 11 -11 -12 -14
right_child=-2 -3 -4 9 5 -7 -8 8 -10 10 12 -13 13 -15
leaf_value=-0.00066758386421001477 6.6164493263178633e-05 -0.00025327698282610368 -0.00081336408798235069 -0.0069174373405985531 -0.0011077342098966862 0.026882393323467112 0.011823076255516046 0.0014827817090883641 0.01845665027254394 0.0024561653878318636 0.0020832986740750691 -0.007389511630338217 -0.013053330405091402 -0.0016562662967139065
leaf_weight=220 12945 6960 1116 35 72 30 27 53 21 509 116 28 28 138
leaf_count=220 12945 6960 1116 35 72 30 27 53 21 509 116 28 28 138
internal_value=0 -9.15748e-05 0.000378733 0.00142053 0.00322753 0.00810805 0.00241885 0.00108608 0.00629969 0.000525499 0.000843573 0.0019428 -0.00124963 -0.00357866
internal_weight=0 9353 2393 1277 423 129 99 294 74 854 819 537 282 166
internal_count=22298 9353 2393 1277 423 129 99 294 74 854 819 537 282 166
shrinkage=0.15


Tree=347
num_leaves=15
num_cat=0
split_feature=23 14 3 31 34 3 17 16 20 3 32 3 20 9
split_gain=0.00652361 0.0332388 0.104201 0.0919946 0.0613715 0.0785887 0.04172 0.0358346 0.0786164 0.215146 0.0654813 0.0848897 0.115375 0.148942
threshold=-7.1566449999999993 0.00011168900000000001 -7.0804149999999995 0.017056400000000003 0.048646500000000009 -5.8103499999999988 9.3418200000000021e-08 -1.0876799999999999e-08 11.091700000000001 -5.8532899999999985 -0.047877649999999994 -5.8709549999999995 -2.2466099999999996 -8.3530049999999981e-06
decision_type=2 2 2 2 2 2 2 2 2 2 2 2 2 2
left_child=-1 2 3 -2 7 6 -6 10 -9 -10 -4 12 13 -12
right_child=1 -3 4 -5 5 -7 -8 8 9 -11 11 -13 -14 -15
leaf_value=-4.1471262780603575e-05 -0.002134441229785667 0.00036605597484528875 0.004596926428778467 -0.01409556955989936 -0.013213724170678428 -0.00040197562891989945 -0.0040588022056908812 0.00035751791064642259 0.015264146315166725 -0.002417333954144851 0.0045955435370990966 0.00045351865023442921 -0.0092061559809559594 -0.010410415927286852
leaf_weight=17679 39 3650 44 23 21 75 24 362 30 32 46 189 62 22
leaf_count=17679 39 3650 44 23 21 75 24 362 30 32 46 189 62 22
internal_value=0 0.000158729 -0.000622223 -0.00657163 -0.000215537 -0.0033754 -0.0083311 0.000266271 0.00120281 0.00613822 -0.000827647 -0.00157586 -0.00452628 -0.000259326
internal_weight=0 4619 969 62 907 120 45 787 424 62 363 319 130 68
internal_count=22298 4619 969 62 907 120 45 787 424 62 363 319 130 68
shrinkage=0.15


Tree=348
num_leaves=15
num_cat=0
split_feature=14 21 2 34 3 34 5 31 11 5 9 3 21 23
split_gain=0.00632796 0.0262002 0.0416684 0.0230642 0.073317 0.0301693 0.0273872 0.0211443 0.0717381 0.0500503 0.0297326 0.0520815 0.0275109 0.0448873
threshold=0.00010145900000000002 14.437200000000002 0.77221600000000012 0.0037225250000000004 -6.9667699999999995 0.004048770000000001 9.0445300000000016e-06 -0.014066299999999999 7.9731800000000022e-06 1.9694200000000002e-05 2.3073000000000004e-05 -5.8532899999999985 9.1854000000000031 -6.4960549999999992
decision_type=2 2 2 2 2 2 2 2 2 2 2 2 2 2
left_child=1 3 -3 4 -1 -5 -6 8 -8 10 12 -12 13 -9
right_child=-2 2 -4 5 6 -7 7 9 -10 -11 11 -13 -14 -15
leaf_value=-0.009168873439826395 -3.8132776052770128e-05 0.0010611154970579914 -0.0085055751318577674 0.0049702344529871491 -0.0056119021369210841 0.00027143711596532867 -0.0015347414157192961 0.0011348913552175308 0.0078538847295567382 0.0023656639244918924 -0.011089271439206121 -0.0014144255311323158 0.0029762480201215706 -0.0077385416963016212
leaf_weight=23 18162 21 20 31 21 3737 47 29 30 73 21 31 29 23
leaf_count=23 18162 21 20 31 21 3737 47 29 30 73 21 31 29 23
internal_value=0 0.000167449 -0.00360556 0.000205225 -0.00100319 0.000310095 -0.000385388 2.44471e-06 0.00212316 -0.000790252 -0.00252245 -0.00532157 -0.000725474 -0.0027899
internal_weight=0 4136 41 4095 327 3768 304 283 77 206 133 52 81 52
internal_count=22298 4136 41 4095 327 3768 304 283 77 206 133 52 81 52
shrinkage=0.15


Tree=349
num_leaves=15
num_cat=0
split_feature=12 35 36 3 14 19 21 20 14 7 23 6 21 10
split_gain=0.00572742 0.0194513 0.0162415 0.0967077 0.0669698 0.0657037 0.0641346 0.0264122 0.0454798 0.163799 0.0430102 0.0410231 0.0392026 0.0360933
threshold=0.00013816550000000002 1.7006450000000002 -0.0089576949999999982 -12.403699999999999 0.0048829100000000007 2.4071900000000006e-05 3.7311250000000005 3.0009100000000006 0.00084742650000000014 6.0219750000000006e-05 -8.4671399999999988 3.6531950000000008e-07 7.5550000000000006 2.1917300000000004e-05
decision_type=2 2 2 2 2 2 2 2 2 2 2 2 2 2
left_child=-1 2 3 4 6 -5 -2 8 9 -4 11 -11 13 -10
right_child=1 -3 7 5 -6 -7 -8 -9 12 10 -12 -13 -14 -15
leaf_value=-3.5987171711064346e-05 -0.0035358146253612732 0.003787580382248217 0.014487114822259173 0.0095070440601557494 -0.0015294667627708193 0.00051316193858786752 -0.014271967586163165 -0.00025979776327072097 0.0015531229698722568 0.00019695316826786241 -0.0032900827731186595 0.008497540321799793 -0.0010799338825490741 0.00014041109573082283
leaf_weight=18216 31 33 24 20 134 212 21 1462 666 37 38 21 337 1046
leaf_count=18216 31 33 24 20 134 212 21 1462 666 37 38 21 337 1046
internal_value=0 0.000160593 0.000131033 -0.000754399 -0.00330253 0.0012885 -0.00787157 0.000232964 0.000565106 0.00340336 0.000632422 0.00320234 0.000398883 0.000689982
internal_weight=0 4082 4049 418 186 232 52 3631 2169 120 96 58 2049 1712
internal_count=22298 4082 4049 418 186 232 52 3631 2169 120 96 58 2049 1712
shrinkage=0.15


Tree=350
num_leaves=15
num_cat=0
split_feature=23 5 29 14 1 20 29 14 38 21 15 21 1 5
split_gain=0.00561727 0.0263525 0.0275443 0.0595024 0.0471232 0.0455078 0.0840226 0.0326097 0.0675718 0.054452 0.0550303 0.043105 0.0416863 0.0314685
threshold=-7.1566449999999993 1.0820400000000002e-05 -0.013672999999999999 0.00056300800000000015 1.9156850000000003 13.153 -0.009967949999999998 9.6812750000000019e-05 -0.00012657349999999998 -5.4156299999999993 2.1287200000000005e-08 -11.0482 -8.955524999999998 1.0609100000000001e-05
decision_type=2 2 2 2 2 2 2 2 2 2 2 2 2 2
left_child=-1 2 3 4 -2 6 -4 8 -8 11 -11 -10 -9 -14
right_child=1 -3 5 -5 -6 -7 7 12 9 10 -12 -13 13 -15
leaf_value=-3.8482741646495284e-05 0.0029466147283092139 -2.7623078647085416e-05 -0.0079917463227712482 9.8004947668399475e-05 0.012715159455256071 0.0076371594164811535 0.005379403724335134 0.006580331472941907 -0.0045025232154875996 -0.0028306793241592294 -0.012802129199844785 0.0050190825410106254 0.00057046626433279041 0.0052088697924877383
leaf_weight=17679 25 3730 26 61 20 20 25 30 20 33 20 23 551 35
leaf_count=17679 25 3730 26 61 20 20 25 30 20 33 20 23 551 35
internal_value=0 0.000147291 0.000881182 0.00315044 0.00728819 0.000573977 0.000388834 0.000684486 -0.00156679 -0.00337569 -0.00659349 0.000590429 0.0011267 0.000847504
internal_weight=0 4619 889 106 45 783 763 737 121 96 53 43 616 586
internal_count=22298 4619 889 106 45 783 763 737 121 96 53 43 616 586
shrinkage=0.15


Tree=351
num_leaves=15
num_cat=0
split_feature=0 22 2 20 14 6 0 0 19 39 20 11 3 6
split_gain=0.00544335 0.0693983 0.0875114 0.205635 0.316786 0.364481 0.0653672 0.0955042 0.0638736 0.110481 0.0372824 0.0363175 0.0277903 0.0277788
threshold=-8.2936799999999984 -1.6515499999999999 -2.4841749999999996 -9.1545249999999978 0.00015176150000000002 -6.1646349999999984e-06 -8.8041249999999973 -11.398199999999997 6.6825450000000016e-05 6.1935950000000008e-06 -8.3309049999999996 -3.4860049999999992e-05 -5.8314849999999989 5.1992150000000005e-07
decision_type=2 2 2 2 2 2 2 2 2 2 2 2 2 2
left_child=1 2 3 4 5 -1 7 -5 9 -9 11 -4 -13 -3
right_child=-2 13 10 6 -6 -7 -8 8 -10 -11 -12 12 -14 -15
leaf_value=-0.0011823488151371155 -2.8468040629936013e-05 0.0011252621715512343 0.0016886362491326558 -0.0025449417958952835 -0.0064740006014314547 0.025521874496632298 0.0014362321408615182 -0.019685409027575089 -0.0025355102841962021 -0.0075197490655419886 0.0013941700631015482 -0.0078555726911872618 -0.0013666244398336856 3.3411566279165191e-05
leaf_weight=23 19431 1161 37 124 37 23 35 22 31 71 287 27 33 956
leaf_count=23 19431 1161 37 124 37 23 35 22 31 71 287 27 33 956
internal_value=0 0.000192941 -0.00104694 -0.0027066 0.00385869 0.0121698 -0.00463211 -0.00548853 -0.00843211 -0.0103976 0.000534915 -0.00200742 -0.00428665 0.000632202
internal_weight=0 2867 750 366 83 46 283 248 124 93 384 97 60 2117
internal_count=22298 2867 750 366 83 46 283 248 124 93 384 97 60 2117
shrinkage=0.15


Tree=352
num_leaves=15
num_cat=0
split_feature=15 29 4 32 16 23 19 32 24 19 15 24 15 36
split_gain=0.005206 0.0166724 0.0404047 0.0160175 0.0312518 0.0307936 0.0219576 0.0149576 0.0392244 0.0179282 0.0128683 0.0106598 0.0220243 0.0121089
threshold=-9.8830099999999991e-06 0.51629900000000017 2.5011650000000007 1.8715000000000004 -3.3234799999999996e-05 -12.845349999999998 0.0051415350000000009 -3.8713249999999992 -0.88839399999999991 3.2503650000000009e-05 -4.0946449999999995e-05 -0.48998699999999995 -1.5801699999999998e-05 0.0052295250000000014
decision_type=2 2 2 2 2 2 2 2 2 2 2 2 2 2
left_child=1 3 -3 7 5 -5 -6 10 -9 -10 -1 12 -11 -13
right_child=-2 2 -4 4 6 -7 -8 8 9 11 -12 13 -14 -15
leaf_value=-0.0005700730375792773 -3.2761734079704623e-05 0.0074065537194458195 -0.0016938408387691846 -0.0022642533732352838 -0.0059530751000588331 0.0044215794662792879 -0.00095117717726679975 0.0059263635954670867 0.0038382476457627492 -0.00032815627855597995 -0.0048852221853018778 0.00010885807354218743 -0.0051594109725556329 0.00096063471919016514
leaf_weight=48 18515 23 21 31 39 31 40 27 30 184 23 2829 24 433
leaf_count=48 18515 23 21 31 39 31 40 27 30 184 23 2829 24 433
internal_value=0 0.000160345 0.00306318 0.000126184 -0.00144213 0.00107866 -0.00342047 0.000187644 0.000231037 0.000187101 -0.00196794 0.000155535 -0.000885609 0.000221923
internal_weight=0 3783 44 3739 141 62 79 3598 3527 3500 71 3470 208 3262
internal_count=22298 3783 44 3739 141 62 79 3598 3527 3500 71 3470 208 3262
shrinkage=0.15


Tree=353
num_leaves=15
num_cat=0
split_feature=17 37 37 4 13 4 34 14 4 13 17 24 38 17
split_gain=0.00518513 0.0944256 0.0841695 0.135804 0.170658 0.145185 0.132483 0.133542 0.126854 0.283091 0.139931 0.144703 0.311581 0.106532
threshold=7.7827850000000012e-08 -1.2428449999999998e-08 -1.7967949999999996e-08 -0.1018225 8.2038750000000011e-06 -0.87358199999999997 0.012118400000000003 0.00023347150000000005 0.017115750000000002 8.2038750000000011e-06 1.1029450000000002e-07 0.29825050000000003 -0.00032049349999999994 1.9686050000000004e-06
decision_type=2 2 2 2 2 2 2 2 2 2 2 2 2 2
left_child=1 -1 3 5 -5 -2 -7 -8 -4 -10 11 12 -11 -6
right_child=2 -3 8 4 13 6 7 -9 9 10 -12 -13 -14 -15
leaf_value=0.00037657916361191984 0.00085311838855414051 -0.00060754886765465089 0.0013686901318603667 0.00097215361386069265 -0.0017454408978908875 0.00050853001010647521 -0.0011470103718808663 -0.0054385192614913877 -0.001573223634872696 0.021048722330410132 0.0005979395606281417 -0.0046469325164798644 0.0035426521851914003 4.2275066776454813e-05
leaf_weight=4631 352 4168 2190 2328 1324 215 268 417 1680 28 2812 30 125 1730
leaf_count=4631 352 4168 2190 2328 1324 215 268 417 1680 28 2812 30 125 1730
internal_value=0 -8.95926e-05 5.83988e-05 -0.000322623 4.70935e-06 -0.00172974 -0.00273992 -0.00375951 0.0004266 -1.47213e-05 0.000859497 0.00487862 0.00674638 -0.000732753
internal_weight=0 8799 13499 6634 5382 1252 900 685 6865 4675 2995 183 153 3054
internal_count=22298 8799 13499 6634 5382 1252 900 685 6865 4675 2995 183 153 3054
shrinkage=0.15


Tree=354
num_leaves=15
num_cat=0
split_feature=0 31 23 16 34 3 21 23 16 36 3 36 3 3
split_gain=0.00568864 0.0384912 0.0234716 0.0177931 0.00953059 0.00776465 0.0291406 0.0264412 0.132001 0.223363 0.171258 0.0366694 0.0710296 0.0627555
threshold=12.901050000000001 -0.011002899999999998 -6.8980549999999985 6.8233950000000015e-07 0.0057315500000000011 -6.2170999999999994 -16.273949999999996 -6.3135599999999998 8.7363350000000012e-08 0.00051490400000000016 -5.9940599999999984 0.00058533650000000016 -5.9150349999999987 -5.8709549999999995
decision_type=2 2 2 2 2 2 2 2 2 2 2 2 2 2
left_child=5 2 -2 -4 -3 -1 -7 -8 11 -10 -11 12 -9 -13
right_child=1 4 3 -5 -6 6 7 8 9 10 -12 13 -14 -15
leaf_value=-3.0465772135563306e-05 -0.0010234826360979194 0.0023256128929677374 -0.0067739027300112572 -0.0012674845375485069 0.0003007642652445103 0.0059086978547566111 7.7438763900295206e-05 0.0083879966207820421 -0.0013576736047980376 0.024331182092428207 0.0049364450653748854 -0.010460692376364022 -0.0014628936105070571 -0.00059958584650577794
leaf_weight=17376 291 63 31 23 308 20 3951 23 40 20 21 20 58 53
leaf_count=17376 291 63 31 23 308 20 3951 23 40 20 21 20 58 53
internal_value=0 -0.00041596 -0.00155645 -0.00442858 0.000644606 1.37998e-05 0.000196672 0.000169381 0.00171518 0.00661706 0.0143973 -0.00086309 0.00133427 -0.00330126
internal_weight=0 716 345 54 371 21582 4206 4186 235 81 41 154 81 73
internal_count=22298 716 345 54 371 21582 4206 4186 235 81 41 154 81 73
shrinkage=0.15


Tree=355
num_leaves=15
num_cat=0
split_feature=5 36 7 18 33 34 16 14 37 13 33 10 7 12
split_gain=0.00503238 0.0279119 0.0442502 0.0825917 0.0612084 0.0666873 0.0490637 0.0414805 0.0381846 0.0896991 0.185089 0.0579796 0.0656954 0.109354
threshold=1.1439400000000003e-05 0.042575800000000004 2.8778450000000002e-05 1.3599750000000003e-05 5.9490900000000003e-05 2.1325750000000006 3.4630900000000005e-06 0.00077728850000000017 -3.1332799999999996e-07 -3.9352299999999993e-05 1.6769150000000002e-05 1.1428100000000002e-05 2.6132850000000002e-05 -6.806984999999998e-05
decision_type=2 2 2 2 2 2 2 2 2 2 2 2 2 2
left_child=1 8 3 -3 6 7 -4 -6 9 10 -1 -11 13 -13
right_child=-2 2 4 -5 5 -7 -8 -9 -10 11 -12 12 -14 -15
leaf_value=7.4308238436060495e-05 -4.0854079039527641e-05 -0.0015268743603681085 0.000512733904844416 -0.011094480618601665 -0.0026374292969382528 0.0019208166721541233 0.0071434331404320378 -0.011167486918376475 2.5992595602568873e-05 -0.0022103789275888627 0.018469047490507363 0.012592873820264278 0.00068452402903997804 0.0016155015385542672
leaf_weight=32 16782 108 105 25 29 37 33 23 4258 128 20 29 620 69
leaf_count=32 16782 108 105 25 29 37 33 23 4258 128 20 29 620 69
internal_value=0 0.000124295 -0.00115267 -0.0033253 0.000120277 -0.00294683 0.00209834 -0.00641034 0.000213455 0.00110234 0.00714921 0.000730661 0.00125497 0.00486391
internal_weight=0 5516 360 133 227 89 138 52 5156 898 52 846 718 98
internal_count=22298 5516 360 133 227 89 138 52 5156 898 52 846 718 98
shrinkage=0.15


Tree=356
num_leaves=15
num_cat=0
split_feature=3 31 25 33 6 23 39 33 23 19 13 13 38 23
split_gain=0.0053867 0.0730941 0.0971046 0.0381508 0.040368 0.0825628 0.0381828 0.0363462 0.0767054 0.165927 0.0638559 0.09752 0.106151 0.0335
threshold=-16.190649999999994 0.23308050000000005 0.86192950000000013 -0.00014908949999999996 -1.3368449999999998e-07 -14.375449999999999 0.00072011800000000006 2.0906000000000003e-05 -15.973899999999999 0.0015069450000000002 -5.1063549999999993e-05 6.6789350000000011e-05 0.0051558850000000015 -12.845349999999998
decision_type=2 2 2 2 2 2 2 2 2 2 2 2 2 2
left_child=1 7 -3 -4 6 -6 -5 8 9 -1 -9 12 -12 -10
right_child=-2 2 3 4 5 -7 -8 10 13 -11 11 -13 -14 -15
leaf_value=0.012790213759456361 -1.7813965264699931e-05 -0.011137010779464617 -0.0063430131059319063 0.0012250908079575031 0.010211062862072139 -0.00084496802208542993 -0.006513780491877696 0.0058884345558577814 -0.0016477404461191917 -0.0043368265684694055 -0.013510955066885799 0.0011969714699080214 3.3692815138593962e-05 0.0011457606215472995
leaf_weight=35 21068 25 26 26 21 55 32 22 111 20 30 60 23 744
leaf_count=35 21068 25 26 26 21 55 32 22 111 20 30 60 23 744
internal_value=0 0.000305126 -0.0024431 -0.00108467 -6.43995e-05 0.00220999 -0.00304463 0.000791653 0.00113238 0.0065622 -0.00150511 -0.00294456 -0.00763309 0.000783096
internal_weight=0 1230 185 160 134 76 58 1045 910 55 135 113 53 855
internal_count=22298 1230 185 160 134 76 58 1045 910 55 135 113 53 855
shrinkage=0.15


Tree=357
num_leaves=15
num_cat=0
split_feature=24 14 4 4 25 4 19 37 33 38 12 34 1 26
split_gain=0.00524422 0.0246954 0.0401319 0.0568026 0.0848665 0.0753098 0.0903897 0.199886 0.168511 0.080693 0.0842386 0.0791549 0.0805602 0.0867253
threshold=-0.15021549999999997 0.00015957300000000001 1.4674050000000001 -0.06234689999999999 3.7761250000000004 0.27629100000000006 0.00013412050000000003 4.6536250000000011e-09 2.7049750000000007e-06 0.0008726710000000001 -6.6869399999999987e-05 0.22782550000000004 5.6352450000000003 9.9384300000000017e-05
decision_type=2 2 2 2 2 2 2 2 2 2 2 2 2 2
left_child=1 -1 3 -3 5 6 8 -8 11 -9 -11 12 -5 -14
right_child=-2 2 -4 4 -6 -7 7 9 -10 10 -12 -13 13 -15
leaf_value=0.00056062955524391821 -5.2355998193464086e-05 0.00014207952711521685 0.00068997914568215272 -0.0076315278352614337 0.00081669828010289902 -0.00014799652115059849 -0.0010443591679663083 -0.016188353137113153 0.0015798142995065159 -0.00025193608598783612 -0.010116357788683672 0.00066345852966677693 0.0067411071679089217 -0.0068912023944514142
leaf_weight=1955 14689 2769 1256 130 436 469 146 29 228 28 64 57 21 21
leaf_count=1955 14689 2769 1256 130 436 469 146 29 228 28 64 57 21 21
internal_value=0 0.000101072 -5.78305e-05 -0.000271393 -0.000974221 -0.00162874 -0.00258795 -0.00478067 -0.00130686 -0.00928895 -0.00711414 -0.00418093 -0.00578634 -7.50476e-05
internal_weight=0 7609 5654 4398 1629 1193 724 267 457 121 92 229 172 42
internal_count=22298 7609 5654 4398 1629 1193 724 267 457 121 92 229 172 42
shrinkage=0.15


Tree=358
num_leaves=15
num_cat=0
split_feature=5 37 14 26 5 36 11 28 15 11 11 37 11 23
split_gain=0.00545887 0.0384649 0.0548902 0.0608186 0.0409494 0.0330903 0.0684763 0.0727122 0.121699 0.0662365 0.0682638 0.0700646 0.0652922 0.0575224
threshold=8.9255300000000016e-06 -1.0757349999999998e-06 0.00073300000000000004 -0.00026052449999999994 8.0609550000000015e-06 0.0011581950000000001 -3.6745949999999993e-05 -0.011452199999999997 3.608860000000001e-07 2.9047450000000003e-05 -9.2007649999999976e-06 -1.6499599999999998e-07 2.0893650000000003e-05 -12.491699999999998
decision_type=2 2 2 2 2 2 2 2 2 2 2 2 2 2
left_child=1 2 -1 -4 -5 -3 13 12 9 10 11 -9 -8 -7
right_child=-2 5 3 4 -6 6 7 8 -10 -11 -12 -13 -14 -15
leaf_value=0.00098266596636248696 -2.1686129092093706e-05 6.087941625526442e-05 -0.011324683006893356 0.0026653995803233394 -0.0058098734320334066 -0.0076107008173933316 0.0018124695938537953 0.011655976197037558 0.014218125164508818 0.011117966700112447 -0.00079480835817682006 0.001495279581128695 -0.0057594395150183967 0.0006198012081621788
leaf_weight=68 20544 1193 23 23 29 29 104 26 25 20 87 37 34 56
leaf_count=68 20544 1193 23 23 29 29 104 26 25 20 87 37 34 56
internal_value=0 0.000254002 -0.0021037 -0.004902 -0.00206119 0.000463283 0.00161177 0.00258174 0.00444638 0.00300936 0.00192822 0.00568858 -5.30732e-05 -0.00218825
internal_weight=0 1754 143 75 52 1611 418 333 195 170 150 63 138 85
internal_count=22298 1754 143 75 52 1611 418 333 195 170 150 63 138 85
shrinkage=0.15


Tree=359
num_leaves=15
num_cat=0
split_feature=11 29 34 11 38 3 29 35 2 20 33 19 32 33
split_gain=0.00516253 0.0409788 0.0184299 0.0166212 0.0928123 0.141973 0.0305639 0.0234196 0.066849 0.0245647 0.0159653 0.0371468 0.0184729 0.0148886
threshold=0.00030455050000000007 -0.0011443649999999998 4.5629350000000004 0.00016905800000000003 -0.046448699999999989 -11.757099999999998 -0.29568299999999997 -0.021842299999999999 -0.13568899999999998 4.3911700000000016 -2.4640949999999997e-05 0.0012884950000000004 0.47396850000000007 1.2899450000000002e-05
decision_type=2 2 2 2 2 2 2 2 2 2 2 2 2 2
left_child=3 2 -2 -1 5 -5 -6 8 -8 10 11 -9 -12 -11
right_child=1 -3 -4 4 6 -7 7 9 -10 13 12 -13 -14 -15
leaf_value=-9.6643758750110047e-06 -0.00098196100462597056 0.0004998373390237734 -0.0054966394282278735 0.016322849373266633 -0.0055145580242970029 0.00012826001179276099 0.0098550583125740689 0.0077968299843158327 -0.0021135656129834908 -0.00062087534557251451 0.00072051239652338702 -0.00027534341798886525 -0.003933798902398848 -0.0044856436857953668
leaf_weight=19996 652 730 21 21 20 29 21 23 21 218 472 29 20 25
leaf_count=19996 652 730 21 21 20 29 21 23 21 218 472 29 20 25
internal_value=0 -0.000278537 -0.00112284 1.87024e-05 0.00064965 0.00692999 0.000279784 0.000419575 0.00387075 0.000235395 0.000795493 0.00329504 0.000531313 -0.00101849
internal_weight=0 1403 673 20895 899 50 849 829 42 787 544 52 492 243
internal_count=22298 1403 673 20895 899 50 849 829 42 787 544 52 492 243
shrinkage=0.15


Tree=360
num_leaves=15
num_cat=0
split_feature=13 22 1 2 33 27 7 33 15 33 33 7 1 11
split_gain=0.00490314 0.0527068 0.0750077 0.104036 0.0578833 0.041763 0.130602 0.163405 0.0397371 0.038603 0.0859787 0.0826512 0.101308 0.0803781
threshold=-1.7217649999999996e-05 2.7355900000000006 2.5633050000000002 2.4488850000000002 2.7049750000000007e-06 0.13702550000000002 5.0981500000000006e-05 2.2989000000000006e-06 -3.3434999999999998e-06 -1.1829249999999999e-07 3.6521050000000005e-06 6.9638900000000008e-05 -4.9486449999999991 -5.0118849999999995e-05
decision_type=2 2 2 2 2 2 2 2 2 2 2 2 2 2
left_child=1 5 8 4 -4 6 7 -1 -3 -7 11 12 -11 -12
right_child=-2 2 3 -5 -6 9 -8 -9 -10 10 13 -13 -14 -15
leaf_value=0.0012216056362878338 -3.2052256781814966e-05 0.0068150706728920341 0.0048588452791922124 -0.01133594672271126 -0.0043463501653818902 0.0006545149988331267 -0.0012142305109383805 0.018151819318249496 -0.0006793825925762156 -0.0092284272667062135 -0.0020699960681227481 0.0014507499313093856 -0.0021699523858755127 0.00092269919949590582
leaf_weight=29 18464 20 22 37 51 1883 70 23 78 56 256 103 250 956
leaf_count=29 18464 20 22 37 51 1883 70 23 78 56 256 103 250 956
internal_value=0 0.000154359 -0.00216774 -0.00485636 -0.00157218 0.000287563 0.00301576 0.00870997 0.000850098 0.000192574 -0.000344029 -0.00222458 -0.0034617 0.000290579
internal_weight=0 3834 208 110 73 3626 122 52 98 3504 1621 409 306 1212
internal_count=22298 3834 208 110 73 3626 122 52 98 3504 1621 409 306 1212
shrinkage=0.15


Tree=361
num_leaves=15
num_cat=0
split_feature=11 20 22 22 22 13 2 13 33 22 7 19 22 17
split_gain=0.00527243 0.052766 0.0346527 0.0353021 0.0630766 0.0615649 0.0869536 0.138825 0.595963 0.13263 0.104291 0.0680665 0.0642619 0.0601815
threshold=-4.4930349999999991e-06 -6.8075899999999985 -3.0000599999999995 2.4511500000000006 1.4939450000000003 -3.4223699999999996e-06 0.78463200000000011 5.1969450000000008e-06 1.2059500000000001e-06 1.7472750000000004 3.5303100000000011e-05 7.0374600000000011e-08 1.5272800000000002 4.1576600000000001e-08
decision_type=2 2 2 2 2 2 2 2 2 2 2 2 2 2
left_child=1 -1 -2 4 -4 13 12 8 -8 10 11 -9 -7 -6
right_child=2 -3 3 -5 5 6 7 9 -10 -11 -12 -13 -14 -15
leaf_value=-0.00070155418415387332 0.0017160706008126074 0.00023517715425406765 -2.2284124671400823e-05 0.00068979336512905813 0.0021075012621059571 -0.0051460770295826868 0.025955505757592621 -0.0067792648921022186 -0.0052728722036342584 -0.0013235043899304363 -0.0038670615862803018 -0.018744283754621508 0.00088355391138069533 -0.0028045033174743514
leaf_weight=1618 241 8262 9185 1152 63 42 20 20 44 292 73 23 749 514
leaf_count=1618 241 8262 9185 1152 63 42 20 20 44 292 73 23 749 514
internal_value=0 8.17732e-05 -6.50603e-05 -0.000100311 -0.000182869 -0.000984486 -0.00039803 -0.00200923 0.004486 -0.00302809 -0.00731896 -0.0131792 0.000563397 -0.00226818
internal_weight=0 9880 12418 12177 11025 1840 1263 472 64 408 116 43 791 577
internal_count=22298 9880 12418 12177 11025 1840 1263 472 64 408 116 43 791 577
shrinkage=0.15


Tree=362
num_leaves=15
num_cat=0
split_feature=33 14 13 33 14 23 3 13 3 23 37 20 4 34
split_gain=0.00584234 0.0292708 0.076182 0.0695352 0.133601 0.0580235 0.0657135 0.0313791 0.071633 0.348483 0.20247 0.331848 0.176343 0.0634249
threshold=1.9879800000000006e-06 0.00022533650000000001 3.7614450000000003e-06 2.4303400000000005e-06 8.5393400000000015e-05 -7.9460849999999992 -5.9574799999999994 -1.1830449999999998e-05 -6.6205399999999992 -8.596409999999997 2.3077800000000002e-08 -3.1226749999999996 -0.06234689999999999 0.0055652500000000008
decision_type=2 2 2 2 2 2 2 2 2 2 2 2 2 2
left_child=-1 2 3 4 -2 6 -4 8 9 -5 11 -11 -12 -10
right_child=1 -3 5 7 -6 -7 -8 -9 13 10 12 -13 -14 -15
leaf_value=-6.3330389645689186e-05 -0.00081405042868573218 -8.9278844144392768e-05 0.0030032177046976157 -0.0020721015377241571 0.01159797190266545 -0.00055460341508391676 0.0005733760769787901 -0.0011530255406066931 -0.0079581262847770833 0.0045356440357863905 0.014577430738136171 0.030355364004416123 -0.0028237250498741083 -0.00046223548863221891
leaf_weight=13270 50 6201 540 166 32 283 467 731 27 24 20 21 38 428
leaf_count=13270 50 6201 540 166 32 283 467 731 27 24 20 21 38 428
internal_value=0 9.30875e-05 0.000493107 -0.00022026 0.00402967 0.00134306 0.00187637 -0.000459774 0.00024018 0.00218066 0.00903461 0.0165848 0.00317667 -0.000907047
internal_weight=0 9028 2827 1537 82 1290 1007 1455 724 269 103 45 58 455
internal_count=22298 9028 2827 1537 82 1290 1007 1455 724 269 103 45 58 455
shrinkage=0.15


Tree=363
num_leaves=15
num_cat=0
split_feature=19 33 22 6 12 12 14 11 21 21 12 23 14 22
split_gain=0.00547958 0.0453788 0.0763682 0.47044 0.711832 0.112973 0.076655 0.0841944 0.0687921 0.0665314 0.185924 0.0622557 0.123616 0.0958572
threshold=3.2503650000000009e-05 1.0000000180025095e-35 -1.4165699999999999 -6.492014999999999e-08 -7.3710099999999991e-05 -3.0986449999999989e-05 0.00017970100000000002 -4.4930349999999991e-06 -9.1152649999999991 5.3821800000000009 0.00011311850000000002 -7.9811899999999989 0.00020352350000000003 1.8499750000000001
decision_type=2 2 2 2 2 2 2 2 2 2 2 2 2 2
left_child=1 -1 3 5 -5 8 -4 9 -3 -8 -11 13 -13 -9
right_child=-2 2 6 4 -6 -7 7 11 -10 10 -12 12 -14 -15
leaf_value=-0.0004114551026684565 5.8679127693079972e-05 0.00086499996509196032 0.0008792854366623462 0.036826512596702998 0.0014992246192625975 0.002068144643426615 -6.6857385829572583e-05 -0.003426212719122699 -0.0086354841239146014 0.0011797620559551847 0.014648742394961623 -0.010103040029571275 0.0010335022374659418 -0.00014397008188097969
leaf_weight=4642 13741 27 1601 21 33 141 672 477 47 158 27 24 342 345
leaf_count=4642 13741 27 1601 21 33 141 672 477 47 158 27 24 342 345
internal_value=0 -9.42281e-05 0.000281907 0.00272092 0.0152376 -0.000422811 0.000101958 -0.000506601 -0.00516909 0.000626593 0.00314551 -0.00132406 0.000303237 -0.00204863
internal_weight=0 8557 3915 269 54 215 3646 2045 74 857 185 1188 366 822
internal_count=22298 8557 3915 269 54 215 3646 2045 74 857 185 1188 366 822
shrinkage=0.15


Tree=364
num_leaves=15
num_cat=0
split_feature=3 34 1 8 3 36 32 38 20 37 37 13 21 26
split_gain=0.00509994 0.0342723 0.00962023 0.00786974 0.00749438 0.0643531 0.0536648 0.0551146 0.0297151 0.0290094 0.0289678 0.0610436 0.0526122 0.0543004
threshold=-19.356149999999996 0.26577250000000008 3.8760350000000003 1.1765500000000003e-05 -16.017899999999994 -0.72559949999999984 1.2985900000000001 -0.062669449999999988 5.3404300000000005 -2.6927549999999997e-06 -5.1482199999999979e-07 -3.1082999999999994e-05 -2.4988599999999996 0.00023623200000000004
decision_type=2 2 2 2 2 2 2 2 2 2 2 2 2 2
left_child=1 2 3 -1 5 -2 8 -8 9 -7 11 -11 13 -13
right_child=4 -3 -4 -5 -6 6 7 -9 -10 10 -12 12 -14 -15
leaf_value=0.0036145700777415182 0.0088040909171104437 -0.0057445655338457203 -0.002167267115401046 -0.00011277705765538624 -1.6337444393412093e-05 -0.0050028239653911446 -0.0098602667005489707 -0.00076326098209138693 0.0018177131978091606 0.0089542383793741465 -0.00016711687084848407 0.0095659434356176378 -0.0028821272795346189 -0.0012332426954526452
leaf_weight=25 20 26 20 26 20974 25 23 43 277 25 725 22 47 20
leaf_count=25 20 26 20 26 20974 25 23 43 277 25 725 22 47 20
internal_value=0 -0.00108528 0.00062094 0.00171435 4.74177e-06 0.000365064 0.000225229 -0.00393343 0.000465783 3.23513e-05 0.000182386 0.0024051 0.00056546 0.00442347
internal_weight=0 97 71 51 22201 1227 1207 66 1141 864 839 114 89 42
internal_count=22298 97 71 51 22201 1227 1207 66 1141 864 839 114 89 42
shrinkage=0.15


Tree=365
num_leaves=15
num_cat=0
split_feature=12 32 17 16 30 16 22 0 22 17 28 30 20 12
split_gain=0.00489394 0.0439907 0.0978432 0.174899 0.225661 0.516658 0.105467 0.145298 0.140844 0.150933 0.357991 0.185383 0.141187 0.158052
threshold=8.3489800000000001e-05 -0.047877649999999994 3.4581500000000005e-06 -5.0289049999999998e-06 0.00023115050000000004 1.3219200000000002e-07 0.77413600000000016 4.3206550000000012 2.3680300000000005 8.4113050000000008e-07 0.026216200000000005 0.0036123800000000005 -0.26438899999999993 9.9898550000000023e-05
decision_type=2 2 2 2 2 2 2 2 2 2 2 2 2 2
left_child=-1 2 3 -2 5 -5 7 -6 9 12 -11 -12 -8 -14
right_child=1 -3 -4 4 6 -7 8 -9 -10 10 11 -13 13 -15
leaf_value=-4.1268386990969589e-05 -0.00035716061323848362 -0.00017847706118895968 -0.00053554078799084557 0.026490181597598295 -0.0044277813392528875 -0.0046343141518134087 -0.00053435488620639908 0.0094894734144742986 -0.001704395927954465 -0.00035629367507413812 0.030790397833334281 0.010367083431920037 -0.0044127009415460636 0.0086976490230881599
leaf_weight=16580 529 3778 827 28 86 21 119 21 90 34 20 20 25 120
leaf_count=16580 529 3778 827 28 86 21 119 21 90 34 20 20 25 120
internal_value=0 0.000119662 0.000700266 0.00161852 0.00340813 0.0131511 0.00251578 -0.00169636 0.00356881 0.00497292 0.0109599 0.0205787 0.00329474 0.00643724
internal_weight=0 5718 1940 1113 584 49 535 107 428 338 74 40 264 145
internal_count=22298 5718 1940 1113 584 49 535 107 428 338 74 40 264 145
shrinkage=0.15


Tree=366
num_leaves=15
num_cat=0
split_feature=19 33 11 20 0 20 11 23 19 4 2 0 29 3
split_gain=0.00497558 0.0363864 0.0492396 0.0502491 0.0789501 0.048055 0.491692 0.999003 0.354504 0.398616 0.189086 0.187496 0.239117 0.223322
threshold=3.2503650000000009e-05 1.0000000180025095e-35 2.0893650000000003e-05 5.5130950000000007 4.7642550000000012 4.2553350000000005 3.0004050000000003e-05 -8.8487049999999989 8.904350000000001e-07 0.077689850000000019 1.2125100000000002 4.1664900000000005 -0.00041527449999999994 -6.1782649999999988
decision_type=2 2 2 2 2 2 2 2 2 2 2 2 2 2
left_child=1 5 -3 -4 -5 11 10 8 9 -8 -7 -1 13 -13
right_child=-2 2 3 4 -6 6 7 -9 -10 -11 -12 12 -14 -15
leaf_value=4.9895311196157584e-05 5.5915457922668699e-05 0.00052168197593983445 -0.00012889494355476926 0.0016524300823220984 -0.0048796373804153139 4.7229116111166957e-05 0.039674625784391536 -0.0027235857167030768 0.0070331653882749375 0.015104849070597153 -0.0046528468830698425 -0.0098835893121148825 -0.0009692451295881825 -0.0010812210803586905
leaf_weight=2194 13741 3091 628 60 136 1047 24 119 45 39 236 158 670 110
leaf_count=2194 13741 3091 628 60 136 1047 24 119 45 39 236 158 670 110
internal_value=0 -8.97902e-05 0.000247021 -0.00078329 -0.00288002 -0.000373852 0.00032122 0.00675624 0.0172016 0.0244648 -0.000817321 -0.000708961 -0.00248394 -0.00627068
internal_weight=0 8557 3915 824 196 4642 1510 227 108 63 1283 3132 938 268
internal_count=22298 8557 3915 824 196 4642 1510 227 108 63 1283 3132 938 268
shrinkage=0.15


Tree=367
num_leaves=15
num_cat=0
split_feature=19 27 14 33 30 33 4 23 13 36 37 26 32 30
split_gain=0.00487692 0.0925308 0.181619 0.102339 0.256254 0.150198 0.0940935 0.0292424 0.0154637 0.0229388 0.0175222 0.0228015 0.0118869 0.00602057
threshold=3.7528950000000005e-10 0.17349100000000003 0.00010474400000000001 -3.2701999999999996e-06 0.00024013050000000003 -1.2726999999999999e-05 -0.0086232949999999978 -6.5287499999999996 1.8209150000000002e-05 8.5225050000000015e-05 -5.7952799999999992e-08 6.0292400000000006e-05 -0.0062202749999999999 6.0797550000000005e-05
decision_type=2 2 2 2 2 2 2 2 2 2 2 2 2 2
left_child=1 2 -1 4 -3 6 -6 8 10 -10 12 -12 -5 -2
right_child=13 3 -4 7 5 -7 -8 -9 9 -11 11 -13 -14 -15
leaf_value=-0.0038440095559613276 0.00041452709175298817 -0.019592453216186682 0.013566157341535601 0.0011356432243938678 0.0093656521475038185 -0.0089418944036319427 -0.0025410851780179656 0.0053132566511451913 -0.0046717868504029779 0.0010105786653566023 0.0068921454751398412 0.0005431527298476015 -0.0038644761324394495 -6.2052669170371482e-06
leaf_weight=26 794 22 28 23 28 39 32 26 33 31 20 35 20 21141
leaf_count=26 794 22 28 23 28 39 32 26 33 31 20 35 20 21141
internal_value=0 -0.000545314 0.00518348 -0.00154646 -0.00494913 -0.00169505 0.00301539 0.000643549 -0.00010591 -0.00191939 0.0010784 0.00285188 -0.00118999 9.02434e-06
internal_weight=0 363 54 309 121 99 60 188 162 64 98 55 43 21935
internal_count=22298 363 54 309 121 99 60 188 162 64 98 55 43 21935
shrinkage=0.15


Tree=368
num_leaves=15
num_cat=0
split_feature=21 13 12 3 5 11 5 13 3 0 19 6 26 22
split_gain=0.00577868 0.0401139 0.0779577 0.139155 0.0421936 0.0377747 0.0340651 0.0240538 0.0345401 0.0289322 0.0216618 0.0164723 0.0378737 0.0191143
threshold=12.673150000000001 1.2983800000000001e-05 3.8012700000000003e-05 -6.834204999999999 1.5522700000000003e-05 7.5451000000000008e-06 9.8016150000000022e-06 1.8920150000000002e-05 -5.9940599999999984 5.802455000000001 3.6998200000000004e-07 2.5956450000000004e-06 -0.00036267949999999998 0.93106700000000009
decision_type=2 2 2 2 2 2 2 2 2 2 2 2 2 2
left_child=-1 2 5 4 -4 -2 -7 -3 9 10 -9 12 -12 -14
right_child=1 7 3 -5 -6 6 -8 8 -10 -11 11 -13 13 -15
leaf_value=-1.1070387818531597e-05 -0.0028544793369492563 -0.0042483151664399832 0.0060890377226041894 0.015123349106870592 -0.0033313752982117562 0.0071657144274054601 0.00032353722433526856 0.0038350635822603681 0.0057821962411981074 -0.0055260477620176964 -0.0071461726583286434 0.0028427904580578048 0.0037582305941863785 -0.0014015603731812527
leaf_weight=21839 59 38 20 25 23 22 64 27 20 25 22 23 21 70
leaf_count=21839 59 38 20 25 23 22 64 27 20 25 22 23 21 70
internal_value=0 0.000526724 0.00203371 0.00622416 0.00105021 6.85367e-05 0.00207386 -0.000778108 -0.000144128 -0.000774588 -4.58361e-05 -0.000816309 -0.00156108 -0.000210839
internal_weight=0 459 213 68 43 145 86 246 208 188 163 136 113 91
internal_count=22298 459 213 68 43 145 86 246 208 188 163 136 113 91
shrinkage=0.15


Tree=369
num_leaves=15
num_cat=0
split_feature=28 19 2 5 22 5 19 19 17 33 19 0 39 19
split_gain=0.0048078 0.049713 0.0399539 0.080086 0.0612195 0.296745 0.13986 0.21625 0.393897 0.106539 0.0532 0.0588005 0.0828425 0.0497333
threshold=-0.007917854999999998 1.12969e-10 -2.2456499999999995 9.0445300000000016e-06 -2.2909299999999999 1.1084700000000001e-05 3.8519400000000004e-08 0.00015547250000000001 2.0222450000000001e-07 -5.1653849999999984e-07 4.4289900000000011e-05 -8.9347549999999973 0.00019830250000000001 1.3371400000000003e-07
decision_type=2 2 2 2 2 2 2 2 2 2 2 2 2 2
left_child=1 -1 3 -3 5 -5 -7 8 -8 10 11 -6 -13 -4
right_child=-2 2 13 4 9 6 7 -9 -10 -11 -12 12 -14 -15
leaf_value=0.007079643154840754 -4.032644061717299e-05 -0.0059938716691422516 0.001349721079405535 0.019209606380900367 -0.0028332765649104136 -0.0072688079679695261 0.019157959620601361 -0.0051279674965427355 -0.0031894227926386517 0.00051605067224272719 -0.00068729850852120304 -0.013131285878511048 -0.0021430125655919814 4.506267483961487e-05
leaf_weight=23 16700 63 790 20 99 45 35 49 36 360 97 38 26 3917
leaf_count=23 16700 63 790 20 99 45 35 49 36 360 97 38 26 3917
internal_value=0 0.000120302 9.1591e-05 -0.000843514 -0.000440443 0.00195424 -0.000137318 0.00253699 0.00782689 -0.00115499 -0.00346873 -0.00512394 -0.0086673 0.00026403
internal_weight=0 5598 5575 868 805 185 165 120 71 620 260 163 64 4707
internal_count=22298 5598 5575 868 805 185 165 120 71 620 260 163 64 4707
shrinkage=0.15


Tree=370
num_leaves=15
num_cat=0
split_feature=12 35 22 13 21 16 22 14 7 21 34 26 7 24
split_gain=0.00461899 0.0151923 0.0146621 0.0443221 0.0653581 0.0362136 0.0319145 0.197986 0.305332 0.299465 0.317753 0.0656852 0.0656404 0.0817851
threshold=0.00013816550000000002 1.7006450000000002 2.2215250000000002 2.3422600000000006e-06 3.0961150000000006 -1.8516949999999997e-07 1.1118200000000003 0.0023995000000000002 5.6359050000000004e-05 8.0967850000000023 0.070059700000000016 0.000119919 2.6647950000000003e-05 0.29118200000000011
decision_type=2 2 2 2 2 2 2 2 2 2 2 2 2 2
left_child=-1 2 6 4 -4 -6 -2 8 9 10 -8 -10 -9 -14
right_child=1 -3 3 -5 5 -7 7 12 11 -11 -12 -13 13 -15
leaf_value=-3.2317804238168421e-05 -5.0876092545808792e-06 0.0033496296805837615 -0.00021318903047358616 6.274960508189841e-05 -0.011934550400853724 -0.0032072057246114128 0.034604037499520922 -0.0067041557901327247 -0.0017993877306013784 -0.00023637793638044965 0.0092377436477690932 0.0078619848552625628 -0.00056678771034955502 0.0046811375549273525
leaf_weight=18216 2787 33 60 417 23 20 20 33 76 24 25 20 466 78
leaf_count=18216 2787 33 60 417 23 20 20 33 76 24 25 20 466 78
internal_value=0 0.000144219 0.000118094 -0.000625507 -0.00341194 -0.00787532 0.000227664 0.00110189 0.00568386 0.0132949 0.0205117 0.000213398 -0.000208373 0.000185672
internal_weight=0 4082 4049 520 103 43 3529 742 165 69 45 96 577 544
internal_count=22298 4082 4049 520 103 43 3529 742 165 69 45 96 577 544
shrinkage=0.15


Tree=371
num_leaves=15
num_cat=0
split_feature=0 20 34 13 25 35 23 23 10 19 35 35 5 0
split_gain=0.00486581 0.0111336 0.00694986 0.00533074 0.0520569 0.0480102 0.0555007 0.0406909 0.0392123 0.0365503 0.0494318 0.11021 0.275028 0.127981
threshold=14.582500000000001 3.7019450000000003 0.0073015700000000011 -3.2662149999999997e-05 0.14905050000000003 0.25632850000000007 -15.099999999999998 -8.0906399999999987 5.0850750000000008e-05 0.00074348100000000015 -0.0014477449999999996 -0.0043564849999999994 1.7145550000000001e-05 1.3954750000000002
decision_type=2 2 2 2 2 2 2 2 2 2 2 2 2 2
left_child=3 2 -2 4 -1 7 -7 9 -8 -6 11 -11 13 -13
right_child=1 -3 -4 -5 5 6 8 -9 -10 10 -12 12 -14 -15
leaf_value=0.0074896437473150647 0.0021796955338989695 -0.0023868760493184842 -0.00050845447567386605 -1.7623462216613434e-05 0.0019196795906037132 0.0021204395331037434 -0.011232327881431126 0.0012670413484768383 -0.0021508228930179028 -0.00068889256066759122 -0.0010349682306950571 0.0064381262290407904 -0.00071005928001123596 0.023407458644360304
leaf_weight=22 27 63 109 19935 167 23 23 649 20 250 901 20 69 20
leaf_count=22 27 63 109 19935 167 23 23 649 20 250 901 20 69 20
internal_value=0 -0.000738407 2.52224e-05 6.6493e-06 0.000230253 0.000155693 -0.00382712 0.000282314 -0.00700837 -0.00016554 -0.000441914 0.0010465 0.00502677 0.0149228
internal_weight=0 199 136 22099 2164 2142 66 2076 43 1427 1260 359 109 40
internal_count=22298 199 136 22099 2164 2142 66 2076 43 1427 1260 359 109 40
shrinkage=0.15


Tree=372
num_leaves=15
num_cat=0
split_feature=15 35 15 11 4 20 23 11 22 34 3 18 5 34
split_gain=0.00474263 0.0389168 0.10986 0.106332 0.0921118 0.176371 0.109996 0.0891101 0.12366 0.109433 0.079985 0.0944407 0.0426364 0.0380213
threshold=-7.5570549999999986e-07 -0.0086243949999999982 -1.9074249999999998e-05 0.00010246950000000002 0.33837000000000006 -5.1014799999999996 -12.111049999999999 -4.1554949999999994e-05 -0.31470399999999993 0.56805800000000006 -9.8557949999999988 0.00015333800000000001 1.3774450000000002e-05 0.035650350000000004
decision_type=2 2 2 2 2 2 2 2 2 2 2 2 2 2
left_child=1 2 -1 4 6 -6 12 -8 -9 -10 11 -7 -4 -3
right_child=-2 13 3 -5 5 10 7 8 9 -11 -12 -13 -14 -15
leaf_value=-0.00056033413872655456 -4.214112797152681e-05 0.00037560009926167155 -0.0066455990400572772 0.012742843770502077 0.017326597566716371 0.014023980117469494 -0.0051110731046223497 -0.000168022741885618 0.019155901875346899 0.0050943925997919649 -0.003295177425400564 0.00061178089429934814 -0.00011594653905679782 -0.00042793125306331547
leaf_weight=396 16263 2636 45 24 24 21 22 47 20 33 31 27 45 2664
leaf_count=396 16263 2636 45 24 24 21 22 47 20 33 31 27 45 2664
internal_value=0 0.000113561 0.00113642 0.00311847 0.00238518 0.00606514 0.000597277 0.0035319 0.00543336 0.0104006 0.00264394 0.00647962 -0.00338077 -2.82881e-05
internal_weight=0 6035 735 339 315 103 212 122 100 53 79 48 90 5300
internal_count=22298 6035 735 339 315 103 212 122 100 53 79 48 90 5300
shrinkage=0.15


Tree=373
num_leaves=15
num_cat=0
split_feature=19 21 1 8 23 2 2 22 22 21 22 23 3 33
split_gain=0.00470283 0.0292181 0.106679 0.060393 0.0301837 0.0502768 0.0220959 0.0876471 0.338017 0.123624 0.0845925 0.0409141 0.0332356 0.025331
threshold=3.2503650000000009e-05 12.350850000000001 10.604100000000001 -1.7716649999999999e-05 -7.4571249999999987 -0.048678749999999993 1.7128300000000003 1.8281950000000002 1.6045750000000003 5.5752350000000011 1.1294600000000001 -8.1679949999999977 -6.9667699999999995 1.0000000180025095e-35
decision_type=2 2 2 2 2 2 2 2 2 2 2 2 2 2
left_child=1 6 3 -3 5 -5 13 8 10 -9 11 -8 -13 -1
right_child=-2 2 -4 4 -6 -7 7 9 -10 -11 -12 12 -14 -15
leaf_value=-0.00033352390322640725 5.4361270601951e-05 -0.0070685778711618774 0.0088425497190512126 -0.00033878192771226169 -3.3753405677132485e-05 0.010052603197982535 0.00074106697471489774 -0.0013687737029292346 0.018439750769175589 -0.0162310349981999 -0.011307997789263025 -0.0091707940993364899 -0.0015055602491234562 0.00019989478127443281
leaf_weight=4383 13741 23 38 22 126 20 107 34 20 20 20 20 35 3689
leaf_count=4383 13741 23 38 22 126 20 107 34 20 20 20 20 35 3689
internal_value=0 -8.72944e-05 0.00158422 0.00014015 0.00112706 0.0046095 -0.000133257 -0.00150524 -7.02043e-05 -0.00687331 -0.00210427 -0.000968002 -0.00429292 -8.97452e-05
internal_weight=0 8557 229 191 168 42 8328 256 202 54 182 162 55 8072
internal_count=22298 8557 229 191 168 42 8328 256 202 54 182 162 55 8072
shrinkage=0.15


Tree=374
num_leaves=15
num_cat=0
split_feature=2 35 31 6 23 10 39 21 3 6 34 36 17 6
split_gain=0.00493854 0.00804589 0.00538778 0.0093637 0.00534486 0.0223243 0.0336057 0.05633 0.0349376 0.0282781 0.0669242 0.0497996 0.04634 0.0199115
threshold=3.0751650000000006 0.00026298650000000005 29.479850000000003 3.6531950000000008e-07 -14.171799999999999 1.3839300000000001e-05 9.9510750000000013e-05 4.1972500000000013 -14.340549999999999 -6.492014999999999e-08 0.37240250000000003 -0.013252499999999999 4.5089200000000005e-08 -7.7375899999999993e-07
decision_type=2 2 2 2 2 2 2 2 2 2 2 2 2 2
left_child=2 -2 4 -4 5 6 7 8 -1 10 -8 -11 -13 -12
right_child=1 -3 3 -5 -6 -7 9 -9 -10 11 13 12 -14 -15
leaf_value=-0.0051363338750282607 0.0026727088017842581 -0.00098578887908453371 -0.0030902073021078489 0.00048476300380571045 -3.3705154217985607e-05 0.0002704825213382761 0.0091512462727471496 -0.0091302415244102191 0.00061396667394936742 0.0032485124341950847 0.0032464389287633821 -1.2005953587880679e-05 -0.0083539100686809229 -0.0013724122129912886
leaf_weight=36 38 21 34 32 18259 3571 22 26 70 29 30 29 31 70
leaf_count=36 38 21 34 32 18259 3571 22 26 70 29 30 29 31 70
internal_value=0 0.00137053 -3.63602e-06 -0.00135689 3.92065e-07 0.000159457 -0.000996436 -0.00287361 -0.00133897 0.000177911 0.00166108 -0.0018552 -0.00432199 1.32431e-05
internal_weight=0 59 22239 66 22173 3914 343 132 106 211 122 89 60 100
internal_count=22298 59 22239 66 22173 3914 343 132 106 211 122 89 60 100
shrinkage=0.15


Tree=375
num_leaves=15
num_cat=0
split_feature=7 37 37 23 36 16 22 6 10 20 20 39 13 13
split_gain=0.00517989 0.0243738 0.0302412 0.034665 0.0391972 0.0797741 0.0651314 0.0408322 0.031933 0.0329512 0.0280671 0.024432 0.0439699 0.0397942
threshold=2.2368200000000004e-05 -1.8534299999999997e-06 -8.1347649999999991e-07 -14.742949999999999 0.00054001350000000006 8.093170000000001e-08 -0.80414149999999995 2.0985150000000004e-08 1.1666900000000002e-05 0.17695500000000003 -0.12723399999999999 1.0692800000000002e-05 -2.5572099999999993e-06 -6.5923999999999991e-07
decision_type=2 2 2 2 2 2 2 2 2 2 2 2 2 2
left_child=1 -1 -3 10 11 8 -7 -8 -6 -10 -4 13 -13 -5
right_child=-2 2 3 4 5 6 7 -9 9 -11 -12 12 -14 -15
leaf_value=-0.0037828734359209191 -1.1582597921780701e-05 0.0058857709927906399 0.0002043090483311971 -0.0037225758117624777 -0.0037098893032856033 0.011323381077752194 0.0068777024555443369 -0.0024869339168071742 -0.00198924089432694 0.0065181100142321412 -0.0061820047430228434 0.0081846533773932608 9.6204980312200681e-05 0.00058605193864257835
leaf_weight=29 21740 24 32 76 37 33 22 20 20 21 30 20 62 132
leaf_count=29 21740 24 32 76 37 33 22 20 20 21 30 20 62 132
internal_value=0 0.000451265 0.000683382 0.00043614 0.000901067 0.00284361 0.00633656 0.00241835 -0.000515005 0.00236818 -0.00288584 -0.00012379 0.002069 -0.000988254
internal_weight=0 558 529 505 443 153 75 42 78 41 62 290 82 208
internal_count=22298 558 529 505 443 153 75 42 78 41 62 290 82 208
shrinkage=0.15


Tree=376
num_leaves=15
num_cat=0
split_feature=26 19 4 17 37 37 30 16 24 22 29 7 14 18
split_gain=0.00445122 0.0265065 0.0371359 0.0825836 0.127491 0.091535 0.0570982 0.0338465 0.0602716 0.036673 0.0318173 0.0299081 0.0296255 0.0895328
threshold=0.00030913050000000002 0.00040931400000000009 -0.17146349999999996 -3.7786949999999997e-07 -2.5333799999999991e-07 -1.7516699999999999e-06 0.0043531700000000008 -7.6823349999999988e-07 -0.18903999999999996 -1.89821 -0.009967949999999998 3.1110600000000007e-05 0.00048685900000000002 -6.9364099999999992e-06
decision_type=2 2 2 2 2 2 2 2 2 2 2 2 2 2
left_child=-1 2 3 4 5 -2 -5 8 9 -4 -6 -9 13 -3
right_child=1 12 7 6 10 -7 -8 11 -10 -11 -12 -13 -14 -15
leaf_value=2.2201365971094046e-05 0.00080949690199230576 0.0097753220381303543 -0.006525705163367093 -0.0080751880986749056 -0.0065369021487780487 0.012558738610823638 -0.0021013831110654529 0.0015904408025209117 -0.0094839558362171204 0.00076920565612533171 -0.00076884473401150899 -0.0004485891227427205 1.0112976293963141e-05 0.00056430479873305914
leaf_weight=20093 37 29 20 63 39 25 84 229 23 69 48 552 856 131
leaf_count=20093 37 29 20 63 39 25 84 229 23 69 48 552 856 131
internal_value=0 -0.000202309 -0.000683059 -0.00213911 0.000349504 0.00554709 -0.00466159 -0.000200426 -0.00263902 -0.0008701 -0.00335453 0.000149283 0.0003603 0.0022338
internal_weight=0 2205 1189 296 149 62 147 893 112 89 87 781 1016 160
internal_count=22298 2205 1189 296 149 62 147 893 112 89 87 781 1016 160
shrinkage=0.15


Tree=377
num_leaves=15
num_cat=0
split_feature=19 25 36 33 39 33 36 21 20 39 3 23 19 23
split_gain=0.00435616 0.0690604 0.158689 0.0716867 0.177529 0.100784 0.0733643 0.0292236 0.0217108 0.0225174 0.011112 0.00870823 0.00552629 0.0330291
threshold=3.7528950000000005e-10 0.18800750000000002 0.00017309000000000001 -3.2701999999999996e-06 6.9449100000000009e-06 -1.2726999999999999e-05 0.00061707150000000013 8.6680700000000019 -9.4461199999999987 6.6831000000000013e-06 -7.6938699999999995 -10.650649999999999 4.7230050000000011e-09 -6.3397149999999991
decision_type=2 2 2 2 2 2 2 2 2 2 2 2 2 2
left_child=1 2 -1 4 -3 6 -6 8 -5 10 -10 -11 13 -2
right_child=12 3 -4 7 5 -7 -8 -9 9 11 -12 -13 -14 -15
leaf_value=-0.0020065247150341746 0.00048734741237739889 -0.015765975607791916 0.015025869167293421 0.0040631105763499036 0.0082384270059669175 -0.0075142827218499129 -0.0023047247642270204 0.0049306580967303096 -0.0063717262420271122 -0.00086832836876701261 -0.0014314182708039878 0.0020395563553540488 -1.114481089857469e-05 -0.0024831246080187458
leaf_weight=32 1312 24 20 22 27 37 33 28 21 62 20 37 20533 90
leaf_count=32 1312 24 20 22 27 37 33 28 21 62 20 37 20533 90
internal_value=0 -0.000515378 0.0045444 -0.00136139 -0.00421513 -0.00135718 0.00243969 0.000455997 -0.000317401 -0.00100577 -0.00396182 0.000218457 8.52893e-06 0.000296661
internal_weight=0 363 52 311 121 97 60 190 162 140 41 99 21935 1402
internal_count=22298 363 52 311 121 97 60 190 162 140 41 99 21935 1402
shrinkage=0.15


Tree=378
num_leaves=15
num_cat=0
split_feature=22 0 22 19 0 34 29 17 11 12 22 19 1 21
split_gain=0.00434494 0.0555816 0.104121 0.197271 0.115233 0.0788469 0.0856519 0.0715607 0.0612569 0.0865591 0.383272 0.444792 0.316429 0.394784
threshold=1.3356450000000002 2.4294000000000007 1.7583250000000004 3.1037600000000004e-06 9.269025000000001 0.097717150000000016 -0.00036066449999999991 5.304930000000001e-08 -1.3820699999999998e-05 5.4212550000000007e-05 1.7055750000000003 2.4071900000000006e-05 6.3138000000000014 7.8241700000000014
decision_type=2 2 2 2 2 2 2 2 2 2 2 2 2 2
left_child=-1 8 3 4 5 6 7 -3 -2 -10 11 12 -11 -14
right_child=1 2 -4 -5 -6 -7 -8 -9 9 10 -12 -13 13 -15
leaf_value=4.1156517784312412e-05 -0.00022569863510916668 -0.0090437674984886231 -5.8790559390848995e-05 -0.00052433793911687047 -0.0010961208601448951 -0.0035424818796913156 -0.0062766441224746151 -0.020568568813097148 0.00020525211779622122 0.0046473164595418458 -9.1550606638515154e-05 -0.0024146213490820051 0.0061220639044352399 0.032136911447825177
leaf_weight=16084 2317 22 1763 464 70 47 44 27 979 38 338 49 21 35
leaf_count=16084 2317 22 1763 464 70 47 44 27 979 38 338 49 21 35
internal_value=0 -0.000106527 -0.000665019 -0.00225075 -0.00606529 -0.00854988 -0.0110805 -0.0153942 0.000253823 0.00101482 0.00266256 0.00917229 0.0152123 0.0223813
internal_weight=0 6214 2437 674 210 140 93 49 3777 1460 481 143 94 56
internal_count=22298 6214 2437 674 210 140 93 49 3777 1460 481 143 94 56
shrinkage=0.15


Tree=379
num_leaves=15
num_cat=0
split_feature=7 21 28 34 1 36 18 39 12 1 33 13 13 37
split_gain=0.00476462 0.0685734 0.0375959 0.101686 0.0761004 0.0448022 0.0487789 0.0451614 0.0507519 0.0422837 0.0402276 0.320715 0.328635 0.064261
threshold=2.7259350000000005e-05 -14.668149999999999 -0.073788849999999975 0.37240250000000003 -4.5749449999999987 0.012377350000000002 6.0488900000000008e-06 0.00040055500000000008 -3.1474349999999995e-05 -0.91346699999999992 -1.3603049999999998e-05 3.0306100000000004e-05 5.6271500000000005e-05 7.5369300000000008e-08
decision_type=2 2 2 2 2 2 2 2 2 2 2 2 2 2
left_child=1 -1 3 -3 -5 10 7 8 -7 -6 11 -4 -13 -12
right_child=-2 2 5 4 9 6 -8 -9 -10 -11 13 12 -14 -15
leaf_value=0.0073127569695417248 2.3708222974245344e-05 0.011941261418396607 -0.00085327931298765367 -0.0047355133336887496 0.0090020730084506787 -0.011214482551440596 -0.0085090927496951612 0.00017293701867978617 -0.0011638201750779093 0.001228674928023719 -3.0280051950950603e-05 0.02738376846536994 0.0010929773059299053 -0.0022469009952448288
leaf_weight=27 19964 20 218 43 20 20 28 97 26 74 1341 20 23 377
leaf_count=27 19964 20 218 43 20 20 28 97 26 74 1341 20 23 377
internal_value=0 -0.00020279 -0.000290748 0.00195007 0.000491506 -0.00045438 -0.00278379 -0.00166276 -0.00553367 0.00288259 -0.000253102 0.00148199 0.0133213 -0.000516698
internal_weight=0 2334 2307 157 137 2150 171 143 46 94 1979 261 43 1718
internal_count=22298 2334 2307 157 137 2150 171 143 46 94 1979 261 43 1718
shrinkage=0.15


Tree=380
num_leaves=15
num_cat=0
split_feature=10 33 24 24 21 22 14 5 0 23 15 34 2 32
split_gain=0.00482928 0.0488992 0.0726897 0.0430105 0.0397623 0.0551406 0.12103 0.174166 0.0392009 0.0384372 0.027608 0.0478763 0.0356812 0.0734815
threshold=1.0577100000000002e-05 -3.1197549999999997e-05 0.40262000000000003 0.25652650000000005 -12.002549999999998 -1.2564599999999999 0.0018048000000000003 8.1120300000000017e-06 0.88719350000000008 -15.690899999999997 -6.0479049999999991e-08 0.060838350000000006 1.4233050000000003 -0.066509349999999981
decision_type=2 2 2 2 2 2 2 2 2 2 2 2 2 2
left_child=1 9 3 4 -3 6 7 -6 -8 -1 11 -7 -12 -14
right_child=-2 2 -4 -5 5 10 8 -9 -10 -11 12 -13 13 -15
leaf_value=0.00096516672691160984 -1.1275901879959038e-05 -0.0057221045839833092 0.0080485482467338443 -0.0048748422506832865 -0.00035000338155606928 4.7442655950746971e-05 0.0022830719240733446 0.017629504234840474 -0.0059594686116906815 -0.0071795765424212728 0.00049900535468979941 0.007112920433041103 -0.011013221105427615 -0.00040795755506094011
leaf_weight=22 21731 20 30 32 22 71 37 27 20 32 153 31 21 49
leaf_count=22 21731 20 30 32 22 71 37 27 20 32 153 31 21 49
internal_value=0 0.000432163 0.000884112 0.000439116 0.00081616 0.00111956 0.00409039 0.00955707 -0.000609048 -0.00386135 0.000150613 0.00219479 -0.000784393 -0.00358954
internal_weight=0 567 513 483 451 431 106 49 57 54 325 102 223 70
internal_count=22298 567 513 483 451 431 106 49 57 54 325 102 223 70
shrinkage=0.15


Tree=381
num_leaves=15
num_cat=0
split_feature=22 0 12 1 13 0 18 13 32 24 36 5 37 30
split_gain=0.00441709 0.0178294 0.0128323 0.0187554 0.0155336 0.00963235 0.00505368 0.00496161 0.025102 0.020904 0.0234641 0.0453294 0.0270389 0.0257448
threshold=3.0427950000000004 -7.3126599999999993 9.8068850000000016e-05 4.1567350000000003 -1.4346749999999998e-05 -5.3684949999999985 -2.9033649999999996e-05 -5.6883299999999991e-05 -2.8849899999999997 -0.59744049999999993 0.0040031950000000011 1.5234150000000002e-05 6.0895900000000005e-07 0.00055983150000000006
decision_type=2 2 2 2 2 2 2 2 2 2 2 2 2 2
left_child=7 -2 4 -4 -3 -6 -7 8 -1 -10 13 -12 -13 -11
right_child=1 2 3 -5 5 6 -8 -9 9 10 11 12 -14 -15
leaf_value=0.005034173789899796 -0.0023614671170854797 0.0046185623306561913 -0.0045509053906425834 0.0011781440960476175 0.0040060121137815126 -0.0011254267362434598 0.001101708643893124 -2.1410406298089567e-05 -0.0027310095071751512 0.00064883002907212739 0.0088608567399205643 -0.00029842658673020963 0.005782295084957566 -0.0014766409024940907
leaf_weight=25 39 34 20 36 21 31 88 21205 51 452 20 76 21 179
leaf_count=25 39 34 20 36 21 31 88 21205 51 452 20 76 21 179
internal_value=0 0.000604154 0.00110702 -0.000867945 0.00174264 0.0010442 0.000521531 -7.37743e-06 0.00035375 0.000207304 0.000407644 0.00235867 0.00101802 4.58834e-05
internal_weight=0 269 230 56 174 140 119 22029 824 799 748 117 97 631
internal_count=22298 269 230 56 174 140 119 22029 824 799 748 117 97 631
shrinkage=0.15


Tree=382
num_leaves=15
num_cat=0
split_feature=10 23 24 10 23 31 19 14 3 39 9 29 4 14
split_gain=0.00482873 0.0418661 0.00798837 0.00490857 0.0478825 0.034924 0.0555975 0.0460484 0.0459755 0.0606891 0.0944862 0.160039 0.0461423 0.0430955
threshold=8.6105100000000007e-06 -12.295749999999998 -0.10330299999999999 1.6725550000000001e-05 -5.9402799999999987 -0.035596449999999995 0.00014470250000000001 0.00054378450000000013 -6.6205399999999992 0.00037214900000000006 -4.1396499999999991e-07 -0.054535149999999998 -0.17146349999999996 0.0021166150000000005
decision_type=2 2 2 2 2 2 2 2 2 2 2 2 2 2
left_child=1 -1 -3 4 5 6 8 -8 9 13 12 -12 -11 -2
right_child=3 2 -4 -5 -6 -7 7 -9 -10 10 11 -13 -14 -15
leaf_value=0.0055596983559700027 -0.0049087692772041515 -0.0032840371424099428 0.00024809483387370536 2.5164038056239297e-05 0.0058960707721717907 0.00012225275722120097 -0.0048712720672483547 0.00070345150826624312 0.00062796517141352419 -0.0082301295747787776 -0.0007312969165913602 0.015019407153262623 -0.00083577469837936482 -0.0014003718892889728
leaf_weight=31 216 25 34 18880 29 2187 36 451 133 29 47 21 55 124
leaf_count=31 216 25 34 18880 29 2187 36 451 133 29 47 21 55 124
internal_value=0 0.0010965 -0.00124857 -4.44367e-06 -0.00017241 -0.000225756 -0.000910193 0.000291357 -0.00184644 -0.00251534 -2.37156e-05 0.00413289 -0.00338859 -0.00362924
internal_weight=0 90 59 22208 3328 3299 1112 487 625 492 152 68 84 340
internal_count=22298 90 59 22208 3328 3299 1112 487 625 492 152 68 84 340
shrinkage=0.15


Tree=383
num_leaves=15
num_cat=0
split_feature=7 26 26 26 24 36 26 28 38 26 6 5 33 13
split_gain=0.00442438 0.0267741 0.047569 0.0393663 0.0287066 0.0387826 0.0529911 0.0498066 0.0361611 0.023777 0.031419 0.0235152 0.0256605 0.0216125
threshold=2.2368200000000004e-05 7.1628250000000003e-05 6.1593200000000005e-05 7.9466400000000016e-05 0.13318100000000002 0.00054001350000000006 4.8571700000000008e-05 -0.005899559999999999 -3.1385499999999993e-05 -0.00032023699999999996 -3.5523349999999992e-07 7.7994050000000023e-06 -6.1727999999999987e-06 -3.7341549999999996e-06
decision_type=2 2 2 2 2 2 2 2 2 2 2 2 2 2
left_child=1 2 4 -3 5 6 8 -7 -1 -6 -11 -5 -13 -12
right_child=-2 3 -4 11 9 7 -8 -9 -10 10 13 12 -14 -15
leaf_value=0.00050667896527906685 -1.0704633568555356e-05 0.0078370549737221806 -0.0059479217763216564 -0.001674193869896081 0.001611954016235276 0.00062169821758288884 -0.0039650049091544638 0.0099338903652096619 0.0075423228316305367 -0.0077324637827197347 -0.0051139096103725015 0.0060228204086888578 0.00093541183581190377 0.0001643407298161037
leaf_weight=65 21740 22 31 49 44 28 47 24 22 21 24 30 87 64
leaf_count=65 21740 22 31 49 44 28 47 24 22 21 24 30 87 64
internal_value=0 0.000417059 -0.000323585 0.00187471 0.000190735 0.00144264 9.33582e-05 0.00491963 0.00228581 -0.00133119 -0.00251925 0.00108452 0.00223988 -0.00127518
internal_weight=0 558 370 188 339 186 134 52 87 153 109 166 117 88
internal_count=22298 558 370 188 339 186 134 52 87 153 109 166 117 88
shrinkage=0.15


Tree=384
num_leaves=15
num_cat=0
split_feature=37 13 33 37 26 33 5 14 36 30 4 10 37 10
split_gain=0.00434372 0.0203268 0.0534879 0.133274 0.133217 0.0942911 0.126829 0.115866 0.0558002 0.0381245 0.0594842 0.0324093 0.0626235 0.0337804
threshold=-2.4172649999999998e-08 -4.0808899999999995e-05 1.6769150000000002e-05 -9.2905099999999995e-07 -7.6072049999999989e-05 1.7936250000000003e-06 1.5931550000000002e-05 0.0022150250000000002 -0.0025049649999999996 0.0056688550000000013 0.14270150000000001 6.2210950000000015e-05 -1.6201899999999996e-07 3.1843550000000004e-05
decision_type=2 2 2 2 2 2 2 2 2 2 2 2 2 2
left_child=1 2 5 9 -5 -1 7 -7 -8 10 -4 13 -13 -10
right_child=-2 -3 3 4 -6 6 8 -9 11 -11 -12 12 -14 -15
leaf_value=0.0012594320948823674 6.2772250415772687e-05 -0.00012685135800531125 -0.0023078307563152451 0.018436003118668765 0.0017334067272063943 -0.018232455427350941 -0.006586970027106313 -0.0029148712005699052 0.0037598280355450693 -0.00419898972698232 0.0082899469501254222 0.010450512670213357 -0.0011468241226711225 -0.0039679735274902282
leaf_weight=447 11742 9819 26 22 21 20 26 25 20 31 22 20 22 35
leaf_count=447 11742 9819 26 22 21 20 26 25 20 31 22 20 22 35
internal_value=0 -6.98249e-05 0.000689935 0.00355902 0.0102789 0.000120783 -0.00290884 -0.00972269 -0.000415964 -9.86512e-05 0.00254948 0.00123812 0.00437572 -0.00115786
internal_weight=0 10556 737 122 43 615 168 45 123 79 48 97 42 55
internal_count=22298 10556 737 122 43 615 168 45 123 79 48 97 42 55
shrinkage=0.15


Tree=385
num_leaves=15
num_cat=0
split_feature=25 8 21 19 8 32 19 19 19 2 37 33 13 1
split_gain=0.00428105 0.0390394 0.0617824 0.120238 0.0703303 0.12149 0.0285954 0.0262816 0.0409862 0.0796717 0.0530595 0.0496517 0.0582803 0.0575679
threshold=0.16482350000000004 -1.4818749999999999e-05 8.0172650000000019 2.7200000000000004e-05 -1.8153699999999999e-05 -0.018391549999999996 5.5212250000000009e-09 5.6448650000000011e-10 3.1037600000000004e-06 1.0354650000000003 -6.5018599999999986e-08 2.8631500000000003e-06 1.9200700000000004e-05 -10.272599999999999
decision_type=2 2 2 2 2 2 2 2 2 2 2 2 2 2
left_child=1 2 4 -4 6 -6 -1 -3 9 10 -9 12 13 -12
right_child=-2 7 3 -5 5 -7 -8 8 -10 -11 11 -13 -14 -15
leaf_value=-0.0061579678736796437 1.765094772270604e-05 0.0037088749554729269 0.01472055147086004 -0.0011475971040040762 0.014388299282145453 -0.00019276528200862231 -0.00036457227402360444 0.0021062892711522915 -0.00013000151579046403 -0.011002491287321651 -0.00044770745689196414 0.0014987876808797743 -0.00034564163224457434 -0.0073353528638595957
leaf_weight=22 20798 31 21 22 20 36 149 73 830 21 38 57 83 97
leaf_count=22 20798 31 21 22 20 36 149 73 830 21 38 57 83 97
internal_value=0 -0.000244736 0.00138857 0.00660196 0.000401013 0.00501476 -0.00110992 -0.000603267 -0.000714757 -0.00203006 -0.00148862 -0.00244291 -0.00347353 -0.00539661
internal_weight=0 1500 270 43 227 56 171 1230 1199 369 348 275 218 135
internal_count=22298 1500 270 43 227 56 171 1230 1199 369 348 275 218 135
shrinkage=0.15


Tree=386
num_leaves=15
num_cat=0
split_feature=20 0 0 20 4 35 15 17 38 14 23 29 30 23
split_gain=0.00472092 0.0603383 0.179736 0.4373 0.30108 0.331861 0.726575 0.327088 0.330764 0.403131 0.788916 0.299425 0.297564 0.292165
threshold=4.2553350000000005 4.6812450000000005 8.7927400000000002 9.426420000000002 0.19323650000000001 0.0032467150000000003 4.9070950000000013e-06 -2.3320499999999996e-06 -0.0011807899999999997 0.00032540650000000004 -8.8982099999999971 -0.0068902849999999986 0.00020696250000000002 -9.3615799999999982
decision_type=2 2 2 2 2 2 2 2 2 2 2 2 2 2
left_child=-1 -2 3 4 7 -6 -7 -3 -9 13 11 -11 -13 -10
right_child=1 2 -4 -5 5 6 -8 8 9 10 -12 12 -14 -15
leaf_value=-4.729155947880161e-05 -0.00018761548646663629 -0.0021527322868336207 -0.00078516879586355739 -0.0029890766295886163 -0.0032174623233541476 0.030748923687497154 -0.0056783094243915647 -0.0017337119953855804 -0.00173063068112683 0.028365146931654844 0.0018111193829247133 0.022921529357942443 -0.001218279894674197 0.0085197389293342196
leaf_weight=15174 4960 109 949 301 215 22 28 85 99 65 74 27 20 170
leaf_count=15174 4960 109 949 301 215 22 28 85 99 65 74 27 20 170
internal_value=0 0.00010073 0.000761634 0.00196979 0.00360286 -0.000657625 0.0103497 0.0053425 0.00685543 0.00845999 0.0138294 0.0217701 0.0126493 0.0047473
internal_weight=0 7124 2164 1215 914 265 50 649 540 455 186 112 47 269
internal_count=22298 7124 2164 1215 914 265 50 649 540 455 186 112 47 269
shrinkage=0.15


Tree=387
num_leaves=15
num_cat=0
split_feature=4 26 18 8 8 7 29 9 23 3 39 14 39 18
split_gain=0.00547257 0.0217449 0.0673871 0.0593114 0.0610746 0.044956 0.0436583 0.0223372 0.0164893 0.0450787 0.0471102 0.106689 0.0338358 0.120194
threshold=0.23991900000000002 -0.0015291349999999998 0.00022125750000000002 -1.1175749999999997e-05 6.8408600000000006e-06 3.4278550000000004e-05 -0.38862699999999994 -2.8243249999999998e-05 -9.1538299999999975 -7.8373049999999997 1.7267950000000005e-05 0.0025426050000000003 3.112430000000001e-05 2.1264150000000005e-05
decision_type=2 2 2 2 2 2 2 2 2 2 2 2 2 2
left_child=-1 2 3 -2 -5 -4 -7 -8 9 10 11 -3 13 -12
right_child=1 8 5 4 -6 6 7 -9 -10 -11 12 -13 -14 -15
leaf_value=-4.4517816617508289e-05 -0.011972820209339262 -0.0049331494288212107 0.0068396897245706478 0.0041784046206157655 -0.0062125160156782447 -0.0065659897563322862 0.0046985927643254403 -0.0005887834457553254 0.00045327726570075608 0.000833660363620513 0.011378143434558296 -0.0004536138684602859 -0.00023656638036086009 0.00043983411833218623
leaf_weight=16409 20 154 22 20 35 22 25 64 2642 897 26 536 1253 173
leaf_count=16409 20 154 22 20 35 22 25 64 2642 897 26 536 1253 173
internal_value=0 0.000124044 -0.00138232 -0.00497768 -0.002434 0.000645143 -0.000582604 0.000896435 0.000179196 -5.90797e-05 -0.00043293 -0.00145339 5.20009e-05 0.00186896
internal_weight=0 5889 208 75 55 133 111 89 5681 3039 2142 690 1452 199
internal_count=22298 5889 208 75 55 133 111 89 5681 3039 2142 690 1452 199
shrinkage=0.15


Tree=388
num_leaves=15
num_cat=0
split_feature=17 33 38 35 17 37 17 18 6 29 29 25 20 2
split_gain=0.00505932 0.0221008 0.015966 0.0103421 0.00977129 0.116222 0.0823811 0.0791046 0.0797071 0.101303 0.124374 0.117543 0.142308 0.221845
threshold=-1.1107649999999997e-05 0.0022459100000000007 0.30857150000000005 -0.41609249999999992 7.7827850000000012e-08 -1.2428449999999998e-08 6.5498050000000018e-08 4.3066150000000005e-08 -5.5339549999999995e-07 -0.0037220049999999996 -0.0030183649999999994 0.16934200000000002 0.4199365000000001 0.95674700000000013
decision_type=2 2 2 2 2 2 2 2 2 2 2 2 2 2
left_child=1 2 3 -1 5 6 -2 -7 9 -9 -11 -12 -13 -14
right_child=4 -3 -4 -5 -6 7 -8 8 -10 10 11 12 13 -15
leaf_value=0.0029541977058397603 0.00066311178596759263 0.0042359687818679954 -0.0029523656678360861 0.00015408856280394926 4.3067556828680949e-05 -0.0013802849060630608 -0.002201672727938525 -0.00099901450704909748 -0.0014060299856196853 0.013883162062847986 -0.0076384363852886718 0.0015282409526695248 0.00025710455565786106 0.02025614735365917
leaf_weight=30 2890 30 37 2770 13499 2032 245 184 318 24 23 166 24 26
leaf_count=30 2890 30 37 2770 13499 2032 245 184 318 24 23 166 24 26
internal_value=0 0.000186011 0.000143184 0.00018409 -2.74455e-05 -0.000187907 0.000439229 -0.000890828 0.000409273 0.0017007 0.00358947 0.00255579 0.00364129 0.0106566
internal_weight=0 2867 2837 2800 19431 5932 3135 2797 765 447 263 239 216 50
internal_count=22298 2867 2837 2800 19431 5932 3135 2797 765 447 263 239 216 50
shrinkage=0.15


Tree=389
num_leaves=15
num_cat=0
split_feature=37 17 4 13 17 33 38 5 25 36 8 3 6 3
split_gain=0.00677178 0.0603243 0.0611377 0.207666 0.129243 0.194691 0.386977 0.359205 0.385218 0.324511 0.477384 0.201882 0.43738 0.0916499
threshold=-2.1367649999999997e-08 6.8941250000000015e-08 0.046530450000000008 8.2038750000000011e-06 2.9754450000000002e-07 -2.9539199999999995e-06 -0.0013856299999999999 1.8740850000000002e-05 0.18509100000000003 0.00066350650000000018 -8.8272049999999978e-06 -7.3572699999999989 -3.0189099999999994e-06 -7.0804149999999995
decision_type=2 2 2 2 2 2 2 2 2 2 2 2 2 2
left_child=-1 -2 13 -4 5 6 -5 8 -8 11 -11 12 -10 -3
right_child=1 2 3 4 -6 -7 7 -9 9 10 -12 -13 -14 -15
leaf_value=-8.5284499282252673e-05 -0.00036480686506486302 0.0017660107432970174 -0.001365434940543193 -0.00046932712025040557 0.00018686164176588853 0.00033192393816437851 -0.0024366709353801394 -0.0032661232268248958 0.043524113769197591 0.022701066741719841 -0.010072600980929564 0.010209679242689161 0.016223461394791583 -2.7705309680144375e-05
leaf_weight=10801 4295 1377 1596 148 2280 423 28 37 23 20 20 20 31 1199
leaf_count=10801 4295 1377 1596 148 2280 423 28 37 23 20 20 20 31 1199
internal_value=0 8.01216e-05 0.00034546 1.9331e-05 0.000748732 0.00245682 0.00520554 0.00989761 0.0133276 0.0171995 0.00631423 0.0230835 0.0278515 0.000931125
internal_weight=0 11497 7202 4626 3030 750 327 179 142 114 40 74 54 2576
internal_count=22298 11497 7202 4626 3030 750 327 179 142 114 40 74 54 2576
shrinkage=0.15


Tree=390
num_leaves=15
num_cat=0
split_feature=14 21 1 34 26 36 10 34 16 39 18 7 6 17
split_gain=0.00629581 0.0193154 0.030759 0.0144733 0.0342383 0.0270398 0.0654578 0.0239589 0.0479508 0.0188746 0.0364543 0.0471411 0.0237537 0.0264266
threshold=0.00010145900000000002 14.437200000000002 5.2315050000000012 0.0037225250000000004 -7.2457249999999991e-05 -0.00019148049999999998 4.1368150000000005e-05 0.0042436400000000008 2.0667650000000001e-08 6.9936100000000012e-07 -1.7428749999999997e-07 4.9288500000000008e-05 -6.1646349999999984e-06 4.6647350000000006e-08
decision_type=2 2 2 2 2 2 2 2 2 2 2 2 2 2
left_child=1 3 -3 4 -1 6 -6 8 -5 12 -11 -12 -7 -14
right_child=-2 2 -4 7 5 9 -8 -9 -10 10 11 -13 13 -15
leaf_value=-0.0056779996542147644 -3.8035788111372086e-05 0.00093695265656736277 -0.0072825306159211315 -0.0016830679112380105 -0.010074858205189229 0.0029393842330554852 0.0013394414693511162 0.00024002250345004616 0.0079539263401574526 -0.0016841906122863292 0.010522121532121674 0.00022321214768453499 0.0028334299073321744 -0.0022883171749794305
leaf_weight=29 18162 21 20 21 20 37 26 3721 26 28 20 20 28 119
leaf_count=29 18162 21 20 21 20 37 26 3721 26 28 20 20 28 119
internal_value=0 0.000167023 -0.00307255 0.000199458 -0.000757801 -0.000278989 -0.0036233 0.000282532 0.00364804 0.00033148 0.0024669 0.00537267 -0.000457698 -0.00131275
internal_weight=0 4136 41 4095 327 298 46 3768 47 252 68 40 184 147
internal_count=22298 4136 41 4095 327 298 46 3768 47 252 68 40 184 147
shrinkage=0.15


Tree=391
num_leaves=15
num_cat=0
split_feature=31 16 16 16 2 2 19 2 20 17 16 20 0 12
split_gain=0.00693539 0.0256545 0.0302025 0.0226947 0.120111 0.146129 0.0654221 0.0681704 0.0485695 0.0431137 0.0282636 0.0562846 0.0286164 0.0239916
threshold=-0.89672849999999993 2.1373600000000005e-05 3.8446100000000004e-05 1.0058095000000001e-06 -0.36350849999999996 -0.16190399999999996 0.00018511750000000003 0.87208400000000008 7.5974850000000007 -1.8829249999999999e-07 4.7333200000000009e-08 7.5974850000000007 6.3840100000000009 -6.0414699999999996e-05
decision_type=2 2 2 2 2 2 2 2 2 2 2 2 2 2
left_child=1 3 -3 10 8 -6 7 -7 9 -5 -1 13 -13 -12
right_child=-2 2 -4 4 5 6 -8 -9 -10 -11 11 12 -14 -15
leaf_value=0.0007824635862258431 -2.1800508391661734e-05 -0.0063088458256654279 -0.00056619840332848873 -0.0039932256077670238 0.015403583905964087 -0.00025818054262344959 -0.003730930979677046 0.012126628076657653 -0.0067231213013949466 0.0050291609563058821 -0.0041376804300983037 -0.0013827977624411383 -0.006732228631153702 0.0012870863892673915
leaf_weight=770 20880 23 198 22 26 20 26 20 31 26 21 45 45 145
leaf_count=770 20880 23 198 22 26 20 26 20 31 26 21 45 45 145
internal_value=0 0.000321012 -0.00116385 0.000595159 0.00219502 0.00587889 0.00212674 0.00593422 -0.00209506 0.0008939 0.000328516 -0.00103687 -0.00405751 0.000600821
internal_weight=0 1418 221 1197 171 92 66 40 79 48 1026 256 90 166
internal_count=22298 1418 221 1197 171 92 66 40 79 48 1026 256 90 166
shrinkage=0.15


Tree=392
num_leaves=15
num_cat=0
split_feature=17 33 24 16 35 3 26 21 2 34 9 35 4 3
split_gain=0.00583048 0.0152915 0.0116582 0.0103738 0.00840776 0.00905111 0.0135992 0.0116966 0.0114375 0.00914845 0.0076133 0.0372565 0.203754 0.0868404
threshold=-1.1107649999999997e-05 0.0022459100000000007 -1.1249249999999997 -3.3234799999999996e-05 -0.41609249999999992 -8.3853449999999992 0.0018695000000000003 -9.1152649999999991 -0.84172249999999982 4.5629350000000004 -8.1545649999999974e-06 -0.0011083449999999999 -0.066919399999999976 -8.6759999999999984
decision_type=2 2 2 2 2 2 2 2 2 2 2 2 2 2
left_child=1 2 3 -1 -4 9 7 8 -7 -6 11 12 13 -2
right_child=10 -3 4 -5 5 6 -8 -9 -10 -11 -12 -13 -14 -15
leaf_value=-6.8762687706938857e-05 -0.0042777260715806415 0.0035684591438621283 0.0026579025761044074 -0.0047889424755703652 1.2279745538759801e-05 -0.0029540384120012343 -0.0030663321197093663 0.00077409591751906608 0.00080993938395027617 -0.0028775338298873978 -0.00010881441591335468 0.00027188137707707515 0.00063267947445390306 -0.0010129864197301356
leaf_weight=22 329 30 31 20 1753 39 23 890 34 25 11335 5999 1354 414
leaf_count=22 329 30 31 20 1753 39 23 890 34 25 11335 5999 1354 414
internal_value=0 0.000199684 0.000164061 -0.00231647 0.000201336 0.000173784 0.000538286 0.000624378 -0.00120095 -2.83532e-05 -2.9463e-05 8.16349e-05 -0.000462613 -0.00245861
internal_weight=0 2867 2837 42 2795 2764 986 963 73 1778 19431 8096 2097 743
internal_count=22298 2867 2837 42 2795 2764 986 963 73 1778 19431 8096 2097 743
shrinkage=0.15


Tree=393
num_leaves=15
num_cat=0
split_feature=31 3 17 17 26 4 2 7 17 18 25 11 11 11
split_gain=0.00594928 0.0314798 0.0288701 0.037121 0.0260583 0.052527 0.0226143 0.0373423 0.0169567 0.0350308 0.0900703 0.0298388 0.0684151 0.0595305
threshold=-0.89672849999999993 -17.445649999999997 1.3957650000000002e-05 9.0233950000000004e-06 -0.0046297149999999995 3.2739900000000004 2.5103650000000006 3.247790000000001e-05 -4.4505349999999993e-08 -7.3056799999999988e-06 22.912200000000002 1.8064000000000005e-05 4.8637800000000011e-05 7.7357200000000012e-05
decision_type=2 2 2 2 2 2 2 2 2 2 2 2 2 2
left_child=1 -1 3 8 5 -4 7 -6 -3 10 -10 -11 -13 -14
right_child=-2 2 4 -5 6 -7 -8 -9 9 11 -12 12 13 -15
leaf_value=0.0056836659787222743 -2.0191261916119957e-05 -0.00044609135415968289 0.0076985581585904579 0.005917347501547608 -0.008553375218096855 -0.003042564626334102 0.0016612276313191449 -0.0018105667961350121 0.0086587763398151413 0.0010459070849222099 -0.0028749525086022914 -0.0032728995377792986 0.0085452906009159044 -0.0017062531546588825
leaf_weight=24 20880 368 20 28 21 21 33 154 39 518 25 116 25 26
leaf_count=24 20880 368 20 28 21 21 33 154 39 518 25 116 25 26
internal_value=0 0.000297316 0.000204581 0.000522913 -0.00125924 0.00219701 -0.00194052 -0.0026197 0.00038769 0.000797345 0.00415341 0.000483786 -0.0012598 0.00331901
internal_weight=0 1418 1394 1145 249 41 208 175 1117 749 64 685 167 51
internal_count=22298 1418 1394 1145 249 41 208 175 1117 749 64 685 167 51
shrinkage=0.15


Tree=394
num_leaves=15
num_cat=0
split_feature=15 25 15 20 24 24 39 3 4 23 11 11 29 14
split_gain=0.00607826 0.019184 0.0152166 0.0365265 0.098858 0.0487744 0.0677381 0.0492189 0.0298293 0.0368765 0.0216125 0.0194742 0.0129183 0.041794
threshold=4.9070950000000013e-06 98.768400000000014 2.7643650000000007e-06 1.3299850000000002 0.25795350000000006 -0.50768199999999986 5.3208500000000011e-05 -10.544849999999999 0.1282925 -10.709549999999998 -3.3781249999999991e-05 -3.3781249999999991e-05 -0.29568299999999997 0.012822650000000003
decision_type=2 2 2 2 2 2 2 2 2 2 2 2 2 2
left_child=2 12 -1 5 8 -4 10 -8 11 -10 -7 -5 13 -2
right_child=1 -3 3 4 -6 6 7 -9 9 -11 -12 -13 -14 -15
leaf_value=-1.9622501467760918e-05 -0.0040458611193865254 0.0040686879155275944 0.0030933638171549756 -0.00068567590317867981 0.0085172362732480206 -0.0050883366786874827 -0.013605401349403629 -0.0042001927148498175 -0.0065052882979216515 -0.00033004538772564207 3.0761242305743503e-05 0.0046141213406092271 0.00017433833122876114 0.0012735437333878294
leaf_weight=17376 65 28 29 39 29 25 21 31 36 55 72 26 4398 68
leaf_count=17376 65 28 29 39 29 25 21 31 36 55 72 26 4398 68
internal_value=0 0.000154482 -3.97025e-05 -0.00100089 0.000475042 -0.00253486 -0.00363029 -0.00799845 -0.00101998 -0.002773 -0.00128859 0.00143424 0.000130294 -0.00132617
internal_weight=0 4559 17739 363 185 178 149 52 156 91 97 65 4531 133
internal_count=22298 4559 17739 363 185 178 149 52 156 91 97 65 4531 133
shrinkage=0.15


Tree=395
num_leaves=15
num_cat=0
split_feature=38 3 31 23 25 21 36 17 17 37 22 2 31 3
split_gain=0.00517806 0.0220023 0.056143 0.0908432 0.0693146 0.0345934 0.0257337 0.0217057 0.0217695 0.0537764 0.063839 0.162898 0.121712 0.0911818
threshold=0.00030003650000000006 -16.733749999999997 0.20335250000000002 -16.571949999999998 1.3871900000000001 -2.0942299999999996 -0.024553549999999997 -1.1133049999999997e-06 7.7827850000000012e-08 -2.0869899999999996e-07 -2.4436449999999996 -1.5721549999999997 0.33092200000000005 -6.7182349999999991
decision_type=2 2 2 2 2 2 2 2 2 2 2 2 2 2
left_child=1 2 3 -1 -4 -6 -5 -3 9 -9 11 12 13 -11
right_child=-2 7 4 6 5 -7 -8 8 -10 10 -12 -13 -14 -15
leaf_value=0.0098570484668016427 9.721221763578555e-05 0.00029975952731561736 -0.010100353300119672 0.0061915330257033933 -0.0044479503638947121 0.0035005038283998148 0.00069839672405087991 0.00094301943976602917 -5.9888226765057347e-05 -0.011997917714994401 -0.00054453038172369865 0.00039259612171736079 0.0012897003169787388 -0.0010157191946001893
leaf_weight=27 7939 2582 22 20 22 28 473 462 8318 75 2127 150 31 22
leaf_count=27 7939 2582 22 20 22 28 473 462 8318 75 2127 150 31 22
internal_value=0 -5.3748e-05 0.000841662 0.00138522 -0.00308401 3.18398e-06 0.000921242 -9.22519e-05 -0.000182746 -0.000539191 -0.000823923 -0.00296158 -0.00689226 -0.00950711
internal_weight=0 14359 592 520 72 50 493 13767 11185 2867 2405 278 128 97
internal_count=22298 14359 592 520 72 50 493 13767 11185 2867 2405 278 128 97
shrinkage=0.15


Tree=396
num_leaves=15
num_cat=0
split_feature=14 21 2 14 35 24 29 16 16 3 28 1 35 15
split_gain=0.00470818 0.0156347 0.0247986 0.0133091 0.0197423 0.0265205 0.0133007 0.0323488 0.036801 0.0298205 0.0419321 0.0316188 0.0745306 0.0267781
threshold=0.00010145900000000002 14.437200000000002 0.77221600000000012 0.00010370600000000001 0.00013592550000000005 0.074898200000000012 -0.15649199999999996 2.1373600000000005e-05 4.0949200000000004e-05 -16.359849999999998 -1.4820749999999998 9.3983000000000008 0.12762500000000002 4.5256500000000006e-07
decision_type=2 2 2 2 2 2 2 2 2 2 2 2 2 2
left_child=1 -1 -3 4 5 -2 7 9 -9 -5 -11 13 -13 -12
right_child=3 2 -4 6 -6 -7 -8 8 -10 10 11 12 -14 -15
leaf_value=0.00017361809900832181 -0.0072466550376266235 0.00082994821755814224 -0.0065503131231525909 0.0058631215261162389 0.00086846342795373255 -0.00057996367658829664 -5.05701389604246e-05 -0.0072126061443538794 -0.00043018057327745264 -0.0054251143167240784 0.0016178157409398248 -0.00080594203647469049 0.011714331340044737 -0.00063907736080472339
leaf_weight=4095 25 21 20 28 36 29 17324 21 126 23 319 23 20 188
leaf_count=4095 25 21 20 28 36 29 17324 21 126 23 319 23 20 188
internal_value=0 0.000144436 -0.00277018 -3.28922e-05 -0.00185245 -0.00366639 -2.38307e-05 0.000595466 -0.0013991 0.00108332 0.000849754 0.00111216 0.00501744 0.00078094
internal_weight=0 4136 41 18162 90 54 18072 748 147 601 573 550 43 507
internal_count=22298 4136 41 18162 90 54 18072 748 147 601 573 550 43 507
shrinkage=0.15


Tree=397
num_leaves=15
num_cat=0
split_feature=26 17 4 26 18 13 18 15 22 15 18 25 38 26
split_gain=0.00460628 0.0147466 0.00430528 0.016874 0.052481 0.0493991 0.0459752 0.0363692 0.0269211 0.0194155 0.016414 0.132697 0.263163 0.057284
threshold=0.15587000000000004 1.5760850000000003e-07 0.23991900000000002 -0.0015291349999999998 0.00022125750000000002 6.4247400000000011e-05 1.8181450000000002e-05 4.0982350000000006e-05 -0.47132899999999994 -2.2820449999999996e-05 6.0488900000000008e-06 1.3689050000000003 -0.00064293949999999999 -0.00014341149999999995
decision_type=2 2 2 2 2 2 2 2 2 2 2 2 2 2
left_child=2 -2 10 4 6 -6 -4 9 -8 -7 -1 12 -12 -13
right_child=1 -3 3 -5 5 7 8 -9 -10 -11 11 13 -14 -15
leaf_value=-1.9192061448788347e-05 0.0011877400750693464 -0.0045034588436828919 0.0013775868886362083 0.00016174992078888116 0.005508284280350541 -0.0014489186670107303 -0.0035850782803858493 0.0025238598496224243 -0.010357233724789694 -0.0070812833764388669 0.0138109330760299 -0.01292703001142945 -0.0019807823798139333 -0.0033440526526646863
leaf_weight=16163 21 20 22 5669 34 40 28 38 25 21 29 25 131 32
leaf_count=16163 21 20 22 5669 34 40 28 38 25 21 29 25 131 32
internal_value=0 -0.00158845 2.92612e-06 0.000113064 -0.00121385 0.000575373 -0.00438675 -0.00111876 -0.00677949 -0.00338793 -3.65905e-05 -0.00133249 0.000881466 -0.00754711
internal_weight=0 41 22257 5877 208 133 75 99 53 61 16380 217 160 57
internal_count=22298 41 22257 5877 208 133 75 99 53 61 16380 217 160 57
shrinkage=0.15


Tree=398
num_leaves=15
num_cat=0
split_feature=37 17 19 38 38 3 3 23 34 18 34 5 5 33
split_gain=0.00564734 0.0539257 0.0678899 0.145049 0.0980212 0.205592 0.231422 0.308956 0.305896 0.36547 0.227813 0.281638 0.361727 0.253624
threshold=-2.1367649999999997e-08 2.7218200000000003e-08 6.4213950000000014e-06 0.019058700000000001 0.00014866900000000001 -6.8924949999999994 -13.864249999999998 -13.653549999999997 0.077197050000000003 -7.3056799999999988e-06 0.061870450000000007 1.5234150000000002e-05 1.3823800000000003e-05 -5.2086299999999991e-06
decision_type=2 2 2 2 2 2 2 2 2 2 2 2 2 2
left_child=1 2 3 4 -1 6 -6 -8 10 -10 11 12 13 -9
right_child=-2 -3 -4 -5 5 -7 7 8 9 -11 -12 -13 -14 -15
leaf_value=0.00064520703949735912 7.3167789087253343e-05 -0.00029893005278681733 -2.8526883190903737e-05 -0.0049017813180107618 -0.0038068634138653575 -0.0021044681707424765 -0.004882423806090005 0.020183701800581596 0.035942389690317211 0.0079257873310284166 -0.006254245961084961 0.022468027596939995 -0.010898597371440543 0.0039615455638053578
leaf_weight=545 11497 7527 2256 75 48 101 38 35 20 22 25 29 23 57
leaf_count=545 11497 7527 2256 75 48 101 38 35 20 22 25 29 23 57
internal_value=0 -7.78826e-05 0.00043031 0.00144714 0.0019521 0.00374168 0.00572976 0.00756815 0.00981043 0.021267 0.00696323 0.00925794 0.00592669 0.010133
internal_weight=0 10801 3274 1018 943 398 297 249 211 42 169 144 115 92
internal_count=22298 10801 3274 1018 943 398 297 249 211 42 169 144 115 92
shrinkage=0.15


Tree=399
num_leaves=15
num_cat=0
split_feature=33 2 2 6 3 24 12 16 15 1 2 15 10 14
split_gain=0.00525383 0.0254914 0.0387822 0.0390196 0.0489552 0.0340326 0.0317041 0.0283369 0.0345022 0.0257069 0.0233523 0.0287843 0.027848 0.0316079
threshold=-7.6517199999999986e-05 -2.3856249999999997 -2.0740299999999992 1.6271050000000002e-06 -15.173449999999997 0.92477500000000001 -0.00013899949999999998 -4.6286199999999989e-06 -3.8960799999999996e-08 -1.8392899999999999 -1.893775 -2.1459099999999995e-06 3.5284600000000004e-05 0.00012106850000000002
decision_type=2 2 2 2 2 2 2 2 2 2 2 2 2 2
left_child=1 7 6 5 -5 10 -3 -1 -9 -10 -4 -12 13 -13
right_child=-2 2 3 4 -6 -7 -8 8 9 -11 11 12 -14 -15
leaf_value=0.0027122697286748525 -1.6474808345271014e-05 4.9385319056455039e-05 -0.0043392488441895694 0.0085760407678952266 0.001214434151417377 -0.001663598286416338 0.0069273079092932966 -0.007184856504318304 -0.0027500260022533755 0.0030449918514932508 -0.0016711122008504615 -0.001919247103958494 -0.0006661958132865134 0.0036765693916273271
leaf_weight=28 21212 25 20 22 267 254 38 28 61 24 73 27 76 143
leaf_count=28 21212 25 20 22 267 254 38 28 61 24 73 27 76 143
internal_value=0 0.00032179 0.000602506 0.000345687 0.00177483 -0.000350812 0.00419797 -0.0015596 -0.00261812 -0.00111379 0.00063281 0.000944538 0.00172073 0.00278782
internal_weight=0 1086 945 882 289 593 63 141 113 85 339 319 246 170
internal_count=22298 1086 945 882 289 593 63 141 113 85 339 319 246 170
shrinkage=0.15


Tree=400
num_leaves=15
num_cat=0
split_feature=23 1 17 37 17 28 17 20 22 3 39 15 33 38
split_gain=0.00501754 0.0339274 0.0593467 0.0817526 0.046465 0.061384 0.051136 0.0352848 0.0614182 0.0597332 0.0568939 0.0525995 0.0394805 0.0370383
threshold=-7.1447699999999994 8.7593550000000011 4.39341e-08 -8.1870799999999982e-08 7.5886650000000011e-08 0.0032097250000000005 6.0103050000000002e-08 -11.325299999999997 1.7890850000000003 -5.9356799999999987 6.639340000000001e-07 -1.0509999999999998e-08 -2.7153749999999994e-06 -0.00013682699999999998
decision_type=2 2 2 2 2 2 2 2 2 2 2 2 2 2
left_child=-1 -2 3 -3 5 -4 -7 -6 9 10 -9 -12 -13 -11
right_child=1 2 4 -5 7 6 -8 8 -10 13 11 12 -14 -15
leaf_value=-3.5972829758369741e-05 0.00028873762595075082 0.010473781720502302 -0.0014504449017455473 0.00015605962461929775 -0.0069625807410505199 -0.0038175775995478028 -0.014415528545422213 0.003889219259144738 0.0051828056244024381 0.0071719528298126532 -0.0087079150848022313 0.0026004511211067437 -0.0048642252384690264 -0.00012479494647171425
leaf_weight=17759 4016 20 51 127 21 20 21 20 36 20 46 25 44 72
leaf_count=17759 4016 20 51 127 21 20 21 20 36 20 46 25 44 72
internal_value=0 0.000140745 -0.000995657 0.00155983 -0.00199474 -0.00492446 -0.0092458 -0.00104568 -0.00057323 -0.00148608 -0.00349477 -0.00477895 -0.00215963 0.00146145
internal_weight=0 4539 523 147 376 92 41 284 263 227 135 115 69 92
internal_count=22298 4539 523 147 376 92 41 284 263 227 135 115 69 92
shrinkage=0.15


Tree=401
num_leaves=15
num_cat=0
split_feature=14 38 4 25 25 3 34 20 20 37 35 35 4 34
split_gain=0.0051577 0.0139606 0.0222028 0.0338931 0.0591861 0.0355269 0.0802241 0.0306231 0.0283812 0.0470449 0.0201726 0.0616415 0.0196144 0.0199506
threshold=0.00010145900000000002 0.00042738950000000003 0.075718950000000021 0.38138150000000004 0.35688600000000009 -6.2170999999999994 0.073646900000000015 12.896400000000002 -6.908199999999999 -4.1828699999999994e-08 -0.00059238649999999993 -0.00069458649999999992 -0.024483649999999999 0.026162250000000001
decision_type=2 2 2 2 2 2 2 2 2 2 2 2 2 2
left_child=1 2 7 4 8 6 -5 10 9 -4 11 -1 13 -3
right_child=-2 12 3 5 -6 -7 -8 -9 -10 -11 -12 -13 -14 -15
leaf_value=0.00047316692412789277 -3.4426663522482149e-05 0.0038603590801358223 8.7837769321843297e-05 -0.010674348708707837 0.0079108382034714202 -0.0012079925805408447 0.00083085593115538351 0.0050309434040110351 0.00033259249160763626 -0.0089940811058373329 -0.00014926185115082306 0.0067193953277494166 0.0010731861328691712 -0.00032159227092576586
leaf_weight=551 18162 27 33 30 21 234 25 29 262 21 1616 38 729 520
leaf_count=551 18162 27 33 30 21 234 25 29 262 21 1616 38 729 520
internal_value=0 0.000151174 -3.29012e-05 -0.000822427 0.000199673 -0.00201429 -0.00544471 0.000188336 -0.000312778 -0.00344402 0.000124646 0.000876149 0.000563757 -0.000115171
internal_weight=0 4136 2860 626 337 289 55 2234 316 54 2205 589 1276 547
internal_count=22298 4136 2860 626 337 289 55 2234 316 54 2205 589 1276 547
shrinkage=0.15


Tree=402
num_leaves=15
num_cat=0
split_feature=27 4 4 21 0 17 30 4 38 13 13 38 22 18
split_gain=0.00461297 0.0260545 0.0431067 0.058176 0.038376 0.03921 0.0860248 0.0300767 0.138303 0.0294782 0.0351526 0.0449489 0.026127 0.0241623
threshold=10.321500000000002 -0.24203399999999997 -1.0335399999999997 -7.8433199999999994 -4.205004999999999 -1.2297799999999997e-06 0.021501650000000004 -1.4013599999999997 0.15002100000000004 -6.8449349999999992e-05 -3.7490299999999996e-05 -0.244754 0.90042650000000013 -1.3027099999999999e-06
decision_type=2 2 2 2 2 2 2 2 2 2 2 2 2 2
left_child=-1 2 7 -4 -5 -6 -7 -2 -9 -3 11 -11 -13 -12
right_child=1 9 3 4 5 6 -8 8 -10 10 13 12 -14 -15
leaf_value=-1.878957908985027e-05 -0.00026069831490683402 0.0057313809273764494 0.0029480754943340963 -0.0082680228040165581 0.0030330159209287643 -0.011296962529420853 -0.00036537417168880853 -0.0048101346133210291 0.012026662747983051 -0.0085674293876218145 0.0026090496176298726 0.0012622365329522068 -0.0050065847712435886 0.00048358703734276484
leaf_weight=20726 251 25 33 36 22 25 46 21 23 20 140 52 21 857
leaf_count=20726 251 25 33 36 22 25 46 21 23 20 140 52 21 857
internal_value=0 0.000247731 -0.000706132 -0.00267202 -0.00410972 -0.00250005 -0.00421453 0.000373441 0.00399092 0.000638686 0.000521881 -0.00226721 -0.000541123 0.000782047
internal_weight=0 1572 457 162 129 93 71 295 44 1115 1090 93 73 997
internal_count=22298 1572 457 162 129 93 71 295 44 1115 1090 93 73 997
shrinkage=0.15


Tree=403
num_leaves=15
num_cat=0
split_feature=11 20 33 34 19 7 19 19 7 28 32 15 12 21
split_gain=0.00452123 0.0263586 0.0347783 0.119425 0.823231 0.0675381 0.19495 0.0585878 0.0747138 0.0810553 0.116591 0.0844966 0.0526914 0.0967297
threshold=-1.4440299999999998e-05 2.4290000000000007 -6.9597999999999998e-06 0.035650350000000004 3.0027150000000007e-07 2.7632750000000004e-05 2.5573700000000003e-06 1.5300100000000003e-07 3.2191800000000006e-05 -0.017337349999999998 0.13641400000000004 5.4489500000000011e-09 -3.8002549999999991e-05 0.38053450000000005
decision_type=2 2 2 2 2 2 2 2 2 2 2 2 2 2
left_child=1 2 3 4 -1 6 -5 8 -7 -10 11 -11 13 -4
right_child=-2 -3 12 5 -6 7 -8 -9 9 10 -12 -13 -14 -15
leaf_value=0.032007414967353855 -5.1076432300450825e-05 0.00042345604218264492 -0.0023981783810584512 0.012660300894640385 -0.00069015138417881014 -0.010222737269941717 -0.0010259070928658554 0.00019475228802626489 -0.005578737682428195 0.0059947120358369178 0.011248361986196999 -0.0057552411066717464 0.00010524027907992586 5.9717380103302509e-05
leaf_weight=21 14186 3210 668 36 99 26 67 978 62 21 21 40 2081 782
leaf_count=21 14186 3210 668 36 99 26 67 978 62 21 21 40 2081 782
internal_value=0 8.93208e-05 -0.000129483 0.000511711 0.00503192 7.81173e-05 0.00375762 -0.000252012 -0.00282222 -0.00148602 0.00160847 -0.00171018 -0.000378442 -0.00107261
internal_weight=0 8112 4902 1371 120 1251 103 1148 170 144 82 61 3531 1450
internal_count=22298 8112 4902 1371 120 1251 103 1148 170 144 82 61 3531 1450
shrinkage=0.15


Tree=404
num_leaves=15
num_cat=0
split_feature=4 35 6 9 25 13 31 28 18 13 26 24 36 16
split_gain=0.00457325 0.0152023 0.0301361 0.0518495 0.0250209 0.0294952 0.0302925 0.0213946 0.0359296 0.017952 0.0439868 0.0938763 0.0184309 0.0201428
threshold=0.23991900000000002 0.14560800000000004 2.1805700000000004e-06 1.9997450000000006e-05 55.015050000000009 2.2647150000000002e-05 -3.0264299999999995 -0.47810599999999998 0.0017115100000000001 -6.3042249999999988e-05 -0.00011186349999999999 0.15709900000000002 0.33663250000000006 1.0172650000000003e-05
decision_type=2 2 2 2 2 2 2 2 2 2 2 2 2 2
left_child=-1 7 4 -4 5 -3 -7 8 -2 10 -9 -12 -11 -14
right_child=1 2 3 -5 -6 6 -8 9 -10 12 11 -13 13 -15
leaf_value=-4.0695873873404068e-05 0.0079335197290804765 -0.0036656207329104156 0.0076435005022424517 -0.0020875145327798757 -0.0051261882625281982 0.0057115936285949175 -0.00085392115488502895 -0.0035035038724475138 -0.0007407066779705928 0.00012367816493230182 0.0010573735968996566 0.012183602304243582 -0.00049213388810152891 -0.0061183795549533725
leaf_weight=16409 21 56 22 28 43 21 64 28 22 5409 91 21 41 22
leaf_count=16409 21 56 22 28 43 21 64 28 22 5409 91 21 41 22
internal_value=0 0.000113394 -0.00107137 0.00219413 -0.00195874 -0.000992782 0.000768147 0.000162419 0.00349554 0.00013688 0.00181413 0.00314354 9.39681e-05 -0.00245685
internal_weight=0 5889 234 50 184 141 85 5655 43 5612 140 112 5472 63
internal_count=22298 5889 234 50 184 141 85 5655 43 5612 140 112 5472 63
shrinkage=0.15


Tree=405
num_leaves=15
num_cat=0
split_feature=3 39 38 13 1 28 38 6 6 22 3 9 3 6
split_gain=0.00481147 0.0234183 0.0306307 0.055596 0.0566123 0.238569 0.0475667 0.0408158 0.04297 0.0338469 0.0374026 0.0337198 0.035675 0.0468696
threshold=-8.7185599999999983 3.3481700000000004e-06 4.0429000000000009e-05 6.6789350000000011e-05 6.8510650000000011 0.0027011450000000007 -0.00016605749999999998 -7.6678799999999985e-06 -5.0320249999999995e-06 -1.2182849999999996 -9.5728199999999983 5.4478900000000005e-05 -13.453149999999999 -3.3639549999999993e-06
decision_type=2 2 2 2 2 2 2 2 2 2 2 2 2 2
left_child=1 2 3 4 6 -6 -1 -8 -9 10 -10 12 -4 -14
right_child=-2 -3 11 -5 5 -7 7 8 9 -11 -12 -13 13 -15
leaf_value=-0.0042784978315467013 6.5591763812521535e-05 -0.00019822587491811984 0.00076056222165009661 -0.00042879027188834877 0.00024891857830384236 0.019379709452477981 0.0065428026286099335 -0.004588871746643141 0.0021191506327030963 0.00074290905704773539 0.0078422104450874032 0.0043628903049466317 -0.0048922858377409284 -0.00076717235123120752
leaf_weight=36 11822 8017 280 607 55 20 32 29 179 642 30 32 72 445
leaf_count=36 11822 8017 280 607 55 20 32 29 179 642 30 32 72 445
internal_value=0 -7.40193e-05 0.000330928 0.000708477 0.00138328 0.00535046 0.00106942 0.00128052 0.00108916 0.00128266 0.00294064 -0.000411419 -0.00060311 -0.00134166
internal_weight=0 10476 2459 1630 1023 75 948 912 880 851 209 829 797 517
internal_count=22298 10476 2459 1630 1023 75 948 912 880 851 209 829 797 517
shrinkage=0.15


Tree=406
num_leaves=15
num_cat=0
split_feature=14 23 14 29 11 25 11 1 19 22 11 23 18 4
split_gain=0.00518909 0.020114 0.0231308 0.0369928 0.12346 0.543977 0.176357 0.0957992 0.104198 0.161451 0.0755332 0.255571 0.189657 0.196642
threshold=0.0009749060000000001 -13.844799999999998 8.5393400000000015e-05 -0.017096699999999996 2.9047450000000003e-05 1.3388400000000003 2.5451250000000005e-05 -2.8846349999999998 3.6465450000000008e-06 0.17931350000000004 5.6234700000000009e-06 -9.5672149999999991 2.2908950000000005e-06 -0.14220249999999998
decision_type=2 2 2 2 2 2 2 2 2 2 2 2 2 2
left_child=1 -1 -3 4 6 -6 10 -7 9 -9 -4 -12 13 -13
right_child=-2 2 3 -5 5 7 -8 8 -10 -11 11 12 -14 -15
leaf_value=0.00033327189636701279 7.5207726899628014e-05 0.00020013768894897331 -0.00072043442067268868 -0.00046348173306930124 0.023683200727423859 0.0074385372884068135 -0.0098825830398354582 -0.0044032640518188206 -0.0042180893519862157 0.014196918013372591 -0.0044278116809027138 0.012250474461710409 0.016402146933079859 -0.0022111349850092664
leaf_weight=2247 10719 2735 512 5657 27 37 41 21 86 21 71 34 34 56
leaf_count=2247 10719 2735 512 5657 27 37 41 21 86 21 71 34 34 56
internal_value=0 -6.96219e-05 -0.000166632 -0.000318689 0.000552687 0.00394575 -0.000318259 0.000715981 -0.00122726 0.00489683 0.000236391 0.00274867 0.00685779 0.00325214
internal_weight=0 11579 9332 6597 940 192 748 165 128 42 707 195 124 90
internal_count=22298 11579 9332 6597 940 192 748 165 128 42 707 195 124 90
shrinkage=0.15


Tree=407
num_leaves=15
num_cat=0
split_feature=25 19 15 14 2 10 10 29 23 1 15 6 30 23
split_gain=0.00478099 0.0261214 0.0416457 0.0310324 0.0257734 0.0230381 0.0555532 0.0798612 0.0382412 0.0407387 0.0258514 0.0254338 0.0195523 0.0155032
threshold=9.792365000000002 1.3371400000000003e-07 -2.1577049999999997e-07 0.00013192600000000004 -2.8543249999999998 1.5560950000000002e-05 1.8003150000000004e-05 0.14458500000000005 -9.2111499999999982 5.9489350000000014 3.1330250000000005e-07 6.6664450000000012e-08 0.031572200000000009 -7.1566449999999993
decision_type=2 2 2 2 2 2 2 2 2 2 2 2 2 2
left_child=-1 2 -2 -4 -3 8 7 -7 11 10 -10 -6 -13 -5
right_child=1 4 3 13 5 6 -8 -9 9 -11 -12 12 -14 -15
leaf_value=-1.9711506589853347e-05 0.0079162089702939347 -0.0039506414717982042 -0.00037548139200556429 0.0017783614364057074 -0.0064662041619601776 0.011210383035242556 4.5084772770932928e-05 0.0005025401395739339 0.00055169006955111397 -0.0051202637131791563 0.0071039291078341194 -0.004224131574388593 0.0019072363935596181 0.0055142646253278308
leaf_weight=20636 21 37 165 103 41 25 1066 42 42 20 20 25 22 33
leaf_count=20636 21 37 165 103 41 25 1066 42 42 20 20 25 22 33
internal_value=0 0.000244745 0.00145785 0.00100727 -4.67621e-05 6.40924e-05 0.000308408 0.004498 -0.0015642 0.000766394 0.00266532 -0.00373589 -0.00135413 0.00268487
internal_weight=0 1662 322 301 1340 1303 1133 67 170 82 62 88 47 136
internal_count=22298 1662 322 301 1340 1303 1133 67 170 82 62 88 47 136
shrinkage=0.15


Tree=408
num_leaves=15
num_cat=0
split_feature=31 0 11 3 17 0 2 22 31 13 26 22 2 4
split_gain=0.0049774 0.0278968 0.0206611 0.0200445 0.0196304 0.0336161 0.045376 0.333252 0.408264 0.122801 0.110306 0.0736642 0.126479 0.0971006
threshold=0.050211650000000004 6.2454650000000012 0.00025165550000000005 -19.356149999999996 8.590830000000002e-08 -11.903549999999997 -2.4841749999999996 -2.5366299999999997 0.107975 5.7275600000000004e-05 0.00010111150000000002 -2.5016749999999992 -1.6094949999999997 -0.22091599999999997
decision_type=2 2 2 2 2 2 2 2 2 2 2 2 2 2
left_child=2 3 -1 -2 5 -5 7 8 -7 10 -10 12 13 -8
right_child=1 -3 -4 4 -6 6 11 -9 9 -11 -12 -13 -14 -15
leaf_value=3.3234376503261481e-06 -0.0037394755949869494 0.00067641677519785577 -0.00064259348234613082 -0.0042479995676937199 -0.00028164957243388195 0.026981455484992298 -0.001087702600710015 -0.0010244472349732585 0.0013188846636330708 -0.0037561316400699847 0.017072911178693174 0.00065083564561609433 0.00024375800613521433 -0.0081980476236239649
leaf_weight=14218 33 1507 1209 36 3034 23 84 229 20 28 20 1431 337 89
leaf_count=14218 33 1507 1209 36 3034 23 84 229 20 28 20 1431 337 89
internal_value=0 0.000106192 -4.72965e-05 -5.40114e-05 -3.11976e-05 0.000299613 0.00037202 0.002027 0.00970591 0.00386271 0.0091959 9.91752e-05 -0.00144872 -0.00474563
internal_weight=0 6871 15427 5364 5331 2297 2261 320 91 68 40 1941 510 173
internal_count=22298 6871 15427 5364 5331 2297 2261 320 91 68 40 1941 510 173
shrinkage=0.15


Tree=409
num_leaves=15
num_cat=0
split_feature=14 3 35 34 39 0 2 22 38 16 34 34 3 34
split_gain=0.00523079 0.0229902 0.0867292 0.0719006 0.131079 0.521417 0.100592 0.201651 0.0839467 0.0858761 0.0702531 0.0746894 0.0663619 0.254942
threshold=0.0019805000000000001 -11.757099999999998 0.00033210950000000004 0.055498800000000008 4.8860900000000005e-05 0.086349300000000018 -1.5477299999999998 -1.4165699999999999 7.9669250000000017e-05 2.0667650000000001e-08 0.18738650000000004 0.27174050000000005 -12.072749999999997 0.17640700000000004
decision_type=2 2 2 2 2 2 2 2 2 2 2 2 2 2
left_child=1 2 3 8 5 -5 7 -6 -1 -10 -8 -12 -4 -14
right_child=-2 -3 12 4 6 -7 10 -9 9 -11 11 -13 13 -15
leaf_value=0.00052862179778696079 9.0350481219020565e-05 4.043688885563189e-06 -0.001353115643824044 -0.0034857613858326744 0.017360895354067905 0.022063505102596536 -0.008577225550418786 -0.00050446845608265981 -0.0012494033679262349 -0.009187094238080569 0.0078922608202057227 -0.0019565599990583548 -0.011987178298195117 0.003819543496999693
leaf_weight=321 8756 12287 414 41 21 32 28 44 92 46 21 99 58 38
leaf_count=321 8756 12287 414 41 21 32 28 44 92 46 21 99 58 38
internal_value=0 -5.84189e-05 -0.000669955 0.000361758 0.00222858 0.00771392 0.000348629 0.00526742 -0.000801446 -0.0038953 -0.00181165 -0.000233016 -0.00217707 -0.00573035
internal_weight=0 13542 1255 745 286 73 213 65 459 138 148 120 510 96
internal_count=22298 13542 1255 745 286 73 213 65 459 138 148 120 510 96
shrinkage=0.15


Tree=410
num_leaves=15
num_cat=0
split_feature=11 20 5 20 12 20 0 5 13 33 35 25 32 8
split_gain=0.00534179 0.0279197 0.0351315 0.0525605 0.101414 0.077912 0.126484 0.0421557 0.0766192 0.116558 0.0544031 0.0724189 0.057035 0.0519802
threshold=-4.4930349999999991e-06 -6.8075899999999985 1.0742400000000002e-05 -7.6352849999999988 2.6286250000000003e-05 -8.1590649999999982 -4.9931099999999988 1.5389850000000003e-05 -1.1066549999999998e-05 -1.5637499999999997e-07 -0.0034601599999999999 2.3612250000000006 0.015313000000000002 -1.0055949999999998e-05
decision_type=2 2 2 2 2 2 2 2 2 2 2 2 2 2
left_child=1 2 3 5 -5 -1 -7 8 9 -4 11 -10 -12 -11
right_child=-2 -3 7 4 -6 6 -8 -9 10 13 12 -13 -14 -15
leaf_value=0.00071102470321773631 -6.5486901184614836e-05 0.00019389673802938632 -4.4424174702726298e-05 -0.0082684931947317498 0.0039669633985290097 0.015332129378499383 -0.00097827738485648289 -0.00014374597608952678 0.0087518960915726248 -0.0064678810469265425 -0.0003300161968150336 -0.0018550771672744301 -0.004335429923729644 -0.016001458870331671
leaf_weight=201 12418 8262 45 35 27 23 20 799 28 31 236 30 121 22
leaf_count=201 12418 8262 45 35 27 23 20 799 28 31 236 30 121 22
internal_value=0 8.23094e-05 -0.00048749 0.000959804 -0.00294015 0.00195078 0.00774589 -0.000825045 -0.00188617 -0.00565853 -0.00099535 0.00326553 -0.00168759 -0.0104252
internal_weight=0 9880 1618 306 62 244 43 1312 513 98 415 58 357 53
internal_count=22298 9880 1618 306 62 244 43 1312 513 98 415 58 357 53
shrinkage=0.15


Tree=411
num_leaves=15
num_cat=0
split_feature=2 20 38 35 25 37 13 13 4 2 0 0 6 17
split_gain=0.00441382 0.0151755 0.0232905 0.0195483 0.00549953 0.00463645 0.0182942 0.0367057 0.0386707 0.028671 0.0283598 0.0234727 0.0168338 0.0160582
threshold=3.0568150000000007 -6.0588699999999989 -3.0789549999999991e-05 2.2564300000000003e-05 0.32920750000000004 9.1118450000000008e-05 -3.8399549999999994e-05 -6.9744449999999994e-06 0.16887550000000004 1.8115200000000002 -9.5725449999999999 -6.2604799999999994 4.2756900000000006e-06 1.2485200000000004e-07
decision_type=2 2 2 2 2 2 2 2 2 2 2 2 2 2
left_child=5 -2 4 -4 -3 -1 -7 8 12 10 -9 -12 -8 -13
right_child=1 2 3 -5 -6 6 7 9 -10 -11 11 13 -14 -15
leaf_value=3.5519208579133637e-06 -0.0021008090244140475 -0.0026679212063618254 0.0016293909342493861 0.0073880660089863728 0.00066922430600970982 -0.0039076235367577856 0.0037690592962982398 0.0037294193698991351 0.0084344557586882724 0.0042669611234617015 -0.0069399157364387065 -0.00045480072011018936 -0.0018934767861436639 -0.0033143440859956324
leaf_weight=21815 30 20 36 21 25 33 21 21 20 21 20 117 27 71
leaf_count=21815 30 20 36 21 25 33 21 21 20 21 20 117 27 71
internal_value=0 0.000864813 0.00173706 0.00375101 -0.000813951 -5.15002e-06 -0.000545984 -0.000197135 0.00289287 -0.00103762 -0.00152406 -0.00205446 0.000583883 -0.00153473
internal_weight=0 132 102 57 45 22166 351 318 68 250 229 208 48 188
internal_count=22298 132 102 57 45 22166 351 318 68 250 229 208 48 188
shrinkage=0.15


Tree=412
num_leaves=15
num_cat=0
split_feature=14 14 34 5 22 37 37 5 22 36 19 27 23 23
split_gain=0.00439588 0.015883 0.0619735 0.0465544 0.0680189 0.0589898 0.137844 0.12583 0.396064 0.0693831 0.120831 0.14175 0.174101 0.32047
threshold=0.0009749060000000001 0.00052619350000000017 0.0054004050000000014 2.6214500000000005e-05 2.9140700000000006 1.7173100000000002e-07 3.4780550000000008e-07 1.4480650000000002e-05 0.48396850000000008 -0.00030718099999999996 1.8585350000000003e-08 0.51657700000000017 -13.009749999999999 -9.0060449999999985
decision_type=2 2 2 2 2 2 2 2 2 2 2 2 2 2
left_child=1 -1 -3 4 5 9 7 8 -7 10 -4 12 -12 -14
right_child=-2 2 3 -5 -6 6 -8 -9 -10 -11 11 -13 13 -15
leaf_value=1.4025949226974933e-05 6.9221238128253044e-05 0.0019982663290453642 -0.0092494294111929772 0.00080290234298836577 0.0043959093123703491 0.024862945084105772 -0.0014672034488186513 -0.0018157073169919279 -0.00077877625061029739 -0.0029917871881423547 -0.0026767158409742382 -0.0022221042640259694 0.014911577671744836 -0.0024771809452032337
leaf_weight=9668 10719 206 32 344 48 23 249 34 33 579 59 206 57 41
leaf_count=9668 10719 206 32 344 48 23 249 34 33 579 59 206 57 41
internal_value=0 -6.408e-05 -0.000459228 -0.000756146 -0.0011502 -0.00135296 0.00035127 0.00538238 0.00975265 -0.00194611 -0.000413332 0.000365608 0.00376095 0.00763669
internal_weight=0 11579 1911 1705 1361 1313 339 90 56 974 395 363 157 98
internal_count=22298 11579 1911 1705 1361 1313 339 90 56 974 395 363 157 98
shrinkage=0.15


Tree=413
num_leaves=15
num_cat=0
split_feature=22 7 17 0 21 36 20 32 12 1 14 13 23 19
split_gain=0.0044795 0.00717957 0.00622148 0.00430243 0.00976611 0.00811587 0.00861696 0.00444812 0.0450042 0.0955402 0.0572515 0.0541906 0.104299 0.104079
threshold=-3.1103099999999997 3.7317350000000013e-05 2.2808800000000003e-06 14.582500000000001 8.3248700000000024 -8.7092299999999983e-06 5.0566400000000007 0.119938 -6.4001149999999983e-05 1.3632550000000003 0.00024889150000000006 3.7806000000000004e-05 -13.747299999999997 0.0025759700000000003
decision_type=2 2 2 2 2 2 2 2 2 2 2 2 2 2
left_child=1 -1 -3 7 5 -5 -7 -2 11 -10 -11 12 -9 -14
right_child=3 2 -4 4 -6 6 -8 8 9 10 -12 -13 13 -15
leaf_value=0.0025909928828836059 -3.3555992352479087e-05 -0.0012261614522446362 0.0017205605005853743 -0.00013384248793801203 0.001651918096178468 -0.0013585278965708358 -0.0049463490484049546 -0.00076031013184389012 -0.0012730702774056402 0.0015199778011750729 -0.00016103645512906438 -5.9958110244243548e-05 0.0042948073394674883 -0.00065318048275702701
leaf_weight=39 17292 38 28 83 33 61 20 253 1165 708 1280 806 362 130
leaf_count=39 17292 38 28 83 33 61 20 253 1165 708 1280 806 362 130
internal_value=0 0.000977431 2.3963e-05 -4.62444e-06 -0.000702502 -0.00117626 -0.00224441 1.62587e-06 0.000130955 -0.000194453 0.000437635 0.000792471 0.0017147 0.00298741
internal_weight=0 105 66 22193 197 164 81 21996 4704 3153 1988 1551 745 492
internal_count=22298 105 66 22193 197 164 81 21996 4704 3153 1988 1551 745 492
shrinkage=0.15


Tree=414
num_leaves=15
num_cat=0
split_feature=31 11 3 11 23 23 3 13 14 23 9 30 20 0
split_gain=0.00424856 0.0235145 0.0209337 0.0660531 0.0842255 0.113041 0.150553 0.0905847 0.0733667 0.092722 0.0964426 0.124272 0.344594 0.290524
threshold=0.050211650000000004 0.00018685750000000005 -8.2462449999999983 -1.9979199999999997e-05 -8.8665399999999988 -14.375449999999999 -14.632849999999998 4.2108750000000002e-05 0.0059208950000000007 -8.1326699999999992 -9.7048199999999987e-06 0.00028878850000000001 -6.1034699999999988 -6.0313099999999986
decision_type=2 2 2 2 2 2 2 2 2 2 2 2 2 2
left_child=-1 2 3 8 5 6 -5 -7 9 10 11 12 13 -2
right_child=1 -3 -4 4 -6 7 -8 -9 -10 -11 -12 -13 -14 -15
leaf_value=-4.3696693026840786e-05 0.010580727989560857 0.00097379235880842526 0.00028881604008419319 -0.0069541072940150382 0.00079380436162645269 -0.00399166426805305 0.0014343373414478432 0.00011996565044118033 -0.00068218288145954721 -0.0020543328196682494 0.010949427132100727 0.0008150015820738572 0.018101294199004768 -0.0079234016805587865
leaf_weight=15427 35 627 3077 56 419 480 343 161 794 155 26 619 37 42
leaf_count=15427 35 627 3077 56 419 480 343 161 794 155 26 619 37 42
internal_value=0 9.81093e-05 1.01763e-05 -0.000260545 -0.00100174 -0.00172513 0.000257012 -0.00295895 0.000372592 0.00128888 0.00197162 0.00165317 0.0062043 0.000487566
internal_weight=0 6871 6244 3167 1459 1040 399 641 1708 914 759 733 114 77
internal_count=22298 6871 6244 3167 1459 1040 399 641 1708 914 759 733 114 77
shrinkage=0.15


Tree=415
num_leaves=15
num_cat=0
split_feature=10 23 24 28 19 19 16 24 10 6 20 1 8 21
split_gain=0.0044704 0.0336951 0.00679416 0.00482268 0.0314614 0.0206512 0.0500203 0.0749791 0.150952 0.107306 0.0640164 0.0836295 0.177607 0.157524
threshold=8.6105100000000007e-06 -12.295749999999998 -0.13616649999999997 -0.0083286749999999989 1.12969e-10 0.00044192550000000003 -3.3148899999999998e-07 0.17423950000000002 1.5324800000000003e-05 -5.2627749999999993e-08 -7.3959049999999991 -3.1374799999999996 1.3388650000000001e-05 -6.8925349999999987
decision_type=2 2 2 2 2 2 2 2 2 2 2 2 2 2
left_child=1 -1 -3 4 -2 6 7 -6 9 -9 -10 12 -12 -14
right_child=3 2 -4 -5 5 -7 -8 8 10 -11 11 -13 13 -15
leaf_value=0.0050590714777729679 0.0056540394242367018 -0.0032965504814637821 0.00010391180683375122 -4.424505805731567e-05 -0.0023956339231193226 0.00042620312082336189 0.00019641799377289121 0.0025316541483100022 0.0047244151155246073 0.01662430020282045 -0.013259363373917704 0.00085093462503997336 0.010104843551578762 -0.0051263648201711476
leaf_weight=31 23 20 39 16736 471 2380 2271 31 40 20 37 127 22 50
leaf_count=31 23 20 39 16736 471 2380 2271 31 40 20 37 127 22 50
internal_value=0 0.00105503 -0.00104879 -4.27561e-06 0.00011797 9.46026e-05 -0.000162553 -0.00118413 0.00056087 0.00805818 -0.000824503 -0.001765 -0.00481292 -0.000472384
internal_weight=0 90 59 22208 5472 5449 3069 798 327 51 276 236 109 72
internal_count=22298 90 59 22208 5472 5449 3069 798 327 51 276 236 109 72
shrinkage=0.15


Tree=416
num_leaves=15
num_cat=0
split_feature=6 26 20 7 32 7 6 33 14 26 1 20 34 4
split_gain=0.00410226 0.0285367 0.0161095 0.0216319 0.01061 0.0186213 0.0185752 0.0331854 0.0528607 0.00912024 0.0378319 0.00904267 0.00938758 0.00900081
threshold=9.0891300000000012e-06 0.075138400000000008 10.243750000000002 7.7511500000000018e-05 0.20053200000000002 5.8758150000000006e-05 1.0001485000000001e-05 8.7255100000000015e-07 0.0013268100000000001 0.075138400000000008 8.0541100000000014 -11.965299999999997 3.1166000000000005 0.50027650000000012
decision_type=2 2 2 2 2 2 2 2 2 2 2 2 2 2
left_child=9 2 4 -4 6 -6 7 -2 -9 -1 -11 -8 -13 -7
right_child=1 -3 3 -5 5 13 11 8 -10 10 -12 12 -14 -15
leaf_value=2.5516051565545722e-05 0.0002599784495269768 0.0054014713346259673 -0.0051922482102835432 -0.00065846204350656571 0.0047025271132042686 -0.00038075388885324036 0.002936667876201682 -0.0085315665320034473 0.00010712154904467751 -7.1839319673472346e-05 -0.0072431556105584599 -0.00013067591611848586 -0.002778744709587866 0.0016499706975524973
leaf_weight=20558 69 20 34 78 24 146 21 34 30 96 20 1063 31 74
leaf_count=20558 69 20 34 78 24 146 21 34 30 96 20 1063 31 74
internal_value=0 -0.000229556 -0.000299769 -0.00203479 -0.000169526 0.000735116 -0.000346395 -0.00202196 -0.00448218 1.80323e-05 -0.00130827 -0.000146529 -0.000205713 0.000302308
internal_weight=0 1624 1604 112 1492 244 1248 133 64 20674 116 1115 1094 220
internal_count=22298 1624 1604 112 1492 244 1248 133 64 20674 116 1115 1094 220
shrinkage=0.15


Tree=417
num_leaves=15
num_cat=0
split_feature=4 4 18 26 4 28 32 20 35 7 7 33 4 21
split_gain=0.00394744 0.00469373 0.0125865 0.0124509 0.0456403 0.206555 0.128958 0.12647 0.100105 0.0459577 0.0243489 0.022253 0.104461 0.0298616
threshold=11.662400000000002 0.23991900000000002 1.1737050000000001e-05 -4.5607849999999997e-05 0.27629100000000006 -0.022879249999999997 -0.073749599999999985 5.4334650000000009 5.2881600000000005e-05 3.8462700000000007e-05 2.3209550000000002e-05 1.6769150000000002e-05 0.31506600000000001 -0.88088699999999986
decision_type=2 2 2 2 2 2 2 2 2 2 2 2 2 2
left_child=1 2 -1 4 5 -3 8 9 -7 -8 -5 -6 -13 -14
right_child=-2 3 -4 10 11 6 7 -9 -10 -11 -12 12 13 -15
leaf_value=-2.8271048230304791e-05 -0.00066173618181471563 0.015533290831777064 -0.0027261875605640502 -0.003775166049490508 -5.9868574603059188e-05 -0.00074830006080446761 -0.0040660251030483494 -0.013344373881839353 0.014259604535764081 0.0050365250914182974 0.00038538465956065149 -0.010113489150535315 -0.0021656725803342134 0.00057756403424507978
leaf_weight=16370 201 23 39 32 2244 20 26 22 20 24 2885 28 157 207
leaf_count=16370 201 23 39 32 2244 20 26 22 20 24 2885 28 157 207
internal_value=0 6.01932e-06 -3.46833e-05 0.00012344 -0.000104259 0.00258574 -7.31267e-05 -0.00386689 0.00675565 0.000303199 0.000339743 -0.000242025 -0.00128478 -0.000605645
internal_weight=0 22097 16409 5688 2771 135 112 72 40 50 2917 2636 392 364
internal_count=22298 22097 16409 5688 2771 135 112 72 40 50 2917 2636 392 364
shrinkage=0.15


Tree=418
num_leaves=15
num_cat=0
split_feature=23 3 3 23 3 15 33 6 5 17 3 20 13 33
split_gain=0.00400779 0.0276315 0.0372439 0.0644079 0.416535 0.0496076 0.0624386 0.10368 0.0767138 0.0760546 0.039119 0.0544004 0.0362319 0.09411
threshold=-7.1447699999999994 -8.3121399999999976 -7.4544349999999993 -7.0308899999999985 -6.9667699999999995 -1.7210599999999996e-08 -2.3585699999999998e-06 -7.1669899999999974e-08 1.4480650000000002e-05 4.2692850000000009e-07 -6.0183449999999992 3.1458000000000004 7.3250750000000012e-06 -9.4112299999999987e-07
decision_type=2 2 2 2 2 2 2 2 2 2 2 2 2 2
left_child=-1 -2 5 4 -4 -3 9 -8 -9 -7 11 -6 13 -5
right_child=1 2 3 12 10 6 7 8 -10 -11 -12 -13 -14 -15
leaf_value=-3.2150060614578964e-05 0.00049433735609016058 0.0001656481332913857 0.017391825838421936 -0.0028452775559950775 0.00082242005363306297 -0.012945163836203781 0.0013985656012223582 -0.013538425190331922 -0.0025107887565081906 -0.0017874721060959725 0.00082374258501139201 -0.0097371200524756438 0.00043738069395136443 0.00043419971170139657
leaf_weight=17759 2279 202 35 342 21 28 99 22 40 27 84 23 873 464
leaf_count=17759 2279 202 35 342 21 28 99 22 40 27 84 23 873 464
internal_value=0 0.000125788 -0.000245859 4.42141e-05 0.00289095 -0.00152413 -0.00310438 -0.00161378 -0.00642382 -0.00746775 -0.00107413 -0.00469734 -0.000232152 -0.00095734
internal_weight=0 4539 2260 1842 163 418 216 161 62 55 128 44 1679 806
internal_count=22298 4539 2260 1842 163 418 216 161 62 55 128 44 1679 806
shrinkage=0.15


Tree=419
num_leaves=15
num_cat=0
split_feature=35 15 19 14 8 15 5 7 23 9 23 2 22 22
split_gain=0.00401409 0.107815 0.0902015 0.0722999 0.0643891 0.0778043 0.0791652 0.143575 0.130905 0.0634929 0.0689539 0.0587904 0.563126 0.199766
threshold=0.00080807650000000008 1.0713550000000003e-08 0.00043062950000000009 9.1256050000000012e-05 1.6640100000000004e-05 6.1879900000000009e-06 2.1787500000000004e-05 7.0814000000000017e-05 -9.1538299999999975 5.6643550000000011e-05 -15.268449999999998 0.77221600000000012 0.77413600000000016 1.9987800000000002
decision_type=2 2 2 2 2 2 2 2 2 2 2 2 2 2
left_child=-1 2 3 -2 5 6 11 8 -8 10 -5 -3 -13 -14
right_child=1 4 -4 9 -6 -7 7 -9 -10 -11 -12 12 13 -15
leaf_value=-4.2054311157821752e-05 0.0003582876037158553 0.00093947661994020428 0.00036218958715553379 0.00030976485569903775 -0.00061902235108365791 3.894188385892977e-05 0.0054316560522868077 0.0002386022164351803 0.020121016569568644 0.0022891964605372688 -0.0025302378093263818 -0.0024487777005259693 0.016472927419691467 0.0036267509245468924
leaf_weight=15521 493 1243 1496 235 677 1099 39 61 21 82 1060 157 69 45
leaf_count=15521 493 1243 1496 235 677 1099 39 61 21 82 1060 157 69 45
internal_value=0 9.63147e-05 -0.000505963 -0.00120049 0.000690647 0.00101495 0.001671 0.00536306 0.0105729 -0.00175856 -0.00201487 0.00137592 0.00337778 0.0114021
internal_weight=0 6777 3366 1870 3411 2734 1635 121 60 1377 1295 1514 271 114
internal_count=22298 6777 3366 1870 3411 2734 1635 121 60 1377 1295 1514 271 114
shrinkage=0.15


Tree=420
num_leaves=15
num_cat=0
split_feature=2 32 37 15 10 3 15 8 39 21 3 3 26 15
split_gain=0.00403312 0.00706762 0.0040639 0.0310206 0.0310786 0.0299838 0.0518533 0.0449345 0.0234645 0.0170186 0.0159185 0.0109716 0.0133722 0.00854687
threshold=3.0751650000000006 0.012815700000000001 -1.5826649999999995e-05 -1.9074249999999998e-05 1.5860650000000002e-05 -9.6926649999999981 6.2611550000000012e-05 -7.4868449999999998e-06 0.052642950000000008 -3.5364649999999993 -8.3506699999999991 -5.9150349999999987 -0.0022811249999999997 1.5331400000000002e-06
decision_type=2 2 2 2 2 2 2 2 2 2 2 2 2 2
left_child=2 -2 3 8 -5 6 7 -6 -1 -9 -7 12 -12 -14
right_child=1 -3 -4 4 5 10 -8 9 -10 -11 11 -13 13 -15
leaf_value=-0.006330463117046747 1.8092922092412329e-05 0.0034469728472426397 -1.1155417626639728e-05 -0.0029413193704975718 0.011482957178536294 -0.002848385566256992 -0.0026246499303462247 0.006585556981153786 0.00037418771762927263 0.00081251640302879317 0.0055984807864297185 -0.00061073120406054298 0.0023857439742278074 -0.0014119978639064357
leaf_weight=24 38 21 21909 37 22 27 21 20 23 27 20 49 40 20
leaf_count=24 38 21 21909 37 22 27 21 20 23 27 20 49 40 20
internal_value=0 0.00123854 -3.28585e-06 0.000519182 0.00111185 0.00172148 0.00390174 0.00588803 -0.00304946 0.00326913 0.000463636 0.00115685 0.00223949 0.00111983
internal_weight=0 59 22239 330 283 246 90 69 47 47 156 129 80 60
internal_count=22298 59 22239 330 283 246 90 69 47 47 156 129 80 60
shrinkage=0.15


Tree=421
num_leaves=15
num_cat=0
split_feature=1 21 21 3 23 14 34 12 30 37 30 19 13 12
split_gain=0.00491666 0.0537395 0.0870498 0.112939 0.280339 0.329611 0.240143 0.211968 0.324994 0.147282 0.125256 0.217193 0.120819 0.0942241
threshold=-7.5879649999999996 -1.1875949999999997 -7.567639999999999 -6.834204999999999 -6.7222749999999989 0.00050767250000000009 0.055498800000000008 -7.7488899999999982e-05 0.00016055300000000005 -1.2428449999999998e-08 0.00054190150000000008 0.00045611650000000002 1.6854300000000002e-05 -0.00024493799999999994
decision_type=2 2 2 2 2 2 2 2 2 2 2 2 2 2
left_child=1 2 3 4 5 6 7 -1 9 -9 13 -12 -6 -7
right_child=-2 -3 -4 -5 12 10 -8 8 -10 -11 11 -13 -14 -15
leaf_value=0.027659063839486665 -3.2363984431127485e-05 0.00068977072621384614 -0.0011834260169867499 -0.00083246576430004394 -0.012987318616360424 -0.00078952572182515717 -0.0014480953142213236 0.010521195977926254 0.021366093548781731 -0.0076827797759324301 0.017574840844608842 -0.0022349579556083139 0.0011318675588699988 -0.01283618280264948
leaf_weight=21 18411 2019 1208 360 30 48 28 20 34 20 20 33 25 21
leaf_count=21 18411 2019 1208 360 30 48 28 20 34 20 20 33 25 21
internal_value=0 0.000153294 -0.000426549 0.000958765 0.00310824 0.0052808 0.0107602 0.0143585 0.010584 0.00141921 -0.000243556 0.00524044 -0.00656951 -0.0044559
internal_weight=0 3887 1868 660 300 245 123 95 74 40 122 53 55 69
internal_count=22298 3887 1868 660 300 245 123 95 74 40 122 53 55 69
shrinkage=0.15


Tree=422
num_leaves=15
num_cat=0
split_feature=1 21 22 7 1 21 21 14 7 26 21 7 16 22
split_gain=0.00415168 0.0734007 0.0306361 0.0550041 0.0747503 0.0314441 0.0291161 0.156516 0.175913 0.0340841 0.0280913 0.0429715 0.0221798 0.0225488
threshold=-10.635199999999999 -13.731299999999999 -1.9394849999999997 2.7528100000000002e-05 -12.256399999999998 -8.0349749999999975 -9.6419749999999969 9.6812750000000019e-05 4.2872450000000003e-05 4.7477550000000011e-05 -5.0343799999999987 2.7064300000000001e-05 1.0889350000000001e-08 -0.9853829999999999
decision_type=2 2 2 2 2 2 2 2 2 2 2 2 2 2
left_child=1 -1 3 4 -3 -5 7 9 -9 -4 11 -8 -13 -14
right_child=-2 2 6 5 -6 -7 10 8 -10 -11 -12 12 13 -15
leaf_value=0.0086499193450435986 -1.7332458990660884e-05 -0.0010033364961160376 -0.0066144541005390542 -0.0048555837967433025 -0.012594013195484876 0.00033138273545350974 -0.0074435615164475163 0.019307337448533093 0.0012806383395117932 0.0011545414519787299 0.00055142242114268386 0.00099517418911781552 -0.00025376624914563511 -0.0062260381418745969
leaf_weight=23 20806 31 27 30 21 213 24 21 29 24 908 83 33 25
leaf_count=23 20806 31 27 30 21 213 24 21 29 24 908 83 33 25
internal_value=0 0.000241702 0.000110055 -0.00125648 -0.00568419 -0.000308984 0.000453434 0.00288823 0.00885185 -0.00295846 0.00022425 -0.00157619 -0.000577488 -0.00282802
internal_weight=0 1492 1469 295 52 243 1174 101 50 51 1073 165 141 58
internal_count=22298 1492 1469 295 52 243 1174 101 50 51 1073 165 141 58
shrinkage=0.15


Tree=423
num_leaves=15
num_cat=0
split_feature=23 3 3 3 16 28 3 14 23 16 14 10 23 9
split_gain=0.00426197 0.0338834 0.17097 0.184867 0.083672 0.0838614 0.0623928 0.0718158 0.0484392 0.0390572 0.036793 0.0363374 0.105058 0.0289388
threshold=-6.518324999999999 -7.248829999999999 -6.4251549999999993 -6.3220499999999991 1.0000000180025095e-35 0.013088250000000001 -6.9667699999999995 0.00034774650000000002 -6.4198449999999996 -1.3010899999999996e-07 0.00012106850000000002 2.0274600000000001e-05 -6.3078499999999993 -2.6846599999999998e-05
decision_type=2 2 2 2 2 2 2 2 2 2 2 2 2 2
left_child=-1 -2 4 8 5 9 -6 10 -4 13 -8 12 -5 -3
right_child=1 2 3 11 6 -7 7 -9 -10 -11 -12 -13 -14 -15
leaf_value=-2.1267607812163469e-05 0.00066521826040833929 -0.0052589738619280976 0.015808509655762464 -0.0019470226508981016 -0.00074007795237076397 0.0065845254968735388 -0.009193402249366045 -0.0027214270667172968 0.0054937965702265496 -0.0087160925664331607 -0.017225037129329782 -0.00039117451122766902 0.010506315278406772 0.00075547099191074565
leaf_weight=20176 1329 30 20 35 26 24 33 26 21 23 21 462 27 45
leaf_count=20176 1329 30 20 35 26 24 33 26 21 23 21 462 27 45
internal_value=0 0.000202213 -0.000573745 0.000825384 -0.00404088 -0.00136241 -0.00712365 -0.00919831 0.0105254 -0.0033086 -0.0123168 6.64162e-05 0.00347621 -0.00165031
internal_weight=0 2122 793 565 228 122 106 80 41 98 54 524 62 75
internal_count=22298 2122 793 565 228 122 106 80 41 98 54 524 62 75
shrinkage=0.15


Tree=424
num_leaves=15
num_cat=0
split_feature=28 9 1 1 21 14 23 14 23 0 3 21 34 21
split_gain=0.00404494 0.0455183 0.0599509 0.0679162 0.136949 0.187693 0.280652 0.439916 0.335966 0.315442 0.314119 0.302655 0.280569 0.361167
threshold=0.0036957100000000005 2.727255e-05 10.198300000000001 4.5568550000000014 4.5773550000000016 0.0021166150000000005 -7.5285349999999989 0.00022090700000000003 -13.951149999999997 -4.4171999999999993 -7.5570249999999985 6.9644050000000011 0.6397385000000001 6.9644050000000011
decision_type=2 2 2 2 2 2 2 2 2 2 2 2 2 2
left_child=-1 2 3 -2 -5 6 7 -6 -9 11 -8 -10 13 -11
right_child=1 -3 -4 4 5 -7 10 8 9 12 -12 -13 -14 -15
leaf_value=4.8077481812177734e-05 -4.9880060816823403e-05 -0.00068777516842283921 -0.0013986815750093482 -0.00076903698700199409 -0.0010735547364970973 -0.00021421993005292685 -0.0072739519851830687 -0.0053611545241437847 0.013302210957297812 0.0090154949574150715 0.0071290479892403315 -0.010319577492191456 -0.00086667770510757687 0.023120149615991476
leaf_weight=14236 3964 2088 529 538 129 404 87 30 23 77 56 26 24 87
leaf_count=14236 3964 2088 529 538 129 404 87 30 23 77 56 26 24 87
internal_value=0 -8.48959e-05 0.000125819 0.000273929 0.00114063 0.00223013 0.00406226 0.0061191 0.00959421 0.0114873 -0.00163362 0.000768201 0.0142811 0.0164978
internal_weight=0 8062 5974 5445 1481 943 539 396 267 237 143 49 188 164
internal_count=22298 8062 5974 5445 1481 943 539 396 267 237 143 49 188 164
shrinkage=0.15


Tree=425
num_leaves=15
num_cat=0
split_feature=3 10 21 21 16 1 3 30 21 8 21 27 1 32
split_gain=0.00548678 0.0135876 0.0455714 0.0215734 0.0499915 0.0739793 0.0485364 0.0211028 0.0159544 0.0619941 0.0140126 0.0379644 0.0603055 0.0432588
threshold=-6.7843599999999986 1.7491000000000002e-05 -12.002549999999998 -12.616699999999998 4.3778400000000007e-09 -3.6136399999999997 -5.8314849999999989 0.00088046750000000007 -7.6390449999999985 1.1227200000000002e-05 7.8241700000000014 0.8567530000000001 11.472500000000002 -0.6220024999999999
decision_type=2 2 2 2 2 2 2 2 2 2 2 2 2 2
left_child=-1 2 -2 4 5 -3 -6 -8 9 -4 -10 12 -12 -13
right_child=1 3 8 -5 6 -7 7 -9 10 -11 11 13 -14 -15
leaf_value=-4.8018283454226867e-05 0.0076666652740511512 -0.012480192037182859 0.0019654335691656512 9.1942452582083513e-05 0.0051042554807447073 -0.0013960341814838882 0.001003108629291611 -0.0055079579542507418 0.0012531885943876204 -0.0080895202427531 0.00030654662083543372 -0.0019627010274416534 -0.0088407984831064823 0.0077848524162878411
leaf_weight=15742 21 20 37 5832 33 42 21 24 389 22 50 20 24 21
leaf_count=15742 21 20 37 5832 33 42 21 24 389 22 50 20 24 21
internal_value=0 0.0001153 0.000805853 4.77706e-05 -0.0017923 -0.00497157 0.000734804 -0.00246946 0.000549943 -0.00178387 0.000823148 -0.000631513 -0.00266016 0.00302995
internal_weight=0 6556 584 5972 140 62 78 45 563 59 504 115 74 41
internal_count=22298 6556 584 5972 140 62 78 45 563 59 504 115 74 41
shrinkage=0.15


Tree=426
num_leaves=15
num_cat=0
split_feature=19 33 22 13 12 0 10 13 14 23 23 3 3 16
split_gain=0.00520114 0.0277536 0.0453812 0.304994 0.341289 0.0744136 0.06492 0.0446403 0.0459016 0.050411 0.0763107 0.212814 0.101841 0.0528157
threshold=3.2503650000000009e-05 1.0000000180025095e-35 -1.4165699999999999 2.3422600000000006e-06 -6.0414699999999996e-05 -1.1292599999999997 2.5689950000000003e-05 9.618100000000002e-05 0.00017970100000000002 -7.2147949999999996 -13.2342 -14.150749999999999 -13.939049999999998 -2.8205099999999998e-06
decision_type=2 2 2 2 2 2 2 2 2 2 2 2 2 2
left_child=1 -1 3 4 -3 6 -5 8 -4 10 11 -10 -12 -14
right_child=-2 2 7 5 -6 -7 -8 -9 9 -11 12 -13 13 -15
leaf_value=-0.00033988947503010077 5.7168824761425936e-05 0.027216287602537446 0.00060958921973016224 -0.0086374544756420493 0.0021073081787547159 0.0020668971351056825 -0.00048319521368485162 0.0052473230699605833 -0.0077921883606596586 0.00099865048422104088 0.0021547428531145368 0.0017952061676395092 0.0018358257613311122 -0.0024466102941555034
leaf_weight=4642 13741 21 1601 35 29 125 59 37 59 418 144 445 70 872
leaf_count=4642 13741 21 1601 35 29 125 59 37 59 418 144 445 70 872
internal_value=0 -9.18028e-05 0.000202353 0.00208252 0.0126531 -0.000330855 -0.00351936 6.36351e-05 1.04911e-05 -0.000467176 -0.000852532 0.000672872 -0.00156045 -0.00212838
internal_weight=0 8557 3915 269 50 219 94 3646 3609 2008 1590 504 1086 942
internal_count=22298 8557 3915 269 50 219 94 3646 3609 2008 1590 504 1086 942
shrinkage=0.15


Tree=427
num_leaves=15
num_cat=0
split_feature=11 20 22 13 1 31 1 26 22 22 12 37 22 19
split_gain=0.0043547 0.0241934 0.0187309 0.0253124 0.022665 0.0297281 0.018445 0.0367082 0.0343198 0.0634014 0.295665 0.0426299 0.0684471 0.0552658
threshold=-1.4440299999999998e-05 5.4334650000000009 2.4511500000000006 -4.4920299999999995e-07 -3.9958949999999995 0.038947350000000006 -6.1443249999999994 -0.0095282949999999974 -2.5539299999999998 -2.2305649999999999 -8.4635249999999996e-05 -9.2905099999999995e-07 -2.0766399999999998 8.5782450000000018e-05
decision_type=2 2 2 2 2 2 2 2 2 2 2 2 2 2
left_child=1 6 -2 4 -4 -6 8 -8 -1 10 -10 13 -13 -11
right_child=2 -3 3 -5 5 -7 7 -9 9 11 -12 12 -14 -15
leaf_value=-0.0018887592283972803 -0.00010519698982418393 0.00054939664733873791 0.00059485948235198842 0.00099043922249163739 -0.0058646158059127628 -0.00079594600580362035 -0.0037654934897242733 -0.00012276986795069683 -0.0013938169516134827 0.0090994376696991296 0.016547583632974795 -0.0081819520260482514 0.00033079405146869251 0.00053624978998329399
leaf_weight=113 12872 1942 255 832 30 197 63 5183 62 28 31 22 625 43
leaf_count=113 12872 1942 255 832 30 197 63 5183 62 28 31 22 625 43
internal_value=0 8.76604e-05 -5.01269e-05 0.000489342 -0.000375624 -0.00146581 -5.76706e-05 -0.000166516 0.000560298 0.000901535 0.00458665 0.000424215 4.13344e-05 0.00391328
internal_weight=0 8112 14186 1314 482 227 6170 5246 924 811 93 718 647 71
internal_count=22298 8112 14186 1314 482 227 6170 5246 924 811 93 718 647 71
shrinkage=0.15


Tree=428
num_leaves=15
num_cat=0
split_feature=19 21 1 1 22 19 35 13 39 25 38 12 38 39
split_gain=0.00455654 0.020842 0.0684095 0.036805 0.0213965 0.0231128 0.043501 0.0194751 0.0253285 0.0252598 0.0192545 0.0181119 0.103214 0.0821118
threshold=3.2503650000000009e-05 12.350850000000001 10.604100000000001 7.0107750000000015 2.1829400000000008 4.8085450000000015e-07 -0.0086243949999999982 0.00010337800000000001 3.666850000000001e-05 0.22987550000000004 -0.0011807899999999997 -0.00014352299999999997 -0.00021222649999999996 0.00010898500000000001
decision_type=2 2 2 2 2 2 2 2 2 2 2 2 2 2
left_child=1 4 3 -3 7 -6 -7 11 9 -9 -8 12 13 -1
right_child=-2 2 -4 -5 5 6 10 8 -10 -11 -12 -13 -14 -15
leaf_value=-0.0072413855598937151 5.3509056150283369e-05 0.0011210160056185786 0.0071382230447948362 -0.0043867542723257267 0.00095910581690438282 -0.00529352468637578 0.0027452851972638572 0.0007413802837254479 -0.0012247436409649837 0.0081069226735218589 -0.00042016500344327373 -0.00018704653948089234 0.00063848188449914915 0.00013084658940153366
leaf_weight=89 13741 158 38 33 756 38 51 20 28 22 284 6741 244 55
leaf_count=89 13741 158 38 33 756 38 51 20 28 22 284 6741 244 55
internal_value=0 -8.59259e-05 0.00132581 0.000169412 -0.000124745 0.000482385 -0.000483837 -0.00021996 0.00226982 0.00459952 6.17394e-05 -0.000244407 -0.00124097 -0.0044256
internal_weight=0 8557 229 191 8328 1129 373 7199 70 42 335 7129 388 144
internal_count=22298 8557 229 191 8328 1129 373 7199 70 42 335 7129 388 144
shrinkage=0.15


Tree=429
num_leaves=15
num_cat=0
split_feature=22 2 19 20 11 22 3 33 33 1 11 3 23 19
split_gain=0.00472962 0.0244804 0.0734816 0.313489 0.403726 0.365097 0.292079 0.284956 0.439275 0.42504 0.308034 0.208227 0.143695 0.106254
threshold=0.72189100000000017 0.6647360000000001 8.904350000000001e-07 0.72545550000000014 8.9339300000000014e-06 1.1294600000000001 -7.503474999999999 -5.1341549999999984e-06 -8.0373449999999982e-06 7.9329500000000008 2.2743500000000003e-05 -6.3990199999999993 -11.344899999999997 1.7132100000000003e-08
decision_type=2 2 2 2 2 2 2 2 2 2 2 2 2 2
left_child=-1 -2 3 -3 5 11 -7 8 10 -9 -6 -5 -12 -8
right_child=1 2 -4 4 7 6 13 9 -10 -11 12 -13 -14 -15
leaf_value=5.5273431602291176e-05 -0.0002896346435359919 -0.0010328528379196001 -0.00014288607253211931 -0.015960854214416551 -0.0015428058197721837 0.022782243182882665 -0.0030477800842286461 -0.0096917787632499371 0.033840908668935299 0.015147569433094994 0.027554743057116866 -0.00053446324513060971 0.009573787758126855 0.010522411353013012
leaf_weight=13595 5265 443 2683 35 30 20 37 31 23 31 20 45 20 20
leaf_count=13595 5265 443 2683 35 30 20 37 31 23 31 20 45 20 20
internal_value=0 -8.63429e-05 0.000224981 0.00153225 0.00517436 -0.000186978 0.00718604 0.0106049 0.0158562 0.0027279 0.00994695 -0.00728351 0.0185643 0.00171369
internal_weight=0 8703 3438 755 312 157 77 155 93 62 70 80 40 57
internal_count=22298 8703 3438 755 312 157 77 155 93 62 70 80 40 57
shrinkage=0.15


Tree=430
num_leaves=15
num_cat=0
split_feature=14 3 23 23 23 20 29 2 14 21 23 30 20 2
split_gain=0.00522504 0.0468689 0.262252 0.387709 0.305184 0.144368 0.0733587 0.0676246 0.0636776 0.060729 0.0215349 0.0195157 0.0156467 0.0452723
threshold=0.0009749060000000001 -11.839049999999999 -11.864199999999999 -8.723844999999999 -13.142549999999998 2.3020050000000007 -0.0045824049999999986 -0.13568899999999998 0.00079036350000000015 -4.5474549999999985 -7.6100699999999994 0.00019449600000000003 -8.1590649999999982 -2.6162849999999995
decision_type=2 2 2 2 2 2 2 2 2 2 2 2 2 2
left_child=1 2 4 5 6 9 -1 -7 -8 -4 11 -5 13 -2
right_child=12 -3 3 10 -6 7 8 -9 -10 -11 -12 -13 -14 -15
leaf_value=0.0046403365347941873 -0.0027798643681790163 -1.5263009605755654e-05 -0.0011116255357178902 0.0001677509886212647 0.014805677008385268 -0.012916476160171442 0.00042234638240188358 -0.025251598509494214 -0.0096187165395046278 -0.011487361800391227 0.0013130425576545189 -0.0061186840874142947 1.233592417432363e-05 0.0008558485596884181
leaf_weight=32 83 11212 22 25 39 20 30 20 27 30 102 20 9559 1077
leaf_count=32 83 11212 22 25 39 20 30 20 27 30 102 20 9559 1077
internal_value=0 -6.98626e-05 -0.0017379 -0.00467233 0.00374123 -0.0123091 -0.00110724 -0.019084 -0.00433395 -0.00709763 0.000107146 -0.00262622 7.54678e-05 0.000595707
internal_weight=0 11579 367 239 128 92 89 40 57 52 147 45 10719 1160
internal_count=22298 11579 367 239 128 92 89 40 57 52 147 45 10719 1160
shrinkage=0.15


Tree=431
num_leaves=15
num_cat=0
split_feature=8 20 15 15 22 11 0 11 37 1 21 1 22 11
split_gain=0.00549387 0.0285429 0.0310777 0.0825994 0.255348 0.375612 0.116247 0.0952977 0.0395344 0.0380295 0.0835047 0.124681 0.150335 0.281019
threshold=-7.8129799999999982e-06 5.5130950000000007 2.5858200000000004e-06 5.552650000000001e-07 -0.072918949999999982 3.6747100000000006e-05 4.4669600000000012 4.4548250000000005e-05 1.0790650000000003e-05 -3.7662249999999995 3.0252350000000008 3.4310000000000005 -0.38001599999999996 2.1529850000000005e-05
decision_type=2 2 2 2 2 2 2 2 2 2 2 2 2 2
left_child=-1 -2 3 9 5 6 -5 -6 -4 -3 11 12 -11 -14
right_child=1 2 8 4 7 -7 -8 -9 -10 10 -12 -13 13 -15
leaf_value=-9.6775752733704219e-05 -6.2298478486688631e-05 -6.8224149747786981e-05 -9.6020427558885708e-05 -0.00071052554270533037 0.00075892684894779893 0.026968673279251173 0.011066736421410248 -0.01057419085955189 -0.0047596421134712304 -0.00064042525835767653 -0.00080154705148332487 -0.0035686219636548618 0.0010970693053427589 0.0096469185816400269
leaf_weight=8291 10677 1328 837 44 101 21 33 20 43 168 310 73 199 153
leaf_count=8291 10677 1328 837 44 101 21 33 20 43 168 310 73 199 153
internal_value=0 5.72833e-05 0.000440699 0.000715332 0.0034952 0.00918654 0.00433687 -0.00111432 -0.000323902 0.000442453 0.00119348 0.00223642 0.00305135 0.00481334
internal_weight=0 14007 3330 2450 219 98 77 121 880 2231 903 593 520 352
internal_count=22298 14007 3330 2450 219 98 77 121 880 2231 903 593 520 352
shrinkage=0.15


Tree=432
num_leaves=15
num_cat=0
split_feature=11 22 19 34 3 22 12 19 2 19 22 22 0 11
split_gain=0.0059935 0.0242522 0.0424984 0.0535121 0.0508309 0.0240855 0.045992 0.0700746 0.04928 0.0433415 0.0218229 0.0328649 0.0480876 0.049979
threshold=-4.4930349999999991e-06 -2.5539299999999998 4.3728750000000007e-08 0.03814420000000001 -6.3990199999999993 -3.0000599999999995 -3.0261949999999996e-05 2.1658550000000005e-06 -2.2968099999999994 1.1605450000000001e-06 2.3680300000000005 1.4939450000000003 6.1955100000000014 0.00010975650000000002
decision_type=2 2 2 2 2 2 2 2 2 2 2 2 2 2
left_child=5 2 3 4 -2 6 8 -8 9 -1 11 -3 13 -13
right_child=1 10 -4 -5 -6 -7 7 -9 -10 -11 -12 12 -14 -15
leaf_value=-0.012842397991335019 -0.0068535866967327557 -8.6986704961180967e-05 0.0010444543796298044 0.00091436686222247463 0.00025418373697903005 0.00011953793017631818 0.0082062665747279027 -0.0014813495498206715 -0.00020196090063109295 -0.0033876711095217615 0.00044471018179148433 -0.0020974355742753772 0.00015572374265389042 0.00030738979366392948
leaf_weight=20 56 8325 899 108 38 9695 21 84 36 24 1295 746 688 263
leaf_count=20 56 8325 899 108 38 9695 21 84 36 24 1295 746 688 263
internal_value=0 -6.93667e-05 0.000602701 -0.00136332 -0.00398023 8.71858e-05 -0.00160824 0.000456174 -0.00431778 -0.00768527 -0.00013475 -0.000209626 -0.000811258 -0.00147061
internal_weight=0 12418 1101 202 94 9880 185 105 80 44 11317 10022 1697 1009
internal_count=22298 12418 1101 202 94 9880 185 105 80 44 11317 10022 1697 1009
shrinkage=0.15


Tree=433
num_leaves=15
num_cat=0
split_feature=14 20 27 3 25 3 20 9 34 9 32 1 30 9
split_gain=0.00471979 0.0146891 0.0120109 0.0614768 0.0519338 0.0216015 0.103654 0.212484 0.0504836 0.0578888 0.0514799 0.037925 0.0426021 0.0644711
threshold=0.00010145900000000002 14.502350000000002 0.17117000000000002 -6.9667699999999995 0.16934200000000002 -6.3220499999999991 9.0003850000000032 2.5061900000000001e-05 0.05250765000000001 4.920620000000001e-05 -0.089805299999999991 -6.905454999999999 0.00012824300000000003 -2.5385999999999997e-05
decision_type=2 2 2 2 2 2 2 2 2 2 2 2 2 2
left_child=1 2 3 4 -1 6 8 -8 9 10 -4 -12 13 -13
right_child=-2 -3 5 -5 -6 -7 7 -9 -10 -11 11 12 -14 -15
leaf_value=-0.00085025351893688948 -3.2932747367220684e-05 -0.0028721314750631186 -0.0071401821489891276 -3.5702352607635118e-05 -0.011530560142127798 9.0274470957043841e-05 -0.0013075747025337672 0.015248050725652072 0.0016569272641914015 -0.0076518995622690354 -0.0042029899506208796 0.010882026604800062 -0.00034802958669044869 0.00077255837386474007
leaf_weight=21 18162 36 23 541 20 2818 37 33 339 27 36 22 143 40
leaf_count=21 18162 36 23 541 20 2818 37 33 339 27 36 22 143 40
internal_value=0 0.000144614 0.000171103 -0.000460106 -0.00606016 0.000275527 0.0010213 0.00649722 0.000412863 -0.00103641 -0.000359822 0.000287266 0.0010758 0.00435979
internal_weight=0 4136 4100 582 41 3518 700 70 630 291 264 241 205 62
internal_count=22298 4136 4100 582 41 3518 700 70 630 291 264 241 205 62
shrinkage=0.15


Tree=434
num_leaves=15
num_cat=0
split_feature=14 3 33 7 15 33 6 31 30 32 29 25 36 4
split_gain=0.00481473 0.0341801 0.0562048 0.130993 0.0743402 0.112753 0.187018 0.0674626 0.0533806 0.0264247 0.025089 0.0346345 0.0250156 0.0287358
threshold=0.0009749060000000001 -11.839049999999999 -1.3377849999999998e-05 3.9065950000000012e-05 -6.9708849999999991e-08 -3.8480099999999993e-06 -1.6982949999999998e-06 -0.21711399999999997 0.00030801350000000006 0.044795500000000009 -0.013389799999999999 0.18440900000000002 -0.00025277649999999992 -0.034778199999999988
decision_type=2 2 2 2 2 2 2 2 2 2 2 2 2 2
left_child=1 2 3 -1 7 6 -6 -4 -9 -10 -7 -12 -13 -14
right_child=-2 -3 4 -5 5 10 -8 8 9 -11 11 12 13 -15
leaf_value=0.008638102984211098 7.2444006119056799e-05 -2.043680536747854e-05 0.0084557763644261281 -0.0043448659950894681 -0.02163326622918248 -0.0068589001519805083 -0.0023398228021575887 0.0018329342011791845 -0.0091403952328255392 -0.0015219966581623467 -0.0066902369585087789 -0.0036463849976176529 0.0048822214752362921 -0.001579724015755346
leaf_weight=36 10719 11212 20 34 20 21 26 58 20 21 21 28 32 30
leaf_count=36 10719 11212 20 34 20 21 26 58 20 21 21 28 32 30
internal_value=0 -6.70634e-05 -0.00149153 0.00233209 -0.00239271 -0.0043331 -0.0107283 0.000509713 -0.00109555 -0.00523829 -0.00210448 -0.00120499 7.48954e-05 0.00175547
internal_weight=0 11579 367 70 297 178 46 119 99 41 132 111 90 62
internal_count=22298 11579 367 70 297 178 46 119 99 41 132 111 90 62
shrinkage=0.15


Tree=435
num_leaves=15
num_cat=0
split_feature=9 21 1 20 0 22 21 10 1 1 21 13 37 33
split_gain=0.00457733 0.0247624 0.0634468 0.474811 0.317389 0.214426 0.167677 0.105606 0.0805569 0.0266086 0.0249929 0.0346498 0.0509475 0.0214139
threshold=-8.1545649999999974e-06 7.4297400000000007 7.1776500000000008 -2.1881849999999994 -4.4171999999999993 2.0696000000000008 9.7161850000000012 1.8567200000000004e-05 8.9291600000000013 6.1249850000000006 6.713585000000001 -1.2804599999999998e-05 -3.3989599999999994e-08 -1.9839499999999994e-06
decision_type=2 2 2 2 2 2 2 2 2 2 2 2 2 2
left_child=1 10 9 4 5 -4 -6 -5 -9 -3 -1 12 -12 -10
right_child=-2 2 3 7 6 -7 -8 8 13 -11 11 -13 -14 -15
leaf_value=1.6495263735612095e-05 -5.8323237356797754e-05 0.00038737691615242355 -0.006205876515465206 -0.012283345751199125 0.011707277535460889 0.014631891479948533 0.031130825397558511 0.0052708582486957313 -0.001353166903381383 -0.003013541295270746 -0.0097046928840707272 -0.00047781013811574373 -0.00056043600904307953 -0.0066655677820240409
leaf_weight=7741 12841 1249 25 22 20 20 20 33 38 54 26 149 29 31
leaf_count=7741 12841 1249 25 22 20 20 20 33 38 54 26 149 29 31
internal_value=0 7.91931e-05 0.000635587 0.00306175 0.0116971 0.00305535 0.0214191 -0.00285765 -0.000824653 0.000246433 -2.66933e-05 -0.00166553 -0.00488318 -0.0037399
internal_weight=0 9457 1512 209 85 45 40 124 102 1303 7945 204 55 69
internal_count=22298 9457 1512 209 85 45 40 124 102 1303 7945 204 55 69
shrinkage=0.15


Tree=436
num_leaves=15
num_cat=0
split_feature=31 0 23 22 3 14 25 17 3 22 13 22 20 4
split_gain=0.00443097 0.0197215 0.0286404 0.0268558 0.0320834 0.0336652 0.0318403 0.0395801 0.0242032 0.0392016 0.035886 0.0442028 0.0273029 0.026525
threshold=0.050211650000000004 -8.8041249999999973 -8.2241149999999994 -1.6515499999999999 -6.0418049999999992 0.00018403700000000004 0.25698700000000002 4.2692850000000009e-07 -5.9574799999999994 -2.6335499999999996 1.9728250000000005e-05 -1.6515499999999999 4.3684300000000009 -0.13497449999999997
decision_type=2 2 2 2 2 2 2 2 2 2 2 2 2 2
left_child=1 2 3 6 5 -5 7 -1 9 -4 11 -11 13 -13
right_child=-2 -3 8 4 -6 -7 -8 -9 -10 10 -12 12 -14 -15
leaf_value=-0.0072009348074105568 0.00010019320916752431 -0.00010417059989453552 0.0049216524252425065 0.0034752061493943782 0.00033317327634883686 0.00081442759638038003 0.0026337578383390792 0.00057935645309044044 0.00063614634520945399 -0.0074687026712733015 0.00039638790828870645 -0.0041042704389176584 -0.0033320846520207567 0.0019984626346879432
leaf_weight=31 6871 13734 23 216 440 212 28 28 352 36 142 22 104 59
leaf_count=31 6871 13734 23 216 440 212 28 28 352 36 142 22 104 59
internal_value=0 -4.46248e-05 0.000438424 0.000980772 0.0012326 0.00215725 -0.00153174 -0.00350859 -0.000263396 -0.0010837 -0.00146421 -0.0026597 -0.0017239 0.00034093
internal_weight=0 15427 1693 955 868 428 87 59 738 386 363 221 185 81
internal_count=22298 15427 1693 955 868 428 87 59 738 386 363 221 185 81
shrinkage=0.15


Tree=437
num_leaves=15
num_cat=0
split_feature=5 22 12 6 22 10 10 22 9 2 36 26 35 18
split_gain=0.00442373 0.0209535 0.0311521 0.0452464 0.0405471 0.161536 0.0667578 0.0584433 0.141809 0.0999089 0.117649 0.147063 0.198684 0.210467
threshold=1.1498300000000001e-05 -1.7141599999999999 -1.1291449999999998e-05 -4.245869999999999e-06 -1.8603949999999998 1.3106700000000003e-05 1.2403150000000002e-05 -2.1744949999999998 -1.9313849999999998e-05 -2.1089949999999997 0.0018893750000000002 7.6466100000000017e-05 -0.00026799349999999996 7.1537300000000017e-07
decision_type=2 2 2 2 2 2 2 2 2 2 2 2 2 2
left_child=1 2 3 -1 6 -6 -5 9 -9 10 11 12 13 -8
right_child=-2 -3 -4 4 5 -7 7 8 -10 -11 -12 -13 -14 -15
leaf_value=-0.0051764882701125156 -3.8723702141125896e-05 -4.3636156503932095e-05 -0.00011145952615108744 -0.0017368271439464542 0.016112450407163123 -0.0014106192788639071 -0.0045374847323234593 -0.0071792180212759509 0.0032511995791887436 0.0011057634694695249 0.016994829097820911 -0.0058851014997344468 0.020064441608597657 0.012910287737447235
leaf_weight=23 16691 4312 630 131 20 29 35 47 78 209 20 24 21 28
leaf_count=23 16691 4312 630 131 20 29 35 47 78 209 20 24 21 28
internal_value=0 0.000115273 0.000644399 0.00136047 0.00159467 0.00574165 0.001252 0.00209948 -0.000670637 0.00312697 0.00642721 0.00447025 0.00742892 0.00321708
internal_weight=0 5607 1295 665 642 49 593 462 125 337 128 108 84 63
internal_count=22298 5607 1295 665 642 49 593 462 125 337 128 108 84 63
shrinkage=0.15


end of trees

feature_importances:
feature_4=577
feature_24=410
feature_15=333
feature_5=275
feature_20=247
feature_22=238
feature_21=229
feature_23=203
feature_34=201
feature_14=187
feature_35=187
feature_2=175
feature_1=165
feature_8=153
feature_3=152
feature_6=135
feature_12=135
feature_17=135
feature_25=120
feature_16=108
feature_19=108
feature_27=104
feature_11=103
feature_18=102
feature_36=101
feature_37=101
feature_26=99
feature_38=99
feature_33=98
feature_39=96
feature_32=94
feature_13=86
feature_9=85
feature_29=84
feature_30=84
feature_40=80
feature_7=79
feature_31=77
feature_10=56
feature_28=31

parameters:
[boosting: gbdt]
[objective: regression]
[metric: l2]
[tree_learner: serial]
[device_type: cpu]
[data: ]
[valid: ]
[num_iterations: 10000]
[learning_rate: 0.15]
[num_leaves: 15]
[num_threads: 24]
[force_col_wise: 0]
[force_row_wise: 0]
[histogram_pool_size: -1]
[max_depth: -1]
[min_data_in_leaf: 20]
[min_sum_hessian_in_leaf: 0.001]
[bagging_fraction: 0.9]
[pos_bagging_fraction: 1]
[neg_bagging_fraction: 1]
[bagging_freq: 0]
[bagging_seed: 32458]
[feature_fraction: 0.8]
[feature_fraction_bynode: 1]
[feature_fraction_seed: 15412]
[extra_trees: 0]
[extra_seed: 19498]
[early_stopping_round: 50]
[first_metric_only: 0]
[max_delta_step: 0]
[lambda_l1: 0]
[lambda_l2: 0]
[min_gain_to_split: 0]
[drop_rate: 0.1]
[max_drop: 50]
[skip_drop: 0.5]
[xgboost_dart_mode: 0]
[uniform_drop: 0]
[drop_seed: 818]
[top_rate: 0.2]
[other_rate: 0.1]
[min_data_per_group: 100]
[max_cat_threshold: 32]
[cat_l2: 10]
[cat_smooth: 10]
[max_cat_to_onehot: 4]
[top_k: 20]
[monotone_constraints: ]
[monotone_constraints_method: basic]
[monotone_penalty: 0]
[feature_contri: ]
[forcedsplits_filename: ]
[refit_decay_rate: 0.9]
[cegb_tradeoff: 1]
[cegb_penalty_split: 0]
[cegb_penalty_feature_lazy: ]
[cegb_penalty_feature_coupled: ]
[path_smooth: 0]
[interaction_constraints: ]
[verbosity: -1]
[saved_feature_importance_type: 0]
[max_bin: 255]
[max_bin_by_feature: ]
[min_data_in_bin: 3]
[bin_construct_sample_cnt: 200000]
[data_random_seed: 4078]
[is_enable_sparse: 1]
[enable_bundle: 1]
[use_missing: 1]
[zero_as_missing: 0]
[feature_pre_filter: 1]
[pre_partition: 0]
[two_round: 0]
[header: 0]
[label_column: ]
[weight_column: ]
[group_column: ]
[ignore_column: ]
[categorical_feature: ]
[forcedbins_filename: ]
[objective_seed: 21231]
[num_class: 1]
[is_unbalance: 0]
[scale_pos_weight: 1]
[sigmoid: 1]
[boost_from_average: 1]
[reg_sqrt: 0]
[alpha: 0.9]
[fair_c: 1]
[poisson_max_delta_step: 0.7]
[tweedie_variance_power: 1.5]
[lambdarank_truncation_level: 20]
[lambdarank_norm: 1]
[label_gain: ]
[eval_at: ]
[multi_error_top_k: 1]
[auc_mu_weights: ]
[num_machines: 1]
[local_listen_port: 12400]
[time_out: 120]
[machine_list_filename: ]
[machines: ]
[gpu_platform_id: -1]
[gpu_device_id: -1]
[gpu_use_dp: 0]

end of parameters

pandas_categorical:[]
