tree
version=v3
num_class=1
num_tree_per_iteration=1
label_index=0
max_feature_idx=31
objective=regression
feature_names=feature_2 feature_4 feature_5 feature_6 feature_12 feature_13 feature_14 feature_15 feature_16 feature_17 feature_18 feature_19 feature_20 feature_23 feature_24 feature_25 feature_26 feature_29 feature_31 feature_32 feature_34 feature_35 feature_36 feature_37 feature_38 feature_39 feature_40 feature_3_diff_feature_23 feature_23_ratio_feature_3 feature_3_ratio_feature_23 feature_24_ratio_feature_4 feature_4_ratio_feature_24
feature_infos=[-16.752600000000001:16.246099999999998] [-20.319500000000001:-4.4782599999999997] [-30.8093:57.964799999999997] [5.6674000000000002e-06:0.0023298199999999998] [-0.027832200000000001:0.0078196399999999992] [-0.020958899999999999:0.028236500000000001] [-0.00035657799999999997:0.0069399600000000002] [1.8339399999999999e-05:1.9515199999999999] [-0.014945999999999999:0.075138999999999997] [-0.0085839799999999997:0.045257800000000001] [-0.0045334399999999997:0.0084634500000000008] [-1.60745:1.84223] [5.1740399999999999e-11:2.4526500000000002] [-3.12656:3.13436] [-42.0899:-5.0951899999999997] [-7.7456100000000001:2.8789500000000001] [0.14570900000000001:337.255] [-4.7191000000000001:12.0253] [4.4848100000000002e-05:4.6588900000000004] [-68.897000000000006:335.04500000000002] [-0.00521471:0.153891] [0.0017619599999999999:8246.0400000000009] [-8.2586999999999993:61.6145] [-92.653999999999996:8.7547599999999992] [-0.00054633199999999996:0.0268715] [-10.6465:1516.5799999999999] [4.26018e-07:279.03699999999998] [-6.1508099999999999:6.2038500000000001] [-6.2038500000000001:6.1508099999999999] [-6.1508099999999999:6.2038500000000001] [-36.259280000000004:14.252400000000002] [-14.252400000000002:36.259280000000004]
tree_sizes=2755 2860 2825 2842 2869 2839 2843 2859 2848 2838 2887 2838 2885 2844 2869 2870 2858 2881 2882 2882 2873 2841 2872 2862 2886 2866 2885 2895 2902 2889 2911 2876 2877 2920 2896 2902 2921 2917 2915 2905 2907 2888 2908 2907 2939 2958 2963 2944 2993 2978 2982 2956 2991 2921 2957 2968 2940 2967 2982 2991 2960 2957 2994 3002 2970 3012 2989 2987 2999 2946 3000 2992 2979 2946 3018 2980 2942 2984 3006 3007 2970 2975 2985 3005 2996 2992 2964 3022 2993 3019 2994 2988 3007 2990 2962 3011 2981 2971 2991 2997 2996 2991 3011 2966 2986 2972 2997 2981 3003 3008 2996 2969 3001 3015 3017 2982 3003 2969 2998 2990 2972 2992 2975 2953 3027 2988 3016 2969 3009 2996 2991 2982 2969 2977 2954 2988 3012 2993 2985 2958 2973 2968 2993 3029 2993 2968 2975 2988 2972 2980 2970 2967 2965 3021 2982 2995 2986 3005 3035 2994 2983 3022 2998 2994 3000 2983 2992 3002 2981 3003 3005 2987 3004 2949 3043 2998 3001 3037 3001 2981

Tree=0
num_leaves=31
num_cat=0
split_feature=27 27 30 30 27 21 30 21 2 30 21 27 25 27 1 21 15 30 27 21 30 9 0 6 23 21 27 18 0 27
split_gain=23.6021 282.458 126.344 127.565 33.7427 15.6667 9.32604 6.75003 5.52307 4.9665 3.6 2.53606 5.16186 1.61184 1.54397 1.53759 1.30978 1.12201 1.00147 2.99221 0.727717 0.625 0.497466 0.661334 0.399815 0.373797 0.337739 0.513369 0.319565 0.231132
threshold=-0.19251849999999998 0.075470000000000051 -1.198825 0.83610000000000018 -0.04055499999999989 0.065185650000000012 -0.66839999999999955 0.29129750000000004 0.61727300000000007 2.3127450000000001 0.099896850000000023 0.17470800000000006 -0.031563349999999997 -0.079140000000000085 -13.198599999999997 0.03814420000000001 -0.49633099999999991 -0.74189000000000005 0.027610000000000138 0.03814420000000001 -1.4579249999999997 2.5937500000000006e-07 8.0541100000000014 1.5751850000000004e-05 -5.0259749999999999 0.10856500000000001 0.10019100000000004 0.00035394450000000003 11.472500000000002 0.25180000000000019
decision_type=2 2 2 2 2 2 2 2 2 2 2 2 2 2 2 2 2 2 2 2 2 2 2 2 2 2 2 2 2 2
left_child=-1 2 14 4 5 15 10 25 18 -9 -6 12 -3 -7 -2 -4 17 -14 22 -20 -16 -15 -8 28 -13 -5 27 -18 -24 -26
right_child=1 11 3 7 6 13 8 9 -10 -11 -12 24 16 21 20 -17 26 -19 19 -21 -22 -23 23 -25 29 -27 -28 -29 -30 -31
leaf_value=0.033557338132734038 0.05490578921741035 0.070977217848709653 0.035858170098833388 0.03347721770901127 0.044727217750920784 0.077227217871992715 0.10784563903868681 0.080620075027489246 0.067568126926918881 0.038649631521383461 0.089727217918558838 0.043704490474383559 0.037227217722981105 0.089727217918558838 0.03347721770901127 0.05972721780680014 0.03347721770901127 0.06204864638687671 0.074386308770500426 0.10711358161969173 0.04776293204794399 0.10847721798840804 0.10847721798840804 0.089727217918558838 0.035793820034243605 0.043704490474383559 0.034168461951217692 0.04671251187596364 0.097227217946498523 0.03352361902904389
leaf_weight=10297 21 28 63 233 20 36 475 35 22 29 20 22 20 20 447 20 32 21 22 55 21 20 49 20 259 22 217 34 20 9698
leaf_count=10297 21 28 63 233 20 36 475 35 22 29 20 22 20 20 447 20 32 21 22 55 21 20 49 20 259 22 217 34 20 9698
internal_value=0.0361916 0.0384518 0.06707 0.0803443 0.0953392 0.0641376 0.102396 0.0398252 0.104518 0.0616022 0.0672272 0.0338257 0.0400823 0.0887404 0.035011 0.0416097 0.0374124 0.0499406 0.105786 0.0977629 0.0341182 0.0991022 0.106881 0.101736 0.033605 0.0343596 0.0355974 0.0402954 0.105216 0.0335827
internal_weight=0 12001 1670 1181 862 159 703 319 663 64 40 10331 352 76 489 83 324 41 641 77 468 40 564 89 9979 255 283 66 69 9957
internal_count=22298 12001 1670 1181 862 159 703 319 663 64 40 10331 352 76 489 83 324 41 641 77 468 40 564 89 9979 255 283 66 69 9957
shrinkage=1


Tree=1
num_leaves=31
num_cat=0
split_feature=30 31 27 27 27 16 2 14 30 27 27 21 30 21 27 27 27 18 27 1 27 18 1 15 30 6 14 3 7 17
split_gain=20.2699 77.6539 71.1177 280.428 17.8105 6.21139 6.17284 4.69042 4.44859 3.66584 17.0904 3.47497 2.10664 4.03841 4.43209 17.0946 1.65326 2.93895 1.5594 1.48137 1.42077 2.49505 0.734187 1.13577 0.670696 0.643835 0.634341 0.796208 0.552658 0.435892
threshold=-0.95834499999999945 -0.30494999999999978 -0.19251849999999998 0.10019100000000004 -0.079140000000000085 1.2452150000000002 0.66577950000000008 -14.293449999999998 -0.46073500000000051 0.27611750000000007 -0.12087000000000013 0.061470550000000006 0.83610000000000018 0.078926450000000009 -0.22108000000000014 0.075470000000000051 0.25180000000000019 0.00098734600000000027 -0.04055499999999989 -17.076899999999998 0.027610000000000138 0.00035394450000000003 -14.364899999999999 0.8441185000000001 0.54256000000000049 1.5751850000000004e-05 -10.808449999999999 1.1705750000000002e-05 0.0024242450000000007 0.25552050000000004
decision_type=2 2 2 2 2 2 2 2 2 2 2 2 2 2 2 2 2 2 2 2 2 2 2 2 2 2 2 2 2 2
left_child=19 7 -3 4 5 -4 8 9 11 10 -2 -6 13 26 -15 24 17 -5 -10 -1 -20 -22 23 28 -16 -13 27 -9 -21 -18
right_child=1 2 3 16 6 -7 -8 12 18 -11 -12 25 -14 14 15 -17 29 -19 20 22 21 -23 -24 -25 -26 -27 -28 -29 -30 -31
leaf_value=0.016730237294636342 -0.00075210551554455028 -0.0022581795734706624 -0.001288059670981523 -0.0008694773236679476 0.018847524002194405 0.050589207834564151 0.020500033588281698 0.018312597465701401 0.048870965385356464 -0.0025240607380580446 0.062204678141112829 0.064496452454477549 -0.002296760477964138 -0.0017742260147144296 0.062147135411699611 -0.0016384839933051402 -0.0025142714381217956 0.033930460126139227 0.066089882481000603 0.0097512634117798546 0.032258527195081113 0.064322872641821238 -0.0024053796889242163 0.019182869629003108 0.044505901207131417 0.045903559871949252 -0.0020371738891889696 -0.00065185933119871404 -0.0015970767436859507 0.0086593719525262704
leaf_weight=23 79 1160 37 43 22 20 21 20 37 78 35 22 7073 101 27 83 1087 20 504 29 20 43 10822 20 22 20 633 33 144 20
leaf_count=23 79 1160 37 43 22 20 21 20 37 78 35 22 7073 101 27 83 1087 20 504 29 20 43 10822 20 22 20 633 33 144 20
internal_value=0 0.00223888 0.0123982 0.0212715 0.0572049 0.0169145 0.0605381 -0.00157954 0.0617967 0.0100045 0.0185767 0.0429944 -0.00185784 0.00152026 0.0100511 0.0190993 -0.00163983 0.0101781 0.063789 -0.00228391 0.0647625 0.0541437 -0.00232361 0.00226148 0.0542266 0.0556427 -0.00137725 0.00650454 0.000305246 -0.0023124
internal_weight=0 11260 3076 1916 746 57 689 8184 668 192 114 64 7992 919 233 132 1170 63 604 11038 567 63 11015 193 49 42 686 53 173 1107
internal_count=22298 11260 3076 1916 746 57 689 8184 668 192 114 64 7992 919 233 132 1170 63 604 11038 567 63 11015 193 49 42 686 53 173 1107
shrinkage=0.075


Tree=2
num_leaves=31
num_cat=0
split_feature=27 27 30 30 27 21 2 14 30 27 26 27 22 21 30 1 25 27 21 30 10 16 19 0 0 6 23 5 17 1
split_gain=17.5021 208.913 92.9158 92.9725 25.0085 11.946 7.16104 6.86336 5.2632 2.23669 4.13803 1.90951 4.23614 1.75925 1.98999 1.24954 0.875197 0.634089 2.3306 0.622653 0.52917 0.476355 0.440036 0.795376 0.382871 0.549949 0.331531 0.299136 0.218288 0.600243
threshold=-0.19251849999999998 0.075470000000000051 -1.198825 0.83610000000000018 -0.04055499999999989 0.050858250000000008 0.83958750000000015 -13.282899999999998 -0.66839999999999955 -0.079140000000000085 0.0010045400000000002 0.17470800000000006 -0.028945449999999994 0.30199350000000008 2.3127450000000001 -13.198599999999997 -0.027382149999999997 0.027610000000000138 0.03814420000000001 -1.4579249999999997 2.9938050000000004e-07 0.38759400000000005 0.15918800000000002 -2.3943699999999999 8.0541100000000014 1.5751850000000004e-05 -5.0259749999999999 4.1008050000000008e-05 -0.17627099999999998 -15.094049999999998
decision_type=2 2 2 2 2 2 2 2 2 2 2 2 2 2 2 2 2 2 2 2 2 2 2 2 2 2 2 2 2 2
left_child=28 2 15 4 5 21 8 -5 -6 10 -7 12 -3 -9 -15 -2 -14 24 -19 -17 -11 -4 -18 -24 -10 27 -13 -26 29 -1
right_child=1 11 3 7 6 9 -8 13 17 20 -12 26 16 14 -16 19 22 18 -20 -21 -22 -23 23 -25 25 -27 -28 -29 -30 -31
leaf_value=0.012483647321350872 0.016963277876909287 0.03085538525583929 -0.0029375538566803676 0.043770705106329508 0.030202885810285806 0.0068979829150651178 0.012583566410467028 -0.0021149352393242944 0.061381974079819213 0.045274255927652121 0.054565791897475721 0.006973034037615765 0.016127200657501815 0.031625751871615648 0.00015814992097707895 -0.0023303878493607043 -0.0014174441151666424 0.032636124285107308 0.061374320276081556 0.010883898301316159 0.06164167064800858 0.0097142542318369336 -0.0028589439279000676 0.015182364173233508 0.051469790535047653 0.045074670854955909 -0.0022440053525954063 0.062354250008962595 -0.002318263502760686 -0.0011760956205819782
leaf_weight=20 21 29 47 22 36 21 20 251 479 20 20 22 20 20 26 447 248 22 57 21 25 26 28 27 20 20 9957 49 10087 190
leaf_count=20 21 29 47 22 36 21 20 251 479 20 20 22 20 20 26 447 248 22 57 21 25 26 28 27 20 20 9957 49 10087 190
internal_value=0 0.00194635 0.0265584 0.037942 0.0507433 0.0238818 0.0568187 0.00335026 0.058114 0.0428221 0.0301506 -0.00203218 0.00339687 0.000356156 0.0138397 -0.000934341 0.000931552 0.059667 0.0533713 -0.00173744 0.0543673 0.00156857 -7.14612e-05 0.0059977 0.0605426 0.0560253 -0.00222369 0.0591993 -0.00226844 0.000124832
internal_weight=0 12001 1670 1181 862 159 703 319 683 86 41 10331 352 297 46 489 323 647 79 468 45 73 303 55 568 89 9979 69 10297 210
internal_count=22298 12001 1670 1181 862 159 703 319 683 86 41 10331 352 297 46 489 323 647 79 468 45 73 303 55 568 89 9979 69 10297 210
shrinkage=0.075


Tree=3
num_leaves=31
num_cat=0
split_feature=27 27 31 31 28 21 31 2 21 21 27 22 31 10 23 1 23 21 15 9 0 6 0 23 12 18 31 31 17 27
split_gain=14.9753 178.751 79.5043 78.6192 24.8949 10.6433 6.69099 4.54113 4.17776 2.54685 1.63383 3.62454 1.44371 1.33522 1.42813 1.18373 1.11175 0.984064 0.756057 0.730147 0.565706 1.05309 0.388678 0.283666 0.253132 0.23606 0.646384 1.48339 0.186772 0.550695
threshold=-0.19251849999999998 0.075470000000000051 1.2401050000000005 -1.1308450000000001 0.041125499999999933 0.065185650000000012 0.66869499999999971 0.71853250000000013 0.098190750000000007 0.51382200000000011 0.17470800000000006 -0.028945449999999994 -2.6536499999999994 4.0635550000000003e-07 0.0075163100000000009 -13.198599999999997 0.0036628350000000001 0.03814420000000001 0.54616000000000009 -5.8785649999999992e-06 7.9890250000000007 1.8093800000000003e-05 10.749450000000001 -5.0259749999999999 5.6448650000000011e-10 0.00058128400000000016 2.1402300000000003 -0.046744999999999585 -0.17627099999999998 -0.56065814999999997
decision_type=2 2 2 2 2 2 2 2 2 2 2 2 2 2 2 2 2 2 2 2 2 2 2 2 2 2 2 2 2 2
left_child=28 2 3 9 6 17 7 19 -8 -2 11 -3 -11 14 -7 -4 -15 -6 25 -5 24 22 -22 -12 -21 -13 27 -27 29 -1
right_child=1 10 15 4 5 13 8 -9 -10 12 23 18 -14 16 -16 -17 -18 -19 -20 20 21 -23 -24 -25 -26 26 -28 -29 -30 -31
leaf_value=-0.0023703650618601287 -0.0021278364129546212 0.02854123080213522 0.016739103309810162 0.042588713410525364 -0.0010082283251297969 0.044362767732569149 0.0005547988313165577 0.018632987947203219 0.046775512295690443 0.0040291517972946165 0.0064500564539974386 -0.0016397069347542277 0.032526294565759596 0.036646559089422222 0.016702851500096066 -0.0018978977808728813 0.061078777638348666 0.017443566004346524 0.014985226155258713 0.048876150883734225 0.057838764952288728 0.034886703221127392 0.04719149294774979 -0.0020757049131738909 0.056758802048806872 -0.0034201100158194699 -0.00279419319704175 0.021933401416987183 -0.0021443938133139224 0.0060493982269338538
leaf_weight=148 246 29 20 26 72 21 22 20 22 20 22 194 20 20 21 462 22 21 20 24 54 20 30 9957 507 27 57 25 10087 62
leaf_count=148 246 29 20 26 72 21 22 20 22 20 22 194 20 20 21 462 22 21 20 24 54 20 30 9957 507 27 57 25 10087 62
internal_value=0 0.00180037 0.0245665 0.03499 0.0458542 0.0206371 0.0520107 0.0538421 0.0236652 0.000726088 -0.00187977 0.0031421 0.0182777 0.0399886 0.0305328 -0.00112458 0.0494444 0.00315831 0.000861686 0.0549074 0.0554118 0.0503536 0.0540362 -0.00205691 0.0564025 -7.05614e-05 0.00272223 0.00876908 -0.00209831 0.00011547
internal_weight=0 12001 1670 1188 902 177 725 681 44 286 10331 352 40 84 42 482 42 93 323 661 635 104 84 9979 531 303 109 52 10297 210
internal_count=22298 12001 1670 1188 902 177 725 681 44 286 10331 352 40 84 42 482 42 93 323 661 635 104 84 9979 531 303 109 52 10297 210
shrinkage=0.075


Tree=4
num_leaves=31
num_cat=0
split_feature=30 31 27 27 27 21 30 21 14 27 27 9 30 21 27 27 27 16 1 15 6 1 1 15 30 7 14 3 17 17
split_gain=12.8299 49.482 44.9428 176.539 11.3843 4.344 3.95204 6.32948 3.1401 2.4485 11.5434 1.5225 1.26444 2.61641 2.75172 10.6492 1.24492 2.35806 1.17655 0.832396 0.739797 1.66239 0.504232 0.861746 0.495113 0.400411 0.384958 0.524211 0.363418 0.354975
threshold=-0.95834499999999945 -0.30494999999999978 -0.19251849999999998 0.10019100000000004 -0.079140000000000085 0.088783000000000015 -0.41763500000000015 0.029435450000000005 -14.293449999999998 0.27611750000000007 -0.12087000000000013 6.8359950000000008e-06 0.83610000000000018 0.078926450000000009 -0.22108000000000014 0.075470000000000051 0.25180000000000019 0.96367500000000017 -17.076899999999998 0.19998600000000002 2.0530250000000002e-05 -8.0875299999999992 -14.364899999999999 0.8441185000000001 0.54256000000000049 0.0024242450000000007 -10.808449999999999 1.1705750000000002e-05 0.25552050000000004 -0.17627099999999998
decision_type=2 2 2 2 2 2 2 2 2 2 2 2 2 2 2 2 2 2 2 2 2 2 2 2 2 2 2 2 2 2
left_child=18 8 29 4 5 -4 7 -6 9 10 -2 20 13 26 -15 24 17 -5 -1 -9 -8 -22 23 25 -16 -20 27 -10 -18 -3
right_child=1 2 3 16 6 -7 11 19 12 -11 -12 -13 -14 14 15 -17 28 -19 22 -21 21 -23 -24 -25 -26 -27 -28 -29 -30 -31
leaf_value=0.015128261770081261 -0.00066819305567047266 0.0074644235003253684 -0.0019788598729851277 -0.00087437999304817158 -0.0041257395688444375 0.041404934981837865 0.052442045376409542 0.05107597039582637 0.014511523316614329 -0.0020278382401626841 0.051072605316128047 0.032039294444024563 -0.0018346155938140287 -0.0013286184233677861 0.049649059855275679 -0.0012491944414305398 -0.0020017228089272976 0.03029727034969255 0.008283707807803976 0.032256601369008417 0.050350101935743755 0.030202234324453202 -0.0019201863189158171 0.016686783148907123 0.034491886740381061 -0.0013758422496418156 -0.0017237608720464587 -0.0008764122612774371 0.008200826598331332 -0.001946774547757448
leaf_weight=23 79 23 37 43 20 20 444 39 20 78 35 25 7073 101 27 83 1087 20 29 20 112 29 10822 20 22 144 633 33 20 1137
leaf_count=23 79 23 37 43 20 20 444 39 20 78 35 25 7073 101 27 83 1087 20 29 20 112 29 10822 20 22 144 633 33 20 1137
internal_value=0 0.00178121 0.00989092 0.0169448 0.0454555 0.0132435 0.0481203 0.0323365 -0.00126686 0.00821137 0.0152171 0.0501645 -0.00149457 0.00112257 0.00798915 0.0151187 -0.00123377 0.00902138 -0.00181704 0.0446965 0.0509391 0.0462062 -0.00185242 0.00194737 0.0428438 0.000243389 -0.00120967 0.00493036 -0.00181739 -0.00176017
internal_weight=0 11260 3076 1916 746 57 689 79 8184 192 114 610 7992 919 233 132 1170 63 11038 59 585 141 11015 193 49 173 686 53 1107 1160
internal_count=22298 11260 3076 1916 746 57 689 79 8184 192 114 610 7992 919 233 132 1170 63 11038 59 585 141 11015 193 49 173 686 53 1107 1160
shrinkage=0.075


Tree=5
num_leaves=31
num_cat=0
split_feature=29 28 30 31 28 21 2 30 21 21 28 22 30 30 10 15 1 23 1 26 0 6 5 21 30 9 12 17 5 17
split_gain=11.1049 132.273 58.5677 57.7626 18.784 7.93703 5.16007 3.77535 2.74475 2.07191 1.27159 3.58033 1.97591 1.17892 1.11706 1.27888 0.957292 0.953366 0.830749 0.742983 0.70615 1.51365 0.323678 0.29899 1.4562 0.229041 0.219011 0.146101 0.192245 0.144891
threshold=-0.19251849999999998 -0.075470000000000023 -1.2398499999999995 -1.1308450000000001 0.041125499999999933 0.065185650000000012 0.83958750000000015 -0.66839999999999955 0.10279050000000002 0.51382200000000011 -0.25180000000000008 -0.043520549999999998 -2.5072499999999995 2.6225900000000002 4.0635550000000003e-07 -0.33471499999999993 -13.198599999999997 0.0036628350000000001 -17.076899999999998 1.8053650000000003e-05 7.9890250000000007 1.8093800000000003e-05 4.3149550000000008e-05 0.35062350000000003 -1.9130800000000001 -5.8785649999999992e-06 5.6448650000000011e-10 1.5572200000000003 0.00011799400000000001 -0.17627099999999998
decision_type=2 2 2 2 2 2 2 2 2 2 2 2 2 2 2 2 2 2 2 2 2 2 2 2 2 2 2 2 2 2
left_child=29 10 16 9 6 19 7 8 -5 -4 27 12 -12 -11 15 -7 -3 -16 -13 -6 25 22 -22 -20 -25 -9 -27 -2 -29 -1
right_child=1 2 3 4 5 14 -8 20 -10 13 11 18 -14 -15 17 -17 -18 -19 23 -21 21 -23 -24 24 -26 26 -28 28 -30 -31
leaf_value=0.00014291708823293447 -0.0018436030104842991 0.015148340882733462 -0.0018629130418980266 0.0038098422065377235 -0.0013370743034486199 0.039276764681562777 0.0081056821692202762 0.041237767718732353 0.043102632947266101 0.029417687784880398 0.0033534290129318832 0.013989131148580624 0.034218778743940803 0.0036661596223711967 0.030997194489464162 0.01307233338328925 -0.001611541375493655 0.053622236983342599 -0.0014103857061838333 0.014437282074835489 0.038687027002806247 0.024553811278842066 0.049127709184635854 -0.0030463140670742308 0.016064700552008367 0.041582157928496601 0.048913998322517381 -0.0025010068668052552 0.0078979333397001025 -0.0018475114150329
leaf_weight=210 9675 20 246 20 71 20 21 25 20 20 20 23 28 20 20 22 462 22 442 22 23 23 61 70 33 24 508 20 20 10087
leaf_count=210 9675 20 246 20 71 20 21 25 20 20 20 23 28 20 20 22 462 22 442 22 23 23 61 70 33 24 508 20 20 10087
internal_value=0 0.00155036 0.0211343 0.0300807 0.039393 0.0174884 0.0447407 0.0458335 0.0234562 0.00071119 -0.00161538 0.00168904 0.0213582 0.0165419 0.0341995 0.0255506 -0.000916111 0.0428484 2.68533e-05 0.00239449 0.0471816 0.0416012 0.046269 -0.00056238 0.00307663 0.0482535 0.0485832 -0.0018249 0.00269846 -0.00180692
internal_weight=0 12001 1670 1188 902 177 725 704 40 286 10331 616 48 40 84 42 482 42 568 93 664 107 84 545 103 557 532 9715 40 10297
internal_count=22298 12001 1670 1188 902 177 725 704 40 286 10331 616 48 40 84 42 482 42 568 93 664 107 84 545 103 557 532 9715 40 10297
shrinkage=0.075


Tree=6
num_leaves=31
num_cat=0
split_feature=27 27 30 30 27 26 11 14 30 21 27 21 17 27 22 30 6 1 25 27 21 27 18 30 15 5 21 16 9 30
split_gain=9.50161 113.176 50.112 49.6591 14.2365 5.02487 4.73215 4.15102 2.73927 4.72102 1.45043 1.95586 1.10233 1.088 3.06342 1.69064 0.938325 0.819083 0.766742 0.555259 1.71178 0.391752 0.472084 1.13531 0.37131 0.275477 0.257361 0.243044 0.210652 0.129616
threshold=-0.19251849999999998 0.075470000000000051 -1.2398499999999995 0.83610000000000018 -0.079140000000000085 0.0010045400000000002 0.00021230150000000001 -13.282899999999998 -0.54040499999999969 0.051869950000000005 -0.04055499999999989 0.055250750000000008 -0.059528149999999995 0.25180000000000019 -0.043520549999999998 -2.5072499999999995 1.3064350000000001e-05 -13.198599999999997 -0.031563349999999997 0.027610000000000138 0.03814420000000001 0.10019100000000004 0.00035394450000000003 -1.9130800000000001 0.61977900000000008 -5.498994999999999e-05 1.3242550000000002 0.45095800000000003 -4.2045149999999987e-06 0.49338500000000002
decision_type=2 2 2 2 2 2 2 2 2 2 2 2 2 2 2 2 2 2 2 2 2 2 2 2 2 2 2 2 2 2
left_child=-1 2 17 4 5 25 8 -5 9 -6 11 -10 -9 14 15 -3 -11 -2 -16 28 -21 22 -20 -24 -14 -4 -23 -27 -12 -30
right_child=1 13 3 7 6 -7 -8 12 10 16 19 -13 24 -15 18 -17 -18 -19 21 20 -22 26 23 -25 -26 27 -28 -29 29 -31
leaf_value=-0.0016713992051358383 0.014012215314432979 0.0031019218638539316 -0.0083226552279666074 0.033950865802101111 -0.0035299513628706336 0.040258086828345606 0.0082965014912188047 0.016752333553241832 0.013898371058431537 0.049096972743670142 0.037361395784786769 0.04243628609393324 -0.00184165912487515 -0.0016880341533406595 0.012867104943841695 0.031652369932271537 0.027663633171468971 -0.0014906758675351738 -0.0025745887745870278 0.020276111601428552 0.045232841128913258 -0.0017585426934414246 -0.0028389573351226072 0.020992446585517861 0.008769169813022018 -0.0022640181962272216 0.0069379374571144573 0.0084829928074032068 0.045249796646433353 0.039095684364438062
leaf_weight=10297 20 20 20 22 20 22 25 21 22 27 21 35 256 9715 25 28 20 462 32 22 52 446 22 23 20 29 20 20 514 20
leaf_count=10297 20 20 20 22 20 22 25 21 22 27 21 35 256 9715 25 28 20 462 32 22 52 446 22 23 20 29 20 20 514 20
internal_value=0 0.00143408 0.0195492 0.0278246 0.0371151 0.00904646 0.0403982 0.0025161 0.041464 0.0269894 0.0428777 0.0314217 0.000187602 -0.00149422 0.00156236 0.0197563 0.0399764 -0.000847402 2.48393e-05 0.0439159 0.0378133 -0.000566425 0.00438938 0.00934154 -0.00107276 -0.000905069 -0.0013853 0.00212252 0.0447295 0.0450193
internal_weight=0 12001 1670 1188 869 91 778 319 753 67 686 57 297 10331 616 48 47 482 568 629 74 543 77 45 276 69 466 49 555 534
internal_count=22298 12001 1670 1188 869 91 778 319 753 67 686 57 297 10331 616 48 47 482 568 629 74 543 77 45 276 69 466 49 555 534
shrinkage=0.075


Tree=7
num_leaves=31
num_cat=0
split_feature=27 27 30 30 27 26 11 14 30 21 27 21 17 27 25 23 10 27 21 15 30 15 20 30 5 22 18 27 11 9
split_gain=8.12981 96.836 42.8884 42.8709 12.1063 4.25569 4.08749 3.55172 1.97994 3.98542 1.1588 1.76971 0.943184 0.942529 2.50405 0.768269 0.681105 0.486399 1.46464 0.485816 0.532034 0.317702 0.286561 0.517032 0.240076 0.222178 0.211435 0.632149 1.16038 0.184616
threshold=-0.19251849999999998 0.075470000000000051 -1.198825 0.83610000000000018 -0.079140000000000085 0.0010045400000000002 0.00021230150000000001 -13.282899999999998 -0.46073500000000051 0.046840700000000006 -0.04055499999999989 0.055250750000000008 -0.059528149999999995 0.17470800000000006 -0.031563349999999997 0.13767800000000002 7.089190000000001e-07 0.027610000000000138 0.03814420000000001 -0.49633099999999991 -0.74189000000000005 0.61977900000000008 3.6459450000000009e-05 -4.4759149999999996 -5.498994999999999e-05 0.00015981250000000004 0.038882050000000008 0.62059100000000023 -1.6727099999999997e-06 -4.2045149999999987e-06
decision_type=2 2 2 2 2 2 2 2 2 2 2 2 2 2 2 2 2 2 2 2 2 2 2 2 2 2 2 2 2 2
left_child=-1 2 15 4 5 24 8 -5 9 -6 11 -10 -9 14 -3 22 -11 29 -19 20 -16 -14 -2 -24 -4 -26 -15 28 -28 -12
right_child=1 13 3 7 6 -7 -8 12 10 16 17 -13 21 26 19 -17 -18 18 -20 -21 -22 -23 23 -25 25 -27 27 -29 -30 -31
leaf_value=-0.0015460443006161118 -0.0019025025855452181 0.023950247659480995 -0.0076984560443088407 0.031404550779949532 -0.0017590195080265402 0.038561999872326849 0.0076742639578878877 0.015495908247040851 0.012855993058871138 0.030914276550439272 0.034559290962559837 0.040488667460158466 -0.0017035347062119399 -0.0015786204864122635 -0.00055201868293806909 0.01343832973923002 0.048454463258385656 0.018755403965372931 0.041840378610560523 -0.00053290649985256123 0.016540198480444294 0.0081114821042865513 -0.0016365861520171165 0.013479951079934835 -0.0024181618458694884 0.0078677068131842789 0.0221143860463053 -0.0011591649723413865 -0.00053176149992006168 0.041730156282150314
leaf_weight=10297 413 28 20 22 20 20 25 21 22 33 21 32 256 9668 20 21 20 22 52 283 21 20 35 20 27 21 20 256 35 527
leaf_count=10297 413 28 20 22 20 20 25 21 22 33 21 32 256 9668 20 21 20 22 52 283 21 20 35 20 27 21 20 256 35 527
internal_value=0 0.00132652 0.018083 0.025817 0.0345098 0.00815003 0.0375068 0.00232739 0.0385025 0.0267682 0.0397697 0.0292309 0.000173531 -0.00138216 0.0024321 -0.000595522 0.0375332 0.0406847 0.0349773 0.000572504 0.00820253 -0.000992302 -0.00122525 0.00386034 -0.000794671 0.00208191 -0.0015167 0.000408135 0.0077032 0.0414554
internal_weight=0 12001 1670 1181 862 88 774 319 749 73 676 54 297 10331 352 489 53 622 74 324 41 276 468 55 68 48 9979 311 55 548
internal_count=22298 12001 1670 1181 862 88 774 319 749 73 676 54 297 10331 352 489 53 622 74 324 41 276 468 55 68 48 9979 311 55 548
shrinkage=0.075


Tree=8
num_leaves=31
num_cat=0
split_feature=27 27 30 31 27 21 2 30 21 21 6 7 27 22 30 1 1 0 6 3 30 5 17 27 8 8 19 9 27 30
split_gain=6.95642 87.5038 35.2634 35.0455 9.99993 5.00877 3.27355 2.44149 1.75786 1.46043 1.24789 1.26891 0.813773 2.41877 1.39134 0.755277 0.662352 0.551824 1.19605 0.300109 0.287839 0.269723 0.267219 0.899872 0.241716 0.219814 0.194846 0.304502 0.315981 0.190253
threshold=-0.16857014999999984 0.075470000000000051 -1.2398499999999995 -1.1308450000000001 -0.04055499999999989 0.050858250000000008 0.83958750000000015 -0.66839999999999955 0.10279050000000002 0.66668700000000014 5.2036650000000006e-05 0.00050497100000000011 0.25180000000000019 -0.043520549999999998 -2.5072499999999995 -12.846149999999998 -17.076899999999998 7.9890250000000007 1.8093800000000003e-05 1.4313700000000003e-05 1.5039749999999998 4.3149550000000008e-05 -0.17627099999999998 -0.2956995 -1.1665099999999999e-07 -5.4114799999999992e-06 0.10691300000000002 -2.7334849999999995e-06 0.042715000000000176 -2.0937499999999996
decision_type=2 2 2 2 2 2 2 2 2 2 2 2 2 2 2 2 2 2 2 2 2 2 2 2 2 2 2 2 2 2
left_child=22 2 15 9 5 19 7 8 -6 20 11 -7 13 14 -3 -2 -15 26 21 -5 -4 -19 23 25 -13 -1 27 -9 -29 -18
right_child=1 12 3 4 6 10 -8 17 -10 -11 -12 24 -14 16 -16 -17 29 18 -20 -21 -22 -23 -24 -25 -26 -27 -28 28 -30 -31
leaf_value=0.0047512697944925584 0.013656480959616602 0.002423194111324847 0.0072984525281935934 0.0063425568955218685 0.0026208862429484723 0.017225171312351118 0.0062872886125530519 0.028702210374176501 0.03406602144241333 0.016258809156715869 0.010546924620866776 0.033196026189252735 -0.0014461104010341556 0.012465874790011541 0.028323445349399529 -0.0012669394673333111 -0.0022305473647165025 0.029719233075561728 0.017337463188754475 -0.0035469959552089374 -0.0021063666169842082 0.039250068436758441 -0.0014741396589773353 0.013018916418114977 0.044360032491385933 -0.0020057121017294016 0.041567497352759039 0.038697769165110703 0.030727887824177742 0.00062554730231372208
leaf_weight=33 20 20 20 28 20 22 21 20 20 30 20 20 9715 23 28 413 220 23 23 45 216 61 10170 31 24 151 90 416 30 325
leaf_count=33 20 20 20 28 20 22 21 20 20 30 20 20 9715 23 28 413 220 23 23 45 216 61 10170 31 24 151 90 416 30 325
internal_value=0 0.00123684 0.0176629 0.0245368 0.0317259 0.0146945 0.0354662 0.0363379 0.0183435 0.000672023 0.0269588 0.031932 -0.0012785 0.00136496 0.0175317 -0.000577636 -1.23667e-06 0.0374235 0.0324912 0.000246257 -0.00130935 0.0366404 -0.00141882 0.00119775 0.0392855 -0.000793862 0.0383727 0.0377557 0.0381617 -0.000527372
internal_weight=0 11913 1582 1149 883 159 724 703 40 266 86 66 10331 616 48 433 568 663 107 73 236 84 10385 215 44 184 556 466 446 545
internal_count=22298 11913 1582 1149 883 159 724 703 40 266 86 66 10331 616 48 433 568 663 107 73 236 84 10385 215 44 184 556 466 446 545
shrinkage=0.075


Tree=9
num_leaves=31
num_cat=0
split_feature=27 27 27 30 30 26 30 6 30 20 7 2 15 2 27 25 10 24 27 16 0 6 1 30 27 18 30 30 18 0
split_gain=5.96076 58.4754 37.6311 25.3634 19.845 2.90571 3.66046 3.88461 3.50981 1.9149 1.90761 1.7209 0.956818 1.07251 0.718055 2.00906 0.633856 0.414688 0.407297 0.909517 0.402854 0.438389 0.40025 0.352477 0.264201 0.369581 0.868884 0.226791 0.21487 0.200219
threshold=-0.2956995 0.075470000000000051 -0.04055499999999989 -0.74189000000000005 1.3699500000000009 0.00010181550000000001 -1.5437499999999995 7.9557050000000014e-05 2.6225900000000002 3.8880500000000008e-05 0.00027673950000000003 0.71853250000000013 -0.47843099999999994 0.19628050000000002 0.17470800000000006 -0.031563349999999997 -1.9979499999999996e-06 1.5926050000000004e-06 -0.079140000000000085 0.38759400000000005 7.9890250000000007 1.8093800000000003e-05 -10.433649999999998 -0.16246499999999961 0.10019100000000004 0.00035394450000000003 -1.9130800000000001 -1.198825 0.0028365400000000007 -10.654349999999999
decision_type=2 2 2 2 2 2 2 2 2 2 2 2 2 2 2 2 2 2 2 2 2 2 2 2 2 2 2 2 2 2
left_child=-1 2 5 9 11 18 22 8 10 27 -8 16 -12 -14 15 -3 -5 24 -2 -20 -18 23 -7 -22 25 -17 -27 -4 -6 -26
right_child=1 14 3 4 28 6 7 -9 -10 -11 12 -13 13 -15 -16 17 20 -19 19 -21 21 -23 -24 -25 29 26 -28 -29 -30 -31
leaf_value=-0.0013666675243032237 -0.0016045384246079588 0.021420967246272734 -0.0018099094726494512 0.021294925287365915 -0.0013678285050327363 0.0094246518332511183 0.0081848698269043653 -0.0054889359700216632 -0.0036047420930117365 0.01958479817057478 0.045404252461874142 0.012121549076400695 0.016074854403268547 0.037346059172414243 -0.0013000437331726839 -0.0023348909351625477 0.035671445364030177 0.010672956572047301 -0.0014500676195465904 0.013573494895963984 0.02475540456785397 0.020617241654545069 -0.0017002845258342429 0.03576000957400538 0.0056972708506509654 -0.0022349349023508174 0.019607923217117785 0.0057843172922730441 0.0066007165238261226 -0.0021560473666925517
leaf_weight=9945 547 28 192 20 92 21 21 37 24 29 26 20 24 30 9979 32 546 21 68 34 22 20 136 64 20 21 20 25 24 210
leaf_count=9945 547 28 192 20 92 21 21 37 24 29 26 20 24 30 9979 32 546 21 68 34 22 20 136 64 20 21 20 25 24 210
internal_value=0 0.00110026 0.0127641 0.0225694 0.028989 0.00208766 0.00794873 0.0158578 0.0221765 0.001484 0.0283027 0.0338014 0.0335836 0.0278922 -0.00118261 0.0021466 0.0344466 0.000480913 -0.000793202 0.00355779 0.03485 0.0306189 -0.000212236 0.0329449 -0.000225466 0.00370559 0.00842012 -0.000934999 0.000280836 -0.00147315
internal_weight=0 12353 2022 1054 808 968 319 162 125 246 101 692 80 54 10331 352 672 324 649 102 652 106 157 86 303 73 41 217 116 230
internal_count=22298 12353 2022 1054 808 968 319 162 125 246 101 692 80 54 10331 352 672 324 649 102 652 106 157 86 303 73 41 217 116 230
shrinkage=0.075


Tree=10
num_leaves=31
num_cat=0
split_feature=30 31 27 27 2 27 2 14 30 21 27 27 1 27 16 12 15 31 21 27 27 14 16 1 15 6 18 22 27 23
split_gain=5.12345 20.5414 18.1512 70.4533 4.89973 3.1896 1.88363 1.54961 1.53755 3.20442 1.1836 5.61417 0.842003 0.776954 2.21139 0.510583 0.509804 0.442653 1.33718 1.20637 6.91268 0.408691 0.320481 0.270978 0.571568 0.181527 0.36947 0.17673 0.477959 0.175872
threshold=-0.95834499999999945 -0.30494999999999978 -0.19251849999999998 0.10019100000000004 1.9419150000000001 -0.10000499999999989 -0.69171299999999991 -14.293449999999998 -0.34990999999999989 0.039383950000000008 0.27611750000000007 -0.12087000000000013 -17.076899999999998 0.27611750000000007 1.9655500000000001 5.6448650000000011e-10 0.22087750000000003 -1.1308450000000001 0.087173900000000012 -0.079140000000000085 0.075470000000000051 -10.692349999999998 24.360500000000005 -14.552149999999997 0.34416200000000002 3.938210000000001e-05 0.00041682450000000005 -0.028945449999999994 -0.98461249999999978 -0.0069765499999999989
decision_type=2 2 2 2 2 2 2 2 2 2 2 2 2 2 2 2 2 2 2 2 2 2 2 2 2 2 2 2 2 2
left_child=12 7 27 4 5 -4 -7 10 9 -8 11 -2 -1 14 -5 -10 -11 -9 -19 22 21 -21 -20 24 -14 -17 -27 28 -3 -22
right_child=1 2 3 13 -6 6 8 17 15 16 -12 -13 23 -15 -16 25 -18 18 19 20 29 -23 -24 -25 -26 26 -28 -29 -30 -31
leaf_value=0.013186875520193058 -0.0003873319064467391 -0.0014027095196070148 0.0080896287380407255 -0.00083447768802529779 -0.0077765424025710676 0.0088713306601026221 -0.00019295511581003666 -0.0012493290996653404 0.022885978508454103 0.03500971092897303 -0.0012989096003226362 0.035696196779608724 -9.0256078040291526e-05 -0.0011669090682906763 0.028086481578648091 0.034061872764676808 0.020881337542086841 -0.0011193412417167853 -0.0020324093083916015 0.039268833398818974 0.0050694287022841822 0.025123569862917063 0.0070949821070266459 -0.0012250265540762288 0.011794593361102872 0.021460428123828024 0.034909833388196095 -0.0012846812207359247 0.012397177687380462 -0.0016203556768596172
leaf_weight=23 79 48 36 58 20 21 25 6647 26 51 78 35 145 1092 20 500 20 1010 129 27 28 20 26 10843 27 20 27 1092 20 105
leaf_count=23 79 48 36 58 20 21 25 6647 26 51 78 35 145 1092 20 500 20 1010 129 27 28 20 26 10843 27 20 27 1092 20 105
internal_value=0 0.0011256 0.00635073 0.0108336 0.0288446 0.0298534 0.0309889 -0.000838288 0.0316832 0.0228989 0.00582007 0.0106909 -0.00114824 -0.000650372 0.00658115 0.0331549 0.0310299 -0.000998248 0.000242595 0.00434873 0.0085252 0.0332496 -0.000501363 -0.00117817 0.00177539 0.033643 0.0291867 -0.00105367 0.00265608 -0.00021198
internal_weight=0 11260 3076 1916 746 726 690 8184 669 96 192 114 11038 1170 78 573 71 7992 1345 335 180 47 155 11015 172 547 47 1160 68 133
internal_count=22298 11260 3076 1916 746 726 690 8184 669 96 192 114 11038 1170 78 573 71 7992 1345 335 180 47 155 11015 172 547 47 1160 68 133
shrinkage=0.075


Tree=11
num_leaves=31
num_cat=0
split_feature=27 27 28 30 30 26 30 30 9 9 6 9 30 21 6 12 27 22 8 1 1 15 11 0 6 27 18 10 18 15
split_gain=4.41861 43.1834 27.7897 18.665 13.9322 2.23847 2.76435 3.22243 2.18506 1.324 1.01366 0.911293 0.85425 2.39179 0.661914 0.557608 0.550972 1.88849 1.45165 0.516758 0.493749 0.456151 0.446563 0.300108 0.634822 0.28234 0.725263 0.273845 0.206466 0.187688
threshold=-0.2956995 0.075470000000000051 0.041125499999999933 -1.3849050000000001 1.7335450000000006 0.00010181550000000001 -1.3482449999999997 0.54256000000000049 -3.7338049999999997e-05 2.0333250000000004e-05 5.5126000000000007e-05 1.4193900000000001e-07 -0.41763500000000015 0.051869950000000005 1.5405100000000003e-05 0.00030911800000000004 0.25180000000000019 -0.028945449999999994 -4.8222499999999994e-08 -11.782849999999998 -17.076899999999998 0.40930100000000008 2.0811650000000003e-05 7.9890250000000007 1.8093800000000003e-05 -0.079140000000000085 0.00042982050000000004 9.5131200000000018e-06 0.0082347650000000015 -0.102337
decision_type=2 2 2 2 2 2 2 2 2 2 2 2 2 2 2 2 2 2 2 2 2 2 2 2 2 2 2 2 2 2
left_child=-1 2 3 28 8 25 19 10 -5 12 11 -8 13 -10 -15 -9 17 18 -3 -7 -19 22 23 -14 29 -4 -27 -17 -2 -25
right_child=1 16 5 4 -6 6 7 15 9 -11 -12 -13 21 14 -16 27 -18 20 -20 -21 -22 -23 -24 24 -26 26 -28 -29 -30 -31
leaf_value=-0.0011766713218297107 -0.0015447577792792556 0.023316624609287826 -0.0014241547928293024 0.0035780428117141126 -0.0005818389246070926 0.011356406395789236 0.019639143202453854 0.011854570050691736 -0.00052198697347193956 0.0096846699714660638 0.01062292852322571 0.03888483468082643 0.030921565361651936 0.036686778394505383 0.019293804718181491 -0.006352155909149183 -0.0011524111372564895 0.010581764271077902 -0.0011370090894739736 -0.0015202479602598492 -0.00064076638227833493 0.041012671057667052 0.018748645707964896 0.023754510283470153 0.014821477819766315 -0.0012393985101034942 0.012669087946414947 0.0046584448369685564 0.0062983292953244273 0.031780960430440146
leaf_weight=9945 187 36 547 20 110 20 25 29 20 20 20 31 484 32 20 27 9715 23 22 142 535 21 20 23 21 71 30 24 21 57
leaf_count=9945 187 36 547 20 110 20 25 29 20 20 20 31 484 32 20 27 9715 23 22 142 535 21 20 23 21 71 30 24 21 57
internal_value=0 0.0009473 0.0109707 0.0193802 0.0243185 0.0017777 0.00693144 0.0140573 0.0280299 0.028711 0.0251167 0.030293 0.0292562 0.0215196 0.0299972 0.00355096 -0.00101449 0.00116064 0.0140411 6.94625e-05 -0.000178189 0.030146 0.0297688 0.0301456 0.0264269 -0.000751446 0.00289184 -0.0011707 -0.000752908 0.0294734
internal_weight=0 12353 2022 1056 848 966 318 156 738 718 76 56 698 72 52 80 10331 616 58 162 558 626 605 585 101 648 101 51 208 80
internal_count=22298 12353 2022 1056 848 966 318 156 738 718 76 56 698 72 52 80 10331 616 58 162 558 626 605 585 101 648 101 51 208 80
shrinkage=0.075


Tree=12
num_leaves=31
num_cat=0
split_feature=30 31 27 27 2 2 27 14 17 27 27 12 30 7 1 30 12 30 21 27 27 11 17 27 30 27 17 17 30 27
split_gain=3.78548 13.2634 13.1988 54.9233 4.56629 4.05556 1.96643 1.2146 0.929539 0.922467 4.34681 0.774612 1.58685 3.20236 0.647866 0.505184 0.373786 0.326178 0.74573 0.734492 1.56434 0.782418 0.249067 0.244973 0.239396 0.193333 0.528657 0.128565 0.409571 0.931788
threshold=-1.198825 -0.30494999999999978 -0.19251849999999998 0.12542999999999996 1.9419150000000001 -1.1568099999999999 -0.10000499999999989 -14.293449999999998 0.25552050000000004 0.27611750000000007 -0.12087000000000013 0.0011483100000000003 -0.34990999999999989 0.00022533650000000001 -16.800649999999994 -0.66839999999999955 5.6448650000000011e-10 0.59956000000000043 0.078926450000000009 -0.53096500000000002 0.27611750000000007 3.9983350000000004e-07 -0.22830349999999996 0.042715000000000176 -0.46073500000000051 0.25180000000000019 -0.0053230799999999991 -0.070602499999999985 2.2414350000000005 0.3752950000000001
decision_type=2 2 2 2 2 2 2 2 2 2 2 2 2 2 2 2 2 2 2 2 2 2 2 2 2 2 2 2 2 2
left_child=14 7 22 4 5 -4 -7 9 25 10 -2 12 13 -8 -1 -15 -14 18 -9 -20 21 -21 -3 -18 -13 26 -5 28 29 -19
right_child=1 2 3 8 -6 6 11 17 -10 -11 -12 24 16 15 -16 -17 23 27 19 20 -22 -23 -24 -25 -26 -27 -28 -29 -30 -31
leaf_value=0.0091603630408644676 -0.00027811594154167026 0.0069750085600059145 -0.0063334965559823271 0.013175901949871331 -0.0071856872406788168 0.007863088054657583 -0.0058262172192335123 -0.00080019592281992309 0.012894364710830684 -0.001115060519749442 0.031472433379718237 0.040463447906076901 0.019034955478631533 0.017967258327929624 -0.0010605159068365869 0.030968402044381945 0.028688548604675037 0.010398666984734259 -0.0011850006024663646 0.03128169446485117 0.00040780982933938506 0.010302890881430358 -0.0010695620668141285 0.021332469396293161 0.031353658524363538 -0.0011032644412206376 -0.0020322319896270832 -0.0010739704800066198 -0.0013613746108868245 -0.0011387776417125547
leaf_weight=35 79 22 22 20 25 31 25 365 28 78 35 20 26 29 10563 40 448 63 54 20 45 20 1356 27 86 1275 36 6990 330 105
leaf_count=35 79 22 22 20 25 31 25 365 28 78 35 20 26 29 10563 40 448 63 54 20 45 20 1356 27 86 1275 36 6990 330 105
internal_value=0 0.000930053 0.00478265 0.00847179 0.0243491 0.0253947 0.0263483 -0.000725097 -0.000629332 0.00516974 0.00946986 0.0271657 0.0261134 0.0171716 -0.00102676 0.0255042 0.0277911 -0.000866714 0.000980122 0.00565506 0.0100005 0.0207923 -0.000941129 0.0282704 0.0330725 -0.000913828 0.00339924 -0.000991021 0.000173275 0.00318776
internal_weight=0 11700 3516 2138 779 754 732 8184 1359 192 114 701 595 94 10598 69 501 7992 504 139 85 40 1378 475 106 1331 56 7488 498 168
internal_count=22298 11700 3516 2138 779 754 732 8184 1359 192 114 701 595 94 10598 69 501 7992 504 139 85 40 1378 475 106 1331 56 7488 498 168
shrinkage=0.075


Tree=13
num_leaves=31
num_cat=0
split_feature=27 27 28 31 31 16 31 31 20 1 6 14 15 11 27 26 31 27 22 31 23 0 6 7 5 9 25 21 27 1
split_gain=3.28859 31.915 20.4925 13.8166 10.8518 1.79178 1.59764 2.39379 1.41105 0.940411 0.84021 0.661847 0.531729 1.51491 0.531318 0.936049 1.34794 0.419129 1.57666 1.01113 0.425836 0.390039 0.53909 0.245647 0.242769 0.210767 0.162193 0.15883 0.444657 0.156455
threshold=-0.2956995 0.075470000000000051 0.041125499999999933 0.74337000000000064 -1.5797949999999992 2.0237400000000005 1.5922799999999999 -0.5421900000000005 3.8880500000000008e-05 -8.7918799999999973 9.7944350000000007e-05 -9.901234999999998 0.40930100000000008 2.7889600000000001e-05 -0.079140000000000085 1.8053650000000003e-05 1.3507100000000001 0.25180000000000019 -0.043520549999999998 3.1885200000000009 -0.044125399999999995 7.9890250000000007 1.8093800000000003e-05 0.0048049900000000012 4.3149550000000008e-05 1.5118500000000002e-06 0.0073139350000000014 0.27838100000000005 0.042715000000000176 -6.2342049999999993
decision_type=2 2 2 2 2 2 2 2 2 2 2 2 2 2 2 2 2 2 2 2 2 2 2 2 2 2 2 2 2 2
left_child=-1 2 3 4 -2 14 7 11 -5 -9 12 -7 13 21 26 -16 -17 18 19 -3 -20 27 24 -8 -23 -13 -4 28 29 -6
right_child=1 17 5 8 10 6 23 9 -10 -11 -12 25 -14 -15 15 16 -18 -19 20 -21 -22 22 -24 -25 -26 -27 -28 -29 -30 -31
leaf_value=-0.001015119835155627 -0.00050085889429531312 0.023280210034655673 -0.0014358537959748422 -0.00093774016446715913 0.026973932251848024 0.014334510175311671 -0.0016165819406195219 0.032555284221927001 0.016672018250643177 0.014226459385827183 0.010066947866497295 -0.0055076217104215175 0.036263523995876311 0.0059902776599578241 -0.0013532906839571577 0.022167271948419512 -0.0026076180361477392 -0.00098957156646724471 0.008621200416237115 0.0012005508597940208 -0.00056011716724411488 0.017758170631714164 0.011006279746917159 0.0076427895342931146 0.026642108489308626 0.0044320534524740652 0.0054322585486806926 0.031469903750853102 0.016138841083738954 0.021459216047679225
leaf_weight=9945 110 28 587 218 435 21 83 31 29 32 21 30 24 23 71 30 21 9715 30 20 538 24 22 20 62 20 20 33 24 31
leaf_count=9945 110 28 587 218 435 21 83 31 29 32 21 30 24 23 71 30 21 9715 30 20 538 24 22 20 62 20 20 33 24 31
internal_value=0 0.00081724 0.00943418 0.0166556 0.0213959 0.00153991 0.00720497 0.0126037 0.0011298 0.0232454 0.0248418 0.00316109 0.0252994 0.024897 -0.00030182 0.00421455 0.0119658 -0.000869281 0.00102784 0.0140804 -7.51884e-05 0.0255862 0.0214828 0.000181354 0.0241629 -0.00153175 -0.00120956 0.0264335 0.0260943 0.0266071
internal_weight=0 12353 2022 1056 809 966 237 134 247 63 699 71 678 654 729 122 51 10331 616 48 568 631 108 103 86 50 607 523 490 466
internal_count=22298 12353 2022 1056 809 966 237 134 247 63 699 71 678 654 729 122 51 10331 616 48 568 631 108 103 86 50 607 523 490 466
shrinkage=0.075


Tree=14
num_leaves=31
num_cat=0
split_feature=27 27 28 30 30 16 10 30 12 9 2 14 14 4 30 27 18 30 27 18 27 25 30 7 15 4 18 14 16 27
split_gain=2.8138 27.3072 17.5339 11.9322 8.82546 1.53309 1.52794 1.36698 2.0656 2.05721 1.19805 0.989393 0.642726 0.499928 1.17424 0.454609 0.807643 0.826346 0.397638 1.54442 0.371351 1.29623 0.337769 0.306305 0.774193 0.226708 0.215537 0.164565 0.155355 0.725523
threshold=-0.2956995 0.075470000000000051 0.041125499999999933 -1.3849050000000001 1.7335450000000006 2.0237400000000005 -3.0449249999999995e-06 -1.5437499999999995 0.00030911800000000004 5.3235000000000008e-07 0.83958750000000015 -8.5443749999999987 -9.4607749999999982 -1.4359349999999998e-05 -0.70261499999999966 -0.079140000000000085 0.00051905450000000008 -0.38343999999999973 0.027610000000000138 0.00055272100000000005 0.17470800000000006 -0.031563349999999997 0.34575499999999965 0.0079674900000000024 -0.49633099999999991 3.8274950000000005e-05 0.0022654500000000004 -17.204649999999997 29.822400000000005 0.27611750000000007
decision_type=2 2 2 2 2 2 2 2 2 2 2 2 2 2 2 2 2 2 2 2 2 2 2 2 2 2 2 2 2 2
left_child=-1 2 3 27 6 15 -5 25 9 11 13 -9 -10 26 -15 -4 -17 -18 22 -20 21 -3 -16 24 -23 -7 -8 -2 -22 -30
right_child=1 20 5 4 -6 7 10 8 12 -11 -12 -13 -14 14 18 16 17 -19 19 -21 28 23 -24 -25 -26 -27 -28 -29 29 -31
leaf_value=-0.00093898586499003265 0.005604226388303297 0.01707197782982673 -0.0011188400708095024 0.0023682878685316864 -0.00046329449862241744 -0.0015594858838896078 0.025441636463856315 0.022230308772996067 0.011199684181649771 0.03753396440655566 0.0052432724673833163 -0.0013606545125367118 -0.0036159252731886222 0.0059002470225095749 0.024449037281677664 -0.0008490271952101275 0.001242889042689719 0.021366415184456852 0.0029154331348836423 0.026917697415736162 -0.00094701163880453324 0.014419467569678089 0.016166847962886095 -0.0035539607252476025 0.00021042817232894224 0.0073357924469746646 0.03219388302776121 -0.0013979168555246079 0.014507630554726347 -0.00017397045590718027
leaf_weight=9945 21 28 607 21 110 83 187 20 28 26 21 20 40 24 361 76 22 24 25 38 9604 24 30 87 213 20 31 187 20 355
leaf_count=9945 21 28 607 21 110 83 187 20 28 26 21 20 40 24 361 76 22 24 25 38 9604 24 30 87 213 20 31 187 20 355
internal_value=0 0.000755947 0.00872661 0.0154065 0.0193549 0.00142441 0.0223088 0.00666459 0.0116584 0.0211102 0.0228929 0.0104348 0.00248462 0.0234254 0.0220679 -0.000279183 0.00389845 0.0117421 0.0229226 0.017393 -0.000804085 0.00159008 0.0238136 0.000252141 0.00164932 0.000167753 0.0264018 -0.00069097 -0.000888537 0.000609048
internal_weight=0 12353 2022 1056 848 966 738 237 134 66 717 40 68 696 478 729 122 46 454 63 10331 352 391 324 237 103 218 208 9979 375
internal_count=22298 12353 2022 1056 848 966 738 237 134 66 717 40 68 696 478 729 122 46 454 63 10331 352 391 324 237 103 218 208 9979 375
shrinkage=0.075


Tree=15
num_leaves=31
num_cat=0
split_feature=28 27 30 30 2 2 14 27 30 26 30 14 30 30 26 14 24 2 0 4 17 27 20 3 26 17 6 20 11 27
split_gain=2.4159 36.5998 10.2815 9.17211 3.58703 2.08948 1.65983 0.720221 0.921188 1.87648 1.38911 0.624399 2.38943 0.845511 0.567127 0.491521 0.338077 0.366328 0.229505 0.271569 0.204163 0.610949 0.2361 0.196194 0.182166 0.169083 0.313974 0.160733 0.693278 1.39973
threshold=0.10023800000000001 0.055811000000000097 -1.3849050000000001 0.83610000000000018 2.0566300000000006 -0.87358199999999997 -10.637649999999999 0.10019100000000004 -0.74189000000000005 8.102300000000002e-06 0.22790999999999964 -8.3693049999999989 -0.34990999999999989 0.3063650000000005 0.00070375750000000001 -18.671999999999993 4.4179850000000008e-08 0.043829750000000008 -3.8201649999999998 -3.7499099999999995e-05 0.10502200000000002 0.27611750000000007 0.0017206650000000003 1.107055e-05 1.3927650000000002e-05 0.0041630650000000005 1.9598250000000005e-05 -0.00014359249999999998 5.0514900000000007e-05 -0.6448704999999999
decision_type=2 2 2 2 2 2 2 2 2 2 2 2 2 2 2 2 2 2 2 2 2 2 2 2 2 2 2 2 2 2
left_child=1 2 15 4 5 -4 -5 8 23 -10 -11 14 -13 16 18 -1 -14 -18 19 -7 -9 -22 -23 -3 25 -20 -27 28 -2 -30
right_child=27 7 3 6 -6 11 -8 20 9 10 -12 12 13 -15 -16 -17 17 -19 24 -21 21 22 -24 -25 -26 26 -28 -29 29 -31
leaf_value=0.010087456561260573 -0.00088499803902008199 0.0049394850153475995 -0.00083198604406788937 0.016886545495157512 -0.010475833469120387 0.012909271870739758 -0.0013706157813705329 -0.00083550642979131383 -0.0040100622359508032 0.032613210295411671 0.0082832128613848574 -0.0002202448718890082 0.023457299606982344 0.0064157643495127556 0.031903810799121857 -0.0014027234029550201 0.0088168811425566665 0.022695665514987445 0.024381539460859802 0.02180191907241489 0.010213080366972733 -0.00094570754318619541 0.0074003668834588358 -0.0035551013192161914 0.02632979673023025 0.023722609579563143 0.011765596470130341 -0.00086549855555544759 -0.00097908143419772392 0.02316304787739434
leaf_weight=23 234 20 24 34 21 24 159 9978 36 22 33 32 242 20 42 234 20 23 76 99 37 207 21 65 108 30 21 10356 35 22
leaf_count=23 234 20 24 34 21 24 159 9978 36 22 33 32 242 20 42 234 20 23 76 99 37 207 21 65 108 30 21 10356 35 22
internal_value=0 0.000746277 0.0129707 0.0164883 0.0201021 0.0209459 0.00184567 -0.000699201 0.00405786 0.00930192 0.0180152 0.0216551 0.0192768 0.0213224 0.0236589 -0.000374419 0.0223684 0.0162404 0.0226916 0.0200668 -0.000780938 0.0012737 -0.00017699 -0.00155638 0.0240654 0.0221398 0.0187991 -0.00081665 0.000921751 0.00833893
internal_weight=0 11651 1232 975 782 761 193 10419 176 91 55 737 337 305 400 257 285 43 358 123 10243 265 228 85 235 127 51 10647 291 57
internal_count=22298 11651 1232 975 782 761 193 10419 176 91 55 737 337 305 400 257 285 43 358 123 10243 265 228 85 235 127 51 10647 291 57
shrinkage=0.075


Tree=16
num_leaves=31
num_cat=0
split_feature=30 31 27 27 2 2 27 14 17 14 30 11 15 7 27 27 1 26 15 20 5 16 30 27 14 30 27 27 0 27
split_gain=2.0848 7.39528 7.25881 29.7971 2.7513 2.55697 1.01167 0.768076 0.726662 0.694886 1.0957 1.90674 1.21193 0.601185 0.95355 3.09448 0.489278 0.780221 0.410207 0.404153 0.41019 0.268609 0.220914 0.210467 0.201393 0.454045 0.683186 2.20446 0.26843 0.189117
threshold=-1.198825 -0.30494999999999978 -0.19251849999999998 0.12542999999999996 1.9419150000000001 -1.1568099999999999 -0.10000499999999989 -14.293449999999998 0.25552050000000004 -13.773999999999999 -0.34990999999999989 -1.3109199999999999e-06 0.17710500000000004 0.029933350000000001 -0.47923500000000002 0.27611750000000007 -15.973449999999998 0.013302200000000002 -0.29932749999999991 -1.1149199999999998e-05 0.00011799400000000001 0.38759400000000005 -0.13048499999999971 0.017084500000000061 -10.620899999999997 0.89815000000000034 -0.079140000000000085 0.075470000000000051 -5.6457849999999992 0.027610000000000138
decision_type=2 2 2 2 2 2 2 2 2 2 2 2 2 2 2 2 2 2 2 2 2 2 2 2 2 2 2 2 2 2
left_child=16 7 -3 4 5 -4 -7 13 -5 -8 11 18 -13 14 -2 -16 17 -1 -11 22 21 23 -12 -21 25 26 -9 -28 -27 -23
right_child=1 2 3 8 -6 6 9 24 -10 10 19 12 -14 -15 15 -17 -18 -19 -20 20 -22 29 -24 -25 -26 28 27 -29 -30 -31
leaf_value=0.00059391861904482801 -0.0012725264025742517 -0.00067774705596927807 -0.0063841653448021554 -0.00065226124116421794 -0.0064806710444390769 0.0063074386130357457 0.026826050934883265 -0.001168639694669229 0.011556433566979 0.030292496406896546 0.021822239700704814 -0.01106726175032394 0.013025072822347283 -0.0023982127592067368 0.027998662779007005 -0.0008644384099170566 -0.00080441602759921563 0.017979073876049367 0.015451564891263841 0.021057717777040325 0.012235458137897346 0.023088882132610188 0.012440317834261805 0.013810308560729026 -0.00080426190711705597 0.0074173649860313157 0.023067999532712356 -0.00054488377874625511 -0.00062707516529038982 0.029776556231081483
leaf_weight=53 51 1378 22 1331 25 31 78 85 28 22 20 23 24 56 37 48 10525 20 20 229 26 158 48 25 6948 24 35 61 839 28
leaf_count=53 51 1378 22 1331 25 31 78 85 28 22 20 23 24 56 37 48 10525 20 20 229 26 158 48 25 6948 24 35 61 839 28
internal_value=0 0.000690207 0.00356697 0.00630281 0.0179974 0.018809 0.0195662 -0.000545704 -0.000400721 0.0201525 0.019317 0.0116126 0.00123521 0.00414197 0.00683499 0.0116995 -0.000761976 0.00535697 0.0232254 0.0206011 0.0213892 0.0219301 0.0151997 0.0203444 -0.000658321 0.000312939 0.00372822 0.00806398 -0.00040336 0.0240956
internal_weight=0 11700 3516 2138 779 754 732 8184 1359 701 623 89 47 192 136 85 10598 73 42 534 466 440 68 254 7992 1044 181 96 863 186
internal_count=22298 11700 3516 2138 779 754 732 8184 1359 701 623 89 47 192 136 85 10598 73 42 534 466 440 68 254 7992 1044 181 96 863 186
shrinkage=0.075


Tree=17
num_leaves=31
num_cat=0
split_feature=27 27 28 30 30 16 10 30 30 7 12 2 21 27 30 2 25 30 30 20 27 15 7 15 4 27 22 21 11 6
split_gain=1.79108 17.257 11.0332 7.51593 5.60908 1.14224 1.02994 0.990341 1.63783 0.753021 1.13388 0.716742 0.404721 1.20378 0.693836 0.385036 0.340622 0.312971 0.296363 0.281147 0.256011 1.03343 0.262919 0.564113 0.181253 0.153908 0.463421 0.214301 0.151232 0.276943
threshold=-0.2956995 0.075470000000000051 0.041125499999999933 -1.3849050000000001 1.7335450000000006 2.0237400000000005 -3.0449249999999995e-06 -1.5437499999999995 0.54256000000000049 0.00046110750000000005 0.00014169400000000002 0.83958750000000015 0.09609860000000002 0.042715000000000176 -0.54040499999999969 0.23827250000000003 0.0073139350000000014 0.3063650000000005 0.74135500000000054 9.0694250000000017e-06 0.17470800000000006 0.70376650000000007 0.0079674900000000024 -0.49633099999999991 3.8274950000000005e-05 -0.079140000000000085 -0.0017273849999999999 0.050858250000000008 -1.0136849999999998e-05 -2.4115049999999995e-05
decision_type=2 2 2 2 2 2 2 2 2 2 2 2 2 2 2 2 2 2 2 2 2 2 2 2 2 2 2 2 2 2
left_child=-1 2 3 -2 6 16 -5 24 9 -9 -11 12 13 14 -8 19 25 -16 -14 -10 21 22 23 -3 -7 -4 -27 -28 -25 -30
right_child=1 20 5 4 -6 7 11 8 15 10 -12 -13 18 -15 17 -17 -18 -19 -20 -21 -22 -23 -24 28 -26 26 27 -29 29 -31
leaf_value=-0.00074915130128227114 -0.00053750314769926118 0.012507742067100478 -0.0011494545832738832 0.0013553725888154336 -0.00042747220151465043 -0.0014041140406246644 0.0056790626121927864 0.0071270931046456092 -0.0080019132437250257 0.037445702590048313 0.012771551397798413 0.0045549442459430012 0.020734825134277341 0.0012301393551751971 0.019431889784779954 0.0089545218598297126 0.0073692287926772427 0.010651335888542236 0.030517486520111558 0.0041566720308037469 -0.00070716302026399558 0.017484606882291181 -0.0032126643614650797 -0.0030493423232756966 0.0065495610446669158 0.011928177219150323 -0.0027776052491390144 0.0052969419200403186 0.0093572935565713455 0.00032250639706035141
leaf_weight=9945 208 24 587 21 110 83 23 21 23 20 22 21 135 24 470 28 31 24 20 20 9979 21 87 54 20 21 64 26 22 144
leaf_count=9945 208 24 587 21 110 83 23 21 23 20 22 21 135 24 470 28 31 24 20 20 9979 21 87 54 20 21 64 26 22 144
internal_value=0 0.000603117 0.00693946 0.0122383 0.0153719 0.00114698 0.0177269 0.00567014 0.0099207 0.0187231 0.0245211 0.0182064 0.0186183 0.0176502 0.0184125 0.00211009 -0.000323509 0.0190053 0.0219971 -0.00234676 -0.000637042 0.00135085 0.000327253 0.00158944 0.000140289 -0.000665164 0.00189591 -0.000444958 0.00039835 0.00151989
internal_weight=0 12353 2022 1056 848 966 738 237 134 63 42 717 696 541 517 71 729 494 155 43 10331 352 331 244 103 698 111 90 220 166
internal_count=22298 12353 2022 1056 848 966 738 237 134 63 42 717 696 541 517 71 729 494 155 43 10331 352 331 244 103 698 111 90 220 166
shrinkage=0.075


Tree=18
num_leaves=31
num_cat=0
split_feature=30 31 27 27 2 2 27 4 14 17 30 7 27 27 25 1 13 12 0 20 27 31 21 6 27 27 16 30 17 27
split_gain=1.54881 5.48432 5.36746 21.9041 2.12906 2.00287 0.777445 0.615846 0.603346 0.600588 0.54057 1.79049 0.45899 1.8856 0.433388 0.418114 0.374511 0.337231 0.24613 0.176163 0.188972 0.167393 0.561727 0.532635 0.782073 3.2292 0.28296 0.237733 0.157415 0.139491
threshold=-1.198825 -0.30494999999999978 -0.19251849999999998 0.12542999999999996 1.9419150000000001 -1.1568099999999999 -0.10000499999999989 -7.8269699999999987e-05 -15.441949999999999 0.25552050000000004 -0.34990999999999989 0.00022533650000000001 -0.12087000000000013 0.29687500000000006 -0.9832439999999999 -16.800649999999994 -0.77092849999999991 5.6448650000000011e-10 5.3822600000000014 6.6854550000000009e-06 0.027610000000000138 -1.1308450000000001 0.078926450000000009 7.597955000000001e-05 0.10019100000000004 -0.079140000000000085 22.912200000000002 0.68541000000000019 -0.22830349999999996 0.25180000000000019
decision_type=2 2 2 2 2 2 2 2 2 2 2 2 2 2 2 2 2 2 2 2 2 2 2 2 2 2 2 2 2 2
left_child=15 8 28 4 5 -4 -7 -8 12 29 11 -9 -2 -14 -10 -1 -13 -12 -18 20 -19 -16 -23 24 25 26 -24 -27 -3 -5
right_child=1 2 3 9 -6 6 7 10 14 -11 17 16 13 -15 21 -17 18 19 -20 -21 -22 22 23 -25 -26 27 -28 -29 -30 -31
leaf_value=0.0075270655006170273 -0.0019241860735097101 0.0057154804552820597 -0.006131441092425533 0.0031122163611663773 -0.0060812781534623356 0.0052126727983235347 0.027862986959517 -0.0051319324792040372 0.0095289167249575247 0.01054782673516976 0.0092913613915443418 0.011178307374939323 0.028242632523179052 -0.00062551191542297606 -0.00071901528541895988 -0.00068387930580417211 0.026024495392780879 0.018005855709260093 0.015209463802166283 0.021133076854442295 0.012022737695951946 -0.00072801199484505321 -0.0018258747769655977 -0.0016447502254458093 -0.00052804137470529352 0.01871457933898895 0.0081236451643053442 0.028908738019791515 -0.00067991100751848448 -0.00071227366658037198
leaf_weight=35 28 22 22 56 25 31 30 26 24 28 25 32 20 35 6704 10563 29 412 20 95 32 1005 82 111 102 31 20 22 1356 1275
leaf_count=35 28 22 22 56 25 31 30 26 24 28 25 32 20 35 6704 10563 29 412 20 95 32 1005 82 111 102 31 20 22 1356 1275
internal_value=0 0.000594903 0.00307226 0.00542482 0.0154516 0.0161656 0.0168357 0.0173497 -0.000469414 -0.000322683 0.0168796 0.0119923 0.00589256 0.009872 -0.000534597 -0.000656763 0.017489 0.0178069 0.0216102 0.0182018 0.0175746 -0.0005645 0.000189961 0.00269692 0.00457212 0.00792836 0.000125011 0.0229461 -0.000577808 -0.000551363
internal_weight=0 11700 3516 2138 779 754 732 701 8184 1359 671 107 83 55 8101 10598 81 564 49 539 444 8077 1373 368 257 155 102 53 1378 1331
internal_count=22298 11700 3516 2138 779 754 732 701 8184 1359 671 107 83 55 8101 10598 81 564 49 539 444 8077 1373 368 257 155 102 53 1378 1331
shrinkage=0.075


Tree=19
num_leaves=31
num_cat=0
split_feature=30 31 27 27 11 10 30 7 14 17 27 27 0 25 16 27 4 28 13 12 27 27 8 11 14 30 27 27 27 17
split_gain=1.3252 4.69252 4.59253 18.7417 1.37028 1.09967 0.612398 2.19679 0.516238 0.513878 0.392723 1.61337 0.387953 0.370817 0.25821 0.448375 0.423117 0.264084 0.234875 0.161409 0.290324 0.258785 0.222516 0.247574 0.149662 0.397117 0.501208 2.65434 0.550985 0.193318
threshold=-1.198825 -0.30494999999999978 -0.19251849999999998 0.12542999999999996 0.00021230150000000001 -3.0449249999999995e-06 -0.34990999999999989 0.00022980550000000001 -15.441949999999999 0.25552050000000004 -0.12087000000000013 0.29687500000000006 -4.2241899999999992 -0.9832439999999999 0.38759400000000005 0.017084500000000061 7.5330400000000008e-06 0.027765000000000154 1.0665850000000001 3.6190050000000003e-06 -0.04055499999999989 0.027610000000000138 -1.9504449999999995e-08 -2.6789549999999994e-07 -10.620899999999997 1.6769150000000008 -0.22108000000000014 0.075470000000000051 -0.017509999999999911 -0.04635754999999999
decision_type=2 2 2 2 2 2 2 2 2 2 2 2 2 2 2 2 2 2 2 2 2 2 2 2 2 2 2 2 2 2
left_child=-1 8 -3 4 5 -4 7 -7 10 -5 -2 -12 -9 -10 15 17 -17 -8 -14 22 -21 -22 23 -16 25 26 -15 28 -28 -29
right_child=1 2 3 9 -6 6 14 12 13 -11 11 -13 18 24 19 16 -18 -19 -20 20 21 -23 -24 -25 -26 -27 27 29 -30 -31
leaf_value=-0.00060750540134628449 -0.0017798721125083308 -0.00053447194568777702 0.00063626501901910227 -0.00051001122815759773 -0.00066306574114026831 -0.004294207414587665 0.016913068672874943 0.0099632540653491839 0.0088142479362431914 0.0097567394309278042 0.026124435178935524 -0.00057859849018443909 0.02573384969598717 -0.00085923833904798914 0.018336432866219964 0.01494343175512293 2.762136049568653e-05 0.008350111838345501 0.016480121475857836 0.027882747910916803 0.016511223852061305 0.025721485709602181 0.019131201542005306 0.0087481151250275689 -0.00065297093262542091 -0.00073589726002421852 0.0087163140491137037 0.0063888249301817272 0.023423869937266174 -0.0014939368594371314
leaf_weight=10598 28 1378 29 1331 33 38 256 29 24 28 20 35 27 169 28 23 20 22 36 23 78 22 82 33 6938 749 23 20 38 140
leaf_count=10598 28 1378 29 1331 33 38 256 29 24 28 20 35 27 169 28 23 20 22 36 23 78 22 82 33 6938 749 23 20 38 140
internal_value=0 0.000550286 0.00284184 0.00501796 0.0142927 0.0149543 0.0155334 0.0108758 -0.000434208 -0.000298481 0.00545062 0.0091316 0.0171417 -0.000494502 0.0165649 0.015133 0.00800585 0.0162354 0.020446 0.0182929 0.020285 0.0185375 0.0165795 0.0131493 -0.000522162 0.000274635 0.00221538 0.00456655 0.0178784 -0.000508592
internal_weight=0 11700 3516 2138 779 746 717 130 8184 1359 83 55 92 8101 587 321 43 278 63 266 123 100 143 61 8077 1139 390 221 61 160
internal_count=22298 11700 3516 2138 779 746 717 130 8184 1359 83 55 92 8101 587 321 43 278 63 266 123 100 143 61 8077 1139 390 221 61 160
shrinkage=0.075


Tree=20
num_leaves=31
num_cat=0
split_feature=27 27 28 30 30 1 2 16 9 12 23 1 30 18 27 9 5 14 14 26 30 25 8 15 30 25 27 15 18 14
split_gain=1.1379 10.9472 6.35046 5.20573 4.61386 1.22028 1.10531 0.873193 0.756234 1.86371 1.05176 0.855729 0.89394 0.600442 1.40134 0.427493 0.348142 0.334665 0.332129 0.267484 0.254579 0.24259 0.191174 0.153275 0.143513 0.131308 1.32407 0.126894 0.120215 0.115114
threshold=-0.2956995 0.10019100000000004 0.041125499999999933 -0.74189000000000005 1.7335450000000006 -12.846149999999998 1.3394750000000002 2.0237400000000005 2.4252750000000008e-07 0.00030911800000000004 0.027526950000000005 -9.7016949999999991 1.4343049999999995 0.00034626750000000005 0.027610000000000138 2.1373600000000005e-05 0.00011799400000000001 -8.9869799999999973 -6.4644399999999989 0.00072011800000000006 -0.26585000000000031 0.0073139350000000014 -4.7927499999999991e-06 -0.54940849999999986 0.15577500000000025 -0.059227749999999989 0.20152300000000004 -0.45500449999999992 0.0041305400000000011 -7.1624899999999991
decision_type=2 2 2 2 2 2 2 2 2 2 2 2 2 2 2 2 2 2 2 2 2 2 2 2 2 2 2 2 2 2
left_child=-1 2 3 5 6 -2 13 21 11 10 -10 12 -9 14 16 -11 20 -13 19 -15 -5 -4 -6 -21 -22 26 -3 -7 -24 -28
right_child=1 25 7 4 22 27 -8 8 9 15 -12 17 -14 18 -16 -17 -18 -19 -20 23 24 -23 28 -25 -26 -27 29 -29 -30 -31
leaf_value=-0.00059712287093699533 0.018306943802163005 0.016501966659312268 -0.00065166175837165637 0.0067740946635603903 0.0038915463998962781 0.0035307172354805513 -0.0028972977655939759 0.020855101999107069 0.0090248686925042416 0.0086126728457332179 0.032541525254592946 0.00054592838936039939 -0.00077849456574767832 0.017251552343930537 -0.0024806338571943341 -0.0053394657745957372 0.0061532673115531605 -0.0088353336056423998 0.0082371213287115094 0.019225331608738214 0.015943644570766902 0.0061287030202126303 -0.0010385642141140029 0.028286864502089362 0.010138879974301044 -0.00059280407098764355 -0.00055272947081371024 -0.0015034697630363417 -0.0075648568407632403 0.0051307921397632785
leaf_weight=9945 20 28 698 20 38 32 20 22 20 21 23 69 21 232 30 30 27 31 20 21 305 31 77 21 26 9753 441 235 20 21
leaf_count=9945 20 28 698 20 38 32 20 22 20 21 23 69 21 232 30 30 27 31 20 21 305 31 77 21 26 9753 441 235 20 21
internal_value=0 0.000480724 0.00539998 0.0091809 0.0121087 0.00043835 0.0144883 0.000922362 0.0048771 0.0101025 0.0216035 0.00144222 0.0102899 0.0149836 0.0131216 0.000405532 0.0143599 -0.00236226 0.0175675 0.0182486 0.0149912 -0.000363333 -0.000617688 0.0237561 0.0154877 -0.000532614 0.000665404 -0.000900122 -0.00238419 -0.000294388
internal_weight=0 12353 2110 1144 857 287 722 966 237 94 43 143 43 702 408 51 378 100 294 274 351 729 135 42 331 10243 490 267 97 462
internal_count=22298 12353 2110 1144 857 287 722 966 237 94 43 143 43 702 408 51 378 100 294 274 351 729 135 42 331 10243 490 267 97 462
shrinkage=0.075


Tree=21
num_leaves=31
num_cat=0
split_feature=30 31 28 28 2 2 1 22 28 7 28 7 1 28 21 28 25 14 28 12 16 21 30 5 2 28 21 5 30 28
split_gain=0.986238 3.51644 3.40053 13.6919 1.99643 1.80112 1.03805 1.07422 2.05494 0.603321 0.832178 0.534213 0.334714 0.687994 0.274346 1.27703 0.268308 0.256953 0.235291 0.216774 0.424779 0.264939 0.857495 0.336045 0.209811 0.18947 0.13713 0.108048 0.106321 0.0996994
threshold=-1.198825 -0.49274499999999971 0.29617700000000008 -0.14943000000000004 1.9419150000000001 -1.4166899999999998 -5.8561999999999985 -0.016785699999999997 0.10023800000000001 0.0053110200000000005 -0.055811000000000083 0.00042611900000000003 -15.973449999999998 0.37386199999999997 0.75606150000000005 -0.4285294999999999 -0.9832439999999999 -15.441949999999999 -0.174708 1.1551700000000003e-09 0.22158550000000002 0.03814420000000001 -0.30494999999999978 0.0001035445 -0.22075399999999998 0.041125499999999933 5.5669900000000014 4.1008050000000008e-05 0.15577500000000025 -0.017084500000000055
decision_type=2 2 2 2 2 2 2 2 2 2 2 2 2 2 2 2 2 2 2 2 2 2 2 2 2 2 2 2 2 2
left_child=12 16 3 14 5 -5 7 24 9 10 11 -9 13 -1 -3 -16 -2 18 -18 20 -12 22 -21 28 -7 -23 -4 -10 29 -24
right_child=1 2 26 4 -6 6 -8 8 27 -11 19 -13 -14 -15 15 -17 17 -19 -20 21 -22 25 23 -25 -26 -27 -28 -29 -30 -31
leaf_value=0.011718864397875764 0.0068895788293697737 -0.00065674475660063654 -0.00060302733485133818 -0.0045738491060910739 -0.0046502127317320889 0.029944236610423433 -0.004085907137487084 0.012572728008963167 -0.0033507910765413389 0.02620200285954135 0.01488582596182823 -0.0038725014366209503 -0.0005591853835034868 -0.0028445426956750452 -0.00059996415906014941 0.019876871504155652 -0.00048888414057728362 -0.00050537001396414808 0.0084091137688873056 0.00026591393527471358 0.00077501703053712841 0.015480996101942597 0.019334861070945345 0.0047231762576848265 0.019330377113074063 0.021545957258957273 0.0053630413291764194 0.003459689972223714 0.010242235691597065 0.014701223092953967
leaf_weight=37 28 1374 1449 35 42 22 20 20 38 21 30 25 10525 36 93 21 32 7737 35 27 20 196 29 20 20 34 22 20 27 263
leaf_count=37 28 1374 1449 35 42 22 20 20 38 21 30 25 10525 36 93 21 32 7737 35 27 20 196 29 20 20 34 22 20 27 263
internal_value=0 0.000474721 0.0023249 0.00406696 0.0113193 0.0120929 0.012794 0.0132098 0.0125727 0.0136785 0.0132979 0.00343649 -0.000524083 0.00453691 -0.000363407 0.00317208 -0.000439028 -0.000465322 0.00415932 0.0139849 0.0092415 0.0143828 0.0131293 0.0141538 0.02489 0.0163776 -0.0005138 -0.00100235 0.0147451 0.0151614
internal_weight=0 11700 3868 2397 909 867 832 812 770 712 691 45 10598 73 1488 114 7832 7804 67 646 50 596 366 339 42 230 1471 58 319 292
internal_count=22298 11700 3868 2397 909 867 832 812 770 712 691 45 10598 73 1488 114 7832 7804 67 646 50 596 366 339 42 230 1471 58 319 292
shrinkage=0.075


Tree=22
num_leaves=31
num_cat=0
split_feature=30 31 27 27 2 2 22 27 7 30 21 3 1 2 12 21 27 7 10 6 14 7 27 27 9 15 21 15 27 24
split_gain=0.844239 2.94042 2.90134 11.8153 1.69654 1.61296 1.11371 2.05756 0.544847 0.730765 0.624574 0.452331 0.335983 0.288767 0.276403 0.232973 1.1093 0.231453 0.293504 0.240262 0.229659 0.265595 0.372327 1.42963 0.229606 0.13771 0.112546 0.106713 0.20896 0.182532
threshold=-1.2398499999999995 -0.49274499999999971 -0.2956995 0.14943000000000009 1.9419150000000001 -1.4166899999999998 -0.016785699999999997 -0.10000499999999989 0.0053110200000000005 -0.54040499999999969 0.051869950000000005 1.2217050000000002e-05 -16.800649999999994 -0.27406649999999994 5.6448650000000011e-10 0.75606150000000005 0.62059100000000023 9.0270300000000022e-05 1.2282500000000004e-07 2.5214550000000004e-05 -14.293449999999998 0.029933350000000001 -0.47923500000000002 0.27611750000000007 -4.7596799999999994e-07 1.3124250000000002 5.5669900000000014 0.25520250000000005 0.042715000000000176 -3.3256049999999992e-07
decision_type=2 2 2 2 2 2 2 2 2 2 2 2 2 2 2 2 2 2 2 2 2 2 2 2 2 2 2 2 2 2
left_child=12 20 26 4 5 -4 13 -8 9 10 -9 -12 -1 -7 -11 -5 -17 18 -16 27 21 22 -2 -24 -21 -22 -3 28 29 -19
right_child=1 2 3 15 -6 6 7 8 -10 14 11 -13 -14 -15 17 16 -18 19 -20 24 25 -23 23 -25 -26 -27 -28 -29 -30 -31
leaf_value=0.0070670472288673573 -0.001067107651343054 -0.00056315672363260435 -0.0041956830535373468 -0.00060622520064351781 -0.0043014467482342814 0.030000436501577497 -0.0012210927030537277 -0.0047994503667578093 0.024236852249928883 0.0057536875363439315 0.017674104573035782 0.0026315949290342954 -0.00051254101213399068 0.017909599900245668 0.0036314897599720184 0.015888423104271559 -0.0012746758662678045 0.020688080927357074 0.013302279536317034 0.0032029046863317492 -0.0004884246674728398 -0.0022133477183300643 0.020520428285516538 -0.00065499679755142077 0.01215485641957227 0.0043669768492691219 0.0047236682462465504 0.010481634448681559 0.021584674215409903 0.013924319829826776
leaf_weight=33 47 1487 37 1413 42 20 69 25 21 30 22 23 10477 25 31 28 87 24 41 20 7624 52 29 47 83 33 23 35 24 346
leaf_count=33 47 1487 37 1413 42 20 69 25 21 30 22 23 10477 25 31 28 87 24 41 20 7624 52 29 47 83 33 23 35 24 346
internal_value=0 0.000435755 0.00210244 0.00369829 0.0104234 0.0111293 0.0118052 0.0111547 0.0123325 0.0119774 0.0047053 0.00998571 -0.000488742 0.0232833 0.0127803 -0.000342027 0.00290417 0.0131293 0.00913847 0.0136694 -0.000406101 0.00228034 0.00418011 0.0074251 0.0104166 -0.000467499 -0.000482629 0.0144504 0.0148029 0.0143631
internal_weight=0 11788 3956 2446 918 876 839 794 725 704 70 45 10510 45 634 1528 115 604 72 532 7832 175 123 76 103 7657 1510 429 394 370
internal_count=22298 11788 3956 2446 918 876 839 794 725 704 70 45 10510 45 634 1528 115 604 72 532 7832 175 123 76 103 7657 1510 429 394 370
shrinkage=0.075


Tree=23
num_leaves=31
num_cat=0
split_feature=27 27 28 30 30 1 2 17 30 26 27 19 28 0 9 14 27 5 14 26 13 30 30 30 8 3 6 22 22 26
split_gain=0.728045 7.00113 4.07332 3.34744 2.98229 0.912774 0.791917 0.645056 0.954407 0.493997 1.00246 0.393072 0.359945 0.57973 0.36596 0.295283 0.27064 0.247085 0.211574 0.356554 0.208056 0.315536 0.286031 0.179224 0.158159 0.146153 0.43245 0.229961 0.117417 0.105057
threshold=-0.2956995 0.10019100000000004 0.041125499999999933 -0.74189000000000005 1.7335450000000006 -12.846149999999998 1.3394750000000002 -0.17627099999999998 -1.5437499999999995 1.2261550000000001e-05 0.027610000000000138 -0.13429149999999998 0.10023800000000001 2.1104500000000006 2.1576100000000006e-06 -6.9873149999999988 0.027610000000000138 0.00011799400000000001 -9.4107699999999976 0.00072011800000000006 1.677475 -1.1032499999999998 -3.4907949999999994 -0.26585000000000031 -4.7927499999999991e-06 1.2996350000000001e-05 -2.4115049999999995e-05 0.0031810950000000005 0.00099925300000000029 0.0014050950000000001
decision_type=2 2 2 2 2 2 2 2 2 2 2 2 2 2 2 2 2 2 2 2 2 2 2 2 2 2 2 2 2 2
left_child=-1 2 3 5 6 -2 9 8 -4 10 17 12 13 -9 -14 16 -11 23 19 -18 21 -7 -22 -5 -6 26 -13 -28 -25 -26
right_child=1 -3 7 4 24 20 -8 11 -10 15 -12 25 14 -15 -16 -17 18 -19 -20 -21 22 -23 -24 28 29 -27 27 -29 -30 -31
leaf_value=-0.00047762950294444594 0.015790077047422527 -0.00042585232746907811 -0.0026083988603204486 0.0052201079470770703 0.0035641079223224597 -0.0009073140545903394 -0.0031083776327977832 0.014530607063651961 0.017313141901526719 0.01361265747677968 -0.0026157118006414101 0.011232284276879259 -0.0014259199647120003 0.0003494876504485165 0.0071517220073684037 0.0081315487874923514 0.012135815591012176 0.0044955084410806491 0.024950350310815418 0.024313039864812577 -0.0011642894929411404 -0.010792080941610037 0.010494446964439703 0.012758255876939404 -0.00088613728793071839 -0.0013278640055512413 -0.0009046968559832362 0.0071994655400472269 0.0073117851745337246 -0.0069871045520994816
leaf_weight=9945 20 10243 24 21 38 198 20 34 31 172 31 21 99 31 39 37 38 27 23 21 29 20 20 308 77 477 188 22 24 20
leaf_count=9945 20 10243 24 21 38 198 20 34 31 172 31 21 99 31 39 37 38 27 23 21 29 20 20 308 77 477 188 22 24 20
internal_value=0 0.000384524 0.0043185 0.0073466 0.00969436 0.000336015 0.0116075 0.000732426 0.00862011 0.0120267 0.0103527 0.000256222 0.00316564 0.0077673 0.000998196 0.0143912 0.015303 0.0114106 0.0188487 0.0164701 -0.000821593 -0.00181417 0.00359438 0.0119395 -0.000537323 -0.000577977 0.00097049 -5.56894e-05 0.0123645 -0.00214407
internal_weight=0 12353 2110 1144 857 287 722 966 55 702 411 911 203 65 138 291 254 380 82 59 267 218 49 353 135 708 231 210 332 97
internal_count=22298 12353 2110 1144 857 287 722 966 55 702 411 911 203 65 138 291 254 380 82 59 267 218 49 353 135 708 231 210 332 97
shrinkage=0.075


Tree=24
num_leaves=31
num_cat=0
split_feature=30 31 27 27 22 27 8 8 4 27 10 20 0 14 7 27 27 1 30 25 25 24 8 28 1 4 0 27 5 20
split_gain=0.625952 2.21809 2.18875 8.41175 1.3364 1.67829 0.989518 0.574794 0.40005 0.645879 0.705937 0.305574 0.29086 0.274825 0.277144 0.399102 1.2676 0.271441 0.245595 0.692314 0.150503 0.125708 0.0978136 0.23467 0.466931 0.124635 0.220249 0.124186 0.0887097 0.072788
threshold=-1.2398499999999995 -0.30494999999999978 -0.2956995 0.20152300000000004 -0.016785699999999997 -0.10000499999999989 -1.9897499999999997e-05 1.5541550000000004e-05 -7.8269699999999987e-05 0.042715000000000176 6.4143450000000012e-07 3.5173600000000005e-05 5.145080000000001 -14.293449999999998 0.029933350000000001 -0.47923500000000002 0.27611750000000007 -16.800649999999994 -0.50204999999999955 0.00076201300000000008 -0.9832439999999999 7.4467800000000019e-05 3.1218900000000007e-07 0.027765000000000154 -7.9951349999999985 2.1281000000000005e-05 4.8835650000000008 -0.017509999999999911 0.00012958150000000001 -1.7861449999999997e-06
decision_type=2 2 2 2 2 2 2 2 2 2 2 2 2 2 2 2 2 2 2 2 2 2 2 2 2 2 2 2 2 2
left_child=17 13 -3 4 11 28 -7 8 -8 18 12 -4 -11 14 15 -2 -17 -1 19 -10 -15 -5 23 25 -25 29 -27 -24 -6 -20
right_child=1 2 3 21 5 6 7 -9 9 10 -12 -13 -14 20 -16 16 -18 -19 22 -21 -22 -23 27 24 -26 26 -28 -29 -30 -31
leaf_value=0.0063705592331561173 -0.00092014410902800799 -0.00044581911837915985 0.015987628114155748 -0.00044979530309016507 -0.0021956461165900691 -0.0064851469992260853 0.019740453891456126 -0.0011493187481537461 -0.00044242024271036766 0.0032693178892406003 0.014203107106732204 0.028796712281182409 -0.0081624835762860518 0.0061230686958879234 -0.0019440338494210404 0.017903963624927643 -0.00056913542575784957 -0.00044223170191091423 0.013345764204859733 0.017143102269619702 -0.0003911669480874327 0.0055407227575778959 0.01844719536602497 0.011918658066180443 -0.0027799740666523574 0.011459861407903107 0.0019676646217703818 0.011918270401656628 0.0034259930674670615 0.011176090922368608
leaf_weight=33 51 1362 22 1332 75 21 25 25 34 31 24 20 21 20 56 37 48 10477 150 20 7972 20 23 31 20 44 20 57 20 207
leaf_count=33 51 1362 22 1332 75 21 25 25 34 31 24 20 21 20 56 37 48 10477 150 20 7972 20 23 31 20 44 20 57 20 207
internal_value=0 0.000375215 0.00192553 0.00336611 0.00902825 0.00838146 0.00956657 0.0100271 0.0104223 0.0100807 0.00356331 0.0220872 -0.00134737 -0.000307501 0.00249654 0.00432501 0.0074721 -0.00042084 0.0108981 0.00607074 -0.000374865 -0.000361178 0.0113703 0.0109593 0.00615449 0.0115413 0.00849355 0.0137953 -0.00101214 0.0120877
internal_weight=0 11788 3604 2242 890 848 753 732 707 682 76 42 52 8184 192 136 85 10510 606 54 7992 1352 552 472 51 421 64 80 95 357
internal_count=22298 11788 3604 2242 890 848 753 732 707 682 76 42 52 8184 192 136 85 10510 606 54 7992 1352 552 472 51 421 64 80 95 357
shrinkage=0.075


Tree=25
num_leaves=31
num_cat=0
split_feature=27 27 28 30 30 1 2 17 30 18 27 19 9 1 30 30 24 14 28 12 17 13 30 1 2 30 22 23 3 6
split_gain=0.539441 5.17349 3.01322 2.49181 2.22335 0.746176 0.620701 0.529855 0.780905 0.453491 0.860223 0.308469 0.304424 0.40749 0.50342 0.538294 0.265498 0.256752 0.227623 0.319078 0.187538 0.173526 0.286307 0.242943 0.166158 0.15316 0.147416 0.134389 0.118089 0.341239
threshold=-0.2956995 0.10019100000000004 0.041125499999999933 -0.74189000000000005 1.7335450000000006 -12.846149999999998 1.3394750000000002 -0.17627099999999998 -1.5437499999999995 0.00034626750000000005 0.027610000000000138 -0.13429149999999998 -8.1749699999999984e-06 -13.528999999999998 -0.95834499999999945 0.78733000000000042 -1.2337699999999998e-06 -6.4999049999999992 0.017674999999999889 3.907915000000001e-08 0.0080264450000000018 1.677475 -1.1032499999999998 -7.1474349999999989 -0.17853599999999997 -0.46073500000000051 -0.0078427699999999989 0.0034334850000000004 1.2996350000000001e-05 -2.4115049999999995e-05
decision_type=2 2 2 2 2 2 2 2 2 2 2 2 2 2 2 2 2 2 2 2 2 2 2 2 2 2 2 2 2 2
left_child=-1 2 3 5 6 -2 9 8 -4 10 18 12 -9 -14 -15 27 -11 25 20 -20 24 22 -7 -23 -5 -18 -6 -16 29 -13
right_child=1 -3 7 4 26 21 -8 11 -10 16 -12 28 13 14 15 -17 17 -19 19 -21 -22 23 -24 -25 -26 -27 -28 -29 -30 -31
leaf_value=-0.000411134727884275 0.014241286944597958 -0.0003656263790669796 -0.0023796015811967659 0.0044506666649665148 0.005451292593497783 -0.0008207464369303179 -0.0030336820179945791 -0.0039397376924171111 0.015640417958099034 0.019424453345609122 -0.00347661258019798 0.0099652810388111638 0.014090522441547364 -0.0010160885731175797 0.016967774022902761 -0.0017565636099210345 0.018503065881404011 0.003695040363818407 0.011643477659672498 -0.0011832437943667172 0.0041378047764301295 0.0096139580323506384 -0.010236558183096349 -0.0011308225407415664 0.011360941481931754 0.011943820733660539 -0.0015251852135533344 0.0084828533365258144 -0.0012162386787842605 -6.1860271151609989e-05
leaf_weight=9945 20 10243 24 21 20 198 20 32 31 29 30 21 20 87 21 22 22 20 20 24 25 20 20 29 288 223 115 21 477 210
leaf_count=9945 20 10243 24 21 20 198 20 32 31 29 30 21 20 87 21 22 22 20 20 24 25 20 20 29 288 223 115 21 477 210
internal_value=0 0.000330991 0.00371272 0.00631714 0.00834275 0.000268544 0.00999461 0.0006284 0.00777714 0.0103658 0.00874763 0.000196808 0.00277418 0.00403058 0.00269814 0.00774717 0.0126114 0.0118658 0.00971781 0.00464708 0.0103858 -0.000778104 -0.00168458 0.0032548 0.0108913 0.0125328 -0.000491633 0.0127253 -0.000542183 0.000849698
internal_weight=0 12353 2110 1144 857 287 722 966 55 702 408 911 203 171 151 64 294 265 378 44 334 267 218 49 309 245 135 42 708 231
internal_count=22298 12353 2110 1144 857 287 722 966 55 702 408 911 203 171 151 64 294 265 378 44 334 267 218 49 309 245 135 42 708 231
shrinkage=0.075


Tree=26
num_leaves=31
num_cat=0
split_feature=27 27 28 31 30 2 23 2 18 7 6 30 17 1 30 6 22 30 11 27 11 17 30 8 24 24 30 30 11 21
split_gain=0.461559 4.42657 2.57819 2.17888 1.74738 1.21235 0.762845 0.77089 0.456191 0.645553 0.834309 0.750872 0.912033 0.371932 0.518903 0.366628 0.288748 0.454356 0.193207 0.181727 0.730289 0.145894 0.164613 0.133488 0.13145 0.145942 0.423774 0.118815 0.117264 0.0997081
threshold=-0.2956995 0.10019100000000004 0.041125499999999933 1.913999999999999 1.7335450000000006 1.9419150000000001 -0.037744799999999988 -1.1568099999999999 0.0030889500000000005 0.00046110750000000005 9.0257200000000014e-05 -3.1362249999999992 0.076619750000000014 -13.869899999999999 -0.74189000000000005 4.7719950000000007e-06 0.0022464450000000006 0.3063650000000005 7.5229550000000009e-06 0.027610000000000138 -1.7428749999999997e-07 0.028347250000000004 -0.54040499999999969 -4.7927499999999991e-06 -8.690899999999999e-07 -2.7413399999999998e-07 -0.34990999999999989 -2.3942099999999997 1.0000000180025095e-35 0.24164950000000004
decision_type=2 2 2 2 2 2 2 2 2 2 2 2 2 2 2 2 2 2 2 2 2 2 2 2 2 2 2 2 2 2
left_child=-1 2 3 4 5 6 -2 -8 21 28 11 -11 -13 18 15 -15 17 19 -9 -16 -21 24 -23 -6 27 26 -26 -4 -10 -25
right_child=1 -3 8 -5 23 -7 7 13 9 10 -12 12 -14 14 16 -17 -18 -19 -20 20 -22 22 -24 29 25 -27 -28 -29 -30 -31
leaf_value=-0.00038029961759782207 0.023049953080375087 -0.00033820439940971634 -0.00073627554785079239 -0.00090258291382419998 0.00331323120779799 -0.0081894791186167149 -0.0056461952757672403 0.01196942195416458 0.00039323694630487196 -0.00037911550835301367 -0.0022981228684452737 0.022473425688580254 0.0036427348184034872 0.0079633558372370315 0.009594682358469055 -0.0060671139631184893 0.013493755402473303 -5.701242353097768e-05 0.020446940297260883 0.014454456637613475 -0.005813438957557082 -0.00088696279404261566 0.0080083403921162241 -0.0007053892190156916 -0.001045840565080764 -0.00059169442529705314 0.011118434521995369 -0.0087235020901425733 -0.0062930736386915664 -0.0066490235523087903
leaf_weight=9945 22 10243 22 218 38 23 20 62 36 23 37 39 23 20 452 22 78 32 20 20 20 22 25 77 49 621 24 20 25 20
leaf_count=9945 22 10243 22 218 38 23 20 62 36 23 37 39 23 20 452 22 78 32 20 20 20 22 25 77 49 621 24 20 25 20
internal_value=0 0.000306167 0.00343427 0.00584336 0.00743149 0.00877744 0.00928557 0.00887964 0.00058127 0.0039526 0.00710243 0.0111944 0.0154878 0.00927981 0.00867406 0.000614062 0.00923639 0.00860266 0.0140371 0.00916589 0.00432051 -0.000206665 0.00384458 -0.00045476 -0.000465372 -0.000218798 0.00295337 -0.00453972 -0.00234705 -0.00193088
internal_weight=0 12353 2110 1144 926 791 768 746 966 183 122 85 62 726 644 42 602 524 82 492 40 783 47 135 736 694 73 42 61 97
internal_count=22298 12353 2110 1144 926 791 768 746 966 183 122 85 62 726 644 42 602 524 82 492 40 783 47 135 736 694 73 42 61 97
shrinkage=0.075


Tree=27
num_leaves=31
num_cat=0
split_feature=28 27 2 2 1 21 7 21 28 21 8 22 4 13 3 27 22 8 24 21 14 24 10 17 3 8 27 26 7 23
split_gain=0.39837 5.97304 1.49257 1.52098 1.16654 0.50452 1.24434 0.475816 0.385741 0.750367 0.582028 0.221886 0.139843 0.239133 0.168209 0.135021 1.01866 0.779992 0.393443 0.815094 0.125252 0.110722 0.106169 0.106164 0.179863 0.249702 0.161148 0.0970094 0.0953048 0.0908721
threshold=0.10023800000000001 0.055811000000000097 1.4400350000000002 -1.1568099999999999 -5.8392349999999995 0.51382200000000011 0.0025623800000000004 1.2542400000000002 0.027765000000000154 0.031291450000000005 2.9598800000000005e-08 -0.0010117549999999998 1.4386950000000001e-05 0.93471500000000007 1.4839850000000002e-05 0.25180000000000019 -0.067739299999999988 -1.9571099999999997e-07 5.6983800000000007e-06 1.1379750000000002 -9.494864999999999 8.9433300000000012e-07 -3.0449249999999995e-06 -0.0075035149999999997 1.6509400000000005e-05 3.3922700000000009e-08 0.14943000000000009 2.0779750000000006e-06 0.00051310850000000003 0.0013000250000000002
decision_type=2 2 2 2 2 2 2 2 2 2 2 2 2 2 2 2 2 2 2 2 2 2 2 2 2 2 2 2 2 2
left_child=1 2 3 22 5 8 7 -7 12 27 11 -11 -5 29 -15 16 17 -3 19 21 -12 23 -1 24 25 -18 -27 -10 -29 -14
right_child=-2 15 -4 4 -6 6 -8 -9 9 10 20 -13 13 14 -16 -17 18 -19 -20 -21 -22 -23 -24 -25 -26 26 -28 28 -30 -31
leaf_value=-0.0042387321532005445 -0.00033161916304322298 0.019347533299255048 -0.0034013120397238467 0.008682962582552016 -0.0016422920812135956 0.011873660585260949 0.023222642040223274 -0.0034400394186377523 -0.0047962288293121906 0.0080326703996697977 0.011099188982188934 -0.00087041304814192697 0.0083197402348320643 0.0060008038990781642 -0.0037263419944792986 -0.0003535793317112408 -0.00089926275643331265 0.00022630829231015272 -0.0085984863276625488 0.015234395556617528 0.019135542358271775 0.0038796555532220126 0.001492420857948673 -0.0010151995385200641 -0.0015949767789028226 0.011616112343108399 0.0026198065124585159 0.0036438828033939128 -0.0031492676341128702 0.0040809546411037442
leaf_weight=75 10647 28 103 451 83 25 38 21 31 31 24 32 152 20 20 9715 37 21 29 20 20 36 24 422 66 24 21 26 21 35
leaf_count=75 10647 28 103 451 83 25 38 21 31 31 24 32 152 20 20 9715 37 21 29 20 20 36 24 422 66 24 21 26 21 35
internal_value=0 0.000303043 0.00524143 0.00602992 0.00688336 0.0076306 0.0131793 0.00488262 0.00709051 0.004055 0.00813319 0.00351047 0.00791879 0.00640054 0.00113723 -0.0002809 0.00072206 0.0111527 -5.82494e-05 0.000337385 0.0147521 -0.000154266 -0.00284936 -0.00040904 0.00131933 0.003665 0.00741784 -0.00153945 0.000608645 0.00752638
internal_weight=0 11651 1232 1129 1030 947 84 46 863 185 107 63 678 227 40 10419 704 49 655 626 44 606 99 570 148 82 45 78 47 187
internal_count=22298 11651 1232 1129 1030 947 84 46 863 185 107 63 678 227 40 10419 704 49 655 626 44 606 99 570 148 82 45 78 47 187
shrinkage=0.075


Tree=28
num_leaves=31
num_cat=0
split_feature=30 31 27 27 2 21 2 9 27 17 12 27 21 20 1 5 2 25 3 5 7 4 3 20 19 14 27 27 30 16
split_gain=0.341262 1.29047 1.25524 5.35918 0.813593 0.734891 1.01591 0.720013 0.651284 0.329271 0.302358 0.63843 0.255974 0.208651 0.198752 0.538966 0.197309 0.193077 0.17879 0.213251 0.330541 0.15055 0.206214 0.125284 0.133689 0.113856 0.145254 0.275268 0.111603 0.0974501
threshold=-1.2398499999999995 -0.5421900000000005 0.27611750000000007 -0.10000499999999989 1.9419150000000001 0.5512450000000001 -0.69171299999999991 2.0656050000000003e-07 0.10019100000000004 -0.17627099999999998 3.9662250000000003e-09 0.0096369999999999807 0.0058458250000000007 -3.2657249999999993e-05 -15.973449999999998 0.00018082400000000003 -0.065206649999999991 -0.9832439999999999 1.7246150000000004e-05 -8.7476899999999982e-05 0.0012630150000000001 -2.3804499999999995e-05 1.4884250000000002e-05 -1.1149199999999998e-05 -0.11588249999999999 -15.441949999999999 -0.12087000000000013 0.93691450000000021 -2.2422150000000003 1.3168600000000004
decision_type=2 2 2 2 2 2 2 2 2 2 2 2 2 2 2 2 2 2 2 2 2 2 2 2 2 2 2 2 2 2
left_child=14 17 3 9 5 6 -5 -7 10 -3 11 -8 16 -14 15 28 -12 -2 19 20 -15 -21 23 -23 -25 26 -19 -28 -1 -20
right_child=1 2 -4 4 -6 7 8 -9 -10 -11 12 -13 13 18 -16 -17 -18 25 29 21 -22 22 -24 24 -26 -27 27 -29 -30 -31
leaf_value=-0.0039357547922658602 0.0059266847308858169 0.0067844736555248107 -0.00036333743037942777 -0.0054874261317101099 -0.0042558638992084208 0.0081745954005625742 0.0078727710691671223 0.025736228027381 -0.00027614896254486997 -0.00027769630034043792 0.00025267205651729335 -0.0069985821292820301 0.016398805886021127 -0.0015528522592423292 -0.00033763334454796974 0.01308392969607983 0.007600897966242838 -0.0023188829222427947 0.010393008880098076 0.011853170254638036 0.0093466297065948733 0.0038030635889457617 0.0026416496458378704 0.013774128444492816 0.0086814020260318411 -0.00033913849120090493 0.011760824702432728 -0.00015283136926882434 0.0033996894175652411 0.015365010993555186
leaf_weight=28 28 38 1494 35 34 29 62 24 55 1634 31 22 23 29 10439 23 61 21 85 83 34 23 33 36 149 7651 20 24 20 30
leaf_count=28 28 38 1494 35 34 29 62 24 55 1634 31 22 23 29 10439 23 61 21 85 83 34 23 33 36 149 7651 20 24 20 30
internal_value=0 0.000277047 0.00136295 0.00237436 0.00711908 0.00757731 0.00700445 0.016127 0.00758278 -0.000117192 0.00819938 0.00397789 0.00877411 0.00941359 -0.000310736 0.00364399 0.00512487 -0.000290024 0.00909355 0.00832199 0.00432941 0.00909832 0.00814955 0.0090234 0.00967242 -0.000312584 0.00281311 0.00526247 -0.00087932 0.0116901
internal_weight=0 11788 4044 2550 878 844 791 53 756 1672 701 84 617 525 10510 71 92 7744 502 387 63 324 241 208 185 7716 65 44 48 115
internal_count=22298 11788 4044 2550 878 844 791 53 756 1672 701 84 617 525 10510 71 92 7744 502 387 63 324 241 208 185 7716 65 44 48 115
shrinkage=0.075


Tree=29
num_leaves=31
num_cat=0
split_feature=29 28 28 31 30 2 21 2 30 8 19 10 23 9 15 30 6 18 28 24 17 30 30 21 5 30 16 30 17 28
split_gain=0.295168 2.80409 1.62764 1.48368 1.15948 0.828683 0.671857 0.710802 0.468839 0.422394 0.339327 0.693844 0.344261 0.60952 0.254115 0.218728 0.195583 0.180822 0.503225 0.148944 0.133835 0.115392 0.446417 0.484788 0.232822 0.198202 0.156341 0.107729 0.0904746 0.160861
threshold=-0.2956995 -0.10019100000000002 0.027765000000000154 1.913999999999999 3.2301850000000001 1.9419150000000001 0.30199350000000008 -0.61210349999999991 -0.74189000000000005 1.0000000180025095e-35 -0.54794999999999983 7.906765000000001e-07 0.023809650000000005 1.0582600000000003e-06 0.51059950000000009 0.74135500000000054 3.2991800000000005e-05 0.00034626750000000005 -0.027610000000000131 9.9881600000000031e-07 0.0081268450000000023 0.54256000000000049 -0.34990999999999989 0.031291450000000005 -7.8611899999999992e-05 -0.026880000000000234 2.2288800000000006 0.26484999999999964 -0.015250949999999997 -0.027610000000000131
decision_type=2 2 2 2 2 2 2 2 2 2 2 2 2 2 2 2 2 2 2 2 2 2 2 2 2 2 2 2 2 2
left_child=-1 -2 3 4 5 6 7 -3 -9 -8 11 19 21 -14 -13 17 -11 18 -10 -4 -20 22 -12 -24 -25 -26 -23 28 -19 -30
right_child=1 2 10 -5 -6 -7 9 8 15 16 12 14 13 -15 -16 -17 -18 27 20 -21 -22 26 23 24 25 -27 -28 -29 29 -31
leaf_value=-0.00030412147651889349 -0.00026802178941673176 -0.0048781531022021743 0.0033877228517147679 -0.001073117622180856 -0.0018973789261751031 -0.0053379611756475967 0.019993377855752368 -0.0011064184171014598 -0.0033714514829469521 0.0036307584727182981 -0.00069752947817131364 0.0066635653696721425 -0.0011475328443339094 0.013327358387905405 0.018110313652432524 0.00048302165483950042 0.014119578804820775 0.0064438170316267985 0.0082506349818273015 -0.0041586561231299361 0.0025590517669916149 -0.00093728383027580256 -0.00010160717487656576 0.0021298001403920351 0.017176371624061305 0.0071992229670286177 -0.0076657722989953714 0.013842329730025745 0.015758046146947889 0.008878518111924541
leaf_weight=9945 10243 28 28 196 90 29 37 35 24 20 469 24 36 30 20 22 20 49 330 31 25 259 71 20 21 24 21 33 24 94
leaf_count=9945 10243 28 28 196 90 29 37 35 24 20 469 24 36 30 20 22 20 49 330 31 25 259 71 20 21 24 21 33 24 94
internal_value=0 0.000244838 0.00273452 0.00481559 0.00615767 0.00709917 0.00758592 0.00681687 0.00733175 0.0142177 0.000649495 0.00473854 0.000206622 0.00543196 0.0118666 0.00782315 0.00887517 0.00810205 0.00713924 -0.000577324 0.00784982 -0.000183064 0.000399547 0.00418285 0.00886279 0.0118552 -0.00144192 0.00992659 0.00915282 0.0102777
internal_weight=0 12353 2110 1056 860 770 741 664 636 77 1054 103 951 66 44 601 40 579 379 59 355 885 605 136 65 45 280 200 167 118
internal_count=22298 12353 2110 1056 860 770 741 664 636 77 1054 103 951 66 44 601 40 579 379 59 355 885 605 136 65 45 280 200 167 118
shrinkage=0.075


Tree=30
num_leaves=31
num_cat=0
split_feature=27 27 28 30 30 6 23 1 19 9 17 12 11 25 25 30 27 8 27 19 9 9 24 30 3 16 17 23 24 10
split_gain=0.252553 2.39925 1.39545 1.26237 1.00536 0.781035 0.773999 0.480142 0.416654 0.704644 0.326641 0.570024 0.271133 0.303243 0.237107 0.346284 0.21864 0.202204 0.244814 0.201384 0.653655 0.132299 0.129883 0.117786 0.114957 0.099787 0.0901859 0.0869668 0.0842056 0.209576
threshold=-0.2956995 0.10019100000000004 0.041125499999999933 -2.0937499999999996 3.2301850000000001 0.00022782050000000003 -0.037744799999999988 -5.8561999999999985 0.10691300000000002 -5.8785649999999992e-06 -0.17627099999999998 0.00030911800000000004 2.0811650000000003e-05 -0.00020576449999999997 0.0054648850000000009 0.68541000000000019 0.055811000000000097 1.9371800000000002e-08 0.017084500000000061 -0.54794999999999983 1.3218300000000002e-06 3.8575050000000002e-08 9.9881600000000031e-07 -0.57660999999999951 7.8103900000000016e-06 9.5279450000000008 2.4687050000000004 0.023809650000000005 -6.3653549999999993e-09 5.5829850000000009e-08
decision_type=2 2 2 2 2 2 2 2 2 2 2 2 2 2 2 2 2 2 2 2 2 2 2 2 2 2 2 2 2 2
left_child=-1 2 3 -2 5 6 -5 8 9 -8 11 -4 14 -14 15 16 23 18 -10 20 22 -19 -12 -11 -21 27 -3 -26 -25 -30
right_child=1 26 10 4 -6 -7 7 -9 17 12 19 -13 13 -15 -16 -17 -18 21 -20 24 -22 -23 -24 28 25 -27 -28 -29 29 -31
leaf_value=-0.00028131237083489039 -0.00096776504215782149 -0.00026037842720128571 0.012761533733141879 0.020298367177652519 -0.0016669301188261614 -0.0064692509991940688 -0.0059502888716653811 -0.0048478964067596416 0.0097793155839960826 0.0022132358446251602 0.0031981660769088193 -0.0026342811237554998 0.0069817996770143503 -0.0060786000601365233 0.014859480592422186 -0.0024632970701255227 -0.00056978084446330157 0.0029001398324246773 0.019224070734344421 0.0053653341029348657 0.015427844478981568 0.010612977805732074 -0.0038407192622203026 0.0083018357433226123 -0.00042155020441349685 -0.0054930407242084452 0.0037274363545293453 0.0034558350074321959 -0.00042785475759402563 0.0071774584098131134
leaf_weight=9945 209 10211 31 23 99 26 27 21 38 25 30 24 20 20 20 23 21 22 26 20 20 29 29 293 757 21 32 34 23 179
leaf_count=9945 209 10211 31 23 99 26 27 21 38 25 30 24 20 20 20 23 21 22 26 20 20 29 29 293 757 21 32 34 23 179
internal_value=0 0.000226475 0.00252943 0.0043018 0.0054797 0.00632601 0.00673672 0.00634038 0.00664711 0.00591193 0.00043048 0.00604336 0.0064252 0.0004516 0.00683435 0.00654977 0.00693295 0.0108089 0.0136162 9.16122e-05 0.00371039 0.00728587 -0.000261625 0.00723595 -0.000251998 -0.000390356 -0.00024792 -0.000254886 0.00748962 0.00631151
internal_weight=0 12353 2110 1144 935 836 810 787 766 651 966 55 624 40 584 564 541 115 64 911 79 51 59 520 832 812 10243 791 495 202
internal_count=22298 12353 2110 1144 935 836 810 787 766 651 966 55 624 40 584 564 541 115 64 911 79 51 59 520 832 812 10243 791 495 202
shrinkage=0.075


Tree=31
num_leaves=31
num_cat=0
split_feature=27 28 30 30 21 30 27 0 2 2 13 30 18 30 31 4 27 14 23 16 6 2 22 0 30 2 25 30 12 0
split_gain=0.219211 2.40874 1.31547 1.64859 1.71093 1.14643 0.909754 0.889698 0.802541 0.65068 0.562668 0.375058 0.363283 0.436505 0.428546 0.298095 0.268129 0.153991 0.151235 0.189322 0.150028 0.133501 0.209536 0.130729 0.122021 0.101747 0.157396 0.123615 0.114605 0.101011
threshold=0.27611750000000007 0.10023800000000001 -2.0937499999999996 1.9783350000000006 0.5512450000000001 -0.8282000000000006 0.10019100000000004 -0.96792249999999991 -0.87358199999999997 1.9419150000000001 1.3094500000000002 -0.74189000000000005 0.00035394450000000003 0.3063650000000005 0.26713999999999999 -6.544149999999999e-06 0.055811000000000097 -20.381849999999996 0.19776550000000001 6.3746400000000003 3.182580000000001e-05 0.24725400000000003 -0.00044372399999999994 -9.7711149999999982 1.0000000180025095e-35 -0.11181649999999999 -0.00092105599999999985 0.11716499999999998 1.5682500000000003e-07 8.0541100000000014
decision_type=2 2 2 2 2 2 2 2 2 2 2 2 2 2 2 2 2 2 2 2 2 2 2 2 2 2 2 2 2 2
left_child=1 2 17 4 6 -6 8 -7 24 11 -9 15 13 14 20 -10 21 -1 19 -5 29 25 -23 -8 -4 -14 27 -27 -28 -13
right_child=-2 -3 3 18 5 7 23 10 9 -11 -12 12 16 -15 -16 -17 -18 -19 -20 -21 -22 22 -24 -25 -26 26 28 -29 -30 -31
leaf_value=0.0056690395951071492 -0.00026978618702539452 -0.00024588618898794732 -0.0088691749999790254 -0.00089843747176132638 0.030642067948356267 0.020437349651474503 0.0052641756515367892 -0.0037380245234817267 0.007576575215815947 -0.0042816023425465179 0.013139495492214336 0.0065256691813612207 0.0086492294474737712 -0.0031789595170266692 -0.0021354433948598691 -0.0032925175747004682 0.016612912655215372 -0.0008840276701324013 0.0053418351290747514 -0.0084445895954195285 0.0023866941289203921 0.0054184820526279511 0.01520441966713406 -0.0011403545200275634 -0.00087650069379544059 0.01051531146758383 0.0061677241511642932 0.0032307283021509648 -0.0015950689487078268 0.0097723642775021918
leaf_weight=21 9627 10647 21 288 20 30 20 25 22 35 20 260 126 32 34 40 22 511 20 20 41 20 32 173 22 38 20 20 23 68
leaf_count=21 9627 10647 21 288 20 30 20 25 22 35 20 260 126 32 34 40 22 511 20 20 41 20 32 173 22 38 20 20 23 68
internal_value=0 0.000204974 0.00257667 0.00371841 0.00504182 0.0146874 0.00418463 0.0104328 0.00521161 0.00572738 0.0037631 0.00616637 0.00663829 0.00525222 0.0059217 0.000564257 0.0086414 -0.000625354 -0.000978064 -0.00138845 0.00666409 0.00801283 0.0114406 -0.000476673 -0.0047799 0.00722761 0.0054541 0.00800339 0.00201553 0.00719876
internal_weight=0 12671 2024 1492 1164 95 1069 75 876 833 45 798 736 435 403 62 301 532 328 308 369 279 52 193 43 227 101 58 43 328
internal_count=22298 12671 2024 1492 1164 95 1069 75 876 833 45 798 736 435 403 62 301 532 328 308 369 279 52 193 43 227 101 58 43 328
shrinkage=0.075


Tree=32
num_leaves=31
num_cat=0
split_feature=27 28 30 31 21 30 0 27 2 2 13 1 1 1 30 22 30 1 3 19 20 4 12 30 21 16 27 0 6 1
split_gain=0.187563 2.06098 1.12555 1.41071 1.77841 0.89346 0.971297 0.806955 0.73296 0.668735 0.588184 0.458463 0.35578 0.324921 0.272113 0.215793 0.314668 0.739612 0.235473 0.258154 0.156327 0.145023 0.134131 0.114655 0.331244 0.11952 0.170763 0.113469 0.112074 0.106844
threshold=0.27611750000000007 0.10023800000000001 -2.0937499999999996 -2.2714549999999987 0.5512450000000001 -0.8282000000000006 -0.96792249999999991 0.10019100000000004 -0.87358199999999997 1.9419150000000001 1.3094500000000002 -5.8392349999999995 -12.993899999999998 -14.552149999999997 -0.74189000000000005 0.0022464450000000006 0.3063650000000005 -9.5889999999999969 1.2434800000000002e-05 0.24782150000000003 2.8498850000000006e-05 -4.1216449999999991e-05 5.6448650000000011e-10 -0.30494999999999978 0.040691500000000012 0.38076400000000005 0.027610000000000138 -9.7711149999999982 3.5231250000000006e-05 -8.0875299999999992
decision_type=2 2 2 2 2 2 2 2 2 2 2 2 2 2 2 2 2 2 2 2 2 2 2 2 2 2 2 2 2 2
left_child=1 2 12 20 7 -6 -7 8 29 11 -8 13 -1 21 -15 16 22 -18 -17 -20 -4 -10 -16 24 -24 28 -27 -9 -25 -5
right_child=-2 -3 3 4 5 6 10 27 9 -11 -12 -13 -14 14 15 18 17 -19 19 -21 -22 -23 23 25 -26 26 -28 -29 -30 -31
leaf_value=0.0092348727982607664 -0.00024955223435418666 -0.00022744472593771534 -0.00066833403883733431 -0.0013362294509230803 0.028343912931159138 0.020483286194609141 -0.0038442007086884515 0.0048693625739542768 0.016055425525304267 -0.0045112110196274249 0.013031841172570629 -0.0047647608192283256 -0.0009617854339317943 -0.00073852276923512484 0.00045422248076647514 0.0042574070620217492 0.0071298125851270103 -0.0093763425152596589 0.015382453332734636 0.0049890188997960654 -0.0069808957923669359 0.0085071639475844257 -0.0044729397016843517 0.0061131097525818114 0.0072104541656489553 0.0073055040753827799 0.014686140669509767 -0.0010742331718518929 0.00074081183411180975 -0.008568731092382223
leaf_weight=20 9627 10647 274 27 20 33 26 20 22 38 21 23 512 37 24 35 37 26 41 20 24 41 21 243 39 149 20 187 24 20
leaf_count=20 9627 10647 274 27 20 33 26 20 22 38 21 23 512 37 24 35 37 26 41 20 24 41 21 243 39 149 20 187 24 20
internal_value=0 0.000189601 0.00238342 0.00343953 0.00459166 0.0141655 0.0106208 0.00371654 0.00470056 0.00521053 0.00369616 0.00567116 -0.000578452 0.00597928 0.00552493 0.00586624 0.00532368 0.000317749 0.00916115 0.0119748 -0.00117673 0.0111431 0.00593016 0.00619513 0.00312127 0.00661814 0.00817895 -0.000499973 0.00563021 -0.00441389
internal_weight=0 12671 2024 1492 1194 100 80 1094 887 840 47 802 532 779 716 679 583 63 96 61 298 63 520 496 60 436 169 207 267 47
internal_count=22298 12671 2024 1492 1194 100 80 1094 887 840 47 802 532 779 716 679 583 63 96 61 298 63 520 496 60 436 169 207 267 47
shrinkage=0.075


Tree=33
num_leaves=31
num_cat=0
split_feature=27 27 28 30 30 19 10 17 9 10 23 8 9 23 30 14 19 3 30 19 25 22 27 8 3 3 8 30 23 12
split_gain=0.161152 1.50585 1.09064 0.542068 0.396265 0.242644 0.487792 0.219287 0.225073 0.218804 0.202577 0.42749 0.128074 0.11276 0.140756 0.106301 0.0949923 0.258159 0.271677 0.129414 0.204626 0.081497 0.693701 0.59065 0.200489 0.0705649 0.0604377 0.0585358 0.0726489 0.12106
threshold=-0.2956995 0.055811000000000097 0.027765000000000154 -1.3849050000000001 1.7335450000000006 -0.54794999999999983 7.906765000000001e-07 0.054275700000000003 -5.8785649999999992e-06 4.7954600000000015e-06 0.023809650000000005 1.0397950000000001e-07 -1.1035049999999998e-06 0.012377350000000002 -0.57660999999999951 -6.1635349999999987 0.25194400000000006 1.2566650000000001e-05 -1.5437499999999995 0.13086650000000002 -0.0010127599999999999 -0.067739299999999988 0.25180000000000019 -1.9571099999999997e-07 8.6381750000000014e-06 3.0260800000000003e-05 -6.0584749999999988e-06 -0.38343999999999973 0.0010150250000000003 1.2970350000000002e-07
decision_type=2 2 2 2 2 2 2 2 2 2 2 2 2 2 2 2 2 2 2 2 2 2 2 2 2 2 2 2 2 2
left_child=-1 2 3 26 7 6 12 8 -5 -8 16 -12 -4 14 -10 25 19 -18 -19 -7 -21 22 23 -3 -24 27 -2 -16 -29 -30
right_child=1 21 5 4 -6 10 9 -9 13 -11 11 -13 -14 -15 15 -17 17 18 -20 20 -22 -23 24 -25 -26 -27 -28 28 29 -31
leaf_value=-0.00022471411931883337 0.0032158705465262756 0.016351850879644709 0.0043556802574312315 -0.00073771246191908552 -0.00024913210900673506 -0.00016417078304165384 0.014738009334541858 0.012359924615244381 -0.00017467530257999896 0.0041162980254739519 -0.00091294602215594546 0.011363758523819139 -0.003026249647239008 0.010684719142180098 0.0098645332668508782 0.00098953773784968583 0.0028083400093464658 -0.0015449394997962039 -0.011464914008683991 -0.0020190430335196652 0.0078420579268853978 -0.00022906702322430728 0.0053490523964380065 -0.00028748017336641037 -0.00042984124354232062 0.0014457500539720059 -0.00083770899764203934 0.006249989612117147 -0.0012636585091240703 0.0053855345980611752
leaf_weight=9945 25 28 20 34 76 732 24 25 25 20 39 27 39 23 21 27 36 44 24 20 29 9789 36 21 545 20 120 397 20 67
leaf_count=9945 25 28 20 34 76 732 24 25 25 20 39 27 39 23 21 27 36 44 24 20 29 9789 36 21 545 20 120 397 20 67
internal_value=0 0.00018091 0.0021029 0.00405208 0.00487885 0.000475498 0.00393328 0.00547024 0.00519857 0.00990996 0.000100996 0.00410934 -0.000523901 0.00553495 0.00532968 0.00557897 -0.000197931 -0.00232726 -0.00504611 8.56156e-05 0.00381712 -0.000175854 0.00065098 0.00922071 -7.17687e-05 0.005815 -0.000138816 0.00598804 0.00581984 0.00385698
internal_weight=0 12353 1934 880 735 1054 103 659 634 44 951 66 59 600 577 552 885 104 68 781 49 10419 630 49 581 525 145 505 484 87
internal_count=22298 12353 1934 880 735 1054 103 659 634 44 951 66 59 600 577 552 885 104 68 781 49 10419 630 49 581 525 145 505 484 87
shrinkage=0.075


Tree=34
num_leaves=31
num_cat=0
split_feature=28 27 6 30 2 14 30 30 22 30 14 30 24 2 2 30 16 30 22 16 28 18 24 2 28 1 22 27 8 3
split_gain=0.140481 2.0563 0.67609 0.553942 0.489351 0.452197 0.43881 0.444511 0.3507 0.3325 0.253302 0.228223 0.217642 0.248789 0.214338 0.239147 0.150493 0.120514 0.116197 0.112361 0.0922141 0.100111 0.0831537 0.112231 0.0827571 0.0701578 0.0697309 0.593548 0.505375 0.171543
threshold=0.10023800000000001 0.055811000000000097 0.00010468900000000001 -1.3849050000000001 1.9419150000000001 -8.3693049999999989 -0.34990999999999989 0.34575499999999965 0.0013172100000000003 -0.87090499999999949 -18.223049999999997 1.7335450000000006 4.4179850000000008e-08 0.043829750000000008 0.53583900000000007 2.1745550000000016 0.7496210000000002 0.64419500000000085 0.0062226350000000015 1.3689050000000003 0.027765000000000154 0.00045031950000000003 1.8509950000000002e-07 0.045673200000000004 0.017674999999999889 -13.869899999999999 -0.067739299999999988 0.25180000000000019 -1.9571099999999997e-07 8.6381750000000014e-06
decision_type=2 2 2 2 2 2 2 2 2 2 2 2 2 2 2 2 2 2 2 2 2 2 2 2 2 2 2 2 2 2
left_child=1 2 3 10 5 9 -7 12 11 -5 -1 -9 19 -14 15 17 25 18 20 24 22 -22 -11 -24 -8 -4 27 28 -3 -29
right_child=-2 26 16 4 -6 6 7 8 -10 14 -12 -13 13 -15 -16 -17 -18 -19 -20 -21 21 -23 23 -25 -26 -27 -28 29 -30 -31
leaf_value=0.0080721275332117717 -0.00019692692144462226 0.015125461987086704 0.003731424953439273 0.015641383211394504 -0.0060644914239674106 -0.0047990438943678465 0.0059617152958722306 -0.010296495372313074 0.0077289045976067419 0.0060137175596914035 -0.0006014760724980748 -0.00069985087377616483 -0.0058699078601785002 0.0055676243956322251 0.013560699763766025 -0.0023894393852970097 -0.0054583944895483074 0.010032153849974029 0.0014189503494622733 0.01041582462313617 0.0052459621103480457 0.011744755124673248 -0.0016676343331346287 0.006277789575979114 0.0012917945976369082 -0.0013873010037894376 -0.00021188700122414341 0.0049478735377003133 -0.00026591917765992024 -0.00039760314555061177
leaf_weight=21 10647 28 20 21 24 37 193 20 20 227 193 46 20 23 20 20 47 38 34 29 24 30 20 20 24 61 9789 36 21 545
leaf_count=21 10647 28 20 21 24 37 193 20 20 227 193 46 20 23 20 20 47 38 34 29 24 30 20 20 24 61 9789 36 21 545
internal_value=0 0.000179957 0.0030775 0.00367575 0.00449955 0.00479231 0.00299325 0.00376209 -0.000971453 0.00642494 0.000249672 -0.00360792 0.00517069 0.000247842 0.00597795 0.00561075 -0.00208235 0.00601789 0.00558819 0.00603119 0.00602979 0.0088564 0.00545812 0.00230508 0.00544523 -0.000123418 -0.000162665 0.000602156 0.00852916 -6.6386e-05
internal_weight=0 11651 1232 1104 890 866 412 375 86 454 214 66 289 43 433 413 128 393 355 246 321 54 267 40 217 81 10419 630 49 581
internal_count=22298 11651 1232 1104 890 866 412 375 86 454 214 66 289 43 433 413 128 393 355 246 321 54 267 40 217 81 10419 630 49 581
shrinkage=0.075


Tree=35
num_leaves=31
num_cat=0
split_feature=30 30 27 27 22 23 27 8 18 27 26 6 7 9 9 24 30 5 0 5 17 1 11 19 7 20 8 24 30 25
split_gain=0.121042 0.427082 0.446309 1.79485 1.1127 0.519094 0.479094 0.420158 0.305173 0.296157 0.398568 0.42172 0.389198 0.369795 0.30456 0.227174 0.425616 0.15132 0.181246 0.140462 0.135517 0.130775 0.689697 0.116036 0.10954 0.0987788 0.371571 0.192985 0.0933752 0.0861772
threshold=-1.4579249999999997 0.59956000000000043 -0.2956995 0.27611750000000007 -0.016785699999999997 0.023809650000000005 -0.10000499999999989 -1.9897499999999997e-05 0.10157640000000003 0.027610000000000138 1.7567650000000002e-06 1.9891950000000005e-05 0.0038036500000000009 -1.2313399999999997e-07 1.0589500000000002e-07 2.9480000000000007e-07 -0.66839999999999955 0.00011799400000000001 6.055880000000001 6.2623350000000011e-05 -0.0049245999999999986 -16.417249999999999 3.7080900000000006e-05 -0.069010449999999987 0.00065005900000000014 -1.1149199999999998e-05 -2.1671349999999998e-08 -2.6443599999999995e-07 1.0000000180025095e-35 -0.00061784499999999979
decision_type=2 2 2 2 2 2 2 2 2 2 2 2 2 2 2 2 2 2 2 2 2 2 2 2 2 2 2 2 2 2
left_child=21 2 -2 4 5 -4 20 -8 -5 15 -11 13 -13 19 -15 16 -9 25 -19 -12 -6 22 -1 -17 -22 26 -18 28 -27 -29
right_child=1 -3 3 8 6 -7 7 9 -10 10 11 12 -14 14 -16 23 17 18 -20 -21 24 -23 -24 -25 -26 27 -28 29 -30 -31
leaf_value=0.012275555407628416 -0.0001824000937284692 -0.00018725185055051867 0.0085168319112445042 -0.00026812416265926346 -0.0052755201330662452 0.023280279903805681 -0.0047731312479769375 -0.00472238752441222 0.0080778034923132506 -0.0053396343564504371 0.015942158523414816 -0.0062999932341259212 0.0066256900526059318 -0.0045962726898406718 0.0066650596692592705 0.006320811156183481 -0.0050654451646234677 0.0048480479201922812 -0.004571886573176016 0.007159869615497882 -0.0018686981970151666 -0.00021277039637103553 -0.0059322614958132779 0.013488107919692993 0.0033475629731723388 0.0069373084115795782 0.0070738335959676241 0.0088771358583471741 0.013624693542394949 0.0048253078388808416
leaf_weight=25 1847 7656 37 1733 33 21 31 27 25 38 21 38 20 22 35 27 23 27 20 20 54 9935 22 24 39 24 37 32 23 382
leaf_count=25 1847 7656 37 1733 33 21 31 27 25 38 21 38 20 22 35 27 23 27 20 20 54 9935 22 24 39 24 37 32 23 382
internal_value=0 0.000157315 0.000723411 0.00131816 0.0037637 0.0138622 0.00317622 0.00380154 -0.000149439 0.00411798 0.00154819 0.003226 -0.00184286 0.00622594 0.00231858 0.00488972 0.00447795 0.00491529 0.000839565 0.0116581 -0.0011464 -0.000194099 0.00375275 0.00969366 0.000318766 0.00528297 0.00242044 0.00565553 0.0102099 0.00513849
internal_weight=0 12316 4660 2813 1055 58 997 871 1758 840 194 156 58 98 57 646 595 568 47 41 126 9982 47 51 93 521 60 461 47 414
internal_count=22298 12316 4660 2813 1055 58 997 871 1758 840 194 156 58 98 57 646 595 568 47 41 126 9982 47 51 93 521 60 461 47 414
shrinkage=0.075


Tree=36
num_leaves=31
num_cat=0
split_feature=30 31 27 27 21 22 27 30 8 27 2 2 24 25 8 15 14 1 2 12 18 27 16 21 21 8 8 9 27 6
split_gain=0.103567 0.366919 0.378445 1.38243 1.10902 0.66513 0.640674 0.639533 0.639213 0.377666 0.231456 0.232362 0.163512 0.153842 0.139207 0.11841 0.145762 0.111895 0.660264 0.111454 0.267668 0.150255 0.124714 0.139573 0.218338 0.0940119 0.0899219 0.0761449 0.134266 0.513223
threshold=-1.4579249999999997 -0.49274499999999971 -0.56065814999999997 0.27611750000000007 0.40469050000000006 0.15897500000000001 0.055811000000000097 -0.41763500000000015 -9.8794649999999993e-08 -0.12087000000000013 -0.6437274999999999 1.9419150000000001 7.4467800000000019e-05 -0.9832439999999999 -1.6185649999999999e-06 0.25257150000000006 -12.295749999999998 -16.417249999999999 0.27459550000000005 3.4500700000000007e-09 0.00019553650000000004 -0.05954919999999999 3.1555500000000003 0.0058458250000000007 0.005049365000000001 -1.6592599999999997e-07 -1.4901749999999999e-06 1.1012450000000001e-06 0.027610000000000138 1.1327450000000001e-05
decision_type=2 2 2 2 2 2 2 2 2 2 2 2 2 2 2 2 2 2 2 2 2 2 2 2 2 2 2 2 2 2
left_child=17 13 -3 4 7 6 8 15 -6 -9 -11 14 -5 -2 -12 16 -4 18 -1 20 -16 -21 23 24 -23 26 -18 28 -25 -30
right_child=1 2 3 12 5 -7 -8 9 -10 10 11 -13 -14 -15 19 -17 25 -19 -20 21 -22 22 -24 27 -26 -27 -28 -29 29 -31
leaf_value=0.01255185747033228 0.0053851094462775756 -0.00023092439414692286 0.0046610195297398602 -0.00025419944388448113 0.016813037387494529 -0.0021672929712804032 0.024435529977615392 -0.00065788197873944401 0.002674144716474001 -0.0037968295782047786 0.0091766079325073698 -0.0033717875776346773 0.0064053212325753906 -0.00018414156605600163 0.0043500389155399586 -0.0061079578465848628 -0.00063811959560936026 -0.00019681261407169707 -0.0052309181526652539 0.01097809427467707 -0.0057577684521675108 0.0041076543251345925 -0.0007729788980213925 0.0052213772292425313 -0.0045703369991055556 -0.0018523259408370735 0.0053034778697031507 0.0027980797356841236 0.017113729754419181 0.0010589180381170341
leaf_weight=23 28 1617 30 1668 35 20 21 106 37 20 36 21 21 7804 56 21 38 9935 24 21 20 73 24 293 21 162 23 55 24 21
leaf_count=23 28 1617 30 1668 35 20 21 106 37 20 36 21 21 7804 56 21 38 9935 24 21 20 73 24 293 21 162 23 55 24 21
internal_value=0 0.000145517 0.000686539 0.00120399 0.00317601 0.0102407 0.0129091 0.00242642 0.00954722 0.00350812 0.00415278 0.00439187 -0.000171399 -0.000164231 0.00464503 -0.000696284 -0.000247094 -0.000179541 0.00347129 0.00437671 0.00169009 0.00476052 0.004505 0.00476511 0.00216895 -0.000907378 0.00160215 0.00538607 0.00580719 0.00962148
internal_weight=0 12316 4484 2867 1178 113 93 1065 72 791 685 665 1689 7832 644 274 253 9982 47 608 76 532 511 487 94 223 61 393 338 45
internal_count=22298 12316 4484 2867 1178 113 93 1065 72 791 685 665 1689 7832 644 274 253 9982 47 608 76 532 511 487 94 223 61 393 338 45
shrinkage=0.075


Tree=37
num_leaves=31
num_cat=0
split_feature=30 30 27 27 20 2 24 30 23 5 21 9 2 24 14 1 27 27 20 12 1 5 27 2 2 7 17 17 27 17
split_gain=0.0886144 0.315233 0.330595 1.29465 1.05191 0.370986 0.369716 0.493942 0.166454 0.145598 0.166669 0.14511 0.237693 0.139536 0.131486 0.130267 0.124109 0.363476 0.0988051 0.101373 0.0971229 0.459814 0.0964711 0.0863349 0.0947899 0.109957 0.104981 0.135039 0.121924 0.0677754
threshold=-1.4579249999999997 0.22790999999999964 -0.2956995 0.27611750000000007 5.2471300000000007e-05 -0.61210349999999991 7.1280950000000013e-07 -0.41763500000000015 -1.64184 0.00011204500000000002 0.044249400000000008 -1.7273549999999995e-07 0.23827250000000003 7.4467800000000019e-05 -15.441949999999999 -9.5136499999999984 -0.12087000000000013 0.29687500000000006 -4.2545649999999996e-07 1.2903750000000002e-08 -15.973449999999998 0.00018082400000000003 -0.10000499999999989 -0.25634349999999989 -0.11181649999999999 0.00024458150000000007 -0.015250949999999997 -0.0071688249999999993 0.027610000000000138 0.25552050000000004
decision_type=2 2 2 2 2 2 2 2 2 2 2 2 2 2 2 2 2 2 2 2 2 2 2 2 2 2 2 2 2 2
left_child=20 2 -2 4 5 15 7 11 -3 22 -11 12 -7 29 16 -4 -10 -18 19 -13 21 -1 -9 -24 25 -25 -26 -28 -29 -5
right_child=1 8 3 13 -6 6 -8 9 14 10 -12 18 -14 -15 -16 -17 17 -19 -20 -21 -22 -23 23 24 26 -27 27 28 -30 -31
leaf_value=-0.001550795036266518 -0.00017096983334764462 0.0067073554568924006 0.0021759917291482062 -0.0001677989249133713 0.015642487157846947 0.0067452771276955243 0.010451281822931308 -0.00061765570244460839 -0.0017035358792636542 -0.0032441204339193064 0.0042971780188107754 -0.004065984256798401 -0.0024005215647834592 0.0059249221945979766 -0.00017359417041691428 -0.0050586158724529795 0.011542296265717596 -0.00016411879348467935 -0.0048298116381097905 0.0019934585690906514 -0.00018559382286464593 0.01158682003786618 0.0010190789202169982 0.0094203438666858232 -0.00022158575658169058 0.0045135681814928016 0.0088567744465667363 0.0045676492060883894 -0.00069418891669354495 -0.0042715552317373374
leaf_weight=47 1545 20 21 1437 38 33 39 21 25 32 34 25 31 21 8249 42 25 37 46 41 9913 22 36 49 27 54 38 300 27 23
leaf_count=47 1545 20 21 1437 38 33 39 21 25 32 34 25 31 21 8249 42 25 37 46 41 9913 22 36 49 27 54 38 300 27 23
internal_value=0 0.000134603 0.000685784 0.00123389 0.00342056 0.00290222 0.00332191 0.00297173 -0.000126608 0.00397001 0.000640791 -0.000533586 0.00231528 -0.000145138 -0.000143004 -0.00264708 0.00275743 0.00455621 -0.00216151 -0.000301785 -0.000166076 0.00263801 0.00436806 0.00456524 0.00482314 0.00684786 0.00429114 0.00462496 0.00413319 -0.000232447
internal_weight=0 12316 3960 2415 934 896 833 794 8356 618 66 176 64 1481 8336 63 87 62 112 66 9982 69 552 531 495 103 392 365 327 1460
internal_count=22298 12316 3960 2415 934 896 833 794 8356 618 66 176 64 1481 8336 63 87 62 112 66 9982 69 552 531 495 103 392 365 327 1460
shrinkage=0.075


Tree=38
num_leaves=31
num_cat=0
split_feature=27 28 30 14 23 30 6 26 1 23 22 30 1 13 14 19 5 30 30 16 30 23 3 13 19 7 7 27 11 25
split_gain=0.0770027 0.829382 0.530299 0.810544 0.717273 0.568225 0.504607 0.516889 0.359764 0.352751 0.366639 0.311985 0.241793 0.225562 0.206677 0.209343 0.20306 0.175086 0.139122 0.388747 0.129613 0.108335 0.112637 0.105771 0.115891 0.102587 0.101104 0.118893 0.0982196 0.301578
threshold=0.27611750000000007 0.10023800000000001 -2.0937499999999996 -13.349499999999997 -0.010905599999999998 0.22790999999999964 3.6872600000000003e-05 0.0010045400000000002 -7.3487849999999986 0.043618650000000009 -0.043520549999999998 -0.34990999999999989 -12.993899999999998 -1.6423149999999997 -6.9873149999999988 0.024962650000000006 0.00011204500000000002 -0.54040499999999969 1.5039749999999998 2.6117300000000006 -1.1032499999999998 0.0010471600000000003 1.3223650000000002e-05 -2.4408449999999995 0.072432800000000006 0.0014497100000000001 0.0028948850000000003 0.017084500000000061 4.4890950000000005e-07 -0.00031107599999999992
decision_type=2 2 2 2 2 2 2 2 2 2 2 2 2 2 2 2 2 2 2 2 2 2 2 2 2 2 2 2 2 2
left_child=1 2 12 4 -4 6 7 11 9 10 -7 14 -1 -6 15 17 28 -5 19 21 -16 22 -12 -8 -25 -24 -15 -28 29 -13
right_child=-2 -3 3 5 13 8 23 -9 -10 -11 18 16 -14 26 20 -17 -18 -19 -20 -21 -22 -23 25 24 -26 -27 27 -29 -30 -31
leaf_value=0.0075701202952768651 -0.00015989733381637923 -0.00014307577652867773 0.019824901466596531 -0.002795737166957653 0.010691148007334629 -0.010363700028683524 0.0022766005112821908 0.012057622901221083 -0.010117078209877945 0.0069938668336432712 0.0019620440815253039 -0.0051212146429315906 -0.00083587864579612867 0.0058588537662514935 -0.00015367217123639419 0.0062111326324520632 -0.002632656293280888 0.0054398745764046904 -0.00085413642495568124 0.011658584006654564 -0.0086922389210667469 0.0039609360535317086 -0.0070791981014063695 -0.0015484277417734964 -0.0081014201667130685 -0.0001386436658212915 -0.0031163944031244941 0.0041462305624008879 0.006364792597812881 0.0043643034758365793
leaf_weight=20 9627 10647 22 53 33 20 27 39 20 39 39 20 512 55 20 40 24 20 321 20 20 34 23 63 20 25 21 32 113 329
leaf_count=20 9627 10647 22 53 33 20 27 39 20 39 39 20 512 55 20 40 24 20 321 20 20 34 23 63 20 25 21 32 113 329
internal_value=0 0.000121485 0.00151317 0.00223809 0.00722962 0.00162588 0.00291086 0.00367532 -0.000245762 0.000133176 -0.000421942 0.00316372 -0.000519864 0.0052644 0.000210134 0.00185017 0.00409356 -0.000539405 8.43676e-06 0.00197217 -0.00442296 0.000371107 -0.00103182 -0.00180101 -0.00312746 -0.00346433 0.00360622 0.00126859 0.00444297 0.00382072
internal_weight=0 12671 2024 1492 163 1329 788 678 541 521 482 639 532 141 153 113 486 73 462 141 40 121 87 110 83 48 108 53 462 349
internal_count=22298 12671 2024 1492 163 1329 788 678 541 521 482 639 532 141 153 113 486 73 462 141 40 121 87 110 83 48 108 53 462 349
shrinkage=0.075


Tree=39
num_leaves=31
num_cat=0
split_feature=27 27 28 31 21 7 30 19 2 9 19 11 15 15 27 27 20 13 15 4 16 17 12 20 22 17 17 13 21 27
split_gain=0.0669919 0.39296 0.565973 0.377045 0.353226 1.15583 0.338548 0.321917 0.388129 0.307081 0.172433 0.155756 0.616518 0.34334 0.223666 0.208018 0.149599 0.110008 0.106314 0.120993 0.0957237 0.0786153 0.237882 0.120388 0.0609732 0.0607402 0.0542986 0.0648536 0.0535899 0.0866449
threshold=-0.6448704999999999 0.10019100000000004 0.027765000000000154 1.913999999999999 4.9419500000000012 0.0048049900000000012 3.2301850000000001 0.10691300000000002 0.31506600000000001 -5.8785649999999992e-06 0.0041752050000000004 -2.2885749999999998e-07 -0.11751549999999998 0.16396950000000002 0.027610000000000138 0.042715000000000176 4.6343700000000013e-06 1.7857100000000001 0.244314 -3.9489899999999989e-05 1.0056100000000001 -0.22830349999999996 0.00021264750000000003 -0.00025469549999999994 0.12762500000000002 0.0070385900000000008 0.0067269300000000008 0.75804600000000011 0.3823410000000001 0.027610000000000138
decision_type=2 2 2 2 2 2 2 2 2 2 2 2 2 2 2 2 2 2 2 2 2 2 2 2 2 2 2 2 2 2
left_child=-1 2 3 6 21 -6 7 9 18 10 -2 13 -13 14 25 17 -16 20 19 -9 26 22 -4 -23 -25 -11 27 -14 -5 -30
right_child=1 -3 4 28 5 -7 -8 8 -10 11 -12 12 15 -15 16 -17 -18 -19 -20 -21 -22 23 -24 24 -26 -27 -28 -29 29 -31
leaf_value=-0.00016098748531322016 -0.0079961813434651537 -0.00012311786040251086 0.0074560184503622744 -2.5702372094739837e-06 -0.0011335868485621177 0.019181558986336153 -0.0014260174615871317 0.0039290057109078258 0.01658128355629742 0.0036018569961799164 0.0016259038477437571 -0.0070602982795035865 0.0037439636153232475 -0.0046196699851531195 0.005586288075573975 -0.0026176566831418312 0.013960314538417151 -0.00031917493344798425 0.00089027117961086328 0.010196836601826362 0.009412681595547057 -0.0055048967514227587 -0.0031036801769265109 -9.9086850154458462e-05 0.0032525258199213214 0.0067462111349284115 0.00037956700427457693 0.0073352053994312875 0.00093110602319939055 -0.0054856700159030755
leaf_weight=8801 22 10243 28 147 50 23 90 41 20 195 20 37 132 22 24 30 24 29 25 30 21 23 21 2022 31 42 20 36 20 29
leaf_count=8801 22 10243 28 147 50 23 90 41 20 195 20 37 132 22 24 30 24 29 25 30 21 23 21 2022 31 42 20 36 20 29
internal_value=0 0.000104975 0.000822971 0.00225 0.000137375 0.00526708 0.00292656 0.0034353 0.00707652 0.00278945 -0.00341424 0.0032152 0.00201479 0.00440778 0.00510464 0.0032677 0.0097733 0.00400955 0.00509637 0.00657738 0.00461018 -3.88455e-05 0.00293043 -0.00010893 -4.8478e-05 0.00415908 0.00407373 0.00451352 -0.000718572 -0.00286658
internal_weight=0 13497 3254 1056 2198 73 860 770 116 654 42 612 305 307 285 268 48 238 96 71 209 2125 49 2076 2053 237 188 168 196 49
internal_count=22298 13497 3254 1056 2198 73 860 770 116 654 42 612 305 307 285 268 48 238 96 71 209 2125 49 2076 2053 237 188 168 196 49
shrinkage=0.075


Tree=40
num_leaves=31
num_cat=0
split_feature=27 28 30 21 3 30 9 18 30 2 2 30 17 0 8 19 3 4 1 21 4 27 27 30 17 14 16 21 7 15
split_gain=0.0579157 0.622833 0.412191 0.696795 0.819326 1.00255 0.603957 1.12747 0.458948 0.310889 0.277028 0.205881 0.246678 0.205316 0.142079 0.138168 0.192323 0.198012 0.134778 0.136634 0.128066 0.305134 0.22865 0.108003 0.103902 0.102908 0.0979338 0.0971967 0.0765046 0.105992
threshold=0.27611750000000007 0.10023800000000001 -2.5656249999999998 0.5512450000000001 2.4204200000000005e-05 -0.91107500000000019 6.8359950000000008e-06 0.013428100000000002 1.3164399999999998 -0.87358199999999997 0.61727300000000007 -0.70261499999999966 -0.044458749999999998 -0.41871999999999993 -5.1623949999999985e-07 -0.076423899999999989 1.3594150000000001e-05 4.9241450000000009e-05 -12.534349999999998 0.8868855000000001 7.5330400000000008e-06 0.017084500000000061 -0.027369999999999946 -0.87090499999999949 0.011819450000000002 -7.5043849999999992 0.56615050000000011 0.072232850000000015 9.0270300000000022e-05 -0.070760949999999975
decision_type=2 2 2 2 2 2 2 2 2 2 2 2 2 2 2 2 2 2 2 2 2 2 2 2 2 2 2 2 2 2
left_child=1 2 18 8 5 -5 7 13 9 26 11 14 -13 -7 -11 16 24 -18 -1 -20 28 22 -22 -16 -14 -12 -4 -10 29 -17
right_child=-2 -3 3 4 -6 6 -8 -9 27 10 25 12 15 -15 23 20 17 -19 19 -21 21 -23 -24 -25 -26 -27 -28 -29 -30 -31
leaf_value=0.0054043732979334892 -0.00013867119412526427 -0.00012390492637608019 -0.00020245562835563238 0.0224142551919123 -0.0058049519756423248 0.015105725119938141 0.014814664942116057 -0.010329400126983482 -0.0004161774783562345 0.005709219998309643 0.00022282178806050634 0.011417357072631213 0.0045843280180921089 0.0043590756127377976 0.00020849679365730461 -0.0035589756583794953 0.013152930505540486 0.0043106143782316742 -0.00029970421422609729 -0.0037659096887713906 -0.0044846831560293636 -0.0049365314316482424 0.0037876645143706958 -0.0058785349217941986 -0.0015869233640842138 -0.0052170483519956984 -0.0057600061281024651 -0.0037415125137704309 0.0037694169260850036 0.0039849189702760085
leaf_weight=20 9627 10647 42 26 24 20 29 26 281 22 71 21 57 20 91 20 28 29 378 77 22 38 129 20 21 27 31 60 372 22
leaf_count=20 9627 10647 42 26 24 20 29 26 281 22 71 21 57 20 91 20 28 29 378 77 22 38 129 20 21 27 31 60 372 22
internal_value=0 0.000105358 0.00131137 0.00190405 0.00685385 0.00936469 0.00579323 0.00182927 0.00139286 0.00216087 0.00250916 0.00292501 0.00340198 0.0097324 0.000203048 0.0031739 0.00534275 0.00865421 -0.000621423 -0.000886293 0.00268834 0.00107067 0.00258242 -0.000888266 0.00292284 -0.00127592 -0.00256251 -0.00100128 0.00342684 0.000392588
internal_weight=0 12671 2024 1549 145 121 95 66 1404 1063 990 892 759 40 133 738 135 57 475 455 603 189 151 111 78 98 73 341 414 42
internal_count=22298 12671 2024 1549 145 121 95 66 1404 1063 990 892 759 40 133 738 135 57 475 455 603 189 151 111 78 98 73 341 414 42
shrinkage=0.075


Tree=41
num_leaves=31
num_cat=0
split_feature=9 27 28 30 21 9 16 30 27 30 1 0 27 1 1 9 13 19 6 27 4 27 30 11 6 0 17 27 2 3
split_gain=0.0512168 0.0775815 0.583255 0.345434 0.736527 0.886172 1.29913 0.59194 0.559966 0.406764 0.311392 0.266409 0.25562 0.261339 0.212959 0.300131 0.16744 0.14593 0.198494 0.155715 0.130091 0.288126 0.138467 0.499427 0.114675 0.109924 0.0952874 0.0910675 0.090798 0.0876589
threshold=3.0959200000000007e-05 0.40341550000000004 0.10023800000000001 -2.0937499999999996 0.5512450000000001 6.8359950000000008e-06 9.9131750000000007 -0.46073500000000051 0.17470800000000006 1.3164399999999998 -13.060049999999999 -0.79267849999999995 0.10019100000000004 -5.8392349999999995 -14.117999999999999 -9.8041349999999972e-06 -1.6423149999999997 -0.15634049999999997 8.2484400000000016e-06 -0.04055499999999989 2.0677100000000002e-05 0.017084500000000061 -0.30494999999999978 -5.8256e-07 1.4431650000000001e-05 -10.289049999999998 1.5572200000000003 0.027610000000000138 -0.19053199999999998 1.7476800000000005e-05
decision_type=2 2 2 2 2 2 2 2 2 2 2 2 2 2 2 2 2 2 2 2 2 2 2 2 2 2 2 2 2 2
left_child=1 2 3 10 9 6 7 -6 -8 12 -1 -9 13 14 16 -16 -5 18 -17 24 22 29 23 -21 -19 -14 -3 -24 -18 -22
right_child=-2 26 -4 4 5 -7 8 11 -10 -11 -12 -13 25 -15 15 17 28 19 -20 20 21 -23 27 -25 -26 -27 -28 -29 -30 -31
leaf_value=0.0085133379473435605 -0.00027483412042302621 -0.00014974407887075324 -9.3673203215515009e-05 0.012423924513028135 0.02203704122262674 0.019824348998721687 -0.0097893888766079056 0.01260798871415318 0.0057020741506546195 -0.00073784932962501451 -0.00057490352919743672 0.00036645080879679878 0.0050744092985821358 -0.0046775401651057806 -0.003924102657076314 0.0024674022231816442 0.00067218529792236424 0.0016991390182738541 0.010781149645335972 0.0063227445524021543 0.0040163221240649798 -0.0073573212970846459 0.0035752266219914791 -0.0070749218435155158 -0.0056905241494567748 -0.00061667516068804882 0.0041573469998748523 0.0074292791583981232 0.0069102465878781265 -0.0017417573259444908
leaf_weight=22 3257 7817 8999 21 21 25 35 20 21 386 588 20 21 26 38 35 21 27 30 34 58 21 373 29 21 210 29 38 35 20
leaf_count=22 3257 7817 8999 21 21 25 35 20 21 386 588 20 21 26 38 35 21 27 30 34 58 21 373 29 21 210 29 38 35 20
internal_value=0 4.70109e-05 0.000173749 0.00126962 0.00185299 0.00700697 0.00426822 0.0118404 -0.00398009 0.00134615 -0.000247131 0.00648722 0.00210648 0.00272261 0.00296281 0.002564 0.00671269 0.0029234 0.00630452 0.00256949 0.00291323 0.000440483 0.00342969 0.000155565 -0.00153384 -9.93038e-05 -0.000133824 0.00393156 0.00457097 0.00253989
internal_weight=0 19041 11195 2196 1586 142 117 61 56 1444 610 40 1058 827 801 724 77 686 65 621 573 99 474 63 48 231 7846 411 56 78
internal_count=22298 19041 11195 2196 1586 142 117 61 56 1444 610 40 1058 827 801 724 77 686 65 621 573 99 474 63 48 231 7846 411 56 78
shrinkage=0.075


Tree=42
num_leaves=31
num_cat=0
split_feature=12 27 27 1 21 20 30 30 21 9 22 8 30 23 8 6 27 6 25 2 2 25 15 21 8 2 30 30 19 9
split_gain=0.0482126 0.069268 0.344383 0.329703 1.62897 0.77457 0.572201 0.308018 0.408397 0.723328 0.771222 0.699557 0.475158 0.20012 0.229101 0.254347 0.184624 0.264699 0.148149 0.26427 0.238596 0.720332 0.378844 0.177164 0.175475 0.155028 0.14362 0.190731 0.123166 0.118745
threshold=0.0087331100000000005 -0.6448704999999999 0.27611750000000007 -13.26845 2.1332350000000004 -0.00010740549999999999 2.3127450000000001 -1.3849050000000001 0.40469050000000006 1.1012450000000001e-06 0.11442250000000002 8.0385750000000014e-07 0.89815000000000034 0.00070824150000000014 -1.1656099999999998e-06 1.2807050000000002e-06 -0.10000499999999989 3.6872600000000003e-05 0.00081861700000000011 -0.086545349999999979 0.015928550000000003 -0.00036092549999999996 -0.065661549999999985 0.029435450000000005 -6.243089999999998e-08 0.19074250000000001 -0.26585000000000031 0.15577500000000025 0.079740200000000011 -2.2442049999999996e-08
decision_type=2 2 2 2 2 2 2 2 2 2 2 2 2 2 2 2 2 2 2 2 2 2 2 2 2 2 2 2 2 2
left_child=1 -1 3 4 6 -6 13 -5 16 10 12 -11 -10 14 -3 -16 -9 18 20 24 21 -18 -22 25 -20 -24 -23 -28 -19 -15
right_child=-2 2 -4 7 5 -7 -8 8 9 11 -12 -13 -14 29 15 -17 17 28 19 -21 22 26 23 -25 -26 -27 27 -29 -30 -31
leaf_value=-0.00012879715782412483 -0.000269369512915654 0.013929218924438049 -0.00010657009488112863 -0.00034253365164421429 0.02597149948547171 0.0071659435925994323 -0.0011106229589478447 -0.00025766829692661726 0.010819861533634952 0.021123035889118909 -0.0090844586870938143 0.003712086159147374 -0.0034620833698863862 -0.0019435485429531926 0.011871219623135403 0.0016336728793333371 -0.010231444287466513 -0.00032485510283597826 0.010461417740831772 -0.0021831298250337846 -0.0030644222787540296 -0.0028758843577144527 0.003563903496499485 0.0065859254006056739 0.0037261076777808325 -0.0021110997779942406 0.0033656153432093561 -0.0013848044672076039 -0.0056564528036922692 0.0041844821536948943
leaf_weight=7691 3201 21 7998 1332 22 28 253 549 38 25 29 27 20 29 20 43 34 114 36 26 51 39 176 96 55 32 170 66 31 46
leaf_count=7691 3201 21 7998 1332 22 28 253 549 38 25 29 27 20 29 20 43 34 114 36 26 51 39 176 96 55 32 170 66 31 46
internal_value=0 4.51512e-05 0.000162444 0.000793773 0.00265658 0.0154404 0.00110515 0.000501642 0.00119832 0.00508465 0.000901882 0.0120827 0.00589505 0.00463088 0.00714507 0.00488369 0.000832086 0.00147817 0.00202454 0.00448535 0.00159094 6.70839e-05 0.00291734 0.00392086 0.00639063 0.00269083 0.00134036 0.00203711 -0.00146471 0.00181498
internal_weight=0 19097 11406 3408 462 50 412 2946 1614 139 87 52 58 159 84 63 1475 926 781 117 664 309 355 304 91 208 275 236 145 75
internal_count=22298 19097 11406 3408 462 50 412 2946 1614 139 87 52 58 159 84 63 1475 926 781 117 664 309 355 304 91 208 275 236 145 75
shrinkage=0.075


Tree=43
num_leaves=31
num_cat=0
split_feature=12 27 27 1 21 20 30 30 20 2 1 18 27 26 18 27 12 7 27 30 20 8 23 21 30 18 17 27 24 27
split_gain=0.0412519 0.0592674 0.294662 0.282102 1.39379 0.662741 0.489589 0.263548 0.349642 0.813923 0.613998 0.525192 0.246719 0.306377 0.187502 0.182795 0.331205 0.207024 0.299228 0.142224 0.135186 0.120684 0.148804 0.196068 0.107687 0.106898 0.105661 0.171988 0.112038 0.174653
threshold=0.0087331100000000005 -0.6448704999999999 0.27611750000000007 -13.26845 2.1332350000000004 -0.00010740549999999999 2.3127450000000001 -1.3849050000000001 2.3658100000000003e-05 -0.065206649999999991 -9.0435549999999996 0.0087796100000000019 -0.04055499999999989 0.003294955 0.0028365400000000007 0.027610000000000138 3.9662250000000003e-09 0.00020479100000000004 0.14943000000000009 0.74135500000000054 9.0694250000000017e-06 2.2426800000000005e-08 0.00044719850000000006 0.14149300000000004 -0.50204999999999955 0.0028365400000000007 -0.025227749999999997 -0.22108000000000014 -2.7413399999999998e-07 -0.22108000000000014
decision_type=2 2 2 2 2 2 2 2 2 2 2 2 2 2 2 2 2 2 2 2 2 2 2 2 2 2 2 2 2 2
left_child=1 -1 3 4 6 -6 14 -5 12 10 -10 -11 26 15 21 19 -17 18 -18 24 -19 22 23 -3 -14 -8 27 -9 29 -28
right_child=-2 2 -4 7 5 -7 25 8 9 11 -12 -13 13 -15 -16 16 17 20 -20 -21 -22 -23 -24 -25 -26 -27 28 -29 -30 -31
leaf_value=-0.0001191373728296675 -0.00024916680122505065 0.0033884122903228586 -9.8577337253866423e-05 -0.00031684363072076438 0.024023637179793281 0.00662849831652628 -0.0003199689243341857 -0.00039815026124975143 0.0038666739598205635 0.00688061985918986 0.019583251937809916 -0.0090661588456266776 -0.0025741782938976856 0.010609737322166829 0.011073383020993787 -0.008483209359110332 0.010637529996109571 -0.00084538451382583769 -0.0011062969647236572 -0.0032392321717052254 0.0052141161602618094 0.00069500115325730615 0.0018407026671831352 0.013648790616716722 0.0027919703892143842 -0.004387273453495895 -0.00056507350639619215 -0.0089525407401379199 -0.00027044323808647787 0.0086309806560166177
leaf_weight=7691 3201 22 7998 1332 22 28 209 39 29 21 27 26 22 21 20 24 26 208 23 25 23 58 39 20 480 44 26 20 553 21
leaf_count=7691 3201 22 7998 1332 22 28 209 39 29 21 27 26 22 21 20 24 26 208 23 25 23 58 39 20 480 44 26 20 553 21
internal_value=0 4.17648e-05 0.00015026 0.00073424 0.00245734 0.0142824 0.00102226 0.000464019 0.00110845 0.00533645 0.0114443 -0.001941 0.000820239 0.00166309 0.00428356 0.00143701 -2.75703e-05 0.000697199 0.00512512 0.00228185 -0.000242058 0.00330661 0.00517665 0.00827431 0.0025568 -0.00102733 -0.000269461 -0.00329794 2.83393e-05 0.0035438
internal_weight=0 19097 11406 3408 462 50 412 2946 1614 103 56 47 1511 852 159 831 304 280 49 527 231 139 81 42 502 253 659 59 600 47
internal_count=22298 19097 11406 3408 462 50 412 2946 1614 103 56 47 1511 852 159 831 304 280 49 527 231 139 81 42 502 253 659 59 600 47
shrinkage=0.075


Tree=44
num_leaves=31
num_cat=0
split_feature=2 11 2 11 15 25 15 1 27 27 27 17 1 11 31 1 23 31 22 20 7 25 27 2 25 0 25 22 27 18
split_gain=0.0366164 0.0668577 0.0475717 0.121881 2.60838 0.101232 0.0983354 0.101599 0.0913109 0.0674507 0.491269 0.276315 0.717727 0.293299 0.186591 0.41784 0.331901 0.256486 0.150235 0.218352 0.151255 0.146016 0.133238 0.120107 0.476787 0.180544 0.176746 0.167414 0.135504 0.122863
threshold=-2.0605549999999995 -0.0037126899999999998 1.4400350000000002 0.00023026400000000002 0.73351250000000012 -0.9832439999999999 1.0940150000000004 -12.592749999999997 0.5940319500000002 -0.2956995 0.17470800000000006 -0.074875099999999986 -10.544849999999999 -6.9364099999999992e-06 -1.1930499999999997 -13.26845 -0.0072742849999999993 0.35028500000000001 -0.011572799999999999 -1.7011199999999994e-05 0.0010783800000000003 0.025903700000000005 -0.10000499999999989 0.085977650000000003 -0.00029908249999999995 7.3648950000000015 -7.2962899999999979e-05 0.00013684100000000004 -0.027369999999999946 0.00020809400000000003
decision_type=2 2 2 2 2 2 2 2 2 2 2 2 2 2 2 2 2 2 2 2 2 2 2 2 2 2 2 2 2 2
left_child=-1 -2 3 6 -5 -4 9 8 -8 -3 11 12 -11 -14 -13 16 -16 18 -17 20 -20 -15 -21 24 -24 29 28 -27 -25 -26
right_child=1 2 5 4 -6 -7 7 -9 -10 10 -12 14 13 21 15 17 -18 -19 19 22 -22 -23 23 26 25 27 -28 -29 -30 -31
leaf_value=-0.00023748555220534862 0.0039949217684352332 -0.00010131660630098022 0.0044524640501969349 -2.8491956833230515e-05 0.024372265338600891 -0.00024426255308683667 -0.0073262240097392347 -0.00064426703715952515 -0.0011580639960205492 0.017930761906318364 -8.08484968717938e-05 -0.00085544928966273487 0.0083715613151940961 0.0022739395896860513 0.014115599143717969 0.0075765322945598092 0.0038260834479297043 1.4987083238893882e-05 0.0012396884767804294 -0.001686059865169227 -0.0078737685822748704 -0.0067888321037753484 -0.0088912992621771984 0.01029914502147585 0.0020258923783342563 0.0014045065324122118 -0.0015511819627135992 -0.0063931992859579626 0.0042020535886924905 0.0052454611830072299
leaf_weight=3138 24 6466 26 472 26 3601 27 242 27 20 6474 232 23 20 21 27 110 678 20 45 21 20 22 25 155 59 25 21 114 117
leaf_count=3138 24 6466 26 472 26 3601 27 242 27 20 6474 232 23 20 21 27 110 678 20 45 21 20 22 25 155 59 25 21 114 117
internal_value=0 3.88951e-05 3.39335e-05 9.11198e-05 0.00124544 -0.000210594 5.28243e-05 -0.00130064 -0.00424214 8.00499e-05 0.000222215 0.00132758 0.00555257 0.00162299 0.00112033 0.00143429 0.00547555 0.00103594 0.00209924 0.00186224 -0.00342818 -0.00225745 0.00223429 0.0025622 0.00182014 0.00248961 0.00425447 -0.000642391 0.00529865 0.00341078
internal_weight=0 19160 19136 15509 498 3627 15011 296 54 14715 8249 1775 83 63 1692 1460 131 1329 651 624 41 40 583 538 374 352 164 80 139 272
internal_count=22298 19160 19136 15509 498 3627 15011 296 54 14715 8249 1775 83 63 1692 1460 131 1329 651 624 41 40 583 538 374 352 164 80 139 272
shrinkage=0.075


Tree=45
num_leaves=31
num_cat=0
split_feature=8 16 8 22 27 27 21 10 20 22 3 16 27 27 26 1 28 27 22 8 18 28 26 27 31 17 9 15 12 1
split_gain=0.0325268 0.0551196 0.0521851 0.84771 0.591901 1.39607 0.749125 0.186036 0.0984325 0.0738717 0.0632571 0.0620198 0.111293 0.287193 0.0457432 0.0414733 0.0309256 0.455875 0.179715 0.448058 0.275102 0.142423 0.132238 0.21988 0.0984917 0.0909849 0.266313 0.0878701 0.0721755 0.0769196
threshold=-4.308574999999999e-05 31.953800000000005 -1.0871249999999998e-06 -0.043520549999999998 0.40341550000000004 -0.56065814999999997 2.5533900000000003 7.906765000000001e-07 -0.00056516949999999987 -0.15237049999999999 7.8910150000000022e-06 9.5279450000000008 0.42852950000000001 -0.19251849999999998 0.003911635000000001 -16.098949999999999 0.10023800000000001 0.042715000000000176 0.0023240750000000005 -4.6303149999999994e-09 0.0051459650000000015 0.017674999999999889 0.00040055500000000008 -0.027369999999999946 0.54042000000000023 0.0081268450000000023 -5.6528449999999993e-08 -0.073329949999999991 3.907915000000001e-08 -6.2342049999999993
decision_type=2 2 2 2 2 2 2 2 2 2 2 2 2 2 2 2 2 2 2 2 2 2 2 2 2 2 2 2 2 2
left_child=1 -1 3 4 5 -2 7 -7 -5 10 -4 -10 13 -13 -6 -12 17 18 21 -20 22 24 23 -21 25 -11 -27 -26 -23 -30
right_child=2 -3 9 8 14 6 -8 -9 11 16 15 12 -14 -15 -16 -17 -18 -19 19 20 -22 28 -24 -25 27 26 -28 -29 29 -31
leaf_value=-0.00019527674062521836 -0.00022725330360778818 -0.0024411916020523807 0.0032140586787136271 0.0043329031497035368 0.0034821364534218442 0.0051104457640758485 0.02770663946503191 0.015217563223892023 1.1039226807268861e-05 0.0027707229275144019 -0.0039035449851116235 -0.00046641389533760955 0.0010621433904937779 -0.011267897533834913 -0.00059820229463345158 -0.00083961288883446523 -9.5230610710336314e-05 -8.8218992244183195e-05 -0.0059639187318018885 0.011131481742551031 0.012510987287924553 0.0019489218047099364 0.00012559280863830023 0.0027023860997861466 0.0021466492278601175 0.00436901341072371 -0.0055541055590107007 -0.0029990978847490623 -0.00043546595609085233 -0.005150032682881416
leaf_weight=2526 55 63 21 29 20 20 21 21 2757 382 26 45 45 20 68 562 7854 7214 22 27 26 63 35 49 35 32 29 40 169 22
leaf_count=2526 55 63 21 29 20 20 21 21 2757 382 26 45 45 20 68 562 7854 7214 22 27 26 63 35 49 35 32 29 40 169 22
internal_value=0 -0.000249928 3.28309e-05 0.00031526 0.00497602 0.0084711 0.0161874 0.0102873 -1.46619e-05 -1.99036e-05 -0.000830639 -5.86379e-05 -0.001805 -0.00378995 0.000329147 -0.000975093 1.0957e-05 0.000113351 0.00167525 0.00397133 0.00556678 0.00120235 0.0039402 0.00569693 0.00191568 0.00234121 -0.000348535 -0.000597749 -0.000252411 -0.000978505
internal_weight=0 2589 19709 3101 205 117 62 41 2896 16608 609 2867 110 65 88 588 15999 8145 931 159 137 772 111 76 518 443 61 75 254 191
internal_count=22298 2589 19709 3101 205 117 62 41 2896 16608 609 2867 110 65 88 588 15999 8145 931 159 137 772 111 76 518 443 61 75 254 191
shrinkage=0.075


Tree=46
num_leaves=31
num_cat=0
split_feature=9 9 23 17 23 19 27 27 27 27 28 21 1 27 12 1 9 30 1 21 22 22 30 30 21 12 24 12 20 20
split_gain=0.0290663 0.0518093 0.994332 0.342791 0.111846 0.0618967 0.0440397 0.483407 0.0836373 0.0376011 0.233769 0.257292 1.22712 0.211752 0.174411 0.168937 0.181592 0.149093 0.187546 0.175886 0.151495 0.136149 0.127132 0.107822 0.0985583 0.20851 0.122558 0.0850711 0.143939 0.0810151
threshold=3.0959200000000007e-05 9.9481050000000026e-06 0.21288950000000004 -0.28182749999999995 0.21288950000000004 -1.9581599999999997 0.23026500000000019 0.0035900000000002046 -0.22108000000000014 0.62059100000000023 0.10023800000000001 2.7222300000000006 -13.736049999999999 0.10019100000000004 0.00010274350000000002 -16.901749999999996 -8.1749699999999984e-06 -1.9130800000000001 -5.8392349999999995 0.29489450000000006 -0.020437099999999996 0.023478650000000004 0.74135500000000054 -0.57660999999999951 0.0078104800000000007 1.1551700000000003e-09 3.6079000000000008e-08 3.2350800000000005e-08 1.3207350000000002e-06 -1.7011199999999994e-05
decision_type=2 2 2 2 2 2 2 2 2 2 2 2 2 2 2 2 2 2 2 2 2 2 2 2 2 2 2 2 2 2
left_child=1 4 5 -4 9 -3 7 8 -6 10 11 13 -13 15 -14 -1 -17 -18 19 22 -21 -22 23 -19 26 -26 27 -25 -29 -27
right_child=-2 2 3 -5 6 -7 -8 -9 -10 -11 -12 12 14 -15 -16 16 17 18 -20 20 21 -23 -24 24 25 29 -28 28 -30 -31
leaf_value=0.0070778939293826889 -0.00020704239508483909 0.004114415194587764 0.0042581973562619167 0.016217539491091362 -0.00036602300995787029 -0.00010403108486900692 -0.00035264073450155993 -0.011603581627830864 -0.0050781019771618408 -9.8453211436783569e-05 -6.5930252378025556e-05 0.019620734322613673 0.0043127567461633586 -6.6077808308566765e-05 -0.0037120732483065066 -0.0012277328934300492 -0.00044816627378168049 -0.0016721081619974797 -0.0047332929496326911 0.00069783593846849449 0.011932051045820116 0.0039363603709953957 -0.00083093664568598168 0.0035312331777690399 -0.0040356412307237799 0.00030101442364115352 -0.0045638063589909248 -0.0049389853404136373 0.0021746294147305888 0.0036216201967338721
leaf_weight=28 3257 20 26 28 269 900 326 25 23 6606 8249 23 25 1266 39 153 176 39 23 23 25 23 91 66 23 46 21 24 48 407
leaf_count=28 3257 20 26 28 269 900 326 25 23 6606 8249 23 25 1266 39 153 176 39 23 23 25 23 91 66 23 46 21 24 48 407
internal_value=0 3.5415e-05 0.000568239 0.0104593 6.69024e-06 -1.23257e-05 -0.000964708 -0.00159415 -0.00073718 4.25378e-05 0.000128634 0.000753375 0.00476236 0.000612851 -0.000577374 0.0013197 0.00118398 0.00154049 0.00194795 0.00213176 0.00570264 0.00810078 0.00180035 0.00215561 0.0023907 0.00293073 0.000774013 0.00158629 -0.000196576 0.00328443
internal_weight=0 19041 974 54 18067 920 643 317 292 17424 10818 2569 87 2482 64 1216 1188 1035 859 836 71 48 765 674 635 476 159 138 72 453
internal_count=22298 19041 974 54 18067 920 643 317 292 17424 10818 2569 87 2482 64 1216 1188 1035 859 836 71 48 765 674 635 476 159 138 72 453
shrinkage=0.075


Tree=47
num_leaves=31
num_cat=0
split_feature=12 22 27 27 22 8 17 30 21 25 2 28 14 6 17 30 30 0 30 14 0 17 16 27 27 0 27 30 18 27
split_gain=0.026004 0.0339027 0.0328561 0.162955 0.180895 1.49545 0.246736 0.144638 0.686918 0.215119 0.820588 0.139513 0.185271 0.19811 0.133334 0.341067 0.135778 0.127918 0.102839 0.241556 0.143169 0.139232 0.137076 0.1477 0.142437 0.102638 0.0994046 0.0917256 0.151446 0.107052
threshold=0.0087331100000000005 -0.27367349999999996 -0.6448704999999999 0.27611750000000007 -0.27367349999999996 -1.7147549999999997e-06 -0.37592899999999996 -4.5575699999999992 3.1166000000000005 -0.043826949999999996 0.15656300000000004 0.10023800000000001 -13.282899999999998 3.0306100000000004e-05 -0.04635754999999999 -0.6183000000000004 0.74135500000000054 4.0357400000000014 -0.22440000000000146 -6.9873149999999988 -0.96792249999999991 -0.021953799999999999 0.34485100000000007 0.017084500000000061 0.042715000000000176 8.3673550000000017 -0.027369999999999946 -2.0937499999999996 0.00097153750000000003 0.055811000000000097
decision_type=2 2 2 2 2 2 2 2 2 2 2 2 2 2 2 2 2 2 2 2 2 2 2 2 2 2 2 2 2 2
left_child=2 -2 -1 4 5 -4 -6 -8 9 10 -9 12 17 14 15 -14 18 -11 19 27 -21 -20 23 -23 26 -15 -24 -16 29 -29
right_child=1 -3 3 -5 6 -7 7 8 -10 11 -12 -13 13 25 16 -17 -18 -19 21 20 -22 22 24 -25 -26 -27 -28 28 -30 -31
leaf_value=-8.6641816069045265e-05 -0.0015859606104470458 -0.00015490998098842475 0.020413284762268988 -7.1108270848943843e-05 -0.0056341007375472997 -0.0015915109218068708 -0.00047674203449960608 -0.0042121996108617169 0.014619284702057483 0.0050918470220767623 0.014818389974299441 -6.7139641510142271e-05 -0.0010098906902130693 -0.00046867225839264387 -0.00012364858885854528 0.011507206105306976 -0.00091927514144645687 0.00031298867055264292 -0.0038936899087275378 -0.00023436506799043853 -0.0083441250509640671 0.0020170150270373329 0.007126719630177831 -0.0034634426896445803 0.0092313985949585911 -0.0058855578433264916 0.0023948019831630594 0.0031579137120154753 0.0074009669018414567 -0.0017058790841606706
leaf_weight=7691 96 3105 23 7998 37 71 650 25 20 100 26 1100 25 312 124 24 155 46 20 24 25 204 30 32 25 21 149 70 30 40
leaf_count=7691 96 3105 23 7998 37 71 650 25 20 100 26 1100 25 312 124 24 155 46 20 24 25 204 30 32 25 21 149 70 30 40
internal_value=0 -0.000197828 3.31595e-05 0.000113941 0.00054822 0.00379264 0.000456194 0.000524958 0.000772809 0.000666584 0.00548967 0.000570349 0.00105197 0.000769528 0.00130799 0.00512093 0.00110666 0.00358618 0.00151289 0.000464177 -0.004372 0.00222648 0.00250467 0.0012739 0.00392849 -0.000810278 0.00318786 0.0013618 0.00267748 0.00138926
internal_weight=0 3201 19097 11406 3408 94 3314 3277 2627 2607 51 2556 1456 1310 977 49 928 146 773 313 49 460 440 236 204 333 179 264 140 110
internal_count=22298 3201 19097 11406 3408 94 3314 3277 2627 2607 51 2556 1456 1310 977 49 928 146 773 313 49 460 440 236 204 333 179 264 140 110
shrinkage=0.075


Tree=48
num_leaves=31
num_cat=0
split_feature=8 16 8 22 27 27 18 10 20 22 18 27 27 3 5 1 27 27 8 20 30 30 0 13 24 19 16 17 27 28
split_gain=0.0236062 0.0517127 0.0409515 0.65279 0.451117 1.06716 0.613452 0.403795 0.0822425 0.0568 0.0553211 0.0712128 0.240408 0.0500054 0.0414221 0.0380443 0.0307429 0.191873 0.0303325 0.0297755 0.121465 0.0268299 0.0500094 0.0716669 0.0255634 0.023716 0.0221866 0.0191479 0.0179437 0.179421
threshold=-4.308574999999999e-05 6.5351050000000006 -1.0871249999999998e-06 -0.043520549999999998 0.40341550000000004 -0.56065814999999997 0.017143200000000004 1.6335850000000003e-06 -0.00056516949999999987 -0.15237049999999999 0.0065381400000000004 0.34729650000000006 -0.14356249999999995 7.8910150000000022e-06 1.6442350000000004e-05 -16.098949999999999 0.3752950000000001 -0.2956995 -1.9897499999999997e-05 -3.4138749999999996e-05 -0.54040499999999969 -1.9530599999999996 -6.2173699999999998 -0.22723149999999998 7.4467800000000019e-05 12.241650000000002 81.672750000000022 0.10502200000000002 0.27611750000000007 0.10023800000000001
decision_type=2 2 2 2 2 2 2 2 2 2 2 2 2 2 2 2 2 2 2 2 2 2 2 2 2 2 2 2 2 2
left_child=1 -1 3 4 5 -2 7 -7 -5 13 19 12 -12 -4 -6 -15 17 -3 -13 20 -10 -17 23 -23 25 26 28 -21 29 -11
right_child=2 16 9 8 14 6 -8 -9 10 24 11 18 -14 15 -16 21 -18 -19 -20 27 -22 22 -24 -25 -26 -27 -28 -29 -30 -31
leaf_value=-0.00010454827675858444 -0.0001855977324686881 -0.00035857430549842046 0.0028665122359858028 0.0039626155517280808 0.0033117314487753902 0.0011997090451768598 0.024589795033846579 0.01609020463324019 -0.00018576027357898725 0.00081528610582173985 -0.00037796510256178162 0.0026787884826522455 -0.0088926958994796634 -0.0036628716478914543 -0.00057110804489334834 -0.00027768549528168763 -0.00026325016634159819 -0.006695932864719604 -0.00057659724430065933 -5.0137824718087745e-05 0.0046631824704674654 -0.0067714974977466872 -0.00083728989318676355 -0.00049831691727376894 -0.0010432059978140471 0.0025978905160445719 0.001823669112299716 0.0018253599111278983 -8.6486258009450662e-05 -7.0518308687554919e-05
leaf_weight=2344 55 106 21 29 20 20 21 21 114 1541 66 21 26 26 68 320 103 36 69 2501 39 21 201 20 129 20 38 31 6491 7780
leaf_count=2344 55 106 21 29 20 20 21 21 114 1541 66 21 26 26 68 320 103 36 69 2501 39 21 201 20 129 20 38 31 6491 7780
internal_value=0 -0.000212916 2.79689e-05 0.00027816 0.00436812 0.00741937 0.0141657 0.00882655 -1.13576e-05 -1.87461e-05 -5.15548e-05 -0.00131696 -0.0027843 -0.000729656 0.000311355 -0.00085809 -0.0012497 -0.00196523 0.000182993 3.42193e-05 0.00105024 -0.000728332 -0.00132423 -0.00371141 8.31457e-06 1.68619e-05 1.36051e-05 -2.71756e-05 9.25507e-06 7.59278e-05
internal_weight=0 2589 19709 3101 205 117 62 41 2896 16608 2867 182 92 609 88 588 245 142 90 2685 153 562 242 41 15999 15870 15850 2532 15812 9321
internal_count=22298 2589 19709 3101 205 117 62 41 2896 16608 2867 182 92 609 88 588 245 142 90 2685 153 562 242 41 15999 15870 15850 2532 15812 9321
shrinkage=0.075


Tree=49
num_leaves=31
num_cat=0
split_feature=8 24 1 8 4 21 14 9 16 17 27 27 27 22 17 1 9 18 27 26 17 30 30 14 30 2 17 5 21 27
split_gain=0.0221542 0.0599464 0.0304672 0.0277459 0.0635166 0.909678 0.0451182 0.125375 0.044725 0.0353798 0.0392438 0.0337731 0.193598 0.301727 0.19086 0.741462 0.141348 0.146856 0.108117 0.180291 0.159598 0.131616 0.164337 0.106862 0.10471 0.110701 0.0941584 0.0852417 0.0895265 0.0918042
threshold=2.1216650000000003e-05 1.0790650000000003e-05 -15.516849999999998 -4.308574999999999e-05 -0.00011564799999999999 5.5669900000000014 -13.383999999999999 -1.8308149999999995e-05 30.438750000000002 -1.7215749999999999 1.1367995000000002 0.40341550000000004 -0.16857014999999984 -0.83723649999999994 -0.074875099999999986 -11.782849999999998 3.9932900000000004e-07 0.0082347650000000015 0.042715000000000176 0.017041700000000003 0.12775000000000003 -0.57660999999999951 -0.79017499999999907 -13.015549999999999 0.3063650000000005 -0.26142299999999996 0.10024645000000001 -0.00011680399999999999 0.044249400000000008 -0.027369999999999946
decision_type=2 2 2 2 2 2 2 2 2 2 2 2 2 2 2 2 2 2 2 2 2 2 2 2 2 2 2 2 2 2
left_child=3 -2 -3 8 5 6 7 -5 -1 10 -6 12 -11 -14 15 -15 17 -17 20 26 21 22 -16 -23 25 -25 -20 -27 -29 -30
right_child=1 2 -4 4 9 -7 -8 -9 -10 11 -12 -13 13 14 18 16 -18 -19 19 -21 -22 23 -24 24 -26 27 -28 28 29 -31
leaf_value=-0.00014460229011619343 -0.00010616099885487675 -0.0043199174237452094 -0.0011959755562259034 0.0056316475151652412 -0.0045082117497076976 0.014843258546461584 -0.0002416187999164232 6.3425798353544156e-07 -0.0020533372412155329 -4.5856678472103819e-05 -0.00034355490705430773 -8.3445034358098694e-05 0.0091322198946727443 0.013767927706030603 7.6108723792725973e-05 0.0013618598090639959 0.0041996190551425831 -0.0067012787780186042 -6.8260757610624342e-05 -0.0058325263347433062 0.0063934010508819488 0.0039405041906219488 -0.0059581795062903049 -0.0024391084607486842 -0.00058169607781844411 -0.0026951241322835397 0.0042105918185552579 0.0016615362351003926 0.0078971741263688146 0.0022683376277515118
leaf_weight=2518 3148 20 144 30 20 25 364 86 71 7209 35 6517 24 30 272 27 28 24 810 30 30 81 28 36 166 22 30 406 28 39
leaf_count=2518 3148 20 144 30 20 25 364 86 71 7209 35 6517 24 30 272 27 28 24 810 30 30 81 28 36 166 22 30 406 28 39
internal_value=0 -0.00017899 -0.00157694 3.12237e-05 6.72507e-05 0.000895319 0.000168864 0.00145693 -0.000196947 4.09371e-05 -0.00185798 4.75318e-05 0.000139117 0.000770798 0.000674643 0.00372997 -8.19132e-05 -0.00243256 0.000506276 -0.000119482 0.00099762 0.000847459 -0.000487092 0.00136207 0.00106242 0.0015764 8.45554e-05 0.00186844 0.0020807 0.00462069
internal_weight=0 3312 164 18986 16397 505 480 116 2589 15892 55 15837 9320 2111 2087 109 79 51 1978 870 1108 1078 300 778 697 531 840 495 473 67
internal_count=22298 3312 164 18986 16397 505 480 116 2589 15892 55 15837 9320 2111 2087 109 79 51 1978 870 1108 1078 300 778 697 531 840 495 473 67
shrinkage=0.075


Tree=50
num_leaves=31
num_cat=0
split_feature=17 11 30 28 28 12 28 23 2 2 15 28 28 2 25 23 30 28 28 14 28 28 28 15 1 4 6 6 1 14
split_gain=0.0205547 0.0822273 0.0731088 0.053063 0.231693 0.0872927 0.130917 0.0529513 0.0230643 0.0378216 1.01902 0.56303 0.838137 0.578689 0.0590932 0.0349439 0.0345018 0.0560222 0.137711 0.0328618 0.0323117 0.124514 0.0807186 0.0290206 0.211558 0.0364816 0.023186 0.0194803 0.0340825 0.0705295
threshold=-0.37592899999999996 0.0063754350000000013 0.081500000000000142 -0.23026500000000014 0.027765000000000154 0.00027676250000000007 0.47977050000000004 0.77093900000000015 1.8189050000000002 0.49035250000000002 0.63642550000000009 0.69713899999999995 -0.9099664999999999 0.77860000000000007 -0.16660249999999996 -0.014731999999999997 -1.7249599999999996 0.29617700000000008 -0.67919649999999976 -19.847649999999998 0.67211000000000021 -0.29687499999999994 0.12098500000000002 -1.5736749999999997 -14.117999999999999 5.1247850000000004e-05 0.00016913000000000003 3.0306100000000004e-05 -18.784849999999995 -9.9247749999999986
decision_type=2 2 2 2 2 2 2 2 2 2 2 2 2 2 2 2 2 2 2 2 2 2 2 2 2 2 2 2 2 2
left_child=1 3 -3 -1 -5 6 -6 -7 9 14 19 12 -12 -14 16 20 -2 18 -18 -11 21 -10 -23 24 -16 -26 -21 28 29 -25
right_child=8 2 -4 4 5 7 -8 -9 15 10 11 -13 13 -15 23 -17 17 -19 -20 26 -22 22 -24 27 25 -27 -28 -29 -30 -31
leaf_value=-0.00018229459788283078 -0.00039756031533981132 -0.00044627738611779932 0.0059664972598693572 -0.0094475885666906838 0.0059149068337865174 -0.0061122192494704819 -0.00099967171036448917 -0.00084704392762172825 -0.00022573238423695749 -0.0029115756005289174 -0.00092734813685638076 -0.00043616267855008296 0.009206989167749112 0.026221313933968881 0.0076926815566801688 -9.7604739999592211e-05 -0.00089127604442182926 -0.00046177439178011673 -0.0085335372177983773 -0.00010053674934487536 -0.00010856292361766082 -0.0077935579600743946 -0.0017666719487460796 0.0054569958059255434 -0.00054030094271605243 0.002913510067264724 0.0019109946755634156 -0.00010926306511284236 6.312636398897605e-05 -0.00046712435765899641
leaf_weight=278 202 20 20 20 20 22 67 21 104 23 20 31 23 22 23 2921 36 63 21 1386 133 25 25 20 123 20 33 4704 11846 26
leaf_count=278 202 20 20 20 20 22 67 21 104 23 20 31 23 22 23 2921 36 63 21 1386 133 25 25 20 123 20 33 4704 11846 26
internal_value=0 -0.000491799 0.00276011 -0.000795716 -0.00193259 -0.000776435 0.000589887 -0.00354085 1.05434e-05 4.25403e-05 0.000398774 0.00788085 0.0118474 0.0175251 1.04701e-05 -0.000175195 -0.000995929 -0.00200318 -0.00370685 -9.93394e-05 -0.000964881 -0.00170443 -0.00478011 2.98032e-05 0.00101654 -5.72505e-05 -5.37569e-05 1.99335e-05 7.10385e-05 0.00210858
internal_weight=0 468 40 428 150 130 87 43 21830 18622 1538 96 65 45 17084 3208 322 120 57 1442 287 154 50 16762 166 143 1419 16596 11892 46
internal_count=22298 468 40 428 150 130 87 43 21830 18622 1538 96 65 45 17084 3208 322 120 57 1442 287 154 50 16762 166 143 1419 16596 11892 46
shrinkage=0.075


Tree=51
num_leaves=31
num_cat=0
split_feature=12 11 25 16 1 27 27 12 10 26 27 15 25 27 27 17 28 4 20 1 15 15 16 20 27 11 4 17 16 30
split_gain=0.017704 0.0652234 1.45285 0.0330804 0.0645613 0.0629569 0.235548 0.208946 0.201315 0.103165 0.0675028 0.0299049 0.0938363 0.028017 0.137806 0.239188 0.119751 0.0852629 0.0854965 0.279667 0.0952878 0.0688732 0.0570489 0.0560774 0.0992932 0.0542053 0.0533288 0.103092 0.0516279 0.0542474
threshold=0.00017604850000000003 0.00023026400000000002 -0.059227749999999989 9.9131750000000007 -18.098299999999998 0.48771000000000025 -0.2956995 0.00060571800000000021 2.0993500000000005e-06 0.92953850000000016 0.14943000000000009 1.0940150000000004 -0.244754 -0.2956995 0.042715000000000176 -0.22830349999999996 0.017674999999999889 7.1760150000000015e-05 -1.8923699999999996e-05 -10.992199999999999 -0.32139299999999998 0.93754800000000016 2.4376850000000005 -7.9060199999999982e-06 -0.079140000000000085 5.0671450000000008e-06 2.8996250000000005e-05 0.0070385900000000008 2.8968600000000007 -0.57660999999999951
decision_type=2 2 2 2 2 2 2 2 2 2 2 2 2 2 2 2 2 2 2 2 2 2 2 2 2 2 2 2 2 2
left_child=1 11 -3 -2 -5 6 -6 -8 -9 -7 -10 13 -13 -1 15 -15 26 18 19 -18 -20 -16 23 24 -22 -21 28 -28 29 -17
right_child=3 2 -4 4 5 9 7 8 10 -11 -12 12 -14 14 21 16 17 -19 20 25 22 -23 -24 -25 -26 -27 27 -29 -30 -31
leaf_value=-6.996167193383815e-05 -2.8104558961598328e-05 0.020698077185472809 -0.00016839193436295153 0.0037038718230201079 -0.00010784798693211764 -0.00030005589995942971 -0.0096405172169657556 0.0020026488862377413 -0.0074797186505747961 0.0039580850361588607 -0.0026314785807127401 -0.00025939278363011907 -0.0051680840797489512 0.0091002456774003804 -3.560093789658462e-05 -0.00033616889955333636 -0.010079780383966864 0.0045110111071034742 0.0042201803186799223 -0.0013732111441522251 -0.00014037008373374453 0.0036322739766233253 -0.0039402480021090008 -0.00027768443552613647 0.0057570785573961281 0.0033037099582725201 0.0019784435005476553 -0.0047373983699799281 0.0057688836415763943 0.0022460616047683289
leaf_weight=5086 10704 20 305 20 313 374 28 38 30 35 35 177 25 20 4109 54 20 23 32 46 42 29 20 291 26 20 36 20 20 300
leaf_count=5086 10704 20 305 20 313 374 28 38 30 35 35 177 25 20 4109 54 20 23 32 46 42 29 20 291 26 20 36 20 20 300
internal_value=0 6.94455e-05 0.0011157 -6.43107e-05 -0.000508241 -0.000607001 -0.00122541 -0.00389563 -0.00233391 6.43327e-05 -0.00486913 3.67375e-05 -0.000866904 5.46437e-05 0.000178712 0.000983311 0.000812428 4.67063e-05 -0.000159891 -0.00231034 0.000290081 -9.89568e-06 -4.17484e-05 0.000175438 0.00211454 4.40377e-05 0.00173842 -0.000420071 0.00206161 0.00185216
internal_weight=0 10721 325 11577 873 853 444 131 103 409 65 10396 202 10194 5108 970 950 520 497 86 411 4138 379 359 68 66 430 56 374 354
internal_count=22298 10721 325 11577 873 853 444 131 103 409 65 10396 202 10194 5108 970 950 520 497 86 411 4138 379 359 68 66 430 56 374 354
shrinkage=0.075


Tree=52
num_leaves=31
num_cat=0
split_feature=17 11 18 24 27 27 8 30 22 24 4 10 25 21 6 10 27 1 8 18 6 30 27 27 10 17 8 30 25 11
split_gain=0.0178986 0.0714419 0.0691652 0.052609 0.130313 0.204667 0.0471251 0.0829927 0.0203099 0.0241781 0.077323 0.0187208 0.0323335 0.0322277 0.343594 0.467507 0.414638 0.0320433 0.0249155 0.0219079 0.0405859 0.0652539 0.0261237 0.135315 0.0751926 0.0303901 0.036128 0.0177805 0.049722 0.507716
threshold=-0.37592899999999996 0.0063754350000000013 0.048291950000000007 1.4477900000000001e-05 0.20152300000000004 -0.5077090999999998 -1.1656099999999998e-06 2.4674550000000002 4.8627450000000012 0.0003225765000000001 -4.1236799999999995e-06 1.8808150000000004e-05 1.7944850000000001 4.9419500000000012 4.1161000000000001e-05 -1.1130149999999999e-05 -0.56065814999999997 -11.978449999999999 -6.0584749999999988e-06 0.0023602150000000001 -8.2394949999999996e-05 2.0494850000000002 -0.47923500000000002 0.3752950000000001 4.9714250000000003e-05 -0.095294899999999974 9.7861900000000023e-06 -2.0937499999999996 -0.031563349999999997 0.00014633650000000004
decision_type=2 2 2 2 2 2 2 2 2 2 2 2 2 2 2 2 2 2 2 2 2 2 2 2 2 2 2 2 2 2
left_child=1 3 -3 4 5 -1 7 -5 9 11 -11 13 19 27 17 -16 -17 -15 -19 -13 21 -21 -22 24 -24 -26 -27 -2 29 -29
right_child=8 2 -4 6 -6 -7 -8 -9 -10 10 -12 12 -14 14 15 16 -18 18 -20 20 22 -23 23 -25 25 26 -28 28 -30 -31
leaf_value=-0.0012797242995635743 -6.6054463458003882e-05 -0.00054649203066219336 0.0056909309231696174 0.0048021810406983908 -0.00023257357732393068 -0.010841258423170075 -0.00060847753461161654 -0.0010783187029624565 -0.0016786082206817808 0.0052254841823014429 -0.0010310919899493456 -4.2850434987229319e-05 -0.0030850770053802989 -0.0026756256258763374 -0.00062781884361659947 0.002134095556889406 0.016622375471464692 0.0023153876949800179 -0.00043770714960373881 0.0048154960694046173 -0.00010062799813598337 -0.001170434311947182 -0.0065237010960587328 -0.00017394883693509376 -0.0044204800223399485 0.0012181520078994169 -0.0029895517157910944 -0.00034629493716625175 5.9307145558697934e-05 0.0081004946755683701
leaf_weight=34 7223 20 20 27 98 20 222 27 40 20 25 2789 21 34 45 20 25 20 245 20 246 21 31 246 21 22 24 241 10403 48
leaf_count=34 7223 20 20 27 98 20 222 27 40 20 25 2789 21 34 45 20 25 20 245 20 246 21 31 246 21 22 24 241 10403 48
internal_value=0 -0.000458925 0.00257222 -0.00074221 -0.00186268 -0.00482103 -0.000125137 0.00186193 9.83861e-06 1.29381e-05 0.00174961 9.34417e-06 -0.000151156 3.95168e-05 0.000714878 0.00477766 0.0101831 -0.000508033 -0.000229926 -0.00013314 -0.000532218 0.00174953 -0.000690781 -0.00111281 -0.00346954 -0.00205642 -0.000977172 2.48522e-05 8.62644e-05 0.00105663
internal_weight=0 468 40 428 152 54 276 54 21830 21790 45 21745 3441 18304 389 90 45 299 265 3420 631 41 590 344 98 67 46 17915 10692 289
internal_count=22298 468 40 428 152 54 276 54 21830 21790 45 21745 3441 18304 389 90 45 299 265 3420 631 41 590 344 98 67 46 17915 10692 289
shrinkage=0.075


Tree=53
num_leaves=31
num_cat=0
split_feature=31 1 31 1 15 2 2 2 12 15 11 8 27 27 17 2 17 2 28 27 24 6 1 6 7 25 27 31 10 4
split_gain=0.0170043 0.153897 0.0365618 0.111176 0.0813992 0.782331 0.68924 0.32375 0.396694 0.072599 0.157948 0.0651564 0.0445432 0.18645 0.0370606 0.127382 0.0437991 0.186144 0.033892 0.24795 0.150385 0.105969 0.0984592 0.15047 0.142966 0.110761 0.217266 0.206092 0.205368 0.144811
threshold=-3.263995 -18.784849999999995 1.4594350000000007 -16.901749999999996 0.54616000000000009 0.20851600000000003 1.8189050000000002 0.4097745000000001 7.3869550000000019e-05 -1.5736749999999997 -3.1663749999999999e-07 2.6548800000000002e-05 -0.34938649999999993 0.25180000000000019 -0.41613399999999995 0.12498900000000002 -0.17627099999999998 -0.30247799999999997 0.041125499999999933 0.14943000000000009 1.4046350000000002e-06 0.00022782050000000003 -11.291749999999999 6.9941200000000014e-05 0.0016524700000000003 0.0003895180000000001 0.017084500000000061 0.26713999999999999 1.4183350000000001e-07 2.0677100000000002e-05
decision_type=2 2 2 2 2 2 2 2 2 2 2 2 2 2 2 2 2 2 2 2 2 2 2 2 2 2 2 2 2 2
left_child=-1 -2 4 -4 9 12 7 -7 -9 10 -3 -8 -6 -14 15 -11 17 -16 19 20 21 22 23 -18 25 27 -27 29 -29 -24
right_child=1 2 3 -5 5 6 11 8 -10 14 -12 -13 13 -15 16 -17 18 -19 -20 -21 -22 -23 24 -25 -26 26 -28 28 -30 -31
leaf_value=-0.00013724601789224763 0.00660666100178787 0.0080800210670713569 -0.0056585351494140923 -6.1120926764391545e-05 -0.00036593268959677516 0.0024701046635362384 -0.0020789546996039885 0.021388542756903915 0.0084825083649972127 0.00069151313459769881 -0.00071365239366261645 0.0031425766600204951 -0.0081965577495284377 -0.00092495564434500464 0.0065972272829985107 -0.0058266219453309114 0.0021184775896332352 -0.0010752939559987007 -0.00010010210394270894 -8.2018348807765155e-05 0.0076293126280818661 -0.0031734377547400073 0.0019537806497678303 0.0089719654888176584 -0.0036347519742038628 0.0010724859655861759 0.008532388567603898 -0.0097392250463599339 8.8004907968664359e-06 -0.001629598335003847
leaf_weight=4136 20 20 20 9954 115 22 41 21 37 48 27 20 25 96 29 26 182 46 3527 3224 21 30 322 20 37 70 32 20 31 79
leaf_count=4136 20 20 20 9954 115 22 41 21 37 48 27 20 25 96 29 26 182 46 3527 3224 21 30 322 20 37 70 32 20 31 79
internal_value=0 3.12548e-05 2.4006e-05 -7.23449e-05 0.000141661 0.00121798 0.00563808 0.0102169 0.0131554 8.95787e-05 0.00302834 -0.000366977 -0.00142285 -0.00242735 7.17428e-05 -0.00159864 8.78586e-05 0.00189141 7.00486e-05 0.000217571 0.00136197 0.00120205 0.00136758 0.00279704 0.000879005 0.00118047 0.00341285 0.000676698 -0.00381395 0.00124783
internal_weight=0 18162 18142 9974 8168 377 141 80 58 7791 47 61 236 121 7744 74 7670 75 7595 4068 844 823 793 202 591 554 102 452 51 401
internal_count=22298 18162 18142 9974 8168 377 141 80 58 7791 47 61 236 121 7744 74 7670 75 7595 4068 844 823 793 202 591 554 102 452 51 401
shrinkage=0.075


Tree=54
num_leaves=31
num_cat=0
split_feature=4 19 14 1 15 11 30 30 18 3 22 8 30 15 10 27 27 10 15 1 15 2 2 26 15 1 27 27 27 27
split_gain=0.0149008 0.103041 0.0193561 0.0462382 0.0156661 0.319226 0.51892 0.0368326 0.0634414 0.0170974 0.121353 0.215629 0.0453858 0.0179764 0.0398172 0.0563369 0.123781 0.0213869 0.0173682 0.0492821 0.0143563 0.0906318 0.0119823 0.0343805 0.0239317 0.0403313 0.0166144 0.112379 0.06915 0.0154141
threshold=-0.00031614999999999991 3.8695450000000005 -17.648549999999997 -14.652499999999998 1.3124250000000002 0.00014633650000000004 -3.7517300000000002 -1.7249599999999996 0.048291950000000007 8.7946500000000006e-06 -0.10808449999999999 -1.9571099999999997e-07 -1.198825 1.0940150000000004 1.4988050000000001e-06 0.17470800000000006 -1.3070145 7.9232000000000023e-06 0.54616000000000009 -11.845649999999997 1.0471900000000003 0.15656300000000004 0.9753535000000001 0.0010716850000000004 0.87209600000000009 -16.417249999999999 -0.53096500000000002 0.25180000000000019 -0.12087000000000013 0.27611750000000007
decision_type=2 2 2 2 2 2 2 2 2 2 2 2 2 2 2 2 2 2 2 2 2 2 2 2 2 2 2 2 2 2
left_child=1 2 3 -1 9 7 -7 -6 -9 10 11 -2 -13 20 15 16 -15 -16 -12 -20 22 -22 29 -24 25 -25 -27 28 -28 -11
right_child=4 -3 -4 -5 5 6 -8 8 -10 13 18 12 -14 14 17 -17 -18 -19 19 -21 21 -23 23 24 -26 26 27 -29 -30 -31
leaf_value=-0.0040324060260900291 0.0094375567955983734 -0.0049145667238078127 -7.506076027935697e-05 -0.00016387888363602715 -6.4533167192192139e-05 -0.0010421109274223758 0.014288190952451575 -0.00016096005919362968 -0.0052921833683048257 8.1986718822662998e-05 5.014380304305846e-05 0.0030679502348230805 -0.001393336607800628 0.00019227517834885725 0.0027638197809574192 0.00014654185750525978 -0.0078578368195199536 -0.00066308634156614843 0.0043380067041198346 -0.00057398930045167158 -0.001096522097745297 0.0052324589281852237 -4.4650310237681527e-05 -0.004193601360366301 0.0015767435534104627 -0.00014192140943886179 -0.0019319555094625682 -0.0002284110583929412 -0.0075433674883762635 -6.7521895845447133e-05
leaf_weight=24 22 26 1283 63 179 27 23 33 23 9042 1381 23 29 22 20 41 21 21 20 27 35 20 2681 20 23 155 30 170 21 6793
leaf_count=24 22 26 1283 63 179 27 23 33 23 9042 1381 23 29 22 20 41 21 21 20 27 35 20 2681 20 23 155 30 170 21 6793
internal_value=0 -0.000237238 -0.000148471 -0.00123106 1.58446e-05 0.000568098 0.00600983 -0.000589716 -0.00226843 8.21049e-06 0.00025186 0.00321327 0.000579925 -1.09347e-05 -0.000907398 -0.00184258 -0.00373917 0.00100858 9.83971e-05 0.00151622 -5.03386e-06 0.00120493 -8.54839e-06 -0.000143391 -0.000775189 -0.000911791 -0.000737226 -0.00115475 -0.00424254 1.78496e-05
internal_weight=0 1396 1370 87 20902 285 50 235 56 20617 1502 74 52 19115 125 84 43 41 1428 47 18990 55 18935 3100 419 396 376 221 51 15835
internal_count=22298 1396 1370 87 20902 285 50 235 56 20617 1502 74 52 19115 125 84 43 41 1428 47 18990 55 18935 3100 419 396 376 221 51 15835
shrinkage=0.075


Tree=55
num_leaves=31
num_cat=0
split_feature=17 11 31 24 28 28 8 8 22 24 4 15 2 15 12 13 3 16 23 31 22 5 10 18 22 12 3 31 7 6
split_gain=0.0146499 0.0599793 0.0648563 0.041559 0.107171 0.170606 0.0332518 0.0731452 0.0168216 0.0193821 0.0634529 0.018799 0.126409 0.0296407 0.0546797 0.0265312 0.0166055 0.181675 0.0318658 0.0759446 0.0165867 0.0155977 0.0168071 0.0144921 0.031214 0.019674 0.0147998 0.0144558 0.0142625 0.0139269
threshold=-0.37592899999999996 0.0063754350000000013 0.13095499999999974 1.4477900000000001e-05 -0.174708 0.53142600000000006 -1.1656099999999998e-06 -2.6468349999999999e-05 4.8627450000000012 0.0003225765000000001 -4.1236799999999995e-06 1.3124250000000002 0.77860000000000007 1.0940150000000004 1.2685900000000002e-05 2.0829050000000007 7.8910150000000022e-06 9.9131750000000007 -0.017009449999999999 3.8239600000000005 -0.028945449999999994 -0.00019685299999999998 -2.5884049999999996e-06 0.14344550000000003 -0.98876749999999991 0.0012740200000000001 1.9488600000000005e-05 2.2440900000000004 0.0016244650000000001 9.5188500000000005e-05
decision_type=2 2 2 2 2 2 2 2 2 2 2 2 2 2 2 2 2 2 2 2 2 2 2 2 2 2 2 2 2 2
left_child=1 3 -3 4 -1 -6 7 -5 9 11 -11 13 27 16 -15 -16 17 18 19 -2 -20 -8 -23 24 -18 26 -25 -13 -10 -27
right_child=8 2 -4 6 5 -7 21 -9 28 10 -12 12 -14 14 15 -17 23 -19 20 -21 -22 22 -24 25 -26 29 -28 -29 -30 -31
leaf_value=-0.00019233440693522757 0.0055374905852659138 0.0053821640890964776 -0.00065784306250861837 -0.0014301018899750488 -0.0098499707560404208 -0.0011202324701491092 -0.0023814874946370052 0.0041057181468078909 -0.00011150411344715394 0.004715369449113496 -0.00095234707358758891 -0.0015087017271501904 0.0048739679591188389 -0.0041072075733349523 0.0016513838873328899 -0.0014976925786279881 0.0021203512322524776 0.0070744964727468447 -0.0021147917361668076 -0.00056014838196966185 7.9857437316082115e-05 0.0017434291938843672 -0.00054898297610268636 -0.00085040594082480916 -3.4471894854509075e-06 -0.0035905804131471084 0.0015608610390180338 0.00025097996568279889 -0.002943933031092456 -0.00079167536045133603
leaf_weight=98 20 20 20 25 20 34 23 29 20 20 25 38 34 28 27 34 39 22 20 27 616 20 179 45 20649 20 21 85 20 20
leaf_count=98 20 20 20 25 20 34 23 29 20 20 25 38 34 28 27 34 39 22 20 27 616 20 179 45 20649 20 21 85 20 20
internal_value=0 -0.000415192 0.00236216 -0.000674758 -0.00167063 -0.00435347 -0.000126305 0.00154284 8.90105e-06 1.17218e-05 0.00156664 8.50402e-06 0.000826226 2.55709e-06 -0.00136333 -0.000103839 8.21147e-06 0.000366186 0.000150106 0.00203459 1.08433e-05 -0.000532313 -0.00031859 -3.9253e-06 5.56491e-07 -0.000878635 -8.31846e-05 -0.000292662 -0.00152772 -0.00219113
internal_weight=0 468 40 428 152 54 276 54 21830 21790 45 21745 157 21588 89 61 21499 705 683 47 636 222 199 20794 20688 106 66 123 40 40
internal_count=22298 468 40 428 152 54 276 54 21830 21790 45 21745 157 21588 89 61 21499 705 683 47 636 222 199 20794 20688 106 66 123 40 40
shrinkage=0.075


Tree=56
num_leaves=31
num_cat=0
split_feature=30 1 30 1 15 2 2 2 12 15 2 27 19 27 19 8 18 14 14 4 27 27 4 23 14 11 23 6 1 14
split_gain=0.0147957 0.132582 0.030923 0.0894125 0.0667417 0.624823 0.582177 0.268947 0.327051 0.0677171 0.131751 0.0579191 0.0368421 0.056511 0.0317576 0.0686921 0.02961 0.0362596 0.0289189 0.0284576 0.0273965 0.20088 0.185882 0.184336 0.122295 0.140992 0.198901 0.157227 0.23142 0.150253
threshold=3.2301850000000001 -18.784849999999995 -1.4579249999999997 -16.901749999999996 0.54616000000000009 0.20851600000000003 1.8189050000000002 0.4097745000000001 7.3869550000000019e-05 -1.5736749999999997 -0.045629349999999992 1.0213400000000004 -1.8215899999999998 -0.14356249999999995 3.8695450000000005 -2.8193849999999996e-08 0.0028916150000000006 -12.863549999999998 -12.376299999999999 -2.8359349999999998e-05 -0.10000499999999989 0.14943000000000009 0.00023791500000000003 -0.037744799999999988 -13.282899999999998 0.00010149750000000002 0.026828100000000004 2.5214550000000004e-05 -8.0875299999999992 -12.295749999999998
decision_type=2 2 2 2 2 2 2 2 2 2 2 2 2 2 2 2 2 2 2 2 2 2 2 2 2 2 2 2 2 2
left_child=1 -1 3 -3 9 12 7 -7 -9 10 -4 -8 13 -6 20 -16 -2 -18 -14 -20 -11 22 23 -22 -25 26 27 -26 29 -29
right_child=16 2 4 -5 5 6 11 8 -10 14 -12 -13 18 -15 15 -17 17 -19 19 -21 21 -23 -24 24 25 -27 -28 28 -30 -31
leaf_value=0.0061324071069248027 -5.1124314125385961e-05 -0.0050755677541019393 0.0075293770723510534 -5.5829555610503342e-05 -0.00036898803316733259 0.00220150598432321 -0.0020790328601057208 0.019416112100173317 0.0076975955487845618 -7.9207597315518352e-05 -0.00056746407177482832 0.0028439723647898066 0.00090771410644304947 -0.0049499513888308271 -0.0052179916525952304 0.00049546321925249531 -0.0037836834746121893 -0.00052823690388466358 -0.0032217417370013378 -0.00063915720741150042 0.0080916676788051096 -7.6380297780129626e-05 -0.0056669332134664388 0.0033394896458928762 0.0013590137959887426 -0.002929334143310662 0.0070567351230420173 -0.0054887621250765562 -0.0076808367752366595 0.0014331696441993271
leaf_weight=20 3645 20 20 9956 28 22 41 21 37 3415 26 20 46 33 20 29 20 510 32 96 22 3263 22 124 589 53 30 22 27 89
leaf_count=20 3645 20 20 9956 28 22 41 21 37 3415 26 20 46 33 20 29 20 510 32 96 22 3263 22 124 589 53 30 22 27 89
internal_value=0 2.93231e-05 2.25805e-05 -6.58932e-05 0.000131183 0.00110703 0.00505405 0.00926228 0.0119405 8.38451e-05 0.0029529 -0.000464933 -0.00126119 -0.00284721 6.67164e-05 -0.00183656 -0.000127287 -0.000651084 -0.000705172 -0.0012848 7.88978e-05 0.00020621 0.00114904 0.0013059 0.00114606 0.000810276 0.0010721 0.000825139 -0.0014535 6.12552e-05
internal_weight=0 18123 18103 9976 8127 376 141 80 58 7751 46 61 235 61 7705 49 4175 530 174 128 7656 4241 978 956 934 810 757 727 138 111
internal_count=22298 18123 18103 9976 8127 376 141 80 58 7751 46 61 235 61 7705 49 4175 530 174 128 7656 4241 978 956 934 810 757 727 138 111
shrinkage=0.075


Tree=57
num_leaves=31
num_cat=0
split_feature=30 1 30 1 26 15 11 12 11 16 19 17 27 27 6 20 6 18 25 24 11 1 4 30 5 18 20 9 6 6
split_gain=0.0126596 0.113441 0.0264585 0.0765035 0.0657202 0.0480958 0.415538 0.786046 0.238776 0.0574731 0.0425619 0.038809 0.0374243 0.295763 0.0285908 0.0274617 0.0381618 0.0271855 0.0663939 0.0301552 0.111922 0.279673 0.131767 0.0823344 0.101951 0.0486012 0.0365241 0.147547 0.0317308 0.0486266
threshold=3.2301850000000001 -18.784849999999995 -1.4579249999999997 -16.901749999999996 0.39077100000000003 0.54616000000000009 3.3031500000000004e-05 7.3869550000000019e-05 0.00062029650000000006 5.3548650000000011 1.7319100000000003 0.044285050000000006 -0.37340849999999998 0.25180000000000019 1.9429650000000001e-05 -6.0857649999999995e-05 6.4802100000000014e-05 0.13711200000000004 0.65126750000000011 7.1280950000000013e-07 -2.2895499999999995e-06 -8.4069299999999973 1.2868400000000002e-05 -0.050835000000001067 8.3385400000000017e-05 0.0023602150000000001 4.379045000000001e-05 -1.7697849999999998e-06 -4.3724849999999993e-07 -1.278695e-05
decision_type=2 2 2 2 2 2 2 2 2 2 2 2 2 2 2 2 2 2 2 2 2 2 2 2 2 2 2 2 2 2
left_child=1 -1 3 -3 5 15 9 -8 -9 -7 11 -10 -11 -14 -15 16 -4 18 19 26 21 23 -23 24 -21 -22 -17 -28 29 -27
right_child=-2 2 4 -5 -6 6 7 8 10 12 -12 -13 13 14 -16 17 -18 -19 -20 20 25 22 -24 -25 -26 28 27 -29 -30 -31
leaf_value=0.0056724766292609273 -0.00011774034098753739 -0.0046949001561733894 4.7141419387723234e-05 -5.1642339165512771e-05 0.0036853249766863883 0.0019564448592057711 0.017428594615987756 0.0089244606485590332 -0.0008105472176323709 -0.0002219570625262014 -0.0029127384229468587 0.0034839445568104564 -0.0093769854412239506 -0.0010628020644747136 0.0018724222108825674 5.7924546704406948e-05 -0.0037671985653141746 -0.0023876430253149013 0.0044052061135880644 0.00042033431359413955 0.0030754037555457865 0.0034268939621886767 0.011838178984166914 -0.00062808698966010617 0.0072064868699453655 -0.00066928803607033637 -0.0066038813747819284 0.00063202866674199698 -0.00015314869703330613 -0.0050722436531421928
leaf_weight=20 4175 20 36 9956 29 37 22 20 29 103 24 20 25 56 28 7097 25 25 20 33 21 22 20 108 20 43 23 51 169 21
leaf_count=20 4175 20 36 9956 29 37 22 20 29 103 24 20 25 56 28 7097 25 25 20 33 21 22 20 108 20 43 23 51 169 21
internal_value=0 2.71239e-05 2.08869e-05 -6.09512e-05 0.000121344 0.000108581 0.000951095 0.00467987 0.00166405 -0.000771032 -0.000325105 0.000942307 -0.00124705 -0.00221572 -8.4394e-05 6.89284e-05 -0.00151611 8.15294e-05 8.96007e-05 7.82855e-05 0.000668988 0.00198188 0.00743227 0.000560046 0.00298115 -0.000380296 4.06407e-05 -0.00161697 -0.000691754 -0.00211401
internal_weight=0 18123 18103 9976 8127 8098 364 115 93 249 73 49 212 109 84 7734 61 7673 7648 7628 457 203 42 161 53 254 7171 74 233 64
internal_count=22298 18123 18103 9976 8127 8098 364 115 93 249 73 49 212 109 84 7734 61 7673 7648 7628 457 203 42 161 53 254 7171 74 233 64
shrinkage=0.075


Tree=58
num_leaves=31
num_cat=0
split_feature=23 9 16 0 30 11 23 11 2 12 12 5 30 30 27 28 7 24 23 9 27 27 21 1 16 18 1 27 24 1
split_gain=0.0119169 0.0670175 0.0665178 0.11008 0.0571316 0.162023 0.0513429 0.045893 0.0895204 0.0377194 0.0371082 0.0500111 0.0513 0.0954622 0.0981457 0.139009 0.0571457 0.0345971 0.0469334 0.0284175 0.0326276 0.163698 0.205762 0.563906 0.126013 0.12169 0.23001 0.0973418 0.127119 0.11489
threshold=0.00097055650000000008 2.0656050000000003e-07 22.912200000000002 6.2861900000000004 2.3127450000000001 -0.00032824949999999997 0.30741550000000001 8.5055700000000013e-05 1.6414250000000001 1.2135250000000002e-10 7.3869550000000019e-05 0.00027765650000000005 -1.5437499999999995 0.54256000000000049 -0.26963010000000004 0.027765000000000154 0.00036748450000000007 5.8291900000000017e-07 0.027526950000000005 7.836120000000002e-08 0.62059100000000023 -0.14356249999999995 2.7222300000000006 -12.993899999999998 9.9131750000000007 0.0030889500000000005 -10.366749999999998 0.055811000000000097 -9.7039999999999987e-08 -13.869899999999999
decision_type=2 2 2 2 2 2 2 2 2 2 2 2 2 2 2 2 2 2 2 2 2 2 2 2 2 2 2 2 2 2
left_child=19 6 10 4 5 -4 9 -8 -9 -2 11 12 -3 14 -14 16 -16 18 -15 20 21 -1 24 -24 25 27 -27 28 -23 -30
right_child=1 2 3 -5 -6 -7 7 8 -10 -11 -12 -13 13 17 15 -17 -18 -19 -20 -21 -22 22 23 -25 -26 26 -28 -29 29 -31
leaf_value=-4.4119912897073194e-06 -0.0030898588775598907 -0.00016222907080498463 0.0077405189042275939 0.0058969482399074229 -0.00051264591624956282 0.00016321334539832986 -0.00075040288407678493 -0.0069445598100563591 -0.00081363852034366962 -0.00016675666448802672 -8.8704678607307266e-05 0.0040649437880553949 -0.00029225170827226852 -0.00028996815841317948 0.0045325706977261378 0.0082066698273087629 0.00079738694987057095 -0.0026146847363731599 0.0036366709617868765 -7.9337629786794997e-05 -5.6038050953231273e-05 0.0031976599209746432 0.015514739990467206 2.5033186382363332e-05 -0.003827295627673844 0.008493735660290852 0.00025010397377627668 5.3197303601374793e-05 0.004628935943535333 0.00030004497828622456
leaf_weight=3970 25 385 22 28 87 57 339 21 37 3679 1713 22 58 119 36 27 64 28 20 6762 3411 159 20 39 33 33 45 648 38 373
leaf_count=3970 25 385 22 28 87 57 339 21 37 3679 1713 22 58 119 36 27 64 28 20 6762 3411 159 20 39 33 33 45 648 38 373
internal_value=0 -8.30637e-05 0.00020967 0.00154695 0.000813219 0.00227335 -0.000273365 -0.00108395 -0.00303345 -0.000186486 0.000104721 0.000541267 0.000436082 0.00109049 0.00226397 0.00343138 0.00214205 -0.000209485 0.000275016 3.61916e-05 0.000125279 0.000240709 0.000941812 0.00527578 0.000749408 0.000865945 0.00373779 0.000682033 0.00139692 0.000700283
internal_weight=0 6767 2666 194 166 79 4101 397 58 3704 2472 759 737 352 185 127 100 167 139 15531 8769 5358 1388 59 1329 1296 78 1218 570 411
internal_count=22298 6767 2666 194 166 79 4101 397 58 3704 2472 759 737 352 185 127 100 167 139 15531 8769 5358 1388 59 1329 1296 78 1218 570 411
shrinkage=0.075


Tree=59
num_leaves=31
num_cat=0
split_feature=2 21 11 1 27 27 15 2 2 30 18 15 30 6 2 15 30 15 6 6 19 7 7 13 3 16 15 11 2 27
split_gain=0.0114256 0.0332328 0.0326092 0.0262892 0.0273441 0.153706 0.0167773 0.193075 0.446604 0.0318432 0.0523312 0.0256738 0.062905 0.0251859 0.0209296 0.495091 0.298877 0.044276 0.0495558 0.0395773 0.0234855 0.0218292 0.0373904 0.0188662 0.0860618 0.0148001 0.0312232 0.0146871 0.0123056 0.0114802
threshold=-2.0605549999999995 0.29129750000000004 -0.0037126899999999998 -13.528999999999998 -0.53096500000000002 0.27611750000000007 1.3124250000000002 0.77860000000000007 2.8172650000000004 -1.7249599999999996 0.048291950000000007 1.0940150000000004 -0.8282000000000006 6.3414900000000022e-05 -0.97061549999999985 -0.97698149999999984 -3.1362249999999992 -0.82324799999999987 -6.3884749999999985e-05 -5.4547549999999996e-05 -8.1499199999999981 0.0020371300000000003 0.0025174050000000008 -3.0876849999999996 1.0301600000000001e-05 11.622100000000001 -0.64547099999999991 -3.2995149999999995e-05 -0.10854049999999998 0.32495100000000005
decision_type=2 2 2 2 2 2 2 2 2 2 2 2 2 2 2 2 2 2 2 2 2 2 2 2 2 2 2 2 2 2
left_child=1 -1 -2 4 -3 -6 11 9 -9 -8 -11 14 13 -13 15 16 -4 18 -16 -20 -19 27 -23 24 -22 26 -17 -21 -24 -25
right_child=2 3 6 -5 5 -7 7 8 -10 10 -12 12 -14 -15 17 25 -18 20 19 21 23 22 28 29 -26 -27 -28 -29 -30 -31
leaf_value=-9.1539964996402964e-07 0.0027845529102705768 -0.00020392292128611908 0.0010578354380322709 -0.00034988620575443209 -0.0077413536302628925 -0.00052923966471580034 1.9950168147261137e-05 0.01349556557390315 -0.00035060191839875188 3.2792204026918624e-05 -0.0051143087202217431 -0.00062014186265836699 -0.0035604089841049591 0.0023883741188546995 0.0028156627938187742 0.0029633968793586971 0.013252910689537271 0.0019940743572720641 -0.0038561146679577563 0.001701979292320175 0.0054455556148241156 -0.004032710359388147 -0.0022015069914687047 6.6353817766658907e-05 0.00010805460718324263 -0.0016335102656270346 -3.3951824081290018e-05 -0.00036953593602582314 -0.00060401696222409172 -5.9344704515067486e-05
leaf_weight=2430 24 58 20 560 22 68 150 20 38 25 20 72 39 20 24 20 26 34 21 20 20 23 32 9794 113 31 867 515 178 7014
leaf_count=2430 24 58 20 560 22 68 150 20 38 25 20 72 39 20 24 20 26 34 21 20 20 23 32 9794 113 31 867 515 178 7014
internal_value=0 -0.00013266 2.17268e-05 -0.000584833 -0.00147382 -0.0022922 1.82618e-05 0.000624959 0.00442394 -0.000504994 -0.00225481 1.01331e-05 -0.00103617 3.38834e-05 1.74425e-05 0.000357806 0.0079507 -1.00316e-06 -0.000541685 -0.000643809 2.48922e-05 -0.000555973 -0.00116187 2.09401e-05 0.000910686 -2.26657e-05 3.36321e-05 -0.000292096 -0.000847444 1.38997e-05
internal_weight=0 3138 19160 708 148 90 19136 253 58 195 45 18883 131 92 18752 964 46 17788 813 789 16975 768 233 16941 133 918 887 535 210 16808
internal_count=22298 3138 19160 708 148 90 19136 253 58 195 45 18883 131 92 18752 964 46 17788 813 789 16975 768 233 16941 133 918 887 535 210 16808
shrinkage=0.075


Tree=60
num_leaves=31
num_cat=0
split_feature=17 11 8 0 9 1 10 0 8 22 15 1 21 21 1 6 8 7 31 8 7 7 21 27 27 7 6 3 16 18
split_gain=0.011662 0.0509245 0.0588964 0.0352476 0.0609381 0.0416059 0.0257791 0.0241307 0.0167533 0.0163414 0.0168286 0.0912458 0.0165387 0.0213169 0.154432 0.282893 0.0644257 0.135357 0.0219858 0.014884 0.0144479 0.0136003 0.0398879 0.0325175 0.148193 0.0769968 0.0955455 0.0402337 0.0304237 0.0188081
threshold=-0.37592899999999996 0.0063754350000000013 8.1466350000000006e-05 -3.1319399999999997 -5.8785649999999992e-06 -12.534349999999998 7.906765000000001e-07 -2.2371249999999994 1.5096200000000003e-07 4.8627450000000012 -2.8366599999999997 -12.846149999999998 17.397300000000005 4.9419500000000012 -13.459649999999998 4.1161000000000001e-05 -9.5807849999999988e-06 0.0076471900000000008 1.421235 -5.5741949999999985e-07 0.0016244650000000001 0.012713150000000001 0.26969300000000002 -0.53096500000000002 0.25180000000000019 0.036956850000000006 0.00040806450000000009 1.4649350000000002e-05 3.1555500000000003 0.073112250000000018
decision_type=2 2 2 2 2 2 2 2 2 2 2 2 2 2 2 2 2 2 2 2 2 2 2 2 2 2 2 2 2 2
left_child=1 3 -3 4 -1 -6 8 -5 -7 10 11 -2 13 21 15 -15 17 -16 -18 -14 -11 29 -23 -24 25 27 -27 -25 -28 -12
right_child=9 2 -4 7 5 6 -8 -9 -10 20 12 -13 19 14 16 -17 18 -19 -20 -21 -22 22 23 24 -26 26 28 -29 -30 -31
leaf_value=-0.0046107287815695076 0.0054357249545864761 0.0050665963492247104 -0.00068920091784093536 0.002298067316690361 -0.0032778590720901712 -0.001477266145345559 0.0017511135840448269 -0.00025562314523017138 0.00061384710970173722 -8.1197416984650763e-05 2.7619641101333494e-05 -0.00063227696575821654 -0.0028291483519569736 -0.0017633757727218413 0.0070376545842736954 0.0086971705504269754 -0.0021661931337845553 -0.0013987561607791577 -0.0002872621674863954 -0.00048516088540964116 -0.0029319813626716494 -3.2565953488828505e-06 -2.8573881391307421e-05 0.0011512102756608762 -0.00023355926741909462 -0.0092095056103841805 -0.00089654569979757059 -0.0029350824785069562 -0.0049382601154031192 0.0017679925716116225
leaf_weight=28 20 20 20 23 31 66 29 219 32 20 17156 46 20 26 20 33 43 23 189 64 20 3285 345 23 366 21 20 33 22 35
leaf_count=28 20 20 20 23 31 66 29 219 32 20 17156 46 20 26 20 33 43 23 189 64 20 3285 345 23 366 21 20 33 22 35
internal_value=0 -0.000370441 0.0021887 -0.000609612 -0.00138596 -0.00081448 -0.000213182 -1.2917e-05 -0.000794454 7.94165e-06 1.07219e-05 0.00120651 7.08893e-06 1.1166e-05 0.000605694 0.00408744 -0.000141299 0.00252516 -0.000635512 -0.00104325 -0.00150659 1.84603e-06 -0.00012063 -0.000585172 -0.000981103 -0.00328027 -0.00507892 -0.00125678 -0.00301363 3.1163e-05
internal_weight=0 468 40 428 186 158 127 242 98 21830 21790 66 21724 21640 334 59 275 43 232 84 40 21306 4115 830 485 119 63 56 42 17191
internal_count=22298 468 40 428 186 158 127 242 98 21830 21790 66 21724 21640 334 59 275 43 232 84 40 21306 4115 830 485 119 63 56 42 17191
shrinkage=0.075


Tree=61
num_leaves=31
num_cat=0
split_feature=0 22 16 10 0 31 14 15 2 1 19 31 30 6 27 27 0 13 7 0 22 15 13 24 8 0 27 14 14 27
split_gain=0.0110416 0.0244789 0.0179531 0.0215634 0.0117273 0.00949773 0.0472 0.028763 0.487511 0.034711 0.0304053 0.0163586 0.0590854 0.0757219 0.0767965 0.149838 0.0956732 0.102562 0.0844533 0.0730743 0.0530456 0.0503212 0.0438772 0.0554249 0.176632 0.0306972 0.0277925 0.0272955 0.048813 0.0596986
threshold=15.501500000000002 -0.00014393299999999998 98.768400000000014 1.0304250000000002e-06 -5.3315099999999989 4.5606900000000019 -19.226799999999997 1.3124250000000002 0.77860000000000007 -12.592749999999997 3.8695450000000005 -0.15519499999999906 -0.22440000000000146 3.0306100000000004e-05 0.14943000000000009 0.042715000000000176 8.1325300000000009 1.2647150000000003 0.0023852900000000004 8.3673550000000017 0.0066452350000000002 -1.7158549999999997 -0.22723149999999998 4.4179850000000008e-08 -1.6631499999999996e-08 11.327550000000002 5.609935000000001 -16.571949999999998 -15.441949999999999 0.48771000000000025
decision_type=2 2 2 2 2 2 2 2 2 2 2 2 2 2 2 2 2 2 2 2 2 2 2 2 2 2 2 2 2 2
left_child=2 -2 5 4 -4 6 -1 11 9 10 -9 26 21 14 15 16 18 -18 22 20 -15 -13 -14 -24 -25 -19 27 -8 29 -29
right_child=1 -3 3 -5 -6 -7 7 8 -10 -11 -12 12 13 19 -16 -17 17 25 -20 -21 -22 -23 23 24 -26 -27 -28 28 -30 -31
leaf_value=0.0027050238199916674 -5.5137453400675441e-05 0.0031584323108518218 -0.0028917683238502763 0.00086818437347473164 -0.00095875487197190519 -8.6656156473957481e-05 -0.0023638822630565647 -0.0050520421395378887 0.0098745856766722026 -1.223362418493386e-05 -0.0011623678698574971 0.0037671497934206851 0.0014338641548464373 0.00032520305573467521 -0.00026623595107860349 0.0076390674412583131 0.0080390359507873654 0.00098492414356943746 0.0048558089503179256 -0.0042637042818678313 -0.0027056563148513259 -9.8871501845425732e-08 0.00060221801583825406 -0.006948120901334732 0.0007231840620534058 0.0044931200049177274 0.0022589054989464721 0.0045967001345291331 -7.3826376300376975e-05 -0.00030085564158842507
leaf_weight=37 40 20 26 27 55 5203 29 20 28 51 26 20 185 266 205 21 21 47 27 25 37 7199 199 25 52 20 29 28 8302 28
leaf_count=37 40 20 26 27 55 5203 29 20 28 51 26 20 185 266 205 21 21 47 27 25 37 7199 199 25 52 20 29 28 8302 28
internal_value=0 0.00101605 -2.7414e-06 -0.000967375 -0.00157923 1.96626e-06 2.92069e-05 2.33451e-05 0.00115682 -0.00135965 -0.00285353 1.4894e-05 8.92759e-05 0.000593569 0.000986199 0.00141626 0.00118939 0.00346561 0.000778926 -0.000366457 -4.49019e-05 1.03382e-05 0.000540149 -5.88988e-05 -0.0017675 0.00203215 -5.88958e-05 -6.69102e-05 -5.89403e-05 0.00214792
internal_weight=0 60 22238 108 81 22130 16927 16890 125 97 46 16765 8349 1130 802 597 576 88 488 328 303 7219 461 276 77 67 8416 8387 8358 56
internal_count=22298 60 22238 108 81 22130 16927 16890 125 97 46 16765 8349 1130 802 597 576 88 488 328 303 7219 461 276 77 67 8416 8387 8358 56
shrinkage=0.075


Tree=62
num_leaves=31
num_cat=0
split_feature=17 0 9 11 14 5 17 30 22 15 7 21 26 9 8 30 30 7 7 17 27 14 31 20 27 27 14 30 18 15
split_gain=0.0100929 0.0426474 0.101121 0.0537238 0.137986 0.0371353 0.0299442 0.0264891 0.0136692 0.0138426 0.0795989 0.0144724 0.0180397 0.165976 0.0466692 0.0187682 0.0129364 0.0121881 0.0107174 0.0375502 0.0582312 0.020971 0.0118629 0.0294117 0.0269341 0.19539 0.0234537 0.0230825 0.0839908 0.0642492
threshold=-0.37592899999999996 -5.3315099999999989 -3.5223749999999995e-06 0.00062029650000000006 -11.611049999999997 -0.00022731599999999998 -1.7215749999999999 -0.22440000000000146 4.8627450000000012 -2.8366599999999997 0.0038036500000000009 17.397300000000005 0.071522300000000011 1.5302250000000004e-05 -7.8216199999999978e-06 -1.198825 -9.3879949999999983 0.0016244650000000001 0.036956850000000006 -0.080095849999999982 0.27611750000000007 -19.847649999999998 -1.997555 2.3658100000000003e-05 -0.45060349999999988 0.32495100000000005 -14.442299999999998 -0.34990999999999989 0.027854300000000002 0.56467250000000002
decision_type=2 2 2 2 2 2 2 2 2 2 2 2 2 2 2 2 2 2 2 2 2 2 2 2 2 2 2 2 2 2
left_child=1 2 -1 5 -5 -3 -4 -8 9 10 -2 12 18 14 -14 -16 -13 -10 22 20 -20 -21 23 26 -25 -26 -11 -24 29 -29
right_child=8 3 6 4 -6 -7 7 -9 17 11 -12 16 13 -15 15 -17 -18 -19 19 21 -22 -23 27 24 25 -27 -28 28 -30 -31
leaf_value=-0.0053038218194706131 -0.00062297416432398757 -0.0033321943383530848 -0.0029236274704869305 0.0072217492857271273 -0.00067312240425962953 -5.1506093202213774e-05 -0.0005527116088032358 0.0024148537424272709 -6.860839699584175e-05 0.0018902362972273423 0.0050445418437448097 -0.0001500934293522113 0.0030923159684919355 0.0051292631349497244 -7.7710979332385409e-05 -0.0017357476040854372 -0.002024905154846508 -0.0026869633788010106 -0.0039267041842371373 -0.002243401182931848 -0.00019951192601673449 -5.9876187036799488e-05 -9.9752348241242842e-07 -0.00012287194714245077 -0.0075911984328995447 -1.7161384401488912e-05 -6.0073580903291506e-05 0.00018218024230498868 -0.004633933614677517 0.0019181371125429698
leaf_weight=30 46 21 21 20 33 256 64 23 20 35 20 47 21 39 110 59 37 20 37 25 65 2392 11004 112 25 82 3840 3650 20 124
leaf_count=30 46 21 21 20 33 256 64 23 20 35 20 47 21 39 110 59 37 20 37 25 65 2392 11004 112 25 82 3840 3650 20 124
internal_value=0 -0.000344621 -0.00145176 0.000118365 0.00230607 -0.000300223 -0.000381742 0.000231817 7.38811e-06 9.93088e-06 0.00109445 6.63597e-06 1.04499e-05 0.000672588 -0.000242204 -0.000656552 -0.000975903 -0.00137779 3.36804e-06 -0.000141947 -0.00155153 -8.24613e-05 2.27439e-05 -9.02475e-05 -0.00093584 -0.0017868 -4.24579e-05 5.4004e-05 0.000213529 0.000239218
internal_weight=0 468 138 330 53 277 108 87 21830 21790 66 21724 21640 229 190 169 84 40 21411 2519 102 2417 18892 4094 219 107 3875 14798 3794 3774
internal_count=22298 468 138 330 53 277 108 87 21830 21790 66 21724 21640 229 190 169 84 40 21411 2519 102 2417 18892 4094 219 107 3875 14798 3794 3774
shrinkage=0.075


Tree=63
num_leaves=31
num_cat=0
split_feature=3 15 24 19 4 16 6 6 17 6 17 1 15 8 13 25 17 10 28 4 17 7 12 17 4 0 4 20 22 20
split_gain=0.0101573 0.119197 0.0101725 0.0097582 0.0311075 0.0538448 0.0225565 0.0149926 0.0942734 0.0538451 0.058521 0.0217533 0.133852 0.326723 0.0350551 0.0159873 0.0121891 0.164966 0.0127612 0.0110253 0.0316153 0.0142397 0.0352414 0.0704017 0.0238125 0.0325801 0.0270541 0.0666907 0.0308457 0.0111088
threshold=7.0991900000000007e-06 0.49202650000000009 8.5382900000000004e-07 0.25194400000000006 -0.00031614999999999991 29.822400000000005 6.9941200000000014e-05 -6.3884749999999985e-05 0.050410600000000007 -5.4547549999999996e-05 0.022548100000000005 -14.117999999999999 0.73351250000000012 -1.0712799999999999e-07 -2.8570549999999995 -0.020790799999999995 2.4687050000000004 3.4021150000000006e-08 1.5618535000000002 -0.00017403549999999999 -0.080095849999999982 0.0026029750000000004 9.9003350000000012e-05 -0.072658149999999991 -2.9498249999999995e-05 4.1422950000000007 -4.3537949999999992e-05 -1.7011199999999994e-05 0.11442250000000002 0.00010613150000000003
decision_type=2 2 2 2 2 2 2 2 2 2 2 2 2 2 2 2 2 2 2 2 2 2 2 2 2 2 2 2 2 2
left_child=1 2 -1 16 5 6 -5 8 -6 10 -9 12 14 -14 -11 -16 -2 -18 -19 20 -13 24 23 -23 25 26 28 -28 -21 -24
right_child=3 -3 -4 4 7 -7 -8 9 -10 11 -12 19 13 -15 15 -17 17 18 -20 21 -22 22 29 -25 -26 -27 27 -29 -30 -31
leaf_value=0.00015284982274269251 1.1228613634077045e-05 0.0060286198391258953 -0.0016103037985885748 -0.0029272094499122304 -0.00056550073256948958 -0.0047378467526868915 -0.00030275209751926007 -0.00020659548927710601 0.0045344350639360135 0.0019755652519355257 -0.005699760867864825 -0.0034143837227185773 0.010936214390015016 -0.0011844429331741312 -0.0021933891124749135 -0.00029363973076831798 0.0066835971589534887 -0.0029467457508144434 -0.00035637608985068607 -0.00020256820156040097 -0.00018585473520715823 0.0055759109947757677 -0.0001321946534811449 0.00020928454200450439 -8.5681402781227e-05 0.001177347275790033 -0.0060660746896587627 -0.00091126367569245299 -0.0028106164206468335 0.00083578055784551278
leaf_weight=231 18831 20 20 21 75 20 150 24 28 36 20 22 22 29 29 177 20 20 23 144 76 20 428 44 1551 39 20 48 31 79
leaf_count=231 18831 20 20 21 75 20 150 24 28 36 20 22 22 29 29 177 20 20 23 144 76 20 428 44 1551 39 20 48 31 79
internal_value=0 0.000456364 1.23595e-05 -5.61468e-06 -0.000128203 -0.00105571 -0.000625054 -6.79877e-05 0.00082089 -0.000100237 -0.00270349 -5.92551e-05 0.00055217 0.00404408 -0.000183728 -0.00056108 1.47129e-05 0.0010562 -0.0015612 -0.000130857 -0.000910627 -9.90692e-05 0.000227976 0.00188636 -0.000200947 -0.00083491 -0.00115786 -0.00242738 -0.000664565 1.86338e-05
internal_weight=0 271 251 22027 3133 191 171 2942 103 2839 44 2795 293 51 242 206 18894 63 43 2502 98 2404 571 64 1833 282 243 68 175 507
internal_count=22298 271 251 22027 3133 191 171 2942 103 2839 44 2795 293 51 242 206 18894 63 43 2502 98 2404 571 64 1833 282 243 68 175 507
shrinkage=0.075


Tree=64
num_leaves=31
num_cat=0
split_feature=0 24 24 5 15 15 11 0 30 15 30 27 7 17 11 7 9 9 18 3 22 27 27 27 14 23 3 9 21 27
split_gain=0.00915842 0.0228548 0.0146796 0.014009 0.0106423 0.0147521 0.158991 0.332728 0.0249322 0.0182431 0.0426621 0.0977909 0.0221433 0.0153542 0.0311412 0.0641023 0.0155313 0.064164 0.0129923 0.0123218 0.191935 0.196678 0.00994169 0.113732 0.0862638 0.0887543 0.0342324 0.0235188 0.014082 0.00982406
threshold=15.501500000000002 9.827045000000001e-08 0.00044624450000000005 9.2687550000000014e-05 2.2465350000000002 1.3124250000000002 0.00014633650000000004 -2.8792999999999993 -0.26585000000000031 1.0940150000000004 -0.8282000000000006 0.17470800000000006 0.0071294650000000006 -0.28182749999999995 8.5055700000000013e-05 0.0041586800000000005 3.0959200000000007e-05 6.253110000000001e-06 0.032117650000000005 8.6381750000000014e-06 -0.10808449999999999 -0.0049194000000000243 0.12542999999999996 -0.10000499999999989 -10.940899999999997 0.00029499300000000007 7.6070650000000005e-06 1.0589500000000002e-07 1.6604550000000002 -0.079140000000000085
decision_type=2 2 2 2 2 2 2 2 2 2 2 2 2 2 2 2 2 2 2 2 2 2 2 2 2 2 2 2 2 2
left_child=2 -2 4 -4 5 9 8 -8 -7 13 12 -12 29 14 16 -16 17 -1 -10 20 21 -15 23 -22 25 -25 -26 -28 -24 -11
right_child=1 -3 3 -5 -6 6 7 -9 18 10 11 -13 -14 19 15 -17 -18 -19 -20 -21 22 -23 28 24 26 -27 27 -29 -30 -31
leaf_value=-0.00028480634434369161 -0.00010968483910872351 0.0029954500453604283 -0.00044155383693424036 -0.0027384329467895442 -0.0012366968108416096 6.44251552694186e-05 -0.00064187557494733483 0.011846762825571204 -0.0006497358541001371 0.000389557885992454 -0.0062052995230339504 0.00050833943236144614 0.0022921262072850366 -0.00011888627739845895 -0.0054805852427307396 -0.00052228920521553272 -0.0017331576165815932 0.0041464552015531807 -0.0032577999531481923 -4.4509020437353965e-06 -0.00013549525592034605 0.0094911706609418622 -0.00010613425771381013 0.0085374368196685924 0.0031900712444829491 0.0019235714584356172 -0.0023898479463241528 0.0010925160526312537 -0.0021319156671597739 -0.001286522031451958
leaf_weight=227 40 20 59 20 39 150 30 20 21 37 23 26 20 23 20 55 30 20 22 19979 666 25 553 21 21 25 20 24 20 42
leaf_count=227 40 20 59 20 39 150 30 20 21 37 23 26 20 23 20 55 30 20 22 19979 666 25 553 21 21 25 20 24 20 42
internal_value=0 0.00092536 -2.4967e-06 -0.00102304 1.14169e-06 3.32414e-06 0.000584472 0.00435358 -0.000391981 -3.131e-06 -0.000832992 -0.00264296 6.28509e-05 2.52133e-06 -0.000488791 -0.0018445 -0.000121721 7.40003e-05 -0.00198409 1.06114e-05 0.000225869 0.00488635 6.0163e-05 0.000234943 0.00245757 0.00494294 0.000698691 -0.000490377 -0.000176842 -0.000501523
internal_weight=0 60 22238 79 22159 22120 243 50 193 21877 148 49 99 21729 352 75 277 247 43 21377 1398 48 1350 777 111 46 65 44 573 79
internal_count=22298 60 22238 79 22159 22120 243 50 193 21877 148 49 99 21729 352 75 277 247 43 21377 1398 48 1350 777 111 46 65 44 573 79
shrinkage=0.075


Tree=65
num_leaves=31
num_cat=0
split_feature=8 18 8 22 27 27 18 20 25 26 22 11 12 7 1 14 22 27 27 12 20 30 8 17 15 16 25 30 1 30
split_gain=0.00856663 0.0387053 0.0206948 0.310448 0.248986 0.588743 0.298437 0.0540313 0.0402143 0.0317883 0.0257942 0.0323487 0.0385815 0.0224032 0.0194545 0.0206833 0.0184749 0.0384117 0.118867 0.0224678 0.0169132 0.0847516 0.0148972 0.0140597 0.0134944 0.0129171 0.0118207 0.0117422 0.00895365 0.0483874
threshold=-4.308574999999999e-05 0.038882050000000008 -1.1656099999999998e-06 -0.043520549999999998 0.40341550000000004 -0.56065814999999997 0.017143200000000004 -0.00056516949999999987 -0.16660249999999996 0.003911635000000001 -0.13884849999999996 8.5055700000000013e-05 0.00049941400000000011 0.039784050000000008 -14.249449999999998 -12.196199999999999 0.035564700000000005 0.34729650000000006 -0.24510499999999988 0.0083829350000000028 -3.4138749999999996e-05 -0.54040499999999969 -0.00012286899999999998 0.10502200000000002 0.51059950000000009 98.768400000000014 -0.031563349999999997 1.2439000000000002 -15.229699999999998 -3.8232099999999996
decision_type=2 2 2 2 2 2 2 2 2 2 2 2 2 2 2 2 2 2 2 2 2 2 2 2 2 2 2 2 2 2
left_child=1 26 3 4 5 -2 -7 -5 -9 -6 11 13 -13 14 15 -4 20 18 -18 -19 21 -10 -3 24 -22 28 -1 -27 29 -12
right_child=2 22 10 7 9 6 -8 8 16 -11 25 12 -14 -15 -16 -17 17 19 -20 -21 23 -23 -24 -25 -26 27 -28 -29 -30 -31
leaf_value=-0.00082688072962977652 -0.00027695965767965056 -0.0010740865735649342 -0.0036332203214988115 0.0032142516060989219 0.0026343281849403864 0.0065843999313074169 0.017674133690473225 -0.0032337551167240068 -0.00020873340914325431 -0.0007729083632810541 -0.0038519207979129527 -0.0039224280459166034 -0.00080337027600072702 0.0019176637752899785 -0.00020834003357478995 -0.00022230695627513343 -0.00018049477406096757 -0.00028981038786548652 -0.0062405759396497165 0.0024856603308632788 -9.988476474072352e-06 0.004038022832974093 -0.00339701783586861 0.0017976546065256115 -0.0019195458182496492 -0.002613064298930112 -4.5292392739889959e-05 -0.00023368989360668429 2.2665811809794308e-05 -0.00013012674535019876
leaf_weight=114 55 44 20 29 20 39 21 22 108 67 20 30 87 26 496 20 67 75 25 21 2384 35 24 24 21 20 2407 28 14828 1121
leaf_count=114 55 44 20 29 20 39 21 22 108 67 20 30 87 26 496 20 67 75 25 21 2384 35 24 24 21 20 2407 28 14828 1121
internal_value=0 -0.000128262 1.68487e-05 0.00019776 0.00303771 0.00532796 0.0104658 -6.31998e-06 -3.98917e-05 1.03644e-05 -1.5799e-05 -0.000468563 -0.00160313 -0.000232363 -0.000336655 -0.00192776 -1.44334e-05 -0.000732151 -0.00182726 0.000317324 3.80281e-05 0.000830682 -0.00189394 -8.637e-06 -2.66624e-05 3.39474e-06 -8.06359e-05 -0.0012251 7.08737e-06 -0.000195364
internal_weight=0 2589 19709 3013 202 115 60 2811 2782 87 16696 679 117 562 536 40 2760 188 92 96 2572 143 68 2429 2405 16017 2521 48 15969 1141
internal_count=22298 2589 19709 3013 202 115 60 2811 2782 87 16696 679 117 562 536 40 2760 188 92 96 2572 143 68 2429 2405 16017 2521 48 15969 1141
shrinkage=0.075


Tree=66
num_leaves=31
num_cat=0
split_feature=13 3 0 17 16 10 9 9 21 1 22 22 27 27 1 9 23 3 26 23 30 30 9 3 30 10 24 1 27 27
split_gain=0.00866467 0.0578649 0.00782368 0.0230516 0.0111376 0.0175652 0.00974563 0.0069118 0.027343 0.0467672 0.0244483 0.0197806 0.0186716 0.0827841 0.0366563 0.0184899 0.388502 0.133686 0.0384697 0.035352 0.0320896 0.0551546 0.051096 0.0507836 0.0258493 0.0191272 0.0190652 0.181027 0.282286 0.671229
threshold=-3.0876849999999996 1.0138250000000002e-05 15.501500000000002 0.0029652100000000007 98.768400000000014 1.0304250000000002e-06 -2.6026449999999999e-07 3.0959200000000007e-05 0.71308150000000003 -17.753849999999996 1.7006450000000002 7.280380000000001 -0.5077090999999998 0.23026500000000019 -7.9269999999999987 9.9481050000000026e-06 0.21288950000000004 1.6361400000000006e-05 0.014748050000000002 0.21288950000000004 -0.91107500000000019 1.4343049999999995 -2.2813249999999993e-06 1.8027350000000003e-05 -1.5437499999999995 3.5696450000000006e-07 4.9385700000000009e-06 -14.159849999999997 0.65141500000000019 -0.56065814999999997
decision_type=2 2 2 2 2 2 2 2 2 2 2 2 2 2 2 2 2 2 2 2 2 2 2 2 2 2 2 2 2 2
left_child=1 -1 4 -4 7 6 -6 11 -9 -10 12 15 -11 14 -14 19 18 -18 -17 26 24 22 -22 25 -21 -24 -2 28 29 -28
right_child=2 -3 3 -5 5 -7 -8 8 9 10 -12 -13 13 -15 -16 16 17 -19 -20 20 21 -23 23 -25 -26 -27 27 -29 -30 -31
leaf_value=0.0037915696611382655 3.3655461694388383e-06 5.1166955099129586e-06 -0.00018872997138526414 0.0029297444544317841 -0.0026252135591399248 0.00089007784174302486 -0.00080076801266465013 -1.8626985360198862e-05 -0.0042021591803131737 -5.4249679631443295e-05 0.0017376938469869155 -0.0020938727402826768 -0.00593645174667472 -0.00032287007763410553 -0.0017464450311545871 -7.9726678072959952e-05 0.011511319600335159 0.0033173344545502914 0.0030959637960636015 -0.00026561786169017023 -0.0055786655404517658 -0.00033135818584813063 -0.0015236510468688771 -0.0048802665020161841 0.0022100497855717547 0.001310289776022598 -0.00057187852562492483 -8.9127030746927847e-05 -0.001754020138226527 0.015651786004197605
leaf_weight=26 16520 179 40 20 23 27 58 2785 20 171 26 25 24 167 23 869 21 24 22 271 24 164 37 20 26 21 32 571 36 26
leaf_count=26 16520 179 40 20 23 27 58 2785 20 171 26 25 24 167 23 869 21 24 22 271 24 164 37 20 26 21 32 571 36 26
internal_value=0 0.00048535 -4.50354e-06 0.000850762 -6.83259e-06 -0.000766596 -0.00131882 -3.09008e-06 -0.000104657 -0.000660562 -0.000488221 1.43689e-05 -0.000638543 -0.00110543 -0.00388602 1.71898e-05 0.000342075 0.00714119 -1.31457e-06 5.59326e-08 -0.000584753 -0.00118306 -0.00255247 -0.00162134 -4.88927e-05 -0.000497569 1.92149e-05 0.000412947 0.00346278 0.0067008
internal_weight=0 205 22093 60 22033 108 81 21925 3216 431 411 18709 385 214 47 18684 936 45 891 17748 563 266 102 78 297 58 17185 665 94 58
internal_count=22298 205 22093 60 22033 108 81 21925 3216 431 411 18709 385 214 47 18684 936 45 891 17748 563 266 102 78 297 58 17185 665 94 58
shrinkage=0.075


Tree=67
num_leaves=31
num_cat=0
split_feature=27 20 19 4 19 14 30 1 23 30 18 7 30 4 14 17 27 17 10 0 4 5 27 19 22 17 12 6 6 4
split_gain=0.00754972 0.0335116 0.00791393 0.0269995 0.0494128 0.0223772 0.035094 0.0146458 0.115708 0.224317 0.0444892 0.0354674 0.0188872 0.0315516 0.0213193 0.0159247 0.0258519 0.0116666 0.135044 0.0108685 0.0262553 0.0308637 0.0927613 0.0335114 0.0256031 0.0292874 0.0248207 0.0237637 0.0189921 0.0288787
threshold=5.609935000000001 -1.8923699999999996e-05 0.25194400000000006 -0.00031614999999999991 3.8695450000000005 -15.782499999999997 -4.0340749999999996 -14.117999999999999 -0.08073799999999999 1.9244049999999995 0.035501350000000008 0.0020371300000000003 0.3063650000000005 -7.3782499999999987e-05 -14.666599999999997 0.042148300000000007 -1.7009254999999999 2.4687050000000004 3.4021150000000006e-08 3.6163950000000002 -2.6158299999999997e-05 -5.1103699999999998e-06 0.3752950000000001 0.31620250000000005 -0.37774049999999998 -0.095294899999999974 0.00010980500000000002 -6.8701499999999986e-05 -4.2074949999999996e-05 -2.8359349999999998e-05
decision_type=2 2 2 2 2 2 2 2 2 2 2 2 2 2 2 2 2 2 2 2 2 2 2 2 2 2 2 2 2 2
left_child=2 -2 17 4 5 6 -4 8 9 -5 11 -10 13 -13 -14 -16 -17 -1 -19 20 21 23 -23 -9 -25 26 -26 -21 -29 -30
right_child=1 -3 3 7 -6 -7 -8 19 10 -11 -12 12 14 -15 15 16 -18 18 -20 27 -22 22 -24 24 25 -27 -28 28 29 -31
leaf_value=1.2027612372196393e-05 0.0033908240305231627 -0.00011363487358576921 3.1309608122050439e-05 0.0078753942713862459 -0.0040954894758760928 3.875455643814664e-05 -0.004264382691326318 -0.0028119159779635083 0.0024791385697816234 -0.00088551683067635163 0.0030148016087795525 -0.0040322037783524769 0.0017777502314856974 -0.00073285987154706942 -0.00017065141449439835 -9.8983067552828942e-05 -0.0038246656397313925 0.0061258603052192486 -0.0013338157355369095 0.0025711673321243975 -5.0178090861396186e-05 -0.0052127482161722577 -0.00022681681570784496 0.0019344624833671519 -0.00011872482173203024 -2.150615995371021e-05 -0.0031269150515678729 -0.0014661379001786963 0.0012351188630141637 -6.1248699346670696e-05
leaf_weight=19023 20 66 23 31 25 115 20 30 21 35 22 23 24 56 117 22 20 20 43 21 1142 32 61 29 27 241 36 46 110 797
leaf_count=19023 20 66 23 31 25 115 20 30 21 35 22 23 24 56 117 22 20 20 43 21 1142 32 61 29 27 241 36 46 110 797
internal_value=0 0.000701356 -2.7155e-06 -0.000113334 -0.000997257 -0.00050703 -0.00196669 -5.837e-05 0.000382155 0.00322946 -0.000233982 -0.000486537 -0.000724244 -0.00169343 -0.000305853 -0.000620359 -0.00187312 1.54021e-05 0.00103434 -0.000121914 -0.00024228 -0.000723376 -0.00194241 -0.000411062 -0.000194769 -0.000397887 -0.00183769 7.55647e-05 2.05724e-05 9.59734e-05
internal_weight=0 86 22212 3126 183 158 43 2943 371 66 305 283 262 79 183 159 42 19086 63 2572 1598 456 93 363 333 304 63 974 953 907
internal_count=22298 86 22212 3126 183 158 43 2943 371 66 305 283 262 79 183 159 42 19086 63 2572 1598 456 93 363 333 304 63 974 953 907
shrinkage=0.075


Tree=68
num_leaves=31
num_cat=0
split_feature=13 3 19 4 23 9 24 4 30 1 25 1 20 1 1 4 21 30 7 1 12 5 25 27 4 14 1 3 30 3
split_gain=0.00722809 0.0489688 0.00840151 0.0214781 0.041664 0.0162499 0.0939842 0.176762 0.300409 0.0243278 0.0258066 0.0201342 0.0644029 0.0221061 0.0203308 0.0161517 0.0295138 0.0527976 0.0343763 0.0460733 0.0215947 0.0497722 0.0150066 0.0195297 0.0170643 0.0131656 0.0295792 0.0127389 0.0225631 0.0114056
threshold=-3.0876849999999996 1.0138250000000002e-05 0.25194400000000006 -0.00031614999999999991 -0.19394499999999995 -4.4835099999999985e-06 4.9385700000000009e-06 -4.1216449999999991e-05 -2.5072499999999995 -15.821599999999998 -0.023927849999999997 -14.652499999999998 -4.9328649999999997e-05 -14.364899999999999 -14.117999999999999 -3.0353699999999997e-05 0.21679700000000002 0.047579999999999963 0.00045028350000000006 -7.5546849999999992 0.0016003100000000004 8.1207550000000008e-05 -0.043826949999999996 -0.61201749999999977 -0.00022299849999999998 -15.782499999999997 -13.459649999999998 1.6509400000000005e-05 1.1818350000000002 1.0828050000000002e-05
decision_type=2 2 2 2 2 2 2 2 2 2 2 2 2 2 2 2 2 2 2 2 2 2 2 2 2 2 2 2 2 2
left_child=1 -1 -2 4 -4 6 22 8 -8 10 -7 12 -11 -13 -15 16 17 -16 19 -18 21 29 23 -5 -24 26 -6 28 -12 -20
right_child=2 -3 3 5 25 9 7 -9 -10 11 27 13 -14 14 15 -17 18 -19 20 -21 -22 -23 24 -25 -26 -27 -28 -29 -30 -31
leaf_value=0.0034847640666367413 1.4382133808311112e-05 1.5147377886250186e-06 -0.0039654702086243726 -0.00028365879831835625 -0.0037359385829768138 -0.0032197812252787923 -0.00054743939318931155 -0.00032040021225384409 0.011859673027419889 0.0047509765622089613 -0.0029823542139201888 -0.0024006528948802949 -0.00029942182023586032 0.0021565118422255513 -0.0045645101052387968 -3.550425741145503e-05 -0.0043387723497144183 -0.00036936993982332445 0.0015977394528163132 -4.1642391431651048e-05 -0.00076793004744206189 0.0041456203774487216 -0.0022700161603097513 0.0028606857715294609 -0.00020545447937658461 -6.367942135115393e-05 6.9514619341741005e-05 0.00062736085495203038 -0.00016079588057364577 -0.00016978523225519813
leaf_weight=26 19047 179 22 25 20 27 21 60 23 20 25 24 49 22 27 1692 25 45 25 32 98 20 24 20 365 117 27 32 44 115
leaf_count=26 19047 179 22 25 20 27 21 60 23 20 25 24 49 22 27 1692 25 45 25 32 98 20 24 20 365 117 27 32 44 115
internal_value=0 0.000443293 -4.11329e-06 -0.000119767 -0.000900714 -6.89786e-05 0.000302422 0.00232743 0.0059381 -0.000155031 -0.0011601 -9.63945e-05 0.00116446 -0.000137335 -0.000111481 -0.000135481 -0.000572589 -0.00194255 -0.000259455 -0.00192635 0.000108812 0.000645816 -0.000182832 0.00111383 -0.000332831 -0.000489588 -0.00154983 -0.000609488 -0.0011831 0.000145844
internal_weight=0 205 22093 3046 186 2860 538 104 44 2322 128 2194 69 2125 2101 2079 387 72 315 57 258 160 434 45 389 164 47 101 69 140
internal_count=22298 205 22093 3046 186 2860 538 104 44 2322 128 2194 69 2125 2101 2079 387 72 315 57 258 160 434 45 389 164 47 101 69 140
shrinkage=0.075


Tree=69
num_leaves=31
num_cat=0
split_feature=3 15 17 16 9 9 27 27 1 27 27 3 10 27 2 4 25 25 1 0 27 17 19 27 27 24 1 1 3 25
split_gain=0.00673551 0.0901766 0.00915753 0.00696507 0.0499553 0.195624 0.175136 0.399759 0.049997 0.0443369 0.422321 0.22352 0.19738 0.0413967 0.145707 0.0318955 0.0215767 0.0195987 0.0206401 0.0160844 0.0233045 0.01493 0.0146801 0.0125362 0.0419972 0.0122354 0.0501873 0.169055 0.0677647 0.0117903
threshold=7.0991900000000007e-06 0.49202650000000009 -0.029878449999999997 9.9131750000000007 8.3089050000000031e-06 3.0959200000000007e-05 -0.53096500000000002 0.25180000000000019 -18.098299999999998 0.23026500000000019 -0.10000499999999989 1.1747650000000001e-05 1.3381200000000003e-06 0.62059100000000023 -0.15751449999999997 1.0466700000000001e-05 -0.9832439999999999 -1.7284199999999998 -15.448249999999998 7.3648950000000015 -0.2956995 0.36211500000000002 -3.5056549999999995 -0.6448704999999999 0.23026500000000019 4.9385700000000009e-06 -13.459649999999998 -14.762349999999998 1.5305900000000002e-05 1.7944850000000001
decision_type=2 2 2 2 2 2 2 2 2 2 2 2 2 2 2 2 2 2 2 2 2 2 2 2 2 2 2 2 2 2
left_child=1 2 -1 22 8 6 -6 -8 -5 10 17 -12 -13 14 -11 -16 -7 -10 -19 20 -20 -15 -2 -18 -25 -24 27 28 -27 -23
right_child=3 -3 -4 4 5 16 7 -9 9 13 11 12 -14 21 15 -17 23 18 19 -21 -22 29 25 24 -26 26 -28 -29 -30 -31
leaf_value=-0.0013472204442782989 0.0014609624015485259 0.0052183170928037726 0.00013943192742590327 0.0029487592421646694 -0.0008803699870259152 0.0017451800937124061 0.013538073934614658 0.00073325089679201485 -0.0021950075381901115 0.0063684759351890531 0.00067399055114947259 -0.011560912306078152 -0.0025007296607197659 -6.9970130967808344e-05 -0.0015879769688971074 0.0020510249263315924 -1.9144202348609224e-05 0.0023173448643501612 -0.00011186798456141949 0.0013051727867605222 -0.0021233435658671493 -0.00064185601018011164 -2.8923036001793734e-06 -0.0038766449770191681 -0.00043635826953256827 -0.0037375086591704791 -2.1348056467890767e-05 0.0068809545129220676 0.0023624960788583851 -0.0027789896521790065
leaf_weight=26 39 20 225 25 30 24 24 32 25 25 21 38 21 444 42 20 106 20 436 40 35 53 20061 25 99 21 254 27 20 20
leaf_count=26 39 20 225 25 30 24 24 32 25 25 21 38 21 444 42 20 106 20 436 40 35 53 20061 25 99 21 254 27 20 20
internal_value=0 0.000371627 -1.45639e-05 -4.57215e-06 -0.00015501 0.000652077 0.0037438 0.00622103 -0.000371935 -0.000438884 -0.000875926 -0.00597095 -0.0083361 2.1312e-05 0.00153491 -0.000414105 -0.000394727 -0.000142829 -4.62103e-05 -0.000138717 -0.000261341 -0.000233394 7.25103e-06 -0.000618021 -0.00112996 4.46956e-06 0.000463123 0.00227276 -0.000761897 -0.00122737
internal_weight=0 271 251 22027 1605 340 86 56 1265 1240 636 80 59 604 87 62 254 556 531 511 471 517 20422 230 124 20383 322 68 41 73
internal_count=22298 271 251 22027 1605 340 86 56 1265 1240 636 80 59 604 87 62 254 556 531 511 471 517 20422 230 124 20383 322 68 41 73
shrinkage=0.075


Tree=70
num_leaves=31
num_cat=0
split_feature=30 19 10 14 4 3 22 27 5 20 27 27 7 3 12 27 7 24 12 12 13 25 27 22 8 8 22 30 16 9
split_gain=0.00717948 0.0207592 0.0229283 0.0185754 0.0177759 0.0123939 0.0851565 0.166538 0.0254075 0.021613 0.0145413 0.0983227 0.060663 0.0221214 0.0262039 0.0147517 0.00975836 0.0230585 0.0328745 0.0183709 0.0525903 0.0169796 0.0345078 0.0178134 0.260211 0.324786 0.0191281 0.0489126 0.0148332 0.151306
threshold=3.2301850000000001 5.520595000000001 4.7954600000000015e-06 -13.773999999999999 -1.2005349999999998e-05 8.7946500000000006e-06 -0.10808449999999999 -0.19251849999999998 -0.00020942449999999997 0.00010613150000000003 0.055811000000000097 -0.10000499999999989 0.00078556150000000011 7.6070650000000005e-06 2.1170350000000003e-05 0.25180000000000019 0.038804550000000007 2.2124750000000004e-06 0.013343500000000001 0.060070950000000005 1.8412100000000002 4.8828850000000008 -0.10000499999999989 -0.27367349999999996 -4.7927499999999991e-06 -3.2513049999999988e-05 -0.15237049999999999 0.39414000000000066 81.672750000000022 3.5181750000000007e-07
decision_type=2 2 2 2 2 2 2 2 2 2 2 2 2 2 2 2 2 2 2 2 2 2 2 2 2 2 2 2 2 2
left_child=5 3 -3 4 -2 6 7 -1 -8 10 11 -10 13 -13 -15 -12 19 -18 -19 21 -21 23 -23 24 25 -7 27 -25 -28 -30
right_child=1 2 -4 -5 -6 16 8 -9 9 -11 15 12 -14 14 -16 -17 17 18 -20 20 -22 22 -24 26 -26 -27 28 -29 29 -31
leaf_value=-0.0011248598782150376 -0.003260247665875795 -0.0030817040971467375 0.00026871682552155103 -5.5084416619885471e-05 -9.8139068104501344e-05 -0.0017769656585701538 0.0024563722283346577 0.0064238981002043673 -0.00012893048287277223 -0.0023451158952022006 -0.0020089868431678042 0.003209891241699965 0.0054006160355317568 0.0020123573257992771 -0.0016995700680854499 -0.00013008559313807416 -8.8359276787176633e-05 -0.0033636941424478647 -0.00048907398841780672 7.1575624360775691e-05 0.0044859384587653036 -8.8894017921873071e-05 -0.0029372472769781861 -0.0002407047595286691 -0.00033692381195110231 0.0096960014765292198 1.4081948006902488e-05 -0.0039349561931885544 -0.00095989247224400221 0.0066578125293744956
leaf_weight=31 20 27 20 4088 20 23 25 35 431 21 25 22 29 23 20 393 1348 29 98 63 20 87 33 126 303 35 14804 24 55 20
leaf_count=31 20 27 20 4088 20 23 25 35 431 21 25 22 29 23 20 393 1348 29 98 63 20 87 33 126 303 35 14804 24 55 20
internal_value=0 -8.86669e-05 -0.00165599 -7.08219e-05 -0.00167919 2.04262e-05 0.000269894 0.00287827 9.58269e-05 3.46094e-05 8.76044e-05 0.000350399 0.00254817 0.00127554 0.000285879 -0.00024246 5.00621e-06 -0.000179379 -0.00114548 2.24479e-05 0.00113528 1.64928e-05 -0.000872191 2.34221e-05 0.00054405 0.00514638 1.09165e-05 -0.000831785 1.9412e-05 0.0010715
internal_weight=0 4175 47 4128 40 18123 1055 66 989 964 943 525 94 65 43 418 17068 1475 127 15593 83 15510 120 15390 361 58 15029 150 14879 75
internal_count=22298 4175 47 4128 40 18123 1055 66 989 964 943 525 94 65 43 418 17068 1475 127 15593 83 15510 120 15390 361 58 15029 150 14879 75
shrinkage=0.075


Tree=71
num_leaves=31
num_cat=0
split_feature=23 9 12 23 27 27 3 7 23 30 27 27 12 12 9 12 27 27 18 3 21 7 6 15 16 3 25 27 19 27
split_gain=0.00676895 0.0459556 0.0611886 0.154976 0.226048 0.342321 0.286602 0.0387195 0.0279011 0.0364374 0.03957 0.230817 0.1183 0.0314555 0.021207 0.0253564 0.0241093 0.124754 0.179294 0.0990117 0.130489 0.264972 0.569807 0.260215 0.0982429 0.0872923 0.292546 0.0642887 0.0728363 0.0497284
threshold=0.00097055650000000008 5.3235000000000008e-07 0.00051311850000000019 0.095491450000000019 -0.6448704999999999 0.32495100000000005 1.8621900000000002e-05 0.0014104900000000001 0.095491450000000019 -2.2422150000000003 0.45853315000000017 -0.26963010000000004 0.00048408350000000007 1.2135250000000002e-10 6.3778700000000015e-08 5.6448650000000011e-10 0.62059100000000023 -0.24510499999999988 0.061221600000000008 1.6630800000000003e-05 0.29129750000000004 0.00093239050000000013 8.7890050000000018e-05 -0.49633099999999991 7.093795000000001 1.5599150000000005e-05 -0.00010639099999999999 0.017084500000000061 -0.10270299999999999 -0.017509999999999911
decision_type=2 2 2 2 2 2 2 2 2 2 2 2 2 2 2 2 2 2 2 2 2 2 2 2 2 2 2 2 2 2
left_child=14 8 3 -3 -5 6 -6 -7 13 -10 11 -11 -13 -2 16 -16 17 -1 19 20 25 -22 23 -23 -21 27 -27 28 -19 -30
right_child=1 2 -4 4 5 7 -8 -9 9 10 -12 12 -14 -15 15 -17 -18 18 -20 24 21 22 -24 -25 -26 26 -28 -29 29 -31
leaf_value=-2.2183032682287094e-05 -0.0029464982995705213 0.00024868793697785542 -9.7316174177127678e-05 -0.00058662550854053056 0.014749767620944314 0.0026688443405191715 0.0029042904584639473 -0.001885556982181567 -6.2410941487681538e-05 -0.00038516585306507087 -0.00030657928286699282 -0.009340779914456452 -0.002138134471707694 -0.00010226956102991333 -0.0021442392192263719 -6.0311881246281425e-05 -5.0973216519745107e-05 0.0056933774249773696 0.0069651500469682598 0.00010650374647459631 -0.0012279124184194456 0.0046383030662142232 -0.0029542898484214673 0.014207583139333027 -0.0047061133742099621 0.010205431889303524 -0.00027386948978071516 -0.00014170146012992989 -1.4123076617062592e-05 0.0019396040914861875
leaf_weight=3766 22 724 1379 62 27 21 20 21 343 156 179 29 23 3761 33 6908 3353 20 26 523 49 31 30 33 25 23 43 374 139 155
leaf_count=3766 22 724 1379 62 27 21 20 21 343 156 179 29 23 3761 33 6908 3353 20 26 523 49 31 30 33 25 23 43 374 139 155
internal_value=0 -6.26024e-05 0.000213957 0.000704523 0.00289012 0.00531212 0.00970914 0.000391644 -0.000200729 -0.000625247 -0.00112409 -0.00182762 -0.00615499 -0.00011881 2.72764e-05 -7.02196e-05 0.000106056 0.000206595 0.000792304 0.000681235 0.00116648 0.00324364 0.00557456 0.00957246 -0.00011305 0.00077254 0.00337801 0.000522597 0.00131383 0.0010159
internal_weight=0 6767 2254 875 151 89 47 42 4513 730 387 208 52 3783 15531 6941 8590 5237 1471 1445 897 143 94 64 548 754 66 688 314 294
internal_count=22298 6767 2254 875 151 89 47 42 4513 730 387 208 52 3783 15531 6941 8590 5237 1471 1445 897 143 94 64 548 754 66 688 314 294
shrinkage=0.075


Tree=72
num_leaves=31
num_cat=0
split_feature=19 27 6 0 19 16 10 10 16 2 1 1 1 9 22 27 27 27 15 27 12 9 30 20 0 3 2 25 19 6
split_gain=0.00727692 0.00633027 0.0301849 0.00624733 0.0215401 0.0083825 0.0330123 0.0984835 0.252935 0.230031 0.0266613 0.0273595 0.0532914 0.0354392 0.0263651 0.0246979 0.0690017 0.0888494 0.0427489 0.0207895 0.0193207 0.0812442 0.0285658 0.0341477 0.0810543 0.0161867 0.0157068 0.0142838 0.0127917 0.0117037
threshold=37.021250000000002 5.609935000000001 5.3195550000000009e-06 15.501500000000002 -0.052245749999999987 9.9131750000000007 -1.9979499999999996e-06 -1.1130149999999999e-05 29.822400000000005 -1.1568099999999999 -18.098299999999998 -16.595249999999997 -15.516849999999998 -5.8300299999999994e-07 4.8627450000000012 1.3316355000000002 -0.22108000000000014 0.14943000000000009 0.73351250000000012 0.5940319500000002 0.00017604850000000003 8.3089050000000031e-06 -0.6183000000000004 -0.00020163349999999998 -0.57041049999999993 1.4436150000000001e-05 0.20851600000000003 -0.9832439999999999 -3.5056549999999995 4.1161000000000001e-05
decision_type=2 2 2 2 2 2 2 2 2 2 2 2 2 2 2 2 2 2 2 2 2 2 2 2 2 2 2 2 2 2
left_child=1 3 -3 5 -5 28 7 -7 25 -10 -8 29 -13 15 20 16 -14 -18 19 -19 21 22 26 24 -24 -9 -15 -22 -1 -12
right_child=-2 2 -4 4 -6 6 10 8 9 -11 11 12 13 14 -16 -17 17 18 -20 -21 27 -23 23 -25 -26 -27 -28 -29 -30 -31
leaf_value=0.0013669442849417325 -0.0010369862941412354 -0.00012949321415838065 0.0031964772864159839 0.0027732132063511016 -0.00024128842230993538 -0.00044094056571530491 0.0023163886327113559 0.00097376536588853922 0.012735324995883274 0.0014964863731409294 -0.0010471093448619026 0.0024504778825135678 -0.00023705407609195389 0.00012853887193028788 0.0024912947780519191 -0.0001237225074121694 -0.0056935198172980627 -0.0046395818415476244 0.00068761962421002166 -0.0013333137124845961 -0.0023740713688731865 0.0040772957701240859 0.0004418462074162172 -0.00033678616720616737 -0.0062295479845488446 -0.0016745021805478686 0.0021641974317271493 -0.0005293814643169074 7.3643586274263254e-06 -0.0035821853363631815
leaf_weight=39 38 66 20 20 40 190 21 20 20 21 21 38 125 292 21 115 39 20 34 23 26 27 21 133 20 37 23 257 20511 20
leaf_count=39 38 66 20 20 40 190 21 20 20 21 21 38 125 292 21 115 39 20 34 23 26 27 21 133 20 37 23 257 20511 20
internal_value=0 1.77024e-06 0.000643988 -7.20552e-07 0.000763545 -2.79417e-06 -0.000170174 0.000555114 0.00248624 0.00697885 -0.000333875 -0.000378222 -0.000313868 -0.000403192 -0.000131912 -0.00102805 -0.00145958 -0.00277695 -0.00129972 -0.00287111 -0.000200857 7.22716e-05 -0.000148865 -0.000920142 -0.00281249 -0.000745285 0.000277174 -0.000698858 9.94458e-06 -0.00228373
internal_weight=0 22260 86 22174 60 22114 1564 288 98 41 1276 1255 1214 1176 820 356 241 116 77 43 799 516 489 174 41 57 315 283 20550 41
internal_count=22298 22260 86 22174 60 22114 1564 288 98 41 1276 1255 1214 1176 820 356 241 116 77 43 799 516 489 174 41 57 315 283 20550 41
shrinkage=0.075


Tree=73
num_leaves=31
num_cat=0
split_feature=30 14 21 21 21 8 8 12 26 27 5 30 30 21 9 1 1 23 9 27 27 27 16 9 0 27 27 15 2 2
split_gain=0.006307 0.0405405 0.0200923 0.0297223 0.022502 0.198555 0.375165 0.0422759 0.102542 0.081542 0.0323714 0.0145383 0.0154537 0.0125016 0.0177253 0.0401301 0.0216555 0.0124802 0.0146932 0.0101875 0.0422565 0.0357603 0.00940161 0.0306598 0.0393466 0.02398 0.231494 0.0231215 0.0912139 0.217322
threshold=-4.5575699999999992 -19.226799999999997 37.375500000000009 17.397300000000005 3.7290900000000007 -2.2001599999999999e-06 -4.308574999999999e-05 0.00032222300000000006 0.10736300000000001 0.51506500000000022 -0.00020942449999999997 -1.198825 0.78733000000000042 1.6604550000000002 1.6202200000000003e-06 -12.993899999999998 -14.159849999999997 0.051764700000000004 4.9269000000000005e-05 -0.2956995 0.23026500000000019 0.042715000000000176 10.392900000000003 1.0079050000000002e-07 10.624450000000001 -0.10000499999999989 0.17470800000000006 0.56467250000000002 0.13903250000000003 0.9753535000000001
decision_type=2 2 2 2 2 2 2 2 2 2 2 2 2 2 2 2 2 2 2 2 2 2 2 2 2 2 2 2 2 2
left_child=13 -2 3 4 22 6 -6 8 9 -7 -9 -10 -13 -1 16 -16 -15 -17 -19 -18 21 -21 27 25 -25 -24 -27 -3 -29 -30
right_child=1 2 -4 -5 5 7 -8 10 11 -11 -12 12 -14 14 15 17 19 18 -20 20 -22 -23 23 24 -26 26 -28 28 29 -31
leaf_value=-1.873196110187188e-05 0.0025019771027301255 5.2776056601179899e-06 0.0021852138725080295 -0.0024279177706505702 -0.00160754924673321 0.0060309420946466083 0.009088465626253029 -0.0041100457718130203 -0.00010367893216282122 -0.00033890944865561323 -0.00087252391203946895 -0.0036418253081501456 -0.0007912494523106547 0.0022940385468973546 -0.004028900687054764 -0.00014894858095571039 0.00012506090285271433 -0.0023854332913240224 -0.000185183439343599 -0.00083297356255394742 -0.00015194996975120866 -0.004841391602115306 -9.2517221395531162e-05 8.3888380884119499e-05 0.003427655015080485 -0.0068976917459033695 -0.0002178928755450754 -0.00033640888163484001 0.0056760677672161213 -0.0003384515638824367
leaf_weight=4317 37 15487 24 28 35 26 39 23 38 20 71 20 23 20 21 130 290 38 31 31 331 21 230 345 21 34 206 221 57 83
leaf_count=4317 37 15487 24 28 35 26 39 23 38 20 71 20 23 20 21 130 290 38 31 31 331 21 230 345 21 34 206 221 57 83
internal_value=0 2.208e-05 1.66924e-05 1.36322e-05 1.76586e-05 0.000666973 0.00402954 -0.000458955 0.000433475 0.00326144 -0.00166468 -0.00117253 -0.0021171 -7.20577e-05 -0.000324201 -0.000910715 -0.000138006 -0.000581661 -0.00139692 -0.000210281 -0.000464195 -0.00245176 6.17766e-06 -0.000238952 0.000275744 -0.000639758 -0.0011642 1.91085e-05 0.00061246 0.00211032
internal_weight=0 17068 17031 17007 16979 295 74 221 127 46 94 81 43 5230 913 220 693 199 69 673 383 52 16684 836 366 470 240 15848 361 140
internal_count=22298 17068 17031 17007 16979 295 74 221 127 46 94 81 43 5230 913 220 693 199 69 673 383 52 16684 836 366 470 240 15848 361 140
shrinkage=0.075


Tree=74
num_leaves=31
num_cat=0
split_feature=13 3 19 1 20 18 17 17 10 12 11 11 1 10 17 30 17 6 30 17 30 6 1 6 6 16 1 27 15 31
split_gain=0.00624252 0.0385231 0.00714948 0.0128336 0.0378053 0.0290666 0.0189708 0.0113891 0.101447 0.0107468 0.173494 0.0370719 0.0124542 0.0272263 0.0353958 0.0329328 0.0558275 0.0147016 0.018153 0.0384587 0.0331092 0.0629445 0.0186753 0.0102031 0.0101697 0.0416558 0.00840894 0.00814087 0.00795073 0.00801108
threshold=-3.0876849999999996 1.0138250000000002e-05 0.25194400000000006 -16.901749999999996 -5.8536399999999991e-05 0.0034831800000000002 -0.007917854999999998 2.4687050000000004 3.4021150000000006e-08 0.00010980500000000002 0.00029301200000000005 -0.00053376549999999991 -13.618449999999998 4.3456000000000005e-05 0.020696500000000003 -0.34990999999999989 0.016056600000000001 -6.8701499999999986e-05 -0.8282000000000006 0.57452800000000004 -1.2398499999999995 4.7044700000000007e-05 -7.8063599999999989 -5.4547549999999996e-05 5.7860650000000003e-05 1.2202900000000001 -14.652499999999998 -1.4286659999999998 2.2465350000000002 -0.15519499999999906
decision_type=2 2 2 2 2 2 2 2 2 2 2 2 2 2 2 2 2 2 2 2 2 2 2 2 2 2 2 2 2 2
left_child=1 -1 7 4 -4 6 -6 28 -9 10 11 -5 13 15 -15 16 -11 -14 20 22 -19 -22 -20 -17 26 -26 -13 -10 29 -2
right_child=2 -3 3 9 5 -7 -8 8 27 12 -12 24 17 14 -16 23 -18 18 19 -21 21 -23 -24 -25 25 -27 -28 -29 -30 -31
leaf_value=0.0031096069838475577 -4.6914865398898265e-05 2.012690901307128e-05 -0.003078310923046956 0.0030780994658146351 0.00039424005722139556 0.0015738253351325207 -0.0024347710138681576 0.0054329387261532244 -7.0255696514125344e-05 -0.00096396632952802034 0.0059217916953538665 0.0013793019982150999 0.00155325317118068 -0.00052216607721493346 0.0031470387061874913 -0.0017784310277980135 -0.0057192832967042969 -8.6227577808040359e-05 -0.00017216471916274003 -0.0033454269853084246 0.0051250068073704826 -0.00057198678691747771 -0.0019279065296779244 -0.00010719403381254054 -0.0038856179799449816 8.1566162825364534e-06 -6.923011856540577e-05 -0.0021392150223255154 -0.0010598604192357294 5.2405015312247737e-05
leaf_weight=26 7688 179 32 21 24 36 30 20 23 41 28 23 29 50 21 26 21 964 270 27 20 24 39 98 20 68 1134 20 39 11257
leaf_count=26 7688 179 32 21 24 36 30 20 23 41 28 23 29 50 21 26 21 964 270 27 20 24 39 98 20 68 1134 20 39 11257
internal_value=0 0.000411963 -3.82259e-06 -0.000110512 -0.000864177 -7.69295e-05 -0.00117743 1.32391e-05 0.00101998 -7.90659e-05 8.23103e-05 -4.68409e-05 -0.000207177 -0.000686351 0.000563092 -0.00116329 -0.00257464 -0.000117484 -0.000153534 -0.00063095 5.60423e-06 0.00201756 -0.000393763 -0.000457615 -9.95508e-05 -0.000876792 -4.04348e-05 -0.00103256 9.89819e-06 1.21004e-05
internal_weight=0 205 22093 3046 122 90 54 19047 63 2924 1294 1266 1630 257 71 186 62 1373 1344 336 1008 44 309 124 1245 88 1157 43 18984 18945
internal_count=22298 205 22093 3046 122 90 54 19047 63 2924 1294 1266 1630 257 71 186 62 1373 1344 336 1008 44 309 124 1245 88 1157 43 18984 18945
shrinkage=0.075


Tree=75
num_leaves=31
num_cat=0
split_feature=31 14 21 21 21 8 8 12 9 5 26 8 11 21 9 1 1 23 9 14 15 8 14 19 27 30 0 27 27 12
split_gain=0.00562678 0.0368256 0.0165223 0.025125 0.0196523 0.169789 0.477594 0.0633723 0.144322 0.036065 0.0309787 0.0140922 0.0116577 0.0104311 0.0153624 0.0335248 0.0192746 0.0104517 0.0125437 0.00858894 0.0308181 0.0709843 0.0159994 0.0549607 0.106583 0.0138738 0.0151826 0.0250846 0.00975085 0.0225711
threshold=4.5606900000000019 -19.226799999999997 37.375500000000009 17.397300000000005 3.7290900000000007 -5.4114799999999992e-06 -3.6141799999999993e-05 0.00032222300000000006 9.2596550000000011e-07 -0.00020942449999999997 0.071522300000000011 -4.6003499999999992e-08 -1.1633649999999999e-07 1.6604550000000002 1.6202200000000003e-06 -12.993899999999998 -14.159849999999997 0.051764700000000004 4.9269000000000005e-05 -16.750649999999997 0.19686400000000001 5.9188300000000012e-09 -15.973899999999999 0.099557300000000015 -0.079140000000000085 -2.8524699999999994 -2.5372549999999996 0.32495100000000005 5.609935000000001 0.0010309500000000003
decision_type=2 2 2 2 2 2 2 2 2 2 2 2 2 2 2 2 2 2 2 2 2 2 2 2 2 2 2 2 2 2
left_child=1 -1 3 4 19 6 -6 8 10 -9 -7 -12 -13 -2 16 -16 -15 -17 -19 20 25 -22 23 -21 -25 -3 -27 -28 -24 -30
right_child=13 2 -4 -5 5 7 -8 9 -10 -11 11 12 -14 14 15 17 -18 18 -20 22 21 -23 28 24 -26 26 27 -29 29 -31
leaf_value=0.0023843959220824682 -1.9347386882081303e-05 -9.714189852888393e-05 0.001982176728051854 -0.0022318584027029176 -0.00094352479524017173 0.0020561525565408372 0.012683169770420848 -0.0042572759099130048 0.0066458448601406416 -0.0009275094071860869 -0.0021028473445663361 -0.0013691967042177566 0.00088340395277555208 0.0021694103692425416 -0.0036944447773359051 -0.00014766565756242647 -0.00019323355391974201 -0.0022030702601736458 -0.00017012019478340423 -0.00018506566030778159 0.0033080407895878044 -0.0014466556495575022 1.681311923671435e-06 -0.00078045102070193803 0.0066895003924359606 -0.00047642203512623379 -0.004128703557055107 -0.00079626326679544941 0.0030087399092053602 -0.00018429538241352103
leaf_weight=37 4315 43 24 28 39 25 23 24 20 77 35 24 28 20 21 130 673 38 31 96 33 38 16297 21 22 32 27 24 20 33
leaf_count=37 4315 43 24 28 39 25 23 24 20 77 35 24 28 20 21 130 673 38 31 96 33 38 16297 21 22 32 27 24 20 33
internal_value=0 2.08502e-05 1.57159e-05 1.29412e-05 1.66427e-05 0.000623452 0.00411154 -0.000304709 0.00077724 -0.00171874 -0.000270725 -0.000939369 -0.000156258 -6.80781e-05 -0.000298388 -0.00084441 -0.000125048 -0.000543653 -0.00128972 5.91461e-06 -0.000486373 0.000763274 1.17961e-05 0.000813045 0.00304138 -0.00119054 -0.001757 -0.0025605 4.98431e-06 0.00102062
internal_weight=0 17070 17033 17009 16981 295 62 233 132 101 112 87 52 5228 913 220 693 199 69 16686 197 71 16489 139 43 126 83 51 16350 53
internal_count=22298 17070 17033 17009 16981 295 62 233 132 101 112 87 52 5228 913 220 693 199 69 16686 197 71 16489 139 43 126 83 51 16350 53
shrinkage=0.075


Tree=76
num_leaves=31
num_cat=0
split_feature=31 1 26 11 14 1 19 14 1 1 1 4 1 22 8 22 15 13 30 30 15 21 30 30 31 24 3 27 18 17
split_gain=0.00529994 0.0697898 0.0183669 0.0242542 0.0293126 0.0266448 0.014009 0.0132492 0.0474273 0.0340415 0.0316322 0.0230209 0.022396 0.0928068 0.272519 0.0668112 0.0573015 0.0427408 0.0511598 0.060678 0.0318571 0.0439675 0.0537775 0.0303152 0.0191967 0.0211029 0.0176501 0.0130837 0.0113744 0.0122316
threshold=-3.263995 -18.784849999999995 0.00084487850000000014 0.010563600000000001 -12.295749999999998 -15.448249999999998 5.520595000000001 -18.913299999999996 -16.901749999999996 -15.973449999999998 -14.117999999999999 6.6694750000000007e-05 -14.006349999999999 -0.028945449999999994 -1.3316449999999996e-06 -0.12405449999999998 1.0940150000000004 -2.8570549999999995 -1.198825 -0.66839999999999955 0.56467250000000002 0.36956250000000007 -0.098425000000000637 0.68541000000000019 -1.1308450000000001 -2.9986199999999994e-07 1.2028400000000002e-05 -0.05954919999999999 0.30160050000000005 -1.7215749999999999
decision_type=2 2 2 2 2 2 2 2 2 2 2 2 2 2 2 2 2 2 2 2 2 2 2 2 2 2 2 2 2 2
left_child=2 -2 -1 4 -4 -5 -6 8 -3 -10 11 -11 13 14 -9 -16 17 -15 -19 -20 21 22 -21 -23 -24 26 -26 -25 29 -14
right_child=1 7 3 5 6 -7 -8 12 9 10 -12 -13 28 16 15 -17 -18 18 19 20 -22 23 24 27 25 -27 -28 -29 -30 -31
leaf_value=-1.881654513369185e-05 0.004445401474367827 -0.0038174072653678844 -0.0029879226779328367 0.0031828998031051014 -0.00039790584046207325 -0.00040131889535197324 -0.0020812108380960127 0.0083642677410558277 0.0027035354304561308 -0.0041114854038460181 -0.00015485469137247818 -0.000697642691549845 -0.0012171723112418397 0.0027630099090553508 -0.0024049214512446532 0.0030290598872852567 -0.0038252012923476282 -0.0012700686267457858 0.0036469509541348089 0.0030836346337121782 0.0030876053599058653 -0.0031292888699005874 -0.00028299941299177465 -0.0012929970665209111 0.003860684450519329 0.00022600721530328341 0.00078222366815184198 0.0011150026820938696 0.0014420910673629071 7.5162867737688761e-06
leaf_weight=3648 20 21 29 20 381 28 30 31 22 20 614 25 46 36 35 20 20 123 31 39 21 35 220 30 20 94 22 22 31 16564
leaf_count=3648 20 21 29 20 381 28 30 31 22 20 614 25 46 36 35 20 20 123 31 39 21 35 220 30 20 94 22 22 31 16564
internal_value=0 1.74491e-05 -7.66223e-05 -0.000508744 -0.000683382 0.00109211 -0.000520775 1.25676e-05 -0.000306894 -0.00019864 -0.000295526 -0.00221491 2.54267e-05 0.0004133 0.00274071 -0.000428928 0.000132574 0.000246796 0.000108921 0.000426553 0.000228079 0.000103494 0.000439669 -0.00142282 0.000150021 0.000850495 0.00224816 -0.000274228 6.80336e-06 4.12461e-06
internal_weight=0 18162 4136 488 440 48 411 18142 702 681 659 45 17440 799 86 55 713 693 657 534 503 482 395 87 356 136 42 52 16641 16610
internal_count=22298 18162 4136 488 440 48 411 18142 702 681 659 45 17440 799 86 55 713 693 657 534 503 482 395 87 356 136 42 52 16641 16610
shrinkage=0.075


Tree=77
num_leaves=31
num_cat=0
split_feature=0 14 22 10 1 9 16 10 2 11 1 10 16 1 12 2 12 12 27 27 27 27 27 27 22 22 27 27 3 15
split_gain=0.00488011 0.0192482 0.00759808 0.0748969 0.0572457 0.00766822 0.00665012 0.13931 0.256118 0.0278641 0.0269018 0.0174056 0.00811767 0.0329439 0.0282288 0.123458 0.0323155 0.0237788 0.0205073 0.109919 0.0592535 0.018199 0.0772262 0.14424 0.0150461 0.0124011 0.0157326 0.00829741 0.00774126 0.0812219
threshold=15.501500000000002 -7.5043849999999992 1.7006450000000002 4.3456000000000005e-05 -13.618449999999998 -9.293254999999999e-07 47.599950000000007 -1.3513699999999997e-06 -2.0605549999999995 -2.6789549999999994e-07 -14.117999999999999 2.3377700000000002e-05 11.622100000000001 -16.098949999999999 0.00017604850000000003 0.61727300000000007 0.00010274350000000002 0.0024462200000000003 0.12542999999999996 -0.14356249999999995 0.42852950000000001 0.85344050000000005 -0.10000499999999989 0.14943000000000009 -0.27367349999999996 -0.18164149999999998 -0.90040249999999988 -0.5077090999999998 7.0991900000000007e-06 0.35588500000000006
decision_type=2 2 2 2 2 2 2 2 2 2 2 2 2 2 2 2 2 2 2 2 2 2 2 2 2 2 2 2 2 2
left_child=2 -2 6 4 -4 -6 12 8 -8 -9 -11 -12 24 17 15 16 18 -14 19 -15 -20 22 27 -24 -1 26 -26 -16 29 -27
right_child=1 -3 3 -5 5 -7 7 9 -10 10 11 -13 13 14 21 -17 -18 -19 20 -21 -22 -23 23 -25 25 28 -28 -29 -30 -31
leaf_value=0.0015835776147843505 -0.00027438895991508614 0.0025752313781595149 -0.0041989736013217935 0.003527345118630404 -0.0015497908283982219 -0.0001379594066230486 -0.00082589087425731121 -0.0015676728351354541 0.0095687999793881307 0.0026523534487101386 0.00019684501217029119 -0.0019361853385311809 -0.0041080773429712277 -3.9511549323503787e-05 4.6968148963060232e-05 0.0058071309176077847 0.002394153671757522 -0.00072210733765781961 0.004191634348847271 -0.0055422004017126039 -0.00010431734125906883 9.1562241305876009e-06 -0.0079426743398906419 -0.0005539004264781917 6.9961851967610016e-05 3.045106635277479e-05 -0.0028062240683357233 -0.0011992804894915123 2.04343173603088e-06 0.0050059179743402633
leaf_weight=34 40 20 27 23 27 109 30 80 24 21 106 27 20 182 160 22 30 28 21 23 129 211 23 42 23 239 20 37 20500 20
leaf_count=34 40 20 27 23 27 109 30 80 24 21 106 27 20 182 160 22 30 28 21 23 129 211 23 42 23 239 20 37 20500 20
internal_value=0 0.000675484 -1.82251e-06 -0.000479168 -0.0010445 -0.000418249 2.20371e-06 0.000360238 0.00379397 -0.000432162 0.000157714 -0.000236176 -2.53411e-06 -0.000219575 -0.00011521 0.00034272 3.04683e-05 -0.00213293 -0.00016928 -0.000656886 0.000497116 -0.000509243 -0.000926732 -0.00316839 7.1325e-06 4.55587e-06 -0.0012678 -0.000187099 7.19141e-06 0.000414657
internal_weight=0 60 22238 186 163 136 22052 288 54 234 154 133 21764 928 880 407 385 48 355 205 150 473 262 65 20836 20802 43 197 20759 259
internal_count=22298 60 22238 186 163 136 22052 288 54 234 154 133 21764 928 880 407 385 48 355 205 150 473 262 65 20836 20802 43 197 20759 259
shrinkage=0.075


Tree=78
num_leaves=31
num_cat=0
split_feature=17 11 30 5 24 30 27 5 14 27 5 16 3 22 27 23 25 22 8 5 20 30 30 27 15 1 21 11 3 27
split_gain=0.00477789 0.0308841 0.0589431 0.0276959 0.0394816 0.0681096 0.0633656 0.0223606 0.0203592 0.0129082 0.0120219 0.00903178 0.00632421 0.0956911 0.119437 0.00833942 0.0170902 0.0066049 0.120966 0.00958633 0.00958075 0.0381856 0.031227 0.0201538 0.0120445 0.144785 0.00899227 0.0187382 0.0309489 0.0431367
threshold=-0.28182749999999995 0.0058192650000000014 0.34575499999999965 -5.498994999999999e-05 1.0790650000000003e-05 -1.5437499999999995 -0.22108000000000014 -7.5185999999999995e-05 -7.6100699999999994 -0.45060349999999988 -4.3199449999999995e-05 112.04900000000002 8.6381750000000014e-06 -0.10808449999999999 -0.0049194000000000243 0.01130595 -0.027382149999999997 -1.5107249999999997 -3.0249799999999997e-06 5.8930950000000012e-05 0.00046085650000000006 -0.79017499999999907 -2.9750549999999998 -0.6448704999999999 -1.0171649999999997 -14.006349999999999 1.4830550000000002 -2.2103499999999999e-05 1.1815400000000002e-05 -0.14356249999999995
decision_type=2 2 2 2 2 2 2 2 2 2 2 2 2 2 2 2 2 2 2 2 2 2 2 2 2 2 2 2 2 2
left_child=1 3 -3 4 5 -1 -7 8 9 -6 -5 12 13 14 -2 16 -15 18 -14 -20 24 22 23 -22 25 -19 -26 28 29 -28
right_child=11 2 -4 10 7 6 -8 -9 -10 -11 -12 -13 17 15 -16 -17 -18 20 19 -21 21 -23 -24 -25 26 -27 27 -29 -30 -31
leaf_value=0.00026921625540126114 -0.00020760416378574775 -0.00057236272634703523 0.0047201483296521471 0.0018109892030042829 0.00083756201303280566 -0.0017022314668714029 -0.0074744567961897703 -0.0025341726063197708 0.0016990846690746635 -0.0013922630276329074 -8.4926303679319924e-05 0.0015602874642029617 0.0056608631982401538 0.0022159835442185534 0.0067835755227457 -0.00052836156838674834 5.7823515743551427e-05 0.0064630556494064094 -0.00018126507845105759 -0.0019576374465686964 3.7014227288229194e-05 -0.0027385061409101277 0.0027481664318474942 -0.0025038501901959039 -3.1360934874368051e-07 -0.00013788521871273426 -0.00044030915337680198 -4.7235155870696739e-05 -0.00036618983313201173 -0.0049938822891073698
leaf_weight=30 28 29 20 20 23 23 20 20 34 40 317 21 21 21 27 134 1203 21 54 25 87 36 20 22 19047 170 25 588 150 22
leaf_count=30 28 29 20 20 23 23 20 20 34 40 317 21 21 21 27 134 1203 21 54 25 87 36 20 22 19047 170 25 588 150 22
internal_value=0 -0.000213199 0.00158785 -0.000380658 -0.00110476 -0.00247348 -0.00438699 -0.000250779 0.000220024 -0.0005782 2.75909e-05 5.65337e-06 4.14896e-06 0.000157566 0.00322443 3.33556e-05 9.48508e-05 -6.53608e-06 0.000601489 -0.000743408 -9.54789e-06 -0.000578711 2.40222e-05 -0.000475821 -4.85769e-06 0.000587873 -1.05662e-05 -0.000259332 -0.000892394 -0.00257177
internal_weight=0 576 49 527 190 73 43 117 97 63 337 21722 21701 1413 55 1358 1224 20288 100 79 20188 165 129 109 20023 191 19832 785 197 47
internal_count=22298 576 49 527 190 73 43 117 97 63 337 21722 21701 1413 55 1358 1224 20288 100 79 20188 165 129 109 20023 191 19832 785 197 47
shrinkage=0.075


Tree=79
num_leaves=31
num_cat=0
split_feature=2 25 26 11 25 25 1 4 27 1 1 5 8 7 6 27 27 30 22 8 3 5 4 11 27 25 26 11 17 27
split_gain=0.00520942 0.0262352 0.0258046 0.0248657 0.664374 0.0246375 0.0418901 0.0299299 0.0416152 0.0290545 0.0209944 0.0138548 0.01353 0.0148646 0.0127676 0.0138885 0.0754004 0.0342104 0.0102559 0.0827544 0.0279204 0.0133165 0.0125932 0.0118877 0.0136336 0.00957491 0.0112653 0.00806797 0.00748922 0.0349226
threshold=1.4400350000000002 -0.9832439999999999 0.0010716850000000004 0.00023026400000000002 -0.059227749999999989 -0.16660249999999996 -12.592749999999997 3.2913350000000006e-05 0.27611750000000007 -4.9128299999999987 -16.800649999999994 -7.3710099999999991e-05 -8.4777549999999989e-08 0.00015979200000000002 -5.7700649999999991e-05 -0.2956995 0.3752950000000001 -1.9530599999999996 -0.27367349999999996 -1.2103499999999999e-05 8.5122050000000016e-06 -6.5705499999999989e-05 4.5087800000000011e-06 -6.3895549999999992e-06 1.4862098500000003 0.0040527650000000007 0.00025211300000000004 1.1416850000000002e-05 -0.37592899999999996 0.25180000000000019
decision_type=2 2 2 2 2 2 2 2 2 2 2 2 2 2 2 2 2 2 2 2 2 2 2 2 2 2 2 2 2 2
left_child=3 -2 -3 5 -5 6 7 8 -1 12 -4 -9 13 -8 -12 -16 17 -17 19 -7 -21 22 -22 24 -23 -6 -27 -14 29 -20
right_child=1 2 10 4 25 18 9 11 -10 -11 14 -13 27 -15 15 16 -18 -19 28 20 21 23 -24 -25 -26 26 -28 -29 -30 -31
leaf_value=-0.0047753477886317338 0.0022916098635715359 -1.5798908389360284e-05 -0.0024756709308994388 0.011555242551548871 1.8221756509802919e-05 0.0040560400134836529 -0.0028118869874379014 -0.0016800758945464621 -0.00095038439039853975 0.0025511003793196453 0.0013457180652559535 0.0010781409942345426 0.00014775213549659367 -0.00059064134507639816 -0.00010868694967521642 -0.0015200672777578362 -0.00023505231119862169 -0.0051954269107747156 -0.0024487056953008644 0.0025511165600619278 -0.0001101671028829349 -0.0026866333360582454 0.0022748682992096291 -0.00016881687156004892 -0.00020174781172460391 -0.0023676851851372961 -0.00036959502575824164 -0.0014252912429947174 1.365982395351793e-05 0.00016333136645367961
leaf_weight=32 26 3069 31 29 383 32 20 20 32 21 21 21 221 111 222 29 201 28 39 22 33 27 20 121 23 21 65 20 17248 110
leaf_count=32 26 3069 31 29 383 32 20 20 32 21 21 21 221 111 222 29 201 28 39 22 33 27 20 121 23 21 65 20 17248 110
internal_value=0 -8.22494e-05 -9.93892e-05 1.59776e-05 0.000538827 1.64985e-06 -0.000518599 -0.00184937 -0.00286287 -0.000163049 -0.000581605 -0.000267331 -0.000316268 -0.000929763 -0.000464407 -0.0005436 -0.000917827 -0.00332551 1.63081e-05 0.00046825 1.54583e-06 -0.000248858 0.000789846 -0.000570796 -0.00154359 -0.000142358 -0.000857501 1.72091e-05 9.08614e-06 -0.000520356
internal_weight=0 3627 3601 18671 498 18173 498 105 64 393 532 41 372 131 501 480 258 57 17675 278 246 224 53 171 50 469 86 241 17397 149
internal_count=22298 3627 3601 18671 498 18173 498 105 64 393 532 41 372 131 501 480 258 57 17675 278 246 224 53 171 50 469 86 241 17397 149
shrinkage=0.075


Tree=80
num_leaves=31
num_cat=0
split_feature=17 5 5 17 27 27 7 27 25 17 9 15 12 27 18 20 5 13 13 27 14 14 7 5 27 27 27 4 13 8
split_gain=0.00455087 0.0177824 0.0237146 0.0324627 0.0370974 0.0875833 0.0215251 0.0561274 0.194748 0.236864 0.0787731 0.122163 0.0461572 0.0315958 0.0179107 0.015914 0.0153833 0.0257274 0.0791245 0.019313 0.0137482 0.0479404 0.0143446 0.0134045 0.0259529 0.0989584 0.0231949 0.0526997 0.0338609 0.0953934
threshold=-0.018294949999999994 -0.00048341649999999998 -0.0013242299999999998 -0.080095849999999982 0.25180000000000019 -0.2956995 0.0033522950000000004 0.32495100000000005 -0.027382149999999997 -0.14520449999999999 1.7744950000000004e-06 -0.97698149999999984 7.3869550000000019e-05 -0.2956995 0.13711200000000004 -9.5034299999999979e-05 -0.00011387299999999999 -1.2063599999999999 -1.3141449999999997 -0.37340849999999998 -12.154599999999999 -13.661599999999998 0.0022944000000000007 -6.8216249999999976e-05 -0.14356249999999995 0.042715000000000176 0.20152300000000004 2.5386150000000004e-05 -2.1421449999999997 -1.9504449999999995e-08
decision_type=2 2 2 2 2 2 2 2 2 2 2 2 2 2 2 2 2 2 2 2 2 2 2 2 2 2 2 2 2 2
left_child=1 2 15 4 5 -4 16 8 9 -8 13 -12 -13 -10 -9 -1 17 18 20 -19 21 -3 -22 24 -18 -26 27 28 29 -25
right_child=-2 6 3 -5 -6 -7 7 14 10 -11 11 12 -14 -15 -16 -17 23 19 -20 -21 22 -23 -24 26 25 -27 -28 -29 -30 -31
leaf_value=0.0022012456979427952 1.5198366449311658e-05 -0.00021063302051764764 -0.00065378853871842348 -0.00027612260677216464 -0.00028105184489894387 -0.0067787756022880787 0.00083583818469196559 -0.00013686408410297477 -0.0002399315230009268 0.01178629256248314 0.0067891456762611468 0.0033707090891529454 -0.00050195173205533393 -0.0030011739512210132 0.0019902146059393999 -0.0001475194291383242 -0.00053991390645782096 -0.00021775638904904956 -0.0055728104978311427 0.0024627081683969922 0.00046197388276285187 -0.0040836284043252813 -0.0016316781033310689 -0.0056442047475138675 0.0048285683302486679 8.7081808312188682e-05 -1.2633581119234819e-05 -0.0043178772059036417 -0.00010897735323286926 0.00020724095289291911
leaf_weight=20 18563 64 29 119 35 24 25 699 63 20 21 23 70 37 23 86 94 54 20 21 79 25 24 25 31 123 1522 21 296 42
leaf_count=20 18563 64 29 119 35 24 25 699 63 20 21 23 70 37 23 86 94 54 20 21 79 25 24 25 31 123 1522 21 296 42
internal_value=0 -7.55361e-05 -0.000616638 -0.0010838 -0.00217599 -0.00342737 -2.60431e-05 0.000270674 0.00121785 0.00570271 0.000274779 0.00162247 0.000455803 -0.00126159 -6.9104e-05 0.000295644 -0.000145289 -0.000661093 -0.00108345 0.000532774 -0.00061581 -0.00129855 -2.58674e-05 -7.65633e-05 0.000442116 0.00104154 -0.000144051 -0.000664932 -0.000453604 -0.00197613
internal_weight=0 3735 313 207 88 53 3422 981 259 45 214 114 93 100 722 106 2441 287 212 75 192 89 103 2154 248 154 1906 384 363 67
internal_count=22298 3735 313 207 88 53 3422 981 259 45 214 114 93 100 722 106 2441 287 212 75 192 89 103 2154 248 154 1906 384 363 67
shrinkage=0.075


Tree=81
num_leaves=31
num_cat=0
split_feature=27 16 31 15 30 7 12 27 27 27 0 13 27 27 6 30 17 22 20 12 5 14 14 14 12 21 20 30 25 30
split_gain=0.0043995 0.0308694 0.0042386 0.0727792 0.0457502 0.0651261 0.0700851 0.0523966 0.0881438 0.426494 0.104412 0.111647 0.0361366 0.0645354 0.0469 0.0507944 0.0326328 0.03075 0.0484277 0.0277009 0.0275952 0.0270423 0.0247962 0.0212674 0.0210658 0.0217464 0.0191283 0.038371 0.0153956 0.0491405
threshold=5.609935000000001 4.0464100000000007 -0.15519499999999906 1.5416250000000002 -0.22440000000000146 0.00036748450000000007 4.6976950000000013e-09 -0.10000499999999989 0.20152300000000004 0.027610000000000138 7.9479750000000005 1.1696050000000002 0.027610000000000138 0.17470800000000006 -1.0698149999999999e-05 -0.098425000000000637 0.004708035000000001 0.0066452350000000002 -8.6950449999999987e-06 1.5682500000000003e-07 0.00011799400000000001 -5.9961099999999989 -16.571949999999998 -15.905149999999997 1.1551700000000003e-09 0.023500300000000005 -0.00031771699999999997 1.9783350000000006 -0.031563349999999997 3.2301850000000001
decision_type=2 2 2 2 2 2 2 2 2 2 2 2 2 2 2 2 2 2 2 2 2 2 2 2 2 2 2 2 2 2
left_child=2 -2 3 22 21 7 -7 -6 9 10 16 -12 14 -14 15 -8 24 18 19 -16 -20 -4 -1 -24 -9 -26 27 -25 29 -28
right_child=1 -3 4 -5 5 6 12 8 -10 -11 11 -13 13 -15 17 -17 -18 -19 20 -21 -22 -23 23 26 25 -27 28 -29 -30 -31
leaf_value=-0.0021721218574619399 -0.0002468073070551988 0.0031166641983145379 -1.30329329313021e-05 0.0042644821790004655 -0.00023827345036848285 -0.0044333420380689853 0.0054623622870713009 0.0030851786474654958 -0.00027240677528681819 0.012735717608593404 0.0086907024413812907 0.00197852486826773 -0.0038936326827388253 -0.0001570594289320035 0.0008180648177445758 0.0010486575683832846 -0.0022818364348495376 -0.002117108854637932 0.00026622333203844253 0.0043912514391195147 -0.0021209812490682947 -0.0027066544940940471 0.0020544846017097975 -0.0037120690880328763 0.00031985911308612388 0.0029486386292410316 0.0016165962614996289 -0.00018798137181355351 -5.7747862306143795e-05 -0.00085962935138377363
leaf_weight=31 66 20 12547 22 132 20 20 22 117 20 20 46 30 195 26 55 20 31 156 23 33 21 27 24 154 20 113 63 8149 75
leaf_count=31 66 20 12547 22 132 20 20 22 117 20 20 46 30 195 26 55 20 31 156 23 33 21 27 24 154 20 113 63 8149 75
internal_value=0 0.000535395 -2.07293e-06 -4.36692e-05 2.3732e-05 0.000478669 -6.96137e-05 0.00106476 0.00147527 0.00215235 0.00140175 0.00401252 8.37687e-05 -0.000655269 0.000567151 0.00222565 0.00060402 0.000104746 0.000394147 0.00249527 -0.00015059 -1.75337e-05 -5.48434e-05 -4.70767e-05 0.000898495 0.000622018 -5.38125e-05 -0.00116014 -4.22675e-05 0.00062874
internal_weight=0 86 22212 8504 13708 1140 589 551 419 302 282 66 569 225 344 75 216 269 238 49 189 12568 8482 8451 196 174 8424 87 8337 188
internal_count=22298 86 22212 8504 13708 1140 589 551 419 302 282 66 569 225 344 75 216 269 238 49 189 12568 8482 8451 196 174 8424 87 8337 188
shrinkage=0.075


Tree=82
num_leaves=31
num_cat=0
split_feature=19 16 8 8 7 1 10 16 27 27 27 27 19 27 13 1 3 28 27 23 1 14 1 7 4 14 30 24 30 6
split_gain=0.00428861 0.00539774 0.0878884 0.365046 0.0615211 0.0366831 0.029194 0.0100712 0.0356337 0.00895445 0.0256288 0.0091239 0.00646498 0.0057573 0.056931 0.0867665 0.132355 0.0244673 0.0716791 0.0846981 0.279925 0.276386 0.0830501 0.0738128 0.110412 0.06249 0.0836056 0.134935 0.126983 0.100468
threshold=37.021250000000002 47.599950000000007 -1.2103499999999999e-05 -4.308574999999999e-05 0.036956850000000006 -4.8870899999999997 9.0977550000000015e-06 39.016550000000002 0.17470800000000006 -0.010314999999999961 0.67919649999999998 -0.5077090999999998 -12.891049999999998 0.32495100000000005 -2.6533849999999997 -12.103899999999998 1.4983450000000001e-05 0.017674999999999889 0.0096369999999999807 -0.022684299999999994 -11.063499999999999 -12.295749999999998 -10.494749999999998 0.00036748450000000007 1.4386950000000001e-05 -9.901234999999998 0.15577500000000025 8.5382900000000004e-07 0.39414000000000066 8.9510150000000023e-06
decision_type=2 2 2 2 2 2 2 2 2 2 2 2 2 2 2 2 2 2 2 2 2 2 2 2 2 2 2 2 2 2
left_child=1 7 3 -3 5 6 9 12 -9 11 -11 -4 -1 14 15 16 -14 18 22 20 21 -20 -16 -24 -25 -21 27 29 -28 -27
right_child=-2 2 4 -5 -6 -7 -8 8 -10 10 -12 -13 13 -15 17 -17 -18 -19 19 25 -22 -23 23 24 -26 26 28 -29 -30 -31
leaf_value=-0.0012860956269088836 -0.00079608115053193427 -0.0012160482212048194 -0.00034241768444480842 0.0097785955971071061 0.0031360003792152776 0.002579893783586158 -0.0026514451928540857 -0.0032996472660907663 0.00042248181618141151 -0.0032557711738098244 -0.00039377704857873716 0.0012017634567970303 0.0087357896099911157 -4.478743611764882e-05 0.0028536874551956196 0.00049837649743601688 0.00010735965686762938 -2.7140410708203416e-05 0.012290579826145877 -0.00087393541118449233 -0.0010890956990657124 0.0003898967200906814 0.0011437621787425431 0.0005707818446777916 -0.005645671911304816 0.0019687317077855199 -0.0059550644413004349 0.0071181869761494454 -0.00015636712844608816 -0.00088096032678709637
leaf_weight=22 38 49 125 26 28 20 39 23 39 22 88 26 20 9211 115 153 20 10767 23 459 67 21 222 45 25 162 23 20 278 122
leaf_count=22 38 49 125 26 28 20 39 23 39 22 88 26 20 9211 115 153 20 10767 23 459 67 21 222 45 25 162 23 20 278 122
internal_value=0 1.35899e-06 0.000266716 0.00259543 -0.000235161 -0.000530138 -0.000737474 -3.78119e-06 -0.000958308 -0.000451478 -0.000966176 -7.65322e-05 -1.06336e-06 2.36259e-07 3.33022e-05 0.00131147 0.00442157 1.33259e-05 0.000288737 -8.383e-06 0.00196308 0.00661071 0.00114652 0.000474173 -0.00164938 -0.000214052 0.000286586 0.00116389 -0.000599457 0.000744568
internal_weight=0 22260 423 75 348 320 300 21837 62 261 110 151 21775 21753 12542 193 40 12349 1582 1175 111 44 407 292 70 1064 605 304 301 284
internal_count=22298 22260 423 75 348 320 300 21837 62 261 110 151 21775 21753 12542 193 40 12349 1582 1175 111 44 407 292 70 1064 605 304 301 284
shrinkage=0.075


Tree=83
num_leaves=31
num_cat=0
split_feature=12 4 17 14 23 30 20 27 27 27 27 12 10 12 13 0 22 10 1 27 18 1 27 4 8 1 4 28 27 19
split_gain=0.00441247 0.0194886 0.081076 0.014065 0.00898443 0.0131624 0.0124222 0.0105021 0.121846 0.0723573 0.0223166 0.0189692 0.0104933 0.0075776 0.0408208 0.00860185 0.00803907 0.0621804 0.04918 0.00635882 0.0394723 0.164623 0.368872 0.0445307 0.0990402 0.024959 0.0385943 0.0189706 0.0669204 0.121327
threshold=3.9662250000000003e-09 2.8996250000000005e-05 0.0081268450000000023 -5.9961099999999989 0.17497150000000003 -1.7249599999999996 -0.00010740549999999999 0.027610000000000138 0.10019100000000004 -0.027369999999999946 -0.12087000000000013 5.6448650000000011e-10 5.4735850000000006e-08 4.6976950000000013e-09 -1.8535999999999999 15.501500000000002 1.7006450000000002 4.3456000000000005e-05 -13.618449999999998 0.56698550000000003 0.035501350000000008 -13.459649999999998 -0.90040249999999988 0.00013679700000000005 -8.7450849999999993e-06 -7.8063599999999989 1.5229050000000001e-05 0.017674999999999889 0.10019100000000004 -1.0654399999999997
decision_type=2 2 2 2 2 2 2 2 2 2 2 2 2 2 2 2 2 2 2 2 2 2 2 2 2 2 2 2 2 2
left_child=1 3 -3 4 6 -6 -1 9 -9 10 -8 -11 -13 14 -2 16 19 18 -18 20 27 22 -22 24 -23 -26 -27 28 29 -15
right_child=13 2 -4 -5 5 -7 7 8 -10 11 -12 12 -14 15 -16 -17 17 -19 -20 -21 21 23 -24 -25 25 26 -28 -29 -30 -31
leaf_value=0.0016264147990743647 0.0032424968322210096 0.00041335166028754123 -0.005230341008765598 -0.0017311426413828355 -4.144310849583502e-05 -0.0023958010218021542 -1.2152101702318135e-05 -0.0056398710809963124 -4.4122366409210856e-05 0.004018228069064207 -0.0022437615705362427 0.0028519128874177112 0.00066198478825754139 -0.0038619965483855092 2.9639677152118421e-05 0.0011474928780886772 -0.0040526231534805937 0.0030991589679813286 -0.00044364592657326153 -4.4512296661253211e-05 -0.00086306489560788926 0.0052387962935037131 0.012684963023725687 -0.0031597756824009011 -0.0012839442222944595 -0.00041981175236287526 0.0035015908896457405 -2.2678087930711339e-05 -9.7879056507425152e-05 0.00091788305018781103
leaf_weight=26 26 45 21 28 34 22 826 23 453 25 26 20 32 31 154 37 26 23 116 8080 26 21 20 22 70 48 20 9762 1415 820
leaf_count=26 26 45 21 28 34 22 826 23 453 25 26 20 32 31 154 37 26 23 116 8080 26 21 20 22 70 48 20 9762 1415 820
internal_value=0 -0.000120772 -0.00138237 -6.58114e-05 -3.44535e-05 -0.000966369 2.01562e-06 -2.80444e-05 -0.000314505 0.000118732 -8.02529e-05 0.00232049 0.00150426 9.21662e-06 0.000493719 4.97011e-06 2.908e-06 -0.000518488 -0.00110444 7.13865e-06 4.11933e-05 0.00102099 0.00502738 2.78682e-06 0.000440374 -0.000289821 0.000733542 2.2702e-05 0.000218201 0.000743763
internal_weight=0 1581 66 1515 1487 56 1431 1405 476 929 852 77 52 20717 180 20537 20500 165 142 20335 12255 227 46 181 159 138 68 12028 2266 851
internal_count=22298 1581 66 1515 1487 56 1431 1405 476 929 852 77 52 20717 180 20537 20500 165 142 20335 12255 227 46 181 159 138 68 12028 2266 851
shrinkage=0.075


Tree=84
num_leaves=31
num_cat=0
split_feature=17 11 6 5 24 30 30 5 14 16 2 5 12 4 17 27 27 30 30 14 2 11 15 23 27 27 15 30 27 27
split_gain=0.00431179 0.0232683 0.0526692 0.0226565 0.0311919 0.0553643 0.052787 0.0166859 0.0196672 0.0109459 0.00968966 0.00934816 0.00566767 0.0277567 0.0669587 0.163485 0.0141064 0.00675671 0.0282526 0.00640281 0.00568425 0.0330981 0.663257 0.0261987 0.024156 0.0335936 0.0200567 0.0175628 0.0316428 0.114366
threshold=-0.28182749999999995 0.0058192650000000014 0.00049838050000000015 -5.498994999999999e-05 1.0790650000000003e-05 -1.5437499999999995 1.0780000000000005 -7.5185999999999995e-05 -7.6100699999999994 112.04900000000002 -0.059223999999999992 -4.3199449999999995e-05 6.9988150000000003e-10 1.1696850000000001e-05 0.0053280350000000009 -0.39737499999999987 0.027610000000000138 -0.19308000000000011 0.047579999999999963 -7.7480349999999989 0.9753535000000001 0.00023026400000000002 0.61977900000000008 -0.04799504999999999 -0.61201749999999977 0.25180000000000019 0.99312250000000024 -5.7035949999999991 -0.19251849999999998 0.67919649999999998
decision_type=2 2 2 2 2 2 2 2 2 2 2 2 2 2 2 2 2 2 2 2 2 2 2 2 2 2 2 2 2 2
left_child=1 3 -3 4 5 -1 -7 8 10 12 -6 -5 13 17 16 -16 -15 -2 -19 -18 21 26 -23 24 -22 -26 -14 -28 -29 -30
right_child=9 2 -4 11 7 6 -8 -9 -10 -11 -12 -13 20 14 15 -17 19 18 -20 -21 23 22 -24 -25 25 -27 27 28 29 -31
leaf_value=0.00025341771484818312 -0.00013740989982626589 0.0040847885464741426 -0.00085882451381217423 0.001593979171339015 -0.0015370820073258072 -0.0067625758759095331 -0.0014941582755494418 -0.0022162398239015599 0.0016166525225237232 0.0017168331142914082 0.00032341917436907905 -7.7860623283160398e-05 2.6858102848092469e-05 0.0016147457073893746 4.4771926565090321e-05 -0.008599182676357486 1.4642696921024858e-05 0.0031135194309581493 6.5103519481284408e-05 -0.0015981626653638157 -6.305818850153497e-05 -0.00033987565445253183 0.013968867855146528 -2.6577757897922864e-05 -0.0036375091201213813 -0.00075716651712275996 -1.0678225459682204e-05 -0.00025001403189934336 -0.0071386625319428271 -0.00016295645107395381
leaf_weight=30 272 22 27 20 32 20 23 20 34 21 31 317 16775 25 32 20 45 20 118 20 98 205 20 3670 34 69 137 82 20 39
leaf_count=30 272 22 27 20 32 20 23 20 34 21 31 317 16775 25 32 20 45 20 118 20 98 205 20 3670 34 69 137 82 20 39
internal_value=0 -0.000202533 0.00136076 -0.000347886 -0.00100281 -0.00221938 -0.00394459 -0.000243754 0.000162944 5.37055e-06 -0.000621597 2.13584e-05 3.71437e-06 -0.000233532 -0.00113723 -0.00327983 0.000100715 7.94564e-05 0.000506903 -0.000481605 9.90662e-06 2.83109e-05 0.000932013 -7.22397e-05 -0.000905968 -0.00170796 1.63873e-05 -0.000615441 -0.00120305 -0.0025276
internal_weight=0 576 49 527 190 73 43 117 97 21722 63 337 21701 552 142 52 90 410 138 65 21149 17278 225 3871 201 103 17053 278 141 59
internal_count=22298 576 49 527 190 73 43 117 97 21722 63 337 21701 552 142 52 90 410 138 65 21149 17278 225 3871 201 103 17053 278 141 59
shrinkage=0.075


Tree=85
num_leaves=31
num_cat=0
split_feature=25 11 30 30 21 8 17 27 4 27 16 16 10 7 7 22 27 27 19 3 25 25 2 2 11 30 27 27 5 27
split_gain=0.00411723 0.0972117 0.215169 0.0219892 0.0210272 0.00893006 0.0072768 0.0162404 0.037758 0.0580295 0.0065001 0.0135688 0.218126 0.0165918 0.0153905 0.0150432 0.0386383 0.00911313 0.00656796 0.00492876 0.0608953 0.00706276 0.0253615 0.0674466 0.185053 0.04983 0.0775139 0.183085 0.131466 0.0248267
threshold=-0.61949549999999987 3.3031500000000004e-05 -3.7517300000000002 -1.7249599999999996 9.3058250000000022 -4.6003499999999992e-08 -0.37592899999999996 0.23026500000000019 3.9415150000000005e-05 -0.24510499999999988 81.672750000000022 47.599950000000007 -5.8166599999999988e-07 0.0046108300000000007 0.00093239050000000013 -0.98876749999999991 0.99097480000000016 -0.05954919999999999 12.241650000000002 7.0991900000000007e-06 -0.007539704999999999 -0.0090344649999999985 0.15656300000000004 0.9753535000000001 0.00029301200000000005 -2.0937499999999996 -0.16857014999999984 0.32495100000000005 6.6567000000000001e-05 -0.26963010000000004
decision_type=2 2 2 2 2 2 2 2 2 2 2 2 2 2 2 2 2 2 2 2 2 2 2 2 2 2 2 2 2 2
left_child=1 3 -3 -1 5 -5 7 8 9 -2 11 15 -13 14 17 16 -8 -14 19 20 -17 22 29 24 25 -24 -27 28 -28 -21
right_child=6 2 -4 4 -6 -7 10 -9 -10 -11 -12 12 13 -15 -16 18 -18 -19 -20 21 -22 -23 23 -25 -26 26 27 -29 -30 -31
leaf_value=0.00010693375554996907 -0.00062370190480214667 -0.0011672392442814007 0.0080844496117116731 -0.0015435695993801346 -0.0031368409679594653 0.00050239370011695428 -0.0038284485324948034 3.9472831032815687e-05 0.0017033890441424495 -0.0047960929661057883 -0.00099146485480486194 0.0071132002574158821 -8.7353409299711598e-05 -0.0020924276299774647 0.0016700659481681545 0.0041966930756773633 0.0005942911498714238 -0.0019568704697303474 0.0012413595894031459 2.5741018293956586e-05 -1.5724409427255361e-05 9.2040159514556769e-06 -0.00054141353822473803 -0.00048402015067048915 0.0080686742066882287 -0.00065335876531930623 0.010001093920800485 -0.001023441386803045 0.0018754241189786365 -0.00065424370372376371
leaf_weight=152 75 31 26 24 27 24 20 220 23 25 37 25 55 30 22 21 25 20 24 559 239 19347 119 318 20 53 24 35 21 657
leaf_count=152 75 31 26 24 27 24 20 220 23 25 37 25 55 30 22 21 25 20 24 559 239 19347 119 318 20 53 24 35 21 657
internal_value=0 0.00028374 0.00305283 -0.000411581 -0.00146244 -0.000520588 -3.6605e-06 -0.000346408 -0.0010366 -0.0016668 1.76437e-06 3.46306e-06 0.000709584 -0.00055097 -7.42309e-05 -1.53323e-06 -0.00137137 -0.000585891 1.3423e-06 -4.75321e-08 0.000324509 -4.03679e-06 -0.000145881 0.000257608 0.00112466 0.000573546 0.00157114 0.00304487 0.00620911 -0.000341652
internal_weight=0 284 57 227 75 48 22014 343 123 100 21671 21634 152 127 97 21482 45 75 21437 21413 260 21153 1806 590 272 252 133 80 45 1216
internal_count=22298 284 57 227 75 48 22014 343 123 100 21671 21634 152 127 97 21482 45 75 21437 21413 260 21153 1806 590 272 252 133 80 45 1216
shrinkage=0.075


Tree=86
num_leaves=31
num_cat=0
split_feature=13 11 9 3 19 4 1 31 17 10 16 31 12 1 4 31 7 7 27 6 4 27 27 14 4 4 31 31 31 21
split_gain=0.00410672 0.0285031 0.0599784 0.00751417 0.0052651 0.0115422 0.0249267 0.0274023 0.00960741 0.07381 0.00783098 0.0411622 0.0488879 0.0169328 0.032544 0.0695521 0.0935267 0.128861 0.185326 0.16675 0.0483235 0.0893681 0.173906 0.0222492 0.0202094 0.0148298 0.0264718 0.0497943 0.013492 0.00988691
threshold=-3.0876849999999996 3.3031500000000004e-05 -3.6335399999999993e-07 1.0260100000000002e-05 0.25194400000000006 -0.00031614999999999991 -14.999349999999998 -2.1941749999999991 2.4687050000000004 3.4021150000000006e-08 1.1624450000000002 1.4594350000000007 4.5524600000000006e-06 -9.7016949999999991 -2.0279399999999998e-05 -3.263995 0.011890200000000002 0.0035492400000000008 -0.56065814999999997 1.7814350000000003e-05 -7.0012849999999985e-05 0.17470800000000006 -0.19251849999999998 -10.443899999999998 -0.00010519749999999998 -2.9498249999999995e-05 0.70274499999999984 -0.046744999999999585 0.50210499999999991 2.5533900000000003
decision_type=2 2 2 2 2 2 2 2 2 2 2 2 2 2 2 2 2 2 2 2 2 2 2 2 2 2 2 2 2 2
left_child=1 3 -3 -1 8 6 7 -6 -2 -10 11 12 -7 14 15 23 17 20 -19 -20 24 22 -22 -12 -17 26 27 -15 -14 -28
right_child=4 2 -4 -5 5 10 -8 -9 9 -11 13 -13 28 25 -16 16 -18 18 19 -21 21 -23 -24 -25 -26 -27 29 -29 -30 -31
leaf_value=-0.0014991805905343167 8.4726518003342763e-06 -0.0001626130797717451 0.0050730357253542021 2.8212275174155364e-05 -0.0006460225218876891 -0.0050694263128571032 -0.00014789778801670337 -0.0042546209129795893 0.0047003429144388065 -0.00081458521900606496 -0.002778631743200569 -6.3284120410248774e-05 -8.7133613677989075e-05 -0.00022188331269603622 -0.00013085243193341068 0.00068587952772759309 -0.0018392697654378838 -0.00038334020564434468 0.0030630170495247254 0.01240646351149983 -0.00069772441922850699 -0.00052873660970362832 0.0089653748981866309 -0.00016483070892112057 -0.0024852555959184361 -3.5957699784306268e-05 7.6748562926809419e-05 -0.005121676006347115 -0.002436484752195156 -0.0011256013272941344
leaf_weight=21 18984 32 20 132 29 20 137 20 20 43 23 618 44 28 456 20 38 24 21 22 20 42 22 90 26 1123 128 20 20 55
leaf_count=21 18984 32 20 132 29 20 137 20 20 43 23 618 44 28 456 20 38 24 21 22 20 42 22 90 26 1123 128 20 20 55
internal_value=0 0.000334138 0.0018511 -0.00018143 -3.10045e-06 -9.46562e-05 -0.000667146 -0.00211892 1.15412e-05 0.000936186 -5.74244e-05 -0.000275017 -0.00183276 1.33586e-05 0.000285994 0.000832206 0.00156745 0.00222458 0.0048965 0.00784339 0.000847521 0.00191758 0.0043639 -0.000696843 -0.0011065 -0.000148531 -0.000695803 -0.00226346 -0.000821306 -0.000284613
internal_weight=0 205 52 153 22093 3046 186 49 19047 63 2860 702 84 2158 804 348 235 197 67 43 130 84 42 113 46 1354 231 48 64 183
internal_count=22298 205 52 153 22093 3046 186 49 19047 63 2860 702 84 2158 804 348 235 197 67 43 130 84 42 113 46 1354 231 48 64 183
shrinkage=0.075


Tree=87
num_leaves=31
num_cat=0
split_feature=27 20 19 4 16 6 17 10 3 4 12 20 10 11 20 23 8 8 9 22 9 21 6 24 7 4 11 15 30 6
split_gain=0.00365839 0.0272057 0.00369413 0.0104555 0.0240894 0.0138746 0.00822389 0.0631537 0.00760004 0.00732047 0.00662899 0.0314329 0.0106933 0.0310156 0.197409 0.0244565 0.0180891 0.0372999 0.0133887 0.02315 0.014916 0.0228541 0.0124419 0.00889494 0.00806958 0.0221997 0.0088091 0.0273187 0.0600968 0.0174982
threshold=5.609935000000001 -1.8923699999999996e-05 0.25194400000000006 -0.00031614999999999991 21.777050000000006 6.9941200000000014e-05 2.4687050000000004 3.4021150000000006e-08 1.3782100000000003e-05 -1.1710249999999997e-06 0.044190850000000011 6.9324350000000013e-05 7.9232000000000023e-06 0.00014633650000000004 -0.00010740549999999999 -1.64184 -2.4920399999999994e-06 2.1638150000000001e-06 2.2875050000000004e-05 -0.067739299999999988 -1.8308149999999995e-05 0.63275650000000006 -5.4547549999999996e-05 1.0522300000000002e-07 0.036956850000000006 -0.00014492799999999998 -0.00048742749999999992 -0.79481749999999984 -1.3849050000000001 5.7860650000000003e-05
decision_type=2 2 2 2 2 2 2 2 2 2 2 2 2 2 2 2 2 2 2 2 2 2 2 2 2 2 2 2 2 2
left_child=2 -2 6 4 5 -4 -1 -8 -7 -9 12 23 13 22 -15 -14 18 -18 19 -17 -21 -22 -5 -12 26 -26 27 28 -24 -28
right_child=1 -3 3 10 -6 8 7 9 -10 -11 11 -13 15 14 -16 16 17 -19 -20 20 21 -23 24 -25 25 -27 29 -29 -30 -31
leaf_value=7.6548209363171263e-06 0.0029114767514693083 -0.00024609698178789004 -0.0021139711842988614 -0.0018390184951303208 -0.0026958986508866978 -0.00093273054459738574 0.004347817092129844 -0.0017551001951298011 0.0003380990009427478 0.00020258986227087339 0.00052287673097453071 0.0032174137166293801 -0.0028212143657252785 0.0074335077781617414 -0.00021285806492873767 -0.0031649834160746718 0.003271907367479798 -9.7142347445682033e-05 0.00015994350113592538 2.2767986911276237e-05 -0.0027057775741783328 0.00010268801727631527 -0.00028062402949823685 -0.00098298627805585648 -0.002879854328473032 -6.0356071521204692e-06 -1.815256665536846e-05 2.3698056366804039e-05 0.0051436180251039328 -0.0010022548165428209
leaf_weight=19023 20 66 20 22 27 36 20 21 100 22 57 20 22 23 109 26 20 244 65 72 39 28 27 36 21 54 1724 206 20 108
leaf_count=19023 20 66 20 22 27 36 20 21 100 22 57 20 22 23 109 26 20 244 65 72 39 28 27 36 21 54 1724 206 20 108
internal_value=0 0.000488222 -1.89029e-06 -7.74667e-05 -0.000627525 -0.000269537 1.0488e-05 0.000865972 1.70294e-06 -0.000753491 -4.32633e-05 0.000520042 -6.57557e-05 3.08844e-06 0.00111946 -0.000374487 -0.000265523 0.000158089 -0.000751757 -0.00111091 -0.000726696 -0.00153209 -6.44466e-05 -6.0038e-05 -4.63723e-05 -0.000810705 -1.88783e-05 0.000395958 0.00202756 -7.61673e-05
internal_weight=0 86 22212 3126 183 156 19086 63 136 43 2943 113 2830 2314 132 516 494 264 230 165 139 67 2182 93 2160 75 2085 253 47 1832
internal_count=22298 86 22212 3126 183 156 19086 63 136 43 2943 113 2830 2314 132 516 494 264 230 165 139 67 2182 93 2160 75 2085 253 47 1832
shrinkage=0.075


Tree=88
num_leaves=31
num_cat=0
split_feature=17 5 0 20 18 27 5 25 30 21 23 20 5 5 5 15 5 25 17 22 14 31 1 5 8 30 5 7 21 27
split_gain=0.00365538 0.015207 0.021065 0.0208506 0.027501 0.0214679 0.0183168 0.0459543 0.0902342 0.0295842 0.0172369 0.02569 0.0139824 0.0171203 0.0143732 0.0267449 0.0184863 0.0436272 0.0461199 0.027182 0.0189953 0.0404477 0.0824981 0.0169355 0.0154701 0.0131878 0.0110293 0.0725169 0.0370238 0.0251504
threshold=-0.018698049999999997 -0.00021909749999999997 -2.0707099999999996 8.1951150000000012e-05 0.038882050000000008 -0.2956995 -0.00015324299999999998 -0.0087810649999999994 -1.0496549999999998 0.73533900000000008 0.19776550000000001 4.7104050000000005e-05 -0.00014040099999999999 -0.00013391749999999998 -0.00011387299999999999 0.32304350000000009 -6.8216249999999976e-05 0.065036950000000024 -0.17627099999999998 0.15897500000000001 -9.4107699999999976 -1.1308450000000001 -6.7472249999999994 -6.0758349999999994e-05 1.4148350000000004e-07 -0.38343999999999973 -4.2452749999999998e-05 0.0039590250000000006 0.090465850000000014 0.12542999999999996
decision_type=2 2 2 2 2 2 2 2 2 2 2 2 2 2 2 2 2 2 2 2 2 2 2 2 2 2 2 2 2 2
left_child=1 2 3 4 10 -5 7 8 -3 25 11 -1 -8 -14 15 -15 17 18 -16 -19 -20 -22 -23 24 -18 -9 27 28 -25 -28
right_child=-2 6 -4 5 -6 -7 12 9 -10 -11 -12 -13 13 14 16 -17 23 19 20 -21 21 22 -24 26 -26 -27 29 -29 -30 -31
leaf_value=-0.00032731220398556315 1.3432408702649911e-05 -0.00057829208006296537 -0.0028134098848386201 -0.00068972517830182109 0.0023222518975671846 -0.0034618247123117643 -0.0015329768604650392 -0.0019574192271102219 0.0065460822405293577 0.0022412323640892281 -0.0023305685647011902 0.0020616467731694381 0.0018548625763691639 -0.00015683059876121867 -0.0025736838419106785 -0.0030626942127419169 -0.0022791439607169955 0.0047051610805543273 -9.4783217605254322e-05 0.00088917064214391356 -0.00023539691310361376 0.0061203023104336235 -0.00016552947898844649 0.0020070084979337821 1.2692890607013395e-05 3.9230105822029222e-05 -0.00077605633577127007 0.0044495221390226779 -0.00056843533714913657 -2.4373481237801615e-07
leaf_weight=407 18649 20 20 55 24 22 35 30 20 25 22 27 27 62 30 25 37 21 108 21 45 23 24 40 30 49 267 23 146 1964
leaf_count=407 18649 20 20 55 24 22 35 30 20 25 22 27 27 62 30 25 37 21 108 21 45 23 24 40 30 49 267 23 146 1964
internal_value=0 -6.86492e-05 -0.000421929 -0.000336059 -0.000152271 -0.00148175 -2.29417e-06 0.000823516 0.0029839 -7.39897e-06 -0.000282509 -0.00017869 -4.29078e-05 -2.48807e-05 -4.25894e-05 -0.000991849 -1.28716e-05 0.000574394 0.000168497 0.00279717 0.000579824 0.00137175 0.00291052 -7.65877e-05 -0.00125295 -0.000718991 -4.4286e-05 0.000476688 -1.45764e-05 -9.30909e-05
internal_weight=0 3649 577 557 480 77 3072 144 40 104 456 434 2928 2893 2866 87 2779 272 230 42 200 92 47 2507 67 79 2440 209 186 2231
internal_count=22298 3649 577 557 480 77 3072 144 40 104 456 434 2928 2893 2866 87 2779 272 230 42 200 92 47 2507 67 79 2440 209 186 2231
shrinkage=0.075


Tree=89
num_leaves=31
num_cat=0
split_feature=13 3 19 4 6 21 17 0 6 17 6 5 4 4 4 3 19 27 27 7 5 27 12 4 19 24 4 30 30 4
split_gain=0.00356529 0.0289502 0.0036191 0.00827469 0.0212011 0.0191101 0.00702673 0.0550669 0.00683966 0.0568287 0.0341381 0.0431895 0.00931288 0.00889327 0.0322011 0.0262309 0.0064128 0.013377 0.147638 0.133202 0.0644549 0.0657759 0.00632602 0.0371287 0.00608152 0.00551272 0.0554545 0.0707663 0.103752 0.0154385
threshold=-3.0876849999999996 1.0138250000000002e-05 0.25194400000000006 -0.00031614999999999991 0.00015633450000000003 1.1379750000000002 2.4687050000000004 2.7832450000000004 -6.3884749999999985e-05 0.050410600000000007 -5.4547549999999996e-05 0.00012958150000000001 -7.3782499999999987e-05 -0.00023008949999999998 -0.00020305499999999997 1.7868750000000001e-05 0.10691300000000002 -0.12087000000000013 0.10019100000000004 0.0013654100000000003 -4.0480349999999996e-05 0.017084500000000061 3.1641700000000006e-10 2.0677100000000002e-05 0.048900700000000005 4.9385700000000009e-06 -4.1216449999999991e-05 -2.5072499999999995 1.6769150000000008 -3.1584299999999995e-05
decision_type=2 2 2 2 2 2 2 2 2 2 2 2 2 2 2 2 2 2 2 2 2 2 2 2 2 2 2 2 2 2
left_child=1 -1 6 4 5 -4 16 -8 9 12 11 -10 -5 15 -15 -12 22 -18 19 20 -19 -22 23 24 -2 29 27 -27 -29 -16
right_child=2 -3 3 8 -6 -7 7 -9 10 -11 13 -13 -14 14 25 -17 17 18 -20 -21 21 -23 -24 -25 -26 26 -28 28 -30 -31
leaf_value=0.0026499023305055183 0.00019617507205267254 -2.8346558613840856e-05 -0.00067240271058961233 -0.001810417139431988 -8.4649867576909804e-05 -0.0036859446298331019 -0.00071221032669919343 0.004051303676096722 0.00010209526497584936 0.003424095581768987 -0.0027641560372430834 -0.004713483025407186 3.136966649648496e-05 0.0025597091040051759 -0.00050588974987964062 0.00057822965943289868 -6.933168501585779e-05 0.0045931840459714924 -4.2369943520243618e-05 0.0073380445830668484 -0.0025015505277631999 0.0030893086903961376 -8.8378878551892541e-07 -0.0025379088707890526 -0.0011608266453224912 -0.00042106759850867091 -0.00018238757311028923 0.0066583397740032522 6.5289197489619254e-05 2.9850756995581668e-06
leaf_weight=26 161 179 29 23 137 20 43 20 22 28 25 20 47 27 420 28 731 23 630 29 29 20 17302 38 21 45 457 29 25 1664
leaf_count=26 161 179 29 23 137 20 43 20 22 28 25 20 47 27 420 28 731 23 630 29 29 20 17302 38 21 45 457 29 25 1664
internal_value=0 0.000311334 -2.88885e-06 -7.8796e-05 -0.000563525 -0.00190242 9.25023e-06 0.000800016 -4.72717e-05 0.000568464 -6.91189e-05 -0.00219104 -0.000573789 -3.6354e-05 -1.72364e-05 -0.000998367 6.62601e-06 0.000157533 0.000384398 0.00304641 0.00131784 -0.000219567 -5.96536e-06 -0.000405608 3.9598e-05 -4.35915e-05 0.000166232 0.00177552 0.003606 -9.95713e-05
internal_weight=0 205 22093 3046 186 49 19047 63 2860 98 2762 42 70 2720 2667 53 18984 1462 731 101 72 49 17522 220 182 2640 556 99 54 2084
internal_count=22298 205 22093 3046 186 49 19047 63 2860 98 2762 42 70 2720 2667 53 18984 1462 731 101 72 49 17522 220 182 2640 556 99 54 2084
shrinkage=0.075


Tree=90
num_leaves=31
num_cat=0
split_feature=25 11 30 30 9 30 17 11 7 4 1 27 27 9 16 16 10 13 27 16 19 18 30 30 12 27 27 25 8 24
split_gain=0.00316958 0.0791693 0.174635 0.0210323 0.0191761 0.014291 0.00557441 0.0156091 0.0373896 0.0164787 0.0237344 0.0171468 0.0321273 0.00752897 0.00502272 0.0104693 0.17565 0.0122883 0.0195075 0.00975428 0.00489873 0.00653206 0.020414 0.0401929 0.0637225 0.032088 0.0913251 0.00919575 0.0768543 0.00764248
threshold=-0.61949549999999987 3.3031500000000004e-05 -3.7517300000000002 -1.7249599999999996 -2.6983549999999997e-08 1.7921800000000012 -0.37592899999999996 4.3386350000000012e-05 0.0034468950000000006 3.6644650000000008e-05 -8.8395549999999989 0.25180000000000019 -0.47923500000000002 -5.8785649999999992e-06 81.672750000000022 47.599950000000007 -5.8166599999999988e-07 2.2683300000000002 -0.010314999999999961 39.016550000000002 12.241650000000002 0.017143200000000004 -0.26585000000000031 -1.3076399999999999 7.9974100000000011e-05 -0.26963010000000004 0.56698550000000003 0.22510550000000004 -6.4036549999999994e-07 4.9385700000000009e-06
decision_type=2 2 2 2 2 2 2 2 2 2 2 2 2 2 2 2 2 2 2 2 2 2 2 2 2 2 2 2 2 2
left_child=1 3 -3 -1 5 -5 7 9 -9 11 -11 12 -2 -10 15 19 -17 18 -18 20 21 27 23 -23 -25 -24 -27 29 -29 -8
right_child=6 2 -4 4 -6 -7 14 8 13 10 -12 -13 -14 -15 -16 16 17 -19 -20 -21 -22 22 25 24 -26 26 -28 28 -30 -31
leaf_value=0.00012857510461655787 -0.00031627934164134779 -0.0010539527688149151 0.0072808677482848558 0.0010523040699938844 -0.0027232048373073614 -0.0017489937080245 -3.419408806830325e-06 -0.0037740623906480008 0.00089866868696514171 -0.00011505358794942543 0.0031988448829361003 0.00020551594709815576 -0.0037872651810175739 -0.00088195516464646272 -0.00087155345463543201 0.0063696762143699744 -0.00019904964588931761 0.0011038156095310113 -0.0024619506380986421 -0.0015450571132216439 0.0010712094562222775 -0.00031631584534217306 2.7806976760513388e-05 0.0049197383367478005 -0.00029052785804754334 -0.0063068638796851565 -0.00041312481217755699 0.004827229487445947 -0.00056431909299511777 0.0003642535406311324
leaf_weight=152 60 31 26 21 34 20 20563 23 22 31 20 133 20 34 37 25 75 22 30 23 24 265 81 23 31 21 50 20 58 323
leaf_count=152 60 31 26 21 34 20 20563 23 22 31 20 133 20 34 37 25 75 22 30 23 24 265 81 23 31 21 50 20 58 323
internal_value=0 0.000248954 0.0027479 -0.000378533 -0.00140627 -0.000314183 -3.21173e-06 -0.000303199 -0.00122809 -2.64326e-05 0.00118451 -0.000316378 -0.00118403 -0.000182424 1.53636e-06 3.02958e-06 0.00062328 -0.0005079 -0.000845593 -1.35912e-06 2.95429e-07 -9.03635e-07 -0.000277121 6.37113e-05 0.00192866 -0.000992421 -0.00215634 5.30217e-06 0.000818129 2.26662e-06
internal_weight=0 284 57 227 75 41 22014 343 79 264 51 213 80 56 21671 21634 152 127 105 21482 21459 21435 471 319 54 152 71 20964 78 20886
internal_count=22298 284 57 227 75 41 22014 343 79 264 51 213 80 56 21671 21634 152 127 105 21482 21459 21435 471 319 54 152 71 20964 78 20886
shrinkage=0.075


Tree=91
num_leaves=31
num_cat=0
split_feature=27 17 31 15 30 7 12 19 16 16 4 9 9 27 27 24 19 14 12 27 27 14 14 20 30 14 27 27 27 12
split_gain=0.0031498 0.0247222 0.00311693 0.0578379 0.0307054 0.0504204 0.059702 0.0379638 0.0528307 0.101214 0.0609746 0.0458139 0.0412458 0.0288505 0.0577872 0.043956 0.0324603 0.0314226 0.0290369 0.027757 0.0280518 0.023892 0.0224844 0.0168493 0.0320962 0.0234196 0.043754 0.0161141 0.0255123 0.019175
threshold=5.609935000000001 -0.0090567299999999989 -0.15519499999999906 1.5416250000000002 -0.22440000000000146 0.00036748450000000007 4.6976950000000013e-09 -0.080011749999999979 0.38076400000000005 0.44203950000000009 -2.3804499999999995e-05 1.0079050000000002e-07 3.0262300000000002e-07 0.027610000000000138 0.17470800000000006 3.8774650000000008e-07 0.15918800000000002 -8.6729999999999983 0.00015410250000000002 -0.14356249999999995 -0.017509999999999911 -16.571949999999998 -5.9961099999999989 -0.00031771699999999997 1.9783350000000006 -15.441949999999999 0.48771000000000025 0.027610000000000138 -0.04055499999999989 3.907915000000001e-08
decision_type=2 2 2 2 2 2 2 2 2 2 2 2 2 2 2 2 2 2 2 2 2 2 2 2 2 2 2 2 2 2
left_child=2 -2 3 21 22 7 -7 11 27 -10 -11 -6 -12 15 -15 16 17 19 -19 -8 -21 -1 -4 24 -23 26 -25 28 -9 -29
right_child=1 -3 4 -5 5 6 13 8 9 10 12 -13 -14 14 -16 -17 -18 18 -20 20 -22 23 -24 25 -26 -27 -28 29 -30 -31
leaf_value=-0.0021257030497860885 0.002763018587575061 -0.00024698401372337352 -9.3278254144168638e-06 0.0038031295799803707 -0.0026965458043297771 -0.0041168806256155219 -0.00015132682210456608 -0.0005579939869013457 0.0069246876700710591 0.0052697214980055047 0.00026357731879003991 0.0010700542497042637 0.0034008913999332433 -0.0036725060277967713 -0.00013668394389565737 0.0028550027648564609 -0.0020789562362097057 -0.0029660280889154153 7.6899981874877096e-05 0.0043144454425990781 0.0012344696723130253 -0.0032833165030192154 -0.0024654783404132879 0.0036628933558757936 -0.00015128548112399931 -3.8955643843603163e-05 -0.00060686419666227363 -0.0024794093494324445 0.0012378817756128616 0.00043171498071322795
leaf_weight=31 20 66 12547 22 34 20 61 59 22 21 110 39 30 30 195 39 32 22 89 21 80 26 21 27 63 8308 27 20 181 35
leaf_count=31 20 66 12547 22 34 20 61 59 22 21 110 39 30 30 195 39 32 22 89 21 80 26 21 27 63 8308 27 20 181 35
internal_value=0 0.000453017 -1.75398e-06 -3.74243e-05 2.03747e-05 0.000393077 -8.93484e-05 0.000908773 0.00115206 0.00215316 0.00150115 -0.000684253 0.000935859 5.22169e-05 -0.000608127 0.000484128 0.000180967 0.000445866 -0.000526203 0.00111191 0.00187486 -4.73856e-05 -1.34318e-05 -3.97619e-05 -0.00106626 -2.88365e-05 0.00152801 0.00053104 0.000796396 -0.000626876
internal_weight=0 86 22212 8504 13708 1140 589 551 478 183 161 73 140 569 225 344 305 273 111 162 101 8482 12568 8451 89 8362 54 295 240 55
internal_count=22298 86 22212 8504 13708 1140 589 551 478 183 161 73 140 569 225 344 305 273 111 162 101 8482 12568 8451 89 8362 54 295 240 55
shrinkage=0.075


Tree=92
num_leaves=31
num_cat=0
split_feature=13 3 19 1 26 20 21 9 1 10 16 4 1 17 1 17 31 30 21 30 30 30 12 9 12 13 20 19 2 3
split_gain=0.00312004 0.0247178 0.00322303 0.00803944 0.0366018 0.0278499 0.0153539 0.0206783 0.012581 0.0120187 0.0222315 0.0207543 0.0180077 0.10342 0.0153769 0.0206451 0.0100767 0.0224407 0.0477742 0.0180612 0.0293631 0.0178316 0.0562406 0.0152221 0.0520193 0.0116337 0.0181709 0.00894541 0.0128378 0.00823578
threshold=-3.0876849999999996 1.0138250000000002e-05 0.25194400000000006 -15.821599999999998 0.091308400000000012 -7.8290349999999981e-05 1.3242550000000002 -3.2354499999999997e-05 -15.516849999999998 7.9232000000000023e-06 30.438750000000002 -4.5603699999999992e-05 -14.117999999999999 -0.095294899999999974 -13.618449999999998 0.022548100000000005 -1.8805500000000002 2.8723700000000014 0.73533900000000008 -0.87090499999999949 -0.66839999999999955 -1.2398499999999995 0.00083038900000000006 -1.0568999999999999e-07 2.4624150000000005e-07 -2.6972799999999997 -4.6269849999999992e-05 1.0975850000000003 -0.19752099999999997 9.1270100000000016e-06
decision_type=2 2 2 2 2 2 2 2 2 2 2 2 2 2 2 2 2 2 2 2 2 2 2 2 2 2 2 2 2 2
left_child=1 -1 -2 4 5 -4 7 -7 -5 12 14 -12 13 -10 15 -11 17 18 -14 21 -21 -18 -23 24 -22 -25 -27 28 -16 -9
right_child=2 -3 3 8 -6 6 -8 29 9 10 11 -13 16 -15 27 -17 19 -19 -20 20 23 22 -24 25 -26 26 -28 -29 -30 -31
leaf_value=0.0024521163982661582 8.7531372034709838e-06 -2.2624221064936449e-05 -0.0028430700052757109 0.0016012063859726857 0.0023051251086618992 -0.0028178390073109131 0.0012188956841363017 -0.0014716994344780687 0.0055554402084618971 -0.0003831612263292343 -0.0037585801037494093 -0.00059526782206376083 7.8420033987506885e-05 -0.00019376269687282645 0.0016148474503345576 -0.0028950930028888533 -2.2847410226245849e-05 -6.4065651384685615e-05 0.0046979779500907169 -0.0027523987663926161 -0.0045039255646304351 -0.00046258189646843155 0.0045230302826530537 0.0017390109414723806 -0.00026202376100878481 -0.0022503331483676448 0.00017800259145308068 -0.00050048931932108901 3.3436484846351486e-05 4.3182209035634858e-05
leaf_weight=26 19047 179 33 26 23 23 26 27 22 63 20 28 34 88 33 26 1617 115 20 32 20 35 20 21 87 20 130 146 231 80
leaf_count=26 19047 179 33 26 23 23 26 27 22 63 20 28 34 88 33 26 1617 115 20 32 20 35 20 21 87 20 130 146 231 80
internal_value=0 0.000291245 -2.70245e-06 -7.43356e-05 -0.000519829 -0.000863606 -0.000444874 -0.000777628 -4.10101e-05 -5.62158e-05 -0.000371679 -0.00191331 2.01037e-05 0.000956078 -0.000223385 -0.00111698 -2.77611e-05 0.000528156 0.00178937 -7.51627e-05 -0.000600963 2.23241e-05 0.00135037 -0.000353315 -0.0010549 8.56895e-05 -0.000145776 -2.94089e-05 0.000231113 -0.000339078
internal_weight=0 205 22093 3046 212 189 156 130 2834 2808 547 48 2261 110 499 89 2151 169 54 1982 310 1672 55 278 107 171 150 410 264 107
internal_count=22298 205 22093 3046 212 189 156 130 2834 2808 547 48 2261 110 499 89 2151 169 54 1982 310 1672 55 278 107 171 150 410 264 107
shrinkage=0.075


Tree=93
num_leaves=31
num_cat=0
split_feature=17 5 5 20 18 3 25 30 30 21 12 5 21 21 22 25 5 3 13 5 3 4 27 3 5 3 3 4 21 5
split_gain=0.00299112 0.0131455 0.0183208 0.0169916 0.0434043 0.0175796 0.0168269 0.020346 0.02104 0.0177482 0.0188533 0.01564 0.0414971 0.129308 0.0234859 0.0152436 0.012238 0.0102677 0.00957068 0.0380142 0.0347888 0.0540455 0.0895878 0.0240273 0.0188372 0.0308329 0.0957447 0.0141968 0.0248405 0.0113157
threshold=-0.018698049999999997 -0.00021909749999999997 -0.00023649149999999998 0.00027772450000000003 0.038882050000000008 8.9255300000000016e-06 -0.0090344649999999985 -0.22440000000000146 1.9783350000000006 0.9139250000000001 0.00010274350000000002 -0.00015324299999999998 0.66668700000000014 1.6604550000000002 -0.0021809999999999993 -0.0027375749999999995 -0.00014554349999999997 6.8464300000000006e-06 -0.93445149999999988 -9.7034199999999993e-05 1.3656500000000002e-05 1.2557400000000001e-05 0.25180000000000019 1.18818e-05 -0.00011387299999999999 1.4079600000000002e-05 1.0557700000000001e-05 8.8911450000000007e-05 0.56474900000000006 -6.8216249999999976e-05
decision_type=2 2 2 2 2 2 2 2 2 2 2 2 2 2 2 2 2 2 2 2 2 2 2 2 2 2 2 2 2 2
left_child=1 2 3 4 5 -1 7 -7 -9 10 -8 12 14 -14 -3 -16 -13 -18 24 -20 21 -21 -23 -24 25 26 -19 -22 -29 -26
right_child=-2 11 -4 -5 -6 6 9 8 -10 -11 -12 16 13 -15 15 -17 17 18 19 20 27 22 23 -25 29 -27 -28 28 -30 -31
leaf_value=0.0018601487649721094 1.2150787587729348e-05 -0.0021666619054740294 -0.0020794679358379438 -0.001793018113508319 0.0030896988221105529 -0.0003369663173454145 0.001806172886957821 -0.0039191124027638576 -0.00089288740356486022 -0.0016657155355077472 -0.00014670592931047901 -0.001886834401229862 0.0068284601758601968 -0.00068983056637901628 0.0022612001479046739 -0.00021897955471697218 -0.0014809826067196101 0.00032394126512748508 0.0029302345072837535 -0.00040096004333665605 -0.00012536359003311706 0.0060769536541483826 -0.00036399473177478001 0.0028333751306126942 0.00045793496090504679 0.00012608852647300127 -0.0064213799863864548 0.00040242522513638147 -0.0028289213056950755 -8.3069844580946426e-05
leaf_weight=20 18649 25 34 39 22 71 31 24 28 38 270 20 22 31 20 46 27 29 29 81 212 25 39 20 243 58 20 23 32 2070
leaf_count=20 18649 25 34 39 22 71 31 24 28 38 270 20 22 31 20 46 27 29 29 81 212 25 39 20 243 58 20 23 32 2070
internal_value=0 -6.20992e-05 -0.000390561 -0.00028481 -0.000168104 -0.0003168 -0.00041104 -0.00116247 -0.00228961 -0.000138397 5.44211e-05 -4.05662e-07 0.000762679 0.00243097 -0.000208963 0.00053259 -3.79344e-05 -2.52185e-05 -1.15754e-05 0.000301622 0.000125164 0.00098132 0.00231423 0.000719859 -7.12382e-05 -0.00104411 -0.00242925 -0.000403921 -0.00147763 -2.62328e-05
internal_weight=0 3649 577 543 504 482 462 123 52 339 301 3072 144 53 91 66 2928 2908 2881 461 432 165 84 59 2420 107 49 267 55 2313
internal_count=22298 3649 577 543 504 482 462 123 52 339 301 3072 144 53 91 66 2928 2908 2881 461 432 165 84 59 2420 107 49 267 55 2313
shrinkage=0.075


Tree=94
num_leaves=31
num_cat=0
split_feature=0 1 22 27 27 1 1 5 16 8 8 7 7 27 7 27 27 1 30 14 30 19 30 27 18 3 15 17 27 27
split_gain=0.00289115 0.0175548 0.00620746 0.0373062 0.0551753 0.0431723 0.0138099 0.00575651 0.00363927 0.0755817 0.255432 0.016532 0.0204928 0.00949771 0.0141546 0.0159449 0.0100349 0.00510109 0.0251841 0.0505475 0.0340711 0.0378479 0.0253911 0.0229057 0.0218754 0.0213014 0.0120668 0.0143731 0.025898 0.0394689
threshold=15.501500000000002 -4.831224999999999 1.7006450000000002 0.51506500000000022 -0.22108000000000014 -11.734449999999999 -11.734449999999999 6.4767400000000013e-05 47.599950000000007 -1.2103499999999999e-05 -4.6412099999999989e-05 0.023691700000000003 0.0071294650000000006 -0.010314999999999961 0.00042611900000000003 1.3316355000000002 -0.5077090999999998 -15.357599999999998 -3.9631949999999985 -19.685249999999996 -1.1482849999999998 0.26402450000000005 -0.54040499999999969 -0.53096500000000002 0.017932850000000004 1.5124700000000001e-05 0.87209600000000009 0.024038850000000004 -0.2956995 0.27611750000000007
decision_type=2 2 2 2 2 2 2 2 2 2 2 2 2 2 2 2 2 2 2 2 2 2 2 2 2 2 2 2 2 2
left_child=2 -2 8 4 6 -5 -4 -7 17 10 -10 12 13 16 -15 -16 -11 18 -1 -20 21 23 -22 -21 26 -26 27 -24 -29 -30
right_child=1 -3 3 5 -6 7 -8 -9 9 11 -12 -13 -14 14 15 -17 -18 -19 19 20 22 -23 24 -25 25 -27 -28 28 29 -31
leaf_value=-0.0027682003851077748 -0.0004915351233747158 0.0021470407136012395 -0.0019170195747847173 0.0038722285372205078 -0.0043068914942873213 0.00040081434084230191 0.00018815899279826017 -0.0012312237329024354 -0.0013185494993360242 -0.0001516841656085895 0.0092625050705724514 0.0016911209485312741 -0.0026820995262823999 3.9453988652081876e-05 -0.0033774733277095945 -0.00038264515180344463 0.0016835232124971559 9.7001701424059916e-06 0.0035660217973470152 -0.00098524599754455265 0.002170152909197246 0.00095950682167313052 -1.0494853395943484e-05 -0.0043084684532491988 -0.00040548977579624813 -0.0035449494750355369 0.0016853420284116344 -3.322948872824106e-05 -0.0041223973132825144 -0.00013763913744257699
leaf_weight=20 37 23 24 20 26 31 65 20 33 83 21 21 22 47 20 20 21 19944 21 20 28 20 1457 28 31 20 22 97 27 29
leaf_count=20 37 23 24 20 26 31 65 20 33 83 21 21 22 47 20 20 21 19944 21 20 28 20 1457 28 31 20 22 97 27 29
internal_value=0 0.000519919 -1.40278e-06 -0.00043286 -0.00126745 0.000918948 -0.00037953 -0.000239201 2.23639e-06 0.000267097 0.00279631 -0.000316566 -0.000514507 -0.000264837 -0.000843081 -0.00188006 0.000218887 -1.26848e-06 -0.000121466 -9.20574e-05 -0.000135239 -0.00178165 -6.98059e-05 -0.00292379 -0.000107072 -0.00163665 -5.92727e-05 -8.31121e-05 -0.000774637 -0.00205886
internal_weight=0 60 22238 186 115 71 89 51 22052 288 54 234 213 191 87 40 104 21764 1820 1800 1779 68 1711 48 1683 51 1632 1610 153 56
internal_count=22298 60 22238 186 115 71 89 51 22052 288 54 234 213 191 87 40 104 21764 1820 1800 1779 68 1711 48 1683 51 1632 1610 153 56
shrinkage=0.075


Tree=95
num_leaves=31
num_cat=0
split_feature=12 5 13 14 25 25 25 14 27 5 30 12 13 0 22 10 1 3 30 21 30 27 27 12 30 27 21 1 27 14
split_gain=0.00280356 0.0150816 0.0457542 0.0128848 0.00758861 0.0123612 0.042171 0.0164245 0.0189238 0.0100627 0.00828361 0.0064402 0.0349504 0.00667258 0.00750841 0.0497961 0.0418725 0.00634455 0.00978077 0.00613363 0.00730595 0.0164738 0.0423994 0.0151994 0.00488618 0.00420373 0.0325379 0.283329 0.644207 0.0276563
threshold=3.9662250000000003e-09 0.00011204500000000002 0.55607300000000015 -5.9961099999999989 -0.13942349999999998 -0.0006637469999999999 -0.00075569899999999998 -7.1624899999999991 -0.12087000000000013 -6.9958199999999984e-05 -6.1581749999999991 4.6976950000000013e-09 -1.8535999999999999 15.501500000000002 1.7006450000000002 4.3456000000000005e-05 -13.618449999999998 1.3715100000000002e-05 -3.6104599999999993 0.0023026500000000003 -0.26585000000000031 -0.05954919999999999 0.075470000000000051 6.9988150000000003e-10 -0.66839999999999955 0.56698550000000003 4.9419500000000012 -13.459649999999998 -0.6448704999999999 -9.6068099999999976
decision_type=2 2 2 2 2 2 2 2 2 2 2 2 2 2 2 2 2 2 2 2 2 2 2 2 2 2 2 2 2 2
left_child=1 3 -3 4 10 6 7 9 -9 -6 -1 12 -2 14 25 16 -16 -18 -19 -7 -21 -22 23 -23 -11 26 -13 28 -28 -29
right_child=11 2 -4 -5 5 19 -8 8 -10 24 -12 13 -14 -15 15 -17 17 18 -20 20 21 22 -24 -25 -26 -27 27 29 -30 -31
leaf_value=-8.2892693667417904e-05 0.0029974673832139859 0.00032888546556174937 -0.0040761914925496971 -0.0017067691256530593 -0.0015258781428181701 -0.0011197159737093897 -0.0037942421301386275 -2.5209380410160517e-05 -0.0032878211832348824 1.4720846792903763e-05 0.0020757016601237409 1.4434615734792684e-05 2.4594438173743903e-05 0.0010097041898596807 -0.0037469894871509702 0.002735128007960789 0.00036246004892745984 -0.00019050778989912939 -0.0019619467532417424 -2.7848418102094956e-05 -7.5879277519613257e-05 0.0040782015127743673 -0.00017352422064881331 0.001601085287017524 0.0012384396975789968 -3.6291800662647404e-05 -0.0010741888448137615 -0.0006735388229208184 0.015597684360347391 0.0015143071968430797
leaf_weight=20 26 36 21 26 23 24 20 20 20 223 20 11967 154 37 26 23 39 50 27 798 176 22 74 38 20 8080 32 195 22 39
leaf_count=20 26 36 21 26 23 24 20 20 20 223 20 11967 154 37 26 23 39 50 27 798 176 22 74 38 20 8080 32 195 22 39
internal_value=0 -9.62677e-05 -0.00129404 -5.14692e-05 -2.2739e-05 -5.0699e-05 -0.000457635 -0.000239556 -0.00165652 -2.64799e-05 0.000996404 7.34658e-06 0.000454009 3.43173e-06 1.61553e-06 -0.000502278 -0.00102665 -0.000416914 -0.000811662 6.64929e-05 9.21869e-05 0.000401181 0.00102777 0.00250936 0.000115438 5.70417e-06 3.33931e-05 0.000821156 0.00571806 -0.000308898
internal_weight=0 1581 57 1524 1498 1458 326 306 40 266 40 20717 180 20537 20500 165 142 116 77 1132 1108 310 134 60 243 20335 12255 288 54 234
internal_count=22298 1581 57 1524 1498 1458 326 306 40 266 40 20717 180 20537 20500 165 142 116 77 1132 1108 310 134 60 243 20335 12255 288 54 234
shrinkage=0.075


Tree=96
num_leaves=31
num_cat=0
split_feature=17 11 6 5 24 30 30 5 14 16 5 18 6 1 21 14 30 3 5 4 1 30 21 8 8 6 2 1 7 10
split_gain=0.00277125 0.0169382 0.04248 0.0162897 0.0250796 0.0479799 0.0462038 0.012324 0.0178122 0.00765255 0.00614497 0.0102272 0.00476731 0.00409477 0.0912546 0.0101217 0.0472584 0.0115917 0.0140803 0.00913871 0.0068731 0.00552072 0.00521777 0.0476726 0.238159 0.0357067 0.0707951 0.0329353 0.00839029 0.0112637
threshold=-0.28182749999999995 0.0063754350000000013 0.00049838050000000015 -5.498994999999999e-05 1.0790650000000003e-05 -1.5437499999999995 1.0780000000000005 -7.5185999999999995e-05 -7.6100699999999994 112.04900000000002 -3.3085999999999995e-05 0.035501350000000008 5.9305750000000007e-05 -18.784849999999995 1.1709150000000002 -19.847649999999998 -5.8781349999999994 8.6381750000000014e-06 0.00021534100000000002 0.00023791500000000003 -13.198599999999997 4.9561700000000011 4.7093800000000012 -8.7450849999999993e-06 -4.308574999999999e-05 0.00010468900000000001 1.8189050000000002 -14.412449999999998 0.00017158350000000004 6.971710000000002e-08
decision_type=2 2 2 2 2 2 2 2 2 2 2 2 2 2 2 2 2 2 2 2 2 2 2 2 2 2 2 2 2 2
left_child=1 3 -3 4 5 -1 -7 8 12 13 11 -5 -6 14 21 16 17 -15 19 20 -19 -2 -17 24 -24 27 -27 -25 29 -29
right_child=9 2 -4 10 7 6 -8 -9 -10 -11 -12 -13 -14 15 -16 22 -18 18 -20 -21 -22 -23 23 25 -26 26 -28 28 -30 -31
leaf_value=0.00037258835887769235 -0.0014034907588938951 0.0038219167938223107 -0.00073851244362433343 0.0021024722486890821 -0.0010075797357743329 -0.0061718574239057493 -0.0012428975885521378 -0.001861731843673624 0.0015704113931860775 0.0014353225090807038 -8.6988826683639242e-05 -0.00029602692055050281 0.00034982464620208538 0.0015683222937650496 0.0051355154879274773 1.4440039579400854e-06 -0.0038539287149823003 -0.0015664247984568647 -0.0017094687136458169 0.0014334272861742645 -0.00011370193503672379 -7.1380479302385024e-05 -0.0013022937873948218 -0.0032599468599073585 0.0086499126636356647 0.0048930249968014488 -0.0011949932298063815 0.0019680773875006704 -0.00051300914112277268 -3.509294163814047e-05
leaf_weight=30 20 20 27 20 43 20 23 20 34 21 297 20 22 20 20 20818 21 20 35 20 218 140 38 21 21 22 21 20 151 75
leaf_count=30 20 20 27 20 43 20 23 20 34 21 297 20 22 20 20 20818 21 20 35 20 218 140 38 21 21 22 21 20 151 75
internal_value=0 -0.00016237 0.0012021 -0.000283598 -0.000834982 -0.0019294 -0.00353544 -0.000163617 0.000179436 4.30554e-06 3.05437e-05 0.000903223 -0.000548151 2.92074e-06 0.000359151 -5.87404e-08 -0.000409714 -0.000178632 -0.000297878 -0.000106384 -0.000235779 -0.000237894 6.39922e-06 0.000285959 0.00224002 -8.59419e-05 0.00191981 -0.000408965 -0.000165589 0.000386627
internal_weight=0 576 47 529 192 73 43 119 99 21722 337 40 65 21701 180 21521 334 313 293 258 238 160 21187 369 59 310 43 267 246 95
internal_count=22298 576 47 529 192 73 43 119 99 21722 337 40 65 21701 180 21521 334 313 293 258 238 160 21187 369 59 310 43 267 246 95
shrinkage=0.075


Tree=97
num_leaves=31
num_cat=0
split_feature=13 11 7 3 11 25 2 27 27 21 27 24 12 2 3 3 27 27 14 0 16 5 25 16 9 17 27 27 30 15
split_gain=0.00269233 0.024522 0.058371 0.0103493 0.00255982 0.0463923 0.0374192 0.0692764 0.278062 0.303319 0.344598 0.220571 0.0983332 0.0777981 0.0599299 0.0990097 0.057002 0.0619436 0.12671 0.0561885 0.0474307 0.0432728 0.025283 0.0265234 0.0599146 0.0205441 0.0525941 0.105535 0.0184607 0.0397193
threshold=-3.0876849999999996 3.3031500000000004e-05 0.0038036500000000009 1.0260100000000002e-05 -2.1399899999999996e-06 0.00021627200000000002 -2.0605549999999995 0.62059100000000023 -0.2956995 0.29129750000000004 -0.079140000000000085 1.4046350000000002e-06 0.0012740200000000001 -0.41660549999999991 1.1165700000000002e-05 1.5237500000000001e-05 0.12542999999999996 0.017084500000000061 -9.4107699999999976 5.7697800000000008 0.27122800000000008 1.4716550000000002e-05 0.00072196400000000018 81.672750000000022 3.6002700000000004e-09 -0.072658149999999991 0.0096369999999999807 -0.39737499999999987 -2.2422150000000003 -0.18138549999999998
decision_type=2 2 2 2 2 2 2 2 2 2 2 2 2 2 2 2 2 2 2 2 2 2 2 2 2 2 2 2 2 2
left_child=1 3 -3 -1 5 25 -7 8 -8 13 -11 14 -13 21 -12 -16 17 19 -19 20 -15 -10 23 -6 -25 26 27 -2 -24 -30
right_child=4 2 -4 -5 22 6 7 -9 9 10 11 12 -14 16 15 -17 -18 18 -20 -21 -22 -23 28 24 -26 -27 -28 -29 29 -31
leaf_value=-0.0017541567778347857 -0.0003151672217609303 0.004856059232952248 -0.00030895658112513048 3.8370376279834257e-05 3.2930428401272462e-05 -9.4116247664311644e-05 -0.00011814471482433392 -8.6751635694264965e-05 3.424902936091568e-05 0.013214420061558483 -0.0014992021257057787 0.0043615138831747963 0.011061993514158529 0.0037219109159195795 0.0066419395106640878 -0.00043786693764923259 -0.000258252191750736 0.0012985102251746115 0.0089481770321136918 0.0047393440312589515 -2.1957385394236313e-05 -0.0037621183620217382 -4.9628332814128084e-05 -0.00085350859153550125 0.004882303752237931 -7.3718522423713937e-05 -0.00017477733562681918 -0.0066909951259098623 -0.00033986490986475927 -0.0036237332752144928
leaf_weight=21 40 20 32 132 9929 1116 740 825 57 24 33 28 22 24 20 25 70 29 21 24 92 24 2287 21 20 4822 212 23 1544 21
leaf_count=21 40 20 32 132 9929 1116 740 825 57 24 33 28 22 24 20 25 70 29 21 24 92 24 2287 21 20 4822 212 23 1544 21
internal_value=0 0.000270547 0.00167759 -0.000207663 -2.5104e-06 3.0492e-05 0.000255584 0.000445217 0.000801156 0.00218104 0.00496744 0.00342113 0.00730972 0.00093901 0.000928442 0.00270871 0.00157131 0.00224536 0.00451137 0.00143607 0.000752636 -0.0010906 -2.22588e-05 4.07912e-05 0.00194445 -0.000109677 -0.00074019 -0.00264285 -0.000185449 -0.00038393
internal_weight=0 205 52 153 22093 8271 3174 2058 1233 493 152 128 50 341 78 45 260 190 50 140 116 81 13822 9970 41 5097 275 63 3852 1565
internal_count=22298 205 52 153 22093 8271 3174 2058 1233 493 152 128 50 341 78 45 260 190 50 140 116 81 13822 9970 41 5097 275 63 3852 1565
shrinkage=0.075


Tree=98
num_leaves=31
num_cat=0
split_feature=20 1 1 17 6 7 31 27 27 23 2 31 31 1 27 1 31 27 27 26 4 21 22 14 2 25 25 13 8 23
split_gain=0.00248199 0.0295848 0.0401478 0.0962679 0.0276902 0.070883 0.0294811 0.0388948 0.153346 0.0478549 0.0233475 0.0878408 0.192838 0.0717702 0.108381 0.025815 0.016325 0.0186955 0.155634 0.0092742 0.00887777 0.00779807 0.00652934 0.00609016 0.00513778 0.0423844 0.0419121 0.0378093 0.0635456 0.0364834
threshold=4.2098350000000007e-05 -12.993899999999998 -12.534349999999998 -0.044458749999999998 -5.7700649999999991e-05 0.0043134550000000016 4.476510000000002 -0.39737499999999987 0.40341550000000004 0.0086503300000000012 -0.15126199999999998 1.3507100000000001 0.8712049999999999 -9.5528549999999992 0.42852950000000001 -10.433649999999998 2.2440900000000004 0.45853315000000017 -0.10000499999999989 0.013302200000000002 6.9415950000000011e-05 3.7290900000000007 -0.83723649999999994 -17.037399999999995 0.024027600000000007 0.00013542600000000004 -9.0163249999999988e-05 -3.0876849999999996 -1.1384599999999999e-08 0.52816150000000006
decision_type=2 2 2 2 2 2 2 2 2 2 2 2 2 2 2 2 2 2 2 2 2 2 2 2 2 2 2 2 2 2
left_child=24 4 3 -3 5 -2 7 23 9 -9 11 12 13 15 -15 19 17 18 20 -4 -12 -10 -13 -6 25 -1 27 28 -26 -29
right_child=1 2 10 -5 6 -7 -8 8 21 -11 16 22 -14 14 -16 -17 -18 -19 -20 -21 -22 -23 -24 -25 26 -27 -28 29 -30 -31
leaf_value=-0.00014456596068499774 0.004471878524345811 0.0062074553211641618 0.0010348060556376975 -0.0002823223984992277 -0.0012318334500271116 -0.0011252409883880838 0.0011641537988803716 -0.0030827763670293446 -4.1445050380930236e-05 -0.0079254629876231771 -0.00043856229957829531 -0.0014157701363728848 0.0085882542056164562 0.0056524050740832041 -0.00047338477406810853 -0.0030348917086874799 -2.2710342425442271e-05 -5.1023959373688831e-05 -0.0064207922609057274 -0.0010960372736735734 0.0012723927574916159 -0.0015851144790758555 -0.00013700148545027396 -0.00010530385538328042 0.0055225513383447833 0.00017167446606193855 -8.7378153266331351e-05 0.00017943411957939295 -0.00031865147603556658 0.0024009462349827764
leaf_weight=6532 20 20 27 36 34 35 35 22 79 24 116 24 21 33 32 21 775 146 27 20 20 24 350 131 20 3754 5663 4193 22 42
leaf_count=6532 20 20 27 36 34 35 35 22 79 24 116 24 21 33 32 21 775 146 27 20 20 24 350 131 20 3754 5663 4193 22 42
internal_value=0 -7.81787e-05 6.12952e-05 0.00203546 -0.000654027 0.000910075 -0.000900518 -0.00113066 -0.00200905 -0.0056094 -7.28604e-06 0.000401689 0.00190923 0.000854642 0.00263663 -0.000848731 -0.000206491 -0.000667431 -0.00121955 0.000128064 -0.000186951 -0.000401135 -0.000219062 -0.000337437 8.00882e-06 -2.91502e-05 4.64613e-05 0.000223673 0.00246287 0.000201466
internal_weight=0 2072 1668 56 404 55 349 314 149 46 1612 528 154 133 65 68 1084 309 163 47 136 103 374 165 20226 10286 9940 4277 42 4235
internal_count=22298 2072 1668 56 404 55 349 314 149 46 1612 528 154 133 65 68 1084 309 163 47 136 103 374 165 20226 10286 9940 4277 42 4235
shrinkage=0.075


Tree=99
num_leaves=31
num_cat=0
split_feature=23 9 17 27 12 30 22 6 21 12 17 27 27 18 20 6 17 27 27 9 23 1 4 22 30 13 14 30 19 5
split_gain=0.00248764 0.0237953 0.0414225 0.169372 0.0305389 0.0547181 0.0734765 0.101144 0.0230637 0.0183469 0.0161638 0.0446765 0.112516 0.0259363 0.0158783 0.0337947 0.0143136 0.0295525 0.078562 0.0134372 0.0149823 0.0381878 0.0366595 0.0197372 0.0203553 0.0259162 0.0145285 0.101828 0.0129859 0.0569386
threshold=0.00097055650000000008 5.3235000000000008e-07 0.39506000000000002 -0.6448704999999999 1.6101600000000002e-06 -1.3482449999999997 0.00073627950000000012 1.9891950000000005e-05 17.397300000000005 1.2135250000000002e-10 -0.14520449999999999 0.25180000000000019 -0.53096500000000002 0.025518500000000003 -0.00010740549999999999 5.7080250000000006e-05 0.17157850000000002 -0.22108000000000014 0.17470800000000006 7.836120000000002e-08 -0.04799504999999999 -13.459649999999998 2.9906950000000003e-05 3.1794550000000004 -0.41763500000000015 0.93471500000000007 -21.761999999999997 -13.721849999999996 -1.0654399999999997 -3.0349999999999996e-05
decision_type=2 2 2 2 2 2 2 2 2 2 2 2 2 2 2 2 2 2 2 2 2 2 2 2 2 2 2 2 2 2
left_child=19 9 4 -4 5 -3 -7 -8 10 -2 11 12 -6 14 15 -12 -11 -18 -19 26 21 22 -21 24 -23 -26 27 -1 29 -22
right_child=1 2 3 -5 8 6 7 -9 -10 16 13 -13 -14 -15 -16 -17 17 18 -20 20 28 23 -24 -25 25 -27 -28 -29 -30 -31
leaf_value=-0.00070831429232063833 -0.0020865508901705553 -0.00012755664784197353 -0.00059499937085283176 0.0077591760264476752 -0.00081389122765119137 2.343797980626862e-05 0.0084099774547212285 0.0015244063184672997 -0.0024557643495167472 -9.2111441343541723e-05 -0.00044271584983471258 -0.00027389338288735923 0.0049205219713397896 -0.0026465147991984847 -3.1581749712716389e-05 0.0036935316509334373 -4.6707276327321205e-05 -0.0053207168912049376 -0.00045777364483837039 -0.0037813203602230974 0.0027818365312692155 -9.1052474403748444e-05 -0.0005121798912748704 0.0017473925133588506 -0.0030969770002904564 -3.0206610620464946e-05 6.8950820767331577e-05 0.0053963303502180017 -4.3495196245322147e-05 -0.0010336791736831814
leaf_weight=51 27 113 43 20 38 42 20 30 21 4222 25 108 39 21 1714 20 165 25 74 35 44 356 43 28 31 31 8696 22 6150 44
leaf_count=51 27 113 43 20 38 42 20 30 21 4222 25 108 39 21 1714 20 165 25 74 35 44 356 43 28 31 31 8696 22 6150 44
internal_value=0 -3.7951e-05 0.000161054 0.00205712 0.000106535 0.00097806 0.00233604 0.00427863 1.65739e-05 -0.000137344 4.29958e-05 0.000710227 0.00209055 -2.63512e-05 4.92986e-06 0.00139562 -0.000125612 -0.000661363 -0.00168579 1.65356e-05 -6.2907e-05 -0.000448092 -0.0019791 -0.000180337 -0.000309467 -0.00156359 7.77958e-05 0.00113144 -3.05509e-05 0.000874079
internal_weight=0 6767 2254 63 2191 205 92 50 1986 4513 1965 185 77 1780 1759 45 4486 264 99 15531 6762 524 78 446 418 62 8769 73 6238 88
internal_count=22298 6767 2254 63 2191 205 92 50 1986 4513 1965 185 77 1780 1759 45 4486 264 99 15531 6762 524 78 446 418 62 8769 73 6238 88
shrinkage=0.075


Tree=100
num_leaves=31
num_cat=0
split_feature=3 14 28 24 1 21 30 30 30 15 19 16 1 3 15 19 21 18 7 7 19 8 28 15 12 12 30 1 15 30
split_gain=0.00236424 0.0386092 0.0234854 0.0138196 0.0140852 0.0115699 0.00787418 0.0214239 0.01665 0.0331314 0.0133299 0.0301451 0.00889101 0.00695418 0.035437 0.00514363 0.00505314 0.00467419 0.0269319 0.0356192 0.00800673 0.0451188 0.00894701 0.00476766 0.0360962 0.119779 0.0180162 0.0153948 0.00742533 0.0272948
threshold=8.7946500000000006e-06 -20.381849999999996 -5.3560299999999996 -2.4605799999999997e-06 -12.592749999999997 3.7290900000000007 -0.41763500000000015 -0.57660999999999951 1.8619700000000001 0.33275950000000004 0.074318850000000006 0.44653100000000007 -7.1756149999999996 8.9255300000000016e-06 0.33275950000000004 -0.7437554999999999 0.19966500000000001 0.15259550000000002 0.036956850000000006 0.0036090800000000002 -12.891049999999998 -7.0060099999999983e-07 0.10023800000000001 1.3124250000000002 7.9974100000000011e-05 1.1932300000000003e-05 2.0494850000000002 -12.234149999999998 1.0940150000000004 -0.8282000000000006
decision_type=2 2 2 2 2 2 2 2 2 2 2 2 2 2 2 2 2 2 2 2 2 2 2 2 2 2 2 2 2 2
left_child=1 -1 -3 4 -4 6 7 15 9 10 12 -12 16 14 -2 -5 -8 20 19 -19 21 -15 -23 28 25 -25 27 -26 -22 -30
right_child=13 2 3 5 -6 -7 8 -9 -10 -11 11 -13 -14 17 -16 -17 -18 18 -20 -21 23 22 -24 24 26 -27 -28 -29 29 -31
leaf_value=0.003363192765596068 -7.2320219381533622e-05 0.0024793912805431647 -0.0024724413589574394 -0.0012339321536604653 -2.320315122363224e-05 0.0014015237985690223 0.00010398951387756483 -0.0025582686614922879 -7.3006178449486279e-05 0.0035583938867421237 0.0036831984213287275 0.00012546844072612411 0.0015028444478502932 0.0038149031918146645 -0.0032195038501452908 -6.0937838565788032e-05 -0.0011254131206182396 -7.998153172255404e-05 0.0020608129618184729 -0.0027343455833033657 -2.2239367196371622e-06 -0.0015287127535306021 0.00047702888334932706 -9.8288871162194037e-05 -0.0023363969398465436 0.0063297541727396576 0.0017125296060112303 -0.00028784231072495457 0.00016083985628147671 -0.0021466228403109458
leaf_weight=20 161 22 25 22 28 35 180 21 604 20 21 37 24 20 23 476 21 113 22 38 19949 22 29 63 26 22 20 100 92 42
leaf_count=20 161 22 25 22 28 35 180 21 604 20 21 37 24 20 23 476 21 113 22 38 19949 22 29 63 26 22 20 100 92 42
internal_value=0 8.91651e-05 4.65345e-05 1.11826e-05 -0.0011785 5.43403e-05 2.12747e-05 -0.000211708 0.000154591 0.000608284 0.000399796 0.00141361 0.000138456 -6.68889e-06 -0.000465718 -0.000112757 -2.44555e-05 -2.58044e-06 -0.000390781 -0.000747967 7.14076e-07 0.000795778 -0.000388193 -2.06477e-06 0.00033672 0.00156544 -0.00037863 -0.00071056 -5.96157e-06 -0.000562395
internal_weight=0 1556 1536 1514 53 1461 1426 519 907 303 283 58 225 20742 184 498 201 20558 173 151 20385 71 51 20314 231 85 146 126 20083 134
internal_count=22298 1556 1536 1514 53 1461 1426 519 907 303 283 58 225 20742 184 498 201 20558 173 151 20385 71 51 20314 231 85 146 126 20083 134
shrinkage=0.075


Tree=101
num_leaves=31
num_cat=0
split_feature=17 11 4 2 0 1 27 7 1 27 27 30 21 16 16 27 16 10 7 7 9 16 23 8 12 8 23 20 30 27
split_gain=0.00237921 0.0192754 0.042889 0.0176768 0.0472835 0.0264463 0.0291441 0.0120049 0.0152237 0.00696755 0.0113015 0.00624316 0.00623687 0.00422364 0.00350471 0.0157556 0.00431889 0.0932466 0.0117207 0.0138987 0.00928835 0.00729863 0.00433833 0.0148743 0.00363488 0.0327104 0.0182363 0.0371185 0.0815062 0.0107247
threshold=-0.37592899999999996 0.0063754350000000013 0.00027477900000000001 0.61727300000000007 -4.811234999999999 -12.592749999999997 0.34729650000000006 0.00046110750000000005 -7.9269999999999987 0.25180000000000019 -0.81036199999999992 0.26484999999999964 9.3058250000000022 112.04900000000002 81.672750000000022 0.17470800000000006 47.599950000000007 -1.3513699999999997e-06 0.0046108300000000007 0.0012183050000000003 -4.7596799999999994e-07 39.016550000000002 -0.66477099999999989 -5.1623949999999985e-07 6.9988150000000003e-10 -4.9462599999999996e-08 0.00070824150000000014 -7.5388049999999992e-06 -1.1482849999999998 -0.04055499999999989
decision_type=2 2 2 2 2 2 2 2 2 2 2 2 2 2 2 2 2 2 2 2 2 2 2 2 2 2 2 2 2 2
left_child=1 3 -3 5 -5 6 -1 9 11 10 -7 12 -9 14 16 -16 21 -18 19 20 -19 22 23 -2 25 -24 29 28 -28 -27
right_child=13 2 -4 4 -6 7 -8 8 -10 -11 -12 -13 -14 -15 15 -17 17 18 -20 -21 -22 -23 24 -25 -26 26 27 -29 -30 -31
leaf_value=-0.0030770599436436897 -0.0020464439783245323 0.00386300590907922 -0.0010487206444668117 -0.0043773670585194073 3.6812251962076589e-05 4.9851589816777654e-05 -0.00016697089636831408 0.0018969945141829416 0.002498613186617149 0.00011664045569830249 -0.0023023891495540737 -0.00037404934008844899 0.00021176318026846274 0.0010667167017735274 0.00037261631983519212 -0.0021144521113297819 0.0041813570790691298 -0.0017856321314783682 -0.0016793511712421604 0.0017402414776370278 -2.1904672956506925e-05 -0.0013341779987651691 -0.0025941845122432025 0.00027463196634127551 9.4127856305349187e-06 -6.217160282013166e-05 -7.7034186646120781e-05 0.00010401450031382273 -0.006110947984998347 0.0007921241563928408
leaf_weight=32 25 20 20 21 39 27 49 21 24 128 20 37 30 21 38 23 30 22 32 20 71 23 30 41 20939 224 34 106 20 131
leaf_count=32 25 20 20 21 39 27 49 21 24 128 20 37 30 21 38 23 30 22 32 20 71 23 30 41 20939 224 34 106 20 131
internal_value=0 -0.00016732 0.00140714 -0.000314467 -0.00150815 -0.000119844 -0.00131664 0.000217926 0.000824256 -0.000170125 -0.000951102 0.000367613 0.000905682 3.58708e-06 2.56339e-06 -0.000565131 4.15569e-06 0.000375241 -0.000412231 -5.3401e-05 -0.000439131 1.14545e-06 2.57062e-06 -0.000604563 4.43577e-06 -0.000186782 -4.65452e-05 -0.000711329 -0.00231182 0.000253076
internal_weight=0 468 40 428 60 368 81 287 112 175 47 88 51 21830 21809 61 21748 175 145 113 93 21573 21550 66 21484 545 515 160 54 355
internal_count=22298 468 40 428 60 368 81 287 112 175 47 88 51 21830 21809 61 21748 175 145 113 93 21573 21550 66 21484 545 515 160 54 355
shrinkage=0.075


Tree=102
num_leaves=31
num_cat=0
split_feature=23 10 25 5 8 7 10 14 5 20 2 10 27 30 30 27 27 30 6 3 13 22 13 2 3 3 5 11 25 2
split_gain=0.00242442 0.00661222 0.00289911 0.0657509 0.0153961 0.0241472 0.0248576 0.00449475 0.00382839 0.00344569 0.0185607 0.0934875 0.19417 0.0319493 0.0480427 0.0533412 0.126902 0.0221024 0.0298568 0.0128078 0.00834271 0.00731539 0.00750694 0.00715501 0.00766962 0.00676111 0.00606543 0.0048497 0.0367874 0.0527019
threshold=2.8787700000000007 -1.3794049999999996e-07 -0.61949549999999987 0.00018082400000000003 -9.5807849999999988e-06 0.0014104900000000001 7.089190000000001e-07 -12.376299999999999 -3.0349999999999996e-05 -6.0857649999999995e-05 0.61727300000000007 7.291230000000001e-06 0.48771000000000025 -0.8282000000000006 1.1271000000000007 -0.22108000000000014 0.34729650000000006 -1.9530599999999996 1.4431650000000001e-05 2.3725550000000002e-05 0.82194750000000016 -0.067739299999999988 -2.2013349999999998 0.27459550000000005 8.1120300000000017e-06 1.6509400000000005e-05 -0.00032901549999999995 -1.9494749999999997e-06 0.015141400000000001 -2.0605549999999995
decision_type=2 2 2 2 2 2 2 2 2 2 2 2 2 2 2 2 2 2 2 2 2 2 2 2 2 2 2 2 2 2
left_child=2 -2 3 4 -1 7 -7 8 -6 10 13 12 -12 17 15 -15 -17 23 -19 -16 21 22 -13 24 -4 -22 -26 28 -11 -30
right_child=1 -3 9 -5 5 6 -8 -9 -10 27 11 20 -14 14 19 16 -18 18 -20 -21 25 -23 -24 -25 26 -27 -28 -29 29 -31
leaf_value=0.0012609119476195473 -0.0015928840744891203 3.0247646645875644e-05 -0.0013435561884342371 0.0033147145656745548 0.00091645696831359853 -0.00045299197481654115 -0.0038934768385453416 -0.0007082897733198479 -9.0551992353640444e-05 -3.9513675062360745e-06 0.0065991230786797426 -0.0019785150632907807 -0.0012459319674547129 -0.00039790111396484915 6.0747706406387303e-05 -0.0086691552365664396 -0.00084707088599316187 1.0841040530067402e-05 0.0037518805155559677 -0.0018227627278974978 -0.0024428433585853781 0.0002051055841425864 -1.9235314870126206e-05 -0.0015317387652794424 -0.0011170694762970216 -0.00049268314105574971 3.7972895802669485e-05 -2.2846362919500619e-05 -0.00029655319666733603 0.00095593085543397975
leaf_weight=32 20 48 26 34 35 27 21 34 54 7071 36 22 35 40 132 20 28 30 20 24 20 80 22 20 27 20 484 13001 289 546
leaf_count=32 20 48 26 34 35 27 21 34 54 7071 36 22 35 40 132 20 28 30 20 24 20 80 22 20 27 20 484 13001 289 546
internal_value=0 -0.000447144 1.36778e-06 0.000262279 -0.000248967 -0.000531517 -0.0019582 2.52385e-05 0.000305463 -1.44383e-06 -0.000131697 0.000458333 0.00273184 -0.000294631 -0.00101945 -0.00242065 -0.00410627 -3.27247e-06 0.00150726 -0.000229023 -0.00052593 -0.000222113 -0.000998875 -0.000138868 -8.69915e-05 -0.00146776 -2.30567e-05 5.32208e-06 5.16436e-05 0.000522436
internal_weight=0 68 22230 237 203 171 48 123 89 21993 1086 235 71 851 244 88 48 607 50 156 164 124 44 557 537 40 511 20907 7906 835
internal_count=22298 68 22230 237 203 171 48 123 89 21993 1086 235 71 851 244 88 48 607 50 156 164 124 44 557 537 40 511 20907 7906 835
shrinkage=0.075


Tree=103
num_leaves=31
num_cat=0
split_feature=20 1 3 14 1 27 7 27 27 24 30 2 7 1 6 7 30 9 23 27 27 7 27 27 23 5 5 27 27 27
split_gain=0.00241314 0.0246748 0.0251826 0.0455929 0.0308529 0.0345423 0.0253896 0.0179827 0.0237918 0.0178652 0.0178082 0.0674541 0.181979 0.0520532 0.0490099 0.169047 0.0265667 0.0157085 0.0155465 0.0141389 0.0138736 0.0114831 0.0114308 0.0478193 0.0223562 0.00913802 0.0074724 0.00854424 0.00669825 0.00611752
threshold=4.379045000000001e-05 -13.618449999999998 1.1585400000000001e-05 -17.401049999999994 -14.552149999999997 -0.26963010000000004 0.0043134550000000016 -0.53096500000000002 0.27611750000000007 -2.3158699999999993e-06 -1.3482449999999997 -0.14435749999999997 0.0004909370000000001 -12.534349999999998 3.6872600000000003e-05 0.0023852900000000004 2.1128400000000003 -4.4835099999999985e-06 -0.66477099999999989 -0.079140000000000085 -0.98461249999999978 0.00095674600000000018 -0.24510499999999988 0.20152300000000004 0.078453100000000012 -6.4001149999999983e-05 3.8033300000000005e-06 -0.5077090999999998 -0.05954919999999999 -1.2529399999999999
decision_type=2 2 2 2 2 2 2 2 2 2 2 2 2 2 2 2 2 2 2 2 2 2 2 2 2 2 2 2 2 2
left_child=-1 2 3 -2 6 -6 -4 29 -9 -5 22 12 -12 -13 15 19 20 -15 -19 -14 -16 -21 -3 24 28 -20 27 -27 -24 -8
right_child=1 10 4 9 5 -7 7 8 -10 -11 11 13 14 17 16 -17 -18 18 25 21 -22 -23 23 -25 -26 26 -28 -29 -30 -31
leaf_value=7.7021449297249884e-06 0.0034568421891890467 6.0561877961234975e-05 0.0011318420168286787 -0.0023522183748851105 -0.0004081371602036857 -0.004347703022933508 -0.00080958472983342212 -0.0041524007351004645 -0.0009231253425241448 6.1067270335115597e-05 0.0079464097180210625 0.0025942952116771089 0.0015470359932805875 -0.0021379371661298914 -0.00059385439087236594 0.007945965957624139 0.00080570641415501345 -0.0023609094962012021 0.001305793629328491 0.00052919652518020098 -0.0033539428781036154 -0.0019227134394565258 -0.00048562870618367853 -7.1927420883937244e-05 -0.0041883035663472998 -0.00031648713927552309 -4.9058826656479275e-05 -0.002211623876380896 -0.0022427000428053914 0.00076159969292348244
leaf_weight=20318 20 757 35 22 21 31 46 21 33 80 22 31 24 35 20 20 35 21 20 21 21 22 26 359 22 32 117 23 23 20
leaf_count=20318 20 757 35 22 21 31 46 21 33 80 22 31 24 35 20 20 35 21 20 21 21 22 26 359 22 32 117 23 23 20
internal_value=0 -7.90365e-05 -0.000672141 0.000182569 -0.00117588 -0.00275672 -0.000645535 -0.00116394 -0.00217895 -0.000459445 3.91533e-05 0.000433124 0.00154363 -0.000303235 0.000679457 0.00189496 -0.000711976 -0.000665427 -0.000423465 8.8691e-05 -0.00200756 -0.000725269 -0.000114851 -0.000423658 -0.00220213 -0.000211557 -0.000387993 -0.001109 -0.00131038 -0.000333468
internal_weight=0 1980 329 122 207 52 155 120 54 102 1651 464 185 279 163 87 76 248 213 67 41 43 1187 430 71 192 172 55 49 66
internal_count=22298 1980 329 122 207 52 155 120 54 102 1651 464 185 279 163 87 76 248 213 67 41 43 1187 430 71 192 172 55 49 66
shrinkage=0.075


Tree=104
num_leaves=31
num_cat=0
split_feature=31 14 21 21 21 8 8 1 16 27 1 10 1 30 30 15 11 0 0 12 7 6 27 27 7 20 6 3 18 27
split_gain=0.00233727 0.0189273 0.00980473 0.0128441 0.0128087 0.0742156 0.210288 0.0298044 0.0323025 0.0473435 0.00840041 0.0354689 0.0324407 0.00809634 0.0187258 0.00500861 0.015946 0.0238636 0.0148922 0.045037 0.0208536 0.0266924 0.013578 0.172749 0.0131352 0.00934996 0.0418387 0.00656438 0.0539669 0.00639536
threshold=4.5606900000000019 -19.226799999999997 37.375500000000009 17.397300000000005 3.7290900000000007 -2.2001599999999999e-06 -3.6141799999999993e-05 -15.516849999999998 47.599950000000007 0.3752950000000001 -12.534349999999998 -3.6176699999999996e-07 -14.412449999999998 -0.79017499999999907 0.89815000000000034 -0.57342799999999994 -2.7431549999999997e-05 7.3648950000000015 -5.8657299999999983 0.00019692300000000003 0.0035492400000000008 4.7044700000000007e-05 0.32495100000000005 -0.04055499999999989 0.0016949550000000002 0.00010613150000000003 6.0721200000000013e-06 7.0991900000000007e-06 0.0028365400000000007 -0.2956995
decision_type=2 2 2 2 2 2 2 2 2 2 2 2 2 2 2 2 2 2 2 2 2 2 2 2 2 2 2 2 2 2
left_child=1 -1 3 4 15 6 -6 -7 9 -9 11 -2 -13 -10 -15 16 17 18 19 -3 24 -22 23 29 -20 27 -27 28 -17 -18
right_child=10 2 -4 -5 5 7 -8 8 13 -11 -12 12 -14 14 -16 25 22 -19 20 -21 21 -23 -24 -25 -26 26 -28 -29 -30 -31
leaf_value=0.0017079085707853269 0.0015168978078797996 0.0040217828487584479 0.0015245992468408075 -0.0015973821074502278 -0.0012315733133129048 -0.0024748860602163145 0.006776317286837313 0.0033823227311265379 -2.6365472623119997e-06 -0.00014245595973926388 -2.7762543064294312e-05 -0.0034082771807302848 -0.00049435769295152825 -0.0030231025379971075 -0.00026825375331100074 2.9178410262633206e-05 -3.9448913114855794e-05 0.0027440969412314839 -0.00030995779290186382 -0.00054316140889451136 0.0022195331138474021 -0.00028167256895983428 -3.8327875173765014e-06 -0.0059436206077634777 -0.0023782648286860123 0.0031664043980223744 -0.00069489540858883535 2.0878007464626779e-06 0.0041302856913534927 -0.001229237269685005
leaf_weight=37 34 20 24 28 39 28 35 34 43 58 5082 29 83 23 35 185 275 21 39 31 33 88 293 32 31 27 38 15525 20 28
leaf_count=37 34 20 24 28 39 28 35 34 43 58 5082 29 83 23 35 185 275 21 39 31 33 88 293 32 31 27 38 15525 20 28
internal_value=0 1.3438e-05 9.75717e-06 7.6197e-06 1.02662e-05 0.000500155 0.00255594 -0.000188208 0.000143538 0.00116018 -4.38765e-05 -0.000604775 -0.00124885 -0.000782511 -0.00136069 1.6052e-06 -0.000171402 0.000318884 0.000108432 0.00124701 -0.000195587 0.000400474 -0.000376729 -0.000702874 -0.00122592 1.13646e-05 0.000909029 7.65523e-06 0.000429286 -0.000149396
internal_weight=0 17070 17033 17009 16981 295 74 221 193 92 5228 146 112 101 58 16686 891 263 242 51 191 121 628 335 70 15795 65 15730 205 303
internal_count=22298 17070 17033 17009 16981 295 74 221 193 92 5228 146 112 101 58 16686 891 263 242 51 191 121 628 335 70 15795 65 15730 205 303
shrinkage=0.075


Tree=105
num_leaves=31
num_cat=0
split_feature=17 27 13 19 4 27 3 20 27 8 21 27 27 18 5 1 21 21 27 6 1 1 31 22 3 13 18 3 22 3
split_gain=0.00229743 0.010632 0.0567709 0.0597225 0.0340725 0.0349988 0.138535 0.163101 0.105914 0.102259 0.0565981 0.0348151 0.0299849 0.126661 0.0276938 0.0377516 0.0270998 0.0257265 0.0642291 0.0191729 0.0145785 0.00651262 0.025669 0.00667151 0.00622757 0.0234563 0.00581149 0.00561117 0.0124569 0.0105332
threshold=-0.018698049999999997 0.14943000000000009 -2.0879749999999997 0.31620250000000005 0.00010669350000000001 -0.12087000000000013 1.3656500000000002e-05 2.3658100000000003e-05 0.042715000000000176 1.4148350000000004e-07 0.19594700000000001 -0.22108000000000014 0.25180000000000019 0.0085131250000000016 -0.00018704649999999999 -10.494749999999998 1.5710850000000003 5.5669900000000014 -0.95730809999999977 1.0021360000000001e-05 -7.4897649999999993 -15.516849999999998 -0.30494999999999978 4.8627450000000012 6.8464300000000006e-06 -2.2538149999999995 0.023231150000000002 8.5122050000000016e-06 -0.067739299999999988 8.7946500000000006e-06
decision_type=2 2 2 2 2 2 2 2 2 2 2 2 2 2 2 2 2 2 2 2 2 2 2 2 2 2 2 2 2 2
left_child=1 2 3 -1 5 11 7 9 10 -7 -8 17 13 19 -5 -16 -6 -4 -19 -3 -17 22 26 27 25 -2 -14 28 -23 -29
right_child=24 12 4 14 16 6 8 -9 -10 -11 -12 -13 21 -15 15 20 -18 18 -20 -21 -22 23 -24 -25 -26 -27 -28 29 -30 -31
leaf_value=-0.0047223255391246411 0.0028168184389609709 0.00085798743604176373 -0.00013522009536869739 -0.0026479330926361543 -0.00024487610307915019 -0.0011666759096745712 0.003590706962911229 0.0091662834005182964 -0.005721621315959575 0.0052354336222734952 -0.0015218524454996502 -0.0024163845204748209 5.6950847287364884e-05 0.0058505988348042598 0.0020819087370650127 -0.0024941881941880897 -0.003439836977174439 -0.00029124010754673547 0.0049596678785746914 -0.0021778115153429098 -0.00041029973405063081 -0.0020285724416680751 -0.0027267516974461615 0.0011317338232765906 6.7594495581755379e-06 0.00011242431997509071 -0.0012222488219361801 0.0017038059474283986 -9.110899750420945e-05 1.5886693174447346e-05
leaf_weight=27 21 22 596 38 32 36 21 20 21 23 29 35 152 25 28 28 28 38 20 25 58 24 24 30 18500 128 23 21 84 2141
leaf_count=27 21 22 596 38 32 36 21 20 21 23 29 35 152 25 28 28 28 38 20 25 58 24 24 30 18500 128 23 21 84 2141
internal_value=0 -5.4424e-05 -0.000252132 -0.00147187 -9.26862e-06 0.000114206 0.00115238 0.00331317 -0.00125187 0.00132906 0.000625423 -0.000111812 2.84732e-05 0.00153744 -0.000894491 -0.000310011 -0.00173586 1.15215e-05 0.00151942 -0.000756799 -0.00108878 -1.50023e-05 -0.000426619 2.06115e-05 1.0649e-05 0.000493581 -0.000111173 5.92707e-06 -0.000521656 3.22818e-05
internal_weight=0 3649 1078 179 899 839 150 79 71 59 50 689 2571 72 152 114 60 654 58 47 86 2499 199 2300 18649 149 175 2270 108 2162
internal_count=22298 3649 1078 179 899 839 150 79 71 59 50 689 2571 72 152 114 60 654 58 47 86 2499 199 2300 18649 149 175 2270 108 2162
shrinkage=0.075


Tree=106
num_leaves=31
num_cat=0
split_feature=17 5 5 24 30 31 4 30 30 8 8 4 22 1 16 22 24 9 9 27 7 7 23 6 1 1 22 12 24 30
split_gain=0.00237228 0.0149574 0.0154871 0.0234795 0.0346606 0.034329 0.0112603 0.0106586 0.0295994 0.00983545 0.00976661 0.00569013 0.00947612 0.00547055 0.00402887 0.00341347 0.00551919 0.0877159 0.0138356 0.0169394 0.0072354 0.00544382 0.00429467 0.0145693 0.00672188 0.00462671 0.0226363 0.0430503 0.0237349 0.0224164
threshold=-0.28182749999999995 -0.0011526199999999998 -5.498994999999999e-05 1.0790650000000003e-05 -1.5437499999999995 -1.0126149999999996 0.00024896150000000003 -0.22440000000000146 2.7266000000000008 2.3003900000000006e-09 -9.5807849999999988e-06 -4.5603699999999992e-05 -0.18164149999999998 -8.9648299999999974 112.04900000000002 4.8627450000000012 7.4467800000000019e-05 -1.21812e-05 -3.8034799999999999e-07 -0.53096500000000002 0.0016244650000000001 0.0016244650000000001 -0.66477099999999989 -1.6680899999999995e-05 -8.9648299999999974 -15.357599999999998 -0.10808449999999999 0.013343500000000001 7.0096650000000009e-06 -1.1482849999999998
decision_type=2 2 2 2 2 2 2 2 2 2 2 2 2 2 2 2 2 2 2 2 2 2 2 2 2 2 2 2 2 2
left_child=1 -1 3 4 -3 -6 10 9 -9 -5 13 12 -12 -4 15 16 22 -18 -19 20 -20 -17 23 -2 -25 26 27 -24 29 -28
right_child=14 2 6 7 5 -7 -8 8 -10 -11 11 -13 -14 -15 -16 21 17 18 19 -21 -22 -23 25 24 -26 -27 28 -29 -30 -31
leaf_value=0.0018145560015130156 -0.0022985126273852075 0.00011854485364265515 -0.0019085345511405689 -0.0021904364622696445 -0.0011515090221239786 -0.0054932035447563974 0.001452341388867353 0.0029285886063007637 -0.00063600481119608862 -0.00016174375483476579 0.0020826871486769958 -4.8205342441124011e-05 -0.00012777112060575744 -0.00021250966692605287 0.0010423082843479799 0.00018573384761111809 0.0049353052782992431 -0.0020801363643840887 -2.3321454452040296e-05 0.0017194128601695411 -0.0016829556626775726 -0.0015641660633264108 -0.0030819297597956489 0.00074848915142605884 -0.00060669135519128754 1.4127334984727652e-05 -0.0012642946188192766 0.0010291774910317895 0.0020294008743076118 -3.4932579683095711e-05
leaf_weight=21 20 29 23 20 21 20 30 20 38 41 20 249 24 20 21 20 21 21 45 25 22 20 38 35 50 19636 88 23 30 1607
leaf_count=21 20 29 23 20 21 20 30 20 38 41 20 249 24 20 21 20 21 21 45 25 22 20 38 35 50 19636 88 23 30 1607
internal_value=0 -0.000150228 -0.000224571 -0.000775897 -0.00186583 -0.00326941 6.01308e-05 -0.000134762 0.000593165 -0.000826889 -6.41738e-05 9.07307e-05 0.000876983 -0.00111969 3.98357e-06 2.97878e-06 4.25702e-06 0.0004841 -0.000343115 5.33786e-05 -0.000568276 -0.000689216 1.27012e-06 -0.000477216 -4.86759e-05 3.61542e-06 -0.000111957 -0.00153184 -6.17464e-05 -9.87579e-05
internal_weight=0 576 555 189 70 41 366 119 58 61 336 293 44 43 21722 21701 21661 134 113 92 67 40 21527 105 85 21422 1786 61 1725 1695
internal_count=22298 576 555 189 70 41 366 119 58 61 336 293 44 43 21722 21701 21661 134 113 92 67 40 21527 105 85 21422 1786 61 1725 1695
shrinkage=0.075


Tree=107
num_leaves=31
num_cat=0
split_feature=24 0 21 0 3 12 25 21 2 30 31 1 5 20 1 2 22 1 30 6 24 12 25 27 3 19 23 27 27 17
split_gain=0.00224432 0.0146896 0.0137137 0.0312475 0.0190156 0.00728145 0.0293719 0.0992104 0.027273 0.00922136 0.00885582 0.0410675 0.14614 0.0500349 0.0374714 0.0583654 0.0231398 0.0490034 0.031532 0.0682178 0.044294 0.107698 0.0352282 0.086849 0.0294141 0.0621972 0.0302204 0.0236638 0.114851 0.103591
threshold=4.4179850000000008e-08 15.501500000000002 0.0058458250000000007 7.9890250000000007 1.0626800000000001e-05 1.1551700000000003e-09 -0.00034121999999999993 0.051869950000000005 -0.033533099999999989 -1.8188249999999997 -0.19434999999999999 -15.973449999999998 0.00017548700000000002 6.0532200000000003e-05 -7.1756149999999996 0.12498900000000002 0.2654895000000001 -12.496549999999997 -1.3849050000000001 -5.2326099999999994e-05 2.1687000000000001e-05 0.00017604850000000003 0.030160450000000002 -0.26963010000000004 1.2217050000000002e-05 -0.39495049999999993 -0.017009449999999999 0.17470800000000006 -0.2956995 -0.013444199999999998
decision_type=2 2 2 2 2 2 2 2 2 2 2 2 2 2 2 2 2 2 2 2 2 2 2 2 2 2 2 2 2 2
left_child=-1 2 3 4 -2 6 7 -4 -9 -10 14 12 13 -12 -7 -16 18 -18 -13 -20 22 -22 24 -24 25 -21 -26 28 -28 -30
right_child=1 -3 5 -5 -6 10 -8 8 9 -11 11 16 -14 -15 15 -17 17 -19 19 20 21 -23 23 -25 26 -27 27 -29 29 -31
leaf_value=1.6873155340764516e-05 -0.0024086588652539832 0.0019015916554384271 -0.0061448040864956971 -0.0032936852276891485 0.00011269488316360845 -9.2261111167022246e-05 0.00020741522303304645 -0.0025241936206508728 -8.7958309871659935e-05 0.001876382507944072 0.0012224249251933845 -4.0360163307116229e-05 0.0063555800334142987 -0.0034562779081170445 8.6003857100536144e-05 -0.0053030942354234866 -0.0039844039268285524 -0.00035211851230949252 0.0040361758018944184 -0.0039746926246961162 0.0062420313599748463 -0.00093994459807618109 -0.00092124657033221605 0.0046487925171277309 -0.0020121243953730703 -0.00018260225153628016 -1.2504833253933135e-05 -0.00013933245323190065 -0.0013735581914079377 0.0048219450912299735
leaf_weight=14837 20 22 20 23 106 2020 167 22 41 20 36 3744 26 20 26 20 23 228 29 27 23 24 31 32 27 246 191 164 20 63
leaf_count=14837 20 22 20 23 106 2020 167 22 41 20 36 3744 26 20 26 20 23 228 29 27 23 24 31 32 27 246 191 164 20 63
internal_value=0 -3.35541e-05 -3.92771e-05 -0.000751559 -0.00028752 -2.47188e-05 -0.000406921 -0.00140298 -0.000260372 0.000556088 -1.00187e-05 4.43807e-05 0.00170886 -0.00044854 -0.000140461 -0.00225708 1.6366e-05 -0.000684957 5.446e-05 0.000459257 0.000336933 0.00257464 0.000205632 0.00190798 6.03092e-05 -0.000557644 0.000423108 0.000573225 0.000999719 0.00332905
internal_weight=0 7461 7439 149 126 7290 270 103 83 61 7020 4954 82 56 2066 46 4872 251 4621 877 848 47 801 63 738 273 465 438 274 83
internal_count=22298 7461 7439 149 126 7290 270 103 83 61 7020 4954 82 56 2066 46 4872 251 4621 877 848 47 801 63 738 273 465 438 274 83
shrinkage=0.075


Tree=108
num_leaves=31
num_cat=0
split_feature=5 21 5 27 1 14 1 23 16 14 3 30 1 23 18 22 25 7 25 5 4 1 14 5 1 27 27 0 27 25
split_gain=0.00196506 0.0183759 0.0267864 0.0167646 0.00668779 0.0152709 0.00528019 0.067612 0.00915927 0.00592348 0.00444773 0.0079292 0.00415014 0.014868 0.00980707 0.00442428 0.00720864 0.0240455 0.00723747 0.0763631 0.0098265 0.00841829 0.00416314 0.0181333 0.0282729 0.0045548 0.0141796 0.0083301 0.0116392 0.00412158
threshold=0.00046802100000000005 3.3321900000000002 0.0011695650000000002 1.9324940000000004 -18.343149999999998 -13.588999999999999 -18.098299999999998 -0.017009449999999999 0.16788850000000002 -15.268449999999998 0.00074174000000000017 -0.91107500000000019 -17.461949999999998 -0.014731999999999997 0.0028365400000000007 7.280380000000001 -1.7284199999999998 0.0017815250000000002 -0.61949549999999987 0.00011386800000000001 -5.322079999999999e-05 -10.645549999999998 -18.913299999999996 0.00028696050000000007 -15.516849999999998 -0.56065814999999997 0.40341550000000004 -5.1124149999999995 -0.010314999999999961 0.0017297800000000002
decision_type=2 2 2 2 2 2 2 2 2 2 2 2 2 2 2 2 2 2 2 2 2 2 2 2 2 2 2 2 2 2
left_child=6 4 3 -3 5 -2 7 -1 -9 -10 -6 -12 13 -8 29 16 17 -14 19 20 -18 -22 23 24 -20 -26 27 -27 -29 -15
right_child=1 2 -4 -5 10 -7 12 8 9 -11 11 -13 15 14 -16 -17 18 -19 22 -21 21 -23 -24 -25 25 26 -28 28 -30 -31
leaf_value=0.0043179923282216561 -0.0024827725359182293 -0.0039838375419744155 0.00034637199526460949 -0.0009870029037951358 4.0339820333991086e-05 -0.00010402959530135074 -0.0022352574401468569 0.001478560467353418 -0.0013659551793270195 -5.8523365141968896e-05 0.00013667164853864555 -0.0018336083482699903 0.0001790775429577075 -0.0001562896227121592 0.0014416742649336811 0.000915279607870616 0.0011500798826870908 -0.0026342807016335426 -0.0024744997630008468 0.0048444034758358618 -0.0016659761635310132 -8.3227900538761611e-05 8.5214503572339072e-06 0.0020255413049744672 8.8981248592051547e-05 -0.00039109813286896414 7.4048556799687557e-06 -0.00078821270905721642 -0.0031947886682746683 -0.0013046192138322762
leaf_weight=22 20 21 34 21 1361 63 21 20 22 171 27 20 54 108 20 30 28 25 31 20 24 89 19468 20 250 44 197 26 20 21
leaf_count=22 20 21 34 21 1361 63 21 20 22 171 27 20 54 108 20 30 28 25 31 20 24 89 19468 20 250 44 197 26 20 21
internal_value=0 -8.09827e-05 -0.00121857 -0.00248542 -2.29972e-05 -0.000677221 6.12126e-06 0.000359611 -4.92362e-05 -0.000207557 1.55685e-05 -0.000701745 2.06827e-06 -0.00036696 -0.000103643 5.1547e-06 3.80943e-06 -0.000711226 6.6035e-06 0.000507451 -0.00010772 -0.000419387 2.58294e-06 -0.000194034 -0.000272188 -0.000145053 -0.000348916 -0.00112886 -0.00183455 -0.000343227
internal_weight=0 1567 76 42 1491 83 20731 235 213 193 1408 47 20496 170 149 20326 20296 79 20217 161 141 113 20056 588 568 537 287 90 46 129
internal_count=22298 1567 76 42 1491 83 20731 235 213 193 1408 47 20496 170 149 20326 20296 79 20217 161 141 113 20056 588 568 537 287 90 46 129
shrinkage=0.075


Tree=109
num_leaves=31
num_cat=0
split_feature=19 12 27 4 4 10 11 8 4 23 9 15 22 4 4 8 3 14 5 1 30 0 23 24 20 11 24 12 1 14
split_gain=0.00196021 0.0137192 0.0257975 0.0173527 0.0201724 0.00864997 0.0472769 0.0148654 0.0250258 0.0108161 0.00932544 0.0082635 0.0104629 0.00794745 0.00596167 0.00594929 0.00521498 0.00332885 0.0686986 0.00495239 0.0264476 0.0232382 0.0245842 0.0161623 0.0195382 0.0818462 0.017414 0.0173635 0.0157002 0.00885722
threshold=2.3225550000000008 0.060070950000000005 0.62059100000000023 -0.00033642599999999997 -0.00020305499999999997 3.900935000000001e-06 0.00010149750000000002 -8.4777549999999989e-08 -2.8359349999999998e-05 -1.64184 5.2367750000000012e-06 1.3124250000000002 -0.27367349999999996 -4.8309049999999991e-05 -1.0629249999999998e-05 -1.7147549999999997e-06 8.447635000000001e-06 -21.761999999999997 0.00016235300000000004 -15.357599999999998 -1.1482849999999998 3.6654200000000006 -0.0087176949999999993 -2.0670249999999995e-06 -3.4138749999999996e-05 0.0011105700000000002 1.7309350000000004e-06 7.3869550000000019e-05 -16.800649999999994 -17.037399999999995
decision_type=2 2 2 2 2 2 2 2 2 2 2 2 2 2 2 2 2 2 2 2 2 2 2 2 2 2 2 2 2 2
left_child=17 3 -3 -2 -5 6 7 8 -6 -7 13 12 -11 -9 -10 -14 -15 18 -1 20 21 22 -19 28 25 26 27 -25 -22 -26
right_child=1 2 -4 4 5 9 -8 10 14 11 -12 -13 15 16 -16 -17 -18 19 -20 -21 23 -23 -24 24 29 -27 -28 -29 -30 -31
leaf_value=-0.00036708139093428137 -0.002136333351954818 0.0028269385871681151 -0.00082022924074408364 0.0018847360064683017 -0.0032816603487026441 -0.0021466290440002923 0.0032707252514386628 0.0014835269534960388 -0.0013653716009655672 0.0013829112533130683 -0.0012279474103187179 -0.0017648049288916147 -0.0012523616057650714 -0.001079370603110874 -0.00018782658728014212 -6.1020287268127921e-05 0.00017830579312965925 0.0015308370336424557 0.0044217555713112226 1.2823254259662748e-05 -0.00032100728819841603 -0.0035407988508398243 -0.0015551785913962618 0.0023767955859693756 -0.001396393787009791 0.0046283679663317277 -0.0014765572720872504 -0.00074841644112893851 -0.0029997186074615457 -5.0127272230281682e-05
leaf_weight=107 25 24 20 27 20 24 23 25 31 20 28 22 37 20 110 65 255 20 20 19614 32 21 53 20 28 26 35 20 20 1506
leaf_count=107 25 24 20 27 20 24 23 25 31 20 28 22 37 20 110 65 255 20 20 19614 32 21 53 20 28 26 35 20 20 1506
internal_value=0 -0.000117109 0.00116914 -0.000194424 -0.000125757 -0.000205585 -5.23589e-05 -0.000208659 -0.000798886 -0.000672561 8.10555e-05 -0.000426883 -0.000185619 0.000203229 -0.000446719 -0.000493174 8.68384e-05 4.2225e-06 0.000387066 1.94995e-06 -0.000117797 -0.00134218 -0.000709695 -4.95742e-05 -8.17434e-06 0.00100223 -0.000254826 0.00081419 -0.00135128 -7.47006e-05
internal_weight=0 776 44 732 707 680 512 489 161 168 328 144 122 300 141 102 275 21522 127 21395 1781 94 73 1687 1635 101 75 40 52 1534
internal_count=22298 776 44 732 707 680 512 489 161 168 328 144 122 300 141 102 275 21522 127 21395 1781 94 73 1687 1635 101 75 40 52 1534
shrinkage=0.075


Tree=110
num_leaves=31
num_cat=0
split_feature=29 11 3 16 8 22 12 30 22 29 28 18 26 21 17 30 28 4 30 22 29 28 25 8 0 30 1 10 24 1
split_gain=0.00195874 0.022358 0.00280577 0.00794981 0.00210417 0.0286372 0.0215498 0.0568716 0.019319 0.0243395 0.201414 0.352454 0.0712658 0.0852485 0.0605289 0.0574208 0.0805476 0.101146 0.0345603 0.0334522 0.0170002 0.0611087 0.111503 0.0638526 0.0658881 0.0892965 0.14392 0.103564 0.075602 0.1192
threshold=5.609935000000001 1.4543450000000002e-05 6.5747000000000008e-06 1.0892050000000002 -1.6631499999999996e-08 0.00012364200000000003 6.9988150000000003e-10 -0.19308000000000011 -0.00012832599999999998 -0.16857014999999984 -0.042715000000000163 0.0051459650000000015 0.00049969450000000013 0.030488000000000005 0.0055089550000000011 -2.5656249999999998 0.027765000000000154 2.4190900000000002e-05 0.3063650000000005 0.0012277250000000003 0.40341550000000004 0.29617700000000008 0.17509350000000004 -2.1680949999999998e-05 8.4970150000000029 3.2301850000000001 -14.552149999999997 -2.6685549999999992e-07 2.6455400000000002e-06 -13.123699999999998
decision_type=2 2 2 2 2 2 2 2 2 2 2 2 2 2 2 2 2 2 2 2 2 2 2 2 2 2 2 2 2 2
left_child=2 -2 3 -1 5 20 7 -7 -6 -10 -11 12 13 14 -12 -15 18 -18 19 -17 21 22 23 -4 25 26 -25 -28 29 -29
right_child=1 -3 4 -5 8 6 -8 -9 9 10 11 -13 -14 15 -16 16 17 -19 -20 -21 -22 -23 -24 24 -26 -27 27 28 -30 -31
leaf_value=1.6034177852339951e-05 -0.00030844734746179631 0.0025540135510891556 -0.0005985486403740915 -0.0015880355898389097 -8.4775091055003707e-05 -0.00012880236458099519 -0.00013565240489389133 -0.0041889171408001861 -2.8296799575548212e-05 1.3443560233094913e-06 7.9021344305293614e-05 0.0090420751341084449 -0.0020340299481963363 -0.00015521279251515808 0.0040539541114412714 0.0033252367161266095 0.0092937091864769179 0.0022533146709478881 0.0048064291808987032 -5.8461468974460972e-05 -4.573116879176839e-05 -8.0145762178627936e-06 0.0058934044237147366 0.0064871642029505558 -0.00040029228569965779 -0.001456506281809717 0.0051288656665055771 -0.0037295791615296393 0.0053453660004639195 0.0011365731699621651
leaf_weight=63 66 20 193 24 5250 69 4722 27 3422 2568 211 34 37 32 24 27 24 22 20 42 2668 2050 23 33 155 56 37 31 21 327
leaf_count=63 66 20 193 24 5250 69 4722 27 3422 2568 211 34 37 32 24 27 24 22 20 42 2668 2050 23 33 155 56 37 31 21 327
internal_value=0 0.000357241 -1.38316e-06 -0.000426468 2.88359e-07 -2.42433e-05 -0.000158269 -0.00127071 2.20952e-05 0.000108908 0.000263302 0.00168552 0.00111576 0.00140567 0.000484972 0.00270126 0.00337834 0.00592656 0.00206129 0.00126559 9.11902e-05 0.000216038 0.000740363 0.000601419 0.000952318 0.00136748 0.00171969 0.0013415 0.000971755 0.000715202
internal_weight=0 86 22212 87 22125 10412 4818 96 11713 6463 3041 473 439 402 235 167 135 46 89 69 5594 2926 876 853 660 505 449 416 379 358
internal_count=22298 86 22212 87 22125 10412 4818 96 11713 6463 3041 473 439 402 235 167 135 46 89 69 5594 2926 876 853 660 505 449 416 379 358
shrinkage=0.075


Tree=111
num_leaves=31
num_cat=0
split_feature=23 9 12 19 30 9 22 30 1 19 14 27 9 30 6 1 16 31 19 0 24 23 30 27 18 4 1 5 30 10
split_gain=0.00207098 0.0245224 0.113983 0.141139 0.0242347 0.0180348 0.0493356 0.0173617 0.0381015 0.032289 0.0278095 0.0243018 0.0110388 0.0588674 0.0108571 0.0187044 0.0113881 0.0220445 0.0148805 0.0106996 0.0103933 0.00947213 0.0112129 0.0271206 0.00858394 0.00759293 0.0223501 0.00728252 0.00666444 0.00534204
threshold=0.035006350000000006 6.253110000000001e-06 0.00019692300000000003 -0.21109249999999999 -0.95834499999999945 2.6471750000000006e-05 -0.15237049999999999 -0.91107500000000019 -6.9734749999999996 -0.57589999999999986 -12.562849999999999 -0.05954919999999999 1.1012450000000001e-06 -2.9750549999999998 -1.6680899999999995e-05 -9.0435549999999996 5.7615600000000011 -1.0126149999999996 -0.52025399999999988 -3.0182099999999994 2.3973250000000004e-06 0.027526950000000005 0.047579999999999963 -0.16857014999999984 0.0036688950000000006 0.00026582000000000005 -13.459649999999998 -0.00019685299999999998 -1.2398499999999995 1.4988050000000001e-06
decision_type=2 2 2 2 2 2 2 2 2 2 2 2 2 2 2 2 2 2 2 2 2 2 2 2 2 2 2 2 2 2
left_child=21 7 3 -3 -5 6 -4 12 10 -10 11 -9 25 29 15 -12 19 27 -19 -16 -8 -1 -23 -24 -7 26 -2 -18 -28 -14
right_child=1 2 5 4 -6 24 20 8 9 -11 14 -13 13 -15 16 -17 17 18 -20 -21 -22 22 23 -25 -26 -27 28 -29 -30 -31
leaf_value=1.981829588406982e-06 -0.0025552847349899818 0.0065417519106163776 0.0039299959984158963 -0.0016246917192802356 0.001982578914688702 -0.0015767780089791972 0.00050423396994249609 -0.00035536838880104301 -0.0043809469752327107 -0.00042690713723589265 -2.4115052371131685e-05 -0.0035679202780556805 -0.001442967638327404 0.004298917558080575 0.001971191829543386 0.0025119997565135627 -0.0011197479228581199 -0.0029363256660872136 -0.00068297865149468306 -0.00015340191425821103 -0.0017343018070550898 6.6959522985026644e-05 -3.5017644298799649e-05 0.0030468745928687738 -0.00029894975277303609 0.001210312269085989 -1.4100834234482293e-05 3.8092716954506696e-05 -0.0011414112260647545 0.00022938541860639816
leaf_weight=20466 21 35 21 22 20 34 28 26 26 21 74 27 22 20 20 21 38 32 34 40 20 97 36 29 227 24 609 156 31 21
leaf_count=20466 21 35 21 22 20 34 28 26 26 21 74 27 22 20 20 21 38 32 34 40 20 97 36 29 227 24 609 156 31 21
internal_value=0 -8.03317e-05 0.000425946 0.00302428 9.30562e-05 -0.000180332 0.000898006 -0.000243479 -0.000578601 -0.00261425 -0.000374166 -0.00199195 -1.27466e-05 0.000937304 -0.000167558 0.0005365 -0.000376575 -0.000591506 -0.00177551 0.000554796 -0.000428489 6.50349e-06 0.00057774 0.00133998 -0.00046541 -0.000100124 -0.000147704 -0.000188701 -6.87049e-05 -0.000626237
internal_weight=0 1670 407 77 42 330 69 1263 515 47 468 53 748 63 415 95 320 260 66 60 48 20628 162 65 261 685 661 194 640 43
internal_count=22298 1670 407 77 42 330 69 1263 515 47 468 53 748 63 415 95 320 260 66 60 48 20628 162 65 261 685 661 194 640 43
shrinkage=0.075


Tree=112
num_leaves=31
num_cat=0
split_feature=17 6 6 4 9 0 9 19 10 17 27 30 2 26 13 16 18 9 25 2 2 9 4 10 16 9 9 2 16 27
split_gain=0.00199491 0.014766 0.0598556 0.0296398 0.0149509 0.0413437 0.0130257 0.00896778 0.0182765 0.0060446 0.00528229 0.00636614 0.00889767 0.00498919 0.00477075 0.00433128 0.00328909 0.00394237 0.0031202 0.0557605 0.179126 0.0198442 0.0195393 0.00672518 0.00519661 0.0202449 0.0144365 0.0391748 0.0203041 0.0139526
threshold=-0.28182749999999995 0.00014746150000000002 0.00027739750000000009 -0.00016453049999999995 -3.5223749999999995e-06 -5.8657299999999983 -1.7041999999999997e-06 -2.9163399999999995 6.6689250000000013e-07 -1.1051399999999998 -0.19251849999999998 -0.34990999999999989 0.031098800000000003 0.037960500000000008 -1.7404199999999996 112.04900000000002 0.048291950000000007 1.0000000180025095e-35 0.65126750000000011 -1.1568099999999999 -2.6909899999999998 -4.076039999999999e-05 -7.0012849999999985e-05 -8.8960199999999988e-09 10.392900000000003 -1.5647699999999998e-07 -6.7050499999999986e-06 -0.44923999999999992 30.438750000000002 -0.04055499999999989
decision_type=2 2 2 2 2 2 2 2 2 2 2 2 2 2 2 2 2 2 2 2 2 2 2 2 2 2 2 2 2 2
left_child=1 3 -3 -1 5 -5 -6 8 16 -4 14 -12 -13 -7 -9 18 -8 -18 24 20 -20 -21 -23 -24 -2 26 -26 -28 -29 -27
right_child=15 2 9 4 6 13 7 10 -10 -11 11 12 -14 -15 -16 -17 17 -19 19 21 -22 22 23 -25 25 29 27 28 -30 -31
leaf_value=-0.0030765964440693746 6.6278579449563921e-06 0.0035680611252183582 -0.0013412928339676001 -0.0039792494549016864 0.0015651467263523954 0.00067278412610064084 0.00076768474726122797 -0.0014623136552836514 -0.0022652588548953646 4.2500889451600544e-05 -2.63421904662664e-06 0.0018549219125998206 8.2817515752086523e-05 -0.00071639670799909674 6.5980117425270789e-05 0.0010802410657301412 0.00035157373885423034 -0.0010250262696063145 -0.0013020637082588238 0.0019910303699725773 0.0079911850424650762 -0.0026505848681803658 -0.001486034966988622 -5.4160860465919155e-05 -5.6556997939575612e-05 -0.00016741872794214817 -0.0041911891323161395 -0.00026901019865207496 -0.0022474904064831601 0.00071783174853408123
leaf_weight=21 20662 29 26 21 28 26 20 20 30 56 128 30 34 33 27 21 22 25 28 20 20 21 21 152 144 283 20 138 37 155
leaf_count=21 20662 29 26 21 28 26 20 20 30 56 128 30 34 33 27 21 22 25 28 20 20 21 21 152 144 283 20 138 37 155
internal_value=0 -0.000137762 0.000639461 -0.000323292 -0.000193069 -0.00112141 1.09628e-05 -0.000118553 -0.000726754 -0.000396263 0.000128291 0.000302741 0.000913491 -0.000104215 -0.000584358 3.65302e-06 -3.78707e-05 -0.00038066 2.6112e-06 0.000259867 0.00257012 -0.000258322 -0.000490214 -0.000227972 -5.32642e-07 -0.000190945 -0.000626102 -0.00104669 -0.000687317 0.000145855
internal_weight=0 576 111 465 444 80 364 336 97 82 239 192 64 59 47 21722 67 47 21701 262 48 214 194 173 21439 777 339 195 175 438
internal_count=22298 576 111 465 444 80 364 336 97 82 239 192 64 59 47 21722 67 47 21701 262 48 214 194 173 21439 777 339 195 175 438
shrinkage=0.075


Tree=113
num_leaves=31
num_cat=0
split_feature=23 9 17 28 12 30 22 24 20 12 1 23 30 4 17 13 15 26 21 28 20 9 22 23 1 4 28 6 28 28
split_gain=0.00203091 0.0147172 0.0282471 0.125113 0.0235332 0.0402262 0.057933 0.0778444 0.0166972 0.0114193 0.0113574 0.0521573 0.0157088 0.0366186 0.0371073 0.0191095 0.0187517 0.0113123 0.0207212 0.066737 0.0114459 0.0109578 0.0119172 0.0153367 0.0245771 0.0265723 0.0255343 0.0144034 0.0117038 0.0601881
threshold=0.00097055650000000008 5.3235000000000008e-07 0.39506000000000002 0.69713899999999995 1.6101600000000002e-06 -1.3482449999999997 0.00073627950000000012 -1.6257399999999998e-07 -0.00031771699999999997 1.2135250000000002e-10 -12.496549999999997 0.0010471600000000003 -0.026880000000000234 7.1760150000000015e-05 0.024038850000000004 -1.9318149999999998 0.19469250000000002 0.14670800000000003 3.7290900000000007 -0.25180000000000008 -0.00010740549999999999 7.836120000000002e-08 7.280380000000001 -0.04799504999999999 -12.592749999999997 2.9906950000000003e-05 0.22142650000000005 2.9467400000000005e-05 -0.620591 0.027765000000000154
decision_type=2 2 2 2 2 2 2 2 2 2 2 2 2 2 2 2 2 2 2 2 2 2 2 2 2 2 2 2 2 2
left_child=21 9 4 -4 5 -3 -7 -8 -6 -2 11 -11 13 14 15 -13 -15 18 20 -20 -10 28 23 24 25 26 -23 -27 -1 -30
right_child=1 2 3 -5 8 6 7 -9 17 10 -12 12 -14 16 -16 -17 -18 -19 19 -21 -22 22 -24 -25 -26 27 -28 -29 29 -31
leaf_value=-3.8334161937670693e-05 -0.0016502443862716771 -0.00010571761455638509 0.0065887032897080644 -0.00059144919033886161 -0.0015801088303969417 -4.6879525617831469e-05 0.00039297766700408166 0.0063546702691902671 0.0013379354805086526 -0.0036533792638203102 -4.4041144427139045e-05 -0.0027012011117431727 -8.6192775823797015e-05 -0.00049166263405078835 -0.0043364229283600828 -0.00034955423347742296 0.0026814083679164466 -0.0013278651200380408 -0.00099338271269516559 0.0047417557058257185 -1.2452464603412065e-05 -0.0045287499039659449 0.0017712588411814068 -3.0068762311100113e-05 -0.00018989644868058883 0.00075549860715721563 -0.00094767073366840897 -0.001552231032110285 0.00060932875894660849 4.9347101937025685e-06
leaf_weight=3411 27 113 20 43 37 42 22 28 36 26 3601 26 692 22 22 77 20 34 25 21 1833 24 20 6238 398 29 21 32 1192 4166
leaf_count=3411 27 113 20 43 37 42 22 28 36 26 3601 26 692 22 22 77 20 34 25 21 1833 24 20 6238 398 29 21 32 1192 4166
internal_value=0 -3.42906e-05 0.000122216 0.00168796 7.71942e-05 0.00084225 0.0020066 0.00373153 -1.77685e-06 -0.000112457 -0.000103202 -0.000343921 -0.000243751 -0.000896626 -0.00154039 -0.000943174 0.00101932 2.81864e-05 5.22625e-05 0.00162483 1.35582e-05 1.49407e-05 -5.67991e-05 -6.2222e-05 -0.000460182 -0.00147503 -0.00285758 -0.000455114 7.02612e-05 0.000139395
internal_weight=0 6767 2254 63 2191 205 92 50 1986 4513 4486 885 859 167 125 103 42 1949 1915 46 1869 15531 6762 6742 504 106 45 61 8769 5358
internal_count=22298 6767 2254 63 2191 205 92 50 1986 4513 4486 885 859 167 125 103 42 1949 1915 46 1869 15531 6762 6742 504 106 45 61 8769 5358
shrinkage=0.075


Tree=114
num_leaves=31
num_cat=0
split_feature=0 24 30 27 27 30 27 4 27 14 14 30 20 14 23 30 26 0 1 17 7 18 11 25 16 11 2 11 6 5
split_gain=0.00200576 0.0149006 0.0106731 0.0297838 0.158676 0.0210853 0.0239616 0.0200902 0.0235578 0.0120614 0.019629 0.0459616 0.0457646 0.0114093 0.00599859 0.00459636 0.00429624 0.0580216 0.0148312 0.00601393 0.00911653 0.00518515 0.00930949 0.00739616 0.00392557 0.015656 0.0715256 0.0229102 0.0263995 0.0156982
threshold=7.4820900000000004 0.0003225765000000001 0.15577500000000025 0.23026500000000019 -0.010314999999999961 0.047579999999999963 0.20152300000000004 1.9376000000000002e-05 -0.26963010000000004 -6.1089449999999994 -6.4865049999999984 1.0000000180025095e-35 -2.5789099999999994e-06 -6.5572499999999989 -0.66477099999999989 -0.13048499999999971 1.1653400000000003 3.8546250000000004 -13.382649999999998 2.4687050000000004 0.00046110750000000005 0.15259550000000002 -1.0896599999999998e-05 1.7944850000000001 10.392900000000003 -0.00059138199999999989 -1.5067699999999997 -0.00017865499999999998 4.1161000000000001e-05 -0.0013242299999999998
decision_type=2 2 2 2 2 2 2 2 2 2 2 2 2 2 2 2 2 2 2 2 2 2 2 2 2 2 2 2 2 2
left_child=16 2 5 4 7 9 -7 8 -4 10 11 13 -12 14 -2 -14 19 18 -18 21 -21 23 -23 24 -1 26 -26 28 -27 -29
right_child=1 -3 3 -5 -6 6 -8 -9 -10 -11 12 -13 15 -15 -16 -17 17 -19 -20 20 -22 22 -24 -25 25 27 -28 29 -30 -31
leaf_value=1.828904349257252e-05 -0.0009569317576901276 0.0019406849903524355 -5.0726945883730706e-06 -4.6548431418466905e-05 -0.0067279259350325445 0.0032276140980684433 2.3911197773674664e-05 0.0015411916648781696 -0.0029652987309236778 -0.001784140970397113 0.0041045214189450365 -0.0036430762050440532 -7.5155073011826194e-05 -0.0016632821190341927 -8.1609544478179364e-06 0.0011276005797753897 -0.0022396140679484234 0.0038080840351935675 0.00012885852433226256 0.00054080369431176224 -0.0014374555061845296 -0.0020059754653993876 -5.4455652306470178e-05 0.0010712602799144775 -0.00010165196413344655 -0.0031245661523257692 0.0042293635200185238 0.0019103500108758453 0.00034896302124252547 -0.00021710103884081593
leaf_weight=17396 38 21 62 406 25 24 29 30 20 22 21 20 70 24 2762 24 20 23 58 20 38 20 44 37 151 32 25 20 20 796
leaf_count=17396 38 21 62 406 25 24 29 30 20 22 21 20 70 24 2762 24 20 23 58 20 38 20 44 37 151 32 25 20 20 796
internal_value=0 -5.12812e-05 -6.29757e-05 -0.000369211 -0.00132542 -8.16832e-06 0.00147464 -0.000119507 -0.000727079 -3.45317e-05 -2.15234e-05 -6.03672e-05 0.0009391 -3.49939e-05 -2.10371e-05 0.000231931 9.86684e-06 0.000497697 -0.000478442 7.21772e-06 -0.000755297 9.60302e-06 -0.000664306 1.19373e-05 9.81174e-06 -0.000131444 0.000513549 -0.000262226 -0.00178859 -0.000164958
internal_weight=0 3598 3577 543 137 3034 53 112 82 2981 2959 2844 115 2824 2800 94 18700 101 78 18599 58 18541 64 18477 18440 1044 176 868 52 816
internal_count=22298 3598 3577 543 137 3034 53 112 82 2981 2959 2844 115 2824 2800 94 18700 101 78 18599 58 18541 64 18477 18440 1044 176 868 52 816
shrinkage=0.075


Tree=115
num_leaves=31
num_cat=0
split_feature=3 14 27 24 21 7 30 30 23 30 0 27 3 22 3 15 0 7 5 25 15 11 2 30 8 17 15 10 27 27
split_gain=0.0019509 0.0295877 0.01936 0.00814847 0.00974884 0.00922897 0.00620705 0.017059 0.0135312 0.0134776 0.0157012 0.0137665 0.01695 0.0142442 0.00595986 0.0291373 0.00474227 0.00462469 0.00474044 0.00488038 0.00310295 0.0370014 0.155963 0.0123619 0.0070499 0.0068538 0.00595325 0.0213596 0.038106 0.0944137
threshold=8.7946500000000006e-06 -20.381849999999996 5.3704750000000017 -2.3158699999999993e-06 3.7290900000000007 0.0017815250000000002 -0.41763500000000015 -0.57660999999999951 -0.037744799999999988 0.22790999999999964 3.1148900000000004 -0.079140000000000085 7.6070650000000005e-06 0.00023502500000000001 8.9255300000000016e-06 0.33275950000000004 6.055880000000001 0.0031714700000000005 -9.4144949999999984e-05 -0.027382149999999997 1.3124250000000002 0.00014633650000000004 3.0070750000000004 -0.26585000000000031 -1.0244349999999998e-05 -0.13629249999999996 1.0940150000000004 4.5801000000000013e-06 0.17470800000000006 -1.0177289999999999
decision_type=2 2 2 2 2 2 2 2 2 2 2 2 2 2 2 2 2 2 2 2 2 2 2 2 2 2 2 2 2 2
left_child=1 -1 3 5 6 -3 7 16 -8 10 11 -10 -13 -14 15 -2 17 18 -5 -20 26 23 -23 24 -22 -25 -16 28 29 -28
right_child=14 2 -4 4 -6 -7 8 -9 9 -11 -12 12 13 -15 20 -17 -18 -19 19 -21 21 22 -24 25 -26 -27 27 -29 -30 -31
leaf_value=0.002947106671635993 -7.4303459143650207e-05 -0.0001738399974885253 0.0022525480800223621 0.0010002517328237964 0.0012828809415805153 -0.0021642618830082934 0.0019714874757482902 -0.0022853973277960904 -0.00022565622966794761 -3.1661380989032322e-05 -0.00038300655317341026 0.0037573886092286553 -0.00021908321390872682 0.002511738335618117 -2.4182383993735111e-06 -0.0029280670662916708 0.00099996970198909757 -0.0012136501084858702 -0.0012688555617777248 -9.6592502054188966e-05 -0.0011724071825896813 0.0072746757681306914 -0.0010277313992160739 -0.0023358353826915847 0.00025637566038938167 -0.00043745954361562009 6.0583842787309544e-05 0.0010885543879911503 0.00048072227181500176 -0.0065082813147819248
leaf_weight=20 161 38 22 21 35 20 22 21 22 756 42 20 22 21 20138 23 21 22 21 410 22 20 35 20 166 23 32 35 47 20
leaf_count=20 161 38 22 21 35 20 22 21 22 756 42 20 22 21 20138 23 21 22 21 410 22 20 35 20 166 23 32 35 47 20
internal_value=0 8.09964e-05 4.36773e-05 1.15801e-05 4.63073e-05 -0.000860192 1.58498e-05 -0.00019174 0.00013421 8.84346e-05 0.000803336 0.00138953 0.00195356 0.00111457 -6.0761e-06 -0.000431024 -0.000102918 -0.00015178 -0.000100096 -0.00015371 -2.27269e-06 0.000243042 0.00199133 -0.000173216 8.91777e-05 -0.00132043 -5.73363e-06 -0.000503982 -0.001067 -0.0024659
internal_weight=0 1556 1536 1514 1456 58 1421 516 905 883 127 85 63 43 20742 184 495 474 452 431 20558 286 55 231 188 43 20272 134 99 52
internal_count=22298 1556 1536 1514 1456 58 1421 516 905 883 127 85 63 43 20742 184 495 474 452 431 20558 286 55 231 188 43 20272 134 99 52
shrinkage=0.075


Tree=116
num_leaves=31
num_cat=0
split_feature=0 23 30 1 27 30 27 14 14 30 11 14 23 30 5 26 1 27 1 17 12 11 30 28 8 18 25 9 7 30
split_gain=0.0016953 0.0126393 0.00895874 0.0265999 0.0403427 0.0180638 0.0205021 0.0103089 0.0169657 0.0391925 0.0362712 0.0138102 0.00978621 0.00725653 0.067412 0.00703818 0.00698684 0.0154593 0.00668863 0.00635764 0.00372664 0.0447398 0.160916 0.0255694 0.0103053 0.0608197 0.0135608 0.0399315 0.0133089 0.0286704
threshold=7.4820900000000004 2.0308350000000002 0.15577500000000025 -6.9490899999999991 0.45853315000000017 0.047579999999999963 0.20152300000000004 -6.1089449999999994 -6.5287499999999996 1.0000000180025095e-35 4.4890950000000005e-07 -6.6126999999999994 -0.0044316899999999994 -0.13048499999999971 7.932955000000001e-05 1.1653400000000003 -7.7516049999999987 0.12542999999999996 -6.1810349999999987 0.031703150000000006 7.3869550000000019e-05 0.00040480150000000005 1.9783350000000006 -4.7426049999999993 -8.7450849999999993e-06 0.0035462900000000001 -0.027382149999999997 -2.2813249999999993e-06 0.0021353350000000008 1.5039749999999998
decision_type=2 2 2 2 2 2 2 2 2 2 2 2 2 2 2 2 2 2 2 2 2 2 2 2 2 2 2 2 2 2
left_child=20 2 5 12 -5 7 -7 8 9 11 18 13 -4 15 -15 -2 19 -18 -10 -14 21 23 -23 -1 25 -25 27 -26 -29 -30
right_child=1 -3 3 4 -6 6 -8 -9 10 -11 -12 -13 16 14 -16 -17 17 -19 -20 -21 -22 22 -24 24 26 -27 -28 28 29 -31
leaf_value=0.0027102708566371799 6.6592769097087039e-06 0.0017053852871037594 -0.0014399867722204361 -0.0043908388991688047 -9.9047581211867251e-05 0.0029857243707056115 2.2299229094014973e-05 -0.0016501490143127739 0.0013369904379942454 -0.003368032772268634 0.0031014099157255261 -0.0018663836774699713 -1.0120849069998664e-06 0.001231966543406832 -0.0042037922497651639 -0.0013716936567756681 -0.002286052878882572 -0.00013862761617247087 -0.0001613066326621243 0.0013162696658334673 -1.6870573134067745e-05 0.0076368578625624645 -0.00020030667657725386 -5.8173435763109177e-05 -0.0032511018580407836 0.0044881633339537074 3.9444260491220801e-05 -4.4224156127952535e-05 -0.0031384412088682435 0.00053070280384576033
leaf_weight=20 2706 23 32 22 28 24 29 22 21 20 30 23 326 33 21 21 24 88 83 22 11685 20 56 96 26 20 6397 332 25 23
leaf_count=20 2706 23 32 22 28 24 29 22 21 20 30 23 326 33 21 21 24 88 83 22 11685 20 56 96 26 20 6397 332 25 23
internal_value=0 -4.71457e-05 -5.84208e-05 -0.000339277 -0.00198744 -8.23157e-06 0.00136423 -3.26411e-05 -2.06109e-05 -5.97372e-05 0.00080396 -3.61402e-05 -0.000171781 -2.10033e-05 -0.00088194 -3.9551e-06 -8.35576e-05 -0.00059879 0.000141234 8.22643e-05 9.07114e-06 5.22827e-05 0.00186211 3.24604e-05 2.472e-05 0.000725678 1.27677e-05 -0.000407552 -0.000212993 -0.00138031
internal_weight=0 3598 3575 542 50 3033 53 2980 2958 2824 134 2804 492 2781 54 2727 460 112 104 348 18700 7015 76 6939 6919 116 6803 406 380 48
internal_count=22298 3598 3575 542 50 3033 53 2980 2958 2824 134 2804 492 2781 54 2727 460 112 104 348 18700 7015 76 6939 6919 116 6803 406 380 48
shrinkage=0.075


Tree=117
num_leaves=31
num_cat=0
split_feature=24 18 19 4 0 31 1 5 7 1 2 22 30 1 14 2 12 30 21 27 27 7 10 0 27 27 27 25 30 27
split_gain=0.00202226 0.0122004 0.0231107 0.0627279 0.0114814 0.00656021 0.0323047 0.119869 0.0406532 0.0266234 0.0556442 0.0161281 0.0412278 0.0166392 0.0153545 0.0295314 0.0147425 0.0184263 0.0391072 0.0782638 0.319055 0.0446505 0.0434582 0.0432102 0.0570605 0.105405 0.0821449 0.0393021 0.0635854 0.0373441
threshold=4.4179850000000008e-08 9.1374250000000014e-05 -0.015800449999999997 9.4804100000000006e-06 15.501500000000002 -0.19434999999999999 -15.973449999999998 0.00017548700000000002 0.0077775900000000009 -7.1756149999999996 0.12498900000000002 0.2654895000000001 -0.70261499999999966 -12.428249999999998 -14.596499999999999 1.7476950000000002 1.2135250000000002e-10 -1.3849050000000001 0.5512450000000001 0.40341550000000004 0.0035900000000002046 0.00046110750000000005 6.3586850000000011e-08 -7.0360199999999988 0.12542999999999996 -0.2956995 -0.04055499999999989 -0.0006637469999999999 -0.30494999999999978 -1.3962239999999997
decision_type=2 2 2 2 2 2 2 2 2 2 2 2 2 2 2 2 2 2 2 2 2 2 2 2 2 2 2 2 2 2
left_child=-1 2 -2 -4 5 9 7 8 -7 14 -11 16 13 -13 15 -3 -8 -18 22 20 21 -20 27 -24 25 -25 -27 28 -19 -23
right_child=1 4 3 -5 -6 6 11 -9 -10 10 -12 12 -14 -15 -16 -17 17 18 19 -21 -22 29 23 24 -26 26 -28 -29 -30 -31
leaf_value=1.6016687909140632e-05 0.00010167165458311544 -0.00033242186218558341 0.00016164510855703969 -0.004619182328066857 0.0016926594221414149 -0.0018608149306505526 -0.0020029822479409633 0.0057151019436647533 0.0022509943194953456 0.0002366978191777638 -0.0049055780115304509 -0.0023236030213593037 -0.0033522378480686003 -6.0582337084979433e-05 -4.9478478186305429e-05 -0.0035901609997381454 -3.3386496614851823e-05 -0.00082833850279999551 -0.0018196487847222562 -0.00091015662478639565 0.00980994655647709 -0.00023950931006311293 -0.0010697501126439115 1.2659685246564519e-05 -0.00020209922468215368 0.0071704778030676685 0.0021900410926217755 -6.2558104580014455e-05 -0.0057434462595443844 0.0040912422193546908
leaf_weight=14837 86 72 38 26 22 38 20 26 21 29 20 20 27 212 1982 20 3895 57 34 54 26 24 81 122 177 23 98 170 20 21
leaf_count=14837 86 72 38 26 22 38 20 26 21 29 20 20 27 212 1982 20 3895 57 34 54 26 24 81 122 177 23 98 170 20 21
internal_value=0 -3.18509e-05 -0.000701416 -0.00178057 -1.81134e-05 -2.32769e-05 2.23356e-05 0.00147238 -0.00039729 -0.000134268 -0.00186219 -1.92225e-06 -0.000578479 -0.00025567 -9.34445e-05 -0.00104063 2.90458e-05 3.75091e-05 0.000341961 0.00141013 0.00260341 0.000231643 0.000114905 0.000516304 0.000822186 0.00156827 0.00313674 -0.000699268 -0.00210499 0.00178151
internal_weight=0 7461 150 64 7311 7289 5166 85 59 2123 49 5081 259 232 2074 92 4822 4802 907 159 105 79 748 501 420 243 121 247 77 45
internal_count=22298 7461 150 64 7311 7289 5166 85 59 2123 49 5081 259 232 2074 92 4822 4802 907 159 105 79 748 501 420 243 121 247 77 45
shrinkage=0.075


Tree=118
num_leaves=31
num_cat=0
split_feature=24 18 7 30 0 30 15 2 30 31 7 27 17 6 5 0 23 12 0 22 27 12 14 9 11 22 14 6 8 20
split_gain=0.0017303 0.010439 0.0216034 0.0748485 0.00982375 0.00599907 0.0261513 0.102572 0.172919 0.0241337 0.0476524 0.0375139 0.0818891 0.0552064 0.0448942 0.0243789 0.0692924 0.035628 0.0217589 0.0193854 0.0251328 0.0153712 0.0144272 0.0118726 0.0174231 0.0221653 0.012126 0.0109909 0.00994027 0.0288439
threshold=4.4179850000000008e-08 9.1374250000000014e-05 0.00051310850000000003 -0.098425000000000637 15.501500000000002 -0.19308000000000011 0.56467250000000002 0.4097745000000001 1.9244049999999995 -0.30494999999999978 0.00024458150000000007 -0.10000499999999989 0.0030982900000000005 8.6169150000000015e-06 -4.8899349999999998e-05 8.4970150000000029 -0.00024536199999999995 9.3125000000000032e-09 10.478950000000003 0.0052390250000000005 0.27611750000000007 8.7002200000000018e-10 -6.0275749999999988 9.8111250000000026e-07 -2.2103499999999999e-05 -0.00019491749999999997 -10.692349999999998 -7.1823399999999992e-06 -5.1623949999999985e-07 -4.6579499999999992e-06
decision_type=2 2 2 2 2 2 2 2 2 2 2 2 2 2 2 2 2 2 2 2 2 2 2 2 2 2 2 2 2 2
left_child=5 2 3 -2 -3 22 9 -8 -9 18 11 -11 14 27 -13 17 -17 -12 -7 23 -21 -16 -1 28 26 -26 -25 -14 29 -19
right_child=1 4 -4 -5 -6 6 7 8 -10 10 15 12 13 -15 21 16 -18 19 -20 20 -22 -23 -24 24 25 -27 -28 -29 -30 -31
leaf_value=-2.5466323718736468e-05 0.00020051116932170936 -2.1531175029384305e-05 0.00017083189879053305 -0.0050063431874150409 0.0015657099916345694 -5.470785167056577e-06 -0.00031228366809207337 0.0092188884857750952 0.00032905030880101547 -0.00017927100849694148 0.0028646684202540199 0.0033286062878901514 0.00094584269167431289 0.0067350327396960225 0.0023300970243456372 -0.0048482564656627467 0.00041585822167200184 0.0033091723639581292 -0.0021799180466377248 -0.0033337346994482104 0.00021205271998200179 0.00019660888727049958 -0.0019939531421966552 0.0019473740682769856 -0.0028538374879833006 -0.00022766168870305136 -0.00014334523417461933 0.0034025029177428222 1.1219629403483614e-05 0.0003662795343418543
leaf_weight=7727 44 7289 82 24 22 5892 107 20 32 116 25 34 21 23 21 22 39 23 26 22 23 199 21 20 29 48 71 20 155 101
leaf_count=7727 44 7289 82 24 22 5892 107 20 32 116 25 34 21 23 21 22 39 23 26 22 23 199 21 20 29 48 71 20 155 101
internal_value=0 -2.94621e-05 -0.00064881 -0.0016372 -1.67549e-05 1.48154e-05 6.46731e-05 0.00101568 0.00374822 4.28535e-05 0.000381311 0.000975237 0.00139638 0.00379404 0.000792243 -6.46475e-05 -0.00148267 0.000102663 -1.50239e-05 -3.76825e-05 -0.00152144 0.00040026 -3.08017e-05 0.000111689 -0.000386423 -0.00121674 0.000316154 0.00214421 0.000411628 0.000912139
internal_weight=0 7461 150 68 7311 14837 7089 159 52 6930 1012 434 318 64 254 578 61 517 5918 492 45 220 7748 447 168 77 91 41 279 124
internal_count=22298 7461 150 68 7311 14837 7089 159 52 6930 1012 434 318 64 254 578 61 517 5918 492 45 220 7748 447 168 77 91 41 279 124
shrinkage=0.075


Tree=119
num_leaves=31
num_cat=0
split_feature=10 25 1 10 26 21 10 30 1 27 27 27 27 20 10 19 17 25 5 8 4 20 30 27 27 30 1 11 15 16
split_gain=0.00159321 0.0121184 0.0999308 0.0253008 0.0173942 0.0239244 0.136911 0.0243565 0.021335 0.0113411 0.039075 0.0128351 0.0111332 0.00819663 0.0630912 0.0130193 0.00961753 0.0205991 0.0149961 0.0144245 0.00812037 0.00606283 0.0334264 0.0446853 0.094604 0.043062 0.0100231 0.00725514 0.00782606 0.00701234
threshold=1.8854650000000003e-06 -0.9832439999999999 -12.592749999999997 7.9232000000000023e-06 0.037960500000000008 2.9290800000000004 3.7395500000000005e-06 -2.0937499999999996 -13.799749999999998 0.32495100000000005 -0.2956995 0.88469665500000017 5.609935000000001 -0.00010740549999999999 6.5935600000000004e-06 -2.9163399999999995 0.076619750000000014 -0.059227749999999989 0.00016235300000000004 -7.8216199999999978e-06 -7.8269699999999987e-05 -7.3812049999999981e-05 -0.8282000000000006 -0.34938649999999993 0.25180000000000019 -1.5437499999999995 -14.006349999999999 5.9318100000000012e-06 0.87209600000000009 29.822400000000005
decision_type=2 2 2 2 2 2 2 2 2 2 2 2 2 2 2 2 2 2 2 2 2 2 2 2 2 2 2 2 2 2
left_child=12 2 -2 -4 5 13 -7 8 -8 10 -6 -11 21 14 -3 -15 17 -17 -18 -20 -13 22 25 -24 -25 26 -1 -28 -29 -23
right_child=1 4 3 -5 9 6 7 -9 -10 11 -12 20 -14 15 -16 16 18 -19 19 -21 -22 29 23 24 -26 -27 27 28 -30 -31
leaf_value=0.0015578547940822318 0.0051684661625503473 0.0037170726235542266 0.00085984748293412851 -0.0027408024148114591 -0.00033412984608013413 0.0063023822982452892 -0.0026494953125074969 0.0024104819170315747 7.0049417457952111e-05 0.0014840858172233723 -0.0037325798877505941 -0.001789403750180182 0.0013840089991902004 -0.0014331173773721926 -0.00047053531516336975 0.0022739887299315382 -5.9946101924580082e-05 2.5286074429313805e-05 9.6469291851722776e-05 -0.002341594823575668 -0.00014564416234596182 -1.3256503832088395e-05 5.3051201123735427e-05 -0.0054737928717672321 -0.0005300599410702489 0.002738100513579411 -5.9241814663801388e-05 -8.9738893958773205e-05 -0.0018793276260516399 0.00034014352926217955
leaf_weight=20 22 28 21 23 71 23 20 20 86 22 26 22 32 35 73 23 133 6149 21 39 73 14226 99 33 64 32 484 28 27 323
leaf_count=20 22 28 21 23 71 23 20 20 86 22 26 22 32 35 73 23 133 6149 21 39 73 14226 99 33 64 32 484 28 27 323
internal_value=0 2.98543e-05 0.00104128 -0.00102231 2.01291e-05 4.15467e-05 0.0009812 9.87287e-06 -0.000443072 -0.000645417 -0.00124505 -0.000148282 -1.34624e-05 2.00102e-05 0.000690386 9.43086e-06 1.73632e-05 3.36659e-05 -0.000503985 -0.00148827 -0.000526304 -1.63784e-05 -0.000219134 -0.00106789 -0.00221195 6.23498e-05 -9.08238e-05 -0.000151999 -0.000968264 -5.41073e-06
internal_weight=0 6930 66 44 6864 6650 149 126 106 214 97 117 15368 6501 101 6400 6365 6172 193 60 95 15336 787 196 97 591 559 539 55 14549
internal_count=22298 6930 66 44 6864 6650 149 126 106 214 97 117 15368 6501 101 6400 6365 6172 193 60 95 15336 787 196 97 591 559 539 55 14549
shrinkage=0.075


Tree=120
num_leaves=31
num_cat=0
split_feature=23 9 17 28 12 30 22 6 21 0 25 18 16 12 28 28 30 23 16 28 14 28 28 2 19 30 16 16 23 3
split_gain=0.00157563 0.0114559 0.0228984 0.103146 0.0188076 0.0318751 0.0463916 0.0720163 0.0134151 0.0116927 0.0256866 0.0145718 0.0116254 0.0345465 0.0995093 0.206973 0.0100623 0.0241339 0.0299298 0.0659395 0.0355444 0.0162064 0.109623 0.0882311 0.127654 0.11547 0.0688767 0.046665 0.0600063 0.0333953
threshold=0.00097055650000000008 5.3235000000000008e-07 0.39506000000000002 0.69713899999999995 1.6101600000000002e-06 -1.3482449999999997 0.00073627950000000012 1.9891950000000005e-05 17.397300000000005 8.7655650000000023 -0.0068598999999999995 0.00038111650000000004 8.9907700000000013 0.00066906450000000009 0.61245024999999997 -0.25180000000000008 -2.2422150000000003 0.0010471600000000003 0.27741150000000009 0.06004899999999997 -16.840049999999994 -0.23026500000000014 0.19330534500000005 0.024027600000000007 -0.056848499999999989 0.15577500000000025 6.2147800000000011 2.4376850000000005 0.004572650000000001 1.18818e-05
decision_type=2 2 2 2 2 2 2 2 2 2 2 2 2 2 2 2 2 2 2 2 2 2 2 2 2 2 2 2 2 2
left_child=-1 16 4 -4 5 -3 -7 -8 9 12 -11 -12 -6 14 15 -14 -2 -18 19 -19 -20 -22 23 24 25 -23 27 28 -25 -26
right_child=1 2 3 -5 8 6 7 -9 -10 10 11 -13 13 -15 -16 -17 17 18 20 -21 21 22 -24 26 29 -27 -28 -29 -30 -31
leaf_value=1.3159929697867284e-05 1.8499397810441229e-05 -9.2564345072586326e-05 0.0059673614858184012 -0.00055203700605150436 -7.4269342676220871e-06 -4.983206285292649e-05 0.0068174027200439014 0.0010072685220802668 -0.0018888149526901544 -0.0031451091674534835 -0.0020463758368759952 0.00019633260882094623 -0.00079779720999715665 -0.00013419567888558958 -0.0011359162246279944 0.0089530092089262318 -0.0020806186102498413 0.0046847797513526693 -0.0032846864704749483 -0.00099976805175856494 2.4124906690076072e-05 -0.010816574511991349 -1.994310120488438e-05 0.0011532404477132812 -0.003338212432572618 -0.0028538071725051849 -0.0038747474885894913 0.0035718255629763008 -0.002951231849411587 0.00029583949574523354
leaf_weight=15531 2145 113 20 43 1600 42 20 30 21 20 20 88 25 150 38 24 38 22 21 24 1086 20 946 51 25 21 28 20 33 33
leaf_count=15531 2145 113 20 43 1600 42 20 30 21 20 20 88 25 150 38 24 38 22 21 24 1086 20 946 51 25 21 28 20 33 33
internal_value=0 -3.02035e-05 0.000107877 0.00151761 6.73418e-05 0.000751285 0.00178775 0.00333132 -3.25655e-06 1.68945e-05 -0.000676191 -0.000218984 6.51878e-05 0.000555414 0.0017444 0.00397811 -9.91674e-05 -0.000205753 -0.000175176 0.00171893 -0.000213323 -0.000184822 -0.000377614 -0.00184236 -0.00353489 -0.00673808 -0.000572968 0.000315972 -0.000459231 -0.00127056
internal_weight=0 6767 2254 63 2191 205 92 50 1986 1965 128 108 1837 237 87 49 4513 2368 2330 46 2284 2263 1177 231 99 41 132 104 84 58
internal_count=22298 6767 2254 63 2191 205 92 50 1986 1965 128 108 1837 237 87 49 4513 2368 2330 46 2284 2263 1177 231 99 41 132 104 84 58
shrinkage=0.075


Tree=121
num_leaves=31
num_cat=0
split_feature=23 9 9 0 27 27 8 27 27 18 27 27 27 18 8 10 10 23 30 30 22 11 23 30 0 25 0 3 0 19
split_gain=0.00169883 0.0156214 0.0711618 0.107079 0.0432659 0.134348 0.0186685 0.012398 0.156782 0.104676 0.0183423 0.0489327 0.0158062 0.00881892 0.010874 0.00724572 0.0140197 0.00713969 0.0100419 0.0243254 0.00679494 0.00664517 0.00475992 0.00443473 0.00391672 0.00366811 0.00333865 0.00329954 0.0231173 0.00303465
threshold=0.035006350000000006 6.253110000000001e-06 3.0959200000000007e-05 4.4928500000000016 -0.53096500000000002 0.20152300000000004 2.1638150000000001e-06 0.20152300000000004 -0.027369999999999946 0.0082347650000000015 -0.12087000000000013 -0.22108000000000014 0.3752950000000001 0.0033271750000000004 6.3537700000000009e-07 2.1323300000000003e-05 -1.7191499999999997e-06 0.027526950000000005 0.11716499999999998 3.3154500000000007 -0.023074749999999998 -0.00032824949999999997 0.17497150000000003 -1.3482449999999997 4.2683000000000009 -0.61949549999999987 15.501500000000002 6.5747000000000008e-06 1.0000000180025095e-35 -1.5261949999999997
decision_type=2 2 2 2 2 2 2 2 2 2 2 2 2 2 2 2 2 2 2 2 2 2 2 2 2 2 2 2 2 2
left_child=17 7 3 4 22 -6 -7 8 10 -10 11 23 -9 -4 15 16 -15 26 -19 -20 21 -16 -3 -2 -17 -14 27 28 -1 -29
right_child=1 2 13 -5 5 6 -8 12 9 -11 -12 -13 25 14 20 24 -18 18 19 -21 -22 -23 -24 -25 -26 -27 -28 29 -30 -31
leaf_value=-0.00030093369620364435 0.00015376183146557215 -0.00039266604658873153 -0.0018510707000262169 0.0056008143314102195 0.0067443426099738904 -0.0021943236152375382 0.0010073966008008028 0.0017123073722905245 -0.0012462144046777768 -0.0076990966123188492 0.0015732274691496663 -0.003815601780224824 -0.00084618216271572285 -0.00058975307476430319 0.0019982930363039485 0.00059485831303530945 -0.0029085632379565142 3.6882654822875336e-05 0.0029431591641292062 -5.3046428272084863e-05 -0.00018803024456428828 0.00019458401560162506 -0.001954423978357859 -0.00028961645645035188 -0.00070696213008257188 -8.4570930523030155e-06 -0.00057634121590776233 0.00018339907407250521 0.0025543490879499585 -2.9603863780300235e-06
leaf_weight=58 298 21 21 31 21 21 20 30 31 26 36 20 31 55 20 26 20 100 27 35 75 27 23 221 26 570 56 504 22 19826
leaf_count=58 298 21 21 31 21 21 20 30 31 26 36 20 31 55 20 26 20 100 27 35 75 27 23 221 26 570 56 504 22 19826
internal_value=0 -7.27568e-05 0.000331323 0.00172355 0.000589628 0.0018661 -0.000632509 -0.000202971 -0.000437768 -0.00418963 -6.58436e-05 -0.000175318 3.21981e-05 -0.000375102 -0.000250623 -0.000736397 -0.0012081 5.89024e-06 0.000501833 0.00125175 0.00025506 0.00096212 -0.00120904 -3.5037e-05 -5.60519e-05 -5.16675e-05 1.96457e-06 3.5513e-06 0.000484269 1.65964e-06
internal_weight=0 1670 407 137 106 62 41 1263 632 57 575 539 631 270 249 127 75 20628 162 62 122 47 44 519 52 601 20466 20410 80 20330
internal_count=22298 1670 407 137 106 62 41 1263 632 57 575 539 631 270 249 127 75 20628 162 62 122 47 44 519 52 601 20466 20410 80 20330
shrinkage=0.075


Tree=122
num_leaves=31
num_cat=0
split_feature=19 12 3 4 4 21 12 30 1 1 4 30 2 8 4 18 7 23 9 18 7 8 4 16 4 27 27 16 19 11
split_gain=0.00147988 0.018431 0.0310552 0.017518 0.0158678 0.0118857 0.0106407 0.00921195 0.00864711 0.00775016 0.00768159 0.0229188 0.0156484 0.0189943 0.00771002 0.00344636 0.0399506 0.0636091 0.0404643 0.0763089 0.0469333 0.0247639 0.0131134 0.0104795 0.00508236 0.00430085 0.00655873 0.00318939 0.0093848 0.0089611
threshold=2.1236900000000003 0.060070950000000005 1.7868750000000001e-05 -0.00025267649999999997 -0.0001846195 3.1166000000000005 2.3674700000000003e-09 -3.5455849999999991 -15.632649999999998 -14.552149999999997 -2.8359349999999998e-05 -0.34990999999999989 0.066313750000000019 -7.8216199999999978e-06 -5.322079999999999e-05 0.048291950000000007 0.036956850000000006 0.41746250000000007 1.5302250000000004e-05 0.13711200000000004 0.0025623800000000004 -9.9066499999999977e-07 5.3219250000000004e-05 47.599950000000007 1.5229050000000001e-05 -0.39737499999999987 0.79065750000000012 10.392900000000003 -3.5056549999999995 0.00010149750000000002
decision_type=2 2 2 2 2 2 2 2 2 2 2 2 2 2 2 2 2 2 2 2 2 2 2 2 2 2 2 2 2 2
left_child=15 3 -3 5 -5 -2 7 -6 -8 -10 11 12 14 -14 -11 27 18 -18 20 -20 22 -22 23 24 -17 -25 -27 28 -1 -29
right_child=1 2 -4 4 6 -7 8 -9 9 10 -12 -13 13 -15 -16 16 17 -19 19 -21 21 -23 -24 25 -26 26 -28 29 -30 -31
leaf_value=0.0011674739555998642 -0.0029974920203676447 -0.00046066022321331095 0.003322681220774741 0.0019321715833419666 1.5298960673904869e-05 -0.00047126705341559664 -0.0013166645132094766 0.0021562875557924596 0.0010536915441792059 -0.0011820624645679345 -7.7660052525853972e-05 0.0010368355277354236 -0.00088781771595802567 -0.0037739188235086062 0.00052209813225130932 0.0002171433623860483 0.0053188607362764226 -0.00059114770607266104 0.0054530915937357344 -0.00088128846432284811 -0.004478705766960047 -0.0011527735402791328 0.0018810239786814366 -5.7756373247353954e-06 0.0017010810628562466 -0.0019611167516896699 -0.00037510881527189418 -1.3706692328286381e-05 2.9314862926299922e-06 -0.00069298626285478561
leaf_weight=39 20 26 23 21 26 22 39 20 28 32 482 33 29 23 28 37 21 20 20 23 20 34 21 55 20 22 44 485 20444 141
leaf_count=39 20 26 23 21 26 22 39 20 28 32 482 33 29 23 28 37 21 20 20 23 20 34 21 55 20 22 44 485 20444 141
internal_value=0 -9.69382e-05 0.00131519 -0.000183108 -0.000100812 -0.00167423 -0.000158505 0.000946164 -0.000231725 -0.000167126 -0.000221644 -0.000700266 -0.00121209 -0.00216436 -0.000386788 3.85113e-06 0.000241802 0.00243593 -6.21142e-05 0.00206493 -0.000423628 -0.0023846 0.000108495 -0.000100624 0.000737823 -0.000495595 -0.000903778 5.22991e-08 5.1488e-06 -0.000166707
internal_weight=0 852 49 803 761 42 740 46 694 655 627 145 112 52 60 21446 337 41 296 43 253 54 199 178 57 121 66 21109 20483 626
internal_count=22298 852 49 803 761 42 740 46 694 655 627 145 112 52 60 21446 337 41 296 43 253 54 199 178 57 121 66 21109 20483 626
shrinkage=0.075


Tree=123
num_leaves=31
num_cat=0
split_feature=17 27 6 6 2 13 30 4 4 27 2 3 3 0 4 1 27 27 0 15 30 7 16 21 6 12 21 4 1 3
split_gain=0.00158294 0.00987724 0.0389916 0.0577126 0.107097 0.0438182 0.0604184 0.0990494 0.0424947 0.0422178 0.0943732 0.0894727 0.0741054 0.0409583 0.0315909 0.029648 0.0276778 0.0234417 0.0910736 0.01417 0.0133541 0.0110877 0.0122152 0.00843759 0.00632187 0.0191942 0.00505267 0.0196797 0.0061459 0.00575794
threshold=-0.02085155 0.14943000000000009 -4.741989999999999e-05 -1.6913099999999996e-05 0.033878800000000008 -2.1199149999999993 -0.46073500000000051 -4.6702999999999997e-05 0.00010669350000000001 -0.10000499999999989 0.35551300000000002 1.5124700000000001e-05 1.0523450000000002e-05 -5.4650299999999996 2.8996250000000005e-05 -13.123699999999998 -0.22108000000000014 0.32495100000000005 -4.5679299999999996 1.7310850000000002 -2.0022049999999991 0.00014652000000000003 3.0130200000000005 1.0006340000000002 0.00026466700000000006 0.0036067050000000004 1.9790700000000003 -7.3782499999999987e-05 -13.736049999999999 8.7946500000000006e-06
decision_type=2 2 2 2 2 2 2 2 2 2 2 2 2 2 2 2 2 2 2 2 2 2 2 2 2 2 2 2 2 2
left_child=1 2 -1 4 -4 6 20 15 9 14 11 12 -11 -10 16 -8 19 18 21 -7 23 -3 -23 -5 26 -26 -19 28 -28 -29
right_child=-2 17 3 5 -6 8 7 -9 13 10 -12 -13 -14 -15 -16 -17 -18 24 -20 -21 -22 22 -24 -25 25 -27 27 29 -30 -31
leaf_value=0.0025648572162026541 8.4554305756690773e-06 0.0012149463578160584 -0.0064112423981555365 0.00015668430045834831 0.00060286736371926953 -0.00011962546133913392 -0.002955579051131676 -0.0073107659274163385 6.8863644446537362e-05 0.0017486706140714332 -0.0028361412958474827 -5.0255884515967122e-05 0.0076475961226969954 -0.0047310384811135005 0.0027963408173361259 0.00089556874584311363 -0.0024232111917407216 -4.9974685741722828e-06 0.0044059590116376059 0.0019134665181627496 0.0016224451067500922 0.00035661381942710639 -0.001788414918928538 -0.0014544706987428733 0.0025421505692611391 0.00014200807858312005 -0.0027802494233037573 -0.0010126146349255184 -0.00098258212895851321 -2.6982618913034433e-05
leaf_weight=27 18912 21 24 41 25 538 23 21 20 23 22 38 25 20 21 22 29 1545 33 20 20 28 32 33 20 298 20 37 23 337
leaf_count=27 18912 21 24 41 25 538 23 21 20 23 22 38 25 20 21 22 29 1545 33 20 20 28 32 33 20 298 20 37 23 337
internal_value=0 -4.72265e-05 -0.000246221 -0.000324873 -0.00283261 -0.000190726 -0.00131829 -0.0030576 4.79125e-05 0.000180818 0.00154726 0.0026686 0.00482103 -0.00233109 -6.19065e-05 -0.0010728 -0.000164161 3.52308e-05 0.00108479 -4.67548e-05 -9.70699e-05 -0.000268274 -0.000787402 -0.000561804 -1.72473e-05 0.00029296 -6.75257e-05 -0.000299195 -0.00181871 -0.000124492
internal_weight=0 3386 992 965 49 916 160 66 756 716 108 86 48 40 608 45 587 2394 114 558 94 81 60 74 2280 318 1962 417 43 374
internal_count=22298 3386 992 965 49 916 160 66 756 716 108 86 48 40 608 45 587 2394 114 558 94 81 60 74 2280 318 1962 417 43 374
shrinkage=0.075


Tree=124
num_leaves=31
num_cat=0
split_feature=3 14 27 24 21 7 30 30 25 30 0 3 22 3 17 27 12 14 3 25 0 17 18 0 23 7 1 10 25 24
split_gain=0.00151565 0.0255053 0.0149685 0.00635676 0.00814232 0.00778599 0.00574689 0.0145574 0.0128419 0.0115428 0.0149082 0.0136471 0.0076137 0.00547727 0.00770498 0.0304007 0.0875846 0.0153049 0.00608238 0.0219591 0.00603394 0.00815053 0.0375314 0.00442573 0.00432723 0.00424097 0.00613575 0.0120744 0.00527933 0.00390236
threshold=8.7946500000000006e-06 -20.381849999999996 5.3704750000000017 -2.3158699999999993e-06 3.7290900000000007 0.0017815250000000002 -0.41763500000000015 -0.57660999999999951 -0.027382149999999997 0.22790999999999964 3.1148900000000004 7.6070650000000005e-06 0.00082507450000000014 1.0092200000000001e-05 0.014898700000000003 -0.19251849999999998 1.7709900000000001e-05 -13.417149999999998 1.0138250000000002e-05 -0.0012299649999999997 -5.5535949999999987 -0.0026553049999999997 0.00015736050000000003 -6.0225149999999994 -0.19394499999999995 0.0031714700000000005 -11.574799999999998 7.906765000000001e-07 -0.027382149999999997 -2.3158699999999993e-06
decision_type=2 2 2 2 2 2 2 2 2 2 2 2 2 2 2 2 2 2 2 2 2 2 2 2 2 2 2 2 2 2
left_child=1 -1 3 5 6 -3 7 25 -8 10 11 -10 -13 14 20 -16 -17 -18 19 -15 21 22 -2 -24 -22 26 27 -5 -28 -20
right_child=13 2 -4 4 -6 -7 8 -9 9 -11 -12 12 -14 18 15 16 17 -19 29 -21 24 -23 23 -25 -26 -27 28 -29 -30 -31
leaf_value=0.0027324396175390574 -0.0037550164358538039 -0.00013105056944751644 0.0019789968173427042 0.0021348491729168014 0.0011692941757168486 -0.001959257097914815 0.0018014351518359035 -0.0021224586914675974 0.0028705196124855833 -3.3925511547319632e-05 -0.00041695855388285602 0.0001578932120147718 0.0019358258944703263 0.0027453002857717882 4.9265293194027938e-05 -0.0059954176758765243 -0.0021862373302792546 0.00023652808183132122 0.00015829166938056315 -1.542806963621381e-05 0.0010958538066396222 -1.3663222161199484e-05 -0.000132432912044899 -0.0012826839432648284 8.6061424795489266e-06 -0.0010788530827539945 -0.0013291697657768964 -0.00047126837747669015 -8.1345869557231966e-05 -4.0742339959177404e-06
leaf_weight=20 20 38 22 20 35 20 25 21 23 753 42 42 20 21 196 20 20 55 873 71 21 223 130 22 1057 24 20 20 411 18013
leaf_count=20 20 38 22 20 35 20 25 21 23 753 42 42 20 21 196 20 20 55 873 71 21 223 130 22 1057 24 20 20 411 18013
internal_value=0 7.13918e-05 3.67427e-05 8.51974e-06 3.91923e-05 -0.000761467 1.13573e-05 -0.00018839 0.000125246 7.76271e-05 0.000739037 0.00131024 0.00073142 -5.35559e-06 -0.000131769 -0.000484426 -0.00158552 -0.000409543 6.39453e-06 0.000614738 -6.20997e-05 -0.000312867 -0.000700789 -0.000298917 2.97863e-05 -0.000106338 -5.67833e-05 0.00083179 -0.00013925 3.43108e-06
internal_weight=0 1556 1536 1514 1456 58 1421 516 905 880 127 85 62 20742 1764 291 95 75 18978 92 1473 395 172 152 1078 495 471 40 431 18886
internal_count=22298 1556 1536 1514 1456 58 1421 516 905 880 127 85 62 20742 1764 291 95 75 18978 92 1473 395 172 152 1078 495 471 40 431 18886
shrinkage=0.075


Tree=125
num_leaves=31
num_cat=0
split_feature=23 1 23 28 4 12 7 4 7 7 1 4 4 7 4 20 20 9 9 16 28 10 10 19 8 30 30 19 9 19
split_gain=0.00156969 0.0139524 0.0136321 0.0220613 0.00800485 0.0598319 0.0164131 0.0284082 0.0127879 0.0160626 0.0250315 0.0140057 0.0496307 0.0505085 0.0136357 0.00943997 0.0168232 0.0305837 0.00976104 0.0214287 0.00965907 0.00690966 0.0191346 0.0330688 0.0157182 0.010101 0.0160772 0.0156706 0.00916231 0.0102619
threshold=0.029432000000000003 -4.831224999999999 0.027526950000000005 0.16908499999999996 9.4111850000000013e-05 0.00020370750000000003 0.0022212950000000003 0.00013679700000000005 0.0011049800000000002 0.00084742650000000014 -10.018499999999998 1.3142800000000002e-05 3.2913350000000006e-05 0.0034468950000000006 5.4859400000000005e-05 1.7012050000000003e-05 6.9324350000000013e-05 6.8359950000000008e-06 5.2367750000000012e-06 6.0021250000000004 -0.174708 4.6139950000000008e-07 6.2004350000000014e-07 -0.21109249999999999 2.5501300000000003e-06 -1.2709150000000002 1.0000000180025095e-35 -1.5261949999999997 1.7085950000000003e-06 0.13086650000000002
decision_type=2 2 2 2 2 2 2 2 2 2 2 2 2 2 2 2 2 2 2 2 2 2 2 2 2 2 2 2 2 2
left_child=2 4 -1 -4 8 -6 -7 -8 9 21 -11 15 13 -13 -14 18 17 -17 -10 -20 -21 25 23 -23 28 -2 27 -27 -24 -30
right_child=1 -3 3 -5 5 6 7 -9 11 10 -12 12 14 -15 -16 16 -18 -19 19 20 -22 22 24 -25 -26 26 -28 -29 29 -31
leaf_value=2.0169888342559444e-06 -5.5566858805825233e-06 0.0013931417180932234 0.0025486915891838914 -1.8092547682613256e-05 0.003624844515939508 -0.0017696520054069596 0.0028235338180456894 -0.00014172953723100271 -0.00018423752497559082 -0.00025417986945630501 0.0029506159466109239 -0.0057005297053943985 0.001379605291527696 -0.00077320619876263669 -0.00062412813220160182 -1.7267442409752593e-05 -0.00039410836083334286 0.0029767711983627772 -0.0030433435304439622 -0.0015686675204196945 0.00035032169119707154 0.0038381140350923354 2.562412624937141e-06 -0.00019898962002480404 0.0018302920482380035 -0.0033211279236378946 -9.9916218374694816e-05 -0.0008119027639103089 -0.002494437749373901 -9.187714903418964e-05
leaf_weight=20466 378 36 31 48 27 29 20 199 144 29 26 22 25 25 81 61 140 28 25 25 36 21 132 25 22 21 94 42 20 20
leaf_count=20466 378 36 31 48 27 29 20 199 144 29 26 22 25 25 81 61 140 28 25 25 36 21 132 25 22 21 94 42 20 20
internal_value=0 -6.81236e-05 5.81264e-06 0.000989127 -9.87617e-05 0.000272063 -9.29573e-05 0.000129071 -0.000169481 2.23044e-05 0.00126081 -0.000429581 -0.00105102 -0.00307961 -0.000151549 -0.000222435 0.000118433 0.000924677 -0.000561821 -0.00119405 -0.000436149 -6.55899e-05 0.000268767 0.00164404 -5.7328e-05 -0.000215582 -0.000721247 -0.00164831 -0.000298768 -0.00129316
internal_weight=0 1753 20545 79 1717 275 248 219 1442 830 55 612 153 47 106 459 229 89 230 86 61 775 240 46 194 535 157 63 172 40
internal_count=22298 1753 20545 79 1717 275 248 219 1442 830 55 612 153 47 106 459 229 89 230 86 61 775 240 46 194 535 157 63 172 40
shrinkage=0.075


Tree=126
num_leaves=31
num_cat=0
split_feature=20 1 1 28 28 28 28 28 6 6 30 28 17 17 2 23 5 23 5 14 28 28 28 12 30 30 21 16 30 6
split_gain=0.00155193 0.0159474 0.0269552 0.021318 0.0650437 0.0484995 0.0148162 0.0350714 0.00895882 0.0121259 0.0414671 0.0807945 0.0101941 0.00888375 0.0205609 0.00608692 0.00516535 0.0176283 0.0496473 0.00783951 0.0112123 0.0520678 0.02008 0.00506983 0.00578795 0.00476263 0.00450265 0.00414524 0.00413593 0.00405804
threshold=4.379045000000001e-05 -12.993899999999998 -12.641249999999998 -0.40341549999999993 -0.055811000000000083 -0.93691449999999998 0.12098500000000002 0.53142600000000006 -3.4042099999999997e-05 -1.4695649999999997e-05 -1.1482849999999998 -0.40341549999999993 0.030456700000000003 -0.41613399999999995 0.61727300000000007 -0.0080386749999999986 9.2687550000000014e-05 -0.11649999999999998 0.00023199500000000003 -6.3244849999999992 0.19330534500000005 -0.20152299999999998 0.53142600000000006 8.7013900000000009e-08 -4.7318249999999988 -2.5072499999999995 17.397300000000005 112.04900000000002 -1.3482449999999997 6.2460450000000013e-05
decision_type=2 2 2 2 2 2 2 2 2 2 2 2 2 2 2 2 2 2 2 2 2 2 2 2 2 2 2 2 2 2
left_child=27 3 -3 5 -5 15 -6 -8 12 10 -10 -12 -4 14 -11 -2 19 18 -18 20 21 23 -22 24 -15 -25 -9 29 -24 -1
right_child=1 2 8 4 6 -7 7 26 9 13 11 -13 -14 16 -16 -17 17 -19 -20 -21 22 -23 28 25 -26 -27 -28 -29 -30 -31
leaf_value=-1.5202995060904908e-05 -0.0014402742161606014 0.0020150775303782687 -0.00015659612865285316 -0.0039299730589846147 0.0014807512950418252 0.0037110186234349386 -0.0031886550302330694 -0.00010938217729972166 -2.5139988506421138e-05 -8.7363489881496761e-05 -0.00019312603506198053 0.0061474590344005259 -0.0016455264499726533 -2.8840153848455705e-05 -0.0021136768369910282 -2.3648747113731207e-05 0.0044852932748381136 5.7830224514598446e-06 -0.0004072607220288254 0.0013200345337716737 0.0020449819204908892 -0.0030671587899345661 6.7928060800948034e-05 -1.7572402573031782e-05 0.0016076486764086439 -0.0010481957427228652 -0.0012092660130292642 0.0010593545570113097 -0.00051193914269674677 6.0514369263619123e-05
leaf_weight=14858 22 38 81 34 21 20 26 164 143 118 26 20 38 31 37 76 20 172 28 23 28 38 512 107 20 33 24 21 80 5439
leaf_count=14858 22 38 81 34 21 20 26 164 143 118 26 20 38 31 37 76 20 172 28 23 28 38 512 107 20 33 24 21 80 5439
internal_value=0 -6.33828e-05 4.15282e-05 -0.000495226 -0.000863901 0.000345229 -0.000420299 -0.000606851 -6.70005e-06 4.51224e-05 0.000604936 0.00256365 -0.000632053 -3.97251e-05 -0.000571064 -0.000341667 3.56939e-05 0.000360442 0.0016313 -4.62379e-05 -8.32512e-05 -0.00053172 8.23928e-05 -2.72868e-05 0.00061292 -0.000260505 -0.000249793 6.17669e-06 -1.04324e-05 5.08704e-06
internal_weight=0 1980 1593 387 269 118 235 214 1555 1436 189 46 119 1247 155 98 1092 220 48 872 849 229 620 191 51 140 188 20318 592 20297
internal_count=22298 1980 1593 387 269 118 235 214 1555 1436 189 46 119 1247 155 98 1092 220 48 872 849 229 620 191 51 140 188 20318 592 20297
shrinkage=0.075


Tree=127
num_leaves=31
num_cat=0
split_feature=28 27 1 7 4 14 31 24 6 14 27 14 7 7 19 18 17 22 21 21 23 12 17 31 14 13 27 28 12 23
split_gain=0.00152315 0.0366833 0.0706098 0.0517512 0.0820901 0.0443168 0.067314 0.0467 0.0428298 0.0367798 0.0225075 0.147515 0.128722 0.0897145 0.0829386 0.0666274 0.0547764 0.0456546 0.0456097 0.0215871 0.0170574 0.0130519 0.0104161 0.0501694 0.0096836 0.0081244 0.051532 0.0292404 0.0520445 0.0425661
threshold=0.017674999999999889 0.0096369999999999807 -10.494749999999998 0.00039365250000000004 1.4386950000000001e-05 -9.9247749999999986 -0.26344499999999987 1.6068700000000001e-07 1.9598250000000005e-05 -13.661599999999998 -0.05954919999999999 -6.786319999999999 0.00020048900000000004 0.0025174050000000008 -0.26305049999999991 0.00045031950000000003 -0.0031120099999999997 -0.00010802649999999999 0.087173900000000012 0.021497350000000002 0.0023682150000000003 1.2135250000000002e-10 1.5572200000000003 9.8527550000000019 -6.9302799999999989 -2.2305649999999999 -0.12087000000000013 0.079535000000000036 2.8099900000000002e-05 0.00081098750000000005
decision_type=2 2 2 2 2 2 2 2 2 2 2 2 2 2 2 2 2 2 2 2 2 2 2 2 2 2 2 2 2 2
left_child=1 2 5 8 -5 6 -1 9 20 -8 25 13 -13 14 -12 16 -16 -15 -17 -18 24 -3 -23 -24 -4 26 -2 28 -27 -30
right_child=10 21 3 4 -6 -7 7 -9 -10 -11 11 12 -14 17 15 18 19 -19 -20 -21 -22 22 23 -25 -26 27 -28 -29 29 -31
leaf_value=0.0067250495357438923 1.9110642610461295e-05 -0.0015968879995915781 7.6267581529509314e-05 0.00013667510183022015 -0.005144791792205069 -0.00096537578377007898 -0.0019434614555211738 0.0043446734758366924 0.0033782655230814788 0.0020485103868948598 -0.003263984701532701 -0.0091536982386605809 -0.00064451787518919439 -0.0044526426820084451 -0.0024512852506530986 0.0064315773147557466 0.00050441517796571131 -0.00043849316397801669 0.0020334637159976411 0.0036454325332488224 -0.0017719445559038149 -8.6367029904820294e-06 0.0034387122562620789 -0.0013619738645957113 0.0011896367396769599 0.0037753832873022473 -0.0034000352020515929 -4.8718072744251983e-06 0.0018377598238517889 -0.0027644939540186898
leaf_weight=20 171 29 121 49 25 21 20 29 28 37 22 20 20 30 27 21 32 34 36 20 21 10693 25 24 69 32 29 10547 26 20
leaf_count=20 171 29 121 49 25 21 20 29 28 37 22 20 20 30 27 21 32 34 36 20 21 10693 25 24 69 32 29 10547 26 20
internal_value=0 1.94933e-05 0.000690728 8.5531e-05 -0.0016476 0.00218228 0.00280587 0.00189443 0.00062215 0.000647819 -1.97113e-05 -0.000706592 -0.00489911 4.88168e-05 0.00100839 0.00169951 0.000289433 -0.00232013 0.00365382 0.0017125 0.00025641 -7.92699e-06 -3.6373e-06 0.00108736 0.000480596 -3.08655e-06 -0.000476666 5.82788e-06 0.00145262 -0.00016322
internal_weight=0 11211 440 313 74 127 106 86 239 57 11087 262 40 222 158 136 79 64 57 52 211 10771 10742 49 190 10825 200 10625 78 46
internal_count=22298 11211 440 313 74 127 106 86 239 57 11087 262 40 222 158 136 79 64 57 52 211 10771 10742 49 190 10825 200 10625 78 46
shrinkage=0.075


Tree=128
num_leaves=31
num_cat=0
split_feature=13 3 10 25 3 26 21 20 12 12 19 19 3 7 1 19 6 17 0 20 4 21 11 21 1 23 12 30 4 9
split_gain=0.00151977 0.0208213 0.00193018 0.00970359 0.0859496 0.0137866 0.0208343 0.0132389 0.114957 0.012562 0.00975062 0.0099005 0.0223292 0.0509278 0.0104128 0.0180102 0.00972412 0.00862816 0.0160119 0.0193913 0.00851538 0.00850628 0.00547953 0.0052792 0.00617891 0.023298 0.0152279 0.0104826 0.043229 0.0211141
threshold=-3.0876849999999996 1.0138250000000002e-05 1.8854650000000003e-06 -0.9832439999999999 1.6250300000000003e-05 0.037960500000000008 4.9419500000000012 -0.00010740549999999999 0.00033266050000000004 0.044190850000000011 -2.9163399999999995 -1.1555899999999999 1.5056850000000003e-05 0.006874540000000001 -18.784849999999995 -0.038998599999999987 -4.9130649999999997e-05 0.076619750000000014 3.5489150000000005 -1.1936899999999999e-05 0.00016135950000000003 1.3242550000000002 -3.2867899999999993e-06 187.30050000000003 -15.357599999999998 -0.044125399999999995 1.5961100000000002e-05 0.89815000000000034 7.3688700000000012e-05 -4.1493199999999992e-07
decision_type=2 2 2 2 2 2 2 2 2 2 2 2 2 2 2 2 2 2 2 2 2 2 2 2 2 2 2 2 2 2
left_child=1 -1 23 4 -4 6 7 8 -5 16 -9 12 13 -12 15 -13 -7 -16 -19 -20 22 -21 -14 24 25 26 -2 28 29 -27
right_child=2 -3 3 5 -6 9 -8 10 -10 -11 11 14 20 -15 17 -17 -18 18 19 21 -22 -23 -24 -25 -26 27 -28 -29 -30 -31
leaf_value=0.0021865222755877768 -0.0032298431946070523 -8.480327877254107e-05 0.0039932851880339192 0.006010415156561066 -0.0014599628107110196 -0.0019038734242453105 0.0020131169178785055 -0.001231310093259838 -0.00017981860831544814 0.0012002503888652427 0.0048414994375707461 0.0028194526426523225 -0.0014363971965766806 -0.00028291640410316177 1.9722069740442044e-05 -0.00025788609119919542 -0.00051466287979272103 4.3317319129225018e-05 -0.0029138947814418416 -0.001329276531082128 0.0011547585353837348 0.00043136474680444543 2.4726490307460021e-05 0.00089038860217745719 -7.0847107995946832e-06 -0.0036233845024189969 -0.00069748994274585342 -1.0127055841846292e-05 0.0018171294492066617 -0.00090223678705098
leaf_weight=26 22 179 29 20 37 35 30 35 108 20 20 20 22 24 5989 23 149 144 27 33 25 29 42 36 14320 23 34 718 26 53
leaf_count=26 22 179 29 20 37 35 30 35 108 20 20 20 22 24 5989 23 149 144 27 33 25 29 42 36 14320 23 34 718 26 53
internal_value=0 0.000203267 -1.88611e-06 3.11445e-05 0.000936161 2.23541e-05 4.11488e-05 3.2132e-05 0.000787405 -0.000584879 1.7104e-05 2.39334e-05 0.000664261 0.00204636 1.03398e-05 0.00117343 -0.000778915 2.30175e-06 -0.000445468 -0.00123631 -1.90254e-05 -0.000505751 -0.000477535 -1.67642e-05 -1.89133e-05 -0.000212276 -0.00169234 -0.000111198 -0.000822657 -0.00172574
internal_weight=0 205 22093 6861 66 6795 6591 6561 128 204 6433 6398 133 44 6265 43 184 6222 233 89 89 62 64 15232 15196 876 56 820 102 76
internal_count=22298 205 22093 6861 66 6795 6591 6561 128 204 6433 6398 133 44 6265 43 184 6222 233 89 89 62 64 15232 15196 876 56 820 102 76
shrinkage=0.075


Tree=129
num_leaves=31
num_cat=0
split_feature=23 8 16 1 1 9 9 4 9 27 16 8 9 25 0 20 9 14 1 6 30 26 9 17 6 5 30 27 27 27
split_gain=0.00170041 0.00365489 0.00288026 0.0524069 0.0279759 0.0348665 0.110937 0.0135962 0.00575065 0.00447822 0.00334463 0.0227124 0.00327692 0.00610206 0.0029116 0.00226022 0.0137086 0.0126964 0.0108157 0.0120053 0.0464129 0.0914647 0.0105223 0.0161857 0.0194905 0.0450792 0.0163469 0.0356305 0.0939298 0.0146105
threshold=2.8787700000000007 -5.1623949999999985e-07 47.599950000000007 -16.232699999999998 -14.117999999999999 7.5408000000000007e-06 8.4642300000000015e-05 5.3219250000000004e-05 -9.293254999999999e-07 1.4554835000000004 39.016550000000002 -5.6133649999999993e-08 9.4060100000000015e-08 0.15002100000000004 15.501500000000002 4.379045000000001e-05 -6.1056899999999991e-07 -6.446629999999999 -15.821599999999998 -1.4695649999999997e-05 -1.1482849999999998 0.0050619550000000008 -9.293254999999999e-07 0.050410600000000007 3.182580000000001e-05 0.00011799400000000001 -2.8524699999999994 0.73100600000000016 -0.19251849999999998 -0.26963010000000004
decision_type=2 2 2 2 2 2 2 2 2 2 2 2 2 2 2 2 2 2 2 2 2 2 2 2 2 2 2 2 2 2
left_child=2 -2 10 -4 -5 7 -7 8 9 -6 14 -12 -10 -14 15 -1 17 22 -18 20 -20 -22 23 26 25 -25 -17 28 -28 -24
right_child=1 -3 3 4 5 6 -8 -9 12 -11 11 -13 13 -15 -16 16 18 -19 19 -21 21 -23 29 24 -26 -27 27 -29 -30 -31
leaf_value=7.3482261165027366e-06 -0.0012262968506547621 -1.9546481757970467e-05 0.0032707755918542306 -0.002057967054497567 -0.0016267583161393036 0.0048254855815850362 -0.0011185370649878965 0.0012973056217968656 7.4890859787515594e-05 -0.00023377369777465772 -0.0026327593905079993 0.00043802449773855704 -0.0016706866278712238 -0.0001715497321145319 -0.00053623891468113896 -2.9995860685069012e-05 -0.00086766148299582046 -0.002129172948543387 -6.7498616608295723e-05 5.7595624425917573e-06 0.0065500082188464145 2.1785698481835424e-06 9.2820355157527962e-05 6.4316832389903179e-05 -0.00036802136334064349 0.0043742504494730383 -0.00015627877109108265 -3.6505451618655278e-05 -0.0062597074285250806 -0.0026268463512678863
leaf_weight=20105 20 48 29 35 34 33 38 29 97 21 20 42 21 56 57 170 66 23 130 859 20 30 20 43 73 20 37 74 23 25
leaf_count=20105 20 48 29 35 34 33 38 29 97 21 20 42 21 56 57 170 66 23 130 859 20 30 20 43 73 20 37 74 23 25
internal_value=0 -0.000374473 1.14549e-06 0.000202382 -4.20774e-05 0.000172379 0.00164418 -0.000232651 -0.000426401 -0.00109489 -2.47617e-06 -0.000552551 -0.000215096 -0.000580405 -9.09941e-07 4.95057e-07 -8.49253e-05 -0.000407396 6.33235e-05 0.000122462 0.000679393 0.00262131 -0.000325744 -0.000214025 0.000466067 0.00143255 -0.000518277 -0.00113774 -0.00249593 -0.00141811
internal_weight=0 68 22230 393 364 329 71 258 229 55 21837 62 174 77 21775 21718 1613 508 1105 1039 180 50 485 440 136 63 304 134 60 45
internal_count=22298 68 22230 393 364 329 71 258 229 55 21837 62 174 77 21775 21718 1613 508 1105 1039 180 50 485 440 136 63 304 134 60 45
shrinkage=0.075


Tree=130
num_leaves=31
num_cat=0
split_feature=9 14 5 23 30 14 10 0 4 19 7 27 27 23 20 16 13 3 27 13 0 0 22 0 24 0 27 24 2 23
split_gain=0.00160777 0.0169085 0.0927655 0.0117728 0.0166112 0.0698983 0.120052 0.0283118 0.0194999 0.0438767 0.101079 0.0936407 0.204468 0.0576231 0.0276478 0.0454967 0.0225467 0.056339 0.0254062 0.0196492 0.0399124 0.0198747 0.0360022 0.0165937 0.0293693 0.0156814 0.0177975 0.0153276 0.0689274 0.0116584
threshold=2.8010150000000002e-08 -21.761999999999997 0.00011799400000000001 -0.00028187599999999997 -2.5072499999999995 -16.099999999999998 2.2871350000000003e-07 -12.977849999999998 4.5087800000000011e-06 -0.13759249999999998 0.0048049900000000012 -0.22108000000000014 0.40341550000000004 -0.014731999999999997 -0.00031771699999999997 30.438750000000002 -2.4408449999999995 8.6381750000000014e-06 0.055811000000000097 -2.1421449999999997 -4.0224749999999991 11.472500000000002 0.00013684100000000004 -10.654349999999999 -3.0693549999999992e-08 8.3673550000000017 0.25180000000000019 6.8870550000000012e-07 -0.19752099999999997 -0.0014052149999999998
decision_type=2 2 2 2 2 2 2 2 2 2 2 2 2 2 2 2 2 2 2 2 2 2 2 2 2 2 2 2 2 2
left_child=1 2 -1 4 -3 6 -6 -7 14 10 11 -10 13 -13 -9 16 17 -16 -19 20 -18 23 -23 24 -21 -11 -27 -25 -29 -2
right_child=29 3 -4 -5 5 7 -8 8 9 25 -12 12 -14 -15 15 -17 19 18 -20 21 -22 22 -24 27 -26 26 -28 28 -30 -31
leaf_value=-0.00015167663698889555 -0.00016663810950306242 -7.1754390823067639e-05 0.0055590910217142662 -4.7162306093644626e-05 -0.00055671655026427204 0.0026922229299234457 0.0074719700994319285 0.0021882369123659372 -0.00016687884600893689 5.8911325073894912e-05 -0.00056103721736516126 0.010737153045816478 -7.8522616852370119e-05 0.0051120984636509091 0.00445296313810104 -0.0028377907646245149 -0.0031849844093491861 0.0021552464973651425 -0.00014565553749821099 -0.00029310461159184339 4.1213054940934682e-05 0.00042888754565153603 -0.0039220305118692518 -8.6417869496345471e-05 0.0035983659978091964 0.0031749407267852802 1.0905942999670514e-05 0.0035577677478015957 -0.0006052976085606309 2.0918762049924471e-05
leaf_weight=80 2398 1684 20 7217 22 25 20 32 36 596 80 21 31 20 21 32 34 34 131 24 59 23 20 1106 20 20 20 35 62 8375
leaf_count=80 2398 1684 20 7217 22 25 20 32 36 596 80 21 31 20 21 32 34 34 131 24 59 23 20 1106 20 20 20 35 62 8375
internal_value=0 1.9471e-05 0.000990477 1.09721e-05 0.000110676 0.000232393 0.00326647 0.000181051 0.0001555 0.000452944 0.00145956 0.0029563 0.00451789 0.00799322 5.41211e-06 -3.82171e-05 1.88806e-05 0.000794138 0.00032847 -8.5384e-05 -0.00113826 -9.47917e-06 -0.0015948 4.51869e-05 0.00147575 0.00015539 0.00159292 -7.13611e-06 0.000896839 -2.08302e-05
internal_weight=0 11525 100 11425 4208 2524 42 2482 2457 824 188 108 72 41 1633 1601 1569 186 165 1383 93 1290 43 1247 44 636 40 1203 97 10773
internal_count=22298 11525 100 11425 4208 2524 42 2482 2457 824 188 108 72 41 1633 1601 1569 186 165 1383 93 1290 43 1247 44 636 40 1203 97 10773
shrinkage=0.075


Tree=131
num_leaves=31
num_cat=0
split_feature=30 18 1 7 19 14 1 30 30 3 2 24 27 27 27 19 6 15 1 2 15 6 21 24 7 13 25 1 27 27
split_gain=0.0015008 0.0165394 0.00502503 0.0512954 0.00788299 0.00670117 0.0279355 0.005113 0.00995868 0.00932892 0.0125748 0.00465681 0.0441466 0.00367979 0.00713021 0.00381551 0.00362902 0.0159009 0.0647159 0.0941796 0.022635 0.0128989 0.042314 0.0112227 0.00949861 0.00841744 0.00704325 0.0164287 0.0313695 0.0407123
threshold=8.7859400000000019 0.021501650000000004 -18.784849999999995 0.01115525 0.07145905000000001 -19.685249999999996 -16.595249999999997 -9.7868499999999976 -10.775174999999999 1.8981350000000001e-05 0.4097745000000001 0.0003225765000000001 0.40341550000000004 -0.56065814999999997 0.23026500000000019 -1.3107849999999999 6.2460450000000013e-05 1.0471900000000003 -12.534349999999998 0.49035250000000002 1.5416250000000002 6.3414900000000022e-05 0.21014650000000004 1.0790650000000003e-05 0.039784050000000008 -1.0689799999999998 -0.16660249999999996 -12.592749999999997 -0.39737499999999987 1.3647880000000001
decision_type=2 2 2 2 2 2 2 2 2 2 2 2 2 2 2 2 2 2 2 2 2 2 2 2 2 2 2 2 2 2
left_child=2 -2 3 -1 -5 6 -4 8 13 10 -9 16 -13 -8 -15 -16 24 21 19 -19 -20 22 -18 -23 26 -25 27 28 -7 -30
right_child=1 -3 5 4 -6 11 7 9 -10 -11 -12 12 -14 14 15 -17 17 18 20 -21 -22 23 -24 25 -26 -27 -28 -29 29 -31
leaf_value=0.0037831274108222194 -3.8653564550261585e-05 -0.002089016315553833 -0.0027687928057275714 0.00013040609561405865 -0.0016535292115060492 0.00092473506361288437 0.00013864311185593246 -0.00043881486806854168 0.0014921624097358132 0.0006741298151293608 -0.0026577328607527303 -0.00082262581726306387 0.0035306604212382809 -0.0012965677181152083 -0.00090660900384266691 6.6460527488529538e-05 1.2569895705469425e-05 -0.00018004592275246977 0.00060354183455638122 0.0070112481535761608 -0.0020598498558683787 4.3227356472478744e-05 0.0039722242465359157 -0.0018393430981982067 -0.0015359518685094688 -0.00035716219149651895 -2.7544716476976631e-06 -9.9993072522099928e-05 -0.0050531195856706292 -0.00051322724732744975
leaf_weight=21 585 23 24 38 22 22 164 51 23 23 20 38 20 36 28 119 63 21 50 20 28 5133 20 26 23 126 15179 307 20 25
leaf_count=21 585 23 24 38 22 22 164 51 23 23 20 38 20 36 28 119 63 21 50 20 28 5133 20 26 23 126 15179 307 20 25
internal_value=0 -0.000116217 3.25771e-06 0.000592882 -0.000523704 1.04754e-06 -0.000273721 -0.000144665 -1.9177e-05 -0.000638609 -0.00106386 7.39605e-06 0.000678507 -0.000119352 -0.000350561 -0.000118886 5.54805e-06 5.79993e-05 0.000915507 0.0033279 -0.000352547 3.89898e-05 0.000966703 2.44202e-05 -1.29291e-05 -0.000610693 -1.06768e-05 -0.000332211 -0.00139625 -0.00253096
internal_weight=0 608 21690 81 60 21609 488 464 370 94 71 21121 58 347 183 147 21063 5487 119 41 78 5368 83 5285 15576 152 15553 374 67 45
internal_count=22298 608 21690 81 60 21609 488 464 370 94 71 21121 58 347 183 147 21063 5487 119 41 78 5368 83 5285 15576 152 15553 374 67 45
shrinkage=0.075


Tree=132
num_leaves=31
num_cat=0
split_feature=23 8 16 1 1 9 9 4 30 11 25 28 1 30 14 30 19 30 28 18 3 21 17 28 28 20 8 1 30 0
split_gain=0.00174008 0.00350666 0.00299142 0.0452188 0.0242285 0.0293894 0.0927061 0.0150665 0.00870505 0.00552183 0.00660423 0.00422899 0.00250742 0.0162183 0.0295312 0.0198457 0.0217566 0.0157487 0.0146023 0.0136883 0.0178625 0.0102311 0.0113266 0.0277072 0.0465046 0.0130753 0.0575404 0.00557328 0.0347861 0.0760218
threshold=2.8787700000000007 -5.1623949999999985e-07 47.599950000000007 -16.232699999999998 -13.618449999999998 7.5408000000000007e-06 8.4642300000000015e-05 5.3219250000000004e-05 4.2945050000000018 -4.9244999999999992e-06 -0.28524949999999993 -0.32495099999999993 -15.357599999999998 -3.9631949999999985 -19.685249999999996 -1.1482849999999998 0.26402450000000005 -0.54040499999999969 0.53142600000000006 0.0159398 1.8981350000000001e-05 1.3242550000000002 0.024038850000000004 0.3216400000000002 -0.25180000000000008 -3.4138749999999996e-05 -2.1930749999999998e-07 -14.552149999999997 -1.8646 1.7192750000000003
decision_type=2 2 2 2 2 2 2 2 2 2 2 2 2 2 2 2 2 2 2 2 2 2 2 2 2 2 2 2 2 2
left_child=2 -2 12 -4 8 7 -7 9 -5 11 -11 -6 13 -1 -15 16 18 -17 -16 21 -21 22 25 24 -24 26 -19 28 29 -14
right_child=1 -3 3 4 5 6 -8 -9 -10 10 -12 -13 27 14 15 17 -18 19 -20 20 -22 -23 23 -25 -26 -27 -28 -29 -30 -31
leaf_value=-0.0022107167163630944 -0.001213186821551062 -3.1161423294179258e-05 0.0030564481254008692 -0.0028581032555666753 -0.00046202656230889263 0.0044531511917739403 -0.00098055088436874356 0.0015271877089197425 -0.00067178162280470135 -0.0011751411634293163 1.168617107123282e-05 -0.0019387035175168418 0.0056659202784339864 0.0027329107289135986 -0.0033242276689894163 0.0017178557926464625 0.00072560266662549113 0.0043183357570751469 -0.00067085070221764912 -0.00028448500754088758 -0.0028738705691714792 0.0012013814826590337 -3.5491749114389047e-05 0.00011409690174931147 -0.0044986515335040164 -4.0777135522684721e-05 -0.00084151286926264167 -1.9599282113292879e-06 7.34194199356819e-05 -0.00065653501193952725
leaf_weight=20 20 48 29 20 24 33 38 26 21 32 150 20 20 21 28 28 20 20 20 47 22 37 29 88 24 1389 31 19389 581 23
leaf_count=20 20 48 29 20 24 33 38 26 21 32 150 20 20 21 28 28 20 20 20 47 22 37 29 88 24 1389 31 19389 581 23
internal_value=0 -0.000378816 1.15877e-06 0.000206242 -2.08347e-05 0.000197169 0.00154497 -0.000182569 -0.00173828 -0.000379267 -0.000196987 -0.00113324 -2.53211e-06 -8.67146e-05 -6.31669e-05 -9.60988e-05 -0.0013527 -4.62746e-05 -0.00221865 -7.55547e-05 -0.00111009 -3.14369e-05 -6.02884e-05 -0.000701818 -0.00205655 2.52804e-06 0.00118196 5.14035e-06 0.000225761 0.00228414
internal_weight=0 68 22230 393 364 323 71 252 41 226 182 44 21837 1824 1804 1783 68 1715 48 1687 69 1618 1581 141 53 1440 51 20013 624 43
internal_count=22298 68 22230 393 364 323 71 252 41 226 182 44 21837 1824 1804 1783 68 1715 48 1687 69 1618 1581 141 53 1440 51 20013 624 43
shrinkage=0.075


Tree=133
num_leaves=31
num_cat=0
split_feature=23 7 18 1 1 1 7 8 3 27 3 7 12 14 1 0 3 27 1 22 12 24 2 30 30 3 0 14 7 24
split_gain=0.00148886 0.0030718 0.00199791 0.0318355 0.0311422 0.0374437 0.0184928 0.0513181 0.0153964 0.0230834 0.0148553 0.0119936 0.00504375 0.0070325 0.00351594 0.00346687 0.00321129 0.00291508 0.0021763 0.0157736 0.0240611 0.0155341 0.0122437 0.0116025 0.013957 0.0612275 0.0402332 0.0149999 0.00687933 0.00609504
threshold=2.8787700000000007 0.00048176050000000003 0.048291950000000007 -15.973449999999998 -14.117999999999999 -12.641249999999998 0.00063217500000000012 -2.4590199999999995e-07 1.3782100000000003e-05 0.20152300000000004 1.6630800000000003e-05 0.017759450000000003 0.00035047900000000006 -7.2804749999999991 -9.0758349999999979 15.501500000000002 1.0756550000000003e-05 0.76078000000000012 -15.632649999999998 -0.10808449999999999 0.013343500000000001 7.0096650000000009e-06 0.5635650000000002 -2.5656249999999998 0.34575499999999965 1.426605e-05 -3.3880499999999993 -16.680599999999995 0.0053110200000000005 2.0222300000000002e-07
decision_type=2 2 2 2 2 2 2 2 2 2 2 2 2 2 2 2 2 2 2 2 2 2 2 2 2 2 2 2 2 2
left_child=2 -2 15 -4 11 -6 7 -7 9 -8 -10 -5 13 16 -12 18 -9 -16 19 20 22 23 -1 -21 25 26 -25 -26 -27 -29
right_child=1 -3 3 4 5 6 8 12 10 -11 14 -13 -14 -15 17 -17 -18 -19 -20 21 -22 -23 -24 24 27 28 -28 29 -30 -31
leaf_value=-0.0010824734572617506 0.00021692365844501181 -0.00079829560741736226 0.0022971634806405444 -0.0032424859385563258 0.0026831336531622876 0.003188003575201037 0.0023131855422564383 -0.00090127056180790523 -0.00267725097405168 -0.001091696090043115 -1.6862594789164439e-05 -0.00067620514870213799 0.00093142011755844569 -0.0014784569354643197 -0.0015355275650238453 -0.00058129569220470546 0.00013260336220960323 -0.00034999631792743453 5.8964091292241863e-06 -0.0014818991909123723 0.00067345762636250583 0.0017138890053632037 -0.0036464599701866969 0.0054224840376991771 -0.00204755833838135 0.00026011606404119028 0.0008677903871557646 -7.211532652403439e-06 -0.0013148527390512753 -0.0004811748907463802
leaf_weight=22 30 38 36 21 31 32 21 20 27 24 31 20 24 22 28 58 109 20 20164 32 24 28 20 20 22 26 24 1108 39 177
leaf_count=22 30 38 36 21 31 32 21 20 27 24 31 20 24 22 28 58 109 20 20164 32 24 28 20 20 22 26 24 1108 39 177
internal_value=0 -0.000350405 1.07186e-06 0.00015473 -2.46365e-05 0.000182577 -3.39512e-05 0.000426437 -0.00066508 0.000497249 -0.00115852 -0.00199064 -7.85349e-05 -0.000239058 -0.000639461 -2.21819e-06 -2.76872e-05 -0.00104156 -6.70853e-07 -8.65478e-05 -0.00122092 -3.58239e-05 -0.00230342 -6.96581e-05 -3.77431e-05 0.000777618 0.00293811 -0.000105742 -0.000684865 -7.24968e-05
internal_weight=0 68 22230 466 430 389 358 207 151 45 106 41 175 151 79 21764 129 48 21706 1542 66 1476 42 1448 1416 109 44 1307 65 1285
internal_count=22298 68 22230 466 430 389 358 207 151 45 106 41 175 151 79 21764 129 48 21706 1542 66 1476 42 1448 1416 109 44 1307 65 1285
shrinkage=0.075


Tree=134
num_leaves=31
num_cat=0
split_feature=13 27 1 31 16 3 1 20 10 4 22 31 6 27 8 18 31 0 31 31 25 27 18 17 14 8 12 3 6 18
split_gain=0.00140548 0.00900239 0.0415993 0.141606 0.170846 0.0735158 0.0395776 0.0665053 0.0779567 0.0398963 0.0743316 0.138651 0.138571 0.0255132 0.025346 0.0207839 0.0216091 0.0359974 0.0198632 0.0182765 0.0118521 0.0115659 0.0377076 0.0183637 0.0109336 0.010661 0.00822513 0.0073793 0.0071141 0.00692228
threshold=-1.3141449999999997 0.32495100000000005 -14.117999999999999 -1.8805500000000002 1.9275150000000003 1.2905450000000002e-05 -12.428249999999998 -1.6533899999999998e-05 5.1530400000000007e-08 -8.6596699999999973e-06 -0.00010802649999999999 2.3953400000000005 6.0721200000000013e-06 0.12542999999999996 6.1486300000000015e-08 0.00054190150000000008 1.2714799999999997 -8.6379149999999978 1.421235 0.35028500000000001 0.011961650000000002 -0.05954919999999999 0.00040317550000000009 -0.006390879999999999 -10.637649999999999 -6.0584749999999988e-06 5.4628700000000014e-09 6.8464300000000006e-06 4.0120550000000007e-05 0.00074811500000000004
decision_type=2 2 2 2 2 2 2 2 2 2 2 2 2 2 2 2 2 2 2 2 2 2 2 2 2 2 2 2 2 2
left_child=1 2 3 13 5 -5 7 8 -4 15 11 12 -11 25 -12 21 17 -17 -16 20 29 -8 23 -23 -9 -1 -25 -3 -26 -19
right_child=-2 27 6 4 -6 -7 9 24 -10 10 14 -13 -14 -15 18 16 -18 19 -20 -21 -22 22 -24 26 28 -27 -28 -29 -30 -31
leaf_value=0.0012598234066430332 -1.2066249539195931e-05 0.0011337060774929985 7.665000157430768e-05 0.0044342970947932022 0.0097230770112946615 -0.0011532462032240193 3.9661574222750558e-05 0.0011834268197074584 -0.005968366030096409 0.010199585295465241 -0.00059234888989382077 -0.00023959521866167847 0.0015836296839552232 -0.0027702864658619673 0.0029024125053323446 -0.0041018235989031381 -2.749436546609269e-05 -0.00088859664092160525 -1.9788369374711892e-06 -0.0024726539769359917 -0.0017641948348761575 -0.0013503215222694311 0.0038486892067885491 0.0021290082558802427 -0.0017056890943524651 -0.00043909833586353454 0.00050040554716599339 -2.7077263333798474e-05 6.4623915572748198e-06 0.00060052224633459523
leaf_weight=31 15807 31 21 26 20 27 360 31 28 21 104 41 21 21 26 20 281 25 27 26 23 28 20 21 20 63 103 4923 43 59
leaf_count=31 15807 31 21 26 20 27 360 31 28 21 104 41 21 21 26 20 281 25 27 26 23 28 20 21 20 63 103 4923 43 59
internal_value=0 2.9384e-05 0.000187956 0.00123314 0.00381665 0.00158781 4.22956e-05 -0.00113744 -0.00337764 0.000182182 0.00104762 0.00286294 0.00589161 -0.000406823 8.793e-05 -3.28345e-05 -0.000418 -0.0011352 0.00142282 -0.000689095 -0.000255706 0.000281379 0.000787301 0.000384486 3.03227e-05 0.000121184 0.000776217 -1.98136e-05 -0.000537078 0.000157332
internal_weight=0 6491 1537 188 73 53 1349 143 49 1206 240 83 42 115 157 966 434 153 53 133 107 532 172 152 94 94 124 4954 63 84
internal_count=22298 6491 1537 188 73 53 1349 143 49 1206 240 83 42 115 157 966 434 153 53 133 107 532 172 152 94 94 124 4954 63 84
shrinkage=0.075


Tree=135
num_leaves=31
num_cat=0
split_feature=9 14 30 23 12 27 27 6 30 30 14 2 23 28 30 14 10 4 4 19 7 7 0 27 8 14 24 16 10 4
split_gain=0.00133005 0.0142762 0.078269 0.0103812 0.0156536 0.0108076 0.0942685 0.0760106 0.0784034 0.129338 0.0318001 0.0249198 0.0097295 0.0165922 0.0118033 0.0366212 0.0754067 0.0280229 0.0458716 0.0317037 0.0541183 0.0581426 0.0363594 0.0912958 0.0428942 0.0196536 0.0689276 0.0286692 0.0279754 0.0277972
threshold=5.3572400000000007e-08 -21.761999999999997 -11.083864999999998 -0.0014052149999999998 5.6448650000000011e-10 -0.26963010000000004 0.23026500000000019 -4.083924999999999e-05 -1.5437499999999995 1.3164399999999998 -16.099999999999998 -0.1018225 -0.00086568699999999986 -5.601424999999999 -2.5072499999999995 -15.973899999999999 1.6928800000000002e-06 -1.1710249999999997e-06 1.0000000180025095e-35 -0.029966349999999996 0.0048049900000000012 0.0034468950000000006 4.5461700000000009 0.48771000000000025 -4.1006699999999994e-07 -12.295749999999998 8.0564800000000012e-07 30.438750000000002 2.3242700000000004e-06 -2.6158299999999997e-05
decision_type=2 2 2 2 2 2 2 2 2 2 2 2 2 2 2 2 2 2 2 2 2 2 2 2 2 2 2 2 2 2
left_child=1 2 -1 4 -2 -6 7 -7 10 -10 -9 -11 13 -3 -15 16 -16 25 -19 20 21 22 -20 24 -24 26 29 -27 -28 -17
right_child=3 12 -4 -5 5 6 -8 8 9 11 -12 -13 -14 14 15 17 -18 18 19 -21 -22 -23 23 -25 -26 27 28 -29 -30 -31
leaf_value=-8.7164390391917965e-05 -0.0020262643370660954 0.0022707754636940082 0.0051105413489858616 2.074652467394595e-05 2.3505014918648222e-05 0.0023175171417692169 1.8428601316686756e-06 -0.0029303197343261704 -0.0073280918452813216 -0.0030477586376946417 7.8536048339071483e-05 0.00069621991940948646 -3.3519275621350093e-05 -5.6811188747034138e-05 -0.00058979431360057794 -0.0007831432428610656 0.0054891496118877761 0.003147839775517506 0.00024637188103643327 -9.0160957495082018e-05 -0.000377375922639308 0.0050248062390346598 0.0072897235431264558 -0.00010692484651868158 0.0025868172385344226 -0.00011740530111460775 0.0013544769658074072 -0.0026904719634912905 0.0052738496168915705 0.0023019056673274463
leaf_weight=88 25 20 20 7985 1145 22 952 29 37 20 62 20 8519 1453 24 92 22 36 106 357 117 25 20 44 24 948 20 25 21 20
leaf_count=88 25 20 20 7985 1145 22 952 29 37 20 62 20 8519 1453 24 92 22 36 106 357 117 25 20 44 24 948 20 25 21 20
internal_value=0 1.69672e-05 0.000875374 -1.9775e-05 -0.000159725 -0.000139321 -0.000302575 -0.00182787 -0.00237072 -0.00413208 -0.00088033 -0.00117577 9.17198e-06 0.000116963 0.00010412 0.000227125 0.00231753 0.000175287 0.000537573 0.000401975 0.000924869 0.00162059 0.0011819 0.00230879 0.0047245 -5.92653e-05 0.000730911 -0.000183517 0.00336196 -0.000232242
internal_weight=0 12001 108 10297 2312 2287 1142 190 168 77 91 40 11893 3374 3354 1901 46 1855 729 693 336 219 194 88 44 1126 153 973 41 112
internal_count=22298 12001 108 10297 2312 2287 1142 190 168 77 91 40 11893 3374 3354 1901 46 1855 729 693 336 219 194 88 44 1126 153 973 41 112
shrinkage=0.075


Tree=136
num_leaves=31
num_cat=0
split_feature=3 22 18 1 27 15 7 7 2 1 23 14 7 24 19 7 24 3 8 25 27 27 15 4 4 27 4 1 4 4
split_gain=0.00144771 0.0124477 0.0294844 0.0286681 0.0585048 0.0183476 0.0397561 0.0160514 0.0271174 0.00954777 0.0414028 0.010755 0.0182494 0.00827924 0.0134616 0.0593349 0.0120533 0.00812626 0.00641558 0.0154898 0.031516 0.154672 0.00841643 0.00724177 0.0142586 0.00904747 0.00604887 0.00628531 0.00503227 0.00711592
threshold=1.18818e-05 -0.043520549999999998 0.0045554350000000009 -14.159849999999997 0.5430708500000001 1.0471900000000003 0.0022944000000000007 0.00048176050000000003 -0.15751449999999997 -18.784849999999995 -0.00023704799999999998 -20.381849999999996 0.00095674600000000018 4.4179850000000008e-08 -0.57589999999999986 0.0026029750000000004 4.6225400000000007e-08 8.7946500000000006e-06 -1.2684999999999997e-07 -0.00092105599999999985 0.34729650000000006 -0.19251849999999998 -1.0171649999999997 8.2347000000000016e-05 6.6694750000000007e-05 0.5430708500000001 -7.3782499999999987e-05 -9.5889999999999969 2.2051700000000004e-05 2.8538400000000001e-05
decision_type=2 2 2 2 2 2 2 2 2 2 2 2 2 2 2 2 2 2 2 2 2 2 2 2 2 2 2 2 2 2
left_child=1 2 -1 4 -4 9 -7 8 -5 10 -3 12 -11 14 15 -13 -15 -10 19 20 21 -18 -21 24 28 -25 -9 -28 -20 -30
right_child=-2 5 3 7 -6 6 -8 26 17 11 -12 13 -14 16 -16 -17 18 -19 23 22 -22 -23 -24 25 -26 -27 27 -29 29 -31
leaf_value=0.0023946106318288836 1.1818765350798822e-05 0.0036816542305950859 0.0039299556804772073 0.0027096441060734831 -0.00071605746756063125 0.00024595233498398409 -0.0039804821385977058 -0.0018291715725195978 -0.00097579659740822046 6.2401237443866978e-05 -0.0004976760513270051 -0.00024920889701596542 -0.0029038760198454834 -0.0019680084616473842 -4.924356510898086e-06 0.0045097734482260421 -7.7547402650322638e-05 0.00035346117586963966 -0.00013058573234982058 -0.0014547129481798039 -0.00015690267271499422 -0.0077611528441775589 -7.1052960067520734e-06 -0.0019853390210755606 0.0018800060681025406 -4.5705716066520603e-05 -0.00015856655455161886 -0.0013781151232912883 0.0010736400557404095 3.3467459070982159e-05
leaf_weight=37 16129 20 31 24 30 31 21 23 37 28 40 56 20 21 3807 20 56 86 834 24 123 20 385 24 22 31 85 33 49 151
leaf_count=37 16129 20 31 24 30 31 21 23 37 28 40 56 20 21 3807 20 56 86 834 24 123 20 385 24 22 31 85 33 49 151
internal_value=0 -3.09004e-05 0.000381464 0.000168036 0.00164503 -5.84247e-05 -0.00146088 -0.0001448 0.000403569 -4.56996e-05 0.000895434 -5.56569e-05 -0.00117355 -4.61142e-05 1.48063e-05 0.00100315 -0.000182065 -4.63969e-05 -0.000160247 -0.000356108 -0.000898818 -0.00209955 -9.20505e-05 -5.30616e-05 -9.36214e-06 -0.000892091 -0.000716503 -0.000499627 -4.95615e-05 0.00028831
internal_weight=0 6169 386 349 61 5783 52 288 147 5731 60 5671 48 5623 3883 76 1740 123 1719 608 199 76 409 1111 1056 55 141 118 1034 200
internal_count=22298 6169 386 349 61 5783 52 288 147 5731 60 5671 48 5623 3883 76 1740 123 1719 608 199 76 409 1111 1056 55 141 118 1034 200
shrinkage=0.075


Tree=137
num_leaves=31
num_cat=0
split_feature=16 6 8 0 6 27 1 14 19 1 3 3 4 9 0 0 12 26 12 6 1 14 1 7 14 20 26 30 22 24
split_gain=0.00131394 0.023739 0.00555196 0.00325848 0.00163888 0.0124601 0.00930891 0.0254273 0.00637161 0.0355141 0.0952779 0.0219023 0.12691 0.0260209 0.0140614 0.0185981 0.0131385 0.0177047 0.0309742 0.0149838 0.0119339 0.00827971 0.028273 0.00636394 0.027568 0.0105147 0.028624 0.00631927 0.00613915 0.00579832
threshold=112.04900000000002 -4.562824999999999e-06 -4.6003499999999992e-08 15.501500000000002 6.4414100000000008e-07 5.609935000000001 -18.784849999999995 -10.321499999999999 -1.8215899999999998 -14.762349999999998 1.5667000000000004e-05 1.2697400000000001e-05 9.102175000000002e-05 -7.0596999999999991e-07 10.624450000000001 8.7655650000000023 5.6367050000000008e-05 0.037960500000000008 0.0017278250000000003 3.6872600000000003e-05 -6.834204999999999 -19.847649999999998 -14.412449999999998 0.006874540000000001 -17.889999999999997 2.1811850000000004e-05 0.00022276600000000003 2.1745550000000016 0.14560800000000004 -1.7984249999999999e-06
decision_type=2 2 2 2 2 2 2 2 2 2 2 2 2 2 2 2 2 2 2 2 2 2 2 2 2 2 2 2 2 2
left_child=3 -2 -3 4 6 8 7 -1 9 10 -6 12 13 -11 15 16 19 -18 -19 -13 28 22 -10 29 -25 -26 -27 -28 -15 -8
right_child=1 2 -4 -5 5 -7 23 -9 21 11 -12 14 -14 20 -16 -17 17 18 -20 -21 -22 -23 -24 24 25 26 27 -29 -30 -31
leaf_value=0.0030521820985268274 0.0024659885164874137 -0.0015800576025503687 0.00016597324408524269 -0.00055758232687120484 -0.00030551842683053111 0.0017598545252163285 0.00024032329667993891 -0.00047610180955517635 -0.0027369624935090543 -0.002283185736996529 0.0060512140514869571 -9.2883750868025673e-05 0.0063698401785950405 -0.00039988335937388392 0.0012638851127849194 -0.0026486254612973423 -8.0651447159704376e-05 -0.0036009672589393128 -0.00031331003918808162 0.0020704446333895802 0.0019650544475355316 9.8244724445330964e-06 -0.00011553116255116593 -0.0027855643629663969 9.7559246310626188e-06 -0.0033185671886323169 0.0010195140983341843 -0.0007259919026572398 0.0010554789273832599 -3.4391448853060476e-05
leaf_weight=20 20 20 21 59 36 23 461 27 27 24 21 83 20 56 30 20 106 27 40 23 23 13594 162 24 327 21 20 28 23 6912
leaf_count=20 20 20 21 59 36 23 461 27 27 24 21 83 20 56 30 20 106 27 40 23 23 13594 162 24 327 21 20 28 23 6912
internal_value=0 0.000347607 -0.000685749 -9.53548e-07 5.27248e-07 1.56033e-05 -2.70442e-05 0.0010253 1.28008e-05 0.000267487 0.00203644 5.52137e-05 0.00081972 -6.12513e-05 -0.000284051 -0.000439362 -0.000280992 -0.000683859 -0.00163819 0.000376518 0.000461557 2.97031e-06 -0.000490021 -3.33909e-05 -0.000317359 -0.000167771 -0.00100909 1.30226e-06 2.38297e-05 -1.72148e-05
internal_weight=0 61 41 22237 22178 14338 7840 47 14315 532 57 475 146 126 329 299 279 173 67 106 102 13783 189 7793 420 396 69 48 79 7373
internal_count=22298 61 41 22237 22178 14338 7840 47 14315 532 57 475 146 126 329 299 279 173 67 106 102 13783 189 7793 420 396 69 48 79 7373
shrinkage=0.075


Tree=138
num_leaves=31
num_cat=0
split_feature=23 16 5 5 4 12 30 1 0 2 7 24 2 6 1 30 14 30 30 12 26 23 17 3 24 14 23 12 1 30
split_gain=0.00127811 0.00261828 0.0353911 0.0633085 0.0136521 0.042995 0.00977909 0.0260367 0.00372245 0.00400416 0.002987 0.00291654 0.00271216 0.00256111 0.00245518 0.011633 0.025099 0.0167915 0.0227412 0.0174154 0.0137087 0.00767843 0.0062418 0.0159425 0.00805465 0.0234267 0.00692825 0.00482115 0.00424686 0.0288697
threshold=2.8787700000000007 47.599950000000007 0.00017548700000000002 0.00046802100000000005 5.1247850000000004e-05 0.0013108400000000002 4.8350150000000012 -12.324699999999998 -7.6458549999999992 -0.15126199999999998 0.017052200000000003 0.00014997500000000003 0.27459550000000005 5.5126000000000007e-05 -15.357599999999998 -3.9631949999999985 -19.685249999999996 -0.74189000000000005 -0.38343999999999973 0.00027676250000000007 0.030570000000000003 -0.0014587899999999997 0.076619750000000014 1.0665500000000001e-05 -6.4781649999999989e-07 -14.666599999999997 -0.022684299999999994 0.0024462200000000003 -14.552149999999997 -1.8646
decision_type=2 2 2 2 2 2 2 2 2 2 2 2 2 2 2 2 2 2 2 2 2 2 2 2 2 2 2 2 2 2
left_child=1 14 4 -4 6 -6 7 -3 11 -10 -7 -9 -11 -2 15 -1 -17 19 -19 -18 22 -21 24 -24 25 -20 -26 -25 29 -16
right_child=13 2 3 -5 5 10 -8 8 9 12 -12 -13 -14 -15 28 16 17 18 20 21 -22 -23 23 27 26 -27 -28 -29 -30 -31
leaf_value=-0.0018846208661125274 1.5279615639552833e-05 -0.0029859473864317721 0.003709797380724922 -0.0010146379957101696 0.003376061199560354 8.5203721360100997e-05 0.0010591170517727732 0.00081687665243003308 -0.0011502264099059782 -8.8832289667053465e-05 -0.0011108702659839765 -0.00030732717932551167 -0.001025593152683411 -0.00094787939015077421 0.0020729034695631168 0.0025119093072135 -0.0027902821954339744 0.002200323853743612 0.0021166839375789427 0.00060491073163575497 -0.0016159542682615323 -0.0011368317274900619 -0.0025285230892040998 -0.00077853054023982059 -0.0011953719628036196 -8.34106763136333e-05 -4.3450269436186475e-05 0.00056680981501666531 -1.0658300315327103e-06 5.8935114825528931e-05
leaf_weight=20 44 22 39 27 24 23 24 27 36 101 24 25 21 24 43 21 25 25 38 24 32 35 20 29 30 96 1398 31 19389 581
leaf_count=20 44 22 39 27 24 23 24 27 36 101 24 25 21 24 43 21 25 25 38 24 32 35 20 29 30 96 1398 31 19389 581
internal_value=0 9.93109e-07 0.00019286 0.00177707 -0.00012689 0.0007933 -0.000382098 -0.00053119 -0.000274025 -0.000455175 -0.000525557 0.000276394 -0.000250078 -0.000324659 -2.45991e-06 -8.57609e-05 -6.58179e-05 -9.61781e-05 -4.50013e-05 -0.00113129 -7.85337e-05 -0.000428326 -4.85718e-05 -0.000694709 -1.54789e-05 0.000540497 -6.76503e-05 -8.3438e-05 5.1322e-06 0.000197718
internal_weight=0 22230 393 66 327 71 256 232 210 158 47 52 122 68 21837 1824 1804 1783 1699 84 1674 59 1642 80 1562 134 1428 60 20013 624
internal_count=22298 22230 393 66 327 71 256 232 210 158 47 52 122 68 21837 1824 1804 1783 1699 84 1674 59 1642 80 1562 134 1428 60 20013 624
shrinkage=0.075


Tree=139
num_leaves=31
num_cat=0
split_feature=13 27 1 30 27 1 3 3 4 30 30 22 30 3 27 26 19 21 2 25 4 8 10 14 7 30 1 19 30 0
split_gain=0.00125503 0.00865398 0.0364642 0.114736 0.142269 0.0338937 0.0384225 0.0898879 0.0354205 0.0673827 0.0794007 0.0374273 0.0648494 0.0298899 0.021044 0.0171899 0.0268153 0.0195805 0.014657 0.0132051 0.0129492 0.0101564 0.00965279 0.00735806 0.0183949 0.0126156 0.0185914 0.0122097 0.00722614 0.00649045
threshold=-1.3423449999999997 0.32495100000000005 -14.117999999999999 1.9244049999999995 0.055811000000000097 -12.428249999999998 1.0015050000000002e-05 1.3829900000000003e-05 -8.6596699999999973e-06 0.021755000000000194 1.1818350000000002 -0.00063532999999999992 -4.6469199999999988 1.4983450000000001e-05 0.12542999999999996 2.7665250000000004e-05 0.11450100000000002 0.042628000000000006 -0.22075399999999998 0.17509350000000004 -0.00010519749999999998 2.9598800000000005e-08 4.7619400000000009e-07 -10.747449999999999 0.0087055250000000022 0.19609000000000035 -7.7223949999999988 0.31620250000000005 -2.5072499999999995 -10.289049999999998
decision_type=2 2 2 2 2 2 2 2 2 2 2 2 2 2 2 2 2 2 2 2 2 2 2 2 2 2 2 2 2 2
left_child=1 2 3 4 13 6 -4 -8 15 11 -11 12 -10 -1 22 16 -7 -17 -9 23 -20 29 -5 28 25 26 -25 -27 -19 -13
right_child=-2 -3 5 14 -6 8 7 18 9 10 -12 21 -14 -15 -16 17 -18 19 20 -21 -22 -23 -24 24 -26 27 -28 -29 -30 -31
leaf_value=0.0028885568692203377 -1.128575775914209e-05 -2.014231433720713e-05 0.0010117851822468691 -0.00045367279124382715 0.008869488739874214 0.00016270414218341227 -0.0048900443993417347 0.0012844331209635128 -0.00062491354794474323 0.0063175843785687061 3.1927683630783575e-05 -0.0021027646861122256 0.0054147709649987521 -0.00075291288480262397 -0.0025053809658857058 -0.0023647769109699699 0.0029637599857232997 -3.9317387462150007e-05 0.00018453400432018378 -0.0021213445956527722 -0.0024248476132925135 0.00022434631677448855 0.0012012381501570475 -0.0022778902483094436 -0.0025029280271036953 -0.00047511495059942329 4.1287318446724752e-05 0.0020261869529824015 0.0012077318820956863 -0.00027907350792267366
leaf_weight=32 15901 4901 37 55 20 496 35 24 20 26 20 21 20 21 21 26 20 203 23 20 20 97 31 29 23 21 59 23 30 23
leaf_count=32 15901 4901 37 55 20 496 35 24 20 26 20 21 20 21 21 26 20 203 23 20 20 97 31 29 23 21 59 23 30 23
internal_value=0 2.8053e-05 0.000185944 0.00118714 0.00347962 4.90019e-05 -0.00105857 -0.00180959 0.000179803 0.00102149 0.00358469 0.000370066 0.00239493 0.00144571 -0.000376884 -2.13152e-05 0.000271272 -0.000369184 -0.000200392 -0.000242014 -0.00102913 -0.000204363 0.000142865 -0.000145141 -0.000545583 -0.00020453 -0.000722987 0.000832384 0.000121247 -0.00114947
internal_weight=0 6397 1496 180 73 1316 139 102 1177 227 46 181 40 53 107 950 516 434 67 408 43 141 86 388 155 132 88 44 233 44
internal_count=22298 6397 1496 180 73 1316 139 102 1177 227 46 181 40 53 107 950 516 434 67 408 43 141 86 388 155 132 88 44 233 44
shrinkage=0.075


Tree=140
num_leaves=31
num_cat=0
split_feature=3 22 4 26 23 3 15 7 3 6 30 1 23 14 30 3 24 24 19 7 24 19 17 10 12 25 27 27 25 19
split_gain=0.00130787 0.0102292 0.0284612 0.072796 0.0349455 0.0176604 0.0157326 0.0330973 0.0132369 0.0122228 0.00836321 0.00780954 0.0339342 0.00871073 0.00771004 0.00944097 0.00669494 0.0103061 0.00655514 0.0467788 0.00651375 0.0258542 0.0119693 0.0223266 0.0106754 0.00790094 0.0106973 0.012936 0.00482197 0.00520877
threshold=1.18818e-05 -0.043520549999999998 -2.4943799999999997e-05 0.0048276950000000008 -0.19394499999999995 7.8103900000000016e-06 1.0471900000000003 0.0022944000000000007 8.447635000000001e-06 -1.278695e-05 -2.1395 -18.784849999999995 -0.00023704799999999998 -21.761999999999997 0.11716499999999998 1.0301600000000001e-05 4.4179850000000008e-08 4.6225400000000007e-08 -0.57589999999999986 0.0038036500000000009 1.8982000000000001e-07 -0.23730099999999996 -0.021953799999999999 1.6779550000000002e-07 5.6448650000000011e-10 -0.027382149999999997 -0.14356249999999995 1.1052695000000001 0.15002100000000004 0.83809650000000013
decision_type=2 2 2 2 2 2 2 2 2 2 2 2 2 2 2 2 2 2 2 2 2 2 2 2 2 2 2 2 2 2
left_child=1 2 3 -1 -5 -4 11 -8 -7 -10 -6 12 -3 -13 28 -16 18 -18 19 -15 21 -19 23 -23 -24 26 -22 -28 29 -11
right_child=-2 6 5 4 10 8 7 -9 9 14 -12 13 -14 16 15 -17 17 20 -20 -21 25 22 24 -25 -26 -27 27 -29 -30 -31
leaf_value=0.0051378905780122457 1.123348310128037e-05 0.0033310585775325305 -0.0015872797013192514 0.0030132570897694676 -0.0017783576094767672 0.0016399509510055426 0.00020435681508388371 -0.003651926790813117 0.0013649018187049564 0.0012488056399383317 9.8325626972569705e-05 -0.0013954536201506722 -0.00045259109067728785 -0.00028821245936449163 7.719227911106178e-05 -0.001795206654109775 -0.0018185006001398764 -0.0022216415814341416 -5.1700028907714435e-06 0.0038380591287568676 0.00012822441926151179 9.8852349270600812e-05 -0.0017939007682018979 -0.0032631178586598254 -7.4858551728229422e-05 4.1998339439468158e-05 -0.0029449947642569891 -0.00030951666191289073 -0.00066152448300272227 1.2241889432764517e-05
leaf_weight=23 16129 20 36 20 22 31 31 21 31 27 34 27 40 68 28 33 21 38 3807 20 42 25 21 20 628 912 20 22 35 66
leaf_count=23 16129 20 36 20 22 31 31 21 31 27 34 27 40 68 28 33 21 38 3807 20 42 25 21 20 628 912 20 22 35 66
internal_value=0 -2.93702e-05 0.000344446 0.00144097 0.000322162 -3.37969e-05 -5.43215e-05 -0.00135299 0.000189013 -1.54369e-05 -0.000638943 -4.2538e-05 0.000808625 -5.15435e-05 -0.000241842 -0.000935745 -4.51144e-05 -0.000167013 9.62273e-06 0.000649577 -0.000146943 -0.000316799 -0.000212499 -0.00139536 -0.000130482 -2.21098e-05 -0.000718141 -0.00156451 8.88466e-05 0.000371244
internal_weight=0 6169 386 99 76 287 5783 52 251 220 56 5731 60 5671 189 61 5644 1749 3895 88 1728 732 694 45 649 996 84 42 128 93
internal_count=22298 6169 386 99 76 287 5783 52 251 220 56 5731 60 5671 189 61 5644 1749 3895 88 1728 732 694 45 649 996 84 42 128 93
shrinkage=0.075


Tree=141
num_leaves=31
num_cat=0
split_feature=1 14 30 30 14 22 25 28 31 2 2 2 1 16 21 23 9 20 16 2 20 30 28 8 11 21 1 9 2 30
split_gain=0.00133058 0.0149237 0.0234119 0.0300653 0.0175994 0.0126073 0.0184103 0.0502564 0.00698252 0.0175927 0.00848503 0.00621606 0.00313006 0.0335867 0.00987324 0.00678376 0.0172338 0.00623924 0.00301771 0.0200741 0.0038084 0.00673387 0.0146723 0.0065782 0.00569611 0.00523137 0.0546164 0.0999863 0.0156437 0.0272474
threshold=-16.595249999999997 -19.847649999999998 -0.8282000000000006 -0.19308000000000011 -17.037399999999995 -0.37774049999999998 -0.031563349999999997 -0.174708 -3.8458149999999995 1.7476950000000002 -0.53175849999999991 0.20851600000000003 -16.232699999999998 5.3548650000000011 0.26229750000000007 -5.0259749999999999 -8.4704499999999987e-07 -1.1149199999999998e-05 112.04900000000002 0.26375150000000008 -0.00056516949999999987 -0.6183000000000004 0.45128010000000013 -1.0244349999999998e-05 8.5055700000000013e-05 4.9419500000000012 -12.428249999999998 6.253110000000001e-06 -1.2804649999999997 -3.8232099999999996
decision_type=2 2 2 2 2 2 2 2 2 2 2 2 2 2 2 2 2 2 2 2 2 2 2 2 2 2 2 2 2 2
left_child=1 -1 -3 -4 -5 -6 7 -7 -8 10 -10 -12 13 14 17 16 -14 -2 20 -20 21 23 -23 -17 -25 -22 27 -27 29 -28
right_child=12 2 3 4 5 6 8 -9 9 -11 11 -13 15 -15 -16 18 -18 -19 19 -21 25 22 -24 24 -26 26 28 -29 -30 -31
leaf_value=0.001726361873326823 0.0014558200999454129 -0.0025484012326077474 0.0028035980879212732 -0.0021841049103228294 -0.0018181879937954994 -0.0013235555866101224 -3.4860702978548435e-05 0.0036094289429736536 0.00076849757431318722 -0.0026247935806168244 -0.0013763808105826077 0.00012903374720028496 -0.0025272971929163235 0.0032140863280801569 -0.0012703409066307358 -0.0011528513970351295 -9.2917839631538943e-05 2.3267234334917833e-05 -0.00050440925554842881 0.0024591088001034221 9.3321339207425927e-07 -0.0024463652035869332 0.00023256650235018003 -8.4842727777072465e-05 0.0012576488136073747 0.00035225097830441558 -0.00029746088775937094 0.0065012299821579026 -0.00035751380694184402 0.0032314045726525363
leaf_weight=25 20 22 20 23 23 21 747 26 32 21 36 27 21 20 30 29 74 118 36 20 20279 23 23 160 20 51 32 21 278 20
leaf_count=25 20 22 20 23 23 21 747 26 32 21 36 27 21 20 30 29 74 118 36 20 20279 23 23 160 20 51 32 21 278 20
internal_value=0 -8.35499e-05 -0.000128888 -7.43502e-05 -0.000134558 -8.40336e-05 -4.02033e-05 0.00140533 -0.000118929 -0.000660298 -0.000226041 -0.000731203 4.01746e-06 0.000308688 -3.71922e-05 1.30119e-06 -0.000631044 0.000230884 4.16289e-06 0.00055399 2.6922e-06 -0.00028538 -0.0011069 -0.000104567 6.4323e-05 6.24417e-06 0.000274157 0.0021457 -0.00013418 0.0010598
internal_weight=0 1023 998 976 956 933 910 47 863 116 95 63 21275 188 168 21087 95 138 20992 56 20936 255 46 209 180 20681 402 72 330 52
internal_count=22298 1023 998 976 956 933 910 47 863 116 95 63 21275 188 168 21087 95 138 20992 56 20936 255 46 209 180 20681 402 72 330 52
shrinkage=0.075


Tree=142
num_leaves=31
num_cat=0
split_feature=17 27 13 30 4 11 6 6 4 27 27 2 2 20 1 10 27 0 25 7 7 7 7 27 20 19 0 17 1 17
split_gain=0.001304 0.00788507 0.0326156 0.0406241 0.0780106 0.0239591 0.0608502 0.0612061 0.0372079 0.0425261 0.0354284 0.104114 0.117471 0.0550838 0.0193422 0.0188712 0.0161266 0.0830764 0.0159528 0.0142622 0.0192293 0.0134759 0.0338149 0.0182053 0.0123471 0.00782666 0.00941117 0.00763494 0.00682872 0.00514717
threshold=-0.019614149999999997 0.14943000000000009 -2.1199149999999993 -0.46073500000000051 -4.6702999999999997e-05 -2.2777349999999997e-09 -1.6913099999999996e-05 -3.2730799999999988e-05 0.00010669350000000001 -0.0049194000000000243 -0.14356249999999995 0.61727300000000007 0.16987450000000001 1.2899450000000002e-05 -13.123699999999998 3.5696450000000006e-07 0.25180000000000019 -5.2956799999999999 0.0030139350000000006 0.0036090800000000002 0.00024997100000000004 0.0073645800000000016 0.0033522950000000004 -0.39737499999999987 -3.8491799999999989e-05 -0.0096183549999999968 -5.7180649999999993 -0.14520449999999999 -13.618449999999998 -0.0071688249999999993
decision_type=2 2 2 2 2 2 2 2 2 2 2 2 2 2 2 2 2 2 2 2 2 2 2 2 2 2 2 2 2 2
left_child=1 2 3 19 14 6 7 -4 9 15 24 12 -12 -13 -5 21 17 18 -3 20 -1 22 25 -23 -7 27 -27 -8 -26 -2
right_child=29 16 5 4 -6 10 8 -9 -10 -11 11 13 -14 -15 -16 -17 -18 -19 -20 -21 -22 23 -24 -25 28 26 -28 -29 -30 -31
leaf_value=0.00021649918239745604 0.00011100995910115247 -0.0019987190540632581 -0.00034518410081675805 -0.0023442013361491261 -0.0063807877181846252 0.0018376168292888904 -0.0012352364867274444 -0.006142485587624833 -0.0031347846008429768 0.0026991574030797629 -6.6216956911375745e-05 0.0016760621918365359 0.0076454342838842412 -0.0038236580802913519 0.00066950224990369354 -0.0021441010351386817 -2.1467465626340874e-06 0.0048506367559362521 0.00073585065065344673 0.0013891923133996897 -0.0022295711363328557 -0.00023869428168836747 0.0028246828238794618 -0.0027299522168634988 -0.00085283405165278558 0.0019932749895360756 -3.5858995822006061e-05 -1.9384247380571651e-06 6.9390107810941908e-05 -7.0799886261492404e-06
leaf_weight=48 2378 24 21 25 21 20 40 20 22 31 20 21 25 20 23 26 2449 23 24 24 29 77 26 21 54 20 36 96 276 16358
leaf_count=48 2378 24 21 25 21 20 40 20 22 31 20 21 25 20 23 26 2449 23 24 24 29 77 26 21 54 20 36 96 276 16358
internal_value=0 -4.15966e-05 -0.00021513 -0.00116546 -0.00256816 -2.98597e-05 -0.000422991 -0.00317314 -0.000137533 3.92482e-05 0.000363272 0.00172716 0.00421803 -0.00100673 -0.000900135 -0.000201855 3.01581e-05 0.00114445 -0.000631434 -0.000207178 -0.000704748 -4.20496e-05 0.000286334 -0.000772535 2.81456e-05 -5.74009e-05 0.000688832 -0.000364673 -8.15193e-05 7.90816e-06
internal_weight=0 3562 1042 170 69 872 436 41 395 373 436 86 45 41 48 342 2520 71 48 101 77 316 218 98 350 192 56 136 330 18736
internal_count=22298 3562 1042 170 69 872 436 41 395 373 436 86 45 41 48 342 2520 71 48 101 77 316 218 98 350 192 56 136 330 18736
shrinkage=0.075


Tree=143
num_leaves=31
num_cat=0
split_feature=3 13 17 3 13 24 5 26 5 26 19 4 3 20 17 0 17 3 17 19 20 0 27 20 31 31 8 19 1 18
split_gain=0.00123912 0.0106118 0.00862911 0.0195608 0.0127009 0.0108341 0.0119053 0.0318767 0.0093081 0.00823274 0.0146619 0.041445 0.00756718 0.0383676 0.00948542 0.0131487 0.00651982 0.0104088 0.00504674 0.00440598 0.0109489 0.00532232 0.00663276 0.0299113 0.00632941 0.0196245 0.0121926 0.0109664 0.0104985 0.00666717
threshold=1.0756550000000003e-05 -3.0876849999999996 0.011420200000000002 1.0626800000000001e-05 0.31676350000000003 0.00014997500000000003 0.00016940400000000003 0.00075725500000000008 0.00026060800000000006 0.12041550000000001 -1.8215899999999998 1.6310450000000006e-05 1.0913950000000002e-05 -3.8491799999999989e-05 0.0070385900000000008 4.7472650000000014 0.010404100000000001 9.0287150000000015e-06 0.0044668500000000005 -1.3107849999999999 6.0532200000000003e-05 -5.5535949999999987 -0.079140000000000085 3.994980000000001e-06 0.35028500000000001 0.26713999999999999 7.9817200000000016e-06 2.0135550000000006 -6.8739799999999995 6.7582350000000015e-05
decision_type=2 2 2 2 2 2 2 2 2 2 2 2 2 2 2 2 2 2 2 2 2 2 2 2 2 2 2 2 2 2
left_child=1 -1 9 4 -4 6 -6 8 -8 10 11 -3 13 -2 18 -16 19 -18 -15 -12 21 22 -21 -24 25 27 29 28 -23 -26
right_child=12 2 3 -5 5 -7 7 -9 -10 -11 16 -13 -14 14 15 -17 17 -19 -20 20 -22 24 23 -25 26 -27 -28 -29 -30 -31
leaf_value=0.0012287699040481694 0.0028854820539803059 -0.00034464348640097803 -0.0015688148384678396 -0.0020864097841325701 -6.5952290246961537e-05 0.0013777208867115683 -0.0011096503545240922 -0.0027936801909270478 0.00095289445972639435 -0.0010798634618717747 -0.001074767240259627 0.0037660121729872612 2.7009983219895414e-06 -2.2403924698924781e-05 -2.7903926869551501e-05 0.0024899442369223836 0.0021708217158993648 -5.3230912438046855e-05 -0.0012556033564968467 -2.987323997922323e-05 0.0012559151621836032 2.5323882037267451e-05 -0.00020594661254956401 -0.0026586461690612851 -0.0014321112651703061 0.0020173718924161223 -0.0016110913003694804 0.0018258651382893731 0.0012138462816977174 -4.8822399724017172e-05
leaf_weight=37 31 37 36 32 616 26 20 34 32 39 22 22 17688 168 28 20 20 29 21 422 38 1505 222 32 20 30 30 20 43 978
leaf_count=37 31 37 36 32 616 26 20 34 32 39 22 22 17688 168 28 20 20 29 21 422 38 1505 222 32 20 30 30 20 43 978
internal_value=0 -3.59538e-05 -4.68236e-05 -0.000269766 -0.000193676 -0.000125675 -0.000181356 -0.00100797 0.000159608 3.74982e-06 1.59288e-05 0.00118814 8.6941e-06 0.000404239 7.9688e-05 0.0010212 -4.34702e-06 0.000854546 -0.000159426 -1.68651e-05 -9.89687e-06 -2.44641e-05 -0.000212135 -0.000514948 2.38473e-05 0.000117238 -0.000121326 8.08834e-05 5.83384e-05 -7.65436e-05
internal_weight=0 4342 4305 796 764 728 702 86 52 3509 3470 59 17956 268 237 48 3411 49 189 3362 3340 3302 676 254 2626 1598 1028 1568 1548 998
internal_count=22298 4342 4305 796 764 728 702 86 52 3509 3470 59 17956 268 237 48 3411 49 189 3362 3340 3302 676 254 2626 1598 1028 1568 1548 998
shrinkage=0.075


Tree=144
num_leaves=31
num_cat=0
split_feature=16 11 27 3 22 21 1 24 27 15 7 6 12 26 26 16 0 1 23 14 30 24 19 7 24 24 22 15 14 21
split_gain=0.00121812 0.00136579 0.00246782 0.00125436 0.00877032 0.0256419 0.0197438 0.0533992 0.110394 0.0140002 0.0290468 0.0138759 0.0103644 0.00708619 0.0102634 0.00642005 0.00977445 0.00635424 0.0276173 0.00808779 0.0169868 0.00541078 0.010405 0.0437806 0.0087357 0.00547601 0.0214264 0.0113938 0.0389002 0.00601405
threshold=0.14802850000000004 -1.0866149999999999e-06 0.45853315000000017 1.18818e-05 -0.043520549999999998 0.23553150000000003 -14.159849999999997 2.2124750000000004e-06 1.9002925000000002 1.0471900000000003 0.0022944000000000007 -1.6680899999999995e-05 0.00014912950000000002 0.091308400000000012 0.037960500000000008 11.622100000000001 -3.5135999999999998 -18.784849999999995 -0.00023704799999999998 -20.381849999999996 -12.564699999999997 4.4179850000000008e-08 -0.57589999999999986 0.0026029750000000004 4.6225400000000007e-08 1.8982000000000001e-07 -0.0094017349999999979 0.22348400000000004 -7.1911899999999989 0.51382200000000011
decision_type=2 2 2 2 2 2 2 2 2 2 2 2 2 2 2 2 2 2 2 2 2 2 2 2 2 2 2 2 2 2
left_child=1 2 -1 4 5 -2 7 -7 -9 17 -11 -8 13 14 -13 16 -14 18 -6 20 -19 22 23 -21 -23 26 -26 -28 -29 -27
right_child=3 -3 -4 -5 9 6 11 8 -10 10 -12 12 15 -15 -16 -17 -18 19 -20 21 -22 24 -24 -25 25 29 27 28 -30 -31
leaf_value=0.0011903428973118935 0.0029310412197082769 2.4395026095648726e-05 2.625644672532092e-05 9.8576939675137309e-06 0.0030012594474146683 -0.0015749779484890908 0.0014847482852677911 0.006965355648135301 -0.00091477823429158894 0.00018064723624246977 -0.0034319678654095953 6.4659491033580704e-05 -0.002658266035307731 -0.0009139270202966497 0.0018268375908850098 -0.00018327092127393648 -0.00061154966157638609 0.00017280408394851422 -0.00041210157785826591 -0.00019929837754456716 -0.0026890239311978801 -0.0016722863257330443 -9.8739062409099719e-06 0.0038885991113784255 -0.0025420995935311786 0.00010765481943367503 -9.7426855491925915e-05 -0.0001913051761675888 -0.0039192571762055196 -0.00029052024768228842
leaf_weight=20 20 56 21 16066 20 22 29 20 20 31 21 120 21 31 22 46 35 28 40 56 20 21 3778 20 23 675 610 74 20 312
leaf_count=20 20 56 21 16066 20 22 29 20 20 31 21 120 21 31 22 46 35 28 40 56 20 21 3778 20 23 675 610 74 20 312
internal_value=0 0.0002652 0.000594103 -1.1587e-06 -3.00078e-05 0.000316062 0.000173167 0.00139294 0.00302529 -5.32437e-05 -0.00127829 -7.56012e-05 -0.000240147 0.000113398 0.000337673 -0.000839787 -0.00137907 -4.20619e-05 0.000725685 -5.02338e-05 -0.00101962 -4.19084e-05 7.60448e-06 0.000876464 -0.000151893 -0.000133265 -0.000289464 -0.000215869 -0.000984486 -1.82121e-05
internal_weight=0 97 41 22201 6135 386 366 62 40 5749 52 304 275 173 142 102 56 5697 60 5637 48 5589 3854 76 1735 1714 727 704 94 987
internal_count=22298 97 41 22201 6135 386 366 62 40 5749 52 304 275 173 142 102 56 5697 60 5637 48 5589 3854 76 1735 1714 727 704 94 987
shrinkage=0.075


Tree=145
num_leaves=31
num_cat=0
split_feature=1 16 20 1 15 14 1 20 7 1 30 27 21 24 3 4 0 5 6 6 21 25 1 16 6 20 12 9 23 1
split_gain=0.0013282 0.0116879 0.00719756 0.00260681 0.0328248 0.0045664 0.0263986 0.00417598 0.00703868 0.00446999 0.0114495 0.00830214 0.0034623 0.00323211 0.0414816 0.00293317 0.00272618 0.00241949 0.00226916 0.011699 0.0445772 0.0102469 0.090677 0.0116747 0.0116979 0.00603077 0.040488 0.0622777 0.0355775 0.0144052
threshold=-19.356149999999996 2.7486450000000002 2.9431850000000003e-06 -18.784849999999995 -0.25923199999999996 -19.685249999999996 -16.595249999999997 0.00020448100000000004 0.01115525 -12.641249999999998 -5.6251549999999986 0.3752950000000001 0.097022400000000023 0.0003225765000000001 2.0503800000000002e-05 3.6256700000000003e-06 15.501500000000002 5.301805000000001e-05 6.2460450000000013e-05 6.3414900000000022e-05 0.29129750000000004 -0.9832439999999999 -11.734449999999999 31.953800000000005 0.00013790500000000004 -3.3107699999999995e-05 0.00019692300000000003 -2.0871299999999999e-06 0.0017577900000000002 -16.098949999999999
decision_type=2 2 2 2 2 2 2 2 2 2 2 2 2 2 2 2 2 2 2 2 2 2 2 2 2 2 2 2 2 2
left_child=1 2 -1 4 -2 6 -5 9 17 10 11 -8 -6 16 15 -15 18 -9 -7 20 -20 22 -21 25 -25 26 27 -23 -29 -28
right_child=3 -3 -4 5 12 13 7 8 -10 -11 -12 -13 -14 14 -16 -17 -18 -19 19 21 -22 23 -24 24 -26 -27 29 28 -30 -31
leaf_value=-0.00026367233150813264 0.0030875397189811336 -0.0016718623369233682 0.0014197882871121691 -0.0026528048896580004 -2.4506971700387883e-05 -1.023482278017946e-05 -0.0026102910181361946 0.000268661995296035 0.001583522985165473 -0.00010150620281365263 0.00067591403379992706 -0.00049896854163142214 -0.0011856704007368534 -0.00134949848103464 0.0033747285927529444 -0.00013817321672357375 -0.00051492827164781232 -0.00063819822952728312 1.0363305409555323e-06 0.0049617318960372353 0.004015937610820401 0.0052417123465354305 -0.001701144751536453 -0.002250934587914344 -0.00030080969641388828 1.0733669185400728e-05 0.0016125942197912331 -0.0012141208347020438 0.0026600556140692791 -0.00011894228994752855
leaf_weight=50 20 25 20 24 52 15777 20 59 20 300 20 22 20 22 20 23 57 23 70 20 20 22 27 24 62 4999 29 30 24 397
leaf_count=50 20 25 20 24 52 15777 20 59 20 300 20 22 20 22 20 23 57 23 70 20 20 22 27 24 62 4999 29 30 24 397
internal_value=0 -0.000279836 0.000217316 1.19733e-06 0.000399598 -4.60342e-07 -0.000227338 -0.000101883 0.00032199 -0.000221317 -0.000801046 -0.00150436 -0.000347052 4.65997e-06 0.000532733 -0.000730377 3.06776e-06 1.42988e-05 4.44099e-06 4.48918e-05 0.000893237 3.13399e-05 0.00113412 2.20629e-05 -0.000845031 3.56186e-05 0.000283427 0.0018781 0.000507735 -1.06774e-06
internal_weight=0 95 70 22203 92 22111 488 464 102 362 62 42 72 21623 65 45 21558 82 21501 5724 90 5634 47 5587 86 5501 502 76 54 426
internal_count=22298 95 70 22203 92 22111 488 464 102 362 62 42 72 21623 65 45 21558 82 21501 5724 90 5634 47 5587 86 5501 502 76 54 426
shrinkage=0.075


Tree=146
num_leaves=31
num_cat=0
split_feature=1 14 30 30 14 22 25 27 31 2 2 17 1 15 21 19 23 9 16 2 20 30 24 21 1 9 2 16 3 5
split_gain=0.00135303 0.0142325 0.0188933 0.0259259 0.0174831 0.0115685 0.0151579 0.0427931 0.00594208 0.015167 0.00719554 0.00569155 0.002672 0.0314585 0.0105117 0.00741113 0.0062408 0.0147634 0.00253718 0.0159315 0.0032633 0.00673249 0.0135823 0.00458319 0.0440425 0.0842598 0.0130819 0.0238824 0.0124511 0.00659743
threshold=-16.595249999999997 -19.847649999999998 -0.74189000000000005 -0.026880000000000234 -17.037399999999995 -0.37774049999999998 -0.031563349999999997 0.23026500000000019 -3.8458149999999995 1.7476950000000002 -0.53175849999999991 0.0083953250000000021 -16.232699999999998 -0.39911899999999995 0.26229750000000007 0.093860000000000013 -5.0259749999999999 -8.4704499999999987e-07 112.04900000000002 0.26375150000000008 -0.00056516949999999987 -0.6183000000000004 4.7478300000000009e-05 4.9419500000000012 -12.428249999999998 6.253110000000001e-06 -1.2804649999999997 39.016550000000002 1.1705750000000002e-05 0.00015476500000000004
decision_type=2 2 2 2 2 2 2 2 2 2 2 2 2 2 2 2 2 2 2 2 2 2 2 2 2 2 2 2 2 2
left_child=1 -1 -3 -4 -5 -6 7 -7 -8 10 -10 -12 13 -2 15 -15 17 -14 20 -20 21 -18 -23 -22 25 28 27 -26 -25 -28
right_child=12 2 3 4 5 6 8 -9 9 -11 11 -13 16 14 -16 -17 18 -19 19 -21 23 22 -24 24 26 -27 29 -29 -30 -31
leaf_value=0.0016832483040634544 0.0030973894144335642 -0.0021643324039323487 0.0025304172256645479 -0.002327760006592143 -0.0017477925079773464 0.0033008670676701094 -3.8858629972619256e-05 -0.001251118362415582 0.00070249632353807095 -0.0024402727576671168 -0.00018642726110036685 -0.0017236349973245523 -0.0023600549690724749 -1.0652420370913078e-05 -0.0014049151207372133 0.001547842602503806 -8.2928450194631468e-05 -0.00010690521070795806 -0.00043444524199003353 0.0022056343432632275 1.2547216315093603e-06 -0.0024913016423982171 9.6003297599963846e-05 0.0016919085296519499 -0.00039426536455721361 0.005935983281857001 -0.00017300367908075172 0.0028590793223966927 -0.00068920249992515887 -0.001261212376266485
leaf_weight=25 20 25 21 20 23 26 747 21 32 21 42 20 21 121 27 20 209 74 36 20 20279 21 25 21 30 21 242 22 30 36
leaf_count=25 20 25 21 20 23 26 747 21 32 21 42 20 21 121 27 20 209 74 36 20 20279 21 25 21 30 21 242 22 30 36
internal_value=0 -8.42518e-05 -0.000128528 -7.62204e-05 -0.00013372 -8.66374e-05 -4.4606e-05 0.001267 -0.000116121 -0.000617987 -0.00021088 -0.000682301 4.05122e-06 0.000285548 -4.91952e-05 0.000210411 1.54155e-06 -0.00060497 4.28634e-06 0.00050844 2.93782e-06 -0.000263723 -0.00108516 6.22578e-06 0.000256992 0.00193763 -0.000109693 0.00098215 0.000291255 -0.000313923
internal_weight=0 1023 998 973 952 932 909 47 862 115 94 62 21275 188 168 141 21087 95 20992 56 20936 255 46 20681 402 72 330 52 51 278
internal_count=22298 1023 998 973 952 932 909 47 862 115 94 62 21275 188 168 141 21087 95 20992 56 20936 255 46 20681 402 72 330 52 51 278
shrinkage=0.075


Tree=147
num_leaves=31
num_cat=0
split_feature=23 7 16 8 8 5 8 7 14 5 18 9 9 6 16 8 20 9 9 14 9 30 15 0 0 27 17 9 17 27
split_gain=0.00137423 0.00283832 0.00222861 0.0325379 0.13294 0.0231506 0.0591391 0.00930401 0.0100118 0.00493351 0.00811864 0.00700524 0.00514476 0.003014 0.00264694 0.0199747 0.001734 0.012303 0.0110946 0.0201354 0.0132368 0.0283443 0.00958524 0.00848728 0.0563309 0.0821387 0.0103891 0.0216643 0.0160551 0.00834121
threshold=2.8787700000000007 0.00048176050000000003 47.599950000000007 -1.2103499999999999e-05 -3.6141799999999993e-05 0.00018889350000000002 4.9220650000000005e-05 0.0055487150000000001 -9.6068099999999976 -8.431744999999999e-05 0.061221600000000008 -8.4704499999999987e-07 4.4228650000000009e-07 0.00028715600000000005 39.016550000000002 -5.6133649999999993e-08 4.379045000000001e-05 -6.1056899999999991e-07 -9.8041349999999972e-06 -8.0189849999999989 -3.4425549999999994e-05 -1.198825 0.37139850000000002 -3.1319399999999997 -3.8868099999999992 -1.6673719999999996 -0.15993099999999996 5.3235000000000008e-07 -0.11425649999999998 0.40341550000000004
decision_type=2 2 2 2 2 2 2 2 2 2 2 2 2 2 2 2 2 2 2 2 2 2 2 2 2 2 2 2 2 2
left_child=2 -2 14 4 13 7 -7 9 -9 10 -5 -11 -13 -4 16 -16 -1 18 20 29 22 -22 -18 24 26 -26 27 -19 -28 -20
right_child=1 -3 3 5 -6 6 -8 8 -10 11 -12 12 -14 -15 15 -17 17 23 19 -21 21 -23 -24 -25 25 -27 28 -29 -30 -31
leaf_value=5.2256586622390056e-06 0.00020869605059488095 -0.00076717894181982903 -0.0013816535348139172 0.0016324522523791529 0.0063041448284385966 0.0040960597313128141 -0.0014088644192919934 -0.0025147169954090544 -0.00022527430805244615 -0.0014093551563423865 -0.00028254809625319799 5.47362587195862e-05 -0.00098944914232775125 -0.0001388975232459969 -0.0024423160727019421 0.00043745007247447833 -0.00015061907107308562 -0.00051579286741531075 -0.00090813821544713839 -0.00269256140753795 -0.00036512472264348616 0.0028540964465355503 -0.001616593903775632 -0.0001098962316424524 -9.485475995916203e-05 0.006413047382666264 -0.0017888332442089448 0.0020901699403590387 2.7696487165926534e-05 7.6872042894104154e-05
leaf_weight=20161 30 38 21 20 23 23 21 22 21 31 33 121 34 23 20 42 186 34 120 27 40 25 29 648 24 20 30 38 312 81
leaf_count=20161 30 38 21 20 23 23 21 22 21 31 33 121 34 23 20 42 186 34 120 27 40 25 29 648 24 20 30 38 312 81
internal_value=0 -0.000336646 1.02978e-06 0.000178044 0.00168337 -0.000131333 0.00146871 -0.000380985 -0.00139662 -0.000198256 0.000440094 -0.000380152 -0.000174311 -0.000732031 -2.15595e-06 -0.000491507 -7.62621e-07 -7.55642e-05 -0.000381099 -0.000769514 -6.48177e-05 0.000873037 -0.000348355 6.47717e-05 0.0003119 0.00286328 4.07387e-05 0.000859576 -0.000131648 -0.000511194
internal_weight=0 68 22230 393 67 326 44 282 43 239 53 186 155 44 21837 62 21775 1614 508 228 280 65 215 1106 458 44 414 72 342 201
internal_count=22298 68 22230 393 67 326 44 282 43 239 53 186 155 44 21837 62 21775 1614 508 228 280 65 215 1106 458 44 414 72 342 201
shrinkage=0.075


Tree=148
num_leaves=31
num_cat=0
split_feature=17 27 13 30 4 27 3 27 1 4 4 27 27 27 2 20 27 27 18 6 27 5 3 1 27 14 16 6 6 17
split_gain=0.00141415 0.00757948 0.0287345 0.0357618 0.0654785 0.0242091 0.0625682 0.0492288 0.017072 0.0160188 0.0469973 0.0183728 0.023513 0.0157183 0.0344688 0.0152808 0.0131605 0.0131032 0.0769245 0.0127356 0.010009 0.00653552 0.00581372 0.00475976 0.00711212 0.00626212 0.00675563 0.00471351 0.0119845 0.00435845
threshold=-0.018698049999999997 0.14943000000000009 -2.1199149999999993 -0.46073500000000051 -4.6702999999999997e-05 0.055811000000000097 1.5872500000000004e-05 0.017084500000000061 -13.198599999999997 0.00011438700000000001 5.9813000000000005e-05 -0.027369999999999946 -0.10000499999999989 -0.22108000000000014 0.052495550000000009 -0.00010740549999999999 -0.2956995 0.25180000000000019 0.0085131250000000016 1.0021360000000001e-05 0.027610000000000138 -3.888314999999999e-05 2.9882300000000004e-05 -9.7434249999999967 -0.2956995 -8.5443749999999987 8.254430000000001 0.00026466700000000006 0.00030283000000000008 -0.0071688249999999993
decision_type=2 2 2 2 2 2 2 2 2 2 2 2 2 2 2 2 2 2 2 2 2 2 2 2 2 2 2 2 2 2
left_child=1 2 3 20 8 7 -7 9 -5 10 11 12 13 15 -15 -4 -11 18 19 -3 21 22 -1 25 -25 26 -17 -19 -29 -2
right_child=29 17 5 4 -6 6 -8 -9 -10 16 -12 -13 -14 14 -16 23 -18 27 -20 -21 -22 -23 -24 24 -26 -27 -28 28 -30 -31
leaf_value=0.0017591789302969117 0.00010523883836712203 0.00055295673174772335 0.0020319009476224893 -0.0024300771475695496 -0.0059135926787608432 0.00091593697015196073 -0.00450437903991374 0.0029837997901561338 0.00040866908821044488 -0.00021344723805352418 0.0033579636182959963 -0.0016905818056425471 0.0018172848906512003 -0.0037515645677922288 0.00059896034948678787 -0.00034799589139276156 -0.0028103190133281579 -4.2807298606687715e-05 0.0043860928569920358 -0.0019212676755632856 -0.0016626629381789825 -0.00050077958942893017 -4.9195681203855205e-05 1.7365215606102064e-05 0.0014709725650754991 0.00019538851539811517 -0.0015218940668273715 0.0016878332821033835 0.00011947240735589615 -5.2141932380078344e-06
leaf_weight=20 2291 22 20 22 21 25 23 31 26 23 23 38 38 20 21 130 21 2152 25 25 21 40 20 355 20 85 35 30 317 16358
leaf_count=20 2291 22 20 22 21 25 23 31 26 23 23 38 38 20 21 130 21 2152 25 25 21 40 20 355 20 85 35 30 317 16358
internal_value=0 -4.26989e-05 -0.000209629 -0.00110452 -0.00242061 -4.2083e-05 -0.0016813 4.94081e-05 -0.000892423 -6.03219e-05 1.77314e-05 -8.30893e-05 1.28189e-06 -9.9313e-05 -0.00152325 -8.7994e-06 -0.00145286 2.72937e-05 0.0010248 -0.00076312 -0.00020542 0.000177106 0.000854992 -7.41018e-05 9.48909e-05 -0.000327591 -0.000597005 -1.446e-06 0.000255066 8.35479e-06
internal_weight=0 3649 1078 170 69 908 48 860 48 829 785 762 724 686 41 645 44 2571 72 47 101 80 40 625 375 250 165 2499 347 18649
internal_count=22298 3649 1078 170 69 908 48 860 48 829 785 762 724 686 41 645 44 2571 72 47 101 80 40 625 375 250 165 2499 347 18649
shrinkage=0.075


Tree=149
num_leaves=31
num_cat=0
split_feature=5 25 25 2 4 1 16 5 27 1 23 23 18 3 7 18 30 30 21 27 27 7 27 13 3 5 17 7 17 27
split_gain=0.00129787 0.00899675 0.0137727 0.042721 0.0128359 0.0154612 0.00970662 0.00815031 0.0224588 0.069275 0.0121138 0.00741204 0.0178311 0.0112062 0.0254651 0.00981577 0.027525 0.0414927 0.0127489 0.00967993 0.0186005 0.00690884 0.00890988 0.00679105 0.00656039 0.00533095 0.0134682 0.0356226 0.00588816 0.0163105
threshold=-8.2567199999999984e-05 -0.13942349999999998 -0.043826949999999996 0.4097745000000001 -0.00025267649999999997 -14.552149999999997 55.015050000000009 -7.5185999999999995e-05 -0.2956995 -11.908549999999998 0.0017995950000000002 -0.005433645 0.00073604950000000018 1.2954700000000002e-05 0.0011500100000000001 0.027854300000000002 1.7921800000000012 -2.5656249999999998 0.9139250000000001 -0.53096500000000002 0.5430708500000001 0.0073645800000000016 -0.12087000000000013 -1.3141449999999997 1.3483050000000001e-05 -9.4144949999999984e-05 -0.005806239999999999 0.0010783800000000003 -0.17627099999999998 -0.26963010000000004
decision_type=2 2 2 2 2 2 2 2 2 2 2 2 2 2 2 2 2 2 2 2 2 2 2 2 2 2 2 2 2 2
left_child=1 4 3 -3 -1 -6 -7 8 -2 -10 -11 12 -4 14 -14 18 17 -17 25 -20 -21 23 -23 -16 -15 28 27 -27 29 -13
right_child=7 2 11 -5 5 6 -8 -9 9 10 -12 15 13 24 21 16 -18 -19 19 20 -22 22 -24 -25 -26 26 -28 -29 -30 -31
leaf_value=-0.0019811894710512895 -2.9127019304791184e-07 -0.00010711819056723471 -0.0018852367921075104 0.0033454066481291584 0.0011847754212794825 -0.00033776755540279504 -0.0019923666695831344 2.9194779422652899e-06 0.0052718153491332484 -0.000277357735295399 0.0018049924697069483 -0.00049857591564597724 -0.0030745342498531415 0.001313250255001159 0.0012951789471447805 -6.2842409041353596e-05 -0.00072304419611880018 0.0046080758438256453 7.8607128782624065e-05 -0.0029236894663578518 5.2446973651447992e-05 -0.00034786793491404844 -0.0021877501287963243 -0.00030141303307553899 -4.2872807726002178e-05 -0.00024712239657499312 2.7343665429562766e-05 -0.0038667350974378677 1.8305162580425761e-05 0.0024607530474895609
leaf_weight=29 257 72 36 28 33 118 24 16148 20 55 22 22 22 21 22 23 35 20 31 27 21 57 20 47 451 65 201 20 4331 20
leaf_count=29 257 72 36 28 33 118 24 16148 20 55 22 22 22 21 22 23 35 20 31 27 21 57 20 47 451 65 201 20 4331 20
internal_value=0 -3.05315e-05 -1.26842e-05 0.000859589 -0.000519756 -0.000277576 -0.000617418 1.07236e-05 0.000366714 0.00133909 0.000317599 -2.85668e-05 -0.000261127 -0.00016977 -0.000695808 4.07655e-06 0.000838585 0.00210968 -9.66166e-06 -0.000954448 -0.00162163 -0.00033737 -0.000825759 0.000207645 1.74632e-05 6.35855e-06 -0.000307348 -0.0010988 2.68754e-05 0.000910628
internal_weight=0 5796 5592 100 204 175 142 16502 354 97 77 5492 676 640 168 4816 78 43 4738 79 48 146 77 69 472 4659 286 85 4373 42
internal_count=22298 5796 5592 100 204 175 142 16502 354 97 77 5492 676 640 168 4816 78 43 4738 79 48 146 77 69 472 4659 286 85 4373 42
shrinkage=0.075


Tree=150
num_leaves=31
num_cat=0
split_feature=17 5 10 9 14 23 11 2 3 9 11 15 28 28 12 28 28 5 30 17 21 14 13 5 2 28 15 17 28 28
split_gain=0.00126661 0.0124332 0.0307132 0.0523563 0.045932 0.0287879 0.0283683 0.0327014 0.0273802 0.0288045 0.0682019 0.127951 0.0295077 0.0991551 0.0715725 0.0147236 0.0389687 0.0127504 0.0314156 0.0126957 0.0108581 0.00908986 0.00813018 0.00752126 0.0614259 0.00677885 0.00642264 0.0063598 0.0241026 0.0416092
threshold=0.025537400000000005 8.1207550000000008e-05 7.291230000000001e-06 1.5302250000000004e-05 -21.761999999999997 0.39251200000000003 -4.2923899999999997e-05 -2.0605549999999995 9.7284750000000018e-06 -1.9935949999999997e-05 -6.8116549999999981e-05 -0.35643049999999993 -0.10019100000000002 0.16908499999999996 1.1376200000000003e-06 0.29617700000000008 -0.1254299999999999 6.6567000000000001e-05 0.22790999999999964 0.33241950000000003 3.1166000000000005 -10.089149999999998 0.14347650000000003 5.1218900000000012e-05 0.22685900000000001 0.010445499999999998 0.28403550000000005 0.019940800000000005 0.14457050000000007 -0.174708
decision_type=2 2 2 2 2 2 2 2 2 2 2 2 2 2 2 2 2 2 2 2 2 2 2 2 2 2 2 2 2 2
left_child=27 17 3 4 -3 8 7 -4 21 -10 11 -11 19 14 -14 16 20 22 -19 -12 -8 -6 -2 -24 25 26 -25 -1 29 -29
right_child=1 2 6 -5 5 -7 15 -9 9 10 12 -13 13 -15 -16 -17 -18 18 -20 -21 -22 -23 23 24 -26 -27 -28 28 -30 -31
leaf_value=-4.2709444878431305e-07 0.0013577169685049741 0.0034939003083938867 -0.00051646029407255922 0.0033827404380038693 -0.0023403178010084958 -0.0019158968173655921 -2.4911628173439941e-05 0.0036302091059953051 -0.00020573153613922306 0.0082200642448697174 -5.4475303262993943e-05 0.00024085324288395125 0.00063861909686238508 -0.00037869098595750146 0.0066063815477089239 0.00013515435192175572 -0.0033159923697322876 -0.00014723551566540039 -0.0035526401856259323 -0.0022233928815694527 -0.0016845634636774775 -0.00020368066304529616 -7.0198333220454519e-05 -0.0018059092695549141 0.0043375870041765545 0.00036593056469222195 -4.8853082207642733e-05 -0.00010279275198257183 1.2793745425486881e-05 -0.0033110161164045535
leaf_weight=19053 24 26 23 36 24 32 85 20 153 20 63 26 20 78 26 80 35 64 20 20 30 21 1777 22 20 53 25 59 326 37
leaf_count=19053 24 26 23 36 24 32 85 20 153 20 63 26 20 78 26 80 35 64 20 20 30 21 1777 22 20 53 25 59 326 37
internal_value=0 4.69497e-05 0.000293371 0.00061863 0.000423133 0.000257833 -0.000355957 0.00141222 0.000412067 0.000606619 0.00109788 0.00371008 0.000517394 0.00125 0.0040117 -0.000686529 -0.00112476 -5.35852e-05 -0.000958046 -0.000577106 -0.000457864 -0.00134322 -1.40357e-05 -3.13905e-05 0.000543289 -0.00021557 -0.000871305 -6.8056e-06 -0.000294791 -0.0013393
internal_weight=0 2823 818 545 509 483 273 43 451 406 253 46 207 124 46 230 150 2005 84 83 115 45 1921 1897 120 100 47 19475 422 96
internal_count=22298 2823 818 545 509 483 273 43 451 406 253 46 207 124 46 230 150 2005 84 83 115 45 1921 1897 120 100 47 19475 422 96
shrinkage=0.075


Tree=151
num_leaves=31
num_cat=0
split_feature=1 30 14 30 30 22 0 15 25 15 2 7 14 4 1 19 19 4 6 16 4 22 8 27 27 30 1 13 2 15
split_gain=0.00127111 0.0348854 0.0222352 0.020957 0.0216866 0.0120463 0.00728335 0.00386249 0.00233911 0.00422608 0.0210908 0.00259533 0.00233671 0.00855551 0.0329859 0.0107492 0.00256127 0.00457668 0.00553422 0.00203998 0.0146136 0.00249108 0.0292356 0.0186883 0.0112291 0.032073 0.0320351 0.00516495 0.00407598 0.00336802
threshold=-17.461949999999998 -0.34990999999999989 -16.571949999999998 3.2301850000000001 4.0732150000000011 -0.10808449999999999 -4.1694999999999984 0.51059950000000009 40.11225000000001 -2.8366599999999997 -0.1018225 0.00045028350000000006 -18.913299999999996 0.00017938650000000003 -14.412449999999998 0.20096150000000004 -0.86293299999999984 9.5676050000000017e-07 4.7719950000000007e-06 112.04900000000002 -1.1054999999999998e-05 0.59587050000000008 -1.4901749999999999e-06 0.32495100000000005 0.23026500000000019 -0.38343999999999973 -12.324699999999998 1.9696700000000003 0.31506600000000001 -1.7158549999999997
decision_type=2 2 2 2 2 2 2 2 2 2 2 2 2 2 2 2 2 2 2 2 2 2 2 2 2 2 2 2 2 2
left_child=1 -1 -3 -4 -5 -6 -7 -8 9 10 -2 -12 13 14 -11 -15 17 -16 -19 21 -21 29 23 -23 25 27 -26 -24 -28 -14
right_child=8 2 3 4 5 6 7 -9 -10 12 11 -13 19 15 16 -17 -18 18 -20 20 -22 22 24 -25 26 -27 28 -29 -30 -31
leaf_value=0.0025717926948695654 0.0026404506636026779 -0.0021272179181489096 0.00170943238891513 -0.0026015169854092944 -0.0018896377957259704 0.0011195796717420388 -7.8225562555413552e-05 -0.001147501794839627 -0.0006097539958344507 -0.0024599258977884477 0.00034112561588699463 -0.00076570164096315585 0.00095717080611003823 0.0021363945753182633 4.9741958997628898e-05 -4.3232535941310092e-05 -5.301042949509412e-06 -0.00013637361982546281 -0.0018796125339576972 0.0020876622918876817 -0.00042862776124919134 -0.0034503221933213668 -0.00020353408829330212 -0.00042690948561674143 0.0030448806071944998 -0.0031519898300757629 0.0002352249015922842 0.0013238929185536109 -0.00095090639748377718 6.8740447108073075e-06
leaf_weight=26 20 33 33 21 21 28 381 20 35 35 22 26 21 20 48 35 430 20 21 20 37 23 33 23 24 20 88 20 20 20694
leaf_count=26 20 33 33 21 21 28 381 20 35 35 22 26 21 20 48 35 430 20 21 20 37 23 33 23 24 20 88 20 20 20694
internal_value=0 -0.000111262 -0.000241167 -0.000117676 -0.00024569 -0.000135751 -4.98968e-05 -0.000131556 2.882e-06 3.87012e-06 0.000594199 -0.000258406 2.01443e-06 -0.000142814 -0.000231387 0.000749359 -8.11005e-05 -0.000447323 -0.00102925 6.20987e-06 0.000454281 4.9917e-06 -0.000229865 -0.00193862 0.000153562 -0.000592857 0.000566355 0.000372853 1.5571e-05 7.83742e-06
internal_weight=0 563 537 504 471 450 429 401 21735 21700 68 48 21632 609 554 55 519 89 41 21023 57 20966 251 46 205 73 132 53 108 20715
internal_count=22298 563 537 504 471 450 429 401 21735 21700 68 48 21632 609 554 55 519 89 41 21023 57 20966 251 46 205 73 132 53 108 20715
shrinkage=0.075


Tree=152
num_leaves=31
num_cat=0
split_feature=17 12 27 13 30 22 2 6 4 27 9 20 6 27 1 6 7 7 27 27 21 30 7 7 30 15 27 21 27 1
split_gain=0.00120801 0.00816556 0.00759307 0.0289589 0.0395759 0.0484812 0.0215913 0.065479 0.0294461 0.0305257 0.0291704 0.020906 0.0444067 0.0334846 0.019834 0.0172786 0.0123792 0.0303952 0.0139044 0.0120724 0.064904 0.165411 0.0115762 0.0172571 0.00594473 0.00528614 0.0108083 0.00484441 0.00475763 0.00445766
threshold=-0.018698049999999997 1.8411900000000002e-10 0.14943000000000009 -2.1199149999999993 -0.46073500000000051 0.013857650000000001 0.024027600000000007 -1.6913099999999996e-05 0.00010669350000000001 -0.0049194000000000243 2.0656050000000003e-07 3.8880500000000008e-05 -1.6638799999999999e-06 -0.19251849999999998 -14.412449999999998 -7.4834299999999998e-06 0.0066213200000000009 0.0033522950000000004 -0.39737499999999987 0.32495100000000005 0.75606150000000005 -3.2470149999999998 0.0036090800000000002 0.00024997100000000004 -2.1395 0.25257150000000006 -0.32065999999999989 0.15679950000000004 -0.14356249999999995 -13.26845
decision_type=2 2 2 2 2 2 2 2 2 2 2 2 2 2 2 2 2 2 2 2 2 2 2 2 2 2 2 2 2 2
left_child=1 -1 3 4 22 -6 7 -5 9 15 11 12 -8 29 -14 -9 17 -17 -18 20 24 -22 23 -3 -4 28 -27 -26 -16 -13
right_child=-2 2 19 6 5 -7 10 8 -10 -11 -12 13 14 -15 25 16 18 -19 -20 -21 21 -23 -24 -25 27 26 -28 -29 -30 -31
leaf_value=0.0011725865296313949 7.721868841336348e-06 0.00024028094451296054 0.0001611153861241681 -0.0034337880601949134 -0.0047091710084538538 -0.00066291731879270313 0.0030804134808464106 -0.0017747530098339277 -0.0028146809512029657 0.002225475706882207 0.0029272158372192357 -0.00097137841145809032 0.0022954943528811387 -0.0031452974327333756 7.2990669186147336e-05 4.9761692595771516e-07 -0.00021637234898759872 0.0028787296062585915 -0.0022312155474792233 -1.6177984826388629e-05 -0.00069793862698134038 0.0081075365329161281 0.0012540455445559928 -0.0020769594690826687 -0.00037474713382835035 3.0791149753386595e-06 -0.0020144192026782548 -0.001955220718446071 0.0013370737305376677 0.00015769422819868366
leaf_weight=31 18649 48 28 37 31 36 35 35 22 32 23 24 23 23 103 201 84 23 25 2430 30 20 24 29 20 59 20 24 20 109
leaf_count=31 18649 48 28 37 31 36 35 35 22 32 23 24 23 23 103 201 84 23 25 2430 30 20 24 29 20 59 20 24 20 109
internal_value=0 -3.94643e-05 -4.98494e-05 -0.000217961 -0.00112173 -0.00253506 -4.88817e-05 -0.000408538 -0.000143291 3.63501e-06 0.00032716 0.000183407 0.000595245 -0.000502989 0.000208663 -0.000189569 -2.29575e-05 0.00029603 -0.000678492 2.03727e-05 0.00074839 0.00282425 -0.000184171 -0.000632446 -0.000693181 -2.89465e-05 -0.00050768 -0.00123682 0.000278533 -4.60482e-05
internal_weight=0 3649 3618 1066 168 67 898 459 422 400 439 416 260 156 225 368 333 224 109 2552 122 50 101 77 72 202 79 44 123 133
internal_count=22298 3649 3618 1066 168 67 898 459 422 400 439 416 260 156 225 368 333 224 109 2552 122 50 101 77 72 202 79 44 123 133
shrinkage=0.075


Tree=153
num_leaves=31
num_cat=0
split_feature=5 17 8 1 30 15 19 14 30 31 26 24 3 5 0 22 1 10 8 8 12 1 1 30 12 22 12 12 23 11
split_gain=0.00126574 0.00718938 0.00429176 0.00246397 0.0328075 0.0291573 0.00935232 0.00883523 0.00637258 0.0174173 0.00237535 0.0020695 0.0298977 0.00593633 0.00237583 0.00228144 0.0296425 0.0343495 0.00917725 0.068214 0.00621573 0.00624792 0.0099684 0.00967222 0.00601323 0.00584023 0.0123461 0.0201424 0.00479007 0.00376165
threshold=-0.0011526199999999998 -0.28182749999999995 -0.0046997349999999992 -17.461949999999998 -0.34990999999999989 0.93754800000000016 0.86032350000000013 -16.680599999999995 3.2301850000000001 -4.3537699999999999 0.030570000000000003 0.0003225765000000001 3.2050200000000007e-05 4.7331300000000005e-05 15.501500000000002 -0.27367349999999996 -14.762349999999998 1.4955800000000002e-05 -2.6468349999999999e-05 -9.5807849999999988e-06 1.1551700000000003e-09 -7.7749399999999991 -8.2367549999999969 -1.3076399999999999 0.0042788400000000008 -0.18164149999999998 0.00018511750000000003 0.0017278250000000003 -0.66477099999999989 -1.2549999999999998e-08
decision_type=2 2 2 2 2 2 2 2 2 2 2 2 2 2 2 2 2 2 2 2 2 2 2 2 2 2 2 2 2 2
left_child=1 -1 -2 4 -4 6 7 -6 -9 -10 -3 14 13 -13 15 16 17 -5 24 -20 -21 22 28 -23 -18 26 -17 -28 -22 -30
right_child=2 10 3 11 5 -7 -8 8 9 -11 -12 12 -14 -15 -16 25 18 -19 19 20 21 23 -24 -25 -26 -27 27 -29 29 -31
leaf_value=0.0014639994624303652 -0.00096633774858044205 8.0342166411791124e-05 0.0025360818886838387 0.0043158485193271184 -0.0016628694463776126 -0.0031088873410772067 0.00122758529265775 0.00095406826681902692 -0.00013811733651820644 -0.0024134051182045368 -0.00071103941815884111 0.00010249320721798117 0.0028098017056188171 -0.0012221236128915245 -0.00047532100345390867 0.00017175451512230211 -0.0019794458712567575 -7.9786115675233293e-05 0.0043827766104368492 0.0011277669037471324 -0.0010173719295730383 -6.7069493634010408e-05 -0.0019955474143249115 0.001491928327602811 -0.00028900744961494389 5.1996839800462696e-08 -0.0031929428936564364 5.4414702026406304e-05 -0.00044336894966590985 0.00029853886047119987
leaf_weight=21 26 705 24 20 24 20 25 26 352 20 22 71 22 26 59 54 20 20 20 22 39 161 21 26 29 20226 21 22 80 74
leaf_count=21 26 705 24 20 24 20 25 26 352 20 22 71 22 26 59 54 20 20 20 22 39 161 21 26 29 20226 21 22 80 74
internal_value=0 9.59122e-05 -3.32911e-06 -2.16584e-06 -0.00016825 -0.00030723 -0.000181877 -0.000265376 -0.000181105 -0.000260445 5.63939e-05 1.71127e-06 0.000313592 -0.000252559 -6.3324e-08 1.28121e-06 0.000154601 0.00211803 -5.02728e-06 0.000102701 -9.96662e-05 -0.000167007 -0.000443746 0.00014969 -0.000978982 -2.73229e-06 -0.000583298 -0.0015315 -0.000274897 -8.68678e-05
internal_weight=0 748 21550 21524 491 467 447 422 398 372 727 21033 119 97 20914 20855 532 40 492 443 423 401 214 187 49 20323 97 43 193 154
internal_count=22298 748 21550 21524 491 467 447 422 398 372 727 21033 119 97 20914 20855 532 40 492 443 423 401 214 187 49 20323 97 43 193 154
shrinkage=0.075


Tree=154
num_leaves=31
num_cat=0
split_feature=17 1 11 27 20 16 27 11 30 1 31 3 27 1 10 27 31 27 27 27 14 15 30 3 21 4 14 14 27 17
split_gain=0.00113711 0.0125896 0.00979827 0.0302569 0.0922503 0.0451737 0.119398 0.154122 0.0361281 0.0157025 0.0316522 0.0323924 0.0337337 0.0137231 0.00932967 0.0374409 0.00909881 0.00839098 0.0239947 0.0150524 0.0391019 0.0334957 0.0395061 0.0330009 0.00784264 0.00780484 0.00679619 0.00655422 0.00628223 0.0054576
threshold=0.025537400000000005 -18.784849999999995 -1.7326649999999998e-05 -0.2956995 0.00010613150000000003 6.3746400000000003 0.12542999999999996 -0.00019607549999999996 0.83610000000000018 -13.618449999999998 -2.1941749999999991 1.9772650000000001e-05 -0.19251849999999998 -13.382649999999998 -9.7401949999999992e-08 -0.10000499999999989 -3.1846149999999995 -0.10000499999999989 -0.19251849999999998 0.25180000000000019 -6.8405949999999995 -0.28147799999999995 -1.1032499999999998 1.5391250000000003e-05 2.7222300000000006 1.0466700000000001e-05 -10.940899999999997 -6.3816599999999992 -0.32065999999999989 0.019940800000000005
decision_type=2 2 2 2 2 2 2 2 2 2 2 2 2 2 2 2 2 2 2 2 2 2 2 2 2 2 2 2 2 2
left_child=29 -2 3 -3 5 6 7 -5 -7 10 16 12 24 -11 15 -15 26 18 28 20 21 -19 -23 -24 -12 27 -4 -21 -16 -1
right_child=1 2 9 4 -6 8 -8 -9 -10 13 11 -13 -14 14 17 -17 -18 19 -20 25 -22 22 23 -25 -26 -27 -28 -29 -30 -31
leaf_value=-5.3953513517277477e-07 0.0015727051713474794 -6.9894875207870226e-05 -0.0013723057616279338 -0.00034438878356013447 0.0049914802289094951 -0.0029885890226895835 -0.00016164982326759142 0.0086578210251426081 0.00060755111377147836 0.0017638461876340443 -0.00013761076936914053 0.00090765104439924468 -0.0045270266801318423 -0.00010685185348696299 3.267464460445642e-05 0.0032134285573993107 0.0015161540168628562 -0.0024881726136527504 0.0021874064044697722 -7.3645838670847996e-05 -0.0040563923858280759 -0.0016705667849178539 -0.0001298764228067739 0.0038916057028638364 -0.0022128089066245594 0.0010046452762617264 4.2055111151186416e-05 -0.0013414459695050027 -0.0010330747154284835 -0.00027322562267568661
leaf_weight=19053 30 519 23 20 28 33 115 23 30 25 21 20 28 81 1121 25 20 32 29 278 20 31 24 22 20 35 113 25 32 422
leaf_count=19053 30 519 23 20 28 33 115 23 30 25 21 20 28 81 1121 25 20 32 29 278 20 31 24 22 20 35 113 25 32 422
internal_value=0 4.44849e-05 2.80701e-05 0.000256174 0.000935811 0.00042197 0.00109907 0.00447075 -0.00127614 -5.84403e-05 -0.000621377 -0.00175 -0.00252033 1.90426e-05 -5.81218e-06 0.000676233 2.25146e-05 -4.9655e-05 5.66875e-05 -0.000318813 -0.00100805 -0.000448723 0.000398841 0.00179344 -0.0011499 -5.57607e-05 -0.000197138 -0.00017825 3.09617e-06 -6.44832e-06
internal_weight=0 2823 2793 768 249 221 158 43 63 2025 245 89 69 1780 1755 106 156 1649 1182 467 129 109 77 46 41 338 136 303 1153 19475
internal_count=22298 2823 2793 768 249 221 158 43 63 2025 245 89 69 1780 1755 106 156 1649 1182 467 129 109 77 46 41 338 136 303 1153 19475
shrinkage=0.075


Tree=155
num_leaves=31
num_cat=0
split_feature=1 16 14 1 15 14 1 30 7 3 1 4 24 4 3 5 6 25 1 6 16 16 6 7 21 20 11 2 18 8
split_gain=0.00122359 0.00973142 0.00595319 0.00242128 0.0239934 0.00351068 0.0244924 0.00367977 0.00733739 0.00648742 0.0111987 0.00312758 0.00266934 0.0291802 0.00411446 0.00238159 0.00221597 0.00990095 0.0738067 0.0090138 0.0340465 0.0097388 0.0109627 0.005671 0.0180701 0.0136909 0.0356534 0.100947 0.0222324 0.0207313
threshold=-19.356149999999996 2.7486450000000002 -12.833199999999998 -18.784849999999995 -0.25923199999999996 -19.685249999999996 -16.595249999999997 -9.7868499999999976 0.039784050000000008 1.9334450000000003e-05 -13.869899999999999 1.7380700000000005e-05 0.0003225765000000001 -1.5941849999999997e-05 1.7103750000000004e-05 0.00012644500000000001 6.2460450000000013e-05 -0.9832439999999999 -11.734449999999999 6.3414900000000022e-05 2.4376850000000005 31.953800000000005 0.00013790500000000004 0.0018826950000000002 13.795350000000001 5.5396950000000008e-05 -0.00043245899999999995 -1.5067699999999997 0.0071484900000000013 1.3338150000000002e-08
decision_type=2 2 2 2 2 2 2 2 2 2 2 2 2 2 2 2 2 2 2 2 2 2 2 2 2 2 2 2 2 2
left_child=1 2 -1 4 -2 6 -5 8 15 10 -9 -12 16 -14 -15 -8 23 18 -18 20 -19 -21 -23 -7 25 -25 27 -27 29 -28
right_child=3 -3 -4 5 -6 12 7 9 -10 -11 11 -13 13 14 -16 -17 17 19 -20 21 -22 22 -24 24 -26 26 28 -29 -30 -31
leaf_value=0.0012786431524000363 0.0026831868717272301 -0.0015387740215519444 -0.00025239152359699798 -0.0025356354075483979 -0.00025324350879903551 9.9979984378524836e-06 7.1302204786445486e-07 -0.002153194507354783 0.0011731938893780321 0.00070091690957269743 0.00030205402053979925 -0.00090875375224641164 0.0028675788416876458 9.5384511951124282e-05 -0.0013421177213396212 -0.00062916821130592755 0.004595003878930584 -7.4004645262487863e-06 -0.0013703427073778584 3.3968414669877751e-05 0.0035070128520601428 -0.0021313712454684719 -0.00024351666256881155 -0.00012817995889896297 -0.0020727511096293501 -0.00036703236204299502 -0.00015815333487504782 0.0063856159701754225 -0.00082687599756197945 0.0030277060903608796
leaf_weight=20 20 25 50 24 72 12798 303 24 29 20 30 20 20 24 21 38 20 69 28 5501 20 24 62 2823 26 33 27 20 87 20
leaf_count=20 20 25 50 24 72 12798 303 24 29 20 30 20 20 24 21 38 20 69 28 5501 20 24 62 2823 26 33 27 20 87 20
internal_value=0 -0.00026859 0.000185047 1.14922e-06 0.000385111 -4.48381e-07 -0.000199379 -7.85377e-05 2.79197e-05 -0.000497572 -0.000821488 -0.000182269 4.04119e-06 0.000483944 -0.00057545 -6.9479e-05 2.59422e-06 4.25872e-05 0.00111522 3.35164e-05 0.000782355 2.15875e-05 -0.00077036 -1.18633e-05 -0.000104018 -8.7012e-05 0.000534471 0.00218114 -0.000116823 0.00119753
internal_weight=0 95 70 22203 92 22111 488 464 370 94 74 50 21623 65 45 341 21558 5724 48 5676 89 5587 86 15834 3036 3010 187 53 134 47
internal_count=22298 95 70 22203 92 22111 488 464 370 94 74 50 21623 65 45 341 21558 5724 48 5676 89 5587 86 15834 3036 3010 187 53 134 47
shrinkage=0.075


Tree=156
num_leaves=31
num_cat=0
split_feature=17 12 27 13 8 30 2 6 15 30 14 4 27 3 17 27 15 6 27 27 27 26 27 4 5 6 9 1 5 15
split_gain=0.00118097 0.00695241 0.0066759 0.0249859 0.0258953 0.0577909 0.0194701 0.0544505 0.0275225 0.0806144 0.0263448 0.0398954 0.0342543 0.0481776 0.0134091 0.0218796 0.0166889 0.0144654 0.0262333 0.0133384 0.0119724 0.0119106 0.00993856 0.0562957 0.0270452 0.00753057 0.00657115 0.00524584 0.00500304 0.00400205
threshold=-0.018698049999999997 1.8411900000000002e-10 0.14943000000000009 -2.2013349999999998 2.5261650000000002e-08 -1.2398499999999995 0.031098800000000003 -1.6913099999999996e-05 0.46987950000000006 1.2439000000000002 -9.0659349999999979 1.4041400000000002e-05 -0.22108000000000014 1.1513600000000003e-05 -0.022393399999999997 -0.027369999999999946 0.23471200000000003 -6.5923999999999991e-07 -0.2956995 -0.19251849999999998 -0.079140000000000085 0.00084487850000000014 0.32495100000000005 -2.4943799999999997e-05 -3.888314999999999e-05 -3.7000099999999996e-06 3.7827900000000002e-06 -9.7434249999999967 -0.00025204299999999992 -0.46214999999999995
decision_type=2 2 2 2 2 2 2 2 2 2 2 2 2 2 2 2 2 2 2 2 2 2 2 2 2 2 2 2 2 2
left_child=1 -1 3 4 5 -3 7 -5 14 19 12 20 27 -14 15 17 -16 -8 -19 -10 29 -6 23 -4 25 -25 -23 -9 -29 -12
right_child=-2 2 22 6 21 -7 8 10 9 -11 11 -13 13 -15 16 -17 -18 18 -20 -21 -22 26 -24 24 -26 -27 -28 28 -30 -31
leaf_value=0.001079375781492056 7.6349664816604363e-06 -3.612138170865364e-05 0.0036998221915887875 -0.0031729255926817327 0.0011596582819829167 -0.0048992027166403001 0.0013578788413724397 -0.00062059140956050886 -0.0003051999344074829 0.00549289001994891 -0.00073073706953437063 0.0033841368534922363 0.00038342474654200486 -0.0039547071889804398 -7.4990159041119804e-05 -0.0019434261040186282 0.0027012147405392688 8.5394789718493212e-05 -0.0023298923566471784 0.0017285579479693505 0.0017044886528641322 2.0339022994448894e-05 -1.5921675549621894e-05 -7.7902263001305969e-05 0.0021943758370720646 -0.0015916311484704094 -0.0018580272677354514 0.0012109112392863608 -8.4349859171722457e-05 0.00013756401810347091
leaf_weight=31 18649 28 27 37 23 27 38 93 60 21 48 24 24 36 29 37 21 198 29 26 22 20 2430 36 21 38 22 20 104 79
leaf_count=31 18649 28 27 37 23 27 38 93 60 21 48 24 24 36 29 37 21 198 29 26 22 20 2430 36 21 38 22 20 104 79
internal_value=0 -3.90201e-05 -4.86029e-05 -0.000206235 -0.00122573 -0.00242345 -7.69118e-05 -0.000407237 0.000273564 0.00132693 -0.000179836 0.000546302 -0.000633345 -0.00221945 -4.66343e-05 -0.000234987 0.00109102 3.54976e-06 -0.000223166 0.000309657 8.92009e-05 -0.000212272 1.72418e-05 0.000677792 -0.000181101 -0.000855223 -0.000963567 -0.000194789 0.000124563 -0.000190613
internal_weight=0 3649 3618 1066 120 55 946 487 459 107 450 173 277 60 352 302 50 265 227 86 149 65 2552 122 95 74 42 217 124 127
internal_count=22298 3649 3618 1066 120 55 946 487 459 107 450 173 277 60 352 302 50 265 227 86 149 65 2552 122 95 74 42 217 124 127
shrinkage=0.075


Tree=157
num_leaves=31
num_cat=0
split_feature=9 29 9 10 2 15 4 2 18 21 1 7 16 6 28 28 25 28 16 3 16 14 1 12 12 25 20 1 8 20
split_gain=0.00123211 0.0085797 0.00870634 0.0254558 0.0141274 0.0117703 0.0372194 0.0176935 0.00754973 0.010906 0.0508015 0.0123052 0.0120994 0.0126548 0.0189838 0.0850012 0.016211 0.0183508 0.00982305 0.0162355 0.00788325 0.00740219 0.00699054 0.00742771 0.0123989 0.00665026 0.00606281 0.0125167 0.0203064 0.0102423
threshold=-4.7596799999999994e-07 5.609935000000001 -1.9376549999999998e-07 2.6178200000000003e-06 -0.24648149999999999 0.18828300000000001 -3.1584299999999995e-05 0.16987450000000001 0.40728000000000003 11.281550000000001 -14.552149999999997 0.00054858350000000012 7.093795000000001 4.0120550000000007e-05 -0.32495099999999993 0.079535000000000036 0.15002100000000004 0.56091825000000017 6.5351050000000006 1.6509400000000005e-05 47.599950000000007 -13.588999999999999 -15.516849999999998 4.5558400000000008e-05 0.00049941400000000011 -0.28524949999999993 4.379045000000001e-05 -13.799749999999998 3.1050700000000006e-06 3.7049850000000009e-05
decision_type=2 2 2 2 2 2 2 2 2 2 2 2 2 2 2 2 2 2 2 2 2 2 2 2 2 2 2 2 2 2
left_child=8 2 3 4 -2 -6 -7 -8 9 12 -11 -12 18 14 25 -16 17 -17 26 -20 -13 -15 -23 -24 -25 -14 29 28 -28 -1
right_child=1 -3 -4 -5 5 6 7 -9 -10 10 11 20 13 21 15 16 -18 -19 19 -21 -22 22 23 24 -26 -27 27 -29 -30 -31
leaf_value=-8.5199048747108775e-06 -0.0014874627691542316 0.001400673157761048 -6.339440934799502e-06 0.002172750372392329 4.7100468911684851e-05 0.0032103277972867412 6.8625012999940887e-05 0.0020187607738989754 -0.0014801938165328466 0.0041368673136457802 0.0013230115037038102 0.00023249537069120355 -0.001347015932879003 0.0011437220896914368 -0.0044703796568986336 -0.0025896846111705101 0.001515188141385569 -5.1668775119913459e-05 0.002685380362527212 -0.00026713921351157214 -0.0012607246385045615 -0.0013803352665656182 0.0011854490808925926 -0.0014370018004496265 0.00015750288174286382 -1.1855952034701642e-05 -0.00029718966944506617 -8.4534203524216605e-05 -0.0031217119792762045 0.00076811427078605306
leaf_weight=6254 29 25 13734 36 799 28 205 30 20 20 30 43 24 30 36 22 23 59 20 22 37 22 27 34 142 167 41 220 22 97
leaf_count=6254 29 25 13734 36 799 28 205 30 20 20 30 43 24 30 36 22 23 59 20 22 37 22 27 34 142 167 41 220 22 97
internal_value=0 1.24403e-05 1.0105e-05 0.000210502 0.000145753 0.000190352 0.000625552 0.000317579 -2.49847e-05 -2.10475e-05 0.000659832 2.76439e-05 -3.32362e-05 -0.000359992 -0.000665904 -0.00132933 -0.00024204 -0.000741006 -4.5545e-06 0.00113882 -0.000458119 3.70932e-05 -0.000110457 2.71649e-05 -0.000150526 -0.000179625 -1.17932e-05 -0.000351449 -0.00128353 3.34177e-06
internal_weight=0 14886 14861 1127 1091 1062 263 235 7412 7392 130 110 7262 586 331 140 104 81 6676 42 80 255 225 203 176 191 6634 283 63 6351
internal_count=22298 14886 14861 1127 1091 1062 263 235 7412 7392 130 110 7262 586 331 140 104 81 6676 42 80 255 225 203 176 191 6634 283 63 6351
shrinkage=0.075


Tree=158
num_leaves=31
num_cat=0
split_feature=12 5 19 14 12 13 25 25 26 14 27 5 5 27 27 27 12 30 10 3 6 27 0 16 30 6 7 12 18 4
split_gain=0.00109777 0.0090406 0.045915 0.00921958 0.00548622 0.0267433 0.00490838 0.00650008 0.0355991 0.00808017 0.0117131 0.0062871 0.00484466 0.00468309 0.0348537 0.0274341 0.0180619 0.00453427 0.0033942 0.00277268 0.0181892 0.00386379 0.00259472 0.00515304 0.00519805 0.00353575 0.0083096 0.00200516 0.017179 0.00980789
threshold=3.9662250000000003e-09 0.00011204500000000002 -0.038998599999999987 -5.9961099999999989 4.6976950000000013e-09 -1.8535999999999999 -0.13942349999999998 -0.0006637469999999999 1.2750100000000002e-05 -7.1624899999999991 -0.079140000000000085 -6.9958199999999984e-05 -2.1698199999999998e-05 0.027610000000000138 -0.04055499999999989 0.14943000000000009 5.6448650000000011e-10 -0.6183000000000004 6.0535300000000022e-08 6.5747000000000008e-06 1.0693350000000002e-05 5.609935000000001 15.501500000000002 98.768400000000014 0.22790999999999964 0.00019644250000000005 0.0016949550000000002 8.7013900000000009e-08 5.3064100000000006e-05 7.3688700000000012e-05
decision_type=2 2 2 2 2 2 2 2 2 2 2 2 2 2 2 2 2 2 2 2 2 2 2 2 2 2 2 2 2 2
left_child=1 3 -3 6 5 -2 12 8 -8 11 -11 -10 -1 14 -9 -15 -16 -13 -18 20 -6 22 23 27 -25 26 -26 28 -21 -30
right_child=4 2 -4 -5 19 -7 7 13 9 10 -12 17 -14 15 16 -17 18 -19 -20 21 -22 -23 -24 24 25 -27 -28 -29 29 -31
leaf_value=0.0016437855799449606 0.0026417299692044391 -0.0037746379912797622 0.00063817033984226628 -0.0014257660142902751 0.0022098441457533875 4.1224112303731849e-05 -0.0033056711097028059 4.8758560316928455e-06 -0.0011702626000235548 8.8230627290178501e-05 -0.0023934908747833103 5.6154073494073232e-05 -7.0092892565298826e-06 -0.0027248843761547258 0.0035964047889657583 4.6422953622846237e-06 0.0017321567409817361 0.0012356439544237219 0.00047079642521566714 -0.0018895464311353863 -0.00078426297800615434 -0.00050793909018206505 0.00062926511211018707 -0.001310097049678337 0.00058673281513620167 0.00067571548162959516 -0.0015035570700369452 -5.5657195319383318e-06 6.9219687060628553e-05 0.0013909183908026534
leaf_weight=20 26 21 36 26 21 154 21 685 22 23 20 220 20 22 21 354 20 20 30 25 25 84 37 33 20 20 23 17802 2415 32
leaf_count=20 26 21 36 26 21 154 21 685 22 23 20 220 20 22 21 354 20 20 30 25 25 84 37 33 20 20 23 17802 2415 32
internal_value=0 -6.02396e-05 -0.000987601 -2.55549e-05 4.59714e-06 0.000416853 -1.25212e-06 -2.37388e-05 -0.00031883 -0.000113179 -0.00106606 4.32099e-05 0.000818388 6.12433e-05 0.000168825 -0.000155064 0.00175058 0.000154445 0.000975341 9.83852e-07 0.000582612 -3.21838e-07 1.76763e-06 6.27849e-07 -0.000547563 -0.00014814 -0.000531329 3.2236e-06 6.65195e-05 8.65039e-05
internal_weight=0 1581 57 1524 20717 180 1498 1458 326 305 43 262 40 1132 756 376 71 240 50 20537 46 20491 20407 20370 96 63 43 20274 2472 2447
internal_count=22298 1581 57 1524 20717 180 1498 1458 326 305 43 262 40 1132 756 376 71 240 50 20537 46 20491 20407 20370 96 63 43 20274 2472 2447
shrinkage=0.075


Tree=159
num_leaves=31
num_cat=0
split_feature=16 1 4 9 9 2 6 1 8 2 4 11 2 30 16 8 0 22 30 30 1 30 7 24 24 7 22 27 7 27
split_gain=0.00123221 0.0222184 0.0166605 0.0268224 0.0763876 0.0111022 0.0110925 0.0106424 0.00473806 0.00448108 0.00264123 0.00251948 0.00385987 0.00322409 0.00248952 0.0154022 0.00197257 0.00195209 0.00192523 0.00143754 0.0231191 0.0159663 0.03323 0.0347952 0.0554979 0.0489137 0.0313601 0.0372802 0.0272375 0.0465268
threshold=47.599950000000007 -16.232699999999998 -7.0012849999999985e-05 1.5302250000000004e-05 0.00010879250000000002 -1.2804649999999997 0.00019644250000000005 -12.428249999999998 -4.6003499999999992e-08 0.18659550000000003 2.4716550000000002e-06 -1.4502699999999997e-07 0.77860000000000007 0.43835999999999992 39.016550000000002 -5.6133649999999993e-08 -3.2629399999999995 0.35967750000000004 -1.3482449999999997 0.15577500000000025 -17.288949999999996 -0.22440000000000146 0.00024458150000000007 2.2169050000000001e-07 1.0575000000000003e-06 0.0036090800000000002 0.0062226350000000015 0.27611750000000007 0.00015685400000000003 0.027610000000000138
decision_type=2 2 2 2 2 2 2 2 2 2 2 2 2 2 2 2 2 2 2 2 2 2 2 2 2 2 2 2 2 2
left_child=14 -2 6 5 -5 -4 7 -3 9 10 -7 18 13 -13 19 -16 -17 -12 -10 20 -1 -22 28 26 25 -25 -24 -28 -23 -30
right_child=1 2 3 4 -6 8 -8 -9 11 -11 17 12 -14 -15 15 16 -18 -19 -20 -21 21 22 23 24 -26 -27 27 -29 29 -31
leaf_value=0.0019966445301013826 0.0020605334549233497 -0.0030584269686369223 0.0015742410331897969 0.0046860530037800057 -0.00082637224489101959 5.1064566551675932e-05 9.5975715667009353e-05 -0.00075720509616635705 3.7926174711453945e-05 -0.0015555598140715367 -0.0012466992149711587 0.00018993985482653367 -0.00064402102624349614 0.0012116694792538233 -0.0021901759790489451 0.00087767013494158166 -0.00015147366317581722 -0.00023356562945991752 -0.00089360020047024591 -2.5709273900045128e-05 -1.5651961873545497e-05 0.00038628831999828914 -0.00011291973623391824 0.0052137443218201115 -0.00065335265863587712 0.00069614546398599135 -0.0041162755551631559 0.00011691675258175977 0.00084353318266739026 0.003971836432219788
leaf_weight=33 31 20 21 26 31 44 30 26 26 22 23 71 23 23 20 20 22 20 24 8323 12296 308 527 26 47 28 25 22 104 36
leaf_count=33 31 20 21 26 31 44 30 26 26 22 23 71 23 23 20 20 22 20 24 8323 12296 308 527 26 47 28 25 22 104 36
internal_value=0 0.000121343 -1.84587e-05 0.000197851 0.00168807 -8.81498e-05 -0.00102601 -0.00175774 -0.000214636 -0.000599274 -0.000357455 3.64151e-05 0.000226852 0.000439938 -2.56167e-06 -0.000477138 0.000338595 -0.000775474 -0.000409206 -1.21041e-06 1.39475e-05 9.07164e-06 0.000279776 -5.25949e-05 0.00123111 0.00287129 -0.000278473 -0.00213478 0.000780559 0.00164795
internal_weight=0 461 430 354 57 297 76 46 276 109 87 167 117 94 21837 62 42 43 50 21775 13452 13419 1123 675 101 54 574 47 448 140
internal_count=22298 461 430 354 57 297 76 46 276 109 87 167 117 94 21837 62 42 43 50 21775 13452 13419 1123 675 101 54 574 47 448 140
shrinkage=0.075


Tree=160
num_leaves=31
num_cat=0
split_feature=1 30 14 30 30 24 24 26 16 2 0 22 1 22 9 9 0 0 27 0 11 0 9 30 22 4 30 8 17 8
split_gain=0.00120386 0.0235242 0.0178727 0.0154886 0.0159987 0.00968471 0.00591249 0.00255127 0.00187125 0.0129367 0.00231862 0.00175897 0.0240167 0.0329189 0.0104914 0.0200655 0.00585525 0.0236136 0.00890705 0.0198608 0.00745927 0.00820694 0.00561892 0.00451178 0.00436073 0.0106113 0.00475702 0.00362986 0.00345591 0.00290999
threshold=-17.461949999999998 -0.34990999999999989 -16.571949999999998 3.2301850000000001 4.0732150000000011 7.0096650000000009e-06 1.2004500000000003e-06 0.0020870500000000004 112.04900000000002 0.26375150000000008 15.501500000000002 -0.27367349999999996 -14.762349999999998 -0.98876749999999991 2.6471750000000006e-05 8.3089050000000031e-06 1.8712250000000001 -0.57041049999999993 0.40341550000000004 5.8921500000000009 -1.2693799999999997e-07 -2.9526349999999995 8.4642300000000015e-05 -1.198825 -0.18164149999999998 3.1999850000000002e-05 -0.026880000000000234 -2.4920399999999994e-06 0.36211500000000002 -2.4920399999999994e-06
decision_type=2 2 2 2 2 2 2 2 2 2 2 2 2 2 2 2 2 2 2 2 2 2 2 2 2 2 2 2 2 2
left_child=1 -1 -3 -4 -5 6 7 -6 10 -10 11 12 13 -2 15 16 17 20 19 -18 23 29 -16 -14 25 26 -13 -20 -24 -22
right_child=8 2 3 4 5 -7 -8 -9 9 -11 -12 24 14 -15 22 -17 18 -19 27 -21 21 -23 28 -25 -26 -27 -28 -29 -30 -31
leaf_value=0.0020949787837218114 -0.00034309161768760529 -0.0019058926409343258 0.0014665047388089903 -0.0022377295635773666 -6.1610478906180827e-05 -0.0016545106900263239 0.0011862120212754236 -0.00093030353673384525 -0.00039874478235425476 0.0019687777402577918 -0.000467848655019849 -0.00039733052993142339 -0.00017156368505941196 0.0038610951110802654 -0.0019062772463075816 0.0024531737150391563 0.0030314733883642473 -0.0021828299618209712 -0.00086584836785082826 -8.6778219540267152e-05 -0.00069519513968511353 0.0015973540378035978 4.3957288264871086e-05 -0.0014331008322899478 1.8041171015683825e-06 -0.001571609456296381 0.00092857621751966728 0.00020866900951566387 -0.0011868016569808659 0.0002697002884613337
leaf_weight=26 20 33 33 21 387 22 21 20 37 20 59 45 52 22 20 20 20 30 21 27 21 25 33 23 20942 34 23 112 21 108
leaf_count=26 20 33 33 21 387 22 21 20 37 20 59 45 52 22 20 20 20 30 21 27 21 25 33 23 20942 34 23 112 21 108
internal_value=0 -0.000108278 -0.000214954 -0.000104238 -0.00021429 -0.000119862 -4.09787e-05 -0.000104298 2.80473e-06 0.000431965 1.6763e-06 2.95767e-06 0.000132378 0.0018591 -3.68648e-06 0.000129919 2.40761e-05 -0.000204267 0.000352636 0.00124014 5.49334e-05 0.000353652 -0.000832403 -0.000558435 -5.78575e-07 -0.000489778 5.11379e-05 3.90084e-05 -0.000434671 0.000112624
internal_weight=0 563 537 504 471 450 428 407 21735 57 21678 21619 575 42 533 459 439 259 180 47 229 154 74 75 21044 102 68 133 54 129
internal_count=22298 563 537 504 471 450 428 407 21735 57 21678 21619 575 42 533 459 439 259 180 47 229 154 74 75 21044 102 68 133 54 129
shrinkage=0.075


Tree=161
num_leaves=31
num_cat=0
split_feature=3 22 18 1 27 25 7 7 2 3 13 13 19 21 8 25 12 1 14 19 8 19 0 17 16 27 27 30 8 23
split_gain=0.00115013 0.00725571 0.0223152 0.0161939 0.0401683 0.0113465 0.0221471 0.0113318 0.0207293 0.00526967 0.00508953 0.00520989 0.00498935 0.00483693 0.00490363 0.00460404 0.00704193 0.00693872 0.0143492 0.00637478 0.0161432 0.0055023 0.00503342 0.00868352 0.0275597 0.00500844 0.0077083 0.00999595 0.00474506 0.0119612
threshold=1.18818e-05 -0.043520549999999998 0.0045554350000000009 -14.159849999999997 0.5430708500000001 -0.16660249999999996 0.0021353350000000008 0.00048176050000000003 -0.15751449999999997 8.7946500000000006e-06 -3.1103099999999997 -3.0876849999999996 -1.8215899999999998 2.1332350000000004 -4.8222499999999994e-08 -0.00034121999999999993 5.6448650000000011e-10 -18.784849999999995 -20.381849999999996 -0.57589999999999986 -6.4036549999999994e-07 -0.47279299999999996 -5.5535949999999987 -0.0026553049999999997 0.17018600000000003 0.20152300000000004 -0.16857014999999984 -0.30494999999999978 -3.4533749999999996e-08 -0.044125399999999995
decision_type=2 2 2 2 2 2 2 2 2 2 2 2 2 2 2 2 2 2 2 2 2 2 2 2 2 2 2 2 2 2
left_child=1 2 -1 4 -4 6 -3 8 -5 -10 -7 -12 -13 -9 -15 16 -14 -17 -19 20 -20 -21 23 24 -23 26 -26 -28 -18 -30
right_child=-2 5 3 7 -6 10 -8 13 9 -11 11 12 15 14 -16 17 28 18 19 21 -22 22 -24 -25 25 -27 27 -29 29 -31
leaf_value=0.0020386660660930114 1.0534309887950337e-05 3.6450694589053881e-05 0.0031049888485628597 0.0023434789187376736 -0.00074470737199590071 0.0010539223066132308 -0.002505463306161184 -0.00010347534724132855 -0.00081459700813866218 0.0002558259376423108 -0.0011670616885923032 0.00094524076157540546 -0.0011746835321355625 -0.0015827337250811978 -0.00041554564730443127 0.0010368571236540447 -0.00027500891519053613 -0.0017322234574951129 0.0025124714200501328 -0.0011187580726909801 -3.9844979965377915e-05 -0.0030420259616097279 4.1033992301400057e-05 1.8149371217248244e-05 -8.6034989265593539e-05 7.3606385593870418e-05 -0.0021819033392239361 -0.00039812939796616398 0.0015179613385563632 -5.9646852131534935e-05
leaf_weight=37 16129 51 31 24 30 24 31 60 37 86 23 29 37 40 41 36 669 27 20 25 46 22 3124 525 87 123 30 43 28 783
leaf_count=37 16129 51 31 24 30 24 31 60 37 86 23 29 37 40 41 36 669 27 20 25 46 22 3124 525 87 123 30 43 28 783
internal_value=0 -2.75422e-05 0.000287288 0.000101612 0.0012117 -4.85563e-05 -0.000924517 -0.00013351 0.000327241 -6.61712e-05 -3.5957e-05 -4.05645e-05 -3.5982e-05 -0.000613867 -0.000991935 -4.10408e-05 -0.000152699 1.92392e-07 -8.97262e-06 2.52992e-06 0.000733584 -9.59614e-06 -2.58323e-06 -0.000166752 -0.000485025 -0.000286248 -0.000562886 -0.00113119 -0.00012715 -5.17949e-06
internal_weight=0 6169 386 349 61 5783 82 288 147 123 5701 5677 5654 141 81 5625 1517 4108 4072 4045 66 3979 3954 830 305 283 160 73 1480 811
internal_count=22298 6169 386 349 61 5783 82 288 147 123 5701 5677 5654 141 81 5625 1517 4108 4072 4045 66 3979 3954 830 305 283 160 73 1480 811
shrinkage=0.075


Tree=162
num_leaves=31
num_cat=0
split_feature=15 5 5 10 12 9 6 30 0 13 25 6 5 6 27 27 2 3 15 12 21 1 27 27 17 7 22 3 22 27
split_gain=0.00115144 0.0209951 0.0813449 0.00979805 0.0101253 0.00674772 0.0132652 0.00797177 0.00183111 0.0127865 0.00476826 0.0136218 0.0186169 0.00798998 0.00734907 0.0513279 0.00412402 0.00395976 0.00257844 0.00158369 0.0115884 0.0408376 0.0172461 0.0327049 0.0103011 0.00929468 0.00704801 0.0112651 0.0141197 0.0065341
threshold=1.3124250000000002 0.00018082400000000003 0.00046802100000000005 5.6368050000000012e-06 0.0043983350000000006 -4.8567149999999996e-08 1.8680400000000002e-05 -1.5437499999999995 15.501500000000002 0.85114150000000011 -0.16660249999999996 7.4405700000000012e-05 0.00016235300000000004 0.00014268400000000005 0.17470800000000006 -0.2956995 0.26375150000000008 1.5469250000000004e-05 1.0940150000000004 0.0016003100000000004 2.9290800000000004 -16.232699999999998 0.075470000000000051 -0.6448704999999999 0.57452800000000004 0.063536050000000011 -0.0078427699999999989 1.7476800000000005e-05 -0.0088087249999999982 -0.19251849999999998
decision_type=2 2 2 2 2 2 2 2 2 2 2 2 2 2 2 2 2 2 2 2 2 2 2 2 2 2 2 2 2 2
left_child=8 3 -3 5 -5 6 -2 -7 10 -10 11 12 14 -13 15 16 -1 -15 -16 25 26 -22 23 -23 -24 -12 27 28 29 -21
right_child=1 2 -4 4 -6 7 -8 -9 9 -11 19 13 -14 17 18 -17 -18 -19 -20 20 21 22 24 -25 -26 -27 -28 -29 -30 -31
leaf_value=0.00021315249015587095 -4.4354036272752322e-07 0.004885035062695599 -0.0015645255669534724 -0.0023462767875753339 -0.00023085281103184179 3.7801227852757461e-05 0.0020120388622470071 -0.0016011109469400251 -0.00038903316926734987 0.0019538190634193595 -1.0139753982727318e-05 0.0017904372360914877 -0.0026197314076378693 0.00071681854597500201 -0.00027971337678603202 -0.0042155558369995558 -0.00099726507731247695 -0.0004825588531730318 0.00053823938819139421 8.8779359588967298e-05 0.0036305795918120894 0.00024031928661922088 -6.3784392356562114e-05 0.003668633925371978 -0.0019455420832855451 -0.0016280385873233172 3.9454027733997145e-05 0.00014241063245916773 -0.0020578330344324055 -0.00060811988281228525
leaf_weight=76 58 22 22 20 35 101 27 20 38 20 15080 21 23 30 41 20 20 32 46 118 22 72 90 20 20 20 5675 268 30 211
leaf_count=76 58 22 22 20 35 101 27 20 38 20 15080 21 23 30 41 20 20 32 46 118 22 72 90 20 20 20 5675 268 30 211
internal_value=0 0.000144724 0.00166025 -0.000110768 -0.0010001 0.000126675 0.000638816 -0.000233093 -2.00704e-06 0.000418847 -3.11985e-06 -0.000295657 -0.000597433 0.000526046 -0.000368306 -0.000759111 -3.90178e-05 9.7785e-05 0.000152767 1.06002e-06 3.19326e-05 0.00056204 0.000227843 0.000985605 -0.000405922 -1.22827e-05 1.30903e-05 -0.000225528 -0.000500201 -0.000358168
internal_weight=0 305 44 261 55 206 85 121 21993 58 21935 309 226 83 203 116 96 62 87 21626 6526 224 202 92 110 15100 6302 627 359 329
internal_count=22298 305 44 261 55 206 85 121 21993 58 21935 309 226 83 203 116 96 62 87 21626 6526 224 202 92 110 15100 6302 627 359 329
shrinkage=0.075


Tree=163
num_leaves=31
num_cat=0
split_feature=1 22 14 30 12 30 18 24 24 31 27 14 30 6 1 15 21 19 23 27 11 19 8 8 3 4 5 12 21 26
split_gain=0.00118509 0.0106324 0.0296418 0.0245043 0.0813392 0.0178877 0.0124785 0.00790151 0.00876037 0.0105859 0.0232107 0.00374695 0.00666521 0.00224393 0.00196237 0.0228104 0.0085261 0.00660364 0.00345272 0.00858092 0.00194929 0.00194003 0.0166895 0.029505 0.0121219 0.0277346 0.0070262 0.00347738 0.00401923 0.00257484
threshold=-16.595249999999997 -0.0078427699999999989 -16.521049999999999 -0.19308000000000011 0.0041543150000000013 3.7874700000000003 0.017932850000000004 2.6455400000000002e-06 2.0222300000000002e-07 -3.8458149999999995 0.32495100000000005 -16.099999999999998 2.2414350000000005 6.7684000000000011e-05 -16.232699999999998 -0.39911899999999995 0.26229750000000007 0.093860000000000013 -5.0259749999999999 -0.6448704999999999 -3.8501649999999994e-05 -8.1499199999999981 -2.3757649999999998e-05 -1.0871249999999998e-06 1.2697400000000001e-05 1.4041400000000002e-05 0.00014922350000000004 0.00078579900000000011 5.5669900000000014 0.10736300000000001
decision_type=2 2 2 2 2 2 2 2 2 2 2 2 2 2 2 2 2 2 2 2 2 2 2 2 2 2 2 2 2 2
left_child=1 2 -1 4 -3 -4 13 8 11 -10 -11 -5 -13 -7 15 -2 17 -17 19 20 -16 22 -20 -24 25 -25 27 28 -26 -23
right_child=14 3 5 7 -6 6 -8 -9 9 10 -12 12 -14 -15 18 16 -18 -19 21 -21 -22 29 23 24 26 -27 -28 -29 -30 -31
leaf_value=-0.0030940620243200098 0.0026393850590056898 0.0046064010072732345 0.0017290305407103997 -0.00091677978233607195 -0.0016464622691273688 -0.00054821512383114164 -0.0022073304854447169 0.0011826322772928203 1.500920529422806e-06 -0.0030990762503419179 0.00021092175337054703 0.0013495981039250181 -3.9547213257624409e-05 0.00037114822802582887 -0.00062155047383963724 -1.4880578678194745e-05 -0.0012609958136939289 0.0014562617739920824 -0.0013419335397188929 -0.0016754859934735578 0.00022825507468431688 3.8346942177066969e-06 0.0031178041502633795 -9.1166012498433699e-05 -0.0010427997389425318 0.003344027916480172 -0.0012456057247994788 0.00082342065450295482 0.00012137298244456558 -0.000257069388865412
leaf_weight=24 20 25 22 26 22 32 22 27 47 26 22 20 680 28 22 121 27 20 34 24 49 20517 21 39 22 20 29 26 69 215
leaf_count=24 20 25 22 26 22 32 22 27 47 26 22 20 680 28 22 121 27 20 34 24 49 20517 21 39 22 20 29 26 69 215
internal_value=0 -7.88499e-05 -0.00071821 1.25892e-05 0.00167953 -0.000169936 -0.000679415 -7.98001e-05 -0.000121317 -0.000798581 -0.00158199 -3.26948e-05 1.42653e-07 -0.000119179 3.79147e-06 0.000245029 -4.00131e-05 0.000193792 1.64073e-06 -0.000449487 -3.5065e-05 3.68232e-06 0.00020728 0.000440347 0.000166071 0.00107331 -0.000200551 5.84793e-05 -0.000160075 1.129e-06
internal_weight=0 1023 128 895 47 104 82 848 821 95 48 726 700 60 21275 188 168 141 21087 95 71 20992 260 226 205 59 146 117 91 20732
internal_count=22298 1023 128 895 47 104 82 848 821 95 48 726 700 60 21275 188 168 141 21087 95 71 20992 260 226 205 59 146 117 91 20732
shrinkage=0.075


Tree=164
num_leaves=31
num_cat=0
split_feature=1 16 27 1 21 14 30 8 6 8 5 30 24 6 8 6 15 12 30 15 24 21 5 14 27 24 6 20 20 1
split_gain=0.00120679 0.0077778 0.00482168 0.00197349 0.0198957 0.00308514 0.0291454 0.00510072 0.00793292 0.00687134 0.00913321 0.00421267 0.00252382 0.0284195 0.0026839 0.00240187 0.00974859 0.0382773 0.018353 0.0117066 0.0069997 0.0147081 0.00963054 0.0123604 0.0238273 0.00726944 0.0203997 0.005469 0.0119147 0.0501335
threshold=-19.356149999999996 2.7486450000000002 -0.010314999999999961 -18.784849999999995 0.24164950000000004 -19.847649999999998 -5.8781349999999994 3.3986450000000007e-05 0.00030283000000000008 8.9196400000000029e-06 0.00027230750000000007 -7.6847749999999992 0.0003225765000000001 2.0248650000000004e-06 -4.6003499999999992e-08 6.2460450000000013e-05 1.0471900000000003 0.00016110400000000002 0.15577500000000025 1.7310850000000002 1.0790650000000003e-05 4.4587200000000005 0.00034128700000000007 -7.6100699999999994 -0.22108000000000014 4.9385700000000009e-06 0.00011930650000000001 -6.0857649999999995e-05 -3.4138749999999996e-05 -16.098949999999999
decision_type=2 2 2 2 2 2 2 2 2 2 2 2 2 2 2 2 2 2 2 2 2 2 2 2 2 2 2 2 2 2
left_child=1 2 -1 4 -2 6 7 9 -9 10 11 -5 15 -14 -15 -7 20 -18 19 -19 21 25 23 24 -22 27 -27 -17 29 -29
right_child=3 -3 -4 5 -6 12 -8 8 -10 -11 -12 -13 13 14 -16 16 17 18 -20 -21 22 -23 -24 -25 -26 26 -28 28 -30 -31
leaf_value=0.00071002289861146555 -0.00023350976011139816 -0.0014022909830746358 -0.00053949564305639792 4.9206309039055273e-06 0.00244044415121607 -1.3022800824532308e-05 -0.0028619225020520386 -0.001772268469761437 0.00017693450426463641 0.0014061312362900935 -0.0015001528473062948 0.0011366223726508905 0.0028223977376183027 -0.0011676892537665978 -8.9776979265203085e-06 -0.00043049739183735603 0.0036183063809793175 5.082363141378951e-05 0.0016898003408277874 -0.0020581446620053612 -0.00043760694076739194 0.0016993296120199374 0.00035231914973833639 0.00042684326064772903 -0.003218329681504446 0.002818572746909922 2.1474643230745145e-05 0.0035997723159703629 1.200541988788686e-05 0.00016173728287978477
leaf_weight=38 72 25 32 247 20 15913 22 23 24 20 22 20 20 22 23 145 21 57 30 20 52 30 55 30 26 20 55 27 4982 205
leaf_count=38 72 25 32 247 20 15913 22 23 24 20 22 20 20 22 23 145 21 57 30 20 52 30 55 30 26 20 55 27 4982 205
internal_value=0 -0.00026674 0.000138814 1.1413e-06 0.000347785 -3.01023e-07 -0.000212727 -4.9013e-05 -0.000776931 6.17058e-05 -3.1334e-05 8.96923e-05 3.39369e-06 0.000470035 -0.000575459 1.99385e-06 4.3516e-05 0.000690723 0.00011615 -0.00049696 2.87937e-05 4.32415e-05 -0.000455517 -0.000866915 -0.00136451 3.40985e-05 0.000767367 2.38363e-05 3.64712e-05 0.000561853
internal_weight=0 95 70 22203 92 22111 378 356 47 309 289 267 21733 65 45 21668 5755 128 107 77 5627 5464 163 108 78 5434 75 5359 5214 232
internal_count=22298 95 70 22203 92 22111 378 356 47 309 289 267 21733 65 45 21668 5755 128 107 77 5627 5464 163 108 78 5434 75 5359 5214 232
shrinkage=0.075


Tree=165
num_leaves=31
num_cat=0
split_feature=1 20 23 19 30 9 30 25 21 27 30 3 5 22 1 9 9 0 0 0 14 2 13 9 27 27 22 7 6 27
split_gain=0.00118064 0.0107723 0.0199841 0.00698039 0.0116558 0.036211 0.0147789 0.00756752 0.00764821 0.00672444 0.00515801 0.0146127 0.00537992 0.00189977 0.0366802 0.00648176 0.0124484 0.00524871 0.0207472 0.00798901 0.019006 0.00597314 0.00628214 0.00515428 0.00396551 0.00357363 0.0031659 0.00819975 0.0136172 0.00471011
threshold=-16.595249999999997 -0.00031771699999999997 -0.19394499999999995 2.1236900000000003 -0.70261499999999966 2.1576100000000006e-06 1.0000000180025095e-35 -0.031563349999999997 0.56474900000000006 0.40341550000000004 3.4130700000000012 2.1897450000000005e-05 0.00016235300000000004 -0.27367349999999996 -14.762349999999998 2.6471750000000006e-05 8.3089050000000031e-06 1.8712250000000001 -0.57041049999999993 4.6539450000000011 -9.6068099999999976 -0.033533099999999989 -2.5239599999999993 8.4642300000000015e-05 0.075470000000000051 -0.5077090999999998 -0.18164149999999998 0.0011049800000000002 6.3414900000000022e-05 0.14943000000000009
decision_type=2 2 2 2 2 2 2 2 2 2 2 2 2 2 2 2 2 2 2 2 2 2 2 2 2 2 2 2 2 2
left_child=1 -1 -3 4 5 -4 -6 -8 10 -10 11 12 -9 14 -2 16 17 18 21 20 -19 -16 -23 -17 25 -24 27 29 -29 -15
right_child=13 2 3 -5 6 -7 7 8 9 -11 -12 -13 -14 26 15 23 -18 19 -20 -21 -22 22 24 -25 -26 -27 -28 28 -30 -31
leaf_value=0.0015260744318568514 0.0026476374722176018 -0.0021283050766214727 0.00091320993262343107 0.0012609978579513899 0.0019312698350404389 -0.0035999553941655905 0.0011099439626158182 -0.00082215252585874331 -0.0018583538872637569 -7.6747271205848918e-05 -1.2856834483231451e-06 -0.0023913340696526575 0.00050922468390605274 0.00085009554361398655 -0.00047013778575344172 -0.0016754624291206708 0.0018857068550590028 -0.00021347723936196417 -0.002017307135317805 4.0357277510552461e-05 0.0028471142824855636 0.0014917330819033934 0.00010843958233939095 -0.0002792110578693923 -0.000749187524888839 0.0011949813982937484 2.0461370622081314e-06 -0.0025645206934963682 5.0627336531761098e-05 -0.00057030234440844649
leaf_weight=23 31 27 20 22 21 20 29 31 26 22 724 20 38 29 83 20 21 25 31 136 21 22 90 58 24 21 20594 21 24 24
leaf_count=23 31 27 20 22 21 20 29 31 26 22 724 20 38 29 83 20 21 25 31 136 21 22 90 58 24 21 20594 21 24 24
internal_value=0 -7.87016e-05 -0.000115611 -5.97608e-05 -9.03146e-05 -0.00134337 -3.52956e-05 -8.16977e-05 -0.000121834 -0.00104178 -6.75199e-05 -0.000606324 -8.89303e-05 3.78434e-06 0.000137304 -3.67526e-06 0.00010058 1.78254e-05 -0.000191388 0.000329346 0.00118375 4.44598e-05 0.000316508 -0.000637224 0.00012499 0.000314002 2.24136e-08 -0.000425249 -0.00116978 0.000206896
internal_weight=0 1023 1000 973 951 40 911 890 861 48 813 89 69 21275 583 552 474 453 271 182 46 240 157 78 135 111 20692 98 45 53
internal_count=22298 1023 1000 973 951 40 911 890 861 48 813 89 69 21275 583 552 474 453 271 182 46 240 157 78 135 111 20692 98 45 53
shrinkage=0.075


Tree=166
num_leaves=31
num_cat=0
split_feature=17 12 27 13 30 4 27 3 27 18 27 7 27 27 22 9 9 20 7 7 27 21 27 30 12 21 6 12 21 4
split_gain=0.00107001 0.00585266 0.00598396 0.0218346 0.0299704 0.0434768 0.0176646 0.0406231 0.0358569 0.0151676 0.0130484 0.0122751 0.0520163 0.0374259 0.12205 0.0461607 0.0125045 0.0109872 0.00937481 0.0168612 0.00921137 0.0586076 0.00797547 0.0108487 0.00406645 0.00388675 0.00385242 0.0130183 0.003985 0.0162564
threshold=-0.018698049999999997 1.8411900000000002e-10 0.14943000000000009 -2.1199149999999993 -0.46073500000000051 -4.6702999999999997e-05 0.055811000000000097 1.5872500000000004e-05 0.017084500000000061 0.0023602150000000001 -0.0049194000000000243 0.0060523350000000007 -0.22108000000000014 -0.14356249999999995 0.0029810050000000005 1.1261100000000001e-07 1.8542300000000004e-05 -1.1936899999999999e-05 0.0025174050000000008 0.00024997100000000004 0.25180000000000019 0.75606150000000005 -0.2956995 -1.5006650000000004 0.0010309500000000003 0.64539600000000019 0.00026466700000000006 0.0032249550000000003 1.9790700000000003 -6.4694899999999983e-05
decision_type=2 2 2 2 2 2 2 2 2 2 2 2 2 2 2 2 2 2 2 2 2 2 2 2 2 2 2 2 2 2
left_child=1 -1 3 4 18 9 8 -8 10 -6 11 13 17 16 15 -15 22 -13 19 -3 21 -4 -5 -24 25 -19 28 -28 -22 -30
right_child=-2 2 20 6 5 -7 7 -9 -10 -11 -12 12 -14 14 -16 -17 -18 24 -20 -21 26 -23 23 -25 -26 -27 27 -29 29 -31
leaf_value=0.0009889931711856456 7.2674546153223177e-06 0.00021105123655615896 -0.00093183086862284523 -6.0567815983092623e-05 0.00063380583323578319 -0.005037481306187276 0.00069472992036025973 -0.0037161719532456984 0.0025766110242693686 -0.0021134349383758562 -0.0019087052297046673 0.0016392312233074336 -0.003274227149904618 0.0016390274345758371 0.0054195299558341499 -0.0034565955674042926 0.0013119620415402876 -0.00029392178540547318 0.0010026622602578885 -0.0021909681164834181 5.7236731283652879e-06 0.003451896976209888 6.4482741663596244e-05 -0.0024058171888464127 1.882119590227969e-05 -0.0015744384768186137 0.0020815802408742454 0.00011045554247592659 -0.001550861784915014 -8.5394724445327839e-05
leaf_weight=31 18649 48 42 405 20 21 24 23 30 26 21 20 32 20 30 20 35 40 28 25 1709 29 20 20 138 20 20 327 48 377
leaf_count=31 18649 48 42 405 20 21 24 23 30 26 21 20 32 20 30 20 35 40 28 25 1709 29 20 20 138 20 20 327 48 377
internal_value=0 -3.71419e-05 -4.59341e-05 -0.000195173 -0.000979937 -0.00220986 -4.83578e-05 -0.0014638 2.98156e-05 -0.000918982 -6.32463e-05 -1.4803e-05 -0.000450556 0.000183266 0.00180335 -0.000908784 -5.29958e-05 -3.6072e-05 -0.000164051 -0.000611558 1.64049e-05 0.000858706 -0.000160352 -0.00117067 -0.000205295 -0.000720761 -7.69966e-06 0.000224065 -4.53859e-05 -0.000250906
internal_weight=0 3649 3618 1066 168 67 898 47 851 46 821 800 250 550 70 40 480 218 101 73 2552 71 445 40 198 60 2481 347 2134 425
internal_count=22298 3649 3618 1066 168 67 898 47 851 46 821 800 250 550 70 40 480 218 101 73 2552 71 445 40 198 60 2481 347 2134 425
shrinkage=0.075


Tree=167
num_leaves=31
num_cat=0
split_feature=25 5 5 6 7 1 1 0 21 17 4 21 7 2 2 4 26 27 16 8 6 12 10 17 0 16 1 21 6 21
split_gain=0.00112003 0.0289904 0.107702 0.00652564 0.0197137 0.00558016 0.00426272 0.00208908 0.00189394 0.00165131 0.00703943 0.0144066 0.00451326 0.0139811 0.00677593 0.00678465 0.00549725 0.0128115 0.0034194 0.0426891 0.0089997 0.00552419 0.00371755 0.00303293 0.0027348 0.00268903 0.00183028 0.00980696 0.0217818 0.0371775
threshold=-0.61949549999999987 0.00018082400000000003 0.00046802100000000005 0.00013584450000000002 0.0044422700000000008 -12.592749999999997 -9.7016949999999991 15.501500000000002 5.9329850000000013 -0.28182749999999995 -0.00016453049999999995 3.3321900000000002 0.0036706550000000005 0.61727300000000007 -0.87358199999999997 3.9415150000000005e-05 0.21742350000000002 0.56698550000000003 47.599950000000007 -1.0244349999999998e-05 -3.2730799999999988e-05 0.0018006200000000004 -2.3386649999999997e-08 2.4687050000000004 -9.2545149999999996 39.016550000000002 -15.357599999999998 0.36956250000000007 -2.7711899999999998e-05 1.3242550000000002
decision_type=2 2 2 2 2 2 2 2 2 2 2 2 2 2 2 2 2 2 2 2 2 2 2 2 2 2 2 2 2 2
left_child=1 3 -3 4 5 -1 -7 9 -8 10 11 -2 13 14 -12 24 17 -14 25 -20 -21 22 -22 -24 -16 26 27 -11 29 -29
right_child=7 2 -4 -5 -6 6 8 -9 -10 18 12 -13 16 -15 15 -17 -18 -19 19 20 21 -23 23 -25 -26 -27 -28 28 -30 -31
leaf_value=-0.0012398064404987961 0.00011864530064889953 0.0059316709675476887 -0.0017585962890214952 0.00081717717785068089 -0.002340291907239589 0.00093002589016707917 -0.00072291544307848772 -0.00045143205294340892 3.6086781764079829e-05 5.7680614733104022e-06 -0.0012772279091057663 -0.0025371478241868316 0.001931172962799635 -0.0017001605063635525 -0.00078935340843599977 0.0012944239115313394 -0.00065533595055888372 -1.09524896873024e-05 0.0027259734683599056 -0.001614716616512107 -0.001070138436030406 0.0010799774042148467 -0.00031664267561526768 0.00060168022573634514 5.9091273757915649e-05 -0.00081106665083612115 6.9565873646973876e-06 -0.00061895567541796475 -0.00084836461194612669 0.0028598467683574806
leaf_weight=20 27 20 21 33 24 28 22 58 116 1483 22 20 29 31 24 24 23 56 34 22 22 23 55 32 195 23 19518 48 218 27
leaf_count=20 27 20 21 33 24 28 22 58 116 1483 22 20 29 31 24 24 23 56 34 22 22 23 55 32 195 23 19518 48 218 27
internal_value=0 0.00014799 0.00199275 -0.000163266 -0.000317336 -5.6309e-05 8.6281e-05 -1.90921e-06 -8.49136e-05 -7.21726e-07 -0.000142752 -0.00101148 -4.1687e-05 -0.000193106 -1.68095e-05 9.73024e-05 0.000373314 0.000651655 2.25691e-06 0.000320714 -0.000210318 2.37489e-05 -0.000199125 2.11313e-05 -3.3889e-05 -5.51641e-07 3.2381e-07 -7.25695e-05 -0.00046907 0.000633413
internal_weight=0 284 41 243 210 186 166 22014 138 21956 451 47 404 296 265 243 108 85 21505 188 154 132 109 87 219 21317 21294 1776 293 75
internal_count=22298 284 41 243 210 186 166 22014 138 21956 451 47 404 296 265 243 108 85 21505 188 154 132 109 87 219 21317 21294 1776 293 75
shrinkage=0.075


Tree=168
num_leaves=31
num_cat=0
split_feature=28 27 1 7 4 6 14 30 27 6 27 14 23 7 19 26 5 9 21 18 12 11 17 5 12 0 14 27 7 24
split_gain=0.00106383 0.0278635 0.0505729 0.0382314 0.0649088 0.0364992 0.0326315 0.0538808 0.0405908 0.0394091 0.0216229 0.111025 0.122684 0.0704724 0.0653541 0.0516926 0.0473493 0.0390212 0.0341803 0.0160978 0.0128249 0.0123858 0.0109877 0.0424603 0.00729944 0.00667956 0.00651912 0.00580564 0.0449721 0.0352751
threshold=0.017674999999999889 0.0096369999999999807 -10.494749999999998 0.00039365250000000004 1.4386950000000001e-05 1.9598250000000005e-05 -9.9247749999999986 0.26484999999999964 -0.0049194000000000243 2.5214550000000004e-05 -0.05954919999999999 -6.786319999999999 0.00024436000000000005 0.0025174050000000008 -0.26305049999999991 2.1542250000000005e-05 -4.8899349999999998e-05 -2.4575099999999992e-06 0.092570250000000007 0.00025206850000000005 1.2135250000000002e-10 1.0731400000000002e-06 1.5572200000000003 0.00017548700000000002 0.00016676850000000001 6.7498350000000009 -6.7284999999999995 0.027610000000000138 0.0021353350000000008 5.9417800000000005e-08
decision_type=2 2 2 2 2 2 2 2 2 2 2 2 2 2 2 2 2 2 2 2 2 2 2 2 2 2 2 2 2 2
left_child=1 2 6 5 24 21 7 8 -1 -10 -2 13 -13 14 -12 16 -16 -15 -17 -18 -3 25 27 -24 -5 -4 -27 28 29 -22
right_child=10 20 3 4 -6 -7 -8 -9 9 -11 11 12 -14 17 15 18 19 -19 -20 -21 22 -23 23 -25 -26 26 -28 -29 -30 -31
leaf_value=-0.00020546045584174302 -1.785112464844769e-07 -0.0015826923698615905 0.00010897652150147636 0.0010829753133875784 -0.0045102771869860586 0.0030946292685777215 -0.00083737872940089011 0.0059050829830812283 0.00054416799275713856 0.0049366655759513376 -0.0029764176400600591 -0.0084805250303907082 -0.00017332790448563174 -0.0043728075146226234 -0.0025586725940229373 0.0056916660850401968 0.00031479906763045369 -0.00060209941963732579 0.0017842322834814481 0.0028378789474954825 0.00036517151307840698 -0.0015157073312106408 -0.00087571637721137251 0.003563001878898252 -0.00074819381316046927 0.00033254067135614248 0.0019266093389079387 -1.56174872995196e-05 -0.0019425456713482465 0.003173145821148699
leaf_weight=39 10825 29 132 25 25 28 21 20 20 27 22 20 20 26 24 20 33 38 34 25 106 21 27 22 24 31 27 10518 36 33
leaf_count=39 10825 29 132 25 25 28 21 20 20 27 22 20 20 26 24 20 33 38 34 25 106 21 27 22 24 31 27 10518 36 33
internal_value=0 1.62911e-05 0.000601295 8.9114e-05 -0.00140053 0.000550343 0.0018636 0.0023987 0.00158326 0.00306752 -1.64733e-05 -0.00068972 -0.00432693 -3.43673e-05 0.000816096 0.00142959 0.000243015 -0.00213395 0.00323143 0.00140233 -7.60661e-06 0.000212712 -3.35437e-06 0.00111718 0.000186076 0.000403748 0.00107461 -8.48914e-06 0.000419945 0.00103181
internal_weight=0 11211 440 313 74 239 127 106 86 47 11087 262 40 222 158 136 82 64 54 58 10771 211 10742 49 49 190 58 10693 175 139
internal_count=22298 11211 440 313 74 239 127 106 86 47 11087 262 40 222 158 136 82 64 54 58 10771 211 10742 49 49 190 58 10693 175 139
shrinkage=0.075


Tree=169
num_leaves=31
num_cat=0
split_feature=8 22 8 31 31 0 27 6 14 24 26 17 31 21 6 15 18 23 8 27 13 6 23 8 27 27 4 22 11 2
split_gain=0.00111481 0.0183944 0.0492118 0.0690132 0.13099 0.101077 0.0571892 0.0310059 0.0163735 0.0133681 0.0223349 0.0102673 0.0101317 0.00975786 0.0136006 0.00701905 0.00713234 0.00881343 0.0283243 0.0512018 0.00767648 0.00643534 0.022321 0.00799289 0.00885465 0.0656212 0.00556192 0.00462689 0.0260362 0.0405694
threshold=-7.6132849999999996e-07 -0.043520549999999998 -1.6660749999999998e-05 -3.263995 1.2401050000000005 0.40594250000000004 0.76078000000000012 2.9467400000000005e-05 -17.648549999999997 0.0003225765000000001 0.39077100000000003 0.39506000000000002 -1.9400699999999997 2.7222300000000006 0.00012664100000000004 1.3991600000000002 0.0029491400000000003 -0.0080386749999999986 -3.6758849999999996e-06 0.17470800000000006 -3.1103099999999997 -4.9130649999999997e-05 -0.037744799999999988 -6.7305649999999985e-05 -0.24510499999999988 0.042715000000000176 0.0058436600000000014 0.013857650000000001 3.8403450000000009e-06 2.4318650000000006
decision_type=2 2 2 2 2 2 2 2 2 2 2 2 2 2 2 2 2 2 2 2 2 2 2 2 2 2 2 2 2 2
left_child=1 2 8 -4 5 -5 -7 -6 -1 10 11 15 -13 -10 -15 16 17 18 -3 -20 -19 22 -18 -23 -25 -26 -22 -2 -29 -30
right_child=27 9 3 4 7 6 -8 -9 13 -11 -12 12 -14 14 -16 -17 21 20 19 -21 26 23 -24 24 25 -27 -28 28 29 -31
leaf_value=0.001593202982985531 -2.4548403202482079e-05 6.2285866759652313e-06 -0.0014190124200516997 0.0081529121545221035 -0.00099756244119763465 0.005049793116777437 -0.00062197003233450227 0.0024867132103827318 -9.5501593989317089e-05 0.0015996339094899354 -0.0025166456060833299 9.9663435885304343e-05 -0.0021859737888007659 -0.0024785682746759057 -0.00026089222767041061 0.0013106344325300914 0.002530152985418681 0.0013733323684351963 0.0048809389937982169 -1.8127362747171511e-05 5.4992437370304639e-06 5.7701075141426008e-05 -0.000551589943727147 -0.00011374638497541962 -0.0046452233881965456 -0.00037371305662117847 -0.0011636353620775954 -5.6577658071205409e-05 0.0011470679445474193 -0.00034905279904521078
leaf_weight=24 14403 151 37 27 51 20 20 20 121 29 20 20 24 28 35 23 20 23 21 28 4723 189 39 147 23 168 23 1400 281 160
leaf_count=24 14403 151 37 27 51 20 20 20 121 29 20 20 24 28 35 23 20 23 21 28 4723 189 39 147 23 168 23 1400 281 160
internal_value=0 2.74697e-05 0.000530523 0.00145737 0.00222858 0.00460724 0.00221391 -1.60763e-05 -0.000249279 -6.50476e-06 -1.47603e-05 -5.86001e-06 -0.00114705 -0.000489602 -0.00124653 3.14183e-06 -2.27173e-06 2.69126e-05 0.000514663 0.00208147 6.45753e-06 -0.000249741 0.000493069 -0.000332902 -0.000551316 -0.000888083 -1.666e-07 -1.02377e-05 0.000101721 0.000604258
internal_weight=0 6054 383 175 138 67 40 71 208 5671 5642 5622 44 184 63 5578 5555 4969 200 49 4769 586 59 527 338 191 4746 16244 1841 441
internal_count=22298 6054 383 175 138 67 40 71 208 5671 5642 5622 44 184 63 5578 5555 4969 200 49 4769 586 59 527 338 191 4746 16244 1841 441
shrinkage=0.075


Tree=170
num_leaves=31
num_cat=0
split_feature=5 17 8 18 5 15 15 1 0 9 10 22 0 17 30 30 3 30 31 3 20 14 23 22 13 5 22 27 27 25
split_gain=0.00113091 0.00477089 0.00346171 0.00276983 0.00185005 0.00936253 0.0110668 0.0207457 0.00809858 0.00811157 0.006698 0.00598625 0.0132909 0.00667283 0.0208229 0.0812392 0.0253158 0.0533675 0.0183583 0.0487957 0.0718483 0.0150683 0.0134413 0.00985297 0.00549493 0.0054398 0.034911 0.00970443 0.0438621 0.0909319
threshold=-0.0011526199999999998 -0.28182749999999995 -0.0046997349999999992 0.025518500000000003 -8.431744999999999e-05 0.87209600000000009 0.73351250000000012 -10.544849999999999 -4.4148449999999988 -4.076039999999999e-05 4.9605650000000014e-06 -0.98876749999999991 -5.2956799999999999 -0.021953799999999999 0.49338500000000002 0.26484999999999964 1.5936850000000006e-05 -0.79017499999999907 -2.335575 1.4436150000000001e-05 -6.1727999999999987e-06 -10.524349999999998 0.026828100000000004 -0.014766899999999998 -1.8970999999999998 -6.8216249999999976e-05 -0.15237049999999999 -0.10000499999999989 0.10019100000000004 0.00023158900000000001
decision_type=2 2 2 2 2 2 2 2 2 2 2 2 2 2 2 2 2 2 2 2 2 2 2 2 2 2 2 2 2 2
left_child=1 -1 -2 -3 5 6 11 -8 9 -7 -10 12 -4 14 15 16 17 22 21 20 -20 -16 -13 -18 -21 26 -6 -28 29 -29
right_child=2 3 4 -5 25 8 7 -9 10 -11 -12 13 -14 -15 18 -17 23 -19 19 24 -22 -23 -24 -25 -26 -27 27 28 -30 -31
leaf_value=0.001205128337356395 -0.00086803053888546012 8.3089618306885906e-05 0.0022675551358406665 -0.00081192493904381981 0.0030185986182914345 -0.0013166439022825216 0.0029549921026227818 -0.00020766633166268938 -0.0018944373128090917 0.00016186589320302407 -0.00019876881207892436 0.00047377997435959465 -0.00032638302294071765 -6.4847110673215476e-06 -0.0021573051753096349 -0.0050805281438360082 0.001306273357892808 -0.0036376094263137777 -0.00051746662664465311 0.00041804278937259087 0.0052100194249565636 -3.8483167757958116e-05 -0.0014666778213136091 -8.3720931967757177e-05 -0.00098955948655762198 3.0820637282891004e-07 -4.7398152494158383e-05 2.9481170863351402e-05 -0.0001006131518120911 0.0064027438552875541
leaf_weight=21 26 707 20 20 24 28 20 28 38 82 20 57 25 4039 21 22 35 36 22 26 28 187 31 159 39 15770 562 34 151 20
leaf_count=21 26 707 20 20 24 28 20 28 38 82 20 57 25 4039 21 22 35 36 22 26 28 187 31 159 39 15770 562 34 151 20
internal_value=0 9.06598e-05 -3.1468e-06 5.84675e-05 -2.10206e-06 -4.22685e-05 -2.29867e-05 0.00111011 -0.000592601 -0.000214482 -0.00130972 -3.44442e-05 0.000826478 -4.26836e-05 -0.000263207 -0.00067288 -0.000367948 -0.00120496 0.000168027 0.000928457 0.00268993 -0.000252403 -0.00020979 0.000167051 -0.000426519 9.93501e-06 0.000201863 0.000113725 0.000555437 0.00238995
internal_weight=0 748 21550 727 21524 4963 4795 48 168 110 58 4747 45 4702 663 340 318 124 323 115 50 208 88 194 65 16561 791 767 205 54
internal_count=22298 748 21550 727 21524 4963 4795 48 168 110 58 4747 45 4702 663 340 318 124 323 115 50 208 88 194 65 16561 791 767 205 54
shrinkage=0.075


Tree=171
num_leaves=31
num_cat=0
split_feature=20 20 10 11 15 27 27 30 21 16 21 27 22 23 12 21 0 30 12 24 7 3 27 25 27 11 2 6 2 27
split_gain=0.00107209 0.01157 0.0258871 0.00590253 0.010822 0.0170314 0.0855297 0.0677531 0.0939192 0.102961 0.0839566 0.0913041 0.0395838 0.045059 0.0370385 0.0250314 0.0339224 0.0206518 0.01928 0.0227717 0.00842057 0.01435 0.0131196 0.0162403 0.00772355 0.00754862 0.0182888 0.00674382 0.00658318 0.0074843
threshold=-6.0842849999999991e-07 -5.2419999999999989e-07 4.4165300000000008e-08 -2.1399899999999996e-06 0.10174750000000002 -0.2956995 0.12542999999999996 -0.026880000000000234 0.29129750000000004 7.093795000000001 0.066928450000000014 0.017084500000000061 -0.0094017349999999979 0.0036628350000000001 0.0034772400000000004 6.152000000000001 4.6539450000000011 -0.50204999999999955 0.04155530000000001 1.3572250000000004e-07 0.00013119700000000002 1.6141900000000005e-05 0.27611750000000007 0.0073139350000000014 0.0035900000000002046 -1.7566249999999997e-06 -0.11181649999999999 -8.9909799999999984e-05 0.16987450000000001 -0.26963010000000004
decision_type=2 2 2 2 2 2 2 2 2 2 2 2 2 2 2 2 2 2 2 2 2 2 2 2 2 2 2 2 2 2
left_child=-1 2 -2 4 5 -3 7 8 10 -10 11 17 -9 18 -12 20 -17 -7 19 24 21 -8 23 -22 -14 26 -5 -27 29 -6
right_child=1 3 -4 25 28 6 15 12 9 -11 14 -13 13 -15 -16 16 -18 -19 -20 -21 22 -23 -24 -25 -26 27 -28 -29 -30 -31
leaf_value=1.6316121322087333e-05 -0.0032590813613478527 -4.1600706262227271e-05 1.9295028351150126e-05 -1.8309199031136814e-05 7.6416317619940306e-06 -0.00051928489541751331 0.0024230035605432932 -0.0028339160070754584 0.0085675924667157222 0.0016144102160899859 -0.0022539101174212798 0.0073625499798799865 0.000514042783423417 0.0040309855743544173 0.0017715506331296635 0.0038306935796836939 -0.00033424139182898217 0.0026863738264252721 -0.0019368753105209178 0.0028814497699204368 -0.00019563096711261308 -4.7957668841893161e-05 -6.2939280971932015e-05 -0.0027760621215945675 -0.0010705494052672293 -0.0011666605225582316 -0.0023687838560059993 -3.9671899827002088e-05 0.0010969762820677716 -0.00035039253128658958
leaf_weight=11237 20 1363 42 60 848 20 20 20 25 23 36 20 62 20 20 22 22 26 20 20 34 39 885 23 24 30 27 6729 25 536
leaf_count=11237 20 1363 42 60 848 20 20 20 25 23 36 20 62 20 20 22 22 26 20 20 34 39 885 23 24 30 27 6729 25 536
internal_value=0 -1.65757e-05 -0.00103825 -1.08167e-05 5.97242e-05 0.00014648 0.000332109 0.00137301 0.00242543 0.00523586 0.00131968 0.00313199 0.000295243 0.000723895 -0.000816246 -2.57462e-06 0.00174823 0.00129261 0.00019896 0.000601948 -7.95329e-05 0.000789656 -0.000133973 -0.00123686 7.1831e-05 -5.36091e-05 -0.000747767 -4.46741e-05 -0.000109231 -0.000131019
internal_weight=0 11061 62 10999 4153 2744 1381 336 170 48 122 66 166 146 56 1045 44 46 126 106 1001 59 942 57 86 6846 87 6759 1409 1384
internal_count=22298 11061 62 10999 4153 2744 1381 336 170 48 122 66 166 146 56 1045 44 46 126 106 1001 59 942 57 86 6846 87 6759 1409 1384
shrinkage=0.075


Tree=172
num_leaves=31
num_cat=0
split_feature=3 3 19 22 4 26 24 3 20 27 7 21 1 14 9 31 31 24 31 31 27 27 19 1 17 13 25 27 27 8
split_gain=0.0011059 0.00680993 0.0195562 0.00746762 0.0238752 0.053126 0.0230657 0.0116884 0.0124575 0.0335032 0.00871057 0.00728957 0.0230625 0.00808037 0.00528376 0.0198905 0.0537854 0.00510255 0.0147186 0.0431034 0.0490945 0.163972 0.0146079 0.00736511 0.00603926 0.00529228 0.00510637 0.0080304 0.0617855 0.0621243
threshold=1.18818e-05 1.1466350000000001e-05 -1.8215899999999998 -0.043520549999999998 -2.4943799999999997e-05 0.0048276950000000008 2.1687000000000001e-05 7.8103900000000016e-06 0.00011553700000000002 -0.0049194000000000243 0.006874540000000001 4.7093800000000012 -14.159849999999997 -20.381849999999996 -5.1113849999999986e-07 -0.5421900000000005 1.0510650000000006 -2.7413399999999998e-07 0.38362499999999994 -1.5157699999999992 0.0035900000000002046 -0.22108000000000014 0.079740200000000011 -13.060049999999999 0.042148300000000007 -3.1103099999999997 -0.00034121999999999993 -0.14356249999999995 0.25180000000000019 -1.6631499999999996e-08
decision_type=2 2 2 2 2 2 2 2 2 2 2 2 2 2 2 2 2 2 2 2 2 2 2 2 2 2 2 2 2 2
left_child=1 3 -3 4 5 -1 10 -6 -9 -10 -7 13 -13 -5 15 -4 -17 18 19 24 21 -21 -22 -20 -15 -19 27 -27 29 -29
right_child=-2 2 14 11 7 6 -8 8 9 -11 -12 12 -14 17 -16 16 -18 25 23 20 22 -23 -24 -25 -26 26 -28 28 -30 -31
leaf_value=0.0046932521887356419 1.0329753762828894e-05 -0.0022727839373636437 6.4315463898636596e-05 0.0012601580821085788 -0.0012832369667497309 0.00054270554018413266 0.0024440794551212871 -0.00017644873170543697 -0.00048092966275469412 0.0030578036234752892 -0.0015035135963698848 -0.002741045589842226 -1.3031961301142776e-05 -1.2960301189169653e-05 7.1042681340126976e-06 -0.003740615423752884 6.4083371996491068e-05 0.0011333437380796696 -0.0010432359347252586 -0.00016000821255710948 -0.00095285350619776993 0.0067086678529449271 0.0012040729104936334 -2.3825511957052157e-05 -0.0012694528201109279 4.7384866022363616e-05 -1.2510835209674114e-05 -0.0041387246338611778 -2.4070935800786232e-05 -0.00046527857902234603
leaf_weight=21 16129 26 159 28 36 22 21 158 34 27 25 23 72 208 369 33 57 21 43 46 38 34 33 547 24 408 3070 45 480 61
leaf_count=21 16129 26 159 28 36 22 21 158 34 27 25 23 72 208 369 33 57 21 43 46 38 34 33 547 24 408 3070 45 480 61
internal_value=0 -2.70074e-05 -0.000257814 -1.04307e-07 0.000338283 0.00139591 0.000377608 -3.08484e-05 0.000175024 0.00108539 -0.000545709 -2.2572e-05 -0.000673498 -1.04135e-05 -0.000173042 -0.000440006 -0.00133097 -1.74471e-05 0.000136902 0.00049895 0.00148517 0.00275918 4.96616e-05 -9.81215e-05 -0.000142942 -5.42114e-05 -6.03479e-05 -0.000208094 -0.00038597 -0.00202476
internal_weight=0 6169 644 5525 344 89 68 255 219 61 47 5181 95 5086 618 249 90 5058 973 383 151 80 71 590 232 4085 4064 994 586 106
internal_count=22298 6169 644 5525 344 89 68 255 219 61 47 5181 95 5086 618 249 90 5058 973 383 151 80 71 590 232 4085 4064 994 586 106
shrinkage=0.075


Tree=173
num_leaves=31
num_cat=0
split_feature=25 2 13 0 27 28 10 31 31 2 1 1 9 8 6 6 18 10 1 16 31 27 27 31 21 8 31 21 18 0
split_gain=0.00115466 0.0234423 0.0218082 0.0500824 0.0167914 0.112036 0.0980399 0.111364 0.116532 0.192679 0.112909 0.0940633 0.0654831 0.0682194 0.0678066 0.106044 0.0637478 0.029497 0.022003 0.0162326 0.0139823 0.021645 0.272273 0.215682 0.242315 0.16105 0.0170138 0.0136507 0.02177 0.0134207
threshold=-9.0163249999999988e-05 1.0000000180025095e-35 -3.0876849999999996 -1.9682299999999999 0.32495100000000005 0.16908499999999996 1.4955800000000002e-05 2.5077799999999999 -2.8300399999999994 0.83958750000000015 -6.5485099999999994 -6.9734749999999996 -1.5647699999999998e-07 9.6138300000000019e-07 2.0248650000000004e-06 -1.6913099999999996e-05 0.00059800800000000013 2.3377700000000002e-05 -15.229699999999998 55.015050000000009 1.7255500000000012 -0.26963010000000004 0.075470000000000051 -0.90090500000000018 0.029151900000000005 -1.9504449999999995e-08 -2.4195599999999993 0.09609860000000002 0.00031722900000000009 4.2683000000000009
decision_type=2 2 2 2 2 2 2 2 2 2 2 2 2 2 2 2 2 2 2 2 2 2 2 2 2 2 2 2 2 2
left_child=1 20 3 -3 5 6 7 8 29 10 11 12 14 27 15 -10 -12 -8 -19 -6 21 -1 23 26 -25 -26 -23 28 -14 -4
right_child=-2 2 4 -5 19 -7 17 -9 9 -11 16 -13 13 -15 -16 -17 -18 18 -20 -21 -22 22 -24 24 25 -27 -28 -29 -30 -31
leaf_value=1.0411561750693702e-05 -1.4344739521472395e-05 -0.00056553127528193568 -0.0027926706155994908 0.0045661430239852053 -7.9601653098278175e-05 -1.988455259368535e-05 -0.0033576343487116641 -0.00042667271217169397 0.0026740964914097275 0.0088509575237157353 0.0028738600663928081 -0.0026881314169888639 -4.3943902486577057e-05 0.0041656569048592988 0.0013572273053536524 0.0095330362174926055 0.0088620284094940872 0.00195933245755441 -0.00082193323501542179 0.0019257297020648483 3.505337350058947e-05 0.00010802771807599735 -6.1983434905709095e-05 -0.0004904988922961903 -0.015064186099916697 -0.0056602675097695149 -0.0024369353433774618 -0.0010898122189120904 0.0022981925928273568 -0.00014196605032858704
leaf_weight=1138 13067 23 22 20 1776 2128 21 120 32 26 20 26 65 33 42 21 20 20 80 23 2252 45 1109 22 20 21 22 29 34 21
leaf_count=1138 13067 23 22 20 1776 2128 21 120 32 26 20 26 65 33 42 21 20 20 80 23 2252 45 1109 22 20 21 22 29 34 21
internal_value=0 2.03058e-05 0.000140175 0.00182129 0.000124319 0.000240526 0.00111735 0.0015719 0.00218528 0.00264041 0.00213894 0.00161 0.00204653 0.00112512 0.00360809 0.00539179 0.00586794 -0.0008023 -0.00026568 -5.39637e-05 -9.88643e-05 -0.00022574 -0.00044264 -0.00368994 -0.00684032 -0.0102475 -0.000727632 0.000341232 0.000760426 -0.00149814
internal_weight=0 9231 4602 43 4559 2760 632 511 391 348 322 282 256 161 95 53 40 121 100 1799 4629 2377 1239 130 63 41 67 128 99 43
internal_count=22298 9231 4602 43 4559 2760 632 511 391 348 322 282 256 161 95 53 40 121 100 1799 4629 2377 1239 130 63 41 67 128 99 43
shrinkage=0.075


Tree=174
num_leaves=31
num_cat=0
split_feature=6 15 17 12 12 17 27 27 11 17 20 14 5 30 24 4 10 1 22 6 20 12 12 15 18 18 18 21 1 0
split_gain=0.00115526 0.0201835 0.00775053 0.00725777 0.00425207 0.00408006 0.010387 0.0402337 0.00359631 0.0123208 0.00781504 0.0022334 0.0407002 0.00652583 0.00447875 0.0250676 0.00311306 0.00277682 0.00259484 0.0025161 0.0187694 0.0463976 0.142088 0.0119946 0.00826843 0.0147519 0.00799891 0.00783613 0.00613853 0.00561987
threshold=0.00019644250000000005 1.5416250000000002 -1.7215749999999999 9.9003350000000012e-05 0.0011157750000000001 -0.080095849999999982 0.25180000000000019 -0.14356249999999995 0.004623340000000001 0.037238500000000001 3.1301750000000009e-05 -21.761999999999997 0.00016235300000000004 -12.564699999999997 0.0003225765000000001 -1.5941849999999997e-05 -1.3774549999999998e-08 -19.356149999999996 -0.00023045349999999996 6.2460450000000013e-05 -4.6269849999999992e-05 8.9050550000000007e-05 9.9155350000000009e-06 -1.0984599999999998 0.023231150000000002 0.010573200000000001 0.0065381400000000004 0.56474900000000006 -9.5889999999999969 -1.6614899999999999
decision_type=2 2 2 2 2 2 2 2 2 2 2 2 2 2 2 2 2 2 2 2 2 2 2 2 2 2 2 2 2 2
left_child=2 4 3 -1 -2 6 7 -6 11 10 -10 12 13 16 17 -16 -4 18 -13 -19 21 22 -21 -22 25 26 -23 -25 29 -29
right_child=1 -3 8 -5 5 -7 -8 -9 9 -11 -12 14 -14 -15 15 -17 -18 19 -20 20 23 24 -24 27 -26 -27 -28 28 -30 -31
leaf_value=-0.00014559342518623451 0.0011163605340243521 0.0023587351594317493 -0.00072979068315817122 -0.0017039193104335874 4.8402829189500253e-05 4.1791025474641087e-05 8.1354831661186865e-05 -0.0038894578360486776 -2.0968261709860133e-05 -0.0019563669322947546 -0.0013062487201201793 -0.001209648045387439 0.0034486614752677267 -0.0014151587129890687 0.0027110695734985971 -0.00058464898262600932 0.0002169905807516313 -1.3011054392871588e-05 -0.00016763076360448172 -0.00021823228107678005 0.0013636234964603015 0.0004506931781154182 0.0076661507462267766 2.817820397185392e-05 -0.0010891130943867931 0.0020702751608703031 -0.0010457281334538492 -0.0002914048856411605 -1.9589391969168709e-05 -0.0014230005338084504
leaf_weight=40 20 21 24 29 54 3036 141 20 323 22 29 20 20 20 21 34 105 15961 41 36 36 54 20 1903 29 22 32 47 86 52
leaf_count=40 20 21 24 29 54 3036 141 20 323 22 29 20 20 20 21 34 105 15961 41 36 36 54 20 1903 29 22 32 47 86 52
internal_value=0 4.10188e-05 -7.1048e-06 -0.000800542 2.61389e-05 1.94319e-05 -0.000296299 -0.00101588 -4.21378e-06 -0.000234476 -0.000126858 4.25449e-07 0.000271829 -0.000154592 -2.06815e-06 0.000673716 4.08452e-05 -4.09487e-06 -0.000509276 -2.40891e-06 7.06255e-05 0.00077877 0.00259762 6.27911e-06 3.52986e-05 0.000337224 -0.000106115 -1.71234e-05 -0.000483118 -0.000885778
internal_weight=0 3292 19006 69 3271 3251 215 74 18937 374 352 18563 169 149 18394 55 129 18339 61 18278 2317 193 56 2124 137 108 86 2088 185 99
internal_count=22298 3292 19006 69 3271 3251 215 74 18937 374 352 18563 169 149 18394 55 129 18339 61 18278 2317 193 56 2124 137 108 86 2088 185 99
shrinkage=0.075


Tree=175
num_leaves=31
num_cat=0
split_feature=5 17 8 18 17 4 4 2 13 5 8 4 12 27 4 5 16 21 1 27 27 10 1 8 8 30 6 7 21 12
split_gain=0.00104414 0.00421636 0.00290229 0.0022287 0.00210886 0.0129166 0.0223695 0.0191995 0.018378 0.0111805 0.00770882 0.0056498 0.00437914 0.00457987 0.00576077 0.00236746 0.00234322 0.00212102 0.0336968 0.0813956 0.208536 0.0077143 0.0117246 0.0299796 0.0113351 0.00612562 0.00356067 0.00327995 0.00247491 0.0124192
threshold=-0.0011526199999999998 -0.28182749999999995 -0.0046997349999999992 0.025518500000000003 -0.37592899999999996 0.00013679700000000005 0.0002581735 0.61727300000000007 -1.4802899999999999 -0.00020942449999999997 -5.4114799999999992e-06 3.9415150000000005e-05 1.1551700000000003e-09 0.40341550000000004 -1.2421249999999997e-05 -8.7476899999999982e-05 112.04900000000002 4.9419500000000012 -13.459649999999998 0.65141500000000019 -0.6448704999999999 4.4060600000000006e-06 -8.7305849999999978 -1.0871249999999998e-06 -7.6132849999999996e-07 -5.6251549999999986 3.4316650000000006e-05 0.0016244650000000001 1.5710850000000003 0.060070950000000005
decision_type=2 2 2 2 2 2 2 2 2 2 2 2 2 2 2 2 2 2 2 2 2 2 2 2 2 2 2 2 2 2
left_child=1 -1 -2 -3 5 7 -7 9 -9 -4 -11 12 -12 14 15 -14 17 28 19 20 -19 22 23 -20 -24 27 -26 -23 -6 -30
right_child=2 3 4 -5 16 6 -8 8 -10 10 11 -13 13 -15 -16 -17 -18 18 21 -21 -22 25 24 -25 26 -27 -28 -29 29 -31
leaf_value=0.001134812013957084 -0.00079494661253053111 7.8935315003626972e-05 -0.0015881848717981483 -0.00072390509587421552 2.0395810379528003e-06 0.0029141851067834069 -0.00021417569581293111 -0.00026031093293568116 -0.0029080605399313159 -0.0013928085526276847 0.0010456682582033945 0.0012574691453229878 0.00056205884424603673 0.00015731283031651484 -0.001374756361223388 -0.00051813615829451008 0.00079321065402057557 -0.00075056206532603785 0.00330401875959069 -0.0016084083507303148 0.0086749374368557015 -0.000987759869894944 -0.0015741368465057803 8.3755546890235314e-05 5.8531453974495175e-05 -0.0016057065074546112 -0.00095317709170889095 0.00023434836890373845 -0.00018291408399333776 0.0016658097049262971
leaf_weight=21 26 707 26 20 19762 20 36 30 29 20 22 23 21 169 29 25 21 31 20 30 23 21 32 87 177 31 22 30 766 21
leaf_count=21 26 707 26 20 19762 20 36 30 29 20 22 23 21 169 29 25 21 31 20 30 23 21 32 87 177 31 22 30 766 21
internal_value=0 8.71126e-05 -3.02368e-06 5.68489e-05 -2.06707e-06 -0.000162721 0.000903096 -0.000314208 -0.00156175 -9.44917e-05 3.11912e-05 0.000129738 3.22273e-05 -5.91485e-05 -0.000546908 -2.50037e-05 1.36342e-06 5.73571e-07 0.000152578 0.00152386 0.003264 -0.000121677 3.66417e-05 0.000685674 -0.000263992 -0.000774261 -5.33157e-05 -0.000268873 -3.15461e-06 -0.000133583
internal_weight=0 748 21550 727 21524 450 56 394 59 335 309 289 266 244 75 46 21074 21053 504 84 54 420 338 107 231 82 199 51 20549 787
internal_count=22298 748 21550 727 21524 450 56 394 59 335 309 289 266 244 75 46 21074 21053 504 84 54 420 338 107 231 82 199 51 20549 787
shrinkage=0.075


Tree=176
num_leaves=31
num_cat=0
split_feature=19 0 23 30 7 17 0 27 19 27 19 4 19 27 20 11 27 15 30 1 23 0 0 15 20 17 8 17 15 5
split_gain=0.00145475 0.00110399 0.00984402 0.00798434 0.0405011 0.102091 0.0209746 0.0120126 0.115715 0.0511067 0.10628 0.0341712 0.0296237 0.00826876 0.00604153 0.0184199 0.00576931 0.00422404 0.00303963 0.00270823 0.00508796 0.00252197 0.00741887 0.0361641 0.0041744 0.00474713 0.016486 0.00431521 0.00313811 0.0391479
threshold=37.021250000000002 7.4820900000000004 2.0308350000000002 -0.74189000000000005 9.0270300000000022e-05 0.0049085850000000009 8.8243100000000023 -0.0049194000000000243 -0.012273099999999999 0.12542999999999996 -0.012273099999999999 -4.1236799999999995e-06 -0.0039192799999999989 -0.04055499999999989 -0.00031771699999999997 1.1884200000000001e-07 -0.26963010000000004 1.0940150000000004 -0.19308000000000011 -9.4424599999999987 -0.0014052149999999998 6.4144950000000014 6.4582150000000009 -0.18833199999999997 -0.00020163349999999998 0.066654050000000006 9.6138300000000019e-07 0.038991950000000004 1.3124250000000002 0.00018082400000000003
decision_type=2 2 2 2 2 2 2 2 2 2 2 2 2 2 2 2 2 2 2 2 2 2 2 2 2 2 2 2 2 2
left_child=1 21 3 14 5 6 -5 8 -6 10 -9 -12 -10 16 15 -3 -14 19 -8 20 -16 28 23 -23 -24 27 -27 -26 -1 -30
right_child=-2 2 -4 4 7 -7 18 9 12 -11 11 -13 13 -15 17 -17 -18 -19 -20 -21 -22 22 24 -25 25 26 -28 -29 29 -31
leaf_value=-1.9395712492468091e-06 -0.0004636530261785466 -0.00033569107785297092 0.0016220191322645404 -0.0024181864665479224 0.0044997318753633988 -0.0064733121545577886 -3.1740386422792911e-05 -0.0060728279994218606 -0.00277462888352602 -2.0999223037338656e-05 -0.0020357783343310332 0.0022427712151381583 2.9749323306957387e-05 0.0013642629937511746 -0.0014548505761740672 0.0026027316411636999 -0.0013161158230754414 -0.00077763428343563361 0.0011788533652725163 3.0560852519983846e-05 7.0060904657509579e-05 0.003585621567117414 -0.00095875991444865417 -5.4891597150427434e-05 7.1394957645077157e-05 -0.0003194822943359296 0.002296239810232731 -0.00095015746077535817 -7.6018014621861843e-05 0.0029069954467039285
leaf_weight=17482 38 30 20 20 33 20 28 25 24 622 21 21 122 23 20 20 21 38 20 2435 32 20 22 66 754 33 23 24 213 28
leaf_count=17482 38 30 20 20 33 20 28 25 24 622 21 21 122 23 20 20 21 38 20 2435 32 20 22 66 754 33 23 24 213 28
internal_value=0 7.91501e-07 -3.72665e-05 -4.65492e-05 -0.000226408 -0.00176297 -0.000377579 -7.81428e-05 0.00040031 -0.000232998 -0.0022011 0.000103496 -0.000311695 4.43918e-05 2.32988e-05 0.000839678 -0.000167895 7.13288e-06 0.000472674 1.91237e-05 -0.000516444 8.12172e-06 0.000127702 0.000791739 6.09882e-05 8.7888e-05 0.000754832 3.98818e-05 1.76587e-06 0.000270556
internal_weight=0 22260 3595 3575 1000 88 68 912 223 689 67 42 190 166 2575 50 143 2525 48 2487 52 18665 942 86 856 834 56 778 17723 241
internal_count=22298 22260 3595 3575 1000 88 68 912 223 689 67 42 190 166 2575 50 143 2525 48 2487 52 18665 942 86 856 834 56 778 17723 241
shrinkage=0.075


Tree=177
num_leaves=31
num_cat=0
split_feature=20 16 7 6 27 14 3 15 27 27 30 4 24 2 30 1 20 23 20 2 8 27 23 2 8 21 17 14 6 15
split_gain=0.00115982 0.0014249 0.0122038 0.00126129 0.00811764 0.00723043 0.0204873 0.00527329 0.0173225 0.0583133 0.0636957 0.0105509 0.00450762 0.0281525 0.0370072 0.00634692 0.0200545 0.00611494 0.00610203 0.0307867 0.00568904 0.00980873 0.00468961 0.0153598 0.0105233 0.00548471 0.0333222 0.0130036 0.00768635 0.0108359
threshold=0.0044877300000000014 112.04900000000002 0.00070241750000000016 6.4414100000000008e-07 5.609935000000001 -21.761999999999997 1.2217050000000002e-05 -0.62735149999999995 0.40341550000000004 -0.079140000000000085 -0.74189000000000005 -9.8337449999999995e-05 -1.7984249999999999e-06 0.17711800000000003 -1.2398499999999995 -16.595249999999997 2.8498850000000006e-05 -0.0023226349999999995 5.2471300000000007e-05 -0.15751449999999997 -1.0286749999999999e-07 0.27611750000000007 -0.010905599999999998 -0.33424649999999995 -2.2001599999999999e-06 0.0058458250000000007 0.0059947300000000011 -8.059409999999998 -1.2117049999999997e-06 0.079418400000000014
decision_type=2 2 2 2 2 2 2 2 2 2 2 2 2 2 2 2 2 2 2 2 2 2 2 2 2 2 2 2 2 2
left_child=1 3 -3 5 -5 6 -1 8 9 -7 -11 -10 13 20 -15 16 17 -14 22 -20 21 -9 23 -17 -25 26 27 -24 -29 -30
right_child=-2 2 -4 4 -6 7 -8 12 11 10 -12 -13 15 14 -16 18 -18 -19 19 -21 -22 -23 25 24 -26 -27 -28 28 29 -31
leaf_value=0.002764196645512129 -0.00041399344818752358 0.0017579601288889536 -0.00086208360531600189 1.0850475044649177e-05 0.0014209832573491756 -0.00013488473762618297 -3.8897377911656474e-05 -0.001638857199021218 0.0017228255231332566 -0.00061087039503036065 -0.0063417600473985652 -2.2208482593880464e-05 -0.0010408216118919784 -2.1573543097813027e-05 0.0032137261080041188 -0.0017559285529690288 -0.0021358567845766174 -1.8571122015001912e-05 0.0022918882802895869 -0.00024981538110775974 0.000113208064078781 5.7233689266602343e-05 -0.0019415630706134833 -0.0014577017683041048 1.856344571873522e-05 2.3890157615974769e-05 -0.0027677870766334911 -6.4036638260009462e-06 0.00010269820456573063 -0.0022536912177136921
leaf_weight=20 38 20 20 14348 23 161 55 34 21 24 20 271 38 43 37 36 32 246 38 91 144 44 21 30 287 5197 27 888 23 21
leaf_count=20 38 20 20 14348 23 161 55 34 21 24 20 271 38 43 37 36 32 246 38 91 144 44 21 30 287 5197 27 888 23 21
internal_value=0 7.06728e-07 0.000447938 -9.83697e-08 1.31073e-05 -2.42771e-05 0.000708594 -3.13475e-05 -0.00026771 -0.000796159 -0.00321582 0.000103291 -1.52046e-05 0.000268475 0.00147475 -2.74872e-05 -0.000355909 -0.000155351 -1.19021e-05 0.000498904 -0.00016622 -0.000682088 -2.1993e-05 -0.000287866 -0.000121146 -6.79907e-06 -0.000169546 -9.59336e-05 -5.43475e-05 -0.00102194
internal_weight=0 22260 40 22220 14371 7849 75 7774 497 205 44 292 7277 302 80 6975 316 284 6659 129 222 78 6530 353 317 6177 980 953 932 44
internal_count=22298 22260 40 22220 14371 7849 75 7774 497 205 44 292 7277 302 80 6975 316 284 6659 129 222 78 6530 353 317 6177 980 953 932 44
shrinkage=0.075


Tree=178
num_leaves=31
num_cat=0
split_feature=19 8 22 8 14 8 27 12 27 0 19 21 2 11 18 1 3 21 8 18 14 13 30 30 23 8 21 22 30 0
split_gain=0.00116462 0.00100904 0.0149347 0.0448871 0.0267023 0.0222215 0.0506712 0.0685449 0.124871 0.00854103 0.0137041 0.00830064 0.00945982 0.0167658 0.00616836 0.0203372 0.0520312 0.0615104 0.00882737 0.0113538 0.00954599 0.0075704 0.0072307 0.0147495 0.00692317 0.023997 0.00515164 0.00468495 0.00953065 0.0137845
threshold=37.021250000000002 -1.0871249999999998e-06 -0.043520549999999998 -1.6185649999999999e-06 -17.889999999999997 -1.6660749999999998e-05 0.40341550000000004 3.0565150000000007e-05 -0.56065814999999997 13.145050000000003 -8.1499199999999981 2.7222300000000006 2.4318650000000006 -0.0037126899999999998 0.0029491400000000003 -16.232699999999998 1.1165700000000002e-05 1.3242550000000002 -6.7305649999999985e-05 0.020005600000000002 -7.1911899999999989 -3.1103099999999997 0.83610000000000018 -2.909419999999999 -0.0087176949999999993 -3.6758849999999996e-06 1.9790700000000003 -0.034152749999999996 -1.1032499999999998 -7.7001899999999992
decision_type=2 2 2 2 2 2 2 2 2 2 2 2 2 2 2 2 2 2 2 2 2 2 2 2 2 2 2 2 2 2
left_child=1 2 3 4 -1 11 7 -7 -9 10 -4 -6 13 -13 21 16 -16 -18 -17 20 -20 -12 23 -21 25 -23 -8 28 -3 -30
right_child=-2 27 9 -5 5 6 26 8 -10 -11 14 12 -14 -15 15 18 17 -19 19 22 -22 24 -24 -25 -26 -27 -28 -29 29 -31
leaf_value=0.0024426033786610411 -0.00041485096158243989 4.4866768214499238e-06 -0.001922806183158952 0.0035600320045778059 -7.1794072061713202e-05 -0.0015144742306438274 -0.00022136564416036384 -0.00032967292034932733 0.0072567925813368326 0.0013026638036007755 0.0014828698864585022 -0.00031204691626044221 -5.0112526514567436e-05 -0.0033830057142768054 -0.0019104641023494132 2.2642720317050518e-05 -0.00027822189856254093 0.0054621591338738134 -0.00023351345525752013 -0.000805844933640929 -0.0018971047010771663 6.1112492749499441e-05 -0.00040528095035777619 -0.0033125434550406083 2.9281220876470016e-06 0.0023782677142603899 -0.0017315561354962483 2.3464935188343557e-06 -0.0019645357988455573 -0.00031992768581144048
leaf_weight=29 38 758 21 25 121 20 27 23 26 28 20 20 28 20 22 208 21 21 255 31 21 133 29 23 4455 31 24 15408 31 381
leaf_count=29 38 758 21 25 121 20 27 23 26 28 20 20 28 20 22 208 21 21 255 31 21 133 29 23 4455 31 24 15408 31 381
internal_value=0 7.08191e-07 2.79834e-05 0.000493431 0.000266611 6.2392e-05 0.000860587 0.00218557 0.0036958 -3.78148e-06 -1.06952e-05 -0.000444398 -0.00110741 -0.00184753 -3.07578e-06 -0.000223084 0.00104426 0.00259197 -0.000366135 -0.000591387 -0.000360091 2.68498e-05 -0.00136052 -0.00187351 2.05454e-05 0.000499111 -0.000932044 -8.64021e-06 -0.000153327 -0.000443672
internal_weight=0 22260 5682 363 338 309 120 69 49 5319 5291 189 68 40 5270 631 64 42 567 359 276 4639 83 54 4619 164 51 16578 1170 412
internal_count=22298 22260 5682 363 338 309 120 69 49 5319 5291 189 68 40 5270 631 64 42 567 359 276 4639 83 54 4619 164 51 16578 1170 412
shrinkage=0.075


Tree=179
num_leaves=31
num_cat=0
split_feature=14 14 17 0 1 11 15 10 27 27 14 0 1 3 19 31 20 27 27 1 15 30 17 27 30 12 31 12 8 27
split_gain=0.00105411 0.0044122 0.00948039 0.0309948 0.0929264 0.00492282 0.013177 0.0105553 0.00931977 0.0470848 0.00438066 0.00442166 0.0210331 0.0043342 0.0167156 0.00377717 0.0243833 0.0217812 0.0823245 0.0183054 0.0177326 0.010873 0.0522858 0.0635958 0.0406171 0.0554177 0.0235996 0.0181597 0.0303378 0.0177999
threshold=-9.8022199999999984 -10.443899999999998 -0.02085155 -6.5911499999999998 -8.8719749999999973 3.7080900000000006e-05 0.19998600000000002 8.4113050000000008e-07 0.27611750000000007 -0.24510499999999988 -10.321499999999999 6.4144950000000014 -8.9932449999999982 6.8464300000000006e-06 0.039810100000000008 -1.997555 2.6425500000000003e-05 -0.45060349999999988 0.40341550000000004 -18.343149999999998 0.87209600000000009 0.021755000000000194 -0.074875099999999986 1.3647880000000001 -0.098425000000000637 1.2953950000000002e-06 -0.081110000000000224 5.1870750000000001e-08 1.0000000180025095e-35 0.075470000000000051
decision_type=2 2 2 2 2 2 2 2 2 2 2 2 2 2 2 2 2 2 2 2 2 2 2 2 2 2 2 2 2 2
left_child=1 15 3 4 -3 7 -7 10 9 -9 -4 -12 -13 14 -2 16 20 -18 -19 -17 -1 24 23 -23 -21 -26 27 28 -24 -29
right_child=13 2 5 -5 -6 6 -8 8 -10 -11 11 12 -14 -15 -16 19 17 18 -20 21 -22 22 26 -25 25 -27 -28 29 -30 -31
leaf_value=-4.7887822274260431e-05 2.502074155042489e-06 -0.0062268311226398509 -0.0008385499759185677 -3.1513589976551467e-05 -6.1172967500831203e-05 1.6681790192504567e-05 0.0016711938770185952 -2.4779001097873072e-05 -1.2943592890678701e-05 -0.0034975607447222498 -5.6199341260701428e-05 0.0026188960302273956 3.0509385023403434e-05 1.1157811042121046e-05 0.0024462468053206977 0.0020408611425664276 -0.000103298642781857 -0.0060736889642430463 -0.0002703961757685068 6.4961608486249299e-07 0.0020742726696366645 0.004543689693406015 -0.0036400436255462406 -0.00038379126321720273 -0.0043119889555563182 -0.00024728575051792881 0.0021464159396055037 0.00046582859691253275 0.00015693091443546138 -0.00039366609452560185
leaf_weight=598 74 20 32 158 44 176 32 70 75 32 414 21 111 11851 20 25 61 20 44 7615 23 34 20 26 29 54 30 330 29 230
leaf_count=598 74 20 32 158 44 176 32 70 75 32 414 21 111 11851 20 25 61 20 44 7615 23 34 20 26 29 54 30 330 29 230
internal_value=0 -1.75158e-05 -0.000153702 -0.000595529 -0.00198794 -5.18482e-05 0.000271222 -0.000140853 -0.000647612 -0.00111428 1.43309e-05 6.43165e-05 0.000442298 1.51814e-05 0.000522448 8.68111e-08 -0.000161664 -0.00111738 -0.00208393 1.44143e-05 3.07107e-05 8.38102e-06 0.000291602 0.00240845 -1.73362e-05 -0.00166748 9.2837e-05 -8.32453e-06 -0.00139285 0.000112822
internal_weight=0 10353 1185 222 64 963 208 755 177 102 578 546 132 11945 94 9168 746 125 64 8422 621 8397 699 60 7698 83 639 609 49 560
internal_count=22298 10353 1185 222 64 963 208 755 177 102 578 546 132 11945 94 9168 746 125 64 8422 621 8397 699 60 7698 83 639 609 49 560
shrinkage=0.075


end of trees

feature_importances:
feature_3_diff_feature_23=713
feature_24_ratio_feature_4=491
feature_4=329
feature_35=196
feature_24=192
feature_29=188
feature_5=182
feature_14=170
feature_15=170
feature_12=165
feature_16=163
feature_20=162
feature_6=161
feature_17=152
feature_2=147
feature_36=143
feature_13=141
feature_25=140
feature_26=139
feature_37=130
feature_39=121
feature_32=119
feature_34=115
feature_23_ratio_feature_3=115
feature_38=108
feature_31=107
feature_19=103
feature_4_ratio_feature_24=101
feature_18=95
feature_23=75
feature_40=61
feature_3_ratio_feature_23=6

parameters:
[boosting: gbdt]
[objective: regression]
[metric: l2]
[tree_learner: serial]
[device_type: cpu]
[data: ]
[valid: ]
[num_iterations: 10000]
[learning_rate: 0.075]
[num_leaves: 31]
[num_threads: 24]
[force_col_wise: 0]
[force_row_wise: 0]
[histogram_pool_size: -1]
[max_depth: -1]
[min_data_in_leaf: 20]
[min_sum_hessian_in_leaf: 0.001]
[bagging_fraction: 0.9]
[pos_bagging_fraction: 1]
[neg_bagging_fraction: 1]
[bagging_freq: 0]
[bagging_seed: 10438]
[feature_fraction: 0.9]
[feature_fraction_bynode: 1]
[feature_fraction_seed: 6707]
[extra_trees: 0]
[extra_seed: 23424]
[early_stopping_round: 50]
[first_metric_only: 0]
[max_delta_step: 0]
[lambda_l1: 0]
[lambda_l2: 0]
[min_gain_to_split: 0]
[drop_rate: 0.1]
[max_drop: 50]
[skip_drop: 0.5]
[xgboost_dart_mode: 0]
[uniform_drop: 0]
[drop_seed: 18682]
[top_rate: 0.2]
[other_rate: 0.1]
[min_data_per_group: 100]
[max_cat_threshold: 32]
[cat_l2: 10]
[cat_smooth: 10]
[max_cat_to_onehot: 4]
[top_k: 20]
[monotone_constraints: ]
[monotone_constraints_method: basic]
[monotone_penalty: 0]
[feature_contri: ]
[forcedsplits_filename: ]
[refit_decay_rate: 0.9]
[cegb_tradeoff: 1]
[cegb_penalty_split: 0]
[cegb_penalty_feature_lazy: ]
[cegb_penalty_feature_coupled: ]
[path_smooth: 0]
[interaction_constraints: ]
[verbosity: -1]
[saved_feature_importance_type: 0]
[max_bin: 255]
[max_bin_by_feature: ]
[min_data_in_bin: 3]
[bin_construct_sample_cnt: 200000]
[data_random_seed: 4081]
[is_enable_sparse: 1]
[enable_bundle: 1]
[use_missing: 1]
[zero_as_missing: 0]
[feature_pre_filter: 1]
[pre_partition: 0]
[two_round: 0]
[header: 0]
[label_column: ]
[weight_column: ]
[group_column: ]
[ignore_column: ]
[categorical_feature: ]
[forcedbins_filename: ]
[objective_seed: 31546]
[num_class: 1]
[is_unbalance: 0]
[scale_pos_weight: 1]
[sigmoid: 1]
[boost_from_average: 1]
[reg_sqrt: 0]
[alpha: 0.9]
[fair_c: 1]
[poisson_max_delta_step: 0.7]
[tweedie_variance_power: 1.5]
[lambdarank_truncation_level: 20]
[lambdarank_norm: 1]
[label_gain: ]
[eval_at: ]
[multi_error_top_k: 1]
[auc_mu_weights: ]
[num_machines: 1]
[local_listen_port: 12400]
[time_out: 120]
[machine_list_filename: ]
[machines: ]
[gpu_platform_id: -1]
[gpu_device_id: -1]
[gpu_use_dp: 0]

end of parameters

pandas_categorical:[]
