tree
version=v3
num_class=1
num_tree_per_iteration=1
label_index=0
max_feature_idx=44
objective=regression
feature_names=feature_1 feature_2 feature_3 feature_4 feature_5 feature_6 feature_7 feature_8 feature_9 feature_10 feature_11 feature_12 feature_13 feature_14 feature_15 feature_16 feature_17 feature_18 feature_19 feature_20 feature_21 feature_22 feature_23 feature_24 feature_25 feature_26 feature_27 feature_28 feature_29 feature_30 feature_31 feature_32 feature_33 feature_34 feature_35 feature_36 feature_37 feature_38 feature_39 feature_40 feature_3_diff_feature_23 feature_23_ratio_feature_3 feature_3_ratio_feature_23 feature_4_ratio_feature_24 feature_24_ratio_feature_4
feature_infos=[-15.939299999999999:15.947900000000001] [-16.752600000000001:16.742699999999999] [-3.1493500000000001:3.1712600000000002] [-20.337599999999998:-4.4050799999999999] [-76.333299999999994:81.104100000000003] [4.7191799999999999e-06:0.024492400000000001] [-0.0134629:0.0043453500000000004] [7.6853900000000003e-06:0.0087102900000000007] [-0.0019838400000000002:0.0093822599999999999] [-0.0042041600000000002:0.0042393500000000002] [5.16389e-06:0.0043024400000000003] [-0.0307505:0.44305499999999998] [-0.25241999999999998:0.10157099999999999] [-0.0015938:0.16405600000000001] [1.1073199999999999e-05:8.1351999999999993] [-0.051134800000000001:2.89988] [-1.6246700000000001:0.29819499999999999] [-0.0342528:1.09792] [-12.1029:53.042499999999997] [3.4101299999999998e-11:351.17200000000003] [-54.533999999999999:55.582099999999997] [-54.234499999999997:40.377200000000002] [-3.1409400000000001:3.1415299999999999] [-52.629199999999997:-3.9076399999999998] [-15.932700000000001:8.9071200000000008] [0.13626099999999999:426.577] [-2.75034:1.68068] [0.119494:426.75] [-9.53993:25.175699999999999] [-26.306100000000001:16.1218] [4.0056099999999998e-05:10.1328] [-1116.75:849.51400000000001] [-1201.8099999999999:402.52300000000002] [-0.609962:0.153891] [0.0015259:23287.5] [-419.49400000000003:113.274] [-96.991100000000003:223.089] [-0.0093706699999999993:0.110289] [-4322.8400000000001:2111.3200000000002] [3.4248799999999999e-07:802.66200000000003] [-6.2414699999999996:6.2264600000000003] [-6.2264600000000003:6.2414699999999996] [-6.2414699999999996:6.2264600000000003] [-15.002770000000002:47.938089999999995] [-47.938089999999995:15.002770000000002]
tree_sizes=2877 2935 2921 2911 2944 2916 2935 2889 2880 2881 2910 2955 2920 2895 2901 2920 2912 2951 2941 2894 2964 2919 2932 2881 2904 2882 2875 2929 2899 2917 2919 2929 2953 2905 2931 2907 2922 2915 2954 2932 2926 2914 2931 2948 2951 2958 2905 2936 2927 2929 2920 2944 2906 2923 2941 2937 2922 2951 2928 2938 2897 2897 2899 2939 2914 2859 2858 2950 2917 2916 2912 2860 2930 2941 2872 2960 2857 2868 2941 2944 2916 2931 2987 2956 2953 2930 2933 2931 2928 2931 2955 2951 2943 2942 2849 2912 2928 2994 2985 2885 2870 2933 2938 2888 2957 2992 2864 2955 2973 2966 2949 2986 2948 2982 2928 2967 2949 2871 2956 2994 2964 2957 2951 2954 2932 2964 2958 2952 2961 2971 2979 2956 2962 2964 2971 2955 2941 3006 2963 2979 2964 2911 2956 2946 2968 2946 2978 2945 2973 2962 2984 2944 2963 2912 2953 2923 2955 2935 2966 2975 2903 2976 2970 2937 2978 2951 2934 2959 2990 2945 2950 2976 2938 2955 2949 2933 2952 3006 2974 2985 2972 2916 2945 2948 2971 2923 2988 3003 2967 2940 2993 2948 2991 2963 2977 2911 2928 2934 2978 3001 2934 2956 2925 2990 2970 2987 2974 2967 3000 3001 2967 2933 2969 2955 2949 2974 2937 2950 2988 2970 2980 2964 2975 2996 2941 2943 3011 2975 2970 2986 2982 2967 2999 3012 2957 2992 2930 2961 2953 2934 2986 2962 2996 2949 2929 2977 2945 2951 2965 2906 2944 2983 2947 2980 3017 2943 2961 3008 2955 2972 3004 2956 2963 2942 3005 2957 2946 2966 2920 3016 2959 2904 2974 2977 2985 2981 3006 3004 2988 2947 2969 2964 3041 3003 3008 2982 2970 3001 2968 2938 2965 2970 3001 2934 2996 2993 3068 3012 2961 2938 2990 2941 2970 3030 2974 2936 3007 3073 2971 2991 2988 3011 2955 3003 3046 2941 2998 2972 2966 2959 3026 2985 2993 2971 2987 2927 2974 2989 2972 2973 2938 3069 2993 2978 2982 3000 2980 2959 2941 2960 2980 2977 2940 2990 2989 2979 2938 2953 2948 2967 2954 2961 2976 2954 2976 3018 2989 2976 2963 2983 2976 3001 2988 3007 2983 2963 2998 2966 2976 2958 2963 2966 3020 2998 3001 3054 2997 3035 2982 2989 2979 2952 2979 2999 2973 3030 2972 2985 2963 2967 2950 2971 2982 3021 2959 2986 2957 2992 2957 2951 3014 2986 2978 2979 2979 3018 2998 2991 3027 3022 2988 2994 2965 2956 2957 3019 2996 2977 2994 3011 2994 2970 2945 2951 3034 2970 2989 3037 3045 2991 2979 3026 2996 2974 3020 2962 3005 3019 3038 3037 2978 2967 2973 2985 3034 2995 2986 2974 3012 2974 2965 2998 2969 2971 2973 3006 2987 2996 3000 2996 2975 3056 3009 2984 3005 3023 3043 3017 2958 3038 2999 2964 2986 3005 2990 2972 2976 3005 2988 3015 3028 2946 2991 3019 2990 3017 2952 2972 3034 2921 2997 2961 3050 2973 2971 2977 2962 2980 2977 3011 3015 3041 3007 2966 3009 2989 3004 3053 3005 2967 2958 2967 2981 3033 2984 2989 3006 3012 3015 2981 3005 3001 2986 2993 2971 2982 2955 2982 3009 2942 2984 2986 2966 2997 3021 2955 2977 2946 3003 3026 3051 3014 2986 2989 3013 2993 2977 3011 3012 3024 3010 3012 2977 3011 2970 2988 2980 3006 3008 2976 3009 3028 3014 2966 3054 2959 3057 2925 3007 3026 2985 3019 3008 3008 3025 2968 3006 3049 2985 2987 3014 2994 3008 3008 3013 3011 2994 2989 2984 2982 3002 3020 3031 2979 3009 2995 2994 3017 3010 2995 3021 2982 3008 2982 3004 3053 2969 3016 2949 3036 2977 2971 2969 2998 3012 3008 3052 3002 2989 2971 2985 2992 2955 2989 2977 2993 2982 2978 3016 2989 3028 3020 2998 2993 3031 3001 2950 2980 2964 2980 3046 3042 2980 2985 2974 2951 2992 2994 2987 2957 2988 2983 2992 2983 2995 2994 3008 3022 2968 2994 3011 3004 2993 3017 3017 3009 2942 3004 2999 2983 3011 2967 2924 2997 3013 3009 2966 2990 3018 2983 3003 2944 2967 3001 2988 2981 2999 2929 2996 3003 2966 2969 3008 2986 2992 3013 2967 3014 3006 2948 3054 3024 2997 2988 3035 3019 2994 2961 2975 2998 3029 3031 3000 2985 2993 3025 3014 2996 2995 2952 2995 3047 2969 2988 3014 2952 2954 2988 3016 2982 2994 3012 3006 3014 3014 2987 3000 3005 3004 2979 3005 2982 3011 3005 3016 3000 3042 3002 3011 2984 3029 3005 3011 2969 3010 2977 3008 2988 3012 2988 3013 3016 2956 3012 2989 3025 2992 2971 3049 3006 3036 3018 3051 2989 2993 3007 3031 2950 3001 2987 2988 2981 3079 3006 3002 3023 2971 3052 2973 3023 3003 2972 3025 3006 3014 2999 3001 3016 3004 3020 3008 3047 2990 3017 3002 2972 3008 3049 2958 2982 3032 2992 2996 2970 2995 2971 3013 3029 2962 2996 2981 2974 3002 3016 3061 3006 3021 2993 2994 2976 3017 2988 2989 2999 2994 3020 3010 3018 2992 2967 3026 3010 3060 2976 3037 3025 3012 3001 2972 3012 2996 3003 3011 2979 3029 3016 2988 2974 3040 3000 3024 2958 2986 3013 3046 3013 3047 3000 2982 3011 2999 2962 3036 3011 3028 2991 3031 3018 3043 3003 2999 2973 2993 3011 3001 2997 2996 2969 2977 2993 3012 3019 3010 3021 2966 3007 3012 2977 3016 2996 3024 3018 2989 3020 3003 2987 2967 3035 3012 3043 2955 3003 2974 2939 2962 3021 2993 3039 2976 3050 2962 2999 3022 2976 3018 2985 3008 3008 3059 2979 2988 2993 3038 3008 3020 3040 3011 2986 3001 3006 2958 3002 3025 2990 3020 2971 3010 2980 2980 3036 3029 3036 3034 2983 2985 2992 2959 3010 2972 3022 3044 3024 3006 2967 2988 2999 3040 3029 3053 3022 3003 2977 2970 3039 3029 3033 3029 2978 2987 2982 3011 3045 3011 3006 3027 3027 3020 3027 3048 2968 2989 3010 3026 3053 3021 2970 3023 3011 2989 2995 3013 2993 2982 3012 3042 2962 3065 2997 2957 3000 3017 3019 3005 3019 3027 2990 2990 3057 3011 3018 2969 3052 3009 3046 3042 3022 3001 3016 3011 3021 3013 2980 2997 3008 2983 2979 3020 3039 3012 2981 3012 3035 3054 3015 3013 3044 3006 3070 2996 3032 2974 3036 3036 3024 3027 3022 3004 2985 2984 3009 2955

Tree=0
num_leaves=31
num_cat=0
split_feature=43 44 41 40 41 4 4 30 43 34 41 41 40 30 13 43 34 40 3 21 14 41 34 40 40 34 44 40 41 40
split_gain=220.221 943.737 804.671 3116.64 144.001 62.6024 62.2557 37.9579 34.7648 42.4108 53.7534 279.231 23.9239 31.4501 19.3154 16.3439 34.1419 13.3977 11.3815 9.11966 9.00127 8.18682 11.9493 7.95843 41.2119 7.49291 7.89636 10.4337 60.6406 13.6584
threshold=0.80790999999999979 0.31988499999999936 -0.15132349999999997 -0.079468000000000025 -0.057539999999999918 -1.2205099999999998 1.4464300000000001 0.00053189000000000014 -0.82558500000000012 0.034131950000000001 0.19792950000000006 -0.10141500000000002 -0.14969009999999991 0.0013551150000000003 0.00021504100000000004 0.47541999999999979 0.021266050000000005 -0.079468000000000025 -15.732949999999999 -7.1421249999999992 0.00015284250000000002 0.057875000000000128 0.041331900000000012 -0.30278099999999991 0.10022550000000004 0.209427 2.014730000000001 0.354709 0.24875600000000014 0.12375499999999996
decision_type=2 2 2 2 2 2 2 2 2 2 2 2 2 2 2 2 2 2 2 2 2 2 2 2 2 2 2 2 2 2
left_child=1 2 -1 12 7 -6 15 -5 25 -10 11 -11 -4 -14 17 21 -17 -13 23 -19 -18 -7 -23 -2 -25 -3 27 28 29 -27
right_child=18 8 3 4 5 6 -8 -9 9 10 -12 14 13 -15 -16 16 20 19 -20 -21 -22 22 -24 24 -26 26 -28 -29 -30 -31
leaf_value=0.033387846447035824 0.033338903038628548 0.033251324556012866 0.033384128200574757 0.03637745783976825 0.038704542493786909 0.082024730688140951 0.03580743962906166 0.064321147824104641 0.033670770039831398 0.034194046889788533 0.03353054987761811 0.055987814583903575 0.035014160751864851 0.067663818188241326 0.034725188558905676 0.035796243928335907 0.047793370231039183 0.047210036904225108 0.033379752651187318 0.078091206577382666 0.079559242891900903 0.041543370300888373 0.077833692475957575 0.065956515567956314 0.034853229530586102 0.060400369083095637 0.033859920758445489 0.033421185706976178 0.033554864643040444 0.040710036976868265
leaf_weight=9842 388 59340 9765 221 91 5526 77 270 4775 1626 1560 90 194 119 33 58 24 25 111952 547 315 30 93 142 426 331 7309 1184 1160 120
leaf_count=9842 388 59340 9765 221 91 5526 77 270 4775 1626 1560 90 194 119 33 58 24 25 111952 547 315 30 93 142 426 331 7309 1184 1160 120
internal_value=0.0349579 0.0366094 0.0447387 0.0513951 0.0778111 0.0798708 0.0804826 0.0517436 0.0338381 0.036826 0.0407081 0.0455323 0.0338203 0.0474273 0.072059 0.0810516 0.0712453 0.07392 0.0334261 0.0767415 0.0773103 0.0817407 0.0689824 0.0388586 0.0426291 0.0334656 0.0347243 0.0369846 0.0396036 0.0551613
internal_weight=0 104725 26625 16783 6705 6214 6123 491 78100 8656 3881 2321 10078 313 695 6046 397 662 112908 572 339 5649 123 956 568 69444 10104 2795 1611 451
internal_count=217633 104725 26625 16783 6705 6214 6123 491 78100 8656 3881 2321 10078 313 695 6046 397 662 112908 572 339 5649 123 956 568 69444 10104 2795 1611 451
shrinkage=1


Tree=1
num_leaves=31
num_cat=0
split_feature=43 44 41 40 41 4 4 39 43 34 41 41 40 30 43 34 4 4 3 14 41 34 40 40 40 34 40 40 14 44
split_gain=198.749 851.722 726.216 2812.77 129.961 56.4987 56.1858 35.2048 31.3752 38.3688 46.3624 224.083 21.5913 28.3837 14.7504 30.8131 13.7649 12.4424 10.2881 8.12364 7.3886 10.7842 6.80571 36.5424 7.14175 6.78471 6.71814 6.68868 6.16492 6.15538
threshold=0.80790999999999979 0.31988499999999936 -0.15132349999999997 -0.079468000000000025 -0.057539999999999918 -1.2205099999999998 1.4464300000000001 2.9142450000000004e-05 -0.82558500000000012 0.052080500000000009 0.19792950000000006 -0.10141500000000002 -0.14969009999999991 0.0013551150000000003 0.47541999999999979 0.021266050000000005 -2.0429399999999993 1.7937450000000001 -15.867949999999999 0.00015284250000000002 0.057875000000000128 0.041331900000000012 -0.30278099999999991 0.10022550000000004 -0.12496499999999998 0.2810120000000001 -0.079468000000000025 0.24966499999999994 0.00010873100000000003 2.3013500000000007
decision_type=2 2 2 2 2 2 2 2 2 2 2 2 2 2 2 2 2 2 2 2 2 2 2 2 2 2 2 2 2 2
left_child=1 2 -1 12 7 -6 14 -5 25 -10 11 27 -4 -14 20 -16 -13 26 22 -17 -7 -22 -2 24 -24 -3 -18 -11 -9 -27
right_child=18 8 3 4 5 6 -8 28 9 10 -12 16 13 -15 15 19 17 -19 -20 -21 21 -23 23 -25 -26 29 -28 -29 -30 -31
leaf_value=-0.0014915829725764894 -0.0015190162249570768 -0.0016034610538711571 -0.0014951153310121664 0.0016257671151293938 0.0035592784429644489 0.044713456544808045 0.00080703070701716782 0.0017839426547288893 -0.00075201014157191999 0.013674912902598197 -0.0012797020080070648 -0.0023824527013030922 5.3415725910172022e-05 0.03107059160951807 0.00079639475985333842 0.012193664574685197 0.025282800442551913 0.001881940411808698 -0.0014969424650507516 0.042371243102446443 0.0062561647966504104 0.040731970429100019 0.0096053997114781409 -7.1710382604966741e-05 0.037106213899272864 0.0017909962542688282 0.041563575069109598 -0.0014246861391218459 0.030668239744980477 -0.0010479471661186824
leaf_weight=9842 338 60846 9765 229 91 5526 77 20 5492 78 1260 22 194 119 58 24 73 23 112051 315 30 93 31 389 99 2862 480 1228 242 5736
leaf_count=9842 338 60846 9765 229 91 5526 77 20 5492 78 1260 22 194 119 58 24 73 23 112051 315 30 93 31 389 99 2862 480 1228 242 5736
internal_value=0 0.00156891 0.0092917 0.0156153 0.0407105 0.0426672 0.0432484 0.0159464 -0.00106386 0.00177469 0.00616047 0.0110841 -0.00108077 0.0118459 0.043789 0.034473 0.0364332 0.0379157 -0.0014552 0.0402348 0.0444437 0.0323232 0.00400229 0.00759805 0.0305483 -0.00141768 0.0394144 -0.000522872 0.0284633 -0.000102953
internal_weight=0 104725 26625 16783 6705 6214 6123 491 78100 8656 3164 1904 10078 313 6046 397 598 576 112908 339 5649 123 857 519 130 69444 553 1306 262 8598
internal_count=217633 104725 26625 16783 6705 6214 6123 491 78100 8656 3164 1904 10078 313 6046 397 598 576 112908 339 5649 123 857 519 130 69444 553 1306 262 8598
shrinkage=0.05


Tree=2
num_leaves=31
num_cat=0
split_feature=43 44 41 40 41 4 4 39 43 34 41 41 40 30 40 43 34 21 3 14 4 41 34 40 40 40 34 44 40 41
split_gain=179.371 768.68 655.41 2538.53 117.29 50.9901 50.7077 31.7723 28.3161 35.1623 44.9452 232.215 19.4862 25.6163 16.3879 13.3122 27.8088 11.9315 9.32195 7.33159 7.18543 6.66822 9.73274 6.5206 33.7484 6.6601 6.15937 6.59519 9.4112 54.7234
threshold=0.80790999999999979 0.31988499999999936 -0.15132349999999997 -0.079468000000000025 -0.057539999999999918 -1.2205099999999998 1.4464300000000001 2.9142450000000004e-05 -0.82558500000000012 0.031882050000000009 0.19792950000000006 -0.10141500000000002 -0.14969009999999991 0.0013551150000000003 -0.079468000000000025 0.47541999999999979 0.021266050000000005 -7.1421249999999992 -15.732949999999999 0.00015284250000000002 1.1247450000000001 0.057875000000000128 0.041331900000000012 -0.30278099999999991 0.10022550000000004 -0.12496499999999998 0.209427 2.014730000000001 0.354709 0.24875600000000014
decision_type=2 2 2 2 2 2 2 2 2 2 2 2 2 2 2 2 2 2 2 2 2 2 2 2 2 2 2 2 2 2
left_child=1 2 -1 12 7 -6 15 -5 26 -10 11 -11 -4 -14 -13 21 -17 -16 23 -18 -19 -7 -23 -2 25 -25 -3 28 29 -28
right_child=18 8 3 4 5 6 -8 -9 9 10 -12 14 13 -15 17 16 19 20 -20 -21 -22 22 -24 24 -26 -27 27 -29 -30 -31
leaf_value=-0.0014170037850122874 -0.0014622706113402379 -0.0015411057405175035 -0.0014203595567668212 0.0015444786470855169 0.0033813145380098743 0.042477784640453368 0.00076667906885797329 0.027040166211605984 -0.0012602511949826034 -0.00071895784102917577 -0.0013085655189048263 0.015656367784196681 5.0744899193343429e-05 0.029517060054951357 0.0074153510345654058 0.00075657483961047802 0.011583981981190544 0.039412253110148759 -0.0014244249763854496 0.040252682321837971 0.0089016082137823114 0.0059433566406369214 0.038695372064267437 0.0083767594148715339 -8.969408385630505e-05 0.034014767257992282 0.019126562762617275 -0.0009955814800660088 -0.0015242313404529783 -0.001398616431859033
leaf_weight=9842 388 59340 9765 229 91 5526 77 262 4667 1664 1613 110 194 119 33 58 24 549 111952 315 20 30 93 33 426 109 451 7309 1184 1160
leaf_count=9842 388 59340 9765 229 91 5526 77 262 4667 1664 1613 110 194 119 33 58 24 549 111952 315 20 30 93 33 426 109 451 7309 1184 1160
internal_value=0 0.00149046 0.00882712 0.0148345 0.038675 0.0405339 0.041086 0.0151491 -0.00101067 0.00168595 0.00513292 0.00950586 -0.00102674 0.0112536 0.0334021 0.0415995 0.0327493 0.0366446 -0.00138244 0.038223 0.0383398 0.0422215 0.0307071 0.00353397 0.00694689 0.0280566 -0.0013468 -0.000205632 0.00186011 0.00434741
internal_weight=0 104725 26625 16783 6705 6214 6123 491 78100 8656 3989 2376 10078 313 712 6046 397 602 112908 339 569 5649 123 956 568 142 69444 10104 2795 1611
internal_count=217633 104725 26625 16783 6705 6214 6123 491 78100 8656 3989 2376 10078 313 712 6046 397 602 112908 339 569 5649 123 956 568 142 69444 10104 2795 1611
shrinkage=0.05


Tree=3
num_leaves=31
num_cat=0
split_feature=44 44 40 40 41 4 4 30 44 34 40 40 40 30 40 21 44 34 4 14 34 44 40 40 4 23 40 40 30 36
split_gain=161.892 715.019 599.995 2292.68 72.4689 44.2858 43.2496 25.9097 25.5919 31.0828 39.4109 189.675 16.3552 21.536 16.3489 11.9052 10.3845 32.1114 9.54698 6.61968 6.05251 6.6057 9.72774 58.9786 11.7082 11.0404 9.36364 5.95625 7.44692 5.53741
threshold=-0.77194499999999999 0.31988499999999936 0.12375499999999996 -0.079468000000000025 -0.057539999999999918 -1.2205099999999998 1.4464300000000001 0.00053189000000000014 0.7622899999999998 0.031882050000000009 0.24966499999999994 -0.12496499999999998 -0.14969009999999991 0.0013551150000000003 0.10022550000000004 -7.1421249999999992 -0.35442999999999975 0.021266050000000005 1.2369950000000001 0.00015284250000000002 0.209427 2.014730000000001 0.30085850000000008 -0.19934349999999995 -1.6465649999999996 -8.9766299999999983 0.10022550000000004 -0.058960000000000005 0.00033368200000000002 0.14537000000000003
decision_type=2 2 2 2 2 2 2 2 2 2 2 2 2 2 2 2 2 2 2 2 2 2 2 2 2 2 2 2 2 2
left_child=-1 2 3 12 7 -6 16 -5 9 -3 11 -11 -2 -14 15 -13 17 -7 -17 -19 -10 22 23 -22 -25 26 29 28 -18 -26
right_child=1 8 -4 4 5 6 -8 -9 20 10 -12 14 13 -15 -16 18 27 19 -20 -21 21 -23 -24 24 25 -27 -28 -29 -30 -31
leaf_value=-0.0013041540540313877 -0.0013422925751428053 -0.0011592991630265165 -0.0012766549781877169 0.0020456033876572531 0.0033995614683424887 0.0032740220475893523 0.00087066847473791197 0.027944719334763869 -0.0014502171278871164 -0.0008140581451095794 -0.0013907162309810791 0.0059765357524156574 8.6189087872442447e-05 0.027500469308832418 0.011241668325079524 0.03698053812444374 0.0018282883933612279 0.017283179953291612 0.0047595744642118616 0.039170163165556271 -0.0011424264173954726 -0.00094580244696495846 -0.0014127701334222783 -0.0010188236366957427 0.037998011247558 0.011061211409093427 0.011959702344769139 0.040535408974552281 0.035198600894612513 0.013211778780588738
leaf_weight=113672 9385 4131 9604 174 88 77 73 217 60158 1458 1373 36 190 115 92 546 21 37 24 521 1250 7309 1292 56 169 121 59 5277 82 26
leaf_count=113672 9385 4131 9604 174 88 77 73 217 60158 1458 1373 36 190 115 92 546 21 37 24 521 1250 7309 1292 56 169 121 59 5277 82 26
internal_value=0 0.00142598 0.00863201 0.0144857 0.0372943 0.0386159 0.039125 0.0164193 -0.000960136 0.00178454 0.00523056 0.00944717 -0.00097198 0.0104227 0.0308811 0.0338626 0.0395892 0.0335421 0.0356239 0.0377189 -0.00125861 -0.000137527 0.00184958 0.004357 0.0203066 0.0234912 0.0294126 0.040303 0.0283949 0.0346932
internal_weight=0 103961 25861 16257 6567 6176 6088 391 78100 7660 3529 2156 9690 305 698 606 6015 635 570 558 70440 10282 2973 1681 431 375 254 5380 103 195
internal_count=217633 103961 25861 16257 6567 6176 6088 391 78100 7660 3529 2156 9690 305 698 606 6015 635 570 558 70440 10282 2973 1681 431 375 254 5380 103 195
shrinkage=0.05


Tree=4
num_leaves=31
num_cat=0
split_feature=44 44 41 40 41 4 4 30 43 34 40 41 13 40 30 40 43 34 20 3 21 14 40 40 40 30 40 34 34 41
split_gain=146.219 624.162 533.504 2074.19 94.5015 41.5444 41.3127 26.9871 23.1686 28.7842 36.9005 182.226 16.2943 15.8491 20.7759 11.8999 10.8101 22.8531 9.92284 8.4128 7.27642 6.60181 6.28384 35.923 7.02123 5.94152 5.80278 8.51549 5.11641 5.03204
threshold=-0.81248999999999982 0.31988499999999936 -0.15132349999999997 -0.079468000000000025 -0.057539999999999918 -1.2205099999999998 1.4464300000000001 0.0008353560000000001 -0.82558500000000012 0.034131950000000001 0.24966499999999994 0.17390849999999994 0.00021504100000000004 -0.14969009999999991 0.0013551150000000003 0.10022550000000004 0.47541999999999979 0.021266050000000005 -7.7125999999999992 -15.284849999999999 -7.7245449999999991 0.00015284250000000002 -0.30278099999999991 0.10022550000000004 -0.12496499999999998 0.0024282350000000004 -0.040859549999999939 0.018263050000000003 0.35804150000000007 -0.43858299999999995
decision_type=2 2 2 2 2 2 2 2 2 2 2 2 2 2 2 2 2 2 2 2 2 2 2 2 2 2 2 2 2 2
left_child=19 2 -2 13 7 -6 16 -5 28 -10 11 12 15 -4 -15 18 26 -18 -11 22 -20 -19 -1 24 -24 -17 27 -7 -3 -30
right_child=1 8 3 4 5 6 -8 -9 9 10 -12 -13 -14 14 -16 25 17 21 20 -21 -22 -23 23 -25 -26 -27 -28 -29 29 -31
leaf_value=-0.0013666594124872957 -0.0012829320856145379 -0.0013651632502669046 -0.0012831769128154873 0.0028049289323817724 0.0030500241115198031 0.013504720482636581 0.00069046062114950894 0.026269066277326961 -0.0010723023779534234 0.00033357822052810506 -0.0013117863179011851 -0.0010905355507588288 -0.001737876276352576 3.7623553608472536e-05 0.02647982620090867 0.00049624518774773758 0.00058267197475351141 0.0097882142998278153 0.0083861535070119085 -0.0012970956864208399 0.034923178541288402 0.036476141825459357 0.0071819969585963667 -0.00022594356677692044 0.030510333734530982 0.027213251821108553 0.038481434605626474 0.035368963386704276 -0.0015214646584429496 0.0011126943456754345
leaf_weight=570 9879 61975 9814 261 91 55 77 231 4775 23 1532 1576 42 195 120 46 58 25 27 111446 597 317 42 619 139 38 5360 234 3098 4371
leaf_count=570 9879 61975 9814 261 91 55 77 231 4775 23 1532 1576 42 195 120 46 58 25 27 111446 597 317 42 619 139 38 5360 234 3098 4371
internal_value=0 0.00134456 0.00794137 0.0133534 0.0349161 0.0365854 0.0370836 0.0138216 -0.000912129 0.0015271 0.00472529 0.00866262 0.0285474 -0.000928836 0.0101108 0.0302875 0.0375469 0.0296036 0.0325861 -0.00124922 0.0337749 0.0345253 0.00264505 0.0055034 0.0250971 0.0125825 0.0381093 0.0312079 -0.00121617 2.0095e-05
internal_weight=0 104817 26717 16838 6709 6217 6126 492 78100 8656 3881 2349 773 10129 315 731 6049 400 647 112816 624 342 1370 800 181 84 5649 289 69444 7469
internal_count=217633 104817 26717 16838 6709 6217 6126 492 78100 8656 3881 2349 773 10129 315 731 6049 400 647 112816 624 342 1370 800 181 84 5649 289 69444 7469
shrinkage=0.05


Tree=5
num_leaves=31
num_cat=0
split_feature=41 41 40 43 43 39 43 43 18 3 23 18 41 30 43 13 14 43 34 43 41 34 43 3 15 39 43 3 13 14
split_gain=132.267 1670.83 657.219 465.574 368.021 42.322 49.3645 47.0867 41.0796 32.0883 29.837 29.3727 27.3767 27.3017 22.1095 15.4107 19.4647 13.7839 32.4402 13.404 10.3706 9.5065 9.75412 8.95949 8.40396 7.91085 12.5961 7.69714 6.69662 6.39098
threshold=0.19792950000000006 -0.057539999999999918 -0.040859549999999939 1.1065400000000005 -0.88227999999999918 7.4540950000000013e-05 1.510785 -1.5196849999999988 0.00071169700000000018 -13.243349999999998 -13.010249999999997 -0.00041911749999999995 -0.10141500000000002 0.0011742500000000002 1.5956900000000005 0.00016420600000000005 0.00019198350000000004 0.47541999999999979 0.046494550000000003 -0.82558500000000012 0.057875000000000128 0.15036250000000004 -2.2545749999999996 -13.166999999999998 -2.1368049999999996e-05 1.4802850000000002e-05 1.6830350000000001 -13.989599999999998 5.0929450000000004e-05 0.00014136750000000003
decision_type=2 2 2 2 2 2 2 2 2 2 2 2 2 2 2 2 2 2 2 2 2 2 2 2 2 2 2 2 2 2
left_child=1 12 5 4 10 20 7 -7 11 -5 -4 23 -1 -14 19 16 -9 -13 -19 -15 25 -12 -23 -6 -18 -3 28 -8 -27 -20
right_child=-2 2 3 9 8 6 27 15 -10 -11 21 17 13 14 -16 -17 24 18 29 -21 -22 22 -24 -25 -26 26 -28 -29 -30 -31
leaf_value=-0.0012761629119978155 -0.0013505086398944148 0.0020687841012859689 0.031916258981191485 0.0281847551377995 0.035946127094328408 0.0027264853086911623 0.018880995467566608 0.0060873874110748648 0.00093499472985665013 -5.4367789461242516e-05 -0.00095616749171580572 0.036048619163610809 0.00040016896811324745 0.0092341977306481075 0.0017583084664472338 0.00086711935279235042 0.0016439438038678084 0.0056796561024384578 0.010878250233829023 0.028661927275001744 -0.00097273667712298787 7.0485732260536644e-05 0.022848457620142305 0.0019843065083540719 0.030195640591736985 0.031891483950047671 -0.0013928567990660668 8.1094001658296818e-06 -0.0001603785576298833 0.037142679264384602
leaf_weight=101534 98906 313 86 107 25 449 57 111 90 1681 857 5909 1119 145 243 71 27 128 25 229 3152 94 94 87 567 88 69 1035 20 315
leaf_count=101534 98906 313 86 107 25 449 57 111 90 1681 857 5909 1119 145 243 71 27 128 25 229 3152 94 94 87 567 88 69 1035 20 315
internal_value=0 0.00112505 0.0164566 0.0246231 0.029954 0.00344017 0.00872308 0.0156137 0.0344833 0.00163556 0.0036072 0.0349486 -0.00116971 0.00505622 0.0135005 0.0230703 0.0253064 0.0353944 0.0271344 0.0211298 7.9242e-05 0.00127746 0.0114595 0.00956507 0.0288978 0.00684626 0.0152946 0.000993233 0.025956 0.0352115
internal_weight=0 118727 15457 9498 7710 5959 2317 1225 6579 1788 1131 6489 103270 1736 617 776 705 6377 468 374 3642 1045 188 112 594 490 177 1092 108 340
internal_count=217633 118727 15457 9498 7710 5959 2317 1225 6579 1788 1131 6489 103270 1736 617 776 705 6377 468 374 3642 1045 188 112 594 490 177 1092 108 340
shrinkage=0.05


Tree=6
num_leaves=31
num_cat=0
split_feature=44 44 40 40 40 4 4 34 43 34 40 40 40 30 40 44 34 21 3 4 14 40 40 14 18 4 14 40 30 34
split_gain=119.464 510.958 435.312 1696.55 73.6822 34.3126 34.1848 23.4289 18.7542 23.8824 28.4891 130.06 12.8631 17.0265 12.0446 9.16392 27.7921 7.5226 7.04338 6.75364 5.29156 5.24431 29.6161 5.6036 4.63321 5.18605 4.92509 4.50661 4.38775 4.36378
threshold=-0.81248999999999982 0.31988499999999936 0.14973499999999998 -0.079468000000000025 0.056773999999999998 -1.2205099999999998 1.4464300000000001 0.047384050000000004 -0.82558500000000012 0.052080500000000009 0.2761725000000001 -0.12496499999999998 -0.14969009999999991 0.0013551150000000003 0.10022550000000004 -0.35442999999999975 0.021266050000000005 -7.2793899999999994 -15.284849999999999 1.2369950000000001 0.00015284250000000002 -0.30278099999999991 0.24966499999999994 0.037495750000000008 0.00034847100000000005 -1.0382099999999996 0.00018327650000000005 -0.12496499999999998 0.0024282350000000004 0.35804150000000007
decision_type=2 2 2 2 2 2 2 2 2 2 2 2 2 2 2 2 2 2 2 2 2 2 2 2 2 2 2 2 2 2
left_child=18 2 3 12 5 -5 15 -6 29 -10 11 -11 -2 -14 17 16 -7 -13 21 -19 -18 -1 23 27 25 -9 -27 -23 -16 -3
right_child=1 8 -4 4 7 6 -8 24 9 10 -12 14 13 -15 28 -17 20 19 -20 -21 -22 22 -24 -25 -26 26 -28 -29 -30 -31
leaf_value=-0.001230800973349496 -0.0011565326991264597 -0.0012376176974720752 -0.0011436103403586356 0.0025847326309143843 0.00018289144097182613 0.0015220159553878364 0.00040981375503462637 -0.0002174200862646103 -0.00062532888485277479 -0.0005174587482150079 -0.0011969041742206014 0.0023859222419559956 -1.0849392184844385e-05 0.023926712128644188 -0.00054554525033935258 0.034622579544466715 0.014960448198565623 0.032194060695520235 -0.0011729681573040647 0.0038928438740020452 0.033588891040060402 0.0080297319973642763 -0.00091680032845625206 0.00047201141715049746 0.00081650952444128368 0.0069825457987086536 0.028970931921350331 0.027451057075372626 0.020751170370289507 4.170332746130106e-05
leaf_weight=570 9814 61975 9886 91 208 84 77 20 5492 1306 1211 24 195 120 46 5377 41 504 111446 22 543 37 578 30 23 29 209 155 51 7469
leaf_count=570 9814 61975 9886 91 208 84 77 20 5492 1306 1211 24 195 120 46 5377 41 504 111446 22 543 37 578 30 23 29 209 155 51 7469
internal_value=0 0.00121534 0.00718402 0.0120754 0.0315909 0.0330617 0.0335147 0.0129037 -0.000826473 0.00136811 0.00482828 0.00856432 -0.000837311 0.00910822 0.0268963 0.0339364 0.0284132 0.0297613 -0.00112917 0.0310104 0.0322811 0.00243409 0.00504533 0.0205684 0.0223198 0.0242367 0.0262917 0.0237084 0.0106517 -0.00110002
internal_weight=0 104817 26717 16831 6702 6213 6122 489 78100 8656 3164 1953 10129 315 647 6045 668 550 112816 526 584 1370 800 222 281 258 238 192 97 69444
internal_count=217633 104817 26717 16831 6702 6213 6122 489 78100 8656 3164 1953 10129 315 647 6045 668 550 112816 526 584 1370 800 222 281 258 238 192 97 69444
shrinkage=0.05


Tree=7
num_leaves=31
num_cat=0
split_feature=40 40 40 44 44 4 39 43 43 4 3 23 40 30 43 4 14 4 43 34 44 43 34 40 14 19 39 43 3 43
split_gain=109.001 1366.79 545.327 378.333 295.169 42.0496 35.9368 41.3143 39.1022 33.3767 26.4546 26.2277 24.4931 24.0486 19.3755 16.6708 17.3465 16.3008 11.2816 8.9574 9.18043 8.63368 24.797 8.36783 8.14478 7.18768 6.47501 10.5182 6.32439 6.11045
threshold=-0.19934349999999995 0.056773999999999998 -0.040859549999999939 -1.111915 0.87140500000000032 1.2369950000000001 7.4540950000000013e-05 1.510785 -1.7757399999999997 -1.2205099999999998 -13.243349999999998 -13.010249999999997 0.10022550000000004 0.0011742500000000002 1.5956900000000005 -2.0429399999999993 0.00019807550000000001 1.7937450000000001 -1.7757399999999997 0.15036250000000004 2.2262100000000005 0.47541999999999979 0.024696250000000003 -0.058960000000000005 0.00014136750000000003 9.7782250000000015e-08 1.4802850000000002e-05 1.6830350000000001 -13.897099999999998 -0.99152500000000054
decision_type=2 2 2 2 2 2 2 2 2 2 2 2 2 2 2 2 2 2 2 2 2 2 2 2 2 2 2 2 2 2
left_child=-1 2 6 10 5 9 23 8 -8 -5 -4 -6 13 -3 18 -10 -17 25 -15 -13 -21 -11 -23 -2 -24 -18 -25 29 -9 -28
right_child=1 12 3 4 11 -7 7 28 15 21 -12 19 -14 14 -16 16 17 -19 -20 20 -22 22 24 26 -26 -27 27 -29 -30 -31
leaf_value=-0.0012267054114711417 -0.00092719853368281263 0.00043629831077692953 0.025889994775255522 0.002769229993490236 0.030208809958661306 0.00012369588731187526 0.001731305734804237 0.016320253122184013 -0.0033335299439617057 0.032688228678729329 1.5815382845655172e-05 -0.00084732081174012936 -0.0011563026443057658 0.0062140224613594242 0.0017192248216530018 0.0050886568558102443 0.012195892986215529 -5.0170558758757331e-05 0.02535523390536433 0.022254021321126125 9.6719834192465708e-05 0.0025166297051054179 0.0080884735236930513 0.0017307995887542215 0.033772379715940846 0.030339755913734379 -0.001853545755147934 -0.0012657165438038848 7.2932864585712948e-06 0.028669823723548388
leaf_weight=98843 3172 1104 105 98 85 107 415 63 67 5899 1670 854 101579 108 242 118 61 55 268 94 93 93 34 324 335 519 20 73 1044 91
leaf_count=98843 3172 1104 105 98 85 107 415 63 67 5899 1670 854 101579 108 242 118 61 55 268 94 93 93 34 324 335 519 20 73 1044 91
internal_value=0 0.00102072 0.0148714 0.022354 0.0271555 0.0312116 0.00310829 0.00795001 0.0142374 0.0317266 0.0015464 0.00350356 -0.00105606 0.00485717 0.0127546 0.0205666 0.0226932 0.0259646 0.0198572 0.00132302 0.0112346 0.0321727 0.0255905 2.69541e-05 0.0314058 0.0284315 0.00598477 0.0134755 0.000935673 0.0231701
internal_weight=0 118790 15489 9467 7692 6566 6022 2342 1235 6459 1775 1126 103301 1722 618 820 753 635 376 1041 187 6361 462 3680 369 580 508 184 1107 111
internal_count=217633 118790 15489 9467 7692 6566 6022 2342 1235 6459 1775 1126 103301 1722 618 820 753 635 376 1041 187 6361 462 3680 369 580 508 184 1107 111
shrinkage=0.05


Tree=8
num_leaves=31
num_cat=0
split_feature=40 40 40 44 44 4 39 43 4 44 23 40 30 43 4 14 40 4 44 34 43 39 43 43 34 44 43 34 14 4
split_gain=98.3736 1233.53 492.158 341.446 266.39 37.9498 32.6332 33.2742 30.1225 28.2764 23.6705 22.105 21.7038 17.4864 13.8842 15.0883 13.628 11.6175 11.0623 24.901 10.2282 9.80315 14.4349 9.37135 8.09686 8.55028 7.81072 26.5309 7.00145 6.18275
threshold=-0.19934349999999995 0.056773999999999998 -0.040859549999999939 -1.111915 0.87140500000000032 1.2369950000000001 0.00018647200000000003 1.510785 -1.2205099999999998 2.014730000000001 -13.010249999999997 0.10022550000000004 0.0011742500000000002 1.5956900000000005 -2.0429399999999993 0.00022094500000000003 -0.058960000000000005 1.7937450000000001 -2.1380549999999996 0.28940100000000007 -2.7863399999999992 1.9415700000000001e-05 1.3507450000000001 -1.4591200000000002 0.13940550000000004 2.2262100000000005 0.39187000000000044 0.026407200000000002 0.00014136750000000003 -1.4133199999999999
decision_type=2 2 2 2 2 2 2 2 2 2 2 2 2 2 2 2 2 2 2 2 2 2 2 2 2 2 2 2 2 2
left_child=-1 2 6 18 5 8 16 9 -5 14 -6 12 -3 20 -8 -16 -2 -17 -4 -20 -14 -18 23 -23 -12 -26 -10 -28 -29 -22
right_child=1 11 3 4 10 -7 7 -9 26 -11 24 -13 13 -15 15 17 21 -19 19 -21 29 22 -24 -25 25 -27 27 28 -30 -31
leaf_value=-0.0011653701465264784 -0.00066177464150675295 0.00041448338534278068 -0.0006324048546652646 0.0026307684321868786 0.028698369365404638 0.00011751118298863697 -0.0035624964806166559 0.0014786803767575024 0.031134184773542475 0.0017779854441042145 -0.00086020242508685766 -0.0010984875337588394 0.00324937370265039 0.0016332636872106348 0.0051746662579549175 0.028331028392632348 0.0023168958490073026 0.00059298955858117202 0.00046263999577158052 0.027742632958760935 -0.0036182712949812419 -0.0016119271982461215 -0.0012629495268421515 0.030390487658977512 0.020965428295132427 2.5333007037335514e-05 0.00343306948871989 0.010399947969651805 0.031974751498993273 0.025178533097062885
leaf_weight=98843 3578 1104 1383 98 85 107 55 882 5752 287 846 101579 82 242 103 476 363 41 271 121 20 28 84 125 97 98 114 41 454 274
leaf_count=98843 3578 1104 1383 98 85 107 55 882 5752 287 846 101579 82 242 103 476 363 41 271 121 20 28 84 125 97 98 114 41 454 274
internal_value=0 0.000969683 0.0141278 0.0212363 0.0257977 0.029651 0.00295287 0.00849317 0.0301403 0.0149243 0.00332838 -0.00100326 0.00461431 0.0121169 0.020514 0.0226498 0.00050761 0.0261313 0.00146908 0.00888325 0.0188644 0.00748104 0.0153907 0.0245338 0.00125687 0.0104417 0.0305641 0.0251795 0.0301877 0.0232196
internal_weight=0 118790 15489 9467 7692 6566 6022 1844 6459 962 1126 103301 1722 618 675 620 4178 517 1775 392 376 600 237 153 1041 195 6361 609 495 294
internal_count=217633 118790 15489 9467 7692 6566 6022 1844 6459 962 1126 103301 1722 618 675 620 4178 517 1775 392 376 600 237 153 1041 195 6361 609 495 294
shrinkage=0.05


Tree=9
num_leaves=31
num_cat=0
split_feature=40 40 40 44 44 4 39 43 44 4 3 23 40 30 43 4 19 4 44 14 4 34 44 3 4 40 14 3 39 43
split_gain=88.7822 1113.26 444.172 308.155 240.417 34.2497 29.4729 33.8858 32.5186 27.1856 22.7253 21.3626 19.9927 22.2693 19.5364 13.5035 15.1066 13.7467 11.5942 7.4479 7.88311 7.30741 7.71663 7.24304 6.87937 6.83729 6.46938 5.70273 5.36381 8.68989
threshold=-0.19934349999999995 0.056773999999999998 -0.040859549999999939 -1.111915 0.87140500000000032 1.2369950000000001 7.4540950000000013e-05 1.510785 1.5644200000000008 -1.2205099999999998 -13.243349999999998 -13.010249999999997 0.12375499999999996 0.0011742500000000002 2.2683550000000001 -2.0429399999999993 9.7782250000000015e-08 1.7937450000000001 1.381785 0.00012403000000000004 -1.5265699999999998 0.13940550000000004 2.2262100000000005 -5.8362949999999989 1.4464300000000001 -0.058960000000000005 0.00013878450000000001 -13.989599999999998 1.4802850000000002e-05 1.6830350000000001
decision_type=2 2 2 2 2 2 2 2 2 2 2 2 2 2 2 2 2 2 2 2 2 2 2 2 2 2 2 2 2 2
left_child=-1 2 6 10 5 9 25 8 15 -5 -4 -6 13 -3 18 -8 -17 26 19 -15 -21 -13 -23 -11 -22 -2 -18 -9 -27 -30
right_child=1 12 3 4 11 -7 7 27 -10 23 -12 21 -14 14 -16 16 17 -19 -20 20 24 22 -24 -25 -26 28 -28 -29 29 -31
leaf_value=-0.0011071016676144302 -0.00084774987877805777 -2.7668382303265041e-05 0.023958252398740679 0.0024992300501587442 0.027263451358851266 0.00011163561335094622 -0.0031612860659758248 0.016099434731335478 0.0021868056049797594 0.029194887406550924 -2.2981584652098357e-05 -0.00081719236082923607 -0.0010643331991935315 0.00036923369937917085 0.00034550388492103937 0.0037347760085982306 0.0066258656840102797 -0.00084021753248046433 0.0051770189564432148 -0.005991027703170072 0.0274192135313743 0.019917157073457217 2.4066395031250254e-05 0.011133271129801871 0.0026087397889744852 0.001528414800176742 0.027735771020486185 -6.4059925062299566e-06 0.021029773794181712 -0.0011809663987425094
leaf_weight=98843 3172 1670 105 98 85 107 63 58 451 6305 1670 846 100725 41 345 108 39 51 184 22 283 97 98 56 31 324 523 1049 111 73
leaf_count=98843 3172 1670 105 98 85 107 63 58 451 6305 1670 846 100725 41 345 108 39 51 184 22 283 97 98 56 31 324 523 1049 111 73
internal_value=0 0.000921199 0.0134214 0.0201745 0.0245079 0.0281685 0.00280523 0.00718995 0.0128841 0.0286332 0.00139563 0.00316196 -0.000953094 0.00339651 0.00970818 0.0190377 0.0209774 0.0240153 0.015466 0.0204877 0.0229426 0.00119402 0.0099196 0.0290359 0.0249698 1.47386e-05 0.0262708 0.000837441 0.0054002 0.0122179
internal_weight=0 118790 15489 9467 7692 6566 6022 2342 1235 6459 1775 1126 103301 2576 906 784 721 613 561 377 336 1041 195 6361 314 3680 562 1107 508 184
internal_count=217633 118790 15489 9467 7692 6566 6022 2342 1235 6459 1775 1126 103301 2576 906 784 721 613 561 377 336 1041 195 6361 314 3680 562 1107 508 184
shrinkage=0.05


Tree=10
num_leaves=31
num_cat=0
split_feature=41 41 40 44 43 4 4 39 43 44 40 39 43 14 4 4 3 3 43 40 14 4 4 23 39 43 43 43 34 14
split_gain=80.2495 1011.14 395.36 279.567 214.689 42.092 35.0631 27.2635 27.5765 18.1348 17.6128 24.9609 19.7006 14.3649 15.2423 13.4885 12.9957 12.4269 11.294 11.1688 8.95253 9.95977 9.34612 8.10861 8.10602 11.9058 8.23558 5.75084 23.6711 7.97824
threshold=0.19792950000000006 -0.057539999999999918 -0.040859549999999939 -1.4363049999999993 -1.3362800000000006 1.2369950000000001 -1.2205099999999998 0.00018647200000000003 2.7388300000000005 2.014730000000001 0.1751400000000001 0.0003760525000000001 2.9569100000000006 0.00024047200000000001 -2.0429399999999993 1.6690850000000002 -5.8362949999999989 -13.243349999999998 -0.82558500000000012 -0.058960000000000005 0.00036183850000000008 -1.5265699999999998 1.6690850000000002 -14.137299999999998 1.9415700000000001e-05 1.3507450000000001 -1.4591200000000002 0.43278000000000022 0.031185800000000003 0.00014136750000000003
decision_type=2 2 2 2 2 2 2 2 2 2 2 2 2 2 2 2 2 2 2 2 2 2 2 2 2 2 2 2 2 2
left_child=1 10 7 17 23 6 -6 19 9 13 11 -1 18 -9 -15 -16 27 -4 -13 -3 -20 -22 -23 -5 -21 26 -26 -8 -29 -30
right_child=-2 2 3 4 5 -7 16 8 -10 -11 -12 12 -14 14 15 -17 -18 -19 20 24 21 22 -24 -25 25 -27 -28 28 29 -31
leaf_value=-5.8106867738320748e-05 -0.0010519431410330802 -0.00061041885548406699 0.020048217228674271 0.02781018462997896 0.0017692748517931804 -0.00060579689258399112 0.027951739091647412 0.003324576857031426 -0.00013130172923968658 0.001613540397825795 -0.0010441574792155949 0.0061446119306815998 -0.00013754742816637084 -0.0030088129275314072 0.024417358405120118 -0.0001767725894047368 0.0076926983493779385 -0.00052379634860888827 0.0065420064921362688 0.0020718796304414261 -0.0047195185136435364 0.029234025896423394 0.0001404063445666144 1.2058832731049557e-05 -0.002246338059194386 -0.0011642774810925835 0.027754187366366385 0.0021999855303263243 0.002711073576162259 0.029352684633655327
leaf_weight=3126 98906 3534 77 27 138 144 5943 173 685 284 99017 297 409 68 553 62 84 1574 109 363 29 252 31 924 28 84 125 113 30 444
leaf_count=3126 98906 3534 77 27 138 144 5943 173 685 284 99017 297 409 68 553 62 84 1574 109 363 29 252 31 924 28 84 125 113 30 444
internal_value=0 0.000876325 0.0128031 0.0191371 0.0230719 0.0261431 0.0267136 0.00270753 0.00779764 0.012562 -0.000908829 0.00224185 0.00862132 0.0161944 0.0194542 0.021938 0.027234 0.000435649 0.0136107 0.000460438 0.0188778 0.0231874 0.0260471 0.00080128 0.00676778 0.0139602 0.0222639 0.0274854 0.0227641 0.0276665
internal_weight=0 118727 15457 9498 7847 6896 6752 5959 1825 1140 103270 4253 1127 856 683 615 6614 1651 718 4134 421 312 283 951 600 237 153 6530 587 474
internal_count=217633 118727 15457 9498 7847 6896 6752 5959 1825 1140 103270 4253 1127 856 683 615 6614 1651 718 4134 421 312 283 951 600 237 153 6530 587 474
shrinkage=0.05


Tree=11
num_leaves=31
num_cat=0
split_feature=44 44 41 40 41 4 4 34 23 40 40 40 44 34 44 34 40 40 13 4 18 38 3 14 40 30 4 40 41 14
split_gain=72.5946 313.097 265.223 1017.22 53.1448 24.6759 22.6993 18.1803 11.6029 9.71477 53.1093 7.41754 7.27083 23.2342 6.80638 9.69949 11.5731 58.7829 6.99538 5.4148 7.48787 7.64627 5.13148 4.90962 4.79684 6.57181 4.73269 4.17104 34.3248 10.3958
threshold=-0.81248999999999982 0.31988499999999936 -0.17681499999999981 -0.10081500000000009 -0.057539999999999918 1.4464300000000001 -1.1200049999999997 0.047384050000000004 -14.137299999999998 0.30085850000000008 -0.10081500000000009 0.12375499999999996 -0.31477499999999997 0.021266050000000005 0.71026 0.031882050000000009 0.24966499999999994 -0.12496499999999998 8.7262050000000009e-05 -1.4133199999999999 -6.2009649999999988e-06 0.0042610100000000008 -13.443999999999997 0.00026773650000000009 -0.058960000000000005 0.00033368200000000002 0.20333750000000003 0.30085850000000008 0.12358499999999996 0.03333885000000001
decision_type=2 2 2 2 2 2 2 2 2 2 2 2 2 2 2 2 2 2 2 2 2 2 2 2 2 2 2 2 2 2
left_child=22 2 -2 -4 7 6 -6 -5 9 10 -3 -12 13 -8 15 -10 17 -17 23 -9 -21 26 27 -19 25 -14 -22 28 29 -1
right_child=1 8 3 4 5 -7 12 19 14 -11 11 -13 24 -15 -16 16 -18 18 -20 20 21 -23 -24 -25 -26 -27 -28 -29 -30 -31
leaf_value=0.019854127567190048 -0.00093412677520803835 -0.00037708914976445658 -0.00078758885668922703 -5.4385944603736161e-05 0.0021054001355713062 0.0001808903709446129 0.0007009195920545608 -0.0063047560355202724 -0.00086169251580353102 -0.0010639034038536367 0.027575228801910202 0.0033300697700017028 -0.00090121983417442873 0.025197612240304451 -0.00088877017254896653 -0.00053757855118896473 -0.00091562416637316348 0.0075467821693530794 -0.0014698594329612597 0.029577749670870537 0.0073083026148378846 -0.0070728753366180374 -0.00094240947553035984 0.023589868242761085 0.027169962472527967 0.023920278753420073 0.025319911998205932 -0.00091199521585779244 -0.00068563341472790268 -0.00054761044418391515
leaf_weight=313 9784 798 10008 262 99 95 112 22 3667 764 255 36 35 713 69860 1135 1088 54 35 113 60 37 109105 408 5172 112 93 1663 1657 78
leaf_count=313 9784 798 10008 262 99 95 112 22 3667 764 255 36 35 713 69860 1135 1088 54 35 113 60 37 109105 408 5172 112 93 1663 1657 78
internal_value=0 0.000947391 0.00561964 0.00940644 0.0241388 0.0254719 0.0258567 0.00974597 -0.000650923 0.00325841 0.00629077 0.0245758 0.0262394 0.021872 -0.00074593 0.000816435 0.00307882 0.00574179 0.020082 0.0176466 0.0193856 0.013324 -0.000880218 0.0217147 0.0269168 0.0180104 0.0182565 0.000948231 0.00245876 0.0157842
internal_weight=0 104817 26717 16933 6925 6338 6243 587 78100 1853 1089 291 6144 825 76247 6387 2720 1632 497 325 303 190 112816 462 5319 147 153 3711 2048 391
internal_count=217633 104817 26717 16933 6925 6338 6243 587 78100 1853 1089 291 6144 825 76247 6387 2720 1632 497 325 303 190 112816 462 5319 147 153 3711 2048 391
shrinkage=0.05


Tree=12
num_leaves=31
num_cat=0
split_feature=41 41 40 44 43 4 4 30 43 44 41 30 43 14 4 4 3 3 43 40 30 43 34 43 4 23 41 34 19 40
split_gain=66.0842 830.797 322.301 228.357 175.159 34.8141 28.7036 22.8974 23.3629 15.4839 14.8367 15.4969 14.8759 12.6568 13.7358 11.9344 10.6707 10.3012 9.55968 9.23727 7.05409 10.0011 7.02803 6.06107 4.68198 4.6403 4.59062 6.12469 4.45872 4.22958
threshold=0.19792950000000006 -0.057539999999999918 -0.040859549999999939 -1.4363049999999993 -1.3362800000000006 1.2369950000000001 -1.2205099999999998 0.0014706250000000001 2.7388300000000005 2.014730000000001 -0.10141500000000002 0.0008353560000000001 1.5956900000000005 0.00025458900000000005 -2.0429399999999993 1.6690850000000002 -5.8362949999999989 -13.243349999999998 -1.2170650000000005 -0.058960000000000005 0.00039926250000000006 1.5525100000000001 0.209427 -1.4591200000000002 0.19669200000000001 -13.010249999999997 -0.026150000000000003 0.013931150000000002 2.562600000000001e-07 0.2761725000000001
decision_type=2 2 2 2 2 2 2 2 2 2 2 2 2 2 2 2 2 2 2 2 2 2 2 2 2 2 2 2 2 2
left_child=1 10 7 17 22 6 -6 19 9 13 29 -12 18 24 -15 28 26 -4 -13 -3 -21 23 -5 -22 -9 -24 27 -8 -16 -1
right_child=-2 2 3 4 5 -7 16 8 -10 -11 11 12 -14 14 15 -17 -18 -19 -20 20 21 -23 25 -25 -26 -27 -28 -29 -30 -31
leaf_value=0.00039354707148903529 -0.00095459646470538544 -0.00055985196812301794 0.018279596166564271 -0.0010652746017212453 0.0016051066695186107 -0.00067133365082554524 0.010387771535156803 -2.0052019294492806e-05 -0.00012968706412600509 0.0014892991638646045 -0.0002590294003434842 0.0049942067323797412 0.00081973139733224119 -0.0028069948652942839 0.0098432460357829685 -0.00016601543637022141 0.0069378375097931856 -0.00045048599498254149 0.020740126177801618 0.0013965155158768454 -0.0021679238692201949 -0.0010865672760539584 0.027682775375433268 0.023676202923689091 0.022876952610050256 0.0061355119162614935 0.02537319783813485 0.023074265312937894 0.024400444201280163 -0.00098171198059791832
leaf_weight=5938 98906 3518 77 805 138 144 110 158 694 290 1007 147 302 71 59 63 84 1574 280 336 27 90 32 142 26 114 5716 704 485 95596
leaf_count=5938 98906 3518 77 805 138 144 110 158 694 290 1007 147 302 71 59 63 84 1574 280 336 27 90 32 142 26 114 5716 704 485 95596
internal_value=0 0.00079523 0.0116063 0.0173251 0.0208813 0.0236554 0.0241742 0.00249104 0.00711741 0.0114833 -0.000822918 0.00376043 0.00931268 0.0148455 0.0180018 0.0204358 0.0246451 0.000423055 0.0153194 0.000414628 0.00617634 0.0123772 0.000765248 0.0195473 0.00321539 0.0108582 0.0248729 0.0213599 0.0228216 -0.000901283
internal_weight=0 118727 15457 9498 7847 6896 6752 5959 1846 1152 103270 1736 729 862 678 607 6614 1651 427 4113 595 259 951 169 184 146 6530 814 544 101534
internal_count=217633 118727 15457 9498 7847 6896 6752 5959 1846 1152 103270 1736 729 862 678 607 6614 1651 427 4113 595 259 951 169 184 146 6530 814 544 101534
shrinkage=0.05


Tree=13
num_leaves=31
num_cat=0
split_feature=40 41 43 43 41 34 4 30 3 4 43 40 30 43 20 21 23 21 14 44 34 34 43 43 4 4 14 19 13 25
split_gain=59.6828 841.389 272.908 283.593 50.5789 24.6554 24.5788 23.2519 20.3396 20.3257 17.8818 13.4532 20.6399 15.5436 10.9336 10.2521 10.1917 8.29165 7.38718 7.0724 19.1228 6.3362 6.67598 6.05128 5.88927 5.62757 5.91691 5.36313 5.47447 4.80655
threshold=-0.14969009999999991 -0.057539999999999918 1.06199 -0.71725499999999964 0.057875000000000128 0.13562800000000003 1.4464300000000001 0.00048652850000000008 -13.243349999999998 -1.2205099999999998 -1.9691099999999999 0.1751400000000001 0.0021377100000000006 2.9569100000000006 5.7713600000000005 -5.3419649999999992 -13.824199999999998 5.2853500000000002 0.035247800000000003 -0.47859499999999983 0.046494550000000003 0.78599850000000016 1.9002500000000004 -0.82558500000000012 -2.5331249999999996 1.7937450000000001 0.00014492950000000003 1.1187350000000001e-07 8.383530000000002e-05 3.7654200000000002
decision_type=2 2 2 2 2 2 2 2 2 2 2 2 2 2 2 2 2 2 2 2 2 2 2 2 2 2 2 2 2 2
left_child=-1 11 3 5 6 -3 9 -6 18 -5 -7 12 -2 16 15 -12 -14 -17 21 20 -11 22 -4 -18 -9 26 -26 -25 -29 -10
right_child=1 2 8 4 7 10 -8 24 29 19 14 -13 13 -15 -16 17 23 -19 -20 -21 -22 -23 -24 27 25 -27 -28 28 -30 -31
leaf_value=-0.00089332948063799403 -0.00010191825567003175 -0.00046826697725020812 0.022993918516052269 0.0018705589372083682 -0.0011307102619266174 0.0028305757197369711 -0.0003342550106546177 -0.0048002077957037198 -0.00098861007991551931 0.0011696652369940375 -0.0051829064131847452 -0.00090004616096943553 0.027382105810102076 -0.00011286970101278134 -0.0046558699989691383 0.029708424049525339 0.0043781106020676962 -0.0039564101677387956 -0.0053943906085831784 0.024114583853800872 0.023602708062992014 0.028915365803581866 -0.0043023714551790838 -0.005520929576408479 0.0049533305197673027 -0.0025837780458146131 0.023093708844012205 0.018600897249437389 -0.0026538725504103829 0.0038768002015006336
leaf_weight=100569 3140 1944 48 109 318 328 112 29 2885 127 28 99017 96 397 40 214 277 20 35 6052 377 92 42 31 53 29 296 278 34 616
leaf_count=100569 3140 1944 48 109 318 328 112 29 2885 127 28 99017 96 397 40 214 277 20 35 6052 377 92 42 31 53 29 296 278 34 616
internal_value=0 0.000767454 0.0123659 0.016638 0.0215515 0.0023175 0.0228943 0.0089994 0.000788162 0.0232846 0.0109136 -0.000781772 0.00197184 0.00782235 0.0196924 0.0234097 0.0122222 0.0268311 0.0156425 0.0236407 0.0179499 0.019688 0.0102556 0.00987485 0.0169143 0.0185803 0.0203389 0.0143139 0.0162847 -0.000132542
internal_weight=0 117064 13794 10076 7502 2574 6777 725 3718 6665 630 103270 4253 1113 302 262 716 234 217 6556 504 182 90 620 407 378 349 343 312 3501
internal_count=217633 117064 13794 10076 7502 2574 6777 725 3718 6665 630 103270 4253 1113 302 262 716 234 217 6556 504 182 90 620 407 378 349 343 312 3501
shrinkage=0.05


Tree=14
num_leaves=31
num_cat=0
split_feature=41 41 40 43 43 4 4 39 43 43 41 39 43 19 4 43 43 23 40 4 6 39 43 43 23 30 39 43 14 21
split_gain=53.9106 677.212 263.08 186.177 143.265 28.5815 23.4413 19.8061 20.161 16.9302 12.4489 13.1206 13.2871 8.59593 10.2748 8.16842 7.61739 20.7241 7.26782 6.99926 6.34584 5.88398 8.14272 5.72978 5.56277 4.99867 4.60842 4.07091 12.777 8.06012
threshold=0.19792950000000006 -0.057539999999999918 -0.040859549999999939 1.4285350000000012 -1.3362800000000006 1.2369950000000001 -1.2205099999999998 0.00018647200000000003 1.510785 -1.8432249999999992 -0.10141500000000002 6.2588700000000013e-05 1.5956900000000005 9.7782250000000015e-08 -2.0429399999999993 -1.2170650000000005 0.47541999999999979 -8.5113849999999989 -0.058960000000000005 2.3910900000000006 1.3950750000000001e-06 1.9415700000000001e-05 1.3507450000000001 -1.4591200000000002 -14.137299999999998 0.0016296400000000001 1.5993900000000006e-05 -0.5126099999999999 0.00025458900000000005 -7.2793899999999994
decision_type=2 2 2 2 2 2 2 2 2 2 2 2 2 2 2 2 2 2 2 2 2 2 2 2 2 2 2 2 2 2
left_child=1 10 7 4 24 6 -6 18 9 -9 -1 -12 15 -11 -15 -13 27 26 -3 20 -16 -20 23 -23 -4 -19 -18 28 -8 -30
right_child=-2 2 3 -5 5 -7 16 8 -10 13 11 12 -14 14 19 -17 17 25 21 -21 -22 22 -24 -25 -26 -27 -28 -29 29 -31
leaf_value=-0.00081446580543367776 -0.00086220015150478889 -0.0005354318211864982 0.023037470021733533 0.00039555740171420307 0.0014433252503690513 -0.00067314808774325595 -0.0033828692759076753 0.001879416147827125 0.0010761334836996836 0.001232881506993657 -0.0002690957787518318 0.0046156039037581155 0.00063499735583909896 -0.0030341113803396915 0.025737916570036642 0.01922750082993847 0.01284800632748493 -0.003229529604562058 0.0014155338602987204 -0.0010929242335259914 0.013062837372848884 -0.0020328047186402337 -0.00096372884498643029 0.022990843397378922 1.308888154612346e-05 0.015065236293055393 0.025934277310316424 0.023125841154156536 -0.0075194710357622671 0.023813795084072872
leaf_weight=101534 98906 3534 27 1653 138 144 60 305 870 84 1001 145 309 51 341 281 86 121 363 35 139 28 84 125 924 54 309 5654 22 306
leaf_count=101534 98906 3534 27 1653 138 144 60 305 870 84 1001 145 309 51 341 281 86 121 363 35 139 28 84 125 924 54 309 5654 22 306
internal_value=0 0.000718259 0.010479 0.0156458 0.0188591 0.0213687 0.0218389 0.00224366 0.00658213 0.0115981 -0.000742684 0.00345567 0.00852844 0.0161584 0.0183734 0.014254 0.0222646 0.0167392 0.0003284 0.0204934 0.0220674 0.00541637 0.0115442 0.0184114 0.000666778 0.00241571 0.0230851 0.0227859 0.0178315 0.0217122
internal_weight=0 118727 15457 9498 7845 6894 6750 5959 1825 955 103270 1736 735 650 566 426 6612 570 4134 515 480 600 237 153 951 175 395 6042 388 328
internal_count=217633 118727 15457 9498 7845 6894 6750 5959 1825 955 103270 1736 735 650 566 426 6612 570 4134 515 480 600 237 153 951 175 395 6042 388 328
shrinkage=0.05


Tree=15
num_leaves=31
num_cat=0
split_feature=40 40 40 44 43 4 4 30 43 43 14 13 3 4 40 3 43 34 44 4 14 23 34 40 30 44 44 34 14 43
split_gain=48.91 537.104 283.387 184.789 162.08 28.7441 30.0166 25.8437 22.413 14.0607 11.6402 14.1445 11.0038 10.1513 8.79746 8.31313 8.29068 16.1961 7.02852 6.238 6.23462 4.7787 4.32362 4.19201 8.97581 5.9782 3.99144 21.0035 6.68617 4.44691
threshold=0.2761725000000001 -0.079468000000000025 0.039429999999999972 -1.4363049999999993 -1.3362800000000006 1.4464300000000001 -1.2205099999999998 0.0021377100000000006 2.84389 -2.2545749999999996 0.00030683250000000005 0.00022778250000000003 -5.8362949999999989 -1.5265699999999998 0.077348000000000056 -13.009399999999998 1.1470050000000007 0.050858250000000008 1.2052499999999997 2.2539600000000006 0.0035378750000000007 -14.667549999999997 0.78599850000000016 -0.12496499999999998 0.0032977850000000006 -2.9773649999999998 -0.47859499999999983 0.046494550000000003 0.00016757500000000002 -0.5126099999999999
decision_type=2 2 2 2 2 2 2 2 2 2 2 2 2 2 2 2 2 2 2 2 2 2 2 2 2 2 2 2 2 2
left_child=1 23 3 15 21 6 -6 14 9 -9 -11 13 26 -12 16 22 17 -4 -19 20 -15 -5 -3 -1 -25 -26 27 -8 -29 -28
right_child=-2 2 7 4 5 -7 12 8 -10 10 11 -13 -14 19 -16 -17 -18 18 -20 -21 -22 -23 -24 24 25 -27 29 28 -30 -31
leaf_value=-0.00079764377796548718 -0.00084690072239873104 0.0038415785292508428 0.0016368188607421789 0.022137688286602498 0.00056611484311440072 -0.0010683684975286074 0.00052711877324585377 0.0020043716119936095 0.00020055965179818924 0.0033979064152179442 8.7163023530475561e-05 -0.0023839183535207722 0.0053429856134409254 0.019297265957219336 -0.00082688523395704056 -0.00064734228487525671 -0.0013139350114700695 0.020289724981371975 -0.001112408243605624 -0.00083231565542519104 0.031197147423058361 -0.00040314562049814087 0.024041426810435952 -0.00023043564414578952 0.00030020410993269515 0.013321336246479085 0.016779395064536465 0.0017114542930253916 0.024483215002406973 0.022028583575334309
leaf_weight=101433 95596 54 495 24 184 158 141 346 864 209 62 85 110 399 5151 1848 480 231 46 30 152 1159 52 1333 140 238 434 35 408 5736
leaf_count=101433 95596 54 495 24 184 158 141 346 864 209 62 85 110 399 5151 1848 480 231 46 30 152 1159 52 1333 140 238 434 35 408 5736
internal_value=0 0.000663408 0.00841382 0.0139814 0.0172069 0.0200229 0.0204957 0.00167864 0.00642587 0.0106181 0.0137989 0.0167849 0.0210299 0.0193188 8.68353e-05 0.000133731 0.00384608 0.00705438 0.0167356 0.0213711 0.02258 5.41494e-05 0.0137509 -0.000756244 0.00169803 0.00849869 0.0212854 0.0173345 0.0226841 0.0216594
internal_weight=0 122037 18893 10343 8389 7206 7048 8550 2147 1283 937 728 6864 643 6403 1954 1252 772 277 581 551 1183 106 103144 1711 378 6754 584 443 6170
internal_count=217633 122037 18893 10343 8389 7206 7048 8550 2147 1283 937 728 6864 643 6403 1954 1252 772 277 581 551 1183 106 103144 1711 378 6754 584 443 6170
shrinkage=0.05


Tree=16
num_leaves=31
num_cat=0
split_feature=41 41 41 44 44 4 4 39 44 43 14 13 3 4 3 4 34 14 43 43 40 39 44 44 14 13 34 43 34 14
split_gain=44.2572 506.85 236.265 167.121 146.234 23.7593 24.6454 23.373 22.5984 13.5249 14.4306 13.5153 9.99671 8.7878 7.61894 7.24664 6.77741 6.55949 5.60599 4.36151 3.98546 8.67767 5.9927 4.30235 4.98396 6.30836 3.82308 3.76697 20.0321 6.49154
threshold=-0.25176499999999996 0.078754999999999922 -0.039869999999999954 -1.4363049999999993 1.151035 1.4464300000000001 -1.2205099999999998 0.00011839150000000002 -2.8126249999999997 -2.2545749999999996 0.00026773650000000009 0.00022778250000000003 -5.8362949999999989 -1.5265699999999998 -13.009399999999998 2.0063000000000004 0.209427 0.0036550950000000006 -1.7757399999999997 -0.88227999999999918 -0.12496499999999998 0.00018647200000000003 -2.9773649999999998 3.0726850000000008 0.00088131050000000012 0.00012137250000000001 0.78599850000000016 0.43278000000000022 0.038827750000000008 0.00019198350000000004
decision_type=2 2 2 2 2 2 2 2 2 2 2 2 2 2 2 2 2 2 2 2 2 2 2 2 2 2 2 2 2 2
left_child=-1 2 7 14 5 6 -5 -2 -9 -10 -11 13 27 -12 26 17 -6 19 -18 -15 -3 -22 -23 24 -24 -26 -4 -8 -29 -30
right_child=1 20 3 4 16 -7 12 8 9 10 11 -13 -14 15 -16 -17 18 -19 -20 -21 21 22 23 -25 25 -27 -28 28 29 -31
leaf_value=-0.00079967944965295677 -0.00021982922465341658 -0.00075776157793931362 0.0037570017829256239 0.00086283546454154049 -0.0010651183512201937 -0.00075669265383867179 0.02066653459197898 -8.1086893914094238e-05 0.001454084361682732 0.001382991070708921 -0.00016975942234605997 -0.001568753368417741 0.0050758363255722959 0.0070085201986393956 -0.00064005087347805407 -6.1919188980634013e-05 0.0031978967960695835 0.028701709112130016 0.020559990512864557 0.019301879627580225 -0.00076526621056103921 -0.0001920512312966766 0.00535253019621357 -0.00048794815582888467 0.023262093972467576 -0.0013283750951814 0.02283935522517333 0.00026462211562641741 0.0031067108011080162 0.022969280925651311
leaf_weight=96389 5106 101433 53 172 1037 147 6037 1054 401 248 67 109 110 86 1841 48 147 166 68 448 1187 198 117 70 141 32 52 145 45 479
leaf_count=96389 5106 101433 53 172 1037 147 6037 1054 401 248 67 109 110 86 1841 48 147 166 68 448 1187 198 117 70 141 32 52 145 45 479
internal_value=0 0.000635745 0.00836152 0.013308 0.016371 0.0191366 0.0195551 0.00175188 0.00558421 0.00938028 0.0120922 0.0149666 0.0200268 0.0171781 0.000107109 0.0187319 0.000609938 0.0200207 0.00868916 0.0173221 -0.000717003 0.00165223 0.00679482 0.0106376 0.0133231 0.0187136 0.0132073 0.020272 0.0167122 0.0212635
internal_weight=0 121244 18066 10333 8387 7135 6988 7733 2627 1573 1172 924 6816 815 1946 748 1252 700 215 534 103178 1745 558 360 290 173 105 6706 669 524
internal_count=217633 121244 18066 10333 8387 7135 6988 7733 2627 1573 1172 924 6816 815 1946 748 1252 700 215 534 103178 1745 558 360 290 173 105 6706 669 524
shrinkage=0.05


Tree=17
num_leaves=31
num_cat=0
split_feature=44 44 41 40 41 4 4 30 23 40 40 44 34 14 21 21 44 34 40 40 4 4 14 15 3 39 40 41 14 41
split_gain=40.0827 158.376 142.371 583.448 30.6812 18.9037 14.9561 9.0258 7.21528 5.96876 32.0842 5.75852 20.5811 4.27317 4.08044 4.89168 3.52424 5.81691 6.50576 30.7236 5.15031 4.9563 5.58394 2.92461 2.82316 3.09021 4.13744 16.447 5.7905 2.98543
threshold=-0.93924999999999936 0.31988499999999936 -0.17681499999999981 -0.10081500000000009 -0.078199999999999964 0.92648250000000021 -1.5265699999999998 0.00085889000000000007 -14.137299999999998 0.30085850000000008 -0.17527649999999997 -0.35442999999999975 0.023568350000000005 0.00015284250000000002 4.6258850000000011 -4.467719999999999 0.71026 0.031882050000000009 -0.3562499999999999 0.22528099999999995 -1.8861499999999998 2.0063000000000004 0.00026773650000000009 -2.1368049999999996e-05 -13.443999999999997 0.00095358200000000002 -0.46506469999999994 -0.25176499999999996 0.041697100000000008 0.12358499999999996
decision_type=2 2 2 2 2 2 2 2 2 2 2 2 2 2 2 2 2 2 2 2 2 2 2 2 2 2 2 2 2 2
left_child=24 2 -2 -4 7 6 -6 -5 9 10 -3 12 -8 -14 15 -12 17 -10 -19 20 -20 22 -22 -17 25 -1 -27 -28 29 -29
right_child=1 8 3 4 5 -7 11 -9 16 -11 14 -13 13 -15 -16 23 -18 18 19 -21 21 -23 -24 -25 -26 26 27 28 -30 -31
leaf_value=-0.00028215281861895298 -0.00067436447946384742 -0.00060169998490720909 -0.0005685049700401701 -0.00051442385060992437 -0.00014203622657805683 0.0013190427456389775 -0.00136160644633858 0.013722073248627179 -0.00073862406246126403 -0.00079356804874077121 0.00097594352198704598 0.019935443122291022 0.0059860623196551672 0.020271016900772897 -0.0016481546491074067 0.004041709586800564 -0.00066608264814673553 -0.00075425210487284301 -0.0040273374608276709 -0.00060609181939511546 0.0027316433363453007 -0.0040362395957345143 0.018356278471465908 0.023478010000834462 -0.0007159330891612541 -0.00068148391767147373 1.2068678107526567e-05 0.024821430852264167 -0.0021429916349888752 0.010365285986103118
leaf_weight=2440 10993 766 11217 273 100 154 149 188 3667 764 31 5517 57 642 24 21 69860 1057 38 1099 66 32 428 247 106684 470 441 125 33 50
leaf_count=2440 10993 766 11217 273 100 154 149 188 3667 764 31 5517 57 642 24 21 69860 1057 38 1099 66 32 428 247 106684 470 441 125 33 50
internal_value=0 0.000687511 0.00382295 0.00652498 0.0177633 0.018632 0.0190444 0.00529135 -0.000488379 0.00259442 0.0049713 0.0193458 0.0155098 0.0191061 0.0181877 0.0197799 -0.000563299 0.000560937 0.00231296 0.00426247 0.0137493 0.0150335 0.0162688 0.021955 -0.000669719 0.000715593 0.0028912 0.0054785 0.0170684 0.0206911
internal_weight=0 107390 29290 18297 7080 6619 6465 461 78100 1853 1089 6365 848 699 323 299 76247 6387 2720 1663 564 526 494 268 110243 3559 1119 649 208 175
internal_count=217633 107390 29290 18297 7080 6619 6465 461 78100 1853 1089 6365 848 699 323 299 76247 6387 2720 1663 564 526 494 268 110243 3559 1119 649 208 175
shrinkage=0.05


Tree=18
num_leaves=31
num_cat=0
split_feature=40 40 40 43 44 4 4 39 43 34 3 44 19 4 6 44 4 41 30 43 43 20 20 43 34 41 30 16 16 43
split_gain=36.4258 431.146 181.743 140.46 108.94 20.3135 16.4781 15.5195 15.0954 13.6814 9.64089 8.42346 10.0534 10.2903 8.97017 7.43009 6.28251 5.88675 6.83677 10.222 8.60275 5.37494 6.60081 4.88733 17.2047 4.23139 14.9201 8.24448 8.17547 9.23986
threshold=-0.22452634999999985 0.077348000000000056 -0.040859549999999939 1.2296250000000011 0.87140500000000032 0.92648250000000021 -1.4133199999999999 0.00030061950000000002 2.7388300000000005 0.15036250000000004 -13.243349999999998 3.0726850000000008 9.7782250000000015e-08 -1.8861499999999998 1.3950750000000001e-06 2.2262100000000005 1.7937450000000001 0.078754999999999922 0.00044704450000000007 1.2296250000000011 -1.3362800000000006 5.095670000000001 -3.8589749999999996 0.39187000000000044 0.026407200000000002 -0.25176499999999996 0.0064016150000000003 2.5770550000000005e-06 7.0201950000000013e-05 4.4497700000000018
decision_type=2 2 2 2 2 2 2 2 2 2 2 2 2 2 2 2 2 2 2 2 2 2 2 2 2 2 2 2 2 2
left_child=-1 2 7 4 5 6 -4 17 11 -6 -5 12 -9 -14 16 21 -15 18 -2 20 -20 22 -11 -8 -25 -3 -27 -28 29 -29
right_child=1 25 3 10 9 -7 23 8 -10 15 -12 -13 13 14 -16 -17 -18 -19 19 -21 -22 -23 -24 24 -26 26 27 28 -30 -31
leaf_value=-0.00071482710963453736 -9.9625268152781896e-06 -0.00072546844765322336 -0.00053265961992033457 0.015180064036669034 -0.00076490166761154191 0.00023054768133795624 0.018796743042577307 -0.0013009196979349808 -0.00013043676922552423 -0.0047406124789267784 -0.00029860727315374181 0.00019775744256489156 -0.0023633319054279928 0.021324395632698709 0.0073468009719832071 0.0029545031751281228 0.00058881613309495155 -0.00078485911665788664 -0.0012099829661708914 -0.00095361224709871861 0.018183020893000553 -0.0051627896371341893 0.026213893594761051 -0.00032505880079923143 0.01843421611915565 -0.00035515805874041287 0.0037611761805678768 0.027639773419697679 0.00027890258318032416 3.2290630042552951e-06
leaf_weight=97981 700 96389 118 106 1033 165 5890 136 717 20 1974 213 91 421 225 145 40 3825 76 209 231 21 124 155 578 5216 602 124 68 40
leaf_count=97981 700 96389 118 106 1033 165 5890 136 717 20 1974 213 91 421 225 145 40 3825 76 209 231 21 124 155 578 5216 602 124 68 40
internal_value=0 0.00058536 0.00790731 0.0121016 0.0150295 0.0175634 0.0179876 0.00161399 0.0055403 0.00199967 0.00049021 0.00915123 0.01124 0.0134351 0.0155308 0.0112119 0.0195252 0.000178527 0.00320891 0.00757561 0.0133821 0.0184684 0.0219147 0.0183176 0.0144674 -0.00064496 0.000637711 0.00684731 0.0148553 0.0208992
internal_weight=0 119652 17213 10329 8249 6906 6741 6884 1843 1343 2080 1126 913 777 686 310 461 5041 1216 516 307 165 144 6623 733 102439 6050 834 232 164
internal_count=217633 119652 17213 10329 8249 6906 6741 6884 1843 1343 2080 1126 913 777 686 310 461 5041 1216 516 307 165 144 6623 733 102439 6050 834 232 164
shrinkage=0.05


Tree=19
num_leaves=31
num_cat=0
split_feature=40 40 43 43 41 4 4 34 34 43 3 20 20 3 21 21 39 24 4 4 38 4 36 16 41 30 43 16 16 36
split_gain=32.8743 389.109 164.286 182.839 62.0053 21.5134 19.5045 18.3636 14.2176 11.4835 9.31655 8.84566 10.1889 6.78529 6.00473 6.02362 4.9204 4.36027 4.00376 5.8463 6.88142 8.13182 3.96895 9.25507 3.81883 13.4654 7.5285 8.29919 9.40563 5.67955
threshold=-0.22452634999999985 0.077348000000000056 1.4285350000000012 -0.71725499999999964 0.078754999999999922 0.92648250000000021 -1.0382099999999996 0.13940550000000004 0.209427 -2.3298099999999988 -5.8362949999999989 5.095670000000001 -5.585399999999999 -13.243349999999998 6.8372650000000013 -5.7481999999999989 0.0038655250000000003 -0.66179549999999987 -2.0429399999999993 -0.26743249999999991 0.0069494100000000005 0.17779150000000002 0.14537000000000003 1.6824400000000002e-06 -0.25176499999999996 0.0064016150000000003 4.4497700000000018 2.5770550000000005e-06 7.0201950000000013e-05 0.069832100000000022
decision_type=2 2 2 2 2 2 2 2 2 2 2 2 2 2 2 2 2 2 2 2 2 2 2 2 2 2 2 2 2 2
left_child=-1 2 3 7 5 6 17 -2 -6 -9 22 12 -11 16 15 -14 -4 -5 -10 -20 21 -21 -8 -24 -3 -26 27 29 -29 -27
right_child=1 24 13 4 8 -7 10 9 18 11 -12 -13 14 -15 -16 -17 -18 -19 19 20 -22 -23 23 -25 25 26 -28 28 -30 -31
leaf_value=-0.00067908577303939363 -0.00059835686005397756 -0.00068919501890783545 0.0033256197514544639 0.020822769963881004 -0.00022275983241777268 0.0007130319261193825 0.017481615947466642 0.0017644067896708518 -0.0035266166406443286 -0.0042298945439979436 0.0035935810528695588 -0.0020574164656481072 0.0017151402891613543 -0.00053957774985714682 -0.0034024923332035546 0.024739423994593352 0.019235689082825691 -0.0015002367605588267 0.0276471095425742 -0.001077850724164492 -0.0055022455412351221 0.027412377896585634 -0.017314395970768399 0.0209718598739097 -0.00033740014491489938 0.011703390199312855 -0.00039876153650902099 0.026257785028147119 0.00074915457973439323 -0.00034922774132225935
leaf_weight=97981 2843 96389 154 25 775 217 6902 407 31 50 125 76 32 4760 25 253 71 175 70 39 48 70 27 38 5216 197 268 124 51 194
leaf_count=97981 2843 96389 154 25 775 217 6902 407 31 50 125 76 32 4760 25 253 71 175 70 39 48 70 27 38 5216 197 268 124 51 194
internal_value=0 0.000556092 0.00751194 0.0106308 0.0146471 0.0162271 0.0166888 0.00132339 0.00316172 0.00780445 0.0171231 0.0134427 0.016715 -0.000138518 0.0200932 0.0221542 0.00834613 0.00129014 0.0133283 0.01563 0.0102721 0.0172186 0.0173658 0.00506834 -0.000612712 0.000605825 0.00650494 0.00977383 0.0188238 0.00572332
internal_weight=0 119652 17213 12228 8542 7509 7292 3686 1033 843 7092 436 360 4985 310 285 225 200 258 227 157 109 6967 65 102439 6050 834 566 175 391
internal_count=217633 119652 17213 12228 8542 7509 7292 3686 1033 843 7092 436 360 4985 310 285 225 200 258 227 157 109 6967 65 102439 6050 834 566 175 391
shrinkage=0.05


Tree=20
num_leaves=31
num_cat=0
split_feature=44 44 41 40 41 4 4 30 23 44 34 40 40 25 44 34 40 40 4 4 19 21 23 30 44 41 41 15 35 35
split_gain=29.7086 117.865 105.42 432.187 21.2896 14.1172 11.1547 7.69064 5.58106 4.75953 16.5701 4.60542 27.4332 2.66232 2.54008 5.28021 5.54052 28.1237 5.09726 4.55344 4.7605 2.87509 2.70517 2.36597 2.94197 3.05804 17.5999 4.89119 5.24732 4.48812
threshold=-0.93924999999999936 0.31988499999999936 -0.17681499999999981 -0.10081500000000009 -0.078199999999999964 1.0072750000000001 -1.5265699999999998 0.00085889000000000007 -14.137299999999998 -0.35442999999999975 0.023088400000000005 0.14973499999999998 -0.10081500000000009 17.806750000000005 0.87140500000000032 0.031882050000000009 0.2761725000000001 -0.12496499999999998 -1.7643199999999999 1.6690850000000002 4.6729550000000004e-08 -7.1421249999999992 -10.421199999999997 0.011952750000000002 -2.1380549999999996 0.32610899999999998 -0.33012499999999995 4.7226350000000001e-07 0.14260400000000004 0.039030700000000008
decision_type=2 2 2 2 2 2 2 2 2 2 2 2 2 2 2 2 2 2 2 2 2 2 2 2 2 2 2 2 2 2
left_child=23 2 -2 -4 7 6 -6 -5 11 10 -8 12 -3 -9 15 -10 17 -17 -19 20 22 -22 -20 -1 -25 26 -26 28 -28 -29
right_child=1 8 3 4 5 -7 9 13 14 -11 -12 -13 -14 -15 -16 16 -18 18 19 -21 21 -23 -24 24 25 -27 27 29 -30 -31
leaf_value=-0.00064843145839951289 -0.00057317548624447338 -0.00014614843889454701 -0.00048327525174638792 -0.00045407474665278263 -0.00020886965095996855 0.00047853416209662711 -0.002254577472420602 0.015280029713470915 -0.00073618429984701546 0.017157426777624194 0.016300296599290411 -0.00058680894989637463 0.018554763791079704 -0.00096760942290226618 -0.00059257147225766707 -0.00025938067436399729 -0.00063693093739541082 -0.0051762161147780724 0.013061797194596795 -0.0039938340067035621 0.00090297633974716583 0.017132906503048103 -0.0055160368814371362 -0.00019095058107270398 -0.00042730532627783521 -0.00035478722397088049 0.016543854816513427 0.0068632337243550211 -0.004082059911127354 0.033450087395970496
leaf_weight=100565 10993 798 11217 273 100 143 145 158 5079 5524 707 795 260 30 67459 1591 1472 40 36 36 29 462 43 8261 565 621 109 22 43 57
leaf_count=100565 10993 798 11217 273 100 143 145 158 5079 5524 707 795 260 30 67459 1591 1472 40 36 36 29 462 43 8261 565 621 109 22 43 57
internal_value=0 0.000591892 0.00329676 0.00562185 0.0152943 0.0160179 0.016361 0.00490511 -0.000422519 0.0166209 0.0131425 0.00228877 0.00444954 0.0126873 -0.00048841 0.000311161 0.00174537 0.00331297 0.0121111 0.0132522 0.0143414 0.0161743 0.00294981 -0.000576575 0.000170098 0.00227498 0.0043266 0.0159541 0.0107089 0.0260462
internal_weight=0 107390 29290 18297 7080 6619 6476 461 78100 6376 852 1853 1058 188 76247 8788 3709 2237 646 606 570 491 79 110243 9678 1417 796 231 152 79
internal_count=217633 107390 29290 18297 7080 6619 6476 461 78100 6376 852 1853 1058 188 76247 8788 3709 2237 646 606 570 491 79 110243 9678 1417 796 231 152 79
shrinkage=0.05


Tree=21
num_leaves=31
num_cat=0
split_feature=42 42 42 43 44 13 30 43 23 34 3 17 42 34 19 43 19 16 42 16 36 30 43 44 43 41 30 16 36 16
split_gain=27.0565 319.424 134.615 103.281 80.3277 14.1045 12.3 11.8269 8.65274 8.18334 8.00797 6.70903 5.06752 10.6715 4.79435 5.535 5.14304 4.70318 4.28978 4.234 5.66433 3.98244 5.09454 3.94373 3.33631 3.22 11.7684 6.61013 6.75441 7.62567
threshold=-0.22452634999999985 0.077348000000000056 -0.040859549999999939 1.2296250000000011 1.151035 0.00025762050000000008 0.0017982300000000003 2.7388300000000005 -10.753299999999998 0.209427 -13.243349999999998 -6.3032849999999992e-06 0.02582950000000005 0.013931150000000002 9.7782250000000015e-08 -2.39771 8.2724850000000008e-05 -4.7504049999999995e-05 -0.058960000000000005 8.9452450000000012e-07 0.033124950000000007 0.00044704450000000007 1.3507450000000001 3.0726850000000008 -1.4591200000000002 -0.25176499999999996 0.0064016150000000003 2.5770550000000005e-06 0.0037576550000000004 7.6833350000000012e-05
decision_type=2 2 2 2 2 2 2 2 2 2 2 2 2 2 2 2 2 2 2 2 2 2 2 2 2 2 2 2 2 2
left_child=-1 2 6 4 5 11 18 8 17 -6 -5 -4 -13 -14 -10 -16 19 -8 -2 20 -17 -20 24 -11 -23 -3 -27 -28 -29 -30
right_child=1 25 3 10 9 -7 7 -9 14 23 -12 12 13 -15 15 16 -18 -19 21 -21 -22 22 -24 -25 -26 26 27 28 29 -31
leaf_value=-0.00061607373342897551 -0.00047102181145881156 -0.00062472207077629571 8.2784338155761367e-05 0.01384790363668833 -0.00090397344451971647 -0.0018839842571159366 0.00011879150719883352 -0.00014459007033178596 -0.0037956303387226271 0.015173127129673959 -0.00025914956800443366 0.01601791640055111 0.0016013533696726274 0.014585782176504533 -0.00034374779854447418 0.019070975969855984 0.0055260431541604401 0.016290682573635862 0.00057530663502605066 0.025343488788501803 -0.0058034836163593307 -0.0018119084969933691 -0.00095374824039146794 0.0011242213216610254 0.016776649828534575 -0.00031735481034326541 0.0033159602858107602 0.00090625165775418289 0.025589476673839952 0.00030023420462384822
leaf_weight=97981 4356 96389 72 106 993 122 52 735 131 133 1974 5757 192 900 195 60 278 332 368 76 37 29 91 80 144 5216 602 75 117 40
leaf_count=97981 4356 96389 72 106 993 122 52 735 131 133 1974 5757 192 900 195 60 278 332 368 76 37 29 91 80 144 5216 602 75 117 40
internal_value=0 0.000504492 0.00680678 0.0104166 0.0129272 0.0149689 0.00139054 0.00481858 0.00796064 0.00100358 0.000459768 0.015266 0.0154256 0.0123028 0.00492615 0.0066948 0.00973808 0.0141007 8.74986e-05 0.0165066 0.00958278 0.00393705 0.00862311 0.00989654 0.0136606 -0.000554491 0.000564435 0.00607932 0.0132498 0.0191464
internal_weight=0 119652 17213 10329 8249 7043 6884 1896 1161 1206 2080 6921 6849 1092 777 646 451 384 4988 173 97 632 264 213 173 102439 6050 834 232 157
internal_count=217633 119652 17213 10329 8249 7043 6884 1896 1161 1206 2080 6921 6849 1092 777 646 451 384 4988 173 97 632 264 213 173 102439 6050 834 232 157
shrinkage=0.05


Tree=22
num_leaves=31
num_cat=0
split_feature=40 40 43 44 41 13 34 34 44 34 43 20 20 3 18 21 21 18 19 6 14 39 39 43 40 39 43 16 16 36
split_gain=24.4185 288.28 121.998 134.98 47.9562 15.0894 12.6722 12.2315 9.77239 23.3675 8.1038 6.67045 8.32156 5.70823 5.47055 4.88497 6.00712 4.11068 3.96305 4.81302 3.92608 3.85222 3.138 6.42709 2.92301 11.3906 7.2343 6.27117 9.82816 6.34454
threshold=-0.22452634999999985 0.077348000000000056 1.4285350000000012 0.87140500000000032 0.078754999999999922 0.00025762050000000008 0.15036250000000004 0.209427 -0.47859499999999983 0.068195050000000021 -2.3298099999999988 5.095670000000001 -5.4217549999999992 -14.267049999999999 0.00071169700000000018 5.2037050000000002 -5.2191299999999989 -0.00041911749999999995 3.2780400000000001e-07 1.3950750000000001e-06 0.00016757500000000002 0.00015995400000000002 0.0060015500000000005 2.2194399999999996 0.2761725000000001 0.00095358200000000002 2.9569100000000006 1.2179350000000004e-06 7.0201950000000013e-05 0.0037576550000000004
decision_type=2 2 2 2 2 2 2 2 2 2 2 2 2 2 2 2 2 2 2 2 2 2 2 2 2 2 2 2 2 2
left_child=-1 2 3 4 5 8 -5 -6 9 -2 -8 12 -12 21 17 16 -14 -10 -9 -20 -11 -4 -15 -24 25 -3 27 -27 29 -29
right_child=1 24 13 6 7 -7 10 18 14 20 11 -13 15 22 -16 -17 -18 -19 19 -21 -22 -23 23 -25 -26 26 -28 28 -30 -31
leaf_value=-0.00058527004921793088 -0.00072214558889440372 -0.00051500333075603399 -0.002515854279315749 -0.00075533332765589196 -0.00028822422800888224 -0.0019343201236207844 0.0016451901313136047 -0.0015581090281636496 0.0048321025949731779 0.003568129944775639 -0.0054601425149788463 -0.0032659566243005509 0.00064179739283938564 -0.00087942768906873491 0.00063516310652467743 -0.00073693403331884027 0.024353763932082322 0.015150038373437225 0.019715897447435723 0.0045016896482144454 0.017345084448050187 0.015521332589223197 0.016298338823916413 0.00094732735072258843 -0.00059822523370243325 0.0044739937312427728 0.00027554923988699692 0.0021955277770757675 -0.00030124602076339434 0.025115043464034394
leaf_weight=97981 353 5546 43 2732 831 148 392 46 98 58 42 59 31 4270 67 29 193 6441 152 79 477 95 79 498 95596 488 541 38 83 147
leaf_count=97981 353 5546 43 2732 831 148 392 46 98 58 42 59 31 4270 67 29 193 6441 152 79 477 95 79 498 95596 488 541 38 83 147
internal_value=0 0.000479268 0.00646644 0.00915409 0.0124661 0.0138755 0.000821773 0.00274482 0.0141878 0.00926311 0.00659745 0.0120813 0.0151508 -0.000126274 0.0148498 0.0185723 0.0210722 0.0149954 0.011844 0.0145128 0.0158515 0.00990105 -0.000411764 0.00304911 -0.000526766 0.000471505 0.00468984 0.00784874 0.0139938 0.0204073
internal_weight=0 119652 17213 12228 8750 7642 3478 1108 7494 888 746 354 295 4985 6606 253 224 6539 277 231 535 138 4847 577 102439 6843 1297 756 268 185
internal_count=217633 119652 17213 12228 8750 7642 3478 1108 7494 888 746 354 295 4985 6606 253 224 6539 277 231 535 138 4847 577 102439 6843 1297 756 268 185
shrinkage=0.05


Tree=23
num_leaves=31
num_cat=0
split_feature=40 40 40 43 44 4 4 39 43 44 34 19 4 3 4 36 16 21 21 44 3 43 34 43 34 21 30 41 30 43
split_gain=22.0438 247.786 122.11 84.325 64.2461 15.9322 12.0733 10.7369 10.5996 7.75179 6.73666 6.30623 7.99465 5.6166 4.50636 3.94599 6.54107 3.60974 4.29134 3.91911 3.51198 6.96984 8.64546 7.87497 9.49085 4.75118 3.69795 3.47483 4.94377 6.74237
threshold=-0.25142799999999998 0.077348000000000056 -0.040859549999999939 1.510785 1.151035 0.92648250000000021 -1.6465649999999996 0.00030061950000000002 1.510785 2.014730000000001 0.209427 2.562600000000001e-07 -1.8861499999999998 -5.8362949999999989 2.5139300000000007 0.12161000000000001 2.1242850000000004e-06 4.2802450000000007 -4.5569299999999986 3.7911450000000002 -10.911099999999999 0.31279500000000043 0.026407200000000002 -0.27803499999999998 0.014983150000000002 7.3737850000000007 0.0026438850000000003 0.078754999999999922 0.00044704450000000007 1.2296250000000011
decision_type=2 2 2 2 2 2 2 2 2 2 2 2 2 2 2 2 2 2 2 2 2 2 2 2 2 2 2 2 2 2
left_child=-1 2 7 4 5 6 -4 27 9 11 -6 -9 -13 15 -14 20 -17 18 -12 -20 -8 23 -23 24 -22 -26 -24 28 -2 -30
right_child=1 -3 3 -5 10 -7 13 8 -10 -11 17 12 14 -15 -16 16 -18 -19 19 -21 21 22 26 -25 25 -27 -28 -29 29 -31
leaf_value=-0.0005605170434693933 -0.00037113712402060629 -0.00050042813032474451 -0.0009824451853466384 4.8905596614007062e-06 -0.00083096341796459457 -0.00054334529186598958 0.016174399158330115 0.00016296636413558034 0.00059344368694878337 0.0014092431173041882 -0.00079542430157357078 -0.0031703978921594923 0.01639066439118032 0.0029065207225849499 -0.0017270421168792086 -0.019455478891082432 0.014007968250662091 -0.0045681762462481861 0.021295127375881271 -0.00081637669354677205 -0.0063201212686927709 -0.0012673635181623052 0.0093963291599518731 0.014952866435318696 0.014030279630735035 -0.010214354436505925 0.021030721797754892 -0.00064616697511833492 0.010795139393644827 -0.00084769583226997037
leaf_weight=97126 700 102439 136 1937 993 200 1911 116 1005 321 47 68 474 111 37 23 40 40 101 25 95 166 243 3896 248 22 95 4502 307 209
leaf_count=97126 700 102439 136 1937 993 200 1911 116 1005 321 47 68 474 111 37 23 40 40 101 25 95 166 243 3896 248 22 95 4502 307 209
internal_value=0 0.000451764 0.00585035 0.00940833 0.0115788 0.013371 0.0137694 0.00110162 0.00423423 0.00783559 0.000899784 0.0108037 0.0129356 0.0140622 0.0150788 0.014246 0.00179115 0.00896848 0.0120983 0.0169079 0.0143635 0.0136373 0.00807707 0.0142949 0.00727228 0.0120548 0.0126664 -5.57893e-06 0.00236607 0.00607934
internal_weight=0 120507 18068 10329 8392 7186 6986 7739 2021 1016 1206 695 579 6850 511 6739 63 213 173 126 6676 4765 504 4261 365 270 338 5718 1216 516
internal_count=217633 120507 18068 10329 8392 7186 6986 7739 2021 1016 1206 695 579 6850 511 6739 63 213 173 126 6676 4765 504 4261 365 270 338 5718 1216 516
shrinkage=0.05


Tree=24
num_leaves=31
num_cat=0
split_feature=40 40 41 43 43 30 4 4 43 43 14 13 4 3 4 14 3 44 43 34 34 3 34 14 43 4 41 30 43 43
split_gain=20.128 219.168 114.005 75.2521 67.3515 15.1968 13.4471 13.2193 12.9741 8.50685 7.66972 8.89118 6.64339 6.04533 3.57627 3.8919 3.36148 7.13881 7.89726 9.41533 6.55038 3.35681 3.77517 3.06359 2.91577 2.85098 2.80705 4.15265 7.19137 6.52047
threshold=0.2761725000000001 -0.079468000000000025 -0.039869999999999954 1.510785 -1.3362800000000006 0.0021377100000000006 1.4464300000000001 -1.6465649999999996 2.84389 -2.2545749999999996 0.00030683250000000005 0.00022778250000000003 -1.5265699999999998 -5.8362949999999989 3.0771300000000004 0.0032042350000000002 -11.042399999999999 -0.47859499999999983 -0.465335 0.028445000000000002 0.046494550000000003 -13.009399999999998 0.71357000000000015 0.00016757500000000002 -0.82558500000000012 -0.15847949999999997 -0.078199999999999964 0.00027963700000000006 0.47541999999999979 -1.1637600000000001
decision_type=2 2 2 2 2 2 2 2 2 2 2 2 2 2 2 2 2 2 2 2 2 2 2 2 2 2 2 2 2 2
left_child=1 -1 5 4 -4 26 7 -6 9 -7 25 12 -12 16 15 24 -9 20 19 -19 -18 22 -5 -22 -14 -11 -3 -28 29 -29
right_child=-2 2 3 21 6 8 -8 13 -10 10 11 -13 14 -15 -16 -17 17 18 -20 -21 23 -23 -24 -25 -26 -27 27 28 -30 -31
leaf_value=-0.00048128147639633456 -0.00054329256355369526 -0.00064918101856874558 -0.00011808934368658027 -0.0018018758728761564 -0.0013359278638232263 0.0012505458212979785 -0.0015105778291062625 0.015375597910465484 6.2478980889084172e-06 0.013474252402002729 -0.00079581741106192613 -0.0024115947995423563 0.0046914628455563198 0.0025294539178647695 -0.0023380767709265155 0.023514512048462746 -0.0022016215348331673 -0.0074007227123935818 0.013913311559774783 0.012365485197108873 -0.0014711721720440047 -0.00052174713488660029 0.018011566385064483 0.014887661505253261 0.016481029302976763 -0.00097189084738941796 -0.0015063419333640853 -0.00080782729080589174 -0.00064870724882427108 0.013366168658766482
leaf_weight=103144 95596 5121 1186 44 156 346 162 1889 863 43 61 84 63 126 24 176 144 97 4337 159 35 1822 53 157 313 166 510 116 370 270
leaf_count=103144 95596 5121 1186 44 156 346 162 1889 863 43 61 84 63 126 24 176 144 97 4337 159 35 1822 53 157 313 166 510 116 370 270
internal_value=0 0.000425581 0.00537648 0.0088988 0.0109291 0.0010936 0.0127333 0.0130583 0.00474127 0.00794373 0.0104339 0.0128786 0.0148949 0.0133817 0.0165565 0.017378 0.0135822 0.0128949 0.0134096 0.00487595 0.00585964 -3.92354e-05 0.00902403 0.0119056 0.0145056 0.00200028 -0.000128003 0.00198017 0.00433219 0.00910663
internal_weight=0 122037 18893 10367 8448 8526 7262 7100 2139 1276 930 721 637 6944 576 552 6818 4929 4593 256 336 1919 97 192 376 209 6387 1266 756 386
internal_count=217633 122037 18893 10367 8448 8526 7262 7100 2139 1276 930 721 637 6944 576 552 6818 4929 4593 256 336 1919 97 192 376 209 6387 1266 756 386
shrinkage=0.05


Tree=25
num_leaves=31
num_cat=0
split_feature=40 40 40 43 44 4 30 4 14 4 3 41 30 43 44 4 44 43 23 23 43 43 21 21 20 20 14 25 19 6
split_gain=18.1994 170.633 130.284 68.7854 51.6002 13.1679 11.3297 10.2653 9.22933 6.27981 5.70406 5.45646 6.15731 7.97467 6.46408 5.38288 5.29914 6.67374 4.32639 3.4122 8.00724 7.69444 6.58656 7.20037 6.84411 6.35082 5.39723 4.0256 3.0285 3.35434
threshold=-0.3562499999999999 0.077348000000000056 -0.040859549999999939 1.636995 1.151035 1.2369950000000001 0.0050916450000000005 -1.6465649999999996 0.00062372550000000006 -2.1602949999999992 -5.8362949999999989 0.078754999999999922 0.00044704450000000007 1.46871 1.0949350000000011 2.5139300000000007 3.886415 5.089570000000001 -13.824199999999998 -10.522449999999997 0.31279500000000043 -0.27803499999999998 9.5666150000000023 -7.2793899999999994 8.1756000000000011 -7.7125999999999992 0.00012403000000000004 2.8026550000000001 1.3049500000000003e-06 2.8636100000000006e-07
decision_type=2 2 2 2 2 2 2 2 2 2 2 2 2 2 2 2 2 2 2 2 2 2 2 2 2 2 2 2 2 2
left_child=-1 2 6 4 5 7 11 -4 -8 -10 19 12 -2 14 -14 16 17 28 -6 -9 21 22 23 -21 25 -25 -22 -28 -11 -30
right_child=1 -3 3 -5 18 -7 8 10 9 15 -12 -13 13 -15 -16 -17 -18 -19 -20 20 26 -23 -24 24 -26 -27 27 -29 29 -31
leaf_value=-0.00052571490949018666 -0.00043635276006534696 -0.00045172252635160406 -0.00095893781579716115 -0.00016542722278439415 0.014949561356423566 -0.0014585466500329602 3.8048793863882094e-05 0.014441074954678529 -0.0014508179164951362 0.0040614528237315622 0.0019941339239237773 -0.00046434259580921194 0.013517763619142437 -0.00094167762344666563 -8.2331896624249275e-05 0.0010360554541013652 0.0014688540917091274 0.002264557570375711 0.00020601643786880236 -0.010014828207085328 -0.003711278883421475 0.013458697067481932 -0.018215488871702781 -0.0072333565856696983 -0.008762048075441271 0.016131732130841334 0.0051990545176682015 0.016210722128650355 0.021771469016984311 0.012452719710638813
leaf_weight=93727 700 102439 142 1876 52 177 672 2189 158 46 124 8082 345 255 117 154 111 107 1154 49 111 3736 26 33 40 245 251 124 217 174
leaf_count=93727 700 102439 142 1876 52 177 672 2189 158 46 124 8082 345 255 117 154 111 107 1154 49 111 3736 26 33 40 245 251 124 217 174
internal_value=0 0.00039767 0.00445091 0.00849577 0.010418 0.0120116 0.000699843 0.0123488 0.0045389 0.00766668 0.0126216 3.74359e-05 0.00289938 0.00615602 0.0100736 0.00944736 0.011425 0.0134565 0.000841725 0.0128153 0.0120441 0.0127586 0.00610372 0.00782661 0.0105758 0.0133582 0.00597354 0.00884025 0.0161968 0.0176245
internal_weight=0 123906 21467 10329 8453 7247 11138 7070 1639 967 6928 9499 1417 717 462 809 655 544 1206 6804 4615 4129 393 367 318 278 486 375 437 391
internal_count=217633 123906 21467 10329 8453 7247 11138 7070 1639 967 6928 9499 1417 717 462 809 655 544 1206 6804 4615 4129 393 367 318 278 486 375 437 391
shrinkage=0.05


Tree=26
num_leaves=31
num_cat=0
split_feature=40 40 41 43 43 39 43 4 4 43 14 13 4 3 4 14 3 34 23 43 34 43 34 20 20 36 24 43 39 3
split_gain=16.6104 179.571 92.0186 61.3726 55.272 13.5857 11.6748 11.1316 10.9644 7.33083 7.06876 7.95392 5.95674 4.92928 3.32881 3.3085 2.97138 3.33698 2.83108 6.42546 5.60075 4.69935 8.50851 3.84731 3.58307 2.80461 2.73946 2.90507 2.58283 2.55452
threshold=0.2761725000000001 -0.079468000000000025 -0.039869999999999954 1.510785 -1.3362800000000006 0.00039785800000000007 2.84389 1.4464300000000001 -1.6465649999999996 -2.2545749999999996 0.00030683250000000005 0.00022778250000000003 -1.5265699999999998 -5.8362949999999989 3.0771300000000004 0.0032042350000000002 -13.009399999999998 0.71357000000000015 -11.621199999999998 0.60048999999999852 0.075586750000000022 -0.465335 0.026899000000000003 -5.1556849999999992 6.1764750000000008 0.14537000000000003 -1.0137249999999998 -0.82558500000000012 0.0066980350000000006 -11.976899999999999
decision_type=2 2 2 2 2 2 2 2 2 2 2 2 2 2 2 2 2 2 2 2 2 2 2 2 2 2 2 2 2 2
left_child=1 -1 5 4 -4 -3 9 8 -6 -7 -11 12 -12 18 15 26 17 -5 -10 21 -21 22 -20 -24 -25 -23 -14 -28 29 -17
right_child=-2 2 3 16 7 6 -8 -9 13 10 11 -13 14 -15 -16 28 -18 -19 19 20 -22 25 23 24 -26 -27 27 -29 -30 -31
leaf_value=-0.00043425353864352074 -0.00049354180775164379 -0.00012796972306195763 -0.00014159583877677861 -0.0016904722708700735 -0.001313074845343064 0.0012669505841632095 2.4754773797445845e-05 -0.0014591646639423239 0.014091651729744824 0.0015252522867869097 -0.00074810257341834856 -0.0022647821993034864 -0.0037111711289201468 0.0022912322281165016 -0.0021574913691729306 0.021439268152756864 -0.00049326587294593342 0.016937626244605715 -0.0058571014390327043 -0.0029152543144640481 0.011946214733929454 0.012591089380450511 -0.0054885965905019218 0.017165935331064721 -0.0028381589370278216 -0.0049124467632044918 0.0046519479104157151 0.016896197151671462 0.02969168998516988 0.0029179606897135578
leaf_weight=103144 95596 6406 1186 44 156 337 866 162 1627 198 61 84 21 126 25 83 1822 53 100 137 118 4598 28 161 26 23 58 294 69 24
leaf_count=103144 95596 6406 1186 44 156 337 866 162 1627 198 61 84 21 126 25 83 1822 53 100 137 118 4598 28 161 26 23 58 294 69 24
internal_value=0 0.000386609 0.00486801 0.0080325 0.00986604 0.00102022 0.0044897 0.0115004 0.0117961 0.00757315 0.00989069 0.0121944 0.0141071 0.0120906 0.0156858 0.0164983 -3.93002e-05 0.00848777 0.0122717 0.0117013 0.00396182 0.0121012 0.00619217 0.0117965 0.0143846 0.012504 0.0138321 0.0148787 0.022149 0.017285
internal_weight=0 122037 18893 10367 8448 8526 2120 7262 7100 1254 917 719 635 6944 574 549 1919 97 6818 5191 255 4936 315 215 187 4621 373 352 176 107
internal_count=217633 122037 18893 10367 8448 8526 2120 7262 7100 1254 917 719 635 6944 574 549 1919 97 6818 5191 255 4936 315 215 187 4621 373 352 176 107
shrinkage=0.05


Tree=27
num_leaves=31
num_cat=0
split_feature=40 40 40 44 44 4 30 4 14 4 4 24 24 4 4 41 30 44 44 34 3 36 16 19 34 44 44 34 4 14
split_gain=15.0279 140.299 105.784 56.3826 42.056 12.0705 10.1993 8.9318 8.25823 5.61773 4.84506 13.3821 8.50688 5.03119 7.49212 4.34747 5.23104 6.52836 5.40851 4.32744 4.24022 3.45165 5.09574 3.21034 3.13308 11.2136 6.7182 4.41388 3.07396 2.88861
threshold=-0.3562499999999999 0.077348000000000056 -0.040859549999999939 -1.6465599999999998 1.381785 0.8580755000000001 0.0050916450000000005 -1.6465649999999996 0.00062372550000000006 -2.1602949999999992 -0.40498649999999997 -0.48397549999999995 0.65909550000000017 0.18998850000000003 3.3436750000000006 0.078754999999999922 0.00044704450000000007 -1.3566450000000001 1.0949350000000011 0.35804150000000007 -5.8362949999999989 0.12161000000000001 2.1242850000000004e-06 0.0018801250000000003 0.093126650000000019 -0.60415499999999989 0.50668999999999997 0.026899000000000003 -0.51868499999999995 0.00015957750000000003
decision_type=2 2 2 2 2 2 2 2 2 2 2 2 2 2 2 2 2 2 2 2 2 2 2 2 2 2 2 2 2 2
left_child=-1 2 6 -4 5 7 15 -5 -8 -10 11 -11 -12 -14 -15 16 -2 -18 -19 -6 21 24 -23 -21 25 -9 28 -28 -27 -26
right_child=1 -3 3 4 19 -7 8 20 9 10 12 -13 13 14 -16 -17 17 18 -20 23 -22 22 -24 -25 29 26 27 -29 -30 -31
leaf_value=-0.00047771649674623349 -0.00049181451588603011 -0.00040883910426179433 -0.00016264918446540834 -0.00097259150069156609 -0.0007270292991674261 -0.00024309416056053409 4.1715242964744992e-05 -0.00081724207330909039 -0.0013656293357357007 0.02392784797425928 0.00016151181962612991 -0.0033745661270446503 0.00046048704728794595 0.020552460262601709 0.00095771011247327848 -0.00041970609252922337 -0.00074084263348665378 0.012373996251399684 -8.9345639969548606e-05 0.01776701388063661 0.0021630438583448899 -0.016467493220611855 0.011373936154303097 0.0025352204493670305 -0.00068675896207637645 -0.0048657263456671328 -0.0052070421039273869 0.0097012647150012746 0.012052373962857889 0.014053578046590996
leaf_weight=93727 700 102439 1875 148 988 239 672 189 158 145 274 65 72 187 66 8082 260 340 117 57 121 27 42 88 34 27 95 104 4815 1480
leaf_count=93727 700 102439 1875 148 988 239 672 189 158 145 274 65 72 187 66 8082 260 340 117 57 121 27 42 88 34 27 95 104 4815 1480
internal_value=0 0.000361362 0.00403671 0.00768147 0.0094212 0.0108085 0.000656683 0.0111815 0.0042992 0.00725786 0.00894205 0.0154771 0.00665097 0.0121221 0.0154408 2.81873e-05 0.00258279 0.0055845 0.00918316 0.000456765 0.0114409 0.0116057 0.000479464 0.00852289 0.0117195 0.0111397 0.011588 0.00258423 0.011958 0.0137226
internal_weight=0 123906 21467 10329 8454 7321 11138 7082 1639 967 809 210 599 325 253 9499 1417 717 457 1133 6934 6813 69 145 6744 5230 5041 199 4842 1514
internal_count=217633 123906 21467 10329 8454 7321 11138 7082 1639 967 809 210 599 325 253 9499 1417 717 457 1133 6934 6813 69 145 6744 5230 5041 199 4842 1514
shrinkage=0.05


Tree=28
num_leaves=31
num_cat=0
split_feature=41 40 41 43 43 30 44 4 4 23 44 4 24 4 24 4 4 3 4 4 26 4 24 3 29 43 23 43 3 44
split_gain=13.752 134.352 86.6318 50.0244 45.2504 12.4168 10.4724 9.27822 9.1295 7.55378 4.25379 4.34179 10.4033 10.0057 7.89327 8.26048 6.50265 4.01372 2.93017 4.43846 3.52177 3.8357 2.91729 2.65128 4.18418 2.53143 2.46316 5.53671 5.51272 4.39605
threshold=-0.33012499999999995 -0.079468000000000025 -0.039869999999999954 1.510785 -1.3362800000000006 0.0021377100000000006 -2.8126249999999997 1.4464300000000001 -1.8861499999999998 -11.970249999999998 2.829940000000001 -0.20992299999999997 -0.26283399999999996 -1.4133199999999999 -0.26283399999999996 0.16470650000000003 1.8987000000000003 -5.8362949999999989 0.38724300000000006 2.2539600000000006 -0.00024772449999999996 -0.22659549999999998 0.56550400000000012 -11.334749999999998 -0.11763599999999998 2.7388300000000005 -11.621199999999998 0.43278000000000022 -7.5181649999999989 0.23534999999999953
decision_type=2 2 2 2 2 2 2 2 2 2 2 2 2 2 2 2 2 2 2 2 2 2 2 2 2 2 2 2 2 2
left_child=-1 -2 5 4 -4 -3 -7 8 -6 18 11 12 13 -11 -13 -16 -17 26 20 22 -8 -22 -20 24 -5 -26 -10 29 -29 -28
right_child=1 2 3 23 7 6 9 -9 17 10 -12 14 -14 -15 15 16 -18 -19 19 -21 21 -23 -24 -25 25 -27 27 28 -30 -31
leaf_value=-0.00045670021232330747 -0.00039179213769637337 -0.00020140286396446322 -0.00014819036438922959 0.025176177721004934 -0.0018500415876937602 6.1063297215919446e-05 0.0008296353354960783 -0.0014459883748197261 0.012771105173242049 -0.00058467372104392527 -0.00036585329632673948 -0.0036657045331473155 -0.0041217574598751477 0.0242056778357083 -0.0012417666234076025 0.02039386137401232 -0.00078447343209215128 0.0020698931984721668 0.0092562966475573678 -0.00015285095078465733 0.020259252703318034 0.0027339224802686813 0.029420779337844167 -0.00063387104706402785 0.010188326280154853 -0.0027037291927263143 0.011580467929648355 0.010134747430149998 -0.0019968912884394622 0.0070640328626749701
leaf_weight=93794 103144 7816 1186 24 143 1060 73 162 1631 56 308 210 77 149 125 148 48 126 24 23 93 47 71 1739 66 90 4203 210 169 618
leaf_count=93794 103144 7816 1186 24 143 1060 73 162 1631 56 308 210 77 149 125 148 48 126 24 23 93 47 71 1739 66 90 4203 210 169 618
internal_value=0 0.000345899 0.00402255 0.00725147 0.00890684 0.000781439 0.00383952 0.0103857 0.0106556 0.00659789 0.00463824 0.00653401 0.011548 0.0174337 0.00387122 0.00880192 0.0152073 0.0109127 0.0132347 0.0195552 0.00973318 0.0143757 0.0243266 -3.59456e-05 0.00574068 0.0027506 0.0110758 0.0105441 0.00472512 0.0110015
internal_weight=0 123839 20695 10367 8448 10328 2512 7262 7100 1452 1121 813 282 205 531 321 196 6957 331 118 213 140 95 1919 180 156 6831 5200 379 4821
internal_count=217633 123839 20695 10367 8448 10328 2512 7262 7100 1452 1121 813 282 205 531 321 196 6957 331 118 213 140 95 1919 180 156 6831 5200 379 4821
shrinkage=0.05


Tree=29
num_leaves=31
num_cat=0
split_feature=42 42 42 43 43 4 30 4 14 3 4 34 4 24 24 4 4 36 16 41 30 43 43 41 21 21 14 34 43 43
split_gain=12.4171 115.341 78.2076 49.8782 41.8199 9.7348 9.18564 8.60122 7.37597 5.45771 5.01108 4.89476 4.64009 12.2941 7.65262 4.51836 6.69621 3.90086 5.34817 3.45657 4.49785 5.54533 4.35497 3.07195 2.8969 3.86486 2.86935 2.76329 9.3995 5.83019
threshold=-0.3562499999999999 0.10022550000000004 -0.040859549999999939 1.2296250000000011 -1.2170650000000005 0.92648250000000021 0.0050916450000000005 -1.7643199999999999 0.00062372550000000006 -13.243349999999998 -1.8861499999999998 0.34287850000000003 -0.40498649999999997 -0.48397549999999995 0.65909550000000017 0.18998850000000003 3.3436750000000006 0.14537000000000003 6.0361250000000016e-07 0.078754999999999922 0.00044704450000000007 1.46871 -1.1067849999999997 0.17390849999999994 4.6258850000000011 -4.5569299999999986 0.030258200000000002 0.093126650000000019 0.60048999999999852 -0.5126099999999999
decision_type=2 2 2 2 2 2 2 2 2 2 2 2 2 2 2 2 2 2 2 2 2 2 2 2 2 2 2 2 2 2
left_child=-1 2 6 4 11 7 19 -6 -8 26 -10 -4 13 23 -14 -16 -17 27 -19 20 -2 22 -22 -12 25 -13 -5 28 29 -9
right_child=1 -3 3 9 5 -7 8 17 10 -11 12 24 14 -15 15 16 -18 18 -20 -21 21 -23 -24 -25 -26 -27 -28 -29 -30 -31
leaf_value=-0.00043424105611790213 -0.00055321907089091844 -0.0003867273842126328 -0.00067698997056409298 0.014312170244449255 -0.0019253549334179198 -0.00044085151962768872 4.9498722416631479e-05 0.0019785334415814183 -0.0010660889921145457 -0.00025682128135333116 0.018023807619528105 -0.00092361772675877041 0.00013286548251979544 -0.0033078426650414864 0.0004257180514590194 0.019454576599008261 0.00092984263178412659 -0.019301308806125933 0.0093014939942143177 -0.00037945593135174427 -3.5988639012492933e-05 -0.00083749056848533019 0.011158816586383161 0.033707581583331245 -0.0038531831306655231 0.016481895028398589 -0.0060541613958776004 0.012404292773083336 -0.00071723616733995797 0.010750732949704011
leaf_weight=93727 700 101579 1233 98 144 223 672 197 165 2356 93 46 274 63 72 187 66 26 44 8082 116 255 346 47 41 104 21 1542 197 4917
leaf_count=93727 700 101579 1233 98 144 223 672 197 165 2356 93 46 274 63 72 187 66 26 44 8082 116 255 346 47 41 104 21 1542 197 4917
internal_value=0 0.000328476 0.00358237 0.00653485 0.00831398 0.00984487 0.000616364 0.0101694 0.00407313 0.000270862 0.00686929 0.000476771 0.00850188 0.0150349 0.00628787 0.011477 0.014622 0.010421 -0.0013224 1.99178e-05 0.00229779 0.00508119 0.008348 0.0232891 0.00792487 0.0111442 0.0107181 0.010541 0.00999997 0.0104128
internal_weight=0 123906 22327 11189 8714 7290 11138 7067 1639 2475 967 1424 802 203 599 325 253 6923 70 9499 1417 717 462 140 191 150 119 6853 5311 5114
internal_count=217633 123906 22327 11189 8714 7290 11138 7067 1639 2475 967 1424 802 203 599 325 253 6923 70 9499 1417 717 462 140 191 150 119 6853 5311 5114
shrinkage=0.05


Tree=30
num_leaves=31
num_cat=0
split_feature=41 40 41 43 43 39 44 4 4 23 43 4 4 38 38 4 4 3 4 34 44 23 43 3 44 34 21 20 20 21
split_gain=11.3295 109.996 70.2448 40.8885 37.0535 10.9876 9.3335 7.73318 7.60506 6.38613 3.69263 3.94524 8.99499 8.41105 6.94547 8.06433 5.75028 3.29635 2.49318 2.37004 5.08973 2.24071 4.65397 4.7916 3.94994 9.52069 3.21644 3.51877 2.77094 2.59352
threshold=-0.33012499999999995 -0.079468000000000025 -0.039869999999999954 1.510785 -1.3362800000000006 0.00039785800000000007 -2.8126249999999997 1.4464300000000001 -2.6817999999999995 -11.970249999999998 -2.8634500000000003 -0.20992299999999997 -1.5265699999999998 0.0069494100000000005 -0.0076020749999999989 0.16470650000000003 3.0771300000000004 -5.8362949999999989 -3.3078599999999994 1.2911250000000003 -2.1849649999999996 -11.621199999999998 0.43278000000000022 -7.5181649999999989 0.23534999999999953 0.014727600000000002 7.3737850000000007 -7.7125999999999992 8.4869350000000026 -7.4922749999999985
decision_type=2 2 2 2 2 2 2 2 2 2 2 2 2 2 2 2 2 2 2 2 2 2 2 2 2 2 2 2 2 2
left_child=-1 -2 5 4 -4 -3 -7 8 -6 18 -11 12 -12 -14 15 -13 -17 21 -8 -5 -21 -10 24 -24 -23 -26 27 -27 29 -29
right_child=1 2 3 19 7 6 9 -9 17 10 11 14 13 -15 -16 16 -18 -19 -20 20 -22 22 23 -25 25 26 -28 28 -30 -31
leaf_value=-0.00041452883028375614 -0.00035352475522629228 -0.00019702094083765494 -0.00014911542751026949 -0.00080406190445208095 -0.0027464239056542764 6.8815989132448404e-05 -0.0017010250474037284 -0.0014186742992922203 0.01160577615308777 -0.00040471019073427751 -0.0019163930466255315 -0.0021077979293685138 -0.0034067867843147652 0.022693951451848892 -0.0031305777858489734 0.019156378430718754 -0.0025895370623881097 0.0018319583483158597 0.013640584518339058 0.0014925086598421605 0.02062688247766346 0.010456761181450157 0.0091989642234245467 -0.0020809882921714556 -0.0060840416596167624 -0.0087021653904863026 -0.0057871099787228037 -0.0030827340383369189 -0.0068299367278814322 0.013217844192867615
leaf_weight=93794 103144 7838 1186 1614 122 1063 29 162 1639 292 91 112 39 148 221 152 38 126 305 265 40 4207 211 170 126 23 33 26 20 397
leaf_count=93794 103144 7838 1186 1614 122 1063 29 162 1639 292 91 112 39 148 221 152 38 126 305 265 40 4207 211 170 126 23 33 26 20 397
internal_value=0 0.000313959 0.0036407 0.00654824 0.00804484 0.000722178 0.00361563 0.00938304 0.0096295 0.00625771 0.0044087 0.0061634 0.0109764 0.0172505 0.00360504 0.00853409 0.0148072 0.00984588 0.0123085 -4.02115e-05 0.00400193 0.00999324 0.00948625 0.00416591 0.00990576 0.00619683 0.00929782 0.0103661 0.0113561 0.0122159
internal_weight=0 123839 20695 10367 8448 10328 2490 7262 7100 1427 1093 801 278 187 523 302 190 6978 334 1919 305 6852 5213 381 4832 625 499 466 443 423
internal_count=217633 123839 20695 10367 8448 10328 2490 7262 7100 1427 1093 801 278 187 523 302 190 6978 334 1919 305 6852 5213 381 4832 625 499 466 443 423
shrinkage=0.05


Tree=31
num_leaves=31
num_cat=0
split_feature=40 40 40 43 43 4 39 4 43 23 34 3 16 19 36 36 16 19 34 44 43 34 43 4 36 3 43 4 41 39
split_gain=10.2666 94.8601 63.3604 41.0487 33.0884 9.239 8.20786 7.6222 6.04432 5.93294 4.05558 3.8529 3.76117 5.6624 5.73591 3.36062 4.04795 3.04865 3.04744 7.92021 5.37373 3.25075 3.17257 3.04281 2.79413 2.66601 2.57418 2.48112 2.41822 3.4993
threshold=-0.3562499999999999 0.10022550000000004 -0.040859549999999939 1.636995 -1.3362800000000006 0.8580755000000001 0.00095358200000000002 -1.6465649999999996 2.7388300000000005 -10.712249999999999 0.4236100000000001 -5.8575499999999989 8.2193200000000006e-07 0.0012845400000000002 0.10225450000000001 0.14537000000000003 6.0361250000000016e-07 0.0018801250000000003 0.093126650000000019 -0.64641000000000026 -0.5126099999999999 0.031882050000000009 0.80790999999999979 -2.5331249999999996 0.016813700000000004 -13.897099999999998 -0.82558500000000012 -0.51868499999999995 0.078754999999999922 1.9415700000000001e-05
decision_type=2 2 2 2 2 2 2 2 2 2 2 2 2 2 2 2 2 2 2 2 2 2 2 2 2 2 2 2 2 2
left_child=-1 2 6 4 10 7 28 -6 9 23 -4 15 24 14 -14 18 -17 -12 19 -9 21 -21 26 -8 -11 -10 -20 -22 29 -2
right_child=1 -3 3 -5 5 -7 8 11 25 12 17 -13 13 -15 -16 16 -18 -19 22 20 27 -23 -24 -25 -26 -27 -28 -29 -30 -31
leaf_value=-0.00039485277659726903 -0.00059707461140941882 -0.00034992192209134517 -0.00067242420773849635 -0.00015802183449168246 -0.0012212863893099977 -0.00022933901021283845 -0.002122541524586268 -0.0014045642138543453 0.012953983182087542 0.0049521425806417843 0.01625719263975043 0.0017603304248416064 0.0026538698113386019 0.0004253543132696958 0.022513603469770816 -0.016143455808716161 0.0085192898242938808 0.0021090837869238346 0.018727058972767059 -0.0042792921594809741 -0.0031834319586286674 0.0082947768074901479 0.0178507256496232 0.012449814106742296 -0.002769061875577016 -0.00025777280262552922 0.010163539838409624 0.009813317188831128 -0.00040027772091551803 0.0044954263779227134
leaf_weight=93727 690 101579 1223 2233 176 278 40 176 40 207 64 165 61 136 90 28 41 94 94 112 37 95 176 343 270 841 1321 4876 7760 660
leaf_count=93727 690 101579 1223 2233 176 278 40 176 40 207 64 165 61 136 90 28 41 94 94 112 37 95 176 343 270 841 1321 4876 7760 660
internal_value=0 0.000298681 0.00324957 0.00590706 0.00741927 0.00871691 0.000579907 0.00905774 0.00345669 0.00584899 0.000301477 0.0093118 0.00330289 0.00782564 0.0144908 0.00949092 -0.00148878 0.00783996 0.00960093 0.00902445 0.00938294 0.00149142 0.0115199 0.0109279 0.000581649 0.00034208 0.0107324 0.00971544 -6.05e-05 0.00189259
internal_weight=0 123906 22327 11189 8956 7575 11138 7297 2028 1147 1381 7121 764 287 151 6956 69 158 6887 5296 5120 207 1591 383 477 881 1415 4913 9110 1350
internal_count=217633 123906 22327 11189 8956 7575 11138 7297 2028 1147 1381 7121 764 287 151 6956 69 158 6887 5296 5120 207 1591 383 477 881 1415 4913 9110 1350
shrinkage=0.05


Tree=32
num_leaves=31
num_cat=0
split_feature=41 40 41 44 44 30 44 4 4 23 44 16 36 16 36 16 13 32 38 17 39 44 16 16 23 44 44 34 34 19
split_gain=9.33653 90.0601 56.8917 33.4798 30.6301 9.72031 7.95185 6.89542 6.83301 6.00546 3.80059 3.84263 6.77583 5.43384 5.33246 3.51134 3.69245 2.85528 2.53739 2.48907 2.47349 3.15619 2.38181 2.38387 2.13411 9.15224 4.10261 6.29542 3.99022 3.51973
threshold=-0.33012499999999995 -0.079468000000000025 -0.039869999999999954 -1.47746 1.4428800000000004 0.0021377100000000006 -2.8126249999999997 -1.0382099999999996 1.4464300000000001 -13.328949999999997 2.829940000000001 8.2193200000000006e-07 0.0070919350000000006 7.0201950000000013e-05 0.033124950000000007 -5.3401899999999988e-07 0.00010299250000000001 -1.5525049999999998 0.065375400000000014 2.3116650000000003e-06 0.0060015500000000005 -1.8692049999999989 3.6544900000000005e-06 5.8339500000000013e-05 -8.5818999999999992 -0.31477499999999997 0.19419999999999996 0.014727600000000002 0.023088400000000005 3.0639350000000006e-08
decision_type=2 2 2 2 2 2 2 2 2 2 2 2 2 2 2 2 2 2 2 2 2 2 2 2 2 2 2 2 2 2
left_child=-1 -2 5 20 7 -3 -7 18 24 -8 11 14 -13 17 15 16 -11 -14 -5 -19 -4 22 -22 -24 -9 28 -27 -28 -26 -29
right_child=1 2 3 4 -6 6 9 8 -10 10 -12 12 13 -15 -16 -17 -18 19 -20 -21 21 -23 23 -25 25 26 27 29 -30 -31
leaf_value=-0.00037630629371382222 -0.00031896470193561069 -0.00020089733785358754 -0.00069570487195732688 -0.0026182310182258969 -0.00029399599337246612 8.1939515130559237e-05 0.013619959759236308 0.0098404100840981945 -0.0013756094801816747 0.014954444015618905 -0.00022619529772329369 -0.0014572335364281682 0.027564191625199536 -0.0015478686825107699 -0.0022060871713774953 0.0011588490421471421 -0.0014758233411432528 0.018399131060472095 0.012642752495594323 0.0045483210058275452 3.5454577233405473e-05 0.021150040970398829 0.023268569193780425 0.00041727038721243548 -0.0055397092327653516 0.0096553326188480986 -0.0053730893569688002 -0.01169203182682395 0.0053117174999383482 0.010136333008826213
leaf_weight=93794 103144 7816 1692 183 1154 1060 209 3532 163 167 321 91 55 44 235 131 43 110 32 46 173 26 25 21 157 2644 120 20 184 241
leaf_count=93794 103144 7816 1692 183 1154 1060 209 3532 163 167 321 91 55 44 235 131 43 110 32 46 173 26 25 21 157 2644 120 20 184 241
internal_value=0 0.000285009 0.00329522 0.00591186 0.00727388 0.000668702 0.00337443 0.00847418 0.00874277 0.00577804 0.00445949 0.00609084 0.0102556 0.0144355 0.00358908 0.00758282 0.0115902 0.0177685 -0.000346829 0.0143149 -1.58085e-05 0.00467964 0.00272425 0.0128365 0.00898186 0.00808098 0.00895635 0.00410563 0.000315606 0.00846366
internal_weight=0 123839 20695 10367 8430 10328 2512 7276 7061 1452 1243 922 346 255 576 341 210 211 215 156 1937 245 219 46 6898 3366 3025 381 341 261
internal_count=217633 123839 20695 10367 8430 10328 2512 7276 7061 1452 1243 922 346 255 576 341 210 211 215 156 1937 245 219 46 6898 3366 3025 381 341 261
shrinkage=0.05


Tree=33
num_leaves=31
num_cat=0
split_feature=40 40 40 43 43 4 30 4 14 4 4 24 24 4 4 34 19 21 43 23 43 34 43 34 21 20 21 20 14 40
split_gain=8.4945 78.1012 51.3434 33.6694 27.0579 7.69366 7.43625 6.24935 6.07167 4.17337 3.78673 10.3354 6.53076 3.96507 5.71367 3.50849 2.68283 2.65099 3.16744 2.61896 6.44417 5.70431 4.64919 4.73343 3.47752 3.1507 3.0092 3.14922 2.92997 2.50398
threshold=-0.3562499999999999 0.10022550000000004 -0.040859549999999939 1.636995 -1.3362800000000006 0.8580755000000001 0.0050916450000000005 -1.6465649999999996 0.00062372550000000006 -2.1602949999999992 -0.40498649999999997 -0.48397549999999995 0.65909550000000017 0.18998850000000003 3.3436750000000006 0.4236100000000001 0.0018801250000000003 -6.7912899999999992 4.3033550000000007 -10.522449999999997 0.31279500000000043 0.026407200000000002 -0.27803499999999998 0.014983150000000002 7.3737850000000007 8.1756000000000011 -8.2769249999999985 -7.7125999999999992 0.00012967350000000005 -0.17527649999999997
decision_type=2 2 2 2 2 2 2 2 2 2 2 2 2 2 2 2 2 2 2 2 2 2 2 2 2 2 2 2 2 2
left_child=-1 2 6 4 15 7 -2 -6 -8 -10 11 29 -12 -14 17 -4 -17 -15 -19 -9 22 -22 23 -21 25 26 -25 -28 -23 -11
right_child=1 -3 3 -5 5 -7 8 19 9 10 12 -13 13 14 -16 16 -18 18 -20 20 21 28 -24 24 -26 -27 27 -29 -30 -31
leaf_value=-0.00035916189338087772 9.3962242222713495e-06 -0.00031684326291465064 -0.00063136239394847118 -0.00015145271872218233 -0.0011119033237760464 -0.0002793571447347217 5.6900684545066079e-06 0.0098484147018032733 -0.0012394887336995453 0.029769254724184676 -6.6613724428045499e-05 -0.0031451081355603847 6.0516856481424643e-05 0.030229465833732063 0.00071141980658990871 0.015182175091467798 0.0019100199156302088 0.0178563485832046 -0.0030607034496608239 -0.0051766444651813841 -0.0022790508677624842 -0.00089174671871164305 0.0090649107154031072 -0.0085694298192503914 -0.011261314861476421 -0.0088809195309877392 -0.0079608875280246152 0.012686645321517072 0.0094917962824513247 0.016009190551778105
leaf_weight=93727 9499 101579 1223 2233 176 278 672 2224 158 51 274 65 72 35 66 64 94 131 21 113 277 88 3789 21 25 25 20 241 298 94
leaf_count=93727 9499 101579 1223 2233 176 278 672 2224 158 51 274 65 72 35 66 64 94 131 21 113 277 88 3789 21 25 25 20 241 298 94
internal_value=0 0.000271683 0.00294924 0.00534149 0.00671104 0.00788449 0.00054605 0.00819552 0.00365628 0.0061932 0.00764482 0.0134222 0.00561936 0.0104131 0.0133593 0.000274471 0.00728608 0.0178232 0.0149665 0.00842556 0.00777936 0.00319575 0.0084971 0.00366245 0.00667093 0.00813121 0.00963938 0.0111045 0.00712456 0.0208489
internal_weight=0 123906 22327 11189 8956 7575 11138 7297 1639 967 809 210 599 325 253 1381 158 187 152 7121 4897 663 4234 445 332 307 282 261 386 145
internal_count=217633 123906 22327 11189 8956 7575 11138 7297 1639 967 809 210 599 325 253 1381 158 187 152 7121 4897 663 4234 445 332 307 282 261 386 145
shrinkage=0.05


Tree=34
num_leaves=31
num_cat=0
split_feature=41 40 41 44 43 30 4 4 44 16 36 16 36 3 16 23 43 44 34 30 21 21 6 33 20 20 4 13 3 14
split_gain=7.69595 74.3297 42.642 31.2208 27.9719 8.27118 8.03873 7.41572 5.15856 4.47915 6.83655 4.79771 4.35019 4.29242 4.11855 3.18896 4.62287 5.69327 5.92602 4.42619 3.63211 3.33584 3.15977 3.65529 2.88011 3.1744 2.4333 2.63223 2.36248 2.34194
threshold=-0.33012499999999995 -0.10081500000000009 -0.057539999999999918 -1.8692049999999989 -1.5836399999999993 0.0061309900000000011 1.4464300000000001 -1.6465649999999996 -4.4138449999999994 9.6924450000000025e-07 -0.0071753399999999997 7.0201950000000013e-05 0.0037576550000000004 -5.8362949999999989 -5.8728149999999988e-07 -10.311099999999998 0.39187000000000044 0.23534999999999953 0.014727600000000002 0.0021377100000000006 9.1952100000000012 -8.1735099999999985 5.341650000000001e-07 0.00010607400000000001 -7.7125999999999992 9.1618800000000018 1.6690850000000002 -2.0286099999999995e-05 -7.5181649999999989 0.00016757500000000002
decision_type=2 2 2 2 2 2 2 2 2 2 2 2 2 2 2 2 2 2 2 2 2 2 2 2 2 2 2 2 2 2
left_child=-1 -2 5 -4 -5 -3 7 -6 -7 10 14 12 -11 15 26 -9 17 -17 -19 28 21 -20 -14 -24 -23 -26 27 -10 -18 -21
right_child=1 2 3 4 6 8 -8 13 9 11 -12 -13 22 -15 -16 16 19 18 20 29 -22 24 23 -25 25 -27 -28 -29 -30 -31
leaf_value=-0.00034164880173348598 -0.00030349255103085857 -0.00016630690239571522 -0.00020935116440610799 -0.00014256893646820719 -0.0012727561835870159 -0.0003820316458032245 -0.0013242419779664655 0.0094848636036084857 0.0048880524933338169 0.00076190851898652254 -0.0011232869442037671 0.00086106840550551663 0.023588900538245302 0.00068360228720006392 0.001629942483215154 0.0085258405799891399 0.0047118800800553598 -0.0047382793978392856 -0.0075894176906773029 -0.0029011393207366821 -0.014044391802911248 -0.0064314442624648421 0.023708435070390502 0.0010745202286422931 0.010724553322937782 -0.009736697063781323 -0.00074800393660552807 0.022119479415135736 -0.0039665717038442376 0.013593730927919443
leaf_weight=93794 102289 8198 2398 1488 229 420 261 2558 29 44 316 83 111 203 87 3841 129 165 35 27 21 30 30 44 363 20 20 94 200 106
leaf_count=93794 102289 8198 2398 1488 229 420 261 2558 29 44 316 83 111 203 87 3841 129 165 35 27 21 30 30 44 363 20 20 94 200 106
internal_value=0 0.00025876 0.00292754 0.00489793 0.00616367 0.00041694 0.0073097 0.00759397 0.0041583 0.00638084 0.00364995 0.0111599 0.0148927 0.00785774 0.010208 0.00805205 0.00730967 0.00780128 0.00341161 0.00254789 0.00627884 0.00723149 0.0182535 0.0102504 0.0084875 0.00965608 0.0154267 0.0180568 -0.000563774 0.0102451
internal_weight=0 123839 21550 12074 9676 9476 8188 7927 1278 858 546 312 229 7698 230 7495 4937 4475 634 462 469 448 185 74 413 383 143 123 329 133
internal_count=217633 123839 21550 12074 9676 9476 8188 7927 1278 858 546 312 229 7698 230 7495 4937 4475 634 462 469 448 185 74 413 383 143 123 329 133
shrinkage=0.05


Tree=35
num_leaves=31
num_cat=0
split_feature=40 41 40 43 43 30 4 14 4 4 4 24 24 4 4 34 40 3 44 20 37 15 43 34 19 41 30 43 44 3
split_gain=6.99955 64.1058 41.3878 27.7455 22.3311 6.65378 6.53959 5.43004 5.19761 3.73692 3.63002 9.48734 5.85452 3.55113 5.08997 3.12829 2.65567 2.61898 8.15151 3.88387 3.17941 2.4378 2.43611 2.65092 2.3379 2.23163 3.82719 4.54672 4.83184 2.64182
threshold=-0.3562499999999999 -0.10141500000000002 -0.040859549999999939 1.636995 -1.39862 0.0050916450000000005 0.8580755000000001 0.00062372550000000006 -1.8861499999999998 -1.8861499999999998 -0.40498649999999997 -0.48397549999999995 0.65909550000000017 0.18998850000000003 3.3436750000000006 0.4236100000000001 -0.17527649999999997 -7.5181649999999989 -0.27579999999999932 -12.926599999999999 3.2072350000000002e-07 -1.9150249999999998e-05 -0.15760999999999911 0.013931150000000002 0.0018801250000000003 0.09983149999999999 0.00047923150000000006 1.46871 1.0949350000000011 -8.1461699999999979
decision_type=2 2 2 2 2 2 2 2 2 2 2 2 2 2 2 2 2 2 2 2 2 2 2 2 2 2 2 2 2 2
left_child=-1 -2 5 4 15 25 8 -7 -6 -9 11 16 -12 -14 21 -4 -11 -10 19 -19 -21 -15 23 -20 -17 26 -3 28 29 -28
right_child=1 2 3 -5 6 7 -8 9 17 10 12 -13 13 14 -16 24 -18 18 22 20 -22 -23 -24 -25 -26 -27 27 -29 -30 -31
leaf_value=-0.00032602918059818162 -0.00028722959243908321 -0.00059465995078030202 -0.00066600898355291473 -0.00015444353614002467 -0.0013439488630175188 -6.188987321192621e-07 -0.00033029339195911209 -0.0010018316369722457 0.0082955073040782267 0.029976951640020028 -8.1151349973069496e-05 -0.0030744374987007757 4.3854302364505006e-05 0.00079189744733628776 0.0006917257659193694 0.014187994098756464 0.015394502485631616 0.0191751843392849 -0.0045985450189169729 -0.003177352804593297 0.0084037962925827339 0.018873067972171739 0.0081913551351524751 0.0071081224371058252 0.0017714210735854281 -0.00040801955107189637 0.011865835314797825 -0.00059645182801135502 -0.0002788197222495607 0.0033464853086629673
leaf_weight=93727 101534 1107 1218 2250 166 672 284 165 4708 47 274 63 72 21 66 64 93 25 81 335 72 166 1818 120 93 7385 298 386 192 131
leaf_count=93727 101534 1107 1218 2250 166 672 284 165 4708 47 274 63 72 21 66 64 93 25 81 335 72 166 1818 120 93 7385 298 386 192 131
internal_value=0 0.00024662 0.00266947 0.00481083 0.00605436 0.000509648 0.00711404 0.0034517 0.00740267 0.00585083 0.00726066 0.013039 0.0053024 0.00984114 0.0126293 0.000190236 0.02029 0.00760548 0.00628006 4.63883e-05 -0.0011286 0.0168426 0.00761386 0.00239051 0.00683295 2.01408e-06 0.00143442 0.00366499 0.00631381 0.00926436
internal_weight=0 123906 22372 11234 8984 11138 7609 1639 7325 967 802 203 599 325 253 1375 140 7159 2451 432 407 187 2019 201 157 9499 2114 1007 621 429
internal_count=217633 123906 22372 11234 8984 11138 7609 1639 7325 967 802 203 599 325 253 1375 140 7159 2451 432 407 187 2019 201 157 9499 2114 1007 621 429
shrinkage=0.05


Tree=36
num_leaves=31
num_cat=0
split_feature=41 40 41 44 43 30 4 4 14 13 23 43 34 43 34 44 43 19 15 3 34 34 43 14 20 31 23 3 32 34
split_gain=6.34453 60.8653 34.4338 25.4684 22.8595 7.3781 6.69825 6.21014 4.607 4.16387 3.68692 6.6901 5.18803 5.12921 4.88673 3.49405 3.21965 3.05651 2.68275 2.24127 2.38368 2.10905 3.0602 1.91752 1.83253 1.80792 1.74864 1.72554 1.70099 1.68027
threshold=-0.33012499999999995 -0.10081500000000009 -0.057539999999999918 -1.8692049999999989 -1.5836399999999993 0.0061309900000000011 1.4464300000000001 -2.6817999999999995 0.00071877950000000007 0.00022778250000000003 -10.421199999999997 0.39187000000000044 0.11577400000000002 -0.19603999999999996 0.013046700000000003 5.2253350000000003 5.8194249999999998 6.6946150000000003e-09 8.0184450000000021e-05 -14.605749999999999 0.78599850000000016 0.19727550000000002 0.85052500000000031 0.0032042350000000002 9.1618800000000018 3.1828900000000004 -8.9766299999999983 -7.8286749999999996 0.045418300000000009 2.9757900000000004
decision_type=2 2 2 2 2 2 2 2 2 2 2 2 2 2 2 2 2 2 2 2 2 2 2 2 2 2 2 2 2 2
left_child=-1 -2 5 19 -5 -3 7 -6 -7 15 21 13 27 14 -12 16 18 -16 23 20 -4 -9 -23 25 -19 -10 29 28 -13 -25
right_child=1 2 3 4 6 8 -8 10 9 -11 11 12 -14 -15 17 -17 -18 24 -20 -21 -22 22 -24 26 -26 -27 -28 -29 -30 -31
leaf_value=-0.00031020488336240142 -0.00027384118629063226 -0.00015698099009328235 -0.004744266774505377 -0.00013712875874242396 -0.0024011344039197064 0.00063421490626281189 -0.0012814826076454216 0.0076886564940532561 0.0068253932616132648 -0.00047534581198639979 -0.0041319704410852868 0.0082697350979794425 0.0086974638669441145 0.0077357464491899959 -0.01010360644819836 -0.0023139771281017198 5.2824108374874986e-05 0.0068999013090045901 -0.0055321961726544295 -0.00043715591756730534 0.016396692860871556 0.0093825058662702181 0.017729130108609683 0.013637325206813825 -0.0075216533131859491 0.017843598486233164 0.0062569161811980474 -0.002829993706255556 -0.005105658283676295 0.024188151197331781
leaf_weight=93794 102289 8198 20 1488 177 580 261 1755 155 158 174 79 186 3822 30 63 67 521 21 2338 40 630 133 77 23 49 34 363 34 74
leaf_count=93794 102289 8198 20 1488 177 580 261 1755 155 158 174 79 186 3822 30 63 67 521 21 2338 40 630 133 77 23 49 34 363 34 74
internal_value=0 0.000234945 0.00264994 0.00442056 0.00556376 0.000393879 0.00659978 0.00685928 0.00392749 0.00666402 0.00707077 0.00631421 0.00161655 0.00699471 0.00320826 0.00875294 0.0102146 0.00543335 0.0118752 -0.00019228 0.00934971 0.00864279 0.0108374 0.0128149 0.00629017 0.00947192 0.0165013 -0.00115036 0.00424528 0.0188079
internal_weight=0 123839 21550 12074 9676 9476 8188 7927 1278 698 7750 5232 662 4570 748 540 477 574 410 2398 60 2518 763 389 544 204 185 476 113 151
internal_count=217633 123839 21550 12074 9676 9476 8188 7927 1278 698 7750 5232 662 4570 748 540 477 574 410 2398 60 2518 763 389 544 204 185 476 113 151
shrinkage=0.05


Tree=37
num_leaves=31
num_cat=0
split_feature=40 40 40 43 43 30 4 14 4 4 4 24 24 4 4 34 36 16 34 44 43 43 34 14 43 40 21 43 40 18
split_gain=5.77092 52.6324 33.7475 22.6747 18.0541 5.9079 5.34352 4.83206 4.27062 3.32919 3.25958 8.5195 5.25403 3.18535 4.52202 2.79994 2.54366 4.15114 2.80903 8.17489 3.04119 2.70641 2.61261 2.56941 2.54069 2.45052 2.3809 2.76344 2.26743 2.10665
threshold=-0.3562499999999999 0.10022550000000004 -0.040859549999999939 1.636995 -1.39862 0.0050916450000000005 0.8580755000000001 0.00062372550000000006 -1.6465649999999996 -1.8861499999999998 -0.40498649999999997 -0.48397549999999995 0.65909550000000017 0.18998850000000003 3.3436750000000006 0.4236100000000001 0.14537000000000003 6.0361250000000016e-07 0.10237950000000001 -0.60415499999999989 -0.5126099999999999 0.80790999999999979 0.041331900000000012 0.00034418150000000005 -0.82558500000000012 -0.17527649999999997 -6.7912899999999992 4.3033550000000007 0.056773999999999998 5.4626650000000007e-05
decision_type=2 2 2 2 2 2 2 2 2 2 2 2 2 2 2 2 2 2 2 2 2 2 2 2 2 2 2 2 2 2
left_child=-1 2 5 4 15 -2 8 -7 -6 -9 11 25 -12 -14 26 -4 18 -18 19 -10 22 24 -21 -23 -20 -11 -15 -28 -26 -22
right_child=1 -3 3 -5 6 7 -8 9 16 10 12 -13 13 14 -16 -17 17 -19 21 20 29 23 -24 -25 28 -27 27 -29 -30 -31
leaf_value=-0.00029603565759971822 -4.7110400273776555e-06 -0.00025919726132796683 -0.00062500856013425834 -0.00014627624144197926 -0.00095288545063146118 -1.080667957250539e-05 -0.00032922360376791296 -0.00095897283482675752 -0.0014356830597664517 0.02849179599830445 -0.00011589515072218803 -0.0029541068463697145 4.786183126270771e-06 0.027652977907231875 0.00067256258969957186 0.0064929534334880433 -0.015929965500254186 0.0071322245150804518 0.015999126834304708 -0.0031528537068785494 0.0072620846906921157 0.0030754605896378823 0.0078087536311084102 0.017702816629951653 0.0067374366269411295 0.014483914900851505 0.015887690918477439 -0.0036499239859126864 0.013369812594394979 -0.0075872271632154778
leaf_weight=93727 9499 101579 1208 2233 178 672 281 165 309 47 274 63 72 35 66 156 32 50 95 135 4972 38 91 143 1098 93 131 21 146 24
leaf_count=93727 9499 101579 1208 2233 178 672 281 165 309 47 274 63 72 35 66 156 32 50 95 135 4972 38 91 143 1098 93 131 21 146 24
internal_value=0 0.000223932 0.00242198 0.00436145 0.00548537 0.000473625 0.00643691 0.00324587 0.00669697 0.00550905 0.00683975 0.0123153 0.00498409 0.00928378 0.0119244 0.000189069 0.00688787 -0.00186765 0.00698969 0.00646652 0.00693412 0.00889341 0.00126089 0.0146319 0.00811771 0.0191866 0.0158957 0.0131884 0.00751583 0.00719075
internal_weight=0 123906 22327 11189 8956 11138 7592 1639 7311 967 802 203 599 325 253 1364 7133 82 7051 5531 5222 1520 226 181 1339 140 187 152 1244 4996
internal_count=217633 123906 22327 11189 8956 11138 7592 1639 7311 967 802 203 599 325 253 1364 7133 82 7051 5531 5222 1520 226 181 1339 140 187 152 1244 4996
shrinkage=0.05


Tree=38
num_leaves=31
num_cat=0
split_feature=41 40 41 44 43 39 4 4 43 23 23 43 34 43 34 16 16 36 36 44 19 11 16 19 6 3 34 34 43 39
split_gain=5.23339 50.1277 28.071 20.9962 18.8906 6.14612 5.6107 5.21912 4.60638 3.91699 3.10568 5.43968 4.46532 4.09411 4.30062 3.03633 5.24282 4.1707 3.02302 2.94854 2.74417 2.14671 2.08235 2.59932 2.0702 2.01581 2.144 1.82181 2.81296 1.69322
threshold=-0.33012499999999995 -0.10081500000000009 -0.057539999999999918 -1.8692049999999989 -1.5836399999999993 0.00039785800000000007 1.1247450000000001 -2.6817999999999995 2.1254700000000009 -13.328949999999997 -10.421199999999997 0.39187000000000044 0.11577400000000002 -0.19603999999999996 0.013046700000000003 8.2193200000000006e-07 7.0201950000000013e-05 0.0070919350000000006 0.029614900000000003 2.829940000000001 6.6946150000000003e-09 1.7875200000000005e-05 -5.3401899999999988e-07 0.00047256250000000005 1.2194600000000003e-06 -14.605749999999999 0.78599850000000016 0.19727550000000002 0.85052500000000031 0.053913100000000005
decision_type=2 2 2 2 2 2 2 2 2 2 2 2 2 2 2 2 2 2 2 2 2 2 2 2 2 2 2 2 2 2
left_child=-1 -2 5 25 -5 -3 7 -6 9 24 27 13 -13 14 -12 18 17 -17 22 21 -16 -19 23 -11 -7 26 -4 -9 -29 -10
right_child=1 2 3 4 6 8 -8 10 29 15 11 12 -14 -15 20 16 -18 19 -20 -21 -22 -23 -24 -25 -26 -27 -28 28 -30 -31
leaf_value=-0.00028173478362560279 -0.00024834928331460678 -0.00034624033894722786 -0.0045018627867102626 -0.00014071500095318482 -0.0022543140511644419 0.015210171133188195 -0.00083477399110433231 0.0069932069959008402 -0.00061185544544970676 0.01439476272488913 -0.0039824104896810202 -0.0010982310052803138 0.0080844219814500094 0.0070069005001998676 -0.0096781161101534979 -0.00036685747188693356 -0.0016334089778888676 0.022460798505279753 -0.0021352364231461253 0.0020577609265455977 0.0058592315462801491 0.011276922039346906 -0.00011389617196305893 0.0029017195511617257 0.00074041864624427214 -0.00041682524428327656 0.015548062194138765 0.0085373002269164538 0.016624421709432052 0.0044957564967317565
leaf_weight=93794 102289 7208 20 1488 177 122 291 1752 899 89 172 472 184 3819 30 63 119 90 296 40 539 82 129 110 31 2338 40 622 130 198
leaf_count=93794 102289 7208 20 1488 177 122 291 1752 899 89 172 472 184 3819 30 63 119 90 296 40 539 82 129 110 31 2338 40 622 130 198
internal_value=0 0.000213382 0.00240503 0.00400371 0.0050417 0.000368045 0.0059835 0.00623475 0.00263814 0.00481913 0.00642938 0.00573453 0.00147739 0.00634697 0.00294576 0.00369804 0.00713452 0.0109286 0.00152821 0.0142853 0.00504004 0.017129 0.00483424 0.00804182 0.0122784 -0.000184592 0.00886475 0.00787679 0.00993534 0.000310029
internal_weight=0 123839 21550 12074 9676 9476 8188 7897 2268 1171 7720 5216 656 4560 741 1018 394 275 624 212 569 172 328 199 153 2398 60 2504 752 1097
internal_count=217633 123839 21550 12074 9676 9476 8188 7897 2268 1171 7720 5216 656 4560 741 1018 394 275 624 212 569 172 328 199 153 2398 60 2504 752 1097
shrinkage=0.05


Tree=39
num_leaves=31
num_cat=0
split_feature=40 41 40 44 44 30 14 4 4 4 44 44 4 24 24 4 15 34 41 21 21 44 3 44 20 20 44 34 39 14
split_gain=4.75848 43.1839 27.2203 18.6564 14.8945 5.25502 4.30905 4.13842 3.40299 2.98877 2.73605 3.33879 2.47367 6.6896 3.89996 4.45961 3.08559 2.38747 2.37713 2.34775 3.10205 2.15433 2.00601 5.8085 3.59734 2.34419 2.05516 2.43724 1.87473 3.23945
threshold=-0.3562499999999999 -0.10141500000000002 -0.040859549999999939 -1.6465599999999998 1.2052499999999997 0.0050916450000000005 0.00062372550000000006 0.92648250000000021 -2.6817999999999995 -2.6817999999999995 5.6353000000000018 -3.1532349999999991 -0.42458499999999993 -0.53669549999999988 0.62895050000000008 0.17191050000000002 -3.4995899999999995e-05 0.34287850000000003 0.12358499999999996 4.6258850000000011 -4.5569299999999986 3.7911450000000002 -7.4497099999999987 -0.27579999999999932 -12.926599999999999 13.501750000000001 0.27512500000000012 0.018950700000000004 0.010368050000000002 0.0022785850000000005
decision_type=2 2 2 2 2 2 2 2 2 2 2 2 2 2 2 2 2 2 2 2 2 2 2 2 2 2 2 2 2 2
left_child=-1 -2 5 28 7 -3 -7 8 -5 -8 11 -11 13 18 -14 -16 -17 -6 -13 20 -19 -22 -10 24 -24 -26 -25 -28 -4 -30
right_child=1 2 3 4 17 6 9 -9 22 10 -12 12 14 -15 15 16 -18 19 -20 -21 21 -23 23 26 25 -27 27 -29 29 -31
leaf_value=-0.00026881640819306622 -0.00023481604550591197 -1.0805540508919393e-05 -0.00066270461323742109 -0.0019306768372189254 -0.0005126141819317057 -2.0474414937087291e-05 -0.0016498746357789776 -0.00047449055694802426 0.0067884925995160455 0.0021752354626288352 -0.0013910717376978091 0.01278344760225578 0.00051833002502448802 -0.0046908613318330889 -0.0031801000432392888 -0.00056154923679839291 0.017473590583089862 -0.0023806192297884761 0.026907174443969364 -0.0050345315642300109 0.016699860981177716 -0.00087644605135375807 0.018545019067823888 0.0065654928382015603 -0.0024385734060623997 0.012316542150902339 -0.0086171946579124779 0.0066355437243526636 -0.00024613818532960146 0.011521596100388302
leaf_weight=93727 101534 9499 1992 131 1247 672 137 251 4799 216 101 55 133 34 43 28 155 47 65 42 84 22 24 1829 375 29 50 55 167 90
leaf_count=93727 101534 9499 1992 131 1247 672 137 251 4799 216 101 55 133 34 43 28 155 47 65 42 84 22 24 1829 375 29 50 55 167 90
internal_value=0 0.000203342 0.0021919 0.0039285 0.00494792 0.000440327 0.00305491 0.00583801 0.0060553 0.0051921 0.00632144 0.00738998 0.00958566 0.0148868 0.00731163 0.0113095 0.0147141 0.000291912 0.0204338 0.00543675 0.00831122 0.0130519 0.00620139 0.00500854 -0.000262161 -0.00137942 0.00617496 -0.000627665 -0.000144184 0.00387486
internal_weight=0 123906 22372 11234 8985 11138 1639 7543 7292 967 830 729 513 154 359 226 183 1442 120 195 153 106 7161 2362 428 404 1934 105 2249 257
internal_count=217633 123906 22372 11234 8985 11138 1639 7543 7292 967 830 729 513 154 359 226 183 1442 120 195 153 106 7161 2362 428 404 1934 105 2249 257
shrinkage=0.05


Tree=40
num_leaves=31
num_cat=0
split_feature=41 40 41 44 44 30 4 4 44 16 36 36 16 4 34 44 43 4 6 33 4 44 30 44 20 39 20 4 4 38
split_gain=4.31785 41.2985 22.7937 17.2633 15.6399 5.95511 4.89247 4.79915 3.9598 3.6 5.50009 3.90474 3.43239 2.99052 2.87711 8.19481 4.5284 2.91224 2.78974 2.64059 2.57006 2.40851 3.7297 2.93797 2.27492 2.25557 1.99162 1.89273 1.95832 1.81636
threshold=-0.33012499999999995 -0.10081500000000009 -0.057539999999999918 -1.8692049999999989 1.7569350000000001 0.0061309900000000011 1.4464300000000001 -1.6465649999999996 -4.4138449999999994 9.6924450000000025e-07 0.029614900000000003 0.0037576550000000004 7.0201950000000013e-05 -0.29052249999999996 0.093126650000000019 -0.64641000000000026 -0.56159999999999977 -0.58642949999999983 -5.7203749999999994e-08 0.00010607400000000001 0.41110300000000005 -0.77194499999999999 0.030440600000000005 0.81788000000000027 -3.4870349999999992 0.053913100000000005 4.1736500000000012 0.24725400000000003 1.6690850000000002 -0.0015147749999999997
decision_type=2 2 2 2 2 2 2 2 2 2 2 2 2 2 2 2 2 2 2 2 2 2 2 2 2 2 2 2 2 2
left_child=-1 -2 5 -4 6 -3 7 -5 -7 10 13 -11 18 -10 15 -9 29 -18 25 -20 -19 -16 23 -23 -25 -13 -26 -15 -29 -17
right_child=1 2 3 4 -6 8 -8 14 9 11 -12 12 -14 27 21 16 17 20 19 -21 -22 22 -24 24 26 -27 -28 28 -30 -31
leaf_value=-0.00025590724062798047 -0.00022527916902934054 -0.00014733358097479977 -0.00017407663928514178 -0.0012541052157550765 -0.0003022678611232034 -0.00045578392000780222 -0.0011497850831590874 -0.0019350112546383605 0.016744737438857554 -0.00018945121982445322 -0.0017111771901651323 0.017485747354683178 0.0015509808610938937 0.00098844234284985329 0.011716798126360058 0.013166214299218899 -0.0089390816516242925 0.0063038827507724583 0.018756223376840353 0.0026633245727190609 -0.0050881187461782251 0.0062929887847856542 -0.014176191655652865 -0.0013662509076918165 0.017369147665474729 0.035451812356710431 0.0011703591301656243 0.017336305344234342 -0.001090959523294476 -0.0018342672596011909
leaf_weight=93794 102289 8198 2398 246 1410 420 276 369 75 75 289 58 52 115 287 22 32 5040 50 52 50 1495 21 24 138 25 22 46 21 244
leaf_count=93794 102289 8198 2398 246 1410 420 276 369 75 75 289 58 52 115 287 22 32 5040 50 52 50 1495 21 24 138 25 22 46 21 244
internal_value=0 0.000193821 0.00218312 0.00362371 0.00456491 0.000347562 0.00539515 0.00562123 0.00352218 0.00546943 0.00302116 0.00975389 0.0129005 0.00834275 0.00583963 0.00527344 0.00576711 0.00609744 0.0160907 0.010552 0.00619198 0.00748009 0.00676483 0.00702675 0.0129886 0.0228972 0.0151418 0.00488039 0.0115606 -0.000593626
internal_weight=0 123839 21550 12074 9676 9476 8266 7990 1278 858 546 312 237 257 7744 5757 5388 5122 185 102 5090 1987 1700 1679 184 83 160 182 67 266
internal_count=217633 123839 21550 12074 9676 9476 8266 7990 1278 858 546 312 237 257 7744 5757 5388 5122 185 102 5090 1987 1700 1679 184 83 160 182 67 266
shrinkage=0.05


Tree=41
num_leaves=31
num_cat=0
split_feature=40 41 40 43 43 39 14 4 4 4 4 43 43 3 44 34 30 4 38 37 24 14 16 36 36 20 14 44 34 21
split_gain=3.92405 35.4494 22.035 15.4746 12.0935 4.74407 4.44198 4.26016 3.70126 3.13705 3.63162 4.15828 3.50439 2.38468 3.06524 4.84109 3.0933 3.38357 2.36256 2.14062 2.02018 1.89681 1.89933 3.37181 3.16813 1.72917 2.06867 1.71848 4.04261 2.72796
threshold=-0.3562499999999999 -0.10141500000000002 -0.040859549999999939 1.9002500000000004 -1.7757399999999997 0.00095358200000000002 0.00062372550000000006 0.8580755000000001 -1.6465649999999996 -1.4133199999999999 1.6690850000000002 -3.376385 3.129045000000001 -12.585899999999999 -0.27579999999999932 0.046494550000000003 0.008423845000000001 -0.42458499999999993 -0.076179349999999993 4.7478300000000009e-05 1.2323400000000002 0.0090263400000000025 8.9452450000000012e-07 0.041913150000000003 0.020652350000000003 -10.065 0.00012403000000000004 0.23534999999999953 0.014727600000000002 7.3737850000000007
decision_type=2 2 2 2 2 2 2 2 2 2 2 2 2 2 2 2 2 2 2 2 2 2 2 2 2 2 2 2 2 2
left_child=-1 -2 5 4 -4 -3 -7 8 -6 -8 11 -11 21 -10 15 -15 27 -18 -9 -14 -12 22 23 -13 -24 -17 -27 -16 -29 -30
right_child=1 2 3 -5 7 6 9 18 13 10 20 12 19 14 16 25 17 -19 -20 -21 -22 -23 24 -25 -26 26 -28 28 29 -31
leaf_value=-0.00024411163327625488 -0.00021233087623536001 -7.645686835033619e-05 -0.0001378359042302552 -0.00030896539652295685 -0.00099606275296404314 -0.00021096782470385349 -0.00045990030912398364 0.015081855600051906 0.0075373062234447494 6.2814714318675389e-05 -0.0012010526268464907 0.0113071727207736 9.1333678305274309e-05 -0.00064894486142107644 0.0062194674931929251 0.013988313541488082 0.0098897224735646026 -0.015497070912803924 -0.001528813463728423 0.016185853062430398 0.012102318467628777 0.021281153999734671 0.0021247192823256439 -0.0033898878680050093 0.018373140774022502 -0.0038925627777516322 0.006241665937273798 -0.0038300485687558445 0.0065427940906844133 -0.007030971327330918
leaf_weight=93727 101534 9110 1245 2111 219 831 248 23 1306 143 211 148 119 529 4203 61 21 35 309 25 33 48 39 53 130 57 432 147 496 40
leaf_count=93727 101534 9110 1245 2111 219 831 248 23 1306 143 211 148 119 529 4203 61 21 35 309 25 33 48 39 53 130 57 432 147 496 40
internal_value=0 0.000184655 0.00198635 0.00354882 0.00444148 0.000410417 0.00259751 0.00516518 0.00540906 0.00454725 0.00585576 0.00767541 0.00961242 0.00560051 0.0051804 0.002766 0.00570754 -0.00597702 -0.000378074 0.00288552 0.000598174 0.0119298 0.0107167 0.00743183 0.0146235 0.00605056 0.00506038 0.00584146 0.00351533 0.00552983
internal_weight=0 123906 22372 11234 9123 11138 2028 7878 7546 1197 949 705 562 7327 6021 1079 4942 56 332 144 244 418 370 201 169 550 489 4886 683 536
internal_count=217633 123906 22372 11234 9123 11138 2028 7878 7546 1197 949 705 562 7327 6021 1079 4942 56 332 144 244 418 370 201 169 550 489 4886 683 536
shrinkage=0.05


Tree=42
num_leaves=31
num_cat=0
split_feature=41 40 41 44 44 30 4 4 44 16 36 36 4 19 23 44 30 44 21 21 20 20 38 21 44 3 34 20 34 44
split_gain=3.56394 33.9595 18.3933 14.1371 12.8834 5.35949 4.06303 3.93484 3.54585 3.23234 4.96474 3.51414 3.12263 3.116 2.53296 3.94709 3.44069 3.19657 3.70138 4.20264 3.48187 3.71075 2.16928 1.90384 2.31182 1.74083 1.87476 1.66144 1.63499 1.96761
threshold=-0.33012499999999995 -0.10081500000000009 -0.057539999999999918 -1.8692049999999989 1.7569350000000001 0.0061309900000000011 2.2539600000000006 -1.6465649999999996 -4.4138449999999994 9.6924450000000025e-07 -0.0071753399999999997 0.0037576550000000004 -0.29052249999999996 0.00014657100000000002 -10.311099999999998 -0.47859499999999983 0.0031784400000000007 0.19419999999999996 9.5666150000000023 -7.7245449999999991 9.1618800000000018 -7.7125999999999992 -0.11222949999999998 -5.1476249999999988 0.55624500000000021 -14.605749999999999 0.78599850000000016 -11.463149999999997 0.19727550000000002 -0.8551649999999994
decision_type=2 2 2 2 2 2 2 2 2 2 2 2 2 2 2 2 2 2 2 2 2 2 2 2 2 2 2 2 2 2
left_child=-1 -2 5 25 6 -3 7 -5 -7 10 12 -11 -10 -13 28 16 27 -17 19 -19 21 -21 -15 24 -14 26 -4 -16 -9 -30
right_child=1 2 3 4 -6 8 -8 14 9 11 -12 13 23 22 15 17 -18 18 -20 20 -22 -23 -24 -25 -26 -27 -28 -29 29 -31
leaf_value=-0.00023249532883269685 -0.0002039528804597258 -0.00013838406635824818 -0.0042523641511797907 -0.0011583513192477783 -0.00029167619621561151 -0.00042151536520880956 -0.0016439970034361037 0.0057193304395978589 0.017541194095540402 -0.00018767331711327039 -0.0012020726650168595 0.019827192500883412 0.020661080833242248 0.017401318018173063 0.012285730410699866 0.0056997486295544504 0.007802272142970381 -0.0066816064074605788 -0.0098552989100611187 -0.0047800309352681669 -0.0065837064112025893 0.0074507829502738106 0.0041221797382739308 0.00086275840279304928 -0.00026367526205087254 -0.00037848758424605962 0.014496428798884154 -0.0021286754988391996 0.014074793334763783 0.0073337713029045602
leaf_weight=93794 102289 8198 20 246 1410 420 232 1809 67 75 316 86 33 43 21 3858 131 94 59 71 62 490 108 108 22 2338 40 416 130 647
leaf_count=93794 102289 8198 20 246 1410 420 232 1809 67 75 316 86 33 43 21 3858 131 94 59 71 62 490 108 108 22 2338 40 416 130 647
internal_value=0 0.000176089 0.00197999 0.00327408 0.00412581 0.000331111 0.00487933 0.00506771 0.00334278 0.00518545 0.00286556 0.00924524 0.00845414 0.0122303 0.00526437 0.0046286 0.000694664 0.00511079 0.0021827 0.00317328 0.00466021 0.00590285 0.00790366 0.00471897 0.0122912 -0.000162675 0.00824683 -0.00143599 0.00654329 0.00846161
internal_weight=0 123839 21550 12074 9676 9476 8266 8034 1278 858 546 312 230 237 7788 5202 568 4634 776 717 623 561 151 163 55 2398 60 437 2586 777
internal_count=217633 123839 21550 12074 9676 9476 8266 8034 1278 858 546 312 230 237 7788 5202 568 4634 776 717 623 561 151 163 55 2398 60 437 2586 777
shrinkage=0.05


Tree=43
num_leaves=31
num_cat=0
split_feature=43 43 40 41 4 4 3 44 37 16 14 16 32 40 15 20 39 41 44 40 30 40 44 19 16 3 30 43 43 34
split_gain=3.25229 10.9464 11.0273 47.6978 4.60725 4.61813 3.39532 6.33238 2.38163 2.81882 2.22058 2.05943 1.73657 2.82252 1.86678 1.62939 1.55659 3.21586 3.13175 2.0248 2.16568 2.01521 1.92255 1.36301 1.33229 1.31923 1.2953 1.23906 1.15255 1.57719
threshold=1.2296250000000011 -0.5126099999999999 -0.25142799999999998 -0.15132349999999997 1.7937450000000001 -1.5265699999999998 -7.5181649999999989 -0.16918499999999967 3.2072350000000002e-07 3.1167400000000004e-07 0.00018327650000000005 -4.2565349999999989e-06 -1.3507849999999997 0.43531000000000003 2.6249650000000004e-07 -12.926599999999999 2.0374000000000002e-05 0.057875000000000128 -0.8551649999999994 0.056773999999999998 0.010273350000000002 -0.040859549999999939 -0.68809499999999957 2.562600000000001e-07 -1.0656299999999998e-05 -5.946604999999999 0.043133650000000003 0.31279500000000043 -0.12174999999999957 0.01182295
decision_type=2 2 2 2 2 2 2 2 2 2 2 2 2 2 2 2 2 2 2 2 2 2 2 2 2 2 2 2 2 2
left_child=1 -1 -3 12 5 -5 16 8 15 10 -10 -9 13 14 -4 -8 17 22 -18 21 23 24 -7 -21 -20 -11 -2 -17 29 -13
right_child=26 2 3 4 -6 6 7 11 9 25 -12 28 -14 -15 -16 27 18 -19 19 20 -22 -23 -24 -25 -26 -27 -28 -29 -30 -31
leaf_value=-0.000168480244206864 -0.00023492031711199336 -0.00020911871658072466 0.0072684584995537692 -0.0011127075549508991 -0.0012945043007695201 -0.002722968220789458 0.010778966144626511 -0.010009183282752267 -0.0070895994151447053 0.0088913194349278576 0.010902763323651421 -0.0020458897436991062 -0.00021587196927826398 0.00085080454632870659 0.02515066564548761 0.0018064974848411781 0.013512616975777695 -0.0019971340096209388 0.019990155019797385 0.0019718109701688472 -0.0039721764624118805 0.0048376320104859642 0.005618591691287647 0.014299145392056532 0.0080788101040903341 0.024015760989416213 0.00072301952168059454 -0.002610197794585086 0.0058833803356982666 0.0053679020693921976
leaf_weight=74578 100712 14720 54 324 329 71 29 22 47 46 27 116 15055 226 20 226 159 156 25 26 22 1459 2548 163 385 21 3657 534 1688 188
leaf_count=74578 100712 14720 54 324 329 71 29 22 47 46 27 116 15055 226 20 226 159 156 25 26 22 1459 2548 163 385 21 3657 534 1688 188
internal_value=0 0.000185542 0.000868018 0.0015296 0.00450825 0.00473876 0.004977 0.00362918 0.000216675 0.00620209 -0.000524818 0.00520496 -0.000140812 0.00362597 0.0121015 -0.000852962 0.00576838 0.00497704 0.00674915 0.00623213 0.0108751 0.00570797 0.00539246 0.0126033 0.00880511 0.0136318 -0.000201355 -0.00129681 0.00537299 0.00253896
internal_weight=0 113264 38686 23966 8611 8282 7958 2944 930 141 74 2014 15355 300 74 789 5014 2775 2239 2080 211 1869 2619 189 410 67 104369 760 1992 304
internal_count=217633 113264 38686 23966 8611 8282 7958 2944 930 141 74 2014 15355 300 74 789 5014 2775 2239 2080 211 1869 2619 189 410 67 104369 760 1992 304
shrinkage=0.05


Tree=44
num_leaves=31
num_cat=0
split_feature=40 41 40 44 43 30 4 14 4 13 23 44 30 24 38 43 43 20 14 16 16 16 36 40 43 30 36 44 39 19
split_gain=2.96566 26.6012 16.1407 11.6666 8.87429 4.11729 3.4428 3.41534 2.91608 2.3839 2.21711 3.28606 3.61158 2.80196 2.00777 1.86517 2.4869 1.83262 2.59357 1.77382 2.42886 1.76264 4.60831 1.76836 1.75178 2.72054 1.67486 1.57768 1.53281 1.81592
threshold=-0.3562499999999999 -0.10141500000000002 -0.040859549999999939 -2.1380549999999996 -1.7757399999999997 0.0050916450000000005 0.8580755000000001 0.00062372550000000006 -1.5265699999999998 0.00011169250000000001 -12.100849999999999 -0.27579999999999932 0.00027963700000000006 0.69957950000000013 -0.076179349999999993 -5.5958699999999988 5.0027350000000004 -11.988849999999998 0.00016757500000000002 -4.7504049999999995e-05 -1.3281999999999998e-05 8.9452450000000012e-07 0.069832100000000022 -0.14969009999999991 0.85052500000000031 0.00049555400000000015 0.12161000000000001 0.7622899999999998 0.0048254100000000013 0.0024905200000000004
decision_type=2 2 2 2 2 2 2 2 2 2 2 2 2 2 2 2 2 2 2 2 2 2 2 2 2 2 2 2 2 2
left_child=-1 -2 5 -4 28 -3 8 -7 -6 15 24 12 -12 -13 -8 -9 19 -14 -19 -17 -21 26 -23 -24 27 -26 -22 -10 -5 -30
right_child=1 2 3 4 6 7 14 9 10 -11 11 13 17 -15 -16 16 -18 18 -20 20 21 22 23 -25 25 -27 -28 -29 29 -31
leaf_value=-0.00021221798751246869 -0.00018336202463720304 -2.6846708297411889e-05 -0.00040475625638897086 -0.0006168130376358427 -0.0007944093315733528 -5.1171237746097008e-05 0.013832591494302389 -0.0011378474925340225 0.0055046948702281474 0.00063126563956970524 -0.0020561564135086405 0.0050213944473584812 0.013801707029342653 -0.01005910176543459 -0.0014540122083977064 -0.0032177942688576878 0.0011284935200447982 -0.0017197863657161458 0.0054258681796714925 0.019814969277849384 0.007469002830921047 0.0014456016170851247 0.023258516394880493 0.011878290220543191 -0.0041183167704097598 0.014593215738236904 -0.0034158358008426152 0.012248948198412697 0.014651833394089262 0.00037719072175345253
leaf_weight=93727 101534 9499 1999 1152 239 672 23 78 1283 273 380 4807 45 31 325 29 137 179 437 51 134 77 59 81 23 125 48 93 37 56
leaf_count=93727 101534 9499 1999 1152 239 672 23 78 1283 273 380 4807 45 31 325 29 137 179 437 51 134 77 59 81 23 125 48 93 37 56
internal_value=0 0.000160529 0.00172126 0.00305852 0.00380818 0.000372475 0.00442001 0.00268678 0.00464149 0.00458948 0.00481698 0.00437643 0.00182805 0.00492476 -0.000443691 0.00614653 0.0070689 0.00406103 0.00334945 0.00876793 0.00954034 0.00822705 0.0112705 0.0166742 0.00651647 0.0116853 0.00459828 0.00596052 -0.000118336 0.00605635
internal_weight=0 123906 22372 11234 9235 11138 7990 1639 7642 967 7403 5879 1041 4838 348 694 616 661 616 479 450 399 217 140 1524 148 182 1376 1245 93
internal_count=217633 123906 22372 11234 9235 11138 7990 1639 7642 967 7403 5879 1041 4838 348 694 616 661 616 479 450 399 217 140 1524 148 182 1376 1245 93
shrinkage=0.05


Tree=45
num_leaves=31
num_cat=0
split_feature=41 40 41 43 43 39 4 43 4 23 16 16 36 0 36 34 43 14 43 43 43 36 4 16 19 4 4 4 41 29
split_gain=2.69674 25.5519 13.5368 10.6885 9.57586 4.40497 3.36016 3.30644 3.21669 2.68991 2.46351 4.06818 3.37184 2.76114 2.48588 2.41944 5.65854 3.16785 3.50235 3.11688 2.74195 2.6063 2.37298 2.34433 3.12276 2.10432 1.91906 2.16029 1.91637 1.82453
threshold=-0.33012499999999995 -0.10081500000000009 -0.057539999999999918 2.1254700000000009 -1.7757399999999997 0.00039785800000000007 1.1247450000000001 2.9569100000000006 -1.6465649999999996 -13.328949999999997 8.2193200000000006e-07 7.0201950000000013e-05 0.0070919350000000006 -4.2353699999999987 -0.013126049999999998 0.093126650000000019 0.64319500000000052 0.00026773650000000009 0.80790999999999979 -0.56159999999999977 -0.82558500000000012 -0.040164599999999995 -0.58642949999999983 -6.8546449999999991e-07 0.0032667350000000002 0.41110300000000005 0.21050500000000003 -0.17044799999999996 0.078754999999999922 -0.15264749999999996
decision_type=2 2 2 2 2 2 2 2 2 2 2 2 2 2 2 2 2 2 2 2 2 2 2 2 2 2 2 2 2 2
left_child=-1 -2 5 4 -4 -3 8 9 -6 -7 14 12 -12 -14 23 16 19 21 20 -10 -19 -17 -21 24 29 -24 27 -23 -22 -11
right_child=1 2 3 -5 6 7 -8 -9 15 10 11 -13 13 -15 -16 17 -18 18 -20 22 28 26 25 -25 -26 -27 -28 -29 -30 -31
leaf_value=-0.00020224043174206844 -0.00017648242385429191 -0.00030133395771336975 -0.00028439892508081571 -0.0002745046448164715 -0.0010278176790866143 0.0094838035109712452 -0.00079811919184379413 -1.2073701411838431e-06 -0.00078351069288633507 0.026240692082792522 -0.00023763242645319935 -0.0015962017880026128 0.024414035962208324 0.0096432098047068669 -0.0012948658787230224 -0.01730649498756975 -0.001516410199335625 0.01174936032401664 0.012401328253451848 -0.0088151290954556327 0.0047362795240231499 0.011346876325792281 0.004939601615711605 -0.0014519726933753022 -0.0022623147797204701 -0.0059209321553094522 0.013726190823529447 -0.0041185595302879081 0.013865541890263559 0.0097998687412419478
leaf_weight=93794 102289 7208 1402 2257 266 183 326 961 267 20 73 126 38 189 422 20 424 175 233 32 1371 29 5037 97 51 45 28 102 60 108
leaf_count=93794 102289 7208 1402 2257 266 183 326 961 267 20 73 126 38 189 422 20 424 175 233 32 1371 29 5037 97 51 45 28 102 60 108
internal_value=0 0.000153174 0.00171792 0.00282809 0.0035414 0.000303371 0.00417881 0.0022252 0.00437939 0.00386221 0.00294696 0.00594327 0.00910984 0.0121159 0.00111826 0.00456325 0.0040448 0.0060546 0.00667266 0.00448301 0.00584154 -0.000295141 0.00475797 0.0048079 0.00820012 0.00484343 0.00184465 -0.000694913 0.00511906 0.0123687
internal_weight=0 123839 21550 12074 9817 9476 8415 2268 8089 1307 1124 426 300 227 698 7823 5805 2018 1839 5381 1606 179 5114 276 179 5082 159 131 1431 128
internal_count=217633 123839 21550 12074 9817 9476 8415 2268 8089 1307 1124 426 300 227 698 7823 5805 2018 1839 5381 1606 179 5114 276 179 5082 159 131 1431 128
shrinkage=0.05


Tree=46
num_leaves=31
num_cat=0
split_feature=41 41 40 44 43 39 14 4 4 23 44 30 24 38 20 14 4 4 24 40 24 4 4 43 43 44 20 20 34 20
split_gain=2.45921 19.033 15.775 9.584 7.25588 4.13902 3.08068 2.85182 2.40306 1.9792 2.9548 3.07634 2.63671 1.74774 1.7238 2.08671 1.54972 2.46862 3.93997 2.21958 1.71982 2.33588 2.454 1.93921 1.46706 1.4412 3.42649 2.95527 1.89071 1.43743
threshold=0.46135450000000006 -0.10141500000000002 -0.040859549999999939 -2.1380549999999996 -1.7757399999999997 0.029330700000000005 0.00047127200000000006 0.8580755000000001 -2.6817999999999995 -12.100849999999999 -0.27579999999999932 0.00027963700000000006 0.69957950000000013 -0.076179349999999993 -10.617499999999998 0.00016757500000000002 -2.6817999999999995 -0.81164199999999986 -0.88671549999999988 -0.17527649999999997 0.69957950000000013 0.36048500000000006 4.1822950000000008 0.27381999999999979 1.7675950000000007 0.23534999999999953 8.1756000000000011 -7.7125999999999992 0.013046700000000003 10.727950000000002
decision_type=2 2 2 2 2 2 2 2 2 2 2 2 2 2 2 2 2 2 2 2 2 2 2 2 2 2 2 2 2 2
left_child=1 -1 5 -4 -5 -3 -7 8 -6 24 11 -11 25 -9 -13 29 -8 18 19 -18 -19 -22 23 -23 -10 -12 27 -27 -29 -16
right_child=-2 2 3 4 7 6 16 13 9 10 12 14 -14 -15 15 -17 17 20 -20 -21 21 22 -24 -25 -26 26 -28 28 -30 -31
leaf_value=-0.00016572091993754959 -0.00019931500104675712 8.0788321144624511e-05 -0.00037569384587478604 -0.00010772057911792554 -0.0015274927358222053 -0.00031512157884814468 -0.0010564116594095039 0.012889146626643514 0.0057033714066137822 -0.001972790796043491 0.0049000236597761078 0.011079820130101364 -0.0098628538136836148 -0.0013732635282571069 -0.0042544509791375331 0.004585858913402672 0.032726897326587089 0.001367522567161359 -0.0021723184720030988 0.012170907272957266 0.00062744679576448668 0.026817306644721508 -0.00049676770383181679 0.01120994831241357 0.016360511314688308 -0.006511944288638636 -0.00803355001611635 -0.0023720891802732685 0.0058534661244681683 0.0072397409962243675
leaf_weight=101534 90444 13775 1999 1245 179 240 54 23 1507 394 4103 69 32 325 136 431 29 120 21 24 52 34 24 48 33 65 70 81 508 34
leaf_count=101534 90444 13775 1999 1245 179 240 54 23 1507 394 4103 69 32 325 136 431 29 120 21 24 52 34 24 48 33 65 70 81 508 34
internal_value=0 0.000141733 0.00135853 0.00276328 0.00344274 0.000264227 0.00417579 0.00399598 0.00419756 0.00433487 0.00391968 0.00153316 0.00444227 -0.000430633 0.00359486 0.00273553 0.00683052 0.00804044 0.0161563 0.0234185 0.00588012 0.00930741 0.0135655 0.0176813 0.00593174 0.0045371 0.00248038 0.00360573 0.00472228 -0.00195561
internal_weight=0 127189 25655 11234 9235 14421 646 7990 7642 7463 5923 1064 4859 348 670 601 406 352 74 53 278 158 106 82 1540 4827 724 654 589 170
internal_count=217633 127189 25655 11234 9235 14421 646 7990 7642 7463 5923 1064 4859 348 670 601 406 352 74 53 278 158 106 82 1540 4827 724 654 589 170
shrinkage=0.05


Tree=47
num_leaves=31
num_cat=0
split_feature=41 40 43 44 41 34 23 30 14 13 20 4 16 15 35 38 17 44 39 33 30 40 43 4 4 26 36 12 16 43
split_gain=2.2284 21.1125 11.1098 13.2524 4.83371 8.98797 3.31888 2.39218 2.37215 2.62024 2.42932 2.21922 2.06954 1.98792 1.94353 2.00291 2.10697 1.89245 1.8336 1.68468 1.67366 1.76376 1.66433 1.59315 1.58604 1.57066 1.64087 1.56749 1.5241 1.4431
threshold=-0.33012499999999995 -0.10081500000000009 2.1254700000000009 0.6060099999999996 -0.026150000000000003 0.21701850000000003 -11.970249999999998 0.043133650000000003 0.00038378800000000009 0.00021504100000000004 -5.585399999999999 -0.15847949999999997 3.3134750000000005e-06 -2.1368049999999996e-05 0.67406600000000017 0.22632500000000003 -4.4627499999999989e-06 -0.20255000000000042 4.6016000000000008e-05 4.8167950000000007e-05 0.00031693400000000005 0.12375499999999996 4.8349600000000006 2.5139300000000007 0.22808000000000003 0.069955350000000013 -0.23644799999999996 -7.213659999999999e-05 -9.2257149999999992e-07 1.0196000000000003
decision_type=2 2 2 2 2 2 2 2 2 2 2 2 2 2 2 2 2 2 2 2 2 2 2 2 2 2 2 2 2 2
left_child=-1 -2 3 4 5 17 13 -4 11 10 27 19 -9 -5 15 16 -6 -3 -15 -7 -19 -22 -14 -18 -13 26 28 -10 -8 -29
right_child=1 2 7 6 14 8 25 12 9 -11 -12 24 22 18 -16 -17 23 20 -20 -21 21 -23 -24 -25 -26 -27 -28 29 -30 -31
leaf_value=-0.00018384236369431962 -0.00016041436284104432 -0.00056640603201332698 -0.0004861108369388947 -0.0035018538909130977 -0.0017325201650045961 0.00079895717402299251 0.017852569771154472 0.0018019998090112233 0.0039730012416839605 -0.0022619787546968189 0.0073857199970114688 -0.0044076578346979763 0.019678193732055232 0.00086102582674449802 -0.011473987172357739 0.01955318543173018 0.0043194178919004778 -3.4882853347151685e-05 0.0075378589286006388 0.020386573907149874 0.0059950521010097855 -0.00034647153303152527 0.0040335696519297713 -0.001948081983538182 0.010932208698359319 0.010856240779867223 -0.00035081153570891568 0.01456356777707697 -0.00036704421297393061 0.028532501256379947
leaf_weight=93794 102289 1717 5720 76 152 21 24 207 23 56 431 107 34 157 20 21 6499 454 298 23 369 156 34 103 20 32 4684 64 22 26
leaf_count=93794 102289 1717 5720 76 152 21 24 207 23 56 431 107 34 157 20 21 6499 454 298 23 369 156 34 103 20 32 4684 64 22 26
internal_value=0 0.00013924 0.00156157 0.00226636 0.0033145 0.00179531 0.000234254 -0.000267113 0.00655585 0.00803644 0.00909658 0.00136078 0.00428805 0.00398366 0.00408963 0.00413557 0.00408764 0.00043389 0.00523398 0.0110379 0.00218824 0.00411071 0.0118559 0.00422164 -0.00199193 -0.000183833 -0.000258523 0.0156221 0.00913884 0.018599
internal_weight=0 123839 21550 15555 10262 3467 5293 5995 771 600 544 171 275 531 6795 6775 6754 2696 455 44 979 525 68 6602 127 4762 4730 113 46 90
internal_count=217633 123839 21550 15555 10262 3467 5293 5995 771 600 544 171 275 531 6795 6775 6754 2696 455 44 979 525 68 6602 127 4762 4730 113 46 90
shrinkage=0.05


Tree=48
num_leaves=31
num_cat=0
split_feature=41 41 40 44 44 39 3 4 16 23 4 3 44 20 14 16 37 38 24 30 44 25 40 44 4 26 4 44 44 34
split_gain=2.03539 15.6036 12.7525 7.84733 5.86153 3.72133 2.83028 2.40487 2.17002 2.95776 1.99465 1.72322 3.53561 2.60936 1.60145 1.71822 1.57292 1.51668 1.34784 1.34935 2.83295 1.83614 2.26286 1.81679 1.71826 1.54039 1.96846 1.50328 1.4148 1.3386
threshold=0.46135450000000006 -0.10141500000000002 -0.040859549999999939 -2.1380549999999996 1.7569350000000001 0.029330700000000005 -11.279499999999997 0.8580755000000001 1.8237450000000004e-06 -8.9454249999999984 -2.6817999999999995 -7.4497099999999987 -0.27579999999999932 -12.926599999999999 0.0090263400000000025 6.4713950000000014e-05 -1.1844749999999999e-05 -0.076179349999999993 0.91519300000000003 0.00060913050000000011 -0.8551649999999994 11.782150000000001 0.056773999999999998 0.81788000000000027 -0.20278049999999997 0.00018073150000000004 -0.15847949999999997 -0.98309000000000013 0.71026 0.33174250000000005
decision_type=2 2 2 2 2 2 2 2 2 2 2 2 2 2 2 2 2 2 2 2 2 2 2 2 2 2 2 2 2 2
left_child=1 -1 5 -4 7 -3 14 10 -8 -10 -5 16 13 -13 -7 -16 -12 -9 19 27 29 22 23 -22 -23 -24 -27 -18 -29 -21
right_child=-2 2 3 4 -6 6 8 17 9 -11 11 12 -14 -15 15 -17 18 -19 -20 20 21 24 25 -25 -26 26 -28 28 -30 -31
leaf_value=-0.00014943727994381613 -0.00018132853211774705 7.2841770724428983e-05 -0.00034667358758406022 -0.0014527834151154863 -6.7883299819501759e-05 0.0049854897600771107 -0.00044739063331316492 0.011943955549403378 0.0025470397101616045 0.019162684506610843 0.018108792514318513 0.014705968458348742 0.0038351559171009085 -0.0015310504841595574 0.019010316250757477 0.0037408730784793281 -0.002442890646204393 -0.0013436183607507808 -0.0071845301911234857 0.0052756638037400293 0.0039218002197232357 0.0030456649884581569 0.014296961349443854 0.010558589759686616 -0.015874474719166757 0.010690018763257699 -0.0076275410596281295 0.0042538626362474902 -0.0012379344357139447 0.014581476375460626
leaf_weight=101534 90444 13775 1999 177 1255 108 319 23 97 37 21 26 1938 512 58 27 92 324 25 57 1179 30 107 113 20 44 22 3028 122 120
leaf_count=101534 90444 13775 1999 177 1255 108 319 23 97 37 21 26 1938 512 58 27 92 324 25 57 1179 30 107 113 20 44 22 3028 122 120
internal_value=0 0.000128943 0.00123068 0.0024937 0.00310853 0.000246779 0.00395573 0.00360808 0.00179551 0.00713494 0.00379314 0.00391768 0.00283966 -0.000746362 0.00902609 0.01416 0.00445366 -0.000462886 0.00439583 0.00445451 0.00559907 0.00489976 0.00522133 0.00450226 -0.00452239 0.0105915 0.00458417 0.00385716 0.00404116 0.0115847
internal_weight=0 127189 25655 11234 9235 14421 646 7980 453 134 7633 7456 2476 538 193 85 4980 347 4959 4934 1692 1515 1465 1292 50 173 66 3242 3150 177
internal_count=217633 127189 25655 11234 9235 14421 646 7980 453 134 7633 7456 2476 538 193 85 4980 347 4959 4934 1692 1515 1465 1292 50 173 66 3242 3150 177
shrinkage=0.05


Tree=49
num_leaves=31
num_cat=0
split_feature=43 43 40 41 4 4 34 43 14 16 40 41 25 43 3 27 4 24 4 40 40 30 14 24 32 11 20 31 20 0
split_gain=1.85554 6.36112 6.14279 25.6608 2.5839 2.72109 2.49731 5.71567 2.36334 4.23263 2.19931 2.87124 2.52136 1.63497 1.61374 1.55378 1.51379 2.2929 1.94389 1.37403 1.07234 1.04545 1.0405 1.02975 1.01507 1.49356 1.2029 1.6753 1.01178 1.54381
threshold=1.2296250000000011 -0.27803499999999998 -0.25142799999999998 -0.15132349999999997 1.7937450000000001 -1.1200049999999997 0.069860150000000024 0.27381999999999979 0.00015638100000000001 3.2990050000000008e-07 0.056773999999999998 0.057875000000000128 19.280350000000002 0.85052500000000031 -6.9704649999999999 5.5455250000000005 -0.19656399999999996 -0.33207549999999991 0.21050500000000003 -0.058960000000000005 -0.079468000000000025 0.043133650000000003 0.0017362250000000003 -0.66179549999999987 -1.3507849999999997 6.3446200000000008e-06 -8.5876849999999987 1.0295050000000001 -9.0227099999999982 -7.4136349999999984
decision_type=2 2 2 2 2 2 2 2 2 2 2 2 2 2 2 2 2 2 2 2 2 2 2 2 2 2 2 2 2 2
left_child=1 -1 -3 24 5 23 7 19 9 15 11 13 -12 -10 28 -8 -13 -18 -19 -7 -20 -2 -15 -5 25 26 27 -4 -9 -30
right_child=21 2 3 4 -6 6 8 14 10 -11 12 16 -14 22 -16 -17 17 18 20 -21 -22 -23 -24 -25 -26 -27 -28 -29 29 -31
leaf_value=-0.00010715236022143916 -0.00018224572890568786 -0.00015079487452626178 -0.00075699098630469636 0.0096058355737609832 -0.0012446918539144268 -0.00047832329802065628 0.0029805376836616474 0.0089305245756106672 0.0037969361634927826 0.015021622553467751 0.01218556121959552 0.015425478865067106 -0.005277535076374594 0.015876019635099044 -0.0026225928641849532 -0.0093754366684293787 -0.0040352606314829446 0.0020369681473648934 0.017408300672458219 0.0042154885542814635 0.007515244701256355 0.00067836174284084888 0.0054099591992174591 -0.0016012070542334791 -0.00015684676835260759 0.01332765666001867 -0.0002436168044534332 0.018755810005082328 -0.009029919689702284 0.0017578915733237909
leaf_weight=78898 100712 12968 22 22 278 162 38 43 1322 33 204 83 23 47 414 77 36 54 70 4150 45 3657 48 300 13241 31 176 22 36 421
leaf_count=78898 100712 12968 22 22 278 162 38 43 1322 33 204 83 23 47 414 77 36 54 70 4150 45 3657 48 300 13241 31 176 22 36 421
internal_value=0 0.000140147 0.000707899 0.0012283 0.00349023 0.00366279 0.00386104 0.00327785 0.00532632 -0.000763072 0.0057928 0.00517725 0.0104162 0.00425222 -0.000313726 -0.00529259 0.0097285 0.00742192 0.0098625 0.00403914 0.0135371 -0.000152091 0.0105879 -0.000835508 -9.71356e-05 0.00305281 0.00160499 0.00899941 0.00159802 0.000908086
internal_weight=0 113264 34366 21398 7906 7628 7306 5226 2080 148 1932 1705 227 1417 914 115 288 205 169 4312 115 104369 95 322 13492 251 220 44 500 457
internal_count=217633 113264 34366 21398 7906 7628 7306 5226 2080 148 1932 1705 227 1417 914 115 288 205 169 4312 115 104369 95 322 13492 251 220 44 500 457
shrinkage=0.05


Tree=50
num_leaves=31
num_cat=0
split_feature=41 41 43 43 34 41 44 4 14 4 16 44 34 34 30 4 4 3 21 8 5 25 16 41 30 3 21 8 34 43
split_gain=1.6993 16.075 8.65382 10.0533 5.39715 7.19462 4.22117 3.52614 3.18423 3.93005 3.7331 2.91148 3.2131 2.29974 2.27779 2.11773 2.1932 1.89665 1.85135 2.41942 1.81528 1.7441 1.72795 1.72789 3.30514 1.68249 1.67684 1.83184 1.59117 1.56
threshold=-0.33012499999999995 0.12358499999999996 2.1254700000000009 -1.5196849999999988 0.13940550000000004 -0.026150000000000003 -0.68809499999999957 -2.5331249999999996 0.00059245900000000015 1.4464300000000001 3.2990050000000008e-07 -0.81248999999999982 0.7542350000000001 0.87201550000000017 0.043133650000000003 -0.58642949999999983 0.41110300000000005 -5.8575499999999989 8.0248800000000013 -7.4956549999999995e-06 1.3194150000000001e-05 12.831100000000001 3.3134750000000005e-06 -0.10141500000000002 0.0024282350000000004 -15.867949999999999 -3.8826699999999996 5.8114400000000002e-06 2.6849000000000003 4.8349600000000006
decision_type=2 2 2 2 2 2 2 2 2 2 2 2 2 2 2 2 2 2 2 2 2 2 2 2 2 2 2 2 2 2
left_child=-1 2 3 13 5 -5 -7 -6 10 11 21 12 20 -2 -4 -8 -17 -12 19 -15 -10 -9 -16 24 -13 -14 -21 -28 -25 -24
right_child=1 -3 14 4 7 6 15 8 9 -11 17 23 25 18 22 16 -18 -19 -20 26 -22 -23 29 28 -26 -27 27 -29 -30 -31
leaf_value=-0.00016054016325278068 -0.00041997033036136189 -0.00014581809230264017 -0.0004435064443831952 0.00013108607586310726 -0.0033821515043655384 -0.0010869016571801078 -0.0019564982271587819 0.001511553225260255 0.01100740757855502 -0.00087133156814926714 0.0051635781958430018 -0.0015060989720619877 0.0059970072315384954 0.014469459604901765 0.0019332747336385193 0.0038938127090070054 -0.0013658934182971174 0.018167222685673657 -0.004184182490023565 -0.0032076465377485876 0.00066745442838021894 -0.0055976064867224468 0.01863982287947746 0.0054534852319496991 0.014273584593449615 0.018107772333521052 -0.0015436065958484132 0.013381667061856626 -0.0050773996507396573 0.0036020566203764509
leaf_weight=93794 4021 101478 6011 3010 128 545 171 233 88 183 160 44 36 65 218 5232 206 34 51 64 82 137 34 1174 135 141 34 52 37 35
leaf_count=93794 4021 101478 6011 3010 128 545 171 233 88 183 160 44 36 65 218 5232 206 34 51 64 82 137 34 1174 135 141 34 52 37 35
internal_value=0 0.000121591 0.00133514 0.00195105 0.00270577 0.0021343 0.00311409 0.00471075 0.00512777 0.00609803 0.00182478 0.00683228 0.0109293 -0.000122114 -0.000235732 0.00352228 0.00369457 0.00744257 0.00438044 0.00641204 0.0060199 -0.00112076 0.00411596 0.00580949 0.0103948 0.0156446 0.0029205 0.00748098 0.00513173 0.011012
internal_weight=0 123839 22361 16063 11776 9164 6154 2612 2484 1920 564 1737 347 4287 6298 5609 5438 194 266 215 170 370 287 1390 179 177 150 86 1211 69
internal_count=217633 123839 22361 16063 11776 9164 6154 2612 2484 1920 564 1737 347 4287 6298 5609 5438 194 266 215 170 370 287 1390 179 177 150 86 1211 69
shrinkage=0.05


Tree=51
num_leaves=31
num_cat=0
split_feature=41 41 41 43 43 30 23 44 43 21 21 20 20 14 20 3 21 17 43 43 18 31 21 20 36 14 44 20 20 21
split_gain=1.55056 11.7786 9.42688 6.55937 5.54591 3.82268 2.60492 3.03875 2.53904 2.95032 3.58672 2.69199 2.68547 2.39608 2.17724 1.79788 1.7136 1.61062 1.72866 2.16764 2.44404 1.72594 1.55769 1.32164 1.27268 2.27159 1.26665 1.23921 1.66507 1.60748
threshold=0.46135450000000006 -0.10141500000000002 0.057875000000000128 2.1254700000000009 -1.7757399999999997 0.0050916450000000005 -12.100849999999999 -0.27579999999999932 -0.19603999999999996 -7.4922749999999985 9.8452300000000026 8.1756000000000011 -5.9130249999999984 0.00048506450000000007 -12.926599999999999 -6.6044149999999986 13.390900000000002 -2.8169299999999998e-05 5.089570000000001 -3.1159849999999993 0.001848875 -6.1956549999999995 7.0074550000000011 14.554100000000002 0.18330700000000003 0.0017362250000000003 0.36284999999999995 7.3475050000000008 -8.175164999999998 -9.2830049999999975
decision_type=2 2 2 2 2 2 2 2 2 2 2 2 2 2 2 2 2 2 2 2 2 2 2 2 2 2 2 2 2 2
left_child=1 -1 3 4 -3 -4 -6 14 9 -9 11 12 -11 -7 -8 16 27 -15 19 21 -21 -19 26 -20 -5 -26 -14 28 -16 -30
right_child=-2 2 5 24 6 13 7 8 -10 10 -12 -13 22 17 15 -17 -18 18 23 20 -22 -23 -24 -25 25 -27 -28 -29 29 -31
leaf_value=-0.00012932201251482871 -0.00015826549157663068 -0.00026538894894669507 -0.00017456340052746845 -0.00062451149458484791 0.0048590464370044505 3.7480032014878298e-05 0.011511049087328667 -0.0055211404181192917 0.0037948396995466354 -0.0013084193759312715 -0.0085735654501461322 -0.0040315540209061402 0.0033324035012215225 -0.0013639508479237452 0.0051538611602378439 -0.0023849338605679542 0.015634677133389882 0.01310261017297981 -0.00048555201921100219 0.0087699318689525435 0.00060419765382033327 -0.00039426012572692465 -0.00050546746312212908 0.012637757504403236 -0.00088438725044183864 0.013695790807039225 0.0083576348925556015 0.0045620037390347911 0.0054811563863654857 -0.002353827178052539
leaf_weight=101534 90444 1404 11659 2133 1729 757 44 145 4173 187 73 121 197 141 130 444 21 27 222 451 115 193 92 21 68 44 345 205 77 437
leaf_count=101534 90444 1404 11659 2133 1729 757 44 145 4173 187 73 121 197 141 130 444 21 27 222 451 115 193 92 21 68 44 345 205 77 437
internal_value=0 0.000112542 0.00106976 0.00208666 0.00264389 0.000166408 0.00312899 0.00268194 0.00321963 0.00115038 0.00210345 0.00293086 0.00395699 0.0022294 0.000570356 0.000204001 0.00152525 0.00364759 0.00433431 0.00547379 0.00711082 0.00126217 0.00551004 0.000648561 -0.000351718 0.00484354 0.00653112 0.00117625 9.84915e-05 -0.0011801
internal_weight=0 127189 25655 12069 9824 13586 8420 6691 5333 1160 1015 942 821 1927 1358 1314 870 1170 1029 786 566 220 634 243 2245 112 542 849 644 514
internal_count=217633 127189 25655 12069 9824 13586 8420 6691 5333 1160 1015 942 821 1927 1358 1314 870 1170 1029 786 566 220 634 243 2245 112 542 849 644 514
shrinkage=0.05


Tree=52
num_leaves=31
num_cat=0
split_feature=40 40 43 43 34 40 44 4 14 4 16 34 43 36 34 3 40 16 4 4 3 21 30 20 0 20 39 4 36 16
split_gain=1.40564 13.291 7.15492 8.24793 4.93596 5.90968 3.43774 3.22548 2.91707 3.42438 3.35065 2.20812 3.2574 2.14722 2.03869 2.01216 2.00141 1.90825 1.84832 1.87796 1.74802 1.71399 1.70226 1.68655 2.76184 1.5177 1.5036 1.48773 1.46179 1.4066
threshold=0.327845 -0.12496499999999998 2.1254700000000009 -1.6462299999999999 0.13940550000000004 0.02582950000000005 -0.68809499999999957 -2.5331249999999996 0.00059245900000000015 2.2539600000000006 3.2990050000000008e-07 0.43987200000000004 1.06199 0.029614900000000003 0.87201550000000017 -16.413199999999996 0.10022550000000004 -2.7102299999999998e-07 -0.58642949999999983 0.41110300000000005 -5.8575499999999989 7.9020300000000008 0.043133650000000003 -2.7544749999999998 1.7247100000000002 -5.3220199999999993 0.044881000000000004 -1.0382099999999996 -0.004571089999999999 3.3134750000000005e-06
decision_type=2 2 2 2 2 2 2 2 2 2 2 2 2 2 2 2 2 2 2 2 2 2 2 2 2 2 2 2 2 2
left_child=1 -1 3 14 5 6 -5 -6 10 11 13 27 16 17 -3 -4 -13 -9 -8 -20 -12 23 -17 -16 -25 -18 -14 -10 -19 -24
right_child=-2 2 15 4 7 -7 18 8 9 -11 20 12 26 -15 21 22 25 28 19 -21 -22 -23 29 24 -26 -27 -28 -29 -30 -31
leaf_value=-0.0001323648522454527 -0.00014588645388214803 -0.00042849227888290233 0.012289784915628843 -0.00099146610549604363 -0.0032994037525944293 0.00010358064824765757 -0.0018428150639874478 0.0069143986028790908 -0.0054295981608863397 -0.0016704014085409816 0.0047253425258373767 0.0049929871461978281 0.012319727640294429 -0.0058121796275372624 0.00045776117760210468 -0.00045985765003848467 0.020354070818345799 -0.006858448988835638 0.0035083352373356555 -0.0012594650186521141 0.017202271959360908 -0.0040121581300399172 0.0015251174554442031 0.015917281571775674 0.00083596943695025115 0.0085484846689117457 0.025746060426657398 0.0050646166285189982 0.004477837611921132 0.0097801555030267023
leaf_weight=101433 93885 3892 32 548 131 3062 179 103 35 147 161 485 159 150 78 5960 38 72 5245 215 34 51 214 75 51 96 24 963 47 68
leaf_count=101433 93885 3892 32 548 131 3062 179 103 35 147 161 485 159 150 78 5960 38 72 5245 215 34 51 214 75 51 96 24 963 47 68
internal_value=0 0.000110681 0.00121545 0.00177537 0.00244484 0.00190014 0.00278928 0.00434954 0.00474811 0.00566723 0.001592 0.00626647 0.00822001 -0.00119084 -0.000144725 -0.000216138 0.00648741 0.00193168 0.00315669 0.00332059 0.00690081 0.00418634 -0.000280251 0.00623596 0.00981294 0.0118963 0.0140806 0.00469658 -0.00238109 0.00351569
internal_weight=0 123748 22315 16041 11894 9249 6187 2645 2514 1947 567 1800 802 372 4147 6274 619 222 5639 5460 195 255 6242 204 126 134 183 998 119 282
internal_count=217633 123748 22315 16041 11894 9249 6187 2645 2514 1947 567 1800 802 372 4147 6274 619 222 5639 5460 195 255 6242 204 126 134 183 998 119 282
shrinkage=0.05


Tree=53
num_leaves=31
num_cat=0
split_feature=41 41 41 43 43 30 23 44 43 21 21 20 20 3 20 14 16 21 3 21 23 43 21 15 43 21 39 3 36 14
split_gain=1.27889 9.66283 7.60273 5.37392 4.55584 3.45785 2.20291 2.58895 2.18554 2.62459 3.18357 2.40664 2.29188 2.17594 1.92998 1.67034 1.64568 1.85063 1.55417 1.47343 1.42331 1.37445 1.21147 1.17567 1.21305 1.26992 1.17529 1.52966 1.09851 2.0024
threshold=0.46135450000000006 -0.10141500000000002 0.057875000000000128 2.1254700000000009 -1.7757399999999997 0.017781650000000003 -12.100849999999999 -0.27579999999999932 -0.19603999999999996 9.8452300000000026 -7.4922749999999985 9.1618800000000018 -7.7125999999999992 -12.203099999999997 -12.926599999999999 0.0072893450000000009 7.5631600000000019e-07 -10.950149999999999 -6.6044149999999986 13.390900000000002 -8.8793399999999973 0.43278000000000022 7.0074550000000011 -2.9419199999999994e-05 -0.93682499999999969 -6.7912899999999992 0.17438400000000001 -13.353949999999999 0.18330700000000003 0.0017362250000000003
decision_type=2 2 2 2 2 2 2 2 2 2 2 2 2 2 2 2 2 2 2 2 2 2 2 2 2 2 2 2 2 2
left_child=1 -1 3 4 -3 -4 23 14 9 10 -9 12 -12 15 -8 -7 -15 -18 19 -16 -19 -22 -14 -6 -25 -26 27 -17 -5 -30
right_child=-2 2 5 28 6 13 7 8 -10 -11 11 -13 22 16 18 26 17 20 -20 -21 21 -23 -24 24 25 -27 -28 -29 29 -31
leaf_value=-0.00011685826378025634 -0.00014373397238820381 -0.00025003516815730141 -4.025233533366745e-05 -0.00057807706171568993 -0.002844058341482499 0.0026772574881712597 0.01076703987650531 -0.0052887127534406069 0.0034453334345170062 -0.0081856556621073967 -0.0032374856194904962 -0.0053549318616826309 0.0052604644330224194 0.00017507760415059873 0.0010262112796991551 0.005181859596632421 0.015465247418913537 -0.00021397932192414676 -0.00228568251208639 0.014433181569689797 0.0040604207348317288 0.020182221122668126 -0.00062872982453693197 0.010781324275031492 0.013640702288183901 0.0041421948363673583 0.022200141144761196 0.02132925232872367 -0.00087578828884836511 0.012813261132264001
leaf_weight=101534 90444 1404 12796 2133 54 75 44 145 4173 73 111 85 645 415 849 55 39 103 444 21 39 20 101 77 36 1562 24 20 68 44
leaf_count=101534 90444 1404 12796 2133 54 75 44 145 4173 73 111 85 645 415 849 55 39 103 444 21 39 20 101 77 36 1562 24 20 68 44
internal_value=0 0.000102209 0.000969205 0.00188243 0.0023868 0.000157948 0.00282648 0.00241536 0.00291167 0.000991855 0.00160819 0.00266982 0.00346574 0.00336829 0.000466316 0.00830566 0.00197364 0.00568709 0.000121391 0.00134983 0.00333309 0.00952544 0.00446313 0.00441744 0.00465154 0.00435618 0.0125696 0.00948783 -0.000324636 0.00450205
internal_weight=0 127189 25655 12069 9824 13586 8420 6691 5333 1160 1087 942 857 790 1358 174 616 201 1314 870 162 59 746 1729 1675 1598 99 75 2245 112
internal_count=217633 127189 25655 12069 9824 13586 8420 6691 5333 1160 1087 942 857 790 1358 174 616 201 1314 870 162 59 746 1729 1675 1598 99 75 2245 112
shrinkage=0.05


Tree=54
num_leaves=31
num_cat=0
split_feature=41 40 41 43 44 30 23 43 30 44 16 16 36 4 4 30 34 26 16 34 6 36 16 38 16 13 4 4 38 25
split_gain=1.17283 9.49425 6.27806 4.7451 4.37386 3.07625 2.23217 2.28741 2.08689 2.00751 2.17545 3.68039 2.85777 2.52012 2.8436 1.80692 1.80464 1.76739 1.88543 1.56231 1.66837 2.12236 1.49336 1.37099 1.36601 1.35008 1.29298 1.47398 1.61226 1.18733
threshold=-0.43858299999999995 -0.12496499999999998 -0.057539999999999918 2.7930350000000002 2.014730000000001 0.0061309900000000011 -13.237099999999998 0.39187000000000044 0.017781650000000003 -4.4138449999999994 2.5770550000000005e-06 7.0201950000000013e-05 0.069832100000000022 -0.29052249999999996 -2.6817999999999995 0.030440600000000005 0.30734050000000007 0.0017607100000000002 -1.4853299999999997e-05 1.1855600000000002 1.3540400000000001e-06 0.0070919350000000006 -1.0656299999999998e-05 0.11219700000000001 2.6355450000000002e-05 0.00025762050000000008 0.24725400000000003 1.6690850000000002 -0.062954099999999985 0.87448250000000016
decision_type=2 2 2 2 2 2 2 2 2 2 2 2 2 2 2 2 2 2 2 2 2 2 2 2 2 2 2 2 2 2
left_child=-1 -2 5 4 6 -3 8 15 25 -7 12 19 13 14 -11 22 -9 18 -16 -12 21 -21 -8 -22 -24 29 -15 28 -28 -4
right_child=1 2 3 -5 -6 9 7 16 -10 10 11 -13 -14 26 17 -17 -18 -19 -20 20 23 -23 24 -25 -26 -27 27 -29 -30 -31
leaf_value=-0.00013773593065471271 -0.00012010472500107891 -0.00012689110319799823 0.0036503974636885486 -0.00036078558065853647 -0.00030977164442208538 -0.0001954880116131087 -0.00091000374815115761 -0.00031434527650034177 0.017290627920339186 -0.0042215623599033622 0.0048366494520844239 -0.00028578753234627185 -0.001180806611352878 0.00034356679476331919 0.020156643016352543 -0.0099886010667043085 0.0039512026356533173 0.025238290993553222 -0.0012941127829253674 0.0027025677583878862 0.014445330023299903 0.020912987148331015 0.0030366075976653744 -0.0040681397169828422 -0.001434607290746664 -0.0047649504003457856 0.01742855430104185 -0.0007054197284191646 0.00078679556609131398 0.0073678673943186031
leaf_weight=90374 101433 11205 994 2239 1524 589 268 1239 31 21 74 118 373 200 21 28 310 33 20 20 20 80 5806 20 176 41 43 37 22 274
leaf_count=90374 101433 11205 994 2239 1524 589 268 1239 31 21 74 118 373 200 21 28 310 33 20 20 20 80 5806 20 176 41 43 37 22 274
internal_value=0 9.78143e-05 0.000953703 0.00173225 0.00217059 0.000173107 0.00258294 0.00226011 0.00446861 0.00216097 0.00342046 0.00680368 0.00196172 0.00491428 0.012017 0.00268469 0.000539315 0.0166253 0.00969286 0.0107128 0.0138188 0.0172709 0.00274147 0.0051886 0.00290506 0.00416496 0.00267997 0.00726115 0.011796 0.0044537
internal_weight=0 127259 25826 12930 10691 12896 9167 7827 1340 1691 1102 332 770 397 95 6278 1549 74 41 214 140 100 6250 40 5982 1309 302 102 65 1268
internal_count=217633 127259 25826 12930 10691 12896 9167 7827 1340 1691 1102 332 770 397 95 6278 1549 74 41 214 140 100 6250 40 5982 1309 302 102 65 1268
shrinkage=0.05


Tree=55
num_leaves=31
num_cat=0
split_feature=41 40 41 43 43 30 23 43 44 30 20 37 14 4 4 38 38 4 4 16 13 38 4 32 25 44 20 43 3 21
split_gain=1.05848 8.56856 5.66595 4.28246 3.94877 2.77631 2.17689 2.32351 2.4963 2.09485 1.95084 1.94803 1.93369 2.18339 3.15157 7.31182 2.58028 2.56267 3.65045 1.87217 1.54614 1.50883 1.89664 1.44185 1.39285 1.33857 1.30319 1.30262 1.22629 1.33981
threshold=-0.43858299999999995 -0.12496499999999998 -0.057539999999999918 2.7930350000000002 -2.5440100000000001 0.0061309900000000011 -10.421199999999997 0.31279500000000043 0.23534999999999953 0.0017435300000000003 -12.926599999999999 -2.0980749999999998e-07 0.00071877950000000007 3.0771300000000004 0.41110300000000005 -0.062954099999999985 0.039173400000000004 -0.29052249999999996 -3.3078599999999994 -7.0069149999999991e-06 0.00022778250000000003 -1.0090899999999998 1.7937450000000001 -4.3985699999999994 16.451500000000003 1.4428800000000004 12.319050000000002 0.85052500000000031 -9.6563599999999976 -5.7481999999999989
decision_type=2 2 2 2 2 2 2 2 2 2 2 2 2 2 2 2 2 2 2 2 2 2 2 2 2 2 2 2 2 2
left_child=-1 -2 5 4 -4 -3 9 8 -8 -6 -9 19 -7 14 16 21 -14 18 -18 -10 23 -16 -23 -11 -21 27 -12 -25 29 -29
right_child=1 2 3 -5 6 12 7 10 11 20 26 -13 13 -15 15 -17 17 -19 -20 24 -22 22 -24 25 -26 -27 -28 28 -30 -31
leaf_value=-0.00013084913720747777 -0.00011409949081934671 -0.00012054654888573197 -0.00048073183103467334 -0.00034274630497183522 0.0028364657367775841 0.00018824790852443562 0.0029978368434137796 0.0096139051385369968 -0.0060410264377983719 0.018922230439341589 -0.00076322154582204014 -0.00074922661495861829 -0.0010900181744531079 -0.0013409432828621244 0.028297462565630368 -0.0018244248509810342 -0.0013529192946495436 -0.0019863201170228421 0.013143086722602363 0.0045429921801116773 -0.0037525625464408414 0.01749742642315405 0.00052495675394311544 0.0038796187383899451 0.017769440636038782 0.014769059286585876 0.006076084449965935 0.01994394382054452 -0.00088259786403236491 0.0083657518911518566
leaf_weight=90374 101433 11205 1336 2239 2320 763 3897 51 39 23 1185 902 244 181 24 84 62 75 145 209 38 93 20 381 22 42 74 32 26 114
leaf_count=90374 101433 11205 1336 2239 2320 763 3897 51 39 23 1185 902 244 181 24 84 62 75 145 209 38 93 20 381 22 42 74 32 26 114
internal_value=0 9.29236e-05 0.000906018 0.00164563 0.00206206 0.000164452 0.0024252 0.00190423 0.00238934 0.00354187 2.71159e-05 0.00036605 0.00205293 0.00358606 0.00477989 0.00979026 0.00267477 0.00593224 0.00880129 0.0040919 0.00603659 0.0169117 0.0144934 0.00663851 0.00580265 0.00616368 -0.000361229 0.00551011 0.00912183 0.0109034
internal_weight=0 127259 25826 12930 10691 12896 9355 6379 5069 2976 1310 1172 1691 928 747 221 526 282 207 270 656 137 113 618 231 595 1259 553 172 146
internal_count=217633 127259 25826 12930 10691 12896 9355 6379 5069 2976 1310 1172 1691 928 747 221 526 282 207 270 656 137 113 618 231 595 1259 553 172 146
shrinkage=0.05


Tree=56
num_leaves=31
num_cat=0
split_feature=43 43 40 41 34 44 19 30 18 4 39 4 40 41 44 4 38 4 3 4 3 40 5 4 4 32 40 1 30 40
split_gain=0.971477 2.92059 3.1765 14.6265 2.23418 4.37085 2.30502 3.17579 2.01027 1.78755 1.9494 1.55782 1.92909 2.67537 1.83772 1.77684 3.13041 1.70916 1.35636 1.25122 1.17905 1.09557 1.07026 1.04724 1.05712 1.04688 1.33663 1.59512 0.944726 1.22462
threshold=1.510785 -0.5126099999999999 -0.25142799999999998 -0.17681499999999981 0.13562800000000003 -0.27579999999999932 2.8823200000000004e-07 0.0080523800000000013 3.940980000000001e-05 -2.3911599999999997 0.095974000000000018 2.7715550000000007 -0.058960000000000005 -0.057539999999999918 -0.77194499999999999 -0.19656399999999996 0.0069494100000000005 0.19669200000000001 -7.0441249999999993 -0.63310749999999982 -12.665349999999998 -0.10081500000000009 2.1109250000000005e-05 -0.38361349999999994 0.43776750000000003 -1.7584249999999997 0.43531000000000003 5.2110150000000006 0.0024282350000000004 -0.12496499999999998
decision_type=2 2 2 2 2 2 2 2 2 2 2 2 2 2 2 2 2 2 2 2 2 2 2 2 2 2 2 2 2 2
left_child=1 -1 -3 25 5 18 7 20 19 -8 11 12 15 -14 -15 22 17 -17 23 -7 -6 -9 -11 -5 -25 26 27 -4 -19 -30
right_child=-2 2 3 4 6 8 9 21 -10 10 -12 -13 13 14 -16 16 -18 28 -20 -21 -22 -23 -24 24 -26 -27 -28 -29 29 -31
leaf_value=-9.5567734196928434e-05 -0.00011630897445750121 -0.00010928512712884438 0.019418357696849853 -0.0027174130833454158 0.0057015031001166165 -0.0014854684149928439 -0.0030937885591337251 -0.0028629451896995308 -0.00192212049217509 0.01167753919683121 -0.0075937713915482166 -0.0033059982697059421 0.0092067523595196973 0.0084946864290953907 0.0023565805831773055 -0.001036850871363034 -0.0065096156953490872 0.0043527619497451394 -0.0017220678446102497 0.0030180897259130951 -0.0016639176043523566 -0.018074502856952362 0.023699105984997006 0.0025237928523792006 -0.0020282286410069753 -0.00012402198652984502 0.0010505850718406119 0.0033280433050010268 0.023098704144358634 0.010655346095706498
leaf_weight=74578 98378 17519 24 157 115 159 71 20 227 81 30 51 252 146 740 30 38 28 778 5138 103 29 24 720 155 17685 226 43 30 58
leaf_count=74578 98378 17519 24 157 115 159 71 20 227 81 30 51 252 146 740 30 38 28 778 5138 103 29 24 720 155 17685 226 43 30 58
internal_value=0 9.59477e-05 0.000415639 0.000754255 0.00237808 0.00198674 0.00393284 -0.000363783 0.00268545 0.00465938 0.00502441 0.00528053 0.00558741 0.00466098 0.00336805 0.00923542 0.00627379 0.00960098 -0.000145661 0.00288291 0.00222151 -0.0118657 0.0144253 0.00104275 0.00171743 -7.4911e-05 0.00288935 0.00909174 0.0123521 0.0148974
internal_weight=0 119255 44677 27158 9180 7334 1846 267 5524 1579 1508 1478 1427 1138 886 289 184 146 1810 5297 218 49 105 1032 875 17978 293 67 116 88
internal_count=217633 119255 44677 27158 9180 7334 1846 267 5524 1579 1508 1478 1427 1138 886 289 184 146 1810 5297 218 49 105 1032 875 17978 293 67 116 88
shrinkage=0.05


Tree=57
num_leaves=31
num_cat=0
split_feature=41 41 41 43 43 39 14 16 30 23 14 4 18 24 24 4 4 3 21 41 31 44 30 20 19 14 30 18 44 30
split_gain=0.883308 6.57627 4.96687 3.72783 3.14205 3.07916 2.24637 2.37653 1.94154 1.73912 1.78808 1.46301 2.13425 2.81531 1.42439 2.10146 2.67306 1.32388 1.20973 1.15383 1.03459 1.02226 2.76513 2.30961 2.07687 2.01284 1.30047 1.02204 1.2923 0.937366
threshold=0.46135450000000006 -0.10141500000000002 0.057875000000000128 2.1254700000000009 -1.7757399999999997 0.029330700000000005 0.00099716450000000021 4.3089250000000013e-06 0.064526950000000013 -12.100849999999999 0.0016846400000000001 -2.6817999999999995 -0.00016939049999999998 -0.88671549999999988 0.69957950000000013 0.79460700000000006 4.1822950000000008 -12.665349999999998 -6.7912899999999992 0.17390849999999994 -1.9652199999999997 -0.27579999999999932 0.0046036700000000015 -12.926599999999999 6.3553350000000007e-07 0.00017796000000000004 0.00047047500000000009 -0.0040248449999999991 0.81788000000000027 0.0031784400000000007
decision_type=2 2 2 2 2 2 2 2 2 2 2 2 2 2 2 2 2 2 2 2 2 2 2 2 2 2 2 2 2 2
left_child=1 -1 3 4 -3 29 7 -7 9 18 21 -8 13 19 -14 -16 17 -17 -6 -13 -12 23 -23 -11 -24 -25 -27 -20 -29 -4
right_child=-2 2 5 -5 8 6 11 -9 -10 10 20 12 14 -15 15 16 -18 -19 27 -21 -22 22 24 25 -26 26 -28 28 -30 -31
leaf_value=-9.5780534215578303e-05 -0.00011945344826950818 -0.00023140440324152323 -0.0001983908409331472 -0.00029990181012590157 0.012848408926381833 -0.00087202605061622261 -0.0015055031932614822 0.016594782761032028 -0.012183730919723926 0.013012740976180222 0.010322434712378752 0.012015658200141929 -7.8842284370072278e-05 0.00028867820447371547 -0.00079039136267965669 0.028316126699032992 -0.0011423792730530969 0.012784116937066704 -0.0062511202395678714 0.027008064034761803 -0.00097165554853052252 0.0027369308419158637 -0.020074242148548367 -0.0020627241119123693 -0.0020600459457637047 -0.00048360714229472379 0.0041510291632245195 0.0033885153344734714 0.0092792696535888338 0.00098937742991317542
leaf_weight=101534 90444 1404 11016 2245 36 268 49 21 23 38 21 21 79 23 40 23 23 34 26 33 589 4839 20 455 80 252 379 1563 99 1956
leaf_count=101534 90444 1404 11016 2245 36 268 49 21 23 38 21 21 79 23 40 23 23 34 26 33 589 4839 20 455 80 252 379 1563 99 1956
internal_value=0 8.49433e-05 0.000800188 0.00153832 0.0019584 0.000144473 0.00360434 0.000397188 0.00232354 0.00236327 0.00199753 0.00645624 0.00786973 0.0149381 0.00513473 0.008567 0.0132457 0.0190514 0.00377895 0.0211777 -0.000582843 0.00225714 0.00256686 0.000896188 -0.00566289 0.000472221 0.00230011 0.00358553 0.00373941 -1.92916e-05
internal_weight=0 127189 25655 12069 9824 13586 614 289 8420 8397 6673 325 276 77 199 120 80 57 1724 54 610 6063 4939 1124 100 1086 631 1688 1662 12972
internal_count=217633 127189 25655 12069 9824 13586 614 289 8420 8397 6673 325 276 77 199 120 80 57 1724 54 610 6063 4939 1124 100 1086 631 1688 1662 12972
shrinkage=0.05


Tree=58
num_leaves=31
num_cat=0
split_feature=41 40 41 43 43 39 34 43 43 4 14 4 43 21 21 4 4 32 25 20 20 14 43 41 4 13 14 43 4 24
split_gain=0.810075 5.38077 5.20579 3.25063 3.03857 2.66561 1.91475 2.31345 3.10796 1.97877 2.03965 2.09542 2.64614 3.77549 3.3785 2.03631 2.25524 1.95257 1.86578 1.80824 1.88713 1.61099 1.43451 1.39781 1.37689 1.27888 1.78255 1.60191 1.72986 3.23906
threshold=-0.60497499999999982 -0.12496499999999998 -0.057539999999999918 2.7930350000000002 -2.5440100000000001 0.044881000000000004 0.069860150000000024 0.27381999999999979 -0.465335 2.5139300000000007 0.00026773650000000009 -2.3911599999999997 -0.77143500000000065 -6.0049649999999994 5.2853500000000002 0.15463500000000002 -0.17714399999999997 -3.4807049999999995 5.5910550000000008 5.7713600000000005 -3.4870349999999992 0.00034418150000000005 0.80790999999999979 0.078754999999999922 0.36048500000000006 0.00037732250000000004 0.025521750000000003 5.8194249999999998 -0.58642949999999983 -0.82489099999999993
decision_type=2 2 2 2 2 2 2 2 2 2 2 2 2 2 2 2 2 2 2 2 2 2 2 2 2 2 2 2 2 2
left_child=-1 -2 5 4 -4 -3 7 8 -6 10 15 -12 13 -13 19 16 -8 -14 -18 20 -15 -7 -20 -19 -10 26 27 28 29 -23
right_child=1 2 3 -5 6 21 9 -9 24 -11 11 12 17 14 -16 -17 18 23 22 -21 -22 25 -24 -25 -26 -27 -28 -29 -30 -31
leaf_value=-0.00012025944386749056 -9.879775509248986e-05 -1.507004775545646e-05 -0.00044788290185983543 -0.00031248049749123442 -0.0011236664319338641 -0.00032058902834251061 0.0067381431353014873 -0.00039868013105880432 0.0026696341281623993 -0.0032828248693915849 -0.0027344366650956138 -0.0089589905767102872 0.013849241697332926 0.0014459076204470225 -0.0055174857490540791 0.0071325002511976364 -0.00013912757270906158 0.0029736656218099298 -0.016620252649624682 -0.001763071037740225 0.015327122129547672 0.020101943103229412 -0.0044776468629217038 0.0078864050087316014 -0.003415330714962788 -0.0012293313783019375 0.01674705481090184 -0.0011602056835825748 0.0043377284982579712 -0.0027847145385087725
leaf_weight=85207 101433 17376 1336 2239 666 224 53 1176 4342 116 116 28 45 28 30 71 103 2015 43 21 195 52 56 156 95 73 35 83 198 22
leaf_count=85207 101433 17376 1336 2239 666 224 53 1176 4342 116 116 28 45 28 30 71 103 2015 43 21 195 52 56 156 95 73 35 83 198 22
internal_value=0 7.73787e-05 0.000653964 0.00141987 0.00178268 0.000105705 0.00210123 0.00160056 0.00206128 0.00312324 0.00337429 0.00383603 0.00413872 0.00852938 0.0103165 -0.000356503 -0.00244168 0.00354036 -0.00485024 0.0122633 0.0135842 0.00316041 -0.00975171 0.00332668 0.00253935 0.00484453 0.00598143 0.00492003 0.0067754 0.0132978
internal_weight=0 132426 30993 12930 10691 18063 9355 6279 5103 3076 2960 2634 2518 302 274 326 255 2216 202 244 223 687 99 2171 4437 463 390 355 272 74
internal_count=217633 132426 30993 12930 10691 18063 9355 6279 5103 3076 2960 2634 2518 302 274 326 255 2216 202 244 223 687 99 2171 4437 463 390 355 272 74
shrinkage=0.05


Tree=59
num_leaves=31
num_cat=0
split_feature=43 43 40 40 34 44 19 30 20 6 25 18 4 14 44 40 19 40 36 6 37 20 13 32 3 20 30 40 40 40
split_gain=0.734745 2.23377 2.40566 11.0287 2.50549 3.35496 2.33289 2.45096 2.32076 1.61667 1.50352 1.40638 1.40605 1.3988 1.49814 1.13175 1.26815 1.26651 1.12488 1.06344 1.12269 1.00671 0.93161 0.930668 1.23711 0.873573 0.816745 1.54976 1.14605 1.06755
threshold=1.510785 -0.5126099999999999 -0.25142799999999998 0.22528099999999995 0.21701850000000003 -0.47859499999999983 2.562600000000001e-07 0.0080523800000000013 -12.926599999999999 9.7954900000000019e-07 12.831100000000001 5.4626650000000007e-05 -0.58642949999999983 0.00033340500000000005 -1.0681750000000003 -0.079468000000000025 0.0013893600000000003 0.077348000000000056 -0.084377249999999987 -8.4483849999999976e-08 7.3586600000000014e-08 -6.0084349999999995 1.3086100000000002e-05 -7.1146499999999993 -12.510449999999999 3.5952650000000004 0.00043582050000000007 -0.058960000000000005 -0.040859549999999939 0.056773999999999998
decision_type=2 2 2 2 2 2 2 2 2 2 2 2 2 2 2 2 2 2 2 2 2 2 2 2 2 2 2 2 2 2
left_child=1 -1 -3 4 5 8 7 22 -4 13 21 12 -7 -8 -15 16 25 -17 -19 20 -20 -11 -6 24 -5 -16 27 -14 -28 -30
right_child=-2 2 3 23 6 11 9 -9 -10 10 -12 -13 26 14 15 17 -18 18 19 -21 -22 -23 -24 -25 -26 -27 28 -29 29 -31
leaf_value=-8.4046969972504228e-05 -0.00010114982183072629 -9.3786289751481542e-05 0.016517264490830713 0.015936214416287838 -0.0063168170008187493 -0.0012713503349317534 0.015088151368062672 -0.010232966708955011 -0.00062666945870769103 0.010748844385670964 -0.0026231395382353149 -0.0010065177421189492 -0.0023904487283612579 0.011625145703994229 0.0099769755227801706 0.002693243429013949 0.0025018444702188235 -0.0020774205494672061 0.013748919867700146 0.018538585253390333 6.2313349716814939e-05 0.0028194038821741773 0.0046528183943592011 -0.00010681750505622725 0.0018794006643778024 0.022414625375531613 0.0066215998775585264 0.0023485695774435539 0.0024792390203863569 0.0073021050688574125
leaf_weight=74578 98378 17519 20 20 24 256 41 54 1519 48 115 327 180 91 48 448 41 20 31 31 29 241 100 17579 72 20 244 4149 1284 126
leaf_count=74578 98378 17519 20 20 24 256 41 54 1519 48 115 327 180 91 48 448 41 20 31 31 29 241 100 17579 72 20 244 4149 1284 126
internal_value=0 8.34423e-05 0.000363027 0.000657707 0.00203286 0.00169733 0.00400063 -0.00134215 -0.000403876 0.00479051 0.00221228 0.00218983 0.00235736 0.00609251 0.00560658 0.00478669 0.00944737 0.0038779 0.0086592 0.0110189 0.00713373 0.0041364 0.00252966 -8.05672e-05 0.00493523 0.0136351 0.00251262 0.00215152 0.00345773 0.00291022
internal_weight=0 119255 44677 27158 9487 8105 1382 178 1539 1204 404 6566 6239 800 759 668 109 559 111 91 60 289 124 17671 92 68 5983 4329 1654 1410
internal_count=217633 119255 44677 27158 9487 8105 1382 178 1539 1204 404 6566 6239 800 759 668 109 559 111 91 60 289 124 17671 92 68 5983 4329 1654 1410
shrinkage=0.05


Tree=60
num_leaves=31
num_cat=0
split_feature=39 14 41 41 13 14 18 39 4 4 24 4 24 4 43 20 43 1 34 13 23 13 33 3 3 43 43 43 40 40
split_gain=0.75627 1.09652 1.57312 5.69379 2.69401 3.35237 2.39452 2.68834 1.52274 2.68032 5.61215 2.31382 5.47168 4.41454 2.86711 2.09602 1.78447 1.83396 1.39126 1.2718 0.8916 0.869875 0.902492 0.849748 1.08083 0.899319 0.699226 2.49314 2.29648 9.29875
threshold=0.020672650000000004 0.00059245900000000015 0.70899650000000014 -0.60497499999999982 0.00033872700000000009 0.022777000000000002 -0.011677349999999998 0.34276850000000003 2.5139300000000007 0.73862450000000013 0.86341500000000015 -0.42458499999999993 -0.69490299999999994 -2.1602949999999992 6.0173949999999996 -8.5876849999999987 -0.56159999999999977 -2.1876999999999995 4.1501900000000012 3.162045000000001e-05 -16.647599999999994 0.00010711200000000001 -0.00010541199999999999 -10.386699999999999 -12.918299999999999 2.1697850000000001 1.1470050000000007 -0.27803499999999998 0.22528099999999995 -0.14969009999999991
decision_type=2 2 2 2 2 2 2 2 2 2 2 2 2 2 2 2 2 2 2 2 2 2 2 2 2 2 2 2 2 2
left_child=26 -2 3 -3 5 8 -7 21 9 11 -11 12 13 -5 16 -12 17 -15 -18 -20 -13 -8 -23 24 -17 -25 27 -1 29 -29
right_child=1 2 -4 4 -6 6 7 -9 -10 10 15 20 -14 14 -16 23 18 -19 19 -21 -22 22 -24 25 -26 -27 -28 28 -30 -31
leaf_value=-8.8250588556979808e-05 -0.00015171392131465869 -3.9064090638035709e-05 -0.0001439093768637837 -0.0017653973978947483 -0.00080449534576380237 -0.00042119004593351513 0.019886730401776732 0.029178124333025308 -0.0011608108602376888 -0.0021026609245570304 0.029511622637689403 0.00470650991049632 -0.0017154597809615132 0.0024181106057949366 0.0012978284757991787 0.010837290760980028 0.014077248195119735 0.021964834078680724 0.033853342706958452 0.019036547103730431 -0.00097753619033721321 0.015775855320680422 0.0020638506192093096 0.015546611508554116 0.026730200623278508 0.00091364804677487833 -0.00011715405174483008 -8.2026341226990596e-05 -0.00010879976671669629 0.0021477214341042244
leaf_weight=76208 4790 2209 2329 52 234 27 20 29 120 58 26 95 134 30 32 23 35 20 30 28 252 20 30 21 20 21 98995 12248 11934 7563
leaf_count=76208 4790 2209 2329 52 234 27 20 29 120 58 26 95 134 30 32 23 35 20 30 28 252 20 30 21 20 21 98995 12248 11934 7563
internal_value=0 0.000410194 0.000866774 0.00152686 0.00407597 0.00509291 0.0127775 0.0163771 0.00412175 0.00484456 0.0105022 0.00349407 0.00629647 0.011026 0.0148268 0.0170886 0.0178543 0.0102368 0.0219498 0.0267004 0.000578615 0.0110738 0.00754865 0.0132886 0.0182293 0.00823013 -2.11789e-05 6.68322e-05 0.000439129 0.000769197
internal_weight=0 10685 5895 3566 1357 1123 126 99 997 877 169 708 361 227 175 111 143 50 93 58 347 70 50 85 43 42 206948 107953 31745 19811
internal_count=217633 10685 5895 3566 1357 1123 126 99 997 877 169 708 361 227 175 111 143 50 93 58 347 70 50 85 43 42 206948 107953 31745 19811
shrinkage=0.05


Tree=61
num_leaves=31
num_cat=0
split_feature=39 14 41 40 13 14 4 39 3 37 4 4 38 38 18 18 40 43 18 40 40 7 43 6 4 17 7 20 43 44
split_gain=0.683563 1.02382 1.4803 5.26656 2.94279 2.10728 2.85708 1.96126 1.74063 1.41757 1.32664 4.30875 4.21824 1.53084 2.44516 2.34819 1.4759 1.01434 1.78671 1.49206 1.01223 0.90274 0.896789 0.873029 0.865058 0.775858 0.760266 0.68997 0.62719 2.25374
threshold=0.015854000000000004 0.0009049345000000001 0.70899650000000014 0.49120000000000014 0.00033872700000000009 0.0078496150000000025 -2.6817999999999995 0.12384550000000001 -9.7440149999999992 -2.7510949999999998e-05 -1.5265699999999998 -0.75155249999999996 0.075559000000000015 0.11219700000000001 1.7622650000000003e-05 0.00071169700000000018 0.02582950000000005 -6.0363149999999992 0.0036590750000000003 0.30085850000000008 -0.3562499999999999 5.7739700000000006e-05 -1.9691099999999999 -7.9179699999999979e-07 -0.36598199999999997 -3.0819049999999996e-06 3.6171700000000005e-05 -3.2419049999999996 1.1470050000000007 0.23534999999999953
decision_type=2 2 2 2 2 2 2 2 2 2 2 2 2 2 2 2 2 2 2 2 2 2 2 2 2 2 2 2 2 2
left_child=28 -2 3 4 5 10 -7 17 9 -9 -3 12 -12 14 21 16 -16 -8 19 20 -19 -13 -22 -18 -15 27 -11 -14 29 -1
right_child=1 2 -4 -5 -6 6 7 8 -10 26 11 13 25 24 15 -17 23 18 -20 -21 22 -23 -24 -25 -26 -27 -28 -29 -30 -31
leaf_value=0.00042404619630064758 -8.9210153533218821e-05 -0.0023847179977276351 -0.00014646070476987406 3.7158942938006728e-05 -0.00088107215362799455 -0.00058203740526024418 -0.00074203237963956783 0.030842531393573153 0.0031399786269979643 0.021100025335714843 -0.0034605808367324737 -0.002644585920491712 0.02187766803777777 0.0060522957398306309 0.0074790425275833433 -0.0008983717299997807 0.01065549502825542 0.0048272783638215822 -0.00045806417623773599 -0.0008758826338385007 0.025720139069017024 0.0090323750951210972 0.01369554133194944 0.023696603143616813 -0.001944756915609906 0.025667881974103773 0.0098434295924380438 0.0087440247790073044 -0.00011305147165413162 -8.3334236704073292e-05
leaf_weight=30665 6246 85 2402 2381 254 76 32 20 21 30 26 96 20 41 66 45 21 24 39 20 20 20 69 33 193 33 30 20 98151 76454
leaf_count=30665 6246 85 2402 2381 254 76 32 20 21 30 26 96 20 41 66 45 21 24 39 20 20 20 69 33 193 33 30 20 98151 76454
internal_value=0 0.000361075 0.000820857 0.00144629 0.0039614 0.00510027 0.00809182 0.0102532 0.0159514 0.0193144 0.00346969 0.00428016 0.0138333 0.00244372 0.00493135 0.00884208 0.0124948 0.00743197 0.00895272 0.0117123 0.0139403 -0.000631317 0.0163977 0.0186251 -0.000543564 0.0199928 0.0154717 0.0153108 -2.17468e-05 6.19138e-05
internal_weight=0 12363 6117 3715 1334 1080 381 305 101 80 699 614 99 515 281 165 120 204 172 133 113 116 89 54 234 73 60 40 205270 107119
internal_count=217633 12363 6117 3715 1334 1080 381 305 101 80 699 614 99 515 281 165 120 204 172 133 113 116 89 54 234 73 60 40 205270 107119
shrinkage=0.05


Tree=62
num_leaves=31
num_cat=0
split_feature=39 14 40 40 13 14 18 39 4 4 24 20 4 24 4 43 30 4 27 4 24 3 3 43 13 33 14 43 44 40
split_gain=0.620005 0.907095 1.29026 4.54859 2.19115 2.91588 2.00831 2.32717 1.27881 2.1384 4.7041 1.98773 1.90065 4.28885 4.21434 1.0968 1.32993 1.19774 0.864622 0.855449 1.21924 0.831999 0.951524 0.750051 0.744428 0.800068 0.662083 0.569177 2.23796 2.10232
threshold=0.020672650000000004 0.00059245900000000015 -0.71412249999999966 0.62909250000000005 0.00033872700000000009 0.022777000000000002 -0.011677349999999998 0.34276850000000003 2.5139300000000007 0.73862450000000013 0.86341500000000015 -8.5876849999999987 -0.58642949999999983 -0.78263349999999987 -1.5265699999999998 5.2734150000000009 0.064526950000000013 -1.0382099999999996 67.650400000000005 0.30910700000000008 0.82362200000000019 -10.386699999999999 -12.918299999999999 2.1697850000000001 0.00010711200000000001 -0.00010541199999999999 0.0083088400000000014 1.0196000000000003 0.23534999999999953 0.22528099999999995
decision_type=2 2 2 2 2 2 2 2 2 2 2 2 2 2 2 2 2 2 2 2 2 2 2 2 2 2 2 2 2 2
left_child=27 -2 -3 4 5 8 -7 24 9 12 -11 -12 13 14 26 16 17 -16 19 -14 -21 22 -13 -23 -8 -26 -4 28 29 -1
right_child=1 2 3 -5 -6 6 7 -9 -10 10 11 21 18 -15 15 -17 -18 -19 -20 20 -22 23 -24 -25 25 -27 -28 -29 -30 -31
leaf_value=0.0007702488174255312 -0.00013966772051239853 -0.00012961462321663187 -0.0029048190366059621 -3.5929286039595419e-05 -0.00071523685907929268 -0.00037277789131082872 0.018229809217154981 0.026921430965564375 -0.001151205297892524 -0.0020514307605147531 0.027391432583905185 0.0096939024636926857 0.00061886904966470082 -0.0015947792301214917 0.021911620368447269 0.0057851125297713139 0.027614727622962427 0.0091143473809607699 -0.0034134395638360615 -0.00092081969856129336 0.012212724405947294 0.013504023119722578 0.024605880468152465 0.00059044686470018787 0.014562298073433339 0.0016518075088970364 0.0062682397071291019 -0.00010372111132308002 -7.7604145556040675e-05 -0.00012180235190450571
leaf_weight=17932 4790 2326 42 2186 240 27 20 29 122 60 26 23 235 118 33 21 28 41 93 30 43 22 20 23 20 30 37 101467 77093 10456
leaf_count=17932 4790 2326 42 2186 240 27 20 29 122 60 26 23 235 118 33 21 28 41 93 30 43 22 20 23 20 30 37 101467 77093 10456
internal_value=0 0.000371406 0.00078668 0.00138385 0.00362799 0.00453995 0.0117147 0.0150113 0.00365104 0.00430565 0.00928068 0.0152449 0.00310502 0.00597878 0.0104029 0.0161908 0.0183332 0.0148212 0.000811738 0.00208752 0.00681538 0.0116562 0.0166297 0.00690375 0.0100771 0.006816 0.00139142 -1.91762e-05 6.21515e-05 0.000441684
internal_weight=0 10685 5895 3569 1383 1143 126 99 1017 895 174 114 721 320 202 123 102 74 401 308 73 88 43 45 70 50 79 206948 105481 28388
internal_count=217633 10685 5895 3569 1383 1143 126 99 1017 895 174 114 721 320 202 123 102 74 401 308 73 88 43 45 70 50 79 206948 105481 28388
shrinkage=0.05


Tree=63
num_leaves=31
num_cat=0
split_feature=41 40 43 43 34 41 43 15 19 27 15 43 21 3 36 18 6 34 16 27 41 4 24 24 18 33 4 40 40 40
split_gain=0.583667 4.1494 3.13748 3.92575 3.05238 2.50828 2.07726 2.00019 2.15672 2.92308 2.01506 1.90443 1.73973 2.09953 1.49984 1.29616 1.24865 1.92854 1.46035 1.42656 1.30484 1.1922 4.29212 3.2643 2.01967 2.10076 1.71404 1.3315 1.25399 1.19063
threshold=0.46135450000000006 0.12375499999999996 1.510785 -1.7757399999999997 0.069860150000000024 0.057875000000000128 0.27381999999999979 -2.6163199999999997e-05 1.6081950000000002e-07 5.5455250000000005 8.0184450000000021e-05 -0.465335 -12.050999999999998 -7.899074999999999 -0.60180299999999987 3.940980000000001e-05 1.8853450000000003e-07 0.59297050000000018 2.1581450000000003e-05 38.008700000000012 -0.057539999999999918 -0.19656399999999996 -0.34389449999999994 0.25546950000000007 6.1692600000000016e-07 5.1896350000000002e-06 0.067233750000000023 -0.14969009999999991 -0.17527649999999997 -0.14969009999999991
decision_type=2 2 2 2 2 2 2 2 2 2 2 2 2 2 2 2 2 2 2 2 2 2 2 2 2 2 2 2 2 2
left_child=1 2 3 14 5 6 11 -6 9 -9 16 -5 13 -4 -1 -13 17 18 20 21 -10 23 26 -18 25 28 -23 -28 -24 -25
right_child=-2 -3 12 4 7 -7 -8 8 10 -11 -12 15 -14 -15 -16 -17 19 -19 -20 -21 -22 22 24 29 -26 -27 27 -29 -30 -31
leaf_value=0.013527860315516591 -9.7101268181054191e-05 -7.7336496183427509e-05 0.015958925311985825 -0.0010718407892363758 -0.0016238002766897353 -0.00036954332445859753 -0.00085028583596308608 0.0020372271391149565 0.0097296151773449274 -0.0064835977055630548 -0.0019448181473168576 0.0023590071853237427 -0.00020669904484770538 0.0019440616676233613 -0.00019132286397892915 -0.0041033612740302722 0.0062583112548298507 0.0080613080756943255 -0.0061238524293811582 -0.0053236900857882574 0.0035296243603538573 -0.00042216301344237046 0.0004227538886390483 0.0010126030838224463 0.0060097317240985501 0.0025342857292338828 -0.0011959111473212639 -0.014753564943940464 -0.014360479185415899 -0.01384637345493372
leaf_weight=20 90444 100725 35 480 256 2471 785 458 94 129 163 4352 9063 113 5096 79 492 353 36 52 873 95 26 26 422 353 27 55 32 28
leaf_count=20 90444 100725 35 480 256 2471 785 458 94 129 163 4352 9063 113 5096 79 492 353 36 52 873 95 26 26 422 353 27 55 32 28
internal_value=0 6.90486e-05 0.000626207 0.001024 0.00151367 0.000960834 0.00153797 0.00265096 0.00294561 0.000164678 0.00346765 0.00191972 -0.000118887 0.00525839 -0.00013769 0.00224379 0.0037653 0.00488284 0.00376419 0.00282289 0.00413231 0.00309514 0.00207755 0.00497751 0.00358003 0.0010853 -0.00499345 -0.0102895 -0.00773351 -0.00669205
internal_weight=0 127189 26464 17253 12137 8167 5696 3970 3714 587 3127 4911 9211 148 5116 4431 2964 1356 1003 1608 967 1556 1010 546 833 411 177 82 58 54
internal_count=217633 127189 26464 17253 12137 8167 5696 3970 3714 587 3127 4911 9211 148 5116 4431 2964 1356 1003 1608 967 1556 1010 546 833 411 177 82 58 54
shrinkage=0.05


Tree=64
num_leaves=31
num_cat=0
split_feature=30 4 4 24 40 40 4 7 40 6 4 24 4 40 40 1 13 14 4 43 43 41 41 34 44 19 25 40 44 40
split_gain=0.559729 0.582698 1.60181 2.91445 2.27236 4.98526 1.5717 1.5425 1.79253 1.02999 0.799539 2.14466 2.83387 3.54324 3.78626 2.12537 1.6671 1.00859 0.522875 0.520215 1.35673 1.89639 8.09042 2.27449 2.61746 1.76836 2.09879 1.29304 1.32531 1.20158
threshold=0.043133650000000003 -0.42458499999999993 -2.6817999999999995 0.62895050000000008 0.80350500000000014 -0.57440449999999987 -0.58642949999999983 3.3016900000000012e-05 -0.17527649999999997 1.0000000180025095e-35 0.46668750000000003 0.69957950000000013 2.9223900000000005 -0.68744999999999989 1.3170840000000001 -4.6697349999999984 9.8903300000000019e-05 0.0011235450000000003 1.2369950000000001 1.510785 -0.5126099999999999 0.29985500000000015 -0.17681499999999981 0.21701850000000003 -0.47859499999999983 8.8529750000000019e-08 3.0293700000000006 0.10022550000000004 -0.8551649999999994 -0.058960000000000005
decision_type=2 2 2 2 2 2 2 2 2 2 2 2 2 2 2 2 2 2 2 2 2 2 2 2 2 2 2 2 2 2
left_child=19 2 -2 4 5 -4 7 -7 -9 -10 -3 -12 13 -13 15 -15 17 -17 -19 20 -1 22 -22 24 -24 26 -25 28 -27 -30
right_child=1 10 3 -5 -6 6 -8 8 9 -11 11 12 -14 14 -16 16 -18 18 -20 -21 21 -23 23 25 -26 27 -28 -29 29 -31
leaf_value=-7.4650033971539935e-05 -0.0002930995710218721 -0.00023152020130710879 0.0012875742199830711 -0.00082253409236727755 0.00020379588645251501 0.027375331354948379 0.0044299178084267104 0.027141105444170532 0.015403173428623835 0.0023431466390880255 -0.00048771425102113789 0.00019376881500647871 1.1928281788381615e-05 0.0026853325326969338 0.00068307509947637169 0.025995311854057946 0.032365616171487741 0.0087716604546585596 0.018785014163321734 -0.00010023705555626876 -9.5444856894163661e-05 -0.00013781661443244364 -0.00044728212229601307 0.0052652603811161082 0.0018445105973962967 0.0070976974732114423 -0.0078283488081069674 0.0094183074771849954 0.0059343591020054494 0.0016650048852536745
leaf_weight=73112 680 3082 125 268 118 30 28 20 36 26 765 112 280 22 54 20 21 32 22 94837 17602 16940 1538 55 6559 229 69 110 225 616
leaf_count=73112 680 3082 125 268 118 30 28 20 36 26 765 112 280 22 54 20 21 32 22 94837 17602 16940 1538 55 6559 229 69 110 225 616
internal_value=0 0.000487147 0.00140406 0.00317682 0.00597533 0.00854529 0.0150254 0.0176743 0.0141251 0.00992639 0.00021041 0.00123603 0.00357825 0.00710676 0.0116346 0.0166891 0.0199321 0.0164036 0.0128512 -1.31988e-05 5.7319e-05 0.000276888 0.000537048 0.0017213 0.00140919 0.00365927 -0.0020207 0.00425615 0.00372546 0.00280722
internal_weight=0 5741 1331 651 383 265 140 112 82 62 4410 1328 563 283 171 117 95 74 54 211892 117055 43943 27003 9401 8097 1304 124 1180 1070 841
internal_count=217633 5741 1331 651 383 265 140 112 82 62 4410 1328 563 283 171 117 95 74 54 211892 117055 43943 27003 9401 8097 1304 124 1180 1070 841
shrinkage=0.05


Tree=65
num_leaves=31
num_cat=0
split_feature=39 4 4 38 40 40 43 41 6 8 30 5 4 38 4 40 40 3 40 17 4 30 19 7 15 23 5 3 30 40
split_gain=0.521679 0.786813 2.41066 4.11274 3.03102 7.78837 2.46761 1.08033 1.3808 1.2121 1.12279 0.95573 0.926409 2.21826 2.51088 3.13437 6.23263 1.82501 1.21096 0.800868 0.724763 1.12737 0.986142 0.91411 0.59683 0.592974 0.583136 0.524028 0.497529 1.0925
threshold=0.015854000000000004 -0.42458499999999993 -2.5331249999999996 0.075559000000000015 0.80350500000000014 -0.46506469999999994 6.1209300000000013 0.12358499999999996 -1.6203399999999995e-07 8.6517600000000013e-06 0.064526950000000013 1.5430850000000002e-05 0.30910700000000008 0.075559000000000015 2.9223900000000005 -0.68744999999999989 0.40779500000000007 -6.4469949999999994 0.1751400000000001 -3.0819049999999996e-06 0.79460700000000006 0.043133650000000003 9.5798550000000015e-06 3.7959100000000007e-05 -1.5416449999999997e-05 -19.809749999999998 1.1630300000000001e-05 -5.4431949999999993 0.053348600000000003 1.2849435000000005
decision_type=2 2 2 2 2 2 2 2 2 2 2 2 2 2 2 2 2 2 2 2 2 2 2 2 2 2 2 2 2 2
left_child=-1 2 -2 -4 5 -5 7 8 10 26 19 -9 -3 14 15 -14 17 18 20 -7 22 24 -17 -23 -22 -8 -10 -19 -18 -30
right_child=1 12 3 4 -6 6 25 11 9 -11 -12 -13 13 -15 -16 16 28 27 -20 -21 21 23 -24 -25 -26 -27 -28 -29 29 -31
leaf_value=-1.8998018462939863e-05 -0.00031601498753670935 -0.00025369545961200873 -0.00058090422136519791 0.00094083028844180986 2.345741473777812e-05 0.0060567289543211125 0.0095289759724189287 0.015193232542110814 0.0063303024118320774 -0.0011191111822288645 0.025495626199990514 0.028906316857319328 -6.0242137604414032e-05 -0.00048918483289759544 -0.00011211944482995259 0.016121951854299932 -0.00025231291415069213 -0.0024718058198535194 0.022496189842896652 0.01804407260252016 0.0028946606325916946 0.026500694797589232 0.002556222669836889 0.013242097747010682 0.01298090835123069 -0.0012043330191274083 0.016638650499996455 0.0084867431636666876 0.012636443479762725 0.00055618616943171276
leaf_weight=205270 1526 6321 579 267 217 22 22 27 23 23 30 24 311 1637 682 21 199 24 33 38 20 26 37 26 55 31 34 20 27 61
leaf_count=205270 1526 6321 579 267 217 22 22 27 23 23 30 24 311 1637 682 21 199 24 33 38 20 26 37 26 55 31 34 20 27 61
internal_value=0 0.000315435 0.00104203 0.00259206 0.00501573 0.00701818 0.0129403 0.0152639 0.0133492 0.00856964 0.0175977 0.0216464 9.64609e-05 0.000792698 0.00215356 0.00395029 0.00622219 0.011798 0.0136728 0.0136487 0.0120989 0.0142138 0.00746795 0.0198714 0.0102912 0.003251 0.0124791 0.00250935 0.00113206 0.00426263
internal_weight=0 12363 2863 1337 758 541 274 221 170 80 90 51 9500 3179 1542 860 549 262 218 60 185 127 58 52 75 53 57 44 287 88
internal_count=217633 12363 2863 1337 758 541 274 221 170 80 90 51 9500 3179 1542 860 549 262 218 60 185 127 58 52 75 53 57 44 287 88
shrinkage=0.05


Tree=66
num_leaves=31
num_cat=0
split_feature=39 4 4 24 40 40 43 40 6 43 16 4 24 4 40 40 3 40 21 4 5 21 18 20 30 22 37 23 1 3
split_gain=0.470815 0.710099 2.17562 3.71175 2.7355 7.02901 2.22702 1.01229 1.23692 1.05578 1.00976 0.836084 2.0511 2.24877 2.88301 5.62754 1.64696 2.18462 1.11142 0.829877 0.805822 0.785067 0.720313 0.710097 0.682343 0.677334 0.595644 0.535159 0.49249 0.487211
threshold=0.015854000000000004 -0.42458499999999993 -2.5331249999999996 0.62895050000000008 0.80350500000000014 -0.46506469999999994 6.1209300000000013 -0.30278099999999991 1.2112450000000003e-07 0.55890500000000032 1.1066350000000001e-05 0.30910700000000008 0.69957950000000013 2.9223900000000005 -0.68744999999999989 0.40779500000000007 -7.4497099999999987 0.1751400000000001 -8.8025949999999984 0.92648250000000021 1.6628950000000003e-05 11.881850000000002 0.0021193250000000005 4.1736500000000012 0.027101800000000006 -0.16403849999999998 6.9448750000000015e-05 -19.809749999999998 4.3204200000000013 -16.413199999999996
decision_type=2 2 2 2 2 2 2 2 2 2 2 2 2 2 2 2 2 2 2 2 2 2 2 2 2 2 2 2 2 2
left_child=-1 2 -2 4 5 -4 7 -7 9 25 20 -3 -13 14 -14 16 17 18 -16 24 -10 -17 -21 -18 -20 -9 28 -8 -11 -15
right_child=1 11 3 -5 -6 6 27 8 10 26 -12 12 13 29 15 21 23 -19 19 22 -22 -23 -24 -25 -26 -27 -28 -29 -30 -31
leaf_value=-1.8048116529984173e-05 -0.00030021423814071844 -0.00024101068743913627 0.00089378878395753297 -0.00055185901134551169 2.2284555155569304e-05 0.025228512929752468 0.0090525273275984964 0.0071200970121260204 0.0066463736010094494 0.022435435399945296 -0.0010140988820542894 -0.00044812893890201701 -5.424963386201509e-05 0.0047588050664974929 0.021548088236401478 0.00035551509164609223 0.00039199160033604136 0.027206800333582439 0.010269805557887864 0.016269602115997778 0.019244882856516848 0.010408755820909782 0.0069569198428794292 0.011006113731687387 -0.0013171422935556621 0.017660355326693713 0.026879597947001455 -0.0011441162705699342 0.011472274325788021 -0.00047274175431650232
leaf_weight=205270 1526 6321 267 579 217 20 22 35 30 21 21 1678 307 48 24 258 40 26 27 56 22 21 33 26 24 27 25 31 20 611
leaf_count=205270 1526 6321 267 579 217 20 22 35 30 21 21 1678 307 48 24 258 40 26 27 56 22 21 33 26 24 27 25 31 20 611
internal_value=0 0.000299663 0.000989933 0.00246246 0.00476495 0.00666727 0.0122933 0.0145007 0.0134333 0.0163954 0.00823949 9.16379e-05 0.000753063 0.0020959 0.00380804 0.00602435 0.0113778 0.0137415 0.0116067 0.0099025 0.0119765 0.00111221 0.0128166 0.00457331 0.00481712 0.0117102 0.0207967 0.00308845 0.0170876 -9.16883e-05
internal_weight=0 12363 2863 1337 758 541 274 221 201 128 73 9500 3179 1501 842 535 256 190 164 140 52 279 89 66 51 62 66 53 41 659
internal_count=217633 12363 2863 1337 758 541 274 221 201 128 73 9500 3179 1501 842 535 256 190 164 140 52 279 89 66 51 62 66 53 41 659
shrinkage=0.05


Tree=67
num_leaves=31
num_cat=0
split_feature=40 40 43 43 34 40 14 15 43 4 4 15 43 21 3 40 37 36 16 3 20 16 18 34 40 13 16 36 36 20
split_gain=0.441248 3.22048 2.58949 3.27409 2.52841 2.07968 2.05371 2.14798 1.88108 1.8278 2.13204 1.7112 1.63082 1.35517 1.69777 1.22432 2.7362 1.15125 1.13209 1.04074 1.05463 1.01853 0.954964 0.938203 1.27864 1.25141 1.15099 1.93966 1.27135 1.09063
threshold=-0.46506469999999994 0.12375499999999996 1.510785 -1.7757399999999997 0.069860150000000024 -0.058960000000000005 0.00020887000000000002 -2.6163199999999997e-05 0.27381999999999979 0.15938600000000003 -0.20992299999999997 8.0184450000000021e-05 -0.465335 -12.050999999999998 -9.3813899999999979 0.056773999999999998 1.2277200000000002e-05 -0.60180299999999987 -5.7111899999999989e-06 -6.9704649999999999 -9.0227099999999982 5.8204250000000011e-06 0.00022493700000000003 0.4236100000000001 -0.079468000000000025 -4.083924999999999e-05 1.4317750000000002e-06 0.21809400000000004 -0.0071753399999999997 -11.056249999999999
decision_type=2 2 2 2 2 2 2 2 2 2 2 2 2 2 2 2 2 2 2 2 2 2 2 2 2 2 2 2 2 2
left_child=-1 2 3 17 5 -5 9 -8 12 10 -6 15 -7 14 -4 23 22 -2 -14 20 -10 -16 -17 -9 25 -25 27 -27 -28 -26
right_child=1 -3 13 4 6 8 7 11 19 -11 -12 -13 18 -15 21 16 -18 -19 -20 -21 -22 -23 -24 24 29 26 28 -29 -30 -31
leaf_value=-8.4520971943454821e-05 0.011826667832210661 -6.9218272438147102e-05 0.017781381415469307 -0.00035055652803483279 0.0096154405551715175 -0.001019315757103318 -0.0016563233127840249 0.0024580434135026905 0.0086130276254966463 0.0071812600622901557 -0.0039983000259640059 -0.0019010288971973495 -0.0028945212788154596 -0.00020272834696488819 0.00041075149657564979 0.0086025820479968956 -0.0093194496459685829 -0.00019276619434140124 0.0021751230242509105 -0.0030586304966203179 -7.7746601216684995e-05 0.012232919563856824 -0.00018111276348853217 -0.0011713706300638261 -0.0086220435000723232 0.0077834255995881388 0.0016054541260624928 -0.0071798219326883565 0.015504067284545224 0.0033134365976484645
leaf_weight=90327 20 100725 21 2488 32 481 256 2064 38 56 284 163 113 9112 106 267 26 5132 4321 324 429 22 35 42 20 162 21 25 76 445
leaf_count=90327 20 100725 21 2488 32 481 256 2064 38 56 284 163 113 9112 106 267 26 5132 4321 324 429 22 35 42 20 162 21 25 76 445
internal_value=0 5.99699e-05 0.00054951 0.000910377 0.0013577 0.00085576 0.00239265 0.00275792 0.00138175 -0.00114428 -0.00261969 0.00309566 0.00174595 -0.000125385 0.00460452 0.00335153 0.00624465 -0.000146107 0.00204592 -0.000881232 0.000629426 0.00244269 0.0075846 0.00301915 0.00448329 0.00688419 0.0080755 0.00578299 0.0124951 0.00280008
internal_weight=0 127306 26581 17320 12168 8194 3974 3602 5706 372 316 3346 4915 9261 149 3183 328 5152 4434 791 467 128 302 2855 791 326 284 187 97 465
internal_count=217633 127306 26581 17320 12168 8194 3974 3602 5706 372 316 3346 4915 9261 149 3183 328 5152 4434 791 467 128 302 2855 791 326 284 187 97 465
shrinkage=0.05


Tree=68
num_leaves=31
num_cat=0
split_feature=30 16 16 41 40 21 4 24 6 24 40 43 44 44 40 41 34 41 40 20 20 43 25 30 6 24 21 21 23 23
split_gain=0.433122 0.704619 1.021 1.09058 2.46077 1.84129 1.28899 2.90958 1.10189 1.69768 1.05371 0.411775 1.09366 1.71844 1.66635 3.76071 1.06781 0.860869 3.8035 1.09068 1.67646 1.07898 0.975935 1.02269 0.922402 0.758305 0.756962 0.818356 1.2004 1.17042
threshold=0.043133650000000003 3.3134750000000005e-06 3.6618400000000008e-05 1.0338880000000001 0.60008550000000016 -19.754149999999996 0.49902250000000004 0.86341500000000015 1.2112450000000003e-07 -1.0137249999999998 0.02582950000000005 1.510785 0.23534999999999953 -0.20255000000000042 0.14973499999999998 0.29985500000000015 0.18770700000000004 0.32610899999999998 0.30085850000000008 -5.9130249999999984 7.2203350000000013 1.3091549999999998 16.451500000000003 0.011952750000000002 9.7954900000000019e-07 -0.55552099999999982 11.074800000000002 -6.9314949999999991 -12.729499999999998 -14.447549999999998
decision_type=2 2 2 2 2 2 2 2 2 2 2 2 2 2 2 2 2 2 2 2 2 2 2 2 2 2 2 2 2 2
left_child=11 -2 3 4 5 -3 8 -8 9 -7 -9 12 13 16 15 -15 -1 18 19 21 24 25 23 -22 26 -18 27 28 -21 -29
right_child=1 2 -4 -5 -6 6 7 10 -10 -11 -12 -13 -14 14 -16 -17 17 -19 -20 20 22 -23 -24 -25 -26 -27 -28 29 -30 -31
leaf_value=-9.656874041235762e-05 0.00011945014480728726 0.01940968990838883 0.00026282362318818029 2.9815381453703468e-05 0.0002692728336808619 0.019186553667255104 -0.0032349473586475055 0.012008016851243818 -0.0015091235708314344 -0.00047648121555697717 0.02786526629701257 -8.9047493882793958e-05 -5.6507930853447287e-05 0.0020163624737276828 -0.00014412789887128789 -0.00014954928072328795 0.00042349547986713314 -0.0001333655607158357 -3.1271128810684178e-05 0.017613207200774923 0.0073824507059951309 0.017237869018445845 -0.00065558781366675139 0.019617162314243614 -0.0014002985811665688 0.0076851576876921443 0.01120979242349187 0.0037228256766916028 0.0033088579350574452 -0.0023796413054323375
leaf_weight=22286 4378 32 794 197 173 21 21 22 60 23 20 94837 78245 5029 3516 3332 49 1764 1906 20 117 23 31 20 171 135 26 201 55 129
leaf_count=22286 4378 32 794 197 173 21 21 22 60 23 20 94837 78245 5029 3516 3332 49 1764 1906 20 117 23 31 20 171 135 26 201 55 129
internal_value=0 0.000428525 0.00142128 0.00303783 0.00463079 0.00842246 0.00631712 0.0119611 0.00289818 0.00890815 0.0195591 -1.16104e-05 5.11284e-05 0.000268134 0.000769153 0.00115321 4.71935e-05 0.000736646 0.00126897 0.00380558 0.0029394 0.00702763 0.00735575 0.00916854 0.00170693 0.00575135 0.00293972 0.0024088 0.00712335 0.00133732
internal_weight=0 5741 1363 569 372 199 167 63 104 44 42 211892 117055 38810 11877 8361 26933 4647 2883 977 770 207 168 137 602 184 431 405 75 330
internal_count=217633 5741 1363 569 372 199 167 63 104 44 42 211892 117055 38810 11877 8361 26933 4647 2883 977 770 207 168 137 602 184 431 405 75 330
shrinkage=0.05


Tree=69
num_leaves=31
num_cat=0
split_feature=39 16 16 36 40 40 6 21 43 43 22 39 17 20 29 13 36 16 41 41 43 19 15 15 26 14 16 16 3 43
split_gain=0.393852 0.621409 1.07318 1.19695 1.43355 3.39553 2.07711 1.91293 1.11191 2.06364 1.06443 0.748987 0.780183 0.688948 1.11557 0.62903 0.417998 0.935635 0.822841 3.53147 1.88829 2.0775 1.70779 1.50303 1.13835 0.906186 1.31502 0.873049 0.692522 0.339572
threshold=0.013816900000000002 3.3134750000000005e-06 3.6618400000000008e-05 0.046686200000000004 -1.0422104999999997 0.60008550000000016 6.3193550000000007e-07 -19.754149999999996 5.5413300000000003 2.4196300000000006 0.55254350000000019 0.12384550000000001 3.2923350000000001e-06 -2.2833199999999994 0.34967900000000007 4.1067850000000004e-05 0.069832100000000022 -1.8737049999999999e-06 0.48750300000000008 -0.60497499999999982 2.4196300000000006 0.0006688480000000001 1.7761700000000003e-06 2.7414300000000003e-05 0.0085896400000000008 0.0019309400000000001 -1.1710799999999998e-05 -3.9349849999999991e-05 -13.897099999999998 0.64319500000000052
decision_type=2 2 2 2 2 2 2 2 2 2 2 2 2 2 2 2 2 2 2 2 2 2 2 2 2 2 2 2 2 2
left_child=29 16 3 -3 -5 6 7 -6 9 13 11 12 -8 14 -9 -15 17 18 19 -2 21 25 27 -24 28 -21 -27 -23 -22 -1
right_child=1 2 -4 4 5 -7 10 8 -10 -11 -12 -13 -14 15 -16 -17 -18 -19 -20 20 24 22 23 -25 -26 26 -28 -29 -30 -31
leaf_value=5.0765036821831967e-05 0.0001007202891868149 0.00011537723811615878 0.0001145823043333451 2.608827327392465e-05 0.025133130373433232 0.00015730189036878433 0.0098298861254006633 0.019352414891733949 0.001223616417679075 0.024445846662973055 0.012591780567198016 -0.0070455087398071416 -0.0018800706788280161 -0.0006054184270194835 0.0040026256639976053 0.0093226225995936256 -0.00023039800034760057 -0.00010566312959878516 -8.6972436798994212e-05 0.02430024374099005 0.0090395277825882671 0.0041197475232526331 0.018354584063490619 0.0021698242102642187 0.012694199246735397 0.018433608956585981 0.0041532926161640454 -0.0083356662583052351 -0.0010283759168961632 -7.8283181736927708e-05
leaf_weight=96959 678 514 1887 241 22 234 25 29 33 25 21 26 33 27 20 39 5344 3019 607 21 20 34 32 26 22 38 28 24 117 107488
leaf_count=96959 678 514 1887 241 22 234 25 29 33 25 21 26 33 27 20 39 5344 3019 607 21 20 34 32 26 22 38 28 24 117 107488
internal_value=0 0.000264855 0.000874222 0.00198628 0.00322711 0.00467176 0.00819304 0.011246 0.00947997 0.0114261 0.00252332 6.20945e-06 0.00316732 0.00859573 0.0130872 0.00526115 7.15132e-05 0.000417294 0.00137589 0.0022297 0.00621711 0.00941306 0.00503257 0.0110993 0.00213675 0.0152537 0.0123753 -0.00103422 0.000441391 -1.70821e-05
internal_weight=0 13186 3176 1289 775 534 300 195 173 140 105 84 58 115 49 66 10010 4666 1647 1040 362 203 116 58 159 87 66 58 137 204447
internal_count=217633 13186 3176 1289 775 534 300 195 173 140 105 84 58 115 49 66 10010 4666 1647 1040 362 203 116 58 159 87 66 58 137 204447
shrinkage=0.05


Tree=70
num_leaves=31
num_cat=0
split_feature=30 4 4 24 40 40 40 7 3 4 24 4 40 40 1 14 14 20 41 41 44 43 3 34 14 30 41 4 40 4
split_gain=0.364218 0.390015 1.34039 2.39481 1.64077 4.02021 1.41323 1.48674 1.11826 0.517023 1.48646 1.99564 2.48351 2.65452 1.71681 0.94893 0.97671 1.27075 0.357531 5.01097 1.80762 2.02671 1.32359 1.79817 1.39759 1.08007 1.70172 1.41447 1.30858 1.16923
threshold=0.043133650000000003 -0.58642949999999983 -2.6817999999999995 -0.82489099999999993 0.80350500000000014 -0.57440449999999987 -0.17527649999999997 3.3016900000000012e-05 -8.9455249999999982 0.46668750000000003 0.69957950000000013 2.9223900000000005 -0.68744999999999989 1.3170840000000001 -4.6697349999999984 0.010316650000000002 0.0011235450000000003 -5.9130249999999984 0.12358499999999996 -0.026150000000000003 -1.4363049999999993 -2.5440100000000001 -13.989599999999998 0.71357000000000015 0.0069578350000000008 0.00047047500000000009 0.027234499999999971 -2.3911599999999997 -0.040859549999999939 0.79460700000000006
decision_type=2 2 2 2 2 2 2 2 2 2 2 2 2 2 2 2 2 2 2 2 2 2 2 2 2 2 2 2 2 2
left_child=18 2 -2 4 5 -4 -7 -8 -9 -3 -11 12 -12 14 -14 16 -16 -18 19 -1 22 -22 23 -21 -25 26 -23 -27 29 -29
right_child=1 9 3 -5 -6 6 7 8 -10 10 11 -13 13 -15 15 -17 17 -19 -20 20 21 25 -24 24 -26 27 -28 28 -30 -31
leaf_value=-5.9101623885670971e-05 -0.00026788391839866512 -0.0001620901788827047 0.0010149699313803874 -0.00068094041708945954 0.00035159207175236719 0.026447890766642314 0.022006888139165112 0.015684429169274296 0.0019094680473619307 -0.00042424104538309811 0.00013420470095297789 -3.1979560519955286e-05 0.0013587213248353114 0.0005427055134162031 0.022658125711604957 0.024215059929216902 0.018772385180927817 0.0018632602356374265 -8.0232720464810085e-05 -0.0021404206853870935 -0.00060186151421889053 0.0016890613851510254 -0.00037645334829137183 0.02122557937451031 0.0043052786961197851 -0.0038995768101352927 -0.0007660979939318333 0.0053186898394476552 0.0020186640090467944 -0.00083954698877422834
leaf_weight=102245 680 3212 94 232 86 22 27 26 34 765 112 280 22 54 20 30 20 25 98651 39 1099 4044 2316 23 26 83 855 621 1802 88
leaf_count=102245 680 3212 94 232 86 22 27 26 34 765 112 280 22 54 20 30 20 25 98651 39 1099 4044 2316 23 26 83 855 621 1802 88
internal_value=0 0.000392963 0.00119422 0.00310254 0.00613979 0.00859194 0.0151262 0.0122633 0.00787862 0.000181 0.00101082 0.00296078 0.00592181 0.00971252 0.0139447 0.0168594 0.0134645 0.00937843 -1.06469e-05 4.99734e-05 0.00106419 0.00140329 -0.000147761 0.00587101 0.0122475 0.00169739 0.00126057 0.00252236 0.00273463 0.00455434
internal_weight=0 5741 1201 521 289 203 109 87 60 4540 1328 563 283 171 117 95 65 45 211892 113241 10996 8592 2404 88 49 7493 4899 2594 2511 709
internal_count=217633 5741 1201 521 289 203 109 87 60 4540 1328 563 283 171 117 95 65 45 211892 113241 10996 8592 2404 88 49 7493 4899 2594 2511 709
shrinkage=0.05


Tree=71
num_leaves=31
num_cat=0
split_feature=34 3 41 40 4 18 24 38 43 18 14 4 26 8 1 13 16 39 22 18 40 7 4 43 38 3 43 7 8 43
split_gain=0.334625 0.71335 0.953808 3.81162 1.77007 2.85464 3.40272 1.66866 1.2617 1.41482 1.15972 1.6549 1.38396 1.11204 1.21449 1.14253 0.975267 0.846263 0.842224 0.808907 0.856573 0.844501 0.789722 0.887472 0.75618 0.66094 0.655529 0.575253 0.503898 0.481752
threshold=1.1210650000000002 -11.394249999999998 0.48750300000000008 0.327845 -2.6817999999999995 -0.00059694499999999988 -0.96093699999999993 0.30670150000000002 0.97785500000000003 -9.6173349999999976e-06 0.004255295000000001 5.1455300000000008 -0.00031763949999999994 8.6517600000000013e-06 2.4449600000000005 4.1067850000000004e-05 -2.2582199999999995e-06 0.0066980350000000006 -1.3120349999999996 2.0038450000000001e-05 0.14973499999999998 4.7803700000000004e-05 -0.0098903599999999991 -1.3362800000000006 0.30670150000000002 -12.126699999999998 -1.9691099999999999 3.3833000000000006e-05 4.4132950000000011e-06 -0.12174999999999957
decision_type=2 2 2 2 2 2 2 2 2 2 2 2 2 2 2 2 2 2 2 2 2 2 2 2 2 2 2 2 2 2
left_child=-1 2 3 4 -2 6 24 10 26 -10 13 12 19 14 15 16 -7 -8 -14 -12 21 -21 29 -24 -6 -16 -9 -18 -29 -20
right_child=1 -3 -4 -5 5 7 17 8 9 -11 11 -13 18 -15 25 -17 27 -19 22 20 -22 -23 23 -25 -26 -27 -28 28 -30 -31
leaf_value=-2.013135260181301e-05 -0.0021071718111495409 1.3581124751956416e-05 -0.00011495228380414768 0.00013610693863836391 0.011759531250952381 0.014393098042346536 0.0084926277337059302 -0.0025690064435669531 0.013476749465031468 -0.0030061759031377736 0.0027882312288663043 -0.0024037954803659686 0.010210949633010599 -0.004526266730824193 -0.0033517734021342432 0.01668997834591816 0.0064648901372014447 -0.0049289044351705042 0.0010742960864999554 0.0082256877411598355 0.022296057220082731 0.01799931556264299 0.0060995044256560507 -0.0071741250093670236 0.022904191335870162 0.0066745685291772884 -0.012553747065365314 -0.0077544894895982003 0.0033349204897170979 0.011346907712984831
leaf_weight=196876 109 15194 2264 2348 23 20 23 48 23 30 24 45 43 51 65 24 38 24 21 77 20 31 20 34 45 22 25 20 21 25
leaf_count=196876 109 15194 2264 2348 23 20 23 48 23 30 24 45 43 51 65 24 38 24 21 77 20 31 20 34 45 22 25 20 21 25
internal_value=0 0.000190942 0.00067536 0.00121773 0.00388822 0.00466435 0.0119843 0.00350645 -0.00172521 0.00414679 0.00460327 0.00652764 0.00789006 0.00209642 0.00370479 0.00690269 0.00453001 0.00163908 0.00435926 0.0112118 0.0127912 0.0110311 0.00184303 -0.00225797 0.0191347 -0.000816377 -0.00598844 0.00203303 -0.00207455 0.00665724
internal_weight=0 20757 5563 3299 951 842 115 727 126 53 601 340 295 261 210 123 99 47 143 152 128 108 100 54 68 87 73 79 41 46
internal_count=217633 20757 5563 3299 951 842 115 727 126 53 601 340 295 261 210 123 99 47 143 152 128 108 100 54 68 87 73 79 41 46
shrinkage=0.05


Tree=72
num_leaves=31
num_cat=0
split_feature=30 16 16 41 40 6 36 43 38 11 1 41 41 44 43 3 34 14 30 41 4 40 4 19 21 26 6 41 34 43
split_gain=0.317916 0.539379 0.669519 0.834617 1.54851 1.42034 1.50415 1.0659 0.926075 1.12733 0.61444 0.317754 4.49106 1.64357 1.82917 1.1285 1.55148 1.25346 0.958772 1.53581 1.27091 1.16079 1.0761 1.3913 1.26866 1.20408 1.15338 0.972068 0.85975 0.793924
threshold=0.043133650000000003 2.3057600000000002e-06 3.6618400000000008e-05 1.0338880000000001 0.60008550000000016 8.812610000000001e-08 0.14537000000000003 0.64319500000000052 0.6802760000000001 5.8604700000000005e-05 -3.6486249999999996 0.12358499999999996 -0.026150000000000003 -1.4363049999999993 -2.5440100000000001 -13.989599999999998 0.71357000000000015 0.0069578350000000008 0.00047047500000000009 0.027234499999999971 -2.3911599999999997 -0.040859549999999939 0.79460700000000006 2.562600000000001e-07 -7.2793899999999994 -0.00024772449999999996 1.4354600000000002e-06 0.078754999999999922 0.15993500000000002 -0.41630000000000006
decision_type=2 2 2 2 2 2 2 2 2 2 2 2 2 2 2 2 2 2 2 2 2 2 2 2 2 2 2 2 2 2
left_child=11 -2 3 4 5 6 -3 -8 9 -7 -10 12 -1 15 -15 16 -14 -18 19 -16 -20 22 23 24 -22 -26 27 -25 -29 -28
right_child=1 2 -4 -5 -6 8 7 -9 10 -11 -12 -13 13 14 18 -17 17 -19 20 -21 21 -23 -24 26 25 -27 29 28 -30 -31
leaf_value=-5.6059931043715384e-05 8.5929609561753121e-05 0.0013222814124109674 0.0002274476750441522 -9.2602641568539169e-06 0.00041861264711542392 0.0022579110757284244 0.0080074614234035835 0.02025051423261175 0.0052346663951704448 0.016028881180808759 -0.0052156870471289718 -7.554805962322834e-05 -0.0020323931423123355 -0.00057421778493965073 0.0016056148826130126 -0.00035945111284410737 0.019834718756053762 0.0038106632060729544 -0.003699961802535161 -0.00072678653540962678 -0.010261623878878627 0.0019142621101514022 -0.00087216319237665054 0.0061940497247269383 -0.0064107434192140185 0.0053329103504015946 -0.0021483002504443425 0.0028970826335716995 0.014459117947191728 0.0053080348378172571
leaf_weight=102245 4295 29 794 233 192 42 32 40 22 23 39 98651 39 1099 4044 2316 23 26 83 855 22 1802 88 200 28 99 51 20 82 119
leaf_count=102245 4295 29 794 233 192 42 32 40 22 23 39 98651 39 1099 4044 2316 23 26 83 855 22 1802 88 200 28 99 51 20 82 119
internal_value=0 0.000367136 0.00120239 0.00238968 0.00372369 0.00651918 0.0109367 0.0148092 0.00297815 0.00713072 -0.00144671 -9.94719e-06 4.72016e-05 0.00100737 0.00133071 -0.000148285 0.00540923 0.0113322 0.00161011 0.00119855 0.00238737 0.00258859 0.00430246 0.00503574 0.000823501 0.00274376 0.00636545 0.00821987 0.0121921 0.00307113
internal_weight=0 5741 1446 652 419 227 101 72 126 65 61 211892 113241 10996 8592 2404 88 49 7493 4899 2594 2511 709 621 149 127 472 302 102 170
internal_count=217633 5741 1446 652 419 227 101 72 126 65 61 211892 113241 10996 8592 2404 88 49 7493 4899 2594 2511 709 621 149 127 472 302 102 170
shrinkage=0.05


Tree=73
num_leaves=31
num_cat=0
split_feature=41 41 41 43 23 30 43 15 30 0 30 15 44 23 16 16 33 17 36 36 4 33 4 20 2 43 4 38 38 4
split_gain=0.29325 1.99868 2.02987 1.4446 1.68112 1.50554 2.33115 1.20142 1.18617 1.15031 1.12612 0.958076 0.886676 1.23131 0.902208 1.65764 1.27395 1.44661 1.8174 1.05058 1.44257 2.24706 1.52579 1.37325 1.83819 0.841802 0.89013 4.911 3.89314 4.593
threshold=-0.60497499999999982 0.12358499999999996 -0.057539999999999918 2.7930350000000002 -13.010249999999997 0.00254236 1.7675950000000007 -7.03526e-06 0.0061309900000000011 -2.0595049999999993 0.064526950000000013 7.2144500000000009e-06 -4.4138449999999994 -15.687599999999998 9.6924450000000025e-07 7.0201950000000013e-05 -0.00058211249999999993 6.6559100000000008e-06 0.018509300000000003 0.10225450000000001 -0.15847949999999997 -9.7463599999999976e-06 -2.5331249999999996 -5.7563499999999985 1.4821150000000003 -2.4699349999999991 0.24725400000000003 -0.00034182349999999995 -0.0029691849999999996 -0.11642199999999998
decision_type=2 2 2 2 2 2 2 2 2 2 2 2 2 2 2 2 2 2 2 2 2 2 2 2 2 2 2 2 2 2
left_child=-1 2 8 4 5 -4 9 -6 -2 -7 11 25 -10 -14 19 16 -16 18 -18 20 21 -15 -23 -24 -25 -9 28 -28 29 -27
right_child=1 -3 3 -5 7 6 -8 10 12 -11 -12 -13 13 14 15 -17 17 -19 -20 -21 -22 22 23 24 -26 26 27 -29 -30 -31
leaf_value=-7.2356192062484999e-05 -9.7128143065766356e-05 -6.0715656177111715e-05 0.001937719637889289 -0.00028012654154040492 -0.00095191164440502148 -0.00076353120168233752 0.016191188805796047 -0.00050010102295723006 -0.00021624885558974548 0.0067342051068622179 -0.0076573303799975572 -0.0006218418191375753 0.0069184362950149049 -0.0020462526561625684 0.015576856947778392 -0.00091760445606396505 -0.0025303953603386534 -0.0016463561855457496 0.0090714218533541526 -0.0012365261397200512 0.00028418134434450392 -0.0013460497188498267 0.023205591969330003 0.017943130243041266 -0.0019460770320923377 -0.016021498934532613 0.0054495850198749696 -0.0050284588799430902 0.0014911455649218228 -0.00086672547275406142
leaf_weight=85207 15798 101478 1234 2228 827 82 47 627 797 136 37 748 111 52 28 157 43 73 157 437 316 20 27 26 21 67 513 143 5999 197
leaf_count=85207 15798 101478 1234 2228 827 82 47 627 797 136 37 748 111 52 28 157 43 73 157 437 316 20 27 26 21 67 513 143 5999 197
internal_value=0 4.65562e-05 0.000398299 0.000877746 0.00111982 0.00267203 0.00609143 0.000865747 5.62915e-05 0.00391396 0.00104618 0.00108501 0.00112637 0.0018553 0.00144114 0.0032474 0.00541985 0.0043781 0.00657703 0.000520932 0.00218329 0.00629369 0.0109073 0.014219 0.00905646 0.0012542 0.00141318 0.0031655 0.00122963 -0.00471282
internal_weight=0 132426 30948 12885 10657 1499 265 9158 18063 218 8331 8294 2265 1468 1357 458 301 273 200 899 462 146 94 74 47 7546 6919 656 6263 264
internal_count=217633 132426 30948 12885 10657 1499 265 9158 18063 218 8331 8294 2265 1468 1357 458 301 273 200 899 462 146 94 74 47 7546 6919 656 6263 264
shrinkage=0.05


Tree=74
num_leaves=31
num_cat=0
split_feature=39 4 4 24 40 40 43 40 6 16 30 5 27 4 24 4 40 40 3 40 21 0 29 21 40 23 28 28 3 4
split_gain=0.284889 0.485597 1.60135 2.96561 2.06393 5.09406 1.52277 0.959411 1.10678 0.848265 0.802562 0.728861 0.636515 0.579461 1.47497 1.73007 2.1847 4.20027 1.53652 1.58845 0.905111 0.981808 0.862602 0.612305 0.595779 0.492812 0.47728 0.392234 0.382087 0.841744
threshold=0.013816900000000002 -0.42458499999999993 -2.2787549999999999 -0.59879749999999998 0.80350500000000014 -0.46506469999999994 6.1209300000000013 -0.30278099999999991 1.2112450000000003e-07 1.1066350000000001e-05 0.087932350000000006 1.6628950000000003e-05 32.900400000000012 0.30910700000000008 0.69957950000000013 2.9223900000000005 -0.68744999999999989 0.40779500000000007 -7.2857699999999985 0.1751400000000001 -8.8025949999999984 -4.3615599999999999 0.34967900000000007 11.881850000000002 0.02582950000000005 -19.809749999999998 0.34469700000000009 -0.96676949999999995 -16.413199999999996 5.3515400000000009
decision_type=2 2 2 2 2 2 2 2 2 2 2 2 2 2 2 2 2 2 2 2 2 2 2 2 2 2 2 2 2 2
left_child=-1 2 -2 4 5 27 7 -7 10 11 12 -10 -9 -3 -15 16 -16 18 19 20 -18 -22 24 -19 -23 -8 -20 -4 29 -17
right_child=1 13 3 -5 -6 6 25 8 9 -11 -12 -13 -14 14 15 28 17 23 26 -21 21 22 -24 -25 -26 -27 -28 -29 -30 -31
leaf_value=-1.4528195497457394e-05 -0.00022536562761086597 -0.00020942745963490857 0.0073364972580401673 -0.00057479106717684195 3.5346622202772767e-05 0.022571949713996481 0.0085776131245351977 0.015015163865984615 0.0051372292713494977 -0.0016938090493733235 0.022051214218999332 0.016959555222737521 0.0065103881696069793 -0.0003901611728748752 -7.7551355409586882e-05 0.01201455317437649 0.018991426723853996 0.00022848038913266395 -0.0012225104898200645 0.022974729398265482 0.015527534176056325 0.0059849620825843889 -0.0024028125188677858 0.0090944383692528521 0.015011674836277961 -0.0014798111821713474 0.0072852255987527316 0.00020312165915339184 -0.00046481721119147622 -0.0012279295013286175
leaf_weight=204447 1726 6742 21 585 213 21 21 66 32 22 26 22 33 1798 327 20 24 268 34 27 38 68 23 21 25 29 32 234 658 30
leaf_count=204447 1726 6742 21 585 213 21 21 66 32 22 26 22 33 1798 327 20 24 268 34 27 38 68 23 21 25 29 32 234 658 30
internal_value=0 0.000225258 0.00077828 0.00208567 0.00418887 0.00586762 0.0106274 0.0124028 0.0113404 0.00658208 0.0142334 0.00995373 0.0121802 5.8778e-05 0.000591711 0.00169855 0.00316976 0.00506597 0.00953773 0.011674 0.0099598 0.00855228 0.00626728 0.00087272 0.0084115 0.00274431 0.00290245 0.000790576 -0.000144628 0.00406906
internal_weight=0 13186 3051 1325 740 527 272 222 201 76 125 54 99 10135 3393 1595 887 560 271 205 178 154 116 289 93 50 66 255 708 50
internal_count=217633 13186 3051 1325 740 527 272 222 201 76 125 54 99 10135 3393 1595 887 560 271 205 178 154 116 289 93 50 66 255 708 50
shrinkage=0.05


Tree=75
num_leaves=31
num_cat=0
split_feature=30 16 16 40 40 6 36 38 23 21 40 36 16 40 40 44 16 6 30 13 40 40 44 23 34 44 15 44 20 15
split_gain=0.265038 0.440536 0.537458 0.671903 1.23788 1.21592 1.98913 1.13271 0.952266 0.832944 0.647597 0.264974 0.523318 0.467262 1.60079 1.18888 0.807922 0.82552 0.699285 0.366734 0.260681 3.11581 2.07696 2.50612 1.98705 1.89375 1.55976 1.55016 2.0313 1.42386
threshold=0.043133650000000003 2.3057600000000002e-06 3.6618400000000008e-05 -1.0422104999999997 0.60008550000000016 6.3193550000000007e-07 0.10225450000000001 0.6802760000000001 -8.0113399999999988 -9.5341149999999981 -0.14969009999999991 0.069832100000000022 -1.2815949999999998e-06 -0.49100999999999978 0.80350500000000014 -6.6176399999999989 -0.00018655899999999996 1.8853450000000003e-07 0.087932350000000006 2.1335350000000006e-05 0.20129000000000011 -0.10081500000000009 -2.1380549999999996 -10.311099999999998 0.36930950000000001 0.19419999999999996 -2.6163199999999997e-05 -0.16918499999999967 -12.926599999999999 5.5927550000000006e-05
decision_type=2 2 2 2 2 2 2 2 2 2 2 2 2 2 2 2 2 2 2 2 2 2 2 2 2 2 2 2 2 2
left_child=20 11 3 -3 5 6 -5 10 9 -8 -7 12 13 -2 15 19 -17 18 -18 -15 21 -1 -23 24 -24 27 -26 28 -25 -28
right_child=1 2 -4 4 -6 7 8 -9 -10 -11 -12 -13 -14 14 -16 16 17 -19 -20 -21 -22 22 23 25 26 -27 29 -29 -30 -31
leaf_value=-6.5254937093306458e-05 1.6769988469339324e-05 -5.7980638459788495e-06 0.0002165548918142225 -0.00028907759981718431 0.00038875726554579162 0.00075566881326570492 0.022788974429879871 -0.0046802539412012607 0.0058764316935346209 0.011218926977100118 0.012371007037775902 -0.00024583991980685148 -0.00014302144686805144 -0.0034363515229779299 3.1854363714955981e-06 0.00044904568163805055 0.010115181433844983 0.0054074979091334775 0.021130924447439612 0.0044488379436721705 -7.0230777821042475e-05 -0.00032847891354640779 0.0014758366877678048 0.0086751790599091296 -0.0040570051145130915 -0.00034419461787446213 0.0054293570539287652 0.0018025531289902004 -0.00016453136981576884 -0.0042710611829534176
leaf_weight=99437 274 232 794 42 192 24 28 42 33 35 24 2537 1065 30 240 22 34 39 25 29 95631 3974 2839 67 52 3648 697 3342 2165 40
leaf_count=99437 274 232 794 42 192 24 28 42 33 35 24 2537 1065 30 240 22 34 39 25 29 95631 3974 2839 67 52 3648 697 3342 2165 40
internal_value=0 0.000335216 0.00109007 0.00215384 0.00334678 0.00583774 0.00878648 0.00131633 0.012757 0.0163612 0.00656334 8.10785e-05 0.00055286 0.00162229 0.0026722 0.00625076 0.00910801 0.0110519 0.0147829 0.00043942 -9.08235e-06 4.12156e-05 0.000670502 0.000979447 0.00209271 0.000541481 0.00431236 0.00112113 0.000100818 0.00490288
internal_weight=0 5741 1446 652 420 228 138 90 96 63 48 4295 1758 693 419 179 120 98 59 59 211892 116261 16824 12850 3628 9222 789 5574 2232 737
internal_count=217633 5741 1446 652 420 228 138 90 96 63 48 4295 1758 693 419 179 120 98 59 59 211892 116261 16824 12850 3628 9222 789 5574 2232 737
shrinkage=0.05


Tree=76
num_leaves=31
num_cat=0
split_feature=39 4 4 24 41 41 43 6 31 12 0 23 21 41 43 4 24 4 41 41 3 41 4 20 20 43 41 18 21 28
split_gain=0.240806 0.411978 1.391 2.57851 1.78001 4.43583 1.36228 0.916552 1.20629 0.823897 0.679524 0.695723 0.634644 0.694862 0.571465 0.498723 1.2927 1.51915 1.91015 3.6773 1.37715 1.41059 0.822027 1.0036 0.650113 0.687566 0.653239 0.566586 0.541415 0.418267
threshold=0.013816900000000002 -0.42458499999999993 -2.2787549999999999 -0.59879749999999998 -0.81049899999999986 0.56931500000000013 6.1209300000000013 -1.1517499999999998e-06 0.28367950000000003 -0.00021507149999999998 3.4977250000000004 -10.954249999999998 -0.25801749999999996 -0.078199999999999964 1.1890849999999997 0.30910700000000008 0.69957950000000013 2.9223900000000005 0.68231549999999996 -0.41158849999999991 -7.2857699999999985 -0.17681499999999981 0.79460700000000006 -8.0887399999999996 6.7384950000000012 -0.465335 0.040430000000000084 7.6735600000000018e-05 11.881850000000002 0.34469700000000009
decision_type=2 2 2 2 2 2 2 2 2 2 2 2 2 2 2 2 2 2 2 2 2 2 2 2 2 2 2 2 2 2
left_child=-1 2 -2 4 -4 6 7 8 -6 -9 12 -12 13 -11 -14 -3 -17 18 19 28 21 -21 27 -24 25 -25 -27 -23 -18 -22
right_child=1 15 3 -5 5 -7 -8 9 -10 10 11 -13 14 -15 -16 16 17 -19 -20 20 29 22 23 24 -26 26 -28 -29 -30 -31
leaf_value=-1.3356952536967594e-05 -0.00021892889298963646 -0.00019506387324311162 3.883999303975821e-05 -0.00054578243802362158 0.023725379319318261 0.0005148602647661063 0.0024029364092432214 0.0019481275102187848 0.0083110090980136938 0.025169188641011715 -0.00060690655009238987 0.010863186696018929 0.0053693836421838835 0.011989067246904598 0.016006087025870447 -0.00037103524283305496 0.00020671478663263854 -0.00014280650313445366 -7.3436061046741317e-05 0.02159189457004821 -0.001223141077806598 0.010245741709050807 0.020500115454196929 0.012910628767817149 0.015764413441398315 0.0089801241093399858 -0.0032044281717389825 -0.00024602650214106808 0.0085436584472301461 0.0067412839620374148
leaf_weight=204447 1726 6742 213 585 30 244 52 29 22 20 20 39 28 20 23 1798 268 708 327 27 34 22 25 28 28 22 22 31 21 32
leaf_count=204447 1726 6742 213 585 30 244 52 29 22 20 20 39 28 20 23 1798 268 708 327 27 34 22 25 28 28 22 22 31 21 32
internal_value=0 0.000207098 0.000716477 0.00193498 0.00389611 0.00545513 0.00971458 0.0113605 0.0172039 0.00966296 0.0111545 0.00697502 0.0138643 0.0185791 0.0101663 5.37561e-05 0.000548169 0.00158436 0.00296298 0.00473604 0.00892016 0.0109426 0.00932724 0.0115398 0.00929966 0.0067856 0.00288785 0.00410905 0.000812513 0.0026384
internal_weight=0 13186 3051 1325 740 527 283 231 52 179 150 59 91 40 51 10135 3393 1595 887 560 271 205 178 125 100 72 44 53 289 66
internal_count=217633 13186 3051 1325 740 527 283 231 52 179 150 59 91 40 51 10135 3393 1595 887 560 271 205 178 125 100 72 44 53 289 66
shrinkage=0.05


Tree=77
num_leaves=31
num_cat=0
split_feature=34 3 41 40 4 18 24 24 18 4 18 39 23 1 24 43 21 28 35 21 18 29 4 43 9 31 11 40 30 21
split_gain=0.223345 0.526576 0.683479 2.70153 1.21405 1.71802 2.73348 1.28078 2.63002 2.30376 1.4409 1.268 1.47233 0.8125 0.836035 0.768815 0.7668 0.724771 0.71074 0.884521 0.69257 0.636332 0.975528 0.994707 0.546892 0.460929 0.779701 0.459003 0.431553 0.422026
threshold=1.1210650000000002 -11.394249999999998 0.48750300000000008 0.49120000000000014 -3.6469799999999997 -0.00059694499999999988 -0.59879749999999998 0.60591150000000005 1.3181750000000001e-05 4.1822950000000008 1.5907400000000004e-07 0.12384550000000001 -10.421199999999997 -3.3144899999999997 -1.4574199999999997 -0.23716000000000023 4.5505850000000008 -0.13224499999999997 -0.17054099999999997 4.904135000000001 -0.0015010249999999998 -0.15264749999999996 1.4464300000000001 1.1890849999999997 -2.3611749999999996e-05 1.8209950000000001 -6.7024799999999989e-05 5.6762150000000009 0.011952750000000002 -2.0281699999999994
decision_type=2 2 2 2 2 2 2 2 2 2 2 2 2 2 2 2 2 2 2 2 2 2 2 2 2 2 2 2 2 2
left_child=-1 2 3 4 -2 6 13 10 25 11 15 12 21 -6 -15 16 17 -7 -17 24 -16 -10 23 -23 -20 -9 -27 -5 -21 -26
right_child=1 -3 -4 27 5 7 -8 8 9 -11 -12 -13 -14 14 20 18 -18 -19 19 28 -22 22 -24 -25 29 26 -28 -29 -30 -31
leaf_value=-1.644682542108547e-05 -0.0019245817035813712 3.6118582494682171e-06 -9.6814903123577372e-05 -5.6696655576751082e-05 0.020602386832237245 -0.0040057782183534332 -0.0032161990087034714 -0.0022479361627456792 0.017147365497011277 -0.0011172211858451945 -0.0025877136811605951 0.018827751209693298 -0.0033874305532030436 0.017316931446215936 -0.00015890829302158885 0.014009611261214808 -0.006714326232516517 0.0078765231809070843 0.0072089450256696544 0.015054955845144356 0.011365336488279355 0.0074419958595535714 -0.00061893320981534609 0.01808327093385742 0.0034505625531892296 -0.001862828605414008 0.010141252456378425 0.0058845438664844336 0.0047924317858996802 -0.0059905628688785989
leaf_weight=196876 109 15194 2264 2184 25 21 36 108 27 58 180 35 23 28 22 22 30 33 23 21 32 70 23 32 20 31 24 33 20 29
leaf_count=196876 109 15194 2264 2184 25 21 36 108 27 58 180 35 23 28 22 22 30 33 23 21 32 70 23 32 20 31 24 33 20 29
internal_value=0 0.000155995 0.000572192 0.00103131 0.00307942 0.00363999 0.00870172 0.00276791 0.00465771 0.00770377 0.000726543 0.01014 0.0084025 0.0127115 0.0103057 0.00345059 -0.00030507 0.00325563 0.00578744 0.00418667 0.00667027 0.0101865 0.00868295 0.0107804 0.000848481 -0.00035052 0.00337532 3.17386e-05 0.0100488 -0.00213704
internal_weight=0 20757 5563 3299 1082 973 143 830 431 268 399 210 175 107 82 219 84 54 135 113 54 152 125 102 72 163 55 2217 41 49
internal_count=217633 20757 5563 3299 1082 973 143 830 431 268 399 210 175 107 82 219 84 54 135 113 54 152 125 102 72 163 55 2217 41 49
shrinkage=0.05


Tree=78
num_leaves=31
num_cat=0
split_feature=41 41 41 4 34 44 43 23 32 13 4 24 4 38 14 4 6 4 34 43 39 44 30 40 19 25 40 4 24 38
split_gain=0.218409 1.51848 1.66343 1.19132 1.17086 1.58922 1.01579 1.07271 1.21787 0.995957 1.38793 3.88833 1.39993 3.37702 1.409 1.23037 1.10444 0.946425 0.913629 1.15788 0.851446 0.8042 0.89036 1.45919 1.05559 2.24268 1.54398 1.013 3.99916 3.54948
threshold=-0.60497499999999982 0.12358499999999996 -0.026150000000000003 -1.4133199999999999 0.7542350000000001 -4.4138449999999994 3.0124600000000004 -14.94685 1.3481400000000001 0.00037732250000000004 0.41110300000000005 0.53020800000000012 -0.15279949999999998 0.020214400000000004 0.00034418150000000005 1.7937450000000001 3.1919750000000004e-07 1.3297700000000001 6.2013600000000011 0.027469999999999221 0.053913100000000005 2.6702450000000004 0.00047047500000000009 -0.018010000000000078 5.2173100000000012e-08 5.5910550000000008 -0.058960000000000005 0.18356700000000004 0.22465500000000002 0.0018141400000000003
decision_type=2 2 2 2 2 2 2 2 2 2 2 2 2 2 2 2 2 2 2 2 2 2 2 2 2 2 2 2 2 2
left_child=-1 2 4 -4 -2 -6 7 8 -5 10 12 -12 13 -7 -15 16 -13 20 -16 -20 21 22 23 -9 25 -24 27 29 -29 -26
right_child=1 -3 3 6 5 9 -8 17 -10 -11 11 15 -14 14 18 -17 -18 -19 19 -21 -22 -23 24 -25 26 -27 -28 28 -30 -31
leaf_value=-6.2444239036205489e-05 -7.7244555516555805e-05 -5.3322828366003411e-05 -0.00097700501073092741 0.0027646586008039059 -0.00022352108020596249 -0.002259009457250217 -0.00020003783842332097 -0.00057672158823546249 0.01500980170177562 -0.0015051323570538268 -0.0020182476169555903 0.0089709530918612602 -0.00037923663812608835 0.019681225373788039 0.004517974917233567 0.0026909459933231118 0.018024002221864066 -0.0008718849005003677 0.0030736955681017471 0.018489941020078702 -0.0053812785834378126 -0.00052603760160675251 0.0013997451362243564 0.0014899424017051025 -0.0041063720981701799 -0.010093563576411529 0.001948390854727914 -0.010800108561736787 0.01236021530482399 0.0086480322754820243
leaf_weight=85207 17214 101478 839 614 1239 156 1545 1125 21 155 111 113 415 20 217 50 48 602 21 29 49 599 253 3547 92 51 1545 22 122 134
leaf_count=85207 17214 101478 839 614 1239 156 1545 1125 21 155 111 113 415 20 217 50 48 602 21 29 49 599 253 3547 92 51 1545 22 122 134
internal_value=0 4.01786e-05 0.000346768 0.000834886 7.14806e-05 0.0010661 0.000982175 0.0011903 0.00316962 0.00226299 0.00275795 0.00555712 0.00170745 0.00366225 0.00688077 0.00954226 0.01167 0.00103591 0.00592193 0.0120151 0.00118826 0.00123123 0.00138398 0.000992297 0.00220866 -0.000528409 0.00264316 0.00554431 0.00882183 0.00345597
internal_weight=0 132426 30948 11160 19788 2574 10321 8776 635 1335 1180 322 858 443 287 211 161 8141 267 50 7539 7490 6891 4672 2219 304 1915 370 144 226
internal_count=217633 132426 30948 11160 19788 2574 10321 8776 635 1335 1180 322 858 443 287 211 161 8141 267 50 7539 7490 6891 4672 2219 304 1915 370 144 226
shrinkage=0.05


Tree=79
num_leaves=31
num_cat=0
split_feature=30 16 3 43 40 40 13 10 36 4 4 26 24 21 16 36 16 40 40 43 1 17 26 16 13 41 41 43 23 34
split_gain=0.206325 0.35651 0.448233 1.1131 0.292499 0.936324 0.752418 0.868864 1.17858 0.904275 1.23215 0.749432 0.516223 0.731453 0.278384 0.210728 0.400955 0.351372 1.21063 0.957458 0.779053 1.05898 0.969191 0.470611 0.307727 0.208052 2.49162 1.69164 2.04946 1.6671
threshold=0.043133650000000003 2.3057600000000002e-06 -5.392034999999999 3.8152399999999997 -0.71412249999999966 0.60008550000000016 0.00033872700000000009 3.8349550000000013e-05 -0.14294799999999999 0.79460700000000006 -0.51868499999999995 -0.062701649999999984 -1.1409399999999998 5.8567400000000012 2.3811300000000004e-05 0.069832100000000022 -1.2815949999999998e-06 -0.49100999999999978 0.80350500000000014 6.5436949999999996 -4.6697349999999984 -3.0819049999999996e-06 0.0058547700000000013 -7.0069149999999991e-06 2.1335350000000006e-05 -0.2029299999999998 0.057875000000000128 2.1254700000000009 -11.621199999999998 0.35804150000000007
decision_type=2 2 2 2 2 2 2 2 2 2 2 2 2 2 2 2 2 2 2 2 2 2 2 2 2 2 2 2 2 2
left_child=25 15 4 -4 -3 6 7 8 -6 10 11 -10 -9 14 -14 16 17 -2 19 20 -19 -22 23 -23 -21 -1 27 28 29 -27
right_child=1 2 3 -5 5 -7 -8 12 9 -11 -12 -13 13 -15 -16 -17 -18 18 -20 24 21 22 -24 -25 -26 26 -28 -29 -30 -31
leaf_value=-6.2675430144531802e-05 3.1705578496496653e-05 -7.5177989869752316e-05 0.014844824721076295 0.0009649017360621097 -0.00031157924569038772 -5.7417807731089062e-05 -0.0012535299217581591 -0.0025898221217479055 0.0038999855772338132 0.01720753327322503 -0.0024502457400861506 0.015743462331866957 0.012158572177092236 -0.0031683719589967623 0.0041102433668956193 -0.00022439515448498433 -0.00012124398991874388 0.00019841581338550897 1.3329926640229435e-05 -0.0032842402061214675 0.0017694446577311116 0.01388160321814077 0.022717093236278744 0.0037622439698316158 0.0038773176456258322 0.0014801249351228262 -5.2834831379907602e-05 -0.00034347034706102409 0.00059295601626648095 0.0045879793559690128
leaf_weight=95566 274 584 20 52 39 460 68 48 22 30 24 34 21 22 22 2537 1065 25 240 30 27 27 20 20 30 1729 101122 3430 9470 575
leaf_count=95566 274 584 20 52 39 460 68 48 22 30 24 34 21 22 22 2537 1065 25 240 30 27 27 20 20 30 1729 101122 3430 9470 575
internal_value=0 0.000295766 0.000974828 0.00482044 0.000773311 0.00140055 0.00343287 0.00464918 0.00715668 0.00980452 0.00702839 0.0110907 0.00134283 0.00424694 0.00804082 6.71453e-05 0.000487872 0.00142396 0.00233441 0.00544647 0.00804307 0.0101294 0.0134984 0.00957549 0.000296539 -8.01347e-06 3.68933e-05 0.000633676 0.000918339 0.00225574
internal_weight=0 5741 1446 72 1374 790 330 262 149 110 80 56 113 65 43 4295 1758 693 419 179 119 94 67 47 60 211892 116326 15204 11774 2304
internal_count=217633 5741 1446 72 1374 790 330 262 149 110 80 56 113 65 43 4295 1758 693 419 179 119 94 67 47 60 211892 116326 15204 11774 2304
shrinkage=0.05


Tree=80
num_leaves=31
num_cat=0
split_feature=4 18 24 40 40 4 44 39 43 40 4 21 34 4 40 44 43 40 24 44 3 10 33 4 20 31 24 4 4 40
split_gain=0.190511 0.254381 2.62994 1.90259 6.5763 3.72051 2.84842 2.67335 2.07314 1.36973 1.71237 1.27772 0.908882 0.834916 1.11895 1.43529 1.43095 1.29954 0.969654 0.92659 0.887341 0.856448 0.859415 0.813122 0.786677 0.716387 0.672132 1.39677 2.56208 2.56302
threshold=-2.2787549999999999 -1.6062999999999998e-06 -0.27366849999999993 0.62909250000000005 -0.3562499999999999 -0.20992299999999997 -3.4537049999999998 0.00050174200000000012 -5.5958699999999988 -0.10081500000000009 -0.38361349999999994 14.003250000000001 34.706300000000006 -1.4133199999999999 0.077348000000000056 1.4428800000000004 -2.2545749999999996 0.30085850000000008 -0.59879749999999998 -0.77194499999999999 -12.510449999999999 3.8569350000000007e-05 3.1908200000000007e-05 -0.58642949999999983 6.3381100000000012 -0.39250049999999997 0.41602950000000005 0.20333750000000003 1.5563800000000001 -0.3819765
decision_type=2 2 2 2 2 2 2 2 2 2 2 2 2 2 2 2 2 2 2 2 2 2 2 2 2 2 2 2 2 2
left_child=-1 2 3 4 -2 6 12 23 -9 10 -10 13 -6 20 15 19 -16 18 21 -15 -11 22 -18 -8 -20 -19 -3 -28 29 -29
right_child=1 26 -4 -5 5 -7 7 8 9 11 -12 -13 -14 14 16 -17 17 25 24 -21 -22 -23 -24 -25 -26 -27 27 28 -30 -31
leaf_value=-0.00012046790497601613 6.517761127413453e-05 -5.5481482764886924e-05 -5.5645027102944827e-05 -4.1037016830361588e-05 -0.00018600233803244391 0.00019765139421929379 -0.00052354996069045817 -0.003673427777054409 0.015844429190060599 0.008598802930733656 0.0020753229598932227 0.018736960998047954 0.010563586880674675 0.0092680701934378835 -0.00071280113235116008 0.01527091720806701 0.016216061179610816 -0.0019691590580069238 0.027071261405944826 0.0029985185584980082 -0.003530165215028989 0.020362879205495121 0.0037369052527119989 0.0040677053817910888 0.013686184664922102 0.010941758845266041 -0.00016081958824885412 -1.7943890897487039e-05 -6.0908459576422633e-05 0.0029977828517571727
leaf_weight=28518 3592 122503 42842 3631 309 636 121 39 102 25 29 23 21 79 25 35 22 21 23 232 38 20 37 475 21 22 7496 1106 3649 1941
leaf_count=28518 3592 122503 42842 3631 309 636 121 39 102 25 29 23 21 79 25 35 22 21 23 232 38 20 37 475 21 22 7496 1106 3649 1941
internal_value=0 1.81662e-05 0.00011181 0.000860827 0.00141147 0.00346492 0.00467376 0.00566582 0.00756748 0.00814891 0.0127963 0.00717169 0.000498062 0.00672835 0.0073672 0.00567143 0.0104391 0.0121186 0.0147344 0.00459111 0.00128292 0.0114212 0.00839015 0.00313559 0.0206829 0.00463643 -1.77443e-05 0.000307997 0.000832825 0.00190313
internal_weight=0 189115 52420 9578 5947 2355 1719 1389 793 754 131 623 330 600 537 346 191 166 123 311 63 79 59 596 44 43 136695 14192 6696 3047
internal_count=217633 189115 52420 9578 5947 2355 1719 1389 793 754 131 623 330 600 537 346 191 166 123 311 63 79 59 596 44 43 136695 14192 6696 3047
shrinkage=0.05


Tree=81
num_leaves=31
num_cat=0
split_feature=30 16 3 44 40 40 13 14 6 4 21 14 11 14 11 35 36 44 43 41 40 1 43 30 40 13 40 19 19 24
split_gain=0.175118 0.310907 0.400977 0.966232 0.238381 0.76838 0.633471 1.17759 0.737349 0.740746 1.00505 0.720152 0.682772 0.597955 0.572262 0.302078 0.206041 0.183625 1.40318 0.956373 2.57996 0.765672 1.82628 0.892714 1.70847 1.2191 0.733698 0.669344 0.891014 0.62069
threshold=0.043133650000000003 2.3057600000000002e-06 -5.4431949999999993 -3.5832099999999993 -0.71412249999999966 0.60008550000000016 0.00033872700000000009 0.025521750000000003 6.3193550000000007e-07 -2.1602949999999992 -9.5341149999999981 0.0015288700000000001 0.00010408000000000001 0.0007810015000000002 -8.1674799999999979e-06 0.48186100000000004 1.8680450000000002 -0.47859499999999983 -0.12174999999999957 0.29985500000000015 0.1751400000000001 11.597950000000003 0.27381999999999979 0.0012351400000000002 0.10022550000000004 2.4792000000000003e-05 -0.079468000000000025 3.2780400000000001e-07 0.00021631850000000002 0.82362200000000019
decision_type=2 2 2 2 2 2 2 2 2 2 2 2 2 2 2 2 2 2 2 2 2 2 2 2 2 2 2 2 2 2
left_child=17 -2 4 16 -3 6 7 8 9 -6 14 13 15 -10 -11 -12 -4 -1 -19 20 21 23 -23 -20 26 -26 27 -25 -29 -28
right_child=1 2 3 -5 5 -7 -8 -9 11 10 12 -13 -14 -15 -16 -17 -18 18 19 -21 -22 22 -24 24 25 -27 29 28 -30 -31
leaf_value=-4.9776740618633329e-05 5.8982941717227648e-05 -6.601864528904414e-05 -0.00091167122211517409 0.013552821809883295 -0.0031350910242694723 -6.0033597530471553e-05 -0.0011865302185188901 0.014118899900198881 -0.0012815810783625081 0.0076695909063952674 0.003311162542633932 -0.0047374419840746267 0.010658092589785709 0.01053956103976816 0.019121379144489765 -0.0043159799802760107 0.0052785255679918923 -3.9598064956069341e-05 0.0013297166625959997 -0.00010654800739737722 -8.7407426400281442e-05 0.00031604838591339367 -0.01502439800457543 -0.0013690361415501684 0.018017435778165235 0.0025134547524863766 0.0020830473352828156 0.013007818223753324 0.0035591031699628468 -0.0061511957683554408
leaf_weight=115815 4295 580 41 21 22 455 68 27 23 24 34 47 23 20 20 21 20 80728 4801 4762 4943 124 23 25 32 21 493 45 56 24
leaf_count=115815 4295 580 41 21 22 455 68 27 23 24 34 47 23 20 20 21 20 80728 4801 4762 4943 124 23 25 32 21 493 45 56 24
internal_value=0 0.000272481 0.000906627 0.00430245 0.000702479 0.00127101 0.00311182 0.00423169 0.00309086 0.00530976 0.00683261 -0.000459388 0.0034241 0.00421662 0.0128749 0.000398981 0.0011179 -7.3826e-06 4.3721e-05 0.000481937 0.000746636 0.00147709 -0.00208416 0.00157232 0.00324582 0.0118743 0.0025346 0.00595584 0.00776893 0.0017008
internal_weight=0 5741 1446 82 1364 784 329 261 234 144 122 90 78 43 44 55 61 211892 96077 15349 10587 5644 147 5497 696 53 643 126 101 517
internal_count=217633 5741 1446 82 1364 784 329 261 234 144 122 90 78 43 44 55 61 211892 96077 15349 10587 5644 147 5497 696 53 643 126 101 517
shrinkage=0.05


Tree=82
num_leaves=31
num_cat=0
split_feature=15 41 40 41 30 15 35 41 26 35 15 15 40 21 24 11 16 6 0 4 43 23 29 44 43 3 15 40 40 15
split_gain=0.169112 0.226072 1.49414 1.40572 1.10889 1.60835 3.06158 1.38936 1.50086 0.914155 1.7635 1.36799 1.6578 1.0654 0.913022 0.907751 0.903528 1.22005 0.872035 0.909914 0.811209 0.911445 0.806373 0.799664 1.19421 0.713955 0.687037 0.713314 0.668579 0.851214
threshold=-2.6163199999999997e-05 -0.60497499999999982 -0.12496499999999998 -0.026150000000000003 0.0021377100000000006 -1.0829649999999997e-06 -0.0097302449999999985 -0.2029299999999998 0.011675600000000003 -0.0044675849999999987 4.7226350000000001e-07 4.6826750000000007e-05 0.2761725000000001 6.8372650000000013 0.62895050000000008 5.8604700000000005e-05 1.2179350000000004e-06 1.8853450000000003e-07 -3.4028749999999994 -0.68745799999999979 2.7930350000000002 -10.262699999999999 -0.18041899999999997 3.6866600000000003 -1.6462299999999999 -14.267049999999999 -3.7519499999999994e-07 0.1751400000000001 0.077348000000000056 9.1030600000000033e-06
decision_type=2 2 2 2 2 2 2 2 2 2 2 2 2 2 2 2 2 2 2 2 2 2 2 2 2 2 2 2 2 2
left_child=-1 -2 -3 4 -4 6 7 8 -6 26 16 12 14 -14 18 -16 -11 -18 28 -20 21 -5 -23 24 -9 -22 -7 -28 -12 -30
right_child=1 2 3 20 5 9 -8 23 -10 10 11 -13 13 -15 15 -17 17 -19 19 -21 25 22 -24 -25 -26 -27 27 -29 29 -31
leaf_value=-0.00011141257424021253 -5.1564798919075531e-05 -4.0159702335998908e-05 -0.00011639176881756853 0.0018021940650139565 0.0003206579122303619 0.0031053636255308462 -0.00085111868382292807 0.020784919442875045 0.014734528737053984 -0.00065252157344796596 0.0036260075831142744 -0.00030893535668242143 -0.00036409666293915562 0.0099006675944737846 0.0060174984584117075 0.016184456949953789 0.012416783998742176 -0.0010910782282007858 -0.0066972108403443482 0.0041591369121306348 0.0074774929995570956 -0.0031860988907061005 0.00077930813142314031 -0.00098464181181043384 0.008195970966887808 -0.0003054022402239941 -0.0025260023269295232 -7.6190176176512697e-05 0.016062332574510948 0.0034289358463138343
leaf_weight=29451 72790 87691 13251 2664 129 121 280 21 21 925 42 232 197 29 46 42 32 35 23 120 30 131 6006 20 183 1657 427 977 40 20
leaf_count=29451 72790 87691 13251 2664 129 121 280 21 21 925 42 232 197 29 46 42 32 35 23 120 30 131 6006 20 183 1657 427 977 40 20
internal_value=0 1.74364e-05 6.09627e-05 0.000381079 0.00010305 0.000836977 0.00310265 0.00606268 0.0023386 0.000389048 0.00115775 0.00291871 0.00425826 0.000953063 0.00650143 0.0108699 -0.000246404 0.00536044 0.00493235 0.00241301 0.000837382 0.0010299 0.000694663 0.00855649 0.00949189 -0.000166999 -0.0005097 -0.000821254 0.00846436 0.0118512
internal_weight=0 188182 115392 27701 17213 3962 654 374 150 3308 1783 791 559 226 333 88 992 67 245 143 10488 8801 6137 224 204 1687 1525 1404 102 60
internal_count=217633 188182 115392 27701 17213 3962 654 374 150 3308 1783 791 559 226 333 88 992 67 245 143 10488 8801 6137 224 204 1687 1525 1404 102 60
shrinkage=0.05


Tree=83
num_leaves=31
num_cat=0
split_feature=4 18 24 41 40 4 39 43 43 40 40 6 43 4 4 24 4 24 43 24 43 24 4 4 41 40 25 43 14 40
split_gain=0.155624 0.214099 2.29078 1.6779 6.77528 2.45535 2.62091 1.80573 1.19066 1.37068 1.20287 1.66975 1.12699 0.980478 0.940697 1.03451 1.03471 1.01269 0.933598 0.665087 0.648904 0.608169 0.996552 1.86562 2.11721 8.51758 3.09408 1.40422 1.42193 1.32523
threshold=-2.2787549999999999 -1.6062999999999998e-06 -0.24039599999999997 -0.33012499999999995 -0.25142799999999998 -0.20278049999999997 0.00050174200000000012 4.9203450000000002 -4.0456399999999988 -0.10081500000000009 0.077348000000000056 -1.7326199999999999e-06 -1.4591200000000002 -0.63310749999999982 -1.4133199999999999 -0.59879749999999998 -0.75155249999999996 -0.96093699999999993 0.80790999999999979 -0.50105749999999993 1.7675950000000007 0.21027850000000003 0.17191050000000002 1.5563800000000001 0.35345999999999994 0.2761725000000001 2.5401000000000002 -3.7428349999999995 0.0083088400000000014 0.077348000000000056
decision_type=2 2 2 2 2 2 2 2 2 2 2 2 2 2 2 2 2 2 2 2 2 2 2 2 2 2 2 2 2 2
left_child=-1 2 3 -2 -5 6 13 8 -8 -10 12 -12 -11 -6 -13 16 -16 -18 -14 -7 -15 -3 -23 24 25 26 -24 -28 29 -29
right_child=1 21 -4 4 5 19 7 -9 9 10 11 14 18 20 15 -17 17 -19 -20 -21 -22 22 23 -25 -26 -27 27 28 -30 -31
leaf_value=-0.00010888019240744577 1.6824862218321466e-05 -7.3960186394441538e-05 -6.9054911294556966e-05 0.00010263242579564361 -0.0010734099722980485 -0.0018121393103231395 -0.00077746998445252843 -0.00024364775892389917 0.013464191861842809 0.013345941214356572 0.023941039523342627 -0.0009818066038529982 0.0028048820655741874 0.0039899053667891158 0.013832028262473423 0.016609564412731766 -0.0052627792920578618 0.0080928060912992799 0.0084782090350574123 0.0018696473820357343 -0.00042784389904424185 -0.00010247469771159859 0.0024666920905924827 -7.5656030869258534e-05 -3.1022924759834845e-05 9.9763138710874076e-06 -0.001929611249781576 0.0054273105376170501 0.014294376265206667 0.01078188018198928
leaf_weight=28518 4659 105428 41313 4265 153 183 42 87 95 40 20 22 245 581 38 43 22 40 103 372 97 15782 947 7900 2929 2886 45 569 64 145
leaf_count=28518 4659 105428 41313 4265 153 183 42 87 95 40 20 22 245 581 38 43 22 40 103 372 97 15782 947 7900 2929 2886 45 569 64 145
internal_value=0 1.64188e-05 0.000102328 0.000739797 0.00126218 0.00352763 0.00450671 0.00655523 0.00738833 0.00790175 0.00697953 0.0102972 0.00539765 0.002542 0.00864339 0.0101242 0.00733548 0.00335373 0.00448406 0.000655653 0.00335787 -1.65259e-05 0.000177135 0.000462107 0.0010222 0.00168477 0.00441552 0.00665798 0.00715469 0.00651472
internal_weight=0 189115 52420 11107 6448 2183 1628 797 710 668 573 185 388 831 165 143 100 62 348 555 678 136695 31267 15485 7585 4656 1770 823 778 714
internal_count=217633 189115 52420 11107 6448 2183 1628 797 710 668 573 185 388 831 165 143 100 62 348 555 678 136695 31267 15485 7585 4656 1770 823 778 714
shrinkage=0.05


Tree=84
num_leaves=31
num_cat=0
split_feature=30 16 16 41 40 21 38 40 15 36 20 36 16 3 33 40 16 6 40 40 22 22 4 44 43 41 40 40 34 4
split_gain=0.149708 0.267204 0.37414 0.396806 0.944346 0.8929 0.727059 1.06162 0.435183 0.4296 0.694044 0.156044 0.342167 0.312901 0.597391 0.460113 0.330534 0.566223 0.811198 1.37935 0.498075 0.144816 0.141949 0.232365 1.29126 0.826901 2.02928 0.855249 2.18028 1.63992
threshold=0.043133650000000003 3.3134750000000005e-06 3.6618400000000008e-05 1.0338880000000001 0.60008550000000016 -19.754149999999996 1.0252250000000003 0.20129000000000011 -5.9855799999999987e-07 0.18330700000000003 4.1736500000000012 0.069832100000000022 -1.2815949999999998e-06 -15.867949999999999 0.00058287550000000012 0.2761725000000001 -3.5869249999999995e-05 1.2112450000000003e-07 -0.46506469999999994 0.80350500000000014 0.13387500000000005 2.4316000000000004 -1.6465649999999996 -0.47859499999999983 -0.12174999999999957 0.29985500000000015 0.1751400000000001 0.056773999999999998 0.010080700000000001 1.0072750000000001
decision_type=2 2 2 2 2 2 2 2 2 2 2 2 2 2 2 2 2 2 2 2 2 2 2 2 2 2 2 2 2 2
left_child=22 11 3 4 5 -3 7 9 -8 -7 -11 12 13 14 15 -2 -15 18 -18 20 -20 -19 -1 -24 -25 26 27 -26 -29 -30
right_child=1 2 -4 -5 -6 6 8 -9 -10 10 -12 -13 -14 16 -16 -17 17 21 19 -21 -22 -23 23 24 25 -27 -28 28 29 -31
leaf_value=-0.00010390694261629649 0.013867442273767667 0.012802779948106037 0.0001620146587907826 2.7422933299437187e-05 0.00010083765387023676 -0.00082055420631042906 0.0037753740145350235 0.015863867008804596 -0.0050625990798774494 0.0012016252847388388 0.012481757278088481 -0.00018711794938921253 -0.0001279755110030581 -0.00023064905483014656 -0.00050970123496988577 0.0031423209988861349 -0.00012129987901841691 -0.00038402686309806696 0.0072458726795957776 -0.0001102916788747252 0.01765632207022497 0.0038767814157915346 -3.935658080122527e-05 -1.7917098292809803e-05 0.0012494331689572526 -9.1828983680779846e-05 -7.1907446934904397e-05 -0.0048894018832255498 0.0078151564671573928 -0.0047170738802136229
leaf_weight=31972 20 32 794 197 173 34 26 22 30 30 25 2584 1101 310 34 20 56 150 20 33 27 23 101790 64558 5231 3938 4117 55 201 30
leaf_count=31972 20 32 794 197 173 34 26 22 30 30 25 2584 1101 310 34 20 56 150 20 33 27 23 101790 64558 5231 3938 4117 55 201 30
internal_value=0 0.000251938 0.000863284 0.00184186 0.00280273 0.00515161 0.00368551 0.00602882 -0.000959254 0.00359768 0.00632896 6.16076e-05 0.000419861 0.00129023 0.00436305 0.00850488 0.000922886 0.00208015 0.00449416 0.00772498 0.0132263 0.000182439 -6.826e-06 1.04254e-05 7.52828e-05 0.000518607 0.000768129 0.001395 0.0040574 0.00618759
internal_weight=0 5741 1363 569 372 199 167 111 56 89 55 4378 1794 693 74 40 619 309 136 80 47 173 211892 179920 78130 13572 9634 5517 286 231
internal_count=217633 5741 1363 569 372 199 167 111 56 89 55 4378 1794 693 74 40 619 309 136 80 47 173 211892 179920 78130 13572 9634 5517 286 231
shrinkage=0.05


Tree=85
num_leaves=31
num_cat=0
split_feature=34 3 41 41 33 36 7 7 18 18 4 4 24 43 41 41 33 3 20 35 20 9 3 25 7 2 31 13 44 43
split_gain=0.135834 0.443383 0.372762 1.11926 0.921622 0.872345 0.47563 0.391053 0.476185 0.562013 0.198529 0.643232 1.17005 1.3826 1.57974 2.11643 1.30624 0.732294 0.674337 0.176213 0.166717 0.444432 0.395745 0.406772 0.17456 0.165118 0.215562 0.135788 0.23749 1.13429
threshold=3.2423100000000002 -15.510599999999998 0.70899650000000014 -0.41158849999999991 0.00091355850000000014 -0.96073299999999995 2.9468450000000004e-05 4.0354750000000005e-05 8.913810000000002e-05 -0.00036585349999999998 -0.54650249999999989 -2.3911599999999997 -0.82489099999999993 5.2734150000000009 -0.71931549999999989 0.54185499999999998 0.0002933525000000001 -11.394249999999998 4.394750000000001 0.33249250000000002 19.256550000000001 2.1412350000000005e-05 -5.270789999999999 26.434800000000003 3.6985700000000007e-05 2.8579150000000006 -1.6647349999999996 9.8903300000000019e-05 -0.47859499999999983 -0.15760999999999911
decision_type=2 2 2 2 2 2 2 2 2 2 2 2 2 2 2 2 2 2 2 2 2 2 2 2 2 2 2 2 2 2
left_child=27 2 3 25 5 -5 -7 -8 9 -9 11 -3 13 14 -13 16 -16 -15 19 -18 -12 -22 23 -23 -25 -2 -27 28 -1 -30
right_child=1 10 -4 4 -6 6 7 8 -10 -11 20 12 -14 17 15 -17 18 -19 -20 -21 21 22 -24 24 -26 26 -28 -29 29 -31
leaf_value=-3.9398156175477713e-05 -0.00022352630499125134 -0.0002007296188296045 -8.1061207880766775e-05 0.014049699066890754 -0.0019985318492552707 0.010766629581458229 -0.0021325265355408192 0.0067424488819337316 0.01001175383362958 -0.0039367259059376507 -9.8543281022431787e-05 -0.00044424368900729825 -0.00038131943499003057 0.0084021480026422075 0.004490217838125924 0.00096194857395150591 0.017769328695721925 -0.00064920339561850941 0.025515250755207882 0.011132074636407197 -0.00025312618011623568 0.0067061267489849086 0.0094169125166012058 0.0040091541784372216 -0.00072921348304613254 -0.00044933088705874976 0.0068916785133478695 -8.7949016712159849e-05 -1.8286043784204965e-05 0.00048726557438090831
leaf_weight=95150 267 1121 306 32 38 27 25 28 30 22 6810 54 343 26 24 45 20 159 21 20 297 35 21 26 77 20 20 42831 55895 13843
leaf_count=95150 267 1121 306 32 38 27 25 28 30 22 6810 54 343 26 24 45 20 159 21 20 297 35 21 26 77 20 20 42831 55895 13843
internal_value=0 0.000180811 0.00129807 0.00212717 0.00501765 0.00664335 0.00484787 0.00332591 0.00503167 0.00204361 8.07379e-05 0.000545736 0.001721 0.00367519 0.00674409 0.00973001 0.0143719 0.000622878 0.0182598 0.0144507 -3.65676e-05 0.000888991 0.00302238 0.0020493 0.000466879 0.000225295 0.00322117 -8.62974e-06 1.19741e-05 8.2066e-05
internal_weight=0 9914 815 509 202 164 132 105 80 50 9099 1833 712 369 184 130 85 185 61 40 7266 456 159 138 103 307 40 207719 164888 69738
internal_count=217633 9914 815 509 202 164 132 105 80 50 9099 1833 712 369 184 130 85 185 61 40 7266 456 159 138 103 307 40 207719 164888 69738
shrinkage=0.05


Tree=86
num_leaves=31
num_cat=0
split_feature=15 20 0 18 33 29 4 15 38 3 43 3 41 40 21 24 20 35 15 25 5 37 40 40 4 44 36 3 21 28
split_gain=0.126575 0.172716 0.578256 0.581482 0.757565 0.638971 0.291576 0.169868 0.747756 0.16677 0.354672 0.534566 0.577229 1.66432 1.16442 0.83605 0.784535 0.674645 0.594358 0.581143 0.578378 0.655209 0.553181 0.43052 0.517936 0.572927 0.521191 0.506216 0.495238 0.39573
threshold=-2.6163199999999997e-05 -14.223749999999997 -8.8447699999999987 -1.0730149999999997e-06 1.5735400000000003e-06 0.70424300000000006 0.23828700000000003 -2.7784749999999993e-06 -0.55203199999999986 -7.4497099999999987 -1.8432249999999992 -14.092499999999999 0.48750300000000008 0.327845 -5.8485049999999994 0.62895050000000008 -6.9945499999999994 0.098593250000000007 -1.2624199999999998e-05 53.742400000000011 7.5984950000000007e-06 5.3317650000000004e-06 -0.027530000000000051 -0.12496499999999998 -1.6465649999999996 0.71026 -0.0071753399999999997 -15.624449999999998 5.6028050000000009 0.0086116000000000022
decision_type=2 2 2 2 2 2 2 2 2 2 2 2 2 2 2 2 2 2 2 2 2 2 2 2 2 2 2 2 2 2
left_child=-1 2 3 4 -2 -6 -5 8 -4 10 -3 12 13 14 15 -12 -16 18 29 -15 -20 23 -19 -22 -25 28 -27 -28 -26 -18
right_child=1 9 7 6 5 -7 -8 -9 -10 -11 11 -13 -14 19 16 -17 17 22 20 -21 21 -23 -24 24 25 26 27 -29 -30 -31
leaf_value=-9.6387287532127581e-05 -0.0010627735892110369 -5.9737085334444596e-05 0.0096169208565261219 0.0002825914799724278 0.014278456885270619 0.0037761466477864557 0.0052188452147776043 -1.5765682778376341e-05 0.00033390744533845447 -4.4766926074429054e-05 0.0049358169147227376 8.3322861601309423e-05 -0.00010523124586987141 -7.83472734482554e-05 0.010263149850236785 0.017017910183252147 0.0030317499002859866 0.012540075490967587 0.0059498080002413304 0.0074495460667933985 -0.0011939248118533917 -0.0069398573332000533 0.0023219128301004985 -0.0053257141463780924 0.0011282941328283954 0.012182465469529481 0.0070902613089525741 -0.00090449650273917047 0.0068288315607424018 0.010827362901936458
leaf_weight=29451 26 43050 25 177 30 28 36 1756 164 79832 45 57975 1788 1839 28 21 41 26 64 26 156 25 27 26 802 22 44 36 40 27
leaf_count=29451 26 43050 25 177 30 28 36 1756 164 79832 45 57975 1788 1839 28 21 41 26 64 26 156 25 27 26 802 22 44 36 40 27
internal_value=0 1.50849e-05 0.000451316 0.00250623 0.00602921 0.00920838 0.00111689 0.000137532 0.00156182 9.82495e-06 5.0898e-05 0.000126429 0.000618085 0.00101058 0.00229389 0.00878012 0.00198005 0.00180645 0.00157808 2.65992e-05 0.00132349 0.00106625 0.0073346 0.001244 0.00163608 0.00182783 0.0053669 0.00349262 0.0013991 0.00612707
internal_weight=0 188182 2242 297 84 58 213 1945 189 185940 106108 63058 5083 3295 1430 66 1364 1336 1283 1865 1215 1151 53 1126 970 944 102 80 842 68
internal_count=217633 188182 2242 297 84 58 213 1945 189 185940 106108 63058 5083 3295 1430 66 1364 1336 1283 1865 1215 1151 53 1126 970 944 102 80 842 68
shrinkage=0.05


Tree=87
num_leaves=31
num_cat=0
split_feature=4 4 3 43 41 41 25 14 4 24 4 4 4 24 24 4 43 4 40 40 43 43 40 40 43 23 2 24 40 43
split_gain=0.120331 0.165158 0.251386 0.516043 0.756854 4.02475 1.5012 2.40292 1.18086 1.01119 3.63825 2.57248 1.53614 3.09694 2.75671 1.7406 1.86039 1.68228 1.04489 1.3362 1.10317 1.01309 1.01217 1.20778 0.965921 0.916596 0.886181 0.879939 0.872153 0.862927
threshold=2.2539600000000006 -1.5265699999999998 -7.4497099999999987 -1.7757399999999997 0.29985500000000015 -0.2029299999999998 1.0742750000000003 0.00037336950000000003 -0.15847949999999997 0.62895050000000008 0.24725400000000003 0.79460700000000006 -0.23603199999999996 -0.24490649999999997 -0.28948899999999994 0.019144700000000004 2.0800550000000007 0.17779150000000002 0.10022550000000004 -0.17527649999999997 1.5525100000000001 0.16841000000000064 0.10022550000000004 -0.058960000000000005 1.1470050000000007 -10.617199999999999 -2.0077749999999996 -0.35379549999999998 -0.011175000000000155 -0.66712000000000005
decision_type=2 2 2 2 2 2 2 2 2 2 2 2 2 2 2 2 2 2 2 2 2 2 2 2 2 2 2 2 2 2
left_child=1 -1 3 -3 5 -5 24 8 -8 11 21 12 13 22 15 26 -17 -16 19 -12 -21 -11 23 -9 -7 -15 -14 -13 -22 -19
right_child=-2 2 -4 4 -6 6 7 9 -10 10 18 27 14 25 17 16 -18 29 -20 20 28 -23 -24 -25 -26 -27 -28 -29 -30 -31
leaf_value=-8.5532707244895495e-05 -9.3742787542038119e-05 -5.3923008399545645e-05 -3.053103024079813e-05 -2.1724778660803124e-05 -3.994362978681167e-05 0.0011659617394192447 0.0044616139762955814 0.00926478826080737 -0.0013105035012941464 -0.0078053109494871211 0.018930233383308289 -0.011233877449129256 0.01157665936392732 -0.00163370205490436 -0.0011929634249193046 -0.010634032097088452 0.00019054957657529373 0.011671897957029824 0.015981542725219493 0.0038943082659433506 0.0065333940088748935 0.001632074623232691 0.012228099509191357 0.003879770672062138 -0.00039535645874208688 -0.014983872961020099 0.00028816336841161423 -0.0013387833614786977 0.020355222276633694 0.0046983546141222037
leaf_weight=33702 29580 33288 73216 20049 19250 4702 106 139 540 38 23 39 20 36 117 87 73 52 45 137 25 113 57 415 1255 20 133 53 21 302
leaf_count=33702 29580 33288 73216 20049 19250 4702 106 139 540 38 23 39 20 36 117 87 73 52 45 137 25 113 57 415 1255 20 133 53 21 302
internal_value=0 1.47454e-05 3.66407e-05 9.72564e-05 0.000202435 0.000365591 0.00127402 0.00227873 -0.000363376 0.00315626 0.00538981 0.00257435 0.00308842 0.00485221 0.00158785 -0.00204917 -0.00569532 0.00400481 0.0090792 0.00757141 0.0061438 -0.000742897 0.00588365 0.00523089 0.000837029 -0.00640162 0.00176378 -0.00553344 0.0128434 0.00572272
internal_weight=0 188053 154351 81135 47847 28597 8548 2591 646 1945 402 1543 1451 667 784 313 160 471 251 206 183 151 611 554 5957 56 153 92 46 354
internal_count=217633 188053 154351 81135 47847 28597 8548 2591 646 1945 402 1543 1451 667 784 313 160 471 251 206 183 151 611 554 5957 56 153 92 46 354
shrinkage=0.05


Tree=88
num_leaves=31
num_cat=0
split_feature=20 0 18 40 40 24 40 40 2 2 40 44 43 40 41 25 29 40 31 40 4 20 9 16 40 41 2 41 28 21
split_gain=0.110772 0.508339 0.563061 0.712371 0.647442 0.191717 0.276953 0.52122 0.112679 0.131499 0.123677 0.100364 0.959761 0.654185 1.55023 0.699321 0.751391 0.51081 0.495421 0.455384 0.438992 0.435043 0.903554 0.906214 1.22618 1.06357 0.464899 0.417964 0.407378 0.388456
threshold=-14.223749999999997 -8.8447699999999987 -1.0730149999999997e-06 0.2761725000000001 -0.3819765 -0.25330649999999993 -0.12496499999999998 0.20129000000000011 -2.7519549999999997 -2.6524249999999996 -0.19934349999999995 -0.35442999999999975 -0.12174999999999957 0.1751400000000001 0.29985500000000015 29.284250000000004 -0.081534699999999988 0.077348000000000056 0.39660250000000008 -0.079468000000000025 0.79460700000000006 14.554100000000002 3.5461000000000012e-05 8.2193200000000006e-07 0.30085850000000008 0.37828249999999997 -0.13256349999999997 -0.057539999999999918 0.0092002100000000021 2.5359150000000006
decision_type=2 2 2 2 2 2 2 2 2 2 2 2 2 2 2 2 2 2 2 2 2 2 2 2 2 2 2 2 2 2
left_child=1 2 3 4 -1 -4 -7 -8 10 -10 -3 21 -13 14 15 16 17 -14 20 29 -18 -2 -23 -24 25 26 -25 -21 -22 -20
right_child=11 8 5 -5 -6 6 7 -9 9 -11 -12 12 13 -15 -16 -17 18 -19 19 27 28 22 23 24 -26 -27 -28 -29 -30 -31
leaf_value=0.0030128955514252694 -4.3506101487035464e-05 -0.00029481050056030816 -0.00050302679243560482 -0.00047561675780646818 0.01403085032167534 -0.00078640626864701828 0.0094434778599453914 0.00095350769572632998 0.0038860021086016476 8.5475368115485635e-05 -0.0045578096617612538 -2.8769056700432366e-05 0.0036606295277567535 -0.00010531894649632933 -0.0001048799175943085 -0.0076670823491771112 0.0011736536085021529 0.01228726000355726 0.0034373745440028701 0.00794112572956902 -0.0005602138356592942 0.00012584844441091876 0.0013577599822347112 0.020578496263402961 -0.00031777594425615722 0.0017615082731026633 0.010288807710388766 0.00079456626881437844 -0.0082501768087968243 0.012944602008527992
leaf_weight=24 119931 46 117 30 30 45 29 48 23 2182 27 81046 78 3887 3744 22 4785 22 21 26 124 909 200 23 35 20 21 96 20 22
leaf_count=24 119931 46 117 30 30 45 29 48 23 2182 27 81046 78 3887 3744 22 4785 22 21 26 124 909 200 23 35 20 21 96 20 22
internal_value=0 0.000324343 0.00218066 0.00570198 0.00913398 0.000943041 0.00232984 0.00415103 6.1134e-05 0.000125118 -0.00187154 -3.92321e-06 3.48768e-05 0.00043639 0.000671393 0.00122859 0.00126627 0.00555849 0.00118201 0.00387705 0.0010918 -3.39965e-05 0.000910121 0.00329442 0.00720685 0.0113219 0.0156675 0.0023176 -0.00162826 0.00830154
internal_weight=0 2601 323 84 54 239 122 77 2278 2205 73 215032 93893 12847 8960 5216 5194 100 5094 165 4929 121139 1208 299 99 64 44 122 144 43
internal_count=217633 2601 323 84 54 239 122 77 2278 2205 73 215032 93893 12847 8960 5216 5194 100 5094 165 4929 121139 1208 299 99 64 44 122 144 43
shrinkage=0.05


Tree=89
num_leaves=31
num_cat=0
split_feature=30 16 3 23 23 7 7 15 40 35 40 7 36 16 19 35 44 15 15 3 25 13 40 40 13 40 4 23 6 3
split_gain=0.107627 0.223053 0.382816 0.73913 0.246616 0.299515 0.157404 0.305826 0.738366 0.861391 0.150279 0.144416 0.143763 0.246927 0.253999 0.641314 1.12496 0.242168 0.49792 0.823189 0.168387 0.128388 0.17442 0.59359 0.217742 0.279842 0.379861 0.11874 0.117981 0.271677
threshold=0.043133650000000003 2.5770550000000005e-06 -5.392034999999999 -8.7277399999999989 -6.1068399999999992 6.9866800000000014e-05 3.8533650000000003e-05 5.1880700000000008e-06 -0.63161949999999989 1.6674650000000002 5.6762150000000009 3.6863750000000008e-05 0.069832100000000022 -1.2815949999999998e-06 0.00014657100000000002 -0.60082499999999983 -3.4537049999999998 1.7761700000000003e-06 1.6353050000000004e-05 -10.105049999999997 26.434800000000003 1.9951700000000004e-05 -0.3562499999999999 -0.058960000000000005 -5.8484999999999993e-05 0.60008550000000016 0.53444550000000013 -6.8702999999999994 7.2428000000000018e-07 -15.867949999999999
decision_type=2 2 2 2 2 2 2 2 2 2 2 2 2 2 2 2 2 2 2 2 2 2 2 2 2 2 2 2 2 2
left_child=-1 10 4 -4 6 -6 7 11 -9 -10 12 -3 13 14 15 16 -2 28 19 -19 -17 22 -8 -24 -25 26 -26 -23 -16 -30
right_child=1 2 3 -5 5 -7 21 8 9 -11 -12 -13 -14 -15 17 20 -18 18 -20 -21 -22 27 23 24 25 -27 -28 -29 29 -31
leaf_value=-5.7876754201711488e-06 0.001158802330422171 -0.00013807732313932672 0.0010189960096427737 0.012495349530945533 0.0012176236057322449 0.0077996208912227312 -0.00037468031358440395 -0.00026103605797170136 0.0018078397672070424 0.013934449672605195 0.0041560974518440414 0.0042979495432518893 -0.00022846726972294287 -0.00011530296859572391 -0.002027268242545688 0.0038857168740934062 0.01635432126599231 0.011759765021702936 0.00050522231934640636 4.0092323322295994e-05 -0.00078141223958642946 -0.00026112375648490801 0.0085897317896264473 -0.0033194405812017589 0.00021690767395987428 -0.00022712552761424687 0.0096183679643131442 -0.0040912248128387591 0.0057724818699352908 -0.00035872276960953047
leaf_weight=211892 29 222 47 20 56 25 158 69 32 27 22 20 2529 1071 80 27 21 29 198 31 68 556 28 28 22 77 21 21 20 187
leaf_count=211892 29 222 47 20 56 25 158 69 32 27 22 20 2529 1071 80 27 21 29 198 31 68 556 28 28 22 77 21 21 20 187
internal_value=0 0.000213615 0.000754996 0.00444477 0.000573487 0.0032491 0.000404303 0.00127399 0.00325054 0.00735731 3.42005e-05 0.000228536 1.30625e-05 0.000359927 0.00109757 0.00295741 0.00754092 0.000602747 0.00171438 0.0057046 0.000545035 5.10836e-05 0.000831251 0.00191385 0.000650843 0.00157724 0.00480832 -0.000400521 -0.000396561 0.000233664
internal_weight=0 5741 1429 67 1362 81 1281 370 128 59 4312 242 4290 1761 690 145 50 545 258 60 95 911 334 176 148 120 43 577 287 207
internal_count=217633 5741 1429 67 1362 81 1281 370 128 59 4312 242 4290 1761 690 145 50 545 258 60 95 911 334 176 148 120 43 577 287 207
shrinkage=0.05


Tree=90
num_leaves=31
num_cat=0
split_feature=4 36 10 4 3 43 40 41 25 14 4 38 25 44 20 20 20 43 3 44 21 20 21 4 38 25 34 12 23 4
split_gain=0.104545 0.151986 0.315287 0.143437 0.223082 0.450193 0.666496 3.80912 1.60872 2.53707 1.32493 2.06679 1.67349 1.16064 1.50896 1.41918 1.35566 1.90036 1.35962 1.31399 1.62024 1.24991 1.23149 1.11068 1.21848 1.08663 0.962513 0.900901 0.870171 1.0724
threshold=2.2539600000000006 -2.2564299999999995 2.0063250000000001e-05 -1.5265699999999998 -7.4497099999999987 -2.2545749999999996 -0.25142799999999998 -0.2029299999999998 1.0742750000000003 0.00075811550000000013 -0.16366899999999998 0.0009041190000000001 5.3710200000000006 1.3201050000000005 6.5101600000000008 7.0124150000000007 -6.2436999999999996 0.8945249999999999 -10.156199999999998 0.55624500000000021 -7.4922749999999985 -4.0204099999999992 7.1162100000000006 0.17191050000000002 -0.00084016849999999992 12.831100000000001 0.71357000000000015 -0.00025168399999999996 -11.167499999999999 0.28079350000000008
decision_type=2 2 2 2 2 2 2 2 2 2 2 2 2 2 2 2 2 2 2 2 2 2 2 2 2 2 2 2 2 2
left_child=3 2 -2 -1 5 -5 -7 -8 -9 10 11 -10 23 15 21 16 17 -11 -19 20 27 -15 25 -12 -25 -22 -24 -18 -14 -30
right_child=1 -3 -4 4 -6 6 7 8 9 13 12 -13 28 14 -16 -17 19 18 -20 -21 22 -23 26 24 -26 -27 -28 -29 29 -31
leaf_value=-7.970752633140633e-05 0.0072632126121399262 -9.4489075537210773e-05 0.00049334184621999924 -6.3801874327604181e-05 -2.9128355800622244e-05 -3.334687453201659e-05 -1.9294690910478001e-05 0.00077507006934802146 -0.0054449562231268459 0.0020703127286791504 -0.00054612728230857136 0.0053573006073134102 -0.00010055593399253365 -0.00013319926778785886 -0.0042623256375505167 0.0077162735007423296 0.015253631270024926 0.018058802306445111 0.0048108973006224806 0.0055323242092430169 -0.00044871459475255717 0.012318161355618102 -0.00019181207445559696 0.0056529835507144474 -0.0047008636918583176 -0.0094458614521297727 0.0092632132133044168 0.0041055504783258047 -0.0079221504800101733 0.0033649346912279728
leaf_weight=33702 21 29464 95 29686 73216 21305 21676 5888 54 104 407 246 96 25 22 153 24 45 34 188 495 104 51 173 34 36 57 74 133 25
leaf_count=33702 21 29464 95 29686 73216 21305 21676 5888 54 104 407 246 96 25 22 153 24 45 34 188 495 104 51 173 34 36 57 74 133 25
internal_value=0 -8.73777e-05 0.00171892 1.37442e-05 3.4149e-05 9.12503e-05 0.000180715 0.000332009 0.00123126 0.00227236 0.000548421 0.00341289 -0.000441605 0.0036984 0.00784098 0.00320234 0.00257903 0.00651109 0.0123572 0.00180111 0.000849327 0.00990511 -6.877e-05 0.000970461 0.00395235 -0.00105869 0.00479834 0.00683569 -0.00385502 -0.00613622
internal_weight=0 29580 116 188053 154351 81135 51449 30144 8468 2580 1168 300 868 1412 151 1261 1108 183 79 925 737 129 639 614 207 531 108 98 254 158
internal_count=217633 29580 116 188053 154351 81135 51449 30144 8468 2580 1168 300 868 1412 151 1261 1108 183 79 925 737 129 639 614 207 531 108 98 254 158
shrinkage=0.05


Tree=91
num_leaves=31
num_cat=0
split_feature=34 3 41 41 21 6 14 25 24 13 37 16 22 16 36 3 5 10 16 41 40 21 2 11 16 21 5 44 43 41
split_gain=0.0969619 0.345752 0.288977 0.886045 0.62691 0.487918 0.611017 0.862866 0.540207 0.47809 0.454461 0.218465 0.155426 0.100889 0.347399 0.695728 0.581229 0.297372 0.319454 0.483273 1.44005 0.515378 0.115929 0.114219 0.114001 0.0941566 0.236011 0.0948782 0.731186 0.570373
threshold=3.2423100000000002 -15.510599999999998 0.70899650000000014 -0.60497499999999982 11.881850000000002 -1.8399949999999996e-06 0.017185350000000002 17.806750000000005 0.91519300000000003 2.9487650000000006e-05 1.2277200000000002e-05 4.0775950000000005e-08 -2.9623449999999996 3.3134750000000005e-06 0.86690500000000015 -5.3434449999999991 9.4955250000000009e-06 3.8126050000000004e-05 7.6833350000000012e-05 0.68231549999999996 0.327845 -5.6560049999999995 2.5006450000000005 -0.00023772999999999999 1.2311050000000001e-05 18.392150000000004 3.0316150000000003e-05 -0.47859499999999983 -0.15760999999999911 0.29985500000000015
decision_type=2 2 2 2 2 2 2 2 2 2 2 2 2 2 2 2 2 2 2 2 2 2 2 2 2 2 2 2 2 2
left_child=25 2 3 12 5 -5 8 -8 9 11 -10 -7 -2 -3 -15 16 -16 18 19 20 21 -18 24 -20 -19 27 -27 -1 -29 -30
right_child=1 13 -4 4 -6 6 7 -9 10 -11 -12 -13 -14 14 15 -17 17 22 23 -21 -22 -23 -24 -25 -26 26 -28 28 29 -31
leaf_value=-3.9742914825426133e-05 0.0041439894348427302 -2.578847342537946e-05 -7.4910232568999729e-05 -0.00044878311632868748 -0.0042477655783295636 0.0083817596733570098 0.0053393140612487599 0.018122956567359242 0.0038951777884514219 -0.0038320179696061784 0.013625509749926141 0.000991478105133865 -0.0003265927276104078 -1.823355151129273e-05 0.0085451181491371254 0.010604489481629571 0.0072728992067277428 -0.0035134150227450951 0.0033112396889191584 -0.00034920552131535384 -0.00039121814891890003 0.018041377358604224 0.0021188954619800727 -0.00086609377306356506 -0.00042386925564492884 0.00033071418185571882 0.0048538947756456121 -3.4057441470798756e-05 0.00053423576695525179 -0.00010787970021902422
leaf_weight=111585 21 7035 306 34 20 20 33 22 28 28 21 20 262 1516 25 20 25 36 20 53 48 20 36 90 175 190 34 79757 11137 5016
leaf_count=111585 21 7035 306 34 20 20 33 22 28 28 21 20 262 1516 25 20 25 36 20 53 48 20 36 90 175 190 34 79757 11137 5016
internal_value=0 0.000152764 0.00113938 0.00186938 0.00420379 0.00502433 0.00610623 0.0104528 0.00406298 0.00117894 0.00806532 0.00468662 5.14658e-06 6.43932e-05 0.000371771 0.00145069 0.00110395 0.000734116 0.00192828 0.00346139 0.00563303 0.0120589 -0.000503562 -0.000106579 -0.000950996 -7.29113e-06 0.00101727 -8.39718e-06 2.80715e-05 0.000334839
internal_weight=0 9914 815 509 226 206 172 55 117 68 49 40 283 9099 2064 548 528 503 256 146 93 45 247 110 211 207719 224 207495 95910 16153
internal_count=217633 9914 815 509 226 206 172 55 117 68 49 40 283 9099 2064 548 528 503 256 146 93 45 247 110 211 207719 224 207495 95910 16153
shrinkage=0.05


Tree=92
num_leaves=31
num_cat=0
split_feature=4 20 0 16 6 39 17 4 24 40 7 44 43 40 41 40 34 14 18 24 18 2 25 33 11 17 20 9 16 40
split_gain=0.0931626 0.135061 0.474223 0.503249 0.525361 0.288516 0.521082 0.195757 0.643037 0.71283 0.134896 0.11755 0.887276 0.638716 1.31705 0.667003 1.77529 1.1495 0.686633 2.66365 1.19201 1.02884 0.659756 0.530118 0.481412 0.797943 0.450561 0.996103 1.10183 0.951499
threshold=2.2539600000000006 -14.223749999999997 -8.8447699999999987 3.2990050000000008e-07 1.5327350000000001e-07 0.034433300000000007 1.7286400000000003e-06 0.46668750000000003 0.60591150000000005 -0.3562499999999999 3.6724600000000004e-05 -0.35442999999999975 -0.15760999999999911 0.1751400000000001 0.29985500000000015 0.056773999999999998 0.010080700000000001 0.0048329650000000007 -9.323289999999999e-07 0.10914550000000002 -1.2604899999999999e-05 0.11886900000000002 2.3879650000000008 -1.6545349999999999e-05 -0.00015845699999999995 -1.49873e-05 14.554100000000002 3.5461000000000012e-05 8.2193200000000006e-07 0.30085850000000008
decision_type=2 2 2 2 2 2 2 2 2 2 2 2 2 2 2 2 2 2 2 2 2 2 2 2 2 2 2 2 2 2
left_child=1 2 3 5 -5 6 10 -4 -9 -10 -1 26 -13 14 15 24 -17 18 20 -20 22 -22 -18 -21 25 -14 -3 -28 -29 -30
right_child=-2 11 7 4 -6 -7 -8 8 9 -11 -12 12 13 -15 -16 16 17 -19 19 23 21 -23 -24 -25 -26 -27 27 28 29 -31
leaf_value=0.0043917721403767965 -8.2483965557971403e-05 -3.5847418421420102e-05 -5.8462166280224131e-05 0.012143806426623389 0.0021430652879518737 -0.00055744367302669061 0.0092275478045988936 -0.00012063852657350556 -0.00026962451265717392 0.011208151358615366 0.0003044838974147446 -1.8127531463748391e-05 -0.0015556109631434084 -0.00012147288084673621 -9.3257900144166255e-05 -0.0055346806857160969 -0.0013834893195466564 -0.0027482241666054027 -0.0095815537720918657 0.0042817439799281683 0.024712419006973504 0.0088667637978990868 0.010099009944704073 0.014430248650211482 0.00098410512711034881 0.0099461502207161268 0.00012958502662533555 0.0014916016218833917 0.01173348353181306 -0.00042261000027627398
leaf_weight=27 29580 106668 1741 24 29 113 26 150 24 31 80 65680 25 3563 3433 43 22 34 25 22 20 21 29 31 5068 38 822 182 60 22
leaf_count=27 29580 106668 1741 24 29 113 26 150 24 31 80 65680 25 3563 3433 43 22 34 25 22 20 21 29 31 5068 38 822 182 60 22
internal_value=0 1.29744e-05 0.00039847 0.00225238 0.0066717 0.00130025 0.00287859 0.000113619 0.00157505 0.00619967 0.00133586 8.31671e-06 5.50437e-05 0.00044343 0.000671865 0.00116028 0.00369818 0.00564433 0.00732284 0.00387176 0.0102487 0.0165964 0.00514577 0.0102177 0.0010381 0.00538196 -2.5531e-05 0.000987755 0.00365978 0.00847209
internal_weight=0 188053 2245 299 53 246 133 1946 205 55 107 185808 78054 12374 8811 5378 247 204 170 78 92 41 51 53 5131 63 107754 1086 264 82
internal_count=217633 188053 2245 299 53 246 133 1946 205 55 107 185808 78054 12374 8811 5378 247 204 170 78 92 41 51 53 5131 63 107754 1086 264 82
shrinkage=0.05


Tree=93
num_leaves=31
num_cat=0
split_feature=4 18 33 4 41 40 26 0 37 30 43 29 31 3 26 40 40 43 44 40 3 34 4 40 4 4 5 43 39 39
split_gain=0.087892 0.142636 0.754105 1.08161 0.994074 2.26952 0.804874 0.979711 0.92843 0.617276 0.820924 0.646117 0.939065 0.904618 0.48315 0.5179 2.70272 0.83375 1.01929 1.08872 1.00709 0.973299 0.943819 0.784984 1.46922 0.924339 0.912266 0.864926 0.836744 0.624542
threshold=-2.2787549999999999 -1.6062999999999998e-06 9.2365500000000009e-05 -0.58642949999999983 0.56931500000000013 0.80350500000000014 0.031042450000000003 8.3974050000000009 -5.2213149999999988e-06 0.16934650000000004 5.0027350000000004 0.057167000000000003 3.1828900000000004 -14.092499999999999 8.7372500000000011e-05 0.2761725000000001 -0.14969009999999991 -2.2545749999999996 -1.7773799999999997 -0.058960000000000005 -14.605749999999999 0.090098850000000022 0.065295950000000005 0.039429999999999972 -0.75155249999999996 -0.20278049999999997 1.0345100000000002e-05 0.80790999999999979 0.00018647200000000003 0.00042511250000000007
decision_type=2 2 2 2 2 2 2 2 2 2 2 2 2 2 2 2 2 2 2 2 2 2 2 2 2 2 2 2 2 2
left_child=-1 2 14 4 5 6 7 8 -4 10 11 13 -13 -10 -2 16 -16 -18 20 21 -19 -20 23 27 -25 29 -27 -21 -28 -26
right_child=1 -3 3 -5 -6 -7 -8 -9 9 -11 -12 12 -14 -15 15 -17 17 18 19 22 -22 -23 -24 24 25 26 28 -29 -30 -31
leaf_value=-8.1824962507291745e-05 -5.1613094569580779e-05 -1.4551215928549407e-05 -0.00068274236869910973 0.00019969590952194241 0.00024999242398717316 -0.00015965950407235142 0.014909115516477162 -0.003571570242682356 0.0041710007460787893 0.016475942386314276 -0.0010036511435128678 0.00055953843832619234 0.01136723246938247 0.01581972022750415 -1.373345890321599e-05 -5.0138610386998094e-05 -0.00067658932349381161 0.010836108004441486 0.00013089179414879146 0.0016780766498271857 -0.00075175771511082226 0.0099489976366867825 -0.0081230048602446911 -0.002227664226478326 0.0056702018379130303 -0.0060649701682850728 0.0088860421050141799 0.0084403904264327145 -0.0027526033627193261 0.01119312471646181
leaf_weight=28518 37020 136695 35 1653 320 208 27 25 25 20 26 44 37 50 5191 5751 230 20 34 871 300 98 20 62 117 25 47 50 23 91
leaf_count=28518 37020 136695 35 1653 320 208 27 25 25 20 26 44 37 50 5191 5751 230 20 34 871 300 98 20 62 117 25 47 50 23 91
internal_value=0 1.2339e-05 8.24602e-05 0.000935279 0.00242355 0.00382303 0.00668946 0.00584239 0.00683543 0.00813808 0.00722183 0.00859275 0.00549639 0.0119368 4.02888e-05 0.000303414 0.00058664 0.00215431 0.00252468 0.00309263 -2.75161e-05 0.00742009 0.00265524 0.00282287 0.00478516 0.00622012 0.00213379 0.00204519 0.00506192 0.00808648
internal_weight=0 189115 52420 2470 817 497 289 262 237 202 182 156 81 75 49950 12930 7179 1988 1758 1438 320 132 1306 1286 365 303 95 921 70 208
internal_count=217633 189115 52420 2470 817 497 289 262 237 202 182 156 81 75 49950 12930 7179 1988 1758 1438 320 132 1306 1286 365 303 95 921 70 208
shrinkage=0.05


Tree=94
num_leaves=31
num_cat=0
split_feature=4 36 3 4 24 40 40 44 44 21 20 20 3 3 21 20 23 3 20 43 35 20 9 35 2 1 3 24 20 43
split_gain=0.0825159 0.13213 0.298009 0.123147 3.00546 1.84453 6.90129 1.75113 2.16933 1.44776 1.89286 1.53084 1.43451 1.07914 1.00859 1.10116 0.958779 0.853087 0.728891 0.6615 0.602824 1.29385 0.599981 0.597809 0.563485 0.462669 0.410607 0.388129 0.33913 0.334623
threshold=2.2539600000000006 -2.2564299999999995 -12.585899999999999 0.24725400000000003 0.34963900000000009 0.40779500000000007 -0.3562499999999999 3.6866600000000003 0.71026 7.0074550000000011 -10.065 7.1058900000000014 -8.7781499999999983 -7.6887249999999989 -7.375894999999999 -6.2436999999999996 -11.018649999999999 -11.976899999999999 -3.5695999999999994 0.39187000000000044 -0.020135299999999998 3.4514100000000005 1.4838700000000002e-05 -0.096387649999999978 2.6388200000000004 9.8382400000000008 -13.989599999999998 0.33996650000000006 -19.608449999999998 0.27381999999999979
decision_type=2 2 2 2 2 2 2 2 2 2 2 2 2 2 2 2 2 2 2 2 2 2 2 2 2 2 2 2 2 2
left_child=3 2 -2 27 -5 6 -6 8 9 10 24 14 -11 -13 16 17 -12 -16 -10 -17 -20 22 -22 -21 -8 -14 -25 -1 -7 -19
right_child=1 -3 -4 4 5 28 7 -9 18 12 11 13 25 -15 15 19 -18 29 20 23 21 -23 -24 26 -26 -27 -28 -29 -30 -31
leaf_value=2.5034756349553708e-05 0.0051675260175192634 -8.4258453966432891e-05 -0.00019705864504832387 -0.0001030699761203218 2.4176332781789108e-05 0.0064333035692106938 0.017237297551436048 -0.002346754917193071 0.0046086215928536718 0.017419119429541753 0.015917514332316137 0.013706944237100499 0.0032291230063232696 0.0030007627494849786 0.014482901532850838 0.0021654143178779068 0.0038177403360464268 0.0079181258699723665 0.017511208313295529 -0.01032264546956867 0.01013358779018745 0.0022885338936083082 0.019797325461845976 0.0026877693587210867 0.0066295682530229287 0.010434416812023374 -0.0027003768677378668 -0.00020834527197547683 -0.00012175897953760653 -0.00015567232269059981
leaf_weight=139421 39 29464 77 24148 1520 20 31 70 37 40 22 52 56 43 23 165 64 21 42 20 36 33 29 49 21 37 127 20425 1468 33
leaf_count=139421 39 29464 77 24148 1520 20 31 70 37 40 22 52 56 43 23 165 64 21 42 20 36 33 29 49 21 37 127 20425 1468 33
internal_value=0 -7.76278e-05 0.00160655 1.22106e-05 0.00010853 0.00136739 0.00217827 0.0052936 0.00583878 0.00473558 0.00379096 0.00302126 0.00950127 0.00886099 0.00196253 0.00099051 0.00691303 0.00641883 0.01085 -0.000167332 0.0124995 0.0103516 0.0144451 -0.00213112 0.0129534 0.00609575 -0.00120027 -4.78637e-06 -3.36533e-05 0.00298414
internal_weight=0 29580 116 188053 28207 4059 2571 1051 981 804 671 619 133 95 524 438 86 77 177 361 140 98 65 196 52 93 176 159846 1488 54
internal_count=217633 29580 116 188053 28207 4059 2571 1051 981 804 671 619 133 95 524 438 86 77 177 361 140 98 65 196 52 93 176 159846 1488 54
shrinkage=0.05


Tree=95
num_leaves=31
num_cat=0
split_feature=4 18 24 41 40 4 39 44 44 40 40 44 44 0 10 6 34 44 24 44 44 40 24 44 32 23 24 21 21 19
split_gain=0.079396 0.153841 1.62112 1.24522 4.6309 1.99409 1.87528 1.39886 1.15891 1.23046 1.53194 1.27692 1.07473 0.845939 0.904449 0.861067 0.677845 0.585974 0.560644 0.557467 0.517668 1.12088 0.479826 0.467017 0.441831 0.423317 0.421509 0.405809 0.460317 0.432235
threshold=-1.5265699999999998 -1.6062999999999998e-06 -0.24039599999999997 -0.33012499999999995 -0.25142799999999998 -0.20278049999999997 0.00050174200000000012 -4.7185699999999988 4.0845250000000011 -0.10081500000000009 0.10022550000000004 1.4428800000000004 -0.77194499999999999 -4.7236949999999993 4.0835050000000008e-05 1.8853450000000003e-07 1.9974350000000001 -1.69079 -0.50105749999999993 -0.47859499999999983 1.7569350000000001 -0.058960000000000005 -0.11556699999999999 0.27512500000000012 20.036400000000004 -16.542649999999998 -0.32302649999999994 -9.1109899999999975 8.8284250000000011 0.00090292850000000017
decision_type=2 2 2 2 2 2 2 2 2 2 2 2 2 2 2 2 2 2 2 2 2 2 2 2 2 2 2 2 2 2
left_child=-1 2 3 -2 24 6 17 -8 9 -9 11 12 27 -12 15 19 23 -6 25 -15 21 26 -3 -14 -5 -7 -19 -11 29 -29
right_child=1 22 -4 4 5 18 7 8 -10 10 13 -13 16 14 -16 -17 -18 20 -20 -21 -22 -23 -24 -25 -26 -27 -28 28 -30 -31
leaf_value=-7.0551548852676316e-05 -3.6195417644283904e-06 -0.00012795851803301528 -6.1493531341557574e-05 4.4645463468257476e-05 -0.00069759799288124803 0.0029029938600663293 -0.00061834658880602507 0.012647908894966045 -0.0028853029707416652 0.013931305041875354 0.018563782410430059 0.013233893999877649 0.00096885694897696183 0.0052708711859810612 0.017015346959233287 -3.5813391547311437e-05 -0.0062371865370432324 0.014504152523546383 0.0015858250525887245 0.016538490700934615 -0.00096926771144162079 0.0027398067662598039 6.3021157360586399e-05 0.0055356202584453456 0.0067137023471877917 -0.0030256143459989511 0.0050688118021935229 0.00133823630464978 0.013006994780153037 0.0096058490611612805
leaf_weight=33702 4190 55095 37193 3767 137 38 76 84 31 22 28 39 143 23 25 33 23 29 372 21 76 516 81600 92 25 145 20 43 20 25
leaf_count=33702 4190 55095 37193 3767 137 38 76 84 31 22 28 39 143 23 25 33 23 29 372 21 76 516 81600 92 25 145 20 43 20 25
internal_value=0 1.29273e-05 9.07163e-05 0.000654407 0.00112547 0.00303316 0.00397731 0.00580126 0.00654956 0.00702055 0.00614029 0.00463098 0.00371926 0.0108656 0.00875235 0.00606956 0.00195492 0.00227057 0.000471219 0.0106486 0.00290495 0.00342608 -1.39533e-05 0.0027567 8.86134e-05 -0.00179454 0.010653 0.00785745 0.00633898 0.0043778
internal_weight=0 183931 47236 10043 5853 2061 1506 728 652 621 537 407 368 130 102 77 258 778 555 44 641 565 136695 235 3792 183 49 110 88 68
internal_count=217633 183931 47236 10043 5853 2061 1506 728 652 621 537 407 368 130 102 77 258 778 555 44 641 565 136695 235 3792 183 49 110 88 68
shrinkage=0.05


Tree=96
num_leaves=31
num_cat=0
split_feature=34 3 20 41 41 33 36 16 7 16 14 16 18 41 18 24 17 41 41 14 23 19 6 43 20 0 43 15 24 37
split_gain=0.0735021 0.301946 0.257138 0.33253 1.03569 0.622307 0.534564 0.506744 0.357441 0.408863 0.312389 0.26934 0.211739 0.141616 0.116113 0.379151 0.488942 0.585268 1.47365 0.951495 0.873205 0.459335 0.522002 0.432787 0.100995 0.313704 0.578311 0.142802 0.386848 0.0812161
threshold=3.2423100000000002 -15.510599999999998 16.002400000000005 0.70899650000000014 -0.60497499999999982 -0.00020540699999999998 -0.60180299999999987 -5.9166999999999996e-08 3.342525000000001e-05 9.6545450000000009e-05 0.0078496150000000025 -2.6594849999999998e-05 -4.5779349999999994e-05 -4.952469999999999 -4.1197899999999994e-05 -0.82489099999999993 -2.4916349999999997e-05 0.54185499999999998 -0.81049899999999986 0.013134900000000001 -10.617199999999999 0.0025984850000000006 1.0252450000000003e-06 4.7542650000000011 19.256550000000001 10.302050000000003 3.7486700000000006 1.1195050000000002e-06 1.1195950000000001 0.00019513800000000003
decision_type=2 2 2 2 2 2 2 2 2 2 2 2 2 2 2 2 2 2 2 2 2 2 2 2 2 2 2 2 2 2
left_child=29 2 3 4 13 6 -6 -8 10 11 -7 -10 -13 -2 15 16 -3 18 -18 20 21 22 23 -20 -16 27 -27 -26 -29 -1
right_child=1 14 -4 -5 5 8 7 -9 9 -11 -12 12 -14 -15 24 -17 17 -19 19 -21 -22 -23 -24 -25 25 26 -28 28 -30 -31
leaf_value=-7.2024668044773314e-06 0.0037802574707276777 -0.00017217797463023977 -0.0018652422781219619 -5.2457684484309452e-05 0.015360082022206848 0.0021991635241041269 2.6768625754075836e-05 0.010662201110001964 0.0028984505198119833 0.0072091481974071257 0.010109781386115804 -0.0070279609790304676 8.0380187401632691e-05 -0.00032834706996843176 -9.2186322595507505e-05 -0.00033386836198901631 0.00012820531794921369 -0.00015636146801807627 0.0074596782045608214 0.015921010190378067 0.011889628716744483 0.0080819597437353386 -0.005508879209016662 -0.00052156620814847502 -0.00024698682683482173 0.0095954423745682194 -0.0010552803347818553 -0.00083927818327951672 0.0064530024707334724 0.0011377497685357561
leaf_weight=207564 23 453 69 276 21 24 21 24 30 21 26 20 22 238 6682 942 191 200 33 23 36 33 22 35 323 26 25 44 31 155
leaf_count=207564 23 453 69 276 21 24 21 24 30 21 26 20 22 238 6682 942 191 200 33 23 36 33 22 35 323 26 25 44 31 155
internal_value=0 0.000133006 0.001055 0.0013251 0.00213405 0.00475697 0.00877298 0.005699 0.00290342 0.00107048 0.00631268 -0.000719963 -0.00330454 3.37139e-05 5.04228e-05 0.000390421 0.00105541 0.00202591 0.00319603 0.00641557 0.00504057 0.00303597 0.00118577 0.00335168 -4.34093e-05 0.000682489 0.0043745 0.000209392 0.00217486 -6.3481e-06
internal_weight=0 9914 815 746 470 209 66 45 143 93 50 72 42 261 9099 1968 1026 573 373 182 159 123 90 68 7131 449 51 398 75 207719
internal_count=217633 9914 815 746 470 209 66 45 143 93 50 72 42 261 9099 1968 1026 573 373 182 159 123 90 68 7131 449 51 398 75 207719
shrinkage=0.05


Tree=97
num_leaves=31
num_cat=0
split_feature=4 20 9 16 11 26 36 4 14 23 13 8 18 19 16 29 19 4 24 4 14 41 40 39 4 4 30 21 17 25
split_gain=0.0733126 0.102473 0.2903 0.354323 0.758135 0.620899 0.173235 0.240145 0.573782 0.245549 0.1413 0.219264 0.132612 0.128063 0.0890787 0.412596 0.614869 0.0881596 0.156858 0.332929 0.135536 0.243281 1.96159 1.268 0.68786 0.691492 0.605279 0.670049 0.868747 0.892152
threshold=2.9223900000000005 -14.223749999999997 -2.9422049999999997e-05 2.886525000000001e-07 -0.00012512549999999997 0.0017607100000000002 0.0025121700000000006 -0.086314049999999989 0.00016396650000000002 -8.7640249999999984 -1.4994649999999999e-05 -1.0648199999999999e-05 3.8326850000000012e-06 0.0014441700000000003 6.5238050000000013e-06 -0.067941949999999987 0.0017507150000000001 -1.4133199999999999 -2.2419299999999995 -2.6817999999999995 0.00018327650000000005 -0.2029299999999998 -0.12496499999999998 2.0374000000000002e-05 -0.22659549999999998 0.21856850000000003 0.036175450000000005 -2.2047999999999992 6.4024300000000005e-07 32.859550000000006
decision_type=2 2 2 2 2 2 2 2 2 2 2 2 2 2 2 2 2 2 2 2 2 2 2 2 2 2 2 2 2 2
left_child=1 2 3 6 13 -6 7 8 -1 -10 11 -8 -9 -5 -4 16 -16 18 19 -3 -19 -22 -23 24 -24 -26 -25 28 -28 -30
right_child=-2 17 14 4 5 -7 10 12 9 -11 -12 -13 -14 -15 15 -17 -18 20 -20 -21 21 22 23 26 25 -27 27 -29 29 -31
leaf_value=0.011193390546468437 -7.9909947829549924e-05 0.0001689445774413606 -0.00014892653853789135 -0.0035107421544125828 0.0025062926958309534 0.011327112547970549 -0.00034611282586741833 -0.00040307389833657494 0.005347656561172612 -0.0017017787517170293 -0.0010785689665651359 0.0058636474344114379 0.0032655456753388993 0.0011313624798591404 0.011452493589465686 -7.7252166524458446e-05 0.000371656529304962 -3.4264927144990558e-05 -7.1939881694812216e-05 0.0067822116001759877 -3.0390035282900474e-05 -1.2619306047295985e-05 -0.0012664615531001952 0.0014415430725689424 0.00082519827736738348 -0.00072494093707817806 -0.0052368841742953427 -0.0040880306154888659 0.013840583357073012 9.957951045146696e-05
leaf_weight=20 25358 71 1425 24 42 38 44 107 21 30 171 21 32 39 21 234 31 62823 34063 26 40940 42540 697 4781 2898 957 26 105 21 27
leaf_count=20 25358 71 1425 24 42 38 44 107 21 30 171 21 32 39 21 234 31 62823 34063 26 40940 42540 697 4781 2898 957 26 105 21 27
internal_value=0 1.05388e-05 0.000342279 0.00129969 0.00346545 0.00669618 0.000605283 0.00164992 0.00401571 0.00120093 -0.00032427 0.00166012 0.0004415 -0.000637058 1.26981e-05 0.000817995 0.00484661 6.52251e-06 -6.62224e-05 0.00194157 2.24707e-05 6.07998e-05 0.000132523 0.000781633 0.000179027 0.000440378 0.00133467 -0.0015199 0.00212408 0.00611127
internal_weight=0 192275 2300 589 143 80 446 210 71 51 236 65 139 63 1711 286 52 189975 34160 97 155815 92992 52052 9512 4552 3855 4960 179 74 48
internal_count=217633 192275 2300 589 143 80 446 210 71 51 236 65 139 63 1711 286 52 189975 34160 97 155815 92992 52052 9512 4552 3855 4960 179 74 48
shrinkage=0.05


Tree=98
num_leaves=31
num_cat=0
split_feature=15 20 0 18 35 35 4 15 38 12 44 43 40 41 25 29 40 12 11 23 40 34 18 24 18 20 9 18 35 17
split_gain=0.0668273 0.0946047 0.362541 0.352217 0.580853 0.746731 0.194702 0.113107 0.560257 0.112246 0.0933676 0.690754 0.504322 1.01835 0.605071 0.684757 0.565628 0.34459 0.53403 0.711334 0.384084 1.54998 0.920284 2.15136 1.1496 0.317128 0.70345 0.768608 0.940882 0.902909
threshold=-2.6163199999999997e-05 -14.223749999999997 -8.8447699999999987 -1.0730149999999997e-06 -0.00037168699999999994 0.67406600000000017 0.23828700000000003 -2.7784749999999993e-06 -0.55203199999999986 -0.00032485249999999994 -0.35442999999999975 -0.12174999999999957 0.1751400000000001 0.29985500000000015 29.284250000000004 -0.081534699999999988 0.077348000000000056 0.00017051850000000002 -0.00015845699999999995 -11.351199999999999 0.056773999999999998 0.010080700000000001 -5.1821499999999985e-07 0.10914550000000002 -1.2604899999999999e-05 14.554100000000002 2.1412350000000005e-05 -1.7388649999999999e-06 0.0005343940000000001 -8.1349849999999988e-07
decision_type=2 2 2 2 2 2 2 2 2 2 2 2 2 2 2 2 2 2 2 2 2 2 2 2 2 2 2 2 2 2
left_child=-1 2 3 4 -2 -6 -5 8 -4 -10 25 -12 13 14 15 16 -13 18 19 -17 -20 -22 24 -24 -23 -3 -27 28 29 -28
right_child=1 10 7 6 5 -7 -8 -9 9 -11 11 12 -14 -15 -16 17 -18 -19 20 -21 21 22 23 -25 -26 26 27 -29 -30 -31
leaf_value=-7.0036380881652083e-05 -0.0018712768547629822 -3.1520870795807616e-05 0.0082200115146115419 0.00019784791229450211 0.012727444765022806 0.0015652923992030114 0.0042315837826916126 -3.9731425791217168e-05 0.0036946493203504367 -0.00030279173235625323 -1.38626419192862e-05 0.0032998317393380544 -0.00011674673893464459 -8.5103154529685937e-05 -0.0074197335789601016 0.012923276323338293 0.012737414576113224 -0.00093063419636481835 0.00095461372505404392 5.7972037410807044e-05 -0.0062410331810550659 0.0028308508794426045 -0.0098364562011108957 0.008464310477886882 0.01540945232487642 -0.00011905862455750536 0.0025502984544304623 0.0012862915771225034 0.0001626750398120041 0.015476893314958684
leaf_weight=29451 24 107388 25 177 31 29 36 1756 20 144 65791 77 3327 3220 21 22 20 220 4558 21 34 34 26 42 39 708 22 299 36 35
leaf_count=29451 24 107388 25 177 31 29 36 1756 20 144 65791 77 3327 3220 21 22 20 220 4558 21 34 34 26 42 39 708 22 299 36 35
internal_value=0 1.09609e-05 0.000333815 0.00196091 0.00470278 0.0073324 0.000879606 8.53588e-05 0.00124757 0.000184701 7.06803e-06 4.90011e-05 0.000403676 0.000611433 0.00105 0.00108493 0.00524573 0.00100414 0.00109327 0.00664022 0.00104287 0.00334157 0.00565227 0.00146696 0.00955093 -2.28689e-05 0.000821783 0.00252106 0.0064909 0.0104877
internal_weight=0 188182 2242 297 84 60 213 1945 189 164 185940 77452 11661 8334 5114 5093 97 4996 4776 43 4733 175 141 68 73 108488 1100 392 93 57
internal_count=217633 188182 2242 297 84 60 213 1945 189 164 185940 77452 11661 8334 5114 5093 97 4996 4776 43 4733 175 141 68 73 108488 1100 392 93 57
shrinkage=0.05


Tree=99
num_leaves=31
num_cat=0
split_feature=34 3 18 24 40 40 18 24 4 40 2 6 36 43 4 4 24 43 41 40 29 3 6 12 23 43 4 24 4 40
split_gain=0.0626202 0.271655 0.238086 0.687266 1.07811 1.48211 0.257854 0.331297 0.464277 0.637939 0.257285 0.204778 0.163881 0.144881 0.139289 0.432312 0.828459 0.93078 1.13633 1.60113 0.719801 0.594203 0.551122 0.215572 0.100414 0.0803835 0.195668 0.320418 0.972422 0.166875
threshold=3.2423100000000002 -15.993649999999997 -7.2323849999999985e-06 0.86341500000000015 -0.49100999999999978 0.354709 -0.00036585349999999998 -0.96093699999999993 -2.6817999999999995 0.327845 1.7597100000000003 -2.4515249999999996e-07 0.86690500000000015 0.85052500000000031 -0.54650249999999989 -2.3911599999999997 -0.82489099999999993 5.2734150000000009 -0.71931549999999989 -0.51801999999999981 -0.44589049999999997 -11.394249999999998 1.8853450000000003e-07 0.00013691200000000002 -10.262699999999999 0.47541999999999979 0.73862450000000013 1.1195950000000001 2.3910900000000006 0.22528099999999995
decision_type=2 2 2 2 2 2 2 2 2 2 2 2 2 2 2 2 2 2 2 2 2 2 2 2 2 2 2 2 2 2
left_child=-1 2 6 10 -5 -6 7 8 -2 -10 -4 -8 13 -13 15 -3 17 18 -17 24 -21 -19 23 -22 -20 26 29 -28 -29 -16
right_child=1 14 3 4 5 -7 11 -9 9 -11 -12 12 -14 -15 25 16 -18 21 19 20 22 -23 -24 -25 -26 -27 27 28 -30 -31
leaf_value=-5.8593750836455879e-06 0.00021289369064758816 -0.00016950329489854384 -0.00064836571328000811 -0.00046907935381036708 0.015737210766804455 0.0014763242120014704 -0.0054485602602093982 -0.00071950256577603497 0.012242462184692089 0.00036463837275732661 0.0049248029644635011 -0.0010577835215372035 -0.0041853583896833396 0.0031596543752129948 -0.0017164495625111159 -0.00052666141138364893 -0.0003574636301947792 0.0074452869110525803 -0.001386541071821869 0.019855957726637521 0.015077935691390718 -0.00070809916967920581 0.002524509963889917 0.0083763789562951961 0.0031274603087116377 2.3523781030453336e-05 -0.00051338752571059227 0.0093382101086349027 -0.00046446356816431944 -0.00013924188548139542
leaf_weight=207719 53 1149 151 53 38 35 26 96 26 20 24 56 24 32 350 58 356 26 28 21 28 159 21 21 22 6341 261 37 80 322
leaf_count=207719 53 1149 151 53 38 35 26 96 26 20 24 56 24 32 350 58 356 26 28 21 28 159 21 21 22 6341 261 37 80 322
internal_value=0 0.000122766 0.00112411 0.00214324 0.00495892 0.0088998 0.000202912 0.00137337 0.00340283 0.00707819 0.000115955 -0.001451 -0.000522996 0.00047583 5.43553e-05 0.000437525 0.00138006 0.00299089 0.00536437 0.00778764 0.0117371 0.000437782 0.00930144 0.0122058 0.00059962 -4.35755e-05 -0.000448791 0.000461277 0.00263553 -0.000960704
internal_weight=0 9914 634 301 126 73 333 195 99 46 175 138 112 88 9280 1889 740 384 199 141 91 185 70 49 50 7391 1050 378 117 672
internal_count=217633 9914 634 301 126 73 333 195 99 46 175 138 112 88 9280 1889 740 384 199 141 91 185 70 49 50 7391 1050 378 117 672
shrinkage=0.05


Tree=100
num_leaves=31
num_cat=0
split_feature=4 24 3 4 4 24 40 41 44 44 21 20 20 3 21 7 44 14 5 3 37 3 39 1 44 20 28 14 40 24
split_gain=0.0623925 0.132638 0.824375 0.217578 0.132472 2.74116 1.77729 5.92798 1.33698 2.16413 1.33643 1.50104 1.61418 1.11827 0.974132 0.890857 1.01411 0.870372 0.836343 0.775787 0.741892 0.651002 0.567773 0.431162 0.378561 0.368352 0.365319 0.355101 0.341319 0.335757
threshold=1.7937450000000001 1.5291850000000002 -16.266399999999997 2.3910900000000006 0.24725400000000003 0.34963900000000009 0.40779500000000007 0.35345999999999994 3.6866600000000003 0.71026 7.0074550000000011 -6.2436999999999996 9.3032900000000023 -8.7781499999999983 -6.3049749999999998 3.5076150000000005e-05 -1.2354849999999999 0.0094329700000000006 1.9150900000000003e-05 -7.5517599999999989 1.5720100000000002e-06 -10.973849999999997 0.034433300000000007 10.154350000000003 -0.89938499999999999 -10.065 -0.036151699999999995 0.0059042550000000015 0.02582950000000005 0.33996650000000006
decision_type=2 2 2 2 2 2 2 2 2 2 2 2 2 2 2 2 2 2 2 2 2 2 2 2 2 2 2 2 2 2
left_child=4 -2 -3 -4 29 -6 7 8 9 10 11 15 14 -12 21 16 -7 18 20 -14 26 -13 24 -15 27 -17 -11 -16 -27 -1
right_child=1 2 3 -5 5 6 -8 -9 -10 17 13 12 19 23 22 25 -18 -19 -20 -21 -22 -23 -24 -25 -26 28 -28 -29 -30 -31
leaf_value=2.2370269828496417e-05 -7.2582334436183991e-05 0.010803431069944055 0.0042690154918818739 -0.00026058006286914685 -9.7748007660916104e-05 0.0223729850910604 -7.9361267235364806e-05 2.4793225031771728e-05 -0.0020757598344577368 0.015495450478856979 0.016231033420011115 0.01224833075647001 0.016420169646368811 0.0035860404468899183 -0.0027482374110453143 0.0094298441267764085 0.0073971677486462375 0.019272317340633331 0.016644507328358791 0.0046426365184115961 0.0017108900209841056 0.0032099406829250881 -0.008140672342851759 0.010868943186717168 0.0019728374908606241 -0.00040648215111683714 0.0076885226883838869 0.0038646324649453164 0.007633653461975469 -0.00019469397536351759
leaf_weight=139421 32709 20 30 228 21201 20 1304 1308 60 23 39 27 27 59 108 34 26 26 30 29 39 76 20 31 190 33 43 25 22 20425
leaf_count=139421 32709 20 30 228 21201 20 1304 1308 60 23 39 27 27 59 108 34 26 26 30 29 39 76 20 31 190 33 43 25 22 20425
internal_value=0 -6.33392e-05 0.0010242 0.000266117 1.13155e-05 0.000118835 0.00139468 0.00223222 0.00515757 0.00562575 0.00451818 0.00357834 0.00231967 0.0091591 0.00131501 0.00825872 0.0139084 0.0108953 0.00928194 0.0103211 0.00717835 0.00557923 3.44952e-05 0.0060946 0.000540698 0.00533866 0.0104091 -0.00150522 0.00280957 -5.36603e-06
internal_weight=0 32987 278 258 184646 24800 3599 2295 987 927 766 637 502 129 446 135 46 161 135 56 105 103 343 90 323 89 66 133 55 159846
internal_count=217633 32987 278 258 184646 24800 3599 2295 987 927 766 637 502 129 446 135 46 161 135 56 105 103 343 90 323 89 66 133 55 159846
shrinkage=0.05


Tree=101
num_leaves=31
num_cat=0
split_feature=4 18 38 41 40 30 4 43 43 40 40 26 44 40 4 4 43 44 44 5 26 6 44 40 14 23 11 3 20 14
split_gain=0.0609137 0.123817 1.39025 1.07349 4.0405 1.47293 2.82002 1.32388 1.15164 1.07211 1.23191 1.06593 1.00497 1.14371 0.90237 0.89695 0.813944 0.798319 0.839518 0.647658 0.741609 0.70133 0.615261 1.2546 0.597638 0.750346 0.58165 0.491995 0.487919 0.477734
threshold=-1.5265699999999998 -1.6062999999999998e-06 0.00031421350000000004 -0.33012499999999995 -0.25142799999999998 0.0024282350000000004 -0.26743249999999991 5.0027350000000004 1.1890849999999997 -0.10081500000000009 0.10022550000000004 -0.00039100399999999997 1.4428800000000004 -0.040859549999999939 0.052278150000000002 -0.58642949999999983 0.80790999999999979 1.4428800000000004 -0.77194499999999999 1.8127350000000005e-05 0.00052757850000000018 -1.6203399999999995e-07 0.31988499999999936 0.056773999999999998 0.00013551050000000002 -16.772999999999996 -2.6900849999999998e-05 -13.243349999999998 4.1005450000000012 0.0011235450000000003
decision_type=2 2 2 2 2 2 2 2 2 2 2 2 2 2 2 2 2 2 2 2 2 2 2 2 2 2 2 2 2 2
left_child=-1 2 -2 -4 -5 8 7 9 12 -7 17 -12 13 15 16 -6 22 18 -11 20 -13 -22 23 -15 -8 29 -25 -19 -28 -26
right_child=1 -3 3 4 5 6 24 -9 -10 10 11 19 -14 14 -16 -17 -18 27 -20 -21 21 -23 -24 26 25 -27 28 -29 -30 -31
leaf_value=-6.1796613097059208e-05 -0.00011859956360742277 -1.2792196587871149e-05 -1.4455411380053005e-05 3.9074932227868033e-05 -0.0023557593022511965 0.011626359608381728 0.0069621920593947702 -0.0013284603305040339 -0.00050787326875849175 0.0072282795810770968 0.0011508810506374748 0.017201435965641092 -0.00062329511521085838 0.0012021956394967137 -0.0083844506418972748 0.0081060392199703672 0.0094329624477093327 0.0054064906069210602 0.0017459789810779322 0.019509369165947043 0.012737953804595315 0.00063982913456857207 0.0045454950408047477 0.015155749058439619 0.00042009509653629116 -0.0019096009005102619 0.00039347613230347636 0.016364147160202264 0.010731636919081211 0.0098845088388770826
leaf_weight=33702 30632 136695 7120 6156 24 86 28 60 536 99 27 24 281 1042 20 140 39 21 237 24 23 25 216 21 30 235 25 20 21 24
leaf_count=33702 30632 136695 7120 6156 24 86 28 60 536 99 27 24 281 1042 20 140 39 21 237 24 23 25 216 21 30 235 25 20 21 24
internal_value=0 1.13231e-05 8.11097e-05 0.000449545 0.000797887 0.00220151 0.00384994 0.00574532 0.00153029 0.0064696 0.00558264 0.00992766 0.00212758 0.00262693 0.00215909 0.00657504 0.00231369 0.00416503 0.0033613 0.0123961 0.010025 0.00643685 0.00210414 0.00162864 -1.25671e-05 -0.000688322 0.00826078 0.0107517 0.00511307 0.0046265
internal_weight=0 183931 47236 16604 9484 3328 963 646 2365 586 500 123 1829 1548 1384 164 1364 377 336 96 72 48 1325 1109 317 289 67 41 46 54
internal_count=217633 183931 47236 16604 9484 3328 963 646 2365 586 500 123 1829 1548 1384 164 1364 377 336 96 72 48 1325 1109 317 289 67 41 46 54
shrinkage=0.05


Tree=102
num_leaves=31
num_cat=0
split_feature=21 1 43 41 16 16 4 14 24 43 41 41 4 24 4 4 24 43 41 41 43 42 41 43 44 0 24 41 5 4
split_gain=0.058841 0.21801 0.265513 0.346966 0.456455 0.726649 0.263777 0.422253 0.120107 0.105463 0.103556 0.336328 0.0581781 0.107078 0.267214 0.0912416 2.17882 1.30404 1.66028 3.55728 1.27739 1.48889 0.80658 1.16279 1.40598 0.778462 1.14992 0.742892 0.730617 0.66343
threshold=18.392150000000004 4.8656050000000013 0.64319500000000052 -0.89665319999999982 -5.8728149999999988e-07 1.0552950000000002e-06 -0.68745799999999979 0.0030998800000000006 -1.1409399999999998 -0.19603999999999996 0.35345999999999994 -0.15132349999999997 -1.4133199999999999 -2.2419299999999995 -2.6817999999999995 -0.20278049999999997 -0.33207549999999991 2.0800550000000007 -0.60497499999999982 0.37828249999999997 -4.0456399999999988 -0.079468000000000025 -0.057539999999999918 -0.99152500000000054 -0.77194499999999999 -3.8017449999999995 -0.88671549999999988 -0.2272394999999999 1.1738350000000001e-05 -0.81164199999999986
decision_type=2 2 2 2 2 2 2 2 2 2 2 2 2 2 2 2 2 2 2 2 2 2 2 2 2 2 2 2 2 2
left_child=12 6 9 -4 -5 -6 7 -2 -9 -3 11 -8 13 14 -1 16 17 18 -14 20 -20 28 25 -24 -25 -23 29 -28 -22 -27
right_child=1 2 3 4 5 -7 10 8 -10 -11 -12 -13 15 -15 -16 -17 -18 -19 19 -21 21 22 23 24 -26 26 27 -29 -30 -31
leaf_value=-3.1729782123410918e-05 0.0082997608334484212 0.00045245355973747795 -0.00014019354265959314 0.011221269303738762 -0.00043105039888891874 0.0097741410312035173 -0.00029786027100494629 0.0038336811144836246 -0.00064044906646055708 -0.0035946087140804267 -0.0001485102088736312 -0.0059490499385800727 -7.3705645525158473e-05 -6.6573612425005607e-05 0.0050341639994359068 -5.2020420458852454e-06 -9.8042047060567216e-05 0.0001082715668747378 -0.0018135484546845599 0.00016621756173127879 0.0044618984617085921 0.011211114060065218 0.0096907759535436837 0.0088149382888029031 0.0010355589310143366 0.0039677552479718417 0.0015368732260304526 0.0094728465137927983 0.012076717291049484 -0.0086004418764440791
leaf_weight=94 22 60 60 21 53 26 98 20 60 22 305 36 761 34325 36 154910 23186 1814 69 758 45 68 60 69 367 21 42 99 105 21
leaf_count=94 22 60 60 21 53 26 98 20 60 22 305 36 761 34325 36 154910 23186 1814 69 758 45 68 60 69 367 21 42 99 105 21
internal_value=0 0.00043266 0.00168009 0.00286573 0.00466929 0.00292762 -0.000125343 0.00216511 0.000478083 -0.000633344 -0.000657521 -0.00181609 -1.56224e-06 -6.11491e-05 0.00137113 9.6939e-06 9.36499e-05 0.00112751 0.00187154 0.00273019 0.00474209 0.00524637 0.00433354 0.00316477 0.0022667 0.00664315 0.00494576 0.00710894 0.00979227 -0.00231634
internal_weight=0 783 242 160 100 79 541 102 80 82 439 134 216850 34455 130 182395 27485 4299 2485 1724 966 897 747 496 436 251 183 141 150 42
internal_count=217633 783 242 160 100 79 541 102 80 82 439 134 216850 34455 130 182395 27485 4299 2485 1724 966 897 747 496 436 251 183 141 150 42
shrinkage=0.05


Tree=103
num_leaves=31
num_cat=0
split_feature=21 16 3 33 16 16 36 8 12 4 36 4 4 24 40 41 44 44 20 20 21 3 3 21 23 20 3 3 20 29
split_gain=0.0555761 0.251089 0.588593 0.184474 0.178354 0.314321 0.0686053 0.168789 0.133982 0.056118 0.105647 0.243712 0.101006 2.27682 1.4479 5.45687 1.347 1.86764 1.22177 1.29382 1.38223 1.2942 0.827878 0.803071 0.804414 0.753603 0.742525 0.721374 0.652265 0.725054
threshold=-19.754149999999996 2.3057600000000002e-06 -6.1953499999999995 -0.0025000549999999997 8.7195400000000012e-06 2.1581450000000003e-05 0.14537000000000003 6.4125050000000012e-06 -8.1803149999999986e-05 2.2539600000000006 -2.2564299999999995 3.2200950000000002 0.24725400000000003 0.34963900000000009 0.40779500000000007 0.35345999999999994 3.6866600000000003 0.71026 9.3032900000000023 -10.065 7.6671550000000011 -9.2899249999999984 -6.5484699999999991 -8.0467049999999976 -10.311099999999998 -6.2436999999999996 -8.2835949999999983 -11.976899999999999 -3.5695999999999994 0.044299200000000004
decision_type=2 2 2 2 2 2 2 2 2 2 2 2 2 2 2 2 2 2 2 2 2 2 2 2 2 2 2 2 2 2
left_child=1 6 3 -3 -5 -6 7 -1 -9 12 11 -11 -2 -14 15 16 17 18 19 26 23 -22 -20 24 -21 27 -15 -25 -19 -30
right_child=9 2 -4 4 5 -7 -8 8 -10 10 -12 -13 13 14 -16 -17 -18 28 22 20 21 -23 -24 25 -26 -27 -28 -29 29 -31
leaf_value=-0.00063087327442904752 -6.950032199732099e-06 0.004143944925162942 0.0081958513944740737 -0.0030844159392633148 0.0052278748136207779 -0.00032444909694220316 -0.00037162818440755654 0.00068603679292909185 0.0058667030109518237 0.0052357001970860092 -7.1688075859544797e-05 4.8456793939251282e-05 -8.8194102628951035e-05 0.017234754314025245 -5.0731322199550527e-05 -7.9607844621815436e-06 -0.0021624084127840584 0.0039301205439039987 0.014270503838308791 0.015322530921257566 0.017015910294527811 0.0044910339753242269 0.0032845379215292203 0.013080561379699604 0.003612875473389233 0.00030978960948431917 0.0061612606633499991 0.0026161483378583116 0.0091451071710325783 0.017182780219576296
leaf_weight=70 159194 35 31 34 33 112 523 26 24 31 29348 84 24064 24 1474 1506 67 37 47 20 30 66 27 23 55 410 41 58 100 39
leaf_count=70 159194 35 31 34 33 112 523 26 24 31 29348 84 24064 24 1474 1506 67 37 47 20 30 66 27 23 55 410 41 58 100 39
internal_value=0 0.000394748 0.00175682 0.000824063 0.000174924 0.000939183 -0.000124238 0.000953972 0.00317276 -1.61727e-06 -6.57613e-05 0.00144676 8.47379e-06 9.58912e-05 0.00119674 0.00191783 0.00469584 0.00516616 0.00414144 0.00351842 0.00285747 0.00840506 0.0102621 0.00191654 0.00673545 0.00118045 0.0102499 0.00558752 0.00982985 0.0114003
internal_weight=0 888 245 214 179 145 643 120 50 216745 29463 115 187282 28088 4024 2550 1044 977 801 727 662 96 74 566 75 491 65 81 176 139
internal_count=217633 888 245 214 179 145 643 120 50 216745 29463 115 187282 28088 4024 2550 1044 977 801 727 662 96 74 566 75 491 65 81 176 139
shrinkage=0.05


Tree=104
num_leaves=31
num_cat=0
split_feature=21 3 1 4 19 6 24 26 16 40 40 3 44 3 21 44 21 1 40 40 4 3 15 21 40 40 3 40 40 40
split_gain=0.051613 0.249068 0.636061 0.168558 0.315411 0.582741 0.099074 0.0794022 0.237711 0.0720563 0.344184 0.0522435 0.126593 0.338222 0.421885 0.28035 0.392873 0.696995 0.707365 1.13571 0.998885 0.615316 0.655401 0.395381 0.573143 1.27182 0.624572 0.497068 0.346377 0.891216
threshold=18.392150000000004 -5.0945699999999992 8.267730000000002 -0.38361349999999994 0.00019078500000000004 -3.3864449999999993e-07 -1.1409399999999998 -0.0048905699999999995 9.9131400000000028e-06 -0.30278099999999991 0.12375499999999996 -7.4497099999999987 0.6060099999999996 -18.627349999999996 4.6976250000000013 -0.35442999999999975 -9.6904849999999971 -3.2275299999999993 -0.3562499999999999 0.327845 -1.8861499999999998 -8.9021549999999987 5.234035000000001e-08 9.5666150000000023 -0.43704099999999996 0.077348000000000056 -10.156199999999998 -0.10081500000000009 0.20129000000000011 -0.058960000000000005
decision_type=2 2 2 2 2 2 2 2 2 2 2 2 2 2 2 2 2 2 2 2 2 2 2 2 2 2 2 2 2 2
left_child=11 3 -3 4 5 -2 -6 8 -5 -9 -11 12 13 14 -1 16 17 18 -15 20 -20 22 -22 -18 -25 26 -26 -28 29 -17
right_child=1 2 -4 7 6 -7 -8 9 -10 10 -12 -13 -14 15 -16 28 23 -19 19 -21 21 -23 -24 24 25 -27 27 -29 -30 -31
leaf_value=0.0014004806150005253 0.011494657327421011 -0.00070138846197463156 0.010735517096472906 -8.0393394399718858e-05 0.0032488145614953954 -0.0004308049705633451 -0.00040480931578864941 -1.9673736780964872e-05 0.0051355609215097504 -0.0056845459048762113 -0.00024125497309998741 -3.1798751323448005e-05 -2.6987889022781804e-05 -0.00018018574001689558 0.0093361967082364588 -1.0194353624805744e-05 -3.2209131294496545e-05 -0.00021457494003075661 -0.0032636408871621822 0.00048894270698992377 0.0070126598620594578 0.0053676203482837083 0.017469952535823046 -2.5636087058265927e-05 0.015040512088770894 0.00061894555710997282 -0.00027626765164313839 0.0084828034366617663 -8.3942570183457554e-05 0.00098090559001661674
leaf_weight=103 20 31 20 173 23 21 96 202 25 37 135 85783 70739 150 20 4958 44699 504 20 118 29 64 31 427 22 203 25 46 4728 4181
leaf_count=103 20 31 20 173 23 21 96 202 25 37 135 85783 70739 150 20 4958 44699 504 20 118 29 64 31 427 22 203 25 46 4728 4181
internal_value=0 0.000405216 0.00378367 0.000169831 0.00160442 0.00538649 0.000301353 -0.000231452 0.000578187 -0.000660085 -0.0014122 -1.46315e-06 1.83914e-05 7.1602e-05 0.00269084 6.62508e-05 7.22709e-06 0.00103244 0.00255791 0.00412552 0.00710549 0.00877793 0.0124156 -1.34477e-05 0.00114646 0.0028373 0.0076795 0.00539862 0.000263485 0.000443224
internal_weight=0 783 51 732 160 41 119 572 198 374 172 216850 131067 60328 123 60205 46338 916 412 262 144 124 60 45422 723 296 93 71 13867 9139
internal_count=217633 783 51 732 160 41 119 572 198 374 172 216850 131067 60328 123 60205 46338 916 412 262 144 124 60 45422 723 296 93 71 13867 9139
shrinkage=0.05


Tree=105
num_leaves=31
num_cat=0
split_feature=41 21 21 16 3 33 16 16 36 2 12 21 3 4 19 6 8 19 7 26 16 16 4 1 40 40 3 43 41 40
split_gain=0.0505846 1.31806 0.0498533 0.226753 0.531894 0.166817 0.161214 0.278625 0.0625098 0.173039 0.0493043 0.0475404 0.232386 0.134351 0.273548 0.538892 0.109431 0.169513 0.0956333 0.0924601 0.25334 0.0994949 0.160955 0.0602734 0.0518229 0.277029 0.0497895 0.245264 0.232915 1.13877
threshold=5.6849350000000003 -3.7984549999999992 -19.754149999999996 2.3057600000000002e-06 -6.1953499999999995 -0.0025000549999999997 8.7195400000000012e-06 2.1581450000000003e-05 0.14537000000000003 -1.5676099999999999 0.00040324100000000009 18.392150000000004 -4.8298799999999993 -0.38361349999999994 0.00019078500000000004 -3.3864449999999993e-07 -2.4061649999999993e-05 4.1504100000000008e-05 3.7305750000000001e-05 -0.0048905699999999995 9.9131400000000028e-06 4.3089250000000013e-06 2.6533750000000005 9.4357350000000029 -0.3562499999999999 0.14973499999999998 -11.042399999999999 -2.2545749999999996 0.32610899999999998 0.1751400000000001
decision_type=2 2 2 2 2 2 2 2 2 2 2 2 2 2 2 2 2 2 2 2 2 2 2 2 2 2 2 2 2 2
left_child=2 -2 3 8 5 -5 -7 -8 9 -1 -9 26 13 14 15 -13 17 -15 -16 20 -18 23 -23 24 -21 -26 27 -4 29 -29
right_child=1 -3 11 4 -6 6 7 10 -10 -11 -12 12 -14 16 18 -17 19 -19 -20 21 -22 22 -24 -25 25 -27 -28 28 -30 -31
leaf_value=0.0047070678335633907 0.010030673666310844 -1.6176903932534122e-05 -4.204193467646959e-05 0.0039369252566913409 0.0077876486162084249 -0.0029361508619545288 0.0049270614625349868 -0.00084834625481097325 -0.0003562738066241383 -4.9722493510306185e-05 0.0017083213873092973 0.010919924722984434 0.0051293585510993585 0.0056781998838482655 0.0023163683782630147 -0.00042023949631997816 -7.5077696558996138e-05 -0.00061579837093513176 -0.00070337975117581671 -0.00010204299931087836 0.005628978985425255 -0.0060339564876895485 -0.00073257015040592425 0.0016902595751514217 -0.005977703521784861 3.2678188424379433e-05 -1.9500661510589612e-05 0.0010316533276525002 -3.5834340089042908e-05 7.6880018003749244e-06
leaf_weight=24 34 819 38499 35 31 34 33 88 523 94 24 20 25 20 39 22 169 23 80 167 22 22 41 31 26 73 154658 3789 8587 9581
leaf_count=24 34 819 38499 35 31 34 33 88 523 94 24 20 25 20 39 22 169 23 80 167 22 22 41 31 26 73 154658 3789 8587 9581
internal_value=0 0.000384284 -1.5121e-06 0.00037278 0.00166661 0.000779914 0.000162621 0.000889229 -0.00012174 0.00091776 -0.000300489 -3.04815e-06 0.000386596 0.000229551 0.00151069 0.00497984 -0.000117694 0.00231164 0.000286286 -0.000307279 0.000581934 -0.000779056 -0.00258385 -0.000396222 -0.000639383 -0.00154581 -4.46099e-06 3.40134e-05 0.000167367 0.000297875
internal_weight=0 853 216780 886 245 214 179 145 641 118 112 215894 780 755 161 42 594 43 119 551 191 360 63 297 266 99 215114 60456 21957 13370
internal_count=217633 853 216780 886 245 214 179 145 641 118 112 215894 780 755 161 42 594 43 119 551 191 360 63 297 266 99 215114 60456 21957 13370
shrinkage=0.05


Tree=106
num_leaves=31
num_cat=0
split_feature=4 4 24 41 40 20 20 26 4 3 18 21 26 32 32 40 3 41 1 11 40 41 19 32 40 20 40 29 31 20
split_gain=0.0477771 0.071856 1.9559 1.15326 4.77352 0.876938 0.696458 0.841102 0.685849 0.870846 0.844884 0.619403 0.561073 0.494236 0.462344 0.664015 0.440646 0.583417 0.968854 0.799308 0.696889 0.464899 0.653336 0.584778 0.458327 0.642222 0.427426 0.401105 0.357618 0.329379
threshold=2.9223900000000005 0.24725400000000003 0.34963900000000009 0.35345999999999994 0.327845 -10.065 12.049900000000001 -0.0037174099999999996 1.5563800000000001 -15.396099999999999 0.00061356150000000016 7.5557450000000008 -0.00034232549999999999 -0.58764449999999979 0.60516900000000018 0.02582950000000005 -6.3074049999999993 -0.057539999999999918 4.0814950000000012 -5.4981049999999991e-05 0.20129000000000011 0.078754999999999922 0.00064301250000000016 -0.44443899999999997 0.077348000000000056 2.9284200000000005 -0.079468000000000025 -1.2159399999999998 -0.10371599999999999 -1.1107799999999999
decision_type=2 2 2 2 2 2 2 2 2 2 2 2 2 2 2 2 2 2 2 2 2 2 2 2 2 2 2 2 2 2
left_child=1 -1 -3 4 5 14 8 -8 10 -10 11 16 -13 -12 15 -4 17 18 20 -19 24 -21 23 -23 -7 -26 -14 -6 -28 -25
right_child=-2 2 3 -5 27 6 7 -9 9 -11 13 12 26 -15 -16 -17 -18 19 -20 21 -22 22 -24 29 25 -27 28 -29 -30 -31
leaf_value=-5.2598090923976959e-06 -6.4509137222506648e-05 -8.1862976287420518e-05 0.0004557716558970835 2.4248430826637463e-05 0.0051451690691082103 0.0056116304056558876 0.0031867865830038987 0.015026702533165615 0.008718983164522796 -0.0016020232587574618 0.013818775732634646 0.012741758913034574 0.010564266340363594 0.0053474052692763507 0.015531931804831735 0.011522830408736782 -0.0016760796217726158 -0.0014782902298195819 -0.0019974863732731421 0.0025191746850381606 0.0012022649683920599 0.011302115589933237 0.013571624188218265 0.0060266807174775752 0.0086426335866704139 0.019526562370035961 0.0069088326732162399 -4.7497203359503441e-05 -0.0020613471395336093 -0.0023745786683450985
leaf_weight=159846 25358 27811 23 1764 38 32 30 30 25 112 33 32 21 36 22 33 46 98 29 250 27 20 25 20 33 23 20 1743 25 28
leaf_count=159846 25358 27811 23 1764 38 32 30 30 25 112 33 32 21 36 22 33 46 98 29 250 27 20 25 20 33 23 20 1743 25 28
internal_value=0 8.50772e-06 7.63694e-05 0.00102929 0.00165049 0.00428497 0.00388476 0.00910674 0.00354965 0.000281372 0.00411075 0.00361022 0.00730846 0.00939893 0.00939024 0.00697743 0.00303585 0.00340637 0.00616961 0.00250408 0.00822914 0.0036419 0.00665998 0.00411894 0.0103851 0.0131128 0.00467413 6.32952e-05 0.0019254 0.00112595
internal_weight=0 192275 32429 4618 2854 1073 995 60 935 137 798 729 98 69 78 56 631 585 144 441 115 343 93 68 88 56 66 1781 45 48
internal_count=217633 192275 32429 4618 2854 1073 995 60 935 137 798 729 98 69 78 56 631 585 144 441 115 343 93 68 88 56 66 1781 45 48
shrinkage=0.05


Tree=107
num_leaves=31
num_cat=0
split_feature=4 24 4 3 34 18 38 41 40 4 43 30 3 14 5 44 44 4 34 43 6 40 43 25 18 41 40 20 40 41
split_gain=0.0460322 0.104188 0.419274 0.749183 0.153603 0.0989697 1.14745 0.869651 3.2934 1.1976 1.30463 1.23292 1.33224 0.919256 0.837792 0.805697 0.830282 0.848781 0.783792 1.08642 0.82327 0.760256 0.848413 0.753745 0.741753 0.734255 0.765608 0.705893 0.679278 0.653608
threshold=-1.5265699999999998 -1.4574199999999997 -2.6817999999999995 -12.352299999999998 14.135600000000002 -1.6062999999999998e-06 0.00031421350000000004 -0.33012499999999995 -0.25142799999999998 0.019144700000000004 1.8568299999999998 0.0053263050000000008 -11.825449999999998 0.00016757500000000002 1.6804400000000005e-05 2.5130600000000003 0.31988499999999936 -1.0382099999999996 2.3658200000000007 4.8349600000000006 1.5668650000000001e-06 0.056773999999999998 0.8945249999999999 2.3879650000000008 -1.7264149999999996e-05 -0.15132349999999997 -0.12496499999999998 5.1544950000000016 -0.040859549999999939 0.14791590000000002
decision_type=2 2 2 2 2 2 2 2 2 2 2 2 2 2 2 2 2 2 2 2 2 2 2 2 2 2 2 2 2 2
left_child=1 2 -1 -4 -5 6 -2 -8 -9 10 11 15 14 -14 -13 16 17 -10 -12 20 -20 28 -23 -18 25 -15 -27 -25 29 -19
right_child=5 -3 3 4 -6 -7 7 8 9 -11 18 12 13 24 -16 -17 23 21 19 -21 -22 22 -24 27 -26 26 -28 -29 -30 -31
leaf_value=-0.00019462006026122421 -0.00010919831909928087 -6.3512338959369468e-05 0.0090721432928005108 0.002787102487758375 -0.0020057970434260958 -1.1716997764773608e-05 -1.0674318268486354e-05 3.5410901848953658e-05 -0.007497068930862715 -0.0021003299649301507 -0.00056069858044700252 -0.0010904211950753624 0.017857787781395018 0.016459909284656699 0.0075092645000404447 -0.0007234666607230651 0.0032798150812583847 0.0064810921405955395 0.012965493615812215 -0.00077019623999911987 0.00068615660503772765 0.0078317194630984546 -0.00059529731025998822 0.010057575091342913 -0.00025080282410437415 0.01428538952022791 0.0052229541503378734 -0.00013376150413283282 0.00137660300105796 -0.0014171401701098534
leaf_weight=308 30632 33289 38 32 35 136695 7120 6156 23 170 547 97 20 22 40 204 303 127 39 62 21 110 41 89 33 28 139 21 1159 33
leaf_count=308 30632 33289 38 32 35 136695 7120 6156 23 170 547 97 20 22 40 204 303 127 39 62 21 110 41 89 33 28 139 21 1159 33
internal_value=0 -5.37202e-05 0.000735552 0.00346406 0.000283349 9.84325e-06 7.22359e-05 0.000406956 0.000720487 0.00198771 0.00220778 0.00273465 0.00536037 0.00759082 0.00142044 0.00226302 0.00258267 0.0020338 0.000247547 0.0038714 0.00866773 0.00218292 0.00554359 0.00456683 0.00666587 0.00787354 0.0067424 0.00811196 0.00179819 0.00485208
internal_weight=0 33702 413 105 67 183931 47236 16604 9484 3328 3158 2489 379 242 137 2110 1906 1493 669 122 60 1470 151 413 222 189 167 110 1319 160
internal_count=217633 33702 413 105 67 183931 47236 16604 9484 3328 3158 2489 379 242 137 2110 1906 1493 669 122 60 1470 151 413 222 189 167 110 1319 160
shrinkage=0.05


Tree=108
num_leaves=31
num_cat=0
split_feature=42 21 21 1 4 33 4 42 42 42 13 2 42 21 3 9 43 12 7 4 37 13 42 42 10 12 12 2 3 43
split_gain=0.0458461 1.18981 0.0423414 0.193131 0.500122 0.0829285 0.321245 0.0514105 0.0541496 0.249947 0.216922 0.142737 0.125864 0.0409362 0.204865 0.156684 0.0957382 0.224658 0.60311 0.120139 0.226468 0.101224 0.117301 0.589078 0.0620379 0.0558752 0.140643 0.0458366 0.0430664 0.198932
threshold=-5.6825599999999996 -3.7984549999999992 -19.754149999999996 -8.8547249999999984 -0.15279949999999998 -0.0025000549999999997 1.1247450000000001 -3.6053384999999998 0.14973499999999998 -0.12496499999999998 -1.8862399999999994e-05 -1.4330849999999997 -0.60254799999999997 18.392150000000004 -4.8298799999999993 6.4682750000000014e-05 0.51814999999999956 0.00010937550000000001 5.0735600000000003e-05 -1.4133199999999999 0.00019513800000000003 0.00025762050000000008 -0.30278099999999991 0.14973499999999998 2.9157150000000003e-05 4.6248000000000002e-05 6.1414500000000013e-05 1.9477750000000003 -11.042399999999999 -2.2545749999999996
decision_type=2 2 2 2 2 2 2 2 2 2 2 2 2 2 2 2 2 2 2 2 2 2 2 2 2 2 2 2 2 2
left_child=1 -1 3 4 -2 6 -5 -7 9 10 -9 -10 -12 28 15 16 19 25 -19 20 -15 22 -21 -24 -23 27 -27 -18 29 -4
right_child=2 -3 13 5 -6 7 -8 8 11 -11 12 -13 -14 14 -16 -17 17 18 -20 21 -22 24 23 -25 -26 26 -28 -29 -30 -31
leaf_value=0.009530979844823699 0.0070374590564873914 -1.2739539078405893e-05 -3.6887716496528315e-05 2.2707445800494354e-05 0.00021468277510783602 0.0023007198911727754 0.0068562526075679449 0.0045956187267074712 0.0040727529666106594 -0.005848994757980109 -0.00019529318272972775 -0.00015952522932528591 -0.003578867155941095 -0.00040050037246796167 0.0048117841733619571 0.0039514388568662713 -0.00043929697164638384 0.010448451814299917 -0.0012005720047745855 -0.00027309625593136856 0.0059132139815483249 0.0033831257207202724 -0.0090626342787940156 -0.0006232465494081631 -0.00029097054069064106 0.0048390963992243907 -0.00033673408499453218 0.0015199206052836547 -1.8160951311844375e-05 0.00015170862530921973
leaf_weight=34 37 827 38498 95 98 20 21 20 21 23 128 388 35 49 25 27 203 20 25 146 20 20 26 101 27 21 35 35 154651 21957
leaf_count=34 37 827 38498 95 98 20 21 20 21 23 128 388 35 49 25 27 203 20 25 146 20 20 26 101 27 21 35 35 154651 21957
internal_value=0 0.000364132 -1.4463e-06 0.000343496 0.00208463 3.05094e-05 0.00125981 -0.000194057 -0.000275188 -0.000936274 -0.000318828 5.778e-05 -0.000921827 -2.86195e-06 0.000358707 0.000211254 7.2538e-05 0.000686755 0.00397677 -0.000462731 0.00142956 -0.000870757 -0.00123974 -0.002351 0.00127247 0.000183181 0.0016042 -0.000151177 -4.17304e-06 3.16097e-05
internal_weight=0 861 216772 886 135 751 116 635 615 206 183 409 163 215886 780 755 728 339 45 389 69 320 273 127 47 294 56 238 215106 60455
internal_count=217633 861 216772 886 135 751 116 635 615 206 183 409 163 215886 780 755 728 339 45 389 69 320 273 127 47 294 56 238 215106 60455
shrinkage=0.05


Tree=109
num_leaves=31
num_cat=0
split_feature=4 27 21 12 43 40 12 4 3 32 17 23 43 40 40 3 44 3 36 20 11 3 7 15 2 5 4 38 17 44
split_gain=0.0427969 0.0684621 0.0619811 0.203635 0.504368 0.555967 0.630311 0.459548 0.184131 0.175157 0.0976879 0.19823 0.0775135 0.0682763 0.184934 0.0620355 0.122014 0.302156 0.370606 0.281457 0.59002 1.16198 1.12017 1.00177 0.719253 0.465793 0.349522 0.491761 0.395395 0.298878
threshold=3.2200950000000002 2.3608400000000005 18.392150000000004 2.7795450000000002e-05 0.55890500000000032 0.91906500000000002 0.00010937550000000001 -0.10046199999999998 -5.5710999999999995 -10.048129999999999 -3.7416649999999998e-06 -7.4282149999999989 -1.3362800000000006 -0.10081500000000009 0.20129000000000011 -7.4497099999999987 0.6060099999999996 -18.627349999999996 -0.010945149999999999 -8.175164999999998 -3.0554299999999993e-05 -12.126699999999998 3.8694900000000008e-05 -4.7338599999999997e-07 2.5006450000000005 8.9500450000000022e-06 0.090019550000000018 -0.0038159099999999992 1.8892550000000003e-06 -0.20255000000000042
decision_type=2 2 2 2 2 2 2 2 2 2 2 2 2 2 2 2 2 2 2 2 2 2 2 2 2 2 2 2 2 2
left_child=2 -2 15 10 9 6 7 -6 -9 -5 11 -4 -11 -12 -15 16 17 18 -1 20 21 22 23 -19 -24 -23 -27 28 -28 -21
right_child=1 -3 3 4 5 -7 -8 8 -10 12 13 -13 -14 14 -16 -17 -18 19 -20 29 -22 25 24 -25 -26 26 27 -29 -30 -31
leaf_value=0.007300696067977697 -2.0585145089231387e-05 -0.00023209850873553734 -0.00036321392558637033 -0.004307446010514266 0.010062970161961858 -0.0003265334428808848 0.013569154852025568 -0.0018136970271091111 0.0043278891860213864 -0.00058687080872684273 -0.00021280682216837544 0.0056847787360311489 0.0025163751286325152 -0.006026211441494525 -0.000320769129698141 -2.7023903147036309e-05 -1.8360270560886589e-05 0.0052081278779681911 0.0009526391901887477 -9.4813443384494618e-06 7.9345971710607886e-05 0.0073806381293387083 -0.0017645587632283755 0.019247628677567265 0.0091462769328917726 -0.00010908504227286772 0.0088477374259897414 0.00059931167118581477 0.0024017656384710821 0.00030272015436361328
leaf_weight=31 18864 4799 42 27 20 57 21 26 23 79 271 20 27 20 49 81743 59766 27 89 39124 2067 27 44 24 23 495 39 194 61 9534
leaf_count=31 18864 4799 42 27 20 57 21 26 23 79 271 20 27 20 49 81743 59766 27 89 39124 2067 27 44 24 23 495 39 194 61 9534
internal_value=0 -6.34813e-05 7.74428e-06 0.000483564 0.0015188 0.00353731 0.00598441 0.00367601 0.00106909 -0.000712193 -0.000237492 0.00158775 0.000203579 -0.000570331 -0.00197452 6.06539e-06 3.03141e-05 8.64965e-05 0.00259255 8.06751e-05 0.00055062 0.00159358 0.00623124 0.011815 0.00198095 0.000922936 0.00070195 0.00206747 0.00491569 5.16911e-05
internal_weight=0 23663 193970 682 280 147 90 69 49 133 402 62 106 340 69 193288 111545 51779 120 51659 3001 934 118 51 67 816 789 294 100 48658
internal_count=217633 23663 193970 682 280 147 90 69 49 133 402 62 106 340 69 193288 111545 51779 120 51659 3001 934 118 51 67 816 789 294 100 48658
shrinkage=0.05


Tree=110
num_leaves=31
num_cat=0
split_feature=4 24 4 3 21 39 3 18 38 40 40 4 43 44 25 43 4 34 43 21 16 4 4 40 40 40 20 34 40 43
split_gain=0.0428905 0.0868092 0.373253 0.659435 0.16161 0.0910705 0.202835 0.0850619 1.02557 0.757973 2.93948 1.03831 1.11108 1.01871 1.38924 0.778064 1.55437 0.723099 0.970296 0.654682 0.81718 0.647344 0.488091 0.486309 0.469549 0.796938 0.683614 0.875399 0.655418 0.7303
threshold=-1.5265699999999998 -1.4574199999999997 -2.6817999999999995 -12.352299999999998 5.2853500000000002 0.00067619600000000011 -19.074649999999995 -1.6062999999999998e-06 0.00022212900000000003 0.327845 -0.22452634999999985 0.019144700000000004 1.8131900000000003 3.0726850000000008 3.5039900000000004 -1.4591200000000002 -0.42458499999999993 2.3658200000000007 4.8349600000000006 -12.332599999999998 5.8204250000000011e-06 -0.88881949999999998 -0.20278049999999997 -0.12496499999999998 0.039429999999999972 0.1751400000000001 7.3475050000000008 0.062021250000000007 -0.040859549999999939 -1.1067849999999997
decision_type=2 2 2 2 2 2 2 2 2 2 2 2 2 2 2 2 2 2 2 2 2 2 2 2 2 2 2 2 2 2
left_child=1 2 -1 -4 -5 -3 -7 8 -2 10 -10 12 13 14 21 16 -16 -14 -19 20 -17 -12 23 -21 28 26 27 -26 29 -23
right_child=7 5 3 4 -6 6 -8 -9 9 -11 11 -13 17 -15 15 19 -18 18 -20 22 -22 24 -24 -25 25 -27 -28 -29 -30 -31
leaf_value=-0.00020904883030852916 -0.00011520842509207433 -2.3880723363873441e-05 0.0085044623855011249 -0.0013430108239071102 0.0040233258818625477 0.0037231458611131532 -0.00026918322719409306 -1.0486617924755651e-05 3.7421898547897193e-05 -9.9166812381924232e-06 -0.0026204490380169936 -0.0018865257798056799 -0.00053299427164605207 -0.00063867920547605768 0.017156159154006412 0.01767845515161753 0.00019564062187617476 0.0081734024196267741 -0.00074469564333710762 0.010808191517436947 0.0038592127992002215 -0.00095261698495406838 -0.0016753487653929642 0.0038438331475148775 -0.00058118729886325407 -0.00035658634017006713 0.011911983963634288 0.0064218089952334471 0.0015510558569864514 0.0062009076590647224
leaf_weight=308 29267 27759 38 47 20 32 5498 136695 6761 7710 68 179 561 237 35 20 22 61 61 27 23 46 37 350 63 78 35 153 1283 159
leaf_count=308 29267 27759 38 47 20 32 5498 136695 6761 7710 68 179 561 237 35 20 22 61 61 27 23 46 37 350 63 78 35 153 1283 159
internal_value=0 -5.18547e-05 0.00066859 0.003243 0.000258881 -6.07929e-05 -0.000246081 9.50142e-06 6.73443e-05 0.000364677 0.000646197 0.00182285 0.0020229 0.00248857 0.00279752 0.0051017 0.01061 0.000225683 0.00371435 0.00441467 0.0102868 0.00216921 0.00380477 0.00434261 0.00234846 0.00405783 0.00542965 0.00437927 0.00197052 0.00459573
internal_weight=0 33702 413 105 67 33289 5530 183931 47236 17969 10259 3498 3319 2636 2399 514 57 683 122 457 43 1885 414 377 1817 329 251 216 1488 205
internal_count=217633 33702 413 105 67 33289 5530 183931 47236 17969 10259 3498 3319 2636 2399 514 57 683 122 457 43 1885 414 377 1817 329 251 216 1488 205
shrinkage=0.05


Tree=111
num_leaves=31
num_cat=0
split_feature=41 21 15 30 41 40 32 41 37 43 23 36 33 19 18 20 0 34 4 33 26 38 15 38 28 9 4 43 0 5
split_gain=0.0414378 1.06984 0.0379575 0.069011 0.0545291 0.550512 0.347919 0.220242 0.204175 0.315655 0.435112 0.175709 0.119316 0.105756 0.057557 0.0516455 0.236819 0.26515 0.346961 0.701466 0.42493 0.34231 0.0844359 0.436404 0.091011 0.0903233 0.110233 0.348333 0.600478 0.302445
threshold=5.6849350000000003 -3.7984549999999992 -2.6163199999999997e-05 0.0030490900000000004 -0.30357199999999979 -0.17527649999999997 -10.048129999999999 -0.15132349999999997 3.6272750000000004e-06 1.6830350000000001 -11.401999999999999 0.026744400000000005 0.00018972300000000001 0.0035512250000000003 -0.0063468599999999984 -14.223749999999997 -8.8447699999999987 3.5771350000000006 -0.088954349999999988 1.5735400000000003e-06 0.0041053400000000007 -0.092780149999999992 -2.7784749999999993e-06 -0.55203199999999986 -0.48753549999999996 -3.6795899999999991e-05 -0.16366899999999998 -0.82558500000000012 -4.9447499999999991 1.4404800000000001e-05
decision_type=2 2 2 2 2 2 2 2 2 2 2 2 2 2 2 2 2 2 2 2 2 2 2 2 2 2 2 2 2 2
left_child=2 -2 3 -1 -5 -6 -7 12 9 10 -9 -10 -8 -12 -13 16 17 18 19 -4 -21 -20 23 -18 -25 -24 27 -27 29 -29
right_child=1 -3 15 4 5 6 7 8 11 -11 13 14 -14 -15 -16 -17 22 -19 21 20 -22 -23 25 24 -26 26 -28 28 -30 -31
leaf_value=-1.9186590212979834e-05 0.0090385538471095712 -1.2978770287636442e-05 -0.0015937946470720426 -4.8355628990798228e-05 -7.200655739043619e-05 0.0034255668214798253 -0.0013842621150217838 -0.011322342992449802 0.0016647552069502349 -0.0015300478710396164 -0.0069802562503711047 -0.0014140274524688723 0.0027764366141387396 -0.0030352892727555278 -0.0048798454631848835 4.0333130379998349e-06 0.007206122335046531 -0.00045521853760196708 0.0068456877282270321 0.014844589249696583 0.0045376683894119202 -3.7034008503066827e-05 -0.001302595705178478 0.0029548087511405662 -0.00037943715472616053 -0.00055293305482581199 -0.00017793171772345151 0.0035213235972398915 0.00068427780207425636 0.011910256982810098
leaf_weight=24255 34 819 21 2391 2271 27 96 27 33 71 23 25 21 65 23 185231 25 102 22 20 20 101 135 24 139 203 1252 22 114 21
leaf_count=24255 34 819 21 2391 2271 27 96 27 33 71 23 25 21 65 23 185231 25 102 22 20 20 101 135 24 139 203 1252 22 114 21
internal_value=0 0.000347809 -1.36858e-06 -5.42634e-05 -0.000221972 -0.000376751 -0.00206063 -0.00244638 -0.00323905 -0.00415149 -0.00576994 -0.00114383 -0.00063747 -0.00406636 -0.00307473 6.90713e-06 0.000246583 0.00158954 0.00272304 0.00580616 0.00969113 0.00119402 4.80892e-05 0.00105493 0.000111495 -6.026e-05 4.37818e-05 0.000814852 0.00258339 0.00761824
internal_weight=0 853 216780 29328 5073 2682 411 384 267 186 115 81 117 88 48 187452 2221 286 184 61 40 123 1935 188 163 1747 1612 360 157 43
internal_count=217633 853 216780 29328 5073 2682 411 384 267 186 115 81 117 88 48 187452 2221 286 184 61 40 123 1935 188 163 1747 1612 360 157 43
shrinkage=0.05


Tree=112
num_leaves=31
num_cat=0
split_feature=41 21 21 16 3 10 5 35 11 36 2 19 7 4 36 3 30 4 38 41 40 44 43 21 20 20 21 40 3 20
split_gain=0.0373976 0.965529 0.0360197 0.178936 0.456185 0.169148 0.291315 0.152175 0.0886911 0.0542544 0.14259 0.0514651 0.0396889 0.0349391 0.0891452 0.22489 0.0810821 0.0794345 1.58314 1.12084 4.14456 1.13004 1.58858 0.888573 1.31002 1.04243 0.865298 0.835659 0.83489 0.792565
threshold=5.6849350000000003 -3.7984549999999992 -19.754149999999996 2.3057600000000002e-06 -6.1953499999999995 3.7335250000000005e-05 1.8661550000000004e-05 1.6674650000000002 4.1028950000000006e-05 0.14537000000000003 -1.5676099999999999 0.0010118250000000003 6.079325000000001e-05 2.2539600000000006 -2.2564299999999995 -12.585899999999999 0.0041875850000000015 0.24725400000000003 -0.012723849999999998 0.35345999999999994 0.354709 3.6866600000000003 -0.66712000000000005 5.7588600000000012 -6.2436999999999996 7.1058900000000014 -7.1421249999999992 0.10022550000000004 -10.105049999999997 -2.8598749999999993
decision_type=2 2 2 2 2 2 2 2 2 2 2 2 2 2 2 2 2 2 2 2 2 2 2 2 2 2 2 2 2 2
left_child=2 -2 3 9 5 6 7 8 11 10 -1 -5 -12 17 15 -15 -16 -4 19 20 21 22 29 24 -24 26 28 -25 -26 -19
right_child=1 -3 13 4 -6 -7 -8 -9 -10 -11 12 -13 -14 14 16 -17 -18 18 -20 -21 -22 -23 23 27 25 -27 -28 -29 -30 -31
leaf_value=0.0042857705940453654 0.0085866261848851159 -1.2329831769691666e-05 -8.3295188734294108e-06 -0.00083731135831233898 0.0071348897241536651 -0.00098926473203771442 0.0067962232267746005 0.0039407684986844504 -0.0028570583957004533 -0.0003409422500492857 -0.00058330358915928589 0.0024725189901326542 0.0018832899535828757 0.00442266307789116 -2.5562195334841794e-05 -0.00024784833346580781 -0.00026749925330098477 0.0037330398666917497 -4.8030267717268255e-05 -8.9667455343613272e-05 -1.3359049813533905e-05 -0.0033339338474323134 0.0081680003854497519 0.0052028559344831768 0.013750148054567122 0.007332325493177725 -0.0010836185788901213 0.013941280523667466 0.00083808063833613791 0.012159963919160268
leaf_weight=24 34 819 158564 24 31 91 24 26 26 523 73 23 21 39 25231 76 4014 38 24941 1124 1138 41 94 105 21 63 232 37 31 105
leaf_count=24 34 819 158564 24 31 91 24 26 26 523 73 23 21 39 25231 76 4014 38 24941 1124 1138 41 94 105 21 63 232 37 31 105
internal_value=0 0.000330419 -1.30015e-06 0.000316851 0.00146619 0.000645024 0.00185413 0.00065605 -0.00051385 -0.000122444 0.000845987 0.000782393 -3.22561e-05 -2.6058e-06 -5.33057e-05 0.00133606 -5.87691e-05 5.37423e-06 8.30618e-05 0.00116248 0.00190128 0.00474205 0.00519813 0.00403978 0.00293211 0.00151375 0.000223007 0.00747977 0.00605257 0.00992064
internal_weight=0 853 216780 886 245 214 123 99 73 641 118 47 94 215894 29360 115 29245 186534 27970 3029 1905 767 726 583 441 347 284 142 52 143
internal_count=217633 853 216780 886 245 214 123 99 73 641 118 47 94 215894 29360 115 29245 186534 27970 3029 1905 767 726 583 441 347 284 142 52 143
shrinkage=0.05


Tree=113
num_leaves=31
num_cat=0
split_feature=4 24 4 3 21 32 39 3 40 40 40 43 3 14 43 38 40 34 25 18 38 40 40 30 4 43 40 40 26 43
split_gain=0.0369267 0.0767989 0.336921 0.59285 0.145542 0.0808555 0.0799903 0.182484 0.0799425 0.786029 0.204337 0.193773 0.336282 0.271239 0.23518 0.20056 0.119826 0.158808 0.0806757 0.0760826 0.921394 0.680566 2.64979 0.961421 1.94034 0.904314 0.845442 0.997228 0.971941 0.743328
threshold=-1.5265699999999998 -1.4574199999999997 -2.6817999999999995 -12.352299999999998 5.2853500000000002 20.036400000000004 0.00067619600000000011 -19.074649999999995 0.38220950000000015 -0.19934349999999995 0.14973499999999998 0.97785500000000003 -12.918299999999999 0.013786650000000003 -0.66712000000000005 0.065375400000000014 0.010257000000000018 0.54644700000000013 12.831100000000001 -1.6062999999999998e-06 0.00022212900000000003 0.327845 -0.25142799999999998 0.0024282350000000004 -0.26743249999999991 5.0027350000000004 -0.10081500000000009 0.10022550000000004 -0.00039100399999999997 1.1890849999999997
decision_type=2 2 2 2 2 2 2 2 2 2 2 2 2 2 2 2 2 2 2 2 2 2 2 2 2 2 2 2 2 2
left_child=1 2 5 -4 -5 -1 -3 -8 9 -9 11 13 -13 14 -11 16 -15 -18 -12 20 -2 22 -22 29 25 26 -25 -28 -29 -24
right_child=19 6 3 4 -6 -7 7 8 -10 10 18 12 -14 15 -16 -17 17 -19 -20 -21 21 -23 23 24 -26 -27 27 28 -30 -31
leaf_value=-0.00049903642754354474 -0.00010951213006849068 -2.1927865910568314e-05 0.0080641912443465309 -0.0012742006454476377 0.0038183818710967898 0.0020224946365487995 0.0035346714939805679 -6.55769172653432e-05 -3.4343942262917702e-05 -0.0045041197564985071 -0.00015908494645555039 -0.0078512805342325007 -0.00093799681752188176 -0.0018485350173432381 -0.011197120343734112 0.001669317526033237 -0.0027408820640465077 -0.0088969717686995867 -0.0023419514779106977 -1.0087509388036782e-05 2.455027773169932e-05 -9.6027361237439044e-06 0.0016642156122133316 0.0098132863570394562 -0.00013893436044102025 -0.0012601802346564957 0.0031740298121371961 3.5468212984226369e-06 0.010753987767752014 -0.00036508913349154749
leaf_weight=272 29267 27759 38 47 20 36 32 2598 2386 35 125 20 146 40 21 21 22 20 64 136695 6685 7710 2033 86 317 59 377 27 95 580
leaf_count=272 29267 27759 38 47 20 36 32 2598 2386 35 125 20 146 40 21 21 22 20 64 136695 6685 7710 2033 86 317 59 377 27 95 580
internal_value=0 -4.81147e-05 0.000629519 0.00307542 0.000245973 -0.000204312 -5.65217e-05 -0.000230173 -0.000252085 -0.00041903 -0.00220555 -0.00296579 -0.00177092 -0.00421326 -0.00701399 -0.00269053 -0.00380708 -0.00567235 -0.000898257 8.81613e-06 6.35209e-05 0.000345348 0.000612107 0.0017111 0.00306335 0.00463964 0.00523466 0.00444556 0.00837479 0.00121378
internal_weight=0 33702 413 105 67 308 33289 5530 5498 3112 514 325 166 159 56 103 82 42 189 183931 47236 17969 10259 3574 961 644 585 499 122 2613
internal_count=217633 33702 413 105 67 308 33289 5530 5498 3112 514 325 166 159 56 103 82 42 189 183931 47236 17969 10259 3574 961 644 585 499 122 2613
shrinkage=0.05


Tree=114
num_leaves=31
num_cat=0
split_feature=41 40 4 24 4 24 29 20 24 6 7 12 18 43 26 8 20 15 21 44 3 26 3 31 37 24 35 43 3 14
split_gain=0.0350509 0.96381 0.413986 1.23514 1.21374 0.768888 0.489375 0.433752 0.381148 0.411726 0.328766 0.28188 0.262453 0.369436 0.231206 0.220945 0.210601 0.18516 0.285502 0.166595 0.385991 0.374053 0.276466 0.162841 0.145697 0.220259 0.58599 0.141568 0.777152 0.626616
threshold=-0.026150000000000003 -0.018010000000000078 -0.26743249999999991 0.30416600000000005 -1.3105149999999999 -0.45225049999999994 -0.097607599999999989 -7.5821849999999991 -0.62980599999999998 -4.7362049999999994e-07 6.577650000000001e-05 5.818835000000001e-05 -4.1247499999999997e-07 1.9002500000000004 0.00063056350000000006 -7.6371749999999986e-06 -0.94259349999999986 5.1874450000000018e-07 1.4596200000000004 -0.93924999999999936 -10.279999999999999 -0.000108507 -5.8575499999999989 -0.26240999999999998 -6.9711149999999983e-08 0.137854 -0.00060325649999999988 0.31279500000000043 -7.1133149999999992 0.00043227150000000003
decision_type=2 2 2 2 2 2 2 2 2 2 2 2 2 2 2 2 2 2 2 2 2 2 2 2 2 2 2 2 2 2
left_child=-1 -2 3 7 -5 6 -4 15 9 -9 14 -11 16 -14 19 -3 -8 24 23 20 21 -7 27 -19 25 26 -12 -21 29 -29
right_child=1 2 5 4 -6 10 12 8 -10 11 17 -13 13 -15 -16 -17 -18 18 -20 22 -22 -23 -24 -25 -26 -27 -28 28 -30 -31
leaf_value=-2.0783342209563591e-05 -1.5548427923525849e-05 -0.0080553594616330458 -0.0093309506308287393 -0.0020206203176605735 -0.017543631133303279 0.0084823699048720298 -0.0017557709997399124 -0.0017395389691228049 7.5200647118125902e-05 0.010718978754163761 -0.0091066278256330402 0.0026026978029403836 -0.0091005734769472237 -0.00061717121905971776 -0.0028790931964115438 -0.0017486013022523655 0.0049204357750048597 -0.004913849368458614 -0.0072029903458314948 0.0010218780401748107 -0.00051540025015327576 0.00047465985225114444 0.0067215279930017205 0.00014995530781762481 0.00095401731785386794 0.001318843836720512 -5.938413729410737e-05 0.0068266495179973149 -0.0056401242317374927 0.0014858452019251847
leaf_weight=104995 106563 21 25 34 20 25 27 20 534 23 25 20 21 33 38 41 21 20 22 3940 366 35 22 77 240 59 63 76 29 198
leaf_count=104995 106563 21 25 34 20 25 27 20 534 23 25 20 21 33 38 41 21 20 22 3940 366 35 22 77 240 59 63 76 29 198
internal_value=0 1.93731e-05 0.00063194 -0.000499961 -0.00776988 0.000782452 -0.00306165 9.57536e-05 0.00050914 0.0041873 0.000875709 0.00694396 -0.00152505 -0.00391627 0.00100532 -0.00388476 0.00116507 -0.000335627 -0.00206047 0.00103679 9.39809e-05 0.00381121 0.00113096 -0.000894128 0.000194752 -0.00104486 -0.00262962 0.00110197 0.00214343 0.00296724
internal_weight=0 112638 6075 713 54 5362 127 659 597 63 5235 43 102 54 4729 62 48 506 119 4691 426 60 4265 97 387 147 88 4243 303 274
internal_count=217633 112638 6075 713 54 5362 127 659 597 63 5235 43 102 54 4729 62 48 506 119 4691 426 60 4265 97 387 147 88 4243 303 274
shrinkage=0.05


Tree=115
num_leaves=31
num_cat=0
split_feature=41 21 21 1 16 33 4 36 31 18 23 9 12 40 40 40 40 21 26 25 16 36 19 41 40 20 30 43 36 23
split_gain=0.0341605 0.871395 0.0324069 0.164217 0.454823 0.0740088 0.281284 0.0703715 0.0441165 0.0856978 0.06017 0.0532067 0.220425 0.0677988 0.164398 0.0365429 0.0310225 1.08316 0.0407136 0.0369127 0.153144 0.361472 0.502943 0.649376 2.12579 0.934292 0.989079 1.17458 0.833469 0.641979
threshold=5.6849350000000003 -3.7984549999999992 -19.754149999999996 -8.8547249999999984 6.5238050000000013e-06 -0.0025000549999999997 1.1247450000000001 0.14537000000000003 -28.391649999999995 -5.2324399999999995e-06 -23.590149999999998 4.7675400000000008e-05 -2.3708499999999995e-05 0.14973499999999998 -0.30278099999999991 0.60008550000000016 5.6762150000000009 4.4724750000000002 -0.0037174099999999996 5.8644050000000005 8.2193200000000006e-07 0.0078514400000000012 0.0012391700000000002 0.37828249999999997 0.30085850000000008 11.827150000000001 0.053348600000000003 1.510785 0.27368000000000009 -11.903199999999998
decision_type=2 2 2 2 2 2 2 2 2 2 2 2 2 2 2 2 2 2 2 2 2 2 2 2 2 2 2 2 2 2
left_child=2 -2 3 4 7 6 -5 -1 9 -7 -10 13 -13 14 -12 -15 19 18 -18 -4 -21 -22 23 24 25 26 27 29 -27 -23
right_child=1 -3 16 5 -6 8 -8 -9 10 -11 11 12 -14 15 -16 -17 17 -19 -20 20 21 22 -24 -25 -26 28 -28 -29 -30 -31
leaf_value=0.0029054071768438339 0.0081592165043248843 -9.8176304276636869e-06 3.6462898203001178e-06 1.5629860419338865e-05 0.0074545857648100266 -0.0037174550145427929 0.0064100340285914992 -0.0002712497407628689 0.0019416804488880898 -0.00024969822784001852 -0.00048077541151932178 0.0055369001376675449 -0.00073031030811723623 0.001826302834062214 -0.0048476266736263195 -0.00010425366336446296 0.0021972829463872286 0.011797038171916938 -3.2322608855334442e-05 -0.00014628585301211159 -0.00028144112169125847 0.014111414015166125 -9.1922791000229325e-05 1.175643857020567e-05 6.8740402058119249e-06 0.0051428192214847644 -0.0035078665122476428 -0.001540746630456012 0.017888217493790486 0.0052214457681133575
leaf_weight=22 34 819 191131 95 29 25 21 84 36 62 126 20 47 27 26 266 21 20 819 16590 3100 22 2203 908 656 29 43 65 23 264
leaf_count=22 34 819 191131 95 29 25 21 84 36 62 126 20 47 27 26 266 21 20 819 16590 3100 22 2203 908 656 29 43 65 23 264
internal_value=0 0.000315795 -1.24261e-06 0.000300532 0.00190605 1.19234e-05 0.00117324 0.000388056 -0.000200222 -0.00124618 -3.41667e-05 -0.000173094 0.0011405 -0.00037087 -0.00122774 7.36474e-05 -2.48105e-06 0.000297223 2.34175e-05 -3.67968e-06 -6.22589e-05 0.000128361 0.000429902 0.00100183 0.00181761 0.00448093 0.00364956 0.00452639 0.0107802 0.00590529
internal_weight=0 853 216780 886 135 751 116 106 635 87 548 512 67 445 152 293 215894 860 840 215034 23903 7313 4213 2010 1102 446 394 351 52 286
internal_count=217633 853 216780 886 135 751 116 106 635 87 548 512 67 445 152 293 215894 860 840 215034 23903 7313 4213 2010 1102 446 394 351 52 286
shrinkage=0.05


Tree=116
num_leaves=31
num_cat=0
split_feature=21 43 12 41 22 15 17 14 17 13 24 18 23 18 4 24 21 18 24 41 40 4 20 43 43 30 44 4 34 4
split_gain=0.0316026 0.136253 0.360233 0.383795 0.611361 0.4185 0.114587 0.315041 0.111633 0.0851936 0.101052 0.306156 0.0660837 0.0410977 0.033249 0.0663535 0.210003 0.0651798 0.76869 0.653798 2.51743 0.948189 0.947082 0.959694 0.785215 0.997685 1.31279 1.79881 1.21143 0.821094
threshold=18.392150000000004 0.51814999999999956 2.7795450000000002e-05 -0.89665319999999982 1.1052950000000001 -3.646169999999999e-08 -1.4690199999999997e-06 0.01464405 8.9176150000000019e-08 0.00025762050000000008 0.73617500000000013 1.3181750000000001e-05 -8.6508349999999989 -3.2607899999999997e-05 -1.4133199999999999 -2.2419299999999995 6.1622250000000012 -1.6062999999999998e-06 -0.14722649999999995 -0.25176499999999996 -0.25142799999999998 0.019144700000000004 14.554100000000002 2.84389 -4.0456399999999988 0.0024282350000000004 1.03867 -0.29052249999999996 1.8663100000000001 -0.63310749999999982
decision_type=2 2 2 2 2 2 2 2 2 2 2 2 2 2 2 2 2 2 2 2 2 2 2 2 2 2 2 2 2 2
left_child=14 6 -3 -4 -5 8 7 -2 -6 10 13 -12 -11 -8 15 16 -1 18 19 -16 -21 22 23 24 -22 29 -27 28 -28 -26
right_child=1 2 3 4 5 -7 9 -9 -10 12 11 -13 -14 -15 17 -17 -18 -19 -20 20 21 -23 -24 -25 25 26 27 -29 -30 -31
leaf_value=7.6487020722792163e-05 0.0068057342625979806 -0.00035719150221590707 -0.00030574674565855278 0.012471876397612505 -0.0029713280297900468 0.006790306479110263 -0.0025403396436519433 -0.00050483865543355939 0.0019121921171899885 0.0034011138036294146 -0.00051238211887215987 -0.0079473071912070734 -0.00036196877851710143 -0.00030122187661877047 -2.1272045411666312e-05 -5.0461431191392172e-05 0.0051005007944153339 -1.004724295761302e-05 -9.0931295634070393e-05 2.1587923820179184e-05 -0.0011904889305732434 -0.0021762223332896409 0.010672838886779163 -0.00030153098254619392 -0.0026933201674945589 0.0030832641669136002 0.016035340816685648 -0.0008165474252617808 0.0019884047727100553 0.0021390072017136936
leaf_weight=104 20 216 64 20 22 36 23 56 25 20 45 20 28 188 7132 34325 26 136182 30043 5975 154 144 31 427 93 489 66 34 20 1605
leaf_count=104 20 216 64 20 22 36 23 56 25 20 45 20 28 188 7132 34325 26 136182 30043 5975 154 144 31 427 93 489 66 34 20 1605
internal_value=0 0.000317079 0.000991131 0.00273507 0.00462451 0.00273357 -0.000328325 0.001419 -0.000373711 -0.00073819 -0.00107631 -0.00280005 0.00120598 -0.000545296 -1.14491e-06 -4.61913e-05 0.00108129 7.3645e-06 5.8674e-05 0.000336633 0.00061906 0.00178455 0.00197994 0.00188663 0.00226629 0.00249704 0.00423326 0.00891948 0.0127686 0.00187434
internal_weight=0 783 383 167 103 83 400 76 47 324 276 65 48 211 216850 34455 130 182395 46213 16170 9038 3063 2919 2888 2461 2307 609 120 86 1698
internal_count=217633 783 383 167 103 83 400 76 47 324 276 65 48 211 216850 34455 130 182395 46213 16170 9038 3063 2919 2888 2461 2307 609 120 86 1698
shrinkage=0.05


Tree=117
num_leaves=31
num_cat=0
split_feature=4 4 24 40 41 43 41 18 39 34 41 43 43 10 34 41 33 40 25 21 6 21 37 4 21 43 5 36 11 4
split_gain=0.0311448 0.0603095 1.52602 0.929658 4.16549 1.1702 1.30906 2.10586 1.06264 1.02844 0.598445 1.36649 0.88846 0.665102 0.862224 1.29953 1.21154 0.591958 0.561922 0.55048 0.541319 0.507945 0.534471 0.486413 0.461982 0.435649 0.778308 0.695539 0.435208 0.418843
threshold=3.0771300000000004 0.19669200000000001 0.24655200000000002 0.40779500000000007 0.19792950000000006 2.84389 0.078754999999999922 2.4151150000000003e-05 0.0005469880000000001 14.135600000000002 -0.057539999999999918 -2.8634500000000003 -0.77143500000000065 1.3379750000000002e-05 0.83312700000000006 -0.15132349999999997 -3.4237299999999992e-05 0.12375499999999996 8.4120350000000013 3.3144750000000003 6.6168600000000009e-07 1.0000000180025095e-35 -4.0691899999999991e-07 0.57834950000000018 -6.3049749999999998 1.06199 1.6117600000000003e-05 0.14537000000000003 -1.285335e-05 0.92648250000000021
decision_type=2 2 2 2 2 2 2 2 2 2 2 2 2 2 2 2 2 2 2 2 2 2 2 2 2 2 2 2 2 2
left_child=1 -1 -3 4 5 6 10 20 -9 -7 11 -4 19 -13 15 18 -17 -16 -15 -12 -8 24 -23 -18 -10 27 28 29 -27 -14
right_child=-2 2 3 -5 -6 9 7 8 21 -11 12 13 25 14 17 16 23 -19 -20 -21 -22 22 -24 -25 -26 26 -28 -29 -30 -31
leaf_value=-7.1859012484172844e-06 -5.3100179839037037e-05 -9.7944718223753877e-05 -0.0015922943156115449 -9.0846120722292935e-06 8.9296038680150005e-05 -0.00050151386645483635 0.012215634180271689 -0.0015911398463261625 0.0060214581814679235 0.011250612805597485 0.0086044669310285839 -0.00091492435219455131 0.0013115431148086152 -0.0017089369274692541 0.0059217822959735282 0.00037273316170442208 0.015464160358533263 0.013585067540776756 0.0078251680990797465 -0.00066982484364416458 0.023353510634042327 0.0090432394072413446 -0.0016423752656423444 0.0061240775755140933 0.015866221630802521 0.014962416425114498 -0.0010356115289674752 -0.0071091443653131144 0.0049756709175805252 0.0085116557156046223
leaf_weight=154710 24505 30485 69 3024 3302 269 24 45 22 20 80 30 529 68 42 29 46 63 20 20 20 25 22 20 26 20 29 24 24 21
leaf_count=154710 24505 30485 69 3024 3302 269 24 45 22 20 80 30 529 68 42 29 46 63 20 20 20 25 22 20 26 20 29 24 24 21
internal_value=0 6.7376e-06 6.28078e-05 0.000680549 0.00110537 0.00319316 0.00382497 0.00773688 0.00473815 0.000311782 0.00319023 0.00478604 0.00236349 0.00617001 0.00690803 0.00483573 0.00889097 0.0105198 0.000457905 0.00674961 0.0172783 0.00773624 0.00404146 0.0126338 0.011354 0.00168557 0.00532372 0.00122288 0.0095151 0.00158646
internal_weight=0 193128 38418 7933 4909 1607 1318 184 140 289 1134 387 747 318 288 183 95 105 88 100 44 95 47 66 48 647 73 574 44 550
internal_count=217633 193128 38418 7933 4909 1607 1318 184 140 289 1134 387 747 318 288 183 95 105 88 100 44 95 47 66 48 647 73 574 44 550
shrinkage=0.05


Tree=118
num_leaves=31
num_cat=0
split_feature=41 21 3 36 16 16 40 40 3 3 26 2 43 44 14 41 40 38 18 43 14 25 18 26 18 21 3 43 15 14
split_gain=0.0313019 0.786248 0.0288495 0.146442 0.453914 0.476701 0.484749 1.03156 0.374625 0.230835 0.107112 0.105409 0.150568 0.090619 0.170133 0.210294 1.04393 1.14683 1.91007 1.11434 0.982592 0.752848 0.637986 0.665054 0.754964 0.895796 0.618466 0.593934 0.689614 0.591212
threshold=5.6849350000000003 -3.7984549999999992 -11.042399999999999 -0.43959349999999991 -1.3281999999999998e-05 -7.5351749999999975e-05 0.8902650000000002 -0.49100999999999978 -14.176449999999997 -17.495099999999997 -0.028182349999999998 -2.6524249999999996 -0.82558500000000012 2.9908550000000012 0.018015550000000002 0.29985500000000015 0.1751400000000001 -0.0154986 -1.4018299999999999e-05 -1.8432249999999992 0.0067067750000000008 19.280350000000002 6.4264150000000017e-05 0.00049099350000000007 -9.6173349999999976e-06 -3.4381649999999992 -11.515449999999998 1.0196000000000003 -2.8691299999999994e-07 0.0028640250000000005
decision_type=2 2 2 2 2 2 2 2 2 2 2 2 2 2 2 2 2 2 2 2 2 2 2 2 2 2 2 2 2 2
left_child=2 -2 3 4 5 9 7 -7 -9 -1 -6 12 -12 14 15 16 17 18 20 -20 -5 22 23 -19 25 -25 27 -21 -29 -30
right_child=1 -3 -4 13 10 6 -8 8 -10 -11 11 -13 -14 -15 -16 -17 -18 21 19 26 -22 -23 -24 24 -26 -27 -28 28 29 -31
leaf_value=0.0055257932204933078 0.0077526629354585626 -7.0017270179846913e-06 -1.2592689982594808e-05 8.7424107558500187e-05 0.00279912173448998 -0.00068079090706305587 -0.00039365049042316969 0.0061328870297240263 0.014722985769622027 7.7226791321783594e-05 -0.00045791002772602955 -0.00037724861794495449 0.0053625633109913905 -3.3182994005666949e-05 -0.00010816748740737368 -4.2849482141603168e-05 -2.2257638106036076e-05 0.00083607291073725914 0.014989179998104061 0.0019692915577773648 -0.013144712579451151 -0.0087047770575043714 -0.0015118166056414767 0.014413393011316659 -0.0028812036888363462 0.0038100203955355955 0.012714545726997867 0.014145657330751418 -0.00045528471092482858 0.0098791034668684018
leaf_weight=22 34 819 155863 47 31 29 32 22 30 167 25 620 20 35405 7414 6589 7176 2535 28 157 20 21 272 25 30 98 21 25 31 25
leaf_count=22 34 819 155863 47 31 29 32 22 30 167 25 620 20 35405 7414 6589 7176 2535 28 157 20 21 272 25 30 98 21 25 31 25
internal_value=0 0.000302293 -1.18948e-06 2.79869e-05 0.000628677 0.00224748 0.00481658 0.00687494 0.0110887 0.000711451 -7.37325e-05 -0.000207655 0.00212897 1.79819e-05 9.18782e-05 0.000178611 0.000317438 0.00104837 0.00373899 0.00551354 -0.00386247 0.000728853 0.000795781 0.00102929 0.00423059 0.00596518 0.00448915 0.00376338 0.0072408 0.00415828
internal_weight=0 853 216780 60917 998 302 113 81 52 189 696 665 45 59919 24514 17100 10511 3335 354 287 67 2981 2960 2688 153 123 259 238 81 56
internal_count=217633 853 216780 60917 998 302 113 81 52 189 696 665 45 59919 24514 17100 10511 3335 354 287 67 2981 2960 2688 153 123 259 238 81 56
shrinkage=0.05


Tree=119
num_leaves=31
num_cat=0
split_feature=3 44 38 4 44 16 20 26 40 40 4 24 4 21 3 39 41 41 20 44 23 38 40 4 44 19 25 3 18 38
split_gain=0.0285284 0.268426 0.163293 0.487734 0.0812548 0.158773 0.069504 0.0343496 0.0315282 0.046328 0.0314232 0.0763221 0.304755 0.488465 0.426622 0.0865511 0.0825384 0.920047 0.209891 0.151903 0.221149 0.203014 0.350203 0.199985 0.0782796 0.0920538 0.0733493 0.0589426 0.0562375 0.703961
threshold=-18.627349999999996 -1.2755000000000003 0.08967940000000002 -0.96247749999999999 1.381785 -1.8737049999999999e-06 1.0000000180025095e-35 0.0085896400000000008 -0.10081500000000009 0.12375499999999996 -1.4133199999999999 -1.4574199999999997 -2.6817999999999995 6.1622250000000012 -11.586999999999998 0.00044455850000000007 0.22260499999999997 -0.27889399999999981 -12.188449999999998 -3.5163049999999991 -15.368899999999998 0.075559000000000015 -0.040859549999999939 -1.8861499999999998 -0.39412499999999978 0.0024905200000000004 115.80600000000001 -11.746199999999998 -1.6062999999999998e-06 0.00022212900000000003
decision_type=2 2 2 2 2 2 2 2 2 2 2 2 2 2 2 2 2 2 2 2 2 2 2 2 2 2 2 2 2 2
left_child=1 -1 4 -4 5 -3 -5 -6 -7 -10 11 12 26 14 -14 -13 17 -17 -19 27 -21 23 -23 24 -22 -26 -2 -20 29 -12
right_child=10 2 3 6 7 8 -8 -9 9 -11 28 15 13 -15 -16 16 -18 18 19 20 21 22 -24 -25 25 -27 -28 -29 -30 -31
leaf_value=0.0049720942551583248 -0.00044748672561916586 0.0051109386220063741 0.0084577743175981122 0.0014768072220176691 -5.3395483616231506e-05 -0.0012581760832373139 -0.0022902073091245257 -0.002139363436435815 0.0020883568293170239 -0.00039900364730177293 -9.899551841826323e-05 -1.5087802418947837e-05 0.0059582213742722726 0.008867443430398662 -0.0015132874897062722 -3.5009439182673474e-05 -2.6332597484588817e-05 -0.0070737114382526754 -0.0034984379948582501 -0.0074581201977865861 -0.00098274440543946197 -0.0047182612982578573 0.003715890555031365 -0.0069429790270597938 -0.0052388526291611628 -0.0023996760686859492 0.0021973034259582195 -0.00062331480660387996 -9.5304437836015064e-06 0.00030410322236006023
leaf_weight=29 273 22 23 25 1492 22 24 20 39 36 28450 27282 29 26 56 2904 2974 22 20 23 64 20 32 28 37 125 29 164 135854 17489
leaf_count=29 273 22 23 25 1492 22 24 20 39 36 28450 27282 29 26 56 2904 2974 22 20 23 64 20 32 28 37 125 29 164 135854 17489
internal_value=0 0.000202115 0.000120889 0.00245117 1.80191e-05 0.00127599 -0.000368261 -8.09877e-05 0.000406205 0.000894424 -1.62141e-06 -4.56595e-05 0.000629917 0.00287025 0.00103582 -5.394e-05 -0.000219224 -0.000386034 -0.00229141 -0.00208632 -0.00272976 -0.00237436 0.000471986 -0.00295707 -0.00246324 -0.00304813 -0.000193517 -0.000935828 6.64101e-06 5.44644e-05
internal_weight=0 1732 1703 72 1631 119 49 1512 97 75 215901 34108 413 111 85 33695 6413 3439 535 513 329 306 52 254 226 162 302 184 181793 45939
internal_count=217633 1732 1703 72 1631 119 49 1512 97 75 215901 34108 413 111 85 33695 6413 3439 535 513 329 306 52 254 226 162 302 184 181793 45939
shrinkage=0.05


Tree=120
num_leaves=31
num_cat=0
split_feature=41 40 4 24 4 26 38 20 24 6 9 9 19 28 44 12 44 26 36 20 36 0 26 3 41 21 41 12 44 13
split_gain=0.0284552 0.775912 0.406548 1.0657 1.1035 0.70428 0.399077 0.385898 0.305962 0.349647 0.29789 0.416361 0.274375 0.257882 0.236751 0.231527 0.214902 0.618344 0.208161 0.202844 0.169523 0.164038 0.183368 0.161286 0.150982 0.281578 0.504278 0.870073 0.722335 0.64634
threshold=-0.026150000000000003 -0.018010000000000078 -0.26743249999999991 0.30416600000000005 -1.3105149999999999 0.00033276500000000006 0.033251350000000006 -7.5821849999999991 -0.62980599999999998 -4.7362049999999994e-07 3.3645000000000007e-05 4.3278050000000005e-05 3.0639350000000006e-08 -0.083375999999999992 -0.93924999999999936 5.818835000000001e-05 1.0949350000000011 0.00057196550000000008 -0.022925199999999996 -1.6961599999999997 0.053416050000000007 -9.7972349999999988 0.0014686500000000002 -5.8575499999999989 -0.2272394999999999 10.697700000000001 -0.12554300000000002 6.9237300000000022e-05 -0.31477499999999997 8.4862800000000007e-06
decision_type=2 2 2 2 2 2 2 2 2 2 2 2 2 2 2 2 2 2 2 2 2 2 2 2 2 2 2 2 2 2
left_child=24 -2 3 7 -5 6 13 16 9 -9 12 -12 -7 19 20 -11 17 -3 -16 -4 -15 -14 -23 -20 -1 -26 -27 28 -28 -30
right_child=1 2 5 4 -6 10 -8 8 -10 15 11 -13 21 14 18 -17 -18 -19 23 -21 -22 22 -24 -25 25 26 27 -29 29 -31
leaf_value=-1.8066673878624805e-06 -1.3877717544320142e-05 -0.012154520363983465 0.00039284677921040429 -0.0018255300330244665 -0.016626815653871748 -0.0065795089094899594 -0.0057497773622191307 -0.0017776530628179901 -1.367900066749114e-07 0.0096457515620505044 -0.010821623923204078 -0.0012002688157815061 0.0038826284010428942 -0.00033647678850670638 -0.0029081368120387197 0.0022900158405536786 0.00035737977762307439 0.00012983639026060702 0.00094186459587971823 0.0066428995062083503 0.0042436850589833092 0.00049480613929821031 -0.0042410233260823356 0.0052334309089928869 -0.00015756094408658842 0.00048746343550676026 -0.0020554065715663859 -0.00059247061979553 -0.015456069761615558 -0.0040189861896492186
leaf_weight=97251 106563 20 21 34 20 20 23 20 534 23 22 23 20 532 35 20 21 21 4498 34 21 60 31 22 7308 188 45 152 30 21
leaf_count=97251 106563 20 21 34 20 20 23 20 534 23 22 23 20 532 35 20 21 21 4498 34 21 60 31 22 7308 188 45 152 30 21
internal_value=0 1.74554e-05 0.000567077 -0.00055461 -0.00730749 0.000716231 0.000821796 -1.26308e-06 0.000388654 0.00368412 -0.00239433 -0.00590404 -0.00118871 0.000851071 0.000814403 0.00622448 -0.00375579 -0.00586253 0.000933009 0.00425652 -0.000162547 -0.000217394 -0.0011185 0.000962753 -1.87261e-05 -0.000231204 -0.00146557 -0.00294609 -0.00667265 -0.0107467
internal_weight=0 112638 6075 713 54 5362 5186 659 597 63 176 45 131 5163 5108 43 62 41 4555 55 553 111 91 4520 104995 7744 436 248 96 51
internal_count=217633 112638 6075 713 54 5362 5186 659 597 63 176 45 131 5163 5108 43 62 41 4555 55 553 111 91 4520 104995 7744 436 248 96 51
shrinkage=0.05


Tree=121
num_leaves=31
num_cat=0
split_feature=41 21 21 16 16 12 3 36 16 24 16 10 25 16 36 19 41 40 20 43 23 32 14 3 26 43 40 43 40 37
split_gain=0.0283025 0.706903 0.02857 0.146322 0.339509 0.675092 0.154081 0.0724564 0.180932 0.0479934 0.0663455 0.0647339 0.0358942 0.120768 0.304544 0.416794 0.529607 1.49125 0.645242 1.06123 0.609491 0.879593 0.490001 0.385878 0.343408 0.408492 0.390589 0.455857 0.562823 0.501973
threshold=5.6849350000000003 -3.7984549999999992 -19.754149999999996 6.5238050000000013e-06 2.1581450000000003e-05 -6.6568449999999981e-05 -13.897099999999998 0.14537000000000003 1.0372650000000001e-07 1.3511250000000004 2.3057600000000002e-06 3.6038200000000003e-05 5.8644050000000005 8.2193200000000006e-07 0.0078514400000000012 0.0012391700000000002 0.70899650000000014 0.30085850000000008 16.002400000000005 1.510785 -12.100849999999999 5.9680600000000004 0.00015957750000000003 -8.2474849999999993 -0.0090542049999999975 -2.7066499999999998 0.10022550000000004 -0.66712000000000005 -0.12496499999999998 6.710375000000001e-07
decision_type=2 2 2 2 2 2 2 2 2 2 2 2 2 2 2 2 2 2 2 2 2 2 2 2 2 2 2 2 2 2
left_child=2 -2 3 7 5 -5 -6 8 -1 10 -9 -11 -4 -14 -15 16 17 18 19 20 -16 22 -22 -21 -24 -26 27 29 -29 -27
right_child=1 -3 12 4 6 -7 -8 9 -10 11 -12 -13 13 14 15 -17 -18 -19 -20 23 21 -23 24 -25 25 26 -28 28 -30 -31
leaf_value=-0.00016905629625536836 0.0073518864207846278 -5.8281764118114411e-06 4.9176704704727708e-06 0.010264866035348472 0.0035231305709333229 -0.00071476109088897447 -0.00060598615600105819 -0.00031444103249603353 0.0040120125311053322 -0.00048453643458196897 -0.0028178611412710912 0.0032810722514980059 -0.00013424867247932681 -0.00026629712623580916 0.011759238955206596 -8.8777242585488325e-05 -6.3028747978222173e-05 9.9353100418195148e-07 0.010570245294741565 0.003719524756111084 0.011859678274430779 -0.0058550197271291515 0.0081255050267764316 -0.0030127856033504942 -0.0012826072892266893 0.012123007031914313 0.008695112757731039 0.0078097400091549701 9.1052077383407077e-05 0.0022978688209640006
leaf_weight=92 34 819 191885 28 28 28 117 483 36 25 28 21 16682 3108 26 2206 829 659 31 29 21 22 43 80 41 26 39 30 111 26
leaf_count=92 34 819 191885 28 28 28 117 483 36 25 28 21 16682 3108 26 2206 829 659 31 29 21 22 43 80 41 26 39 30 111 26
internal_value=0 0.000287445 -1.13106e-06 0.000282216 0.00146841 0.00477505 0.000191361 -6.58493e-05 0.00100687 -0.000312363 -0.000451615 0.00123455 -2.29388e-06 -5.99301e-05 0.000109277 0.000385951 0.000906194 0.00158481 0.00357289 0.00313378 0.00436687 0.00383149 0.00446384 -0.00122162 0.00397234 0.00331818 0.00413125 0.00320902 0.00173333 0.00721044
internal_weight=0 853 216780 886 201 56 145 685 128 557 511 46 215894 24009 7327 4219 2013 1184 525 494 385 359 337 109 316 273 232 193 141 52
internal_count=217633 853 216780 886 201 56 145 685 128 557 511 46 215894 24009 7327 4219 2013 1184 525 494 385 359 337 109 316 273 232 193 141 52
shrinkage=0.05


Tree=122
num_leaves=31
num_cat=0
split_feature=21 3 9 20 40 40 4 4 40 9 3 10 24 43 3 36 16 16 40 40 21 25 9 19 40 40 40 40 3 43
split_gain=0.0285717 0.168883 0.131013 0.0663114 0.0684301 0.472139 0.0613431 0.155805 0.301721 0.0751482 0.0551221 0.141741 0.0614756 0.155659 0.028234 0.133669 0.462982 0.507496 0.469906 0.983726 0.357214 0.140149 0.101051 0.128985 0.115349 0.373455 0.0921553 0.54605 0.310304 0.0750368
threshold=18.392150000000004 -4.8298799999999993 6.4682750000000014e-05 7.745845000000001 0.1751400000000001 -0.17527649999999997 -0.38361349999999994 -2.2787549999999999 -1.0422104999999997 4.7675400000000008e-05 -5.5710999999999995 3.5005850000000006e-05 1.3511250000000004 2.4693750000000008 -11.042399999999999 -0.43959349999999991 -1.3281999999999998e-05 -7.5351749999999975e-05 0.8902650000000002 -0.49100999999999978 -0.091024949999999979 53.742400000000011 5.2649200000000011e-05 9.5798550000000015e-06 -0.19934349999999995 0.43531000000000003 0.38220950000000015 -0.25142799999999998 -14.267049999999999 -2.8634500000000003
decision_type=2 2 2 2 2 2 2 2 2 2 2 2 2 2 2 2 2 2 2 2 2 2 2 2 2 2 2 2 2 2
left_child=14 2 3 6 5 -5 7 -2 -9 10 12 -12 -8 -14 15 16 17 21 19 -19 -21 -1 23 24 -18 -26 27 -25 -29 -17
right_child=1 -3 -4 4 -6 -7 9 8 -10 -11 11 -13 13 -15 -16 29 22 18 -20 20 -22 -23 -24 26 25 -27 -28 28 -30 -31
leaf_value=-1.4535748540213587e-05 -0.00057356466978967927 0.004344891065731645 0.0035884813220171188 0.00011520641502804348 0.00052691139667331304 -0.0083197304457869568 -0.00030929384922335796 -0.00066631960721376046 0.006213274330366403 -0.0029002699132044136 0.0046259308646372319 -0.00059119445984833884 0.0050130454340251169 -0.00054598740233118676 -1.2364419800753647e-05 -2.7094733304915822e-05 -3.9511638241209335e-05 -0.00074714224333897279 -0.00033964660933947773 0.0073428926799722297 0.015822460291826209 0.0037009663119416444 0.0026291385688864467 -0.00014689919938120055 0.008031252548763794 -0.00016817800972536889 9.2320119645149349e-05 -0.0017615758166041062 -0.0096647712511993538 8.7022090043116214e-05
leaf_weight=140 59 25 27 79 56 21 324 30 34 21 23 30 20 34 155939 35962 122 26 29 27 23 31 32 187 21 41 189 23 27 24031
leaf_count=140 59 25 27 79 56 21 324 30 34 21 23 30 20 34 155939 35962 122 26 29 27 23 31 32 187 21 41 189 23 27 24031
internal_value=0 0.000301491 0.000168134 4.18009e-05 -0.000872474 -0.00165613 0.000289848 0.00127985 0.00298846 2.04448e-05 0.000162753 0.00167284 -4.89785e-05 0.00151291 -1.08862e-06 2.77787e-05 0.000626558 0.00233911 0.00507523 0.00714143 0.0112435 0.000659035 -0.000109679 -0.000253354 0.000852938 0.00260905 -0.000731189 -0.00138791 -0.0060293 1.86163e-05
internal_weight=0 783 758 731 156 100 575 123 64 452 431 53 378 54 216850 60911 918 276 105 76 50 171 642 610 184 62 426 237 50 59993
internal_count=217633 783 758 731 156 100 575 123 64 452 431 53 378 54 216850 60911 918 276 105 76 50 171 642 610 184 62 426 237 50 59993
shrinkage=0.05


Tree=123
num_leaves=31
num_cat=0
split_feature=40 21 26 41 40 4 24 4 26 38 20 9 9 24 23 18 19 28 44 37 43 26 7 7 20 3 21 34 43 3
split_gain=0.0268083 0.973268 0.0373047 0.02896 0.697026 0.370503 0.956703 0.997891 0.634135 0.407026 0.348967 0.337956 0.405043 0.268425 0.324371 0.306312 0.254922 0.234807 0.214717 0.213801 0.195155 0.561895 0.194715 0.202989 0.181557 0.159046 0.303797 0.158283 0.199419 0.144346
threshold=5.6762150000000009 4.4724750000000002 -0.0037174099999999996 -0.026150000000000003 -0.018010000000000078 -0.26743249999999991 0.30416600000000005 -1.3105149999999999 0.00036277200000000008 0.039173400000000004 -7.5821849999999991 3.3645000000000007e-05 4.6760200000000007e-05 -0.62980599999999998 -9.8258599999999969 -0.00068733899999999981 3.0639350000000006e-08 -0.083375999999999992 -0.93924999999999936 -1.72674e-06 -1.0505799999999998 0.00057196550000000008 6.6433600000000021e-05 6.7142100000000009e-05 -1.6961599999999997 -10.603549999999998 2.1804450000000002 0.30734050000000007 1.5956900000000005 -5.8575499999999989
decision_type=2 2 2 2 2 2 2 2 2 2 2 2 2 2 2 2 2 2 2 2 2 2 2 2 2 2 2 2 2 2
left_child=3 2 -2 -1 -5 6 10 -8 9 17 20 16 -13 14 15 -12 -10 24 25 -20 -6 -22 29 -24 -7 26 -19 -18 -29 -21
right_child=1 -3 -4 4 5 8 7 -9 11 -11 13 12 -14 -15 -16 -17 27 18 19 22 21 -23 23 -25 -26 -27 -28 28 -30 -31
leaf_value=-2.0119223159854177e-05 0.002101482772212919 0.011179384449496866 -3.2450628491883417e-05 -1.3237088822582809e-05 0.00034015902811439621 0.00039940501086502565 -0.0017186114722041086 -0.015793789586750789 -0.0062687919661402712 -0.0061699488654821406 -0.0035239545583317525 -0.011397837955737487 -0.0013349929489777424 -2.4991537257721051e-06 0.0087090202677063654 0.0049367720494046807 0.0015774373360181928 -0.00033548595039875991 -0.0040335418614135549 0.00097855103395368039 -0.011585012220311912 0.00012520247504913383 -0.0051428762287832799 5.3787156157867485e-05 0.0063124134581919542 -0.00043883291763109356 0.0073131342357373799 -0.005759450613351709 0.00083100366437065536 0.0051343053534981756
leaf_weight=104126 21 20 828 106563 21 21 34 20 20 21 20 20 20 534 20 23 60 37 22 4187 20 21 20 311 34 502 20 22 24 21
leaf_count=104126 21 20 828 106563 21 21 34 20 20 21 20 20 20 534 20 23 60 37 22 4187 20 21 20 311 34 502 20 22 24 21
internal_value=0 0.000277157 2.03322e-05 -1.11111e-06 1.64606e-05 0.000537394 -0.000533413 -0.00693164 0.000679782 0.000776971 -9.12766e-06 -0.00236235 -0.00636642 0.000361663 0.00344837 0.00100155 -0.00109122 0.000805162 0.000770254 0.00088361 -0.00357948 -0.0055871 0.000907443 -0.000260211 0.00405472 -0.000154641 0.00234824 -0.000114317 -0.00232095 0.00099929
internal_weight=0 869 849 216764 112638 6075 713 54 5362 5196 659 166 40 597 63 43 126 5175 5120 4561 62 41 4539 331 55 559 57 106 46 4208
internal_count=217633 869 849 216764 112638 6075 713 54 5362 5196 659 166 40 597 63 43 126 5175 5120 4561 62 41 4539 331 55 559 57 106 46 4208
shrinkage=0.05


Tree=124
num_leaves=31
num_cat=0
split_feature=21 3 9 39 13 10 4 43 40 40 19 12 0 3 25 16 36 19 41 40 14 4 43 43 4 20 23 3 11 21
split_gain=0.0262692 0.152272 0.118098 0.0618662 0.146547 0.221468 0.22084 0.0748762 0.123734 0.473622 0.0702498 0.218629 0.0671984 0.027713 0.027693 0.151306 0.297583 0.376067 0.48502 1.73919 0.597949 0.886636 0.693047 0.93011 0.642719 0.56632 0.68941 0.57085 0.319149 0.309472
threshold=18.392150000000004 -4.8298799999999993 6.4682750000000014e-05 0.17438400000000001 2.6137250000000005e-05 1.9891650000000005e-05 -1.3105149999999999 0.51814999999999956 -0.30278099999999991 0.14973499999999998 8.2724850000000008e-05 4.6248000000000002e-05 -5.3044499999999992 -8.1804699999999979 5.8644050000000005 9.6924450000000025e-07 -0.018049799999999994 0.0012391700000000002 0.40643499999999982 0.30085850000000008 0.01464405 -1.3105149999999999 -2.7066499999999998 -1.4591200000000002 1.3297700000000001 14.554100000000002 -6.3564549999999995 -6.6573699999999993 1.8394200000000004e-05 -12.050999999999998
decision_type=2 2 2 2 2 2 2 2 2 2 2 2 2 2 2 2 2 2 2 2 2 2 2 2 2 2 2 2 2 2
left_child=14 2 3 7 -5 -6 -7 8 13 -10 11 12 -9 -2 -1 -16 -17 18 19 20 21 -18 -23 -24 25 26 27 29 -28 -25
right_child=1 -3 -4 4 5 6 -8 10 9 -11 -12 -13 -14 -15 15 16 17 -19 -20 -21 -22 22 23 24 -26 -27 28 -29 -30 -31
leaf_value=5.2907740036423458e-06 -0.0002042792503422485 0.0041284872815012938 0.0034098465474218958 -0.00034734054514848253 0.0065750693042487419 0.0053309986173796162 -0.00062652705493140576 0.0020686375409786706 -0.0078756883194997778 -0.0002520698597283013 -0.00044481991450407029 0.0060719677293673158 -0.00094794668486125979 0.0017771378224642831 -0.00013304049734051815 -0.00027033340862641953 -0.0038671561926634786 -3.9205997517284026e-05 3.6510449190763017e-05 -1.1160010389942394e-05 0.011986949448262087 -0.0036751908688949283 0.013532882250313247 0.0090257845999252417 -0.0026919605199509536 0.012298981440456018 0.013001859659561889 -0.0010201723382124328 0.0051443724213944136 0.0035284624995404802
leaf_weight=192638 150 25 27 143 22 21 60 30 27 83 107 20 48 20 16977 2743 37 2386 945 699 22 26 28 31 32 23 28 64 24 147
leaf_count=192638 150 25 27 143 22 21 60 30 27 83 107 20 48 20 16977 2743 37 2386 945 699 22 26 28 31 32 23 28 64 24 147
internal_value=0 0.000289088 0.000162459 4.25143e-05 0.000688379 0.00212632 0.000918017 -0.000285079 -0.000816659 -0.00212332 0.000440982 0.00140813 0.000212278 2.88286e-05 -1.04384e-06 -5.14439e-05 0.000140023 0.000390604 0.000877559 0.00156213 0.0039425 0.00354028 0.00422037 0.00476489 0.00406144 0.00474317 0.00415207 0.00302972 0.00937533 0.00448586
internal_weight=0 783 758 731 246 103 81 485 280 110 205 98 78 170 216850 24212 7235 4492 2106 1161 462 440 403 377 349 317 294 242 52 178
internal_count=217633 783 758 731 246 103 81 485 280 110 205 98 78 170 216850 24212 7235 4492 2106 1161 462 440 403 377 349 317 294 242 52 178
shrinkage=0.05


Tree=125
num_leaves=31
num_cat=0
split_feature=29 11 4 4 14 0 41 40 21 23 23 41 28 12 28 21 1 30 9 21 3 43 21 25 16 36 16 41 41 1
split_gain=0.0263584 0.183614 0.209291 0.35225 0.658999 0.319114 0.482215 0.856646 1.07184 0.338839 0.266383 0.226448 0.343836 0.340701 0.116439 0.115515 0.0923875 0.088187 0.0527141 0.0973043 0.0639721 0.111544 0.0439337 0.0423677 0.110356 0.267753 0.20256 0.350988 1.28378 0.613033
threshold=-0.58729449999999994 4.8912350000000013e-05 -2.6817999999999995 3.3436750000000006 0.037495750000000008 5.5506700000000011 -0.43858299999999995 0.20129000000000011 -13.388899999999998 -7.4815899999999989 -19.809749999999998 0.29985500000000015 -0.32150099999999993 -7.008014999999999e-05 -0.036151699999999995 -1.1455399999999998 -14.712749999999998 0.064526950000000013 5.4931400000000007e-05 13.390900000000002 -4.8298799999999993 3.4885250000000001 -4.784279999999999 5.8644050000000005 3.5712200000000007e-07 -0.018049799999999994 4.0423150000000006e-05 0.37828249999999997 -0.25176499999999996 10.154350000000003
decision_type=2 2 2 2 2 2 2 2 2 2 2 2 2 2 2 2 2 2 2 2 2 2 2 2 2 2 2 2 2 2
left_child=1 16 -3 4 5 10 -7 8 -8 14 -4 13 -13 -12 -10 -16 -1 22 20 -20 -18 -22 -15 -2 -25 -26 27 28 -27 -30
right_child=23 2 3 -5 -6 6 7 -9 9 -11 11 12 -14 17 15 -17 18 -19 19 -21 21 -23 -24 24 25 26 -28 -29 29 -31
leaf_value=0.0033186991856632635 5.200640827231792e-06 -0.0006281975522894641 0.0050193933933624065 -0.00063227589135239723 0.010217541060220632 -0.00096523614306611078 0.012537825924885946 0.012823468274902553 -0.003989659852611468 0.0054013219309646436 -0.0068304792943376094 0.007220709910034203 -0.00033383107040402244 0.00298240090472973 0.0032903117936803027 -0.0014042688031048259 -7.0486004641676748e-05 -0.0019550450429700766 -0.00046062223342869407 -0.0038895575727413722 0.0046312305234459932 -0.00012874948963883525 -0.00033172428040415978 -0.00015145321688771749 -0.00029379094772330461 6.3276700812390116e-05 -9.5213225275731539e-05 -3.1957615977562495e-05 0.0026110646102438535 0.0090511352859903131
leaf_weight=20 192661 200 25 182 23 59 23 25 23 28 27 20 61 20 20 38 2417 42 150 24 20 32 20 14024 2853 1029 1777 1265 485 40
leaf_count=20 192661 200 25 182 23 59 23 25 23 28 27 20 61 20 20 38 2417 42 150 24 20 32 20 14024 2853 1029 1777 1265 485 40
internal_value=0 0.000136125 0.000782572 0.00122621 0.00197124 0.00153118 0.00288855 0.00433679 0.00272946 0.000659806 0.000167507 -0.000470899 0.00153149 -0.00195891 -0.000979236 0.000214552 -6.68152e-05 -0.000354858 -9.24339e-05 -0.000933579 -3.31551e-05 0.00170201 0.00132534 -2.22432e-06 -6.88428e-05 8.66851e-05 0.000322868 0.000586413 0.00108978 0.00310174
internal_weight=0 3499 836 636 454 431 216 157 132 109 215 190 81 109 81 58 2663 82 2643 174 2469 52 40 214134 21473 7449 4596 2819 1554 525
internal_count=217633 3499 836 636 454 431 216 157 132 109 215 190 81 109 81 58 2663 82 2643 174 2469 52 40 214134 21473 7449 4596 2819 1554 525
shrinkage=0.05


Tree=126
num_leaves=31
num_cat=0
split_feature=41 21 21 1 16 33 16 36 40 40 40 13 40 2 25 40 40 43 19 43 3 30 6 20 2 15 35 15 38 43
split_gain=0.0259794 0.639939 0.0256295 0.140834 0.371819 0.0654571 0.248918 0.062064 0.0413251 0.044191 0.189823 0.161036 0.108422 0.106156 0.0285281 0.102745 1.03056 0.747225 1.55375 1.58743 1.12749 0.896226 0.68242 0.726165 1.27425 0.689087 1.0468 0.729929 0.698126 0.674579
threshold=5.6849350000000003 -3.7984549999999992 -19.754149999999996 -8.8547249999999984 6.5238050000000013e-06 -0.0025000549999999997 2.5770550000000005e-06 0.14537000000000003 -3.6053384999999998 0.14973499999999998 -0.12496499999999998 -1.8862399999999994e-05 -0.60254799999999997 -1.4330849999999997 5.8644050000000005 0.14973499999999998 -0.10081500000000009 1.06199 5.2173100000000012e-08 -0.82558500000000012 -10.279999999999999 0.053348600000000003 9.7954900000000019e-07 -3.4870349999999992 -1.8416399999999997 -5.525729999999999e-07 0.019909950000000006 3.5843050000000008e-07 0.010851200000000002 -2.7066499999999998
decision_type=2 2 2 2 2 2 2 2 2 2 2 2 2 2 2 2 2 2 2 2 2 2 2 2 2 2 2 2 2 2
left_child=2 -2 3 4 7 6 -5 -1 -7 10 11 -10 -13 -11 -4 16 -16 18 19 -18 -19 22 23 -20 -25 26 -24 28 -27 -23
right_child=1 -3 14 5 -6 8 -8 -9 9 13 -12 12 -14 -15 15 -17 17 20 21 -21 -22 29 25 24 -26 27 -28 -29 -30 -31
leaf_value=0.0027456980002832348 0.0069969111450893032 -3.641330283643538e-06 4.244139966943926e-06 -0.00036827817203158639 0.0067708672795059356 0.0020372263121225843 0.0047654324846172873 -0.00023756636069590189 0.0039029657730861797 0.0034910416851441067 -0.0051507130047589869 -0.00017659795213234022 -0.0033169893842257027 -0.00015884469828529994 9.7954654340007533e-06 6.0802433362484534e-05 -0.0019570656590318929 0.0045910959062489889 -0.0031266321915019353 -0.018222734245161215 -0.0010454738794834786 -0.00049452581210061906 0.002017800092837343 0.011932211153209211 0.00020997664840274484 -0.017355879201469096 -0.0088624962653707836 -0.0033643083507366315 -0.0046105794431198213 -0.011947388478761747
leaf_weight=22 34 819 191885 83 29 20 33 84 20 21 23 128 35 388 11727 10802 30 108 148 30 497 20 93 25 319 22 29 102 21 36
leaf_count=22 34 819 191885 83 29 20 33 84 20 21 23 128 35 388 11727 10802 30 108 148 30 497 20 93 25 319 22 29 102 21 36
internal_value=0 0.000275396 -1.08365e-06 0.000267286 0.00175411 1.41044e-08 0.00109217 0.000381602 -0.000199499 -0.000272238 -0.000869448 -0.000331365 -0.000850915 2.85578e-05 -2.185e-06 -5.3568e-05 -0.000147112 -0.00139039 -0.00232459 -0.0100899 -3.92763e-05 -0.00175291 -0.00130253 -0.000198077 0.00106188 -0.00333771 -0.0005685 -0.00566766 -0.0111314 -0.00785708
internal_weight=0 853 216780 886 135 751 116 106 635 615 206 183 163 409 215894 24009 13207 1480 875 60 605 815 759 492 344 267 122 145 43 56
internal_count=217633 853 216780 886 135 751 116 106 635 615 206 183 163 409 215894 24009 13207 1480 875 60 605 815 759 492 344 267 122 145 43 56
shrinkage=0.05


Tree=127
num_leaves=31
num_cat=0
split_feature=21 3 9 43 12 7 33 40 40 16 16 16 8 3 36 4 3 43 38 4 20 44 16 24 4 4 43 41 40 43
split_gain=0.0252304 0.136181 0.106947 0.0553631 0.140298 0.509549 0.0846165 0.130377 0.328416 0.0928722 0.20399 0.0354679 0.120177 0.0291459 0.107464 0.0391093 0.0257755 0.235928 0.155684 0.455672 0.0706426 0.0704226 0.143285 0.0327677 0.630862 0.750845 0.707097 0.862266 1.97007 0.710361
threshold=18.392150000000004 -4.8298799999999993 6.4682750000000014e-05 0.51814999999999956 0.00010937550000000001 5.0735600000000003e-05 0.00038371750000000001 -0.12496499999999998 0.43531000000000003 2.9426600000000004e-05 9.6545450000000009e-05 -9.2257149999999992e-07 -3.9172549999999991e-06 -5.5710999999999995 0.18330700000000003 0.22808000000000003 -18.627349999999996 1.46871 0.08967940000000002 -0.96247749999999999 -0.8551494999999999 1.381785 -1.8737049999999999e-06 -0.35379549999999998 -0.20278049999999997 -1.4133199999999999 2.0800550000000007 -0.60497499999999982 -0.3819765 -4.0456399999999988
decision_type=2 2 2 2 2 2 2 2 2 2 2 2 2 2 2 2 2 2 2 2 2 2 2 2 2 2 2 2 2 2
left_child=16 2 3 6 11 -6 7 -2 -9 -8 -11 12 -5 15 -15 -13 17 18 21 -20 -21 22 -1 24 25 -18 27 -27 -29 -30
right_child=1 -3 -4 4 5 -7 9 8 -10 10 -12 13 -14 14 -16 -17 23 -19 19 20 -22 -23 -24 -25 -26 26 -28 28 29 -31
leaf_value=0.0048318076688288296 -0.00023798238505348668 0.0039141922891139987 0.0032538342763911246 0.0043715832225279883 0.0090637309406884012 -0.0016436747794869007 -0.00026165532625514867 -0.0083089568710420277 -0.00027713072835467757 0.0060937292398739375 -0.00047012172987612351 -0.0002099291192114479 -0.00035599668128004228 -0.00076999029953259276 0.0037790889133248132 -0.0025559032367709735 -0.00013771025578148452 0.004663353118692236 0.0083743931450457731 0.0018088530004024507 -0.0021779473393107765 -7.4740001629248744e-05 0.00036243419031943254 4.9856049686067259e-06 -0.00020874736202396811 -7.0884050234058132e-05 2.6642295335864725e-05 2.6001172882852244e-05 -0.0017318330059455456 0.0039443676404032147
leaf_weight=22 115 25 27 20 20 25 170 20 35 20 29 159 41 37 20 20 4453 29 22 20 25 1507 97 187112 19579 712 1679 696 59 838
leaf_count=22 115 25 27 20 20 25 170 20 35 20 29 159 41 37 20 20 4453 29 22 20 25 1507 97 187112 19579 712 1679 696 59 838
internal_value=0 0.000283314 0.000163563 4.94211e-05 0.000513491 0.00311517 -0.000358579 -0.00119557 -0.00319779 0.00029114 0.002209 0.000119297 0.00119403 -0.000158494 0.000826178 -0.000472049 -1.02299e-06 0.000191652 0.000115055 0.00247709 -0.000406036 1.77261e-05 0.0011887 -2.56526e-06 -5.29957e-05 0.000308444 0.000807119 0.00137563 0.00202216 0.00357102
internal_weight=0 783 758 731 342 45 389 170 55 219 49 297 61 236 57 179 216850 1722 1693 67 45 1626 119 215128 28016 8437 3984 2305 1593 897
internal_count=217633 783 758 731 342 45 389 170 55 219 49 297 61 236 57 179 216850 1722 1693 67 45 1626 119 215128 28016 8437 3984 2305 1593 897
shrinkage=0.05


Tree=128
num_leaves=31
num_cat=0
split_feature=40 21 1 40 40 4 38 23 4 43 38 18 20 18 39 13 7 29 26 23 44 32 43 40 20 8 14 5 43 31
split_gain=0.0245794 0.880154 0.0359221 0.0253508 0.609997 0.369848 0.478072 0.477485 0.4601 0.450423 0.380269 0.338877 0.301495 0.272749 0.263688 0.490427 0.225434 0.164994 0.158575 0.154896 0.149209 0.229754 0.176653 0.1477 0.214019 0.78386 0.651775 0.551257 0.362424 0.314384
threshold=5.6762150000000009 4.4724750000000002 0.42337950000000008 0.02582950000000005 -0.018010000000000078 -0.3422659999999999 0.010851200000000002 -10.914099999999999 -0.11271049999999998 0.68409500000000023 -0.0083346849999999997 -0.0017212399999999997 -7.3314749999999984 -0.00059694499999999988 0.0066980350000000006 2.6751950000000004e-05 6.577650000000001e-05 0.025872300000000004 0.00020610550000000003 -17.728849999999998 -0.93924999999999936 -0.68741399999999986 1.06199 0.2761725000000001 -11.463149999999997 -7.1639649999999996e-06 0.0037958600000000003 2.4954650000000003e-05 -0.026199999999999776 1.4016150000000003
decision_type=2 2 2 2 2 2 2 2 2 2 2 2 2 2 2 2 2 2 2 2 2 2 2 2 2 2 2 2 2 2
left_child=3 2 -2 4 -1 10 16 -8 -9 -10 11 -6 13 -12 19 -16 20 18 -18 -14 21 -7 -23 24 25 26 27 -5 29 -27
right_child=1 -3 -4 23 5 6 7 8 9 -11 12 -13 14 -15 15 -17 17 -19 -20 -21 -22 22 -24 -25 -26 28 -28 -29 -30 -31
leaf_value=-1.236147157501127e-05 0.0018509809454441825 0.010632989187724888 -3.665312105044601e-05 0.01214150560421071 -0.00060665321666006507 0.0043178149845906387 0.00022216388409095549 0.00072164162422268426 -0.013429401466749947 -0.0030617924555554057 -0.00024807527644183069 -0.0091978331467544201 -0.0042910575061361434 -0.0074230625863290489 -0.0018103941204026344 0.0090078175660561442 -0.00030259049136758978 0.0033129409275716171 -0.0044704166898251662 -6.5788420361870883e-05 0.0008981030869344511 -0.0048300921562172121 -0.0001232985761883497 -6.9864110397454155e-08 -0.00025084691902080481 -0.0010389563918773396 -0.0015494874843473858 0.0018944939609528298 0.0014258940595944663 -0.0075133571447804567
leaf_weight=106563 26 20 823 35 22 28 87 20 22 20 26 24 23 27 20 22 465 30 24 381 4401 21 393 94727 9119 75 24 21 119 25
leaf_count=106563 26 20 823 35 22 28 87 20 22 20 26 24 23 27 20 22 465 30 24 381 4401 21 393 94727 9119 75 24 21 119 25
internal_value=0 0.000265385 2.11543e-05 -1.06392e-06 1.53793e-05 0.000503512 0.00062639 -0.00216726 -0.00552016 -0.00849244 -0.000739014 -0.00508901 -0.000338013 -0.00390326 8.56601e-05 0.00385629 0.00070402 -0.000286332 -0.000507146 -0.000306336 0.000810151 -6.5587e-05 -0.000362049 -1.8845e-05 -0.000207687 0.00110861 0.00534437 0.00829888 -0.000438695 -0.00265756
internal_weight=0 869 849 216764 112619 6056 5511 149 62 42 545 46 499 53 446 42 5362 519 489 404 4843 442 414 104145 9418 299 80 56 219 100
internal_count=217633 869 849 216764 112619 6056 5511 149 62 42 545 46 499 53 446 42 5362 519 489 404 4843 442 414 104145 9418 299 80 56 219 100
shrinkage=0.05


Tree=129
num_leaves=31
num_cat=0
split_feature=20 3 11 13 9 6 40 1 40 6 43 3 29 11 19 41 4 38 16 37 9 25 40 40 9 28 36 41 44 43
split_gain=0.0243601 0.249398 0.750805 0.0605255 0.127808 0.385746 0.0585228 0.201048 0.133511 0.160191 0.0414548 0.0286394 0.0666697 0.231702 0.231031 0.458612 0.548296 0.345017 0.312414 0.18408 0.319475 0.160784 0.115323 0.340079 0.138354 0.333118 0.0686747 0.098997 0.0490305 0.252828
threshold=19.256550000000001 -5.1863649999999994 8.0378750000000014e-06 5.2534050000000007e-06 2.7580050000000004e-05 1.1384700000000002e-06 -0.30278099999999991 3.4787100000000004 0.30085850000000008 -6.9499049999999986e-07 2.2194399999999996 -7.4497099999999987 -0.58729449999999994 4.8912350000000013e-05 0.0016856000000000002 -0.43858299999999995 -0.63310749999999982 0.22632500000000003 1.1210250000000002e-06 2.2853250000000004e-06 4.9401950000000002e-05 44.542100000000012 -0.058960000000000005 0.10022550000000004 3.1500050000000003e-05 -0.083375999999999992 1.8680450000000002 0.51323350000000023 -0.16918499999999967 -0.026199999999999776
decision_type=2 2 2 2 2 2 2 2 2 2 2 2 2 2 2 2 2 2 2 2 2 2 2 2 2 2 2 2 2 2
left_child=11 3 -3 4 -2 -6 7 -5 9 -8 -7 12 13 -1 15 -15 -17 18 -18 20 21 -16 24 -24 26 -26 27 -21 -13 -30
right_child=1 2 -4 6 5 10 8 -9 -10 -11 -12 28 -14 14 19 16 17 -19 -20 22 -22 -23 23 -25 25 -27 -28 -29 29 -31
leaf_value=-9.1072639469881369e-05 -6.5304206123827855e-05 -0.00014869647788145815 0.011313890722813085 -0.00027807580703089423 0.0077294576648653125 0.0014777883183645221 -0.00085080869581648396 0.0049773219011694896 -0.000150252272026854 -0.0060042514251545075 -0.0013540894229663537 -3.5994717330512835e-05 9.4793775113842477e-06 -0.00010201418014473504 -0.00080692389772657577 0.0093649512540417701 0.0012221473355916365 -0.0017842949831075119 0.0094216558782916002 -0.0042177460458506606 0.0069841801019440309 0.0042252585709403245 -0.0066526605735998598 -6.8529610346628877e-05 0.0077418596172356057 -1.3544156762590218e-05 0.0016922717650091866 -0.0002374691511055867 -9.3892597280836675e-05 0.00049469843716273961
leaf_weight=1189 211 50 20 202 23 24 38 20 149 25 28 77285 129281 99 57 39 26 33 21 21 26 22 25 91 20 45 26 61 5818 2658
leaf_count=1189 211 50 20 202 23 24 38 20 149 25 28 77285 129281 99 57 39 26 33 21 21 26 22 25 91 20 45 26 61 5818 2658
internal_value=0 0.000277145 0.00312633 1.4066e-07 0.000564863 0.00233773 -0.000372003 0.000195383 -0.000966154 -0.00289583 -4.70689e-05 -1.00969e-06 1.36881e-05 0.000315804 0.00110629 0.00241231 0.00450405 0.00213436 0.00488576 0.000383669 0.00217666 0.000594443 -0.000267765 -0.00148752 0.000550107 0.00237273 -0.000546845 -0.00125681 -2.34747e-05 9.06844e-05
internal_weight=0 790 70 720 286 75 434 222 212 63 52 216843 131082 1801 612 218 119 80 47 394 105 79 289 116 173 65 108 82 85761 8476
internal_count=217633 790 70 720 286 75 434 222 212 63 52 216843 131082 1801 612 218 119 80 47 394 105 79 289 116 173 65 108 82 85761 8476
shrinkage=0.05


Tree=130
num_leaves=31
num_cat=0
split_feature=41 21 21 1 16 13 13 28 18 15 22 18 39 13 16 15 35 25 40 40 43 19 43 21 20 2 3 20 7 34
split_gain=0.0237429 0.575909 0.0232885 0.126245 0.329742 0.0589104 0.0572293 0.208171 0.28617 0.0763009 0.183252 0.055314 0.0522904 0.089608 0.0419776 0.0591683 0.0282369 0.0260898 0.0949537 0.951581 0.681132 1.31689 1.23637 0.80851 0.782613 1.54108 0.771153 0.68595 0.645447 0.577861
threshold=5.6849350000000003 -3.7984549999999992 -19.754149999999996 -8.8547249999999984 6.5238050000000013e-06 1.6103150000000005e-05 3.081705000000001e-05 1.9114100000000003 -1.1273899999999999e-05 2.8964050000000007e-06 -2.3274699999999995 0.00082871750000000014 0.025835650000000005 -1.2851199999999998e-05 2.3057600000000002e-06 -2.7784749999999993e-06 -0.060375999999999992 5.8644050000000005 0.14973499999999998 -0.10081500000000009 0.97785500000000003 8.0243550000000009e-08 -0.82558500000000012 14.003250000000001 -3.4870349999999992 -2.0335249999999996 -10.279999999999999 8.0730100000000018 4.5510850000000002e-05 1.9974350000000001
decision_type=2 2 2 2 2 2 2 2 2 2 2 2 2 2 2 2 2 2 2 2 2 2 2 2 2 2 2 2 2 2
left_child=2 -2 3 4 5 -1 12 9 -9 -8 -11 16 13 -5 -14 -16 -12 -4 19 -19 21 22 -21 24 28 -26 27 -22 29 -23
right_child=1 -3 17 6 -6 -7 7 8 -10 10 11 -13 14 -15 15 -17 -18 18 -20 20 26 23 -24 -25 25 -27 -28 -29 -30 -31
leaf_value=-0.00037059230527168108 0.0066396672333426335 -1.4349593353223551e-06 4.0624463496153683e-06 0.0037599433752620831 0.0063868697411541275 0.0022460927556191262 -0.00081634207192809506 -0.00042156901618000124 0.0079354088115949368 0.0048360689768742306 -0.00021098652093011575 0.0013892425088569225 -0.00028062988894716183 -0.00097313092570402667 4.2805482614009338e-05 -0.0029107561914059215 -0.0026364119436766489 9.6239634588685458e-06 5.8724512375528577e-05 -0.0025749376960447993 0.0015783428676227592 -0.0043691558173318918 -0.016082381218438968 -0.008426703071121925 0.01219891766862323 -0.00078722149443101919 -0.00091160181670145956 0.010951884463429451 -0.00090411474037429575 -0.012719411807707871
leaf_weight=76 34 819 191885 20 29 30 130 20 21 24 30 36 361 20 30 39 20 11727 10802 36 89 102 32 42 24 475 514 25 115 26
leaf_count=76 34 819 191885 20 29 30 130 20 21 24 30 36 361 20 30 39 20 11727 10802 36 89 102 32 42 24 475 514 25 115 26
internal_value=0 0.000263275 -1.03595e-06 0.000254784 0.0016625 0.000369979 1.73345e-06 0.000566222 0.00385883 3.73367e-06 0.000972914 -0.000105176 -0.000335758 0.00139341 -0.000496611 -0.0016266 -0.00118116 -2.0858e-06 -5.12239e-05 -0.000141151 -0.00133584 -0.00225674 -0.00893138 -0.00167782 -0.00129581 -0.000162638 -8.64549e-05 0.00363394 -0.00362276 -0.0060653
internal_weight=0 853 216780 886 135 106 751 281 41 240 110 86 470 40 430 69 50 215894 24009 13207 1480 852 68 784 742 499 628 114 243 128
internal_count=217633 853 216780 886 135 106 751 281 41 240 110 86 470 40 430 69 50 215894 24009 13207 1480 852 68 784 742 499 628 114 243 128
shrinkage=0.05


Tree=131
num_leaves=31
num_cat=0
split_feature=20 0 18 22 16 38 40 4 2 2 40 13 14 39 17 9 31 30 29 19 40 40 39 16 43 11 0 23 41 40
split_gain=0.0234204 0.199124 0.227169 0.515575 0.201182 0.137291 0.296274 0.108731 0.0852157 0.0881819 0.0772711 0.047392 0.210358 0.301866 0.119577 0.220984 0.0849083 0.0558445 0.0804989 0.149319 0.0658758 0.233702 0.128831 0.0526527 0.129894 0.0555466 0.0363583 0.0774279 0.0361035 0.0336432
threshold=-14.223749999999997 -8.8447699999999987 -1.0730149999999997e-06 2.6187600000000004 3.2990050000000008e-07 -0.21186449999999998 -0.12496499999999998 -0.086314049999999989 -2.7519549999999997 -2.6524249999999996 -0.19934349999999995 2.6751950000000004e-05 0.0083088400000000014 0.018267100000000005 -6.530729999999998e-08 -1.8734599999999998e-05 0.11557650000000001 0.053348600000000003 0.0036137050000000005 0.00059746150000000015 -0.40968649999999995 0.354709 0.34276850000000003 -1.4853299999999997e-05 0.60048999999999852 -8.0872649999999985e-05 -7.5291399999999991 -8.2009299999999978 1.0020695000000002 0.14973499999999998
decision_type=2 2 2 2 2 2 2 2 2 2 2 2 2 2 2 2 2 2 2 2 2 2 2 2 2 2 2 2 2 2
left_child=1 2 3 4 -1 6 -4 -7 10 -10 -3 12 14 -14 15 -11 -17 18 19 -13 28 22 -22 24 -16 -25 27 -27 -19 -28
right_child=-2 8 5 -5 -6 7 -8 -9 9 11 -12 17 13 -15 23 16 -18 20 -20 -21 21 -23 -24 25 -26 26 29 -29 -30 -31
leaf_value=-0.0012754263262596559 -1.8039462899677138e-06 -0.00045002728615857099 -0.0009392608986369547 0.010554938907152974 0.0043422194334561941 0.0034212861226114912 0.0070021237189749914 -0.0004738086738651091 0.0031198194799641069 0.0055370438487039389 -0.0038196328804554433 0.0050371702050059954 -0.00036229494016879474 0.0081251132775651061 -0.00033384926707520591 0.003025844040384982 -0.00030274478023961931 0.0018648565636381551 -0.00012708119342440049 -0.00072463384980358614 -0.0069996791188411114 -0.00041803463331144735 -0.0017629588827612283 -0.0025422677809425905 0.004644345302585862 0.0036199523367395161 -0.00045723799181825262 -0.00034584331498308533 -0.00029623881893323713 0.00012370734703700349
leaf_weight=34 215032 46 24 20 30 20 23 172 23 27 27 22 22 20 38 25 82 22 444 23 24 157 23 24 20 20 516 32 159 482
leaf_count=34 215032 46 24 20 30 20 23 172 23 27 27 22 22 20 38 25 82 22 444 23 24 157 23 24 20 20 516 32 159 482
internal_value=0 0.000149137 0.00131095 0.00354763 0.00135785 0.000524842 0.00294695 -6.80696e-05 -1.55978e-05 4.00451e-05 -0.00169632 7.58185e-06 0.000198061 0.00367933 8.25684e-05 0.00149493 0.000474963 -0.000277483 7.71516e-05 0.00209225 -0.000727914 -0.00134398 -0.00443703 -8.46198e-05 0.00138277 -0.000163864 -0.000109501 0.00117946 -3.35642e-05 -0.000176661
internal_weight=0 2601 323 84 64 239 47 192 2278 2205 73 2182 1308 42 1266 134 107 874 489 45 385 204 47 1132 58 1074 1050 52 181 998
internal_count=217633 2601 323 84 64 239 47 192 2278 2205 73 2182 1308 42 1266 134 107 874 489 45 385 204 47 1132 58 1074 1050 52 181 998
shrinkage=0.05


Tree=132
num_leaves=31
num_cat=0
split_feature=21 12 43 41 22 2 19 32 18 22 16 8 43 36 1 32 34 40 40 34 28 5 21 43 23 19 40 1 43 44
split_gain=0.0233896 0.0882837 0.279949 0.323486 0.514051 0.242767 0.175669 0.120618 0.0691347 0.157034 0.0461006 0.0424286 0.0249111 0.0715302 0.0232061 0.0633449 0.100378 0.157117 0.216819 0.0652395 0.0459811 0.190916 0.0468854 0.156128 0.320754 0.170326 0.427853 0.105378 0.141496 0.576513
threshold=18.392150000000004 2.7795450000000002e-05 0.51814999999999956 -0.89665319999999982 1.1052950000000001 2.0169250000000005 4.0088250000000005e-06 -10.048129999999999 -0.00046666149999999995 -0.16403849999999998 4.7861450000000004e-06 -7.6371749999999986e-06 -6.665729999999999 -2.2564299999999995 7.8334600000000005 -2.4309499999999997 0.78599850000000016 -0.19934349999999995 0.12375499999999996 0.92011300000000007 0.27127250000000008 1.9859850000000003e-05 10.536600000000002 -0.054875 -7.6401149999999989 4.6729550000000004e-08 -0.10081500000000009 11.791050000000002 0.47541999999999979 -0.27579999999999932
decision_type=2 2 2 2 2 2 2 2 2 2 2 2 2 2 2 2 2 2 2 2 2 2 2 2 2 2 2 2 2 2
left_child=14 8 7 -4 -5 6 -6 -3 9 -2 12 -9 -10 -14 -1 16 17 -16 -19 -18 22 -22 -17 24 -24 26 -26 -25 29 -29
right_child=1 2 3 4 5 -7 -8 11 10 -11 -12 -13 13 -15 15 20 19 18 -20 -21 21 -23 23 27 25 -27 -28 28 -30 -31
leaf_value=6.028294813038186e-06 0.0050107527865111481 -0.0033767238090794925 -0.00045634689483904368 0.011265788002056069 0.0040676042896229773 0.0071354053753020707 -0.0013290630345612667 -0.00047307110279192432 0.0014291299444084871 -0.00031403673657526575 -0.0023922350698350266 0.0014979366365112487 -0.0030786399081989659 -0.00018994906990159346 0.0013500173110696781 -1.4450045236815101e-05 0.002521415450901259 -0.0078564921952784059 -0.00087192586401215518 -0.00036690661756610694 -0.0010887492869218916 0.0052612657479039629 -0.0062587945570056844 0.00038914154925432114 -0.00013520932382141211 -0.00028609100775227753 -0.0068339868403249106 -0.0082975824001810649 -5.1585363592060141e-05 -0.00023878188904431416
leaf_weight=183174 20 31 64 20 25 20 38 97 20 45 28 38 23 314 20 30680 20 20 25 870 29 20 27 823 67 479 37 28 424 107
leaf_count=183174 20 31 64 20 25 20 38 97 20 45 28 38 23 314 20 30680 20 20 25 870 29 20 27 823 67 479 37 28 424 107
internal_value=0 0.000272783 0.000889966 0.00233535 0.00407 0.00233607 0.000812472 -0.000564125 -0.000183932 0.00132436 -0.000438578 8.17311e-05 -0.00028535 -0.0003871 -9.84963e-07 -3.91322e-05 -0.000440532 -0.00233735 -0.00397618 -0.000302001 -2.74169e-05 0.00150309 -2.97123e-05 -0.000264775 -0.000931052 -0.000684312 -0.00251843 2.93121e-05 -0.000500455 -0.00191024
internal_weight=0 783 333 167 103 83 63 166 450 65 385 135 357 337 216850 33676 955 65 45 890 32721 49 32672 1992 610 583 104 1382 559 135
internal_count=217633 783 333 167 103 83 63 166 450 65 385 135 357 337 216850 33676 955 65 45 890 32721 49 32672 1992 610 583 104 1382 559 135
shrinkage=0.05


Tree=133
num_leaves=31
num_cat=0
split_feature=4 39 24 4 43 40 30 3 43 20 30 3 1 26 23 10 43 25 18 4 11 18 4 25 5 40 41 40 38 23
split_gain=0.0229364 0.0526543 0.0400208 0.666446 0.603365 0.845851 1.13737 0.389962 0.457001 0.222157 0.143375 0.232178 0.139222 0.0711882 0.0571557 0.104175 0.0606726 0.0483428 0.0858195 0.200009 0.0548416 0.0404951 0.0620464 0.0402335 0.0895584 0.1763 0.039261 0.297007 0.0699881 0.0732846
threshold=4.1822950000000008 0.0013738800000000003 1.1195950000000001 0.73862450000000013 -0.12174999999999957 -0.60254799999999997 0.043133650000000003 -13.166999999999998 3.4270650000000007 -0.94259349999999986 0.087932350000000006 -9.9050449999999977 3.2122550000000003 0.011675600000000003 -14.758849999999999 2.6290250000000001e-05 7.347125000000001 26.434800000000003 1.7622650000000003e-05 0.38724300000000006 -4.4153649999999994e-05 7.6735600000000018e-05 0.46668750000000003 23.183300000000006 1.2523200000000001e-05 0.74319900000000005 0.43359400000000009 0.24966499999999994 -1.0090899999999998 -14.849549999999999
decision_type=2 2 2 2 2 2 2 2 2 2 2 2 2 2 2 2 2 2 2 2 2 2 2 2 2 2 2 2 2 2
left_child=2 -2 -1 17 5 -5 9 8 -6 -7 13 -12 -13 14 16 -16 -9 18 23 -20 -21 22 -19 -4 25 -25 27 28 -3 -30
right_child=1 26 3 4 7 6 -8 10 -10 -11 11 12 -14 -15 15 -17 -18 21 19 20 -22 -23 -24 24 -26 -27 -28 -29 29 -31
leaf_value=1.7282443085396839e-06 -2.0252515095838563e-05 -0.0045988479925488891 -9.1566945454680377e-05 0.00023394435484078713 0.0012660134638786582 0.00020165432581928109 0.015456958052011267 -0.003242374215885017 0.010692641852783709 0.0068131164062852651 0.0053834491748906057 -0.0018119873925024879 0.0026522028088581261 -0.0029748744558202346 0.0030919109415359952 -0.00047011291149269362 -0.00039917203374333771 -0.00029047677836091686 0.0047724764648819475 0.0021953677499803471 -0.00067623520355634048 -0.0020768983659499719 0.0022191430739476347 0.006132410180252919 -0.00017237047490553092 -1.4018658096251864e-05 -4.3690082764626543e-05 -6.9624000123252316e-05 -0.00030481483894012249 -0.0021793751049680246
leaf_weight=196156 15287 22 1278 64 36 27 31 24 20 24 30 40 31 27 30 65 86 1658 32 23 60 31 25 20 82 28 1062 1073 72 189
leaf_count=196156 15287 22 1278 64 36 27 31 24 20 24 30 40 31 27 30 65 86 1658 32 23 60 31 25 20 82 28 1062 1073 72 189
internal_value=0 -5.45455e-05 4.83038e-06 0.000166151 0.00180094 0.00454176 0.00790397 0.000772247 0.00463267 0.00331293 0.000123048 0.00169547 0.000137166 -0.000561497 -0.000243638 0.000654737 -0.00101951 -0.00010404 0.000100944 0.00141425 0.00011951 -0.000286182 -0.000253198 -6.32191e-06 0.000831702 0.00254699 -0.000271352 -0.000449653 -0.00189054 -0.00166226
internal_weight=0 17705 199928 3772 535 146 82 389 56 51 333 101 71 232 205 95 110 3237 1523 115 83 1714 1683 1408 130 48 2418 1356 283 261
internal_count=217633 17705 199928 3772 535 146 82 389 56 51 333 101 71 232 205 95 110 3237 1523 115 83 1714 1683 1408 130 48 2418 1356 283 261
shrinkage=0.05


Tree=134
num_leaves=31
num_cat=0
split_feature=5 35 15 7 34 16 40 11 36 41 41 37 17 40 5 32 44 29 31 13 37 36 44 44 26 39 40 44 44 17
split_gain=0.0226297 0.0478202 0.0913487 0.101989 0.059104 0.177699 0.151733 0.137451 0.299121 0.0600534 0.533769 0.39739 0.497901 0.237663 0.559236 0.164721 0.14755 0.141787 0.171529 0.109114 0.107455 0.184527 0.139271 0.195376 0.104646 0.0924292 0.125699 0.451611 0.0871808 0.168436
threshold=8.8143050000000017e-06 0.098593250000000007 3.6456250000000008e-06 2.7630050000000005e-05 2.6849000000000003 4.3089250000000013e-06 -0.018010000000000078 -3.9555399999999991e-05 -0.028793999999999997 -0.039869999999999954 0.12358499999999996 1.3227200000000003e-07 4.0793000000000007e-08 0.056773999999999998 8.1441900000000017e-06 0.31163200000000008 0.27512500000000012 -0.024110249999999996 -0.39250049999999997 6.0257150000000006e-05 -4.8108399999999992e-07 0.0034201800000000005 0.65993499999999961 0.31988499999999936 -5.3010199999999996e-05 7.2858650000000016e-07 -0.040859549999999939 -0.7296000000000008 -0.35442999999999975 1.9588450000000002e-07
decision_type=2 2 2 2 2 2 2 2 2 2 2 2 2 2 2 2 2 2 2 2 2 2 2 2 2 2 2 2 2 2
left_child=1 4 -3 -4 9 7 -7 8 -6 13 11 15 -13 14 24 17 28 18 -11 20 -19 22 23 25 -1 -22 27 -27 29 -14
right_child=-2 2 3 -5 5 6 -8 -9 -10 10 -12 12 16 -15 -16 -17 -18 19 -20 -21 21 -23 -24 -25 -26 26 -28 -29 -30 -31
leaf_value=-0.0020800451471917436 -4.3439867346863175e-06 -0.00052934134565321591 0.0043484975456348843 -0.00022684787738775226 0.0071966299039476411 0.00057544840943592136 0.0065928367565489185 -1.7003847796322379e-05 -9.4831601036742376e-05 0.00056944882857755559 -2.2788266875155329e-05 0.010066893813806627 -0.00038114563272260553 -2.0877625198812903e-05 -0.0095410019397439271 0.0044092310553727051 0.0054342370495821038 -0.00092802985258151225 -0.0055398435848837838 -0.0016308546191282859 -0.001504819126178821 0.0057289325131846241 -0.00073513386748399014 0.0053417092550911809 0.0029171995319484268 6.0829160065623004e-05 0.00096194486781701828 0.0094793911161832525 0.00025878045662466322 0.0053021248090544763
leaf_weight=22 202904 602 21 29 22 20 22 391 39 27 6085 24 22 6352 22 30 30 71 20 44 33 21 102 28 20 35 479 20 64 32
leaf_count=22 202904 602 21 29 22 20 22 391 39 27 6085 24 22 6352 22 30 30 71 20 44 33 21 102 28 20 35 479 20 64 32
internal_value=0 5.9842e-05 -0.000358779 0.0016948 7.92311e-05 0.000616458 0.00372741 0.000327387 0.00253488 5.96927e-05 0.000159166 0.00118245 0.0033865 -5.14236e-05 -0.00308311 0.000765856 0.00230319 0.00064165 -0.00203025 0.000792405 0.000927543 0.00111103 0.000971899 0.00126453 0.000299595 0.00106319 0.00122189 0.00348576 0.00150716 0.00298672
internal_weight=0 14729 652 50 14077 494 42 452 61 13583 7167 1082 172 6416 64 910 148 880 47 833 789 718 697 595 42 567 534 55 118 54
internal_count=217633 14729 652 50 14077 494 42 452 61 13583 7167 1082 172 6416 64 910 148 880 47 833 789 718 697 595 42 567 534 55 118 54
shrinkage=0.05


Tree=135
num_leaves=31
num_cat=0
split_feature=20 43 3 0 13 18 14 9 3 11 14 7 29 23 30 34 20 31 11 19 3 31 0 40 40 40 38 3 20 4
split_gain=0.022286 0.114836 0.349133 1.09708 0.929819 0.199397 0.317951 0.140188 0.251213 0.220434 0.37938 0.485027 0.422657 0.49764 0.237569 0.202396 0.300713 0.126181 0.32462 0.644966 0.157837 0.121736 0.174703 0.202719 0.716341 0.254435 0.117371 0.115794 0.161615 0.1074
threshold=-8.175164999999998 -0.15760999999999911 -12.046299999999997 -4.3615599999999999 2.1772650000000002e-05 -0.0012949349999999999 0.041697100000000008 -2.0070149999999996e-05 -7.4119349999999988 -9.3323749999999985e-05 0.00071877950000000007 5.7334800000000005e-05 0.041675700000000003 -10.854299999999997 0.021592100000000003 0.19209600000000002 -10.825549999999998 -1.1821199999999998 5.0670100000000008e-05 0.0017507150000000001 -6.0305299999999997 1.4016150000000003 -4.3615599999999999 -0.27744100000000016 0.10022550000000004 -0.079468000000000025 -0.00015868999999999999 -8.4434449999999988 -9.0227099999999982 0.069718000000000016
decision_type=2 2 2 2 2 2 2 2 2 2 2 2 2 2 2 2 2 2 2 2 2 2 2 2 2 2 2 2 2 2
left_child=1 17 3 4 -3 6 -5 8 9 -4 15 12 -12 14 -14 16 -11 18 -1 -20 21 -19 23 -23 25 -25 27 28 -18 -28
right_child=-2 2 7 5 -6 -7 -8 -9 -10 10 11 -13 13 -15 -16 -17 26 20 19 -21 -22 22 -24 24 -26 -27 29 -29 -30 -31
leaf_value=-0.0001043963485856697 -5.9048494552145248e-06 0.012415664856141519 -0.00016898967456655632 0.007771938545047305 0.0013508853520663154 -0.00063087743397555532 -0.00076408337948426685 -2.7379648606897727e-05 0.00011704249598068848 0.0056622850670044918 -0.00029767945102734798 -0.00017205927515018596 0.007990120789896615 0.012851342714566272 0.00080364793323931981 -0.00039278096838583757 0.0063470799627111775 -4.3102363659202119e-05 0.0084004025674522913 0.00034890275985364702 0.0043554577513714322 0.00016809439731649322 -0.00025410595902613744 -0.0047467784085513456 -0.0008035807011704286 -0.012457833649823443 0.0011361801750663114 0.0010857603745006922 0.0012388424514756481 -0.00092633274811765212
leaf_weight=263 191545 39 317 20 37 184 24 7326 3712 39 22 53 23 28 23 214 32 12048 38 72 20 89 883 23 119 20 206 93 30 91
leaf_count=263 191545 39 317 20 37 184 24 7326 3712 39 22 53 23 28 23 214 32 12048 38 72 20 89 883 23 119 20 206 93 30 91
internal_value=0 4.3355e-05 0.000152619 0.00182636 0.00702886 9.219e-05 0.00311593 0.000110944 0.000318472 0.00095699 0.00137495 0.00366729 0.00578693 0.00759587 0.00439688 0.000890466 0.00144976 -5.73615e-05 0.000849544 0.00313033 -8.29845e-05 -8.97186e-05 -0.000584986 -0.001749 -0.00280221 -0.00833332 0.00108629 0.0022016 0.00387535 0.000504232
internal_weight=0 26088 12513 304 76 228 44 12209 4883 1171 854 149 96 74 46 705 491 13575 373 110 13202 13182 1134 251 162 43 452 155 62 297
internal_count=217633 26088 12513 304 76 228 44 12209 4883 1171 854 149 96 74 46 705 491 13575 373 110 13202 13182 1134 251 162 43 452 155 62 297
shrinkage=0.05


Tree=136
num_leaves=31
num_cat=0
split_feature=3 43 38 4 44 16 29 32 37 37 4 24 4 19 43 39 40 41 43 43 17 19 17 36 43 0 19 38 3 32
split_gain=0.0217829 0.207606 0.127905 0.392594 0.0628264 0.130196 0.0598808 0.0311469 0.0281114 0.025442 0.0238083 0.0604939 0.241223 0.398727 0.455387 0.070155 0.0690684 0.736455 0.184068 0.177664 0.38793 0.199538 0.152258 0.0944148 0.111622 0.101475 0.0754419 0.0715078 0.0668516 0.0662804
threshold=-18.627349999999996 1.46871 0.08967940000000002 -0.96247749999999999 1.381785 -1.8737049999999999e-06 -0.11763599999999998 -7.1146499999999993 -7.6530749999999989e-07 -1.7368199999999998e-07 -1.4133199999999999 -1.4574199999999997 -2.6817999999999995 0.0024010250000000006 2.1254700000000009 0.00044455850000000007 0.354709 0.22260499999999997 3.5499500000000008 -2.1822199999999996 -1.7471999999999995e-05 0.00032567350000000007 -1.0118749999999999e-05 -0.066940849999999982 0.51814999999999956 3.1414700000000004 0.0049635200000000008 0.029395350000000004 -12.126699999999998 20.036400000000004
decision_type=2 2 2 2 2 2 2 2 2 2 2 2 2 2 2 2 2 2 2 2 2 2 2 2 2 2 2 2 2 2
left_child=1 2 4 -4 5 -1 -5 -6 -7 -10 11 12 29 14 -14 -13 17 18 19 22 23 -22 27 -21 25 -25 -23 -17 -20 -2
right_child=10 -3 3 6 7 8 -8 -9 9 -11 -12 15 13 -15 -16 16 -18 -19 28 20 21 26 -24 24 -26 -27 -28 -29 -30 -31
leaf_value=0.0045930144885046919 -0.00044338522695903877 0.0043715331173534025 0.0075565683169533382 0.0017427550251159119 -0.0020329918991774322 -0.0012389472887827486 -0.0018135393285272838 -4.6650031162258154e-05 0.001804937298755463 -4.49469264755707e-05 5.7751344887283617e-06 -1.2142260170270014e-05 0.0064847172866898803 0.0085822876775637266 -0.0012952461085543262 -0.0014282769066158909 -1.1820278839804052e-05 -1.9792671773190799e-05 -0.003496313203686441 -0.0040715778025945558 -0.0099897809513925535 -0.0034810471454662512 0.0015141038418126605 -0.0010982478249011698 0.00037737530769061718 -0.0051399151257937774 -0.0070286955769089145 -0.0046202029668442578 -0.0004572216646389088 0.00184260235554474
leaf_weight=22 266 29 23 20 20 22 29 1492 34 41 181793 27282 27 22 62 74 2839 2974 20 38 23 47 39 41 58 25 22 23 190 36
leaf_count=22 266 29 23 20 20 22 29 1492 34 41 181793 27282 27 22 62 74 2839 2974 20 38 23 47 39 41 58 25 22 23 190 36
internal_value=0 0.000176611 0.000105177 0.00216755 1.41342e-05 0.00112029 -0.000361991 -7.29244e-05 0.000332662 0.000793667 -1.41681e-06 -3.97493e-05 0.000561709 0.00255489 0.00106497 -4.71214e-05 -0.000195929 -0.000342175 -0.00194012 -0.00258275 -0.00336364 -0.00595658 -0.00112432 -0.0018911 -0.00122289 -0.00262918 -0.00461218 -0.00218513 -0.000746659 -0.000170883
internal_weight=0 1732 1703 72 1631 119 49 1512 97 75 215901 34108 413 111 89 33695 6413 3574 600 390 254 92 136 162 124 66 69 97 210 302
internal_count=217633 1732 1703 72 1631 119 49 1512 97 75 215901 34108 413 111 89 33695 6413 3574 600 390 254 92 136 162 124 66 69 97 210 302
shrinkage=0.05


Tree=137
num_leaves=31
num_cat=0
split_feature=40 21 21 41 40 16 22 36 20 36 19 7 24 29 30 11 8 11 29 3 19 34 5 36 39 39 21 4 38 43
split_gain=0.0212518 0.767283 0.0348787 0.0224687 0.53491 0.329288 0.448742 0.430582 0.299473 0.269975 0.381887 0.178345 0.170271 0.201374 0.374059 0.259842 0.242237 0.220833 0.246504 0.176962 0.166254 0.223594 0.161914 0.157681 0.330793 0.168972 0.156098 0.132786 0.163335 0.157446
threshold=5.6762150000000009 4.4724750000000002 2.4716600000000004 -0.026150000000000003 -0.018010000000000078 -1.1786699999999996e-06 3.0016000000000003 -0.014259749999999998 5.3893600000000008 0.0049376950000000006 0.0017507150000000001 6.6433600000000021e-05 0.23832950000000003 0.010750750000000002 0.00047923150000000006 -4.1101849999999997e-05 -8.8879199999999981e-06 5.466815000000001e-06 -0.0017776049999999998 -15.396099999999999 2.0550550000000007e-06 0.34287850000000003 1.7182950000000001e-05 0.5797365000000001 0.0060015500000000005 0.0024846250000000003 -13.388899999999998 -0.42458499999999993 -0.019831249999999998 0.93421999999999994
decision_type=2 2 2 2 2 2 2 2 2 2 2 2 2 2 2 2 2 2 2 2 2 2 2 2 2 2 2 2 2 2
left_child=3 2 -2 -1 -5 6 9 8 20 12 -11 23 13 17 -15 16 -16 -6 -19 -14 -7 -22 -13 24 25 26 -9 -28 -29 -30
right_child=1 -3 -4 4 5 7 -8 11 -10 10 -12 22 19 14 15 -17 -18 18 -20 -21 21 -23 -24 -25 -26 -27 27 28 29 -31
leaf_value=-1.7732108716190868e-05 -3.474291482035803e-05 0.0099268024135380981 0.0019392700839776095 -1.1527558115919501e-05 0.00085466976912083935 0.0013597629049058924 -0.0068615192610125709 0.0039600085444712581 -0.0068556141918704201 -0.0071002324154974443 -8.2824666342856562e-05 0.0015586724977390649 0.0055584614140874091 -0.0082995353962178348 -0.0058404807012052253 0.0020236617326862992 4.4545943183038617e-05 -0.00048522679762193292 -0.0055659099349993219 0.00084520790187136898 -0.0067952261433847959 -0.00081341649633121383 -0.00075280595107496623 -0.0033249036656976074 0.0055992986353683395 -0.0032319144426415179 -0.00074944926569634298 0.0046382611259884595 0.00089589068144911316 -0.00023676156938884428
leaf_weight=104126 826 20 23 106563 379 48 26 39 26 33 47 97 24 20 34 46 36 162 28 117 21 61 346 23 36 26 137 28 3902 333
leaf_count=104126 826 20 23 106563 379 48 26 39 26 33 47 97 24 20 34 46 36 162 28 117 21 61 346 23 36 26 137 28 3902 333
internal_value=0 0.000246768 1.87345e-05 -9.89286e-07 1.44883e-05 0.000470838 -0.000383104 0.000629525 -0.00195702 -0.000201204 -0.00297751 0.000710762 6.13299e-05 -0.000255897 -0.00198437 -0.000895554 -0.0028139 0.000157237 -0.00123396 0.00164746 -0.000977304 -0.00234534 -0.000246681 0.000804517 0.000825618 0.000787129 0.000810669 0.000782755 0.000831995 0.00080683
internal_weight=0 869 849 216764 112638 6075 952 5123 156 926 80 4967 846 705 136 116 70 569 190 141 130 82 443 4524 4501 4465 4439 4400 4263 4235
internal_count=217633 869 849 216764 112638 6075 952 5123 156 926 80 4967 846 705 136 116 70 569 190 141 130 82 443 4524 4501 4465 4439 4400 4263 4235
shrinkage=0.05


Tree=138
num_leaves=31
num_cat=0
split_feature=20 0 17 18 23 9 10 11 19 3 29 11 11 0 3 43 10 19 34 0 11 10 0 3 0 11 20 14 43 43
split_gain=0.0212837 0.536627 0.515593 0.235097 0.043838 0.138413 0.314441 0.0406769 0.0623528 0.0246167 0.0530553 0.201283 0.428484 0.322724 0.244948 0.448922 0.134072 0.0790961 0.0733756 0.0551229 0.0730896 0.110104 0.0529784 0.0521535 0.242977 0.0517539 0.184991 0.062434 0.0937147 0.173732
threshold=19.256550000000001 10.006550000000002 1.4266700000000001e-06 -1.4614499999999998e-06 -9.7498999999999985 2.1412350000000005e-05 3.6244450000000012e-05 2.9798800000000003e-05 0.00012624750000000005 -7.4497099999999987 -0.58729449999999994 9.9230750000000009e-05 0.00012039000000000002 5.3241200000000006 -15.993649999999997 -5.0658149999999997 1.8878250000000005e-05 0.00045332900000000009 34.706300000000006 8.9117650000000008 7.0554250000000006e-05 2.8797900000000004e-05 4.648200000000001 -11.825449999999998 5.2398250000000006 9.7538050000000017e-06 -16.050999999999998 0.00036183850000000008 -1.5196849999999988 2.7930350000000002
decision_type=2 2 2 2 2 2 2 2 2 2 2 2 2 2 2 2 2 2 2 2 2 2 2 2 2 2 2 2 2 2
left_child=9 4 3 -3 5 -2 -7 -6 -9 10 11 19 13 -13 15 -14 -16 -18 23 20 25 -22 -20 24 -19 -1 -27 -28 -29 -30
right_child=1 2 -4 -5 7 6 -8 8 -10 -11 -12 12 14 -15 16 -17 17 18 22 -21 21 -23 -24 -25 -26 26 27 28 29 -31
leaf_value=-0.0001723435332977684 -0.00036434137605769677 0.0063178846696973785 0.010787187989002892 -0.0001755108848635206 -0.00018513402741514971 0.0068620770509975658 -0.00065959043978099628 -0.0030954626446173558 -0.0005826296648537005 -2.1771347505484429e-05 8.9282457940659273e-06 0.0012043704425377657 -0.0011291942209330349 0.0098042260595927189 0.0038911997272288836 0.0081898735541796799 0.0026980491551512388 -0.00047212975503712457 9.5890552044390159e-05 0.0021785981390296783 -0.0035678180448788532 0.00034271250365741759 -0.0028619761789830194 -0.00048471528918433082 0.0053796255666384244 0.0042970631458789888 -0.0010714081527338144 -0.00048570777137553836 0.0033223314702739192 -0.0003059650927481464
leaf_weight=915 159 20 21 46 356 24 33 33 98 85761 129281 20 24 24 23 28 24 68 24 28 36 36 41 137 24 30 75 112 65 67
leaf_count=915 159 20 21 46 356 24 33 33 98 85761 129281 20 24 24 23 28 24 68 24 28 36 36 41 137 24 30 75 112 65 67
internal_value=0 0.000259054 0.00396339 0.00179218 -0.000199378 0.000393487 0.00250743 -0.000462332 -0.00121563 -9.43782e-07 1.26827e-05 0.000282192 0.00121605 0.0058952 0.000692181 0.00388877 0.000204725 -6.19065e-05 -0.000287209 -1.70004e-05 -6.30159e-05 -0.00161255 -0.00176984 0.000133625 0.00105442 2.52489e-05 0.000543292 0.000190273 0.000578084 0.0014807
internal_weight=0 790 87 66 703 216 57 487 131 216843 131082 1801 437 44 393 52 341 318 294 1364 1336 72 65 229 92 1264 349 319 244 132
internal_count=217633 790 87 66 703 216 57 487 131 216843 131082 1801 437 44 393 52 341 318 294 1364 1336 72 65 229 92 1264 349 319 244 132
shrinkage=0.05


Tree=139
num_leaves=31
num_cat=0
split_feature=41 21 21 43 12 43 41 40 8 19 8 32 41 40 40 22 38 4 2 3 9 16 40 1 44 25 16 36 19 41
split_gain=0.020492 0.505982 0.0194919 0.105575 0.268474 0.400092 0.165975 0.255079 0.268529 0.21189 0.0961739 0.102185 0.0906097 0.240604 0.215786 0.160261 0.101008 0.0433444 0.216843 0.0385617 0.051162 0.0356155 0.0470083 0.0320955 0.0512703 0.02737 0.0816636 0.22156 0.2808 0.389832
threshold=5.6849350000000003 -3.7984549999999992 14.999250000000002 0.47541999999999979 4.6248000000000002e-05 0.93421999999999994 -0.89665319999999982 -0.68744999999999989 -1.3024649999999999e-05 0.00024544750000000004 -8.4826099999999981e-06 -10.048129999999999 -0.17681499999999981 -0.17527649999999997 0.46240350000000002 -0.69427499999999986 -0.55203199999999986 -0.21786749999999996 -0.104999 -6.3877149999999991 3.3645000000000007e-05 3.8630400000000007e-07 -0.71412249999999966 9.4357350000000029 1.5039450000000001 5.8644050000000005 8.2193200000000006e-07 0.022445900000000001 0.0012391700000000002 0.40643499999999982
decision_type=2 2 2 2 2 2 2 2 2 2 2 2 2 2 2 2 2 2 2 2 2 2 2 2 2 2 2 2 2 2
left_child=2 -2 25 10 17 -6 -7 -8 9 -9 11 -4 14 15 -12 -14 -16 18 -5 20 23 -19 -23 24 -13 -1 -27 -28 29 -29
right_child=1 -3 3 4 5 6 7 8 -10 -11 12 19 13 -15 16 -17 -18 21 -20 -21 -22 22 -24 -25 -26 26 27 28 -30 -31
leaf_value=3.9759705006779811e-06 0.0062213441137881839 -3.5315617721676706e-06 -0.0037428148842445809 -0.00038332299163678675 0.0081091130400939918 -0.00043325647160643373 -0.00049779398818827758 0.0046280645771539161 0.0086752548942889054 -0.0014523659503775771 0.005956856860350291 0.0012890612487476698 0.004066449161909228 -0.0049493614269886174 0.0036324992142544943 -0.00013809848562983056 -0.00029983940868088431 -9.9874713306024855e-05 0.0055393014693981973 0.0014553163157688686 -0.0032486553766648291 -0.00011186161327714217 -0.0033940462979808218 -0.0023498776709580537 -0.00080850747144274734 -0.00011526240224319337 -0.00022276285395605593 0.0013950277363290345 -6.7737486497704391e-05 -4.8955661921509759e-05
leaf_weight=191768 34 819 30 68 24 84 48 38 23 23 21 37 24 25 20 407 89 374 20 20 20 24 20 23 137 16254 3191 1087 2061 820
leaf_count=191768 34 819 30 68 24 84 48 38 23 23 21 37 24 25 20 407 89 374 20 20 20 24 20 23 137 16254 3191 1087 2061 820
internal_value=0 0.000244588 -9.6242e-07 0.000172964 0.000607407 0.00198468 0.00130419 0.00240984 0.00407134 0.00233544 -0.000206982 -0.000993516 0.000151387 -0.000180582 0.00131583 9.60295e-05 0.000421691 -4.58472e-05 0.000962728 -0.000645503 -0.000839127 -0.000258179 -0.00160376 -0.000594505 -0.000362473 -2.25486e-06 -5.32895e-05 8.74156e-05 0.000336856 0.000774122
internal_weight=0 853 216780 1599 746 240 216 132 84 61 853 267 586 456 130 431 109 506 88 237 217 418 44 197 174 215181 23413 7159 3968 1907
internal_count=217633 853 216780 1599 746 240 216 132 84 61 853 267 586 456 130 431 109 506 88 237 217 418 44 197 174 215181 23413 7159 3968 1907
shrinkage=0.05


Tree=140
num_leaves=31
num_cat=0
split_feature=20 43 3 0 13 18 14 2 0 11 31 39 16 19 35 0 40 40 26 9 3 11 14 29 10 26 39 40 40 41
split_gain=0.0197245 0.103115 0.309394 0.99112 0.907309 0.180028 0.280399 0.130091 0.275728 0.107866 0.10767 0.163479 0.256225 1.02566 0.640922 0.125681 0.173213 0.644611 0.259107 0.0931586 0.193858 0.18101 0.179876 0.356935 0.435574 0.260057 0.23148 0.170717 0.357417 0.716499
threshold=-8.175164999999998 -0.15760999999999911 -12.203099999999997 -4.3615599999999999 2.1772650000000002e-05 -0.0012949349999999999 0.041697100000000008 3.0333000000000006 -9.1205449999999981 -0.0001144375 1.4016150000000003 0.013816900000000002 7.2294100000000005e-06 0.0017507150000000001 -0.35970249999999998 -4.3615599999999999 0.2761725000000001 -0.19934349999999995 0.0017607100000000002 -2.0070149999999996e-05 -6.9428099999999988 -9.3323749999999985e-05 0.00064251500000000008 0.036434750000000009 2.8239150000000006e-05 0.0033062250000000007 0.018267100000000005 -0.10081500000000009 0.12375499999999996 -0.039869999999999954
decision_type=2 2 2 2 2 2 2 2 2 2 2 2 2 2 2 2 2 2 2 2 2 2 2 2 2 2 2 2 2 2
left_child=1 10 3 4 -3 6 -5 19 -9 -7 11 -1 -13 14 -14 16 17 -12 -19 20 21 -4 27 -24 -25 26 -26 -23 29 -29
right_child=-2 2 7 5 -6 9 -8 8 -10 -11 15 12 13 -15 -16 -17 -18 18 -20 -21 -22 22 23 24 25 -27 -28 28 -30 -31
leaf_value=-4.7928294648497298e-05 -5.5551550481417816e-06 0.012624437899461816 -0.00020004327133116729 0.0073132583894766874 0.0013188914615562277 -0.0037418187127817269 -0.0007816865378434001 0.00074385073890001485 0.0069962367788684787 -0.00013157891521647496 4.7067117399516678e-05 0.00018083988574115958 0.0027412587288199574 -0.00027748461916417001 0.015108442791031188 -0.0002372628176287646 0.00015621991420556122 -0.010560751278535464 -0.0039247238008293175 -2.4671540264723538e-05 2.9637848629912654e-05 -0.00024552447323421392 -0.000265259368676329 0.0095815938635496426 0.0032501592997245358 0.0076279108299058861 -0.002080717351873318 0.0085163084070723604 -0.00032849894846019811 0.0014033547100855989
leaf_weight=11964 191545 35 411 20 36 24 23 149 20 150 96 340 20 88 22 885 98 24 38 7334 3112 309 83 27 56 20 32 39 249 384
leaf_count=11964 191545 35 411 20 36 24 23 149 20 150 96 340 20 88 22 885 98 24 38 7334 3112 309 83 27 56 20 32 39 249 384
internal_value=0 4.07874e-05 0.000144326 0.00176417 0.00689205 8.63866e-05 0.0029834 0.000106165 0.00148378 -0.000629543 -5.46507e-05 -1.19942e-05 0.000902719 0.00279071 0.00921931 -0.000519498 -0.00149519 -0.00251949 -0.00649351 8.68535e-05 0.000260069 0.000705474 0.00101587 0.002315 0.00390139 0.00248134 0.00131166 0.000727177 0.00117445 0.00205916
internal_weight=0 26088 12513 288 71 217 43 12225 169 174 13575 12434 470 130 42 1141 256 158 62 12056 4722 1610 1199 218 135 108 88 981 672 423
internal_count=217633 26088 12513 288 71 217 43 12225 169 174 13575 12434 470 130 42 1141 256 158 62 12056 4722 1610 1199 218 135 108 88 981 672 423
shrinkage=0.05


Tree=141
num_leaves=31
num_cat=0
split_feature=3 43 38 4 20 44 16 25 40 40 24 4 4 43 41 40 40 44 43 20 40 43 10 43 4 39 8 13 11 24
split_gain=0.0196296 0.185414 0.114148 0.352231 0.0599427 0.055906 0.117133 0.0291038 0.0265357 0.0374508 0.0209422 0.619962 0.687366 0.600332 0.790995 1.65647 0.675114 0.844717 0.485572 0.687728 0.583027 0.693474 0.704455 0.688942 0.441011 0.445183 0.412136 0.516295 0.421204 0.565964
threshold=-18.627349999999996 1.46871 0.08967940000000002 -0.96247749999999999 1.0000000180025095e-35 1.381785 -1.8737049999999999e-06 38.031000000000013 -0.10081500000000009 0.12375499999999996 -0.35379549999999998 -0.20278049999999997 -1.5265699999999998 2.0800550000000007 -0.71931549999999989 -0.3819765 -0.079468000000000025 3.886415 0.80790999999999979 -7.5821849999999991 0.056773999999999998 -0.99152500000000054 3.0090450000000003e-05 -2.7863399999999992 -0.75155249999999996 0.0016508500000000004 -1.4130749999999998e-05 -1.7937199999999998e-05 -4.6864649999999995e-05 -0.88671549999999988
decision_type=2 2 2 2 2 2 2 2 2 2 2 2 2 2 2 2 2 2 2 2 2 2 2 2 2 2 2 2 2 2
left_child=1 2 5 -4 -5 6 -1 -7 -8 -10 11 12 -2 14 -14 -16 17 -17 20 -20 21 22 -18 -22 -21 -26 -25 -28 -29 -30
right_child=10 -3 3 4 -6 7 8 -9 9 -11 -12 -13 13 -15 15 16 18 -19 19 24 23 -23 -24 26 25 -27 27 28 29 -31
leaf_value=0.0043515017129142179 -0.00011916392026961961 0.0041320414218152393 0.0071529406649263015 0.0013659404653590173 -0.0021323870195677349 -4.1951277972171857e-05 -0.0012164038057604061 -0.0019163960018583265 0.0018318899932544296 -0.00040450014186919566 4.7217219049363846e-06 -0.00019434709089391109 -9.7102804067326928e-05 7.2941196687594263e-05 8.1596367457598498e-05 0.007650736752677606 0.0016102992293493051 -0.0017026394625708206 0.013250345066594688 -0.0013090488358190465 -0.00072241164637186256 -5.6099147721210616e-05 0.012396180245559663 0.012210891181603074 0.0025060357306049101 0.010151844804711416 -0.00088973194908569843 0.011229745321519054 -0.0024235183423708963 0.0064287149551784661
leaf_weight=22 4416 29 23 25 24 1491 22 21 39 36 187451 19897 717 1746 722 144 41 29 23 31 60 331 24 20 45 33 34 30 23 84
leaf_count=22 4416 29 23 25 24 1491 22 21 39 36 187451 19897 717 1746 722 144 41 29 23 31 60 331 24 20 45 33 34 30 23 84
internal_value=0 0.000167655 0.000100146 0.00204846 -0.000347526 1.41387e-05 0.0010576 -6.79852e-05 0.000310524 0.000758423 -1.34496e-06 -4.1317e-05 0.00031468 0.000777782 0.00129248 0.00188766 0.00325739 0.00608283 0.00262992 0.00539364 0.00206607 0.000871116 0.00559278 0.00395134 0.0037358 0.0057408 0.00541953 0.00462522 0.00599389 0.0045259
internal_weight=0 1732 1703 72 49 1631 119 1512 97 75 215901 28450 8553 4137 2391 1674 952 173 779 132 647 396 65 251 109 78 191 171 137 107
internal_count=217633 1732 1703 72 49 1631 119 1512 97 75 215901 28450 8553 4137 2391 1674 952 173 779 132 647 396 65 251 109 78 191 171 137 107
shrinkage=0.05


Tree=142
num_leaves=31
num_cat=0
split_feature=20 0 15 18 23 9 10 11 19 12 3 38 4 4 3 40 40 20 19 40 43 40 40 25 17 4 18 40 40 25
split_gain=0.0193361 0.478823 0.478217 0.323917 0.0382093 0.124896 0.283991 0.0365609 0.0565411 0.0212934 0.0210967 0.0483811 0.394126 0.731479 0.674124 0.512378 1.00772 0.645596 0.429832 0.316897 0.112965 0.111505 0.314064 0.0664669 0.0905048 0.0811033 0.0698782 0.140186 0.395057 0.0690798
threshold=19.256550000000001 10.006550000000002 3.0566700000000009e-07 -1.4614499999999998e-06 -9.7498999999999985 2.1412350000000005e-05 3.6244450000000012e-05 2.9798800000000003e-05 0.00012624750000000005 0.00027994300000000005 -7.4497099999999987 -0.26996899999999996 0.73862450000000013 2.5139300000000007 -16.722199999999997 0.60008550000000016 -0.68744999999999989 -8.5876849999999987 0.0020341900000000004 -0.040859549999999939 -4.7135349999999994 -0.30278099999999991 0.20129000000000011 26.434800000000003 6.1187250000000013e-05 0.49902250000000004 1.7622650000000003e-05 -0.32870999999999989 0.74319900000000005 23.183300000000006
decision_type=2 2 2 2 2 2 2 2 2 2 2 2 2 2 2 2 2 2 2 2 2 2 2 2 2 2 2 2 2 2
left_child=10 4 3 -3 5 -2 -7 9 -9 -6 11 12 23 15 -15 16 -14 -18 19 -19 -16 -22 -23 26 25 -25 29 -28 -29 -1
right_child=1 2 -4 -5 7 6 -8 8 -10 -11 -12 -13 13 14 20 -17 17 18 -20 -21 21 22 -24 24 -26 -27 27 28 -30 -31
leaf_value=-0.0001370867561498068 -0.00035249725568510775 0.0066928660552631226 0.01053099245997146 -0.00071012024150048905 -0.00030832378954109737 0.0065138723972874395 -0.00063432928753613714 -0.0029358680805671613 -0.00054300471564397879 0.00090302668668300616 -2.0180632195915125e-05 7.5773135635854341e-06 0.00033651756653823889 0.0086337228649592205 0.0022409143430291135 -0.00028223565265981398 0.016065747159088709 -0.0006392428537567511 0.012158988504892304 0.0075738766482875992 0.00026875371827906377 -0.0051170693275829158 -0.00032360391551449055 -0.00045694868354472298 0.0028545425024640286 -0.0031944406528054969 -0.00087546785857616546 0.008445951759460427 -0.00043605067053689597 0.001539044456723868
leaf_weight=745 159 22 20 45 315 24 33 33 98 41 85761 128694 62 22 38 58 22 23 21 24 179 45 142 803 20 28 37 21 31 67
leaf_count=745 159 22 20 45 315 24 33 33 98 41 85761 128694 62 22 38 58 22 23 21 24 179 45 142 803 20 28 37 21 31 67
internal_value=0 0.000246917 0.00374606 0.00172071 -0.000186121 0.000367375 0.00237544 -0.000431614 -0.00114579 -0.000168814 -8.99565e-07 1.17152e-05 0.000234712 0.00130084 0.00011029 0.00371595 0.00524158 0.00862062 0.0062119 0.00355469 -0.000353857 -0.000623259 -0.00147711 -0.000152307 -0.000469193 -0.000549187 0.000146994 0.00147702 0.00315091 1.21471e-06
internal_weight=0 790 87 67 703 216 57 487 131 356 216843 131082 2388 636 426 210 152 90 68 47 404 366 187 1752 851 831 901 89 52 812
internal_count=217633 790 87 67 703 216 57 487 131 356 216843 131082 2388 636 426 210 152 90 68 47 404 366 187 1752 851 831 901 89 52 812
shrinkage=0.05


Tree=143
num_leaves=31
num_cat=0
split_feature=41 21 40 21 21 25 4 24 4 40 41 6 4 34 5 2 3 30 15 20 37 5 39 3 1 39 38 18 4 41
split_gain=0.0185145 0.448689 0.0185961 0.674553 0.030949 0.0220357 0.0687848 0.370802 0.67109 0.584677 1.08009 0.577149 0.467462 0.968742 0.451368 0.444229 0.571978 0.418536 0.337497 0.311799 0.265108 0.228893 0.221116 0.207723 0.20608 0.177248 0.14731 0.249272 0.456253 0.512697
threshold=5.6849350000000003 -3.7984549999999992 5.6762150000000009 4.4724750000000002 2.4716600000000004 5.8644050000000005 -0.42458499999999993 -0.62980599999999998 -1.6465649999999996 -1.0422104999999997 -0.60497499999999982 -2.6132299999999998e-06 -1.1200049999999997 7.9426800000000002 1.1630300000000001e-05 2.4399850000000005 -14.176449999999997 0.015345200000000002 3.0566700000000009e-07 -1.1107799999999999 4.7478300000000009e-05 1.4537250000000002e-05 0.018267100000000005 -18.627349999999996 -4.4631249999999989 0.005313420000000001 -0.092780149999999992 2.8533150000000003e-05 2.7715550000000007 0.68231549999999996
decision_type=2 2 2 2 2 2 2 2 2 2 2 2 2 2 2 2 2 2 2 2 2 2 2 2 2 2 2 2 2 2
left_child=2 -2 5 4 -4 -1 7 8 23 -10 -11 -12 13 14 -13 16 -14 -16 19 -18 22 24 25 -7 -20 -21 27 -8 29 -29
right_child=1 -3 3 -5 -6 6 26 -9 9 10 11 12 15 -15 17 -17 18 -19 21 20 -22 -23 -24 -25 -26 -27 -28 28 -30 -31
leaf_value=3.9023930083778023e-06 0.0058607034933041129 -1.1626994746642978e-06 -3.4266611869365742e-05 0.0093061812594532976 0.0018252199647300271 0.0043761490284501079 -0.00010253456696704855 -0.00024322208610545382 -0.00037123495953910466 -1.3348723598351365e-05 0.010832411588635297 0.0038693773859579655 -0.0052940322104841481 -0.001854109069487701 0.0076754780015021208 0.0088655315439682466 0.0086126807458640538 0.017438615008216838 0.0060555046995763081 0.0002372377368514068 0.0079908943572081625 -0.0028308108429025329 -0.0029862359075923453 -0.00013092282194041041 -0.00046367225327735974 0.006021261539448191 -0.00018094620644386271 0.0022853496917643584 -0.00019872544048572159 -0.00024813772963356266
leaf_weight=191171 34 819 826 20 23 26 3794 3254 252 259 30 21 25 24 21 25 32 23 22 26 20 35 20 1526 27 27 13501 582 864 304
leaf_count=191171 34 819 826 20 23 26 3794 3254 252 259 30 21 25 24 21 25 32 23 22 26 20 35 20 1526 27 27 13501 582 864 304
internal_value=0 0.000232487 -9.14806e-07 0.000229919 1.61082e-05 -1.84387e-06 -4.62464e-05 0.000106215 0.000572036 0.00166743 0.00247394 0.00417819 0.00360455 0.00673069 0.00990046 0.00253032 0.00185348 0.0127789 0.00270844 0.00435553 0.0028907 0.000257423 0.00149339 -5.54178e-05 0.00246331 0.00318382 -9.18367e-05 0.000125167 0.000618823 0.00141607
internal_weight=0 853 216780 869 849 215911 24740 5695 2441 889 637 378 348 89 65 259 234 44 209 125 93 84 73 1552 49 53 19045 5544 1750 886
internal_count=217633 853 216780 869 849 215911 24740 5695 2441 889 637 378 348 89 65 259 234 44 209 125 93 84 73 1552 49 53 19045 5544 1750 886
shrinkage=0.05


Tree=144
num_leaves=31
num_cat=0
split_feature=41 40 4 38 4 26 38 20 9 9 28 19 25 36 40 2 20 41 3 44 18 36 43 21 10 40 11 34 14 26
split_gain=0.0186993 0.464077 0.308485 0.550159 0.79476 0.482585 0.299847 0.290659 0.272701 0.349008 0.209058 0.20512 0.173149 0.16984 0.280032 0.166186 0.160597 0.153658 0.204242 0.515782 0.810405 0.534869 0.587968 0.751843 0.515727 0.467644 0.491916 0.412612 0.633889 0.395906
threshold=-0.026150000000000003 -0.018010000000000078 -0.26743249999999991 -0.0027172199999999998 -1.2205099999999998 0.00036277200000000008 0.039173400000000004 -10.825549999999998 3.3645000000000007e-05 4.6760200000000007e-05 -0.083375999999999992 3.0639350000000006e-08 0.15866050000000001 -0.014259749999999998 0.016888500000000004 2.8304750000000003 -1.6961599999999997 -0.27889399999999981 -13.009399999999998 2.5130600000000003 -0.00019488549999999998 -0.0057319549999999995 -0.71725499999999964 -5.4139599999999986 2.6827800000000004e-05 0.14973499999999998 0.00013338650000000002 1.8663100000000001 0.016386000000000001 4.5402750000000008e-05
decision_type=2 2 2 2 2 2 2 2 2 2 2 2 2 2 2 2 2 2 2 2 2 2 2 2 2 2 2 2 2 2
left_child=17 -2 3 4 -3 6 10 -5 11 -10 16 -7 -9 14 -12 -14 -4 -1 19 20 29 22 -22 -24 -25 26 -23 -21 -29 -19
right_child=1 2 5 7 -6 8 -8 12 9 -11 13 -13 15 -15 -16 -17 -18 18 -20 27 21 25 23 24 -26 -27 -28 28 -30 -31
leaf_value=3.8735736156001823e-06 -1.0081974373578348e-05 -0.00096852641904978407 0.00030647474784581435 -0.0051765251117844684 -0.012652729797727344 -0.005587225535418839 -0.0053086161513679793 -0.0044539232620445547 -0.010351925052527805 -0.0010110437471303158 1.0018928235065409e-05 -6.656445929932162e-05 0.00042938317749473915 0.00068582446728299726 -0.0063772514028559357 -0.0042061702179489657 0.005867710177485338 -0.0046207300458500754 -0.00031753494642576698 -0.00061504849505990668 0.011523987515829504 0.0031993494781299495 0.010792001208290459 -0.0027648169180475783 0.0057769290648866448 -0.0013101838199904786 -0.0033745478449418442 -0.0017002213868268189 0.010584972281053309 0.0003779771847128418
leaf_weight=95517 106563 43 21 27 22 20 21 20 20 20 78 106 581 5020 22 20 34 69 7731 1014 28 257 25 43 30 114 32 21 21 93
leaf_count=95517 106563 43 21 27 22 20 21 20 20 20 78 106 581 5020 22 20 34 69 7731 1014 28 257 25 43 30 114 32 21 21 93
internal_value=0 1.41502e-05 0.000439212 -0.000537873 -0.00492318 0.000569138 0.000653922 -9.79883e-05 -0.0020847 -0.00568148 0.000678118 -0.00094286 0.000122818 0.00064518 -0.00139518 0.000275122 0.00374433 -1.51802e-05 -0.0002072 0.000281065 0.00134313 0.0022907 0.00513407 0.00330838 0.00074549 0.0014017 0.00247144 -0.000413901 0.00444238 -0.0017511
internal_weight=0 112638 6075 713 65 5362 5196 648 166 40 5175 126 621 5120 100 601 55 104995 9478 1747 691 529 126 98 73 403 289 1056 42 162
internal_count=217633 112638 6075 713 65 5362 5196 648 166 40 5175 126 621 5120 100 601 55 104995 9478 1747 691 529 126 98 73 403 289 1056 42 162
shrinkage=0.05


Tree=145
num_leaves=31
num_cat=0
split_feature=20 0 1 18 43 2 0 21 12 2 43 16 36 19 31 0 23 40 40 13 22 8 28 36 4 19 4 0 15 2
split_gain=0.0182281 0.185101 0.281671 0.157936 0.0701495 0.282253 0.477275 0.157431 0.210057 0.143484 0.0920014 0.0764433 0.186512 0.440032 0.841476 0.0726912 0.0844216 0.0701315 0.201859 0.0660069 0.0889028 0.0529268 0.0482406 0.0466086 0.0421719 0.0408237 0.111274 0.213865 0.1452 0.0440514
threshold=-12.926599999999999 -11.535399999999997 -5.4339099999999991 4.8129750000000003e-06 0.55890500000000032 2.3031400000000004 -6.333524999999999 2.0101650000000002 4.2942200000000004e-05 -2.8691749999999998 0.47541999999999979 6.5238050000000013e-06 0.18330700000000003 0.0017507150000000001 1.6082200000000002 -6.0455299999999985 -7.2928149999999992 0.38220950000000015 -0.10081500000000009 -3.5841599999999997e-06 2.3818600000000001 -0.00010334349999999998 -1.7331449999999997 -0.018049799999999994 -0.32383099999999992 0.00012624750000000005 -0.21786749999999996 -2.0595049999999993 1.4493050000000002e-06 -2.6029249999999995
decision_type=2 2 2 2 2 2 2 2 2 2 2 2 2 2 2 2 2 2 2 2 2 2 2 2 2 2 2 2 2 2
left_child=1 2 -1 19 10 9 7 -7 -9 -6 11 15 -13 14 -14 16 17 18 -3 20 -4 -11 -15 -21 -18 26 27 28 -23 -28
right_child=-2 4 3 -5 5 6 -8 8 -10 21 -12 12 13 22 -16 -17 24 -19 -20 23 -22 25 -24 -25 -26 -27 29 -29 -30 -31
leaf_value=0.00609978538482513 -1.8408424281598565e-06 -0.0010227124674202059 -0.00024347106315293456 0.0042498631645382073 0.0033665857858522943 -0.00041344901772433218 0.0094201872535493412 0.0072813358998791962 0.00052065890329820968 0.0020784622136802524 -0.0032993542938524831 -0.0002466777157270565 0.011921470433187026 0.0018861476439659391 -0.0013651141912057276 -0.00013807121810571762 -0.0020810824752141555 -6.1979374558653771e-05 -0.0074260396184399726 -0.00302959355431085 0.0039812086627352989 0.0075365107982361228 -0.00051758804060083523 -0.00016532070039087263 -0.00013076517180282584 -0.00047980815314528023 -0.0021663976969430224 -0.00021185423545337135 0.0015115562803111971 -2.0127721270966647e-05
leaf_weight=30 214167 32 33 27 32 64 21 20 27 29 23 335 26 28 22 1241 34 21 20 20 20 20 82 49 150 409 25 59 20 547
leaf_count=30 214167 32 33 27 32 64 21 20 27 29 23 335 26 28 22 1241 34 21 20 20 20 20 82 49 150 409 25 59 20 547
internal_value=0 0.000113747 0.00167954 0.000789553 2.84791e-05 0.000319014 0.00250794 0.00120021 0.00339754 6.57816e-05 -0.000155161 -0.000118839 0.000421214 0.00183731 0.00583179 -0.000296574 -0.00106195 -0.00250067 -0.00348553 2.37463e-05 0.00135075 -2.94626e-05 9.4272e-05 -0.000995545 -0.00049115 -8.60643e-05 0.000153938 0.00170164 0.00452403 -0.000113933
internal_weight=0 3466 179 149 3287 1273 132 111 47 1141 2014 1991 493 158 48 1498 257 73 52 122 53 1109 110 69 184 1080 671 99 40 572
internal_count=217633 3466 179 149 3287 1273 132 111 47 1141 2014 1991 493 158 48 1498 257 73 52 122 53 1109 110 69 184 1080 671 99 40 572
shrinkage=0.05


Tree=146
num_leaves=31
num_cat=0
split_feature=5 29 31 11 19 9 43 40 28 35 41 41 28 37 12 25 40 35 26 34 40 26 37 43 13 43 28 40 7 43
split_gain=0.0177572 0.0444475 0.067004 0.282413 0.394624 0.0622766 0.0540094 0.090118 0.0508737 0.0439382 0.0469938 0.522276 0.296537 0.198397 0.291888 0.220412 0.337986 0.138681 0.132996 0.125601 0.117259 0.114964 0.101681 0.0740393 0.067696 0.0761793 0.0709694 0.0673759 0.0652294 0.0625414
threshold=8.8143050000000017e-06 0.34967900000000007 1.8209950000000001 -3.9555399999999991e-05 0.00015321200000000004 -1.8179499999999994e-05 1.46871 -0.17527649999999997 1.9114100000000003 0.098593250000000007 -0.016969000000000036 0.078754999999999922 -0.041208949999999994 5.2154650000000009e-09 9.2030350000000023e-05 0.24019100000000002 -0.040859549999999939 -0.0061398999999999994 0.00018801950000000002 0.29738350000000008 -0.027530000000000051 0.00010974150000000001 -8.7984999999999989e-06 1.1470050000000007 -8.0191649999999986e-06 0.31279500000000043 0.0039622600000000013 -0.027530000000000051 3.2601400000000003e-05 0.35261000000000037
decision_type=2 2 2 2 2 2 2 2 2 2 2 2 2 2 2 2 2 2 2 2 2 2 2 2 2 2 2 2 2 2
left_child=1 2 8 4 -4 6 7 -3 9 10 22 12 -12 17 15 20 -17 19 21 -14 -15 23 -1 24 28 26 27 -26 -19 -18
right_child=-2 5 3 -5 -6 -7 -8 -9 -10 -11 11 -13 13 14 -16 16 29 18 -20 -21 -22 -23 -24 -25 25 -27 -28 -29 -30 -31
leaf_value=-0.0033533072948478586 -3.8480133487203227e-06 -0.00021186484326513576 0.0090164397492987092 2.3215852603377413e-05 0.00067630993037931378 -2.6751746979082262e-05 -0.00039323102135832805 -0.0043150231832584044 0.002350644399727268 -0.00050900925551246128 0.0072019075841775956 -5.1121862934703702e-06 -0.0050349414773518224 -0.0034368589844061288 0.0077509618430419581 0.0084803970135829375 0.0014738827742579905 0.00068400411822559749 0.004719378775865023 0.0003828441777959993 0.00077237546820936424 -0.001945021595766332 -2.3064433943031154e-05 -0.0014900529228422481 0.0039894996547243664 0.004476607224482689 -0.00097912514365502989 0.001288040386210031 -0.0022939888718114657 0.0040220914107824994
leaf_weight=23 202904 23 23 231 37 214 56 32 24 347 21 6254 20 21 22 23 122 112 21 23 78 39 6645 30 27 21 29 159 22 30
leaf_count=23 202904 23 23 231 37 214 56 32 24 347 21 6254 20 21 22 23 122 112 21 23 78 39 6645 30 27 21 29 159 22 30
internal_value=0 5.30095e-05 6.60564e-05 0.00081706 0.00387336 -0.000525229 -0.00148626 -0.00259916 5.05713e-05 4.66532e-05 6.06843e-05 0.000150454 0.00133693 0.00118278 0.00220986 0.00176495 0.00283157 0.000578381 0.000832216 -0.00213706 -0.000120492 0.00064627 -3.45515e-05 0.00089892 0.00109262 0.00160224 0.00132149 0.00168019 0.00019508 0.00197682
internal_weight=0 14729 14404 291 60 325 111 55 14113 14089 13742 7074 820 799 296 274 175 503 460 43 99 439 6668 400 370 236 215 186 134 152
internal_count=217633 14729 14404 291 60 325 111 55 14113 14089 13742 7074 820 799 296 274 175 503 460 43 99 439 6668 400 370 236 215 186 134 152
shrinkage=0.05


Tree=147
num_leaves=31
num_cat=0
split_feature=20 0 17 18 4 0 11 23 17 11 19 25 4 24 4 40 41 41 4 5 2 19 11 17 22 19 19 5 29 20
split_gain=0.0173965 0.42375 0.433807 0.177327 0.0372918 0.0808794 0.0416595 0.196486 0.18994 0.0199046 0.019536 0.0191732 0.098101 0.378282 0.672439 0.465092 0.875797 0.671495 0.60445 0.636994 0.474103 0.501263 0.5496 0.325562 0.286941 0.27089 0.219739 0.198525 0.196925 0.18546
threshold=19.256550000000001 10.006550000000002 1.4266700000000001e-06 -1.4614499999999998e-06 -0.32383099999999992 7.2069900000000011 2.5254500000000004e-05 -9.7498999999999985 6.6559100000000008e-06 1.5647500000000006e-05 0.00011990100000000002 5.8644050000000005 -0.42458499999999993 -0.62980599999999998 -1.6465649999999996 0.80350500000000014 0.56931500000000013 0.12358499999999996 -1.1200049999999997 1.6368250000000004e-05 2.4399850000000005 0.0039594400000000007 8.6507750000000016e-05 -5.3149449999999995e-06 2.9381050000000006 3.0721050000000003e-05 0.00051133100000000018 8.7409800000000018e-06 0.028609250000000006 -6.4328999999999992
decision_type=2 2 2 2 2 2 2 2 2 2 2 2 2 2 2 2 2 2 2 2 2 2 2 2 2 2 2 2 2 2
left_child=11 4 3 -3 5 10 9 8 -8 -6 -2 -1 13 14 27 16 17 20 -19 -20 21 22 23 -16 -18 29 28 -13 -27 -25
right_child=1 2 -4 -5 6 -7 7 -9 -10 -11 -12 12 -14 -15 15 -17 24 18 19 -21 -22 -23 -24 25 -26 26 -28 -29 -30 -31
leaf_value=4.4141081715747905e-06 -0.0018713873616320598 0.0054649153444916018 0.0097852084453084655 -0.00017451604848168286 -0.00011458544978981756 -0.0038100766234856567 0.0069891615170079267 -0.00050060760693707821 0.00026429257843466031 -0.0013465964502352614 -0.0001892402964362162 0.0043983365831372799 -9.7969232028398634e-05 -0.0002163947100637674 0.006371595564633026 -0.0002132829863113211 -7.2598519199646816e-05 0.013966508276228393 0.00035089117445750165 0.011126733253089091 0.009281755553988311 -0.0054049337137257684 0.0084281462490105562 -0.0010487227440039121 0.0061350025323918091 -0.00033743982552550736 0.0014637582788341926 -9.4352076834437786e-05 -0.0073539398889988662 0.0043302585467522555
leaf_weight=192661 20 20 21 46 367 20 21 92 21 36 126 25 18603 3181 32 230 269 28 32 24 26 20 37 22 20 20 38 1496 20 59
leaf_count=192661 20 20 21 46 367 20 21 92 21 36 126 25 18603 3181 32 230 269 28 32 24 26 20 37 22 20 20 38 1496 20 59
internal_value=0 0.000234206 0.00352598 0.0015344 -0.000173168 -0.000828154 2.93041e-05 0.000793035 0.00362673 -0.000224641 -0.000419671 -8.53256e-07 -4.2819e-05 0.000141078 0.000615273 0.00171792 0.00240444 0.00405726 0.00796824 0.00496911 0.00285828 0.00218485 0.00285062 0.00177016 0.000356993 0.000844079 -0.00125904 -2.05078e-05 -0.00384569 0.0028693
internal_weight=0 790 87 66 703 166 537 134 42 403 146 216843 24182 5579 2398 877 647 358 84 56 274 248 228 191 289 159 78 1521 40 81
internal_count=217633 790 87 66 703 166 537 134 42 403 146 216843 24182 5579 2398 877 647 358 84 56 274 248 228 191 289 159 78 1521 40 81
shrinkage=0.05


Tree=148
num_leaves=31
num_cat=0
split_feature=20 43 3 0 34 12 18 14 2 0 11 31 11 19 3 31 0 40 40 34 39 44 2 2 28 40 29 20 0 1
split_gain=0.0171507 0.0866852 0.259942 0.839496 0.782805 0.42215 0.160486 0.247566 0.114108 0.242283 0.0996675 0.0906522 0.256731 0.498489 0.13057 0.0901061 0.118734 0.144778 0.505684 0.309152 0.0874216 0.0736694 0.177207 0.155909 0.192419 0.271275 0.137039 0.0644897 0.0620637 0.0714077
threshold=-8.175164999999998 -0.15760999999999911 -12.203099999999997 -4.3615599999999999 6.2013600000000011 9.2030350000000023e-05 -0.0012949349999999999 0.041697100000000008 3.0333000000000006 -9.1205449999999981 -9.3323749999999985e-05 -1.1821199999999998 5.0670100000000008e-05 0.0017507150000000001 -6.0305299999999997 1.0295050000000001 -4.3615599999999999 -0.19934349999999995 0.10022550000000004 0.4236100000000001 0.069372400000000015 -0.47859499999999983 -3.0487399999999996 2.1067000000000005 0.0077550700000000011 0.056773999999999998 0.010419150000000002 -9.4357099999999985 6.9051650000000011 6.8043050000000012
decision_type=2 2 2 2 2 2 2 2 2 2 2 2 2 2 2 2 2 2 2 2 2 2 2 2 2 2 2 2 2 2
left_child=1 11 3 4 -3 -6 7 -5 21 -10 -8 12 28 -14 15 20 17 -17 19 -19 -13 -4 26 -24 -25 27 -23 -26 29 -1
right_child=-2 2 8 6 5 -7 10 -9 9 -11 -12 14 13 -15 -16 16 -18 18 -20 -21 -22 22 23 24 25 -27 -28 -29 -30 -31
leaf_value=-0.00031738167592238641 -5.1800391518929309e-06 0.014438173148248877 1.8409041325246691e-05 0.0068773199850693349 -0.00081658608736082301 0.0085614745039492846 -0.0033945729091539294 -0.00072893470351118603 0.00069460176348136579 0.0065555384696926932 -8.9500674149429362e-05 -3.7320352089504377e-05 0.0073806890774377326 0.00030227497975374721 0.0039657035615528096 3.8235406313639459e-06 -0.00020189326735628265 -0.0015180533751845361 -0.00060268448668633645 -0.0092784883567329623 0.0030482946956592216 0.00087699227644960685 4.3004250935268357e-05 0.00051894122779726258 0.00034502853941045363 0.0068992057797246766 0.0065361021360149617 0.0031409074498118246 -0.0028064359124073237 0.0018891330229234883
leaf_weight=198 191545 21 9664 20 30 20 27 23 149 20 147 11704 38 72 20 133 1121 21 147 33 23 23 1792 439 55 30 20 33 20 45
leaf_count=198 191545 21 9664 20 30 20 27 23 149 20 147 11704 38 72 20 133 1121 21 147 33 23 23 1792 439 55 30 20 33 20 45
internal_value=0 3.80332e-05 0.000132965 0.00161772 0.00633709 0.00293464 7.35983e-05 0.00280886 9.79866e-05 0.0013882 -0.000602357 -4.94718e-05 0.000719224 0.00274755 -7.119e-05 -7.73148e-05 -0.000448438 -0.00127591 -0.00212271 -0.00626054 -3.12686e-05 7.99004e-05 0.000328334 0.000270107 0.00100075 0.00279324 0.00350914 0.00139348 -0.000129123 9.12322e-05
internal_weight=0 26088 12513 288 71 50 217 43 12225 169 174 13575 373 110 13202 13182 1455 334 201 54 11727 12056 2392 2349 557 118 43 88 263 243
internal_count=217633 26088 12513 288 71 50 217 43 12225 169 174 13575 373 110 13202 13182 1455 334 201 54 11727 12056 2392 2349 557 118 43 88 263 243
shrinkage=0.05


Tree=149
num_leaves=31
num_cat=0
split_feature=20 0 40 13 22 43 2 0 21 4 2 43 24 18 2 40 5 8 2 40 28 32 33 18 12 21 17 11 4 40
split_gain=0.0167482 0.16373 0.254443 0.456994 0.16087 0.0613765 0.245464 0.412794 0.140427 0.200495 0.127594 0.082093 0.0704183 0.207186 0.0745511 0.120295 0.116489 0.0477392 0.0443131 0.0808121 0.138921 0.0388896 0.0664498 0.208754 0.0524347 0.0370819 0.170987 0.0419447 0.0342898 0.0361395
threshold=-12.926599999999999 -11.535399999999997 -0.14969009999999991 1.2159700000000003e-05 2.5680450000000006 0.55890500000000032 2.3031400000000004 -6.333524999999999 2.0101650000000002 0.092842600000000011 -2.8691749999999998 0.47541999999999979 -1.4574199999999997 -0.00032340099999999991 -2.6029249999999995 -0.079468000000000025 1.4620550000000002e-05 -0.00010334349999999998 2.2570350000000006 0.2761725000000001 0.059419700000000013 -10.048129999999999 -0.00090391799999999997 6.9277650000000016e-07 0.00011228600000000002 -13.876599999999998 -8.4992649999999986e-08 -2.0367299999999997e-05 0.61713700000000016 -0.32870999999999989
decision_type=2 2 2 2 2 2 2 2 2 2 2 2 2 2 2 2 2 2 2 2 2 2 2 2 2 2 2 2 2 2
left_child=1 2 -1 4 -4 11 10 8 -8 -10 -7 12 13 -3 15 -14 -17 -12 21 20 -20 24 23 -23 -16 26 -19 28 29 -27
right_child=-2 5 3 -5 -6 6 7 -9 9 -11 17 -13 14 -15 18 16 -18 25 19 -21 -22 22 -24 -25 -26 27 -28 -29 -30 -31
leaf_value=-0.00091485691724721213 -1.7645320659376536e-06 0.0056063563036288892 -0.00025154188634125428 0.0081851224968915864 0.0047358090907271789 0.0031771138150361367 -0.00039831409196011691 0.008770271049191555 0.0065368964398183618 4.067141465687504e-06 0.0019765849587891917 -0.0031129956979977736 -0.0002818089028347013 -0.00029459536534993865 -0.00016145003205367728 -0.0060057018454906276 -0.00091657888059790311 0.004333594147633099 -0.00076223936878334463 -0.00011467172114842041 -0.0056404248764738447 -0.0003945976711363004 -2.7335560358220724e-06 0.0049603119005041663 -0.0030853410984095914 -0.00062444238325808435 -0.00031304989542730758 -5.3300355371956195e-05 2.6475782115777175e-05 -0.0028197687527485747
leaf_weight=65 214167 21 61 31 22 32 64 21 23 24 29 23 98 51 46 22 23 26 54 178 20 52 1375 28 23 38 83 850 46 37
leaf_count=65 214167 21 61 31 22 32 64 21 23 24 29 23 98 51 46 22 23 26 54 178 20 52 1375 28 23 38 83 850 46 37
internal_value=0 0.000109032 0.00158166 0.00300511 0.00107041 2.88372e-05 0.000300598 0.00234189 0.00112571 0.00320098 6.44446e-05 -0.000142936 -0.000108626 0.00142652 -0.000166224 -0.0012645 -0.00340459 -2.5371e-05 -7.77925e-05 -0.000691988 -0.00208067 2.37674e-05 7.87705e-05 0.00147962 -0.00113608 -7.91272e-05 0.000795324 -0.000177289 -0.00104828 -0.00170747
internal_weight=0 3466 179 114 83 3287 1273 132 111 47 1141 2014 1991 72 1919 143 45 1109 1776 252 74 1524 1455 80 69 1080 109 971 121 75
internal_count=217633 3466 179 114 83 3287 1273 132 111 47 1141 2014 1991 72 1919 143 45 1109 1776 252 74 1524 1455 80 69 1080 109 971 121 75
shrinkage=0.05


Tree=150
num_leaves=31
num_cat=0
split_feature=41 21 5 39 35 24 25 43 39 19 40 15 33 13 7 41 41 32 14 39 32 33 40 7 28 40 25 35 30 3
split_gain=0.0165218 0.398089 0.016449 0.0496529 0.0517295 0.0449587 0.259175 0.254289 0.0409659 0.0419591 0.0956003 0.0535516 0.0401984 0.0603325 0.0331834 0.0298783 0.352049 0.569017 0.176425 0.247617 0.216636 0.148053 0.224703 0.0994392 0.0884833 0.0979679 0.122159 0.115579 0.125769 0.0749996
threshold=5.6849350000000003 -3.7984549999999992 8.4557000000000011e-06 2.3303150000000001 0.098593250000000007 0.86341500000000015 7.8655400000000011 4.3741600000000007 0.00228283 0.0029219050000000002 0.38220950000000015 9.2565100000000011e-07 -0.00012302899999999995 3.0213650000000005e-05 2.5944250000000002e-05 0.17390849999999994 -0.016969000000000036 0.56648000000000021 0.00071877950000000007 0.00030061950000000002 -0.26260899999999993 -1.1255399999999999e-05 -0.0054100000000001361 1.3880100000000001e-05 -0.012112599999999999 -0.027530000000000051 0.19840500000000003 0.0026038850000000007 0.00050427050000000008 -12.352299999999998
decision_type=2 2 2 2 2 2 2 2 2 2 2 2 2 2 2 2 2 2 2 2 2 2 2 2 2 2 2 2 2 2
left_child=2 -2 3 4 5 12 7 -7 -6 11 -11 -10 13 -1 -13 16 -14 18 20 21 -18 22 -20 -23 -22 26 -26 28 -28 -25
right_child=1 -3 -4 -5 8 6 -8 -9 9 10 -12 14 15 -15 -16 -17 17 -19 19 -21 24 23 -24 29 25 -27 27 -29 -30 -31
leaf_value=-0.00027250889261561117 0.0055209883214796295 -4.6116375372679688e-07 -4.075299946220576e-06 0.0018868219181328912 -0.0026754651802184527 0.0072398360033292669 -0.00012755276907733384 -9.6219994156854233e-05 -0.00036366998441309222 -0.0038204659319254226 -4.1085621972508142e-05 0.00018968859919616743 -1.1553257921141428e-05 -0.00343072342957953 0.0030037182795967965 -2.6710553361422538e-05 -0.0046303263299965437 0.009050538221543487 0.0073154745424593177 0.0063762451455529256 0.0033946533656070152 0.0041472728990629556 0.00039949884901390126 -4.1135148045488105e-05 -0.0034545588788704104 0.00090248547824546348 -0.00014835627445938522 -0.0032781146619180663 0.0042358725727050716 0.0027037157285667492
leaf_weight=62 34 819 205604 37 20 27 171 21 337 27 44 22 4988 20 20 4585 21 22 24 28 26 20 23 146 31 308 74 21 21 30
leaf_count=62 34 819 205604 37 20 27 171 21 337 27 44 22 4988 20 20 4585 21 22 24 28 26 20 23 146 31 308 74 21 21 30
internal_value=0 0.00021962 -8.64175e-07 5.82106e-05 5.21366e-05 7.47519e-05 0.00078376 0.00403031 -0.000461232 -0.000362821 -0.00147831 -0.00015385 5.98933e-05 -0.00104281 0.0015297 6.86145e-05 0.000144192 0.00112137 0.000895704 0.00192379 0.000340703 0.00141075 0.00393106 0.000806384 0.000557733 0.000395624 -0.000666373 7.87461e-05 0.000820789 0.000426737
internal_weight=0 853 216780 11176 11139 10669 219 48 470 450 71 379 10450 82 42 10368 5783 795 773 271 502 243 47 196 481 455 147 116 95 176
internal_count=217633 853 216780 11176 11139 10669 219 48 470 450 71 379 10450 82 42 10368 5783 795 773 271 502 243 47 196 481 455 147 116 95 176
shrinkage=0.05


Tree=151
num_leaves=31
num_cat=0
split_feature=4 38 13 4 24 40 41 4 41 18 24 24 34 26 41 25 40 40 12 34 17 7 20 23 12 24 12 18 34 17
split_gain=0.0163972 0.0430032 0.0378543 0.0337636 0.939337 0.632359 2.97106 0.916725 0.940892 1.62578 0.750589 0.722588 0.642211 0.438186 0.466703 0.673735 0.449738 0.416275 0.395212 0.419652 0.370089 0.436283 0.394578 0.321888 0.388315 0.301094 0.297538 0.293361 0.404139 0.282181
threshold=4.1822950000000008 -1.0090899999999998 -6.4036749999999993e-06 0.19669200000000001 0.24655200000000002 0.40779500000000007 0.19792950000000006 1.6690850000000002 0.078754999999999922 8.9857900000000023e-06 0.44009350000000008 1.3511250000000004 1.5909750000000003 0.031042450000000003 -0.057539999999999918 2.1089950000000006 0.10022550000000004 -0.12496499999999998 -0.00010982249999999999 0.39206000000000002 2.5810200000000002e-07 3.2601400000000003e-05 3.1622300000000005 -7.5841149999999997 6.4648250000000012e-05 0.53020800000000012 -6.0126349999999991e-05 0.00071169700000000018 2.1557050000000006 3.2923350000000001e-06
decision_type=2 2 2 2 2 2 2 2 2 2 2 2 2 2 2 2 2 2 2 2 2 2 2 2 2 2 2 2 2 2
left_child=3 2 -2 -1 -5 6 7 8 13 -10 -11 -9 18 14 15 16 -6 -14 -12 -20 25 22 -22 26 -25 -17 -23 28 -16 -28
right_child=1 -3 -4 4 5 -7 -8 11 9 10 12 -13 17 -15 27 20 -18 -19 19 -21 21 23 -24 24 -26 -27 29 -29 -30 -31
leaf_value=-7.0242829406988574e-06 -0.0028985632766853086 -3.8701299019312723e-05 -0.00057206051036727133 -7.3406432088723615e-05 0.0059136468230893743 -2.5651023752177826e-05 6.0305650277347621e-05 -0.00074754688831377202 0.018146247045136989 -0.00020978322682231807 0.015575447594746947 0.0074261086930831281 0.0063704517876936335 -0.0044421799557643358 0.0019959060308932411 0.0052948092429051033 -0.00041079784270415853 -0.0028949630287983877 0.013287014933302999 0.0043390950261566197 -0.00034323598516582533 0.0052031421329593285 0.0072026970233613 0.0080168120912276208 -0.0013304276383132674 -0.0033812154154293245 0.0079356937753036622 0.0071538830555465012 -0.0038375340199338333 0.013651775618975653
leaf_weight=154710 20 17546 139 35977 38 3603 3913 274 25 57 20 30 27 22 703 20 108 22 20 38 41 40 30 25 20 20 50 26 31 38
leaf_count=154710 20 17546 139 35977 38 3603 3913 274 25 57 20 30 27 22 703 20 108 22 20 38 41 40 30 25 20 20 50 26 31 38
internal_value=0 -4.61192e-05 -0.000864702 4.08417e-06 4.20909e-05 0.000491744 0.000822389 0.0025511 0.00308424 0.00618252 0.00455701 5.90639e-05 0.00669644 0.00254996 0.00267923 0.00399563 0.00123529 0.00221047 0.00951455 0.00742458 0.00541468 0.00614548 0.00284519 0.00749994 0.00386248 0.000956797 0.00877873 0.00193442 0.00174953 0.010404
internal_weight=0 17705 159 199928 45218 9241 5638 1725 1421 209 184 304 127 1212 1190 430 146 49 78 58 284 244 71 173 45 40 128 760 734 88
internal_count=217633 17705 159 199928 45218 9241 5638 1725 1421 209 184 304 127 1212 1190 430 146 49 78 58 284 244 71 173 45 40 128 760 734 88
shrinkage=0.05


Tree=152
num_leaves=31
num_cat=0
split_feature=40 1 23 25 16 36 19 41 40 43 44 20 44 40 15 14 19 40 19 40 25 30 40 26 20 36 41 40 44 43
split_gain=0.01616 0.216749 0.0905582 0.0196323 0.100427 0.308874 0.4363 0.51743 1.73688 0.693501 1.31923 0.650576 0.679552 1.10823 0.691783 0.604445 0.445717 0.382187 0.504425 0.340837 0.296057 0.24081 0.222584 0.193749 0.180162 0.166505 0.206235 2.07509 0.735875 0.942026
threshold=5.6762150000000009 0.42337950000000008 -19.309399999999997 2.3108700000000004 8.2193200000000006e-07 -0.0016410049999999999 0.0002560000000000001 0.40643499999999982 0.2761725000000001 -3.1159849999999993 1.5644200000000008 14.554100000000002 -1.6040049999999997 0.12375499999999996 7.7511400000000007e-07 0.0018558900000000002 8.167805000000002e-06 -0.12496499999999998 3.0721050000000003e-05 -0.058960000000000005 10.229550000000001 0.012795150000000002 0.02582950000000005 -0.062701649999999984 -2.9298699999999998 0.0034201800000000005 -0.27889399999999981 -0.19934349999999995 -1.2354849999999999 -0.82558500000000012
decision_type=2 2 2 2 2 2 2 2 2 2 2 2 2 2 2 2 2 2 2 2 2 2 2 2 2 2 2 2 2 2
left_child=3 -2 -3 -1 25 -6 7 8 9 -7 11 12 15 14 19 -11 -15 -16 21 20 -14 24 -21 -9 -19 -5 -27 -28 -29 -30
right_child=1 2 -4 4 5 6 -8 23 -10 10 -12 -13 13 16 17 -17 -18 18 -20 22 -22 -23 -24 -25 -26 26 27 28 29 -31
leaf_value=6.8498946952825399e-06 0.0043911709692717217 0.0032314399465659255 -1.9376936801471319e-05 4.1324740849780041e-05 -0.00019797975544589942 -0.0035729075067592931 3.9462373087517798e-05 0.0046489227051179942 -7.3447888849292962e-06 -0.0023014813389585307 0.01401717303651235 0.011099737481429027 0.01212371847193156 0.016715669613331558 0.0066324681347317022 0.0067913349596378601 0.007079394372024885 -0.00070112876298728888 -0.0069217477381850294 0.0019135201452599811 0.0041587438806891443 -0.0032079371438997516 0.0064738880056473954 -9.2661864360672134e-05 0.0039264198370550854 3.8631621450931481e-06 -1.5703809361242278e-05 -0.00084910409030448356 -0.0015383111985112401 -0.0050040873137891587
leaf_weight=171666 30 22 817 14812 5786 32 5692 22 819 89 31 26 28 20 23 23 30 33 24 66 20 26 45 1040 58 7456 7447 659 432 359
leaf_count=171666 30 22 817 14812 5786 32 5692 22 819 89 31 26 28 20 23 23 30 33 24 66 20 26 45 1040 58 7456 7447 659 432 359
internal_value=0 0.000215185 6.5865e-05 -8.6267e-07 -3.02206e-05 8.137e-05 0.000279764 0.000836912 0.00147072 0.00357966 0.00400195 0.00339438 0.00298131 0.00400688 0.00293458 -0.000434207 0.0109339 0.00065618 -0.000318675 0.00528463 0.00880498 0.0010358 0.00376232 5.56305e-06 0.0022483 -8.01097e-05 -0.000190101 -0.00035265 -0.00208316 -0.00311127
internal_weight=0 869 839 216764 45098 13933 8147 2455 1393 574 542 511 485 373 323 112 50 164 141 159 48 117 111 1062 91 31165 16353 8897 1450 791
internal_count=217633 869 839 216764 45098 13933 8147 2455 1393 574 542 511 485 373 323 112 50 164 141 159 48 117 111 1062 91 31165 16353 8897 1450 791
shrinkage=0.05


Tree=153
num_leaves=31
num_cat=0
split_feature=3 43 38 4 15 44 16 39 36 29 24 4 4 43 43 41 40 40 40 38 44 40 30 43 4 30 44 33 40 40
split_gain=0.0160593 0.161616 0.0943811 0.286046 0.0590472 0.0459604 0.102777 0.0274701 0.0267582 0.0238316 0.0175229 0.486844 0.553901 0.504999 0.672035 0.635993 1.12183 0.711208 0.769334 0.907846 0.852114 0.827692 0.581332 0.579159 0.902508 0.564386 0.567187 0.442244 0.415518 0.408946
threshold=-18.627349999999996 1.46871 0.08967940000000002 -0.96247749999999999 -1.9144549999999996e-08 1.381785 -1.8737049999999999e-06 0.00082751800000000007 -0.022925199999999996 -0.0038119849999999995 -0.35379549999999998 -0.20278049999999997 -1.5265699999999998 2.0800550000000007 -2.2545749999999996 -0.71931549999999989 -0.3819765 -0.079468000000000025 0.12375499999999996 0.012463850000000002 1.5644200000000008 0.24966499999999994 0.021592100000000003 0.80790999999999979 -0.75155249999999996 0.0095837200000000022 1.03867 5.8000550000000005e-05 0.02582950000000005 0.056773999999999998
decision_type=2 2 2 2 2 2 2 2 2 2 2 2 2 2 2 2 2 2 2 2 2 2 2 2 2 2 2 2 2 2
left_child=1 2 5 -4 -5 6 -1 8 -7 -8 11 12 -2 14 -14 -16 -17 -18 20 -20 23 27 -23 25 -25 26 29 -21 -27 -19
right_child=10 -3 3 4 -6 7 9 -9 -10 -11 -12 -13 13 -15 15 16 17 18 19 21 -22 22 -24 24 -26 28 -28 -29 -30 -31
leaf_value=0.0040419618683782497 -0.0001117630566206534 0.00385287344006115 0.0064601935608231513 0.0017052449704524839 -0.00180210435178846 0.0017452376509853906 -0.00088682457154068439 -0.00063135025124999014 -1.3184602732064282e-05 0.00079383411856600347 4.3328513786717345e-06 -0.00017338932021591442 -4.7286302321274271e-05 4.6950080282858353e-05 -3.2172358209307346e-05 0.0001528167566333445 0.0066915006328151748 0.00016390543761461869 -0.001087106142864179 0.017648341592687827 0.01200406424002722 0.00055356311318433113 0.01067618546632888 -0.002797408734681085 0.0084561331088714789 -0.00014402158147411819 0.0091902801597660237 0.0077587534813210379 -0.0094010132335824899 0.004500926337839866
leaf_weight=22 4416 29 23 21 28 22 31 187 1303 66 187451 19897 773 1746 384 408 134 308 34 26 20 37 23 25 62 27 22 20 22 66
leaf_count=22 4416 29 23 21 28 22 31 187 1303 66 187451 19897 773 1746 384 408 134 308 34 26 20 37 23 25 62 27 22 20 22 66
internal_value=0 0.000151644 8.86163e-05 0.00186022 -0.000298955 1.04095e-05 0.00095651 -6.40521e-05 1.60118e-05 0.000256716 -1.21652e-06 -3.77801e-05 0.00027769 0.000693408 0.00116548 0.00174487 0.00229786 0.0033574 0.00271178 0.00602217 0.00187218 0.00830251 0.0044339 0.00149129 0.00522236 0.000761841 0.00138821 0.0133485 -0.00430022 0.000929262
internal_weight=0 1732 1703 72 49 1631 119 1512 1325 97 215901 28450 8553 4137 2391 1618 1234 826 692 140 552 106 60 532 87 445 396 46 49 374
internal_count=217633 1732 1703 72 49 1631 119 1512 1325 97 215901 28450 8553 4137 2391 1618 1234 826 692 140 552 106 60 532 87 445 396 46 49 374
shrinkage=0.05


Tree=154
num_leaves=31
num_cat=0
split_feature=41 40 4 26 24 3 11 5 26 30 20 4 38 4 36 41 28 3 43 40 43 20 15 20 8 14 5 3 43 39
split_gain=0.0155786 0.455686 0.31013 0.453459 0.418771 0.459308 0.359797 0.247508 0.210848 0.391643 0.275504 0.171095 0.254266 0.237953 0.512594 0.150575 0.193611 0.519033 0.296607 0.56634 0.829217 0.471458 0.249742 0.24155 0.460279 0.450442 0.388801 0.381414 0.245838 0.270888
threshold=-0.016969000000000036 -0.018010000000000078 -0.26743249999999991 0.00038441350000000002 0.30416600000000005 -9.5166249999999977 1.4690450000000003e-05 1.5270200000000005e-05 0.00052757850000000018 0.011099350000000003 -9.0227099999999982 0.30910700000000008 -0.0013548999999999998 0.79460700000000006 0.00083611900000000008 -0.27889399999999981 -0.18761549999999996 -16.870699999999996 1.06199 0.14973499999999998 -1.6462299999999999 -2.3663549999999995 -2.1145799999999999e-07 -11.463149999999997 -7.1639649999999996e-06 0.0037958600000000003 2.4191200000000003e-05 -6.8885949999999996 -0.026199999999999776 0.0027520250000000004
decision_type=2 2 2 2 2 2 2 2 2 2 2 2 2 2 2 2 2 2 2 2 2 2 2 2 2 2 2 2 2 2
left_child=15 -2 4 11 8 -6 7 -5 10 -10 -3 -4 -13 14 -14 -1 17 -17 19 20 -19 -21 -22 24 25 26 27 -18 29 -26
right_child=1 2 3 6 5 -7 -8 -9 9 -11 -12 12 13 -15 -16 16 23 18 -20 21 22 -23 -24 -25 28 -27 -28 -29 -30 -31
leaf_value=5.8936425999339833e-06 -9.267324614696986e-06 -0.0063731754457694483 0.00079662180479493888 0.0015989725628363278 -0.010654071126676476 -0.00042644996175785431 -0.0063815027426340088 -0.0035537623740709958 -0.00017799040996088969 0.0076577582847043553 -0.00037348296938579794 0.0010921586100879055 -0.0012397914853257439 -0.00016970374938687091 -0.010208601980204028 0.0064626920574699489 0.014401234381366521 0.0004421853051425364 -0.00045313097073501141 -0.0028792659689982733 -0.0051045310047278507 0.0053842998953768989 -0.011167341157248836 -0.0001903831711654465 -0.00049742846598227128 -0.0015092946958854252 0.0013602852014035149 0.0046363206766545781 0.0016737408889336319 -0.0070955784505349591
leaf_weight=95517 106563 20 4026 54 21 23 38 41 52 23 442 202 66 164 21 21 20 39 245 45 29 28 41 9639 70 24 23 20 96 20
leaf_count=95517 106563 20 4026 54 21 23 38 41 52 23 442 202 66 164 21 21 20 39 245 45 29 28 41 9639 70 24 23 20 96 20
internal_value=0 1.30208e-05 0.000470384 0.000607528 -0.000618268 -0.00530781 -0.0022696 -0.000624839 -0.000234022 0.00222497 -0.00063321 0.000692962 -0.000228305 -0.00129099 -0.00340468 -1.37438e-05 -0.000194797 -0.00121151 -0.00158892 -0.00311788 -0.00540043 0.000290321 -0.00865561 -0.000148844 0.00131781 0.00431971 0.00654028 0.00951878 -8.63034e-05 -0.00196368
internal_weight=0 111756 5193 4612 581 44 133 95 537 75 462 4479 453 251 87 105877 10360 448 427 182 109 73 70 9912 273 87 63 40 186 90
internal_count=217633 111756 5193 4612 581 44 133 95 537 75 462 4479 453 251 87 105877 10360 448 427 182 109 73 70 9912 273 87 63 40 186 90
shrinkage=0.05


Tree=155
num_leaves=31
num_cat=0
split_feature=21 3 9 39 4 12 3 10 40 40 40 11 4 28 4 36 4 40 40 18 44 41 3 23 40 21 44 44 39 41
split_gain=0.0158286 0.107431 0.0810801 0.0424585 0.0951668 0.0875247 0.0469564 0.13846 0.0818051 0.542506 0.068914 0.0600087 0.0221076 0.0176583 0.0572877 0.252738 0.595844 1.06369 1.22998 0.514169 0.452986 0.467433 0.792264 1.0476 0.670859 0.587263 0.247777 0.218799 0.304598 0.143946
threshold=18.392150000000004 -4.8298799999999993 6.4682750000000014e-05 0.17438400000000001 -1.3105149999999999 0.00011228600000000002 -5.5710999999999995 3.5838500000000006e-05 -0.17527649999999997 0.14973499999999998 -0.57440449999999987 3.8424550000000001e-05 1.0072750000000001 0.041210350000000007 0.28079350000000008 0.029614900000000003 1.5563800000000001 -0.3562499999999999 0.327845 0.00061356150000000016 2.829940000000001 0.078754999999999922 -9.0194699999999983 -8.9164399999999979 0.10022550000000004 4.904135000000001 0.65993499999999961 -1.1537099999999991 0.0066980350000000006 0.37828249999999997
decision_type=2 2 2 2 2 2 2 2 2 2 2 2 2 2 2 2 2 2 2 2 2 2 2 2 2 2 2 2 2 2
left_child=13 2 3 6 -5 -6 8 -8 10 -10 -2 12 -11 -1 -15 29 17 -17 19 20 21 24 -23 -24 26 -26 27 -19 -29 -16
right_child=1 -3 -4 4 5 -7 7 -9 9 11 -12 -13 -14 14 15 16 -18 18 -20 -21 -22 22 23 -25 25 -27 -28 28 -30 -31
leaf_value=3.7732435853522189e-06 -0.0001217607160492474 0.0034493205156177287 0.0028087658755895166 0.0030094004812246354 -0.00029960295511066514 0.0024061969379242029 0.0042962973138076328 -0.00099724685540422795 -0.007031951676419174 2.2121042299628508e-05 0.0027422526332489014 0.002505308082485995 -0.0016606625850690761 -9.5586202620252366e-05 -0.00072613937839595454 -0.00013288129910056124 -0.0001789552126920231 0.0047337889367633544 -0.00031582186287537248 0.011032750524464063 -0.0027221793413489304 0.015274280567581839 -0.0043503688939381391 0.010422901664860547 0.0026252641294073936 0.013374655835192512 0.0063038773580708293 0.0010192322313930069 -0.0061364650283940135 2.3864933148316427e-05
leaf_weight=196565 242 25 27 34 176 36 21 30 33 89 23 22 25 14924 944 525 1438 23 166 32 21 26 20 30 24 27 22 58 20 1985
leaf_count=196565 242 25 27 34 176 36 21 30 33 89 23 22 25 14924 944 525 1438 23 166 32 21 26 20 30 24 27 22 58 20 1985
internal_value=0 0.000224403 0.00011804 1.86563e-05 0.00055371 0.000159872 -0.000252732 0.00118245 -0.000421382 -0.00128098 0.000126814 0.000114478 -0.00034691 -8.10271e-07 -4.52253e-05 9.49699e-05 0.000471726 0.00141305 0.00314358 0.00503882 0.00433105 0.00492353 0.00819488 0.00451359 0.00349466 0.00831612 0.00149552 0.000448152 -0.000815562 -0.000217857
internal_weight=0 783 758 731 246 212 485 51 434 169 265 136 114 216850 20285 5361 2432 994 469 303 271 250 76 50 174 51 123 101 78 2929
internal_count=217633 783 758 731 246 212 485 51 434 169 265 136 114 216850 20285 5361 2432 994 469 303 271 250 76 50 174 51 123 101 78 2929
shrinkage=0.05


Tree=156
num_leaves=31
num_cat=0
split_feature=21 43 12 7 9 14 8 41 22 13 19 18 40 14 7 7 23 1 38 40 4 33 19 10 6 40 40 34 40 0
split_gain=0.0155467 0.148931 0.303238 0.205416 0.234865 0.142021 0.225523 0.163622 0.930824 0.217148 0.277592 0.171321 0.242012 0.382221 0.148729 0.0957784 0.0942404 0.0766163 0.109384 0.13045 0.0619832 0.378949 0.574515 0.0594053 0.0509956 0.0433679 0.194103 0.186612 0.103937 0.0897434
threshold=-13.388899999999998 0.027469999999999221 -2.6846949999999995e-05 2.7277450000000004e-05 -2.4994749999999995e-06 0.0029601150000000006 6.8346150000000008e-06 0.46135450000000006 -0.85638299999999978 1.1232050000000002e-05 8.8529750000000019e-08 -6.7236599999999979e-05 0.039429999999999972 0.00023452650000000002 4.7250350000000001e-05 3.3297050000000007e-05 -6.3564549999999995 -6.820479999999999 0.033251350000000006 0.1751400000000001 1.1247450000000001 -0.00058211249999999993 0.012037000000000001 2.0608650000000005e-05 1.3087800000000002e-06 0.57364500000000007 -0.19934349999999995 0.4236100000000001 0.20129000000000011 6.3184950000000013
decision_type=2 2 2 2 2 2 2 2 2 2 2 2 2 2 2 2 2 2 2 2 2 2 2 2 2 2 2 2 2 2
left_child=1 17 3 4 -3 6 -5 8 9 11 -11 -8 13 16 -12 -7 -13 18 -1 -20 25 22 -22 -17 -14 26 29 -28 -29 -19
right_child=-2 2 -4 5 -6 15 7 -9 -10 10 14 12 24 -15 -16 23 -18 20 19 -21 21 -23 -24 -25 -26 -27 27 28 -30 -31
leaf_value=-0.00054747136603513797 -1.7080206316990023e-06 0.0085008813658714651 -0.00013739470849925465 0.0065735161658813024 0.001672445968634908 -0.0034786346103911378 -0.0037035863557004795 -8.2950902807281645e-06 0.012028174890327224 -0.0011964432151853545 0.0088148462564938464 -0.0011464119801261135 -0.0027886653870518789 0.0090347057319013404 0.003000889605292204 0.002599937883387611 0.0030711159149247511 -0.00025195815006662887 -0.0061156050612529121 -0.00054250757308355307 0.010565279777140613 -8.8840189297574912e-05 -0.00086151751787507573 -0.00040966043347757632 -3.5996977140832385e-05 -2.1582842262808663e-05 -0.00046050671266317615 -0.0065819092959697768 -0.0023461690090819808 0.0027140614484259069
leaf_weight=223 214135 20 933 20 34 22 23 187 21 20 22 27 20 20 22 20 26 286 21 21 22 329 22 91 106 791 63 28 30 28
leaf_count=223 214135 20 933 20 34 22 23 187 21 20 22 27 20 20 22 20 26 286 21 21 22 329 22 91 106 791 63 28 30 28
internal_value=0 0.000104559 0.000453016 0.00123883 0.0042015 0.000991555 0.00136838 0.00115764 0.00186784 0.0011218 0.00368777 0.000382065 0.000854276 0.00314507 0.00590787 -0.000464739 0.000922564 -0.000200902 -0.000988326 -0.00332906 -7.0403e-05 0.000493979 0.00485188 0.00013261 -0.000472928 -0.000242112 -0.000643119 -0.00234455 -0.00439101 1.25277e-05
internal_weight=0 3498 1634 701 54 647 514 494 307 286 64 222 199 73 44 133 53 1864 265 42 1599 373 44 111 126 1226 435 121 58 314
internal_count=217633 3498 1634 701 54 647 514 494 307 286 64 222 199 73 44 133 53 1864 265 42 1599 373 44 111 126 1226 435 121 58 314
shrinkage=0.05


Tree=157
num_leaves=31
num_cat=0
split_feature=41 21 25 40 40 43 3 44 39 13 7 16 36 16 16 37 7 20 43 6 15 35 16 21 36 16 36 33 17 10
split_gain=0.0149681 0.353339 0.0154515 0.0788994 0.996077 0.521923 0.766138 0.744731 1.21013 0.968825 0.851955 0.765755 1.88042 1.60667 0.721808 0.573687 0.565387 0.54542 0.616077 0.452365 0.444051 0.48981 0.407832 0.389405 0.372358 0.417091 0.566567 0.345267 0.233758 0.233558
threshold=5.6849350000000003 -3.7984549999999992 5.8644050000000005 0.14973499999999998 -0.10081500000000009 1.06199 -10.279999999999999 1.6302050000000003 0.0066980350000000006 1.5374300000000003e-05 5.0402000000000003e-05 1.2322150000000003e-07 0.053416050000000007 -2.5610849999999994e-07 9.9131400000000028e-06 -2.0787049999999996e-06 4.2236550000000012e-05 8.0730100000000018 3.1865250000000005 -8.643949999999999e-07 -1.5418149999999998e-06 0.14260400000000004 -7.7313249999999984e-06 8.6910200000000017 -0.23644799999999996 4.3089250000000013e-06 0.082812500000000011 4.0063000000000006e-05 2.4444200000000004e-06 2.5132750000000004e-05
decision_type=2 2 2 2 2 2 2 2 2 2 2 2 2 2 2 2 2 2 2 2 2 2 2 2 2 2 2 2 2 2
left_child=2 -2 -1 4 -4 7 17 8 11 10 20 12 13 22 15 -13 19 18 29 -11 -10 -22 -6 24 -9 -26 -27 -28 -18 -7
right_child=1 -3 3 -5 5 6 -8 23 9 16 -12 14 -14 -15 -16 -17 28 -19 -20 -21 21 -23 -24 -25 25 26 27 -29 -30 -31
leaf_value=3.9812875715066233e-06 0.005203559348250137 1.6955245873970844e-06 3.2223807690826459e-05 5.9818473716971339e-05 -0.0035587382433004675 0.0088904179222881793 -0.0010345847032535715 0.0065136433518491691 -0.0058123013450075752 -0.0048946695402264599 -0.0019727309987259407 -0.0043599540234516522 -0.014828479277709831 -0.012158306965742398 -0.0069832536243969422 0.003832363371184329 -0.0088628166129417485 0.01005667094886303 -0.0028597063709457872 0.0046350572237067603 -0.017747482077942956 -0.0088386496261659061 0.0032544803961461252 -0.0035416242411456019 -0.0014815803799482071 -0.001981430745570723 0.011330611227701109 0.0026340595288202166 -0.0022964277243970529 0.0016412396915256979
leaf_weight=191925 34 819 12069 11279 30 25 512 25 23 20 30 26 31 27 24 120 33 25 40 33 36 27 82 68 148 33 21 25 23 20
leaf_count=191925 34 819 12069 11279 30 25 512 25 23 20 30 26 31 27 24 120 33 25 40 33 36 27 82 68 148 33 21 25 23 20
internal_value=0 0.000209038 -8.22537e-07 -3.79166e-05 -0.000119115 -0.00133113 -0.000221212 -0.00211122 -0.00320278 -0.00604731 -0.00922774 -0.00132037 -0.00369325 -0.00120985 0.00105251 0.00237346 -0.00266264 0.00356467 0.00165526 0.00103893 -0.0117586 -0.0139294 0.00142951 -0.000183925 0.00072212 8.42873e-05 0.00301781 0.00660422 -0.00616591 0.00566856
internal_weight=0 853 216780 24855 13576 1507 622 885 565 225 116 340 170 139 170 146 109 110 85 53 86 63 112 320 252 227 79 46 56 45
internal_count=217633 853 216780 24855 13576 1507 622 885 565 225 116 340 170 139 170 146 109 110 85 53 86 63 112 320 252 227 79 46 56 45
shrinkage=0.05


Tree=158
num_leaves=31
num_cat=0
split_feature=21 3 9 6 6 1 1 19 17 37 38 36 13 40 40 40 20 8 40 41 20 31 43 20 1 43 12 40 44 20
split_gain=0.0151805 0.0965444 0.0727859 0.0417072 0.0975062 0.0888566 0.0520548 0.108292 0.286148 0.0858383 0.0553726 0.044672 0.0681453 0.0482465 0.142247 0.0435606 0.0197982 0.0168287 0.0365949 0.242177 0.452282 0.911493 0.859307 0.367731 0.453678 0.315657 0.635669 0.51662 0.466516 0.36549
threshold=18.392150000000004 -4.8298799999999993 6.4682750000000014e-05 -4.075034999999999e-06 -3.4358349999999997e-06 7.6571900000000008 4.8656050000000013 8.2724850000000008e-05 1.2108000000000002e-07 1.2277200000000002e-05 0.42223950000000005 1.8680450000000002 7.5148700000000015e-05 -0.32870999999999989 0.14973499999999998 0.80350500000000014 7.745845000000001 -8.7699499999999972e-06 0.22528099999999995 -0.016969000000000036 -1.1107799999999999 -0.014371449999999999 0.027469999999999221 11.827150000000001 7.0050850000000011 1.06199 3.4420950000000005e-05 0.056773999999999998 -0.27579999999999932 0.36276400000000003
decision_type=2 2 2 2 2 2 2 2 2 2 2 2 2 2 2 2 2 2 2 2 2 2 2 2 2 2 2 2 2 2
left_child=17 2 3 5 -5 -2 11 8 10 -9 -8 13 -13 -6 -15 -11 -16 18 19 20 21 22 -1 -21 -25 26 27 -22 29 -28
right_child=1 -3 -4 4 6 -7 7 9 -10 15 -12 12 -14 14 16 -17 -18 -19 -20 23 25 -23 -24 24 -26 -27 28 -29 -30 -31
leaf_value=0.012649037967535802 -0.00021162259308934347 0.0032769130468368532 0.0026683174056449425 0.0031845937112078763 -6.7617692183536711e-05 -0.0038784206678974444 -0.0016046298281501303 0.0018593625335204722 0.0073710592296265531 -0.0031735045896493829 0.0018681681885974893 -0.00016839605110405059 0.0033064383542209513 -0.0040208500147427377 -0.00062898645158846898 -0.00042025204793568334 0.0011669151487738072 9.3113468463842023e-06 3.2018288240766424e-06 -2.7860781398238341e-05 -0.012480669181483488 -7.2602033751645718e-05 0.00046984144519228725 0.00097795277881194834 0.007926308649832443 -0.00033172814722340723 -0.010014083109986546 -0.0021062213001035463 -0.00085404577192274816 -0.0029264091806197982
leaf_weight=28 95 25 27 26 243 20 22 34 20 20 24 43 21 34 57 51 21 142076 51936 19806 24 1166 30 97 31 822 22 24 683 105
leaf_count=28 95 25 27 26 243 20 22 34 20 20 24 43 21 34 57 51 21 142076 51936 19806 24 1166 30 97 31 822 22 24 683 105
internal_value=0 0.00021976 0.000118931 2.47672e-05 0.00018795 -0.000849327 5.58948e-05 0.000791057 0.00237811 -0.00020652 0.000207265 -0.000244136 0.000971784 -0.000463344 -0.00132193 -0.00119582 -0.000145474 -7.93508e-07 -1.99935e-05 -7.2742e-05 -0.000499328 0.000231711 0.00634945 -1.05967e-05 0.00266076 -0.00103194 -0.00170278 -0.00729345 -0.00137148 -0.0041542
internal_weight=0 783 758 731 616 115 590 171 66 105 46 419 64 355 112 71 78 216850 74774 22838 2904 1224 58 19934 128 1680 858 48 810 127
internal_count=217633 783 758 731 616 115 590 171 66 105 46 419 64 355 112 71 78 216850 74774 22838 2904 1224 58 19934 128 1680 858 48 810 127
shrinkage=0.05


Tree=159
num_leaves=31
num_cat=0
split_feature=20 43 3 0 13 18 18 2 0 37 3 31 16 19 3 31 0 40 40 43 39 44 2 2 29 40 40 41 38 21
split_gain=0.0145783 0.0699206 0.223134 0.717151 0.713711 0.142204 0.225454 0.101351 0.219922 0.0799763 0.0768257 0.0742062 0.15698 0.518114 0.111618 0.0729083 0.0919009 0.116383 0.359131 0.223057 0.0748165 0.0636427 0.158049 0.134089 0.123877 0.101115 0.257835 0.0803168 0.0600808 0.0983232
threshold=-8.175164999999998 -0.15760999999999911 -12.203099999999997 -4.3615599999999999 2.1772650000000002e-05 -0.0012949349999999999 -0.0101368 3.0333000000000006 -9.1205449999999981 9.5974100000000018e-07 -16.266399999999997 -1.1821199999999998 7.2294100000000005e-06 0.0017507150000000001 -6.0305299999999997 1.0295050000000001 -4.3615599999999999 -0.27744100000000016 0.10022550000000004 -1.8432249999999992 0.069372400000000015 -0.47859499999999983 -3.0487399999999996 2.1067000000000005 0.010419150000000002 0.24966499999999994 0.039429999999999972 0.14791590000000002 -0.00010994849999999998 6.0533600000000005
decision_type=2 2 2 2 2 2 2 2 2 2 2 2 2 2 2 2 2 2 2 2 2 2 2 2 2 2 2 2 2 2
left_child=1 11 3 4 -3 6 -5 21 9 -9 -7 12 -1 -14 15 20 17 -17 19 -19 -13 -4 24 -24 -23 26 27 28 29 -25
right_child=-2 2 7 5 -6 10 -8 8 -10 -11 -12 14 13 -15 -16 16 -18 18 -20 -21 -22 22 23 25 -26 -27 -28 -29 -30 -31
leaf_value=-2.8705428348127138e-06 -4.7757942258964935e-06 0.010942051692732744 1.3718095525268142e-05 -0.00073257730362693901 0.00091495518249252615 -0.0028693273163419995 0.0065260426915483552 0.00018693369262433944 0.006226979584316724 0.0035850162773567716 -8.7975195523565882e-05 -3.3015582657871124e-05 0.0071563395301281058 -0.00019010358489847729 0.0036692616160144097 6.0922392635337197e-05 -0.00018576536487045206 -0.0026323743382818069 -0.0005311939055368353 -0.008855334056230884 0.0028214918158166414 0.00080318621881103722 3.6179267477060812e-05 0.0012846494565019384 0.0061836523036618019 -0.00013678922506755951 0.0052126597375788085 -0.00064376899874856244 0.00082413195738358688 0.0049658114162202073
leaf_weight=265 191545 35 9664 23 36 30 20 129 20 20 144 11704 36 72 20 127 1121 36 147 24 23 23 1792 60 20 160 39 66 206 26
leaf_count=265 191545 35 9664 23 36 30 20 129 20 20 144 11704 36 72 20 127 1121 36 147 24 23 23 1792 60 20 160 39 66 206 26
internal_value=0 3.50651e-05 0.000120324 0.00149595 0.00585789 6.87711e-05 0.00264353 8.7917e-05 0.00130387 0.000643052 -0.000567519 -4.35241e-05 0.000651957 0.00225871 -6.31737e-05 -6.88367e-05 -0.00040267 -0.00113066 -0.00186173 -0.00512156 -2.74171e-05 7.08719e-05 0.000301781 0.000246791 0.00330573 0.000924381 0.00135206 0.000931487 0.00128754 0.00239756
internal_weight=0 26088 12513 288 71 217 43 12225 169 149 174 13575 373 108 13202 13182 1455 334 207 60 11727 12056 2392 2349 43 557 397 358 292 86
internal_count=217633 26088 12513 288 71 217 43 12225 169 149 174 13575 373 108 13202 13182 1455 334 207 60 11727 12056 2392 2349 43 557 397 358 292 86
shrinkage=0.05


Tree=160
num_leaves=31
num_cat=0
split_feature=3 43 38 5 30 44 16 24 21 40 37 37 32 28 3 34 4 4 36 40 40 43 43 21 3 1 17 20 1 43
split_gain=0.014291 0.147197 0.0805995 0.311877 0.0922387 0.0409989 0.0937692 0.0250797 0.0261592 0.0408074 0.0222829 0.0229129 0.0170043 0.0157448 0.0872733 0.178937 0.0606653 0.2643 0.681031 1.05307 0.937821 0.503276 0.799773 0.496843 0.642988 0.588746 0.447426 0.508908 0.487417 0.477434
threshold=-18.627349999999996 1.46871 0.08967940000000002 1.5128750000000001e-05 0.019658500000000006 1.381785 -1.8737049999999999e-06 0.44009350000000008 -4.1824499999999993 0.57364500000000007 -7.6530749999999989e-07 -1.7368199999999998e-07 1.0150150000000002 0.044227750000000003 -18.305499999999995 2.3658200000000007 0.28079350000000008 1.5563800000000001 0.029614900000000003 -0.3819765 0.327845 -2.8634500000000003 -1.5836399999999993 7.6671550000000011 -10.051449999999997 10.154350000000003 5.1045150000000002e-06 6.7384950000000012 4.8656050000000013 0.68409500000000023
decision_type=2 2 2 2 2 2 2 2 2 2 2 2 2 2 2 2 2 2 2 2 2 2 2 2 2 2 2 2 2 2
left_child=1 2 5 4 -4 6 -1 12 9 -9 -8 -12 -7 -2 15 -15 -16 18 -18 -20 21 -21 -23 26 -25 -26 27 28 -24 -30
right_child=13 -3 3 -5 -6 7 10 8 -10 -11 11 -13 -14 14 16 -17 17 -19 19 20 -22 22 23 24 25 -27 -28 -29 29 -31
leaf_value=0.0038513484622605823 3.1443022494019651e-06 0.0036753176647270551 0.0023429124144604429 0.0070262394222663713 -0.0019855955988532514 -1.3761000906094189e-05 -0.001163449823665856 -0.002926953902782838 -0.00018191255661321873 -0.00017796621784024562 0.0016059148103094605 -0.00014961957395582165 0.0014201378458113011 -9.0104148814319513e-05 -8.9235314346337611e-05 -0.005004406077245626 -0.00035200187373364864 -0.00017447333902054823 -6.2606622806445905e-05 -0.0023064374450452465 0.00017128014194115946 0.014774278604558537 -0.0047448691924930446 0.015453925654292107 0.0023947106676510061 0.011580633925265059 0.0073699168089322413 0.008163342871905668 0.0056784773311976885 -0.0032833104916948209
leaf_weight=22 196089 29 20 20 32 1339 22 27 98 27 34 41 21 59 14515 27 1023 3184 526 23 168 21 36 20 53 26 43 23 42 23
leaf_count=22 196089 29 20 20 32 1339 22 27 98 27 34 41 21 59 14515 27 1023 3184 526 23 168 21 36 20 53 26 43 23 42 23
internal_value=0 0.000143052 8.29014e-05 0.00172006 -0.000320785 1.06297e-05 0.000904206 -5.9698e-05 -0.000668818 -0.00155246 0.000235781 0.000646223 8.38008e-06 -1.14759e-06 -4.36265e-05 -0.00163297 -3.66974e-05 0.000109644 0.000555935 0.00148105 0.00317973 0.00481011 0.00538043 0.00463881 0.0074454 0.00541793 0.00297502 0.00145098 -7.75781e-05 0.00250738
internal_weight=0 1732 1703 72 52 1631 119 1512 152 54 97 75 1360 215901 19812 86 19726 5211 2027 1004 478 310 287 266 99 79 167 124 101 65
internal_count=217633 1732 1703 72 52 1631 119 1512 152 54 97 75 1360 215901 19812 86 19726 5211 2027 1004 478 310 287 266 99 79 167 124 101 65
shrinkage=0.05


Tree=161
num_leaves=31
num_cat=0
split_feature=41 40 16 22 36 29 36 37 15 1 43 43 24 16 40 20 20 40 5 26 32 33 22 25 41 5 35 3 32 3
split_gain=0.014219 0.347454 0.275032 0.402824 0.319536 0.249422 0.191732 0.336302 0.17691 0.172904 0.258436 0.546763 0.227076 0.164995 0.238562 0.164429 0.152242 0.148409 0.42737 0.40662 0.535034 0.653621 0.283125 0.270205 0.421552 0.444407 0.397719 0.63007 0.357736 0.370432
threshold=-0.026150000000000003 -0.018010000000000078 -1.1786699999999996e-06 3.0016000000000003 -0.014259749999999998 -0.10712749999999999 0.0049376950000000006 -6.173039999999999e-07 -1.6963049999999999e-06 11.597950000000003 0.31279500000000043 2.4693750000000008 -0.11047149999999999 -3.1157049999999994e-07 0.016888500000000004 3.3940200000000007 -10.825549999999998 -0.19934349999999995 9.0806150000000018e-06 -0.0011493749999999998 0.56648000000000021 1.0000000180025095e-35 2.9809550000000002 6.6944750000000006 0.09983149999999999 9.7666950000000005e-06 0.098593250000000007 -11.150049999999998 -1.3507849999999997 -13.353949999999999
decision_type=2 2 2 2 2 2 2 2 2 2 2 2 2 2 2 2 2 2 2 2 2 2 2 2 2 2 2 2 2 2
left_child=-1 17 3 6 5 -4 16 -8 -6 -10 12 -12 -11 -7 15 -15 -3 -2 19 -19 22 -22 -21 26 25 -25 28 -28 29 -20
right_child=1 2 4 -5 8 13 7 -9 9 10 11 -13 -14 14 -16 -17 -18 18 23 20 21 -23 -24 24 -26 -27 27 -29 -30 -31
leaf_value=-1.3237331765819782e-05 7.8621120500190082e-06 -0.0040189602804552435 -0.0066372297656595372 -0.0065383099346385844 -0.00079760593745350236 0.002863213352005308 0.00059415977696672352 -0.005891517681093552 0.00071577231077528186 -0.0042684259172528979 -0.010317459444340786 -5.6421376034818789e-05 0.0016529876045773134 0.0006008061525255258 -0.0066519321687519553 -0.0043721499293248849 0.00010542311689968128 -0.0035460565498029377 -0.0096709039015695462 0.0011371493734061607 0.011956786307506264 0.00052331353165209298 -0.0033187961520046599 -0.0093822511511721801 -4.8510723059866519e-05 -0.0019210663070266289 0.0091314274271757437 -0.0010440596339321929 -0.00022617807037837441 -0.0013013416663176405
leaf_weight=104995 98843 23 22 26 218 24 41 39 4587 20 20 37 85 68 20 22 823 47 20 576 25 25 38 21 415 402 29 32 6051 39
leaf_count=104995 98843 23 22 26 218 24 41 39 4587 20 20 37 85 68 20 22 823 47 20 576 25 25 38 21 415 402 29 32 6051 39
internal_value=0 1.23391e-05 0.000380135 -0.000400292 0.00052516 -0.00170303 -0.00022795 -0.00256761 0.000595142 0.000659075 -0.000946305 -0.00365679 0.000525099 -0.00089294 -0.00171246 -0.000614805 -6.70551e-06 -8.62836e-06 -0.000219764 0.000948272 0.0012664 0.00624005 0.000861374 -0.000338251 -0.0011807 -0.00229148 -0.000223849 0.00379347 -0.000263956 -0.00413848
internal_weight=0 112638 6075 952 5123 156 926 80 4967 4749 162 57 105 134 110 90 846 106563 7720 711 664 50 614 7009 838 423 6171 61 6110 59
internal_count=217633 112638 6075 952 5123 156 926 80 4967 4749 162 57 105 134 110 90 846 106563 7720 711 664 50 614 7009 838 423 6171 61 6110 59
shrinkage=0.05


Tree=162
num_leaves=31
num_cat=0
split_feature=20 43 11 18 15 33 24 11 24 40 40 17 16 40 43 24 18 40 2 28 22 13 31 11 40 40 16 9 29 40
split_gain=0.0144526 0.0689667 0.201519 0.252737 0.471303 0.70446 0.654351 0.81161 0.203473 0.30333 0.944504 0.125943 0.117242 0.0725195 0.0582868 0.0558478 0.1773 0.0553874 0.0539435 0.068656 0.0897696 0.038588 0.0355429 0.0309319 0.0372526 0.184838 0.0357118 0.149908 0.0893504 0.199602
threshold=-12.926599999999999 0.43278000000000022 -3.9082349999999992e-06 -1.0730149999999997e-06 2.2869100000000004e-05 1.5735400000000003e-06 -0.55552099999999982 -6.4452949999999984e-05 -0.25330649999999993 -0.12496499999999998 0.20129000000000011 -8.4992649999999986e-08 3.0231500000000004e-06 0.60008550000000016 1.3895649999999999 -1.4574199999999997 -0.00032340099999999991 -0.89138499999999987 -2.6029249999999995 -0.0016623999999999999 -2.8040299999999996 5.2534050000000007e-06 -13.003849999999998 -5.2550399999999997e-05 0.2761725000000001 -0.079468000000000025 2.5770550000000005e-06 -1.5565049999999998e-05 -0.18041899999999997 -0.17527649999999997
decision_type=2 2 2 2 2 2 2 2 2 2 2 2 2 2 2 2 2 2 2 2 2 2 2 2 2 2 2 2 2 2
left_child=1 15 3 4 5 14 7 -7 -5 21 -11 -9 -12 17 -3 16 -1 -6 19 20 -17 -10 -4 24 25 -20 -25 -28 29 -29
right_child=-2 2 22 8 13 6 -8 11 9 10 12 -13 -14 -15 -16 18 -18 -19 23 -21 -22 -23 -24 26 -26 -27 27 28 -30 -31
leaf_value=0.0051449691510892341 -1.6391507864087928e-06 -0.0030259941486292519 -0.0013023762175407684 -0.00068337414387303517 -0.00062350368371880908 0.011786227944772692 0.014497452888317639 0.0037504255636701019 -0.0018754318838653168 0.010357579166972728 -0.00073366936297926226 -0.0011961263587093732 0.0036689183108683208 0.001144390992981027 0.0005081296669231961 -0.0038326371567994726 -0.00031382095752918509 -0.0043446403264533733 -0.00019913415305986048 -5.9322088040570472e-05 -0.00032293528335035912 0.00016389617734079964 -7.3777462069342582e-05 -9.5712401706377398e-05 -4.0890503064995683e-05 -0.0043675616839512566 0.0046939609476976327 0.0057077127213150643 -9.6902855242990172e-05 -0.00095396265223035191
leaf_weight=21 214167 20 64 233 20 25 20 22 34 33 62 31 20 21 28 38 51 20 137 85 35 73 734 1020 240 33 20 22 281 23
leaf_count=21 214167 20 64 233 20 25 20 22 34 33 62 31 20 21 28 38 51 20 137 85 35 73 734 1020 240 33 20 22 281 23
internal_value=0 0.000101284 0.00036272 0.00100767 0.00245609 0.00399823 0.00642892 0.00436007 0.000348713 0.00143194 0.0032147 0.000857159 0.000340133 -0.00123493 -0.000964422 -8.89926e-05 0.00127833 -0.00248407 -0.000139896 -0.00102522 -0.0021499 -0.000484115 -0.000172312 -6.11336e-05 -0.000442011 -0.0010083 5.31855e-05 0.000492133 0.000234352 0.00230286
internal_weight=0 3466 1460 662 207 146 98 78 455 222 115 53 82 61 48 2006 72 40 1934 158 73 107 798 1776 410 170 1366 346 326 45
internal_count=217633 3466 1460 662 207 146 98 78 455 222 115 53 82 61 48 2006 72 40 1934 158 73 107 798 1776 410 170 1366 346 326 45
shrinkage=0.05


Tree=163
num_leaves=31
num_cat=0
split_feature=20 0 44 14 4 0 11 23 17 23 11 22 25 4 38 4 40 41 41 0 23 1 8 18 23 3 30 44 22 5
split_gain=0.0144365 0.356856 0.411317 0.337608 0.0320648 0.0723925 0.0373244 0.169626 0.16374 0.0182309 0.0172829 0.0169371 0.0162669 0.0770068 0.294416 0.515944 0.388003 0.710035 0.535012 0.60726 0.715642 0.343705 0.87448 0.454325 0.379763 0.435119 0.284658 0.580014 0.234808 0.222262
threshold=19.256550000000001 10.006550000000002 -3.5832099999999993 7.3840400000000026e-05 -0.32383099999999992 7.2069900000000011 2.5254500000000004e-05 -9.7498999999999985 6.6559100000000008e-06 -7.9481399999999995 1.5223850000000002e-05 1.1052950000000001 5.8644050000000005 -0.42458499999999993 0.033251350000000006 -1.6465649999999996 0.80350500000000014 0.56931500000000013 0.12358499999999996 -0.86444699999999985 -9.7498999999999985 3.7283150000000007 -3.9172549999999991e-06 -0.00046666149999999995 -10.954249999999998 -12.352299999999998 0.030440600000000005 -0.98309000000000013 2.9381050000000006 8.7409800000000018e-06
decision_type=2 2 2 2 2 2 2 2 2 2 2 2 2 2 2 2 2 2 2 2 2 2 2 2 2 2 2 2 2 2
left_child=12 4 -3 -4 5 11 10 8 -8 -9 -6 -2 -1 14 -14 29 17 18 21 -20 -21 22 -17 -24 25 -23 -25 -28 -19 -16
right_child=1 2 3 -5 6 -7 7 9 -10 -11 -12 -13 13 -15 15 16 -18 28 19 20 -22 24 23 26 -26 -27 27 -29 -30 -31
leaf_value=4.0744770549265046e-06 -0.00014850487281479235 -0.00095635997550354138 0.0009586155135184526 0.0092397127105869007 -0.00010593084976372543 -0.0035889755870448427 0.006504975636267946 0.00013863047672741771 0.00026112767047293135 -0.0012908534222764215 -0.0012134411528444244 -0.0016267583094304429 -0.00019186786657333064 -8.8294290630536312e-05 0.0050895313935706375 0.012276809146771065 -0.00022414970720115174 -0.00011108412983127112 0.0019122931339284955 0.0049547987007018601 0.016821103063800063 0.0013068588774489322 0.0073170436365115974 0.0028038259640054191 0.0031526081748661063 -0.0087770552607253204 0.0027446553608080231 -0.0085810839664191008 0.0053799926685834569 -9.0425286651012581e-05
leaf_weight=192661 123 35 20 32 364 20 21 54 21 38 39 23 3181 18603 21 26 238 267 34 27 24 23 36 76 46 20 26 20 21 1493
leaf_count=192661 123 35 20 32 364 20 21 54 21 38 39 23 3181 18603 21 26 238 267 34 27 24 23 36 76 46 20 26 20 21 1493
internal_value=0 0.000213352 0.00323414 0.00605468 -0.000160487 -0.000767838 2.72602e-05 0.000750163 0.00338305 -0.000451809 -0.000213109 -0.00038138 -7.77282e-07 -3.94319e-05 0.000123498 0.000541839 0.00150164 0.00213746 0.00362425 0.00708828 0.0105389 0.0025457 0.00377957 0.00238129 -5.20646e-06 -0.00338333 0.000924837 -0.00217958 0.000289307 -1.85765e-05
internal_weight=0 790 87 52 703 166 537 134 42 92 403 146 216843 24182 5579 2398 884 646 358 85 51 273 184 158 89 43 122 46 288 1514
internal_count=217633 790 87 52 703 166 537 134 42 92 403 146 216843 24182 5579 2398 884 646 358 85 51 273 184 158 89 43 122 46 288 1514
shrinkage=0.05


Tree=164
num_leaves=31
num_cat=0
split_feature=42 21 21 43 12 41 1 41 22 11 10 16 19 12 41 43 14 41 24 1 28 3 16 26 28 29 9 41 24 31
split_gain=0.0142025 0.579931 0.0148607 0.134001 0.229611 0.167225 0.210666 0.25482 1.32911 0.313886 0.144799 0.293063 0.125388 0.112988 0.106895 0.207571 0.138953 0.101254 0.075242 0.0383124 0.076522 0.0322363 0.0355738 0.168699 0.0686214 0.034588 0.0521701 0.0522786 0.025398 0.0253951
threshold=5.6762150000000009 2.9920850000000008 -13.388899999999998 -0.23716000000000023 -2.6846949999999995e-05 4.4419000000000013 -3.1361349999999999 0.46135450000000006 -0.75575599999999987 -2.7825149999999999e-05 1.8691000000000005e-05 -2.6787349999999996e-08 8.8529750000000019e-08 -7.3957599999999985e-05 -0.15132349999999997 1.3895649999999999 0.00024047200000000001 0.51323350000000023 -0.22123499999999999 -6.5414749999999993 -0.39445199999999997 -6.280479999999999 5.8204250000000011e-06 0.031042450000000003 0.11940450000000001 0.34967900000000007 -1.4103749999999997e-05 -0.57765999999999973 -0.96093699999999993 29.306750000000005
decision_type=2 2 2 2 2 2 2 2 2 2 2 2 2 2 2 2 2 2 2 2 2 2 2 2 2 2 2 2 2 2
left_child=2 -2 3 19 5 6 7 8 9 -5 11 -11 -12 -13 -14 16 -16 -8 -15 20 -1 22 25 24 28 -21 27 -27 -24 -4
right_child=1 -3 29 4 -6 -7 17 -9 -10 10 12 13 14 18 15 -17 -18 -19 -20 21 -22 -23 23 -25 -26 26 -28 -29 -30 -31
leaf_value=-0.0033444415219352009 -4.6700430590593519e-05 0.0069173998852831223 -1.5399081050763919e-06 0.0056974582891497344 -8.8213107935212651e-05 0.0055889500875127857 -0.0046405697269263965 -5.6407187753304905e-05 0.013368036224467993 0.0063627081871800335 -0.002473594729853128 -0.0026054042755276896 -0.00013660249979183562 0.0040082817891908982 0.0073679642025603065 -0.00090194216745364804 0.0016160976169409141 -4.3692334031220531e-05 -3.9918732121198748e-05 -0.00011955034770828795 -0.00047945774252568501 -0.0021033981743130425 -0.0015663636190795167 0.0035377425637970854 0.0024173490917477197 -0.00013789510267088191 -0.00015658147363484566 -0.0032005939067522903 -6.3773907690834199e-05 -0.00031845766052894292
leaf_weight=26 838 31 212646 36 975 20 23 257 24 32 38 20 148 22 21 31 21 25 24 952 225 20 31 37 27 22 86 38 303 634
leaf_count=26 838 31 212646 36 975 20 23 257 24 32 38 20 148 22 21 31 21 25 24 952 225 20 31 37 27 22 86 38 303 634
internal_value=0 0.000201731 -8.08734e-07 0.000101623 0.000416194 0.00107899 0.000954063 0.00118199 0.00194522 0.00124764 0.000798919 0.00243595 0.000179503 0.000532062 0.000635692 0.00220144 0.00449203 -0.00224636 0.00189618 -0.000204047 -0.000776229 -0.000109313 -8.26538e-05 0.000322322 -7.2364e-06 -0.000229448 -0.000946043 -0.0020776 -0.000203236 -2.48198e-06
internal_weight=0 869 216764 3484 1717 742 722 674 417 393 357 98 259 66 221 73 42 48 46 1767 251 1516 1496 398 361 1098 146 60 334 213280
internal_count=217633 869 216764 3484 1717 742 722 674 417 393 357 98 259 66 221 73 42 48 46 1767 251 1516 1496 398 361 1098 146 60 334 213280
shrinkage=0.05


Tree=165
num_leaves=31
num_cat=0
split_feature=20 0 1 18 13 12 0 13 14 43 0 39 23 16 40 40 17 40 1 43 34 0 17 0 36 1 36 26 11 28
split_gain=0.0133717 0.128903 0.239725 0.123053 0.0588901 0.086079 0.051826 0.0453526 0.133346 0.244735 0.078701 0.220308 0.313635 0.0866496 0.0668866 0.274758 0.339639 0.247477 0.251324 0.0899965 0.227761 0.0702449 0.0635209 0.169637 0.278563 0.054958 0.0402595 0.0386879 0.0996656 0.187877
threshold=-12.926599999999999 -11.535399999999997 -5.4339099999999991 4.8129750000000003e-06 -3.1724749999999996e-06 1.7268900000000003e-05 -11.331049999999999 1.1822400000000002e-05 0.0083088400000000014 -6.665729999999999 -8.2050999999999981 0.00044455850000000007 -6.6508199999999995 -2.6787349999999996e-08 -0.30278099999999991 -0.57440449999999987 -2.7285799999999991e-07 0.22528099999999995 3.3893400000000002 0.72566000000000008 1.7130900000000002 -10.077899999999998 -6.530729999999998e-08 -2.2510499999999998 0.14537000000000003 -2.6487599999999998 -0.00056294149999999992 0.011675600000000003 -7.2289149999999995e-05 0.032205550000000006
decision_type=2 2 2 2 2 2 2 2 2 2 2 2 2 2 2 2 2 2 2 2 2 2 2 2 2 2 2 2 2 2
left_child=1 2 -1 4 5 -4 -3 8 10 -10 11 12 -8 -13 15 21 -17 18 19 20 25 -9 23 24 -12 -16 -6 28 29 -24
right_child=-2 6 3 -5 26 -7 7 14 9 -11 22 13 -14 -15 17 16 -18 -19 -20 -21 -22 -23 27 -25 -26 -27 -28 -29 -30 -31
leaf_value=0.0054819434167681421 -1.5766636542617761e-06 -0.0023923906890910406 0.0037426270857304194 0.0036373980043680164 -0.0029566279213759116 -0.00039128367395331972 0.0088427311061241212 0.0025296376403555493 -7.589723648076567e-05 0.0070645820401841787 -0.0002883083184397864 -0.00063839348608031132 -1.214060583151877e-05 0.0024223825517354623 -0.0023564046326403818 0.0088514398748520771 0.00010965414252132177 -9.6439929569604806e-05 -0.0076187155448133124 0.0005240630487807923 -0.0067712866609430091 -0.00011441062148154782 -1.8840499703671683e-05 -0.00023389877795835211 0.0077625952771909175 0.00099331119481939844 -0.00028655699158359007 -0.0006228715813297943 -6.591273887329614e-05 0.0059960634406161263
leaf_weight=30 214167 22 20 27 20 34 20 26 30 20 22 91 20 31 24 20 25 792 20 36 22 742 37 82 21 25 48 261 878 20
leaf_count=30 214167 22 20 27 20 34 20 26 30 20 22 91 20 31 24 20 25 792 20 36 22 742 37 82 21 25 48 261 878 20
internal_value=0 9.74233e-05 0.00140408 0.000583029 -9.29377e-05 0.00113979 2.6267e-05 4.25642e-05 0.000240641 0.00278029 0.000155015 0.00119513 0.0044153 0.000139345 -0.000132754 0.000197599 0.00399489 -0.000425003 -0.00247399 -0.00151236 -0.00254492 -2.48986e-05 2.74605e-05 0.00109994 0.00364353 -0.000647366 -0.00107187 -8.46293e-05 6.5618e-05 0.00209165
internal_weight=0 3466 179 149 122 54 3287 3265 1533 50 1483 162 40 122 1732 813 45 919 127 107 71 768 1321 125 43 49 68 1196 935 57
internal_count=217633 3466 179 149 122 54 3287 3265 1533 50 1483 162 40 122 1732 813 45 919 127 107 71 768 1321 125 43 49 68 1196 935 57
shrinkage=0.05


Tree=166
num_leaves=31
num_cat=0
split_feature=41 21 23 43 20 9 44 5 21 21 1 23 21 2 6 3 29 23 0 20 11 21 21 21 40 40 0 18 20 6
split_gain=0.0129572 0.306066 0.0140107 0.0754334 0.226779 0.561665 0.920774 0.289697 0.217855 0.13175 0.498151 0.219642 0.107016 0.249939 0.119442 0.10105 0.0880847 0.292139 0.149573 0.101861 0.212163 0.0803408 0.108719 0.0914919 0.0920019 0.578081 0.589238 0.533566 0.571887 0.256893
threshold=5.6849350000000003 -3.7984549999999992 -13.237099999999998 2.2194399999999996 -6.2436999999999996 -2.8596049999999995e-05 -0.8551649999999994 1.6461450000000005e-05 2.2931300000000006 -7.0365699999999984 -4.4631249999999989 -14.248599999999998 -1.9516699999999998 -1.3472649999999997 6.0096700000000009e-07 -18.305499999999995 0.14443800000000004 -16.647599999999994 -4.5031199999999991 -1.1107799999999999 -4.5422699999999995e-05 12.832950000000002 9.8452300000000026 8.1649450000000012 0.12375499999999996 0.056773999999999998 3.5805150000000006 -7.8593299999999982e-06 -1.6961599999999997 -2.7591299999999996e-07
decision_type=2 2 2 2 2 2 2 2 2 2 2 2 2 2 2 2 2 2 2 2 2 2 2 2 2 2 2 2 2 2
left_child=2 -2 3 4 5 6 7 -1 -8 10 11 -6 13 -7 -15 -5 21 -18 -19 -20 -21 22 23 24 25 -11 27 29 -29 -27
right_child=1 -3 -4 15 9 12 8 -9 -10 16 -12 -13 -14 14 -16 -17 17 18 19 20 -22 -23 -24 -25 -26 26 -28 28 -30 -31
leaf_value=0.014484874464978932 0.0048429155393558392 1.5152969701533387e-06 -7.7344275030732645e-06 0.0027612898666341083 0.0098403049307125914 0.0062559700670333221 -0.0017944543771016852 0.0062568097420887137 0.0046525934629607947 0.00015521993155585416 2.2096382497905348e-05 0.002927090345743906 -0.00025821253227799649 -0.0014888622659072566 0.0027039698274416756 -6.6179313460547223e-06 -0.0055703056731325543 -0.0039827486091477717 -0.00065779709432558261 0.005306704938378131 -0.00026181339277451344 -0.0027912003189461149 0.0030144062331032731 -0.0023864016736715224 -0.00010512091835731906 -0.0023491220900905322 -0.001766678003089813 0.0031903962488286199 0.014436507307422851 0.0054805732416835706
leaf_weight=20 34 819 166678 33 20 23 38 23 20 3962 162 27 245 41 29 42008 29 24 131 26 50 24 32 37 2974 20 36 20 26 22
leaf_count=20 34 819 166678 33 20 23 38 23 20 3962 162 27 245 41 29 42008 29 24 131 26 50 24 32 37 2974 20 36 20 26 22
internal_value=0 0.00019449 -7.65293e-07 2.24194e-05 0.000162529 0.00126757 0.00453927 0.0100838 0.000428666 9.8882e-05 0.00133692 0.00586888 0.000289932 0.00173397 0.000248168 -4.44527e-06 6.3977e-05 -0.000840048 -0.000246207 0.000187016 0.00164321 9.68368e-05 0.00010656 9.34482e-05 0.000106445 0.000260433 0.00362215 0.00582667 0.00954689 0.00175215
internal_weight=0 853 216780 50102 8061 439 101 43 58 7622 209 47 338 93 70 42041 7413 260 231 207 76 7153 7129 7097 7060 4086 124 88 46 42
internal_count=217633 853 216780 50102 8061 439 101 43 58 7622 209 47 338 93 70 42041 7413 260 231 207 76 7153 7129 7097 7060 4086 124 88 46 42
shrinkage=0.05


Tree=167
num_leaves=31
num_cat=0
split_feature=20 0 39 19 19 24 15 9 11 0 23 30 40 19 25 4 24 4 40 41 41 4 5 2 19 11 15 18 15 11
split_gain=0.0127489 0.31855 0.387308 0.172022 0.231235 0.0299997 0.145034 0.244966 0.0562484 0.0712336 0.0233788 0.0196375 0.0195716 0.0175226 0.0153487 0.0678989 0.263473 0.484912 0.344384 0.648114 0.495459 0.524942 0.526884 0.354463 0.39957 0.455803 0.249248 0.403945 0.383069 0.244217
threshold=19.256550000000001 10.006550000000002 0.034433300000000007 0.00015321200000000004 8.0243550000000009e-08 1.1195950000000001 1.1195050000000002e-06 2.1412350000000005e-05 2.9798800000000003e-05 7.4151700000000007 -14.758849999999999 0.087932350000000006 -0.57440449999999987 8.793135000000002e-05 5.8644050000000005 -0.42458499999999993 -0.62980599999999998 -1.6465649999999996 0.80350500000000014 0.56931500000000013 0.12358499999999996 -1.1200049999999997 1.6368250000000004e-05 2.4399850000000005 0.0039594400000000007 8.6507750000000016e-05 5.1880700000000008e-06 -0.00041911749999999995 2.6299250000000005e-06 5.0670100000000008e-05
decision_type=2 2 2 2 2 2 2 2 2 2 2 2 2 2 2 2 2 2 2 2 2 2 2 2 2 2 2 2 2 2
left_child=14 5 -3 4 -4 8 11 -8 10 13 -2 12 -7 -10 -1 16 17 -16 19 20 23 -22 -23 24 25 26 28 -28 29 -19
right_child=1 2 3 -5 -6 6 7 -9 9 -11 -12 -13 -14 -15 15 -17 -18 18 -20 -21 21 22 -24 -25 -26 -27 27 -29 -30 -31
leaf_value=3.9823927356812819e-06 0.0014063840686083916 0.0091606197203509526 -0.00082835092322230118 -0.0023915710793517065 0.0063560055834386738 -8.4857011374662691e-05 -0.00013803176124758251 0.0066331761457893825 -0.0017835005963906252 -0.0035281658912060306 -0.0001476269767231965 -2.9856492422849817e-05 -0.0020618023439319881 -0.00029162636166330669 -2.9438474192899111e-05 -8.4160115326661639e-05 -0.00018362017070541701 0.0024919917971334038 -0.00021498609092098468 0.00027625646954538283 0.012408718972333841 -0.00017622090672375634 0.0096241187090830259 0.0079836807733115103 -0.0049290953570744027 0.0075209621294414185 0.0091569768885771449 -0.0001158127277765585 -0.0059955334381083959 -0.0033164236990904268
leaf_weight=192661 26 20 21 22 24 21 34 22 26 27 350 85 31 81 1521 18603 3181 102 230 289 28 32 24 26 20 37 24 23 20 22
leaf_count=192661 26 20 21 22 24 21 34 22 26 27 350 85 31 81 1521 18603 3181 102 230 289 28 32 24 26 20 37 24 23 20 22
internal_value=0 0.000200495 0.00305456 0.00123185 0.00300331 -0.000152711 0.000378244 0.00252209 -0.000353641 -0.00123323 -4.01688e-05 -0.000498071 -0.00126342 -0.000654138 -7.30441e-07 -3.82782e-05 0.000114714 0.00051046 0.00144682 0.00203757 0.00345941 0.00681886 0.00402392 0.0024295 0.00184721 0.00244163 0.00145767 0.00461923 0.000425772 0.00146147
internal_weight=0 790 87 67 45 703 193 56 510 134 376 137 52 107 216843 24182 5579 2398 877 647 358 84 56 274 248 228 191 47 144 124
internal_count=217633 790 87 67 45 703 193 56 510 134 376 137 52 107 216843 24182 5579 2398 877 647 358 84 56 274 248 228 191 47 144 124
shrinkage=0.05


Tree=168
num_leaves=31
num_cat=0
split_feature=21 43 43 19 12 13 19 8 11 3 10 15 22 19 22 5 17 15 16 43 12 12 3 16 23 38 16 40 21 43
split_gain=0.0126293 0.0799469 0.207958 0.385785 0.173957 0.344818 0.292866 0.0860195 0.127293 0.133259 0.0814445 0.0786081 0.296263 0.588009 0.11025 0.0499944 0.0418011 0.12457 0.0415896 0.0774196 0.0359755 0.0375795 0.143357 0.0337925 0.0279489 0.0188331 0.0177108 0.0447976 0.0170149 0.0458684
threshold=14.999250000000002 0.51814999999999956 0.93421999999999994 7.799435000000001e-05 0.00010937550000000001 3.4207850000000005e-05 0.00022592900000000001 -8.4826099999999981e-06 2.4577100000000002e-05 -9.1449549999999977 1.3179250000000001e-05 2.8964050000000007e-06 0.11295750000000002 0.0082071400000000017 -1.6408499999999997 1.4537250000000002e-05 -1.7488149999999997e-06 -5.012554999999999e-05 2.5770550000000005e-06 -1.5196849999999988 7.8742800000000015e-05 4.1121850000000007e-05 -5.4696349999999994 -5.3401899999999988e-07 -10.421199999999997 -0.16268899999999997 3.8630400000000007e-07 -0.49100999999999978 11.074800000000002 0.85052500000000031
decision_type=2 2 2 2 2 2 2 2 2 2 2 2 2 2 2 2 2 2 2 2 2 2 2 2 2 2 2 2 2 2
left_child=28 7 3 -3 20 6 -6 8 10 -10 -2 14 13 -13 -9 -7 17 -16 -12 -20 21 26 23 -23 -18 -17 -4 -28 -1 -30
right_child=1 2 4 -5 5 15 -8 11 9 -11 18 12 -14 -15 16 25 24 -19 19 -21 -22 22 -24 -25 -26 -27 27 -29 29 -31
leaf_value=1.7765158155585282e-06 -0.0031172970572737068 0.0076484754326104718 5.9568672289813453e-07 -0.00013044868275166076 0.0099733107442807542 0.0017183957126690075 0.0017809267166512656 -0.0038406697812024509 -0.0012938941360764811 -0.0061349344980997219 -0.00044199691918649369 0.010659663930294171 -0.00027878572519038396 -0.00040838957585427648 -0.00045309558204164024 -0.0024282203911570833 -0.0020625903221662156 0.0044004158120151257 -0.00029037964884537359 0.0036752047065238009 -0.0016093318914499834 0.0014980198433767102 0.0040109866199566531 -0.00091404203668509648 -0.0001362983057626666 -0.00025836682514636779 -0.00023945775542198961 -0.0028725089038289298 -0.00013100718420194313 0.00015775210089198188
leaf_weight=207675 23 28 337 37 20 20 24 20 44 21 128 21 120 28 39 20 20 20 32 20 36 20 27 53 322 20 84 20 6618 1736
leaf_count=207675 23 28 337 37 20 20 24 20 44 21 128 21 120 28 39 20 20 20 32 20 36 20 27 53 322 20 84 20 6618 1736
internal_value=0 0.000139782 0.000518349 0.00322047 0.000260437 0.00214274 0.00550474 -0.000189369 -0.000932188 -0.00285792 -0.000315574 0.000148048 0.00105896 0.00433506 -0.000217614 -0.000322731 -3.69134e-05 0.00119216 4.24241e-05 0.00123485 -7.88337e-05 2.3011e-05 0.000898128 -0.000253203 -0.000248947 -0.00134329 -0.000175428 -0.000745814 -1.03787e-06 -7.10017e-05
internal_weight=0 1604 746 65 681 104 44 858 268 65 203 590 169 49 421 60 401 59 180 52 577 541 100 73 342 40 441 104 216029 8354
internal_count=217633 1604 746 65 681 104 44 858 268 65 203 590 169 49 421 60 401 59 180 52 577 541 100 73 342 40 441 104 216029 8354
shrinkage=0.05


Tree=169
num_leaves=31
num_cat=0
split_feature=44 44 14 40 40 40 30 40 23 40 0 0 29 32 37 43 26 28 43 3 20 9 40 22 8 10 15 43 14 3
split_gain=0.0128751 0.229837 0.259993 0.21111 0.371191 1.2114 0.659135 0.309816 0.590329 0.234516 1.3207 0.81841 0.610163 0.444398 0.432611 0.320332 0.207159 0.19741 0.174375 0.163353 0.141798 0.391693 0.395176 0.709191 0.381327 0.280643 0.285439 0.239945 0.0925237 0.136349
threshold=-0.20255000000000042 0.086360000000000006 0.00083188600000000011 -0.17527649999999997 0.14973499999999998 0.077348000000000056 0.0050916450000000005 0.039429999999999972 -6.9476399999999989 -0.040859549999999939 -3.1104599999999993 6.3956300000000006 0.010037950000000002 0.25355600000000006 -1.3027999999999998e-08 0.078545000000000101 5.8961950000000006e-05 0.051198250000000008 0.078545000000000101 -5.8879799999999989 14.554100000000002 3.5461000000000012e-05 0.327845 -0.30508349999999995 9.675745000000001e-06 5.1039400000000005e-05 1.0316400000000001e-07 1.5525100000000001 0.00019198350000000004 -6.0871149999999989
decision_type=2 2 2 2 2 2 2 2 2 2 2 2 2 2 2 2 2 2 2 2 2 2 2 2 2 2 2 2 2 2
left_child=20 2 3 -2 5 6 7 9 18 10 12 16 -5 17 -13 -15 -12 19 -9 -11 -1 -22 23 -23 25 27 -27 -25 -3 -30
right_child=1 28 -4 4 -6 -7 -8 8 -10 13 11 14 -14 15 -16 -17 -18 -19 -20 -21 21 22 -24 24 -26 26 -28 -29 29 -31
leaf_value=-1.5696419652656378e-05 -0.00011022404222693966 -0.00022028191828962643 -0.00012523079462478667 -0.010521549523054135 -0.0001117895241906545 0.010024395199596053 -0.008247926130170528 0.0090214241499779746 -0.0032335692573161354 0.00076306094700569487 0.015106447730213406 0.0070056825706904585 0.0016812687600031497 0.00015945516017382036 -0.0025209933125342316 -0.008583699003991736 0.007996126721125275 -0.0041901281909667888 0.0035087280020189397 0.0052976569090969865 6.3493882978293629e-06 0.010392552999509199 -0.00017201442830184056 0.010905970732814499 -0.00078331790289005521 -0.0017580763511692308 0.0060627584789472166 0.0036561876712366938 8.2578093103338905e-07 0.0035545978225955985
leaf_weight=124551 1281 4977 2908 21 1251 36 20 32 21 2847 20 22 20 20 26 22 21 20 26 20 931 31 122 21 66 28 20 25 78200 27
leaf_count=124551 1281 4977 2908 21 1251 36 20 32 21 2847 20 22 20 20 26 22 21 20 26 20 931 31 122 21 66 28 20 25 78200 27
internal_value=0 1.42332e-05 0.00025978 0.000455312 0.000618293 0.000904245 0.000800279 0.000857948 0.00394946 0.000778108 0.00285615 0.00627671 -0.00456896 0.000685877 0.0018454 -0.00442029 0.0114646 0.000760161 0.00655022 0.000794694 -1.03911e-05 0.000520784 0.00205094 0.00347083 0.00212975 0.0041751 0.0015006 0.00696587 -1.1247e-05 2.05236e-06
internal_weight=0 91838 8634 5726 4445 3194 3158 3138 79 3059 130 89 41 2929 48 42 41 2887 58 2867 125795 1244 313 191 160 94 48 46 83204 78227
internal_count=217633 91838 8634 5726 4445 3194 3158 3138 79 3059 130 89 41 2929 48 42 41 2887 58 2867 125795 1244 313 191 160 94 48 46 83204 78227
shrinkage=0.05


Tree=170
num_leaves=31
num_cat=0
split_feature=40 21 26 31 0 3 11 17 17 7 5 30 3 2 2 4 2 11 43 16 37 14 19 3 32 7 14 43 0 1
split_gain=0.0127335 0.518538 0.030152 0.0133405 0.0767841 0.116344 0.0902391 0.246371 0.342805 0.302104 0.195046 0.111944 0.108533 0.0878896 0.0640469 0.107027 0.0404755 0.0367824 0.0362462 0.051441 0.0235192 0.124586 0.16914 0.0892901 0.184276 0.174884 0.050642 0.0776742 0.11123 0.0497287
threshold=5.6762150000000009 4.4724750000000002 -0.0037174099999999996 11.617550000000001 -7.6459599999999996 -8.5493049999999986 -0.00010305049999999998 0.00013401250000000001 4.7046700000000012e-05 3.8396450000000007e-05 1.3551850000000001e-05 0.064526950000000013 -13.353949999999999 2.1574400000000007 2.2570350000000006 0.115275 -2.6812799999999997 -6.7024799999999989e-05 1.9461850000000005 2.3057600000000002e-06 -2.7510949999999998e-05 0.0072893450000000009 0.00036703250000000005 -11.746199999999998 -10.048129999999999 3.6576900000000006e-05 0.0023552050000000004 4.2289650000000005 2.9488950000000007 3.7283150000000007
decision_type=2 2 2 2 2 2 2 2 2 2 2 2 2 2 2 2 2 2 2 2 2 2 2 2 2 2 2 2 2 2
left_child=3 2 -2 20 5 -5 7 8 9 10 -6 -11 -13 -9 16 -16 -8 -18 -7 -20 21 26 -23 24 -24 -26 -1 28 -28 -27
right_child=1 -3 -4 4 6 18 14 13 -10 11 -12 12 -14 -15 15 -17 17 -19 19 -21 -22 22 23 -25 25 29 27 -29 -30 -31
leaf_value=9.6113923165954589e-05 0.0018745764645808822 0.0081487474683672196 -4.390117952434475e-05 -0.0039799193996909064 0.0011193607842142229 0.0011924811722845055 0.0021364264818475929 -0.00031890472606324626 0.0077343734981365174 0.0025990505659830802 0.0081023011088836947 -0.0042046620673500002 -9.5786959565076466e-05 -0.0046920177264837548 0.000512798210256733 -0.0045979430813098418 -0.0018310634979336042 -8.3711808294825181e-05 -0.00043195146191096897 -0.0025645368782159709 -9.2849480358163781e-07 0.0051419281216415896 0.0060300125277579011 -6.0025595957012155e-05 0.0038331261664456121 0.00028576950702699836 -0.00060742963249586475 0.00036636193897440815 -0.0045033261243328784 -0.0027106938867655118
leaf_weight=756 21 20 828 28 20 26 20 27 22 21 20 25 45 20 20 21 31 1058 168 34 213965 24 21 148 33 45 53 65 28 20
leaf_count=756 21 20 828 28 20 26 20 27 22 21 20 25 45 20 20 21 31 1058 168 34 213965 24 21 148 33 45 53 65 28 20
internal_value=0 0.000191014 3.55233e-06 -7.65768e-07 -0.000144337 -0.000938263 6.21437e-06 0.000986459 0.0019591 0.000989209 0.00461083 -0.000602713 -0.00156324 -0.0021798 -0.000164263 -0.0021049 -9.25172e-05 -0.000133453 -0.000564726 -0.000790901 3.05892e-07 0.000221694 0.00112128 0.00075987 0.00177957 0.000868764 -6.85269e-05 -0.000921051 -0.00195416 -0.000636219
internal_weight=0 869 849 216764 1606 256 1350 200 153 131 40 91 70 47 1150 41 1109 1089 228 202 215158 1193 291 267 119 98 902 146 81 65
internal_count=217633 869 849 216764 1606 256 1350 200 153 131 40 91 70 47 1150 41 1109 1089 228 202 215158 1193 291 267 119 98 902 146 81 65
shrinkage=0.05


Tree=171
num_leaves=31
num_cat=0
split_feature=20 43 11 7 40 28 0 28 13 40 40 21 2 0 13 25 0 15 9 23 14 31 5 10 44 11 19 13 11 29
split_gain=0.012463 0.0576597 0.136637 0.235561 0.199037 0.380677 0.527191 0.198997 0.189251 0.368641 0.189995 0.145766 0.12945 0.42019 0.085999 0.0771752 0.0671162 0.146999 0.0768954 0.100202 0.134935 0.0731702 0.148421 0.285871 0.341519 0.0809001 0.173737 0.0549082 0.190708 0.12757
threshold=-8.175164999999998 -0.026199999999999776 -1.6735099999999998e-05 3.6985700000000007e-05 0.77415 -0.0041669849999999989 -6.2295349999999994 -0.015011549999999997 4.282900000000001e-06 0.02582950000000005 0.1751400000000001 -3.6047649999999996 3.0333000000000006 -8.9809199999999993 -1.0115749999999997e-05 2.1628300000000005 -11.331049999999999 -2.1432099999999998e-08 -3.3572249999999994e-05 -8.9454249999999984 0.00049938750000000007 -0.24545849999999997 1.1571150000000002e-05 2.0063250000000001e-05 5.2253350000000003 5.0670100000000008e-05 0.0017507150000000001 2.1772650000000002e-05 -0.00027218349999999996 0.70424300000000006
decision_type=2 2 2 2 2 2 2 2 2 2 2 2 2 2 2 2 2 2 2 2 2 2 2 2 2 2 2 2 2 2
left_child=1 16 3 4 5 6 7 -3 9 14 -11 -10 27 -14 15 -7 17 -1 19 20 -18 22 -20 24 -24 -25 -27 28 -5 -30
right_child=-2 2 -4 12 -6 8 -8 -9 11 10 -12 -13 13 -15 -16 -17 18 -19 21 -21 -22 -23 23 25 -26 26 -28 -29 29 -31
leaf_value=0.0051328713290422455 -4.4157454770217074e-06 0.00056072837739975514 1.0428258545279101e-05 0.0048401731311257567 -0.00035013941030271874 0.0010659710918210321 0.010847032139310615 0.0061368627856002913 0.0033509381480689628 0.0099845274002291276 0.003092584892001469 -0.00041064332519284274 0.00048352421149591501 0.0084095941251143818 0.0027071715465613773 -0.0027571832933807111 -0.0051195026007137918 -9.572538863100884e-05 -0.00065257609534676183 -0.00019659993998208345 -0.00091126175639102448 -1.2960314799632354e-05 0.0075792153984158561 -0.00039982159371639025 -0.0006112704022962134 0.0051604754384607082 0.00014750755689679605 -0.00014258704565038482 0.00038003223978769326 -0.0015186263360747515
leaf_weight=20 191545 48 8788 23 138 33 25 24 30 20 20 182 102 20 35 22 21 41 132 2195 205 11201 35 107 20 25 56 1138 1287 95
leaf_count=20 191545 48 8788 23 138 33 25 24 30 20 20 182 102 20 35 22 21 41 132 2195 205 11201 35 107 20 25 56 1138 1287 95
internal_value=0 3.24216e-05 0.000112777 0.000390211 0.00130617 0.00182683 0.0045915 0.00241944 0.0010427 0.00254471 0.00653856 0.000121656 0.000191896 0.00178288 0.000769667 -0.000463291 -3.63418e-05 0.00161857 -4.3554e-05 -0.000299816 -0.00130229 1.00406e-05 0.000697063 0.0014302 0.00460086 0.000502614 0.00169472 0.000115569 0.000324666 0.000249517
internal_weight=0 26088 12030 3242 577 439 97 72 342 130 40 212 2665 122 90 55 14058 61 13997 2421 226 11576 375 243 55 188 81 2543 1405 1382
internal_count=217633 26088 12030 3242 577 439 97 72 342 130 40 212 2665 122 90 55 14058 61 13997 2421 226 11576 375 243 55 188 81 2543 1405 1382
shrinkage=0.05


Tree=172
num_leaves=31
num_cat=0
split_feature=36 16 10 16 41 41 5 14 34 30 43 15 21 3 3 17 44 41 41 43 20 3 0 34 44 21 41 3 17 32
split_gain=0.0124865 0.221661 0.217991 0.26245 0.369202 0.942599 0.571734 0.467192 0.462826 0.31545 0.449653 0.252028 0.234394 0.203591 0.128925 0.127667 0.118234 0.203451 1.93112 1.17394 0.481212 0.542279 0.222287 0.151705 0.105455 0.097486 0.0826133 0.0813646 0.0781857 0.141226
threshold=0.12161000000000001 2.5770550000000005e-06 3.1555000000000012e-05 7.6833350000000012e-05 0.85385900000000003 -0.2029299999999998 2.2148600000000003e-05 0.0086891900000000011 2.9757900000000004 0.030440600000000005 1.3507450000000001 -3.7519499999999994e-07 -6.488389999999999 -18.627349999999996 -8.2474849999999993 -5.3149449999999995e-06 -1.1956799999999992 -0.2029299999999998 0.17390849999999994 -0.99152500000000054 -6.719924999999999 -8.3242249999999967 -3.6002049999999994 0.68717050000000013 1.8864399999999997 -19.754149999999996 -0.2272394999999999 -17.729749999999996 3.6875050000000006e-06 -2.4309499999999997
decision_type=2 2 2 2 2 2 2 2 2 2 2 2 2 2 2 2 2 2 2 2 2 2 2 2 2 2 2 2 2 2
left_child=-1 16 3 4 5 15 7 9 -9 11 -11 14 -13 -5 -7 -3 -2 26 19 22 -21 -22 -19 -23 -24 -15 -18 -4 -17 -30
right_child=1 2 27 13 -6 6 -8 8 -10 10 -12 12 -14 25 -16 28 17 18 -20 20 21 23 24 -25 -26 -27 -28 -29 29 -31
leaf_value=2.6211635898966076e-06 -1.1196639952309463e-05 0.0034657668824062664 0.0030965186012326743 0.0046383516153251881 -0.00019290031569621456 0.0092361495839609047 0.012153266378498468 0.0028240981230769177 0.011545167943404523 -0.0055907259934778828 0.0039000413477576026 0.0060882672882871707 -0.00054112810230435573 0.0024686538716681148 0.0038822592532431542 -0.0013872188582057122 -4.4344524058892494e-05 0.001327329929071394 -0.00014339552792153696 -0.0039360110531561077 -0.018809404936619104 -0.011735097599393202 -0.0062050720891566021 -0.0056504167523235083 -0.0025157491275147256 -0.0004802325719884067 0.0031896096024865983 -0.00011473214385010136 0.0043399617285467687 -0.00030504973762920901
leaf_weight=207685 3955 24 20 22 228 23 22 29 32 26 24 20 40 30 22 101 1567 33 1539 26 20 21 25 20 86 426 20 1437 20 90
leaf_count=207685 3955 24 20 22 228 23 22 29 32 26 24 20 40 30 22 101 1567 33 1539 26 20 21 25 20 86 426 20 1437 20 90
internal_value=0 -5.47222e-05 0.000338368 0.000843831 0.00145985 0.00225652 0.00447445 0.00369235 0.00739909 0.00223357 -0.00103516 0.00379011 0.00166867 -5.95726e-05 0.00661869 1.02726e-05 -0.000196432 -0.000414665 -0.00078324 -0.0050461 -0.00963184 -0.0120596 -0.00227555 -0.00876696 -0.00334668 -0.000286227 -3.58896e-06 -7.06518e-05 -0.000382769 0.000539498
internal_weight=0 9948 2636 1179 701 473 238 216 61 155 50 105 60 478 45 235 7312 3357 1770 231 87 61 144 41 111 456 1587 1457 211 110
internal_count=217633 9948 2636 1179 701 473 238 216 61 155 50 105 60 478 45 235 7312 3357 1770 231 87 61 144 41 111 456 1587 1457 211 110
shrinkage=0.05


Tree=173
num_leaves=31
num_cat=0
split_feature=43 43 14 40 40 40 3 26 30 26 25 33 40 2 14 32 21 17 20 9 16 40 22 5 43 10 36 4 26 19
split_gain=0.0122867 0.199347 0.232001 0.187149 0.328082 0.969121 0.826792 0.79354 0.791941 0.735221 0.362993 0.229333 0.298089 1.19195 1.26072 0.421199 0.3137 0.455886 0.127733 0.354937 0.358837 0.551516 0.670279 0.438927 0.18973 0.11992 0.169492 0.0914517 0.150173 0.0900357
threshold=0.20156999999999983 -0.086730000000000182 0.00083188600000000011 -0.17527649999999997 0.1751400000000001 0.039429999999999972 -8.1804699999999979 0.00010974150000000001 0.00064218500000000009 -0.0011493749999999998 1.3625700000000001 2.1416600000000004e-05 -0.040859549999999939 -2.0077749999999996 0.00011081300000000001 0.25355600000000006 -6.0969499999999988 1.2108000000000002e-07 14.554100000000002 3.5461000000000012e-05 8.2193200000000006e-07 0.30085850000000008 -0.20719599999999996 2.5175700000000004e-05 1.06199 5.5414800000000003e-05 -0.018049799999999994 0.21856850000000003 -6.4878099999999978e-05 1.1521400000000002e-06
decision_type=2 2 2 2 2 2 2 2 2 2 2 2 2 2 2 2 2 2 2 2 2 2 2 2 2 2 2 2 2 2
left_child=1 -1 3 -3 5 9 8 10 -7 -5 -8 12 13 -11 -15 27 -16 -18 -2 -20 24 22 -22 -24 -21 26 -26 -14 -29 -4
right_child=18 2 29 4 -6 6 7 -9 -10 11 -12 -13 15 14 16 -17 17 -19 19 20 21 -23 23 -25 25 -27 -28 28 -30 -31
leaf_value=-9.8200629552679697e-06 -1.5182954217924258e-05 -0.00010526826874156627 -0.0009276738215891891 -0.0088831746578216554 -0.00011079103990509366 0.018074983339756729 -0.005398937216799321 0.0080323081453596897 0.0043277675328268249 -0.0070822524605318911 0.0033570066373795268 -0.0046018572303364634 0.00078073654689023273 -0.0056866864068433644 0.013432290574366396 -0.0045615405352835208 0.012530494355596604 0.0032042764335576644 4.2916238625333318e-06 0.0039119241657224338 0.014451508574365153 -0.00062340707178615664 0.0083470124154700898 -0.0014304895155047154 0.0041519453495686108 -0.0011370983405734143 -0.00059689293713225723 0.00045574387387456775 -0.0047172249273171474 -2.4909193939886362e-05
leaf_weight=83186 124575 1279 309 20 1236 20 29 35 22 23 20 20 2809 20 22 38 20 38 931 39 21 36 24 22 34 95 42 47 20 2601
leaf_count=83186 124575 1279 309 20 1236 20 29 35 22 23 20 20 2809 20 22 38 20 38 931 39 21 36 24 22 34 95 42 47 20 2601
internal_value=0 1.39073e-05 0.000242673 0.000427635 0.00058118 0.000848203 0.00514613 0.00228216 0.0108741 0.000672208 -0.00182508 0.000734722 0.000769866 0.00318095 0.00554149 0.000668094 0.00834853 0.00642021 -1.01486e-05 0.000493995 0.00195059 0.00436793 0.00704984 0.00367082 0.00076494 4.72064e-05 0.00152759 0.000737192 -0.00108843 -0.00012077
internal_weight=0 91814 8628 5718 4439 3203 126 84 42 3077 49 3057 3037 123 100 2914 80 58 125819 1244 313 103 67 46 210 171 76 2876 67 2910
internal_count=217633 91814 8628 5718 4439 3203 126 84 42 3077 49 3057 3037 123 100 2914 80 58 125819 1244 313 103 67 46 210 171 76 2876 67 2910
shrinkage=0.05


Tree=174
num_leaves=31
num_cat=0
split_feature=41 21 23 43 20 9 44 5 22 21 21 1 7 21 2 29 23 0 20 11 7 29 15 40 29 26 4 4 28 25
split_gain=0.0122239 0.276997 0.0136047 0.0675385 0.196068 0.505484 0.790447 0.28761 0.183161 0.128085 0.118726 0.446508 0.221026 0.0953096 0.174013 0.0792762 0.256923 0.133969 0.0890087 0.183192 0.0745246 0.0766898 0.153352 0.298943 0.109951 0.0741749 0.0979602 0.0737126 0.262181 0.102815
threshold=5.6849350000000003 -3.7984549999999992 -13.237099999999998 2.2194399999999996 -6.1474899999999986 -2.8596049999999995e-05 -0.8551649999999994 1.6461450000000005e-05 -2.7041249999999994 1.5627000000000002 -7.0365699999999984 -4.4631249999999989 3.6863750000000008e-05 -2.8615649999999997 -0.8195889999999999 0.14443800000000004 -16.647599999999994 -4.5031199999999991 -1.1107799999999999 -4.5422699999999995e-05 2.2278700000000004e-05 0.089515950000000025 7.4920800000000015e-08 0.57364500000000007 0.082377100000000023 -0.00034232549999999999 0.069718000000000016 0.13767700000000002 0.34469700000000009 16.451500000000003
decision_type=2 2 2 2 2 2 2 2 2 2 2 2 2 2 2 2 2 2 2 2 2 2 2 2 2 2 2 2 2 2
left_child=2 -2 3 4 5 6 7 -1 -8 -10 11 12 -6 14 -7 20 -17 -18 -19 -20 -12 24 23 -23 -22 26 -13 28 -15 -29
right_child=1 -3 -4 -5 10 13 8 -9 9 -11 15 25 -14 27 -16 16 17 18 19 -21 21 22 -24 -25 -26 -27 -28 29 -30 -31
leaf_value=0.013621758783701808 0.0046110780690522754 5.3242652061678381e-06 -7.6107440012726452e-06 -3.3169924543269777e-06 0.0086407214622550577 0.0055565845207390593 -0.0033338688960178674 0.0056464126789181213 -0.00031893464330919204 0.0052720174205023798 0.00083834461197155328 -0.00064261078456183905 0.0017439801989461387 -5.1340953681469854e-05 -0.00088746999921568209 -0.0052334516663465587 -0.0037768271912985564 -0.00062026482623635118 0.0049348808876787265 -0.00023950635921210053 5.0583828875455129e-05 0.0068098551591901924 -0.00092900830122635803 -0.0001667097797668676 -0.0026826138782780617 -0.00059901727900891209 0.0042468633795492462 -0.00019786420628233753 0.0060479472362749221 -0.0034677513937155409
leaf_weight=20 34 819 166678 42041 26 22 21 26 21 20 319 20 21 148 20 29 24 131 26 50 6663 28 42 34 37 121 21 121 20 30
leaf_count=20 34 819 166678 42041 26 22 21 26 21 20 319 20 21 148 20 29 24 131 26 50 6663 28 42 34 37 121 21 121 20 30
internal_value=0 0.000188906 -7.43321e-07 2.2103e-05 0.000154678 0.00114681 0.0041479 0.00911395 0.000463411 0.00240836 9.33879e-05 0.00126858 0.0055592 0.00024898 0.00248799 6.01202e-05 -0.00079745 -0.00024055 0.000169454 0.00153068 9.14228e-05 5.6404e-05 0.00140374 0.002984 3.54901e-05 2.37705e-05 0.00186175 -4.58107e-05 0.000674765 -0.000847511
internal_weight=0 853 216780 50102 8061 469 108 46 62 41 7592 209 47 361 42 7383 260 231 207 76 7123 6804 104 62 6700 162 41 319 168 151
internal_count=217633 853 216780 50102 8061 469 108 46 62 41 7592 209 47 361 42 7383 260 231 207 76 7123 6804 104 62 6700 162 41 319 168 151
shrinkage=0.05


Tree=175
num_leaves=31
num_cat=0
split_feature=38 18 4 44 41 40 34 21 11 21 14 37 18 39 40 21 1 19 5 43 23 11 23 40 40 44 13 32 19 41
split_gain=0.0117224 0.266606 0.399895 0.535983 0.617664 0.984087 0.546603 0.397143 0.43163 0.553164 0.429613 0.400147 0.388922 0.3468 0.314451 0.355763 0.156254 0.138898 0.113234 0.0829397 0.219649 0.247703 0.136046 0.105374 1.21197 0.670914 0.559299 0.193216 0.18941 0.0917159
threshold=-0.092780149999999992 2.8533150000000003e-05 2.9223900000000005 -4.7185699999999988 0.68231549999999996 0.40779500000000007 14.135600000000002 -10.950149999999999 4.247685000000001e-05 1.8274200000000003 0.011360800000000002 7.5042600000000009e-06 0.00025725050000000005 0.17438400000000001 0.02582950000000005 0.93373450000000013 -1.4776249999999997 0.0028249700000000004 2.8166850000000003e-05 1.8568299999999998 -16.772999999999996 -3.3619499999999992e-05 -16.164099999999994 0.1751400000000001 -0.14969009999999991 1.9491550000000004 -5.7078899999999985e-06 -3.4807049999999995 1.3049500000000003e-06 -0.2272394999999999
decision_type=2 2 2 2 2 2 2 2 2 2 2 2 2 2 2 2 2 2 2 2 2 2 2 2 2 2 2 2 2 2
left_child=1 19 3 17 5 6 7 -5 9 10 12 -11 16 18 15 -10 -9 -3 -7 20 21 -1 -22 24 -24 26 -26 -27 -28 -25
right_child=-2 2 -4 4 -6 13 -8 8 14 11 -12 -13 -14 -15 -16 -17 -18 -19 -20 -21 22 -23 23 29 25 27 28 -29 -30 -31
leaf_value=-0.007917607907911588 -2.3632696930684351e-06 -0.00056801513400685742 -0.00017426143804917169 0.010737174681641839 -7.8740870862665857e-05 -0.00067431883818626489 0.012371314211708048 0.0035695722193590236 0.0080154984568556152 0.01000587166636251 0.0051091445972108185 0.0016948565092336919 -0.0074605023003338532 0.0061346882216942811 0.010744703290307883 -0.00066170092322863643 -0.0024601784873415126 0.0030875955303989551 0.0032186541362274773 2.8388064958971944e-05 0.0037355253489554994 -0.00086578182253464493 -0.00011848130578427268 3.8525874090697366e-05 -0.0016512111803008754 -0.0040751715726219124 -0.0074951190407210521 0.0026444753824287782 -0.013645225822373534 0.0033834192667633206
leaf_weight=20 208966 361 1021 22 241 169 23 21 27 30 27 28 24 24 30 21 22 28 21 4256 21 33 1209 850 22 20 21 23 31 21
leaf_count=20 208966 361 1021 22 241 169 23 21 27 30 27 28 24 24 30 21 22 28 21 4256 21 33 1209 850 22 20 21 23 31 21
internal_value=0 5.69797e-05 0.000541286 0.00119417 0.00199298 0.00301401 0.00499268 0.00431923 0.00370534 0.00215371 -0.000215618 0.00599366 -0.00236142 0.000471329 0.00672902 0.00421922 0.000484583 -0.000304886 -0.000244043 -0.000101809 -0.000345807 -0.00352685 -0.000269795 -0.00030808 -0.000588726 -0.00544792 -0.00833414 -0.000480942 -0.0111615 0.000119172
internal_weight=0 8667 2140 1119 730 489 275 252 230 152 94 58 67 214 78 48 43 389 190 6527 2271 53 2218 2197 1326 117 74 43 52 871
internal_count=217633 8667 2140 1119 730 489 275 252 230 152 94 58 67 214 78 48 43 389 190 6527 2271 53 2218 2197 1326 117 74 43 52 871
shrinkage=0.05


Tree=176
num_leaves=31
num_cat=0
split_feature=36 16 16 12 41 43 13 3 18 8 24 10 8 41 42 43 43 42 14 23 12 0 26 31 6 2 23 41 21 2
split_gain=0.0120165 0.188815 0.145817 0.2091 0.486587 0.287476 0.291565 0.201385 0.160892 0.378534 0.225188 0.253537 0.400722 0.11145 1.18108 0.553632 0.833095 0.587931 0.644641 0.362551 0.308822 0.21085 0.0868378 0.252526 0.16711 0.0959131 0.280804 0.412667 0.181599 0.175218
threshold=0.12161000000000001 9.6924450000000025e-07 7.6833350000000012e-05 0.00024379100000000001 -0.30357199999999979 -2.8634500000000003 5.2821900000000003e-05 -18.015749999999997 -0.00036585349999999998 1.3746700000000002e-05 -0.88671549999999988 3.0829950000000005e-05 8.8259800000000019e-06 -0.27889399999999981 -0.19934349999999995 1.8131900000000003 -0.99152500000000054 0.14973499999999998 0.00014912150000000003 -10.522449999999997 9.4907600000000006e-05 -5.1561799999999991 -0.062701649999999984 -8.7764099999999985 5.6989500000000011e-07 1.0181500000000001 -6.5698499999999997 -1.1685199999999998 11.729050000000003 0.83943500000000015
decision_type=2 2 2 2 2 2 2 2 2 2 2 2 2 2 2 2 2 2 2 2 2 2 2 2 2 2 2 2 2 2
left_child=-1 13 3 8 -5 -6 -7 -4 9 10 11 12 -3 -2 -15 16 19 18 -18 -16 -20 -21 23 24 -10 29 28 -28 -27 -24
right_child=1 2 7 4 5 6 -8 -9 22 -11 -12 -13 -14 14 15 -17 17 -19 20 21 -22 -23 25 -25 -26 26 27 -29 -30 -31
leaf_value=2.571355019745528e-06 2.032202482893608e-05 0.0085621544868786266 0.003716128728494006 -0.00045794276180686214 0.0007783800818618726 0.012252243589027786 0.0041527322838082912 -0.00030947197063224848 0.0077633285542972209 0.0066674904066941617 -0.00048164708729299247 0.0001723234160733857 0.00064933190933516018 6.8488384019829214e-07 -0.0068733540475713444 -0.00082329916286363186 -0.0039352077995317815 -0.0016525492917571682 -0.014846610081823251 0.003945931760509583 -0.0072913656961948918 -0.0013720444748540729 -3.1832635134281122e-05 -0.00023197079137995998 0.0013771936352713965 -0.0002440510840733086 -0.00039271164705101201 0.0089796550643465416 0.0035504787303377982 -0.0033635008195077964
leaf_weight=207685 3124 32 32 72 22 20 25 1066 21 31 149 65 32 3142 27 279 40 40 38 22 21 122 1053 75 20 254 23 24 36 41
leaf_count=207685 3124 32 32 72 22 20 25 1066 21 31 149 65 32 3142 27 279 40 40 38 22 21 122 1053 75 20 254 23 24 36 41
internal_value=0 -5.36823e-05 0.000270608 0.000525299 0.0023958 0.0054625 0.00775252 -0.00019215 0.000385213 0.00142685 0.000842457 0.00237185 0.00460574 -0.000200003 -0.000384484 -0.00243915 -0.00389342 -0.00676835 -0.00883534 -0.00155649 -0.0121575 -0.000559576 0.000177156 0.0014929 0.00464814 7.04992e-05 0.000808034 0.00439318 0.000226994 -0.000156694
internal_weight=0 9948 3093 1995 139 67 45 1098 1856 309 278 129 64 6855 3731 589 310 139 99 171 59 144 1547 116 41 1431 337 47 290 1094
internal_count=217633 9948 3093 1995 139 67 45 1098 1856 309 278 129 64 6855 3731 589 310 139 99 171 59 144 1547 116 41 1431 337 47 290 1094
shrinkage=0.05


Tree=177
num_leaves=31
num_cat=0
split_feature=23 44 3 43 40 40 17 7 7 12 7 40 40 20 9 14 40 40 33 26 40 17 19 14 21 10 27 21 0 9
split_gain=0.0116781 0.0667009 0.154398 0.130221 0.127725 1.24325 0.93231 0.64105 0.924391 0.335691 0.505611 0.237476 0.259535 0.175421 0.186994 0.109559 0.120362 0.157332 0.188575 0.111594 0.0985968 0.0918856 0.0796343 0.098868 0.283457 0.0903788 0.0684785 0.0559634 0.0546929 0.0527053
threshold=-7.3396999999999988 -0.16918499999999967 -6.0871149999999989 -0.026199999999999776 0.1751400000000001 -0.10081500000000009 2.6933700000000002e-07 3.2190950000000007e-05 2.9313900000000001e-05 -3.4944649999999994e-05 2.5529050000000006e-05 0.039429999999999972 -0.011175000000000155 11.269000000000002 3.4597700000000009e-05 0.00013878450000000001 -0.079468000000000025 0.12375499999999996 4.1163000000000007e-06 -0.0090542049999999975 0.010257000000000018 6.9855250000000014e-07 2.562600000000001e-07 0.00017796000000000004 11.320900000000002 1.7819450000000001e-05 1.5357550000000002 -19.754149999999996 -12.293649999999998 -3.4487299999999998e-05
decision_type=2 2 2 2 2 2 2 2 2 2 2 2 2 2 2 2 2 2 2 2 2 2 2 2 2 2 2 2 2 2
left_child=-1 2 4 28 5 -2 7 8 9 -7 -11 12 -9 14 21 16 -5 18 -18 -17 -14 -8 26 24 25 -24 -21 -4 -3 -23
right_child=1 3 27 15 -6 6 13 11 -10 10 -12 -13 20 -15 -16 19 17 -19 -20 22 -22 29 23 -25 -26 -27 -28 -29 -30 -31
leaf_value=6.6334085500622093e-06 -8.0230836727898688e-05 0.0024822289835686787 0.0022528542679032819 -0.00025877302791353559 -6.2604994669707167e-05 -0.00084024937188422139 0.0018435997676510267 -0.0049903485452051505 -0.017930226111396528 -0.013489765228460666 -0.0026196615747176113 -0.0067225544720285529 0.0023497769321935875 0.0032775306223153042 -0.004703280947136658 -0.003651521757204873 0.0010707823516255574 -0.00014478213434612221 0.0054756792616099123 0.00061704141925703613 -0.0021172250000139076 0.00024784764100331812 -0.0032899844875958354 5.3786205590405651e-05 -0.0069441555466619315 0.00042656189337256462 0.0035509662896283378 -2.6326116900900542e-05 -1.1524186420794805e-05 -0.0033820715680485595
leaf_weight=163879 1565 22 27 299 1513 22 39 37 21 23 20 34 30 29 27 21 864 291 25 147 21 20 21 665 20 74 23 10877 36957 20
leaf_count=163879 1565 22 27 299 1513 22 39 37 21 23 20 34 30 29 27 21 864 291 25 147 21 20 21 665 20 74 23 10877 36957 20
internal_value=0 -2.02232e-05 -0.000112627 1.33483e-05 -0.000405689 -0.000677747 -0.00340402 -0.00550412 -0.00881021 -0.00586374 -0.0084339 -0.00317359 -0.0018024 -0.000168328 -0.00111106 0.000366367 0.000637284 0.000864336 0.00119465 -4.62863e-05 0.000510423 0.000116657 3.34084e-05 -0.000180307 -0.00153398 -0.00039499 0.00101398 -2.06825e-05 -1.00406e-05 -0.00156711
internal_weight=0 53754 14325 39429 3421 1908 343 208 86 65 43 122 88 135 106 2450 1479 1180 889 971 51 79 950 780 115 95 170 10904 36979 40
internal_count=217633 53754 14325 39429 3421 1908 343 208 86 65 43 122 88 135 106 2450 1479 1180 889 971 51 79 950 780 115 95 170 10904 36979 40
shrinkage=0.05


Tree=178
num_leaves=31
num_cat=0
split_feature=20 3 21 13 2 14 38 13 32 29 2 12 28 38 2 40 16 16 36 19 19 14 21 11 11 19 9 16 2 25
split_gain=0.0117905 0.0582383 0.220213 0.490653 0.0791936 0.15899 0.0428177 0.0297585 0.327149 0.0377429 0.0398532 0.0611052 0.0656704 0.0389392 0.0377374 0.184112 0.0393562 0.107975 0.233487 0.0440496 0.0683479 0.0462065 0.0288893 0.0811797 0.212963 0.0901012 0.081108 0.189617 0.0723157 0.0525089
threshold=-12.926599999999999 -5.6211599999999988 -9.1109899999999975 6.9850100000000007e-06 1.7386900000000003 9.5032200000000022e-05 -0.00029428749999999996 -4.083924999999999e-05 -5.551709999999999 0.069533550000000013 2.8579150000000006 1.9714300000000002e-05 0.04793780000000001 -0.55203199999999986 2.6628800000000008 0.20129000000000011 3.6544900000000005e-06 7.0201950000000013e-05 0.18330700000000003 1.091555e-08 7.4236000000000007e-09 6.0312200000000008e-05 -2.0281699999999994 -8.8703799999999996e-05 -5.9599849999999995e-05 0.00035386650000000005 -4.5221399999999994e-05 4.1207450000000003e-07 -2.2522399999999996 17.806750000000005
decision_type=2 2 2 2 2 2 2 2 2 2 2 2 2 2 2 2 2 2 2 2 2 2 2 2 2 2 2 2 2 2
left_child=1 7 3 -3 -4 6 -6 8 -1 13 22 -12 -13 -9 16 -16 19 18 -18 20 -15 -21 23 25 -25 -11 27 29 -26 -24
right_child=-2 2 4 -5 5 -7 -8 9 -10 10 11 12 -14 14 15 -17 17 -19 -20 21 -22 -23 26 24 28 -27 -28 -29 -30 -31
leaf_value=0.0051458322374277159 -1.4805121885902568e-06 -0.00046522883446111038 -0.00019203194084728528 0.0084512701757005378 0.0018605527048118978 0.0046949581243097786 -0.00064975739787769275 -0.0018159308184597951 -0.00030494346898983596 -0.004624328355116415 0.0003809519111053951 -0.00067151895447117892 -0.0045388175160734961 0.00030198606969280103 0.0050683900198276646 -7.0179798583719992e-05 0.00020551989206281878 -0.00027451674628430149 0.0049539824898462174 -0.0024371297805952387 0.003448125271296747 -0.00010922653573765984 0.0018982217288628983 0.0049043024424463514 -0.0023187436403701257 -0.00093954446455876391 -0.00010924203618101708 0.0053870463343944561 -0.0001614008953460306 -0.0012367204234418323
leaf_weight=33 214167 36 325 27 26 27 49 24 166 21 31 23 21 97 23 72 77 136 39 22 21 686 22 20 43 79 861 23 402 34
leaf_count=33 214167 36 325 27 26 27 49 24 166 21 31 23 21 97 23 72 77 136 39 22 21 686 22 20 43 79 861 23 402 34
internal_value=0 9.14821e-05 0.000596583 0.00335613 0.000189437 0.0014049 0.000220483 8.3169e-06 0.000598954 -3.40082e-05 -0.00019445 -0.00131934 -0.00251728 0.00017777 0.000218562 0.00117389 0.000134372 0.000681334 0.00180199 -3.24976e-05 0.000861892 -0.000181563 -0.000138393 -0.000420952 -0.000143017 -0.00171335 3.14437e-05 0.00156474 -0.000369863 -5.13601e-06
internal_weight=0 3466 490 63 427 102 75 2976 199 2777 1580 75 44 1197 1173 95 1078 252 116 826 118 708 1505 565 465 100 940 79 445 56
internal_count=217633 3466 490 63 427 102 75 2976 199 2777 1580 75 44 1197 1173 95 1078 252 116 826 118 708 1505 565 465 100 940 79 445 56
shrinkage=0.05


Tree=179
num_leaves=31
num_cat=0
split_feature=40 40 40 26 4 11 8 4 38 5 3 43 19 24 35 26 40 14 2 23 41 7 26 25 40 7 26 24 0 28
split_gain=0.0116577 0.107927 0.312222 0.189072 0.388972 0.332425 0.263684 0.248928 0.22533 0.176381 0.252565 0.81738 0.802192 0.214731 0.258541 0.318222 0.192931 0.176509 0.157772 0.158819 0.156623 0.172707 0.169669 0.169529 0.206486 0.143198 0.139896 0.137588 0.273989 0.136757
threshold=-0.40968649999999995 -0.018010000000000078 0.010257000000000018 0.00036277200000000008 -0.11642199999999998 1.4690450000000003e-05 8.2554850000000015e-06 -0.27873999999999993 -0.010271549999999999 9.0806150000000018e-06 -14.267049999999999 -2.1822199999999996 8.793135000000002e-05 -0.78263349999999987 -0.052110149999999994 -0.00043562299999999995 -0.10081500000000009 0.00030683250000000005 2.1067000000000005 -17.589049999999997 0.057875000000000128 2.1820400000000002e-05 -0.00022275099999999995 0.19840500000000003 -0.040859549999999939 6.6433600000000021e-05 7.7908300000000021e-05 -0.15379599999999996 4.7206650000000012 1.9114100000000003
decision_type=2 2 2 2 2 2 2 2 2 2 2 2 2 2 2 2 2 2 2 2 2 2 2 2 2 2 2 2 2 2
left_child=-1 9 3 7 6 -6 -5 8 -3 10 11 -2 -13 -12 17 16 -16 -15 19 -10 21 -17 -22 -23 -25 -9 -14 28 -27 -11
right_child=1 2 -4 4 5 -7 -8 25 18 29 13 12 26 14 15 20 -18 -19 -20 -21 22 23 -24 24 -26 27 -28 -29 -30 -31
leaf_value=1.3520166180272587e-05 -0.00029039832597607006 -0.0059123157893191097 -1.0007433889156862e-05 -0.00045014542152380777 -0.0015291956184747895 -0.0083705613416476324 0.0058044314240264204 0.00070857593881646275 -0.0044138358556665485 -0.00018120006845373176 -0.0034814072669222501 0.011012506420509174 -0.00011492111307971583 0.00098364839310913026 -0.001269959080355933 0.0050703592647347133 -0.0067064511659555145 0.0072605451114387031 -0.0036891588761992517 0.00019132718166179773 0.0037705059799783935 -0.0026626286768337845 -0.00028636017857355285 0.0049405475656385534 0.00056320925428642509 0.00020307117101765472 0.005075408929842525 6.5115475281664545e-05 -0.0071469772189933188 -0.002854871111001482
leaf_weight=92022 169 20 106746 72 56 26 22 3443 20 13267 41 39 37 24 47 29 25 21 34 293 27 28 567 35 117 32 20 285 21 48
leaf_count=92022 169 20 106746 72 56 26 22 3443 20 13267 41 39 37 24 47 29 25 21 34 293 27 28 567 35 117 32 20 285 21 48
internal_value=0 -9.90481e-06 6.86472e-06 0.000423385 -0.00118172 -0.00369841 0.00101369 0.00049149 -0.000751759 -0.000137997 0.000435887 0.00180252 0.00548692 5.90332e-05 0.000216814 2.67309e-05 -0.00315763 0.00391287 -0.000454321 -0.000102932 0.000312253 0.00148948 -0.000101957 0.000912561 0.00157115 0.000612165 0.00170625 -0.000369912 -0.00270921 -0.000190839
internal_weight=0 125611 111070 4324 176 82 94 4148 367 14541 1226 265 96 961 920 875 72 45 347 313 803 209 594 180 152 3781 57 338 53 13315
internal_count=217633 125611 111070 4324 176 82 94 4148 367 14541 1226 265 96 961 920 875 72 45 347 313 803 209 594 180 152 3781 57 338 53 13315
shrinkage=0.05


Tree=180
num_leaves=31
num_cat=0
split_feature=40 26 37 31 3 3 11 9 0 0 2 0 0 0 20 0 18 26 39 38 4 9 43 16 36 16 17 40 22 15
split_gain=0.011364 0.180685 0.106937 0.0124803 0.0882505 0.0882458 0.154688 0.0688705 0.0631155 0.107374 0.0758909 0.073851 0.0505679 0.0225038 0.0218662 0.159067 0.236526 0.33458 0.239888 0.177077 0.0835066 0.0507262 0.0468045 0.0357459 0.108045 0.296844 0.460369 0.0402333 0.341564 0.406673
threshold=5.6762150000000009 -0.0037174099999999996 -2.0787049999999996e-06 29.306750000000005 -15.867949999999999 -14.267049999999999 -5.9599849999999995e-05 -4.8004049999999993e-06 -6.9102499999999987 -6.1513449999999992 2.2358750000000005 -8.2050999999999981 -5.018114999999999 -3.8805449999999992 -14.223749999999997 -8.8447699999999987 -1.0730149999999997e-06 -7.044784999999999e-05 0.020672650000000004 -0.21186449999999998 -0.079256599999999983 -4.8007999999999998e-05 -0.23716000000000023 6.5238050000000013e-06 0.34392800000000007 7.6833350000000012e-05 8.6933600000000013e-07 0.10022550000000004 0.57270450000000006 -1.2418349999999998e-08
decision_type=2 2 2 2 2 2 2 2 2 2 2 2 2 2 2 2 2 2 2 2 2 2 2 2 2 2 2 2 2 2
left_child=3 -2 -3 14 7 6 -6 -5 11 -10 12 -7 -11 -14 15 16 17 -1 -19 -18 -21 22 -17 27 -25 26 -26 -23 -29 -30
right_child=1 2 -4 4 5 8 -8 -9 9 10 -12 -13 13 -15 -16 21 19 18 -20 20 -22 23 -24 24 25 -27 -28 28 29 -31
leaf_value=-0.0012598756295483327 0.0042857762862695383 0.0027596036335203931 -6.3372881937642764e-05 -0.0045182066463166845 0.0053705922557696802 -0.00054722007737178884 -0.00020209595223246707 -0.00067659834270930987 0.0031154208029706585 0.0023486838417904276 -0.0030637748095960846 -0.0032436337441140496 -0.0015057810867330301 -1.7346406726945539e-05 -1.6192692021879327e-06 -0.00028033610927774468 0.0040232477632040778 0.010547332731075585 0.0028959290260293833 0.0026550781796686354 -0.00058632829769546691 -0.00033152867067961123 -0.002501904463861138 -8.040328671669182e-05 0.0092201051169887738 -0.00071344636648973392 0.00053838853957524798 -0.00011394591565244152 0.00090640939441300372 0.0096386014355448434
leaf_weight=20 26 35 808 20 20 123 33 28 27 22 21 32 27 427 213776 66 30 20 21 23 146 686 37 273 26 64 37 699 40 20
leaf_count=20 26 35 808 20 20 123 33 28 27 22 21 32 27 427 213776 66 30 20 21 23 146 686 37 273 26 64 37 699 40 20
internal_value=0 0.00018045 5.38325e-05 -7.23418e-07 -0.000200366 -6.41756e-05 0.00190081 -0.00227727 -0.000217554 4.46281e-05 -0.000122196 -0.0011039 7.57991e-06 -0.000105866 -2.43353e-09 0.000156538 0.00131817 0.00404203 0.00662832 0.000483218 -0.00014519 1.49453e-06 -0.00107838 6.17799e-05 0.000480081 0.0016849 0.00412132 -5.40128e-05 0.000196812 0.00381714
internal_weight=0 869 843 216764 780 732 53 48 679 524 497 155 476 454 215984 2208 260 61 41 199 169 1948 103 1845 400 127 63 1445 759 60
internal_count=217633 869 843 216764 780 732 53 48 679 524 497 155 476 454 215984 2208 260 61 41 199 169 1948 103 1845 400 127 63 1445 759 60
shrinkage=0.05


Tree=181
num_leaves=31
num_cat=0
split_feature=3 43 38 16 23 40 40 21 30 34 40 24 18 3 34 4 21 40 21 19 21 21 40 5 23 5 32 40 6 3
split_gain=0.0112627 0.115898 0.0746999 0.26202 0.0427384 0.122773 0.25062 0.336155 0.349771 0.030916 0.0262522 0.0136447 0.152905 0.263731 0.396205 0.235184 0.44569 0.726102 0.236196 0.460197 0.169066 0.103301 0.141004 0.0670277 0.106892 0.127509 0.0955604 0.0888185 0.0865954 0.11991
threshold=-18.627349999999996 1.46871 0.30670150000000002 4.8253050000000006e-09 -15.687599999999998 -0.14969009999999991 0.38220950000000015 -3.2639049999999998 0.0012725100000000004 0.41015900000000005 -0.91933500000000001 1.1195950000000001 1.7622650000000003e-05 -15.993649999999997 6.2013600000000011 2.7715550000000007 14.999250000000002 -0.89138499999999987 -11.282949999999998 0.0074449800000000012 1.4596200000000004 7.0074550000000011 -0.32870999999999989 1.0232200000000002e-05 -9.709209999999997 1.6628950000000003e-05 -22.304899999999996 -0.25142799999999998 1.0000000180025095e-35 -12.126699999999998
decision_type=2 2 2 2 2 2 2 2 2 2 2 2 2 2 2 2 2 2 2 2 2 2 2 2 2 2 2 2 2 2
left_child=1 2 4 -4 5 10 7 -7 -9 -6 -1 -2 -13 14 -14 16 18 -18 -15 21 -16 23 -23 27 26 -26 -25 -20 -28 -30
right_child=11 -3 3 -5 9 6 -8 8 -10 -11 -12 12 13 15 20 -17 17 -19 19 -21 -22 22 -24 24 25 -27 28 -29 29 -31
leaf_value=-0.00033687493135378622 -2.7630443604692787e-06 0.0032613035291433334 -0.0016093333122129975 0.0062980983813758946 2.4153128083453458e-06 -0.00078777281548051781 -0.00028462726504141934 0.0020217317904462108 0.011372813154011965 -0.00071805053186039245 -0.0023785483113988449 -9.2180683158486786e-05 -8.4011650640446623e-05 0.0044513611276909759 0.0037736181500367819 -0.00045969384527412397 -0.00056985138187883424 0.012903285596985371 0.00042409829004554924 0.0077496833477380279 0.0099412716209189983 -0.00058109491292270834 0.004577783318597573 -0.0037715912119165294 0.003859392063617741 -0.0011719321625423618 -0.0011608420919457737 -0.0035734753207317693 0.0036331005882857428 -0.00010861592855180389
leaf_weight=74 211822 29 22 20 1252 24 82 20 20 169 20 3016 46 38 25 458 20 20 24 20 20 26 27 20 34 20 113 33 28 91
leaf_count=74 211822 29 22 20 1252 24 82 20 20 169 20 3016 46 38 25 458 20 20 24 20 20 26 27 20 34 20 113 33 28 91
internal_value=0 0.000126994 7.36202e-05 0.00215611 2.09625e-05 0.000638105 0.00154551 0.00389038 0.00669727 -8.32699e-05 -0.000771274 -1.01877e-06 8.95613e-05 0.000605209 0.00317914 0.000364235 0.0010984 0.00616672 0.00067069 0.000341182 0.0065148 -1.49956e-05 0.00204701 -0.00031606 -2.2822e-05 0.00199594 -0.000455414 -0.00189029 -0.000169536 0.000771788
internal_weight=0 1732 1703 42 1661 240 146 64 40 1421 94 215901 4079 1063 91 972 514 40 474 436 45 416 53 363 306 54 252 57 232 119
internal_count=217633 1732 1703 42 1661 240 146 64 40 1421 94 215901 4079 1063 91 972 514 40 474 436 45 416 53 363 306 54 252 57 232 119
shrinkage=0.05


Tree=182
num_leaves=31
num_cat=0
split_feature=36 16 19 29 20 14 5 10 40 20 21 10 44 41 40 43 14 4 43 44 18 26 6 19 10 16 5 36 10 1
split_gain=0.0117409 0.130759 0.204588 0.313078 0.192326 0.262014 0.184243 0.181433 0.173361 0.192495 0.130398 0.123106 0.0858022 0.148505 1.38331 0.694769 0.39225 0.383228 0.322477 0.303587 0.199548 0.0915662 0.0960224 0.0785681 0.0902105 0.15765 0.220345 0.119022 0.106878 0.0674102
threshold=0.14537000000000003 6.5238050000000013e-06 0.00011990100000000002 -1.2159399999999998 6.7384950000000012 0.0022103100000000005 8.7409800000000018e-06 1.8512400000000006e-05 0.327845 -0.94259349999999986 8.4379150000000021 2.3813350000000005e-05 -1.1956799999999992 -0.2029299999999998 -0.17527649999999997 -0.41630000000000006 0.00051382550000000015 -0.27873999999999993 0.47541999999999979 1.9491550000000004 5.4423250000000013e-06 -0.0011493749999999998 -2.7591299999999996e-07 0.00015321200000000004 2.0608650000000005e-05 7.6833350000000012e-05 1.2789650000000002e-05 0.5797365000000001 1.9576250000000004e-05 -8.1678649999999973
decision_type=2 2 2 2 2 2 2 2 2 2 2 2 2 2 2 2 2 2 2 2 2 2 2 2 2 2 2 2 2 2
left_child=-1 12 3 -3 7 -6 -4 8 9 -5 11 -9 -2 -14 -15 16 -16 -17 -19 20 -18 22 -21 -8 25 26 27 -25 -27 -13
right_child=1 2 6 4 5 -7 23 10 -10 -11 -12 29 13 14 15 17 19 18 -20 21 -22 -23 -24 24 -26 28 -28 -29 -30 -31
leaf_value=2.4280870865420279e-06 3.9042749756405809e-06 0.0066565709176049708 0.003491699140021154 0.0062845100464983261 0.00080301056319336981 0.0080364226658535456 -0.0022320785072607627 -0.0049986059994262186 -0.0015245607435991546 0.0001237677360352661 0.0027679677426931449 0.0013771024613171384 1.4928885011218495e-05 -9.8143156241153911e-05 0.0033061519325621284 -0.0026473763925225838 -0.010375276478450924 -0.014527380834799262 -0.0068383739520747142 -0.0026196197058711932 -0.0034824263836656304 -0.0034275262572595645 0.0018569249440915884 -0.00089223739903445678 -8.9897431818340549e-05 -0.00065568784147633204 0.0061161248606994975 0.0030153462266561725 0.0031907266041906997 -0.0015507277729215497
leaf_weight=208518 3819 27 39 32 31 21 38 20 21 21 22 28 1525 1500 26 23 21 25 30 23 21 45 25 40 1409 129 29 38 21 66
leaf_count=208518 3819 27 39 32 31 21 38 20 21 21 22 28 1525 1500 26 23 21 25 30 23 21 45 25 40 1409 129 29 38 21 66
internal_value=0 -5.55458e-05 0.000298023 0.00153013 0.00100183 0.0037242 9.37318e-05 0.000327722 0.0023201 0.00384346 -0.000756368 -0.0014365 -0.000156979 -0.000345218 -0.000661046 -0.00419391 -0.00231751 -0.00806699 -0.0103334 -0.00340058 -0.00692885 -0.00180717 -0.000288086 1.59615e-05 6.72373e-05 0.000928727 0.00239497 0.00101146 -0.00011719 -0.000678608
internal_weight=0 9115 2032 289 262 52 1743 210 74 53 136 114 7083 3264 1739 239 161 78 55 135 42 93 48 1704 1666 257 107 78 150 94
internal_count=217633 9115 2032 289 262 52 1743 210 74 53 136 114 7083 3264 1739 239 161 78 55 135 42 93 48 1704 1666 257 107 78 150 94
shrinkage=0.05


Tree=183
num_leaves=31
num_cat=0
split_feature=41 21 26 4 4 11 35 22 16 15 12 31 43 20 43 20 39 37 3 20 40 22 40 40 32 44 43 9 16 37
split_gain=0.0109761 0.251409 0.0125243 0.0834325 0.11187 0.202646 0.562592 0.477482 0.151075 0.128603 0.188661 0.264388 0.447978 0.371605 0.464365 0.183543 0.109383 0.10073 0.143276 0.080405 0.164751 0.0706539 0.068051 0.668788 0.318651 0.305594 0.514981 0.546469 0.427414 0.202524
threshold=5.6849350000000003 -3.7984549999999992 0.0020748500000000005 -0.12727799999999997 -1.4133199999999999 -6.4452949999999984e-05 0.14260400000000004 1.8035450000000004 1.8237450000000004e-06 -1.3937899999999998e-06 0.00017051850000000002 -1.1821199999999998 1.9461850000000005 4.9008950000000011 -0.61387499999999962 12.319050000000002 0.12384550000000001 -6.2538149999999987e-05 -11.101149999999999 19.256550000000001 0.02582950000000005 0.57270450000000006 -0.22452634999999985 0.1751400000000001 -22.304899999999996 -1.2755000000000003 -0.36707999999999957 3.3645000000000007e-05 2.7201950000000006e-07 -6.7840449999999985e-07
decision_type=2 2 2 2 2 2 2 2 2 2 2 2 2 2 2 2 2 2 2 2 2 2 2 2 2 2 2 2 2 2
left_child=2 -2 -1 4 17 6 -6 8 -8 10 11 12 13 -7 -15 -16 -14 18 -4 -11 -21 -12 -5 24 -24 -26 29 28 -28 -27
right_child=1 -3 3 22 5 9 7 -9 -10 19 21 -13 16 14 15 -17 -18 -19 -20 20 -22 -23 23 -25 25 26 27 -29 -30 -31
leaf_value=1.6856363267215368e-06 0.0043919753940666424 4.1079140407533555e-06 0.0051577534186695376 7.021483877903571e-06 -0.0002718862403013591 0.0098965190568963274 -0.00022202292482312449 0.010014914539166761 0.005346526439479065 -0.00015026009720561735 -0.00020155312683120178 2.2645466402615928e-05 -0.0035930368788242395 -0.0033485760230541929 0.0031064846247318202 0.0093778925894730508 0.0012587060612321904 -0.00027510537317933058 -9.5025427906554854e-05 -0.00068439457058502742 0.0048114481506054295 -0.0040645303884230084 0.0035066108988678971 -2.6331178914286627e-05 -0.0009862371605472381 0.0012571779286695852 -0.0082009597921141372 -0.014179325951263309 0.00051395941021231315 -0.0031105654173467822
leaf_weight=208533 34 819 21 2572 118 28 29 31 21 993 29 138 21 20 28 20 26 1268 34 30 25 20 23 2364 173 36 34 20 24 101
leaf_count=208533 34 819 21 2572 118 28 29 31 21 993 29 138 21 20 28 20 26 1268 34 30 25 20 23 2364 173 36 34 20 24 101
internal_value=0 0.000179005 -7.04362e-07 -6.11377e-05 0.000154809 0.00043925 0.00193074 0.00513952 0.00211677 0.00022386 0.00108464 0.00158387 0.00309051 0.00504865 0.00305247 0.00571957 -0.000909094 -0.000184242 0.00191058 -4.71888e-05 0.00181372 -0.00177828 -0.000178258 -0.000349984 -0.00221158 -0.00255055 -0.00380927 -0.00705236 -0.00459479 -0.00196284
internal_weight=0 853 216780 8247 2900 1577 199 81 50 1378 330 281 143 96 68 48 47 1323 55 1048 55 49 5347 2775 411 388 215 78 58 137
internal_count=217633 853 216780 8247 2900 1577 199 81 50 1378 330 281 143 96 68 48 47 1323 55 1048 55 49 5347 2775 411 388 215 78 58 137
shrinkage=0.05


Tree=184
num_leaves=31
num_cat=0
split_feature=8 40 41 20 29 43 20 1 43 12 14 30 43 13 16 21 43 28 6 41 25 38 43 43 37 25 17 37 43 20
split_gain=0.0107548 0.0385796 0.236564 0.386577 0.788095 0.768747 0.342415 0.467486 0.272024 0.551756 0.460386 0.421875 0.466894 0.37233 0.393901 0.208039 0.414986 0.481692 0.452748 0.353298 0.708642 0.201095 0.230795 0.259253 0.203205 0.190682 0.174714 0.20419 0.341459 0.181826
threshold=-8.7699499999999972e-06 0.22528099999999995 -0.016969000000000036 -1.1107799999999999 -0.0044322199999999997 0.027469999999999221 11.827150000000001 7.0050850000000011 1.06199 3.4420950000000005e-05 8.5822300000000013e-05 0.0010071450000000003 0.47541999999999979 1.5374300000000003e-05 -1.2403199999999998e-07 5.8567400000000012 0.64319500000000052 0.011716300000000001 -5.9885399999999989e-07 -0.057539999999999918 2.9280800000000005 -0.0017732999999999998 0.20156999999999983 0.43278000000000022 1.7578000000000003e-07 10.786550000000002 7.6001650000000017e-07 9.0834600000000011e-08 0.27381999999999979 -9.5917099999999973
decision_type=2 2 2 2 2 2 2 2 2 2 2 2 2 2 2 2 2 2 2 2 2 2 2 2 2 2 2 2 2 2
left_child=1 2 3 4 5 -1 -4 -8 9 10 -5 21 13 14 -13 16 17 -6 -19 20 -20 -11 24 -24 -23 -18 29 -28 -29 -17
right_child=-2 -3 6 8 15 -7 7 -9 -10 11 -12 12 -14 -15 -16 26 25 18 19 -21 -22 22 23 -25 -26 -27 27 28 -30 -31
leaf_value=0.012271890363011224 8.0634118307613747e-06 8.4644587131858344e-06 -2.5130327653556127e-05 -0.0023096246407546392 -0.00025894864704275315 0.00052539441404708968 0.00070017515946893018 0.0072874441316565248 -0.00033615676795370562 0.0036132369957933273 -0.012137365667149425 -0.0022375104242357714 -0.0087521472463777169 -0.00088679880804641261 -0.011358618838130496 0.0046372686745598914 -0.00023844413362803909 -0.0022521364190404049 0.014182869450154682 0.0025165627929393908 0.0030173661389077703 -0.00010429451118053083 -0.0064559340603383532 -0.0011038160714406332 -0.0050275278291751005 -0.0051663199217901346 -0.00095170594768601209 -0.0080259264794100699 -0.00041730741715331662 -0.00027206985348275447
leaf_weight=26 142590 52106 19881 26 108 30 99 37 831 27 22 29 32 138 20 20 301 22 27 49 30 443 35 64 22 21 207 30 29 331
leaf_count=26 142590 52106 19881 26 108 30 99 37 831 27 22 29 32 138 20 20 301 22 27 49 30 443 35 64 22 21 207 30 29 331
internal_value=0 -1.53214e-05 -6.93557e-05 -0.000489777 0.000184103 0.00597912 -8.02634e-06 0.0024923 -0.000980923 -0.0016054 -0.00681401 -0.00129674 -0.00317127 -0.00221625 -0.00596041 -9.20855e-05 0.000607513 0.00220024 0.00427518 0.00562991 0.00830629 -0.000602119 -0.000803918 -0.00299598 -0.000337222 -0.000559827 -0.000724785 -0.00169129 -0.0042861 7.66454e-06
internal_weight=0 75043 22937 2920 1231 56 20017 136 1689 858 48 810 219 187 49 1175 558 236 128 106 57 591 564 99 465 322 617 266 59 351
internal_count=217633 75043 22937 2920 1231 56 20017 136 1689 858 48 810 219 187 49 1175 558 236 128 106 57 591 564 99 465 322 617 266 59 351
shrinkage=0.05


Tree=185
num_leaves=31
num_cat=0
split_feature=36 16 10 3 37 41 40 40 5 7 44 5 40 21 38 16 37 23 23 2 40 38 17 40 44 44 40 1 23 41
split_gain=0.010683 0.116264 0.100563 0.17076 0.349174 0.116785 0.457911 0.502424 0.423408 0.438825 0.318385 0.209402 0.380538 0.166025 0.149294 0.284344 0.185478 0.124278 0.128816 0.285688 0.117228 0.232076 0.43012 0.0935211 0.358581 0.251143 0.182271 0.0802913 0.104884 0.0769336
threshold=0.14537000000000003 9.6924450000000025e-07 4.4539100000000009e-05 -5.5440799999999983 3.3001550000000009e-05 0.70899650000000014 -0.17527649999999997 -0.25142799999999998 1.1630300000000001e-05 3.8091200000000006e-05 -0.16918499999999967 9.2265950000000021e-06 0.77415 18.392150000000004 -0.55203199999999986 7.6833350000000012e-05 0.00046534500000000004 -5.7717399999999985 -10.667199999999999 -1.7088249999999998 0.12375499999999996 0.08967940000000002 9.9652500000000017e-07 0.30085850000000008 -4.8866249999999987 -1.1537099999999991 0.056773999999999998 10.319000000000001 -8.6909799999999979 -0.27889399999999981
decision_type=2 2 2 2 2 2 2 2 2 2 2 2 2 2 2 2 2 2 2 2 2 2 2 2 2 2 2 2 2 2
left_child=-1 29 3 5 -5 6 7 8 -3 -10 -11 12 -8 14 15 -13 17 18 19 -16 21 22 -20 24 -21 -26 -27 -4 -29 -2
right_child=1 2 27 4 -6 -7 11 -9 9 10 -12 13 -14 -15 16 -17 -18 -19 20 23 -22 -23 -24 -25 25 26 -28 28 -30 -31
leaf_value=2.3161211227795624e-06 1.7678605762634253e-05 -0.0024952762372644119 -0.00030571129653225016 -0.00065144131105626007 0.0071121981485963012 -0.00018329389181542734 0.0063368822727697038 0.008806949728844507 0.0088427565234659219 -0.0018202292491979379 0.0050342526242673109 0.0073534678178839383 -0.00019403928379486187 -0.003482531444354787 0.0056518799598254399 -0.00088393045480188452 -0.0036333535797038008 0.0030956160673025913 0.0045506416784169583 -0.0041208936832845214 -0.00012763877458069818 -0.0056065816286718475 -0.0038410142970246239 -0.00022413051383135351 0.0078768196843818517 -0.0021723386854864656 0.0044228489690629601 -0.0003972299918962602 0.0045536174516382739 -0.00033330891361452945
leaf_weight=208518 2879 41 907 30 28 671 38 31 28 36 32 20 54 33 27 22 34 34 26 20 305 32 37 232 22 20 22 23 20 3411
leaf_count=208518 2879 41 907 30 28 671 38 31 28 36 32 20 54 33 27 22 34 34 26 20 305 32 37 232 22 20 22 23 20 3411
internal_value=0 -5.29844e-05 0.000213475 0.000425819 0.00309652 0.000340568 0.000647298 0.00305877 0.00175809 0.00357464 0.00140541 0.000233056 0.00250352 -2.70256e-06 0.000131922 0.00303864 -1.86114e-05 0.000139563 4.29241e-06 0.000715249 -0.000605353 -0.00213907 -0.000377791 0.000293449 0.00172295 0.00354916 0.00128228 -0.000205625 0.00190549 -0.000172658
internal_weight=0 9115 2825 1875 58 1817 1146 168 137 96 68 978 92 886 853 42 811 777 743 343 400 95 63 316 84 64 42 950 43 6290
internal_count=217633 9115 2825 1875 58 1817 1146 168 137 96 68 978 92 886 853 42 811 777 743 343 400 95 63 316 84 64 42 950 43 6290
shrinkage=0.05


Tree=186
num_leaves=31
num_cat=0
split_feature=41 40 40 5 26 24 21 41 22 3 33 35 26 41 16 2 24 23 36 20 38 8 15 23 24 9 21 8 41 25
split_gain=0.0107917 0.121709 0.281151 0.206787 0.262389 0.463124 0.493253 0.27538 0.366492 0.28384 0.590131 0.226068 0.188706 0.223736 0.172636 0.323237 0.206191 0.229808 0.176752 0.176566 0.172604 0.165673 0.231501 0.154996 0.154021 0.15278 0.646319 0.668056 0.184985 0.437421
threshold=0.32610899999999998 -0.018010000000000078 0.010257000000000018 9.0806150000000018e-06 -0.0011493749999999998 0.62895050000000008 0.69234250000000008 0.09983149999999999 2.9809550000000002 -14.092499999999999 -4.3173299999999989e-06 0.00055981050000000006 0.00049099350000000007 0.057875000000000128 -1.3727349999999997e-06 2.9891800000000006 -0.17965999999999996 -13.010249999999997 -0.0013312399999999998 -0.6291874999999999 -3.5981499999999994e-05 -4.2992599999999992e-05 -1.4640849999999998e-07 -13.748199999999999 0.13589850000000001 1.6205550000000003e-05 -12.635299999999999 1.3245700000000003e-05 0.078754999999999922 2.3108700000000004
decision_type=2 2 2 2 2 2 2 2 2 2 2 2 2 2 2 2 2 2 2 2 2 2 2 2 2 2 2 2 2 2
left_child=1 3 14 4 -1 7 -7 8 9 10 -6 -12 13 20 15 16 18 19 23 -18 -11 22 -16 -3 -15 28 27 -27 29 -5
right_child=-2 2 -4 25 5 6 -8 -9 -10 12 11 -13 -14 24 21 -17 17 -19 -20 -21 -22 -23 -24 -25 -26 26 -28 -29 -30 -31
leaf_value=-0.002844203733018896 1.2690365435632367e-05 -0.0034403684421704384 -9.4953611363444072e-06 -0.00038820667597930095 0.01098752184395077 0.011259813032423457 0.00054664525563235991 -0.00029167234036744493 -0.0043044557485700354 0.0030709467726890102 5.668658069058735e-05 0.0063648242925410164 0.0046833882305691082 -0.00020890081077789332 0.00071706072452070661 -0.0063509408596225773 0.0013001071512937397 -0.00034038047061375645 -0.0047049030323250921 0.0061212010200506484 5.4232076776444426e-05 0.00056159540602506016 -0.0065001205811859118 0.00055962671841198986 -0.0052779302623920639 0.00017638207706301633 -6.1679419377749721e-05 0.011213917705194596 -0.00021037459666610036 -0.0022287719332006782
leaf_weight=55 94660 36 106746 1453 24 21 22 521 26 91 49 20 32 47 25 22 91 286 38 24 99 3708 20 74 22 29 4168 26 4783 415
leaf_count=55 94660 36 106746 1453 24 21 22 521 26 91 49 20 32 47 25 22 91 286 38 24 99 3708 20 74 22 29 4168 26 4783 415
internal_value=0 -9.76857e-06 6.51526e-06 -0.000161717 0.000515753 0.000705483 0.00577866 0.000471169 0.00144054 0.00182952 0.00423414 0.00188513 0.00106103 0.000613484 0.000401767 -0.000408193 -0.00017005 0.000418628 -0.00176505 0.00230625 0.00149908 0.000524999 -0.00249058 -0.000749463 -0.00182511 -0.000225826 9.37654e-06 0.00539413 -0.000375166 -0.000797112
internal_weight=0 122973 111070 11903 1029 974 43 931 410 384 93 69 291 259 4324 571 549 401 148 115 190 3753 45 110 69 10874 4223 55 6651 1868
internal_count=217633 122973 111070 11903 1029 974 43 931 410 384 93 69 291 259 4324 571 549 401 148 115 190 3753 45 110 69 10874 4223 55 6651 1868
shrinkage=0.05


Tree=187
num_leaves=31
num_cat=0
split_feature=23 44 3 43 35 40 41 17 8 25 18 17 31 40 40 35 18 14 3 43 1 36 8 35 28 29 37 3 4 21
split_gain=0.0105062 0.0406906 0.124738 0.116616 0.117611 0.106996 0.877881 0.496628 0.475433 0.519611 0.221074 0.15816 0.102353 0.0779235 0.153883 0.197252 0.26354 0.0749612 0.103094 0.264564 0.0692611 0.347135 0.0692214 0.155133 0.281631 0.0663264 0.088632 0.0928808 0.0827646 0.06314
threshold=-6.9859049999999998 -0.16918499999999967 -6.0871149999999989 -0.026199999999999776 -0.21631099999999998 -0.10081500000000009 -0.12554300000000002 2.7889400000000004e-07 -1.2067199999999997e-05 1.5545350000000002 -8.389509999999999e-08 1.2024350000000002e-06 -0.06726604999999998 -0.079468000000000025 0.1751400000000001 0.0080513700000000021 4.8129750000000003e-06 0.00012656100000000005 -6.0871149999999989 -0.15760999999999911 10.829750000000002 -0.00028059049999999995 1.6500000000000005e-05 0.00026528050000000002 -0.0026100249999999998 -0.0096538799999999984 -1.3785799999999996e-07 -5.9131599999999986 0.15463500000000002 6.2342700000000013
decision_type=2 2 2 2 2 2 2 2 2 2 2 2 2 2 2 2 2 2 2 2 2 2 2 2 2 2 2 2 2 2
left_child=-1 2 5 17 -5 -2 -7 8 -8 10 -10 12 -9 -6 15 16 25 20 -19 -20 22 -22 -3 -24 -25 29 -27 28 -28 -15
right_child=1 3 -4 4 13 6 7 11 9 -11 -12 -13 -14 14 -16 -17 -18 18 19 -21 21 -23 23 24 -26 26 27 -29 -30 -31
leaf_value=5.2253437459045824e-06 -7.2022246112856571e-05 -0.00014056827472796226 -3.1226646911200934e-05 -0.0031679163487000474 -0.00012741686698233181 -5.6778627509791813e-05 -0.011007182353932877 0.0038004085244167417 -0.004301557440258977 -0.010083213852019981 0.0014587295023844608 -0.0039274053203619342 -0.00093458168568031404 0.0015468698813849331 -9.2639953550110202e-05 0.0056814117420634089 -0.0038848952556561145 -9.0375207000067005e-08 0.0064643830704014934 -0.0013816159827745858 -0.0074784208660776137 -0.00026245105600901299 -0.00032286024012557926 -0.0077602868297782903 -7.3710074632170016e-05 -0.0021467890911836826 0.00099332525355722966 0.0038836887671129167 -0.0020543618228934381 0.0048044399735296056
leaf_weight=177480 758 1944 8072 23 470 698 32 21 36 25 31 22 25 51 494 22 28 26241 21 22 20 100 147 22 26 23 708 27 23 21
leaf_count=177480 758 1944 8072 23 470 698 32 21 36 25 31 22 25 51 494 22 28 26241 21 22 20 100 147 22 26 23 708 27 23 21
internal_value=0 -2.30965e-05 -0.00011216 5.34934e-06 0.000385711 -0.000508573 -0.000880378 -0.0038745 -0.00575763 -0.00393169 -0.00163635 -0.000440572 0.00122704 0.000429488 0.000616851 0.00100499 0.000888211 -1.98366e-05 3.91816e-06 0.00245015 -0.000296229 -0.00146511 -0.000230654 -0.00112873 -0.00359672 0.00104489 0.000911021 0.0010038 0.000897434 0.00249699
internal_weight=0 40153 9720 30433 1890 1648 890 192 124 92 67 68 46 1867 1397 903 881 28543 26284 43 2259 120 2139 195 48 853 781 758 731 72
internal_count=217633 40153 9720 30433 1890 1648 890 192 124 92 67 68 46 1867 1397 903 881 28543 26284 43 2259 120 2139 195 48 853 781 758 731 72
shrinkage=0.05


Tree=188
num_leaves=31
num_cat=0
split_feature=21 1 16 16 43 12 13 3 23 8 41 29 35 24 16 36 23 4 23 16 16 4 33 4 43 36 33 35 10 40
split_gain=0.0108261 0.0898449 0.163657 0.60978 0.0584367 0.205682 0.285111 0.420136 0.0887009 0.0838655 0.119512 0.420337 0.0768556 0.059244 0.0577224 0.245873 0.0619741 0.0520945 0.043483 0.0419978 0.21334 0.13353 0.0276738 0.19457 0.0274604 0.027394 0.053737 0.0354327 0.117411 0.0247296
threshold=13.390900000000002 10.154350000000003 1.0552950000000002e-06 5.2573900000000008e-06 0.55890500000000032 0.00011228600000000002 6.2308800000000016e-05 -8.1804699999999979 -13.08405 -1.3215749999999998e-05 -0.12554300000000002 -0.019959349999999997 -0.0047501849999999997 1.5291850000000002 -5.8728149999999988e-07 -0.004072179999999999 -6.7626849999999985 0.08589150000000001 -7.2928149999999992 -4.5479249999999989e-09 -3.0889749999999994e-08 -0.24562099999999998 0.0031288150000000005 -1.3105149999999999 0.27381999999999979 0.069832100000000022 2.3224800000000005e-05 0.22099200000000002 3.8349550000000013e-05 -0.19934349999999995
decision_type=2 2 2 2 2 2 2 2 2 2 2 2 2 2 2 2 2 2 2 2 2 2 2 2 2 2 2 2 2 2
left_child=-1 4 14 -4 8 19 7 -7 -2 10 -10 -12 -13 22 15 -3 18 24 -16 20 21 -6 25 -24 -18 27 -27 -11 -29 -21
right_child=1 2 3 -5 5 6 -8 -9 9 13 11 12 -14 -15 16 -17 17 -19 -20 29 -22 -23 23 -25 -26 26 -28 28 -30 -31
leaf_value=-1.3724217040075724e-06 -0.0032433298679635579 0.0062010097841266546 0.0093784606606883859 -0.0010309367814924746 0.0030535594083630716 0.0090220814151789775 -0.00022774651966883858 0.00058229657898967461 -3.2426955938249224e-05 -2.5114595572152265e-05 -0.008719408952420054 -0.0035806234039955603 -0.00012781575645580648 0.0020539683382521292 -0.00021453308779211054 -0.00095605767365971889 0.0010058553718883324 0.002494100900473902 -0.0024220412157486258 -9.9993614258384381e-05 0.0054375852285011208 -0.000137060796347639 0.0050547476159408695 -0.00037483393832674181 -0.00079766838430609483 -0.00027111386230526112 -0.0024481522037310623 -0.00029749266777040853 0.0043570816372584887 -0.0010196712953323807
leaf_weight=214386 23 20 24 34 36 29 57 30 167 1081 20 20 83 35 87 30 46 34 30 317 20 368 21 77 39 331 31 42 20 95
leaf_count=214386 23 20 24 34 36 29 57 30 167 1081 20 20 83 35 87 30 46 34 30 317 20 368 21 77 39 331 31 42 20 95
internal_value=0 9.06153e-05 0.000854662 0.0032764 7.72371e-08 0.000321221 0.0022942 0.00473067 -0.000156626 -0.000119804 -0.000903533 -0.00208625 -0.000798264 1.89518e-05 0.00036354 0.00190677 3.65852e-05 0.000839998 -0.000780561 4.74578e-05 0.000396796 0.000147252 -2.54809e-05 0.000788648 0.000178356 -7.84939e-05 -0.000457545 4.15556e-05 0.00120398 -0.000312055
internal_weight=0 3247 344 58 2903 952 116 59 1951 1928 290 123 103 1638 286 50 236 119 117 836 424 404 1603 98 85 1505 362 1143 62 412
internal_count=217633 3247 344 58 2903 952 116 59 1951 1928 290 123 103 1638 286 50 236 119 117 836 424 404 1603 98 85 1505 362 1143 62 412
shrinkage=0.05


Tree=189
num_leaves=31
num_cat=0
split_feature=27 4 4 44 4 31 40 40 3 40 33 20 2 0 4 24 30 37 21 35 15 15 40 0 4 26 0 3 4 11
split_gain=0.0109654 0.0703653 0.274263 0.119605 0.0915173 0.109511 0.059977 0.410124 0.201598 0.160632 0.355826 0.0771359 0.0617176 0.0516253 0.0741021 0.137471 0.0214667 0.0214568 0.0213465 0.0211519 0.17013 0.361089 0.324214 0.0737498 0.208129 0.318254 0.0926166 0.0698359 0.156272 0.041835
threshold=91.481750000000019 1.1247450000000001 1.4464300000000001 7.2088550000000007 0.53444550000000013 -13.003849999999998 -0.17527649999999997 0.20129000000000011 -6.4166599999999994 -0.57440449999999987 0.0031288150000000005 1.3198400000000003 -1.5877199999999998 6.4712700000000014 2.9223900000000005 1.5291850000000002 0.16934650000000004 -6.2538149999999987e-05 0.93373450000000013 -0.93075499999999989 -9.0272649999999983e-06 -1.7185949999999998e-05 0.68543200000000015 -4.3615599999999999 2.9223900000000005 0.00057196550000000008 -2.8094699999999997 -12.352299999999998 -2.6817999999999995 -5.7102799999999991e-05
decision_type=2 2 2 2 2 2 2 2 2 2 2 2 2 2 2 2 2 2 2 2 2 2 2 2 2 2 2 2 2 2
left_child=19 4 -3 13 6 -6 9 8 11 -2 18 -8 -9 14 15 -4 -15 -16 -11 20 21 23 -23 24 25 -1 -25 28 -28 -22
right_child=1 2 3 -5 5 -7 7 12 -10 10 -12 -13 -14 16 17 -17 -18 -19 -20 -21 29 22 -24 26 -26 -27 27 -29 -30 -31
leaf_value=0.0088390871424871877 -0.00013290167888862763 0.006216263268433977 -0.00018742883548839018 0.0038815475878072902 0.00014778287200581123 -0.0045472339391212533 -0.0083619568572612483 0.0026580924023255647 -0.00081410666574693977 0.00098735804425641193 0.0076651800028984824 -0.0042651041943355707 -0.00017175537955646929 -0.00074002117549808297 -0.0017572097407571197 0.0041727258370193683 -0.0028159813562524507 -0.00017368908387634823 -0.0012413182500908577 -4.8916497713118351e-07 -0.00071564114331084533 0.0075631236846281872 -0.00021525934553210391 -0.0032302445457649551 -0.00020483081965162105 -8.075359539361671e-05 -0.00045187850518039232 -0.00034475891294137541 0.004917001811744464 3.7534688010843965e-05
leaf_weight=20 559 20 48 20 23 27 20 20 31 21 22 27 526 33 27 29 20 103 22 214184 216 37 21 21 65 20 33 136 23 1259
leaf_count=20 559 20 48 20 23 27 20 20 31 21 22 27 526 33 27 29 20 103 22 214184 216 37 21 21 65 20 33 136 23 1259
internal_value=0 -0.000130495 0.000559646 0.000155602 -0.000290004 -0.00238753 -0.000205968 -0.000552589 -0.00394403 0.000140653 0.00249322 -0.00600845 -6.8098e-05 -0.00013101 0.000225497 0.00145471 -0.0015234 -0.000502574 -0.000152895 9.65264e-07 0.000169261 0.00111868 0.00474681 0.000456948 0.00154145 0.00437917 -7.76681e-05 0.000267145 0.0017532 -7.27609e-05
internal_weight=0 1598 300 280 1298 50 1248 624 78 624 65 47 546 260 207 77 53 130 43 216035 1851 376 58 318 105 40 213 192 56 1475
internal_count=217633 1598 300 280 1298 50 1248 624 78 624 65 47 546 260 207 77 53 130 43 216035 1851 376 58 318 105 40 213 192 56 1475
shrinkage=0.05


Tree=190
num_leaves=31
num_cat=0
split_feature=19 12 33 23 43 43 33 2 8 38 19 9 11 31 40 2 28 43 1 20 14 3 23 34 25 30 40 41 43 43
split_gain=0.0101909 0.0540236 0.187186 0.0300348 0.0631642 0.236186 0.181911 0.247567 0.319662 0.288931 0.086579 0.114965 0.0952965 0.202982 0.0881423 0.208007 0.139224 0.167262 0.0588695 0.0951495 0.0396198 0.106989 0.181699 0.0459677 0.0374157 0.154619 0.0818296 0.87792 0.468735 0.665272
threshold=1.7836600000000004e-08 0.00026803150000000007 -1.1618749999999998e-05 -10.311099999999998 0.72566000000000008 0.27381999999999979 -4.4498699999999991e-06 0.61674550000000006 1.0530000000000001e-05 0.00036695550000000009 1.1921100000000003e-10 1.4399950000000003e-05 6.7582950000000017e-05 -0.13861849999999995 -0.17527649999999997 -2.8220449999999997 0.0055462550000000008 -0.15760999999999911 -4.9833999999999987 -2.6904149999999993 0.0023552050000000004 -14.605749999999999 -18.021849999999997 0.71357000000000015 1.5545350000000002 0.00054263500000000008 -0.19934349999999995 -0.10141500000000002 1.3091549999999998 -0.41630000000000006
decision_type=2 2 2 2 2 2 2 2 2 2 2 2 2 2 2 2 2 2 2 2 2 2 2 2 2 2 2 2 2 2
left_child=1 3 -3 4 5 10 7 8 9 -7 11 -1 14 -14 -12 -16 18 -18 19 -17 21 22 -6 -22 -5 -26 -27 -28 29 -29
right_child=-2 2 -4 24 20 6 -8 -9 -10 -11 12 -13 13 -15 15 16 17 -19 -20 -21 23 -23 -24 -25 25 26 27 28 -30 -31
leaf_value=-0.00047171257784975757 4.2668502037454928e-06 0.0052060677079928362 -3.1158071720339746e-05 -3.222692421069515e-05 -0.00021184325757531042 0.01148829890627657 4.0485092448313906e-05 -0.00031913546112036787 0.00082263979335854456 0.0035629476086519989 -0.00011328600167094554 -0.0045411689032334836 -0.005423798971142705 8.2151573125364462e-05 0.0056535840582396107 -0.00050309969580553116 0.0065260762613823841 0.00057634571664190546 -0.0001103823434708075 0.0043157172590283501 0.00011586224389334565 -1.0320662569605683e-05 0.0058521911896865023 -0.0031924143850725764 -0.0044842779325422492 6.54794444549676e-06 -3.3329410601544748e-06 -0.0015816691453062325 -0.00072477955726652811 -0.0087131632510778125
leaf_weight=100 188342 22 76 13021 30 23 67 32 29 23 308 21 22 70 23 20 21 27 205 21 21 10930 21 21 21 2389 1497 63 99 68
leaf_count=100 188342 22 76 13021 30 23 67 32 29 23 308 21 22 70 23 20 21 27 205 21 21 10930 21 21 21 2389 1497 63 99 68
internal_value=0 -2.7436e-05 0.00114455 -3.13703e-05 2.91852e-05 0.000407229 0.00208354 0.00336283 0.0049338 0.00752562 5.91649e-05 -0.00117798 0.000267944 -0.00123449 0.000489102 0.00107439 0.000716152 0.00317935 0.000235527 0.00196507 -5.52225e-06 3.40213e-07 0.00228511 -0.00153828 -7.38452e-05 -0.000204837 -0.000183003 -0.000445213 -0.00332128 -0.00528351
internal_weight=0 29291 98 29193 12035 1012 174 107 75 46 838 121 717 92 625 317 294 48 246 41 11023 10981 51 42 17158 4137 4116 1727 230 131
internal_count=217633 29291 98 29193 12035 1012 174 107 75 46 838 121 717 92 625 317 294 48 246 41 11023 10981 51 42 17158 4137 4116 1727 230 131
shrinkage=0.05


Tree=191
num_leaves=31
num_cat=0
split_feature=35 15 15 25 15 40 41 43 11 4 24 43 41 10 43 19 21 40 21 4 24 9 31 43 21 9 28 34 43 16
split_gain=0.0102403 0.279792 0.22826 0.164424 0.251611 0.441865 1.39933 0.711401 0.72144 0.602763 0.81484 0.555008 0.770082 0.958913 0.531288 0.475292 0.542886 0.389238 0.509175 0.473951 0.635362 0.451976 0.387326 0.361402 0.590286 0.355434 0.342826 0.2833 0.283089 0.260645
threshold=0.00018180000000000003 -1.7138249999999995e-08 -9.6356049999999989e-08 1.2242750000000002 -1.9150249999999998e-05 0.327845 0.32610899999999998 -3.7428349999999995 0.00013338650000000002 0.18998850000000003 0.33996650000000006 4.4497700000000018 0.078754999999999922 3.4769000000000005e-05 1.8131900000000003 0.0034295500000000004 -10.950149999999999 -0.058960000000000005 0.26237100000000008 -0.75155249999999996 -0.74181699999999984 2.5537850000000005e-05 -13.003849999999998 -0.77143500000000065 -0.34303649999999991 -2.2727799999999999e-05 0.093819000000000013 0.83312700000000006 -0.82558500000000012 8.7195400000000012e-06
decision_type=2 2 2 2 2 2 2 2 2 2 2 2 2 2 2 2 2 2 2 2 2 2 2 2 2 2 2 2 2 2
left_child=2 -2 3 -1 -5 6 7 -6 9 10 14 12 15 27 17 16 -11 18 21 20 -19 -9 -16 24 -18 -12 28 -14 -21 -25
right_child=1 -3 -4 4 5 -7 -8 8 -10 11 25 -13 13 -15 22 -17 23 19 -20 26 -22 -23 -24 29 -26 -27 -28 -29 -30 -31
leaf_value=1.874864915245025e-05 -7.8305138617186187e-05 9.2677476255746734e-05 -6.404481076997641e-05 -5.4622257255230668e-05 -0.0016022615706702938 2.3125851226256586e-05 5.734412583491936e-05 0.0037417877345315869 0.011074593605514131 0.010326392959032092 -0.00038598874524612716 -0.0016156422512425225 0.0085910465629803236 0.0016317943334191417 0.0059082717923004003 0.0087054538045777015 0.01181342379885874 0.0024219478678855081 0.00085954964733163429 -0.0013046981983240993 -0.009336027693352662 0.011978101898502146 -0.0013637099787893086 0.0016442605475704857 -5.5180698982439939e-05 -0.0056023637928561548 0.0078730114805512143 0.015083947979811847 0.002877403380579509 -0.0039114962530615947
leaf_weight=34003 45199 50836 74566 4916 128 3985 2605 31 23 20 107 49 42 42 21 32 22 27 37 47 20 36 143 257 20 47 30 28 291 23
leaf_count=34003 45199 50836 74566 4916 128 3985 2605 31 23 20 107 49 42 42 21 32 22 27 37 47 20 36 143 257 20 47 30 28 291 23
internal_value=0 1.22043e-05 -9.63863e-06 7.66186e-05 0.000227647 0.000398686 0.000761236 0.0019652 0.00229254 0.00214532 0.00130744 0.00345616 0.00396752 0.00760455 0.00204823 0.00287835 0.00233313 0.00283213 0.00556741 0.00214666 -0.00258145 0.00816727 -0.000432542 0.00183665 0.00616171 -0.001978 0.00275053 0.0111882 0.00229587 0.00118789
internal_weight=0 96035 121598 47032 13029 8113 4128 1523 1395 1372 837 535 486 112 683 374 342 519 104 415 47 67 164 322 42 154 368 70 338 280
internal_count=217633 96035 121598 47032 13029 8113 4128 1523 1395 1372 837 535 486 112 683 374 342 519 104 415 47 67 164 322 42 154 368 70 338 280
shrinkage=0.05


Tree=192
num_leaves=31
num_cat=0
split_feature=41 40 40 5 23 43 33 26 24 41 10 33 3 26 26 4 9 8 4 38 19 26 5 11 18 21 0 33 28 20
split_gain=0.0105183 0.115423 0.241978 0.182428 0.237344 0.648676 0.23032 0.210016 0.210534 0.224023 0.29171 0.213828 0.239233 0.164394 0.163534 0.327595 0.353423 0.23767 0.221388 0.202406 0.149328 0.149273 0.253466 0.28391 0.258216 0.160554 0.729051 0.437519 0.171055 0.574094
threshold=0.32610899999999998 -0.018010000000000078 0.010257000000000018 9.0806150000000018e-06 -17.289999999999996 4.9203450000000002 0.00018972300000000001 -0.0011493749999999998 0.65909550000000017 0.078754999999999922 3.6038200000000003e-05 -6.1649649999999995e-06 -13.897099999999998 0.00022699600000000003 0.00036277200000000008 -0.11642199999999998 3.3645000000000007e-05 8.2554850000000015e-06 -0.27873999999999993 -0.010271549999999999 4.8386800000000011e-07 -0.013856449999999998 1.5270200000000005e-05 -1.0627499999999998e-05 -1.0012199999999997e-06 -12.635299999999999 3.3228650000000006 7.3850900000000001e-05 -0.064774849999999981 -4.8420449999999997
decision_type=2 2 2 2 2 2 2 2 2 2 2 2 2 2 2 2 2 2 2 2 2 2 2 2 2 2 2 2 2 2
left_child=1 3 14 4 5 -1 7 -6 9 10 11 12 -9 -13 18 17 20 -16 19 -3 -17 22 23 -5 -24 26 -23 -28 29 -27
right_child=-2 2 -4 21 6 -7 -8 8 -10 -11 -12 13 -14 -15 15 16 -18 -19 -20 -21 -22 25 24 -25 -26 28 27 -29 -30 -31
leaf_value=0.0087446358899826247 1.2528609880167431e-05 -0.0056272308353800329 -8.6397283019019746e-06 -0.0080595108931167773 -0.0028078366116720387 -0.00057291108095864252 -0.0049169609661302753 0.0089004125150131588 0.0048215272183629821 -0.00022198610860933227 -0.0031683344829587208 0.00064743430714198557 0.0025445671573770439 0.0050341011054115372 -0.00049486156842451447 -0.004892610178649193 -0.0086869115833668863 0.0054431851439982314 0.00055004050733306316 -0.00045432156900207619 0.00042135648087796886 -0.0002038376127647088 0.0038626231718808415 -0.0015954420521703304 -0.0021814316692545491 0.0013867280679426873 0.012447402960387991 0.0021141759219712448 -0.00016721978021718077 -0.0017208880226462497
leaf_weight=31 94660 20 106746 26 49 47 21 20 28 527 31 194 57 24 72 20 23 22 3781 347 39 188 30 49 43 199 20 21 9711 587
leaf_count=31 94660 20 106746 26 49 47 21 20 28 527 31 194 57 24 72 20 23 22 3781 347 39 188 30 49 43 199 20 21 9711 587
internal_value=0 -9.64405e-06 6.21369e-06 -0.000157617 0.000478701 0.00313022 0.000261227 0.000378154 0.000555354 0.000415316 0.00144555 0.0019304 0.00419544 0.00113037 0.000372898 -0.00111988 -0.00342949 0.000894894 0.000436236 -0.000736224 -0.00137999 -0.000217831 -0.00179491 -0.00383632 0.000302426 -0.00019607 0.00111364 0.00715477 -0.000224643 -0.0009341
internal_weight=0 122973 111070 11903 1029 78 951 930 881 853 326 295 77 218 4324 176 82 94 4148 367 59 10874 148 75 73 10726 229 41 10497 786
internal_count=217633 122973 111070 11903 1029 78 951 930 881 853 326 295 77 218 4324 176 82 94 4148 367 59 10874 148 75 73 10726 229 41 10497 786
shrinkage=0.05


Tree=193
num_leaves=31
num_cat=0
split_feature=40 21 31 3 3 36 9 3 0 0 26 0 20 0 18 26 39 38 4 9 4 5 0 6 16 29 16 16 0 43
split_gain=0.010319 0.444005 0.0124732 0.0827031 0.0773446 0.138773 0.0624152 0.0589168 0.0667622 0.105469 0.162488 0.0631646 0.0204757 0.143026 0.209893 0.298189 0.219893 0.147049 0.074976 0.0452625 0.0429324 0.0313046 0.110998 0.162634 0.0450393 0.169376 0.294146 0.0667756 0.0409254 0.101465
threshold=5.6762150000000009 2.9920850000000008 29.306750000000005 -15.867949999999999 -14.267049999999999 1.8680450000000002 -4.8004049999999993e-06 -13.353949999999999 -6.9102499999999987 -5.2225249999999992 0.0085896400000000008 -8.3447299999999967 -14.223749999999997 -8.8447699999999987 -1.0730149999999997e-06 -7.044784999999999e-05 0.020672650000000004 -0.21186449999999998 -0.079256599999999983 -4.8007999999999998e-05 -0.48550749999999993 1.3860800000000001e-05 -6.7140449999999996 1.9804200000000007e-06 6.5238050000000013e-06 -0.18041899999999997 7.0201950000000013e-05 3.9398900000000012e-06 -5.3044499999999992 0.60048999999999852
decision_type=2 2 2 2 2 2 2 2 2 2 2 2 2 2 2 2 2 2 2 2 2 2 2 2 2 2 2 2 2 2
left_child=2 -2 12 6 5 -5 -4 -6 11 10 -10 -9 13 14 15 -1 -17 -16 -19 20 -15 -21 23 -23 27 26 -26 28 29 -24
right_child=1 -3 3 4 7 -7 -8 8 9 -11 -12 -13 -14 19 17 16 -18 18 -20 21 -22 22 24 -25 25 -27 -28 -29 -30 -31
leaf_value=-0.0011863298695971025 -4.5423889920403524e-05 0.0060481337146953713 -0.0043441738361434546 -0.00093647922184027276 -0.0027572511730712991 0.0041887293886507648 -0.00068703310306383566 -0.00047870354038201461 -0.00065079598267481708 -8.2382648177288032e-05 0.0051724774106696719 -0.0028689796746928353 -1.5331557641457001e-06 -0.0025712745646512391 0.0036924218927257852 0.010012666299007834 0.0026870753739439398 0.0025472097399988742 -0.00052417512166429126 -0.00016433043337315178 -0.0003457424968776953 0.00045191445795736445 -0.00052081223444214891 0.0060222660008003009 0.0072825035293741782 4.5972434179177779e-05 -0.0005456795199279441 -0.0025673910563525099 -9.2015320482111165e-05 0.0041420632048175324
leaf_weight=20 838 31 20 25 22 28 28 119 23 454 25 36 213776 31 30 20 21 23 146 838 72 38 28 20 24 191 24 26 636 20
leaf_count=20 838 31 20 25 22 28 28 119 23 454 25 36 213776 31 30 20 21 23 146 838 72 38 28 20 24 191 24 26 636 20
internal_value=0 0.000171953 -6.89353e-07 -0.000200275 -6.84347e-05 0.00177118 -0.00221084 -0.000212027 -0.000126799 0.000153271 0.00238216 -0.00103386 3.14266e-08 0.000151512 0.00125302 0.00381894 0.00626053 0.000466477 -0.000106176 4.49452e-06 -0.00101556 6.14408e-05 0.000249322 0.00237273 0.000119546 0.000713241 0.00336841 -8.03034e-05 1.42351e-05 0.00142205
internal_weight=0 869 216764 780 732 53 48 679 657 502 48 155 215984 2208 260 61 41 199 169 1948 103 1845 1007 58 949 239 48 710 684 48
internal_count=217633 869 216764 780 732 53 48 679 657 502 48 155 215984 2208 260 61 41 199 169 1948 103 1845 1007 58 949 239 48 710 684 48
shrinkage=0.05


Tree=194
num_leaves=31
num_cat=0
split_feature=27 18 4 40 40 40 40 16 40 2 31 11 14 18 43 40 7 20 0 14 43 13 41 40 18 12 5 21 20 13
split_gain=0.00993797 0.0625305 0.192482 0.0585434 0.35139 0.169163 0.132033 0.50086 0.0970941 0.0588995 0.055426 0.051435 0.028352 0.0954029 0.0254025 0.0721256 0.0369841 0.0207289 0.352568 0.382921 0.0468849 0.0328958 0.0637351 0.199108 0.0479292 0.0282693 0.0243163 0.019268 0.018832 0.054475
threshold=91.481750000000019 0.0042538100000000011 2.9223900000000005 -0.17527649999999997 0.20129000000000011 0.056773999999999998 -0.60254799999999997 4.3089250000000013e-06 -0.079468000000000025 -1.7088249999999998 -13.003849999999998 -0.00057958749999999996 0.0014874650000000001 3.3339000000000007e-05 -1.1637600000000001 1.2236470000000002 2.8731350000000001e-05 19.256550000000001 10.160850000000002 5.7443850000000011e-05 12.219735000000002 5.7084500000000004e-06 0.32610899999999998 0.354709 0.00014095500000000004 -8.8131899999999982e-06 9.2943400000000012e-06 0.93373450000000013 -14.223749999999997 -5.3688449999999996e-05
decision_type=2 2 2 2 2 2 2 2 2 2 2 2 2 2 2 2 2 2 2 2 2 2 2 2 2 2 2 2 2 2
left_child=17 3 -3 6 5 8 -2 27 -5 -6 -10 -4 13 -11 16 -16 -14 28 20 -20 21 24 23 -23 26 -24 -19 -8 29 -1
right_child=1 2 11 4 9 -7 7 -9 10 12 -12 -13 14 -15 15 -17 -18 18 19 -21 -22 22 25 -25 -26 -27 -28 -29 -30 -31
leaf_value=0.0012879530899585917 -0.00014994388344413375 0.0040338467119808126 0.0020377768651914352 -0.0042655832822977883 0.0025709787951200269 -0.0059520843265754349 0.00076357059876629922 0.0088679538108408455 -0.0020952937071255988 -0.00016247755538298974 0.0015374274813525733 -0.00064258455495291855 0.0017941679379146081 0.0026832147747882121 -0.0035038891404558224 -0.00040762822691516807 -0.00055003452617488364 0.0014240991520906663 -0.0010756177660685194 0.0071835304235315159 0.0022654289330239405 -0.004347603460505175 -0.00010619106641283189 -0.00015284206025542306 0.0026221907498620569 0.0018934632177115421 -0.00020422826930414611 -0.00099615853512659671 -1.3599360767007534e-06 9.2153980009948474e-05
leaf_weight=100 616 36 22 24 20 37 28 20 21 370 21 96 20 32 26 68 106 27 23 36 20 39 152 103 20 20 152 35 213342 2001
leaf_count=100 616 36 22 24 20 37 28 20 21 370 21 96 20 32 26 68 106 27 23 36 20 39 152 103 20 20 152 35 213342 2001
internal_value=0 -0.000124231 0.000833516 -0.000226373 -0.000534753 -0.00324579 0.000102301 0.00197438 -0.00172862 -9.98043e-05 -0.000278933 -0.000142856 -0.000185682 6.40452e-05 -0.000642001 -0.00126404 -0.000177939 9.18931e-07 0.00029638 0.00396386 -0.000109589 -0.000202182 -0.000520927 -0.00130492 0.000300763 0.000126327 4.13854e-05 -0.000214057 1.07054e-07 0.00014907
internal_weight=0 1598 154 1444 745 103 699 83 66 642 42 118 622 402 220 94 126 216035 592 59 533 513 314 142 199 172 179 63 215443 2101
internal_count=217633 1598 154 1444 745 103 699 83 66 642 42 118 622 402 220 94 126 216035 592 59 533 513 314 142 199 172 179 63 215443 2101
shrinkage=0.05


Tree=195
num_leaves=31
num_cat=0
split_feature=25 2 36 41 42 44 43 19 34 13 37 41 42 43 21 20 31 31 20 44 36 16 36 15 15 7 36 25 16 11
split_gain=0.0101827 0.0620773 0.170952 0.0537106 0.751462 0.318698 0.822855 0.586213 0.69199 0.554911 0.381307 0.446882 0.34369 0.308999 0.294439 0.288136 0.652818 0.325304 0.32417 0.234006 0.224658 0.701407 0.217776 0.29041 0.205718 0.192126 0.125693 0.309147 0.387816 0.23214
threshold=9.4910900000000016 3.0794900000000003 0.0015972550000000001 -0.17681499999999981 -0.10081500000000009 -1.1537099999999991 -1.5196849999999988 7.1928800000000011e-08 3.5771350000000006 1.9549350000000003e-05 -8.7984999999999989e-06 -0.12554300000000002 0.077348000000000056 1.46871 8.4379150000000021 -3.1555199999999997 2.3607850000000004 2.0971700000000006 4.8193800000000007 4.0845250000000011 0.12161000000000001 2.1242850000000004e-06 -0.040164599999999995 -1.3696599999999996e-07 -1.9144549999999996e-08 4.0020550000000004e-05 0.43367700000000003 29.284250000000004 1.0552950000000002e-06 2.8834950000000004e-05
decision_type=2 2 2 2 2 2 2 2 2 2 2 2 2 2 2 2 2 2 2 2 2 2 2 2 2 2 2 2 2 2
left_child=-1 3 -3 -2 -5 13 14 -8 10 -10 -9 -12 20 -6 15 17 18 25 19 -17 22 -22 23 -13 -24 -7 -15 28 -28 -29
right_child=1 2 -4 4 5 6 7 8 9 -11 11 12 -14 26 -16 16 -18 -19 -20 -21 21 -23 24 -25 -26 -27 27 29 -30 -31
leaf_value=3.1879056699757148e-06 5.4439562018026388e-05 0.0049915254752151035 -0.00011530255764419532 3.6250618664778898e-05 0.0042890882458199156 -0.0021081802574917674 -0.010080979167651095 0.0036852120780027833 -0.014429521527860992 -0.0034358322833819934 0.0035605271342389572 -0.0065203344650481918 -0.0078438866291738428 -0.0013190380176455289 -0.0031712510949377989 0.0058711896489920291 0.0083589325494625982 -0.0053884087791835379 -0.0029845206052414143 -0.0011590074503328653 -0.012205611025406557 -0.0016421169819924135 0.004059971913894905 0.00027683558136535187 -0.0017668929148578283 0.0047392917684711787 1.5032049527184831e-05 0.00044250817143551583 0.0083268005815942004 -0.005185707409067878
leaf_weight=200236 7775 23 57 8458 33 20 32 26 22 24 26 33 36 293 54 29 34 31 42 20 22 55 28 30 33 21 36 53 23 28
leaf_count=200236 7775 23 57 8458 33 20 32 26 22 24 26 33 36 293 54 29 34 31 42 20 22 55 28 30 33 21 36 53 23 28
internal_value=0 -3.66922e-05 0.00135291 -4.31118e-05 -0.000122598 -0.00136203 -0.0021065 -0.00361533 -0.00299771 -0.00869368 -0.00209109 -0.00266213 -0.00334478 -0.000374737 9.96473e-05 0.000996239 0.00244751 -0.00152332 0.00023884 0.00300172 -0.00253898 -0.00466026 -0.00122173 -0.00328359 0.000907734 0.00139906 -0.000730179 0.000502219 0.00325521 -0.00150305
internal_weight=0 17397 80 17317 9542 1084 618 367 335 46 289 263 237 466 251 197 125 72 91 49 201 77 124 63 61 41 433 140 59 81
internal_count=217633 17397 80 17317 9542 1084 618 367 335 46 289 263 237 466 251 197 125 72 91 49 201 77 124 63 61 41 433 140 59 81
shrinkage=0.05


Tree=196
num_leaves=31
num_cat=0
split_feature=21 1 35 40 40 4 17 43 14 23 43 12 19 22 23 1 24 40 23 18 30 43 33 0 29 27 40 40 22 2
split_gain=0.0100021 0.0785222 0.131854 0.408899 0.764228 0.123582 0.163714 0.0574482 0.0765754 0.0579478 0.0503286 0.182504 0.263264 0.222747 0.0772428 0.0746899 0.150704 0.366566 0.0540057 0.0428986 0.0370761 0.0364969 0.129856 0.0302862 0.177085 0.0287157 0.0245165 0.0909535 0.114407 0.0880107
threshold=13.390900000000002 10.154350000000003 0.0080513700000000021 0.2761725000000001 -0.3819765 0.43776750000000003 -4.5397049999999996e-08 0.31279500000000043 0.00010396350000000002 -7.3979749999999997 0.55890500000000032 0.00011228600000000002 0.00013149400000000004 2.0895950000000005 -13.08405 6.2690350000000006 0.50944100000000014 0.30085850000000008 -7.2203449999999991 -2.9652499999999997e-08 0.16934650000000004 1.3895649999999999 0.00018972300000000001 8.7505950000000023 -0.28811899999999996 0.23651650000000005 -0.3819765 0.1751400000000001 0.13387500000000005 0.45047650000000006
decision_type=2 2 2 2 2 2 2 2 2 2 2 2 2 2 2 2 2 2 2 2 2 2 2 2 2 2 2 2 2 2
left_child=-1 10 5 4 -4 6 -3 19 -9 -10 14 21 -13 -14 -2 20 18 -18 -17 -8 23 22 25 26 -25 -12 -16 28 -28 -29
right_child=1 2 3 -5 -6 -7 7 8 9 -11 11 12 13 -15 15 16 17 -19 -20 -21 -22 -23 -24 24 -26 -27 27 29 -30 -31
leaf_value=-1.3191560236239779e-06 -0.0030234173490478735 0.0041251592722902491 -0.00081231609961832877 -0.00013923108381277415 0.012844477735260235 -0.0036246893375573561 -0.00031270630986130398 0.00020831759055265763 -0.00060372713799422073 -0.0043643163642263973 0.0018588493477750491 0.0072252619630446477 -0.00040781280677038012 0.0050903683817014106 4.8688476497137949e-05 -0.0021823164933266526 -0.0082042359117291529 0.00035472070279050466 5.5708619500535081e-05 0.0022812836329772052 0.0017848587392203124 -0.00014812435223157693 0.0034930620453616774 0.0050412325911747755 -0.00010841455486935037 -0.0001535260983386112 -0.0050428897608071569 0.0030321510286409072 -0.00082802143389425773 -0.00023465613777447531
leaf_weight=214386 23 27 20 68 21 20 28 82 21 20 20 21 70 25 1084 32 22 29 171 37 29 627 33 20 101 156 21 22 69 328
leaf_count=214386 23 27 20 68 21 20 28 82 21 20 20 21 70 25 1084 32 22 29 171 37 29 627 33 20 101 156 21 22 69 328
internal_value=0 8.70984e-05 0.00080138 0.00223872 0.00618263 0.000134701 0.000484411 -3.84619e-05 -0.000673842 -0.00243816 2.45743e-06 0.00030049 0.00215899 0.00103908 -0.000142969 -0.000108607 -0.000907536 -0.00333738 -0.000297084 0.00116387 1.26165e-05 4.26124e-05 0.000614823 -1.86267e-05 0.000742767 7.51529e-05 -7.90786e-05 -0.00039385 -0.00181149 -2.9314e-05
internal_weight=0 3247 344 109 41 235 215 188 123 41 2903 952 116 95 1951 1928 254 51 203 65 1674 836 209 1645 121 176 1524 440 90 350
internal_count=217633 3247 344 109 41 235 215 188 123 41 2903 952 116 95 1951 1928 254 51 203 65 1674 836 209 1645 121 176 1524 440 90 350
shrinkage=0.05


Tree=197
num_leaves=31
num_cat=0
split_feature=40 21 26 4 0 15 20 43 22 24 3 19 14 20 21 2 40 40 16 43 43 19 28 37 0 14 18 23 43 40
split_gain=0.00974538 0.226806 0.0118306 0.0678809 0.12044 0.196069 0.529164 0.173279 0.228053 0.0947262 0.363007 0.263482 0.0711282 0.0814021 0.0694797 0.0562898 0.0560481 0.539729 0.263555 0.40698 0.431561 0.380967 0.359309 0.335086 0.167361 0.163681 0.101609 0.0987279 0.0749569 0.0558929
threshold=-5.6825599999999996 -3.7984549999999992 0.0020748500000000005 -0.12727799999999997 8.6233850000000025 -9.0272649999999983e-06 16.002400000000005 0.39187000000000044 -0.20719599999999996 -2.2419299999999995 -12.74245 0.0061593000000000004 0.0094329700000000006 6.4251500000000012 5.5200300000000011 3.0333000000000006 -0.22452634999999985 0.1751400000000001 7.2294100000000005e-06 1.3091549999999998 -0.36707999999999957 0.00013149400000000004 1.0121250000000004 -6.7840449999999985e-07 1.1355750000000002 0.0027461200000000003 4.6049500000000007e-05 -7.1435249999999995 -2.39771 -0.27744100000000016
decision_type=2 2 2 2 2 2 2 2 2 2 2 2 2 2 2 2 2 2 2 2 2 2 2 2 2 2 2 2 2 2
left_child=1 -1 -2 4 9 12 7 8 -7 10 11 -4 13 -6 -12 -11 29 18 19 20 23 24 25 -18 -22 -20 -21 28 -25 -5
right_child=2 -3 3 16 5 6 -8 -9 -10 15 14 -13 -14 -15 -16 -17 17 -19 22 26 21 -23 -24 27 -26 -27 -28 -29 -30 -31
leaf_value=0.0041701738120001912 1.6561376186537633e-06 3.3391292426815845e-06 0.0081216664800498016 -2.5440555541768418e-05 0.00011082206087667146 -0.00069590394637682196 0.0091793618643271693 -0.00016635732389862191 0.0056442302063334027 -7.6967618357211501e-05 -0.00085720453095018473 0.00065417438579191056 0.002023667280861576 -0.0029592759480644754 0.0020011694528808154 0.0024637023481731872 0.0028014856446534394 -3.0140049061813483e-05 0.0018393815849611366 -0.00030276424620008676 -0.0023952815328292282 -0.012964877370922341 0.006449529444798827 -0.0034184309764532374 -0.0083838527300395069 -0.0038386600034815881 -0.0037026200604696686 -0.0019993965067221105 -0.0077473143744282427 0.0019064768196442043
leaf_weight=34 208525 827 27 2534 50 23 23 103 37 2408 100 21 21 38 27 22 25 2364 22 142 28 21 20 20 20 30 26 37 20 38
leaf_count=34 208525 827 27 2534 50 23 23 103 37 2408 100 21 21 38 27 22 25 2364 22 142 28 21 20 20 20 30 26 37 20 38
internal_value=0 0.000167883 -6.66818e-07 -5.94026e-05 0.000135381 0.0010929 0.00207968 0.00107789 0.00321385 2.69471e-05 0.00115048 0.00485464 -0.000590958 -0.0012149 -0.000249519 -5.39657e-05 -0.000165045 -0.000320893 -0.00199325 -0.00257677 -0.00429393 -0.00734793 0.000754128 -0.00222799 -0.00489052 -0.00143641 -0.000828932 -0.00386094 -0.00558287 3.10255e-06
internal_weight=0 861 216772 8247 2900 295 186 163 60 2605 175 48 109 88 127 2430 5347 2775 411 339 171 69 72 102 48 52 168 77 40 2572
internal_count=217633 861 216772 8247 2900 295 186 163 60 2605 175 48 109 88 127 2430 5347 2775 411 339 171 69 72 102 48 52 168 77 40 2572
shrinkage=0.05


Tree=198
num_leaves=31
num_cat=0
split_feature=27 18 4 3 11 12 40 16 1 15 4 40 40 11 16 43 16 7 18 20 0 14 43 13 9 24 43 9 7 20
split_gain=0.00934747 0.054463 0.171764 0.056181 0.0529684 0.0472631 0.101621 0.0784011 0.197755 0.0621733 0.0901669 0.0467145 0.0935318 0.0442914 0.0386136 0.139962 0.0406791 0.0272305 0.0184811 0.0177745 0.318324 0.36058 0.042062 0.0304478 0.0327376 0.0946176 0.0525221 0.0474775 0.0202059 0.0172092
threshold=91.481750000000019 0.0042538100000000011 2.9223900000000005 -14.703099999999997 -0.00035055549999999991 -0.00014946199999999997 -0.14969009999999991 6.5238050000000013e-06 -3.5464499999999997 2.2869100000000004e-05 1.3297700000000001 -0.27744100000000016 0.354709 -0.00057958749999999996 2.7687200000000004e-06 -0.19603999999999996 1.8237450000000004e-06 7.5152950000000014e-05 2.0038450000000001e-05 19.256550000000001 10.302050000000003 5.7443850000000011e-05 12.219735000000002 -6.0913899999999993e-05 2.5088000000000004e-05 -0.82489099999999993 0.97785500000000003 1.9954650000000004e-05 4.8886400000000007e-05 -14.223749999999997
decision_type=2 2 2 2 2 2 2 2 2 2 2 2 2 2 2 2 2 2 2 2 2 2 2 2 2 2 2 2 2 2
left_child=19 3 -3 11 -5 6 17 14 -9 10 -10 -2 -13 -4 16 -16 18 -6 -7 29 22 -22 23 -21 27 -26 28 -25 -27 -1
right_child=1 2 13 4 5 7 -8 8 9 -11 -12 12 -14 -15 15 -17 -18 -19 -20 20 21 -23 -24 24 25 26 -28 -29 -30 -31
leaf_value=0.00014253936282200528 -0.00020741366126017193 0.0037965337877620994 0.0018745661756838672 0.0018636733387459325 -0.000650806251760514 -0.00012274278023933984 -0.0033686198939436255 0.0051950494783037961 -0.0008754733052972535 -0.0015562952186779252 0.0027194102030448819 -0.0044492831290251795 -0.00071183229854486474 -0.00061270967511148919 0.0017422478662670723 -0.003421020164137839 0.0020973707543817002 0.0014119003110863561 -0.001023002614094933 0.0017291826511609543 -0.0010609945639110019 0.0072028861338780687 0.002153306980835623 -0.00017057304282875357 0.0010189357757693731 -0.0020725762400161329 -0.0037311303562351638 0.0022753849420474753 -6.0695550816420179e-05 -1.2629471582040337e-06
leaf_weight=2101 66 36 22 33 80 871 35 24 33 35 37 26 47 96 21 35 20 20 61 20 22 33 20 359 39 24 28 21 26 213342
leaf_count=2101 66 36 22 33 80 871 35 24 33 35 37 26 47 96 21 35 20 20 61 20 22 33 20 359 39 24 28 21 26 213342
internal_value=0 -0.000120484 0.000773348 -0.000215809 -0.000114024 -0.000165333 -0.00104984 -6.0312e-05 0.0011003 0.000164355 0.00102468 -0.00117142 -0.00204298 -0.00014898 -0.000208842 -0.00148479 -0.000133786 -0.000238265 -0.000181665 8.91212e-07 0.000274489 0.00389733 -9.65659e-05 -0.000183602 -0.000260575 -0.000991907 -0.00199733 -3.54017e-05 -0.0010264 1.39413e-07
internal_weight=0 1598 154 1444 1305 1272 135 1137 129 105 70 139 73 118 1008 56 952 100 932 216035 592 55 537 517 497 117 78 380 50 215443
internal_count=217633 1598 154 1444 1305 1272 135 1137 129 105 70 139 73 118 1008 56 952 100 932 216035 592 55 537 517 497 117 78 380 50 215443
shrinkage=0.05


Tree=199
num_leaves=31
num_cat=0
split_feature=7 2 33 40 40 23 21 40 16 14 40 40 36 37 5 20 14 5 2 14 28 36 9 24 21 21 1 11 16 24
split_gain=0.00931091 0.0395588 0.0337062 0.038278 0.243848 0.026369 0.0664438 0.132444 0.263149 0.0394209 0.0664678 0.526811 0.395152 0.227321 0.176998 0.12207 0.0597712 0.0310763 0.0259581 0.0269302 0.0448092 0.0248417 0.017665 0.0169944 0.015755 0.0136285 0.0731903 0.205722 0.158304 0.369701
threshold=2.2278700000000004e-05 3.0794900000000003 -8.1044199999999979e-05 0.24966499999999994 -0.058960000000000005 -8.481284999999998 -8.4289549999999984 0.30085850000000008 7.0198000000000018e-08 0.0007810015000000002 0.10022550000000004 -0.17527649999999997 -0.0066577299999999997 -4.0691899999999991e-07 1.0779150000000002e-05 1.4617650000000004 0.0014874650000000001 1.0179600000000002e-05 -2.5264449999999994 0.0006072295000000001 0.017503900000000003 -0.00025274999999999994 1.9011650000000006e-05 0.57845200000000008 14.003250000000001 13.390900000000002 8.8482550000000018 3.3784900000000002e-05 1.0552950000000002e-06 0.28548400000000002
decision_type=2 2 2 2 2 2 2 2 2 2 2 2 2 2 2 2 2 2 2 2 2 2 2 2 2 2 2 2 2 2
left_child=1 2 3 4 -1 6 7 8 17 18 11 -11 -13 -14 15 16 -15 -4 -8 22 -21 -18 -20 24 -7 -2 -27 28 -28 -30
right_child=25 -3 5 -5 -6 23 9 -9 -10 10 -12 12 13 14 -16 -17 21 -19 19 20 -22 -23 -24 -25 -26 26 27 -29 29 -31
leaf_value=-0.00020134809662957433 -3.3110285443696413e-06 0.0022811321544213572 0.0021092159178078876 5.5674662816613819e-05 -0.0061831562980660245 -2.0900190374881586e-05 -0.0013770320166157845 -3.928363045237017e-05 0.0076943283177388373 -4.5096351531133524e-05 -6.3319854205537286e-05 0.0086485842977148987 -0.0013758000862971562 0.0027474465376664224 0.0072265768545635408 0.0045583429790389748 -0.0015105754882097245 -0.00064470878543423699 2.0395220119215221e-05 -0.00029003318473502787 -0.0027677123895542043 0.00095165235938371299 0.0015164542444199469 -0.0014645994969344298 -0.0011742019678664898 -4.2718594378662277e-07 0.00051153672569720994 -0.0033371357766494233 -0.00059947470986485691 0.0063349419352016411
leaf_weight=115 208420 20 20 160 20 2291 36 88 20 704 707 26 38 28 21 36 20 21 1469 107 22 21 20 21 30 2674 371 30 37 40
leaf_count=115 208420 20 20 160 20 2291 36 88 20 704 707 26 38 28 21 36 20 21 1469 107 22 21 20 21 30 2674 371 30 37 40
internal_value=0 6.11027e-05 5.37529e-05 -0.000467492 -0.00108754 8.05136e-05 0.000169358 0.00120185 0.00299233 0.000122096 0.000298956 0.000585453 0.0029218 0.0020139 0.00303619 0.00219811 0.000966691 0.000698669 -4.90972e-05 -1.9551e-05 -0.000712583 -0.000249434 4.049e-05 -4.86187e-05 -3.58072e-05 -1.75044e-06 0.000101441 0.000671304 0.000939726 0.00300282
internal_weight=0 6061 6041 295 135 5746 3404 149 61 3255 1601 894 190 164 126 105 69 41 1654 1618 129 41 1489 2342 2321 211572 3152 478 448 77
internal_count=217633 6061 6041 295 135 5746 3404 149 61 3255 1601 894 190 164 126 105 69 41 1654 1618 129 41 1489 2342 2321 211572 3152 478 448 77
shrinkage=0.05


Tree=200
num_leaves=31
num_cat=0
split_feature=36 16 19 29 20 14 10 40 20 3 3 7 23 44 40 40 43 14 19 3 33 44 19 21 3 21 40 40 16 10
split_gain=0.00930247 0.0918449 0.159531 0.251654 0.163306 0.229545 0.15626 0.150438 0.155711 0.142647 0.140797 0.0961526 0.146244 0.0703364 0.121871 1.23647 0.340996 0.420146 0.731109 0.317068 0.251002 0.235689 0.0679767 0.0667526 0.0584465 0.124056 0.163729 0.288461 0.0519189 0.149432
threshold=0.14537000000000003 6.5238050000000013e-06 0.00011990100000000002 -1.2159399999999998 6.7384950000000012 0.0022103100000000005 1.8512400000000006e-05 0.327845 -0.94259349999999986 -10.778799999999999 -18.627349999999996 2.9180750000000003e-05 -13.010249999999997 -2.5924899999999993 0.20129000000000011 -0.079468000000000025 -0.41630000000000006 0.00014912150000000003 0.00045332900000000009 -9.2899249999999984 4.8167950000000007e-05 1.9491550000000004 0.00015321200000000004 8.4379150000000021 -12.74245 -9.1109899999999975 -0.32870999999999989 0.5456565000000001 7.6833350000000012e-05 2.0397950000000003e-05
decision_type=2 2 2 2 2 2 2 2 2 2 2 2 2 2 2 2 2 2 2 2 2 2 2 2 2 2 2 2 2 2
left_child=-1 13 3 -3 6 -6 7 8 -5 -8 -4 12 -12 24 15 -15 19 -18 20 21 -19 -17 -13 -11 25 -2 -27 -28 29 -24
right_child=1 2 10 4 5 -7 9 -9 -10 23 11 22 -14 14 -16 16 17 18 -20 -21 -22 -23 28 -25 -26 26 27 -29 -30 -31
leaf_value=2.1612915430097492e-06 -0.001763872748870199 0.0059310126243400634 0.004041118376533797 0.005703608768362756 0.00063561333729247112 0.0074060287880933001 -0.0046658398729414333 -0.0014923983681694069 0.00016266667586196926 -0.00065755047553562023 0.0044634427023508274 -0.0021595557263552972 0.00012357195510544856 -0.00012066539176547142 2.1296163993399051e-05 -0.0081216470382752867 -0.0012305867258515773 -0.016101857126605782 -0.0027828473931672433 0.0028806149130687119 -0.0084595892755758208 -0.0020287702768557489 0.0022949432585310857 0.0024574745543456331 -3.748166598345575e-07 3.044358824505859e-05 0.0085742185694107336 0.00091956858555022338 -0.00025215033622809341 3.1819247344719117e-05
leaf_weight=208518 31 27 22 32 31 21 20 21 21 95 30 38 55 1940 1909 21 33 22 37 25 21 65 84 21 2867 60 20 32 960 554
leaf_count=208518 31 27 22 32 31 21 20 21 21 95 30 38 55 1940 1909 21 33 22 37 25 21 65 84 21 2867 60 20 32 960 554
internal_value=0 -4.94425e-05 0.000246881 0.00133489 0.000861239 0.00336982 0.000240067 0.00208907 0.00350814 -0.000766008 6.64831e-05 1.56743e-05 0.00165529 -0.000134453 -0.000269902 -0.000526787 -0.00404409 -0.00597758 -0.00793572 -0.00207576 -0.0123696 -0.00351657 -6.95137e-05 -9.36235e-05 4.88314e-05 0.00103536 0.00181015 0.00386366 -1.9813e-05 0.000329785
internal_weight=0 9115 2032 289 262 52 210 74 53 136 1743 1721 85 7083 4073 2164 224 113 80 111 43 86 1636 116 3010 143 112 52 1598 638
internal_count=217633 9115 2032 289 262 52 210 74 53 136 1743 1721 85 7083 4073 2164 224 113 80 111 43 86 1636 116 3010 143 112 52 1598 638
shrinkage=0.05


Tree=201
num_leaves=31
num_cat=0
split_feature=35 15 15 27 15 40 41 20 44 4 24 44 20 19 3 9 28 21 40 44 10 44 6 21 21 16 20 40 44 40
split_gain=0.00929411 0.248561 0.200669 0.14416 0.218624 0.391566 1.27428 0.68667 0.549114 0.615223 0.725485 0.777259 0.670998 0.636942 0.532292 0.439218 0.406314 0.402545 0.467468 0.451551 0.443054 0.358033 0.345972 0.289591 0.287956 0.275148 0.412475 0.716899 0.615731 0.445665
threshold=0.00018180000000000003 -1.7138249999999995e-08 -9.6356049999999989e-08 0.98082900000000006 -1.9150249999999998e-05 0.327845 0.32610899999999998 14.554100000000002 3.7911450000000002 0.18998850000000003 0.24276500000000004 -0.52047500000000058 3.5249450000000002 0.0034295500000000004 -12.510449999999999 -2.2309399999999997e-05 -0.041208949999999994 -11.150349999999998 -0.079468000000000025 -4.1215849999999987 3.4769000000000005e-05 -0.4353949999999997 6.1484100000000015e-08 8.5720600000000022 -12.050999999999998 -5.7111899999999989e-06 4.9008950000000011 0.077348000000000056 0.7622899999999998 -0.058960000000000005
decision_type=2 2 2 2 2 2 2 2 2 2 2 2 2 2 2 2 2 2 2 2 2 2 2 2 2 2 2 2 2 2
left_child=2 -2 3 -1 -5 6 7 8 9 10 11 14 13 17 -6 -12 -9 -11 19 -19 22 -17 -21 24 -16 -13 27 -27 29 -28
right_child=1 -3 -4 4 5 -7 -8 16 -10 12 15 25 -14 -15 23 21 -18 18 -20 20 -22 -23 -24 -25 -26 26 28 -29 -30 -31
leaf_value=1.3213953721262655e-05 -7.3681805744762891e-05 8.7475860982993815e-05 -6.0194639782006819e-05 -4.6571175758534373e-05 0.0059869865286013776 1.7263133472967905e-05 4.4255879349016917e-05 0.0027934686071239413 -0.0014626086493080949 0.009019778562443596 -2.5287965871139759e-05 -0.00079848260938888418 0.010312820976269583 0.0084514272685757737 0.004248039416852408 -0.00056230741121488295 0.012537899332971354 -0.0015353121860560192 0.0010787572829703213 0.012844050241280989 0.0018694393343009455 -0.0082622857300318885 0.0050520296850923583 0.0043972364574944118 -0.0020294054167427143 0.0040599510899952604 0.0091069783385912036 0.013192524550046074 -0.0045507015241309998 0.0021745236551773484
leaf_weight=32519 45199 50836 74566 5476 31 4418 2927 20 134 21 149 40 31 45 20 26 23 23 368 29 35 36 28 23 211 153 27 25 30 164
leaf_count=32519 45199 50836 74566 5476 31 4418 2927 20 134 21 149 40 31 45 20 26 23 23 368 29 35 36 28 23 211 153 27 25 30 164
internal_value=0 1.16268e-05 -9.18254e-06 7.16936e-05 0.000202728 0.000353792 0.000675676 0.00176797 0.00160532 0.00187667 0.0010831 0.00183498 0.00315597 0.00275185 -0.000198283 -0.00149683 0.00800561 0.00224296 0.00194831 0.00473089 0.00629744 -0.00503326 0.00901639 -0.000953178 -0.0014859 0.00315498 0.00355132 0.00534262 0.00210855 0.0031545
internal_weight=0 96035 121598 47032 14513 9037 4619 1692 1649 1515 935 724 580 549 285 211 43 504 483 115 92 62 57 254 231 439 399 178 221 191
internal_count=217633 96035 121598 47032 14513 9037 4619 1692 1649 1515 935 724 580 549 285 211 43 504 483 115 92 62 57 254 231 439 399 178 221 191
shrinkage=0.05


Tree=202
num_leaves=31
num_cat=0
split_feature=25 4 24 4 40 40 43 43 40 40 11 16 43 5 13 7 18 20 26 25 43 14 5 11 6 20 10 5 40 23
split_gain=0.00999824 0.0642426 0.444661 0.522551 0.60865 2.12605 0.747746 0.555127 0.550182 0.894372 0.921946 0.624685 0.609066 0.548349 0.544468 0.528282 0.434877 0.419844 0.38544 0.374872 0.554353 0.428539 0.308916 0.430961 0.297518 0.280639 0.226779 0.189635 0.154608 0.15353
threshold=2.3108700000000004 0.17779150000000002 0.25201650000000003 1.4464300000000001 0.38220950000000015 -0.3562499999999999 -3.6431499999999999 5.3602800000000004 -0.079468000000000025 0.077348000000000056 4.8912350000000013e-05 -1.1786699999999996e-06 -0.77143500000000065 1.7650100000000002e-05 1.9140700000000005e-05 3.5630700000000011e-05 6.4264150000000017e-05 0.27307350000000002 -2.2730149999999994e-05 23.183300000000006 0.97785500000000003 0.00051382550000000015 1.2194250000000001e-05 1.6735200000000005e-05 1.4781500000000002e-06 -0.8551494999999999 2.3474250000000003e-05 1.5576600000000003e-05 -0.040859549999999939 -6.8702999999999994
decision_type=2 2 2 2 2 2 2 2 2 2 2 2 2 2 2 2 2 2 2 2 2 2 2 2 2 2 2 2 2 2
left_child=-1 -2 -3 4 5 -4 29 8 13 12 11 17 25 15 -15 18 -17 -11 26 20 21 28 -13 24 -24 -10 -8 -22 -14 -7
right_child=1 2 3 -5 -6 6 7 -9 9 10 -12 22 19 14 -16 16 -18 -19 -20 -21 27 -23 23 -25 -26 -27 -28 -29 -30 -31
leaf_value=5.4928926344435849e-06 -6.0649972701553745e-05 -0.00022144016701172847 -1.559138287686093e-05 -6.6619726244268249e-05 -0.00010395700018119721 -0.0041113411054352466 0.012602195175814219 -0.00074487792446494244 0.0024753041681833568 0.0046010180376470089 0.013422141868088927 -0.0012204634834473071 0.0063126259515734603 0.015249607174914201 0.0045260211988352242 0.0045440941566734444 -0.0051092982478439814 0.014846059691044503 0.0020141617433485711 -0.0047017737552523618 0.0088244076536577801 -0.00091870808068850282 0.010334056924537956 -0.0015806876427848779 0.0023494503905021704 0.0097658012851642335 0.0058701580855995417 0.0029043798916973174 0.0020441671795178805 0.0011913993474168127
leaf_weight=172355 31329 6792 1295 3726 1227 39 29 70 22 20 35 38 27 29 20 28 20 20 24 25 31 164 28 21 20 33 22 24 99 21
leaf_count=172355 31329 6792 1295 3726 1227 39 29 70 22 20 35 38 27 29 20 28 20 20 24 25 31 164 28 21 20 33 22 24 99 21
internal_value=0 -2.09092e-05 6.83472e-05 0.000343356 0.000788581 0.00128547 0.00313902 0.00352025 0.00390351 0.00319617 0.00612905 0.0043926 0.00194021 0.00639974 0.0108726 0.00461785 0.000521847 0.00972354 0.00723929 0.00121044 0.00163886 0.000766018 0.00239972 0.00439345 0.00700714 0.0068496 0.00969818 0.00624112 0.00295884 -0.00225538
internal_weight=0 45278 13949 7157 3431 2204 909 849 779 607 182 147 425 172 49 123 48 40 75 370 345 290 107 69 48 55 51 55 126 60
internal_count=217633 45278 13949 7157 3431 2204 909 849 779 607 182 147 425 172 49 123 48 40 75 370 345 290 107 69 48 55 51 55 126 60
shrinkage=0.05


Tree=203
num_leaves=31
num_cat=0
split_feature=40 40 40 20 28 21 12 26 44 14 44 34 36 43 20 9 43 7 43 25 41 43 3 19 35 18 24 7 39 30
split_gain=0.010746 0.0945896 0.209912 0.154443 0.31727 0.233861 0.152667 0.352647 0.148142 0.633161 0.399717 0.383866 0.305782 0.163651 0.145305 0.403522 0.220669 0.138257 0.249233 0.131314 0.469668 0.238643 0.541132 0.311651 0.279653 0.270234 0.623336 0.324485 0.331454 0.414206
threshold=-0.40968649999999995 -0.018010000000000078 0.010257000000000018 16.002400000000005 0.69707500000000011 -7.4922749999999985 0.00019109250000000003 0.00011948200000000001 0.6060099999999996 0.00021556200000000001 0.31988499999999936 0.03594495000000001 0.0031866900000000003 -2.5440100000000001 3.4514100000000005 6.5186550000000002e-06 -1.0505799999999998 6.6433600000000021e-05 -0.086730000000000182 6.6944750000000006 0.09983149999999999 1.1470050000000007 -11.279499999999997 8.0243550000000009e-08 0.33249250000000002 -5.194759999999999e-05 -0.59879749999999998 6.2448650000000014e-05 0.005313420000000001 0.013857300000000001
decision_type=2 2 2 2 2 2 2 2 2 2 2 2 2 2 2 2 2 2 2 2 2 2 2 2 2 2 2 2 2 2
left_child=-1 3 6 19 5 -5 8 -8 10 -10 17 -12 14 -14 15 -11 -16 -3 -19 -2 21 23 -23 -21 25 26 -25 28 -27 -30
right_child=1 2 -4 4 -6 -7 7 -9 9 12 11 -13 13 -15 16 -17 -18 18 -20 20 -22 22 -24 24 -26 27 -28 -29 29 -31
leaf_value=1.2980728662113264e-05 -9.1621119330494592e-05 0.00050108904688615015 -7.6447376649585475e-06 0.0049182031528537421 0.0072624489487636661 -0.0010124701455050159 -0.00013869202766688337 -0.0057378532346490374 -0.009235105593688786 -0.0010916621241709177 0.007427892247466622 0.001608271993471075 -9.4673505962072389e-05 0.0055515723509333009 -0.00099872853596833823 0.0058226233849731773 -0.0067204576789994131 -0.0047613912298402287 -0.00012232757465450338 -0.0075305233324797884 -1.7600947227255675e-05 0.0072018937475513663 -0.0015011064407783757 -0.00083933664311189218 -0.0069525427974960101 0.00090929680258309284 -0.011650234934641049 0.004729261844418943 -0.0099045968791913429 -0.00097338432507753812
leaf_weight=92022 12892 3260 106746 22 21 68 232 32 20 112 37 121 21 33 72 26 22 32 304 32 1087 20 167 40 28 64 20 25 21 34
leaf_count=92022 12892 3260 106746 22 21 68 232 32 20 112 37 121 21 33 72 26 22 32 304 32 1087 20 167 40 28 64 20 25 21 34
internal_value=0 -9.50962e-06 6.18955e-06 -0.000129426 0.0017285 0.00043725 0.000347715 -0.000817378 0.000423474 -0.000634395 0.000509705 0.00297109 -3.29466e-05 0.00335581 -0.000821709 0.000211029 -0.00233786 0.000401557 -0.000564143 -0.000143718 -0.00058041 -0.00193689 -0.000570304 -0.00290489 -0.00226687 -0.00162374 -0.00444297 -0.000449063 -0.00153695 -0.00438348
internal_weight=0 125611 111070 14541 111 90 4324 264 4060 306 3754 158 286 54 232 138 94 3596 336 14430 1538 451 187 264 232 204 60 144 119 55
internal_count=217633 125611 111070 14541 111 90 4324 264 4060 306 3754 158 286 54 232 138 94 3596 336 14430 1538 451 187 264 232 204 60 144 119 55
shrinkage=0.05


Tree=204
num_leaves=31
num_cat=0
split_feature=41 41 41 4 24 18 21 38 18 43 11 37 3 0 24 40 21 3 7 40 21 31 3 21 15 40 28 35 20 43
split_gain=0.00994734 0.138383 0.159634 0.221116 0.230363 0.46853 0.188826 0.237313 0.230419 0.356934 0.18318 0.139442 0.292581 0.425581 0.145092 0.205736 0.153474 0.185079 0.184407 0.239559 0.140173 0.135392 0.787144 0.377316 0.514549 0.287078 0.13284 0.24384 0.2303 0.213774
threshold=-0.35786749999999995 -0.026150000000000003 0.011134999999999897 -0.3422659999999999 0.31120700000000007 -0.0012949349999999999 -13.876599999999998 0.010018650000000002 -6.2009649999999988e-06 1.8131900000000003 -4.2280249999999992e-06 -2.7510949999999998e-05 -8.7018349999999973 -3.0090749999999997 -1.1409399999999998 0.056773999999999998 6.6102700000000008 -8.6604199999999967 3.0982400000000003e-05 0.10022550000000004 -1.2295899999999997 2.7376000000000005 -15.867949999999999 -4.6981599999999988 -1.8735799999999998e-06 0.077348000000000056 -0.18761549999999996 -0.60082499999999983 -2.3663549999999995 -1.2170650000000005
decision_type=2 2 2 2 2 2 2 2 2 2 2 2 2 2 2 2 2 2 2 2 2 2 2 2 2 2 2 2 2 2
left_child=-1 11 3 4 -3 -6 -5 -8 -9 10 -10 12 13 -2 15 -13 18 -18 -17 -20 -21 26 -23 24 -24 -25 28 -28 -16 -30
right_child=1 2 -4 6 5 -7 7 8 9 -11 -12 14 -14 -15 21 16 17 -19 19 20 -22 22 23 25 -26 -27 27 -29 29 -31
leaf_value=1.2384276322884955e-05 -1.9405952895924982e-05 -0.00040280775571174712 -5.1024114835714286e-06 0.0052278935391223066 0.0011946510298002978 -0.0091351375611417977 0.00041879891538400992 0.001936368041788228 -0.0030836057313717905 -0.00039109212079334581 -0.009769761934876442 0.0027191643793440354 -0.0013365725280553222 0.0089559189253486694 -0.0028283457680458924 0.0026149933990941812 -0.0075727265134143337 -0.0014256097413599491 -0.0058129311869702036 -0.0023620748250323233 0.0016966650168696005 0.010248573153235373 0.0093021159860022049 -0.0062604784174861081 0.0003466501575016048 -0.00033556568649910861 0.0052231070058908133 -0.00016976251967865331 0.003900226279250186 -0.000840823790283387
leaf_weight=92918 28 421 107418 20 21 23 4605 32 20 57 21 26 43 25 128 26 24 25 31 52 36 21 23 24 53 138 21 11192 29 132
leaf_count=92918 28 421 107418 20 21 23 4605 32 20 57 21 26 43 25 128 26 24 25 31 52 36 21 23 24 53 138 21 11192 29 132
internal_value=0 -9.22681e-06 8.01921e-06 0.000278038 -0.000762586 -0.00420501 0.000379803 0.000359325 -0.00174743 -0.0029503 -0.00650822 -0.000170075 0.00172794 0.00421424 -0.000185283 -0.00145748 -0.00201724 -0.00443644 -0.00119972 -0.00203318 -0.000701681 -0.000161485 0.000969041 0.000150259 0.00305686 -0.00121333 -0.000186942 -0.000159663 -0.00124536 1.31542e-05
internal_weight=0 124715 112638 5220 465 44 4755 4735 130 98 41 12077 96 53 11981 220 194 49 145 119 88 11761 259 238 76 162 11502 11213 289 161
internal_count=217633 124715 112638 5220 465 44 4755 4735 130 98 41 12077 96 53 11981 220 194 49 145 119 88 11761 259 238 76 162 11502 11213 289 161
shrinkage=0.05


Tree=205
num_leaves=31
num_cat=0
split_feature=41 40 40 5 3 23 29 24 26 37 3 16 2 24 23 20 7 28 12 8 23 26 30 36 16 7 14 41 23 14
split_gain=0.0101658 0.104883 0.175044 0.159749 0.204477 0.452445 0.398316 0.206447 0.237128 0.166354 0.159895 0.143212 0.286308 0.170488 0.198997 0.164147 0.162339 0.296765 0.165428 0.140174 0.207881 0.139745 0.24064 0.137552 0.621813 0.49041 0.453016 0.39443 0.54065 0.370476
threshold=0.32610899999999998 -0.018010000000000078 0.010257000000000018 9.0806150000000018e-06 -14.267049999999999 -15.262649999999999 0.0056001650000000007 -0.74181699999999984 0.00052757850000000018 -8.8140499999999994e-08 -14.605749999999999 -1.3727349999999997e-06 2.9891800000000006 -0.17965999999999996 -13.010249999999997 -0.6291874999999999 4.4824350000000007e-05 0.007341460000000001 0.00019908750000000003 -4.2992599999999992e-05 -7.8621049999999988 -0.0011493749999999998 0.0050916450000000005 -0.022925199999999996 -1.3727349999999997e-06 5.5869050000000007e-05 0.0015752050000000003 0.078754999999999922 -8.2009299999999978 0.0024307550000000006
decision_type=2 2 2 2 2 2 2 2 2 2 2 2 2 2 2 2 2 2 2 2 2 2 2 2 2 2 2 2 2 2
left_child=1 3 11 4 5 6 9 -6 21 -1 -7 12 13 16 15 -15 17 -3 -19 20 -13 -9 -23 24 25 26 -5 28 -26 -28
right_child=-2 2 -4 23 7 10 -8 8 -10 -11 -12 19 -14 14 -16 -17 -18 18 -20 -21 -22 22 -24 -25 27 -27 29 -29 -30 -31
leaf_value=-0.00063500548965986009 1.2316872151532237e-05 -0.0083160213642986501 -6.9978527831342072e-06 0.0058318511326140125 -0.0039278597147541965 -0.00041209428785222166 0.010320604107497883 -0.0026364790713318065 0.0040326471303929936 0.0053156748770561537 0.0041945605055926458 0.00083482271341684593 -0.0060131880232471638 0.0011256257864131062 -0.00036708683114897964 0.0057740897964928687 0.00050690016719851308 7.1075747781343621e-05 -0.0051869698563158251 0.00046341077509053704 -0.0059770832356575527 2.4864022179723977e-05 0.0049285236826667996 -0.00015057124428044855 -0.0023568783232961396 -0.0018081448758211678 -0.0051959181204438215 -0.0010627481770763461 -0.009788881661370397 0.0017140055402794644
leaf_weight=23 94660 20 106746 62 31 131 24 46 39 24 22 24 22 91 286 24 55 52 21 3708 21 663 26 9883 104 116 22 491 32 164
leaf_count=23 94660 20 106746 62 31 131 24 46 39 24 22 24 22 91 286 24 55 52 21 3708 21 663 26 9883 104 116 22 491 32 164
internal_value=0 -9.48107e-06 5.6353e-06 -0.000150536 0.000444917 0.00178108 0.0050798 7.31155e-05 0.000233361 0.00240364 0.000250301 0.000317508 -0.000420207 -0.00019608 0.00033921 0.00209574 -0.00164643 -0.0029199 -0.00144151 0.000429748 -0.00234407 3.17666e-05 0.000209908 -0.000206883 -0.000768468 0.000875321 0.00213049 -0.00172276 -0.00410558 0.000896703
internal_weight=0 122973 111070 11903 1029 224 71 805 774 47 153 4324 571 549 401 115 148 93 73 3753 45 735 689 10874 991 364 248 627 136 186
internal_count=217633 122973 111070 11903 1029 224 71 805 774 47 153 4324 571 549 401 115 148 93 73 3753 45 735 689 10874 991 364 248 627 136 186
shrinkage=0.05


Tree=206
num_leaves=31
num_cat=0
split_feature=41 41 41 7 27 21 20 28 43 21 37 3 0 24 6 43 4 40 21 2 3 33 22 4 19 31 3 15 4 40
split_gain=0.0095194 0.123895 0.132423 0.197583 0.171343 0.167372 0.173635 0.166151 0.284298 0.140788 0.125847 0.264054 0.384087 0.130945 0.193472 0.415763 0.262732 0.214316 0.165143 0.125489 0.245036 0.12285 0.277598 0.304328 0.132827 0.122191 0.710398 0.341481 0.641305 0.196674
threshold=-0.35786749999999995 -0.026150000000000003 0.011134999999999897 5.6918900000000001e-05 38.008700000000012 -13.876599999999998 13.012750000000002 0.0079892800000000031 -0.15760999999999911 13.390900000000002 -2.7510949999999998e-05 -8.7018349999999973 -3.0090749999999997 -1.1409399999999998 6.3193550000000007e-07 4.1559750000000006 -0.81164199999999986 0.14973499999999998 0.099100950000000007 2.9891800000000006 -9.1449549999999977 -1.0416649999999998e-05 1.2794000000000001 0.16470650000000003 0.00086743600000000008 2.7376000000000005 -15.867949999999999 -1.3937899999999998e-06 1.5563800000000001 0.077348000000000056
decision_type=2 2 2 2 2 2 2 2 2 2 2 2 2 2 2 2 2 2 2 2 2 2 2 2 2 2 2 2 2 2
left_child=-1 10 3 4 5 -3 9 -5 -9 21 11 12 -2 14 16 17 -12 -16 -18 -4 -21 22 24 -24 -7 -15 -27 28 -28 -29
right_child=1 2 19 7 -6 6 -8 8 -10 -11 13 -13 -14 25 15 -17 18 -19 -20 20 -22 -23 23 -25 -26 26 27 29 -30 -31
leaf_value=1.2114955211644018e-05 -1.8085819985052305e-05 0.0047582548229415395 -3.1115257517637795e-06 -0.00013969782647642076 -0.0042304099659668283 0.00017542176346794955 -0.0030245050951536443 -0.0057898242899682376 -0.0006598347142976309 0.0034453464175672518 0.0034566631977979434 -0.0012693940100414398 0.0085084728868678218 -0.00017724504178615562 -0.0098449440764101313 -0.00014127770593374601 0.00087701464940704785 -0.0031571348169818522 -0.0038904815194352217 -0.0044711352327269404 0.00080706852415967788 0.00049772824303731284 -0.0082517881014527207 0.00016321620427160746 -0.003876995915890716 0.0097364941257096476 0.0080126825810807271 -0.0053625748418805116 -0.0010858276395204788 -0.00045044733075580255
leaf_weight=92918 28 22 107330 693 20 545 37 37 100 38 38 43 25 11502 23 61 34 25 39 45 43 3664 22 21 21 21 34 24 45 135
leaf_count=92918 28 22 107330 693 20 545 37 37 100 38 38 43 25 11502 23 61 34 25 39 45 43 3664 22 21 21 21 34 24 45 135
internal_value=0 -9.02616e-06 7.2921e-06 0.000253223 0.00038698 0.000408112 0.000386101 -0.000454238 -0.00204531 0.000415374 -0.000161221 0.00164189 0.00400388 -0.000175669 -0.00138426 -0.00288055 8.50714e-05 -0.00636171 -0.00167 -4.65897e-06 -0.00189201 0.000388428 -0.000269169 -0.00414213 2.5067e-05 -0.000153061 0.000920939 0.000143096 0.00282999 -0.0011919
internal_weight=0 124715 112638 5220 4390 4370 4348 830 137 4311 12077 96 53 11981 220 109 111 48 73 107418 88 4273 609 43 566 11761 259 238 79 159
internal_count=217633 124715 112638 5220 4390 4370 4348 830 137 4311 12077 96 53 11981 220 109 111 48 73 107418 88 4273 609 43 566 11761 259 238 79 159
shrinkage=0.05


Tree=207
num_leaves=31
num_cat=0
split_feature=20 44 3 2 13 5 40 9 44 2 2 38 5 40 22 15 32 19 9 3 44 19 31 22 19 14 41 40 13 44
split_gain=0.00943814 0.0439328 0.129133 0.344054 0.49066 0.41332 0.0908547 0.283695 0.0697154 0.147237 0.108592 0.136447 0.123371 0.232816 0.0691718 0.0592966 0.0674471 0.0531166 0.0504052 0.0900888 0.081558 0.093 0.297101 0.0782983 0.0759309 0.0701809 0.0827767 0.193017 0.305488 0.131925
threshold=-8.175164999999998 0.026084999999999251 -12.203099999999997 2.3031400000000004 -1.1714349999999999e-05 1.0004950000000002e-05 -0.40968649999999995 -1.7830049999999997e-05 -0.47859499999999983 -3.0487399999999996 2.1067000000000005 -0.0008031274999999999 1.3245850000000001e-05 0.039429999999999972 2.0667800000000005 1.0083500000000001e-05 -0.023235649999999997 0.00077348800000000013 -3.0204999999999996e-05 -6.280479999999999 1.151035 1.5812550000000003e-08 0.14290750000000005 -2.8866649999999994 0.00013951500000000002 9.7352650000000017e-05 -0.15132349999999997 -0.19934349999999995 -2.6903049999999996e-05 0.23534999999999953
decision_type=2 2 2 2 2 2 2 2 2 2 2 2 2 2 2 2 2 2 2 2 2 2 2 2 2 2 2 2 2 2
left_child=1 2 3 5 -5 -1 14 -8 -4 -10 -11 12 -12 -14 -7 16 17 -13 19 20 21 22 23 -3 -21 -23 -27 -28 -29 -30
right_child=-2 18 8 4 -6 6 7 -9 9 10 11 15 13 -15 -16 -17 -18 -19 -20 24 -22 25 -24 -25 -26 26 27 28 29 -31
leaf_value=0.0050178043890553407 -3.8426941727667403e-06 -0.0031193755126358675 1.8065896449526655e-05 0.008529473686675457 -0.0013954291964182631 0.0029676763922179819 -0.0070658897169050758 -0.00021744068958909221 0.0035580476943037607 6.3580085582805041e-05 0.00095686470567090244 0.0010047203422227416 0.00084902597096515832 0.0083868171055135991 -0.0002767250725652127 -0.0017272740293130349 0.00029133162224238395 0.0033973537305535179 1.7296143560932905e-05 -3.5913447791244832e-05 -8.2082539995199222e-05 0.00114362023841163 -0.0065788496089495586 0.0004437914322254293 0.0043210042626014916 4.2732653729757844e-05 -0.00013396857422073727 -0.0080372434426819721 6.831091099336525e-06 -0.0030746322407626588
leaf_weight=39 191545 21 9772 33 20 20 20 62 35 1432 47 73 20 21 92 27 283 34 11078 20 2116 62 27 58 20 276 220 21 68 71
leaf_count=39 191545 21 9772 33 20 20 20 62 35 1432 47 73 20 21 92 27 283 34 11078 20 2116 62 27 58 20 276 220 21 68 71
internal_value=0 2.82141e-05 9.83553e-05 0.00114809 0.00478423 0.000320987 -0.000623218 -0.00188779 7.27912e-05 0.000343976 0.0002859 0.00091632 0.00270541 0.00470985 0.000302632 0.000538765 0.000695645 0.001765 -3.18086e-05 -0.000214353 -0.00024642 -0.000668431 -0.0020509 -0.00050338 0.00214255 -0.000464333 -0.000616304 -0.00109497 -0.00241635 -0.00156715
internal_weight=0 26088 12030 286 53 233 194 82 11744 1972 1937 505 88 41 112 417 390 107 14058 2980 2940 824 106 79 40 718 656 380 160 139
internal_count=217633 26088 12030 286 53 233 194 82 11744 1972 1937 505 88 41 112 417 390 107 14058 2980 2940 824 106 79 40 718 656 380 160 139
shrinkage=0.05


Tree=208
num_leaves=31
num_cat=0
split_feature=41 40 40 5 23 43 33 26 24 41 30 13 31 28 6 32 5 10 9 21 8 41 20 6 29 3 9 24 29 43
split_gain=0.00946256 0.0923028 0.145701 0.144616 0.188229 0.524145 0.179307 0.16433 0.211431 0.194766 0.307884 0.204475 0.324467 0.273752 0.185588 0.154503 0.144433 0.148261 0.135499 0.471666 0.584134 0.150738 0.367946 0.381545 0.362053 0.329244 0.228426 0.312077 0.248474 0.203214
threshold=0.32610899999999998 -0.018010000000000078 0.010257000000000018 9.0806150000000018e-06 -17.289999999999996 4.9203450000000002 0.00018972300000000001 -0.00046379649999999994 0.3698105000000001 0.12358499999999996 0.00047047500000000009 1.1791850000000001e-06 -0.16467799999999996 -0.0052702099999999991 7.2428000000000018e-07 0.26698650000000007 7.8319400000000015e-06 3.1555000000000012e-05 1.6205550000000003e-05 -12.635299999999999 1.3245700000000003e-05 0.078754999999999922 3.3940200000000007 1.6009700000000002e-06 0.082377100000000023 -13.989599999999998 1.0417350000000001e-05 0.60591150000000005 0.041675700000000003 0.68409500000000023
decision_type=2 2 2 2 2 2 2 2 2 2 2 2 2 2 2 2 2 2 2 2 2 2 2 2 2 2 2 2 2 2
left_child=1 3 -3 4 5 -1 7 8 -6 10 16 14 -13 15 -12 -14 17 -9 21 20 -20 22 24 -24 26 -26 27 28 -5 -27
right_child=-2 2 -4 18 6 -7 -8 9 -10 -11 11 12 13 -15 -16 -17 -18 -19 19 -21 -22 -23 23 -25 25 29 -28 -29 -30 -31
leaf_value=0.0078331658684258031 1.1883202936291057e-05 0.00028956875428947732 -6.4921645223832139e-06 -0.00052368350437588421 -0.0060153335965217351 -0.00054238549416774551 -0.0043374793620647063 1.2325136950017797e-05 -0.00023042664708035384 -0.00021499414977758149 -0.0026964119252321935 -7.3450213551103812e-05 0.00036251126730348917 0.0097298832118770315 0.0026355266309966447 0.0065774734981823707 0.0011065604845262222 -0.0042114069675247478 -0.00025258873717795159 -3.4283926610510154e-05 0.010068414673710672 -0.00018696830494862888 -0.0018836643417357449 -0.0088149359784997963 -0.0082314333868334488 -0.0040585180482132334 0.0020299225720321768 -0.0063616581819422374 0.0022779497448937036 -0.0004259279420225401
leaf_weight=31 94660 4324 106746 1368 22 47 21 63 56 429 24 29 20 31 51 20 154 31 29 4168 26 4783 84 26 23 63 99 22 84 99
leaf_count=31 94660 4324 106746 1368 22 47 21 63 56 429 24 29 20 31 51 20 154 31 29 4168 26 4783 84 26 23 63 99 22 84 99
internal_value=0 -9.14724e-06 5.03361e-06 -0.000141472 0.000425075 0.00278636 0.000231405 0.000334574 -0.00186207 0.000535675 0.00129699 0.00290282 0.00438296 0.00620318 0.000929306 0.00346999 0.000163843 -0.00138061 -0.000195085 2.64168e-05 0.00462643 -0.000335725 -0.000716616 -0.00352196 -0.000541082 -0.00263339 -0.000295007 -0.000451159 -0.000361606 -0.0018386
internal_weight=0 122973 111070 11903 1029 78 951 930 78 852 423 175 100 71 75 40 248 94 10874 4223 55 6651 1868 110 1758 185 1573 1474 1452 162
internal_count=217633 122973 111070 11903 1029 78 951 930 78 852 423 175 100 71 75 40 248 94 10874 4223 55 6651 1868 110 1758 185 1573 1474 1452 162
shrinkage=0.05


Tree=209
num_leaves=31
num_cat=0
split_feature=23 44 3 40 41 1 40 10 26 35 15 43 35 14 3 43 1 36 12 40 40 18 4 40 40 35 4 24 4 40
split_gain=0.00937167 0.0348179 0.117469 0.0990848 0.821087 0.455948 0.455493 0.689945 0.163891 0.368611 0.111923 0.0795283 0.085764 0.0699019 0.078669 0.211537 0.0636846 0.316094 0.0672265 0.168229 0.373252 0.0602252 0.087516 0.082282 0.11739 0.15735 0.113907 0.0712361 0.0903093 0.1054
threshold=-6.9859049999999998 -0.16918499999999967 -6.0871149999999989 -0.10081500000000009 -0.12554300000000002 11.597950000000003 0.016888500000000004 3.4769000000000005e-05 -7.2998349999999992e-05 0.00023885150000000003 -2.3552749999999996e-08 -0.026199999999999776 -0.21631099999999998 0.00012656100000000005 -6.0871149999999989 -0.15760999999999911 10.829750000000002 -0.00028059049999999995 -4.0171199999999992e-05 -0.058960000000000005 0.14973499999999998 4.8129750000000003e-06 0.25745450000000009 -0.079468000000000025 0.1751400000000001 0.0029117050000000001 -0.13528899999999996 0.19168450000000001 0.15463500000000002 -0.027530000000000051
decision_type=2 2 2 2 2 2 2 2 2 2 2 2 2 2 2 2 2 2 2 2 2 2 2 2 2 2 2 2 2 2
left_child=-1 2 3 -2 -5 6 8 -8 -6 10 -10 13 -13 16 -15 -16 18 -18 19 -3 -21 23 -23 -14 25 27 -27 28 29 -25
right_child=1 11 -4 4 5 -7 7 -9 9 -11 -12 12 21 14 15 -17 17 -19 -20 20 -22 22 -24 24 -26 26 -28 -29 -30 -31
leaf_value=4.935150230469528e-06 -6.8786210509507261e-05 -4.548488437971936e-05 -2.5660348045210963e-05 -5.017185372943417e-05 0.0013137707570738556 -0.0098989872246210541 -0.013117719994372 -0.0016073144506663084 0.0023495735296898564 -0.0082473782030865559 -0.002531423718998364 -0.0027159820956433618 -0.00018954089626089369 3.1379820844065928e-06 0.0057329979154192622 -0.001282782656364196 -0.0071422030089888719 -0.00025641053167237262 -0.00012137421654437623 -0.006854059095220532 -6.7845128266223284e-06 -0.0034478843747083807 -7.9553503353778636e-05 0.0039520488312299335 -7.183828415233942e-05 0.0014867885938821762 0.0067004627187270674 -0.0020427152969031818 -0.002328482700423116 0.00088022241295473188
leaf_weight=177480 758 155 8072 698 46 26 23 30 23 20 24 23 366 26241 21 22 20 100 1902 34 48 21 236 29 378 22 20 21 21 753
leaf_count=177480 758 155 8072 698 46 26 23 30 23 20 24 23 366 26241 21 22 20 100 1902 34 48 21 236 29 378 22 20 21 21 753
internal_value=0 -2.18138e-05 -0.000104199 -0.000488889 -0.000846684 -0.00374234 -0.00277804 -0.0066024 -0.000984319 -0.00256211 -0.000142851 4.49934e-06 0.000318606 -1.62995e-05 6.63961e-06 0.00214353 -0.000283202 -0.00140404 -0.000220321 -0.0010144 -0.0028459 0.00035599 -0.000354787 0.000469449 0.000663332 0.000984227 0.00396949 0.000832065 0.000907246 0.000994139
internal_weight=0 40153 9720 1648 890 192 166 53 113 67 47 30433 1890 28543 26284 43 2259 120 2139 237 82 1867 257 1610 1244 866 42 824 803 782
internal_count=217633 40153 9720 1648 890 192 166 53 113 67 47 30433 1890 28543 26284 43 2259 120 2139 237 82 1867 257 1610 1244 866 42 824 803 782
shrinkage=0.05


Tree=210
num_leaves=31
num_cat=0
split_feature=21 1 16 16 36 16 36 12 8 1 13 0 8 10 22 17 3 26 4 4 26 16 19 25 32 22 6 25 5 4
split_gain=0.00901509 0.05975 0.11585 0.47908 0.0445809 0.0829705 0.0693305 0.0837455 0.0389174 0.0899735 0.159741 0.080412 0.149269 0.0429998 0.0422724 0.0354295 0.0327524 0.0518413 0.0620389 0.0645627 0.0491955 0.237951 0.245759 0.337909 0.0433207 0.0310051 0.163444 0.0277715 0.0258558 0.0317299
threshold=13.390900000000002 10.154350000000003 1.0552950000000002e-06 5.2573900000000008e-06 0.026744400000000005 -5.8728149999999988e-07 0.00049241950000000008 4.998470000000001e-05 -1.7548399999999996e-05 8.7485050000000015 1.8732900000000002e-05 2.9488950000000007 -2.4061649999999993e-05 2.2609900000000005e-05 1.7143050000000002 8.5947450000000013e-08 -13.009399999999998 -0.0013306049999999997 -0.45249949999999994 -2.2787549999999999 -0.0011493749999999998 7.2294100000000005e-06 0.0036601650000000004 67.039100000000005 20.036400000000004 0.11295750000000002 -1.1517499999999998e-06 21.272000000000002 1.1054200000000002e-05 -0.10392349999999999
decision_type=2 2 2 2 2 2 2 2 2 2 2 2 2 2 2 2 2 2 2 2 2 2 2 2 2 2 2 2 2 2
left_child=-1 8 4 -4 5 -3 15 -8 11 16 14 13 27 -2 -11 -7 17 18 19 -10 21 -18 23 -23 25 26 -22 -13 -28 -30
right_child=1 2 3 -5 -6 6 7 -9 9 10 -12 12 -14 -15 -16 -17 20 -19 -20 -21 24 22 -24 -25 -26 -27 28 -29 29 -31
leaf_value=-1.252378434666916e-06 0.0020615218808297474 0.0031339684855230458 0.0081520307993438717 -0.0010745961338911644 -0.00049706822087914183 0.00030520627653107026 -0.00014377164451339608 0.0042234334895467672 -0.00088101020314339132 -0.00073369804982836026 0.0053553119285921144 0.00062109971711738344 -0.0042714067870191583 -0.00023364986340190992 0.0021478842802389411 -0.001618262254151677 -1.1503735164458054e-05 -7.0654314818640752e-05 -0.00036737020990342353 -0.0047569251212865185 0.0036881932138759809 0.0019271325504531787 -0.00040946005592559234 0.0099079355708367768 -0.0021301942949018366 -5.0314032545994647e-05 0.00088206828619480479 -0.0016807491176587066 -0.0027089768631822155 -0.00010143855335107739
leaf_weight=214386 23 31 24 34 110 62 23 21 22 35 22 38 36 181 20 39 361 413 71 21 34 36 36 21 24 1419 22 20 20 28
leaf_count=214386 23 31 24 34 110 62 23 21 22 35 22 38 36 181 20 39 361 413 71 21 34 36 36 21 24 1419 22 20 20 28
internal_value=0 8.26894e-05 0.000705767 0.00274332 0.000292557 0.000786074 0.00028411 0.00194058 8.85583e-06 7.07746e-05 0.00175448 -0.000532414 -0.00174238 2.51195e-05 0.00031415 -0.000437519 1.94908e-05 -0.000331198 -0.0012751 -0.0027739 0.000111851 0.000569493 0.00282476 0.00486743 -2.24538e-05 1.07608e-05 0.000844079 -0.000172641 -0.000537347 -0.00118791
internal_weight=0 3247 344 58 286 176 145 44 2903 2605 77 298 94 204 55 101 2528 527 114 43 2001 454 93 57 1547 1523 104 58 70 48
internal_count=217633 3247 344 58 286 176 145 44 2903 2605 77 298 94 204 55 101 2528 527 114 43 2001 454 93 57 1547 1523 104 58 70 48
shrinkage=0.05


Tree=211
num_leaves=31
num_cat=0
split_feature=41 41 3 21 37 43 3 43 4 17 13 4 4 40 41 17 40 41 20 22 7 40 40 25 14 10 37 44 30 7
split_gain=0.00907675 0.129372 0.153082 0.292765 0.110239 0.332175 0.426171 0.411823 0.489524 0.700512 0.611938 0.906066 0.697291 0.549987 0.782057 0.527698 0.509633 0.474588 0.453673 0.792399 0.367871 0.365761 0.626965 0.303686 0.280986 0.278838 0.274266 0.264183 0.217863 0.209643
threshold=-0.30357199999999979 -0.026150000000000003 -19.074649999999995 -3.3402249999999998 -1.1308749999999999e-07 0.64319500000000052 -6.2531049999999988 -2.2545749999999996 -1.5265699999999998 2.1981950000000002e-08 8.8270500000000005e-06 -0.0098903599999999991 -0.0098903599999999991 0.14973499999999998 -0.057539999999999918 4.0430350000000003e-07 0.10022550000000004 -0.10141500000000002 -4.6287449999999994 -2.3737349999999995 4.1661250000000004e-05 0.1751400000000001 0.056773999999999998 4.2979400000000005 0.0010249100000000002 3.1555000000000012e-05 -4.8108399999999992e-07 0.71026 0.0015109500000000003 3.3016900000000012e-05
decision_type=2 2 2 2 2 2 2 2 2 2 2 2 2 2 2 2 2 2 2 2 2 2 2 2 2 2 2 2 2 2
left_child=-1 2 3 -2 5 6 7 -4 -9 18 11 16 20 14 23 17 25 -14 -10 -20 -12 22 27 26 -24 -11 -13 -21 -18 -17
right_child=1 -3 4 -5 -6 -7 -8 8 9 10 12 13 15 -15 -16 29 28 -19 19 21 -22 -23 24 -25 -26 -27 -28 -29 -30 -31
leaf_value=1.1638650840039863e-05 -0.0010483631716140182 6.5772132651734262e-06 -0.00040227240072317156 0.0072231415857095284 -0.00030781768942118957 -0.00039294419414407359 -0.0066602958756266165 -0.0016872498444871699 0.00027619857565445858 -0.010351596330292524 5.8078122135527707e-05 0.014816455446459629 -0.0027166947412518537 -0.00076700975861262576 0.0024797898204549432 0.0034688143941214856 -0.00098337224983316407 -0.011531467073991036 0.014163768236037523 0.0013192183707423253 0.0086631945577328624 -0.0018419430599048308 0.013430400616066021 0.0041085396101698283 0.0062192557505997169 -0.0020023719605524091 0.0073863445695125226 0.0076921531325206162 0.0053570406176731925 -0.0017451866821068748
leaf_weight=94658 23 112638 551 20 6806 1960 20 119 69 20 27 27 37 49 104 24 42 26 21 87 23 24 22 20 35 20 23 20 20 98
leaf_count=94658 23 112638 551 20 6806 1960 20 119 69 20 27 27 37 49 104 24 42 26 21 87 23 24 22 20 35 20 23 20 20 98
internal_value=0 -8.95866e-06 -0.000178247 0.00279885 -0.000190683 3.78788e-05 0.000590505 0.00068667 0.00131364 0.00173978 0.000721222 0.00212669 -0.00122251 0.00391218 0.00522988 -0.00263845 -0.00177686 -0.00635454 0.00379154 0.00495211 0.00401643 0.00392314 0.00476682 0.00931573 0.0090025 -0.00617698 0.0113986 0.00251042 0.00106192 -0.000719482
internal_weight=0 122975 10337 43 10294 3488 1528 1508 957 838 560 325 235 223 174 185 102 63 278 209 50 188 164 70 57 40 50 107 62 122
internal_count=217633 122975 10337 43 10294 3488 1528 1508 957 838 560 325 235 223 174 185 102 63 278 209 50 188 164 70 57 40 50 107 62 122
shrinkage=0.05


Tree=212
num_leaves=31
num_cat=0
split_feature=41 21 23 20 3 0 13 23 19 43 19 28 41 2 35 9 36 15 3 32 32 21 43 1 23 1 1 11 11 30
split_gain=0.00893405 0.203837 0.00938306 0.0365082 0.235384 0.646681 0.530333 0.689665 0.66262 0.375532 0.138481 0.0912015 0.237989 0.0484689 0.0475158 0.0428418 0.300613 0.0358802 0.0351157 0.241913 0.0539895 0.037879 0.135806 0.504356 0.373911 0.060827 0.0637736 0.0468228 0.178744 0.118767
threshold=5.6849350000000003 -3.7984549999999992 -13.237099999999998 -6.2436999999999996 -12.126699999999998 -4.3615599999999999 6.2308800000000016e-05 -16.164099999999994 0.0059260250000000006 0.8945249999999999 3.4128000000000006e-08 -0.39445199999999997 -1.1685199999999998 -2.2229199999999998 1.6674650000000002 -6.226684999999999e-06 -0.066940849999999982 -8.2618699999999988e-07 -19.074649999999995 -0.85855999999999988 1.0150150000000002 -7.0365699999999984 3.0124600000000004 -4.4631249999999989 -14.564499999999997 -3.9068649999999994 -2.6487599999999998 0.00013338650000000002 9.4172200000000006e-05 0.087932350000000006
decision_type=2 2 2 2 2 2 2 2 2 2 2 2 2 2 2 2 2 2 2 2 2 2 2 2 2 2 2 2 2 2
left_child=2 -2 3 4 5 6 7 8 -1 -9 -7 12 -12 -13 15 16 -15 -16 19 -5 -21 22 23 24 -20 -25 -27 28 -24 -29
right_child=1 -3 -4 18 -6 10 -8 9 -10 -11 11 13 -14 14 17 -17 -18 -19 21 20 -22 -23 27 25 -26 26 -28 29 -30 -31
leaf_value=0.017026338513824159 0.0039549940758768247 4.0145827253256583e-06 -6.3387060468667367e-06 0.0058841663556813729 -5.8334826623548448e-05 0.0038085334941424659 -0.00098105350611504263 -0.00070354979126070825 0.0043097802520787806 0.0066479497607360829 -0.00084895760529465859 -0.0024125850114918041 0.006240818767328165 0.0063005338303766967 -0.0031873331798124129 -0.00024699678672302779 -0.00036471832612022256 -0.00047097534744910177 0.0096487432912302513 -0.00030911825809992803 0.0018690407025029087 -2.9962481832633779e-06 2.5812515379235023e-05 -0.0023814092603456436 0.0018174394428829795 0.0027458763031972923 -4.2281984317130683e-05 -9.7981308708497617e-05 0.0038221447786099816 -0.0038873994199093431
leaf_weight=21 34 819 166678 20 2224 25 41 38 20 32 29 24 20 21 20 270 87 31 27 152 35 45585 998 23 35 24 141 101 32 26
leaf_count=21 34 819 166678 20 2224 25 41 38 20 32 29 24 20 21 20 270 87 31 27 152 35 45585 998 23 35 24 141 101 32 26
internal_value=0 0.000161498 -6.35473e-07 1.83379e-05 0.000190438 0.00100527 0.00387845 0.00567341 0.0108231 0.00265714 0.00017657 -4.30429e-06 0.00204483 -0.000225954 -0.000103625 8.96603e-05 0.000931303 -0.00153621 7.75279e-06 0.000657554 9.85586e-05 4.89041e-06 0.000260408 0.00131717 0.00522785 2.74833e-05 0.000363268 3.20666e-05 0.000143757 -0.000873768
internal_weight=0 853 216780 50102 2903 679 152 111 41 70 527 502 49 453 429 378 108 51 47199 207 187 46992 1407 250 62 188 165 1157 1030 127
internal_count=217633 853 216780 50102 2903 679 152 111 41 70 527 502 49 453 429 378 108 51 47199 207 187 46992 1407 250 62 188 165 1157 1030 127
shrinkage=0.05


Tree=213
num_leaves=31
num_cat=0
split_feature=28 5 41 41 28 18 18 23 43 6 25 25 43 6 25 24 20 3 16 16 40 36 41 11 20 40 9 10 20 21
split_gain=0.00894467 0.0448036 0.100682 0.238273 0.261865 0.400203 0.293097 0.245388 0.237662 0.325616 0.38628 0.346394 0.229608 0.208261 0.181676 0.121782 0.0978921 0.239445 0.0461316 0.0947568 0.266245 0.522662 0.508467 0.254002 0.467854 0.368307 0.220382 0.142069 0.114331 0.108404
threshold=0.041210350000000007 1.0838450000000003e-05 0.22260499999999997 -0.33012499999999995 0.07628225000000001 0.00046136400000000008 0.006463130000000001 -10.262699999999999 2.4693750000000008 1.0000000180025095e-35 7.3223450000000012 16.451500000000003 1.4285350000000012 -2.4515249999999996e-07 21.272000000000002 -0.36167549999999998 7.4294300000000009 -12.126699999999998 2.3811300000000004e-05 2.5770550000000005e-06 -0.25142799999999998 0.026744400000000005 0.078754999999999922 -4.858219999999999e-05 -6.5323449999999985 0.22528099999999995 3.4597700000000009e-05 1.6779400000000001e-05 19.256550000000001 -8.6662999999999979
decision_type=2 2 2 2 2 2 2 2 2 2 2 2 2 2 2 2 2 2 2 2 2 2 2 2 2 2 2 2 2 2
left_child=-1 2 3 -2 7 8 -7 12 9 14 -11 -12 13 -5 16 -9 17 -6 19 -3 28 -22 23 -23 -25 26 27 -26 29 -21
right_child=1 18 -4 4 5 6 -8 15 -10 10 11 -13 -14 -15 -16 -17 -18 -19 -20 20 21 22 -24 24 25 -27 -28 -29 -30 -31
leaf_value=3.2961808793401723e-06 -1.8772250928493833e-05 -3.6445379777297456e-06 -1.2637194408337662e-05 0.0011492300842126664 -0.0019242205795308111 0.0064802086379911229 -0.0019773135861032641 -0.0051570038306817875 -0.00069625297012873533 -0.011919030338851206 0.00034763748943805696 -0.0072305198829302466 -0.00071666813030213622 0.0080290591037324218 0.00087973578799782062 -0.0006222466400414992 -0.00067915754096413211 -0.0087953213314037951 -0.00017130144757615282 0.002645866365714432 -0.00073612329020265454 -0.0004050392983609109 0.0085583674353341948 0.01029219568008557 0.0059563317484307016 -0.00096140877349330767 0.0088478366914205263 0.00088253258051023504 0.0035058628235634863 -0.00014192886186228847
leaf_weight=196821 797 12086 2818 22 32 21 20 20 83 22 25 38 38 22 35 57 22 21 3033 36 165 74 34 20 22 57 20 37 23 1112
leaf_count=196821 797 12086 2818 22 32 21 20 20 83 22 25 38 38 22 35 57 22 21 3033 36 165 74 34 20 22 57 20 37 23 1112
internal_value=0 -3.11723e-05 -0.000179442 -0.000548115 -0.00143072 -0.00225695 0.00235459 0.000226924 -0.00293706 -0.00389085 -0.00621515 -0.00422331 0.00213035 0.00458914 -0.0020948 -0.00180011 -0.00348291 -0.00464673 5.12594e-06 4.42246e-05 0.000405816 0.00147143 0.00285116 0.00200748 0.00315188 0.00210183 0.00431202 0.00277446 1.54237e-05 -5.45067e-05
internal_weight=0 20812 4093 1275 478 319 41 159 278 195 85 63 82 44 110 77 75 53 16719 13686 1600 429 264 230 156 136 79 59 1171 1148
internal_count=217633 20812 4093 1275 478 319 41 159 278 195 85 63 82 44 110 77 75 53 16719 13686 1600 429 264 230 156 136 79 59 1171 1148
shrinkage=0.05


Tree=214
num_leaves=31
num_cat=0
split_feature=35 15 15 41 40 15 43 40 34 41 23 16 31 26 0 17 29 24 25 24 43 1 33 3 4 43 43 17 15 38
split_gain=0.00862584 0.215252 0.1672 0.147219 0.949424 0.709063 0.661007 0.636914 0.830031 0.646464 0.769591 0.679673 0.586185 0.556561 0.447372 0.968809 0.837867 0.419448 0.755932 0.445658 0.553025 0.399612 0.368801 0.346284 0.325074 0.300412 0.26942 0.326303 0.250714 0.202371
threshold=0.00022570750000000002 1.8501250000000005e-08 -9.6356049999999989e-08 0.17390849999999994 0.14973499999999998 8.0636700000000017e-06 2.5222350000000002 -0.040859549999999939 0.021266050000000005 -0.057539999999999918 -11.167499999999999 9.6924450000000025e-07 -0.94976349999999987 6.1630050000000022e-05 5.3241200000000006 6.1738550000000003e-07 -0.024110249999999996 0.57845200000000008 1.5225300000000004 -0.43859649999999994 -0.23716000000000023 -6.4490099999999995 -0.00014064699999999996 -11.976899999999999 0.20333750000000003 -2.4699349999999991 -0.41630000000000006 4.7377400000000004e-07 1.1684500000000001e-07 -0.0059856599999999994
decision_type=2 2 2 2 2 2 2 2 2 2 2 2 2 2 2 2 2 2 2 2 2 2 2 2 2 2 2 2 2 2
left_child=2 -2 -1 4 5 6 7 8 -3 10 11 13 24 -9 21 16 -16 18 -12 -20 -21 28 23 -7 -10 -23 27 -27 -14 -28
right_child=1 3 -4 -5 -6 22 -8 9 12 -11 17 -13 14 -15 15 -17 -18 -19 19 20 -22 25 -24 -25 -26 26 29 -29 -30 -31
leaf_value=6.4253182779636989e-05 -6.1641799009849862e-05 -0.00043192709105032041 -5.4470331871900653e-05 3.1102161483985421e-06 1.9835425910944997e-05 0.0089345341443549855 -0.00032374255370481184 0.017140002379363233 -0.0058121847128495578 0.00080698551272146497 2.596236767866396e-06 0.0020593339846099673 -0.0035590909295327346 0.0062358005186542867 0.0066989055479921046 0.0031042640135400812 0.020998537392588335 -0.004767307766120543 0.0011696787911205321 0.001934573023269574 0.011998701531392261 0.00073900552445345304 -0.00059791139412213447 0.00025416928929863154 0.0026666915491939738 0.013418246303563534 0.00082033169724477027 0.0047977247314217189 0.0029685724780919328 0.0058612429539618253
leaf_weight=48350 48168 124 76697 22998 17177 20 588 22 20 1897 129 34 24 25 21 46 20 22 32 21 39 33 880 27 26 23 26 21 38 85
leaf_count=48350 48168 124 76697 22998 17177 20 588 22 20 1897 129 34 24 25 21 46 20 22 32 21 39 33 880 27 26 23 26 21 38 85
internal_value=0 1.15684e-05 -8.56534e-06 9.09593e-05 0.00018528 0.000855053 0.0011968 0.00152455 0.00312358 0.00115952 0.00322362 0.00744435 0.00427471 0.0113399 0.0049974 0.00808556 0.0136743 0.0018167 0.00247213 0.00593484 0.00847626 0.00392272 -0.000367431 0.00394794 -0.00101978 0.00507071 0.00599294 0.00930391 0.000441735 0.00468049
internal_weight=0 92586 125047 44418 21420 4243 3316 2728 507 2221 324 81 383 47 337 87 41 243 221 92 60 250 927 47 46 188 155 44 62 111
internal_count=217633 92586 125047 44418 21420 4243 3316 2728 507 2221 324 81 383 47 337 87 41 243 221 92 60 250 927 47 46 188 155 44 62 111
shrinkage=0.05


Tree=215
num_leaves=31
num_cat=0
split_feature=40 40 20 16 0 9 41 16 22 0 41 3 44 18 15 21 43 10 21 21 20 35 20 15 20 6 24 5 26 7
split_gain=0.00998999 0.075757 0.135628 0.281527 0.368244 0.197515 0.122575 0.222041 0.356655 0.13394 0.129673 0.12851 0.312274 0.521401 0.356108 0.495736 0.301831 0.596089 0.473134 0.674152 0.387111 0.524629 0.478462 0.371764 0.343595 0.288963 0.283163 0.307585 0.271517 0.316105
threshold=-0.40968649999999995 -0.018010000000000078 16.002400000000005 1.0372650000000001e-07 9.5649650000000026 3.6972250000000008e-05 -0.016969000000000036 -1.3727349999999997e-06 3.0016000000000003 8.9117650000000008 -0.27889399999999981 -13.009399999999998 2.5130600000000003 -0.00019488549999999998 8.0184450000000021e-05 -7.1421249999999992 -0.19603999999999996 2.4122650000000005e-05 -4.0190399999999995 2.0101650000000002 4.9008950000000011 -0.00070922149999999985 -5.6544449999999999 1.2625950000000003e-07 0.19035450000000001 -1.1517499999999998e-06 0.13589850000000001 1.3313050000000001e-05 8.5014900000000005e-05 3.8091200000000006e-05
decision_type=2 2 2 2 2 2 2 2 2 2 2 2 2 2 2 2 2 2 2 2 2 2 2 2 2 2 2 2 2 2
left_child=-1 2 -2 -4 5 -5 10 8 9 -8 -3 12 13 26 15 -15 17 18 -17 23 21 22 -18 -20 -21 -23 -12 -28 29 -19
right_child=1 6 3 4 -6 -7 7 -9 -10 -11 11 -13 -14 14 -16 16 20 28 19 24 -22 25 -24 -25 -26 -27 27 -29 -30 -31
leaf_value=1.2515787385675859e-05 -0.00012987900811547144 1.1471529751416144e-05 -0.0014249457604536373 0.0046063600308843891 0.0088104749475504552 -0.0021876327528962463 -0.00022923564091807452 0.00037301387489158859 -0.0066999418473721525 -0.0037592487379567632 9.3065888694791995e-05 -0.00025857315556059447 -0.00035804789344599992 0.0088848528549230355 -0.0036520056802058416 -0.00076678731219055 0.0040636051873899192 -0.0063328408784097227 0.016581210484728218 0.0066968361583456181 0.004763742863338403 0.0061988828567215637 -0.0038987202154350514 0.0071622764342464508 -0.00093875794639013935 0.00082335233679623344 -0.0089213442253160535 -0.0016805350913769376 0.0033961253617668438 0.000800750309347429
leaf_weight=92022 14430 95517 45 20 23 23 667 4475 23 28 104 8447 1093 24 31 26 23 24 20 34 49 30 105 22 26 150 22 44 42 44
leaf_count=92022 14430 95517 45 20 23 23 667 4475 23 28 104 8447 1093 24 31 26 23 24 20 34 49 30 105 22 26 150 22 44 42 44
internal_value=0 -9.169e-06 -0.000116486 0.00162459 0.00370383 0.000972364 4.88067e-06 0.000242053 -0.000574175 -0.000371452 -6.75201e-06 -0.000174769 0.000195274 0.000932811 0.0015776 0.0018395 0.00155532 0.00293456 0.00525424 0.00678901 0.000635826 -2.08876e-05 -0.00246799 0.0116475 0.00338808 0.00171927 -0.00153255 -0.00409414 0.000235292 -0.00171699
internal_weight=0 125611 14541 111 66 43 111070 5193 718 695 105877 10360 1913 820 650 619 595 238 128 102 357 308 128 42 60 180 170 66 110 68
internal_count=217633 125611 14541 111 66 43 111070 5193 718 695 105877 10360 1913 820 650 619 595 238 128 102 357 308 128 42 60 180 170 66 110 68
shrinkage=0.05


Tree=216
num_leaves=31
num_cat=0
split_feature=41 40 26 3 19 16 19 19 3 31 35 15 6 9 14 7 35 5 24 41 43 43 1 40 40 16 6 43 43 34
split_gain=0.00926714 0.0860101 0.135111 0.193844 0.306006 0.25878 0.164657 0.127943 0.125752 0.331822 0.24592 0.389056 0.508251 0.416473 0.381101 0.435979 0.336877 0.307654 0.705438 0.256415 0.355827 0.312745 0.375374 0.303677 0.220197 0.278998 0.199691 0.193815 0.216203 0.181469
threshold=0.32610899999999998 -0.018010000000000078 -0.013856449999999998 -8.1461699999999979 0.0074449800000000012 1.8237450000000004e-06 2.0550550000000007e-06 0.0011496050000000004 -11.042399999999999 -13.003849999999998 0.019909950000000006 -1.2833349999999995e-07 1.3540400000000001e-06 2.5975450000000002e-05 0.024100050000000001 3.140425000000001e-05 0.098593250000000007 1.0179600000000002e-05 0.62895050000000008 0.12358499999999996 -2.1822199999999996 -0.71725499999999964 4.2601300000000011 -0.040859549999999939 -0.058960000000000005 1.1618000000000001e-07 1.0000000180025095e-35 1.9002500000000004 -0.465335 0.24594850000000004
decision_type=2 2 2 2 2 2 2 2 2 2 2 2 2 2 2 2 2 2 2 2 2 2 2 2 2 2 2 2 2 2
left_child=1 2 3 4 6 -5 -1 -8 9 -4 17 27 14 -14 15 16 -13 18 19 20 -11 -22 23 26 25 -17 -23 28 -12 -19
right_child=-2 -3 8 5 -6 -7 7 -9 -10 10 11 12 13 -15 -16 24 -18 29 -20 -21 21 22 -24 -25 -26 -27 -28 -29 -30 -31
leaf_value=-0.0010098139451292811 1.1759861967358574e-05 4.636638732543581e-06 0.0059946220950223509 -0.0020107568392372095 0.0019868591313504358 0.0043363848978725189 -0.0092074140652336871 -0.0039792954740114515 -0.00022302947315896949 -0.00066338429504324596 -0.00070023469642088146 0.0048343247288420536 -0.0057251494811398204 0.0028239940070696841 -0.0009859542355115992 0.011942034766434517 -0.0034810503061938414 -9.4976539739752045e-05 0.0082266702331722751 -0.00037229528073881883 0.0086989185982383789 0.0035584883471584008 -0.0018145383739307443 0.0015249417473832082 0.0025767989852465692 0.0055255243600388186 0.0094176027180555358 0.0033893631886166989 -0.0064943574515858755 -0.0011642401035722215
leaf_weight=20 94660 111070 24 42 22 26 22 25 8286 119 69 29 29 28 32 32 21 1852 31 377 20 33 46 90 20 36 26 20 21 505
leaf_count=20 94660 111070 24 42 22 26 22 25 8286 119 69 29 29 28 32 32 21 1852 31 377 20 33 46 90 20 36 26 20 21 505
internal_value=0 -9.0523e-06 -0.000136787 -0.00159386 -0.00312956 0.000416091 -0.00480958 -0.0064265 -0.000117312 0.000135861 9.49383e-05 0.00137767 0.00256029 -0.00152557 0.00393025 0.00507024 0.00134187 -4.45521e-05 0.000843357 0.00052144 0.00153024 0.00274438 0.00213366 0.00335257 0.00718864 0.00854506 0.00614047 -0.00106282 -0.0020522 -0.000324072
internal_weight=0 122973 11903 157 89 68 67 47 11746 3460 3436 337 227 57 170 138 50 3099 742 711 334 215 195 149 88 68 59 110 90 2357
internal_count=217633 122973 11903 157 89 68 67 47 11746 3460 3436 337 227 57 170 138 50 3099 742 711 334 215 195 149 88 68 59 110 90 2357
shrinkage=0.05


Tree=217
num_leaves=31
num_cat=0
split_feature=36 16 19 29 20 14 6 5 20 31 14 28 19 12 44 41 40 43 14 19 22 23 0 25 10 36 23 40 40 26
split_gain=0.00868575 0.0697482 0.1248 0.223407 0.135677 0.195777 0.138342 0.133433 0.130116 0.200276 0.145996 0.0935341 0.0662198 0.0654621 0.061336 0.105107 1.03914 0.290412 0.342042 0.474254 0.355019 0.185345 0.113002 0.0594232 0.0581909 0.13451 0.182629 0.232722 0.291182 0.0540432
threshold=0.14537000000000003 6.5238050000000013e-06 0.00011990100000000002 -1.2159399999999998 6.7384950000000012 0.0022103100000000005 1.4354600000000002e-06 8.7409800000000018e-06 -0.94259349999999986 0.26647350000000009 0.0016273450000000003 -0.39445199999999997 0.00015321200000000004 -9.3922149999999983e-05 -2.5924899999999993 -0.2029299999999998 -0.079468000000000025 -0.71725499999999964 0.00014912150000000003 0.00045332900000000009 0.25066200000000005 -7.9797249999999993 -2.0595049999999993 44.542100000000012 2.0608650000000005e-05 0.34392800000000007 -10.480799999999997 -0.71412249999999966 0.30085850000000008 0.031042450000000003
decision_type=2 2 2 2 2 2 2 2 2 2 2 2 2 2 2 2 2 2 2 2 2 2 2 2 2 2 2 2 2 2
left_child=-1 14 3 -3 6 -6 8 -4 9 10 -5 -11 -9 -13 -2 -16 -17 21 -19 20 -20 -18 -23 -10 25 -14 27 -27 -29 -28
right_child=1 2 7 4 5 -7 -8 12 23 11 -12 13 24 -15 15 16 17 18 19 -21 -22 22 -24 -25 -26 26 29 28 -30 -31
leaf_value=2.0884203655656273e-06 4.9299092023130371e-05 0.0055032674947546592 0.0029426061455757381 0.0014797025511506946 0.00048793472273128799 0.0067405618195022863 -0.0037951825984055181 -0.0020791213814702228 -0.00018564575495012131 0.0021244638555799611 0.0075211326609860409 -0.0035297994240681878 -0.00088928862127389497 0.00046718414781762049 2.235275740937458e-05 -0.00011287920148920104 -0.0042666097986511888 -0.00096016724516327179 -0.0067807715855237542 -0.0025416586777774267 -0.01517611603718251 0.003132804501146893 -0.001470227742674979 -0.0033533224284474274 -9.4415911307341055e-05 -0.0003300277031182001 -0.00074823787757623001 0.0087637969147181145 0.00086467314976630412 0.0017683440044493183
leaf_weight=208518 3010 27 39 20 31 21 20 38 57 32 20 20 86 21 1907 1940 42 33 34 37 20 20 40 20 1409 27 64 28 20 32
leaf_count=208518 3010 27 39 20 31 21 20 38 57 32 20 20 86 21 1907 1940 42 33 34 37 20 20 40 20 1409 27 64 28 20 32
internal_value=0 -4.77755e-05 0.000210454 0.00117276 0.00072649 0.00301303 0.000160298 5.08967e-05 0.000576664 0.00165676 0.00450042 9.85989e-05 -1.52868e-05 -0.00148256 -0.000121857 -0.000248344 -0.000486672 -0.00369534 -0.00532093 -0.00690231 -0.00989016 -0.00171912 6.41163e-05 -0.00100842 3.17875e-05 0.000723696 0.00153491 0.00338359 0.0054725 9.06227e-05
internal_weight=0 9115 2032 289 262 52 210 1743 190 113 40 73 1704 41 7083 4073 2166 226 124 91 54 102 60 77 1666 257 171 75 48 96
internal_count=217633 9115 2032 289 262 52 210 1743 190 113 40 73 1704 41 7083 4073 2166 226 124 91 54 102 60 77 1666 257 171 75 48 96
shrinkage=0.05


Tree=218
num_leaves=31
num_cat=0
split_feature=20 2 31 27 40 33 43 3 0 13 5 11 11 31 0 1 25 38 18 19 0 19 43 0 30 40 22 14 28 35
split_gain=0.0084843 0.0387781 0.179957 0.0436734 0.0801369 0.0973867 0.0273039 0.0672177 0.316598 0.571342 0.103785 0.0644893 0.0682709 0.0502786 0.0672062 0.0978355 0.0770753 0.0630928 0.279046 0.30711 0.0536138 0.0529173 0.0464238 0.0614133 0.234287 0.108344 0.124003 0.0502422 0.0815584 0.0444998
threshold=-8.175164999999998 3.0333000000000006 2.3607850000000004 0.14670250000000004 0.14973499999999998 1.5735400000000003e-06 -0.026199999999999776 -12.203099999999997 -4.5705949999999991 2.1772650000000002e-05 9.607735000000002e-06 -0.00037784299999999994 -0.0001144375 1.1289300000000002 -4.0528699999999995 -6.7241199999999983 115.80600000000001 -0.13745849999999996 5.4626650000000007e-05 0.0018060550000000002 -8.8447699999999987 4.2063200000000008e-08 0.16841000000000064 -7.2224499999999994 0.0011509850000000002 -0.040859549999999939 2.7533050000000006 0.00075811550000000013 0.0077550700000000011 0.96084200000000008
decision_type=2 2 2 2 2 2 2 2 2 2 2 2 2 2 2 2 2 2 2 2 2 2 2 2 2 2 2 2 2 2
left_child=1 6 3 -3 5 -5 13 8 9 -8 -10 -12 -13 17 15 -15 20 18 21 -20 -17 -1 23 24 25 26 -9 28 -27 -22
right_child=-2 2 -4 4 -6 -7 7 22 10 -11 11 12 -14 14 -16 16 -18 -19 19 -21 29 -23 -24 -25 -26 27 -28 -29 -30 -31
leaf_value=0.0020929751350195146 -3.643348837415509e-06 -0.0020865742354362737 0.004010436954730026 0.0006319885312926622 -0.00017782273023777667 0.0047267464938340713 0.010022546541100991 -0.0046647238841701659 0.0028865089970947469 -0.00049065885957263946 0.0023280726978555321 -0.0029331841236593654 -0.00024507561025313034 -0.0040495758333354785 -0.00010479954740045832 -0.0031986460047925868 0.0022538895667301921 -1.0274266465404316e-05 0.0077309001991697759 0.0001173658618846765 -0.00047712765574258077 -0.00061651834878393569 2.8623494002662643e-05 -6.1841057429230757e-05 0.0046080695391955903 0.00068871677129495414 0.00059639237103207665 -0.0015397981630445904 0.003895284177131197 -0.0023977285355024779
leaf_weight=21 191545 20 34 53 203 20 24 21 28 28 20 28 151 23 1029 23 21 12299 27 26 267 127 10715 385 37 356 24 23 21 34
leaf_count=21 191545 20 34 53 203 20 24 21 28 28 20 28 151 23 1029 23 21 12299 27 26 267 127 10715 385 37 356 24 23 21 34
internal_value=0 2.67504e-05 0.00056532 0.000169597 0.000333088 0.00175384 1.98505e-05 7.55724e-05 0.000842476 0.00436159 3.63354e-05 -0.000364694 -0.000665562 -2.77078e-05 -0.000312192 -0.000892101 -0.000681603 4.08618e-06 0.000882788 0.00399596 -0.000871866 -0.000232063 5.70984e-05 0.000409011 0.000785107 0.000467243 -0.0018588 0.000728922 0.000867332 -0.000694073
internal_weight=0 26088 330 296 276 73 25758 11861 279 52 227 199 179 13897 1397 368 345 12500 201 53 324 148 11582 867 482 445 45 400 377 301
internal_count=217633 26088 330 296 276 73 25758 11861 279 52 227 199 179 13897 1397 368 345 12500 201 53 324 148 11582 867 482 445 45 400 377 301
shrinkage=0.05


Tree=219
num_leaves=31
num_cat=0
split_feature=31 3 0 2 11 2 7 0 11 11 36 16 3 16 40 40 3 3 39 10 19 33 8 0 16 3 16 40 40 33
split_gain=0.00885539 0.0856528 0.0636932 0.22394 0.0600629 0.0598963 0.254553 0.0542243 0.0196621 0.0172035 0.0139813 0.194957 0.284701 0.374051 0.334995 0.678374 0.274278 0.196901 0.0657227 0.0454579 0.042392 0.067819 0.0346189 0.0312574 0.114016 0.0935834 0.0741955 0.289541 0.276805 0.0417426
threshold=29.306750000000005 -15.867949999999999 -6.9102499999999987 2.6198050000000004 -3.9555399999999991e-05 -2.1751149999999995 3.784270000000001e-05 -8.3447299999999967 -0.00013975599999999997 -4.5422699999999995e-05 -0.43959349999999991 -1.3281999999999998e-05 -10.386699999999999 -5.6601999999999991e-05 -0.49100999999999978 0.8902650000000002 -13.614249999999998 -17.304849999999998 0.8356380000000001 9.5296300000000015e-06 3.865525000000001e-10 -0.00014064699999999996 -1.0191599999999997e-05 4.3023300000000004 -4.6602349999999998e-06 -15.510599999999998 -7.7313249999999984e-06 -0.27744100000000016 1.0064425000000004 -0.00037994999999999994
decision_type=2 2 2 2 2 2 2 2 2 2 2 2 2 2 2 2 2 2 2 2 2 2 2 2 2 2 2 2 2 2
left_child=10 4 7 5 -2 6 -4 -3 -7 -10 11 12 13 17 -15 16 -16 -1 22 -13 21 -21 -19 26 -25 -26 27 -22 -29 -27
right_child=1 2 3 -5 -6 8 -8 -9 9 -11 -12 19 -14 14 15 -17 -18 18 -20 20 23 -23 -24 24 25 29 -28 28 -30 -31
leaf_value=0.004946427323156968 -0.0042130778288646115 -0.00042037898953910171 0.0059736976117710583 0.0052794363305327446 -0.00067569164278284341 -0.001446442353577974 -0.0015942826140526449 -0.002624649345994436 0.0013757487578550354 -0.0001217594222853261 -9.4296732207887481e-07 -0.0019325772780575791 -0.00016894751432091422 -0.00039765912095810147 0.0056144390593875545 -0.00030468624804948029 0.013200008774695633 0.0011449424296458616 0.0023271116975827739 0.0036319659725995734 0.0026895941973882811 -0.00012688553067467486 -0.00060444104982707361 0.0033503968074607353 0.0031237576044683621 -0.00067406525978010981 -0.00015435501479048915 -0.0086111024853198614 -0.00029237951164759582 0.00016440581008178316
leaf_weight=25 21 124 20 21 28 27 25 36 20 467 213654 33 314 26 22 26 26 37 31 20 22 30 120 27 24 198 1576 20 20 593
leaf_count=25 21 124 20 21 28 27 25 36 20 467 213654 33 314 26 22 26 26 37 31 20 22 30 120 27 24 198 1576 20 20 593
internal_value=0 -0.000167204 -3.31486e-05 0.00021049 -0.00219171 2.00649e-05 0.00176926 -0.00091634 -0.000133075 -6.02601e-05 6.08382e-07 0.000104512 0.000894798 0.00196194 0.00448457 0.00619995 0.00972329 0.000777611 0.000223247 -8.882e-05 -6.4771e-05 0.00137666 -0.000192166 -9.3832e-05 0.000153751 4.78502e-05 -0.0002211 -0.00191772 -0.00445174 -4.5477e-05
internal_weight=0 789 740 580 49 559 45 160 514 487 216844 3190 627 313 100 74 48 213 188 2563 2530 50 157 2480 842 815 1638 62 40 791
internal_count=217633 789 740 580 49 559 45 160 514 487 216844 3190 627 313 100 74 48 213 188 2563 2530 50 157 2480 842 815 1638 62 40 791
shrinkage=0.05


Tree=220
num_leaves=31
num_cat=0
split_feature=41 40 26 5 9 18 15 26 4 5 32 20 26 43 41 38 18 18 19 16 21 9 36 16 43 40 10 44 20 9
split_gain=0.00863141 0.0781315 0.122638 0.176892 0.241729 0.20822 0.164927 0.123225 0.154325 0.118852 0.2081 0.32899 0.287504 0.17632 0.151879 0.206085 0.431954 0.280715 0.224052 0.1473 0.239737 0.263719 0.140012 0.491124 0.559275 1.07572 0.400207 0.481999 0.485599 0.356407
threshold=0.32610899999999998 -0.018010000000000078 -0.013856449999999998 1.5270200000000005e-05 -2.3129099999999998e-05 -1.0012199999999997e-06 -2.2729399999999997e-07 -0.0090542049999999975 0.097742300000000018 9.0806150000000018e-06 0.56648000000000021 -2.3663549999999995 -0.00043562299999999995 1.0000000180025095e-35 0.078754999999999922 -8.2807199999999982e-05 -5.1821499999999985e-07 -4.1247499999999997e-07 0.00028936550000000009 -4.4589499999999997e-08 3.9119950000000006 2.5537850000000005e-05 -0.022925199999999996 -2.5610849999999994e-07 1.9002500000000004 -0.058960000000000005 3.8569350000000007e-05 -2.3840000000000008 -6.9945499999999994 2.5975450000000002e-05
decision_type=2 2 2 2 2 2 2 2 2 2 2 2 2 2 2 2 2 2 2 2 2 2 2 2 2 2 2 2 2 2
left_child=1 2 3 4 -1 -5 -6 8 -4 10 12 -12 13 -9 15 16 -14 -17 -19 -18 21 -21 23 26 25 29 27 -11 -29 -25
right_child=-2 -3 7 5 6 -7 -8 9 -10 22 11 -13 14 -15 -16 17 19 18 -20 20 -22 -23 -24 24 -26 -27 -28 28 -30 -31
leaf_value=-0.0075860070850467315 1.1349330148071249e-05 4.3106328799711235e-06 2.0169270594903668e-05 0.0034786601706097522 -0.0049627679050900046 -0.0019488122182909054 0.00042700775993580469 -0.0064152845600619918 0.00577079217415303 -0.0017601064439856731 0.0061350136055037955 -0.00020662660590037272 -0.0018218480967707599 -0.00077158309246559871 -0.00010632593257564557 0.0017132452920010208 0.0020006780884592088 -0.0005630906089758149 -0.0067739707490818554 0.012240471184486524 0.0017535860448887157 0.0042180008496784252 -0.00011492670092587759 -0.0038103985779802314 -0.00049417550392528411 -0.013134830208771207 -0.0016462420466627345 0.010084035451568309 0.0020563797032897286 0.0012582298754296062
leaf_weight=22 94660 111070 28 30 22 43 40 25 20 77 39 43 39 31 548 113 41 53 20 20 23 21 9733 125 326 27 142 21 183 48
leaf_count=22 94660 111070 28 30 22 43 40 25 20 77 39 43 39 31 548 113 41 53 20 20 23 21 9733 125 326 27 142 21 183 48
internal_value=0 -8.73629e-06 -0.000130481 -0.00151867 -0.00308325 0.000281656 -0.00148549 -0.000111926 0.00241626 -0.000122299 0.00039447 0.00280952 0.000182443 -0.00329109 0.000403989 0.00125142 0.0026715 0.000152008 -0.0022647 0.00434045 0.00583937 0.0081314 -0.000171451 -0.000751168 -0.00177119 -0.00385273 0.000517229 0.00161051 0.00288276 -0.00240407
internal_weight=0 122973 11903 157 84 73 62 11746 48 11698 1016 82 934 56 878 330 144 186 73 105 64 41 10682 949 526 200 423 281 204 173
internal_count=217633 122973 11903 157 84 73 62 11746 48 11698 1016 82 934 56 878 330 144 186 73 105 64 41 10682 949 526 200 423 281 204 173
shrinkage=0.05


Tree=221
num_leaves=31
num_cat=0
split_feature=21 44 12 43 29 12 12 2 41 12 26 23 28 8 1 15 28 30 16 18 24 41 30 41 41 10 1 2 24 23
split_gain=0.0083971 0.0564264 0.17786 0.28474 0.477327 0.0859144 0.25664 0.132227 0.213575 0.0682599 0.100629 0.0637033 0.0426995 0.0644324 0.0606541 0.0615395 0.0600909 0.0567261 0.0375713 0.124468 0.186808 0.0910971 0.0332754 0.0295203 0.256147 0.0437971 0.0925089 0.0290554 0.0289339 0.0360353
threshold=13.390900000000002 -0.52047500000000058 4.8722750000000004e-05 0.93421999999999994 -0.0016011999999999999 0.00010937550000000001 0.00012870650000000001 1.7176300000000002 -0.89665319999999982 6.1414500000000013e-05 0.0012358850000000002 -13.08405 0.13760400000000003 -4.7438199999999996e-05 11.042450000000001 -6.5679299999999979e-08 0.15361650000000002 0.16934650000000004 3.8630400000000007e-07 -2.1824149999999994e-06 -0.11887649999999998 0.56931500000000013 0.030440600000000005 0.12358499999999996 -0.12554300000000002 1.4337500000000001e-05 8.9743750000000002 1.3422600000000002 1.1195950000000001 -7.2505749999999987
decision_type=2 2 2 2 2 2 2 2 2 2 2 2 2 2 2 2 2 2 2 2 2 2 2 2 2 2 2 2 2 2
left_child=-1 2 18 4 -4 9 -7 22 -9 10 -5 -3 13 -13 17 -16 -14 28 19 20 -2 -20 -8 24 25 -18 -27 -25 29 -15
right_child=1 11 3 5 -6 6 7 8 -10 -11 -12 12 16 14 15 -17 23 -19 21 -21 -22 -23 -24 27 -26 26 -28 -29 -30 -31
leaf_value=-1.2086905376830142e-06 0.0062680573448596986 -0.0026945970585549495 0.010549495784133408 -0.00048687268194953505 0.00065134343237551904 0.0068592844327213243 0.0011889251492296657 -0.0005028787028831652 0.0067167032795259736 -0.00083855829311063395 0.0041567628813209013 -0.002183287361622206 -0.0028367594856414753 -0.00069498416878268189 0.0036482984004881781 0.00051313845073713718 -0.0022678258225575765 0.0026594065750638646 -0.0029535706497595782 -2.7581740349625083e-05 -0.0005658317793495372 -0.00013266134654716719 -0.0011507072096521205 -0.00015210333319201302 -0.0061602057027630511 -0.00036349057395628588 0.0032874071172227558 0.0017539832369255323 0.00172341489745304 0.00010895175893061037
leaf_weight=214386 20 23 21 28 29 20 21 21 20 102 20 30 24 160 24 45 22 21 35 613 20 157 55 417 20 131 20 21 25 1082
leaf_count=214386 20 23 21 28 29 20 21 21 20 102 20 30 24 160 24 45 22 21 35 613 20 157 55 417 20 131 20 21 25 1082
internal_value=0 7.98049e-05 0.000355305 0.00132652 0.00480857 0.000719887 0.00162509 0.00073036 0.00301887 -0.000106867 0.00144798 -7.78905e-05 -4.84173e-05 0.000108704 0.000159375 0.00160363 -0.000381131 8.20041e-05 -3.20307e-05 0.000148755 0.00285111 -0.00064689 -0.00050423 -0.000287732 -0.00080293 -0.000183591 0.000120072 -6.07156e-05 3.92847e-05 5.38513e-06
internal_weight=0 3247 1182 337 50 287 137 117 41 150 48 2065 2042 1387 1357 69 655 1288 845 653 40 192 76 631 193 173 151 438 1267 1242
internal_count=217633 3247 1182 337 50 287 137 117 41 150 48 2065 2042 1387 1357 69 655 1288 845 653 40 192 76 631 193 173 151 438 1267 1242
shrinkage=0.05


Tree=222
num_leaves=31
num_cat=0
split_feature=27 18 4 12 40 16 4 40 11 12 16 19 40 40 4 14 16 13 8 21 0 15 20 0 1 17 41 0 13 28
split_gain=0.00860268 0.0454572 0.137945 0.0470483 0.0654927 0.0847498 0.153601 0.0499934 0.0380913 0.0441759 0.102138 0.157662 0.063864 0.0668224 0.0596824 0.0427824 0.0651203 0.0329625 0.019505 0.01813 0.0178734 0.024171 0.0163673 0.0769679 0.200373 0.0898227 0.104825 0.0522319 0.0438546 0.121283
threshold=91.481750000000019 0.0042538100000000011 2.7715550000000007 0.00010629050000000001 0.77415 2.3811300000000004e-05 0.28079350000000008 -0.17527649999999997 -0.00035055549999999991 -0.00014946199999999997 6.5238050000000013e-06 0.00018145150000000004 -0.17527649999999997 0.12375499999999996 -0.88881949999999998 0.0061690100000000008 3.9398900000000012e-06 0.00028710000000000004 -4.2992599999999992e-05 18.392150000000004 -13.909449999999998 -2.7784749999999993e-06 -12.926599999999999 -11.535399999999997 -5.4339099999999991 3.7214100000000002e-07 -0.25176499999999996 -11.331049999999999 -5.3688449999999996e-05 0.34469700000000009
decision_type=2 2 2 2 2 2 2 2 2 2 2 2 2 2 2 2 2 2 2 2 2 2 2 2 2 2 2 2 2 2
left_child=22 3 -3 8 5 6 7 -5 -2 12 15 -12 19 -14 -13 16 20 -4 -6 -10 -11 -22 23 24 -1 -26 -27 -25 29 -29
right_child=1 2 17 4 18 -7 -8 -9 9 10 11 14 13 -15 -16 -17 -18 -19 -20 -21 21 -23 -24 27 25 26 -28 28 -30 -31
leaf_value=0.0048657457493633659 0.0019091916373630132 0.0037433868425917659 0.001474426211023326 -8.7681901526306518e-05 0.0012472069317785404 0.0010200798641149462 -0.0061752215867662543 -0.0029015852604061367 -0.00048451018989350414 0.0012590023022009216 0.0051531891052339542 -0.0013683900628368266 -0.0044753327389203366 -0.0007978893372152622 0.0021399192686658353 0.0021721071467618461 -0.0024961200321960298 -0.0004753122796311497 -0.00037782652269526895 0.0011089832071558617 -0.0013738638582573323 -6.5327342048100394e-05 -7.6879105642520833e-07 -0.0024897804082138469 -0.0010899258358222142 -0.00054450293431397188 0.003284449413872491 0.00028998212557382889 3.1543190325906056e-05 0.0044557768128253798
leaf_weight=30 24 30 28 38 21 22 21 27 119 24 24 27 21 30 22 20 29 96 153 21 37 764 213069 20 60 33 39 104 2659 21
leaf_count=30 24 30 28 38 21 22 21 27 119 24 24 27 21 30 22 20 29 96 153 21 37 764 213069 20 60 33 39 104 2659 21
internal_value=0 -0.000115584 0.00070101 -0.000202672 -0.000782017 -0.00174919 -0.00245761 -0.00125653 -6.20742e-05 -0.000103647 3.62575e-05 0.00183299 -0.000797313 -0.00231213 0.000206769 -0.000113813 -0.000167347 -3.50487e-05 -0.000181702 -0.000245486 -8.54873e-05 -0.000125772 8.5497e-07 0.000117501 0.00117717 0.000338859 0.00152951 5.62793e-05 7.457e-05 0.000989836
internal_weight=0 1598 154 1444 282 108 86 65 1162 1138 947 73 191 51 49 874 854 124 174 140 825 801 216035 2966 162 132 72 2804 2784 125
internal_count=217633 1598 154 1444 282 108 86 65 1162 1138 947 73 191 51 49 874 854 124 174 140 825 801 216035 2966 162 132 72 2804 2784 125
shrinkage=0.05


Tree=223
num_leaves=31
num_cat=0
split_feature=41 21 31 3 3 11 9 3 9 11 14 23 13 11 20 9 3 43 44 43 31 9 33 16 29 20 36 16 3 41
split_gain=0.00814802 0.372313 0.0112218 0.0677516 0.0568882 0.118218 0.0520196 0.0512317 0.0297979 0.0956102 0.16562 0.0405024 0.0378969 0.0183821 0.0174342 0.126051 0.236093 0.19571 0.0523045 0.0951422 0.0455434 0.0430929 0.0276988 0.0399878 0.0219911 0.0152581 0.0132651 0.16005 0.242933 0.330877
threshold=-5.672744999999999 2.9920850000000008 29.306750000000005 -15.867949999999999 -14.267049999999999 -5.9599849999999995e-05 -4.8004049999999993e-06 -13.353949999999999 -3.4889849999999996e-05 -5.2550399999999997e-05 0.030258200000000002 -10.617199999999999 -2.5389999999999996e-05 -1.7778499999999996e-05 -19.608449999999998 -2.9834549999999997e-05 -5.946604999999999 1.9002500000000004 3.7911450000000002 -4.7135349999999994 -13.003849999999998 -2.2309399999999997e-05 -0.00090391799999999997 9.1799900000000009e-08 0.30041650000000003 -19.608449999999998 -0.43959349999999991 -1.3281999999999998e-05 -10.386699999999999 -0.7808004999999999
decision_type=2 2 2 2 2 2 2 2 2 2 2 2 2 2 2 2 2 2 2 2 2 2 2 2 2 2 2 2 2 2
left_child=1 -1 14 6 5 -5 -4 -6 11 10 -10 12 -9 -11 15 16 17 24 21 20 -20 -17 23 -23 -2 -14 27 28 29 -16
right_child=2 -3 3 4 7 -7 -8 8 9 13 -12 -13 25 -15 26 18 -18 -19 19 -21 -22 22 -24 -25 -26 -27 -28 -29 -30 -31
leaf_value=-4.5109346569109658e-05 0.00028460744535550473 0.0055339090841551941 -0.003957286367658526 0.0045403993240324776 -0.0025671711165738422 -0.00033126634900161828 -0.00061856480282845698 0.0015799854574392418 0.0056299392267828811 -0.0012033863644417679 -0.00080472350786294552 -0.0024925691849030382 -0.0017470449356811254 -4.2386015418434267e-05 -0.00030164258842762203 -0.0022934798635692605 0.0050374986384566812 0.0044927257171366369 0.0020931001675886696 0.0034322607991343831 -0.00042665988502889871 -0.00038422854711479023 -6.2148092306331661e-05 -0.0031006036339385904 -0.0012058042087036566 -0.00036600982626883448 -2.1974368376211403e-06 -7.6695652067715304e-05 -0.00016386942783640825 0.0030739830708363426
leaf_weight=846 45 31 20 20 22 33 28 21 20 37 20 27 28 434 116 31 36 24 22 25 97 42 217 20 55 70 212231 2508 313 194
leaf_count=846 45 31 20 20 22 33 28 21 20 37 20 27 28 434 116 31 36 24 22 25 97 42 217 20 55 70 212231 2508 313 194
internal_value=0 0.000152097 -6.15386e-07 -0.000189925 -7.05952e-05 0.0015071 -0.0020097 -0.000193744 -0.000114268 6.57211e-05 0.00241261 -0.00074423 -0.000347548 -0.00013359 6.83068e-08 0.000266121 0.0014729 0.000438012 -0.000159174 0.000628255 3.91781e-05 -0.000524947 -0.000328444 -0.00126048 -0.000535119 -0.000760591 -6.90214e-07 0.000101475 0.000818734 0.00181085
internal_weight=0 877 216756 780 732 53 48 679 657 511 40 146 119 471 215976 614 160 124 454 144 119 310 279 62 100 98 215362 3131 623 310
internal_count=217633 877 216756 780 732 53 48 679 657 511 40 146 119 471 215976 614 160 124 454 144 119 310 279 62 100 98 215362 3131 623 310
shrinkage=0.05


Tree=224
num_leaves=31
num_cat=0
split_feature=28 40 41 41 21 35 28 15 3 21 3 16 23 3 23 40 1 8 36 8 21 13 16 4 17 31 13 16 44 33
split_gain=0.00835647 0.0429409 0.332764 0.283441 0.304399 0.260737 0.268178 0.260418 0.261091 0.529892 0.253719 0.201211 0.449054 0.410524 0.389372 0.214107 0.199949 0.198544 0.193686 0.189489 0.372151 0.272302 0.188479 0.217134 0.275863 0.216325 0.190627 0.17881 0.377093 0.386389
threshold=0.041210350000000007 -0.19934349999999995 -0.12554300000000002 -0.057539999999999918 0.5292785000000001 0.098593250000000007 0.27127250000000008 -2.1368049999999996e-05 -10.2113 -2.0281699999999994 -10.603549999999998 2.4065350000000007e-07 -6.889454999999999 -6.4469949999999994 -6.2653549999999987 -0.040859549999999939 3.3893400000000002 -7.7981199999999988e-06 0.018509300000000003 -8.1940399999999975e-06 4.2128100000000011 3.7051150000000005e-05 2.3811300000000004e-05 0.17191050000000002 1.9864300000000001e-06 0.93980800000000009 -3.5092449999999993e-05 -1.0891499999999998e-06 -1.5612350000000006 1.201625e-05
decision_type=2 2 2 2 2 2 2 2 2 2 2 2 2 2 2 2 2 2 2 2 2 2 2 2 2 2 2 2 2 2
left_child=-1 -2 -3 4 -4 17 -7 16 9 -9 19 12 27 18 -13 -16 -5 -6 -14 22 21 -21 23 25 -25 -11 -27 -10 -29 -30
right_child=1 2 3 7 5 6 -8 8 11 10 -12 14 13 -15 15 -17 -18 -19 -20 20 -22 -23 -24 24 -26 26 -28 28 29 -31
leaf_value=3.1859602300154131e-06 1.7131973408248041e-05 7.7460286665096372e-05 0.0016637975648652926 -0.0055791098032952164 -0.0014489422176450614 -0.0025279042376812715 -0.010343000469064076 0.0087839087215252215 0.00057307239072716101 -0.00014145012885889558 0.0043730641123319574 -0.00045193826452621423 0.001304359385921132 -0.010306054111182069 0.0083320116956851313 0.0013490782428087424 -0.0013488760882067079 -0.0056997971543751198 -0.0050981204922276521 0.00067708065267652279 -0.00091077237197998589 0.0083745357843495356 -0.0052720885346865375 -0.00057662530040640081 0.0062602878417819738 -0.007699694699563441 -0.0011766093817035049 -0.00031537521824447372 -0.0021251467389587424 -0.0099081508068712028
leaf_weight=196821 14523 4641 46 37 194 23 21 20 168 117 37 230 21 24 21 23 114 32 27 20 57 27 21 36 25 21 24 187 52 23
leaf_count=196821 14523 4641 46 37 194 23 21 20 168 117 37 230 21 24 21 23 114 32 27 20 57 27 21 36 25 21 24 187 52 23
internal_value=0 -3.01299e-05 -0.00013927 -0.000749614 -0.00209588 -0.00273642 -0.00625784 -0.00043023 -0.000180243 0.000848826 0.000436614 -0.000717322 -0.00131215 -0.00496671 0.000372464 0.00468184 -0.00238542 -0.00205083 -0.00229704 1.80833e-05 0.00180519 0.00509902 -0.000743635 -0.000317189 0.00222539 -0.00127458 -0.00422072 -0.000700219 -0.00151668 -0.00451193
internal_weight=0 20812 6289 1648 316 270 44 1332 1181 405 385 776 502 72 274 44 151 226 48 348 104 47 244 223 61 162 45 430 262 75
internal_count=217633 20812 6289 1648 316 270 44 1332 1181 405 385 776 502 72 274 44 151 226 48 348 104 47 244 223 61 162 45 430 262 75
shrinkage=0.05


Tree=225
num_leaves=31
num_cat=0
split_feature=41 21 26 4 0 5 29 36 23 3 24 3 19 21 29 0 2 41 42 32 44 23 9 19 14 18 11 37 38 41
split_gain=0.0081413 0.185145 0.00899221 0.0557546 0.0951316 0.180241 0.262226 0.38895 0.305305 0.090575 0.0744515 0.293425 0.216113 0.0587014 0.0577333 0.0523562 0.0473061 0.045457 0.42576 0.212904 0.211745 0.369397 0.381264 0.176519 0.158556 0.148507 0.129301 0.156372 0.122765 0.0758954
threshold=5.6849350000000003 -3.7984549999999992 0.0020748500000000005 -0.12727799999999997 8.6233850000000025 1.9415700000000001e-05 -0.13276649999999998 0.029614900000000003 -8.326019999999998 -7.2576699999999992 -2.2419299999999995 -12.74245 0.0061593000000000004 5.5200300000000011 -0.58729449999999994 9.852780000000001 3.0333000000000006 0.22260499999999997 0.1751400000000001 -22.304899999999996 -1.2755000000000003 -8.5441749999999974 4.1898300000000005e-05 0.0003933880000000001 0.0017362250000000003 8.6855700000000027e-09 -6.2059949999999982e-05 -1.2728799999999998e-06 -0.076179349999999993 -0.01032849999999985
decision_type=2 2 2 2 2 2 2 2 2 2 2 2 2 2 2 2 2 2 2 2 2 2 2 2 2 2 2 2 2 2
left_child=2 -2 -1 4 10 6 7 8 -6 -9 11 12 -4 -13 -7 -8 -12 18 19 -5 24 23 25 -22 28 -23 -27 -28 -21 -29
right_child=1 -3 3 17 5 14 15 9 -10 -11 16 13 -14 -15 -16 -17 -18 -19 -20 20 21 22 -24 -25 -26 26 27 29 -30 -31
leaf_value=1.4185120470420402e-06 0.0037695491029059187 4.0772217348464087e-06 0.0073135093570238473 0.0029007984193689801 0.0030501023022225129 -0.0024007653774735143 -0.0022615805771783923 0.0035077280340192378 0.011681961600801774 -0.00083620954809399952 -6.4473533424812003e-05 -0.00079284554898731592 0.00055049940634662993 0.0018344816857953214 0.00012509028413403388 0.00068046864228841933 0.0022646489057124922 3.8730045320944119e-06 -2.9672232632562597e-05 0.0029425811785935927 -0.0038694853040700163 -0.0039438859810064916 -0.007382264909600574 -0.010209916578605772 -0.0048205724595824168 -0.0036486000698503288 0.0046059891220647841 -0.0024217995397650938 -0.00083102677729743498 0.00095520310683130493
leaf_weight=208533 34 819 27 23 20 30 20 20 21 30 2408 100 21 27 92 62 22 2572 2364 26 21 33 28 23 21 21 20 28 126 41
leaf_count=208533 34 819 27 23 20 30 20 20 21 30 2408 100 21 27 92 62 22 2572 2364 26 21 33 28 23 21 21 20 28 126 41
internal_value=0 0.000154166 -6.06624e-07 -5.18141e-05 0.000124716 0.00097571 0.00201358 0.00386145 0.0074713 0.000901365 2.83461e-05 0.00102441 0.00435469 -0.00023428 -0.000496022 -3.71043e-05 -4.33868e-05 -0.000147557 -0.000287909 -0.00177324 -0.00205031 -0.00309808 -0.00204678 -0.0071838 -0.000748175 -0.00100207 -0.000119526 0.000713177 -0.000185541 -0.000415175
internal_weight=0 853 216780 8247 2900 295 173 91 41 50 2605 175 48 127 122 82 2430 5347 2775 411 388 215 171 44 173 143 110 89 152 69
internal_count=217633 853 216780 8247 2900 295 173 91 41 50 2605 175 48 127 122 82 2430 5347 2775 411 388 215 171 44 173 143 110 89 152 69
shrinkage=0.05


Tree=226
num_leaves=31
num_cat=0
split_feature=23 44 3 40 41 30 3 10 20 5 25 43 35 14 3 43 1 36 12 40 40 18 4 40 40 35 4 29 20 40
split_gain=0.00795021 0.0312825 0.105857 0.0891898 0.742 0.540334 0.393553 0.494429 0.253822 0.261488 0.104067 0.063999 0.0684611 0.0627673 0.0618918 0.173313 0.0563138 0.28661 0.0610132 0.153234 0.327829 0.0539381 0.0783038 0.0685996 0.0970864 0.127391 0.0983792 0.0719323 0.19889 0.187753
threshold=-6.9859049999999998 -0.16918499999999967 -6.0871149999999989 -0.10081500000000009 -0.12554300000000002 9.1676100000000015e-05 -6.2207449999999991 3.1709050000000001e-05 -2.6904149999999993 1.2843600000000002e-05 2.9280800000000005 -0.026199999999999776 -0.21631099999999998 0.00012656100000000005 -6.0871149999999989 -0.15760999999999911 10.829750000000002 -0.00028059049999999995 -4.0171199999999992e-05 -0.12496499999999998 0.14973499999999998 4.8129750000000003e-06 0.25745450000000009 -0.079468000000000025 0.1751400000000001 0.0029117050000000001 -0.13528899999999996 0.0030549950000000005 -4.9373099999999992 -0.027530000000000051
decision_type=2 2 2 2 2 2 2 2 2 2 2 2 2 2 2 2 2 2 2 2 2 2 2 2 2 2 2 2 2 2
left_child=-1 2 3 -2 -5 -6 8 -8 9 -7 -10 13 -13 16 -15 -16 18 -18 19 -3 -21 23 -23 -14 25 27 -27 29 -29 -25
right_child=1 11 -4 4 5 6 7 -9 10 -11 -12 12 21 14 15 -17 17 -19 -20 20 -22 22 -24 24 -26 26 -28 28 -30 -31
leaf_value=4.5454955807426687e-06 -6.4789157914796832e-05 -3.0723341016899022e-05 -2.3626245516286162e-05 -4.5642428558123079e-05 -0.010112578350257266 -0.00021479947291399269 -0.012083360633724147 -0.0013574269600212575 0.0018611449405381627 -0.0079238301989707077 -0.0021440981451988869 -0.0024246229947058728 -0.0001743104339821723 4.8230824176590193e-06 0.0051523344169947362 -0.0011980289331404493 -0.0067846975335851311 -0.00022790948882175146 -0.00011332953576900335 -0.0063758259133568839 -1.2589064291053851e-05 -0.0032784059564749317 -9.2283623491111629e-05 0.0050807745247665381 -6.4147468365551916e-05 0.0012750563982163758 0.006120348424592522 0.00046702840464538125 -0.0048390195122919978 0.00082233116840951131
leaf_weight=177480 758 154 8072 698 27 22 21 22 55 22 23 23 366 26241 21 22 20 100 1902 35 48 21 236 27 378 22 20 151 20 626
leaf_count=177480 758 154 8072 698 27 22 21 22 55 22 23 23 366 26241 21 22 20 100 1902 35 48 21 236 27 378 22 20 151 20 626
internal_value=0 -2.00915e-05 -9.81825e-05 -0.000463364 -0.000802824 -0.00355549 -0.00248252 -0.00659567 -0.0010328 -0.00406931 0.000680112 4.84999e-06 0.000286625 -1.3808e-05 7.92896e-06 0.00190331 -0.000266723 -0.00132071 -0.000207593 -0.000964091 -0.00269588 0.000320026 -0.000352628 0.0004274 0.000604431 0.000896258 0.00358234 0.000759346 -0.000153562 0.000998408
internal_weight=0 40153 9720 1648 890 192 165 43 122 44 78 30433 1890 28543 26284 43 2259 120 2139 237 83 1867 257 1610 1244 866 42 824 171 653
internal_count=217633 40153 9720 1648 890 192 165 43 122 44 78 30433 1890 28543 26284 43 2259 120 2139 237 83 1867 257 1610 1244 866 42 824 171 653
shrinkage=0.05


Tree=227
num_leaves=31
num_cat=0
split_feature=27 18 4 3 43 16 4 4 15 19 15 36 12 12 16 40 38 13 5 35 15 15 40 19 0 29 0 3 4 15
split_gain=0.00789329 0.040402 0.122214 0.0447806 0.0422471 0.0297918 0.0462198 0.339508 0.0617606 0.055701 0.0831117 0.045673 0.0417429 0.0392658 0.051072 0.0428159 0.0362565 0.0308712 0.0296964 0.015259 0.136891 0.266275 0.247023 0.0757021 0.063126 0.194932 0.0764556 0.0559815 0.132973 0.0400063
threshold=91.481750000000019 0.0042538100000000011 2.9223900000000005 -14.605749999999999 -2.1822199999999996 -1.0891499999999998e-06 1.1247450000000001 1.6690850000000002 9.3811500000000008e-05 0.0010528750000000002 -2.7784749999999993e-06 -2.2564299999999995 -0.00017094949999999997 0.00010937550000000001 6.5238050000000013e-06 0.77415 5.8699600000000016 3.9955600000000008e-05 2.7325850000000002e-05 -0.93075499999999989 -9.0272649999999983e-06 -1.7185949999999998e-05 0.68543200000000015 3.865525000000001e-10 -4.3615599999999999 1.0482150000000001 -2.8094699999999997 -12.352299999999998 -2.6817999999999995 -1.8735799999999998e-06
decision_type=2 2 2 2 2 2 2 2 2 2 2 2 2 2 2 2 2 2 2 2 2 2 2 2 2 2 2 2 2 2
left_child=19 3 -3 4 -2 11 8 -8 9 10 -7 -5 -12 14 -14 -15 -11 -9 -4 20 21 24 -23 -22 25 -1 -26 28 -28 -25
right_child=1 2 18 5 -6 6 7 17 -10 16 12 -13 13 15 -16 -17 -18 -19 -20 -21 23 22 -24 29 26 -27 27 -29 -30 -31
leaf_value=0.0002578244787816211 -0.0005898553013582138 0.0032092527070037452 -0.00060271402492241772 -0.0022487773039028981 -0.002700604882168894 0.0028005010004003104 0.0068069381968234675 -0.0021794299782334787 0.0024322175794926201 -0.00074023703018920891 -0.0023282247637143884 -0.00031637386428500137 -4.2572230459622262e-06 -0.0031638572563315393 0.0022135989916798149 -0.00013485914826430549 -0.0030545550964961878 0.00019238502102191836 0.0011814672619948397 -4.1636383733010796e-07 0.0024126664908862938 0.0065692916178975158 -0.00022027911012022138 -0.0011003216590399127 -0.0029318111613628435 0.0053883121179145142 -0.00045773156056053599 -0.00030203005886799957 0.0044947715354678426 -5.3984807659269491e-05
leaf_weight=81 113 36 86 35 30 26 20 23 24 110 20 242 672 20 27 28 20 34 32 214184 30 37 21 98 21 24 33 136 23 1347
leaf_count=81 113 36 86 35 30 26 20 23 24 110 20 242 672 20 27 28 20 34 32 214184 30 37 21 98 21 24 33 136 23 1347
internal_value=0 -0.000110716 0.000659134 -0.000192819 -0.00103267 -0.000100507 2.39362e-05 0.00120199 -7.18504e-05 -0.000136962 2.03047e-05 -0.00056054 -7.39392e-05 -1.35835e-05 8.1411e-05 -0.00139694 -0.00109629 -0.000764663 -0.000118868 8.18961e-07 0.000143762 0.000995403 0.004111 -7.3335e-05 0.00042715 0.00143051 -6.74625e-05 0.000245826 0.00157633 -0.000124947
internal_weight=0 1598 154 1444 143 1301 1024 77 947 923 793 277 767 747 699 48 130 57 118 216035 1851 376 58 1475 318 105 213 192 56 1445
internal_count=217633 1598 154 1444 143 1301 1024 77 947 923 793 277 767 747 699 48 130 57 118 216035 1851 376 58 1475 318 105 213 192 56 1445
shrinkage=0.05


Tree=228
num_leaves=31
num_cat=0
split_feature=21 44 12 43 29 22 40 19 12 12 23 28 8 28 30 5 28 0 40 3 16 18 38 40 22 3 20 6 12 3
split_gain=0.00786025 0.0508275 0.161163 0.258948 0.427238 0.0785534 0.279686 0.136024 0.279765 0.0748736 0.0576598 0.0381943 0.0581393 0.0543695 0.0472991 0.0344589 0.0925572 0.0368976 0.136732 0.0344611 0.0330966 0.10869 0.163877 0.0805621 0.0315804 0.0460004 0.0617292 0.0280567 0.0760427 0.0291488
threshold=13.390900000000002 -0.52047500000000058 4.8722750000000004e-05 0.93421999999999994 -0.0016011999999999999 2.3537500000000002 -0.74380499999999983 5.4568300000000011e-05 0.00010937550000000001 6.1414500000000013e-05 -13.08405 0.13760400000000003 -4.7438199999999996e-05 0.15361650000000002 0.16934650000000004 2.8166850000000003e-05 0.0026790250000000002 8.7505950000000023 -0.32870999999999989 -6.3596699999999986 3.8630400000000007e-07 -2.1824149999999994e-06 0.0006079900000000002 -0.17527649999999997 -0.54752699999999999 -14.947699999999999 2.6112300000000004 -5.9022249999999992e-06 6.7631250000000007e-05 -6.8388149999999994
decision_type=2 2 2 2 2 2 2 2 2 2 2 2 2 2 2 2 2 2 2 2 2 2 2 2 2 2 2 2 2 2
left_child=-1 2 20 4 -4 7 -7 8 9 -5 -3 12 -12 -13 15 17 -17 24 -19 -18 21 22 -2 -22 25 -14 -27 28 -15 -29
right_child=1 10 3 5 -6 6 -8 -9 -10 -11 11 13 14 27 -16 16 19 18 -20 -21 23 -23 -24 -25 -26 26 -28 29 -30 -31
leaf_value=-1.1694150455416509e-06 -0.00053543814341537653 -0.0025619466169028663 0.010015161162508387 0.0025506584323802205 0.00065073380748548648 -0.00069517277318352304 0.0070464559782703875 -0.00065488238108678666 0.0064494596543833429 -0.00091893846927935865 -0.0020730020018042221 -0.0026948908745301498 0.0012211603217846937 0.00043329307915813004 0.0025068257153699446 0.0038928089881145366 2.8915385953422952e-05 -4.1764249150398597e-05 0.004638615047738881 0.0022655241557549741 -0.00018390794751811461 -2.5122259602448012e-05 0.0058652929245727146 -0.0030858251891913826 2.8180240876979239e-05 -0.00062768967390114156 -0.0037458482957888578 -0.00025599661328985275 -0.0035135174647186193 0.0013443401691495185
leaf_weight=214386 20 23 21 23 29 28 20 144 24 48 30 24 21 26 21 21 124 71 20 20 164 613 20 28 973 65 21 552 23 30
leaf_count=214386 20 23 21 23 29 28 20 144 24 48 30 24 21 26 21 21 124 71 20 20 164 613 20 28 973 65 21 552 23 30
internal_value=0 7.72116e-05 0.000338686 0.00126319 0.00458379 0.000684684 0.00253051 0.000313975 0.00178256 0.000205015 -7.24557e-05 -4.44154e-05 0.000104186 -0.000359088 0.000152319 0.000115309 0.000791788 1.99899e-05 0.000986891 0.000339555 -3.002e-05 0.000139659 0.00266493 -0.000607104 -6.14805e-05 -0.000876806 -0.0013891 -0.000270246 -0.00141929 -0.000173505
internal_weight=0 3247 1182 337 50 287 48 239 95 71 2065 2042 1387 655 1357 1336 165 1171 91 144 845 653 40 192 1080 107 86 631 49 582
internal_count=217633 3247 1182 337 50 287 48 239 95 71 2065 2042 1387 655 1357 1336 165 1171 91 144 845 653 40 192 1080 107 86 631 49 582
shrinkage=0.05


Tree=229
num_leaves=31
num_cat=0
split_feature=28 5 40 40 28 8 18 32 1 6 6 19 14 39 39 43 26 15 21 32 14 3 40 3 34 15 15 40 40 40
split_gain=0.00770178 0.0407006 0.0884494 0.201947 0.255858 0.35867 0.347011 0.240822 0.171651 0.246632 0.138998 0.144104 0.144048 0.118579 0.0809967 0.101198 0.110399 0.0700304 0.0574951 0.045313 0.093202 0.0427634 0.288633 0.0578243 0.0896519 0.0475224 0.0388908 0.0755081 0.158258 0.10634
threshold=0.041210350000000007 1.0838450000000003e-05 -0.22452634999999985 0.22528099999999995 0.07628225000000001 -1.0065749999999999e-05 0.00019448050000000003 -0.44443899999999997 3.8093000000000008 1.0000000180025095e-35 -2.4515249999999996e-07 1.1521400000000002e-06 0.0022785850000000005 0.029330700000000005 0.0035259200000000005 2.4693750000000008 0.00045620850000000006 1.0083500000000001e-05 6.6102700000000008 -10.048129999999999 0.0015288700000000001 -18.627349999999996 0.010257000000000018 -18.305499999999995 2.3658200000000007 3.6456250000000008e-06 2.7414300000000003e-05 -0.40968649999999995 0.22528099999999995 -0.0054100000000001361
decision_type=2 2 2 2 2 2 2 2 2 2 2 2 2 2 2 2 2 2 2 2 2 2 2 2 2 2 2 2 2 2
left_child=-1 2 -2 4 7 -6 8 10 9 -7 11 -4 -12 14 18 16 -16 19 -10 20 -5 22 25 24 -23 -3 -25 -28 29 -29
right_child=1 21 3 17 5 6 -8 -9 13 -11 12 -13 -14 -15 15 -17 -18 -19 -20 -21 -22 23 -24 26 -26 -27 27 28 -30 -31
leaf_value=3.0586120379363197e-06 -1.3721617031201762e-05 -0.0010306280878544154 0.0019702543127264275 -9.4748305504513812e-05 -0.0068936277578138076 -0.0020069758964624878 0.0029201485873879092 -0.0030354073895768334 0.0013443587298388594 -0.0090719335166449169 0.0012793460829176612 -0.0036293941171607006 0.0065462605650758454 0.0011417309748139816 -0.0070559814611139407 -0.00056290971432727854 -0.0022601812301824491 0.0022934919848436645 -0.0021926595251662313 -5.9894302690875151e-05 -0.0041743568737902456 -4.8478272616524589e-05 0.0064074339804938074 3.7395916178206478e-05 -0.0042909185735334181 0.0017896488191763639 -1.0794115265890365e-06 -0.00083866804657684198 -6.2295608140002182e-05 -0.0029505675935226506
leaf_weight=196821 2816 59 27 42 37 30 36 39 20 21 34 20 21 32 24 22 24 30 27 770 21 33 20 14024 20 20 1806 166 478 93
leaf_count=196821 2816 59 27 42 37 30 36 39 20 21 34 20 21 32 24 22 24 30 27 770 21 33 20 14024 20 20 1806 166 478 93
internal_value=0 -2.89256e-05 -0.000170244 -0.000515401 -0.00142322 -0.00231652 -0.00159892 0.000306364 -0.00241236 -0.00491608 0.0015841 -0.000412575 0.00329035 -0.00155538 -0.00229305 -0.00337103 -0.00465808 -7.99012e-05 -0.000687545 -0.000165378 -0.00145462 5.6707e-06 0.00104176 -5.00976e-07 -0.0016494 -0.000316634 4.77406e-06 -0.000175127 -0.000601627 -0.00159699
internal_weight=0 20812 4093 1277 414 273 236 141 200 51 102 47 55 149 117 70 48 863 47 833 63 16719 99 16620 53 79 16567 2543 737 259
internal_count=217633 20812 4093 1277 414 273 236 141 200 51 102 47 55 149 117 70 48 863 47 833 63 16719 99 16620 53 79 16567 2543 737 259
shrinkage=0.05


Tree=230
num_leaves=31
num_cat=0
split_feature=36 1 11 10 11 21 3 13 11 21 20 11 4 43 19 40 10 40 41 19 19 10 22 16 16 40 11 29 22 22
split_gain=0.0075414 0.0703061 0.055728 0.16368 0.0786888 0.103486 0.0528951 0.0296211 0.0267371 0.05047 0.0689517 0.0469109 0.164458 0.0449368 0.0512808 0.0758577 0.0365254 0.0235549 0.15293 0.0744617 0.0810176 0.055417 0.0503395 0.184301 0.0275905 0.0594753 0.0215527 0.0352415 0.0214601 0.0291055
threshold=1.20103 -14.127399999999998 -0.00027218349999999996 2.6635100000000002e-05 -0.00037784299999999994 -5.6560049999999995 -18.627349999999996 -7.5564699999999992e-05 -5.9599849999999995e-05 18.392150000000004 -19.608449999999998 -3.8189799999999991e-05 0.67300500000000019 5.4503350000000017 0.00043921550000000008 -1.9559624999999998 4.1429900000000008e-05 -0.17527649999999997 -0.12554300000000002 0.00093784150000000008 6.1128050000000005e-06 2.8428900000000005e-05 0.57270450000000006 4.3089250000000013e-06 6.5238050000000013e-06 -0.80044776999999989 -0.0006485044999999999 1.0482150000000001 1.5774100000000002 0.57270450000000006
decision_type=2 2 2 2 2 2 2 2 2 2 2 2 2 2 2 2 2 2 2 2 2 2 2 2 2 2 2 2 2 2
left_child=-1 -2 3 -3 26 -6 -4 -8 9 10 -9 12 -10 14 15 -12 -15 22 28 20 -20 -22 23 -13 -24 -26 -5 -28 29 -19
right_child=1 2 6 4 5 -7 7 8 11 -11 13 17 -14 16 -16 -17 -18 18 19 -21 21 -23 24 -25 25 -27 27 -29 -30 -31
leaf_value=1.0000913863848319e-06 0.002171432248210562 0.0048827854010076929 -0.0022353407616573086 9.3090800803639158e-05 -0.00040341241924166256 0.0045036694768073393 -0.0015398672970676625 -0.0029295648685189065 6.0699039912876853e-05 0.0014408740469662009 -0.00036404033314244336 7.3206731160737671e-05 0.0049077576498218279 0.002349892137003322 -0.0003804648849490516 -0.004520491950651853 -0.00031397900940294591 -0.00011497823569321365 -0.0036178756859153514 -0.0044846094967886949 -0.0019972845661686734 0.0015663849965979655 -5.1364517379211812e-07 0.00398334839442719 -0.00033016894659903347 -0.0031893011775206434 -0.00019644548918786942 -0.0029246771472389811 -0.0012183896492206259 0.001057239141255993
leaf_weight=215149 34 21 31 62 22 21 38 33 105 28 23 185 21 22 134 21 31 746 25 26 20 24 502 36 105 22 29 20 40 57
leaf_count=215149 34 21 31 62 22 21 38 33 105 28 23 185 21 22 134 21 31 746 25 26 20 24 502 36 105 22 29 20 40 57
internal_value=0 -8.66218e-05 -0.000117958 0.000741838 0.000177163 0.00199307 -0.000184096 -0.000155759 -0.000131917 -0.000577577 -0.000791655 -6.39269e-05 0.000868542 -0.000486239 -0.000866773 -0.0023478 0.000791779 -0.000129638 -0.000302394 -0.0022042 -0.00134492 -5.34648e-05 6.10042e-05 0.000710153 -0.000167075 -0.000825452 -0.000526296 -0.00131001 -8.80744e-05 -3.17698e-05
internal_weight=0 2484 2450 175 154 43 2275 2244 2206 292 264 1914 126 231 178 44 53 1788 938 95 69 44 850 221 629 127 111 49 843 803
internal_count=217633 2484 2450 175 154 43 2275 2244 2206 292 264 1914 126 231 178 44 53 1788 938 95 69 44 850 221 629 127 111 49 843 803
shrinkage=0.05


Tree=231
num_leaves=31
num_cat=0
split_feature=21 43 1 41 22 11 3 10 19 43 40 12 18 40 11 41 39 40 1 38 40 4 33 19 28 12 40 22 40 40
split_gain=0.00761904 0.0952053 0.183275 0.230956 0.799578 0.304855 0.507117 0.135105 0.109667 0.145108 0.0781304 0.0831258 0.0705509 0.182386 0.140249 0.0998468 0.0739446 0.0599763 0.0529248 0.0648775 0.0800637 0.0367954 0.218121 0.36299 0.0310085 0.0362998 0.0307843 0.0270248 0.0255218 0.0765226
threshold=-13.388899999999998 1.0000000180025095e-35 -3.2275299999999993 0.46135450000000006 -0.75575599999999987 -1.1142449999999998e-06 -8.1170399999999976 1.7819450000000001e-05 8.8529750000000019e-08 1.7247300000000003 -2.5580025499999994 -2.5865649999999999e-05 -6.7236599999999979e-05 0.10022550000000004 9.408120000000002e-06 -0.35786749999999995 0.0010551600000000001 -0.32870999999999989 -6.5414749999999993 0.033251350000000006 0.1751400000000001 1.1247450000000001 -0.00058211249999999993 0.012037000000000001 0.42036700000000005 0.00010338350000000002 0.2761725000000001 -0.20719599999999996 0.354709 -0.19934349999999995
decision_type=2 2 2 2 2 2 2 2 2 2 2 2 2 2 2 2 2 2 2 2 2 2 2 2 2 2 2 2 2 2
left_child=1 18 3 4 5 6 -3 -8 -9 -10 -4 17 15 14 16 -7 -14 -12 19 -1 -21 24 23 -23 27 -26 -15 28 29 -20
right_child=-2 2 10 -5 -6 12 7 8 9 -11 11 -13 13 26 -16 -17 -18 -19 21 20 -22 22 -24 -25 25 -27 -28 -29 -30 -31
leaf_value=-0.00046849276713232786 -1.1957045953823143e-06 0.010317174063917871 0.0029550202396785609 -0.00013098533018087837 0.010338649804121816 0.00052189823114671388 0.0054459721352031927 -0.0013579194385480756 0.0048994314170928335 -0.00068871233192372274 -0.00034671061664994342 -9.4541220935007324e-05 0.0028243414364017855 -0.0021043216752115682 0.0061984744563233114 -0.0041771987231913957 -0.00071536300983279951 -0.0040905330351644967 -8.4780559502790559e-05 -0.0045211564523924613 -0.00034525893664646328 0.0084175932409596595 -6.1044824520514697e-05 -0.00087897599968571403 -0.00042224985727989413 -0.0022931694512122445 -6.1990660528683867e-05 0.001206269210409742 -4.5360210611189449e-06 -0.0020347503287055915
leaf_weight=232 214135 21 20 307 25 26 20 33 26 21 20 829 36 21 20 20 25 23 202 24 22 21 323 21 100 35 152 38 768 67
leaf_count=232 214135 21 20 307 25 26 20 33 26 21 20 829 36 21 20 20 25 23 202 24 22 21 323 21 100 35 152 38 768 67
internal_value=0 7.31967e-05 0.000350047 0.00092446 0.00165097 0.00113507 0.00325364 0.0017703 0.000851386 0.0024026 -0.000134855 -0.000205724 0.000280579 0.000606883 0.00256496 -0.00152119 0.00137364 -0.00234922 -0.000172577 -0.000808611 -0.00252399 -6.03123e-05 0.000379708 0.00376931 -0.000193046 -0.000907303 -0.000309904 -0.000103348 -0.000151338 -0.000570461
internal_weight=0 3498 1645 753 446 421 121 100 80 47 892 872 300 254 81 46 61 43 1853 278 46 1575 365 42 1210 135 173 1075 1037 269
internal_count=217633 3498 1645 753 446 421 121 100 80 47 892 872 300 254 81 46 61 43 1853 278 46 1575 365 42 1210 135 173 1075 1037 269
shrinkage=0.05


Tree=232
num_leaves=31
num_cat=0
split_feature=31 3 9 3 11 3 3 2 3 11 16 19 20 9 3 43 44 43 31 9 33 16 29 32 12 23 44 3 19 40
split_gain=0.00770887 0.0683825 0.0511 0.0483418 0.0984878 0.0486906 0.0770784 0.0270144 0.0312853 0.0787426 0.0252105 0.0530904 0.0138771 0.0979212 0.217428 0.166784 0.0476762 0.0821063 0.0392963 0.036646 0.0245167 0.0359937 0.0216979 0.0133798 0.00907081 0.00896801 0.028483 0.0959946 0.0829749 0.179534
threshold=29.306750000000005 -15.510599999999998 -4.8004049999999993e-06 -14.267049999999999 -8.4578999999999977e-05 -13.243349999999998 -12.74245 2.8579150000000006 -9.8046849999999974 -5.2550399999999997e-05 3.9398900000000012e-06 0.00042279750000000005 -19.608449999999998 -2.9834549999999997e-05 -5.946604999999999 1.9002500000000004 3.7911450000000002 -4.7135349999999994 -13.003849999999998 -2.2309399999999997e-05 -0.00090391799999999997 9.1799900000000009e-08 0.30041650000000003 -22.304899999999996 -8.8131899999999982e-06 -6.9859049999999998 -0.16918499999999967 -6.0871149999999989 3.7480150000000004e-05 -0.14969009999999991
decision_type=2 2 2 2 2 2 2 2 2 2 2 2 2 2 2 2 2 2 2 2 2 2 2 2 2 2 2 2 2 2
left_child=12 2 -2 4 -3 -5 -7 8 9 -8 -10 -12 13 14 15 22 19 18 -18 -15 21 -21 24 -13 -1 -14 27 28 29 -27
right_child=1 3 -4 5 -6 6 7 -9 10 -11 11 23 25 16 -16 -17 17 -19 -20 20 -22 -23 -24 -25 -26 26 -28 -29 -30 -31
leaf_value=-0.00036672348587308082 -0.0037335709245367487 0.0041895286866929383 -0.00058273153756031643 -0.0021836396620658759 -0.00031086370741362657 0.0029257502227361936 0.0028034006167276422 -0.0016438983387317798 -8.652303352124982e-05 -7.7446446437642242e-05 -0.0025824141029528727 0.00076756317290710288 4.7321519544934494e-06 -0.0021243103363949266 0.0047133528551461905 0.0039112959333579061 0.0019682023434143049 0.0032124124705424036 -0.00037236946865336394 -0.00035774042148010006 -6.1680300297691843e-05 -0.0029348887532250957 -0.0011842020547373979 -0.00072181025714503208 0.0010618885324765871 -7.2066383420977189e-05 2.405703296274294e-06 -2.4898773442527273e-05 -8.5548993006180933e-05 -0.0015420959886078226
leaf_weight=25 22 20 31 28 31 21 31 29 378 101 34 25 176344 31 36 26 22 25 97 42 217 20 60 38 20 422 30196 8037 815 409
leaf_count=25 22 20 31 28 31 21 31 29 378 101 34 25 176344 31 36 26 22 25 97 42 217 20 60 38 20 422 30196 8037 815 409
internal_value=0 -0.000156005 -0.00189063 -3.10932e-05 0.001454 -0.000141662 -5.46369e-05 -0.000153046 -8.18191e-05 0.000599116 -0.000271047 -0.000990122 5.67633e-07 0.000236589 0.00127181 0.00032604 -0.000144207 0.000607576 6.03413e-05 -0.000493423 -0.000312213 -0.00118908 -0.000561738 -0.000130789 0.000268215 -1.10228e-07 -2.15231e-05 -9.61441e-05 -0.000444017 -0.000795583
internal_weight=0 789 53 736 51 685 657 636 607 132 475 97 216844 621 167 131 454 144 119 310 279 62 105 63 45 216223 39879 9683 1646 831
internal_count=217633 789 53 736 51 685 657 636 607 132 475 97 216844 621 167 131 454 144 119 310 279 62 105 63 45 216223 39879 9683 1646 831
shrinkage=0.05


Tree=233
num_leaves=31
num_cat=0
split_feature=7 2 24 11 17 28 40 40 20 29 29 11 14 25 12 23 21 40 40 18 24 16 15 35 36 40 23 1 21 40
split_gain=0.00763215 0.0354114 0.0275444 0.0315616 0.0342054 0.0190022 0.0769349 0.202802 0.0373067 0.0256091 0.0399596 0.0318207 0.0432279 0.0722462 0.020286 0.017775 0.0786952 0.0303954 0.24496 0.246225 0.134459 0.072703 0.135495 0.113904 0.0284361 0.0184621 0.0176023 0.0852409 0.0166783 0.0166376
threshold=2.2278700000000004e-05 3.0794900000000003 0.73617500000000013 -5.7102799999999991e-05 5.9936600000000005e-06 -0.060167999999999992 0.2761725000000001 -0.10081500000000009 -0.53881199999999996 0.015602350000000003 0.016084300000000003 -2.2589749999999998e-05 0.0012328350000000003 1.3625700000000001 0.00063520950000000014 -8.326019999999998 -9.3875849999999996 0.077348000000000056 -0.10081500000000009 -3.2607899999999997e-05 0.21342250000000004 -1.3890949999999998e-07 -3.0013349999999998e-08 0.00025098100000000006 -0.00069029949999999997 0.14973499999999998 -8.1725499999999975 -7.8777949999999999 14.003250000000001 -0.27744100000000016
decision_type=2 2 2 2 2 2 2 2 2 2 2 2 2 2 2 2 2 2 2 2 2 2 2 2 2 2 2 2 2 2
left_child=1 2 5 -4 29 6 7 8 -1 14 -11 12 13 -12 15 16 -7 18 -18 -20 21 23 -23 -21 -24 -19 27 -17 -28 -5
right_child=-2 -3 3 4 -6 9 -8 -9 -10 10 11 -13 -14 -15 -16 26 17 25 19 20 -22 22 24 -25 -26 -27 28 -29 -30 -31
leaf_value=0.0020329750442760995 -1.5847987420727258e-06 0.0021557523070077876 -0.0023060459718787269 2.4511817304301077e-05 0.0016954455614177279 0.0024854991049829151 -8.5053845932595566e-05 0.0048725372271292144 -0.00046057360760490458 -0.0021950153352736381 -0.0042483847349666622 1.4737045191082785e-05 -0.00022221416996994018 -0.0002702747775874741 0.0015720174215304091 -0.0036014269307042923 -7.7396559883964883e-06 -0.0013669322775408197 0.0062878075763224996 0.00057880800670258878 0.0038477127965985021 -0.0037015172169709504 0.001763164898297057 0.0051633475576454667 0.00010603624275075152 -2.0657157811354102e-05 1.8811949651610814e-05 3.9166499448960743e-05 -0.0013082931279996047 -0.00083332947507257747
leaf_weight=20 211572 20 21 100 20 36 234 32 60 25 21 542 96 25 23 20 1255 26 26 42 39 21 39 20 77 1239 1746 82 24 130
leaf_count=20 211572 20 21 100 20 36 234 32 60 25 21 542 96 25 23 20 1255 26 26 42 39 21 39 20 77 1239 1746 82 24 130
internal_value=0 5.53207e-05 4.83668e-05 -0.000444279 -0.000287891 7.1505e-05 0.000430762 0.00150845 0.000162814 4.85878e-05 -0.000231585 -0.000159822 -0.000826095 -0.00208637 9.07176e-05 8.34563e-05 0.000162747 0.000132712 0.000283478 0.00166787 0.00116317 0.000637051 -5.86598e-06 0.00205769 0.000663174 -4.83276e-05 -3.59884e-05 -0.000674675 8.17305e-07 -0.000460355
internal_weight=0 6061 6041 271 250 5770 346 112 80 5424 709 684 142 46 4715 4692 2820 2784 1519 264 238 199 137 62 116 1265 1872 102 1770 230
internal_count=217633 6061 6041 271 250 5770 346 112 80 5424 709 684 142 46 4715 4692 2820 2784 1519 264 238 199 137 62 116 1265 1872 102 1770 230
shrinkage=0.05


Tree=234
num_leaves=31
num_cat=0
split_feature=21 43 12 43 29 40 2 15 4 23 19 40 43 35 32 1 11 23 37 30 16 18 33 40 6 26 23 3 26 12
split_gain=0.00738756 0.043817 0.142852 0.204299 0.418004 0.0728546 0.256621 0.12616 0.262004 0.0508131 0.0503435 0.0490086 0.047206 0.0374358 0.0334339 0.0732533 0.205979 0.167041 0.0591802 0.0429468 0.0295338 0.0791833 0.121119 0.076646 0.0260188 0.0930727 0.0783515 0.025375 0.102175 0.0224007
threshold=13.390900000000002 0.47541999999999979 4.8722750000000004e-05 0.93421999999999994 -0.0016011999999999999 0.24966499999999994 2.0367550000000008 7.9739600000000016e-08 2.2539600000000006 -13.08405 4.0088250000000005e-06 -0.32870999999999989 1.510785 -0.0089637499999999978 -0.44443899999999997 6.2690350000000006 2.4577100000000002e-05 -7.1435249999999995 5.9581800000000005e-07 0.16934650000000004 6.9009750000000011e-07 -2.1824149999999994e-06 0.00012485500000000002 -0.17527649999999997 -1.1060999999999997e-06 0.0085896400000000008 -8.7640249999999984 -7.7574999999999994 -7.5441249999999975e-05 0.00038446800000000006
decision_type=2 2 2 2 2 2 2 2 2 2 2 2 2 2 2 2 2 2 2 2 2 2 2 2 2 2 2 2 2 2
left_child=-1 9 20 4 -4 6 7 10 -9 -2 13 -12 -7 -5 15 29 17 -17 -19 24 21 22 -3 -22 25 27 -26 -16 -29 -11
right_child=1 2 3 5 -6 12 -8 8 -10 14 11 -13 -14 -15 19 16 -18 18 -20 -21 23 -23 -24 -25 26 -27 -28 28 -30 -31
leaf_value=-1.1337079686844193e-06 -0.0024021586509542945 -0.00019675031362567099 0.0095159316341215314 0.0022328813742933562 0.00043744171353807818 0.0020597857247776122 0.0062743946808673763 0.0069261176403961153 -0.00098107014716581698 1.2570111034826921e-07 -0.00019461473841132554 -0.0035788572190904237 -0.00057044751849295199 -0.00072491840553044794 -0.00012879899351003277 -0.0032348462883823636 -0.0059096949920612613 0.0032623192435494277 2.5064044977322437e-05 0.0023778760642190243 -0.00020897826263211605 -3.6106963260264402e-05 0.004700120127223352 -0.003374764394142072 -0.0029551491701884361 0.0028806596325843467 1.0371178289151044e-05 0.0036889151657419463 9.6733787067409846e-05 -0.00096462535381733414
leaf_weight=214386 23 28 21 20 32 20 23 20 22 681 23 20 116 23 237 36 21 20 48 21 146 635 23 22 23 35 705 24 113 66
leaf_count=214386 23 28 21 20 32 20 23 20 22 681 23 20 116 23 237 36 21 20 48 21 146 635 23 22 23 35 705 24 113 66
internal_value=0 7.48541e-05 0.000315702 0.00118246 0.00403458 0.000655766 0.0014118 0.000538047 0.00278426 -6.522e-05 -0.000558939 -0.00176868 -0.000183649 0.000650802 -3.87424e-05 -0.000272578 -0.00139287 -0.000480817 0.000977198 0.000137341 -2.93792e-05 0.000116131 0.00201164 -0.000623545 9.59594e-05 0.000415068 -8.33197e-05 0.00018433 0.000726021 -8.51133e-05
internal_weight=0 3247 1194 340 53 287 151 128 42 2053 86 43 136 43 2030 872 125 104 68 1158 854 686 51 168 1137 409 728 374 137 747
internal_count=217633 3247 1194 340 53 287 151 128 42 2053 86 43 136 43 2030 872 125 104 68 1158 854 686 51 168 1137 409 728 374 137 747
shrinkage=0.05


Tree=235
num_leaves=31
num_cat=0
split_feature=27 18 4 12 40 9 2 2 16 4 32 10 15 19 15 40 40 11 12 16 18 18 8 16 20 0 1 17 41 0
split_gain=0.00759154 0.0345399 0.106995 0.039217 0.0544348 0.0747678 0.0775604 0.0300304 0.0300055 0.0837946 0.0625986 0.0541095 0.0333592 0.0483581 0.0749492 0.0413606 0.106925 0.0297582 0.028034 0.0456123 0.025803 0.0228109 0.0166856 0.0142819 0.014172 0.0666287 0.177484 0.0795178 0.0963054 0.0475937
threshold=91.481750000000019 0.0042538100000000011 2.7715550000000007 0.00010629050000000001 0.77415 -1.0145249999999997e-05 0.90496100000000013 1.4398750000000002 -1.0891499999999998e-06 1.1247450000000001 20.036400000000004 3.7102900000000007e-05 9.3811500000000008e-05 0.0010528750000000002 -4.4303949999999996e-06 -0.17527649999999997 0.51872500000000021 -0.00057958749999999996 -0.00020892849999999997 6.5238050000000013e-06 -3.6458549999999993e-05 1.5027300000000003e-05 -3.5837799999999998e-05 1.1210250000000002e-06 -12.926599999999999 -11.535399999999997 -5.4339099999999991 3.7214100000000002e-07 -0.25176499999999996 -11.331049999999999
decision_type=2 2 2 2 2 2 2 2 2 2 2 2 2 2 2 2 2 2 2 2 2 2 2 2 2 2 2 2 2 2
left_child=24 3 -3 8 5 -5 -7 -8 10 12 20 -12 13 14 -10 -15 -17 -4 -16 21 -2 23 -6 -20 25 26 -1 -28 -29 -27
right_child=1 2 17 4 22 6 7 -9 9 -11 11 -13 -14 15 18 16 -18 -19 19 -21 -22 -23 -24 -25 -26 29 27 28 -30 -31
leaf_value=0.0045667879128207765 0.0014087480465051435 0.0032826613696912929 0.0015781362370193086 -0.0039315173151687937 0.0010579383172309184 -0.0029332349701094089 -0.00068106487833574647 0.0017522823172233378 0.0030978308540852597 0.0025679606795165457 -0.004211524769589233 -0.00069014726977911778 0.0016076875781679215 -0.00021274465453712099 -0.0014515708874569102 -0.0046880546274637299 -0.00038512601514369073 -0.00041464399181866536 -8.3448307370276473e-06 0.0020034208431125395 -0.00043420783172682233 0.0016014731447545013 -0.00036198460306422929 -0.00091247336269124717 -7.0779293698613664e-07 -0.0023780024881125427 -0.0010380327417684992 -0.00056137390552480205 0.0031086792918638543 6.984315464425739e-05
leaf_weight=30 23 30 23 26 24 29 32 21 20 32 20 24 30 93 32 22 42 101 618 29 109 21 150 47 213069 20 60 33 39 2784
leaf_count=30 23 30 23 26 24 29 32 21 20 32 20 24 30 93 32 22 42 101 618 29 109 21 150 47 213069 20 60 33 39 2784
internal_value=0 -0.000108579 0.000603233 -0.000184493 -0.000713428 -0.00159518 -0.00085439 0.000283092 -5.6128e-05 5.12178e-05 -0.000657508 -0.00229077 -3.32012e-05 -8.64769e-05 7.71749e-05 -0.000885973 -0.00186426 -4.50154e-05 -3.69944e-06 6.11004e-05 -0.000113087 -2.10094e-05 -0.000166133 -7.22456e-05 8.03154e-07 0.000109345 0.00109528 0.000306297 0.00142657 5.23835e-05
internal_weight=0 1598 154 1444 282 108 82 53 1162 986 176 44 954 924 767 157 64 124 747 715 132 686 174 665 216035 2966 162 132 72 2804
internal_count=217633 1598 154 1444 282 108 82 53 1162 986 176 44 954 924 767 157 64 124 747 715 132 686 174 665 216035 2966 162 132 72 2804
shrinkage=0.05


Tree=236
num_leaves=31
num_cat=0
split_feature=33 4 4 38 43 40 40 43 40 16 43 6 43 4 20 16 40 16 19 23 38 21 9 34 21 12 40 21 1 23
split_gain=0.00746161 0.0490046 0.120234 0.303034 0.292282 0.378295 0.838034 0.466996 0.48817 0.503295 0.44991 0.428759 0.402587 0.394019 0.346003 0.364618 0.233712 0.219518 0.236088 0.272303 0.218707 0.218385 0.493475 0.254959 0.189528 0.415328 0.172943 0.155563 0.113535 0.0839611
threshold=1.8894300000000003e-05 -0.20278049999999997 -1.5265699999999998 0.0061275400000000008 2.4196300000000006 0.74319900000000005 -0.3819765 -4.0456399999999988 -0.10081500000000009 3.0231500000000004e-06 0.80790999999999979 -1.0441299999999996e-06 -1.5836399999999993 -0.38361349999999994 -6.358299999999999 -2.9575949999999995e-06 -5.4467549999999987 1.7917850000000003e-05 0.0039594400000000007 -8.9164399999999979 0.18048750000000005 -0.76764599999999994 5.5253300000000007e-06 0.98241950000000011 -19.754149999999996 -4.9376749999999994e-05 0.056773999999999998 14.999250000000002 -8.1678649999999973 -10.262699999999999
decision_type=2 2 2 2 2 2 2 2 2 2 2 2 2 2 2 2 2 2 2 2 2 2 2 2 2 2 2 2 2 2
left_child=-1 2 -2 -4 5 6 16 -8 13 10 11 -10 -11 20 -12 -16 -5 18 19 -14 -9 22 -13 26 25 -6 -23 -26 -21 -3
right_child=1 29 3 4 24 -7 7 8 9 12 14 21 17 -15 15 -17 -18 -19 -20 28 -22 23 -24 -25 27 -27 -28 -29 -30 -31
leaf_value=4.0696767969268847e-06 -9.104712943396864e-05 -7.8057377460735843e-06 -0.00014392809415028854 0.005175301406283821 0.008466560047818348 -0.00016933641412553326 -0.0019829589961525263 0.011471476085070107 0.0093028037142093203 0.0071475379820913083 0.012150335874408485 0.010005291330668589 0.0051867457667997647 0.001049022041704683 0.00014350378716533835 0.0088149988441728055 -9.3281746357817119e-05 -0.0044866322298292762 -0.0036587673297617585 0.0018621716146858839 0.005309505149489269 0.00052021417948708412 0.00012102203077769705 -0.0036012531654840267 -0.00025785267456775423 -0.0016012000509016662 0.005469982168637217 0.0039953334114298661 -0.0027670155594090896 -0.00022365044571213451
leaf_weight=182390 5516 18845 2472 22 20 428 44 36 22 20 25 23 35 21 22 27 487 27 26 26 24 60 28 27 944 21 25 22 27 5921
leaf_count=182390 5516 18845 2472 22 20 428 44 36 22 20 25 23 35 21 22 27 487 27 26 26 24 60 28 27 944 21 25 22 27 5921
internal_value=0 -2.10614e-05 6.95872e-05 0.000248192 0.000637634 0.00108427 0.00159332 0.00295583 0.00338958 0.00270416 0.00406881 0.00275081 0.000508863 0.00694359 0.00736379 0.00492167 0.000134437 -0.000432793 0.000527326 0.00176413 0.00900669 0.0018665 0.00457863 0.000631505 -1.96719e-05 0.0033099 0.00197603 -0.000160989 -0.000496094 -5.94094e-05
internal_weight=0 35243 10477 4961 2489 1482 1054 545 501 420 259 185 161 81 74 49 509 141 114 88 60 163 51 112 1007 41 85 966 53 24766
internal_count=217633 35243 10477 4961 2489 1482 1054 545 501 420 259 185 161 81 74 49 509 141 114 88 60 163 51 112 1007 41 85 966 53 24766
shrinkage=0.05


Tree=237
num_leaves=31
num_cat=0
split_feature=41 41 3 21 28 20 0 1 38 18 4 11 1 43 0 3 21 16 28 18 21 33 24 21 6 20 1 21 43 30
split_gain=0.00778802 0.0970278 0.127492 0.241429 0.101964 0.208421 0.836479 0.203478 0.104119 0.508607 0.495451 0.363505 0.245798 0.654959 0.240797 0.18251 0.156801 0.155755 0.146623 0.207863 0.475947 0.138628 0.133866 0.136794 0.124462 0.122225 0.335288 0.304545 0.242234 0.123836
threshold=-0.33012499999999995 -0.026150000000000003 -19.074649999999995 -3.3402249999999998 -0.96676949999999995 19.256550000000001 8.9117650000000008 -4.0741649999999989 -0.11222949999999998 1.5027300000000003e-05 2.3910900000000006 4.247685000000001e-05 -1.7695349999999996 2.4693750000000008 -4.1883099999999986 -9.8562249999999967 2.6109550000000001 -2.9678699999999998e-05 -0.18761549999999996 -0.00036585349999999998 -2.9957599999999993 -9.3333449999999986e-05 0.91519300000000003 -15.424049999999998 -2.1612149999999997e-07 -10.431899999999997 4.6513400000000003 -6.9314949999999991 1.6830350000000001 0.017781650000000003
decision_type=2 2 2 2 2 2 2 2 2 2 2 2 2 2 2 2 2 2 2 2 2 2 2 2 2 2 2 2 2 2
left_child=-1 2 3 -2 7 8 -7 -4 9 12 11 14 13 -6 -11 17 -16 -14 19 20 -10 -21 23 -20 -12 26 27 -25 -28 -27
right_child=1 -3 4 -5 5 6 -8 -9 18 10 24 -13 15 -15 16 -17 -18 -19 22 21 -22 -23 -24 25 -26 29 28 -29 -30 -31
leaf_value=1.0868318456218117e-05 -0.00092492050456238089 5.7249433837547355e-06 -0.00053334415693825584 0.006586465664440766 0.0093710973532870421 -0.0035558164590925334 0.010731964537408205 -0.0058696177717217288 -0.0025383985187890459 0.0068325136532826763 0.0019323313158288924 0.011013145505317621 -0.00072996292195360484 -0.00055754767841901815 -0.0021690211654640736 -0.00066600196825509724 0.0040919913677498702 -0.0061483271808053059 0.0035431267298408789 0.0012009986607673844 0.0074877300392836334 -0.0025837795253700578 -0.0039697415251082379 0.0054172630616589092 -0.0029564581004281839 -0.00017700335679107302 0.0077292154586218577 -0.00017478687274786404 0.00046916720457375051 -0.0017671653875866819
leaf_weight=93794 23 112638 80 20 20 21 20 23 29 31 23 21 21 98 20 110 20 36 25 28 20 178 23 26 30 9701 27 383 20 124
leaf_count=93794 23 112638 80 20 20 21 20 23 29 31 23 21 21 98 20 110 20 36 25 28 20 178 23 26 30 9701 27 383 20 124
internal_value=0 -8.23152e-06 -0.000148579 0.00256875 -0.00015905 -0.000144461 0.00341383 -0.00172494 -0.000157707 0.000604991 0.00301582 0.00523417 -0.000621568 0.00112527 0.00352489 -0.00185586 0.000961485 -0.00415209 -0.000188693 -0.00137311 0.0015539 -0.00206934 -0.000159453 -0.000150949 -0.000834908 -0.000159932 0.000640302 0.000180698 0.00463983 -0.000197073
internal_weight=0 123839 11201 43 11158 11055 41 103 11014 430 145 92 285 118 71 167 40 57 10584 255 49 206 10329 10306 53 10281 456 409 47 9825
internal_count=217633 123839 11201 43 11158 11055 41 103 11014 430 145 92 285 118 71 167 40 57 10584 255 49 206 10329 10306 53 10281 456 409 47 9825
shrinkage=0.05


Tree=238
num_leaves=31
num_cat=0
split_feature=31 3 0 2 41 0 2 7 11 2 20 0 14 2 9 41 44 43 31 33 16 41 36 16 3 41 41 1 4 10
split_gain=0.00749717 0.0611517 0.050051 0.174358 0.0467592 0.0455466 0.0419966 0.213281 0.0180605 0.0121162 0.011739 0.16757 0.258512 0.0365101 0.064646 0.130175 0.0336423 0.0760813 0.0366676 0.0194862 0.0343441 0.0173482 0.0120069 0.14246 0.215029 0.313635 1.17549 0.509124 0.3646 0.0394752
threshold=29.306750000000005 -15.867949999999999 -6.9102499999999987 2.6198050000000004 0.54185499999999998 -8.3447299999999967 -2.1751149999999995 3.784270000000001e-05 -0.00013975599999999997 2.0367550000000008 -19.608449999999998 -10.077899999999998 8.3817800000000016e-05 -2.2229199999999998 -3.2648249999999994e-05 -0.89665319999999982 3.7911450000000002 -4.7135349999999994 -13.003849999999998 -0.00090391799999999997 1.0944000000000002e-07 0.37828249999999997 -0.43959349999999991 -1.3281999999999998e-05 -10.386699999999999 0.48750300000000008 -0.60497499999999982 -4.3929149999999995 -1.7643199999999999 9.5296300000000015e-06
decision_type=2 2 2 2 2 2 2 2 2 2 2 2 2 2 2 2 2 2 2 2 2 2 2 2 2 2 2 2 2 2
left_child=10 4 5 6 -2 -3 7 -4 -8 -10 11 12 -1 21 15 -15 19 18 -18 20 -16 -13 23 24 25 26 -12 -28 -29 -25
right_child=1 2 3 -5 -6 -7 8 -9 9 -11 22 13 -14 14 16 -17 17 -19 -20 -21 -22 -23 -24 29 -26 -27 27 28 -30 -31
leaf_value=-0.00017500586618552917 -0.0036479750415310264 -0.00036894531245916225 0.0053205898514715952 0.0046481311276909852 -0.00052683850351188872 -0.0023891512824775422 -0.001379600960946711 -0.0016067570474697279 -0.00010659893122531936 0.0010690941997302656 -0.00012175701814215238 -0.0023317364944523433 0.006610822734772228 -0.0003245281875171068 -0.00038576016112023756 0.0047044427665902978 0.001872301824517887 0.0031826879583683842 -0.00039529115318610495 -0.00017245640048443043 -0.0028759456369152761 -0.00061211797472258869 -1.4923480482059998e-06 -0.0017887818644698147 -0.00015059199131719188 -0.00051495019236816526 0.0016173370997421444 0.0054147114061792803 0.013776304142083973 -4.7980090805485728e-05
leaf_weight=32 21 124 20 21 28 36 27 25 464 23 127 20 25 31 45 22 22 23 94 232 20 55 213090 33 313 105 24 22 32 2477
leaf_count=32 21 124 20 21 28 36 27 25 464 23 127 20 25 31 45 22 22 23 94 232 20 55 213090 33 313 105 24 22 32 2477
internal_value=0 -0.000153848 -4.0577e-05 0.000175399 -0.00186447 -0.000823492 7.37193e-06 0.00147206 -0.00012086 -5.10734e-05 5.59785e-07 0.000217639 0.00280123 -4.34694e-05 0.000114079 0.00176297 -8.63599e-05 0.000555648 3.47696e-05 -0.000386828 -0.00115197 -0.00107068 -6.36734e-08 9.71072e-05 0.000773858 0.00170725 0.00284546 0.00767669 0.0103697 -7.08671e-05
internal_weight=0 789 740 580 49 160 559 45 514 487 216844 621 57 564 489 53 436 139 116 297 65 75 216223 3133 623 310 205 78 54 2510
internal_count=217633 789 740 580 49 160 559 45 514 487 216844 621 57 564 489 53 436 139 116 297 65 75 216223 3133 623 310 205 78 54 2510
shrinkage=0.05


Tree=239
num_leaves=31
num_cat=0
split_feature=28 42 41 41 21 15 3 21 35 28 3 23 16 23 3 23 1 8 41 8 21 13 16 4 17 31 13 7 24 16
split_gain=0.00762543 0.0392581 0.295148 0.25118 0.254296 0.227844 0.228873 0.45541 0.225884 0.240282 0.222497 0.19069 0.18516 0.395603 0.358029 0.343199 0.183906 0.177215 0.169008 0.168243 0.331624 0.245212 0.169121 0.193013 0.247295 0.200753 0.172064 0.168024 0.15661 0.153057
threshold=0.041210350000000007 -0.19934349999999995 -0.12554300000000002 -0.057539999999999918 0.5292785000000001 -2.1368049999999996e-05 -10.2113 -2.0281699999999994 0.098593250000000007 0.27127250000000008 -10.603549999999998 -16.164099999999994 2.4065350000000007e-07 -6.889454999999999 -6.4469949999999994 -6.2653549999999987 8.6177750000000017 -7.7981199999999988e-06 0.040430000000000084 -8.1940399999999975e-06 4.2128100000000011 3.7051150000000005e-05 2.3811300000000004e-05 0.17191050000000002 1.9864300000000001e-06 0.93980800000000009 -3.5092449999999993e-05 3.0316350000000003e-05 0.77580800000000016 -1.0891499999999998e-06
decision_type=2 2 2 2 2 2 2 2 2 2 2 2 2 2 2 2 2 2 2 2 2 2 2 2 2 2 2 2 2 2
left_child=-1 -2 -3 4 28 11 7 -7 17 -10 19 -5 13 29 18 -14 -17 -6 -15 22 21 -21 23 25 -25 -9 -27 -22 -4 -8
right_child=1 2 3 5 8 6 12 10 9 -11 -12 -13 15 14 -16 16 -18 -19 -20 20 27 -23 -24 24 -26 26 -28 -29 -30 -31
leaf_value=3.0434141092829134e-06 1.6407958000310418e-05 7.0976150138508782e-05 0.0047874564729863782 -0.0067835465748794371 -0.0013539761611645726 0.0081463245226768774 0.00050547270985546106 -0.0001089126129488413 -0.0023077537447376098 -0.0097052227569899216 0.0040941794012748708 -0.0015418551771762472 -0.00040487339418968592 0.001326548296492547 -0.009663378017527674 0.0008738683637056965 0.007365789845547018 -0.0053700269151704567 -0.0046914336072014914 0.00061297880019992599 0.001209433572674041 0.0079175128376206255 -0.0049913919566842244 -0.00055361105866419782 0.0059196184240281587 -0.0073438654565030625 -0.0011465090394873793 -0.0044182750241210066 -0.0010976804617362527 -0.0014279434788206609
leaf_weight=196821 14523 4641 20 20 194 20 168 117 23 21 37 131 230 20 24 20 24 32 28 20 36 27 21 36 25 21 24 21 26 262
leaf_count=196821 14523 4641 20 20 194 20 168 117 23 21 37 131 230 20 24 20 24 32 28 20 36 27 21 36 25 21 24 21 26 262
internal_value=0 -2.87818e-05 -0.000133137 -0.00070795 -0.00197529 -0.00040729 -0.00017346 0.000790026 -0.00256074 -0.00583836 0.00040788 -0.00223612 -0.00067631 -0.00124692 -0.00467709 0.000369107 0.00441492 -0.00192262 -0.00218394 1.59463e-05 0.00169989 0.0048092 -0.000701799 -0.000297846 0.00209935 -0.00120049 -0.00403861 -0.000863933 0.00146107 -0.000672562
internal_weight=0 20812 6289 1648 316 1332 1181 405 270 44 385 151 776 502 72 274 44 226 48 348 104 47 244 223 61 162 45 57 46 430
internal_count=217633 20812 6289 1648 316 1332 1181 405 270 44 385 151 776 502 72 274 44 226 48 348 104 47 244 223 61 162 45 57 46 430
shrinkage=0.05


Tree=240
num_leaves=31
num_cat=0
split_feature=40 21 1 31 3 3 36 3 9 0 11 11 0 20 0 14 13 16 7 2 9 11 31 37 16 36 16 3 40 41
split_gain=0.00723828 0.335788 0.0171931 0.00941532 0.0479022 0.0418442 0.103478 0.0426067 0.0404882 0.0395525 0.0783799 0.18963 0.0408474 0.0125157 0.171244 0.275376 0.0361531 0.11162 0.0282011 0.0253571 0.0217003 0.0185684 0.0280641 0.0199265 0.0435893 0.0112896 0.127351 0.192935 0.282088 1.05701
threshold=5.6762150000000009 4.4724750000000002 0.42337950000000008 29.306750000000005 -15.867949999999999 -14.267049999999999 1.8680450000000002 -13.243349999999998 -4.8004049999999993e-06 -6.9102499999999987 -5.2550399999999997e-05 -0.00016577949999999997 -8.3447299999999967 -19.608449999999998 -10.077899999999998 8.3817800000000016e-05 1.6852200000000004e-05 3.6544900000000005e-06 2.5944250000000002e-05 2.6388200000000004 -2.4137799999999998e-05 8.9984850000000016e-05 -6.1956549999999995 0.000104555 3.9398900000000012e-06 -0.43959349999999991 -1.3281999999999998e-05 -10.386699999999999 -0.49100999999999978 -0.60497499999999982
decision_type=2 2 2 2 2 2 2 2 2 2 2 2 2 2 2 2 2 2 2 2 2 2 2 2 2 2 2 2 2 2
left_child=3 2 -2 13 8 6 -6 -7 -5 12 11 -11 -9 14 15 -1 17 18 -16 20 -20 23 -23 -18 -25 26 27 28 -15 -30
right_child=1 -3 -4 4 5 7 -8 9 -10 10 -12 -13 -14 25 16 -17 21 -19 19 -21 -22 22 -24 24 -26 -27 -28 -29 29 -31
leaf_value=-0.00016105635271918391 0.0012590813938564121 0.0065477276965975762 -4.6830170263197432e-05 -0.0034223519358783962 -0.0010586518396157772 -0.0020890494532068262 0.0033670489263645971 -0.00034785169495646053 -0.00047683844064262562 -0.00068400032378121986 -0.00010573484711391772 0.0051278775569517168 -0.0022700296210435528 -0.00048987034831606295 0.0012537998556532281 0.0070597437681103855 -0.00012799533870213391 0.002969918423271641 -0.0015760412456823842 0.0013979932836567363 -0.00017526765824014376 0.0018621444172458722 -0.00036043555157299793 -0.00047129099858652643 -0.0025752051025795353 -1.9841996532363716e-06 -6.5274254481292618e-05 -0.00014220386892877009 -0.00011665043369527746 0.007278334720663574
leaf_weight=31 26 20 823 20 25 28 28 119 28 32 439 25 36 105 37 23 97 36 34 21 148 20 49 83 35 212239 2508 313 127 78
leaf_count=31 26 20 823 20 25 28 28 119 28 32 439 25 36 105 37 23 97 36 34 21 148 20 49 83 35 212239 2508 313 127 78
internal_value=0 0.000144015 -6.83759e-06 -5.77354e-07 -0.000173981 -7.36426e-05 0.00127945 -0.00017926 -0.00170414 -9.71184e-05 0.000120749 0.00186507 -0.000794293 4.88715e-08 0.00022547 0.00291447 -3.38265e-05 0.000373697 -1.57357e-05 -0.000247129 -0.000436951 -0.000429871 0.000283791 -0.000658906 -0.00109533 -5.93783e-07 9.36574e-05 0.000733466 0.00161761 0.00269705
internal_weight=0 869 849 216764 780 732 53 679 48 651 496 57 155 215984 614 54 560 276 240 203 182 284 69 215 118 215370 3131 623 310 205
internal_count=217633 869 849 216764 780 732 53 679 48 651 496 57 155 215984 614 54 560 276 240 203 182 284 69 215 118 215370 3131 623 310 205
shrinkage=0.05


Tree=241
num_leaves=31
num_cat=0
split_feature=25 2 36 11 11 31 14 22 21 14 14 34 20 19 41 40 44 43 19 34 20 0 13 15 6 20 20 37 44 23
split_gain=0.00741744 0.0479745 0.143883 0.0389897 0.0950724 0.177335 0.208581 0.232718 0.159672 0.0910566 0.109108 0.100178 0.0501808 0.0472948 0.0436186 0.499696 0.310082 0.625508 0.362606 0.417886 0.343864 0.803507 0.370187 0.298394 0.282033 0.306656 0.320611 0.263041 0.224752 0.151543
threshold=9.4910900000000016 3.0794900000000003 0.0015972550000000001 9.9230750000000009e-05 0.00015392900000000002 -2.2534849999999995 0.0013551600000000002 0.96059250000000007 -11.494499999999999 0.0075758350000000004 0.011966550000000001 1.8663100000000001 12.319050000000002 6.1128050000000005e-06 -0.17681499999999981 -0.10081500000000009 -1.1537099999999991 -0.23716000000000023 7.1928800000000011e-08 3.5771350000000006 -2.9298699999999998 -5.6117099999999995 3.8018750000000006e-05 -2.5159149999999997e-06 5.0712000000000011e-07 7.1058900000000014 -7.3314749999999984 5.3317650000000004e-06 -1.4363049999999993 -6.4142099999999997
decision_type=2 2 2 2 2 2 2 2 2 2 2 2 2 2 2 2 2 2 2 2 2 2 2 2 2 2 2 2 2 2
left_child=-1 3 -3 14 5 6 -5 8 -8 11 -11 -10 -13 -6 -2 -16 28 20 -19 24 -18 -22 23 -23 -20 26 -26 -24 -17 -25
right_child=1 2 -4 4 13 -7 7 -9 9 10 -12 12 -14 -15 15 16 17 18 19 -21 21 22 27 29 25 -27 -28 -29 -30 -31
leaf_value=2.720826211629817e-06 2.6785859556982464e-05 0.0045284190980964924 -0.00015668090681286056 0.0054873874609256751 0.0020537216886118079 -2.2431064361794956e-05 0.003861850014586268 0.0058012695958799066 0.0013085973112899002 0.0044148692219459921 4.5216868740226345e-05 -0.0012593398474741774 -0.0043142375058960172 -5.3233816702261758e-05 -4.1922399378157942e-06 -0.00052418278212335956 -0.0026155279517275976 -0.010197770720432429 -0.00043673732399334569 -0.0093149252244844466 0.009971218152038221 0.0035488049453124408 0.00012361673337485019 -0.0042866452555143852 -0.001953232099302113 0.00066344648976588534 -0.0092829010502837993 0.0074198117274569264 0.0040415657981266754 0.00045494062466208235
leaf_weight=200236 6616 23 57 32 27 356 31 24 29 20 50 41 20 1967 7166 382 127 22 83 26 21 20 30 72 25 21 37 21 29 22
leaf_count=200236 6616 23 57 32 27 356 31 24 29 20 50 41 20 1967 7166 382 127 22 83 26 21 20 30 72 25 21 37 21 29 22
internal_value=0 -3.13162e-05 0.00119029 -3.69596e-05 0.000141659 0.000691789 0.00172119 0.00116064 0.000577525 -5.88133e-05 0.00129369 -0.00111076 -0.00226095 -2.47043e-05 -6.84727e-05 -0.000146241 -0.00123144 -0.00203427 -0.00411754 -0.00342085 -0.000609922 0.000759497 -0.000412904 -0.00199696 -0.00249768 -0.00455862 -0.00632739 0.00312793 -0.000202025 -0.00317691
internal_weight=0 17397 80 17317 2597 603 247 215 191 160 70 90 61 1994 14720 8104 938 527 214 192 313 186 165 114 166 83 62 51 411 94
internal_count=217633 17397 80 17317 2597 603 247 215 191 160 70 90 61 1994 14720 8104 938 527 214 192 313 186 165 114 166 83 62 51 411 94
shrinkage=0.05


Tree=242
num_leaves=31
num_cat=0
split_feature=35 15 15 41 40 43 15 4 40 29 21 41 24 38 8 13 37 41 34 33 0 30 43 32 40 40 38 21 30 18
split_gain=0.00722395 0.178938 0.140449 0.123054 0.806345 0.573655 0.569737 0.658182 0.572955 0.55823 0.703564 0.646633 0.430564 0.41339 0.373587 0.336676 0.306676 0.42279 0.447473 0.337755 0.296495 0.308554 0.282826 0.259625 0.426578 0.325273 0.263832 0.424641 0.365465 0.236085
threshold=0.00022570750000000002 -1.7138249999999995e-08 -4.4025599999999992e-08 0.17390849999999994 0.14973499999999998 2.5222350000000002 7.2144500000000009e-06 0.16470650000000003 -0.040859549999999939 -0.013369149999999998 1.0000000180025095e-35 0.078754999999999922 0.62895050000000008 -0.025457549999999999 -8.9883999999999985e-06 4.1067850000000004e-05 6.3099400000000006e-06 -0.057539999999999918 0.041331900000000012 -1.9094999999999996e-05 -11.801599999999999 0.013857300000000001 0.68409500000000023 -0.11653299999999998 0.056773999999999998 -0.040859549999999939 -0.0014338849999999998 -5.4791549999999996 0.0011742500000000002 0.0016370150000000001
decision_type=2 2 2 2 2 2 2 2 2 2 2 2 2 2 2 2 2 2 2 2 2 2 2 2 2 2 2 2 2 2
left_child=2 -2 -1 4 5 6 7 13 9 10 11 -9 -8 -3 -12 20 17 18 -10 -20 -15 23 -17 24 25 -22 27 28 -25 -14
right_child=1 3 -4 -5 -6 -7 12 8 16 -11 14 -13 29 15 -16 22 -18 -19 19 -21 21 -23 -24 26 -26 -27 -28 -29 -30 -31
leaf_value=5.1986583849075165e-05 -6.3184576817922552e-05 -0.0039807223685107435 -5.4774217369883209e-05 -4.4072920101352364e-07 1.2720009472903344e-05 -0.00032777691646253753 -0.00068051925044360301 0.0065384011155598474 -0.00037184869198916625 0.0012738058840258172 0.0069274134308755127 0.016947761450952385 0.0058957953948709299 0.0050778969643243514 -0.0015549319526180626 0.0022269988740551317 -0.0035913420058786868 0.0015088823414288952 0.0033323904041778936 0.010539197844824426 0.0053486366610741246 -0.0037277266565256591 0.0082028170798862862 -0.0015566827742776906 0.0087140153705452875 0.00039838731676960983 0.00074130444110757498 0.0005365826833528955 -0.010546898153261283 -0.00073036213405430327
leaf_weight=54975 43542 43 70072 25365 18972 987 616 37 26 63 27 25 41 39 25 198 25 524 29 37 44 39 22 26 24 135 1553 82 20 20
leaf_count=54975 43542 43 70072 25365 18972 987 616 37 26 63 27 25 41 39 25 198 25 524 29 37 44 39 22 26 24 135 1553 82 20 20
internal_value=0 1.05867e-05 -7.83846e-06 7.60819e-05 0.000158053 0.000743831 0.00102815 0.00132002 0.00253279 0.00505103 0.00713844 0.0107357 -0.000283722 0.000874151 0.00284936 0.000969824 0.00183743 0.00205775 0.00518393 0.00737257 0.00076185 0.000674317 0.00282458 0.000765442 0.00245448 0.00161521 0.000561472 -0.00162041 -0.00546547 0.00372328
internal_weight=0 92586 125047 49044 23679 4707 3720 3043 818 177 114 62 677 2225 52 2182 641 616 92 66 1962 1923 220 1884 203 179 1681 128 46 61
internal_count=217633 92586 125047 49044 23679 4707 3720 3043 818 177 114 62 677 2225 52 2182 641 616 92 66 1962 1923 220 1884 203 179 1681 128 46 61
shrinkage=0.05


Tree=243
num_leaves=31
num_cat=0
split_feature=40 40 20 1 0 25 41 18 18 18 20 4 43 43 34 7 33 18 16 36 13 16 10 7 14 4 4 33 35 26
split_gain=0.00802062 0.0610206 0.112366 0.255272 0.161948 0.106327 0.319096 0.210475 0.433599 0.337328 0.267939 0.252249 0.645513 0.414493 0.229225 0.309012 0.185025 0.177672 0.162051 0.39396 0.213611 0.404799 0.188096 0.170778 0.193884 0.177137 0.278376 0.389324 0.283565 0.241822
threshold=-0.40968649999999995 -0.018010000000000078 16.002400000000005 5.0786750000000014 9.7069050000000008 6.6944750000000006 0.09983149999999999 -5.194759999999999e-05 -0.00015077349999999997 -1.0012199999999997e-06 -2.6027399999999994 0.30910700000000008 1.9002500000000004 -0.99152500000000054 1.7130900000000002 4.4005200000000003e-05 4.9664550000000009e-06 4.6049500000000007e-05 -1.3281999999999998e-05 -0.43959349999999991 3.162045000000001e-05 -6.1399949999999985e-05 2.2258200000000003e-05 3.0548950000000012e-05 0.0036550950000000006 -0.36598199999999997 -2.1602949999999992 -1.9758899999999995e-05 -0.010699749999999999 0.0025695650000000007
decision_type=2 2 2 2 2 2 2 2 2 2 2 2 2 2 2 2 2 2 2 2 2 2 2 2 2 2 2 2 2 2
left_child=-1 2 5 4 -4 -2 7 8 10 16 -7 12 13 -11 17 -16 -9 -13 19 22 21 -21 -8 24 -20 26 -25 -28 29 -29
right_child=1 -3 3 -5 -6 6 18 9 -10 11 -12 14 -14 -15 15 -17 -18 -19 23 20 -22 -23 -24 25 -26 -27 27 28 -30 -31
leaf_value=1.1214492717576112e-05 -6.9842693832421164e-05 4.3936858419915518e-06 -0.0010139021173927176 0.0065948668518103666 0.0036035896580735292 -0.0049949048845363518 0.0091284045111387959 -0.0017598929432871822 -0.0087701075979315767 -0.0021563409531067702 0.0007578017181610146 0.0049746455469479173 -0.0004371763738860976 -0.0111421813828532 0.00089814414498575314 -0.0068873525084927681 0.0032242132207223524 -0.0002590007135004271 -0.00086593567893624975 -0.0019794718437575894 -0.0013649304043041072 0.0070255057831113497 0.0022710019006444782 -0.00092072865484927517 -0.0048557126867849187 -0.00039897738873813588 -0.00172485039503703 0.011332546165795066 0.0011167626431280817 0.003919074993940409
leaf_weight=92022 12892 111070 64 20 27 35 20 27 29 21 48 24 73 33 26 25 60 50 172 24 91 26 20 72 37 525 29 22 27 22
leaf_count=92022 12892 111070 64 20 27 35 20 27 29 21 48 24 73 33 26 25 60 50 172 24 91 26 20 72 37 525 29 22 27 22
internal_value=0 -8.21568e-06 -0.000104531 0.00148022 0.000356123 -0.000116722 -0.000509674 -0.00162777 -0.00350697 -0.00100691 -0.00166804 -0.00193365 -0.00350306 -0.00764769 -0.000339125 -0.00291828 0.00167742 0.0014384 -4.57728e-05 0.00132008 7.76394e-05 0.00270312 0.0056997 -0.000318643 -0.00157226 5.72626e-05 0.00144986 0.00315668 0.00515054 0.00762581
internal_weight=0 125611 14541 111 91 14430 1538 451 112 339 83 252 127 54 125 51 87 74 1087 181 141 50 40 906 209 697 172 100 71 44
internal_count=217633 125611 14541 111 91 14430 1538 451 112 339 83 252 127 54 125 51 87 74 1087 181 141 50 40 906 209 697 172 100 71 44
shrinkage=0.05


Tree=244
num_leaves=31
num_cat=0
split_feature=41 40 3 31 14 44 44 20 13 20 22 12 4 40 36 43 21 35 40 21 21 6 0 20 4 41 3 23 22 8
split_gain=0.00739323 0.0689844 0.104724 0.367411 0.194533 0.225904 0.396566 0.548796 0.418545 0.409289 0.538437 0.516228 0.406847 0.38791 0.503828 0.350793 0.349678 0.348035 0.324029 0.326218 0.299247 0.346985 0.285172 0.259374 0.256004 0.252701 0.250304 0.216204 0.261866 0.214963
threshold=0.32610899999999998 -0.018010000000000078 -11.042399999999999 -13.003849999999998 0.019024750000000003 1.6302050000000003 0.81788000000000027 5.9330550000000004 2.0828100000000005e-06 -4.8420449999999997 -2.2092599999999996 -0.00011525999999999999 0.41110300000000005 -0.058960000000000005 -0.0049083749999999987 1.6830350000000001 3.0686450000000005 -0.0081784949999999992 -0.19934349999999995 -2.0281699999999994 -5.5781649999999994 -3.153044999999999e-08 -4.5705949999999991 -6.5323449999999985 0.20333750000000003 0.040430000000000084 -14.267049999999999 -12.040949999999999 2.2967900000000006 -1.1622899999999998e-05
decision_type=2 2 2 2 2 2 2 2 2 2 2 2 2 2 2 2 2 2 2 2 2 2 2 2 2 2 2 2 2 2
left_child=1 2 3 -1 5 6 7 9 -9 11 22 -5 15 14 -8 16 23 18 -12 -20 21 -19 -11 -13 -16 -10 29 28 -28 -22
right_child=-2 -3 -4 4 -6 -7 13 8 25 10 17 12 -14 -15 24 -17 -18 20 19 -21 26 -23 -24 -25 -26 -27 27 -29 -30 -31
leaf_value=0.0055263401255116716 1.0503795507090584e-05 4.1740015569520975e-06 -0.000218274287431656 0.0075493519015081625 -0.00052560660968686867 -0.00015305250849771077 0.0087583046156214563 0.00010835686457756396 0.0025984467341913843 -0.0020885995310795566 0.0018023843131905544 -0.0048541984231970101 -0.0051761954510331394 0.0080283127916867241 0.001943931143045041 0.00812545114022214 0.0059549735296362399 -0.00061668906991113116 -0.00081095154358384522 -0.0078271229767926491 -0.0026839765918406627 0.0065665623248787599 -0.0089645418839063486 0.0015551833625833849 -0.0044263334446441151 0.009186124441692152 -0.00088668323739785027 0.0021254671634879842 -0.006565301174123306 0.0021167209221740766
leaf_weight=31 94660 111070 8399 37 1010 1304 20 42 24 38 27 27 23 34 46 20 24 29 30 37 27 40 25 38 24 37 263 54 22 171
leaf_count=31 94660 111070 8399 37 1010 1304 20 42 24 38 27 27 23 34 46 20 24 29 30 37 27 40 25 38 24 37 263 54 22 171
internal_value=0 -8.08543e-06 -0.000122481 0.000107132 5.876e-05 0.000298391 0.000806313 0.000486183 0.00394952 0.000103432 -0.000389694 0.0023298 0.000866739 0.00347837 0.0017595 0.00214185 0.000797224 8.77658e-06 -0.002822 -0.00468555 0.000447873 0.00354751 -0.00481715 -0.00110718 -0.00024016 0.00659425 4.95956e-05 -0.000775396 -0.00132503 0.00146208
internal_weight=0 122973 11903 3504 3473 2463 1159 1035 103 932 763 169 132 124 90 109 89 700 94 67 606 69 63 65 70 61 537 339 285 198
internal_count=217633 122973 11903 3504 3473 2463 1159 1035 103 932 763 169 132 124 90 109 89 700 94 67 606 69 63 65 70 61 537 339 285 198
shrinkage=0.05


Tree=245
num_leaves=31
num_cat=0
split_feature=7 2 33 2 23 43 1 32 30 0 29 14 43 40 40 40 40 37 43 34 3 19 39 8 10 15 24 43 40 40
split_gain=0.00689017 0.0303848 0.0246338 0.0316458 0.0187198 0.0313717 0.0688422 0.145708 0.121715 0.074384 0.0526934 0.0625343 0.0523329 0.0919766 0.219997 0.102785 0.350195 0.0945803 0.054091 0.0359885 0.0349507 0.0764754 0.0317438 0.0258304 0.0185609 0.0280297 0.0156395 0.0132879 0.0173528 0.0706295
threshold=2.2278700000000004e-05 3.0794900000000003 -8.1044199999999979e-05 -2.1984249999999999 -8.326019999999998 1.06199 -5.999204999999999 0.062842750000000017 0.00040421350000000006 -1.0472299999999997 0.015602350000000003 0.00070374100000000013 -1.7757399999999997 0.22528099999999995 0.039429999999999972 -0.19934349999999995 -0.040859549999999939 -3.892934999999999e-07 -0.27803499999999998 0.031185800000000003 -14.947699999999999 0.00013951500000000002 1.8913850000000002e-06 1.1032050000000001e-05 9.9389650000000001e-06 1.4557100000000003e-07 0.56550400000000012 1.5525100000000001 -0.14969009999999991 0.74319900000000005
decision_type=2 2 2 2 2 2 2 2 2 2 2 2 2 2 2 2 2 2 2 2 2 2 2 2 2 2 2 2 2 2
left_child=1 2 3 -1 5 6 7 22 -9 -10 12 -12 23 14 15 -14 -17 -18 -19 -20 21 -7 -4 -8 25 -5 -6 28 -22 -30
right_child=-2 -3 4 24 26 20 10 8 9 -11 11 -13 13 -15 -16 16 17 18 19 -21 27 -23 -24 -25 -26 -27 -28 -29 29 -31
leaf_value=-0.0023197843542584451 -1.5057947324729417e-06 0.0019982167505077086 0.0020349754810922607 -0.00037187780392218192 -3.025851366475573e-05 0.0036650388464295248 -6.5769818770740362e-05 0.0063538508973215368 0.0038754367173948721 -0.00016110179258976132 -0.0025231491063336495 -0.00016701406092088625 -0.00015657743651717684 -8.3630308216942837e-05 0.0059376132882038215 0.007427465702842354 -0.0023367414031824972 0.0035426184500631113 0.002212965550254388 6.1828897359792801e-05 3.7694486557787369e-05 -0.00065510341011672398 -0.00013361528111077961 0.0015743924001012603 1.7261471250305606e-05 -0.0025085694462904941 -0.0012410389194108711 1.4141054579855716e-05 -0.0034759363685744962 1.1922439380504465e-05
leaf_weight=20 211572 20 20 66 2186 20 603 20 21 25 34 164 134 232 23 23 21 22 29 59 75 21 108 25 189 20 27 1786 21 47
leaf_count=20 211572 20 20 66 2186 20 603 20 21 25 34 164 134 232 23 23 21 22 29 59 75 21 108 25 189 20 27 1786 21 47
internal_value=0 5.25629e-05 4.61214e-05 -0.000399487 6.8999e-05 0.000140425 0.000307696 0.00118919 0.00309748 0.00168167 0.00018278 -0.000571603 0.000310336 0.000669803 0.00123185 0.000856043 0.00173715 0.000738091 0.0013251 0.000770726 7.71183e-06 0.00145228 0.000205227 -4.76737e-07 -0.000259829 -0.000868783 -4.50308e-05 -2.29919e-05 -0.000486764 -0.00106521
internal_weight=0 6061 6041 295 5746 3533 1563 194 66 46 1369 198 1171 543 311 288 154 131 110 88 1970 41 128 628 275 86 2213 1929 143 68
internal_count=217633 6061 6041 295 5746 3533 1563 194 66 46 1369 198 1171 543 311 288 154 131 110 88 1970 41 128 628 275 86 2213 1929 143 68
shrinkage=0.05


Tree=246
num_leaves=31
num_cat=0
split_feature=41 41 3 21 28 1 20 13 44 36 21 3 25 43 33 41 3 10 5 12 20 3 26 9 2 25 36 30 1 32
split_gain=0.00690064 0.0973136 0.112118 0.209486 0.104396 0.190943 0.114236 1.08649 0.128242 0.57605 0.28568 0.597816 0.612515 0.367081 0.507493 0.886106 1.08113 1.13493 0.79096 0.768558 0.299686 0.377074 0.280918 0.434127 0.31863 0.26786 0.253822 0.377164 0.250781 0.230135
threshold=-0.30357199999999979 -0.026150000000000003 -19.074649999999995 -3.3402249999999998 -0.96676949999999995 -4.0741649999999989 16.002400000000005 5.7084500000000004e-06 -0.20255000000000042 -0.43959349999999991 -9.2830049999999975 -8.216879999999998 9.4910900000000016 0.85052500000000031 3.8629500000000009e-06 -0.10141500000000002 -12.510449999999999 3.1349550000000005e-05 1.5962300000000005e-05 4.1121850000000007e-05 7.0124150000000007 -8.4434449999999988 0.00052757850000000018 1.0829900000000001e-05 2.0367550000000008 0.45210100000000003 -0.0011580799999999999 0.00013005800000000003 -7.6550599999999998 1.3481400000000001
decision_type=2 2 2 2 2 2 2 2 2 2 2 2 2 2 2 2 2 2 2 2 2 2 2 2 2 2 2 2 2 2
left_child=-1 2 3 -2 5 -4 8 -8 10 -10 11 12 28 14 15 -12 25 18 19 -18 22 -22 23 24 -16 -17 -19 -28 -6 -11
right_child=1 -3 4 -5 6 -7 7 -9 9 29 13 -13 -14 -15 20 16 17 26 -20 -21 21 -23 -24 -25 -26 -27 27 -29 -30 -31
leaf_value=1.0148039662264736e-05 -0.00086117244550816562 5.6629204846012238e-06 -0.00064173481340474561 0.0061356853973120453 0.0052141728068125399 -0.0060130710419755255 0.0093923991783883363 -0.0029143063729242524 0.0074606280323888108 6.3221619076275388e-05 -0.00036229707579877869 0.00014690143787709792 -0.0016426272832904942 -0.0002501506816730099 0.0065472595025635062 0.0058296924495759113 -0.012026398050698585 -0.0079363659629598272 -0.018185283012688163 7.285833957472019e-05 0.0085579134957895261 -8.2316800515919966e-05 -0.0056814298388021796 -0.0027772784372953694 0.0004308618900027154 -0.0017212891820868803 -0.0065156688637755533 0.00067879546508525638 0.013037370510501207 -0.0019765277007078568
leaf_weight=94658 23 112638 78 20 21 21 29 47 26 4192 256 333 20 4633 31 24 35 20 25 21 23 28 23 71 68 23 27 56 20 143
leaf_count=94658 23 112638 78 20 21 21 29 47 26 4192 256 333 20 4633 31 24 35 20 25 21 23 28 23 71 68 23 27 56 20 143
internal_value=0 -7.81129e-06 -0.000154634 0.00239318 -0.000165277 -0.00178111 -0.000149586 0.00178167 -0.000164091 4.04398e-05 -0.000318999 0.000980484 0.00553102 -0.000414449 -0.00145576 -0.00238827 -0.00463351 -0.0063623 -0.0107904 -0.00748918 0.000405455 0.00381426 -0.000495316 0.000206335 0.0023461 0.00213453 -0.00287998 -0.00166157 0.00903037 -4.06423e-06
internal_weight=0 122975 10337 43 10294 99 10195 76 10119 4361 5758 394 61 5364 731 487 231 184 81 56 244 51 193 170 99 47 103 83 41 4335
internal_count=217633 122975 10337 43 10294 99 10195 76 10119 4361 5758 394 61 5364 731 487 231 184 81 56 244 51 193 170 99 47 103 83 41 4335
shrinkage=0.05


Tree=247
num_leaves=31
num_cat=0
split_feature=20 43 3 2 0 7 17 18 14 40 41 43 9 3 40 4 9 20 21 2 7 3 26 15 20 6 10 0 0 31
split_gain=0.00681936 0.0322305 0.0922966 0.298923 0.198743 0.196109 0.224746 0.188213 0.34536 0.249427 0.41659 0.711789 0.159464 0.269648 0.237623 0.15603 0.150384 0.0736209 0.0590874 0.200197 0.195912 0.507969 0.112476 0.105482 0.0526085 0.0542755 0.0454454 0.042456 0.0412497 0.0536203
threshold=-8.175164999999998 -0.026199999999999776 -8.4058999999999973 3.0333000000000006 -2.4311799999999999 2.7277450000000004e-05 1.0181200000000001e-07 0.0021193250000000005 0.0037958600000000003 0.14973499999999998 0.19792950000000006 0.93421999999999994 -3.4487299999999998e-05 -9.3813899999999979 -0.12496499999999998 -0.084020649999999988 -3.103334999999999e-05 -8.8937749999999998 -9.1109899999999975 -1.4562349999999997 6.7142100000000009e-05 -5.6211599999999988 -0.00010656049999999998 2.7206550000000005e-08 -11.702999999999998 -1.2761499999999998e-06 2.7526350000000005e-05 -2.0595049999999993 -4.0528699999999995 1.1289300000000002
decision_type=2 2 2 2 2 2 2 2 2 2 2 2 2 2 2 2 2 2 2 2 2 2 2 2 2 2 2 2 2 2
left_child=1 28 3 4 5 -3 12 8 9 10 11 15 13 14 -7 -8 -14 -17 19 20 21 22 -4 -24 -18 -26 -11 -6 29 -1
right_child=-2 2 18 -5 27 6 7 -9 -10 26 -12 -13 16 -15 -16 17 24 -19 -20 -21 -22 -23 23 -25 25 -27 -28 -29 -30 -31
leaf_value=-0.00010282150195839359 -3.2663618361745115e-06 0.0044490626266521687 -0.001035988475199827 0.0055717904869067884 -0.0020803751998495763 -0.0013811033965885145 -0.00099069638464633117 -0.00064192327827820622 0.0070078559515569655 0.0013430362690996845 -0.00042595822338868558 0.01099580251078199 0.004345509431996933 0.00040725823516064949 -0.009088611374681933 0.0051774777304672177 -0.002170151713856355 0.0017585895362219985 6.9018744317168093e-06 -0.00012644341806788693 -0.00045661114279209872 0.0098935324049228297 0.00028803200194878236 0.0050524777872711785 -0.00069714511604285114 0.0025544923204939723 -0.0011488289250877785 -9.8584792288282144e-05 2.7481609215052669e-05 -0.00072347697187353794
leaf_weight=3711 191545 39 29 28 28 20 28 86 31 24 75 30 22 45 20 32 26 31 10091 318 50 23 21 26 33 21 77 776 9963 384
leaf_count=3711 191545 39 29 28 28 20 28 86 31 24 75 30 22 45 20 32 26 31 10091 318 50 23 21 26 33 21 77 776 9963 384
internal_value=0 2.39825e-05 8.406e-05 0.000454969 0.000355751 0.00101321 0.000790254 0.00144008 0.00198598 0.00146181 0.00250196 0.00431678 -0.000648406 -0.00224785 -0.00523486 0.0021149 0.000684469 0.00349517 3.23478e-05 0.000582187 0.00209456 0.00338304 0.00141276 0.00292368 -0.000322317 0.000567381 -0.000556703 -0.000167602 -2.74283e-05 -0.000161022
internal_weight=0 26088 12030 1472 1444 640 601 414 328 297 196 121 187 85 40 91 102 63 10558 467 149 99 76 47 80 54 101 804 14058 4095
internal_count=217633 26088 12030 1472 1444 640 601 414 328 297 196 121 187 85 40 91 102 63 10558 467 149 99 76 47 80 54 101 804 14058 4095
shrinkage=0.05


Tree=248
num_leaves=31
num_cat=0
split_feature=21 43 12 12 19 22 43 12 23 32 1 11 23 37 30 23 12 12 24 34 43 12 13 1 5 21 1 43 43 23
split_gain=0.00685368 0.0389957 0.131518 0.263183 0.133983 0.0885915 0.0533105 0.203686 0.042581 0.0303287 0.0640541 0.175712 0.14919 0.0520101 0.0395892 0.0272091 0.0271509 0.034223 0.0246589 0.0282202 0.0534803 0.0222364 0.0389367 0.0270245 0.0219848 0.0179544 0.145977 0.136084 0.370348 0.266519
threshold=13.390900000000002 0.47541999999999979 0.00010937550000000001 0.00012870650000000001 0.0001142435 2.0895950000000005 0.93421999999999994 4.998470000000001e-05 -13.08405 -0.44443899999999997 6.2690350000000006 2.4577100000000002e-05 -7.1435249999999995 5.9581800000000005e-07 0.16934650000000004 -8.6217649999999981 6.4648250000000012e-05 5.818835000000001e-05 1.1195950000000001 4.6183500000000004 -1.9691099999999999 0.00038446800000000006 0.00014699600000000001 5.2820750000000007 8.1441900000000017e-06 11.074800000000002 10.651350000000003 0.43278000000000022 0.20156999999999983 -6.5061949999999991
decision_type=2 2 2 2 2 2 2 2 2 2 2 2 2 2 2 2 2 2 2 2 2 2 2 2 2 2 2 2 2 2
left_child=25 8 6 -4 -5 -6 7 15 -2 10 21 12 -12 -14 18 -3 17 24 19 -11 -21 23 -23 -10 -8 -1 -27 28 -28 -30
right_child=1 2 3 4 5 -7 16 -9 9 14 11 -13 13 -15 -16 -17 -18 -19 -20 20 -22 22 -24 -25 -26 26 27 -29 29 -31
leaf_value=1.5091372632994749e-06 -0.0021993238995175646 0.001696541966314271 0.0063477504476904872 0.0041443041677969939 -0.00074853461218641747 0.0026374332684790717 0.0015111932329803139 0.0045756808145069371 -6.9373654267188998e-05 0.00012450971421114327 -0.003066436395925444 -0.0054778973461084429 0.0030564039820455951 2.1585963158562059e-05 0.0022830708626618919 -0.00032889634944835634 -0.00086613539988320562 0.0020832755019364415 0.0016451238465378993 0.00025518480434521038 -0.0024691955465260115 -0.002676985271417917 -0.00010075870661901056 0.0013974503386028423 -5.8117499063109123e-05 -7.0529377615893028e-06 -0.00086555483143837663 -0.00013547702232168313 -0.0099364069873228711 -0.0019704196099372072
leaf_weight=207675 23 20 25 24 85 25 23 31 648 1038 36 21 20 48 21 97 92 20 25 43 31 22 44 33 752 6089 241 339 21 21
leaf_count=207675 23 20 25 24 85 25 23 31 648 1038 36 21 20 48 21 97 92 20 25 43 31 22 44 33 752 6089 241 339 21 21
internal_value=0 7.20986e-05 0.00029931 0.00163816 0.000759505 2.10035e-05 9.36311e-05 0.000972122 -6.00446e-05 -3.58065e-05 -0.000258519 -0.00130611 -0.000463726 0.000914179 0.000131901 1.73324e-05 -5.29491e-05 4.11555e-05 9.21698e-05 5.72563e-05 -0.00088611 -8.322e-05 -0.000959501 1.70592e-06 -1.15444e-05 -1.09197e-06 -8.15846e-05 -0.000811204 -0.00162064 -0.00595341
internal_weight=0 3247 1194 159 134 110 1035 148 2053 2030 872 125 104 68 1158 117 887 795 1137 1112 74 747 66 681 775 214386 6711 622 283 42
internal_count=217633 3247 1194 159 134 110 1035 148 2053 2030 872 125 104 68 1158 117 887 795 1137 1112 74 747 66 681 775 214386 6711 622 283 42
shrinkage=0.05


Tree=249
num_leaves=31
num_cat=0
split_feature=25 4 24 4 40 41 43 43 41 40 11 5 21 7 43 43 31 13 26 18 11 43 34 44 14 34 10 34 43 23
split_gain=0.00670322 0.0395633 0.308227 0.38984 0.46558 1.60865 0.625304 0.440216 0.607312 0.681947 0.722816 0.588535 0.534113 0.508838 0.486015 0.458427 0.406862 0.37124 0.321069 0.31006 0.286567 0.263351 0.526779 0.337053 0.244053 0.22073 0.188776 0.169984 0.124841 0.118838
threshold=2.3108700000000004 0.17779150000000002 0.25201650000000003 1.4464300000000001 0.38220950000000015 0.35345999999999994 -3.6431499999999999 4.0888900000000019 0.078754999999999922 0.077348000000000056 4.8912350000000013e-05 1.7650100000000002e-05 0.5292785000000001 3.5630700000000011e-05 -0.77143500000000065 0.68409500000000023 1.4016150000000003 1.0260100000000002e-05 -2.2730149999999994e-05 5.4626650000000007e-05 1.7875200000000005e-05 1.9902050000000007 2.1557050000000006 -0.81248999999999982 0.00036183850000000008 1.1210650000000002 2.3100250000000003e-05 10.726400000000002 -0.15760999999999911 -6.8702999999999994
decision_type=2 2 2 2 2 2 2 2 2 2 2 2 2 2 2 2 2 2 2 2 2 2 2 2 2 2 2 2 2 2
left_child=-1 -2 -3 4 5 6 29 8 9 14 12 13 15 18 25 -11 20 -13 26 -15 -14 22 23 -16 28 -8 -10 -9 -25 -4
right_child=1 2 3 -5 -6 -7 7 27 11 10 -12 17 16 19 21 -17 -18 -19 -20 -21 -22 -23 -24 24 -26 -27 -28 -29 -30 -31
leaf_value=4.497600596486451e-06 -4.8307338829351224e-05 -0.00018834438644076601 -0.0038508313894150582 -7.2220873287706441e-05 -0.00011417760949925674 -2.9643569802845146e-05 0.0085011547345750262 -0.0014054908328190712 0.01228046713070944 0.01102975512721709 0.011882291082292796 0.015645419234748593 0.0057439809074052257 0.0037496516394808343 0.0056699282590400536 0.0021647928333841265 -0.0048779626022137351 0.0066533588881914811 0.0019785488405349582 -0.0044641583668999377 -0.0015006615669422207 0.0064028713319982805 -0.0063539696671068673 0.0060604752440537729 -0.00045409137947281905 0.0018813799740746617 0.0060037828566830449 0.0037235496382761212 0.0016924493108809978 0.00081448495814887196
leaf_weight=172355 31329 6792 39 3726 1227 1296 34 70 25 35 34 22 39 27 37 25 21 24 22 20 21 21 25 21 187 20 23 21 74 21
leaf_count=172355 31329 6792 39 3726 1227 1296 34 70 25 35 34 22 39 27 37 25 21 24 22 20 21 21 25 21 187 20 23 21 74 21
internal_value=0 -1.71205e-05 5.2924e-05 0.000281888 0.000666443 0.00110103 0.00271485 0.00306387 0.00345885 0.00271698 0.00533842 0.00616236 0.00376046 0.0042785 0.0016221 0.00733602 0.0011119 0.0109539 0.00698038 0.000254413 0.00320836 0.000967108 0.000635274 0.00118302 0.000594313 0.00604939 0.00927289 -0.000221866 0.00265801 -0.00221797
internal_weight=0 45278 13949 7157 3431 2204 908 848 757 594 175 163 141 117 419 60 81 46 70 47 60 365 344 319 282 54 48 91 95 60
internal_count=217633 45278 13949 7157 3431 2204 908 848 757 594 175 163 141 117 419 60 81 46 70 47 60 365 344 319 282 54 48 91 95 60
shrinkage=0.05


Tree=250
num_leaves=31
num_cat=0
split_feature=41 40 25 40 3 32 3 13 8 5 5 3 19 24 43 32 3 28 15 12 3 24 15 43 17 43 7 20 26 23
split_gain=0.00733177 0.0815566 0.120381 0.253778 0.275537 0.249379 0.328993 0.427496 0.489644 0.244468 0.200345 0.230203 0.308598 0.17112 0.366913 0.296578 0.302188 0.196943 0.271474 0.168249 0.224002 0.193561 0.156949 0.425969 0.172203 0.282877 0.156596 0.131273 0.128602 0.120033
threshold=0.27484500000000006 -0.018010000000000078 6.6944750000000006 -0.058960000000000005 -17.304849999999998 3.1099700000000006 -7.1396099999999985 2.5459000000000005e-05 -6.0023049999999996e-06 1.3813450000000001e-05 1.9575400000000006e-05 -11.223199999999999 0.027922950000000005 0.62895050000000008 -1.0505799999999998 -1.3507849999999997 -11.515449999999998 0.07628225000000001 4.7226350000000001e-07 -0.00017094949999999997 -10.156199999999998 0.77580800000000016 -3.5521349999999997e-09 3.5499500000000008 2.6560950000000003e-08 2.0800550000000007 4.7250350000000001e-05 9.4321850000000023 0.00057196550000000008 -5.9061699999999986
decision_type=2 2 2 2 2 2 2 2 2 2 2 2 2 2 2 2 2 2 2 2 2 2 2 2 2 2 2 2 2 2
left_child=1 2 13 4 -4 6 7 8 -5 -7 19 12 -12 15 -15 16 -1 -17 28 20 21 -6 23 -16 -24 -26 -13 -28 -19 -21
right_child=-2 -3 3 5 10 9 -8 -9 -10 -11 11 26 -14 14 22 17 -18 18 -20 29 -22 -23 24 -25 25 -27 27 -29 -30 -31
leaf_value=-0.0079522950468041628 1.0296420891353428e-05 4.253340610671616e-06 0.0050371523650634721 -0.0026533565898496435 -0.0025071854974764093 0.0052973066300910435 3.8594271430409836e-05 -0.0010815308346931454 -0.011085279534260433 -0.0017083190041100324 0.0067648099668531358 0.0029767139909955935 -0.0011525046001770534 0.0073094486940333261 0.0079833694383879741 -0.00011539651570745152 -0.0007857942920389562 -0.00070194261242473006 0.0070093674648722465 -0.00041120650958102051 0.001212466287214066 -0.0084612317294591958 0.0030707535984338791 -0.00016487352901472239 -0.00697143935598433 -4.4101055235452283e-05 -0.0010850245751366442 0.0025105877558235078 0.0034871374411782848 -0.0040266950000993045
leaf_weight=24 96350 111070 24 33 39 20 61 53 36 33 32 38 20 23 23 8670 38 53 22 528 23 21 23 53 20 56 165 30 28 24
leaf_count=24 96350 111070 24 33 39 20 61 53 36 33 32 38 20 23 23 8670 38 53 22 528 23 21 23 53 20 56 165 30 28 24
internal_value=0 -8.17971e-06 -0.000143394 -0.000618342 -0.000251714 -0.00208486 -0.00295955 -0.00445862 -0.00705262 0.000935313 -0.000389684 0.000711676 0.00371969 -8.135e-05 0.00137235 -0.000113929 -0.00355992 -8.95754e-05 0.00208391 -0.000883995 -0.00298288 -0.0045911 0.000592046 0.00230104 -0.00071991 -0.00186708 4.03593e-05 -0.000531853 0.000746134 -0.000568402
internal_weight=0 121283 10213 1180 944 236 183 122 69 53 920 285 52 9033 198 8835 62 8773 103 635 83 60 175 76 99 76 233 195 81 552
internal_count=217633 121283 10213 1180 944 236 183 122 69 53 920 285 52 9033 198 8835 62 8773 103 635 83 60 175 76 99 76 233 195 81 552
shrinkage=0.05


Tree=251
num_leaves=31
num_cat=0
split_feature=41 41 3 23 6 28 3 20 12 20 8 19 14 16 12 44 36 14 24 40 40 23 43 19 21 32 31 21 20 6
split_gain=0.00678608 0.0929745 0.101245 0.209771 0.2734 0.116473 0.183006 0.110088 0.106438 0.102252 0.287768 0.252681 0.199879 0.17079 0.130688 0.113304 0.42339 0.300297 0.346525 0.442641 0.291786 0.552492 0.781148 0.290474 0.275382 0.271934 0.440759 0.351095 0.325012 0.368279
threshold=-0.30357199999999979 -0.026150000000000003 -18.015749999999997 -15.138399999999999 -5.7203749999999994e-08 -0.96676949999999995 -10.442949999999998 19.256550000000001 -0.0008378944999999999 -11.463149999999997 -7.1639649999999996e-06 0.00093784150000000008 4.4272650000000011e-05 -2.6787349999999996e-08 0.00010937550000000001 -0.20255000000000042 -0.30938449999999995 0.00010396350000000002 0.11888900000000001 0.10022550000000004 0.077348000000000056 -7.3396999999999988 0.51814999999999956 1.1571700000000003e-09 -6.7912899999999992 1.3481400000000001 2.0971700000000006 -3.4381649999999992 -3.1555199999999997 -6.6513949999999992e-07
decision_type=2 2 2 2 2 2 2 2 2 2 2 2 2 2 2 2 2 2 2 2 2 2 2 2 2 2 2 2 2 2
left_child=-1 2 3 4 -2 6 -4 9 -5 10 11 13 -12 -7 -13 20 -17 18 -18 -20 21 23 -23 -11 -25 26 -19 -28 -27 -30
right_child=1 -3 5 8 -6 7 -8 -9 -10 15 12 14 -14 -15 -16 16 17 25 19 -21 -22 22 -24 24 -26 28 27 -29 29 -31
leaf_value=1.0063446333143105e-05 0.00018324218612785143 5.4242086277942142e-06 -0.0054853355897089041 0.0029189368717514146 0.0070530290503354222 0.0088076367306158601 -0.00058220995940156544 0.0025306009332110224 -0.00085337080517638238 -0.0049024308928122852 0.0041942080632155843 0.0033974377918275424 -0.00072636830421591485 0.0025709490424722908 -0.0021289826542867916 0.006923217571933162 -0.0004999084554583533 4.6915332168566694e-05 -0.011578547842800617 -0.0010590358234185259 -0.00015001877508237984 -0.010511372368782759 -0.0017082594652310945 0.0015571153878155592 -0.00082353091195476111 -0.0058457279161042873 0.0094040937552397896 0.0014278936243892924 0.0039655351095522441 -0.0030418777898885314
leaf_weight=94658 30 112638 26 23 28 23 71 38 100 39 23 20 201 21 23 22 71 3785 20 20 4389 35 90 140 918 42 22 37 30 50
leaf_count=94658 30 112638 26 23 28 23 71 38 100 39 23 20 201 21 23 22 71 3785 20 20 4389 35 90 140 918 42 22 37 30 50
internal_value=0 -7.74617e-06 -0.000151258 0.00102089 0.00349969 -0.000172148 -0.00189645 -0.000155521 -0.00014798 -0.000165707 0.000726735 0.00316722 -0.000221131 0.00583104 0.000441445 -0.00019429 5.54132e-06 -3.17873e-05 -0.0025968 -0.00631879 -0.000340273 -0.0010236 -0.00417313 -0.000664722 -0.000508512 4.00021e-05 0.000113761 0.00440207 -0.002284 -0.000414098
internal_weight=0 122975 10337 181 58 10156 97 10059 123 10021 311 87 224 44 43 9710 4099 4077 111 40 5611 1222 125 1097 1058 3966 3844 59 122 80
internal_count=217633 122975 10337 181 58 10156 97 10059 123 10021 311 87 224 44 43 9710 4099 4077 111 40 5611 1222 125 1097 1058 3966 3844 59 122 80
shrinkage=0.05


Tree=252
num_leaves=31
num_cat=0
split_feature=28 40 41 41 21 23 23 43 43 18 26 20 13 40 21 43 2 17 21 43 30 19 43 35 1 18 36 21 35 9
split_gain=0.00716821 0.0398227 0.265058 0.231689 0.210116 0.198885 0.309247 0.300565 0.255341 0.252102 0.20386 0.198819 0.332508 0.32974 0.41438 0.371691 0.345265 0.293126 0.292734 0.556924 0.528077 0.358807 0.285097 0.388011 0.272973 0.240085 0.301933 0.222043 0.221417 0.193979
threshold=0.041210350000000007 -0.19934349999999995 -0.12554300000000002 -0.057539999999999918 0.5292785000000001 -9.9037999999999986 -11.761549999999998 -0.66712000000000005 1.0196000000000003 2.0038450000000001e-05 0.00019540050000000001 -1.3693099999999998 -1.3758149999999998e-05 1.0000000180025095e-35 5.8567400000000012 2.6261900000000007 1.9944900000000001 3.4021650000000007e-07 4.5505850000000008 -0.36707999999999957 0.0035869550000000006 1.7356400000000002e-06 -0.32314999999999999 -0.0075462849999999989 4.4568150000000015 1.0528150000000003e-06 -0.022925199999999996 0.77184100000000011 -0.12126899999999999 2.8038600000000003e-05
decision_type=2 2 2 2 2 2 2 2 2 2 2 2 2 2 2 2 2 2 2 2 2 2 2 2 2 2 2 2 2 2
left_child=-1 -2 -3 4 -4 6 8 -7 -6 10 -9 13 -13 14 15 22 17 -16 19 20 -14 -22 -5 -24 -20 26 -18 -23 -15 -21
right_child=1 2 3 11 5 7 -8 9 -10 -11 -12 12 18 28 16 -17 25 -19 24 29 21 27 23 -25 -26 -27 -28 -29 -30 -31
leaf_value=2.9507618618251081e-06 1.7607983226284779e-05 6.0420386231745609e-05 0.0012287189890428083 -0.0033430710405809808 -0.0059137544727289222 -0.00090893211138161594 0.0028699640369975695 -0.0018506972744136065 -0.00071919133707010392 -0.01065904558170587 -0.0080495638046635398 0.0036183503294465015 0.010885657760610973 0.0055259241057293755 -0.00062270278571270208 -0.0012966486241608901 0.0034851282782619821 -0.0071043566746923793 -0.0037671166446719634 -0.0020929337784640336 -0.0026843723131325815 0.0083284566152459858 -0.0039845986513509643 -0.013486388823366724 -0.00045597048058487695 0.004933075490094376 -0.0033968750752084069 0.0017604431167485253 1.4992271098890342e-05 0.00095781203609393833
leaf_weight=196821 14523 4641 46 52 36 52 36 36 69 20 21 62 22 21 53 86 30 26 75 99 26 22 21 22 366 36 34 31 138 110
leaf_count=196821 14523 4641 46 52 36 52 36 36 69 20 21 62 22 21 53 86 30 26 75 99 26 22 21 22 366 36 34 31 138 110
internal_value=0 -2.79056e-05 -0.000133009 -0.000677733 -0.00189491 -0.00242708 -0.00112908 -0.00384582 -0.00250018 -0.00582918 -0.00413449 -0.000388974 9.90999e-05 -0.00115353 -0.0019911 -0.00367806 -0.000285283 -0.00275591 -0.000191437 0.000985966 0.00403456 0.00212666 -0.00583386 -0.00884598 -0.00101909 0.00166651 -0.000170936 0.00448679 0.000742851 -0.000487278
internal_weight=0 20812 6289 1648 316 270 141 129 105 77 57 1332 813 519 360 181 179 79 751 310 101 79 95 43 441 100 64 53 159 209
internal_count=217633 20812 6289 1648 316 270 141 129 105 77 57 1332 813 519 360 181 179 79 751 310 101 79 95 43 441 100 64 53 159 209
shrinkage=0.05


Tree=253
num_leaves=31
num_cat=0
split_feature=21 43 12 3 40 40 37 3 14 38 4 26 15 43 12 14 8 3 40 12 3 23 1 14 21 1 3 40 18 36
split_gain=0.00688832 0.0365564 0.071265 0.121948 0.168708 0.2258 0.457858 0.142465 0.262449 0.0847027 0.0901239 0.079486 0.0564917 0.146784 0.0531479 0.144243 0.0226749 0.0235705 0.0186036 0.0588626 0.0178374 0.0172077 0.0171758 0.0103638 0.00987933 0.0792861 0.0867644 0.209443 0.0765151 0.188049
threshold=14.999250000000002 -1.7757399999999997 2.7795450000000002e-05 -8.2835949999999983 1.2849435000000005 -0.68744999999999989 4.7478300000000009e-05 -5.5710999999999995 9.9237900000000007e-05 -0.076179349999999993 0.21856850000000003 0.0085896400000000008 2.2869100000000004e-05 -0.56159999999999977 0.00012557450000000002 0.00030683250000000005 -8.4826099999999981e-06 -15.867949999999999 -0.74380499999999983 -6.6568449999999981e-05 -8.7425699999999988 -6.7889449999999991 -6.6365299999999996 0.00033340500000000005 11.074800000000002 10.651350000000003 -6.8632349999999986 0.0045899999999999838 2.0913500000000003e-06 -0.00035081549999999999
decision_type=2 2 2 2 2 2 2 2 2 2 2 2 2 2 2 2 2 2 2 2 2 2 2 2 2 2 2 2 2 2
left_child=24 16 12 4 5 -4 -7 9 11 10 -5 -9 18 -14 15 21 17 -2 -3 -20 22 -11 -18 -21 -1 -26 27 -27 -28 -30
right_child=1 2 3 7 -6 6 -8 8 -10 14 -12 -13 13 -15 -16 -17 20 -19 19 23 -22 -23 -24 -25 25 26 28 -29 29 -31
leaf_value=1.3780371397635362e-06 -0.0021050470646164633 -6.5769630479432334e-05 -0.00024671877941323653 -0.00040890946557061775 -0.00048998465739182062 0.010456821745416772 0.0010454568847697895 -0.0010555420251330361 0.0063350726948119707 -0.0006705663026271699 -0.0034627603979814538 0.0027432074840492405 0.0048664063983051165 -0.0003379252992869754 -0.0011850159690362085 0.0040466765225824807 -0.0015011125535065299 -0.00046100158441630718 -0.0029929378327627396 -0.00010425126873404793 0.001218957603244538 0.00085593654715921731 -2.7671373771976077e-05 -0.0013424649872831652 -5.0318682571686684e-06 0.00021783067238698788 -0.00016305742185492516 -0.0058493992366129531 -0.0049737177339648046 -0.00033963112410887852
leaf_weight=207675 26 378 27 78 41 24 28 40 25 48 35 21 20 42 36 29 21 135 24 109 27 30 340 20 7585 33 600 25 30 81
leaf_count=207675 26 378 27 78 41 24 28 40 25 48 35 21 20 42 36 29 21 135 24 109 27 30 340 20 7585 33 600 25 30 81
internal_value=0 0.000103233 0.000275423 0.000740997 0.00211238 0.00346298 0.00538916 0.00025981 0.00202049 -0.00033167 -0.00135479 0.000252224 -8.72999e-05 0.00134089 0.000476811 0.00103593 -0.000227662 -0.0007265 -0.000254057 -0.000719237 -2.06695e-05 -8.34498e-05 -0.000113384 -0.000296222 -7.66497e-07 -5.40782e-05 -0.000537845 -0.00239735 -0.000386155 -0.00159209
internal_weight=0 1604 1055 462 120 79 52 342 86 256 113 61 593 62 143 107 549 161 531 153 388 78 361 129 216029 8354 769 58 711 111
internal_count=217633 1604 1055 462 120 79 52 342 86 256 113 61 593 62 143 107 549 161 531 153 388 78 361 129 216029 8354 769 58 711 111
shrinkage=0.05


Tree=254
num_leaves=31
num_cat=0
split_feature=10 2 35 32 12 21 4 13 3 6 28 35 32 36 16 36 17 21 40 40 3 37 38 29 11 21 37 40 17 4
split_gain=0.00668349 0.0295899 0.0260931 0.046007 0.216979 0.300441 0.195105 0.110216 0.0384613 0.0354925 0.0347226 0.0641455 0.0454484 0.0318678 0.141723 0.0318571 0.0732173 0.02927 0.0731068 0.327938 0.271401 0.363501 0.134868 0.135561 0.0674059 0.29903 0.0703291 0.0908154 0.172317 0.405131
threshold=1.6290050000000002e-05 3.0578500000000006 0.098593250000000007 3.1099700000000006 -0.00018440399999999996 -2.6213749999999996 0.030815900000000004 1.0563300000000003e-05 -19.074649999999995 -3.3864449999999993e-07 -0.22198749999999998 0.019909950000000006 2.6219150000000004 -0.96073299999999995 -1.0292349999999999e-07 -2.2564299999999995 1.4977250000000001e-06 6.8989050000000001 -0.079468000000000025 -0.027530000000000051 -9.8046849999999974 -3.2722399999999995e-08 -0.032169599999999993 0.019534050000000004 1.0155450000000003e-05 7.2928950000000006 -2.12674e-08 0.12375499999999996 1.6583550000000004e-08 -0.088954349999999988
decision_type=2 2 2 2 2 2 2 2 2 2 2 2 2 2 2 2 2 2 2 2 2 2 2 2 2 2 2 2 2 2
left_child=1 2 3 10 5 7 -7 -5 -4 -9 11 -1 13 14 -12 16 -10 -15 -19 20 -20 -22 -21 24 26 -26 27 28 -24 -30
right_child=-2 -3 8 4 -6 6 -8 9 15 -11 12 -13 -14 17 -16 -17 -18 18 19 22 21 -23 23 -25 25 -27 -28 -29 29 -31
leaf_value=-0.00026760336569677418 3.4623854806404445e-06 0.001854017512994774 -0.0020112950980061823 0.0035590448035994395 -0.00012272282811802632 0.0093013072712346909 0.002477876597814347 -0.0020405959762194053 -0.00033604187039386227 0.00048338028961249322 0.0035105894463413282 -0.002950605987955766 0.0019270883195016118 1.3094595403408688e-06 -0.00095368659251107615 -0.00013238058966054793 -0.0037775486455939242 -5.8930842722801056e-07 -0.00084002890561586598 0.0027117994013846521 -0.010674757668113505 -0.0015855428369832226 0.0011835168475280862 -0.0043937548150279329 -0.006357651550145723 -0.00032019000674010569 0.00025400587880329556 -4.0920208498975763e-05 -0.0080823967840842666 -0.0010920844810910742
leaf_weight=109 188240 21 30 21 378 20 22 26 68 30 32 28 30 22432 40 1192 20 3320 54 38 22 22 54 20 24 141 622 401 24 152
leaf_count=109 188240 21 30 21 378 20 22 26 68 30 32 28 30 22432 40 1192 20 3320 54 38 22 22 54 20 24 141 622 401 24 152
internal_value=0 -2.2174e-05 -2.35154e-05 -1.33332e-05 0.000463453 0.00232542 0.00572713 0.000469946 -0.000241632 -0.000688466 -2.19297e-05 -0.000815954 -1.79636e-05 -2.00934e-05 0.00103044 -0.000200156 -0.0011182 -2.28614e-05 -0.00013365 -0.000414312 -0.00321519 -0.00613015 -0.000228346 -0.000306041 -0.000248387 -0.00119837 -0.00012329 -0.000495204 -0.00128724 -0.00204531
internal_weight=0 29393 29372 28062 497 119 42 77 1310 56 27565 137 27428 27398 72 1280 88 27326 4894 1574 98 44 1476 1438 1418 165 1253 631 230 176
internal_count=217633 29393 29372 28062 497 119 42 77 1310 56 27565 137 27428 27398 72 1280 88 27326 4894 1574 98 44 1476 1438 1418 165 1253 631 230 176
shrinkage=0.05


Tree=255
num_leaves=31
num_cat=0
split_feature=41 21 23 20 3 0 13 23 19 43 19 28 40 2 35 2 33 22 21 43 1 23 1 36 4 3 38 40 38 24
split_gain=0.00655705 0.156621 0.00721737 0.0285343 0.177874 0.484025 0.447242 0.578642 0.572032 0.301938 0.118052 0.0682916 0.185217 0.0459932 0.0335039 0.0361476 0.187756 0.028986 0.0240201 0.0917574 0.409647 0.30097 0.0726722 0.0381601 0.0795545 0.0311756 0.184394 0.0317327 0.0805184 0.0485267
threshold=5.6849350000000003 -3.7984549999999992 -13.237099999999998 -6.2436999999999996 -12.126699999999998 -4.3615599999999999 6.2308800000000016e-05 -16.164099999999994 0.0059260250000000006 0.8945249999999999 3.4128000000000006e-08 -0.39445199999999997 1.1592150000000003 -2.2522399999999996 1.6674650000000002 1.7597100000000003 0.00012485500000000002 2.2495850000000002 -7.0365699999999984 3.0124600000000004 -4.4631249999999989 -14.564499999999997 -3.9714549999999993 -0.066940849999999982 0.069718000000000016 -19.074649999999995 0.022830750000000004 -0.079468000000000025 -0.0059856599999999994 0.3698105000000001
decision_type=2 2 2 2 2 2 2 2 2 2 2 2 2 2 2 2 2 2 2 2 2 2 2 2 2 2 2 2 2 2
left_child=2 -2 3 4 5 6 7 8 -1 -9 -7 12 -12 -13 15 -15 -17 -16 19 20 21 -5 -22 24 -24 26 27 29 -29 -20
right_child=1 -3 -4 18 -6 10 -8 9 -10 -11 11 13 -14 14 17 16 -18 -19 25 -21 22 -23 23 -25 -26 -27 -28 28 -30 -31
leaf_value=0.015491296756746514 0.0034635933554347828 3.1161016985958169e-07 -5.5463497945161172e-06 0.0085705278268842795 -4.801249970165559e-05 0.0035130175811609664 -0.0011003135798623922 -0.00076563817182384239 0.0036759240971878174 0.005826267439260846 0.0054674722338677387 -0.0024291223690273579 -0.00078706099909674069 -0.00017367819004812494 -0.0027727162373776086 -0.00043868285381528228 0.005079008206459029 -0.00033123677640985757 -7.0033721865709394e-06 2.0704623893866068e-05 -0.0029209850032930265 0.0015444697105808051 -0.00040686855210575842 -0.00017125197706257693 0.003862936942750821 -2.2678381763819192e-06 0.0044662845468674611 0.0032498769758208452 -0.00023778713502752461 -0.0027910282692755577
leaf_weight=21 34 819 166678 27 2224 25 41 38 20 32 20 22 29 301 20 58 21 31 72 1158 20 35 24 129 20 45585 27 23 59 20
leaf_count=21 34 819 166678 27 2224 25 41 38 20 32 20 22 29 301 20 58 21 31 72 1158 20 35 24 129 20 45585 27 23 59 20
internal_value=0 0.000138356 -5.44411e-07 1.60959e-05 0.000168245 0.000876575 0.0033623 0.00501065 0.0097277 0.0022478 0.00015963 -7.37102e-06 0.00176581 -0.000199172 -8.53462e-05 7.61538e-05 0.00102805 -0.00128868 6.73791e-06 0.00020978 0.00106841 0.0046042 -6.74472e-05 0.000262442 0.00153395 4.7183e-07 0.000621804 2.52467e-05 0.00074046 -0.000612226
internal_weight=0 853 216780 50102 2903 679 152 111 41 70 527 502 49 453 431 380 79 51 47199 1413 255 62 193 173 44 45786 201 174 82 92
internal_count=217633 853 216780 50102 2903 679 152 111 41 70 527 502 49 453 431 380 79 51 47199 1413 255 62 193 173 44 45786 201 174 82 92
shrinkage=0.05


Tree=256
num_leaves=31
num_cat=0
split_feature=28 40 41 41 21 35 10 15 20 12 21 43 16 16 40 21 43 43 35 13 20 43 40 38 15 28 43 43 20 2
split_gain=0.00662049 0.0366927 0.237801 0.210619 0.188718 0.191578 0.207068 0.187287 0.183403 0.327248 0.765438 0.685299 0.281268 0.234751 0.231208 0.395164 0.507867 0.48632 0.391155 0.331005 0.222637 0.220038 0.205937 0.198394 0.202361 0.187906 0.425438 0.387817 0.166739 0.309889
threshold=0.041210350000000007 -0.19934349999999995 -0.12554300000000002 -0.057539999999999918 0.5292785000000001 0.098593250000000007 3.8126050000000004e-05 -2.1368049999999996e-05 -1.3693099999999998 0.00010629050000000001 3.6376800000000005 -1.0505799999999998 1.2179350000000004e-06 1.5710250000000004e-05 -0.027530000000000051 6.2342700000000013 2.6261900000000007 -0.32314999999999999 -0.21631099999999998 -1.4146449999999999e-05 5.7713600000000005 -1.0505799999999998 -0.058960000000000005 0.14170100000000002 -3.1572649999999994e-07 0.11940450000000001 0.47541999999999979 -0.71725499999999964 -5.6544449999999999 1.8038550000000002
decision_type=2 2 2 2 2 2 2 2 2 2 2 2 2 2 2 2 2 2 2 2 2 2 2 2 2 2 2 2 2 2
left_child=-1 -2 28 4 -4 -6 -7 -5 14 12 11 22 25 21 15 16 17 -9 -16 -17 -13 -12 -11 24 -23 -10 27 -27 29 -3
right_child=1 2 3 7 5 6 -8 8 9 10 13 20 -14 -15 18 19 -18 -19 -20 -21 -22 23 -24 -25 -26 26 -28 -29 -30 -31
leaf_value=2.8357883484120588e-06 1.6870037782475214e-05 0.0033290396475863814 0.0011561261603871928 -0.0020264387225999345 -0.0017208516644494224 -0.0089166735431977697 -0.0020494809819628364 -0.0029205543423625482 -0.00020392683266197702 0.01317869400119652 -0.0023094044547517199 -0.0011698633375544886 0.0018921101723341116 -0.0031403416507563803 0.0067574343355816038 0.0028797823127189822 -0.00092004542781186534 -0.012158821150660516 -0.0004433911243245962 -0.0022565059103601937 0.0053641357828217396 -0.0022685933647581431 0.0062413684814237062 0.0060305803275221724 0.0024223434187891617 -0.0021545841178687462 -0.00084650705774402021 -0.011653996857681446 -6.0085048238757015e-05 0.00031619051137047531
leaf_weight=196821 14523 103 46 151 226 21 23 29 179 23 43 32 89 49 21 55 62 28 185 73 22 34 20 23 71 22 100 21 4040 498
leaf_count=196821 14523 103 46 151 226 21 23 29 179 23 43 32 89 49 21 55 62 28 185 73 22 34 20 23 71 22 100 21 4040 498
internal_value=0 -2.68183e-05 -0.000127707 -0.000643663 -0.00180417 -0.00230852 -0.005327 -0.000368347 -0.000156347 0.000335163 0.00154224 0.0052424 -0.000595841 -8.91981e-05 -0.000946234 -0.00197783 -0.00405198 -0.00745865 0.000290674 -4.95071e-05 0.00149214 0.000785106 0.00995203 0.00182467 0.000903373 -0.0012835 -0.00263486 -0.00679383 5.55075e-05 0.000832536
internal_weight=0 20812 6289 1648 316 270 44 1332 1181 728 317 97 411 220 453 247 119 57 206 128 54 171 43 128 105 322 143 43 4641 601
internal_count=217633 20812 6289 1648 316 270 44 1332 1181 728 317 97 411 220 453 247 119 57 206 128 54 171 43 128 105 322 143 43 4641 601
shrinkage=0.05


Tree=257
num_leaves=31
num_cat=0
split_feature=27 18 17 12 40 9 11 40 4 4 11 5 3 16 37 32 1 18 7 11 13 16 18 40 20 40 20 11 11 19
split_gain=0.0071609 0.031199 0.095277 0.0373996 0.0515209 0.068378 0.0603313 0.0432431 0.0302686 0.17707 0.0378751 0.0286746 0.0286729 0.0594457 0.217124 0.034515 0.0495739 0.044892 0.021786 0.0211211 0.0338852 0.0207435 0.0286148 0.0160329 0.0152802 0.0149138 0.0117575 0.0436519 0.138525 0.0880989
threshold=91.481750000000019 0.0042538100000000011 6.1187250000000013e-05 0.00010629050000000001 0.86046950000000011 -1.0145249999999997e-05 3.3784900000000002e-05 -0.51801999999999981 1.5563800000000001 1.1247450000000001 -0.00035055549999999991 2.7325850000000002e-05 -8.216879999999998 6.5238050000000013e-06 0.00046534500000000004 11.695650000000002 -6.5414749999999993 -5.2324399999999995e-06 3.8223600000000004e-05 -5.9599849999999995e-05 8.383530000000002e-05 3.3134750000000005e-06 1.3181750000000001e-05 -1.9559624999999998 7.745845000000001 1.2849435000000005 -14.223749999999997 -9.3323749999999985e-05 -8.0872649999999985e-05 0.0018060550000000002
decision_type=2 2 2 2 2 2 2 2 2 2 2 2 2 2 2 2 2 2 2 2 2 2 2 2 2 2 2 2 2 2
left_child=26 3 -3 8 5 -5 -7 -8 9 10 -2 -4 15 21 -15 19 -17 18 -18 23 -21 22 -14 -12 -10 -6 27 29 -29 -1
right_child=1 2 11 4 25 6 7 -9 24 -11 12 -13 13 14 -16 16 17 -19 -20 20 -22 -23 -24 -25 -26 -27 -28 28 -30 -31
leaf_value=-0.0017161148075907691 0.0020732162144122416 0.002907498536617769 -0.00052725576261054613 -0.0037799368636534875 0.0010948005724155034 0.00099969294628706492 -0.00044195977201785098 -0.0032464178003094816 -0.00057371288388347475 0.0043516686191255958 -0.00030285074656906852 0.0012782116185227441 -6.3821166362342221e-05 -0.0011176984490232607 0.0054694619889646265 -0.0033470851123898423 -0.0028199863314512189 0.00027514626769851406 -0.00077161497761995569 -0.00015234838842490171 0.0016806987696327269 -0.0015275607093075373 0.0018617607465785113 -0.0019712326210537868 -0.0022014484945906418 -0.00032729790855830519 -3.7590513438476563e-07 0.0040694704278038171 0.00016390198040691346 0.00011701271551656475
leaf_weight=93 20 34 91 26 21 29 28 27 46 23 36 29 546 29 22 21 25 57 27 193 29 23 20 24 21 151 213934 23 1763 222
leaf_count=93 20 34 91 26 21 29 28 27 46 23 36 29 546 29 22 21 25 57 27 193 29 23 20 24 21 151 213934 23 1763 222
internal_value=0 -0.000105455 0.000571057 -0.000177603 -0.000694137 -0.00153923 -0.000845679 -0.00181869 -5.22483e-05 1.08755e-05 -8.22572e-05 -9.09345e-05 -0.000123236 8.62029e-05 0.00172382 -0.000448577 -0.00112261 -0.000694036 -0.00175641 -0.000137855 8.71037e-05 -5.55943e-05 4.2206e-06 -0.000970203 -0.0010839 -0.00015367 7.80042e-07 0.000118484 0.000214198 -0.000424196
internal_weight=0 1598 154 1444 282 110 84 55 1162 1095 1072 120 1052 640 51 412 130 109 52 282 222 589 566 60 67 172 216035 2101 1786 315
internal_count=217633 1598 154 1444 282 110 84 55 1162 1095 1072 120 1052 640 51 412 130 109 52 282 222 589 566 60 67 172 216035 2101 1786 315
shrinkage=0.05


Tree=258
num_leaves=31
num_cat=0
split_feature=35 3 3 16 1 16 40 8 40 40 9 2 33 18 2 4 9 40 31 2 2 2 40 43 23 13 12 21 2 21
split_gain=0.00654087 0.0391385 0.12707 0.0239833 0.0734075 0.0842039 0.0878534 0.0316769 0.0145207 0.0187828 0.0137019 0.018438 0.0116185 0.0881436 0.195416 0.115565 0.0505563 0.047585 0.0114782 0.104643 0.0882783 0.0385904 0.0834721 0.0631781 0.0477226 0.0446175 0.0616019 0.0285315 0.0162915 0.0970246
threshold=-4.3203749999999994 -15.040049999999999 -16.131449999999997 2.7687200000000004e-06 -8.2705599999999979 2.6355450000000002e-05 -0.60254799999999997 -1.2343799999999997e-05 -0.86218949999999983 0.80350500000000014 -0.00011370949999999999 2.7562500000000005 0.0031288150000000005 -9.6173349999999976e-06 -2.2522399999999996 -0.88881949999999998 4.1938750000000006e-06 0.60008550000000016 11.617550000000001 2.9632050000000003 2.7810200000000003 -2.4290249999999998 -0.43704099999999996 1.9902050000000007 -12.359599999999999 -5.1489599999999996e-05 0.00015956650000000002 -0.34303649999999991 -2.1540499999999994 1.6414900000000003
decision_type=2 2 2 2 2 2 2 2 2 2 2 2 2 2 2 2 2 2 2 2 2 2 2 2 2 2 2 2 2 2
left_child=1 2 -1 10 -5 6 -6 -7 -9 -10 -3 -12 18 14 -14 16 -16 -18 -2 20 21 22 23 -20 -24 26 -23 -25 29 -27
right_child=12 3 -4 4 5 7 -8 8 9 -11 11 -13 13 -15 15 -17 17 -19 19 -21 -22 25 24 27 -26 28 -28 -29 -30 -31
leaf_value=-0.00087924688252953912 8.0829842276761635e-07 0.0011772173851135276 0.0035852131504465696 0.002155208559706807 -0.00024722142530103717 0.0011783354594141809 -0.00401912650834818 6.4205023541895529e-06 -0.00237057198907926 -0.00030445819905832073 -5.5790206126884319e-05 -0.0012897407603077228 0.0058733196527464317 -0.00019036600017650267 -0.0018169397028702265 0.0029197054786386113 0.0024869333783863116 -0.0007063078822674081 0.0021834144390279263 -0.0031804868294914614 0.0024227674137150376 -0.00011253949051024393 -0.0012386188490684921 -0.0024452042469056325 -0.0045456464982999026 0.0035755556686559603 -0.0036498951150861106 -3.7828991844435228e-05 -2.5961298317625747e-05 -0.00062141745546909991
leaf_weight=37 215225 21 28 20 26 30 38 37 22 22 561 32 20 341 38 36 20 28 23 28 34 32 24 20 20 21 20 32 757 40
leaf_count=37 215225 21 28 20 26 30 38 37 22 22 561 32 20 341 38 36 20 28 23 28 34 32 24 20 20 21 20 32 757 40
internal_value=0 -0.000136508 0.00104391 -0.00023135 -0.000714428 -0.00104239 -0.00248679 -0.000209577 -0.000723619 -0.00133752 -7.79291e-05 -0.000122378 5.50418e-07 0.000245506 0.00129221 0.000541211 -0.000454438 0.000624209 3.36944e-09 -0.000164831 -8.2291e-05 -0.00016841 -0.00101291 1.38559e-06 -0.00274181 -5.28987e-05 -0.00147306 -0.000963743 3.73805e-05 0.000823442
internal_weight=0 874 65 809 195 175 64 111 81 44 614 593 216759 483 142 122 86 48 216276 1051 1023 989 119 75 44 870 52 52 818 61
internal_count=217633 874 65 809 195 175 64 111 81 44 614 593 216759 483 142 122 86 48 216276 1051 1023 989 119 75 44 870 52 52 818 61
shrinkage=0.05


Tree=259
num_leaves=31
num_cat=0
split_feature=27 18 3 13 12 40 9 31 22 12 12 16 28 40 40 14 16 11 0 9 21 18 15 8 17 20 0 40 40 43
split_gain=0.00646105 0.0281149 0.0886416 0.223881 0.0327051 0.0465976 0.0589556 0.0604438 0.0275103 0.0963023 0.0416177 0.064333 0.111545 0.0551623 0.0531011 0.0276407 0.0460151 0.0251976 0.0188552 0.0181196 0.0222852 0.0141894 0.0240039 0.0136379 0.0112853 0.0107425 0.0513102 0.165288 0.317015 0.275762
threshold=91.481750000000019 0.0042538100000000011 -11.746199999999998 0.00037732250000000004 0.00010629050000000001 0.77415 -1.0145249999999997e-05 -13.003849999999998 -2.2401749999999994 -9.3922149999999983e-05 -0.00014946199999999997 6.5238050000000013e-06 -1.7331449999999997 -0.19934349999999995 0.10022550000000004 0.0072893450000000009 3.9398900000000012e-06 3.6265250000000003e-05 5.9730150000000011 4.1938750000000006e-06 8.0248800000000013 0.00016883300000000004 -4.8581699999999991e-06 -3.3519149999999992e-05 8.9200350000000011e-05 -12.926599999999999 -11.535399999999997 -0.14969009999999991 0.10022550000000004 0.39187000000000044
decision_type=2 2 2 2 2 2 2 2 2 2 2 2 2 2 2 2 2 2 2 2 2 2 2 2 2 2 2 2 2 2
left_child=25 4 3 -3 8 6 -6 -8 9 -2 13 15 -13 19 -15 16 21 -9 -14 -10 -21 22 -12 -7 -4 26 27 -1 29 -29
right_child=1 2 24 -5 5 23 7 17 10 -11 11 12 18 14 -16 -17 -18 -19 -20 20 -22 -23 -24 -25 -26 -27 -28 28 -30 -31
leaf_value=-0.0011781847583138031 0.0038417685698368589 0.0051098631566856055 -0.0013864067937068589 -0.00085817400567148895 -0.0035421304713683919 0.00091079792149107916 -0.0029838970583944543 0.0012019915258861147 -0.0007801777839473368 -0.0002634600189048797 -0.0017260064257160678 0.0044394155520421918 -0.00086221408031027149 -0.0042438312416197737 -0.00068407496979819955 0.0016594990537917263 -0.002092353051030559 -0.00087929360169889119 0.0011893097366347709 -0.00032842298754812442 0.0016994193821301452 0.0012506803592259531 -4.992321392268442e-05 -0.00033085571158645091 -0.00012282063527972744 -5.7454264127845801e-07 4.5255045172421169e-05 0.0013732292084023357 -7.3830312895653265e-05 0.0095768294585425236
leaf_weight=58 20 30 24 33 26 26 23 26 92 50 22 22 24 20 22 22 29 33 21 42 20 20 736 148 67 213069 2804 20 63 21
leaf_count=58 20 30 24 33 26 26 23 26 92 50 22 22 24 20 22 22 29 33 21 42 20 20 736 148 67 213069 2804 20 63 21
internal_value=0 -0.000100169 0.000542035 0.00198375 -0.000168659 -0.000651687 -0.0014675 -0.00080969 -5.14349e-05 0.000909462 -0.000113031 3.13373e-05 0.00152163 -0.000773 -0.0023792 -8.91089e-05 -0.000136779 3.78829e-05 9.51637e-05 -0.000334946 0.00032572 -6.38843e-05 -9.85694e-05 -0.000145321 -0.000456074 7.40944e-07 9.52418e-05 0.000960444 0.00215314 0.00557507
internal_weight=0 1598 154 63 1444 282 108 82 1162 70 1092 896 67 196 42 829 807 59 45 154 62 778 758 174 91 216035 2966 162 104 41
internal_count=217633 1598 154 63 1444 282 108 82 1162 70 1092 896 67 196 42 829 807 59 45 154 62 778 758 174 91 216035 2966 162 104 41
shrinkage=0.05


Tree=260
num_leaves=31
num_cat=0
split_feature=7 2 26 2 36 23 21 8 44 40 40 18 38 23 8 43 2 40 43 3 30 9 20 35 0 8 11 10 30 39
split_gain=0.00638066 0.0258918 0.0220437 0.0383353 0.0891497 0.0246912 0.0840956 0.237543 0.0410486 0.056288 0.255626 0.172177 0.12727 0.186677 0.0978473 0.0300303 0.020949 0.0814133 0.0208039 0.0134172 0.0320207 0.011886 0.0279692 0.0141513 0.0398429 0.0124582 0.0113726 0.011027 0.0264256 0.0670892
threshold=2.2278700000000004e-05 3.0794900000000003 -7.2484149999999989e-05 -2.4792649999999994 -0.00039708999999999995 -8.5113849999999989 -8.6662999999999979 8.6517600000000013e-06 -0.81248999999999982 -0.19934349999999995 0.12375499999999996 -8.547639999999998e-05 -0.00018373199999999995 -11.621199999999998 -6.8290849999999985e-06 -0.36707999999999957 2.2358750000000005 0.22528099999999995 0.078545000000000101 -14.176449999999997 0.0017982300000000003 1.7091500000000004e-05 4.1736500000000012 0.098593250000000007 3.8423200000000004 1.6057000000000002e-05 0.00016154350000000003 1.6290050000000002e-05 0.12582950000000004 0.34276850000000003
decision_type=2 2 2 2 2 2 2 2 2 2 2 2 2 2 2 2 2 2 2 2 2 2 2 2 2 2 2 2 2 2
left_child=1 2 3 4 -1 6 7 -4 19 -10 11 -11 13 -13 -14 -16 21 -18 -17 20 -8 23 -23 25 -25 -5 -12 28 -2 -30
right_child=27 -3 5 16 -6 -7 8 -9 9 10 26 12 14 -15 15 18 17 -19 -20 -21 -22 22 -24 24 -26 -27 -28 -29 29 -31
leaf_value=-0.0040585801088855082 -3.8374766827857162e-05 0.00184663244523108 0.00018488480964371716 -9.1347800326914311e-06 6.5594761575706994e-05 -3.8089436824209231e-05 -8.2158993489695319e-05 0.0062323507352134173 -7.1281438085927639e-05 0.0066865064195008013 -7.8935245605502233e-05 0.001296457554191624 0.0028864479593014242 0.0075755906707490805 -0.0019061779680972298 0.0015410871815956422 -0.0028556302530319045 -5.0622189117819763e-05 -0.00055722936931825069 -3.9990048892654602e-05 0.002358142094089999 -0.00023829216610037667 0.0019647674295993059 -0.00010302398668595983 -0.0024223441455156402 0.00091894632149322551 0.0011478301206943797 2.6855083602487975e-06 0.0021772566394189351 9.363250678667972e-05
leaf_weight=20 24274 20 62 1592 38 1620 41 22 345 20 341 29 36 20 21 21 32 135 27 1365 20 34 25 95 23 37 20 187034 47 217
leaf_count=20 24274 20 62 1592 38 1620 41 22 345 20 341 29 36 20 21 21 32 135 27 1365 20 34 25 95 23 37 20 187034 47 217
internal_value=0 5.05821e-05 4.46359e-05 -8.9571e-05 -0.00135653 0.00011261 0.000214757 0.00176874 0.00015815 0.00042669 0.000747811 0.00232206 0.00175525 0.00385937 0.000773334 -0.000329161 -5.23262e-05 -0.000588109 0.000360784 -7.56809e-06 0.00071794 -2.78267e-06 0.000695208 -2.63553e-05 -0.000555095 1.1945e-05 -1.09704e-05 -1.44905e-06 -3.29636e-05 0.000464581
internal_weight=0 6061 6041 2031 58 4010 2390 84 2306 880 535 174 154 49 105 69 1973 167 48 1426 61 1806 59 1747 118 1629 361 211572 24538 264
internal_count=217633 6061 6041 2031 58 4010 2390 84 2306 880 535 174 154 49 105 69 1973 167 48 1426 61 1806 59 1747 118 1629 361 211572 24538 264
shrinkage=0.05


Tree=261
num_leaves=31
num_cat=0
split_feature=31 43 20 14 9 37 2 32 33 18 26 7 3 33 40 12 2 11 43 0 43 40 22 41 40 2 30 20 27 2
split_gain=0.00629052 0.0315387 0.142479 0.124614 0.109735 0.152955 0.172093 0.497761 0.119759 0.168226 0.287537 0.258225 0.413223 0.115863 0.128862 0.11104 0.142953 0.15855 0.107602 0.095309 0.138093 0.122105 0.14339 0.100067 0.650921 0.420613 0.45525 0.410073 0.273472 0.26997
threshold=-0.29411049999999994 -0.026199999999999776 1.4617650000000004 5.2171950000000005e-05 3.2410900000000003e-06 -1.6329399999999996e-05 -1.1556049999999998 1.1329200000000001 3.0144100000000005e-05 6.9277650000000016e-07 -0.00015596749999999997 4.1854750000000001e-05 -12.585899999999999 -3.1324499999999988e-05 0.1751400000000001 -0.00023276599999999997 -0.62905449999999996 4.247685000000001e-05 -3.7428349999999995 9.7069050000000008 -0.88227999999999918 0.22528099999999995 0.25066200000000005 -0.30357199999999979 -0.17527649999999997 -1.1556049999999998 0.0053263050000000008 3.5249450000000002 1.0089350000000004 -0.51300099999999993
decision_type=2 2 2 2 2 2 2 2 2 2 2 2 2 2 2 2 2 2 2 2 2 2 2 2 2 2 2 2 2 2
left_child=1 2 4 -4 -1 -6 7 -7 9 13 11 12 -11 -8 -15 18 17 -17 -10 23 -21 22 -22 -5 -25 -26 27 29 -29 -27
right_child=-2 -3 3 19 5 6 8 -9 15 10 -12 -13 -14 14 -16 16 -18 -19 -20 20 21 -23 -24 24 25 26 -28 28 -30 -31
leaf_value=-7.8084388151182806e-05 3.3224274733873013e-06 1.2944690803816609e-05 -0.0041377410894347126 4.4137873226441384e-06 0.0050585031673836059 -0.0008095297633917653 -0.00048894023654528693 0.0074862095262770633 -0.00051121584309095694 0.0021203806562810385 -0.00048964996420016349 0.0010594186730882847 0.011218566286121738 0.0046851973665000589 -0.00051422914802969901 -0.00038837162548746996 -0.00017114755727476449 -0.0063974222308301942 0.0043298704168440363 -0.0022762302856426686 0.0064600070375017823 -0.00070028991897495211 0.0011565564062038902 -6.7583658912437463e-05 -0.0086964348098263148 -0.00069233575452338255 -0.0034168800690384648 -0.0067234410813481115 -0.00099375143527700299 0.0052397760620144923
leaf_weight=840 188793 20024 20 3133 20 40 165 33 22 26 55 39 24 26 22 23 256 21 24 20 25 22 26 3205 21 34 218 22 390 44
leaf_count=840 188793 20024 20 3133 20 40 165 33 22 26 55 39 24 26 22 23 256 21 24 20 25 22 26 3205 21 34 218 22 390 44
internal_value=0 -2.17493e-05 -0.000100551 -0.000196499 0.000320544 0.000741207 0.000629936 0.0029406 0.000389996 0.00103246 0.00235251 0.00410891 0.00648751 0.000140033 0.00230213 -0.000272896 -0.000623641 -0.00325633 0.00201457 -0.00018549 0.00140473 0.00241321 0.00375629 -0.000206417 -0.000374321 -0.00172287 -0.00151603 -0.000670343 -0.00129971 0.00265398
internal_weight=0 28840 8816 7180 1636 796 776 73 703 357 144 89 50 213 48 346 300 44 46 7160 93 73 51 7067 3934 729 708 490 412 78
internal_count=217633 28840 8816 7180 1636 796 776 73 703 357 144 89 50 213 48 346 300 44 46 7160 93 73 51 7067 3934 729 708 490 412 78
shrinkage=0.05


Tree=262
num_leaves=31
num_cat=0
split_feature=35 15 15 41 40 15 44 40 34 41 23 16 18 31 37 35 31 25 39 44 5 20 3 44 10 44 4 24 18 33
split_gain=0.00633725 0.151989 0.122241 0.116422 0.753171 0.550338 0.492938 0.476315 0.660927 0.561299 0.636899 0.579856 0.501375 0.463605 0.443531 0.605063 0.561888 0.329815 0.629406 0.335725 0.327138 0.274164 0.34758 0.473597 0.30338 0.409225 0.279168 0.266122 0.267571 0.249277
threshold=0.00022570750000000002 1.8501250000000005e-08 -3.1922299999999996e-08 0.17390849999999994 0.14973499999999998 8.0636700000000017e-06 -2.5406249999999995 -0.040859549999999939 0.019281500000000003 -0.057539999999999918 -11.167499999999999 9.6924450000000025e-07 -4.7987299999999999e-06 -0.94976349999999987 -2.5915349999999997e-08 0.0074054250000000011 -0.079647699999999974 1.5225300000000004 0.00047625050000000001 -0.02750999999999992 1.1681100000000001e-05 5.3163050000000007 -8.6206849999999999 2.1563400000000006 1.3587550000000002e-05 0.50668999999999997 -0.13885249999999996 0.57845200000000008 2.7404500000000002e-08 -0.00014064699999999996
decision_type=2 2 2 2 2 2 2 2 2 2 2 2 2 2 2 2 2 2 2 2 2 2 2 2 2 2 2 2 2 2
left_child=2 -2 -1 4 5 6 -3 8 -8 10 11 12 -9 -10 21 16 -16 -12 19 -19 -17 22 23 24 -15 26 -26 28 -20 -7
right_child=1 3 -4 -5 -6 29 7 9 13 -11 17 -13 -14 14 15 20 -18 18 27 -21 -22 -23 -24 -25 25 -27 -28 -29 -30 -31
leaf_value=4.6304855453386441e-05 -5.1602472208359618e-05 -0.0002590395635788576 -5.2897121195953791e-05 -1.4943463891528173e-06 1.3147804706282454e-05 0.0032278899923264188 -0.00055713622932671567 0.0043841546447947622 -0.0010006210513655905 0.00069584923856171976 -6.6324487715621589e-05 0.0018123637040844188 0.014829031716066379 0.0012271018943283707 0.017374828597530725 0.0005549900308583996 0.0056646824177914827 0.01271923836743967 -0.00021241843700408938 0.0038808066198336225 0.0067170849816258335 -0.00092026311888874178 0.00034466260396864249 -0.0012366255985714657 0.0015652735238704321 0.014301655925810336 0.0086776771658175697 -0.0038249787027862941 0.0072537671655300076 -0.00050943581130928292
leaf_weight=57424 48168 585 67623 22998 17177 47 118 20 46 1898 129 34 27 20 21 35 20 22 30 21 56 38 52 23 22 20 37 22 20 880
leaf_count=57424 48168 585 67623 22998 17177 47 118 20 46 1898 129 34 27 20 21 35 20 22 30 21 56 38 52 23 22 20 37 22 20 880
internal_value=0 9.91567e-06 -7.34166e-06 7.66275e-05 0.000160505 0.000757051 0.00105813 0.00134028 0.0027216 0.00102462 0.00294463 0.00678626 0.0103844 0.00371362 0.00434402 0.00661929 0.0116626 0.00166933 0.00361629 0.00840279 0.00434705 0.00292734 0.00376762 0.00522658 0.00672813 0.0081208 0.00602559 0.000757684 0.00277406 -0.000319949
internal_weight=0 92586 125047 44418 21420 4243 3316 2731 508 2223 325 81 47 390 344 132 41 244 115 43 91 212 174 122 99 79 59 72 50 927
internal_count=217633 92586 125047 44418 21420 4243 3316 2731 508 2223 325 81 47 390 344 132 41 244 115 43 91 212 174 122 99 79 59 72 50 927
shrinkage=0.05


Tree=263
num_leaves=31
num_cat=0
split_feature=41 40 28 3 20 40 30 9 43 21 41 1 6 33 15 0 1 32 29 40 22 29 21 16 4 22 33 6 21 1
split_gain=0.00665847 0.0749133 0.117478 0.301196 0.322137 0.360636 0.455136 0.494756 0.280174 0.325481 0.275352 0.260907 0.246269 0.287965 0.392345 0.256545 0.188049 0.16539 0.131657 0.130459 0.191185 0.127545 0.392832 0.301305 0.435593 0.504845 0.210294 0.202819 0.38766 0.378179
threshold=0.27484500000000006 -0.018010000000000078 -0.071195649999999985 -17.304849999999998 -4.8420449999999997 -0.079468000000000025 0.0095837200000000022 -2.5009899999999996e-05 0.93421999999999994 -9.853489999999999 0.17390849999999994 -3.8531599999999995 6.0096700000000009e-07 5.5000250000000006e-05 1.2060150000000002e-06 -4.1331249999999988 -5.0594749999999991 1.7034250000000002 0.55826100000000012 -0.10081500000000009 -1.6408499999999997 -0.0086682099999999974 -7.375894999999999 2.4065350000000007e-07 -0.42458499999999993 -0.61801149999999982 9.4351100000000012e-06 -1.5427749999999998e-06 -3.1868999999999996 -2.5377799999999993
decision_type=2 2 2 2 2 2 2 2 2 2 2 2 2 2 2 2 2 2 2 2 2 2 2 2 2 2 2 2 2 2
left_child=1 2 3 -1 5 6 7 -5 12 10 -10 16 15 14 -14 -6 -11 -15 -8 -17 -21 22 23 -4 -25 26 -26 -24 29 -29
right_child=-2 -3 21 4 8 -7 18 -9 9 11 -12 -13 13 17 -16 19 -18 -19 -20 20 -22 -23 27 24 25 -27 -28 28 -30 -31
leaf_value=0.0042996817752156925 9.8122595666581812e-06 4.1208406092565737e-06 0.00013232503942372904 0.0014602965438825777 -0.0064183138756324426 -0.0024991691811241225 -0.00057380678104032037 0.012108369966736063 0.0055424065658977876 -0.00123738407635936 -0.0012102035062315946 -0.0062846682426472471 -0.010856180417449063 0.0012786002215844664 -0.0020047097391354676 -0.0021092077490932641 0.0038246053023613062 -0.0049249224215080697 0.0033469119625286637 0.0040472246141039902 -0.0016526173492292723 -0.00018954483141788038 0.00071182186050108745 -0.00018401516984643725 0.00079826138440134515 0.013288724829908461 0.0075254941712392751 0.00022361977244413726 -0.000845985493689949 0.0041944245311974727
leaf_weight=29 96350 111070 78 24 23 63 91 20 36 222 26 24 31 22 21 73 20 21 28 28 31 7159 733 36 26 20 21 271 959 77
leaf_count=29 96350 111070 78 24 23 63 91 20 36 222 26 24 31 22 21 73 20 21 28 28 31 7159 733 36 26 20 21 271 959 77
internal_value=0 -7.79508e-06 -0.000137385 -0.000706435 -0.000887003 0.000713557 0.00195529 0.00630033 -0.00151283 -0.000551762 0.00271067 -0.00131218 -0.00277375 -0.00477826 -0.00728155 -0.00154518 -0.000819038 -0.00175103 0.000348715 -0.000696068 0.00105239 -8.685e-05 0.000244169 0.00247658 0.00425185 0.00663529 0.00380405 4.60966e-05 -0.00032726 0.00110222
internal_weight=0 121283 10213 833 804 226 163 44 578 328 62 266 250 95 52 155 242 43 119 132 59 9380 2221 181 103 67 47 2040 1307 348
internal_count=217633 121283 10213 833 804 226 163 44 578 328 62 266 250 95 52 155 242 43 119 132 59 9380 2221 181 103 67 47 2040 1307 348
shrinkage=0.05


Tree=264
num_leaves=31
num_cat=0
split_feature=3 21 1 4 25 21 1 14 11 16 30 15 1 21 26 17 40 15 8 4 28 34 4 36 11 10 11 21 3 17
split_gain=0.00634459 0.048613 0.147625 0.356865 0.116992 0.0330613 0.207035 0.0878934 0.0220885 0.0163284 0.0158541 0.030886 0.0156248 0.162281 0.193143 0.186008 0.339721 0.0632995 0.132993 0.0197303 0.0149543 0.162945 0.0145297 0.0132398 0.0466256 0.140305 0.0662746 0.0889859 0.0459599 0.0290917
threshold=-5.5710999999999995 -13.876599999999998 -8.8547249999999984 -0.11271049999999998 4.5134100000000013 18.392150000000004 8.8482550000000018 7.8713900000000012e-05 -3.5635449999999991e-05 2.3057600000000002e-06 0.064526950000000013 -1.5418149999999998e-06 11.597950000000003 11.881850000000002 -4.6143649999999993e-05 1.0181200000000001e-07 0.077348000000000056 -5.1704799999999995e-08 -1.5638649999999996e-05 0.090019550000000018 0.051198250000000008 0.091607350000000018 0.060991550000000005 1.20103 -0.00027218349999999996 2.6635100000000002e-05 -0.00037784299999999994 -5.6560049999999995 -18.627349999999996 1.3649650000000004e-06
decision_type=2 2 2 2 2 2 2 2 2 2 2 2 2 2 2 2 2 2 2 2 2 2 2 2 2 2 2 2 2 2
left_child=12 2 3 -2 -5 10 -7 -8 -4 -10 -3 -12 23 20 19 17 -17 -16 -19 22 -14 -22 -15 -1 25 -25 -27 -28 -26 -30
right_child=1 5 8 4 -6 6 7 -9 9 -11 11 -13 13 14 15 16 -18 18 -20 -21 21 -23 -24 24 28 26 27 -29 29 -31
leaf_value=2.0278328786746508e-07 0.0075109433168999359 1.5119287387433582e-05 0.0015239539944468562 0.0039942020644230065 -0.00035610866158790225 -0.00082450275292489318 0.0013904267217731104 0.0060780004160915268 -6.9677925531529052e-05 -0.0014723102826594741 -0.0017587793803506752 -0.00016948344177207617 9.2613515773186427e-06 0.00036203093068879443 0.0004761633507625543 -0.0077495082670689698 0.00029467251743404803 -0.0048238053385620547 -7.3357745307422355e-05 -0.00096386323261651256 -0.0047183069324046303 -4.7899379328813386e-05 0.0019248777629400139 0.0044900580398028805 -0.0021075822483614883 -0.00051519098944316445 -0.00037478838825005703 0.0042333848270936876 -2.1255487069150433e-05 -0.00043369308246231722
leaf_weight=181832 24 28797 20 20 68 66 20 20 212 23 34 303 3561 58 38 35 21 26 34 21 20 282 20 21 31 110 22 20 1214 660
leaf_count=181832 24 28797 20 20 68 66 20 20 212 23 34 303 3561 58 38 35 21 26 34 21 20 282 20 21 31 110 22 20 1214 660
internal_value=0 2.1514e-05 0.000593394 0.00210653 0.000632598 1.43362e-05 0.000895768 0.00373421 -7.11991e-05 -0.000206957 1.11292e-05 -0.000329828 -3.38764e-06 -9.97336e-05 -0.00132652 -0.00243418 -0.00473294 -0.0011206 -0.00213189 0.000396507 -1.93875e-05 -0.000357198 0.000762761 -1.23137e-06 -0.000126725 0.000659206 0.000129943 0.00181958 -0.000198098 -0.000166511
internal_weight=0 29607 367 112 88 29240 106 40 255 235 29134 337 188026 4116 253 154 56 98 60 99 3863 302 78 183910 2078 173 152 42 1905 1874
internal_count=217633 29607 367 112 88 29240 106 40 255 235 29134 337 188026 4116 253 154 56 98 60 99 3863 302 78 183910 2078 173 152 42 1905 1874
shrinkage=0.05


Tree=265
num_leaves=31
num_cat=0
split_feature=21 44 12 19 22 43 29 23 3 23 12 32 12 40 30 1 12 14 1 40 25 28 6 22 10 31 0 20 13 26
split_gain=0.00618752 0.0328726 0.119175 0.233391 0.193576 0.0495694 0.190972 0.0349621 0.034413 0.032219 0.0291178 0.028163 0.0416018 0.0520522 0.0353552 0.0309276 0.0486275 0.0944657 0.043384 0.100537 0.16753 0.0278997 0.023168 0.0846794 0.16718 0.0265094 0.0510317 0.0842019 0.0201122 0.0143046
threshold=13.390900000000002 -0.52047500000000058 0.00010937550000000001 5.4568300000000011e-05 2.0895950000000005 0.93421999999999994 -0.034806349999999993 -13.08405 -6.7538149999999986 -6.8138849999999991 8.9791600000000009e-05 -7.1146499999999993 0.00011228600000000002 0.5456565000000001 0.16934650000000004 9.8382400000000008 0.00014174050000000004 0.00018327650000000005 8.267730000000002 0.1751400000000001 1.8789550000000002 0.0031871250000000003 -1.6374549999999998e-06 0.13387500000000005 3.1005150000000009e-05 0.69959700000000014 -0.18994549999999996 -2.7544749999999998 4.282900000000001e-06 0.019037100000000005
decision_type=2 2 2 2 2 2 2 2 2 2 2 2 2 2 2 2 2 2 2 2 2 2 2 2 2 2 2 2 2 2
left_child=-1 2 5 -4 -5 6 -2 -3 -8 -10 29 12 -9 -14 15 18 17 21 22 20 -20 -17 23 24 -13 -24 27 -27 -23 -7
right_child=1 7 3 4 -6 10 8 11 9 -11 -12 14 13 -15 -16 16 -18 -19 19 -21 -22 28 25 -25 -26 26 -28 -29 -30 -31
leaf_value=-1.0375498359962097e-06 0.0041546245883364464 -0.0019903888794310068 0.0053717519194833585 -0.00051950031272625841 0.0040876063320320101 -0.00010803123652023254 0.0017413887608927325 -0.00011792974417340733 -0.0020695403088830063 7.7702186436273885e-05 -0.0015602263824773892 -0.00032467502264807994 -0.0031287934549430749 5.1265544727191981e-05 0.002065793255834641 -0.0012272117778775284 -0.0015024702297523618 0.0040210202693149611 3.4527703327631063e-05 0.00042153422755654901 -0.006222547850957199 0.00028458407837855966 -3.3195366203112711e-05 4.9396451693626363e-05 0.0050731003405696988 -0.00049637436396699549 0.00040598191253400032 -0.004358949946860472 0.0021796985261192145 0.00038759155642119662
leaf_weight=214386 35 23 32 95 30 670 20 116 25 58 31 32 31 22 21 20 20 23 23 50 20 42 1068 396 26 43 47 21 21 186
leaf_count=214386 35 23 32 95 30 670 20 116 25 58 31 32 31 22 21 20 20 23 23 50 20 42 1068 396 26 43 47 21 21 186
internal_value=0 6.85051e-05 0.000278785 0.0015616 0.000586205 8.22946e-05 0.000963825 -5.18584e-05 -0.000120427 -0.000569058 -5.48545e-05 -3.00238e-05 -0.000648193 -0.00180877 2.57534e-05 2.62115e-06 0.000758857 0.00118552 -5.2585e-05 -0.00110301 -0.00287574 0.000399783 7.23727e-06 0.000310731 0.00209502 -0.00010963 -0.000845053 -0.00176378 0.000916289 -3.37499e-07
internal_weight=0 3247 1182 157 125 1025 138 2065 103 83 887 2042 169 53 1873 1852 126 106 1726 93 43 83 1633 454 58 1179 111 64 63 856
internal_count=217633 3247 1182 157 125 1025 138 2065 103 83 887 2042 169 53 1873 1852 126 106 1726 93 43 83 1633 454 58 1179 111 64 63 856
shrinkage=0.05


Tree=266
num_leaves=31
num_cat=0
split_feature=31 43 20 14 41 40 17 17 38 24 15 38 6 24 40 38 32 19 43 0 41 40 2 30 20 2 25 26 43 23
split_gain=0.006184 0.0286565 0.126689 0.112669 0.09841 0.360345 0.285204 0.307003 0.304557 0.282292 0.23436 0.258502 0.162731 0.253464 0.217865 0.142156 0.13936 0.11437 0.0992124 0.0830848 0.083411 0.509477 0.383519 0.409295 0.395769 0.33759 0.263154 0.245295 0.218878 0.246632
threshold=-0.29411049999999994 -0.026199999999999776 1.4617650000000004 5.2171950000000005e-05 0.70899650000000014 0.2761725000000001 2.5957000000000004e-06 4.3357350000000014e-06 -0.16268899999999997 -1.0674849999999998 1.5700050000000004e-06 -0.017735749999999998 7.5851700000000007e-07 0.86341500000000015 0.02582950000000005 0.025766600000000004 1.7034250000000002 1.091555e-08 -3.2877999999999998 10.606500000000002 -0.30357199999999979 -0.17527649999999997 -1.1556049999999998 0.0053263050000000008 3.3940200000000007 -0.51300099999999993 1.0236500000000002 0.031042450000000003 -0.71725499999999964 -11.231549999999999
decision_type=2 2 2 2 2 2 2 2 2 2 2 2 2 2 2 2 2 2 2 2 2 2 2 2 2 2 2 2 2 2
left_child=1 2 4 -4 5 6 9 -8 -9 -1 -10 -12 13 14 16 -14 -11 -7 -13 20 -5 -22 -23 24 25 -24 -26 -25 29 -28
right_child=-2 -3 3 19 -6 17 7 8 10 12 11 18 15 -15 -16 -17 -18 -19 -20 -21 21 22 23 27 26 -27 28 -29 -30 -31
leaf_value=0.005422303898792182 3.2941776461420654e-06 1.1506368048049334e-05 -0.0039347362719126975 3.8459566747236468e-06 -0.00021938478089228959 0.0031911320025196453 0.0089435310426937507 0.007761692636362884 0.0059691682136395856 -0.0012530215822271597 0.0039256135592810239 -0.00023688529524952176 0.00049465257383417337 -0.0031994588294764984 0.005173644492080914 -0.0052130170573946094 0.003272190957364661 -0.00018823481050330132 -0.0049615856434684254 0.0022891125971321292 -6.6533864605385721e-05 -0.0081712714163586497 -0.00060809678907389761 -0.0036785023871398156 -0.0064029875005045065 0.0065471097532067424 -0.0058373878349459937 0.0015746532808989288 0.00073958369100000714 -0.001099444040252718
leaf_weight=28 188793 20024 20 3148 585 26 23 23 21 46 26 25 20 30 36 24 27 676 20 34 3222 21 32 200 22 34 31 25 150 241
leaf_count=28 188793 20024 20 3148 585 26 23 23 21 46 26 25 20 30 36 24 27 676 20 34 3222 21 32 200 22 34 31 25 150 241
internal_value=0 -2.15644e-05 -9.66789e-05 -0.000187155 0.000300397 0.000589715 0.00190277 0.00367018 0.00261551 0.000746838 0.00132896 -4.34914e-05 3.14658e-05 0.000870342 0.00199047 -0.00261862 0.000420687 -6.30731e-05 -0.00233675 -0.000176687 -0.000188452 -0.000340627 -0.00150878 -0.00131843 -0.000534727 0.00307792 -0.00107174 -0.00309482 -0.000793809 -0.00163943
internal_weight=0 28840 8816 7180 1636 1051 349 138 115 211 92 71 183 139 109 44 73 702 45 7160 7126 3978 756 735 510 66 444 225 422 272
internal_count=217633 28840 8816 7180 1636 1051 349 138 115 211 92 71 183 139 109 44 73 702 45 7160 7126 3978 756 735 510 66 444 225 422 272
shrinkage=0.05


Tree=267
num_leaves=31
num_cat=0
split_feature=27 18 4 40 40 3 40 40 16 2 20 11 14 18 4 40 20 19 14 36 22 35 15 15 40 19 0 24 14 4
split_gain=0.00641054 0.0245734 0.0794186 0.0289908 0.155727 0.0988397 0.127563 0.0818153 0.274415 0.0400728 0.0275714 0.0209184 0.0176903 0.0547398 0.0215858 0.036191 0.0360409 0.0140508 0.0134524 0.0127236 0.0119769 0.0109492 0.108953 0.204959 0.188189 0.0655016 0.0565515 0.154682 0.0687582 0.0763533
threshold=91.481750000000019 0.0042538100000000011 2.7715550000000007 -0.17527649999999997 0.20129000000000011 -6.9704649999999999 0.056773999999999998 -0.60254799999999997 4.3089250000000013e-06 -1.7088249999999998 -3.3588049999999998 -0.00057958749999999996 0.0014874650000000001 3.3339000000000007e-05 -2.0429399999999993 0.77415 6.5101600000000008 4.583365000000001e-06 0.0056726700000000003 3.8353050000000004 -0.92553999999999992 -0.93075499999999989 -9.0272649999999983e-06 -1.7185949999999998e-05 0.68543200000000015 3.865525000000001e-10 -4.3615599999999999 1.3511250000000004 0.015505300000000001 -2.6817999999999995
decision_type=2 2 2 2 2 2 2 2 2 2 2 2 2 2 2 2 2 2 2 2 2 2 2 2 2 2 2 2 2 2
left_child=21 3 -3 7 5 6 -5 18 17 -6 -7 -4 13 -11 16 -16 19 -9 20 -14 -2 22 23 26 -25 -24 27 -1 -28 -30
right_child=1 2 11 4 9 10 -8 8 -10 12 -12 -13 14 -15 15 -17 -18 -19 -20 -21 -22 -23 25 24 -26 -27 28 -29 29 -31
leaf_value=3.349353013012054e-05 0.00093754755798727276 0.0028090714019102358 0.0013030039552256274 -0.0015089376355083943 0.002111700144596398 -0.0017502473525902525 -0.0062439400455914437 0.00087315164249351571 0.006643730401992798 -0.00013642620113688355 0.00073054323778099688 -0.00036778178103187467 5.2846555584384246e-05 0.0020191278501442869 -0.0024957436111955242 -0.00049291720032325153 0.0018650602901206269 -0.00066448031381393475 -0.00059650757520425795 -0.0015364943124586718 -7.774980870965243e-05 -3.0838299277860948e-07 0.0022405972918204497 0.0057607079843512259 -0.00016541105065871742 -0.00011986681858142437 -0.0012550835922998495 0.0041674127815592025 -0.00025824362505359619 0.0022554718040539781
leaf_weight=72 31 30 23 33 20 21 25 24 20 370 24 101 34 32 28 116 22 39 124 20 461 214184 30 37 21 1445 79 33 88 46
leaf_count=72 31 30 23 33 20 21 25 24 20 370 24 101 34 32 28 116 22 39 124 20 461 214184 30 37 21 1445 79 33 88 46
internal_value=0 -9.97766e-05 0.000500619 -0.000163808 -0.000380816 -0.00218559 -0.00354989 6.7482e-05 0.00154115 -9.12657e-05 -0.000427159 -5.7878e-05 -0.000162101 3.51602e-05 -0.00052255 -0.000882356 0.000159187 -7.87158e-05 -0.000131081 -0.000535798 -1.37778e-05 7.38043e-07 0.000121823 0.000881605 0.00361504 -7.18574e-05 0.000383053 0.00133273 -8.50955e-05 0.000604674
internal_weight=0 1598 154 1444 745 103 58 699 83 642 45 124 622 402 220 144 76 63 616 54 492 216035 1851 376 58 1475 318 105 213 134
internal_count=217633 1598 154 1444 745 103 58 699 83 642 45 124 622 402 220 144 76 63 616 54 492 216035 1851 376 58 1475 318 105 213 134
shrinkage=0.05


Tree=268
num_leaves=31
num_cat=0
split_feature=18 24 4 43 40 21 5 7 40 21 40 4 9 3 34 23 25 15 5 21 40 22 4 24 43 40 40 43 43 40
split_gain=0.00614456 0.112111 0.23991 0.293319 0.274605 0.604359 0.402201 0.333436 0.317089 0.365369 0.250229 0.220433 0.262517 0.185467 0.427716 0.180296 0.154757 0.146593 0.134277 0.0729328 0.0633554 0.0541814 0.0514177 0.31325 0.38287 0.435188 1.02629 0.598255 0.327564 0.733628
threshold=5.4626650000000007e-05 0.82362200000000019 2.1341250000000005 5.3602800000000004 -0.68744999999999989 1.8274200000000003 1.3994750000000002e-05 3.2484950000000001e-05 -0.14969009999999991 -3.3402249999999998 -0.027530000000000051 0.92648250000000021 -3.1376099999999993e-05 -16.722199999999997 6.2013600000000011 -11.970249999999998 29.284250000000004 -2.5159149999999997e-06 1.7744900000000004e-05 -2.6213749999999996 0.22528099999999995 0.15771100000000002 0.25745450000000009 0.24655200000000002 2.0339700000000001 -0.22452634999999985 0.2761725000000001 1.06199 -0.23716000000000023 -0.079468000000000025
decision_type=2 2 2 2 2 2 2 2 2 2 2 2 2 2 2 2 2 2 2 2 2 2 2 2 2 2 2 2 2 2
left_child=22 -2 3 4 -3 8 7 -7 9 -6 -8 16 -13 14 -4 20 17 -10 -12 -19 -14 -17 -1 -24 25 -25 27 28 -27 -30
right_child=1 2 13 -5 5 6 10 -9 11 -11 18 12 15 -15 -16 21 -18 19 -20 -21 -22 -23 23 24 -26 26 -28 -29 29 -31
leaf_value=-2.8199076810898953e-06 -3.2468090333875052e-05 -2.320432242934748e-05 -0.00079707426025111899 -0.0006486193917362228 0.0095691487259630652 0.0059077847335073687 0.011591445061378181 -0.0018134920787596113 -0.0038286195747787135 0.00012629912234842777 0.0078102273172979565 0.0059988602505584897 0.0047007559089078796 -0.00023167285694747125 0.0081502087849499236 -0.0003697834268962197 -0.0048091746073623655 0.0035536474472610286 0.0026542211992858465 -0.00066524673685697581 0.00081686482299119238 -0.0036872532020788642 -3.049697703168427e-05 -0.00014903404861819249 -6.5496835369695006e-05 0.0047548306158438584 9.4621292752325936e-06 0.0096469220084448651 0.010214206401724369 0.0010525326163692403
leaf_weight=160686 44029 171 34 187 21 27 25 29 20 20 28 26 21 1103 22 32 28 20 23 21 21 20 8655 402 1096 156 406 36 24 244
leaf_count=160686 44029 171 34 187 21 27 25 29 20 20 28 26 21 1103 22 32 28 20 23 21 21 20 8655 402 1096 156 406 36 24 244
internal_value=0 -1.62445e-05 0.000359906 0.00106323 0.00164211 0.00238757 0.00512453 0.00190927 0.000942455 0.00496288 0.00749368 0.00015376 0.00155219 -8.91554e-05 0.00271793 0.000322254 -0.00173176 -0.000319174 0.00548497 0.00139275 0.00275881 -0.00164573 4.3451e-06 0.00010883 0.000618929 0.00121051 0.00184162 0.0034587 0.00293328 0.00187298
internal_weight=0 45928 1899 740 553 382 132 56 250 41 76 209 120 1159 56 94 89 61 51 41 42 52 171705 11019 2364 1268 866 460 424 268
internal_count=217633 45928 1899 740 553 382 132 56 250 41 76 209 120 1159 56 94 89 61 51 41 42 52 171705 11019 2364 1268 866 460 424 268
shrinkage=0.05


Tree=269
num_leaves=31
num_cat=0
split_feature=41 40 26 3 19 16 19 19 26 18 30 40 26 12 18 20 43 43 19 35 19 34 40 3 20 9 21 21 8 6
split_gain=0.00647362 0.0604513 0.0966042 0.144954 0.22857 0.151782 0.145994 0.111852 0.100186 0.106794 0.0928106 0.0900388 0.119563 0.229503 0.192018 0.348622 0.202876 0.35357 0.147927 0.158608 0.0864849 0.0854816 0.308782 0.497479 0.450568 0.087979 0.373299 0.163037 0.448013 0.329569
threshold=0.32610899999999998 -0.018010000000000078 -0.013856449999999998 -8.1804699999999979 0.0074449800000000012 1.8237450000000004e-06 2.0550550000000007e-06 0.0011496050000000004 -0.0090542049999999975 6.9277650000000016e-07 0.35534200000000005 0.010257000000000018 0.00011582550000000002 0.00019908750000000003 1.4722200000000002e-07 6.1764750000000008 0.85052500000000031 2.1697850000000001 0.0035512250000000003 -0.024434799999999996 3.2780400000000001e-07 0.0037330700000000002 -0.058960000000000005 -6.8388149999999994 1.0000000180025095e-35 1.6205550000000003e-05 -12.635299999999999 -3.1868999999999996 4.4132950000000011e-06 -2.7591299999999996e-07
decision_type=2 2 2 2 2 2 2 2 2 2 2 2 2 2 2 2 2 2 2 2 2 2 2 2 2 2 2 2 2 2
left_child=1 2 3 4 6 -5 -1 -8 9 -4 21 12 -3 14 16 20 18 -18 19 -14 -16 22 -10 -24 -25 -23 -27 28 29 -28
right_child=-2 11 8 5 -6 -7 7 -9 10 -11 -12 -13 13 -15 15 -17 17 -19 -20 -21 -22 25 23 24 -26 26 27 -29 -30 -31
leaf_value=-0.00059684487176127734 9.8288513189927834e-06 0.00032722387889012189 0.00018820778350345791 -0.0014544858704158648 0.0017216410109540448 0.0033848206915606097 -0.0084039787573385091 -0.0034541393117979175 -0.00014089470654542234 0.0049719732358789771 -0.0035106985073070974 -5.1502234229796037e-06 -0.0042883815593086185 -0.0044434664299521556 -0.0033214070112444465 -0.0077583183894272562 0.0068146763086163759 -0.0001624272691633846 -0.0040498174667542722 0.00031173791499981488 0.00056894820260640702 -0.00017864828349833421 -0.00052499934146908343 -0.0026214902661740782 -0.01269014528952539 0.0051823002292722886 -0.00084836382672867985 -0.00011105534806459159 0.00031997573505616205 0.0064117221586962444
leaf_weight=20 94660 3781 28 43 22 26 21 25 557 20 20 106746 20 34 20 22 30 46 24 297 50 6822 80 25 20 36 22 3116 946 54
leaf_count=20 94660 3781 28 43 22 26 21 25 557 20 20 106746 20 34 20 22 30 46 24 297 50 6822 80 25 20 36 22 3116 946 54
internal_value=0 -7.56588e-06 -0.000114653 -0.00134672 -0.00269202 0.000369021 -0.00416324 -0.00571385 -9.8185e-05 0.00218144 -0.000107539 3.91031e-06 0.000227586 -0.000466206 -0.000200535 -0.00226808 0.000255615 0.00259169 -0.000265035 2.15096e-05 -0.000542582 -0.000101711 -0.000644895 -0.00289072 -0.00709645 -6.80209e-05 0.000112789 6.86848e-05 0.000616699 0.00431012
internal_weight=0 122973 11903 157 88 69 66 46 11746 48 11698 111070 4324 543 509 92 417 76 341 317 70 11678 682 125 45 10996 4174 4138 1022 76
internal_count=217633 122973 11903 157 88 69 66 46 11746 48 11698 111070 4324 543 509 92 417 76 341 317 70 11678 682 125 45 10996 4174 4138 1022 76
shrinkage=0.05


Tree=270
num_leaves=31
num_cat=0
split_feature=31 43 20 14 9 37 12 32 13 33 4 22 34 22 0 40 40 30 20 37 11 23 25 0 37 43 39 40 9 6
split_gain=0.00641486 0.0266945 0.113052 0.101402 0.0886974 0.128064 0.148894 0.409597 0.550724 0.123688 0.16424 0.281227 0.156688 0.0739635 0.0721602 0.0773257 0.454442 0.30925 0.273005 0.399462 0.255499 0.237038 0.236306 0.210989 0.365552 0.261462 0.262031 0.177295 0.157212 0.289892
threshold=-0.29411049999999994 -0.026199999999999776 1.4617650000000004 5.2171950000000005e-05 3.2410900000000003e-06 -1.6329399999999996e-05 -0.00034307199999999993 1.1329200000000001 8.055315000000001e-05 3.1908200000000007e-05 0.08589150000000001 0.15771100000000002 1.7130900000000002 1.4745750000000002 10.606500000000002 0.327845 -0.17527649999999997 0.0040086650000000007 3.5249450000000002 -9.0666849999999991e-07 3.0643750000000003e-05 -7.6117549999999996 1.0236500000000002 6.733010000000001 1.5076900000000002e-07 -1.6462299999999999 0.0043455600000000009 0.039429999999999972 2.8858450000000001e-05 1.6009700000000002e-06
decision_type=2 2 2 2 2 2 2 2 2 2 2 2 2 2 2 2 2 2 2 2 2 2 2 2 2 2 2 2 2 2
left_child=1 2 4 -4 13 -6 7 -7 -9 10 -8 -12 -13 -1 15 16 -5 18 19 -18 21 -19 -20 25 -25 -22 27 -27 29 -24
right_child=-2 -3 3 14 5 6 9 8 -10 -11 11 12 -14 -15 -16 -17 17 20 22 -21 23 -23 28 24 -26 26 -28 -29 -30 -31
leaf_value=-0.00016160050169849343 3.3551037142168777e-06 9.9553505418731305e-06 -0.0037352000502869488 -6.4683768720963828e-05 0.0046092476428020749 -0.00058341289830942907 -2.728149755502803e-05 0.012102376259863377 0.00036862492474028843 -0.0003819817530195233 0.0066925057113102031 0.00019340383870985534 0.0041667561462170192 0.0025474653804289683 0.0021279801225104807 5.3515005651230067e-06 -0.0023583227135241035 -0.0096017585642149926 -0.0060823731635041029 0.0058231764869462396 -0.0014381491810560138 -0.0026334611569137243 -0.0010519104712369406 0.0060476587328594181 -0.0017913781417581928 0.00042238337817885306 -0.0085043502308315404 -0.005931963538196648 -4.4401096764340766e-05 -0.007440950381582794
leaf_weight=814 188793 20024 20 3222 20 49 192 20 20 334 28 100 33 26 34 3126 25 23 22 37 126 26 92 20 58 23 33 21 250 22
leaf_count=814 188793 20024 20 3222 20 49 192 20 20 334 28 100 33 26 34 3126 25 23 22 37 126 26 92 20 58 23 33 21 250 22
internal_value=0 -2.19632e-05 -9.44608e-05 -0.000179929 0.000280637 0.000658833 0.000557018 0.00248127 0.0062355 0.000307734 0.000960327 0.0021381 0.00117927 -7.77485e-05 -0.000169998 -0.000180962 -0.000326566 -0.00141112 -0.000555557 0.00252418 -0.00257262 -0.00590429 -0.00105023 -0.00199165 0.000218631 -0.00284092 -0.00513636 -0.00261037 -0.000746091 -0.00228488
internal_weight=0 28840 8816 7180 1636 796 776 89 40 687 353 161 133 840 7160 7126 4000 778 448 62 330 49 386 281 78 203 77 44 364 114
internal_count=217633 28840 8816 7180 1636 796 776 89 40 687 353 161 133 840 7160 7126 4000 778 448 62 330 49 386 281 78 203 77 44 364 114
shrinkage=0.05


Tree=271
num_leaves=31
num_cat=0
split_feature=25 4 4 24 22 11 3 40 40 40 14 34 6 9 7 4 38 4 4 41 11 20 16 40 40 1 0 40 4 29
split_gain=0.00622103 0.0300222 0.138954 0.24028 0.290035 0.814707 0.27441 0.181629 0.433536 0.460821 0.18846 0.31599 0.295276 0.16114 0.140927 0.0545317 0.0545215 0.0604672 0.170874 0.205501 0.369228 0.347322 0.293399 0.192987 0.247779 0.337858 0.250734 0.258666 0.0783503 0.0841906
threshold=12.831100000000001 -0.54650249999999989 -1.4133199999999999 -0.62980599999999998 2.5166800000000005 -4.858219999999999e-05 -16.131449999999997 0.80350500000000014 -0.51801999999999981 -0.19934349999999995 0.0032042350000000002 0.66511650000000011 1.0000000180025095e-35 -6.226684999999999e-06 4.9789850000000006e-05 -0.68745799999999979 -0.11222949999999998 0.61713700000000016 3.3436750000000006 0.68231549999999996 0.00024596600000000008 -10.065 5.8204250000000011e-06 0.354709 0.12375499999999996 -5.7517599999999991 2.1006000000000005 -0.079468000000000025 0.53444550000000013 -0.24353549999999999
decision_type=2 2 2 2 2 2 2 2 2 2 2 2 2 2 2 2 2 2 2 2 2 2 2 2 2 2 2 2 2 2
left_child=-1 2 -2 4 6 -6 -4 8 15 -10 11 -11 14 -12 -13 -8 17 28 19 20 21 22 -19 24 25 -23 27 -27 -3 -30
right_child=1 16 3 -5 5 -7 7 -9 9 10 13 12 -14 -15 -16 -17 -18 18 -20 -21 -22 23 -24 -25 -26 26 -28 -29 29 -31
leaf_value=2.2218818760898483e-06 -9.1425982675207062e-05 -7.5035568952607892e-06 -0.0041840382601852381 -0.0003639306024841028 0.012777964050183072 -0.00064498363096320715 -0.00093611543805769315 -0.00033347391640706084 0.0099542453996837154 0.0065057535702362657 0.0080328341775938224 0.0046970118791796267 -0.0057171906123403464 0.0023845817062205506 -0.0011675387443531129 0.0018014674905672387 -0.00015256336367999051 0.0081024766358877391 -0.00025993151885192955 -0.00027933842431647303 0.0075659210774465472 -0.0048530082273784848 0.0011662538261104298 -0.00073106110094781735 0.0062775427618852039 0.0088862567674368627 -0.0004636393047721041 0.0012110095491389868 0.00027156832842262126 -0.0038952691141242177
leaf_weight=203570 2241 2775 24 319 20 26 87 115 25 20 23 20 20 28 21 23 7136 31 520 204 25 21 30 146 26 21 44 23 22 27
leaf_count=203570 2241 2775 24 319 20 26 87 115 25 20 23 20 20 28 21 23 7136 31 520 204 25 21 30 146 26 21 44 23 22 27
internal_value=0 -3.2163e-05 0.000107772 0.000686763 0.00142829 0.00519108 0.00100197 0.00132779 0.00204331 0.00372976 0.00255088 0.00105177 -0.000736424 0.00493183 0.00169322 -0.000363712 -7.03029e-05 7.96361e-05 0.00039578 0.000992924 0.00170012 0.00127134 0.00469122 0.000528941 0.00189161 0.000845425 0.00220528 0.0048742 -4.25e-05 -0.00202444
internal_weight=0 14063 3012 771 452 46 406 382 267 157 132 81 61 51 41 110 11051 3915 1091 571 367 342 61 281 135 109 88 44 2824 49
internal_count=217633 14063 3012 771 452 46 406 382 267 157 132 81 61 51 41 110 11051 3915 1091 571 367 342 61 281 135 109 88 44 2824 49
shrinkage=0.05


Tree=272
num_leaves=31
num_cat=0
split_feature=40 40 2 40 24 4 34 4 18 26 23 21 43 12 20 7 1 26 7 28 21 11 25 38 20 14 37 17 4 43
split_gain=0.00641793 0.0699916 0.0892359 0.0896437 0.180154 0.63607 1.18095 0.207043 0.305635 0.726622 0.204662 0.141345 0.137323 0.116836 0.104419 0.103469 0.0971831 0.183252 0.159066 0.244964 0.157524 0.0923714 0.0874881 0.142641 0.0827024 0.581082 0.0831102 0.282346 0.379616 0.431952
threshold=0.354709 0.016888500000000004 3.0794900000000003 -0.011175000000000155 -0.18228499999999997 0.08589150000000001 0.062021250000000007 -0.26743249999999991 -4.5779349999999994e-05 5.2405650000000009e-05 -6.9062749999999991 6.8372650000000013 0.31279500000000043 0.0003174535000000001 4.7641500000000008 8.4007650000000002e-05 10.829750000000002 8.1704800000000004e-05 2.7083600000000003e-05 0.0044288650000000014 11.729050000000003 -1.285335e-05 9.4910900000000016 0.029395350000000004 19.256550000000001 0.00035126650000000004 -1.1308749999999999e-07 1.6583550000000004e-08 -0.68745799999999979 1.510785
decision_type=2 2 2 2 2 2 2 2 2 2 2 2 2 2 2 2 2 2 2 2 2 2 2 2 2 2 2 2 2 2
left_child=1 2 3 -1 5 10 -7 8 -6 -10 11 13 -13 15 -8 22 20 18 19 -18 -9 -12 23 -5 26 -26 27 28 -3 -30
right_child=-2 24 -4 4 7 6 14 16 9 -11 21 12 -14 -15 -16 -17 17 -19 -20 -21 -22 -23 -24 -25 25 -27 -28 -29 29 -31
leaf_value=-3.0395681194271161e-06 9.9382730433018274e-06 -0.00022470593241466128 -0.003108790566835998 -0.00022732108732496402 -0.00011354832500108314 -0.014644942207572363 -0.00053749724238118886 0.00051422585899224495 -0.010552543349564077 0.0016274359295493923 0.005223882611355056 -3.6279677254112488e-05 0.0043114012913065382 -0.0042429541266756137 -0.0045641707625084871 -0.0036124599092189507 0.00079607427444147033 -0.0051461359142558651 0.00078842850709279872 -0.0067701057961676277 0.004965771826100536 0.0014184523946963825 -0.0031114513005983707 0.0038210453845196122 0.0078324765847671944 -0.0027308876734847827 -0.00021699477082606701 -0.00020396594241668382 0.0024673960438175622 -0.00023632169805522514
leaf_weight=107403 93017 595 23 403 173 21 69 3131 25 24 23 42 32 20 21 23 23 20 129 20 20 52 24 23 23 30 8483 3091 423 227
leaf_count=107403 93017 595 23 403 173 21 69 3131 25 24 23 42 32 20 21 23 23 20 129 20 20 52 24 23 23 30 8483 3091 423 227
internal_value=0 -7.41822e-06 5.29973e-06 5.94083e-06 0.000229313 -0.000473407 -0.00396828 0.000377742 -0.0011009 -0.00458684 0.000130846 -0.000193837 0.0018438 -0.000499689 -0.00147705 -0.000341412 0.000475934 -0.000616187 -8.94484e-05 -0.00272308 0.000542481 0.00258545 -0.000174225 -8.74731e-06 -0.000117825 0.00185321 -0.000125974 5.20998e-05 0.000687842 0.00152317
internal_weight=0 124616 111744 111721 4318 753 111 3565 222 49 642 567 74 493 90 473 3343 192 172 43 3151 75 450 426 12872 53 12819 4336 1245 650
internal_count=217633 124616 111744 111721 4318 753 111 3565 222 49 642 567 74 493 90 473 3343 192 172 43 3151 75 450 426 12872 53 12819 4336 1245 650
shrinkage=0.05


Tree=273
num_leaves=31
num_cat=0
split_feature=40 22 27 41 44 20 4 13 18 20 20 27 21 3 27 40 24 27 23 21 3 44 1 16 18 21 23 43 21 32
split_gain=0.0061426 0.0473001 0.0844496 0.0405084 0.138879 0.563622 0.468397 0.548335 0.414111 0.338724 0.299237 0.753628 0.336258 0.917769 0.537252 0.438655 0.286569 0.284517 0.245679 0.589886 0.675853 0.518373 0.470514 0.373615 0.638457 0.242068 0.368645 0.322134 0.23308 0.575815
threshold=-0.40968649999999995 3.1185250000000004 1.2058450000000003 -0.27889399999999981 -0.20255000000000042 14.554100000000002 0.92648250000000021 -1.7032199999999996e-05 1.8814550000000001e-06 14.554100000000002 -12.926599999999999 1.8070850000000001 -9.853489999999999 -8.1461699999999979 8.8986400000000021 0.0045899999999999838 -0.59879749999999998 9.4382900000000021 -7.3979749999999997 11.729050000000003 -8.0060399999999969 -0.47859499999999983 9.572065000000002 -3.351065e-07 7.7614350000000008e-08 9.8452300000000026 -8.364709999999997 -1.9691099999999999 -6.7912899999999992 0.71537950000000017
decision_type=2 2 2 2 2 2 2 2 2 2 2 2 2 2 2 2 2 2 2 2 2 2 2 2 2 2 2 2 2 2
left_child=-1 3 -3 -2 5 10 7 -7 16 25 11 -5 13 14 15 -12 -9 18 19 -14 -21 -20 -23 -24 -25 28 27 -27 29 -6
right_child=1 2 -4 4 9 6 -8 8 -10 -11 12 -13 17 -15 -16 -17 -18 -19 21 20 -22 22 23 24 -26 26 -28 -29 -30 -31
leaf_value=9.8141256003014924e-06 9.3734410238719562e-06 2.9841686704029972e-05 -0.0040647564917526326 0.0092920163870855773 -2.605783725031861e-05 0.0096056544454768307 -0.002550411656880493 0.003873653736728658 0.0071883344752413612 -0.002432979664166958 0.0035763655831106012 0.00051705866560613567 -0.00018450838144868614 0.00011974749123052097 0.0011670986459487015 0.012478106585331262 -0.0019528433993828539 -0.001169317133961422 -0.00040280649724834408 0.012063272028462961 0.0014928499896702688 -0.001287455359359905 1.9158621435053649e-05 -0.012850809158044285 -0.0030108448598492247 -0.00093108919746041267 -0.0003367029576435012 -0.0071520512124008846 0.00026309747798153191 -0.0024469539600043421
leaf_weight=92022 95517 34 20 28 3068 32 36 36 31 136 25 194 11794 665 45 31 51 848 980 20 62 143 20 32 34 46 1424 38 9954 267
leaf_count=92022 95517 34 20 28 3068 32 36 36 31 136 25 194 11794 665 45 31 51 848 980 20 62 143 20 32 34 46 1424 38 9954 267
internal_value=0 -7.18978e-06 -0.00148668 -6.55348e-06 -5.71957e-05 -0.000164082 0.0025713 0.00380051 0.00222623 5.09363e-05 -0.00019818 0.00162381 -0.000225698 0.000794232 0.00523515 0.00850412 0.000458121 -0.000281771 -0.000224252 -0.000155125 0.004071 -0.000903282 -0.00304505 -0.00596757 -0.00778174 7.37661e-05 -0.000526574 -0.00374533 0.000141891 -0.000219875
internal_weight=0 125611 54 125557 30040 15107 186 150 118 14933 14921 222 14699 766 101 56 87 13933 13085 11876 82 1209 229 86 66 14797 1508 84 13289 3335
internal_count=217633 125611 54 125557 30040 15107 186 150 118 14933 14921 222 14699 766 101 56 87 13933 13085 11876 82 1209 229 86 66 14797 1508 84 13289 3335
shrinkage=0.05


Tree=274
num_leaves=31
num_cat=0
split_feature=44 44 40 41 23 17 17 8 32 14 25 37 30 6 14 37 18 37 6 13 21 19 1 40 13 36 26 41 4 5
split_gain=0.00650757 0.0701633 0.0704091 0.602623 0.556753 0.556204 0.719362 0.641162 0.464904 0.46107 0.39265 0.382084 0.312899 0.305659 0.345851 0.405899 0.299705 0.270706 0.204253 0.161838 0.132711 0.267032 0.131919 0.839798 0.118864 0.109389 0.0745614 0.196493 0.906987 0.544357
threshold=-0.8551649999999994 -0.20255000000000042 0.14973499999999998 -0.026150000000000003 -13.887899999999998 2.7889400000000004e-07 -3.1088599999999993e-08 -1.3607799999999997e-05 0.12853500000000004 0.0016846400000000001 0.32482250000000007 -7.7727849999999991e-08 0.00027963700000000006 -1.0755299999999999e-06 0.00016396650000000002 2.7091200000000009e-07 -2.8839749999999998e-05 2.9738650000000005e-07 -4.0493649999999993e-07 7.5148700000000015e-05 14.999250000000002 0.00012624750000000005 11.597950000000003 -0.040859549999999939 -1.4994649999999999e-05 0.00090053400000000003 -6.4241049999999987e-05 0.09983149999999999 -0.056109499999999993 1.3194150000000001e-05
decision_type=2 2 2 2 2 2 2 2 2 2 2 2 2 2 2 2 2 2 2 2 2 2 2 2 2 2 2 2 2 2
left_child=-1 2 3 4 18 6 16 -8 11 10 -7 -9 -13 -12 -15 24 19 -11 -2 -6 -4 -22 26 -24 -16 -20 27 28 29 -5
right_child=1 -3 20 22 5 9 7 8 -10 17 13 12 -14 14 15 -17 -18 -19 25 -21 21 -23 23 -25 -26 -27 -28 -29 -30 -31
leaf_value=8.3994632549841004e-06 0.0065615903912112118 6.9114289328325927e-06 -5.1769626809122434e-06 -0.01034841101403193 -0.0050873293887384033 -0.0038591646586105021 -0.013347892211251228 -0.0080862715332345528 -0.0098383431963156923 -0.0018655754981609348 -0.0025022237624008478 -0.0034086737425241156 0.0046651881223078824 -0.0018793708401853623 0.010852998922663656 0.00062581862981334838 0.0032001313819394759 -0.0086428135431007216 0.0024924654366138082 -0.00011488638177979739 0.006847411026579462 -0.00080064758047228681 -6.5334241482129725e-05 -0.010835787896177777 0.0055270839633885776 -0.0022813494116417136 -0.00019224191821645088 -5.9395182596570178e-05 0.0018921265759645246 -0.0010592505485123105
leaf_weight=111964 20 91838 5922 24 36 36 28 22 32 41 28 30 20 23 22 29 30 23 30 30 21 25 131 21 20 20 4423 2267 431 46
leaf_count=111964 20 91838 5922 24 36 36 28 22 32 41 28 30 20 23 22 29 30 23 30 30 21 25 131 21 20 20 4423 2267 431 46
internal_value=0 -8.89984e-06 -0.000113887 -0.00021217 -0.00185705 -0.00250232 -0.00423688 -0.00663199 -0.00482386 -0.000720877 0.000729359 -0.0025952 -0.000179129 0.00208335 0.00344926 0.00517544 -0.000943609 -0.00430115 0.00229113 -0.00282713 1.56035e-05 0.00269086 -9.56865e-05 -0.00155336 0.00831685 0.000582939 -6.48749e-05 0.000138645 0.00103477 -0.00424411
internal_weight=0 105669 13831 7863 520 450 228 132 104 222 158 72 50 122 94 71 96 64 70 66 5968 46 7343 152 42 50 7191 2768 501 70
internal_count=217633 105669 13831 7863 520 450 228 132 104 222 158 72 50 122 94 71 96 64 70 66 5968 46 7343 152 42 50 7191 2768 501 70
shrinkage=0.05


Tree=275
num_leaves=31
num_cat=0
split_feature=21 1 18 16 36 16 38 4 8 1 19 16 0 40 17 6 22 11 6 22 0 40 40 37 40 28 40 22 40 8
split_gain=0.00599589 0.0311641 0.0737206 0.265723 0.0436182 0.0468961 0.0585126 0.0558548 0.0275177 0.0637771 0.103685 0.170635 0.0591889 0.0953435 0.0219475 0.0203458 0.0898128 0.182938 0.0364246 0.0336623 0.0505174 0.0422114 0.0799033 0.0202933 0.0262869 0.0466495 0.0192262 0.0177444 0.0787865 0.0200945
threshold=13.390900000000002 10.154350000000003 0.00016883300000000004 1.0552950000000002e-06 0.026744400000000005 -5.8728149999999988e-07 0.0020143900000000005 0.08589150000000001 -1.7548399999999996e-05 8.7485050000000015 9.2439950000000013e-05 1.0000000180025095e-35 2.9488950000000007 -0.027530000000000051 1.0181200000000001e-07 -1.1060999999999997e-06 0.11295750000000002 4.247685000000001e-05 -1.6857599999999998e-06 -0.54752699999999999 -6.6224949999999998 0.2761725000000001 -0.40968649999999995 -3.2566999999999998e-07 0.12375499999999996 0.10445350000000002 -0.10081500000000009 2.4316000000000004 -0.74380499999999983 -7.9332349999999979e-06
decision_type=2 2 2 2 2 2 2 2 2 2 2 2 2 2 2 2 2 2 2 2 2 2 2 2 2 2 2 2 2 2
left_child=-1 8 3 4 5 -3 7 14 12 15 11 -11 23 -14 -7 16 17 18 -10 20 -17 22 -22 -2 25 -25 -8 29 -29 -21
right_child=1 2 -4 -5 -6 6 26 -9 9 10 -12 -13 13 -15 -16 19 -18 -19 -20 27 21 -23 -24 24 -26 -27 -28 28 -30 -31
leaf_value=-1.0213568966405083e-06 -0.0012971010785113321 0.0024524757020821376 -0.002282857968450778 0.0047571954143576373 -0.00058190139050070275 0.00079937277096905749 -0.00023311080504278097 0.0027604415891983084 -0.0002852809762295622 0.0063456401754506042 -0.00052615712136944886 -2.8328562872221008e-05 -0.00030788150572751892 -0.0036441246192253224 -0.0010400750599425617 0.0011634150457447742 1.8634990685376753e-05 0.0047279203113703263 0.0021099672270273521 -0.00043289294351924444 -0.00043191106048073966 -0.0005579740823897602 -0.0047985843627247962 -3.1038500826745747e-05 -0.00015879356886827622 0.0030662571346329061 -0.0023992379922856345 -0.00016680958908095602 0.0034352400305215271 4.2141939442715713e-05
leaf_weight=214386 25 31 22 36 110 50 21 30 65 21 35 21 61 33 24 27 766 32 21 277 22 81 20 31 128 20 20 63 20 1134
leaf_count=214386 25 31 22 36 110 50 21 30 65 21 35 21 61 33 24 27 766 32 21 277 22 81 20 31 128 20 20 63 20 1134
internal_value=0 6.7436e-05 0.000517424 0.000708747 0.000199152 0.000687311 0.000309931 0.000940578 1.41133e-05 6.61796e-05 0.00148374 0.00315866 -0.00044103 -0.00147912 0.000202795 2.30023e-05 0.000216441 0.0015005 0.000299605 -8.10122e-05 -0.00079505 -0.00122496 -0.00251128 3.73032e-05 0.000223672 0.00118359 -0.00128976 -9.32168e-06 0.000701154 -5.11144e-05
internal_weight=0 3247 344 322 286 176 145 104 2903 2605 77 42 298 94 74 2528 884 118 86 1644 150 123 42 204 179 51 41 1494 83 1411
internal_count=217633 3247 344 322 286 176 145 104 2903 2605 77 42 298 94 74 2528 884 118 86 1644 150 123 42 204 179 51 41 1494 83 1411
shrinkage=0.05


Tree=276
num_leaves=31
num_cat=0
split_feature=3 21 1 17 17 12 21 1 14 16 30 20 15 20 26 13 40 40 4 33 4 14 0 23 18 1 21 17 40 43
split_gain=0.00611514 0.0427769 0.132846 0.218041 0.0442277 0.0287006 0.0262226 0.180914 0.0775801 0.0174456 0.0167708 0.0540698 0.0263264 0.0207135 0.0132381 0.0462448 0.071664 0.220537 0.0468733 0.067072 0.0230014 0.0357772 0.0118403 0.0114426 0.0108329 0.010563 0.117939 0.185807 0.18727 0.0913742
threshold=-5.5710999999999995 -15.424049999999998 -11.052099999999998 4.6606600000000007e-08 4.5888800000000005e-06 -4.9376749999999994e-05 18.392150000000004 8.8482550000000018 7.8713900000000012e-05 1.4317750000000002e-06 0.064526950000000013 19.256550000000001 -1.5418149999999998e-06 -19.608449999999998 0.069955350000000013 4.2516950000000003e-05 -0.51801999999999981 0.43531000000000003 0.43776750000000003 -0.00090391799999999997 -0.20278049999999997 0.0006072295000000001 13.257850000000003 -10.576799999999997 -0.00059694499999999988 11.597950000000003 11.881850000000002 1.7113350000000004e-07 0.077348000000000056 0.23546500000000006
decision_type=2 2 2 2 2 2 2 2 2 2 2 2 2 2 2 2 2 2 2 2 2 2 2 2 2 2 2 2 2 2
left_child=14 2 3 -2 9 -5 10 22 -9 -4 11 13 -12 -3 25 18 -17 -18 20 -20 21 -16 -8 -19 -23 -1 -27 29 -29 -28
right_child=1 6 4 5 -6 -7 7 8 -10 -11 12 -13 -14 -15 15 16 17 23 19 -21 -22 24 -24 -25 -26 26 27 28 -30 -31
leaf_value=-7.5092443132438787e-07 0.0066737931991652163 0.0014251351069106022 -6.7962728690872614e-05 -0.0007875133728486531 0.0022328177818781115 0.0018590544075414073 -0.00035005807359185487 0.0012519032100681217 0.0056558826612308627 -0.0016400495904963465 -0.0016524698616943651 0.0019809208813239823 -0.00018888367731593108 1.3227717708579796e-05 -0.0024310386897233348 -0.00063362544045322442 0.0044578750352633912 0.00087575913750610886 -0.0033948712159144637 -0.00030626525964087196 -6.7396748352166466e-05 0.00064255021788994782 -0.0017878897294091685 -0.00045071411655044362 -0.00073832529157457152 -1.4264461643644289e-05 0.0005640371252542746 -0.0063633725570980465 -0.00011720858034095726 -0.001605473835153824
leaf_weight=183249 22 26 150 21 20 20 45 20 20 20 34 35 319 28834 29 103 36 21 32 39 280 20 21 72 49 3851 104 30 20 91
leaf_count=183249 22 26 150 21 20 20 45 20 20 20 34 35 319 28834 29 103 36 21 32 39 280 20 21 72 49 3851 104 30 20 91
internal_value=0 2.11214e-05 0.000668489 0.0026582 8.74187e-06 0.000503495 1.55418e-05 0.000800542 0.00345389 -0.000252914 1.26968e-05 1.68816e-05 -0.000329852 1.44997e-05 -3.32582e-06 -0.000223376 0.000349826 0.00113506 -0.000519551 -0.00169831 -0.000298143 -0.000957419 -0.00080755 -0.000151188 -0.000338072 -2.52594e-06 -8.19375e-05 -0.00114565 -0.00386491 -0.000448401
internal_weight=0 29607 253 63 190 41 29354 106 40 170 29248 28895 353 28860 188026 681 232 129 449 71 378 98 66 93 69 187345 4096 245 50 195
internal_count=217633 29607 253 63 190 41 29354 106 40 170 29248 28895 353 28860 188026 681 232 129 449 71 378 98 66 93 69 187345 4096 245 50 195
shrinkage=0.05


Tree=277
num_leaves=31
num_cat=0
split_feature=7 40 12 4 33 15 19 9 37 2 21 24 40 40 31 9 43 40 35 8 40 12 21 41 15 15 16 25 26 20
split_gain=0.00592792 0.0240654 0.0210852 0.038763 0.0240083 0.0252328 0.0540747 0.0162514 0.0162491 0.0393254 0.110279 0.0330528 0.0198056 0.282123 0.316494 0.185209 0.0539263 0.0332517 0.0288455 0.0271477 0.0254082 0.0250189 0.0192527 0.0322811 0.0166618 0.0349187 0.0203709 0.0250888 0.0148845 0.0106085
threshold=2.2278700000000004e-05 5.4411200000000006 0.00040324100000000009 1.3297700000000001 -8.1044199999999979e-05 3.8317400000000007e-07 0.0002560000000000001 -2.0514499999999998e-05 -4.5033049999999994e-07 2.2358750000000005 4.1442900000000007 0.62895050000000008 -0.10081500000000009 -0.0054100000000001361 0.065679050000000003 9.3744300000000017e-06 -0.15760999999999911 0.02582950000000005 6.3931100000000015e-05 7.5226950000000005e-06 0.039429999999999972 -7.3957599999999985e-05 12.832950000000002 -0.057539999999999918 3.2364950000000003e-06 1.1129000000000003e-05 -3.2239999999999995e-06 2.9280800000000005 0.0017607100000000002 -7.1032649999999995
decision_type=2 2 2 2 2 2 2 2 2 2 2 2 2 2 2 2 2 2 2 2 2 2 2 2 2 2 2 2 2 2
left_child=1 2 4 -4 5 -1 -7 -6 9 24 -11 12 -10 14 15 16 -14 21 19 -18 -19 -15 23 -22 26 -26 27 -9 29 -28
right_child=-2 -3 3 -5 7 6 -8 8 11 10 -12 -13 13 17 -16 -17 18 20 -20 -21 22 -23 -24 -25 25 -27 28 -29 -30 -31
leaf_value=-0.00016224350065465587 -1.3966955987613209e-06 0.0016289073850809172 -1.7313138519195051e-05 0.0027723050918575611 -0.0011043028829196071 -0.0032262397034134231 -0.00019722674707470394 -0.00012663907110874317 -2.2257908668139024e-05 3.6327625643176968e-05 -0.0043078760212492424 0.0020766641578077163 -0.0012507918903738205 0.0023606071997034767 0.0071058876614120822 0.005557949419090576 0.0014575907952505452 -0.0013810144543337326 0.0022094282376605811 -0.00074558678342900419 1.1568816457778239e-05 0.00050257413805053204 -0.0013363615801398948 0.0017836636521119196 0.0024644193406129491 -3.8098840986608796e-05 -0.00095622873548785025 0.0021776589689016831 -0.0013355065505122722 -8.259204348618984e-05
leaf_weight=228 211572 24 33 20 30 23 41 27 2193 48 21 21 33 21 27 21 29 33 36 27 2219 132 26 26 20 46 37 21 27 571
leaf_count=228 211572 24 33 20 30 23 41 27 2193 48 21 21 33 21 27 21 29 33 36 27 2219 132 26 26 20 46 37 21 27 571
internal_value=0 4.87546e-05 4.24727e-05 0.00103537 3.36787e-05 -0.000408498 -0.00128578 5.63623e-05 6.25121e-05 -0.000143611 -0.00128582 9.73198e-05 8.87014e-05 0.000181224 0.00213282 0.00121315 0.000483221 4.38096e-05 0.0011052 0.000395344 -3.59046e-06 0.000757598 1.64249e-05 3.2092e-05 -3.83869e-05 0.00072024 -0.000111695 0.000881491 -0.00018677 -0.000135757
internal_weight=0 6061 6037 53 5984 292 64 5692 5662 818 69 4844 4823 2630 173 146 125 2457 92 56 2304 153 2271 2245 749 66 683 48 635 608
internal_count=217633 6061 6037 53 5984 292 64 5692 5662 818 69 4844 4823 2630 173 146 125 2457 92 56 2304 153 2271 2245 749 66 683 48 635 608
shrinkage=0.05


Tree=278
num_leaves=31
num_cat=0
split_feature=10 2 35 24 19 36 14 43 17 43 43 43 44 36 40 43 37 28 7 21 44 36 30 30 31 20 40 40 6 36
split_gain=0.00609628 0.0244318 0.0222067 0.0317866 0.067567 0.0294642 0.0746923 0.0287115 0.0609832 0.141067 0.0386551 0.028306 0.0278646 0.0727807 0.188592 0.0467658 0.0618831 0.112779 0.0526542 0.101089 0.0305936 0.122019 0.120241 0.0824172 0.0633524 0.14321 0.115912 0.21246 0.0912018 0.135193
threshold=1.6290050000000002e-05 3.0578500000000006 0.098593250000000007 -2.2419299999999995 0.00037934750000000005 -2.2564299999999995 0.0067067750000000008 0.97785500000000003 -9.510894999999998e-07 3.3691350000000004 0.76755000000000007 0.27381999999999979 0.46045500000000011 -0.43959349999999991 0.327845 -0.36707999999999957 -9.8400049999999974e-09 -0.010000319999999998 2.5529050000000006e-05 4.9794500000000008 -1.1537099999999991 -0.028793999999999997 0.00254236 0.017781650000000003 -0.06726604999999998 0.98860800000000004 0.327845 -0.027530000000000051 -9.3385949999999991e-07 0.0052581350000000006
decision_type=2 2 2 2 2 2 2 2 2 2 2 2 2 2 2 2 2 2 2 2 2 2 2 2 2 2 2 2 2 2
left_child=1 2 3 4 -1 6 -4 10 9 -9 11 -7 15 14 -14 16 17 -5 19 -19 -17 22 -22 -24 25 26 27 -23 29 -26
right_child=-2 -3 5 12 -6 7 -8 8 -10 -11 -12 -13 13 -15 -16 20 -18 18 -20 -21 21 24 23 -25 28 -27 -28 -29 -30 -31
leaf_value=-0.00028252746003623732 3.3067850469956703e-06 0.0016836592628221428 -0.00018552426715009811 -0.0047243652709849735 0.0034951205362449404 -0.0003960166520141721 -0.0033564448338718371 0.0050419466462335548 -6.7559415520618233e-05 -0.00019539323382357704 -0.0024872837978494188 0.00091689492110162978 0.0041288952465480628 2.6221376452407121e-05 -0.00088608434211652682 -3.0415751323110447e-06 0.00020067730391168213 -0.00019380519736460561 0.0001263536074055502 -0.0046867620030839356 -0.0047709053267127556 0.0013276441724363916 -0.00046028206081563438 -0.0034168882129181712 -0.00044026803647489814 6.6299961032541751e-05 -0.00095059088804797887 0.0075889439380262052 -5.3646338256552401e-05 -0.0025295114889172248
leaf_weight=29 188240 21 65 22 20 613 26 20 485 36 21 44 37 13950 38 9473 98 31 65 21 23 42 149 28 704 718 21 20 2486 87
leaf_count=29 188240 21 65 22 20 613 26 20 485 36 21 44 37 13950 38 9473 98 31 65 21 23 42 149 28 704 718 21 20 2486 87
internal_value=0 -2.11775e-05 -2.23964e-05 -1.3003e-05 0.00125937 -0.000223615 -0.0010915 -0.000158826 0.000112825 0.00167509 -0.000375587 -0.00030809 -1.52286e-05 3.4573e-05 0.00158797 -6.51619e-05 -0.000761547 -0.00143995 -0.000822367 -0.00200827 -5.31597e-05 -0.000164139 -0.00136993 -0.000927994 -0.000105002 0.000293609 0.00225997 0.00334742 -0.000202435 -0.000670058
internal_weight=0 29393 29372 28062 49 1310 91 1219 541 56 678 657 28013 14025 75 13988 237 139 117 52 13751 4278 200 177 4078 801 83 62 3277 791
internal_count=217633 29393 29372 28062 49 1310 91 1219 541 56 678 657 28013 14025 75 13988 237 139 117 52 13751 4278 200 177 4078 801 83 62 3277 791
shrinkage=0.05


Tree=279
num_leaves=31
num_cat=0
split_feature=41 40 28 3 20 40 39 32 44 36 21 40 25 20 29 30 1 40 14 29 3 20 28 2 43 32 44 21 44 18
split_gain=0.00599114 0.0601804 0.107165 0.231298 0.240076 0.283294 0.307774 0.433623 0.216045 0.257357 0.211924 0.217712 0.199702 0.168606 0.403343 0.247806 0.133445 0.15592 0.178337 0.125991 0.116146 0.110359 0.476543 0.468908 0.803843 0.376737 0.352432 0.321262 0.304856 0.298713
threshold=0.27484500000000006 -0.018010000000000078 -0.064774849999999981 -17.304849999999998 -4.8420449999999997 -0.079468000000000025 0.0066980350000000006 1.5068850000000003 -0.68809499999999957 -0.14294799999999999 -12.635299999999999 -0.17527649999999997 3.5039900000000004 1.3891550000000004 0.03925105000000001 0.008423845000000001 -3.1361349999999999 -0.058960000000000005 0.00070374100000000013 0.55826100000000012 -11.825449999999998 -1.3693099999999998 0.020065300000000005 1.8439650000000001 -0.23716000000000023 0.77684100000000011 -1.2354849999999999 5.7588600000000012 0.65993499999999961 -1.9113899999999997e-05
decision_type=2 2 2 2 2 2 2 2 2 2 2 2 2 2 2 2 2 2 2 2 2 2 2 2 2 2 2 2 2 2
left_child=1 2 3 -1 5 6 7 -5 10 -10 11 -6 -11 14 15 -14 17 20 -19 -8 -12 22 25 -23 -25 -4 -24 28 29 -28
right_child=-2 -3 21 4 8 -7 19 -9 9 12 16 -13 13 -15 -16 -17 -18 18 -20 -21 -22 23 26 24 -26 -27 27 -29 -30 -31
leaf_value=0.0035873843755971102 9.3075767590714164e-06 3.2859634239429844e-06 -8.9407382657533121e-05 0.0011930098535583144 -0.0011889265804451757 -0.0021684012879097068 -0.00070934611812217873 0.010636127808829769 -0.0068724143069943998 -0.0060883216548245399 -0.0046921975318003793 0.0056559266379246353 0.0053236783999535773 -0.0026002541284407049 -0.0042641635920341696 -0.0016178240186127367 -0.0049583274933684158 -0.0012557827404678047 0.0051859774706165566 0.0031467713475909218 -0.00087952190973997603 -6.5134268353493386e-07 -0.00039192195530996556 0.0086352110461353562 0.00012055892367733089 0.0057359842757640379 -0.0024519456945365 -0.0013080003638080925 -0.0023577608270404331 -0.0096740543405403299
leaf_weight=31 96350 111070 3161 31 21 68 87 20 29 25 22 26 36 116 31 20 20 21 22 28 217 5429 309 43 78 28 22 161 70 41
leaf_count=31 96350 111070 3161 31 21 68 87 20 29 25 22 26 36 116 31 20 20 21 22 28 217 5429 309 43 78 28 22 161 70 41
internal_value=0 -7.39415e-06 -0.000123544 -0.000653978 -0.000810505 0.000549791 0.00166327 0.00489619 -0.00133577 -0.00243592 -0.000525629 0.00259759 -0.00187163 -0.00135233 0.000311573 0.00284457 -0.00101169 -0.000731789 0.00204 0.000229535 -0.00123048 -7.40893e-05 -0.000281995 6.79606e-05 0.00314643 -3.82594e-05 -0.001571 -0.00281024 -0.00462874 -0.00715205
internal_weight=0 121283 10213 871 840 234 166 51 606 257 349 47 228 203 87 56 302 282 43 115 239 9342 3792 5550 121 3189 603 294 133 63
internal_count=217633 121283 10213 871 840 234 166 51 606 257 349 47 228 203 87 56 302 282 43 115 239 9342 3792 5550 121 3189 603 294 133 63
shrinkage=0.05


Tree=280
num_leaves=31
num_cat=0
split_feature=21 1 35 40 40 15 43 40 23 12 11 8 1 13 11 40 40 10 10 4 19 6 22 9 12 22 13 16 33 39
split_gain=0.00576787 0.0288268 0.0789565 0.270774 0.509311 0.0954772 0.0566848 0.052083 0.0330881 0.025828 0.0372252 0.0249866 0.0573605 0.101689 0.0517865 0.106881 0.0303542 0.0294363 0.0232042 0.0224257 0.0191648 0.0184734 0.0811901 0.167078 0.0415102 0.0304152 0.0460611 0.0540821 0.0232027 0.0159843
threshold=13.390900000000002 10.154350000000003 0.0080513700000000021 0.2761725000000001 -0.3819765 2.0938650000000004e-08 0.39187000000000044 0.12375499999999996 -6.4142099999999997 6.1414500000000013e-05 1.0343550000000002e-06 -1.7548399999999996e-05 8.7485050000000015 1.8732900000000002e-05 1.7182650000000001e-05 -0.027530000000000051 0.077348000000000056 2.2609900000000005e-05 2.8428900000000005e-05 0.083564450000000012 0.00010273900000000001 -1.1060999999999997e-06 0.11295750000000002 2.7580050000000004e-05 -0.00010982249999999999 -0.54752699999999999 0.00025762050000000008 4.7861450000000004e-06 0.0002933525000000001 0.17438400000000001
decision_type=2 2 2 2 2 2 2 2 2 2 2 2 2 2 2 2 2 2 2 2 2 2 2 2 2 2 2 2 2 2
left_child=-1 11 5 4 -4 6 8 -7 -3 19 -11 14 21 16 17 -16 -14 -2 -19 -8 -5 22 23 24 -13 26 27 28 -23 -27
right_child=1 2 3 20 -6 7 9 -9 -10 10 -12 12 13 -15 15 -17 -18 18 -20 -21 -22 25 -24 -25 -26 29 -28 -29 -30 -31
leaf_value=-1.001747204685378e-06 0.0018383824995544273 0.0029661361334057386 -0.00088979650288820264 0.00021793967386353567 0.010259019075671123 -0.0040464081781101417 -0.00018501998479300479 -0.0004379802037146874 0.00075143722885210695 -0.0027902603900292889 0.00019022204234550539 0.0019653236802194694 0.0018135206213628408 0.0042818077521091747 -0.00023283194685540904 -0.0039198761238869095 -0.00062828998542889688 -0.0017457590599882509 1.7696316770056937e-05 0.0017523612043078174 -0.0016242803126806393 -0.0019175193222578787 1.977540968984831e-05 0.0048827542559862465 -0.00032645758096365289 -6.1675610330454207e-05 0.0010745952533657798 -0.0032477017964702101 -0.00017166092728101076 0.00048576755132032578
leaf_weight=214386 20 26 20 48 21 20 59 20 48 20 22 29 20 22 61 29 35 21 167 20 20 26 766 27 62 1346 28 25 71 148
leaf_count=214386 20 26 20 48 21 20 59 20 48 20 22 29 20 22 61 29 35 21 167 20 20 26 766 27 62 1346 28 25 71 148
internal_value=0 6.61412e-05 0.000498926 0.00161118 0.00482057 -1.69724e-05 0.000439483 -0.00224219 0.00152957 -0.000227184 -0.00122906 1.48571e-05 6.44711e-05 0.00140883 -0.00041885 -0.00142088 0.000259641 1.47211e-05 -0.000179285 0.000305456 -0.00032389 2.35234e-05 0.000207847 0.00142872 0.00040389 -7.55895e-05 -0.000754315 -0.00117407 -0.000639623 -7.44429e-06
internal_weight=0 3247 344 109 41 235 195 40 74 121 42 2903 2605 77 298 90 55 208 188 79 68 2528 884 118 91 1644 150 122 97 1494
internal_count=217633 3247 344 109 41 235 195 40 74 121 42 2903 2605 77 298 90 55 208 188 79 68 2528 884 118 91 1644 150 122 97 1494
shrinkage=0.05


Tree=281
num_leaves=31
num_cat=0
split_feature=40 21 31 3 3 40 9 2 3 3 0 11 19 6 36 27 23 41 21 36 16 3 19 40 40 22 21 3 16 40
split_gain=0.00576912 0.284201 0.0071228 0.0393148 0.0554256 0.0754533 0.0501989 0.0407475 0.0268014 0.0310564 0.10478 0.0223987 0.0222831 0.0545207 0.0125095 0.0122263 0.0102442 0.00860018 0.255804 0.00924947 0.101571 0.153256 0.248981 0.444127 0.656977 0.310441 0.0573793 0.0552285 0.0327087 0.232389
threshold=5.6762150000000009 2.9920850000000008 29.306750000000005 -15.284849999999999 -14.267049999999999 -0.12496499999999998 -7.1286049999999993e-06 2.8579150000000006 -13.353949999999999 -9.7011949999999967 -5.2225249999999992 -1.1811249999999998e-05 0.00035386650000000005 1.2112450000000003e-07 1.8680450000000002 91.481750000000019 -13.010249999999997 5.6849350000000003 -3.7462599999999999 -0.43959349999999991 -1.3281999999999998e-05 -10.386699999999999 0.0070645400000000011 -0.49100999999999978 0.86046950000000011 -1.2681999999999998 4.2802450000000007 -15.867949999999999 -7.7313249999999984e-06 -0.27744100000000016
decision_type=2 2 2 2 2 2 2 2 2 2 2 2 2 2 2 2 2 2 2 2 2 2 2 2 2 2 2 2 2 2
left_child=2 -2 17 6 5 -5 -4 8 -6 10 -10 12 13 15 -14 -11 -12 19 -19 20 21 22 23 -1 25 -25 27 -24 29 -22
right_child=1 -3 3 4 7 -7 -8 -9 9 11 16 -13 14 -15 -16 -17 -18 18 -20 -21 28 -23 26 24 -26 -27 -28 -29 -30 -31
leaf_value=-0.00070398349047603992 -4.5341051665335623e-05 0.0048298336024726598 -0.0033496248757555374 -0.0004108429147709103 -0.0018298231370170556 0.0039323507471999619 -0.00033076857929700056 -0.0019882563757509446 0.0033629135844031616 -0.0012611634717322887 -0.00030102862283356544 -1.340162801482719e-05 -0.00069494995943387039 -0.003515180597813534 0.00085494822124019274 0.00030257234632153994 0.00062122883040703733 0.0047738921539536841 -5.2910072332321735e-06 -1.8652430137367495e-06 0.0027764006316339457 -0.00012615781536480752 0.0027683436148576083 0.003783361925541059 -0.0002310700332502067 0.01126119681767055 -0.001223514168576168 0.00012752257832936124 -2.4291473789901146e-05 -0.0030319280476154139
leaf_weight=54 838 31 21 20 21 20 40 29 28 25 91 341 30 21 23 25 45 29 811 211958 26 314 26 23 37 35 55 83 2482 51
leaf_count=54 838 31 21 20 21 20 40 29 28 25 91 341 30 21 23 25 45 29 811 211958 26 314 26 23 37 35 55 83 2482 51
internal_value=0 0.000128572 -5.15441e-07 -0.000151338 -4.79423e-05 0.00176075 -0.00137005 -0.000154493 -7.26788e-05 -1.40142e-05 0.000577581 -0.000222663 -0.000798131 -0.00137723 -2.23526e-05 -0.000479296 4.13009e-06 2.92351e-08 0.000159705 -5.94195e-07 8.3966e-05 0.000654305 0.00143726 0.00291674 0.00497484 0.00829585 9.30977e-05 0.000757443 -5.5777e-05 -0.00107067
internal_weight=0 869 216764 780 719 40 61 679 650 629 164 465 124 71 53 50 136 215984 840 215144 3186 627 313 149 95 58 164 109 2559 77
internal_count=217633 869 216764 780 719 40 61 679 650 629 164 465 124 71 53 50 136 215984 840 215144 3186 627 313 149 95 58 164 109 2559 77
shrinkage=0.05


Tree=282
num_leaves=31
num_cat=0
split_feature=10 2 35 32 12 21 15 13 40 3 15 36 28 12 35 32 37 17 18 36 17 21 11 25 18 17 21 40 40 1
split_gain=0.00562969 0.0217489 0.0200501 0.0379991 0.176369 0.252709 0.320817 0.0949663 0.033947 0.0329437 0.0294467 0.0656093 0.0293321 0.0571973 0.110104 0.0382825 0.0258889 0.0391899 0.0337752 0.0220919 0.120764 0.0243834 0.0209247 0.0329244 0.0653076 0.024077 0.0206121 0.0576693 0.275108 0.256217
threshold=1.6290050000000002e-05 3.0578500000000006 0.098593250000000007 3.1099700000000006 -0.00018440399999999996 -2.6213749999999996 9.0706650000000007e-08 1.0563300000000003e-05 -0.22452634999999985 -19.074649999999995 -5.1309549999999988e-07 -0.43959349999999991 -0.22198749999999998 -7.7688949999999977e-05 -0.0054261899999999983 2.6219150000000004 3.3001550000000009e-05 -1.1906449999999996e-06 0.00022493700000000003 -0.96073299999999995 -8.4992649999999986e-08 18.392150000000004 -2.9434749999999998e-05 9.4910900000000016 -0.0027125949999999995 -2.1912049999999994e-06 6.8989050000000001 -0.079468000000000025 -0.027530000000000051 7.8334600000000005
decision_type=2 2 2 2 2 2 2 2 2 2 2 2 2 2 2 2 2 2 2 2 2 2 2 2 2 2 2 2 2 2
left_child=1 2 3 12 5 7 -7 -5 -9 -4 11 -11 13 14 -1 19 22 -18 -19 20 -14 26 23 -12 -25 -24 -21 -28 29 -29
right_child=-2 -3 9 4 -6 6 -8 8 -10 10 16 -13 15 -15 -16 -17 17 18 -20 21 -22 -23 25 24 -26 -27 27 28 -30 -31
leaf_value=0.00038728116924175994 3.1777223224332679e-06 0.0015881582758170442 -0.0018505136155484556 0.0032651670532123675 -0.00010774853017306505 0.0095891738321543449 0.00084932160874207822 0.00035018317620128848 -0.0021521412018362597 -0.002627381401907769 0.00073544055638194558 -0.00033187559928473612 0.0041578490869142119 3.6563830322255703e-05 -0.0042671805041781799 0.0017683954689224871 0.0023763539989569995 -1.4564971791171911e-05 0.0021495317940571114 8.6742060310863148e-07 -0.00041396745368991523 -0.0013793087979799815 0.0013067197500214239 -0.0001668588742118558 -0.0037288897424580438 -0.0001641119236922724 5.8012069339941847e-06 -0.00062937641629997546 -0.00019317919448497739 -0.0058237986160282508
leaf_weight=24 188240 21 30 21 378 21 21 33 23 36 20 230 20 86 27 30 23 183 20 22432 52 33 29 31 22 686 3299 53 1466 43
leaf_count=24 188240 21 30 21 378 21 21 33 23 36 20 230 20 86 27 30 23 183 20 22432 52 33 29 31 22 686 3299 53 1466 43
internal_value=0 -2.03509e-05 -2.15009e-05 -1.25753e-05 0.000420734 0.00209944 0.00521925 0.000397731 -0.000677557 -0.0002127 -0.000174313 -0.000642546 -2.0388e-05 -0.00075018 -0.00207685 -1.67427e-05 -5.14831e-05 0.000420272 0.000198647 -1.86974e-05 0.000855982 -2.10021e-05 -0.000186783 -0.000993142 -0.00164544 -0.000104456 -1.93597e-05 -0.000112702 -0.000362984 -0.00295604
internal_weight=0 29393 29372 28062 497 119 42 77 56 1310 1280 266 27565 137 51 27428 1014 226 203 27398 72 27326 788 73 53 715 27293 4861 1562 96
internal_count=217633 29393 29372 28062 497 119 42 77 56 1310 1280 266 27565 137 51 27428 1014 226 203 27398 72 27326 788 73 53 715 27293 4861 1562 96
shrinkage=0.05


Tree=283
num_leaves=31
num_cat=0
split_feature=35 15 40 41 27 43 43 35 4 11 4 4 15 12 6 21 11 26 17 16 18 15 10 16 19 16 19 43 6 43
split_gain=0.00555952 0.130513 0.131936 1.03361 0.906538 0.9458 1.05167 0.855654 0.683381 0.88175 0.619023 0.451748 1.07397 0.351741 0.339473 0.328164 0.287435 0.278345 0.283667 0.245213 0.33035 0.218225 0.221719 0.381454 0.19547 0.300876 0.292364 0.283371 0.646132 0.684945
threshold=1.8741500000000003e-05 -3.1922299999999996e-08 -0.19934349999999995 -0.15132349999999997 0.77166350000000017 1.8568299999999998 -1.4591200000000002 -0.0054261899999999983 0.14503350000000001 1.6735200000000005e-05 1.3297700000000001 -1.2205099999999998 1.9390250000000003e-07 -2.9756999999999996e-05 -5.6979949999999981e-07 -1.2295899999999997 2.2232350000000001e-05 -0.00084087799999999987 6.2770850000000025e-08 5.8204250000000011e-06 -4.0500549999999989e-08 1.8501250000000005e-08 2.2609900000000005e-05 4.9552750000000007e-08 1.9131000000000004e-05 1.4045900000000002e-08 6.1128050000000005e-06 0.80790999999999979 -9.7500849999999969e-07 -0.82558500000000012
decision_type=2 2 2 2 2 2 2 2 2 2 2 2 2 2 2 2 2 2 2 2 2 2 2 2 2 2 2 2 2 2
left_child=1 -1 -3 -4 24 6 -6 8 9 11 15 -8 17 16 -15 -10 21 -13 -19 20 -11 -9 23 -23 25 26 -5 28 29 -27
right_child=-2 2 3 4 5 -7 7 13 10 19 -12 12 -14 14 -16 -17 -18 18 -20 -21 -22 22 -24 -25 -26 27 -28 -29 -30 -31
leaf_value=5.0977305287140697e-05 8.1023538930915398e-06 1.2564656869608267e-05 -2.9994029689083753e-06 0.00010639321263107408 -0.00070790497733183837 -0.00030174346361772476 -0.0018423836682814 0.002002650703776233 -0.0083619676856324082 0.0023266934070801529 -0.0043301348731244705 -0.00024216893711127342 -0.015986664468244486 -0.010326194773806493 -0.0023805262132089236 -0.016630425531184302 0.0044148815381340684 -0.011895504011772574 -0.00450462444584716 -0.0057086136779703556 -0.0051420946104917681 -0.00030422696671892138 -0.00023401159514006313 -0.0095316895411087909 2.3758858671470459e-07 -0.00017369223730838714 -0.0052938001761783831 -0.0003996910001891861 -0.00022656618685954635 -0.006461337956716307
leaf_weight=50806 107317 31292 23619 696 333 582 32 33 20 57 31 20 34 20 41 30 25 20 37 21 20 21 44 24 1773 64 26 291 170 134
leaf_count=50806 107317 31292 23619 696 333 582 32 33 20 57 31 20 34 20 41 30 25 20 37 21 20 21 44 24 1773 64 26 291 170 134
internal_value=0 -7.88209e-06 -5.81326e-05 -0.000136532 -0.00082231 -0.00185943 -0.00290992 -0.00429345 -0.00590812 -0.00457273 -0.00988131 -0.00707642 -0.00858533 -0.00179381 -0.00498566 -0.013323 -0.000469295 -0.0053172 -0.00709792 -0.000919401 0.000386748 -0.00147015 -0.00275782 -0.00522554 -0.000347156 -0.000793158 -8.80736e-05 -0.00156565 -0.00248764 -0.00442897
internal_weight=0 110316 59510 28218 4599 1445 863 530 322 241 81 143 111 208 61 50 147 77 57 98 77 122 89 45 3154 1381 722 659 368 198
internal_count=217633 110316 59510 28218 4599 1445 863 530 322 241 81 143 111 208 61 50 147 77 57 98 77 122 89 45 3154 1381 722 659 368 198
shrinkage=0.05


Tree=284
num_leaves=31
num_cat=0
split_feature=7 2 12 30 24 30 40 13 28 40 20 40 29 29 11 43 35 40 2 17 31 11 32 26 24 17 43 27 4 28
split_gain=0.00576588 0.0210004 0.0185898 0.0377731 0.0219129 0.0281961 0.0468962 0.0144345 0.0136317 0.0483985 0.13712 0.0809365 0.0173596 0.039191 0.0271444 0.0354874 0.0708769 0.0145081 0.0142908 0.0123553 0.00983008 0.0250131 0.00943531 0.00902951 0.0250255 0.0590802 0.0879224 0.0144342 0.0119954 0.0317897
threshold=2.2278700000000004e-05 3.0794900000000003 0.00040324100000000009 0.00044156150000000004 0.82362200000000019 0.010273350000000002 0.24966499999999994 -9.7102499999999991e-06 -0.060167999999999992 0.2761725000000001 -2.6027399999999994 -0.079468000000000025 0.015602350000000003 0.016084300000000003 -2.2589749999999998e-05 -0.026199999999999776 -0.0039550049999999984 -0.40968649999999995 -2.7959499999999995 1.2108000000000002e-07 0.18225650000000002 -6.7093699999999993e-06 0.93154100000000006 -7.2484149999999989e-05 0.21342250000000004 9.2305600000000024e-08 1.46871 0.19819850000000003 -0.10727949999999999 -0.0074404799999999993
decision_type=2 2 2 2 2 2 2 2 2 2 2 2 2 2 2 2 2 2 2 2 2 2 2 2 2 2 2 2 2 2
left_child=1 2 4 -4 8 6 -6 -7 9 10 -1 17 18 -14 15 -15 -17 -12 -10 -9 23 -22 -21 27 28 -26 -27 -20 29 -25
right_child=-2 -3 3 -5 5 7 -8 19 12 -11 11 -13 13 14 -16 16 -18 -19 20 22 21 -23 -24 24 25 26 -28 -29 -30 -31
leaf_value=0.0044689529465249504 -1.3774739155350723e-06 0.0016656089521711694 -6.4128436332049952e-05 0.0026896387225133368 -0.0032906912346723927 0.00091344439911503856 1.2639725669445895e-05 -8.1695059058230701e-05 0.0010218137987137129 -5.3496535661335571e-05 -5.8577217501246755e-05 0.0030290814884383942 -0.0021816685064550258 -0.00012697821047766595 3.2458407613213337e-05 -0.0041135515414134722 -0.00036239880706382207 -0.0016431952736456878 -0.0010453169414183271 -0.0003371085323372179 0.0021413991283407087 -6.9753054742163628e-06 -0.0018014813844891495 0.00088608813795378364 -6.2070472265130614e-05 0.0046005608312823043 -3.1636996027373243e-05 -3.0246174239475551e-05 8.1918664202347654e-06 9.3077292860485744e-05
leaf_weight=25 211572 20 33 20 21 26 22 113 39 242 52 21 24 89 552 20 34 20 36 22 20 42 22 151 68 21 20 1289 2222 775
leaf_count=25 211572 20 33 20 21 26 22 113 39 242 52 21 24 89 552 20 34 20 36 22 20 42 22 151 68 21 20 1289 2222 775
internal_value=0 4.80836e-05 4.27285e-05 0.000975029 3.44767e-05 -0.000448484 -0.00160061 -0.000177765 5.34196e-05 0.000351329 0.00118156 0.000297858 3.35663e-05 -0.000195183 -0.000126585 -0.000740515 -0.00175171 -0.000498749 6.86871e-05 -0.000358475 6.06828e-05 0.000686049 -0.00106929 5.22209e-05 9.69895e-05 0.000841819 0.00234095 -5.78255e-05 7.11997e-05 0.000222391
internal_weight=0 6061 6041 53 5988 226 43 183 5762 360 118 93 5402 719 695 143 54 72 4683 157 4644 62 44 4582 3257 109 41 1325 3148 926
internal_count=217633 6061 6041 53 5988 226 43 183 5762 360 118 93 5402 719 695 143 54 72 4683 157 4644 62 44 4582 3257 109 41 1325 3148 926
shrinkage=0.05


Tree=285
num_leaves=31
num_cat=0
split_feature=27 18 3 13 12 40 16 4 40 4 4 11 19 15 12 3 14 18 16 40 40 6 16 38 20 17 33 11 40 13
split_gain=0.00546897 0.0199791 0.0686645 0.186695 0.0252326 0.0371449 0.0501324 0.102146 0.0345121 0.0270649 0.138929 0.0319032 0.024284 0.0458718 0.0308459 0.0357396 0.0220088 0.0194398 0.0188852 0.0469963 0.0537073 0.0122731 0.011664 0.0110883 0.0110382 0.0100765 0.00860447 0.0545485 0.0953977 0.0344495
threshold=91.481750000000019 0.0042538100000000011 -11.746199999999998 0.00033872700000000009 0.00010629050000000001 0.77415 2.6355450000000002e-05 0.30910700000000008 -0.30278099999999991 1.5563800000000001 1.1247450000000001 -0.00035055549999999991 0.0010528750000000002 -5.5152549999999989e-06 -0.00020892849999999997 -13.166999999999998 0.0027461200000000003 -0.00015077349999999997 2.7687200000000004e-06 -0.17527649999999997 0.68543200000000015 5.416385000000001e-06 4.3089250000000013e-06 -0.55203199999999986 7.745845000000001 8.9200350000000011e-05 0.0031288150000000005 -5.9599849999999995e-05 0.91906500000000002 -1.3758149999999998e-05
decision_type=2 2 2 2 2 2 2 2 2 2 2 2 2 2 2 2 2 2 2 2 2 2 2 2 2 2 2 2 2 2
left_child=26 4 3 -3 9 6 7 8 -6 10 11 -2 13 -13 15 -15 17 -16 -14 -20 -21 -7 -19 -5 -11 -4 -1 28 -28 -29
right_child=1 2 25 23 5 21 -8 -9 -10 24 -12 12 18 14 16 -17 -18 22 19 20 -22 -23 -24 -25 -26 -27 27 29 -30 -31
leaf_value=3.1710852088701427e-07 0.0019085233991063433 0.005307593120833981 -0.0013083524613951645 0.00048662649678590244 0.00010859152205643785 -0.00027340053626624927 0.00095711611502338203 -0.0049571819871925982 -0.0021600081850920104 -0.00058883331273492604 0.0038577291269219767 0.0018700078236349783 -5.678903778081146e-05 4.4265207119072636e-05 -0.0014968323548104805 -0.0029090643743984405 0.0016481134168861899 -2.3635644503157887e-05 -0.000264937863218955 -0.0041369815185178255 -0.00056102583434299708 0.0010431756295747618 0.0011455246884989638 -0.0011783251553970332 -0.0019722988757643009 -0.00011435709072714811 0.0034185775315673907 -0.0013360319849446323 -0.00058894357697917502 0.00022134450288099881
leaf_weight=215747 20 23 24 20 38 154 20 20 30 46 23 32 94 21 22 20 20 703 76 21 21 20 22 20 21 67 33 44 27 184
leaf_count=215747 20 23 24 20 38 154 20 20 30 46 23 32 94 21 22 20 20 703 76 21 21 20 22 20 21 67 33 44 27 184
internal_value=0 -9.21582e-05 0.00044921 0.00171811 -0.000149894 -0.000574168 -0.00130255 -0.00181611 -0.000892261 -4.69293e-05 1.27606e-05 -6.97341e-05 -0.000107344 1.33407e-05 -6.01907e-05 -0.00139638 1.12355e-05 -3.25899e-05 -0.000585526 -0.00100672 -0.002349 -0.00012207 1.18423e-05 -0.000345849 -0.00102246 -0.000429257 6.81689e-07 0.000273797 0.00161519 -7.92018e-05
internal_weight=0 1598 154 63 1444 282 108 88 68 1162 1095 1072 1052 840 808 41 767 747 212 118 42 174 725 40 67 91 216035 288 60 228
internal_count=217633 1598 154 63 1444 282 108 88 68 1162 1095 1072 1052 840 808 41 767 747 212 118 42 174 725 40 67 91 216035 288 60 228
shrinkage=0.05


Tree=286
num_leaves=31
num_cat=0
split_feature=14 23 1 28 23 20 3 0 13 23 43 43 4 29 0 0 26 33 13 9 23 29 20 26 43 24 40 40 16 8
split_gain=0.00539428 0.0187893 0.0236196 0.00928885 0.005912 0.0198324 0.137395 0.368757 0.405569 0.514028 0.663352 0.26124 0.15279 0.0990109 0.0600242 0.158907 0.17846 0.028044 0.0443988 0.0409169 0.104546 0.0246379 0.0193405 0.018604 0.0175744 0.0798086 0.0768855 0.505696 0.539316 0.53285
threshold=0.71230950000000004 -14.053899999999997 -4.2653099999999986 0.010025000000000001 -13.237099999999998 -6.1474899999999986 -12.126699999999998 -4.3615599999999999 6.2308800000000016e-05 -16.164099999999994 4.6757400000000002 0.8945249999999999 0.17191050000000002 -0.0056868599999999993 -4.1883099999999986 -3.5052499999999998 0.00018073150000000004 0.00038371750000000001 -1.9421199999999996e-05 -6.226684999999999e-06 -17.473899999999997 0.0073841800000000006 -7.8361449999999992 0.0058547700000000013 0.8945249999999999 -1.7211949999999998 0.14973499999999998 0.039429999999999972 1.0552950000000002e-06 1.1546150000000003e-05
decision_type=2 2 2 2 2 2 2 2 2 2 2 2 2 2 2 2 2 2 2 2 2 2 2 2 2 2 2 2 2 2
left_child=4 2 -2 -4 5 6 7 8 9 10 -1 12 -11 -9 -15 16 -16 19 -19 20 -17 -21 -10 -20 25 -7 27 -27 29 -29
right_child=1 -3 3 -5 -6 24 -8 13 22 11 -12 -13 -14 14 15 17 -18 18 23 21 -22 -23 -24 -25 -26 26 -28 28 -30 -31
leaf_value=0.014486916662882205 -0.0020205186046077872 -7.959869501852022e-06 -0.00013937317471159492 -0.0011319362659651232 -4.0437094515817037e-06 -0.0023568875609216223 -4.5228788822515013e-05 0.0030133626918541268 -0.0021812737544532868 0.0019897929029539228 0.0021957051801672653 0.0052408836894866197 -0.0038734526577172803 -0.0024811217012029375 -0.00031343485409576847 0.0041173786707804543 0.0061305304216644312 -0.0030804115236242068 0.0003205227565367271 -0.0019856639853242089 -4.0004230269856167e-05 -0.00016572701005075806 -9.5222055679187176e-05 -0.0014357075754523976 -3.260456394310515e-06 0.00010471521018945944 -0.00013005778900950104 0.0033600607593395216 -0.00054469697485753411 0.012347709937021138
leaf_weight=23 25 656 110 30 166679 33 2356 28 25 25 21 33 20 24 21 20 22 20 38 20 62 265 20 25 41863 2952 2029 94 74 20
leaf_count=23 25 656 110 30 166679 33 2356 28 25 25 21 33 20 24 21 20 22 20 38 20 62 265 20 25 41863 2952 2029 94 74 20
internal_value=0 -0.000127922 -0.000604861 -0.000352065 4.844e-07 1.55392e-05 0.000138713 0.000747373 0.00280298 0.00429946 0.00862066 0.00186186 -0.000616094 0.00011749 -3.93464e-05 7.9523e-05 0.00298348 -0.000197966 -0.00102796 -1.02551e-05 0.000973992 -0.000293442 -0.00125414 -0.000376394 7.50992e-06 9.41844e-05 0.000109833 0.000264844 0.00277921 0.00493684
internal_weight=0 821 165 140 216812 50133 3068 712 167 122 44 78 45 545 517 493 43 450 83 367 82 285 45 63 47065 5202 5169 3140 188 114
internal_count=217633 821 165 140 216812 50133 3068 712 167 122 44 78 45 545 517 493 43 450 83 367 82 285 45 63 47065 5202 5169 3140 188 114
shrinkage=0.05


Tree=287
num_leaves=31
num_cat=0
split_feature=3 20 11 4 5 23 20 9 15 26 13 40 40 16 12 0 19 40 15 40 38 18 13 4 19 10 14 40 44 23
split_gain=0.00540143 0.0216031 0.0966008 0.269609 0.121109 0.0651294 0.0145026 0.19891 0.0114427 0.0113374 0.0391879 0.0697791 0.381176 0.0408505 0.0436343 0.0321191 0.0319281 0.0206485 0.0145109 0.0306806 0.0118882 0.0708145 0.154882 0.104833 0.223913 0.11193 0.173092 0.351764 0.122574 0.133433
threshold=-5.5710999999999995 -12.926599999999999 -3.9082349999999992e-06 -0.13885249999999996 1.2076400000000002e-05 -6.2883649999999989 19.256550000000001 4.1341400000000004e-05 -1.2070449999999998e-07 0.069955350000000013 4.2516950000000003e-05 0.010257000000000018 0.43531000000000003 1.3186150000000004e-06 -6.492844999999999e-05 6.3956300000000006 0.0013893600000000003 -1.1381284999999999 -1.8360349999999999e-07 0.62909250000000005 -0.26996899999999996 1.7622650000000003e-05 -6.0913899999999993e-05 3.3436750000000006 0.0095771650000000003 1.3587550000000002e-05 0.022777000000000002 -0.40968649999999995 -5.7888699999999993 -16.290849999999995
decision_type=2 2 2 2 2 2 2 2 2 2 2 2 2 2 2 2 2 2 2 2 2 2 2 2 2 2 2 2 2 2
left_child=9 2 3 -2 -5 -6 -3 8 -8 20 13 15 -13 18 -15 17 -16 -12 19 -11 21 -1 -23 24 25 -24 28 -28 -27 -30
right_child=1 6 -4 4 5 -7 7 -9 -10 10 11 12 -14 14 16 -17 -18 -19 -20 -21 -22 22 23 -25 -26 26 27 -29 29 -31
leaf_value=-5.4886099763821183e-05 0.0064538513842059986 1.212750679475582e-05 -0.00021456742021656178 0.0031802956358981597 -0.00079535297975326109 0.0020257329464164705 -0.0015649984099912796 0.0040343343798022327 -0.00027011812742793942 -0.00202394854521469 -0.00051822167576424764 0.0074728520237840714 -0.00013593620198261433 -0.00022576443094294519 -0.0031674658027138016 -0.0023517026902845832 -0.0008130936443194515 0.001280250167765189 -3.9363929761463236e-05 7.1707781426084697e-05 -4.1131933231435097e-06 0.0036185808587548755 -0.0016230803975596023 -0.0002839779418762901 0.0054944323065380255 -0.0005193383297702925 -0.00076995024580603724 0.0080736007915971717 0.0042677561760947648 0.00076776851023104041
leaf_weight=2459 22 29017 283 34 96 26 22 31 76 31 79 20 93 50 36 20 24 20 268 40 183885 37 53 410 24 177 22 23 31 224
leaf_count=2459 22 29017 283 34 96 26 22 31 76 31 79 20 93 50 36 20 24 20 268 40 183885 37 53 410 24 177 22 23 31 224
internal_value=0 1.98506e-05 0.000359452 0.00127208 0.000541316 -0.000194138 1.44791e-05 0.000543453 -0.000560806 -3.12572e-06 -0.000206767 0.00032089 0.00121075 -0.000479409 -0.00131665 -0.000524106 -0.00222572 -0.000154894 -0.000207739 -0.000843297 -2.38548e-06 8.94354e-05 0.000443967 0.00032212 0.000770676 0.00055677 0.000798976 0.00375009 0.000491569 0.00119326
internal_weight=0 29607 461 178 156 122 29146 129 98 188026 681 232 113 449 110 119 60 99 339 71 187345 3460 1001 964 554 530 477 45 432 255
internal_count=217633 29607 461 178 156 122 29146 129 98 188026 681 232 113 449 110 119 60 99 339 71 187345 3460 1001 964 554 530 477 45 432 255
shrinkage=0.05


Tree=288
num_leaves=31
num_cat=0
split_feature=21 1 35 40 40 5 20 15 38 8 1 19 7 0 8 10 17 3 29 15 35 40 19 43 22 35 15 15 6 5
split_gain=0.00549959 0.0269145 0.0695593 0.242709 0.457699 0.0853219 0.0719251 0.0530914 0.0257799 0.0220615 0.0513675 0.0918892 0.158509 0.049348 0.0914647 0.0244396 0.0178934 0.0178496 0.0176065 0.0175769 0.101208 0.146697 0.217525 0.212295 0.0209271 0.0239734 0.0656602 0.174711 0.218726 0.0300535
threshold=13.390900000000002 10.154350000000003 0.0080513700000000021 0.2761725000000001 -0.3819765 4.8105150000000005e-05 5.9330550000000004 -1.1433699999999999e-07 -0.0046234549999999994 -1.7548399999999996e-05 8.7485050000000015 9.2439950000000013e-05 3.1112350000000007e-05 2.9488950000000007 -2.4061649999999993e-05 2.2609900000000005e-05 7.7259350000000003e-08 -5.8107599999999993 -0.00087486899999999991 2.8964050000000007e-06 0.22099200000000002 -1.0422104999999997 0.0085594900000000012 0.68409500000000023 -0.92553999999999992 -0.27384599999999998 -2.0464649999999995e-06 -2.6163199999999997e-05 2.8636100000000006e-07 8.3578700000000013e-06
decision_type=2 2 2 2 2 2 2 2 2 2 2 2 2 2 2 2 2 2 2 2 2 2 2 2 2 2 2 2 2 2
left_child=-1 9 5 4 -4 6 7 -3 -9 13 19 12 -12 15 -15 -2 -5 18 -10 24 -21 -22 23 -23 -11 26 27 -26 -29 -28
right_child=1 2 3 16 -6 -7 -8 8 17 10 11 -13 -14 14 -16 -17 -18 -19 -20 20 21 22 -24 -25 25 -27 29 28 -30 -31
leaf_value=-9.7817332878778366e-07 0.0015795082141622794 0.0024442330222243344 -0.00084804658486973498 0.00055496857958132757 0.009720789419398421 -0.0022788987051483543 -0.0020558239486910264 -0.00088405953058955837 0.002183321834093443 -0.00074650250395451377 -0.00016104635758979602 -0.00055826934981658793 0.0059822609621776454 -0.00011159901312504222 -0.0033200502939709827 -0.00015082310388853074 -0.0010699991126039601 -0.00015705252711229964 0.00051342349514533526 -7.3045035800371703e-05 -0.00029375425255510207 0.0090945079189259561 -0.00056921588846610882 0.0018093356594908981 -0.00033055245928648093 -8.9526564708157172e-05 0.0016640371248719194 0.0076913159813557291 0.00038517780582575747 -0.00033713676228589151
leaf_weight=214386 23 37 20 32 21 35 26 34 27 102 21 35 21 58 36 181 36 38 38 463 57 20 24 20 57 1547 21 20 21 176
leaf_count=214386 23 37 20 32 21 35 26 34 27 102 21 35 21 58 36 181 36 38 38 463 57 20 24 20 57 1547 21 20 21 176
internal_value=0 6.45847e-05 0.000482768 0.00152674 0.00456526 -1.45742e-06 0.000397095 0.000763623 0.000309735 1.50308e-05 6.16504e-05 0.00133385 0.00291061 -0.000392499 -0.00134037 4.42633e-05 -0.000305308 0.000703804 0.00120707 2.29008e-05 0.000263445 0.00155101 0.003194 0.00545192 -4.93614e-05 -1.07575e-05 0.000402313 0.00145993 0.00394915 -0.000123814
internal_weight=0 3247 344 109 41 235 200 174 137 2903 2605 77 42 298 94 204 68 103 65 2528 584 121 64 40 1944 1842 295 98 41 197
internal_count=217633 3247 344 109 41 235 200 174 137 2903 2605 77 42 298 94 204 68 103 65 2528 584 121 64 40 1944 1842 295 98 41 197
shrinkage=0.05


Tree=289
num_leaves=31
num_cat=0
split_feature=18 24 4 43 9 40 21 20 9 40 11 40 21 14 17 40 28 5 21 4 24 43 40 40 43 40 40 14 6 22
split_gain=0.00557454 0.0886119 0.200881 0.248592 0.229716 0.218254 0.510291 0.38811 0.330875 0.412897 0.265772 0.43661 0.144617 0.141003 0.131401 0.265978 0.0868343 0.0681335 0.0718853 0.0442534 0.268792 0.336658 0.376258 0.897877 0.529023 0.313147 0.470857 0.30523 0.272574 0.264733
threshold=5.4626650000000007e-05 0.82362200000000019 2.1341250000000005 5.3602800000000004 -5.5880499999999995e-05 -0.68744999999999989 5.8567400000000012 -9.4357099999999985 8.5475950000000023e-06 0.077348000000000056 4.247685000000001e-05 0.30085850000000008 -8.1735099999999985 0.0083088400000000014 2.0915550000000003e-06 -0.079468000000000025 -1.7331449999999997 1.0838450000000003e-05 0.26237100000000008 0.25745450000000009 0.24655200000000002 2.0339700000000001 -0.22452634999999985 0.2761725000000001 1.06199 0.039429999999999972 -0.027530000000000051 0.00096226550000000008 2.5485750000000003e-07 0.33168800000000004
decision_type=2 2 2 2 2 2 2 2 2 2 2 2 2 2 2 2 2 2 2 2 2 2 2 2 2 2 2 2 2 2
left_child=19 -2 3 4 -3 -6 7 -7 9 -8 12 13 -9 -12 -14 -16 -4 -17 -19 -1 -21 22 -22 24 25 26 28 29 -24 -27
right_child=1 2 16 -5 5 6 8 10 -10 -11 11 -13 14 -15 15 17 -18 18 -20 20 21 -23 23 -25 -26 27 -28 -29 -30 -31
leaf_value=-2.508471163252068e-06 -2.9896140383796432e-05 0.0062798130478768149 0.002476416727222386 -0.00061341856621814693 -0.00024347236829974471 0.0056683054725185809 0.0078546083997935064 0.0023309342890300926 0.010090244699407508 -0.001619574435576594 0.0031603851606632817 -0.0013342410595861213 0.00076272720021063978 0.0082928594323280064 -0.0078265220986213548 -0.003737207761005266 -0.00016489944290428436 -0.0019326606273482737 0.0019372361767593595 -2.7990323485478453e-05 -0.00013582914046411142 -6.8205375948519618e-05 0.0021472991110799327 1.4437928852744458e-06 0.0090468336931533288 0.010427100309971139 0.00036406940877082216 0.0017799275642821821 0.0068674403547591195 0.0041349025715940761
leaf_weight=160686 44029 24 32 187 163 39 23 27 27 23 32 45 38 23 20 20 1127 28 21 8655 402 1096 66 406 36 32 190 44 57 35
leaf_count=160686 44029 24 32 187 163 39 23 27 27 23 32 45 38 23 20 20 1127 28 21 8655 402 1096 66 406 36 32 190 44 57 35
internal_value=0 -1.54727e-05 0.000318941 0.000962521 0.00149543 0.00127837 0.00195613 0.00102424 0.00569647 0.00311752 0.000311177 0.00231827 -0.000992132 0.00530669 -0.00169861 -0.00274952 -9.19727e-05 -0.00127792 -0.000274133 4.13866e-06 0.000101071 0.000573587 0.00112832 0.00171515 0.00322768 0.0027336 0.00192441 0.00501537 0.00433468 0.00714013
internal_weight=0 45928 1899 740 553 529 366 293 73 46 254 100 154 55 127 89 1159 69 49 171705 11019 2364 1268 866 460 424 313 111 123 67
internal_count=217633 45928 1899 740 553 529 366 293 73 46 254 100 154 55 127 89 1159 69 49 171705 11019 2364 1268 866 460 424 313 111 123 67
shrinkage=0.05


Tree=290
num_leaves=31
num_cat=0
split_feature=28 5 41 41 15 28 43 43 5 11 5 21 12 1 23 7 13 3 40 3 8 23 30 15 11 16 41 19 0 24
split_gain=0.00588212 0.0375356 0.083502 0.18532 0.227149 0.179715 0.221968 0.273651 0.321377 0.176162 0.157463 0.134092 0.095356 0.117136 0.0819833 0.0483646 0.0415454 0.0405835 0.228241 0.0460508 0.0769814 0.0427112 0.0348079 0.0347599 0.027339 0.0272096 0.0541742 0.13684 0.099803 0.0666469
threshold=0.044227750000000003 1.0838450000000003e-05 0.22260499999999997 -0.33012499999999995 8.5142800000000005e-07 0.07628225000000001 2.4693750000000008 -1.39862 1.0004950000000002e-05 6.0793300000000006e-05 8.8143050000000017e-06 6.2342700000000013 2.7795450000000002e-05 4.0814950000000012 -9.5298349999999985 3.0443300000000004e-05 1.5725600000000004e-05 -18.627349999999996 0.010257000000000018 -18.305499999999995 -2.8574899999999999e-06 -13.953099999999997 0.0095837200000000022 -1.2833349999999995e-07 3.8424550000000001e-05 2.3811300000000004e-05 0.24875600000000014 0.00013951500000000002 4.648200000000001 1.3511250000000004
decision_type=2 2 2 2 2 2 2 2 2 2 2 2 2 2 2 2 2 2 2 2 2 2 2 2 2 2 2 2 2 2
left_child=-1 2 3 -2 5 12 7 14 11 10 -6 -9 -5 -14 -7 -16 23 18 21 20 -19 -3 -8 -15 -23 -21 27 -27 29 -29
right_child=1 17 -4 4 9 6 22 8 -10 -11 -12 -13 13 16 15 -17 -18 19 -20 25 -22 24 -24 -25 -26 26 -28 28 -30 -31
leaf_value=2.6133437689490525e-06 -3.1596119042767296e-05 -0.0022107237699674443 -9.3829954922374521e-06 -0.0029794574185652892 0.0028582432307302954 -0.0037670408608391883 -0.0021461700064140713 -0.0053679905767138637 -0.0094164519072364797 0.0052529301808681341 -0.0026406118079224448 -0.00084182150972386205 0.0037911270745098593 -0.00072762490117384004 0.00093882825140925979 -0.0021306450765613198 -0.0017634257490333931 -0.0038198974176858816 0.0057831475207058246 3.7541392465140151e-05 0.00012719961324667871 0.0019609992692426205 0.00016396069907978741 0.0020578546276304962 -0.00036872196078012866 -0.004205291246277435 -1.558435339186805e-07 -0.00030050221772744742 -0.0021828954505811755 0.001970192393020946
leaf_weight=197655 767 20 2710 25 23 24 22 36 32 20 30 30 21 24 33 21 33 21 20 13021 30 20 63 21 34 24 2098 652 69 34
leaf_count=197655 767 20 2710 25 23 24 22 36 32 20 30 30 21 24 33 21 33 21 20 13021 30 20 63 21 34 24 2098 652 69 34
internal_value=0 -2.58555e-05 -0.000164239 -0.00050682 -0.00130266 -0.00178753 -0.00253213 -0.00354545 -0.00530438 0.00125452 -0.000254316 -0.00331064 -0.000220273 0.000476491 -0.00133553 -0.000254856 -0.000415912 8.08713e-06 0.00104396 1.98194e-06 -0.00149808 -0.000236906 -0.000433955 0.000572266 0.000494138 6.79405e-06 -0.000132365 -0.000488431 -0.000370279 -0.000187961
internal_weight=0 19978 3935 1225 458 385 261 176 98 73 53 66 124 99 78 54 78 16043 94 15949 51 74 85 45 54 15898 2877 779 755 686
internal_count=217633 19978 3935 1225 458 385 261 176 98 73 53 66 124 99 78 54 78 16043 94 15949 51 74 85 45 54 15898 2877 779 755 686
shrinkage=0.05


Tree=291
num_leaves=31
num_cat=0
split_feature=31 3 24 0 24 40 29 3 43 34 34 21 20 9 21 40 41 11 20 43 19 19 9 40 1 11 13 40 40 3
split_gain=0.00562611 0.026641 0.119066 0.050072 0.0844872 0.0975223 0.044742 0.0739472 0.0429829 0.042602 0.145783 0.0310249 0.0306089 0.12568 0.0262524 0.0912604 0.482725 0.343668 0.565699 0.391221 0.181093 0.38826 0.250722 0.0980762 0.0755566 0.0594692 0.115874 0.0547729 0.0542765 0.155628
threshold=-0.29411049999999994 -16.131449999999997 2.1521500000000002 1.6079050000000004 -0.96093699999999993 -0.30278099999999991 -0.027444349999999996 -17.069699999999997 3.7486700000000006 4.6183500000000004 2.1557050000000006 14.999250000000002 -1.9409599999999998 -3.9923449999999997e-07 7.3737850000000007 0.10022550000000004 -0.43858299999999995 4.8912350000000013e-05 10.211950000000002 -1.5196849999999988 3.0721050000000003e-05 8.0243550000000009e-08 1.9954650000000004e-05 0.056773999999999998 10.319000000000001 0.00013888100000000001 0.00030062600000000007 0.016888500000000004 -0.27744100000000016 -10.001249999999997
decision_type=2 2 2 2 2 2 2 2 2 2 2 2 2 2 2 2 2 2 2 2 2 2 2 2 2 2 2 2 2 2
left_child=1 2 3 8 5 -5 9 -8 11 10 -6 12 13 -1 -3 23 25 20 19 -19 21 -18 -23 24 27 -17 -27 28 -16 -30
right_child=-2 14 -4 4 6 -7 7 -9 -10 -11 -12 -13 -14 -15 15 16 17 18 -20 -21 -22 22 -24 -25 -26 26 -28 -29 29 -31
leaf_value=-0.00051863461205637295 3.1420744666731755e-06 -2.6250313473825867e-05 0.0031396586506161842 -0.00010158612298815011 -0.0004197828189151198 -0.0041442374903791854 -0.00023670200948560564 -0.0036589682747877241 0.0019318426139831831 -0.002089066878523164 0.0029715286749758111 -0.0016118669484379044 -0.00015479049157650403 0.0037953307343996131 -3.310636960054285e-05 -7.4221898202705795e-05 -0.00062332995742098336 0.0034537865829770455 -0.0013613577610522044 0.012755404769156415 -0.0016682831312401073 0.0025331856845393005 0.0099193418398499499 -0.002603606343894315 0.0023336238001127533 0.0046461361495312306 -0.00023534162140886991 0.0020744160018411691 0.0010220304295476778 -0.0023423769120996807
leaf_weight=52 188793 24160 26 26 335 35 38 27 26 29 35 34 943 25 1613 938 51 20 20 26 38 27 20 38 33 20 31 29 56 89
leaf_count=52 188793 24160 26 26 335 35 38 27 26 29 35 34 943 25 1613 938 51 20 20 26 38 27 20 38 33 20 31 29 56 89
internal_value=0 -2.05687e-05 -0.000216849 -0.000271222 -0.000671777 -0.00242114 -0.000441796 -0.00165826 -7.65081e-05 -0.000243626 -9.89831e-05 -0.00012605 -7.65227e-05 0.000882003 -8.80301e-06 0.000129448 0.000471112 0.00269845 0.00565893 0.00871122 0.00126175 0.00239789 0.00567623 -8.95629e-05 -3.70718e-05 1.6185e-05 0.00167896 -8.08508e-05 -0.000116404 -0.00104302
internal_weight=0 28840 1631 1605 525 61 464 65 1080 399 370 1054 1020 77 27209 3049 1191 202 66 46 136 98 47 1858 1820 989 51 1787 1758 145
internal_count=217633 28840 1631 1605 525 61 464 65 1080 399 370 1054 1020 77 27209 3049 1191 202 66 46 136 98 47 1858 1820 989 51 1787 1758 145
shrinkage=0.05


Tree=292
num_leaves=31
num_cat=0
split_feature=27 14 19 15 13 13 13 15 15 20 3 16 12 18 16 24 17 19 0 24 15 7 35 15 15 40 41 40 23 30
split_gain=0.00573851 0.0167088 0.073442 0.228905 0.0292792 0.0254701 0.0336305 0.0216578 0.04599 0.0709156 0.0300328 0.087422 0.0341299 0.0279519 0.0365819 0.0348496 0.0273639 0.0174733 0.0158312 0.0142214 0.0112013 0.0108155 0.00858533 0.0794709 0.193498 0.221791 0.632342 0.225374 0.292837 0.271606
threshold=91.481750000000019 0.020162700000000002 0.0035512250000000003 1.2644850000000001e-05 0.00027347750000000006 0.00010299250000000001 9.0157500000000019e-05 1.6353050000000004e-05 3.6456250000000008e-06 -6.4328999999999992 -8.0060399999999969 1.3884700000000001e-05 0.00010629050000000001 3.940980000000001e-05 5.8204250000000011e-06 -1.0674849999999998 5.3722100000000007e-06 0.00035386650000000005 6.4712700000000014 1.0406250000000001 -1.1660999999999999e-06 3.5076150000000005e-05 -0.27384599999999998 -3.9387549999999988e-06 -2.6163199999999997e-05 -0.51801999999999981 0.14791590000000002 0.77415 -7.8892249999999988 0.036175450000000005
decision_type=2 2 2 2 2 2 2 2 2 2 2 2 2 2 2 2 2 2 2 2 2 2 2 2 2 2 2 2 2 2
left_child=22 5 3 -3 -4 6 7 8 10 19 13 12 16 14 -2 -15 20 -7 -9 -10 -12 -6 23 24 -1 -26 27 28 29 -27
right_child=1 2 4 -5 21 17 -8 18 9 -11 11 -13 -14 15 -16 -17 -18 -19 -20 -21 -22 -23 -24 -25 25 26 -28 -29 -30 -31
leaf_value=-5.9999423251940107e-05 -0.00016997642764460382 -0.0007286690648669492 0.0011274469803336414 0.0059894941597511729 -0.0012416662662658115 -0.0022692745992026176 0.0018794253977137574 -0.00042578218025381734 -0.00117676559840964 0.0027246897426569678 -0.00099369372157901846 0.0031558740894648838 -0.0017905222439030359 -7.7028961386531604e-05 -0.0019385177678486799 -0.0025361801668837228 0.0018454733554972337 -0.00060359808507249961 -0.0017772256634235681 0.00066544587782118474 1.5848066712144341e-05 -0.0002384221851627899 -8.8427132414615882e-07 -4.0828326029401131e-05 -0.00031364416375967072 -0.0009656442302262545 0.0081702472126061049 -0.00013515692926057774 0.0073994195386249996 0.0049023800630080099
leaf_weight=760 339 32 36 21 34 20 21 72 22 36 29 22 27 25 32 34 20 74 31 20 523 128 210723 4115 148 49 37 143 27 33
leaf_count=760 339 32 36 21 34 20 21 72 22 36 29 22 27 25 32 34 20 74 31 20 523 128 210723 4115 148 49 37 143 27 33
internal_value=0 -9.44019e-05 0.000280141 0.00193324 -0.000162357 -0.000164194 -0.000104643 -0.000138463 -7.51422e-05 0.00109627 -0.000162078 6.03318e-05 -5.3361e-05 -0.00048328 -0.000322519 -0.00149417 2.86379e-05 -0.000957997 -0.000832527 -0.000299522 -3.71895e-05 -0.00044898 6.98286e-07 6.34771e-05 0.000422054 0.00126041 0.0020665 0.00117031 0.00288299 0.00139588
internal_weight=0 1598 251 53 198 1347 1253 1232 1129 78 1051 621 599 430 371 59 572 94 103 42 552 162 216035 5312 1197 437 289 252 109 82
internal_count=217633 1598 251 53 198 1347 1253 1232 1129 78 1051 621 599 430 371 59 572 94 103 42 552 162 216035 5312 1197 437 289 252 109 82
shrinkage=0.05


Tree=293
num_leaves=31
num_cat=0
split_feature=25 40 40 43 44 13 36 15 14 7 6 10 6 2 15 25 29 21 22 23 4 22 21 5 0 16 26 34 43 15
split_gain=0.00570379 0.029209 0.291572 0.349721 0.458482 0.377956 0.596167 0.392848 0.323176 0.317367 0.240064 0.294591 0.247439 0.22903 0.224091 0.216005 0.205652 0.202374 0.272302 0.197912 0.186661 0.169333 0.163087 0.157436 0.124347 0.105343 0.135631 0.128648 0.188231 0.357585
threshold=12.831100000000001 -0.19934349999999995 0.12375499999999996 -1.6462299999999999 -1.1537099999999991 1.5374300000000003e-05 -0.055004599999999994 -4.0168599999999999e-07 0.00099716450000000021 6.2448650000000014e-05 -1.8399949999999996e-06 6.0385400000000006e-05 6.6168600000000009e-07 -1.4330849999999997 1.6015900000000004e-08 32.859550000000006 0.099917750000000013 -8.2769249999999985 -2.1362749999999995 -9.2844749999999987 -0.3422659999999999 2.6187600000000004 3.3144750000000003 1.2843600000000002e-05 -11.331049999999999 -1.0656299999999998e-05 -0.00055385149999999991 1.9974350000000001 2.7930350000000002 4.7226350000000001e-07
decision_type=2 2 2 2 2 2 2 2 2 2 2 2 2 2 2 2 2 2 2 2 2 2 2 2 2 2 2 2 2 2
left_child=-1 -2 3 9 24 6 14 8 -8 17 11 -7 15 -9 -6 16 23 -3 -19 -20 -11 -4 -23 -12 -5 26 -26 -27 29 -29
right_child=1 2 21 4 5 10 7 13 -10 20 12 -13 -14 -15 -16 -17 -18 18 19 -21 -22 22 -24 -25 25 27 -28 28 -30 -31
leaf_value=2.1275095436880779e-06 4.5784919784501866e-05 -0.0036536184920578311 4.3300346479976803e-06 0.0031734375814570139 -0.012908151620914313 -0.0064692816697061069 0.0040722169882307455 -0.0006119142973884231 -0.0039062452301467684 0.0014575084389070981 -0.0020211534397233102 0.001099176094867289 -0.0043798344508420841 -0.0068161425831289417 -0.005989049469120801 -0.0022947718618929179 0.0070871030157875457 0.0061588049348210924 0.0036563621547039864 -0.0010608464916408088 0.0082886995672015479 0.0064602955256123102 7.5010521395597611e-05 0.0041773862356785686 -0.00024971473652152091 -0.0023154756615283612 -0.0046949856223363895 0.00021635431110945659 -0.00048152352112666914 0.0079686672637416505
leaf_weight=203570 6604 32 6417 24 22 36 30 21 22 20 21 20 23 51 25 27 21 20 28 108 20 20 20 20 37 58 32 51 212 21
leaf_count=203570 6604 32 6417 24 22 36 30 21 22 20 21 20 23 51 25 27 21 20 28 108 20 20 20 20 37 58 32 51 212 21
internal_value=0 -3.07969e-05 -9.86004e-05 -0.000892168 -0.00139915 -0.00277765 -0.00443246 -0.00261487 0.000696714 0.000828909 -0.00109329 -0.00376626 0.000243193 -0.00500658 -0.00922778 0.00143791 0.00306343 -3.15584e-05 0.000711428 -8.96565e-05 0.0048731 2.45458e-05 0.00326765 0.00100252 -0.000324876 -0.000529157 -0.00231129 -0.000169604 0.000268638 0.00247745
internal_weight=0 14063 7459 1002 774 339 171 124 52 228 168 56 112 72 47 89 62 188 156 136 40 6457 40 41 435 411 69 342 284 72
internal_count=217633 14063 7459 1002 774 339 171 124 52 228 168 56 112 72 47 89 62 188 156 136 40 6457 40 41 435 411 69 342 284 72
shrinkage=0.05


Tree=294
num_leaves=31
num_cat=0
split_feature=7 40 12 31 24 14 34 9 28 40 20 40 37 0 0 40 40 10 24 11 2 40 41 11 26 43 5 34 24 40
split_gain=0.00532121 0.0207074 0.0162087 0.0362757 0.0171095 0.0277819 0.0151083 0.0141614 0.0118513 0.0453458 0.131484 0.0702254 0.0159388 0.0271773 0.123687 0.0162543 0.199163 0.122293 0.0971785 0.0543017 0.0297511 0.0273126 0.0399288 0.0269408 0.0161327 0.014244 0.0217924 0.018155 0.0194407 0.0130917
threshold=2.2278700000000004e-05 5.4411200000000006 0.00040324100000000009 0.001569195 0.82362200000000019 0.0050185850000000016 0.98241950000000011 -2.0514499999999998e-05 -0.060167999999999992 0.2761725000000001 -2.6027399999999994 -0.079468000000000025 -4.5033049999999994e-07 -3.6002049999999994 -3.8017449999999995 0.02582950000000005 -0.079468000000000025 1.7151150000000003e-05 0.23066900000000004 2.1571850000000003e-05 -2.2715599999999996 0.039429999999999972 -0.057539999999999918 1.1838750000000001e-05 0.0017607100000000002 -0.56159999999999977 8.1441900000000017e-06 0.048571850000000007 0.13403450000000003 -0.40968649999999995
decision_type=2 2 2 2 2 2 2 2 2 2 2 2 2 2 2 2 2 2 2 2 2 2 2 2 2 2 2 2 2 2
left_child=1 2 4 -4 7 6 -6 -1 9 10 -9 29 13 14 -10 16 -14 18 19 23 -17 -22 -23 25 -15 -18 -27 28 -28 -12
right_child=-2 -3 3 -5 5 -7 -8 8 12 -11 11 -13 15 24 -16 20 17 -19 -20 -21 21 22 -24 -25 -26 26 27 -29 -30 -31
leaf_value=-0.0010340918433090944 -1.3232922315279802e-06 0.0015119621264602758 0.0025911908302077794 -0.0001074412395555004 -0.0012478919094844191 -0.0017844747712050806 7.1488962868113709e-06 0.0044437209803921485 -5.1314604999034761e-05 -5.3491979354853941e-05 -4.4938291815924461e-05 0.002819295823324605 -8.8042685884197791e-06 3.0006981088319337e-05 -0.0037185184673583943 -0.0019026718622193414 -0.00056015599944988614 0.0040156428324974658 0.0043300675007049002 0.0028171264618221258 -0.001535916949345345 -1.4487905452415982e-05 0.0019954178228799718 -0.0011407595447963104 -0.0013236868385676011 0.0019671788373671006 0.00047143796616613772 -0.00079799576011613358 0.0021865731163416059 -0.0015585573901262251
leaf_weight=30 211572 24 20 33 28 31 167 24 111 243 50 21 2190 511 29 21 22 38 20 27 29 2131 25 24 23 32 95 22 20 20
leaf_count=30 211572 24 20 33 28 31 167 24 111 243 50 21 2190 511 29 21 22 38 20 27 29 2131 25 24 23 32 95 22 20 20
internal_value=0 4.61923e-05 4.03652e-05 0.00091091 3.26548e-05 -0.000394097 -0.000173062 4.94047e-05 5.50794e-05 0.000333625 0.00115162 0.000283375 3.65097e-05 -0.000190867 -0.00081095 6.91442e-05 0.000156702 0.00136489 0.000980435 0.000703606 -2.96854e-05 -1.16842e-05 8.81805e-06 0.000438187 -2.82982e-05 0.000636589 0.000792378 0.000517972 0.000769722 -0.000477401
internal_weight=0 6061 6037 53 5984 226 195 5758 5728 358 115 91 5370 674 140 4696 2490 300 262 242 2206 2185 2156 215 534 191 169 137 115 70
internal_count=217633 6061 6037 53 5984 226 195 5758 5728 358 115 91 5370 674 140 4696 2490 300 262 242 2206 2185 2156 215 534 191 169 137 115 70
shrinkage=0.05


Tree=295
num_leaves=31
num_cat=0
split_feature=44 3 24 40 28 34 18 16 5 40 29 21 15 43 15 20 19 41 33 14 37 28 8 15 37 43 21 40 41 43
split_gain=0.00531242 0.0284598 0.385771 0.0547349 0.0143049 0.0434722 0.0734584 0.108244 0.040571 0.074649 0.125057 0.110403 0.123766 0.11472 0.0971526 0.180638 0.235025 0.0946943 0.165342 0.227436 0.14034 0.111928 0.0812573 0.0804663 0.0771341 0.0598541 0.0560608 0.105669 0.214393 0.497829
threshold=-3.3334999999999999 -16.722199999999997 1.1195950000000001 0.039429999999999972 0.044227750000000003 34.706300000000006 -5.2324399999999995e-06 3.0231500000000004e-06 1.0838450000000003e-05 -0.40968649999999995 0.057167000000000003 5.6028050000000009 -3.3937349999999994e-07 -1.39862 8.5142800000000005e-07 1.9841050000000002 0.00061572950000000014 -0.33012499999999995 -8.1044199999999979e-05 0.0017362250000000003 -2.7948149999999997e-06 0.068796600000000013 -9.1205699999999983e-06 -6.9195199999999976e-08 8.5454350000000004e-08 0.27381999999999979 0.26237100000000008 -0.43704099999999996 -0.25176499999999996 -0.36707999999999957
decision_type=2 2 2 2 2 2 2 2 2 2 2 2 2 2 2 2 2 2 2 2 2 2 2 2 2 2 2 2 2 2
left_child=1 2 3 -1 5 -2 7 -7 9 -6 14 12 13 -12 17 16 -16 -11 19 -19 -20 23 -13 -22 -23 -24 27 -10 -29 -30
right_child=4 -3 -4 -5 8 6 -8 -9 26 10 11 22 -14 -15 15 -17 -18 18 20 -21 21 24 25 -25 -26 -27 -28 28 29 -31
leaf_value=-0.0023300051521139473 2.0896332258094358e-07 1.0496416982705954e-05 0.0070243960894003981 0.00047086778779614822 -3.5010711635628659e-05 -0.00056305738507944625 0.00012992821691167433 -0.0052520986930176157 -4.0942921426363502e-05 -8.8259765350250606e-05 -0.0016479259652007151 -0.0029542633032674948 -0.00069005708231801492 -0.0061936745224686878 0.0072875214768351911 -0.00077812613693938135 0.00043676845499806318 -0.0013576418724066267 0.0028916485621593895 -0.0078117127563538296 -0.0014009652416018818 -0.0041893329041259786 -0.0007831572068337869 0.001831979488633806 -0.00099912683323054806 0.002583268485859267 -6.3181748051083917e-05 3.3621351267056975e-05 0.0039579873801464183 -0.00087333317722450277
leaf_weight=33 138003 67110 20 37 1711 32 68 20 1035 402 23 22 37 35 21 63 31 39 25 21 39 36 31 38 40 23 8067 349 133 89
leaf_count=33 138003 67110 20 37 1711 32 68 20 1035 402 23 22 37 35 21 63 31 39 25 21 39 36 31 38 40 23 8067 349 133 89
internal_value=0 1.1688e-05 0.000900221 -0.000849544 -5.22116e-06 -6.18196e-07 -0.000951872 -0.00236653 -5.68682e-05 -0.000230718 -0.000592333 -0.00181327 -0.00294961 -0.00439105 -0.000315802 0.00102222 0.00320342 -0.000556229 -0.00134666 -0.00361657 -0.00058153 -0.00114904 -0.000392849 0.000194514 -0.00251028 0.000650691 -9.47416e-06 0.000260301 0.000806339 0.00202111
internal_weight=0 67200 90 70 150433 138123 120 52 12310 2637 926 171 95 58 755 115 52 640 238 60 178 153 76 77 76 54 9673 1606 571 222
internal_count=217633 67200 90 70 150433 138123 120 52 12310 2637 926 171 95 58 755 115 52 640 238 60 178 153 76 77 76 54 9673 1606 571 222
shrinkage=0.05


Tree=296
num_leaves=31
num_cat=0
split_feature=34 44 29 9 43 43 21 14 32 10 43 40 40 40 3 5 43 5 43 14 40 40 43 43 14 19 43 20 44 3
split_gain=0.00514364 0.0250194 0.0263658 0.0641358 0.219588 0.263893 0.0264599 0.0147587 0.0457334 0.104473 0.0244204 0.0543727 0.102783 0.0466307 0.0331474 0.0562192 0.0308875 0.0153597 0.0137424 0.015445 0.0308263 0.527931 0.00763108 0.020665 0.00781291 0.00752287 0.0244878 0.00749661 0.0882175 0.164515
threshold=0.0037330700000000002 0.87140500000000032 -0.0028213899999999996 3.0195150000000005e-05 -0.026199999999999776 -0.41630000000000006 6.1622250000000012 0.00010396350000000002 -0.023235649999999997 2.7345650000000005e-05 0.20156999999999983 -0.040859549999999939 -0.43704099999999996 0.077348000000000056 -6.3074049999999993 1.5430850000000002e-05 -0.054875 7.5984950000000007e-06 -0.15760999999999911 0.00048506450000000007 -0.12496499999999998 0.10022550000000004 0.16841000000000064 0.20156999999999983 0.00017214350000000002 1.3260550000000003e-08 0.60048999999999852 7.2203350000000013 0.23534999999999953 -8.7781499999999983
decision_type=2 2 2 2 2 2 2 2 2 2 2 2 2 2 2 2 2 2 2 2 2 2 2 2 2 2 2 2 2 2
left_child=1 2 3 -1 5 -5 -6 10 9 -9 11 12 -4 16 15 -12 -13 -16 19 20 -10 -22 24 -24 -20 26 -25 -2 29 -29
right_child=27 -3 7 4 6 -7 -8 8 18 -11 14 13 -14 -15 17 -17 -18 -19 22 -21 21 -23 23 25 -26 -27 -28 28 -30 -31
leaf_value=-3.1654657709167232e-05 -2.0351149508731622e-06 2.6971592131136095e-05 -6.7739494697279597e-05 -0.00080385274218861013 -2.4066172742929933e-07 -0.0085094335557369047 -0.0019508437389231404 -0.0042696496815055563 -7.1285280090330126e-05 3.950693155788124e-05 -0.00026104984784332806 0.0025509026055224242 -0.0037652528634117472 -0.00010064806423270055 -0.0012512141103518215 -0.0032366684419685046 0.00072646996874784506 -2.749064708068538e-05 0.00036881337842792946 -5.4666704306961813e-05 -0.0077558251768350605 -7.3461079743199084e-05 -0.0013822651538923252 -0.0020556469007215129 -5.7524543977667639e-05 -3.8566992084495802e-05 -1.7464838088037433e-05 0.00054943523304460404 -6.2446497854468403e-05 4.8255711768724178e-05
leaf_weight=349 173000 8142 179 25 133 20 20 22 230 39 57 25 21 200 26 22 322 1864 198 381 25 212 31 20 235 1043 56 1855 14921 13960
leaf_count=349 173000 8142 179 25 133 20 20 22 230 39 57 25 21 200 26 22 322 1864 198 381 25 212 31 20 235 1043 56 1855 14921 13960
internal_value=0 -2.94318e-05 -0.000109229 -0.000439454 -0.00115825 -0.00422856 -0.000255221 -7.45458e-05 -0.000162417 -0.00151462 6.07876e-06 0.000249492 -0.000455978 0.000507434 -8.62675e-05 -0.0010897 0.000857913 -4.43249e-05 -0.000128487 -0.000290912 -0.000483651 -0.000883837 -4.14781e-05 -0.00010884 0.000137429 -7.35624e-05 -0.000553829 2.00756e-06 2.47621e-05 0.000107041
internal_weight=0 13897 5755 547 198 45 153 5208 2492 61 2716 747 200 547 1969 79 347 1890 2431 848 467 237 1583 1150 433 1119 76 203736 30736 15815
internal_count=217633 13897 5755 547 198 45 153 5208 2492 61 2716 747 200 547 1969 79 347 1890 2431 848 467 237 1583 1150 433 1119 76 203736 30736 15815
shrinkage=0.05


Tree=297
num_leaves=31
num_cat=0
split_feature=27 14 19 40 13 13 13 15 15 40 18 3 16 4 24 40 16 12 17 5 13 18 11 15 14 20 0 23 9 10
split_gain=0.00544217 0.0150607 0.0659509 0.217147 0.0259424 0.0227864 0.0294548 0.0199854 0.0404957 0.0666667 0.0622999 0.0269028 0.0797485 0.0322381 0.0423821 0.071168 0.033492 0.0303234 0.0247546 0.0164711 0.0145273 0.0132655 0.0115672 0.00925194 0.0202438 0.00785947 0.164259 0.252203 0.0872096 0.213957
threshold=91.481750000000019 0.020162700000000002 0.0035512250000000003 -0.51801999999999981 0.00027347750000000006 0.00010299250000000001 9.0157500000000019e-05 1.6353050000000004e-05 3.6456250000000008e-06 -0.60254799999999997 -1.2604899999999999e-05 -8.0060399999999969 1.3884700000000001e-05 0.26785250000000005 -1.0674849999999998 -0.46506469999999994 5.8204250000000011e-06 0.00010629050000000001 5.3722100000000007e-06 1.5198800000000003e-05 4.282900000000001e-06 -0.00028306949999999995 3.0643750000000003e-05 1.0214300000000003e-06 0.00032556500000000004 16.002400000000005 12.423150000000001 -7.9481399999999995 7.4503950000000014e-05 0.00013176500000000002
decision_type=2 2 2 2 2 2 2 2 2 2 2 2 2 2 2 2 2 2 2 2 2 2 2 2 2 2 2 2 2 2
left_child=25 5 3 -3 -4 6 7 8 11 -10 -11 13 17 16 -15 -16 -2 18 22 -7 -9 -22 23 24 -13 -1 28 -28 -27 -30
right_child=1 2 4 -5 -6 19 -8 20 9 10 -12 12 -14 14 15 -17 -18 -19 -20 -21 21 -23 -24 -25 -26 26 27 -29 29 -31
leaf_value=-8.2137847814098246e-08 -0.00010230231978581241 -0.0013104231281128402 0.0010584211930917164 0.0050915921720003938 -0.00042546021255857118 -0.0018757234599130852 0.001754946689609261 -0.0001261036209244695 -0.00047321585933739131 0.00047801669570617382 0.004424530725227669 -9.467822453320288e-06 0.0030127989715930947 5.8282491295358341e-06 -0.00024873526399027298 -0.0042344247000679998 -0.0017985930830946018 -0.0016897817338489135 0.0017529789723630528 -0.00045586712045491144 -0.00028098392562242225 -0.0018718689459523087 -0.0010278251741380831 -0.00096532863858358369 0.0015091796716897872 -6.7945166590737029e-05 -0.00040988658760657672 0.0064994182657683273 0.0057214952662020969 -0.0010393424537760438
leaf_weight=214664 321 27 36 26 162 30 21 45 38 20 20 478 22 32 21 24 32 27 20 64 20 38 28 23 23 1271 28 25 22 25
leaf_count=214664 321 27 36 26 162 30 21 45 38 20 20 478 22 32 21 24 32 27 20 64 20 38 28 23 23 1271 28 25 22 25
internal_value=0 -9.19322e-05 0.00026366 0.00183019 -0.000155664 -0.000158193 -0.000101867 -0.000133517 -7.26904e-05 0.00102652 0.00245127 -0.000154269 5.62333e-05 -0.000458272 -0.00138524 -0.00237444 -0.000256074 -5.23551e-05 2.49361e-05 -0.000909013 -0.000800246 -0.00132329 -3.76742e-05 1.52346e-05 6.02505e-05 6.80018e-07 0.000120014 0.00284922 1.02663e-05 0.0021253
internal_weight=0 1598 251 53 198 1347 1253 1232 1129 78 40 1051 621 430 77 45 353 599 572 94 103 58 552 524 501 216035 1371 53 1318 47
internal_count=217633 1598 251 53 198 1347 1253 1232 1129 78 40 1051 621 430 77 45 353 599 572 94 103 58 552 524 501 216035 1371 53 1318 47
shrinkage=0.05


Tree=298
num_leaves=31
num_cat=0
split_feature=31 3 24 0 24 23 29 7 34 34 43 21 20 9 21 40 40 11 20 13 19 19 0 40 1 20 1 2 11 13
split_gain=0.00533029 0.0239659 0.104669 0.0453347 0.0742822 0.0867665 0.0396659 0.0708367 0.0396532 0.129229 0.0378949 0.0271322 0.0266909 0.110407 0.0249159 0.080969 0.422178 0.290255 0.464038 0.406976 0.158918 0.327228 0.179369 0.0880182 0.0692475 0.148441 0.0581713 0.116265 0.0545295 0.0991263
threshold=-0.29411049999999994 -16.131449999999997 2.1521500000000002 1.6079050000000004 -0.96093699999999993 -14.94685 -0.027444349999999996 3.8533650000000003e-05 4.6183500000000004 2.1557050000000006 3.7486700000000006 14.999250000000002 -1.9409599999999998 -3.9923449999999997e-07 7.3737850000000007 0.10022550000000004 0.46240350000000002 4.8912350000000013e-05 10.211950000000002 7.2361400000000022e-05 3.0721050000000003e-05 8.0243550000000009e-08 3.3228650000000006 0.056773999999999998 9.319485000000002 6.4251500000000012 8.1525150000000028 1.0993000000000002 0.00013888100000000001 0.00030062600000000007
decision_type=2 2 2 2 2 2 2 2 2 2 2 2 2 2 2 2 2 2 2 2 2 2 2 2 2 2 2 2 2 2
left_child=1 2 3 10 5 -5 8 -8 9 -6 11 12 13 -1 -3 23 17 20 19 -19 21 -17 -23 24 26 -26 27 -16 -18 -30
right_child=-2 14 -4 4 6 -7 7 -9 -10 -11 -12 -13 -14 -15 15 16 28 18 -20 -21 -22 22 -24 -25 25 -27 -28 -29 29 -31
leaf_value=-0.00048979172669043282 3.0583525281944207e-06 -2.5858674337000826e-05 0.0029408621608476657 -0.0042594906629127424 -0.00039855669421876212 -0.00048344658785026695 -0.0037254274695442294 -0.00030517486822379686 -0.0020164961294383455 0.0027944058357388716 0.0018138495114936423 -0.0015078909982762794 -0.0001451800899274761 0.0035535690642427655 -8.786588612408558e-05 -0.00056681468287514197 -7.6071761882037816e-05 0.012801707908974178 -0.0012840870756190273 0.0036403605045052245 -0.0014892440734001868 0.0016654690693196081 0.0076525950162061335 -0.0024621144929704696 -0.00055988538199796623 0.0050011600780722112 -0.0022289285150852646 0.0037464699463453143 0.0043432844054404991 -0.00023232006346445597
leaf_weight=52 188793 24160 26 29 335 32 24 41 29 35 26 34 943 25 1720 52 930 22 20 27 40 22 29 38 28 21 31 20 20 29
leaf_count=52 188793 24160 26 29 335 32 24 41 29 35 26 34 943 25 1720 52 930 22 20 27 40 22 29 38 28 21 31 20 20 29
internal_value=0 -2.00207e-05 -0.000206186 -0.000257166 -0.000638302 -0.00227862 -0.000422658 -0.00156804 -0.000236067 -9.65197e-05 -7.18916e-05 -0.000118409 -7.20929e-05 0.000822988 -8.86127e-06 0.000125825 0.000447648 0.0024706 0.00513399 0.00775362 0.00118546 0.00222419 0.00506991 -8.0468e-05 -3.07413e-05 0.00182342 -8.20422e-05 -4.37931e-05 9.58291e-06 0.00163527
internal_weight=0 28840 1631 1605 525 61 464 65 399 370 1080 1054 1020 77 27209 3049 1191 212 69 49 143 103 51 1858 1820 49 1771 1740 979 49
internal_count=217633 28840 1631 1605 525 61 464 65 399 370 1080 1054 1020 77 27209 3049 1191 212 69 49 143 103 51 1858 1820 49 1771 1740 979 49
shrinkage=0.05


Tree=299
num_leaves=31
num_cat=0
split_feature=25 40 40 43 7 0 20 44 39 13 40 40 13 7 28 0 5 36 36 21 11 1 0 10 30 20 3 43 9 26
split_gain=0.00526254 0.0281109 0.264981 0.268026 0.285452 0.256383 0.483092 0.250381 0.35157 0.295638 0.29378 0.327292 0.368523 0.45634 0.405473 0.290747 0.192935 0.187173 0.176411 0.175308 0.123183 0.112453 0.101583 0.0847713 0.157162 0.254266 0.360971 0.151784 0.136476 0.0982753
threshold=12.831100000000001 -0.19934349999999995 0.20129000000000011 -1.6462299999999999 6.9162400000000014e-05 -4.7236949999999993 0.19035450000000001 -1.1537099999999991 0.095974000000000018 3.9955600000000008e-05 0.12375499999999996 -0.079468000000000025 1.5374300000000003e-05 5.5869050000000007e-05 -0.11504399999999999 -5.6117099999999995 1.3685250000000001e-05 0.053416050000000007 -0.43959349999999991 -3.6047649999999996 -8.8703799999999996e-05 -4.7501699999999989 -11.535399999999997 3.8349550000000013e-05 0.019658500000000006 8.0730100000000018 -8.0858449999999973 2.3674900000000001 1.5765000000000006e-05 0.011675600000000003
decision_type=2 2 2 2 2 2 2 2 2 2 2 2 2 2 2 2 2 2 2 2 2 2 2 2 2 2 2 2 2 2
left_child=-1 -2 3 4 5 6 -3 22 10 -10 11 15 13 14 16 -9 -13 -14 -7 -17 -20 -22 -5 24 28 27 -27 -26 -24 -25
right_child=1 2 -4 7 -6 18 -8 8 9 -11 -12 12 17 -15 -16 19 -18 -19 20 -21 21 -23 23 29 25 26 -28 -29 -30 -31
leaf_value=2.0435605288113489e-06 4.5546864601949599e-05 -0.00097367227385153203 3.3482698064002296e-05 0.0023910200437089299 0.004942510179314537 0.0032076788833364845 0.0092007920192554594 0.0043840054891288996 -0.010104584835062269 -0.0020801892588761719 0.0027294182697577135 -0.0012182311471551658 0.0020823495289677696 -0.00010177230973157191 -0.011381191885790461 0.0014612203169118373 -0.0078068779793102304 -0.0027143910254861388 -0.004279683344066143 -0.0033625077043931621 0.0018042739991373806 -0.0015236293960796585 -0.00049233631182384367 -0.00081910156270346426 0.0024633951640377445 0.0086208396419394945 -0.0006498421725284841 -0.001037954090522059 -0.0058245540125062695 -0.0033709917902917962
leaf_weight=203570 6604 28 6273 29 33 24 20 29 24 22 35 25 33 31 34 31 20 53 30 48 33 110 30 164 39 21 21 150 20 49
leaf_count=203570 6604 28 6273 29 33 24 20 29 24 22 35 25 33 31 34 31 20 53 30 48 33 110 30 164 39 21 21 150 20 49
internal_value=0 -2.95817e-05 -9.60986e-05 -0.000781481 0.000576948 -1.10669e-05 0.00326569 -0.00119739 -0.0021651 -0.00626683 -0.00160853 -0.00210796 -0.00332579 -0.00524281 -0.00726018 0.000102163 -0.00414652 -0.000873781 -0.000809464 -0.00146965 -0.00136676 -0.000755652 -0.000485015 -0.000653851 -8.35976e-05 0.000466538 0.0039855 -0.000315453 -0.00262522 -0.00140616
internal_weight=0 14063 7459 1186 278 245 48 908 385 46 339 304 196 110 79 108 45 86 197 79 173 143 523 494 281 231 42 189 50 213
internal_count=217633 14063 7459 1186 278 245 48 908 385 46 339 304 196 110 79 108 45 86 197 79 173 143 523 494 281 231 42 189 50 213
shrinkage=0.05


Tree=300
num_leaves=31
num_cat=0
split_feature=41 21 44 44 21 22 40 41 3 19 40 20 37 8 31 5 6 19 43 21 43 13 8 21 19 21 26 40 4 38
split_gain=0.00499337 0.120474 0.00582945 0.0616322 0.0635341 0.154382 0.0757333 0.685144 0.706665 0.732546 0.622847 0.409612 0.505185 0.416361 0.362198 0.331086 0.288576 0.205363 0.201834 0.194876 0.193287 0.157563 0.109801 0.103889 0.208707 0.0766034 0.0766658 0.265286 2.01468 0.996354
threshold=5.6849350000000003 -3.7984549999999992 -0.8551649999999994 -0.20255000000000042 -8.8025949999999984 -2.5049849999999996 0.14973499999999998 -0.026150000000000003 -12.510449999999999 8.8529750000000019e-08 0.056773999999999998 6.5793150000000002 1.4324750000000003e-07 3.3898950000000004e-06 0.050147400000000002 1.5809250000000005e-05 -1.0087549999999998e-06 0.00030204050000000006 0.31279500000000043 8.1649450000000012 0.51814999999999956 2.7325550000000001e-05 7.3677000000000015e-06 14.999250000000002 0.00012624750000000005 -8.6662999999999979 -5.213919999999999e-05 -0.058960000000000005 0.042230550000000013 9.5270700000000009e-05
decision_type=2 2 2 2 2 2 2 2 2 2 2 2 2 2 2 2 2 2 2 2 2 2 2 2 2 2 2 2 2 2
left_child=2 -2 -1 4 5 -4 7 8 16 10 -10 12 14 -14 18 17 -6 -13 -11 -20 -16 22 -18 -8 -25 -9 -27 -28 29 -29
right_child=1 -3 3 -5 6 -7 23 25 9 11 -12 15 13 -15 20 -17 21 -19 19 -21 -22 -23 -24 24 -26 26 27 28 -30 -31
leaf_value=7.4941785144360728e-06 0.0030371192294885133 -3.3399072776912935e-07 0.0037740296372092037 5.9261776975385723e-06 0.0065939719204007735 9.9292350247536077e-05 -1.8299513576522241e-05 -0.0026923681197864617 -0.014369461935013534 -0.0074051435071009189 -0.0036001326612614356 -0.0059084099065512419 -0.0042684500467860039 -0.013266181012149901 0.0039509541801958075 0.0042527036848352164 0.0035900774839965088 0.00088913906528614471 -0.0048077360607331268 0.00047720357137167766 -0.0021770271044012838 -0.0030680842023754779 -0.0010924927118356295 0.0060444201320587173 -0.00071699809585697952 6.4142635022083159e-05 -9.3012675815767819e-05 -0.0091587771836202595 -0.0086195336479249814 0.00057533256451617579
leaf_weight=111473 34 819 29 91535 22 1980 4590 29 25 27 29 20 36 20 31 37 31 25 37 33 22 26 21 21 25 3111 3007 28 80 430
leaf_count=111473 34 819 29 91535 22 1980 4590 29 25 27 29 20 36 20 31 37 31 25 37 33 22 26 21 21 25 3111 3007 28 80 430
internal_value=0 0.000120737 -4.75083e-07 -8.91097e-06 -0.000107525 0.000152337 -0.000151907 -0.00025423 -0.00216078 -0.00324184 -0.00858593 -0.00223983 -0.00342952 -0.00748193 -0.00191662 0.000748906 0.00153647 -0.00213199 -0.00373276 -0.00231626 0.00140726 0.000109998 0.00169904 5.39541e-06 0.00236974 -0.000128173 -0.000117001 -0.000275967 -0.00129854 -1.97658e-05
internal_weight=0 853 216780 105307 13772 2009 11763 7127 442 342 54 288 206 56 150 82 100 45 97 70 53 78 52 4636 46 6685 6656 3545 538 458
internal_count=217633 853 216780 105307 13772 2009 11763 7127 442 342 54 288 206 56 150 82 100 45 97 70 53 78 52 4636 46 6685 6656 3545 538 458
shrinkage=0.05


Tree=301
num_leaves=31
num_cat=0
split_feature=18 24 4 43 20 40 40 36 11 9 21 7 22 3 4 40 25 10 9 9 39 18 14 3 17 24 4 40 41 43
split_gain=0.00504155 0.0752748 0.17292 0.215082 0.202924 0.247448 0.316657 0.407453 0.294955 0.203166 0.337145 0.178813 0.221266 0.141363 0.259529 0.134792 0.131039 0.103251 0.118932 0.0858832 0.0785385 0.0758307 0.0829036 0.0474748 0.0409685 0.0396301 0.0995168 0.122196 1.17576 0.612508
threshold=5.4626650000000007e-05 0.82362200000000019 2.1341250000000005 5.3602800000000004 -5.4217549999999992 -0.60254799999999997 -0.079468000000000025 -0.09986109999999998 -7.7868449999999985e-05 2.1412350000000005e-05 3.5621850000000004 4.5510850000000002e-05 1.5774100000000002 -16.722199999999997 4.6942400000000006 0.24966499999999994 5.5910550000000008 2.0928800000000005e-05 -2.4137799999999998e-05 3.6972250000000008e-05 0.044881000000000004 0.00082871750000000014 0.0069578350000000008 -13.614249999999998 4.3357350000000014e-06 -0.36167549999999998 1.8987000000000003 -0.3562499999999999 -0.12554300000000002 1.636995
decision_type=2 2 2 2 2 2 2 2 2 2 2 2 2 2 2 2 2 2 2 2 2 2 2 2 2 2 2 2 2 2
left_child=-1 25 3 4 5 -3 -7 24 -9 11 15 16 20 14 -4 19 -6 21 -19 -11 -13 22 -18 -23 -8 26 27 -2 -29 -30
right_child=1 2 13 -5 9 6 7 8 -10 10 -12 12 -14 -15 -16 -17 17 18 -20 -21 -22 23 -24 -25 -26 -27 -28 28 29 -31
leaf_value=3.9358364277105376e-06 8.6474492501507339e-06 -0.00019782914311387381 0.0056473280640383225 -0.00057525928193906558 0.0024907525516162559 0.0087056255001308671 -0.0026977889401314315 0.0014209439613572931 0.0090626487630028601 0.00031711121234272063 0.0067234939516631984 0.002061687295589274 0.0056315678190003386 -0.00021216117614947924 -0.0011646909259811597 -0.0026929815035622428 -0.00034078452169654031 -0.00092117230116855369 -0.0055906752424198201 0.0045156713363082544 -0.001824641572490621 -0.00042696504795458173 -0.0040246052767283153 0.0029768725922275779 0.00046421332779226804 -9.3500251272326618e-06 -1.2575383836188896e-05 -0.00013068961683734129 -0.0083650341995858725 -0.001818921643200455
leaf_weight=171705 787 48 29 187 27 28 20 23 28 29 34 26 28 1103 27 21 56 30 25 21 26 20 21 21 21 38130 4100 869 70 73
leaf_count=171705 787 48 29 187 27 28 20 23 28 29 34 26 28 1103 27 21 56 30 25 21 26 20 21 21 21 38130 4100 869 70 73
internal_value=0 -1.47144e-05 0.000293507 0.000890619 0.00138631 0.00283625 0.00404988 0.00263292 0.00561639 0.000753614 0.00262925 5.02491e-05 0.00204809 -8.77376e-05 0.00236296 0.00066863 -0.000748887 -0.0012545 -0.00304367 0.00208051 0.000118523 -0.000420556 -0.00134546 0.00131646 -0.00107823 -2.80082e-05 -0.000148611 -0.000458642 -0.000822038 -0.00502331
internal_weight=0 45928 1899 740 553 168 120 92 51 385 105 280 80 1159 56 71 200 173 55 50 52 118 77 41 41 44029 5899 1799 1012 143
internal_count=217633 45928 1899 740 553 168 120 92 51 385 105 280 80 1159 56 71 200 173 55 50 52 118 77 41 41 44029 5899 1799 1012 143
shrinkage=0.05


Tree=302
num_leaves=31
num_cat=0
split_feature=25 43 3 7 7 5 3 4 3 10 5 14 7 38 4 4 24 43 40 12 4 21 19 30 8 20 10 9 11 40
split_gain=0.00503449 0.026498 0.035749 0.225895 0.136242 0.218533 0.0527695 0.0550284 0.0415575 0.154352 0.0990522 0.106394 0.115486 0.0677998 0.0410167 0.14618 0.315132 0.288228 0.36665 0.584105 0.365665 0.231519 0.263436 0.211772 0.197875 0.092246 0.0799725 0.0758971 0.0744428 0.128634
threshold=12.831100000000001 -6.0363149999999992 -16.870699999999996 7.7189600000000011e-05 5.6918900000000001e-05 1.5809250000000005e-05 -16.558299999999999 -0.24562099999999998 -15.510599999999998 1.5606650000000004e-05 3.2063550000000006e-05 0.010316650000000002 4.1263950000000007e-05 0.6802760000000001 -0.42458499999999993 -1.6465649999999996 -0.62980599999999998 -0.27803499999999998 0.43531000000000003 -1.6843699999999999e-05 -1.1200049999999997 -12.332599999999998 0.0025984850000000006 0.017781650000000003 1.3245700000000003e-05 -3.7927449999999996 1.3944750000000001e-05 6.6503750000000008e-05 3.7226350000000003e-05 -0.19934349999999995
decision_type=2 2 2 2 2 2 2 2 2 2 2 2 2 2 2 2 2 2 2 2 2 2 2 2 2 2 2 2 2 2
left_child=-1 -2 3 4 5 -3 7 -4 9 -8 11 13 -13 -11 15 -10 17 18 19 20 -17 24 26 -22 25 -19 -23 28 -18 -30
right_child=1 2 6 -5 -6 -7 8 -9 14 10 -12 12 -14 -15 -16 16 27 21 -20 -21 23 22 -24 -25 -26 -27 -28 -29 29 -31
leaf_value=1.9987922185772819e-06 -0.00024838436818870374 -0.00043223332159163626 -0.0035959672701816694 0.0057055972783928155 -0.0032414592230522359 0.0047032442381519275 0.0043044941592177985 -5.5861654159936898e-05 -0.00012352576561511022 -0.0004481954539859662 0.0033481043684116143 0.0043053198970119414 -0.00027698481473986583 -0.0035688233519197512 -7.0394147738416367e-05 0.0069788586663240247 -9.7568049153752911e-05 0.0036968983416348546 -0.00025128885389802175 0.0096373484916208937 0.0026992838057181378 0.0025076113167285391 0.0049055871578166264 -0.0033344539894572412 0.0069574677274036019 -0.00049370913199301618 -0.00070391614614367069 0.002540503237798389 -0.0001886152786313947 -0.0034900833998678946
leaf_weight=203570 1253 89 21 20 26 27 26 23 1765 46 21 20 44 28 9672 28 282 24 58 39 33 21 25 26 23 29 252 21 70 51
leaf_count=203570 1253 89 21 20 26 27 26 23 1765 46 21 20 44 28 9672 28 282 24 58 39 33 21 25 26 23 29 252 21 70 51
internal_value=0 -2.89337e-05 -7.46827e-06 0.000730573 2.98654e-05 0.000763093 -1.69214e-05 -0.00174546 -1.08871e-05 0.000732984 0.000148964 -0.000337862 0.00115499 -0.00162897 -2.19682e-05 0.000148536 0.000637527 0.0014183 0.00303843 0.00455274 0.00227343 0.000621236 -7.00454e-06 4.03485e-05 0.0030846 0.00140392 -0.000456876 -0.000390002 -0.000542708 -0.00158014
internal_weight=0 14063 12810 162 142 116 12648 44 12604 185 159 138 64 74 12419 2747 982 558 184 126 87 374 298 59 76 53 273 424 403 121
internal_count=217633 14063 12810 162 142 116 12648 44 12604 185 159 138 64 74 12419 2747 982 558 184 126 87 374 298 59 76 53 273 424 403 121
shrinkage=0.05


Tree=303
num_leaves=31
num_cat=0
split_feature=7 40 26 2 31 23 21 8 44 24 11 43 13 43 8 26 2 40 43 40 40 43 9 3 40 26 8 7 7 21
split_gain=0.00497966 0.0186452 0.0161646 0.0313043 0.0748708 0.0189074 0.0668371 0.190111 0.0335312 0.049117 0.0365491 0.0355272 0.0444876 0.0359242 0.0299861 0.0232079 0.0166915 0.0708355 0.0125234 0.0107445 0.0148458 0.0233554 0.0106925 0.010592 0.0102878 0.0102404 0.00867569 0.00850462 0.0196694 0.0384261
threshold=2.2278700000000004e-05 5.4411200000000006 -7.2484149999999989e-05 -2.4792649999999994 0.076179100000000013 -8.5113849999999989 -8.6662999999999979 8.6517600000000013e-06 -0.81248999999999982 0.22693550000000004 0.00026084550000000006 -0.99152500000000054 -3.6340149999999998e-05 -0.77143500000000065 1.1032050000000001e-05 -6.4241049999999987e-05 2.2358750000000005 0.22528099999999995 0.68409500000000023 -0.011175000000000155 0.12375499999999996 -0.12174999999999957 1.9011650000000006e-05 -14.947699999999999 0.010257000000000018 0.00057196550000000008 -2.0196449999999995e-05 3.140425000000001e-05 3.0144500000000006e-05 14.003250000000001
decision_type=2 2 2 2 2 2 2 2 2 2 2 2 2 2 2 2 2 2 2 2 2 2 2 2 2 2 2 2 2 2
left_child=1 2 3 4 -1 6 7 -4 23 10 11 14 -13 -14 25 -15 22 -18 19 -17 21 -21 26 -8 -23 -10 -5 28 -2 -30
right_child=27 -3 5 16 -6 -7 8 -9 9 -11 -12 12 13 15 -16 18 17 -19 -20 20 -22 24 -24 -25 -26 -27 -28 -29 29 -31
leaf_value=8.2489161262569015e-05 -5.0639766677470537e-06 0.0014355535667694617 0.00015530278856937414 -0.00095820301969438883 -0.0036970034264959396 -3.4274502799130887e-05 0.00082126964584981711 0.0055654188295275993 -3.7937919560927017e-05 0.0024396692346499551 0.0022348432441503976 0.0029355006324476565 0.0023652539133157311 0.001780623208861261 0.001829903399101611 -0.0002880225445198671 -0.0026357012362083765 -1.1611606784497378e-05 0.0014204600540256252 0.0022479419797574256 -0.00011728099058382215 -0.00051717958386606454 0.00095388523699637458 -3.5922087230022324e-05 0.0008786906128851555 -0.00096477158585912555 -1.0768887262684419e-06 3.6661114107970513e-06 -0.00010559678973310694 0.00092237501883415539
leaf_weight=38 33670 24 62 24 20 1624 37 22 434 28 24 20 24 26 21 98 32 131 20 22 75 22 29 1386 33 32 1753 170149 7661 92
leaf_count=38 33670 24 62 24 20 1624 37 22 434 28 24 20 24 26 21 98 32 131 20 22 75 22 29 1386 33 32 1753 170149 7661 92
internal_value=0 4.46853e-05 3.91559e-05 -7.59206e-05 -0.00122078 9.73255e-05 0.000186897 0.00157224 0.000136346 0.000379147 0.00031135 0.00025553 0.000647744 0.000504759 -1.82952e-05 0.000353908 -4.21968e-05 -0.00052677 0.00021652 0.000120205 0.000383405 0.000871085 1.53821e-06 -1.36339e-05 0.000320343 -0.000101583 -1.40037e-05 -1.28012e-06 -2.15972e-05 -9.33985e-05
internal_weight=0 6061 6037 2027 58 4010 2386 84 2302 879 851 827 340 320 487 296 1969 163 270 250 152 77 1806 1423 55 466 1777 211572 41423 7753
internal_count=217633 6061 6037 2027 58 4010 2386 84 2302 879 851 827 340 320 487 296 1969 163 270 250 152 77 1806 1423 55 466 1777 211572 41423 7753
shrinkage=0.05


Tree=304
num_leaves=31
num_cat=0
split_feature=16 36 44 23 20 0 16 29 19 7 30 6 2 23 2 13 3 25 40 40 41 40 25 36 2 20 16 19 36 19
split_gain=0.00485674 0.046916 0.0821178 0.139827 0.185313 0.146144 0.130979 0.181482 0.148781 0.0495355 0.112273 0.0289578 0.0437205 0.0230143 0.0582081 0.0309264 0.039232 0.0329001 0.0210124 0.121681 0.0203419 0.151777 0.100926 0.171452 0.142088 0.393245 0.523055 0.144802 0.195442 0.140899
threshold=-3.8247049999999986e-06 -0.43959349999999991 -2.0921649999999996 -13.237099999999998 -2.6904149999999993 5.4701800000000009 -1.1710799999999998e-05 0.099917750000000013 0.00049086500000000016 3.1819150000000005e-05 0.087932350000000006 2.1946200000000003e-06 -1.7088249999999998 -23.590149999999998 1.6002350000000003 -4.2631049999999996e-05 -13.614249999999998 23.183300000000006 -0.49100999999999978 0.40779500000000007 0.43359400000000009 0.2761725000000001 4.1232750000000005 -0.066940849999999982 1.8666700000000003 -1.3693099999999998 -3.5869249999999995e-05 1.7135300000000002e-05 -0.055004599999999994 9.7599650000000017e-05
decision_type=2 2 2 2 2 2 2 2 2 2 2 2 2 2 2 2 2 2 2 2 2 2 2 2 2 2 2 2 2 2
left_child=1 2 9 4 -4 6 8 -8 -5 10 -1 -10 -13 14 -11 17 -17 -15 -18 -20 21 22 23 -3 27 -26 -27 28 -24 -29
right_child=-2 20 3 5 -6 -7 7 -9 11 13 -12 12 -14 15 -16 16 18 -19 19 -21 -22 -23 24 -25 25 26 -28 29 -30 -31
leaf_value=-0.00080156030515074516 3.9886400025760437e-06 0.0031977310508483313 0.0053007007901071214 0.0035832809804040677 0.00021960525140029324 0.0040072543430142108 0.00047954642605663352 -0.0057698685537269784 -0.00034518152349901086 1.1285151059210704e-05 0.0039941773461380408 -0.00053247964110596517 0.0026975816858215364 -0.00011952339780994711 -0.0033366995383403266 0.0018474961152865684 6.784340287940095e-05 0.0025904175213543653 -0.0031002971346467912 -3.4299240540878202e-05 1.956751376957892e-05 1.0065295129434932e-05 0.0032745423105855786 -0.00021898056395857604 -0.00082284719158022882 -0.0011525711965235965 0.0092953638597391541 -0.0032824888838230339 -0.0022007177384304149 -0.0011078019374602273
leaf_weight=26 169343 37 38 35 34 26 26 21 134 37 23 20 22 24 20 21 145 21 42 141 18932 22854 39 4800 174 23 25 90 28 432
leaf_count=26 169343 37 38 35 34 26 26 21 134 37 23 20 22 24 20 21 145 21 42 141 18932 22854 39 4800 174 23 25 90 28 432
internal_value=0 -1.39873e-05 0.000352881 0.00093326 0.00290129 0.000434321 7.42585e-05 -0.00231275 0.000605961 -6.03494e-05 0.0014495 1.388e-05 0.00115946 -0.000224391 -0.00116345 -8.85374e-05 -0.000247604 0.00114512 -0.000381742 -0.000737971 -2.06079e-05 -4.72937e-05 -0.000279391 -0.000192845 -0.000795571 0.00028243 0.00428906 -0.00120188 0.000986374 -0.00148275
internal_weight=0 48290 856 356 72 284 258 47 211 500 49 176 42 451 57 394 349 45 328 183 47434 28502 5648 4837 811 222 48 589 67 522
internal_count=217633 48290 856 356 72 284 258 47 211 500 49 176 42 451 57 394 349 45 328 183 47434 28502 5648 4837 811 222 48 589 67 522
shrinkage=0.05


Tree=305
num_leaves=31
num_cat=0
split_feature=25 40 40 43 7 44 39 41 40 20 9 6 7 16 37 16 41 5 4 24 16 21 11 5 35 15 4 21 17 20
split_gain=0.00481454 0.0248038 0.239289 0.24001 0.247421 0.230375 0.314907 0.278834 0.281249 0.213834 0.293217 0.211403 0.314612 0.303157 0.376724 0.321985 0.240534 0.183114 0.18082 0.162808 0.167478 0.158645 0.14254 0.114545 0.134887 0.104469 0.0859379 0.118524 0.274766 0.30903
threshold=12.831100000000001 -0.19934349999999995 0.20129000000000011 -1.6462299999999999 6.9162400000000014e-05 -1.1537099999999991 0.095974000000000018 -0.12554300000000002 -0.079468000000000025 -5.7563499999999985 -2.2727799999999999e-05 1.0252450000000003e-06 5.0402000000000003e-05 -1.1598249999999999e-07 2.5183500000000006e-06 6.4489550000000005e-07 -0.039869999999999954 1.4062400000000001e-05 -0.54650249999999989 -1.0137249999999998 5.5858500000000015e-07 -2.2047999999999992 -1.1811249999999998e-05 1.1911150000000002e-05 -0.35970249999999998 -4.4025599999999992e-08 1.5563800000000001 -4.467719999999999 5.4117700000000011e-07 5.9330550000000004
decision_type=2 2 2 2 2 2 2 2 2 2 2 2 2 2 2 2 2 2 2 2 2 2 2 2 2 2 2 2 2 2
left_child=-1 -2 3 4 9 26 7 -7 19 -3 -11 13 17 14 -10 -15 -17 -13 -12 -9 22 -8 -21 24 -20 -25 27 28 -5 -30
right_child=1 2 -4 5 -6 6 21 8 11 10 18 12 -14 15 -16 16 -18 -19 23 20 -22 -23 -24 25 -26 -27 -28 -29 29 -31
leaf_value=1.9546417070347848e-06 4.2276554088694197e-05 -0.0024881897539216881 3.2362720709873643e-05 -0.0009468342511528146 0.0046077460805518614 0.0028294887400768473 -0.0028789799935607751 -0.0034928422905504707 0.006094639279498635 0.0051361716134565409 0.0031242214574697703 -0.0048652291437610989 -0.0017063112090588276 -0.008270387587925563 -0.0031584166699427773 -0.0055225032148882754 0.0012690472816757393 -0.01163120489800349 0.0035117875794758615 0.002192122640553862 0.0035539674465421981 -0.008757182746194303 -0.003471057345625013 -0.005526786592090503 -0.0014460135307779317 -0.0010415538703406079 -0.0021102517962229765 -0.00079601149497549983 0.00044618059778813189 0.0071903523091820937
leaf_weight=203570 6604 64 6273 89 33 33 22 25 22 33 34 20 34 26 22 22 32 20 23 20 38 24 25 20 34 37 68 296 41 29
leaf_count=203570 6604 64 6273 89 33 33 22 25 22 33 34 20 34 26 22 22 32 20 23 20 38 24 25 20 34 37 68 296 41 29
internal_value=0 -2.82946e-05 -9.07764e-05 -0.000742084 0.000543389 -0.00113565 -0.0020639 -0.00153715 -0.00200806 -4.05519e-06 0.000874313 -0.00312759 -0.00524248 -0.00186547 0.00146811 -0.00369895 -0.00149788 -0.00824822 -7.59665e-05 4.44049e-05 0.00110984 -0.00594587 -0.000954088 -0.00103041 0.000554503 -0.00261532 -0.000452335 -0.000204558 0.000896512 0.00324019
internal_weight=0 14063 7459 1186 278 908 385 339 306 245 181 198 74 124 44 80 54 40 148 108 83 46 45 114 57 57 523 455 159 70
internal_count=217633 14063 7459 1186 278 908 385 339 306 245 181 198 74 124 44 80 54 40 148 108 83 46 45 114 57 57 523 455 159 70
shrinkage=0.05


Tree=306
num_leaves=31
num_cat=0
split_feature=10 44 44 36 18 3 37 0 40 32 40 40 20 39 8 15 7 32 8 13 32 21 23 37 40 15 43 20 10 12
split_gain=0.00486407 0.0203082 0.0453929 0.0989811 0.0620587 0.0481332 0.0443876 0.0854881 0.131845 0.0625512 0.0822584 0.372261 0.11398 0.0703242 0.0618152 0.155169 0.0609758 0.057467 0.130168 0.176683 0.0951488 0.0643221 0.239885 0.26348 0.226567 0.470052 0.382524 0.225716 0.0838504 0.181092
threshold=1.6290050000000002e-05 0.46045500000000011 -1.1537099999999991 -0.11978799999999999 -6.7236599999999979e-05 -18.305499999999995 -4.6526849999999994e-07 -3.6002049999999994 0.016888500000000004 0.20273150000000004 0.14973499999999998 0.039429999999999972 -2.5244499999999994 6.0080550000000012e-05 1.234225e-05 3.828160000000001e-08 2.2731700000000001e-05 0.10550150000000001 1.0781600000000002e-05 1.2472550000000001e-05 0.12407800000000001 7.1162100000000006 -11.077049999999998 -2.4631349999999996e-08 -0.079468000000000025 -1.2418349999999998e-08 -0.054875 -1.8361949999999998 1.5606650000000004e-05 4.8722750000000004e-05
decision_type=2 2 2 2 2 2 2 2 2 2 2 2 2 2 2 2 2 2 2 2 2 2 2 2 2 2 2 2 2 2
left_child=1 2 5 4 -4 -1 7 8 -5 16 11 12 -11 -14 -9 -16 -8 21 -19 20 -20 -18 -23 24 -24 26 -26 -28 -25 -30
right_child=-2 -3 3 6 -6 -7 9 14 -10 10 -12 -13 13 -15 15 -17 17 18 19 -21 -22 22 23 28 25 -27 27 -29 29 -31
leaf_value=0.001824330704221211 2.9537497139080223e-06 2.2889619298950898e-05 -0.0032925092674574714 -0.0056723622629488088 -0.00085604094160899387 -7.2057111600562956e-06 0.00023409449657474602 -0.00018773765857440594 7.6774934617181633e-08 0.0037512525212316013 -0.00025503465455264685 0.0070780935328609009 0.0024073480620838538 -0.00061698544455234352 -0.0048248568143977677 0.00018798334322606312 -4.7731783654433765e-05 -4.3332153784750021e-05 -0.0033739490028741183 -0.0056348517125661603 0.00069039501009279369 -0.0045831892074097089 -7.3269676511477079e-05 0.00020672589896108905 -0.0067713766691981474 -0.0095832959273882967 -0.0047744872778077317 0.00092911399662636723 -0.00019771156034645781 0.0056993107737229286
leaf_weight=36 188240 14610 37 20 89 10076 790 450 21 22 170 24 23 117 26 38 1924 134 24 30 36 36 147 305 29 22 22 82 30 23
leaf_count=36 188240 14610 37 20 89 10076 790 450 21 22 170 24 23 117 26 38 1924 134 24 30 36 36 147 305 29 22 22 82 30 23
internal_value=0 -1.89165e-05 -6.02335e-05 -0.000189146 -0.00157151 -6.8521e-07 -0.000150823 -0.000569785 -0.00276697 -9.25467e-05 0.000539965 0.00126658 0.000405613 -0.000120131 -0.000394523 -0.00184848 -0.00015451 -0.000262456 -0.00103113 -0.00250185 -0.000935343 -0.000196737 -0.000608642 -0.000391849 -0.00147955 -0.00281325 -0.00169339 -0.000277417 0.00052571 0.00236137
internal_weight=0 29393 14783 4671 126 10112 4545 555 41 3990 356 186 162 140 514 64 3634 2844 224 90 60 2620 696 660 302 155 133 104 358 53
internal_count=217633 29393 14783 4671 126 10112 4545 555 41 3990 356 186 162 140 514 64 3634 2844 224 90 60 2620 696 660 302 155 133 104 358 53
shrinkage=0.05


Tree=307
num_leaves=31
num_cat=0
split_feature=34 44 43 44 18 38 43 40 41 40 2 36 40 1 40 40 10 6 14 16 35 37 25 41 36 40 43 36 33 33
split_gain=0.00477582 0.0285634 0.0650641 0.0739365 0.145004 0.103762 0.085851 0.0846048 0.17909 0.121889 0.116838 0.083182 0.0807863 0.0750393 0.386607 1.25047 0.0549499 0.100253 0.0425456 0.103505 0.0686051 0.0361929 0.0335359 0.0287824 0.027949 0.104068 0.0265093 0.0259642 0.0882286 0.0255438
threshold=0.0096317150000000008 0.92650999999999961 -0.15760999999999911 -0.16918499999999967 1.1699350000000001e-06 0.00013960450000000002 0.55890500000000032 0.056773999999999998 -0.026150000000000003 -0.079468000000000025 -2.9939399999999998 -0.0010580249999999998 0.20129000000000011 9.572065000000002 0.077348000000000056 -0.079468000000000025 1.3788000000000002e-05 1.2194600000000003e-06 0.00019807550000000001 5.5858500000000015e-07 -0.00037168699999999994 -1.6890749999999995e-07 0.42730500000000005 0.19792950000000006 0.00049241950000000008 -0.018010000000000078 -0.12174999999999957 -0.00072135099999999996 -2.2258449999999997e-06 7.3465450000000005e-06
decision_type=2 2 2 2 2 2 2 2 2 2 2 2 2 2 2 2 2 2 2 2 2 2 2 2 2 2 2 2 2 2
left_child=1 2 16 6 7 18 13 8 -5 23 -11 -12 -9 27 15 -15 17 22 19 20 -6 -18 -1 -10 26 -26 -13 28 -4 -8
right_child=-2 -3 3 4 5 -7 29 12 9 10 11 24 -14 14 -16 -17 21 -19 -20 -21 -22 -23 -24 -25 25 -27 -28 -29 -30 -31
leaf_value=-0.0003603498194738862 3.7830876764753528e-06 2.3879303326416196e-05 -0.0039636380198135165 0.0042713196767914683 -0.0032505344592209441 -0.003963479988687184 -1.2734688567420279e-05 -0.0033049338430282665 -0.0020203241042327136 -0.0027748938258203757 0.0038663995075261313 -0.0011788780498318376 -7.090444040646356e-05 -0.00012680498090379512 -7.3817690232346425e-07 -0.011300161705086275 -0.0022648310169080059 -0.0038653731729061331 -0.00014111035375650419 -0.0044763948184845508 -3.4356113558049439e-05 -0.00018318561658311195 -0.0023975695415055787 -9.1440134274571488e-05 0.0047133743856102236 0.00079516905395582589 0.00065544082217611037 -0.00016631843682397959 -0.00015903573366813362 0.0016925525333218419
leaf_weight=166 172605 23344 20 31 20 21 12048 20 20 24 21 20 560 88 315 35 21 27 432 20 97 3683 23 586 20 111 1298 1871 64 22
leaf_count=166 172605 23344 20 31 20 21 12048 20 20 24 21 20 560 88 315 35 21 27 432 20 97 3683 23 586 20 111 1298 1871 64 22
internal_value=0 -1.45016e-05 -5.58208e-05 -1.51349e-05 0.000198384 -0.000511973 -6.38679e-05 0.00035298 0.000498702 0.000443011 0.000685618 0.000742116 -0.000182423 -0.000337455 -0.000928989 -0.00330622 -0.000240194 -0.0010154 -0.000384588 -0.00115234 -0.00058413 -0.000194988 -0.000608265 -0.0001551 0.000696836 0.00139337 0.000627606 -0.000204927 -0.00106489 -9.62646e-06
internal_weight=0 45028 21684 17764 3301 590 14463 2711 2131 2100 1494 1470 580 2393 438 123 3920 216 569 137 117 3704 189 606 1449 131 1318 1955 84 12070
internal_count=217633 45028 21684 17764 3301 590 14463 2711 2131 2100 1494 1470 580 2393 438 123 3920 216 569 137 117 3704 189 606 1449 131 1318 1955 84 12070
shrinkage=0.05


Tree=308
num_leaves=31
num_cat=0
split_feature=14 23 2 5 40 3 43 14 28 43 33 38 36 25 30 34 40 44 23 26 24 40 32 32 34 3 43 37 43 1
split_gain=0.00466912 0.0169873 0.0240555 0.0104048 0.012288 0.00494266 0.059678 0.18674 0.0578989 0.0519316 0.037577 0.0930194 0.0456194 0.0592293 0.0337832 0.0771324 0.159386 0.0233167 0.0570792 0.030972 0.0435003 0.0240813 0.0147762 0.0358191 0.016771 0.0115725 0.0529743 0.0734907 0.0656673 0.0868681
threshold=0.71230950000000004 -14.053899999999997 -1.7088249999999998 1.2738100000000001e-05 0.57364500000000007 -18.015749999999997 1.4285350000000012 0.0094329700000000006 -0.65584149999999986 2.7930350000000002 0.00058287550000000012 0.30670150000000002 -0.14294799999999999 8.4120350000000013 0.053348600000000003 2.3658200000000007 -0.14969009999999991 1.151035 -17.728849999999998 -0.00011522749999999999 0.25201650000000003 -0.040859549999999939 1.5068850000000003 1.1329200000000001 0.78599850000000016 -17.495099999999997 -0.71725499999999964 1.5720100000000002e-06 -1.39862 0.63221400000000016
decision_type=2 2 2 2 2 2 2 2 2 2 2 2 2 2 2 2 2 2 2 2 2 2 2 2 2 2 2 2 2 2
left_child=5 2 -2 4 -4 6 8 -8 -1 -9 11 12 13 -10 15 17 -17 18 19 -14 21 -21 23 24 -19 26 28 -28 -7 -30
right_child=1 -3 3 -5 -6 25 7 9 10 -11 -12 -13 14 -15 -16 16 -18 22 -20 20 -22 -23 -24 -25 -26 -27 27 -29 29 -31
leaf_value=0.0021480488674569644 -0.0021980696821992753 -4.9487259905121638e-06 -0.0017120383356232197 -2.6815511348657942e-05 -0.0001869344033447565 -8.2543791933373532e-05 0.0054319588391254434 0.0014573264453065348 -0.0035644127056002617 -0.002102699660740438 -0.0019603827696604032 0.0028947089792511959 -0.00162805900313701 -0.00033554956414950633 -0.0019701536614558706 -0.00071223154615533235 0.0048282236885279425 -1.3646380811339932e-05 0.0022322215192849769 0.0011565104862256703 0.0018372689443938912 -0.00040351204308135161 -0.0009738923653835295 0.0016454175799708538 -0.00069343142556493713 5.5890288126607277e-07 -0.00045448620197315477 -0.002970451810220506 0.0041922336653529091 -0.00041210658542695461
leaf_weight=32 20 656 25 92 28 1469 21 20 20 21 24 28 22 49 21 27 25 2609 39 32 39 109 41 32 94 211792 170 35 21 20
leaf_count=32 20 656 25 92 28 1469 21 20 20 21 24 28 22 49 21 27 25 2609 39 32 39 109 41 32 94 211792 170 35 21 20
internal_value=0 -0.000119013 -0.000572506 -0.000348291 -0.000906323 4.50667e-07 6.11284e-05 0.00159776 3.17509e-05 -0.000366102 1.06605e-05 2.55036e-05 7.22057e-08 -0.00127145 2.84655e-05 4.21413e-05 0.00195145 9.23307e-06 0.000480989 0.00014288 0.000359328 -4.94644e-05 -3.17227e-05 -1.75988e-05 -3.72867e-05 -4.88599e-07 -0.000129849 -0.000884041 -2.74583e-05 0.00194621
internal_weight=0 821 165 145 53 216812 3305 62 3243 41 3211 3187 3159 69 3090 3069 52 3017 241 202 180 141 2776 2735 2703 213507 1715 205 1510 41
internal_count=217633 821 165 145 53 216812 3305 62 3243 41 3211 3187 3159 69 3090 3069 52 3017 241 202 180 141 2776 2735 2703 213507 1715 205 1510 41
shrinkage=0.05


Tree=309
num_leaves=31
num_cat=0
split_feature=27 8 1 8 13 8 4 22 8 41 42 20 41 22 16 5 1 23 18 11 15 16 16 13 43 10 41 21 15 33
split_gain=0.00463612 0.0145957 0.0604213 0.0242991 0.111443 0.0259052 0.0486291 0.0880496 0.0442838 0.0320994 0.0399723 0.0375825 0.0217188 0.048777 0.0399568 0.0338741 0.0206515 0.0335527 0.0281551 0.0122768 0.0207348 0.0204694 0.0408812 0.0119489 0.0108877 0.0107022 0.0135949 0.0103741 0.0103347 0.00827402
threshold=91.481750000000019 -4.8730199999999995e-06 2.6674650000000004 2.8970600000000003e-06 4.2516950000000003e-05 1.1407850000000001e-05 -1.1200049999999997 -0.90610399999999991 1.1672950000000003e-05 -0.27889399999999981 -0.57440449999999987 2.6938100000000005 -0.039869999999999954 -0.90610399999999991 4.8253050000000006e-09 2.6674250000000003e-05 4.1385600000000009 -13.748199999999999 0.006463130000000001 3.3784900000000002e-05 1.3231850000000003e-06 1.5710250000000004e-05 1.6824400000000002e-06 7.5148700000000015e-05 -0.465335 2.7526350000000005e-05 -0.12554300000000002 0.93373450000000013 -7.7047499999999992e-07 0.0031288150000000005
decision_type=2 2 2 2 2 2 2 2 2 2 2 2 2 2 2 2 2 2 2 2 2 2 2 2 2 2 2 2 2 2
left_child=29 16 3 4 28 6 7 -5 -7 11 23 -8 15 14 -14 -10 17 -2 19 21 -21 22 -18 -11 -15 -19 -27 -9 -3 -1
right_child=1 2 -4 5 -6 8 9 27 12 10 -12 -13 13 24 -16 -17 18 25 -20 20 -22 -23 -24 -25 -26 26 -28 -29 -30 -31
leaf_value=2.7012930604880071e-07 -0.0022638123959768564 -0.0012193838599376336 0.0026959303467135346 -0.0041682193935190775 0.0030773009884047927 0.0021301364875328617 -0.00011655954407498002 -0.0011541817043464453 4.6616158946422873e-05 5.1030011307688595e-05 -0.0020519963014521635 0.0026634877496690026 0.0002399553261420806 -0.00051842346676233533 0.0034005255924421367 -0.0020632201328407975 -8.5949362268250161e-05 -0.0013643045820269132 0.0012417836791428273 -0.00017795168244688566 -0.0019035776246002771 0.001006219866758329 -0.0024109286465682092 -0.00099922946026322979 0.00015810886698917868 -0.00049909290926252543 0.00085206143357936532 0.00038290592087635207 2.692427953661536e-05 0.00026844718385442924
leaf_weight=215747 30 21 21 23 34 26 31 21 52 151 32 20 20 85 20 30 346 24 36 49 27 38 20 33 198 83 24 23 80 288
leaf_count=215747 30 21 21 23 34 26 31 21 52 151 32 20 20 85 20 30 346 24 36 49 27 38 20 33 198 83 24 23 80 288
internal_value=0 -8.48513e-05 4.4705e-05 -1.7157e-05 0.000601297 -0.000126296 -0.000456816 -0.00166119 0.000129838 -0.000154594 -0.000420986 0.000973655 1.42374e-06 0.000185911 0.00182024 -0.000725275 -0.000261101 -0.000755484 -0.000106846 -0.000207994 -0.000791003 -9.83186e-05 -0.000212997 -0.000137332 -4.50899e-05 -0.000410065 -0.00019603 -0.000350704 -0.000232209 6.27641e-07
internal_weight=0 1598 921 900 135 765 334 67 431 267 216 51 405 323 40 82 677 161 516 480 76 404 366 184 283 131 107 44 101 216035
internal_count=217633 1598 921 900 135 765 334 67 431 267 216 51 405 323 40 82 677 161 516 480 76 404 366 184 283 131 107 44 101 216035
shrinkage=0.05


Tree=310
num_leaves=31
num_cat=0
split_feature=21 1 17 16 26 36 16 38 18 8 1 17 0 8 20 10 40 38 26 3 26 18 23 26 16 40 40 9 40 22
split_gain=0.00465656 0.0247142 0.0619102 0.151662 0.203155 0.039009 0.0756875 0.0511674 0.043095 0.0195162 0.04375 0.0773846 0.0436747 0.0798287 0.0256075 0.0206635 0.0178784 0.0173879 0.0169887 0.0153155 0.038516 0.0383404 0.0324018 0.0247883 0.130008 0.145101 0.277518 0.0195897 0.150575 0.0304284
threshold=13.390900000000002 10.154350000000003 2.9436800000000002e-06 1.0552950000000002e-06 0.00023966550000000002 0.026744400000000005 -5.8728149999999988e-07 0.0020143900000000005 2.1594550000000003e-07 -1.7548399999999996e-05 8.7485050000000015 3.8788550000000006e-08 2.9488950000000007 -2.4061649999999993e-05 -1.8361949999999998 2.2609900000000005e-05 -0.14969009999999991 3.3624050000000005e-05 -5.5022649999999994e-05 -13.009399999999998 -0.0013306049999999997 -0.00019488549999999998 -8.7640249999999984 -0.0011493749999999998 7.2294100000000005e-06 -1.0422104999999997 0.46240350000000002 4.7675400000000008e-05 -0.46506469999999994 -0.54752699999999999
decision_type=2 2 2 2 2 2 2 2 2 2 2 2 2 2 2 2 2 2 2 2 2 2 2 2 2 2 2 2 2 2
left_child=-1 9 3 5 -5 6 -3 8 17 12 19 -12 15 -14 -13 -2 -9 18 -8 20 21 22 -11 24 -21 -26 -27 29 -29 -25
right_child=1 2 -4 4 -6 -7 7 16 -10 10 11 14 13 -15 -16 -17 -18 -19 -20 23 -22 -23 -24 27 25 26 -28 28 -30 -31
leaf_value=-9.0008428924608397e-07 0.0014512001453271218 0.0033802535526616419 -0.0017505381298492308 6.5109089371703915e-05 0.0071063849062193186 -0.00050603761413942061 0.00045248061122680973 -0.00017126182647189128 0.0023363504001762897 -0.0036972178617725154 0.0033868975516977828 0.0013947935341136709 -0.0001151267686634975 -0.0031125508328033093 -0.0008978147186130157 -0.00013985086658891376 -0.0022854068171000107 0.0014125799763132819 -0.0014148698082235137 -2.1410858772114279e-05 4.7971398452787744e-06 -0.00034618394738697124 -0.00088517722414551488 -0.0010867347847342388 -0.00035466988169040683 0.0070766957664404649 3.2547827248452925e-05 -1.6947254379755218e-05 0.004566764456103556 -2.3405731513346076e-05
leaf_weight=214386 23 23 29 21 20 107 29 20 34 20 27 21 58 36 29 181 20 20 21 361 413 73 21 71 37 29 27 172 20 1284
leaf_count=214386 23 23 29 21 20 107 29 20 34 20 27 21 58 36 29 181 20 20 21 361 413 73 21 71 37 29 27 172 20 1284
internal_value=0 5.94289e-05 0.000460154 0.000663678 0.00349988 0.000239283 0.000716824 0.000291415 0.000875934 1.19437e-05 5.57916e-05 0.00122987 -0.000371358 -0.00126308 6.50807e-05 3.95323e-05 -0.00122833 0.00016659 -0.000331807 2.00304e-05 -0.000219779 -0.00103337 -0.0022569 8.31885e-05 0.000408042 0.00207506 0.00368041 -1.21466e-05 0.000460523 -7.91226e-05
internal_weight=0 3247 344 315 41 274 167 144 104 2903 2605 77 298 94 50 204 40 70 50 2528 527 114 41 2001 454 93 56 1547 192 1355
internal_count=217633 3247 344 315 41 274 167 144 104 2903 2605 77 298 94 50 204 40 70 50 2528 527 114 41 2001 454 93 56 1547 192 1355
shrinkage=0.05


Tree=311
num_leaves=31
num_cat=0
split_feature=22 2 41 2 2 25 19 22 0 11 11 29 5 42 41 33 3 31 19 42 33 15 5 16 33 37 30 3 19 43
split_gain=0.00458176 0.0955552 0.0462311 0.0103477 0.00557314 0.00516371 0.0277163 0.0815538 0.116274 0.0260011 0.060929 0.0853508 0.0864536 0.0929534 0.161039 0.1768 0.0372855 0.0450716 0.107631 0.195257 0.245032 0.472274 0.213544 0.157416 0.154957 0.0841634 0.121905 0.260522 0.0750338 0.0686134
threshold=-3.0951399999999993 3.0333000000000006 -0.10141500000000002 2.9401200000000007 -2.8691749999999998 9.4910900000000016 3.865525000000001e-10 -2.1362749999999995 0.08305520000000001 4.247685000000001e-05 3.2725900000000011e-05 -0.18041899999999997 1.3024650000000002e-05 0.46240350000000002 0.22260499999999997 1.2953300000000002e-05 -6.280479999999999 -1.4873599999999998 0.00052909500000000015 0.43531000000000003 -0.00020540699999999998 -3.5297349999999998e-06 1.7003450000000004e-05 1.1210250000000002e-06 -9.1244649999999997e-06 -6.2538149999999987e-05 0.087932350000000006 -11.746199999999998 0.00059746150000000015 -0.5126099999999999
decision_type=2 2 2 2 2 2 2 2 2 2 2 2 2 2 2 2 2 2 2 2 2 2 2 2 2 2 2 2 2 2
left_child=1 2 3 4 -1 -2 7 8 -7 10 -8 12 -12 14 15 -14 17 18 19 20 23 22 -22 -11 -23 26 -20 -28 -27 -26
right_child=5 -3 -4 -5 -6 6 9 -9 -10 16 11 -13 13 -15 -16 -17 -18 -19 25 -21 21 24 -24 -25 29 28 27 -29 -30 -31
leaf_value=-0.00060316334158983409 1.6253977493782734e-06 0.0029779972760089943 0.0018589472144787365 0.0009018675631523366 -5.7339204592385982e-06 0.0052644107088053718 -4.5450025008818326e-05 8.7097819050541158e-05 5.1655668547660434e-05 -0.00081860835927662014 -9.8597583855735153e-05 -1.2204466908946741e-05 -0.007441996488746049 -0.00018445941705767137 -0.00050218816870759107 -0.0021785713258372524 -0.00045414401230665414 -3.1380896589036407e-05 -0.00071886655758135031 -0.00026375946321222191 0.0042778381512367297 0.0043933514534122272 0.011408321958567415 0.0030326522477806955 0.0012070923434803263 -0.0024916146603451731 0.0072363735437234447 -0.00054946579330135143 4.2971322471236392e-05 -0.0026697119846219378
leaf_weight=40 198626 28 34 31 1620 20 12386 211 23 83 105 319 27 52 47 39 306 2117 30 170 21 24 21 39 25 30 22 21 1095 21
leaf_count=40 198626 28 34 31 1620 20 12386 211 23 83 105 319 27 52 47 39 306 2117 30 170 21 24 21 39 25 30 22 21 1095 21
internal_value=0 8.0508e-05 3.34763e-05 -3.22743e-06 -2.01298e-05 -6.53745e-07 -2.6891e-05 0.000491551 0.00247619 -3.46371e-05 -6.90777e-05 -0.00056594 -0.00122017 -0.0019339 -0.00273895 -0.00433179 7.63856e-05 0.000120038 0.000320133 0.00102587 0.00196279 0.00365146 0.00784308 0.000412532 0.00113648 8.21374e-05 0.00172733 0.00343399 -2.46176e-05 -0.000562753
internal_weight=0 1753 1725 1691 1660 215880 17254 254 43 17000 12975 589 270 165 113 66 4025 3719 1602 404 234 112 42 122 70 1198 73 43 1125 46
internal_count=217633 1753 1725 1691 1660 215880 17254 254 43 17000 12975 589 270 165 113 66 4025 3719 1602 404 234 112 42 122 70 1198 73 43 1125 46
shrinkage=0.05


Tree=312
num_leaves=31
num_cat=0
split_feature=21 43 2 2 22 40 0 33 17 6 40 19 3 37 18 1 24 44 6 3 18 43 40 40 26 1 40 16 40 40
split_gain=0.00475989 0.0622314 0.117341 0.168785 0.302173 0.0906701 0.237902 0.277958 0.278868 0.12673 0.170308 0.0760333 0.0551743 0.0422188 0.120163 0.0384249 0.0822329 0.0283575 0.0784366 0.0378881 0.0277332 0.0235876 0.0319398 0.0210754 0.0176423 0.0268245 0.0234822 0.0407258 0.0269584 0.0174946
threshold=-13.388899999999998 1.0000000180025095e-35 -0.51300099999999993 -0.66094299999999995 -0.64669949999999987 -0.17527649999999997 0.08305520000000001 -1.4746649999999997e-06 -6.530729999999998e-08 7.8911650000000013e-07 -0.0054100000000001361 0.00020669100000000003 -11.976899999999999 0.00046534500000000004 -2.9139699999999996e-06 -8.8547249999999984 -0.25851049999999992 0.23534999999999953 1.0252450000000003e-06 -6.280479999999999 0.00022493700000000003 1.1470050000000007 0.30085850000000008 -0.32870999999999989 0.031042450000000003 2.1386600000000002 -0.27744100000000016 1.1618000000000001e-07 0.354709 0.039429999999999972
decision_type=2 2 2 2 2 2 2 2 2 2 2 2 2 2 2 2 2 2 2 2 2 2 2 2 2 2 2 2 2 2
left_child=1 15 3 5 -5 13 7 -7 -9 11 -11 -8 -4 20 -15 16 -1 18 -17 -19 23 22 -12 -3 26 -26 27 -14 -28 -10
right_child=-2 2 12 4 -6 6 9 8 29 10 21 -13 24 14 -16 17 -18 19 -20 -21 -22 -23 -24 -25 25 -27 28 -29 -30 -31
leaf_value=-0.0033247022081170524 -9.4508814252849777e-07 -0.00019787458888155621 -0.0019475253709876992 4.3711246165003111e-05 0.0082892510920646607 0.0069126719110169117 -0.0040486537522393404 0.0051401591657971347 -7.5303153566479026e-05 0.0045408160045216969 0.0024264997980762495 -0.00030371254902506324 -0.00036785470700124285 0.0044506537291454156 -0.00024045969235716213 -0.00029124082689236275 -0.0002672212447758104 -9.2412038469361237e-05 0.003543712810787838 -0.0022296589781901624 0.0011329723317160373 -0.00052194734045827771 -6.7901674408472684e-05 -0.0017719284691022196 -0.0023212614953808954 -0.00019298249665696763 -0.0017403345052364539 0.0028229837400431282 3.688746906903468e-05 -0.0020475131699957119
leaf_weight=29 214135 282 39 25 20 33 23 30 22 27 21 33 20 20 43 40 91 1652 20 21 37 63 33 23 20 57 22 20 709 23
leaf_count=29 214135 282 39 25 20 33 23 30 22 27 21 33 20 20 43 40 91 1652 20 21 37 63 33 23 20 57 22 20 709 23
internal_value=0 5.78549e-05 0.000281686 0.0007385 0.0037084 0.000551059 0.00119762 0.00308864 0.00140607 0.000176468 0.000961355 -0.00184181 -0.000108693 5.93538e-05 0.00124878 -0.000140851 -0.00100611 -8.09365e-05 0.000987077 -0.000119239 -0.000159751 0.000135325 0.000902143 -0.000316574 -2.41236e-05 -0.000745782 4.79487e-05 0.00122756 -1.65994e-05 -0.00108332
internal_weight=0 3498 1645 758 45 713 308 108 75 200 144 56 887 405 63 1853 120 1733 60 1673 342 117 54 305 848 77 771 40 731 45
internal_count=217633 3498 1645 758 45 713 308 108 75 200 144 56 887 405 63 1853 120 1733 60 1673 342 117 54 305 848 77 771 40 731 45
shrinkage=0.05


Tree=313
num_leaves=31
num_cat=0
split_feature=28 14 13 32 19 26 14 14 5 32 40 16 3 18 16 40 9 29 40 4 25 5 4 40 32 13 11 43 6 8
split_gain=0.00476719 0.0418372 0.122462 0.280227 0.0848779 0.0725135 0.049631 0.0672555 0.11014 0.0421015 0.0440445 0.0337771 0.145431 0.0689014 0.0664739 0.0428952 0.0833472 0.0194915 0.0143963 0.0323813 0.0221791 0.0131737 0.0251175 0.0139426 0.013116 0.0727767 0.300994 0.0384836 0.0812186 0.199903
threshold=-0.96676949999999995 0.028251800000000004 0.00033872700000000009 20.036400000000004 0.013667250000000002 -0.013856449999999998 0.011360800000000002 0.0083088400000000014 1.6628950000000003e-05 20.036400000000004 1.0676735000000004 6.5238050000000013e-06 -5.946604999999999 -0.00059694499999999988 3.6544900000000005e-06 0.74319900000000005 -9.7705449999999988e-06 -0.44589049999999997 0.71352749999999998 -0.30653749999999996 32.859550000000006 2.6674250000000003e-05 0.92648250000000021 0.056773999999999998 5.9680600000000004 -5.1489599999999996e-05 0.00010892050000000002 1.6830350000000001 -6.3773499999999985e-07 8.5226600000000012e-06
decision_type=2 2 2 2 2 2 2 2 2 2 2 2 2 2 2 2 2 2 2 2 2 2 2 2 2 2 2 2 2 2
left_child=1 4 3 17 6 -6 7 11 -9 -8 -11 14 13 -13 18 16 -15 -3 19 -1 -21 22 -22 -23 -2 26 -26 28 -27 -30
right_child=24 2 -4 -5 5 -7 9 8 -10 10 -12 12 -14 15 -16 -17 -18 -19 -20 20 21 23 -24 -25 25 27 -28 -29 29 -31
leaf_value=-0.0020109443936100302 -3.8661874233556814e-07 0.00099098762118956076 -0.00016393414940434845 0.0066766224478063425 -0.00032089486274344386 -0.0045786376109572301 -0.00027485935673310553 0.0046160480921389538 -0.00063132764167676218 -0.0035422375869799266 -0.00071191414910052643 -0.0025106920783097546 0.0039373236823545691 -0.00052717932427185591 -0.0022980944619727479 -0.00028195927569033474 0.0040375539474189282 -0.0011900347948540003 3.2282338965798308e-05 -0.001613869801494056 -0.00013100760589466448 -0.00031382740285777142 0.001459455322064632 -0.0018714828363226845 -0.00014677622719759574 -0.00043563596155393128 0.0066063795809730604 -7.8235542712301652e-05 0.00012373214498749091 0.0034681938138419357
leaf_weight=27 214280 20 171 24 20 20 74 20 20 27 28 24 27 20 36 73 20 21 670 27 308 51 27 20 66 135 22 1143 148 64
leaf_count=27 214280 20 171 24 20 20 74 20 20 27 28 24 27 20 36 73 20 21 670 27 308 51 27 20 66 135 22 1143 148 64
internal_value=0 -8.16063e-05 0.000538285 0.00238566 -0.000176664 -0.00244977 -0.000116008 -2.77242e-05 0.00199236 -0.00105359 -0.00210135 -8.84786e-05 0.000583388 -7.76069e-05 -0.000182978 0.000439155 0.00175519 -0.000126121 -0.000115594 -0.000330978 -0.000226223 -0.000133941 -2.82104e-06 -0.000752604 6.71048e-07 0.000144294 0.00154151 6.17736e-05 0.000522957 0.00113338
internal_weight=0 1775 236 65 1539 40 1499 1370 40 129 55 1330 164 137 1166 113 40 41 1130 460 433 406 335 71 215858 1578 88 1490 347 212
internal_count=217633 1775 236 65 1539 40 1499 1370 40 129 55 1330 164 137 1166 113 40 41 1130 460 433 406 335 71 215858 1578 88 1490 347 212
shrinkage=0.05


Tree=314
num_leaves=31
num_cat=0
split_feature=34 44 38 3 5 5 44 35 1 41 41 40 40 0 43 41 19 40 40 14 10 21 1 22 0 43 44 40 41 41
split_gain=0.00455013 0.0209619 0.0254459 0.100685 0.0215702 0.0726375 0.0137046 0.02769 0.0144388 0.0114287 0.482565 0.0628304 0.151681 0.341411 0.083006 0.0327806 0.011125 0.0325152 0.529292 0.00695417 0.0192848 0.0447116 0.0783476 0.200061 0.0486814 0.0396168 0.112224 0.137574 0.376094 0.559131
threshold=0.0037330700000000002 0.87140500000000032 -4.7543099999999995e-05 -6.4469949999999994 7.7170000000000025e-06 7.4666350000000006e-06 0.19419999999999996 -0.00028871749999999997 11.398250000000003 0.027234499999999971 0.057875000000000128 0.016888500000000004 0.077348000000000056 4.7888100000000007 0.43278000000000022 0.09983149999999999 0.00018145150000000004 -0.058960000000000005 0.14973499999999998 0.00096226550000000008 1.7656850000000004e-05 -12.91935 -10.856449999999997 -1.79206 1.5151350000000001 0.64319500000000052 0.23534999999999953 0.12375499999999996 0.19792950000000006 0.040430000000000084
decision_type=2 2 2 2 2 2 2 2 2 2 2 2 2 2 2 2 2 2 2 2 2 2 2 2 2 2 2 2 2 2
left_child=1 2 3 -1 5 -4 9 -8 16 11 -11 14 13 -13 -6 -12 17 -9 -19 20 21 22 23 -2 -25 26 27 28 29 -22
right_child=19 -3 4 -5 6 -7 7 8 -10 10 15 12 -14 -15 -16 -17 -18 18 -20 -21 25 -23 -24 24 -26 -27 -28 -29 -30 -31
leaf_value=-0.003710601701398749 0.0061904790184507882 2.3945882987219287e-05 2.2021625129908797e-05 4.9196147583775138e-05 0.00068193117008009496 -0.0034261752725450651 -0.0015765501691045781 -4.828544200882434e-05 0.0011126471700706696 -0.0076639418373815717 -0.0018443169002421201 0.00034503242658341632 -1.6335126679999094e-05 -0.0078878342697862539 -0.0024603642910898836 -2.2426020214035884e-05 -4.4315305153961566e-05 -0.008388561578439771 -5.5828539906558028e-05 -7.9111808179484159e-06 0.00048757266837259135 -5.6842597549969421e-05 8.8197031949872042e-06 -0.00044913286730424381 0.0021666663495125251 -6.1641165818100372e-07 -1.349672925022895e-05 -7.1114268545082111e-05 -6.341546159430373e-05 0.0026759468725547188
leaf_weight=24 20 8142 56 69 470 21 37 328 21 21 25 34 1875 20 22 1988 517 21 206 95861 3218 13860 204 46 29 69050 14851 3100 3176 321
leaf_count=24 20 8142 56 69 470 21 37 328 21 21 25 34 1875 20 22 1988 517 21 206 95861 3218 13860 204 46 29 69050 14851 3100 3176 321
internal_value=0 -2.76817e-05 -0.000100723 -0.000921074 -8.72484e-05 -0.000918396 -7.57894e-05 -0.000231306 -0.000185767 -3.6343e-05 -0.000123714 3.70614e-05 -9.1578e-05 -0.00270418 0.000541422 -4.50526e-05 -0.000211203 -0.000366663 -0.000826698 1.88819e-06 1.05962e-05 -4.37924e-05 0.000561144 0.00174719 0.000562309 1.88135e-05 7.32055e-05 0.000204394 0.000331583 0.000686066
internal_weight=0 13897 5755 93 5662 77 5585 1130 1093 4455 2034 2421 1929 54 492 2013 1072 555 227 203736 107875 14159 299 95 75 93716 24666 9815 6715 3539
internal_count=217633 13897 5755 93 5662 77 5585 1130 1093 4455 2034 2421 1929 54 492 2013 1072 555 227 203736 107875 14159 299 95 75 93716 24666 9815 6715 3539
shrinkage=0.05


Tree=315
num_leaves=31
num_cat=0
split_feature=41 22 42 28 20 25 44 43 20 35 44 15 13 21 6 14 41 29 21 16 22 32 21 43 28 44 6 21 1 21
split_gain=0.00486495 0.064191 0.0507474 0.121094 0.236743 0.31472 0.260093 0.40996 0.30635 0.257217 0.247194 0.246688 0.243566 0.209205 0.338061 0.347736 0.162791 0.151034 0.360649 0.339698 0.42819 0.24145 0.393213 0.220324 0.218703 0.20686 0.313012 0.466534 0.400769 0.390627
threshold=0.22260499999999997 3.1185250000000004 -0.018010000000000078 -0.071195649999999985 -4.8420449999999997 5.5910550000000008 -0.68809499999999957 -0.71725499999999964 0.79536550000000006 0.0148068 2.5888900000000006 -4.1543199999999994e-08 3.162045000000001e-05 -7.8035849999999991 -3.153044999999999e-08 0.00064251500000000008 0.09983149999999999 -0.0086682099999999974 -7.375894999999999 2.4065350000000007e-07 -0.57280449999999983 0.56648000000000021 -1.3000649999999998 -0.32314999999999999 -0.041208949999999994 -1.4363049999999993 -1.5427749999999998e-06 -3.1868999999999996 -1.9933749999999997 2.7053200000000004
decision_type=2 2 2 2 2 2 2 2 2 2 2 2 2 2 2 2 2 2 2 2 2 2 2 2 2 2 2 2 2 2
left_child=1 2 3 4 5 -1 13 8 12 11 -10 -9 -8 14 -6 -16 -7 18 19 -5 23 24 -23 -21 -19 -20 29 28 -28 -27
right_child=-2 -3 -4 17 6 16 7 9 10 -11 -12 -13 -14 -15 15 -17 -18 21 25 20 -22 22 -24 -25 -26 26 27 -29 -30 -31
leaf_value=0.0049962680555524592 8.2557741298882422e-06 -0.0022116761369530154 2.8412531747617049e-06 -0.00019531038910610646 -0.0015785515277245796 -0.0021018719878424341 0.005291113582475541 0.00051986890865246885 -0.0075962109819308612 -0.0090601325380585858 -0.0013411631575893678 -0.0066552726635709415 -0.0010237070320432101 -0.0012948902909996392 0.00026998216538534815 0.008781448767210048 0.0010755229024129443 -0.002897133704314719 -0.00050631322909621085 -0.0013922915632065269 0.010005047734683524 0.00043844010589298347 0.0078414981369860481 0.0046131211175677546 -0.00019723641107343318 0.0041123763581317916 0.00087007950485565593 -0.00090920616303595536 0.0065674533601850276 0.00053306980448768215
leaf_weight=35 98050 33 111069 63 43 68 26 23 22 31 56 25 37 182 24 24 99 76 753 24 26 71 24 42 5739 121 148 454 39 206
leaf_count=35 98050 33 111069 63 43 68 26 23 22 31 56 25 37 182 24 24 99 76 753 24 26 71 24 42 5739 121 148 454 39 206
internal_value=0 -6.76918e-06 -6.16055e-06 -0.00012405 -0.000756422 0.000685242 -0.00134712 -0.00262645 -0.00101085 -0.00550999 -0.00310541 -0.00321718 0.00158241 -0.000316166 0.00164128 0.00452572 -0.000218267 -6.76028e-05 0.000323263 0.00263331 0.0045703 -0.000191675 0.00230869 0.00242933 -0.000232523 0.000115211 0.000598691 -4.34901e-05 0.0020583 0.00185752
internal_weight=0 119583 119550 8481 695 202 493 220 141 79 78 48 63 273 91 48 167 7786 1876 155 92 5910 95 66 5815 1721 968 641 187 327
internal_count=217633 119583 119550 8481 695 202 493 220 141 79 78 48 63 273 91 48 167 7786 1876 155 92 5910 95 66 5815 1721 968 641 187 327
shrinkage=0.05


Tree=316
num_leaves=31
num_cat=0
split_feature=44 23 19 3 24 1 3 36 31 6 35 40 38 21 21 21 41 40 40 40 3 33 4 14 24 4 41 40 15 43
split_gain=0.00475502 0.0259253 0.0798656 0.0233459 0.327015 0.0486931 0.0136681 0.0685503 0.1205 0.121389 0.0776225 0.125691 0.0532954 0.0316908 0.0261021 0.0193718 0.0244008 0.224677 0.05985 0.104327 0.0289935 0.0135064 0.0642292 0.170819 0.143557 0.257541 0.18839 0.466612 0.450774 0.244841
threshold=-3.3334999999999999 -20.320949999999996 0.00031424650000000008 -16.722199999999997 1.1195950000000001 0.90664800000000012 -13.353949999999999 0.14537000000000003 -3.9230749999999994 -2.4515249999999996e-07 0.48186100000000004 -0.12496499999999998 1.8271150000000003 7.1162100000000006 -2.6213749999999996 -6.4081649999999994 0.37828249999999997 0.2761725000000001 -0.011175000000000155 0.14973499999999998 -14.176449999999997 1.8894300000000003e-05 -0.20278049999999997 9.7352650000000017e-05 -0.28484049999999994 -1.5265699999999998 -0.71931549999999989 -0.51801999999999981 -1.3871299999999999e-05 -2.0405449999999985
decision_type=2 2 2 2 2 2 2 2 2 2 2 2 2 2 2 2 2 2 2 2 2 2 2 2 2 2 2 2 2 2
left_child=3 2 -2 4 5 -1 7 10 14 -10 12 -12 13 15 -9 -5 17 18 20 -20 -17 -3 23 -23 25 -25 -27 -28 -29 -30
right_child=1 21 -4 6 -6 -7 -8 8 9 -11 11 -13 -14 -15 -16 16 -18 -19 19 -21 -22 22 -24 24 -26 26 27 28 29 -31
leaf_value=-0.0020767724238491335 0.0035334118655009662 -2.9115670727410329e-07 -0.0007868012448180589 0.0012609958560503964 0.0064543529768707232 0.00056175773595040323 1.3219014368462195e-05 -0.0022482387194759212 -8.1715053696825631e-05 0.0045078943257548789 4.2870228046215037e-05 -0.0043802422908905507 0.0019610806706497961 0.0017641095167709863 0.00024753890833050142 -0.0025628490859526212 6.7015614818883659e-07 -6.3232289622197068e-05 -0.0065497055519483181 -0.001565746589940751 -0.00038212583814230234 0.0039850224067257455 -0.00012621491345716755 -0.00017604914682420084 -0.00029683461711008346 -0.0001580539123361297 1.5152978560592597e-05 0.0077188912111523685 -0.00077816482689943068 0.0020413321896311644
leaf_weight=36 20 135325 23 21 20 34 65754 20 25 34 36 29 29 20 22 35 474 542 21 21 27 28 9769 1738 1775 483 617 32 90 533
leaf_count=36 20 135325 23 21 20 34 65754 20 25 34 36 29 29 20 22 35 474 542 21 21 27 28 9769 1738 1775 483 617 32 90 533
internal_value=0 -4.93966e-06 0.0012226 1.10579e-05 0.000815811 -0.000795201 9.97861e-06 -0.000147152 0.00110601 0.00256314 -0.000248004 -0.00193052 -0.000156102 -0.000208986 -0.000940927 -0.000243571 -0.000271782 -0.000471693 -0.0026004 -0.00405773 -0.00161318 -5.29064e-06 -5.01997e-05 9.00179e-05 6.93155e-05 0.000255378 0.000682626 0.00100185 0.0019313 0.00163402
internal_weight=0 150433 43 67200 90 70 67110 1356 101 59 1255 65 1190 1161 42 1141 1120 646 104 42 62 150390 15065 5296 5268 3493 1755 1272 655 623
internal_count=217633 150433 43 67200 90 70 67110 1356 101 59 1255 65 1190 1161 42 1141 1120 646 104 42 62 150390 15065 5296 5268 3493 1755 1272 655 623
shrinkage=0.05


Tree=317
num_leaves=31
num_cat=0
split_feature=41 22 40 25 35 3 32 3 28 15 5 36 26 40 38 4 40 9 0 0 9 37 11 11 36 0 4 18 24 38
split_gain=0.00461482 0.0579177 0.0469688 0.118002 0.165797 0.379018 0.209436 0.266432 0.182141 0.227534 0.154944 0.309013 0.186919 0.16822 0.16818 0.342083 0.134763 0.202727 0.252286 0.247927 0.142763 0.185722 0.142179 0.15249 0.15851 0.134568 0.13451 0.336204 0.445884 0.215712
threshold=0.22260499999999997 3.1185250000000004 -0.018010000000000078 6.6944750000000006 0.098593250000000007 -13.989599999999998 -1.3507849999999997 -13.443999999999997 0.07628225000000001 4.0946750000000006e-07 9.0154850000000027e-06 -0.0099885099999999973 0.00041767050000000009 -0.058960000000000005 -3.5981499999999994e-05 -0.049405799999999993 -0.058960000000000005 -1.7830049999999997e-05 5.8026400000000011 -7.0075049999999992 1.0829900000000001e-05 -1.2728799999999998e-06 0.00027654200000000001 0.00012707000000000004 -0.0071753399999999997 -0.18994549999999996 0.18998850000000003 0.00034847100000000005 0.44009350000000008 0.020214400000000004
decision_type=2 2 2 2 2 2 2 2 2 2 2 2 2 2 2 2 2 2 2 2 2 2 2 2 2 2 2 2 2 2
left_child=1 2 3 4 6 -6 7 -1 10 -10 11 25 13 -13 15 -15 22 19 20 -18 21 -19 23 26 -25 -8 29 28 -28 -5
right_child=-2 -3 -4 16 5 -7 8 -9 9 -11 -12 12 -14 14 -16 -17 17 18 -20 -21 -22 -23 -24 24 -26 -27 27 -29 -30 -31
leaf_value=-0.007043643747844424 8.0407421535619935e-06 -0.0021009893606484791 2.6454441116503897e-06 -0.0018981268784250356 0.007988522117513986 5.1302460372614899e-05 0.0071929633913896396 -0.00067476375843398282 0.00086382280308559237 0.0068660083623217367 -0.00014755705596847609 -0.00061743250190869842 0.00458821060275659 -0.0035199584521615184 -0.00013521943142222881 0.0036316019088724928 -0.00082872804555841461 0.0025017048973772354 -0.002930278630571723 -0.0065828453050926329 0.0032014584197202658 -0.0036663683789531485 0.0028060019814542363 -0.0066043803410138942 -0.0003847345610016159 0.0018409114896633624 -0.0019486383134612768 -0.0017678011035059172 0.0043644566361432553 0.00022993977979181063
leaf_weight=24 98050 33 111069 219 21 53 24 52 75 20 6607 306 25 20 128 102 36 23 70 39 42 26 35 20 21 23 41 80 88 261
leaf_count=24 98050 33 111069 219 21 53 24 52 75 20 6607 306 25 20 128 102 36 23 70 39 42 26 35 20 21 23 41 80 88 261
internal_value=0 -6.59287e-06 -6.01474e-06 -0.00011943 -5.12033e-05 0.00230376 -7.47338e-05 -0.00268599 -4.76594e-05 0.00212744 -7.62198e-05 0.000674298 0.000358842 0.000168672 0.00113086 0.00245921 -0.000629259 -0.00167377 -0.000673569 -0.00382087 0.00106236 -0.00077115 -0.000307031 -0.000456286 -0.00341871 0.00457387 -0.000280002 0.000778727 0.00235797 -0.000740991
internal_weight=0 119583 119550 8481 7480 74 7406 76 7330 95 7235 628 581 556 250 122 1001 236 161 75 91 49 765 730 41 47 689 209 129 480
internal_count=217633 119583 119550 8481 7480 74 7406 76 7330 95 7235 628 581 556 250 122 1001 236 161 75 91 49 765 730 41 47 689 209 129 480
shrinkage=0.05


Tree=318
num_leaves=31
num_cat=0
split_feature=31 20 10 11 23 10 16 30 0 2 22 23 43 20 9 16 41 40 9 23 43 9 23 2 28 21 40 40 43 0
split_gain=0.00461306 0.0440733 0.158348 0.375357 0.409825 0.156387 0.0972847 0.0538609 0.0774706 0.0510103 0.229393 0.0549407 0.0431329 0.08508 0.376706 0.222411 0.406629 0.721368 0.0917522 0.0991144 0.173724 0.0656205 0.251482 0.0694598 0.161205 0.061911 0.118833 0.141919 0.0607774 0.229973
threshold=0.56878050000000013 3.8241100000000006 2.7034150000000006e-05 -4.4153649999999994e-05 -9.7498999999999985 2.2759000000000004e-05 7.0201950000000013e-05 0.0071414500000000006 -0.5738764999999999 3.0578500000000006 -2.9160599999999994 -7.6703599999999996 -0.88227999999999918 -4.0204099999999992 -3.4889849999999996e-05 -2.3178849999999996e-05 0.22260499999999997 0.22528099999999995 -1.7830049999999997e-05 -10.262699999999999 -1.3362800000000006 -2.2309399999999997e-05 -10.354649999999998 1.8942800000000002 0.11940450000000001 0.43558650000000004 0.354709 -0.22452634999999985 -0.41630000000000006 -9.4930899999999987
decision_type=2 2 2 2 2 2 2 2 2 2 2 2 2 2 2 2 2 2 2 2 2 2 2 2 2 2 2 2 2 2
left_child=-1 9 3 4 -3 -6 7 8 -5 12 -11 -12 13 18 15 -15 17 -17 19 20 25 22 -16 -23 -25 26 27 -2 29 -14
right_child=1 2 -4 6 5 -7 -8 -9 -10 10 11 -13 28 14 21 16 -18 -19 -20 -21 -22 23 -24 24 -26 -27 -28 -29 -30 -31
leaf_value=-2.25685290961184e-06 -0.00077930137132560572 0.0085994672392600124 -0.00012381021409208943 0.0040743828432459848 -0.0003443815776009638 0.0050937483758025336 0.0037311047494586096 -0.00010885780369275694 2.9346726233629382e-05 0.0059073313268163475 -0.00031552758932393266 0.0024279967978145579 0.0053607402019982455 -0.00027162569952432681 0.0044989253118235088 0.011293624200334307 0.00042292269265643611 -0.00049275918330143518 -0.00010332329100409555 -0.00044394784148814298 -0.0057156984910155494 -0.0001782110302004941 -0.00051999205409305148 -2.0330660651201141e-05 -0.0050482464050874117 -9.1587926215504781e-05 -0.00013096238015437156 -0.0063548750542104238 1.6996820117672986e-05 0.00033860149819101216
leaf_weight=198549 21 31 770 20 39 20 20 297 29 20 107 22 24 47 35 34 46 21 1921 684 24 690 87 44 25 74 42 25 13411 454
leaf_count=198549 21 31 770 20 39 20 20 297 29 20 107 22 24 47 35 34 46 21 1921 684 24 690 87 44 25 74 42 25 13411 454
internal_value=0 2.34802e-05 0.000313478 0.00105188 0.00394475 0.00149905 0.000340519 0.000144532 0.00168038 3.57107e-06 0.00092484 0.00015236 -4.1803e-06 -0.000152973 0.000235646 0.00256975 0.00389198 0.00679337 -0.000296251 -0.000722244 -0.00174566 -0.000156462 0.000919861 -0.000329468 -0.00184204 -0.0011575 -0.00205384 -0.0038095 3.67433e-05 0.000590759
internal_weight=0 19084 1226 456 90 59 366 346 49 17858 149 129 17709 3820 1029 148 101 55 2791 870 186 881 122 759 69 162 88 46 13889 478
internal_count=217633 19084 1226 456 90 59 366 346 49 17858 149 129 17709 3820 1029 148 101 55 2791 870 186 881 122 759 69 162 88 46 13889 478
shrinkage=0.05


Tree=319
num_leaves=31
num_cat=0
split_feature=41 41 3 21 2 43 20 20 0 0 20 2 43 23 12 42 0 7 5 9 37 5 35 3 21 1 11 34 13 21
split_gain=0.00453763 0.0609114 0.0725497 0.154334 0.0722909 0.217408 0.0970706 0.0693692 0.546179 0.0674207 0.200777 1.08309 0.548901 0.754081 0.399969 0.181381 0.489561 0.295535 0.367692 0.387087 0.408815 0.251794 0.267195 0.214941 0.209381 0.315439 0.203517 0.18994 0.23661 0.147503
threshold=-0.33012499999999995 -0.026150000000000003 -19.074649999999995 -3.3402249999999998 3.0333000000000006 -0.086730000000000182 -7.8361449999999992 19.256550000000001 8.9117650000000008 2.8590650000000006 3.1622300000000005 -1.2057699999999998 1.0196000000000003 -8.8793399999999973 -0.00015994749999999997 0.077348000000000056 3.0384450000000007 3.1685750000000011e-05 8.0350100000000025e-06 2.2819750000000005e-05 1.1881600000000001e-07 1.4773100000000001e-05 -0.034275499999999993 -14.389699999999999 1.9225850000000002 3.3087900000000006 8.0378750000000014e-06 0.062021250000000007 1.0876550000000002e-05 7.466355000000001
decision_type=2 2 2 2 2 2 2 2 2 2 2 2 2 2 2 2 2 2 2 2 2 2 2 2 2 2 2 2 2 2
left_child=-1 2 3 -2 -3 -6 -7 9 -9 10 -4 12 13 -12 -15 16 -11 18 -18 27 -21 22 -19 -23 -24 -26 -25 28 -20 -17
right_child=1 4 7 -5 5 6 -8 8 -10 15 11 -13 -14 14 -16 29 17 21 19 20 -22 23 24 26 25 -27 -28 -29 -30 -31
leaf_value=8.2959002795869493e-06 -0.00086094813893060243 6.0099564077351806e-06 -0.00011077149380942942 0.0051446405664319177 -0.0059949159465031701 0.0011895792342650514 -0.0022014937956151294 -0.0029751847539695783 0.0074235258583465347 -0.0075275705382443483 0.015084221704940623 -0.00032142528249856639 0.00041287275679152165 -0.00034404128188422571 0.008692571224877611 -0.00020804229233411292 0.0021061092611801414 -0.0028060799334292995 -0.0077463567992460671 -0.01043467170128486 -0.0013752741614007392 -0.0046629231141540354 0.00025342738124986298 -0.004803695645776835 0.0071159992659779493 0.0013100819333033845 -0.00039018291306415812 0.00043837245262693617 -0.00049335308874066432 0.0010318546717454169
leaf_weight=93794 23 112531 6137 20 20 51 36 28 23 27 24 384 38 24 25 3247 35 43 22 33 20 37 153 28 34 75 389 50 23 259
leaf_count=93794 23 112531 6137 20 20 51 36 28 23 27 24 384 38 24 25 3247 35 43 22 33 20 37 153 28 34 75 389 50 23 259
internal_value=0 -6.2832e-06 -0.000117483 0.00193235 4.77479e-06 -0.00129424 -0.000213623 -0.000125383 0.00171443 -0.000133831 -3.26394e-05 0.000936041 0.0052862 0.00782299 0.00426648 -0.000283797 -0.000889296 -0.000699027 -0.00250265 -0.00359255 -0.00701603 -0.000264163 0.000846928 -0.0010106 0.00144647 0.0031211 -0.000686534 -0.00168261 -0.00403927 -0.000116447
internal_weight=0 123839 11201 43 112638 107 87 11158 51 11107 6632 495 111 73 49 4475 969 942 183 148 53 759 305 454 262 109 417 95 45 3506
internal_count=217633 123839 11201 43 112638 107 87 11158 51 11107 6632 495 111 73 49 4475 969 942 183 148 53 759 305 454 262 109 417 95 45 3506
shrinkage=0.05


Tree=320
num_leaves=31
num_cat=0
split_feature=3 21 1 18 25 21 1 11 11 16 30 20 15 20 25 40 21 41 41 19 19 23 44 40 16 35 44 44 16 40
split_gain=0.00448784 0.0360958 0.113607 0.280496 0.102658 0.0182226 0.134106 0.0680907 0.0159362 0.0144945 0.0127631 0.045385 0.0243072 0.0157958 0.00934218 0.033359 0.27079 0.0306016 0.354252 0.303812 0.506454 0.388703 0.409597 0.423372 0.366269 0.328082 0.268642 0.326838 0.330003 0.404371
threshold=-5.5710999999999995 -13.876599999999998 -8.8547249999999984 -8.7068499999999989e-07 4.5134100000000013 18.392150000000004 8.8482550000000018 1.0000000180025095e-35 -3.5635449999999991e-05 2.3057600000000002e-06 0.064526950000000013 19.256550000000001 -1.5418149999999998e-06 -19.608449999999998 2.3108700000000004 5.6762150000000009 2.9920850000000008 0.22260499999999997 -0.10141500000000002 8.8529750000000019e-08 1.7135300000000002e-05 -8.8007399999999993 1.0949350000000011 -0.10081500000000009 2.1576500000000005e-08 0.0080513700000000021 1.4428800000000004 -0.77194499999999999 1.1066350000000001e-05 -0.079468000000000025
decision_type=2 2 2 2 2 2 2 2 2 2 2 2 2 2 2 2 2 2 2 2 2 2 2 2 2 2 2 2 2 2
left_child=14 2 3 -2 -5 10 -7 -8 -4 -10 11 13 -12 -3 -1 17 -17 18 -16 21 -21 -20 23 -23 25 -25 27 -22 -29 -30
right_child=1 5 8 4 -6 6 7 -9 9 -11 12 -13 -14 -15 15 16 -18 -19 19 20 26 22 -24 24 -26 -27 -28 28 29 -31
leaf_value=2.8655965131444565e-06 0.0066296456973456474 0.0012427665830273328 0.0012827758046023519 0.0036804825434228403 -0.00039462235729254594 -0.00071822708870802844 0.005013683345168829 0.00088782773818820717 -5.8107054274533203e-05 -0.0013796256148413269 -0.0015640567953917471 0.001812509715205124 -0.00015414518018605852 9.8040083298922261e-06 1.7103726212358358e-05 -0.00026018146381829866 0.0051606240815349992 2.1378656358219631e-05 -0.00042949984812260932 0.00077399312669607567 -0.00041419343573486809 -0.0010383545647384476 -0.00011071072145238181 -0.015302605575416238 -0.003807957646656885 -0.0063545565134734807 0.00017989933739357246 -0.001371673297738909 -0.00087657862832324048 -0.0064454993297262363
leaf_weight=148882 24 26 20 20 68 66 20 20 212 23 34 35 303 28736 18245 130 28 17572 206 713 803 38 55 20 36 21 548 595 56 78
leaf_count=148882 24 26 20 20 68 66 20 20 212 23 34 35 303 28736 18245 130 28 17572 206 713 803 38 55 20 36 21 548 595 56 78
internal_value=0 1.80941e-05 0.000510878 0.00183828 0.000531538 1.19091e-05 0.000666295 0.00295076 -7.21356e-05 -0.000187447 9.52817e-06 1.31082e-05 -0.000296391 1.09186e-05 -2.84914e-06 -2.45848e-05 0.000700468 -2.75233e-05 -6.76515e-05 -0.000555616 -0.000375989 -0.00188991 -0.00365959 -0.00535688 -0.00748811 -0.0107195 -0.00077019 -0.00111004 -0.00187652 -0.00411819
internal_weight=0 29607 367 112 88 29240 106 40 255 235 29134 28797 337 28762 188026 39144 158 38986 21414 3169 2793 376 170 115 77 41 2080 1532 729 134
internal_count=217633 29607 367 112 88 29240 106 40 255 235 29134 28797 337 28762 188026 39144 158 38986 21414 3169 2793 376 170 115 77 41 2080 1532 729 134
shrinkage=0.05


Tree=321
num_leaves=31
num_cat=0
split_feature=7 2 29 2 31 3 8 42 42 10 15 43 5 16 41 42 0 22 21 31 11 20 21 41 41 41 32 43 1 4
split_gain=0.00443289 0.0178256 0.0152355 0.0544477 0.0340924 0.0916473 0.0188075 0.0149556 0.154113 0.351548 0.151816 0.0550056 0.0284183 0.0264757 0.210747 0.0254012 0.0211464 0.0197864 0.014646 0.0135495 0.0127515 0.0351819 0.012152 0.0103373 0.0364142 0.0309519 0.02948 0.0276985 0.00876101 0.00820843
threshold=2.2278700000000004e-05 3.0794900000000003 0.015602350000000003 -2.4792649999999994 0.18225650000000002 -12.74245 1.7091350000000004e-05 -0.079468000000000025 -0.0054100000000001361 1.7151150000000003e-05 -1.2070449999999998e-07 -0.15760999999999911 8.1441900000000017e-06 2.1242850000000004e-06 -0.15132349999999997 -0.12496499999999998 0.89142450000000018 2.2191300000000003 13.390900000000002 0.12620500000000004 -2.2589749999999998e-05 -2.5244499999999994 7.466355000000001 -0.026150000000000003 -0.039869999999999954 -0.057539999999999918 -0.092574349999999986 -0.23716000000000023 -7.0028449999999998 0.32420950000000004
decision_type=2 2 2 2 2 2 2 2 2 2 2 2 2 2 2 2 2 2 2 2 2 2 2 2 2 2 2 2 2 2
left_child=1 2 4 -4 7 -6 19 15 9 10 -9 -12 -13 17 -15 -1 -17 18 23 -5 21 -21 28 24 25 -10 -25 -28 -14 -22
right_child=-2 -3 3 6 5 -7 -8 8 13 -11 11 12 22 14 -16 16 -18 -19 -20 20 29 -23 -24 26 -26 -27 27 -29 -30 -31
leaf_value=-1.4079973576310023e-05 -1.2077969555353633e-06 0.001532413143431768 -0.0020229279245737616 -0.0013897640723735095 0.0040278724324889483 -1.3261769496200439e-05 0.0013766445374626941 0.0040526504940187023 -8.724191316817389e-06 0.0078402466679835924 -0.0018948908983535753 0.0022452721605077386 0.00027387569008050893 5.963692685810548e-05 0.0048844811173621569 -8.1638594234722077e-05 -0.0022277372847080796 -0.0015043043494415544 -0.0013120260800600851 -0.00014949294978881277 -4.3262229785509644e-05 -0.0022113245948567057 0.0011001650165417232 -0.0013068933990628771 -0.0017429016584840915 0.0018356248123935709 0.0024228437448618936 0.00038947083610817846 -0.001157001928804675 0.0005435678093020285
leaf_weight=2183 211572 20 37 20 20 47 22 28 2075 20 30 20 23 239 25 22 24 22 21 120 716 25 20 21 30 23 20 103 20 65
leaf_count=2183 211572 20 37 20 20 47 22 28 2075 20 30 20 23 239 25 22 24 22 21 120 716 25 20 21 30 23 20 103 20 65
internal_value=0 4.21607e-05 3.72269e-05 -0.000140521 7.26988e-05 0.00119305 -6.85694e-05 5.75925e-05 0.00013583 0.00163665 0.000756704 -5.99901e-05 0.000603227 4.21385e-05 0.000516535 -3.85816e-05 -0.00120134 -1.19611e-05 2.35704e-06 -0.000102179 -7.43695e-05 -0.000504981 8.19429e-05 1.45058e-05 -1.3238e-05 1.14951e-05 0.000424497 0.000720101 -0.000391649 5.57766e-06
internal_weight=0 6061 6041 1005 5036 67 968 4969 2740 161 141 113 83 2579 264 2229 46 2315 2293 946 926 145 63 2272 2128 2098 144 123 43 781
internal_count=217633 6061 6041 1005 5036 67 968 4969 2740 161 141 113 83 2579 264 2229 46 2315 2293 946 926 145 63 2272 2128 2098 144 123 43 781
shrinkage=0.05


Tree=322
num_leaves=31
num_cat=0
split_feature=37 17 40 41 22 4 19 43 44 38 3 40 17 3 14 21 29 33 12 8 33 3 10 35 23 35 19 5 10 26
split_gain=0.00440068 0.0375813 0.0484955 0.668914 0.285067 0.257892 0.364765 0.782225 1.40124 1.26551 1.59846 1.16159 0.921974 0.347896 0.243469 0.194318 0.170313 0.191823 0.169133 0.147633 0.14465 0.144033 0.139743 0.115346 0.125596 0.0994813 0.150238 0.102044 0.0938181 0.0915235
threshold=-1.1071149999999997e-08 6.7803500000000016e-08 -0.19934349999999995 -0.15132349999999997 -2.9160599999999994 -0.030647449999999996 8.167805000000002e-06 0.80790999999999979 0.87140500000000032 -2.3624449999999997e-05 -12.918299999999999 -0.079468000000000025 6.0555850000000007e-09 -8.0464099999999981 0.0014874650000000001 -11.282949999999998 0.016625200000000003 -2.4058549999999997e-05 0.00010338350000000002 1.2502200000000002e-05 2.3224800000000005e-05 -17.729749999999996 2.2092100000000001e-05 0.0023767100000000002 -9.8578649999999985 0.049049600000000006 0.00035386650000000005 1.7106450000000003e-05 1.0512900000000001e-05 -0.00017254649999999996
decision_type=2 2 2 2 2 2 2 2 2 2 2 2 2 2 2 2 2 2 2 2 2 2 2 2 2 2 2 2 2 2
left_child=-1 2 -2 -4 -5 6 7 8 9 10 -6 -12 -13 -14 20 19 17 18 -7 -8 -9 -17 -18 24 -10 -23 -27 -28 -19 -30
right_child=1 -3 3 4 5 16 15 14 23 -11 11 12 13 -15 -16 21 22 28 -20 -21 -22 25 -24 -25 -26 26 27 -29 29 -31
leaf_value=6.3604233551437197e-06 8.0098220149975325e-06 1.4849511177170965e-05 1.4109665701792551e-05 -0.0060241351085197599 0.0013643696646725473 0.0011030760086214286 -0.0068981685656763145 -0.00031394767358533234 0.003831279539603698 -0.00078786765884918467 -0.002781763173634713 -0.022040395729709419 -0.0064361834964736121 -0.01554774830583483 -0.0057270043811877263 0.0038466122993122557 -0.0057137601246887992 -0.002814647309035839 0.0062770780607190159 -0.0012736097833632293 0.0040763516974402598 -0.00026606746645197214 -0.00070642259992095401 -0.0027127632935447857 -0.00034151033186208225 -0.005434856146651631 0.0019440373179598035 -0.0024521498700998952 -0.0032399726321455089 0.00021690973045408713
leaf_weight=120889 17261 63019 14237 27 26 56 20 303 22 60 23 32 22 20 20 20 22 30 22 28 20 729 38 39 100 24 22 33 20 449
leaf_count=120889 17261 63019 14237 27 26 56 20 303 22 60 23 32 22 20 20 20 22 30 22 28 20 729 38 39 100 24 22 33 20 449
internal_value=0 -7.94783e-06 -5.05473e-05 -0.000111939 -0.000917756 -0.000855087 -0.00120068 -0.00206321 -0.00374792 -0.00674111 -0.00964513 -0.0125961 -0.0156465 -0.010775 -0.000373584 -0.000524251 -7.10394e-06 0.000256537 0.00256241 -0.00361718 -4.21025e-05 -0.000344951 -0.00254245 -0.000345718 0.00041096 -0.000448703 -0.00213403 -0.000693675 -0.000103901 6.94947e-05
internal_weight=0 96744 33725 16464 2227 2200 1563 687 344 183 123 97 74 42 343 876 637 577 78 48 323 828 60 161 122 808 79 55 499 469
internal_count=217633 96744 33725 16464 2227 2200 1563 687 344 183 123 97 74 42 343 876 637 577 78 48 323 828 60 161 122 808 79 55 499 469
shrinkage=0.05


Tree=323
num_leaves=31
num_cat=0
split_feature=21 1 18 16 36 37 12 43 43 8 15 28 1 13 11 15 7 43 1 3 26 4 4 41 24 4 6 11 40 33
split_gain=0.00436002 0.0209778 0.0572219 0.18246 0.0312408 0.0371598 0.0866044 0.0449012 0.0271792 0.0169415 0.0400945 0.121624 0.0379717 0.0779903 0.0299017 0.0284338 0.018327 0.0163385 0.0148047 0.0151682 0.033663 0.0372358 0.039137 0.0286679 0.108943 0.378046 0.0586663 0.20597 0.0447756 0.106603
threshold=13.390900000000002 10.154350000000003 0.00016883300000000004 1.0552950000000002e-06 0.026744400000000005 9.0834600000000011e-08 4.1121850000000007e-05 0.39187000000000044 0.80790999999999979 -1.7548399999999996e-05 9.2565100000000011e-07 0.13760400000000003 8.7485050000000015 1.8732900000000002e-05 -7.0711499999999992e-06 7.9739600000000016e-08 3.8694900000000008e-05 0.13650500000000013 8.267730000000002 -13.009399999999998 -0.0013306049999999997 -0.45249949999999994 -2.2787549999999999 0.68231549999999996 1.1195950000000001 0.14503350000000001 -1.1517499999999998e-06 4.247685000000001e-05 0.039429999999999972 0.00018972300000000001
decision_type=2 2 2 2 2 2 2 2 2 2 2 2 2 2 2 2 2 2 2 2 2 2 2 2 2 2 2 2 2 2
left_child=-1 9 3 4 5 7 -7 17 -9 10 15 -12 18 14 -14 16 -2 -3 19 20 21 22 -11 24 26 -26 27 -21 29 -28
right_child=1 2 -4 -5 -6 6 -8 8 -10 12 11 -13 13 -15 -16 -17 -18 -19 -20 23 -22 -23 -24 -25 25 -27 28 -29 -30 -31
leaf_value=-8.7095300594353001e-07 -0.0016366865179952583 0.00033334387730974416 -0.0020404129027156159 0.0039499927402680953 -0.00048802613309807051 -0.00062082991256223372 0.0033524889670843551 -0.0023084247825040836 -9.643665370077077e-05 -0.00064931631661073138 0.000182402308432343 -0.0041848472791025416 0.0014669907464697949 0.0036644384361517787 -0.00088379309830000454 0.0017760482234007214 -4.5052553838421964e-05 0.0020207842686571754 -0.00092108942241416456 0.00022976758119739316 8.6474240074395364e-06 -0.00025867827027699174 -0.0036670222405865345 -2.2200494657326697e-05 -0.00061958562651852854 0.0079977863933891058 -0.00021914427152633261 0.005622087896924876 -0.00040507861997103915 0.0039792118684826641
leaf_weight=214386 20 32 22 36 110 24 32 21 41 22 44 25 24 22 31 20 189 26 41 113 413 71 21 1386 35 20 54 21 310 21
leaf_count=214386 20 32 22 36 110 24 32 21 41 22 44 25 24 22 31 20 189 26 41 113 413 71 21 1386 35 20 54 21 310 21
internal_value=0 5.75054e-05 0.000426698 0.000595258 0.000172984 0.000586115 0.00164964 8.98048e-05 -0.000845658 1.37568e-05 -0.000343366 -0.00139993 5.46101e-05 0.00114841 0.000142003 -2.50118e-05 -0.000197362 0.00108978 2.1294e-05 3.68299e-05 -0.000201304 -0.000961917 -0.00212308 0.000100859 0.000398002 0.002514 0.000173763 0.00107483 -0.000139856 0.000956395
internal_weight=0 3247 344 322 286 176 56 120 62 2903 298 69 2605 77 55 229 209 58 2528 2487 527 114 43 1960 574 55 519 134 385 75
internal_count=217633 3247 344 322 286 176 56 120 62 2903 298 69 2605 77 55 229 209 58 2528 2487 527 114 43 1960 574 55 519 134 385 75
shrinkage=0.05


Tree=324
num_leaves=31
num_cat=0
split_feature=35 15 40 40 27 43 44 35 4 11 4 4 15 25 11 1 40 9 15 34 14 12 19 16 44 43 40 4 20 19
split_gain=0.00429557 0.104933 0.108511 0.849316 0.690255 0.826011 0.747444 0.672196 0.580343 0.890184 0.566198 0.403995 1.08138 0.3454 0.319331 0.263401 0.248311 0.183453 0.178313 0.275314 0.210269 0.175112 0.173364 0.264863 0.300976 0.449255 0.912997 0.598996 0.28336 0.206613
threshold=1.8741500000000003e-05 -3.1922299999999996e-08 -0.19934349999999995 0.10022550000000004 0.77166350000000017 1.8131900000000003 1.5039450000000001 -0.0054261899999999983 0.14503350000000001 1.6735200000000005e-05 1.3297700000000001 -1.2205099999999998 1.9390250000000003e-07 0.81985550000000007 2.2232350000000001e-05 -3.1361349999999999 0.039429999999999972 2.8400100000000003e-05 1.8501250000000005e-08 0.066349850000000016 0.00017214350000000002 -4.6184449999999988e-05 1.9131000000000004e-05 3.1357800000000004e-08 -0.77194499999999999 -1.2773049999999995 0.016888500000000004 0.060991550000000005 -0.7494814999999998 6.1128050000000005e-06
decision_type=2 2 2 2 2 2 2 2 2 2 2 2 2 2 2 2 2 2 2 2 2 2 2 2 2 2 2 2 2 2
left_child=1 -1 -3 4 22 6 7 8 9 11 15 -6 16 -9 18 -10 -13 -11 20 21 -15 -20 23 29 -25 -26 27 28 -27 -4
right_child=-2 2 3 -5 5 -7 -8 13 10 17 -12 12 -14 14 -16 -17 -18 -19 19 -21 -22 -23 -24 24 25 26 -28 -29 -30 -31
leaf_value=4.584864932538619e-05 7.1220165752692568e-06 1.2128506570621513e-05 -1.9968512033985547e-05 -9.7112242293382956e-06 -0.0017943703149545139 -0.00019277746179456687 -0.00077195647288325281 -0.0076444100491657582 -0.0091990458359941848 0.002253600496704975 -0.0040818888145232836 -0.003175514948847906 -0.017084483408231151 -0.0033015732991043475 0.0042329319768468852 -0.017216682655825502 -0.0097372158696608889 -0.0023543309280217662 0.0013492651337643716 -0.0077591303811156351 0.0034109297151319754 -0.0036047456429514572 -7.7458492513904158e-06 -0.0002985890914980068 -0.00012941784111674925 -0.0060588667077172437 -0.011346957205872362 -0.0079164081747493537 0.00050140475784334537 -0.0043247177136153964
leaf_weight=50806 107317 31292 718 24101 28 504 283 22 20 36 28 46 27 20 25 21 21 54 30 24 28 44 1585 230 107 20 36 38 93 29
leaf_count=50806 107317 31292 718 24101 28 504 283 22 20 36 28 46 27 20 25 21 21 54 30 24 28 44 1585 230 107 20 36 38 93 29
internal_value=0 -6.9284e-06 -5.19862e-05 -0.000123085 -0.00078678 -0.00176111 -0.00280528 -0.00401927 -0.00557974 -0.00428341 -0.00956267 -0.00706622 -0.00863656 -0.0017473 -0.000988609 -0.0133056 -0.00523217 -0.000511158 -0.00188271 -0.00310561 0.000614053 -0.00159636 -0.000356588 -0.000791611 -0.0016534 -0.00271329 -0.00419177 -0.0024859 -0.000659705 -0.000187087
internal_weight=0 110316 59510 28218 4117 1261 757 474 281 212 69 122 94 193 171 41 67 90 146 98 48 74 2856 1271 524 294 187 151 113 747
internal_count=217633 110316 59510 28218 4117 1261 757 474 281 212 69 122 94 193 171 41 67 90 146 98 48 74 2856 1271 524 294 187 151 113 747
shrinkage=0.05


Tree=325
num_leaves=31
num_cat=0
split_feature=18 38 4 44 44 40 40 21 37 44 21 20 3 3 20 44 0 10 19 40 40 31 4 15 8 28 44 1 40 4
split_gain=0.00447327 0.0458812 0.173714 0.188931 0.204497 0.231168 0.401603 0.355217 0.475422 0.362658 0.519505 0.333101 0.195191 0.192511 0.191167 0.153303 0.115735 0.0984562 0.101319 0.0983653 0.122533 0.0600647 0.132145 0.342417 0.0648384 0.0477117 0.126905 0.0518482 0.0674815 0.0373331
threshold=5.4626650000000007e-05 -0.029002799999999999 1.4464300000000001 4.5286099999999996 -5.5113749999999992 -0.68744999999999989 0.40779500000000007 5.8567400000000012 5.3317650000000004e-06 1.5644200000000008 -8.2769249999999985 6.7384950000000012 -8.9792199999999998 -10.496249999999998 -6.1474899999999986 -1.39714 -6.6224949999999998 2.7183000000000004e-05 3.7480150000000004e-05 -0.30278099999999991 0.62909250000000005 8.0070900000000016 2.9223900000000005 -1.7185949999999998e-05 -9.7164649999999985e-06 -0.65584149999999986 0.55624500000000021 -5.6681399999999993 0.49120000000000014 0.24725400000000003
decision_type=2 2 2 2 2 2 2 2 2 2 2 2 2 2 2 2 2 2 2 2 2 2 2 2 2 2 2 2 2 2
left_child=29 2 3 4 -2 -6 7 9 13 10 -7 12 14 -9 -12 -16 -8 18 -17 -5 -21 25 23 -23 -24 26 27 -4 -29 -1
right_child=1 -3 21 19 5 6 16 8 -10 -11 11 -13 -14 -15 15 17 -18 -19 -20 20 -22 22 24 -25 -26 -27 -28 28 -30 -31
leaf_value=-2.642983181011015e-06 -0.00049231883387399866 -2.7887086660747635e-05 -0.0020919100558587714 0.00015258021509852166 -0.00017829204902388004 0.0080886988481506713 0.0036024926940444861 0.013227457759785467 0.00158219087170437 0.0071457066438010627 0.0043141804954502736 0.0061511856683699254 -0.0042866671050433075 0.0062900493851338977 -0.0044894903538533985 -0.0036430009962281303 -0.00044510720256387489 0.0025635033370235761 0.00085506929730575897 -0.005994762042537332 -0.00069566729425787346 0.0080380491085816179 0.001912462158532649 -0.00082031603888026443 -0.00062840883462816541 -0.00018079962411864887 0.0038615076008783143 0.0026639432996699518 -0.00054896584498981781 8.9303169218701668e-05
leaf_weight=159846 182 42574 23 49 170 25 20 20 32 31 25 22 27 20 20 21 151 32 31 20 24 20 34 24 96 2138 27 26 44 11859
leaf_count=159846 182 42574 23 49 170 25 20 20 32 31 25 22 27 20 20 21 151 32 31 20 24 20 34 24 96 2138 27 26 44 11859
internal_value=0 -1.38603e-05 0.000164189 0.000748605 0.000988334 0.00140484 0.00196906 0.0030536 0.00612473 0.00210864 0.00133943 0.0003915 -0.000420763 0.00975875 0.000388379 -0.000555323 2.82963e-05 0.000381384 -0.000961459 -0.00138833 -0.00310435 -5.73704e-05 0.000837758 0.00320621 3.61267e-05 -0.000126348 0.00084379 -3.23215e-05 0.0006444 3.70738e-06
internal_weight=0 45928 3354 922 829 647 477 306 72 234 203 178 156 40 129 104 171 84 52 93 44 2432 174 44 130 2258 120 93 70 171705
internal_count=217633 45928 3354 922 829 647 477 306 72 234 203 178 156 40 129 104 171 84 52 93 44 2432 174 44 130 2258 120 93 70 171705
shrinkage=0.05


Tree=326
num_leaves=31
num_cat=0
split_feature=27 13 13 23 4 4 33 40 40 40 25 40 4 26 40 40 5 37 23 4 24 36 40 40 16 35 38 7 3 19
split_gain=0.00441193 0.0311943 0.0461079 0.0359726 0.0274296 0.123725 0.123068 0.142583 0.280828 0.243029 0.160496 0.243634 0.0684344 0.0636127 0.0777293 0.335708 0.04088 0.0335427 0.105887 0.0379467 0.042661 0.0316226 0.0230069 0.0442682 0.0228297 0.0221503 0.0369898 0.0848533 0.0330209 0.0650456
threshold=29.419400000000007 -7.1201799999999986e-05 -6.7776199999999983e-05 -15.138399999999999 -0.54650249999999989 -1.5265699999999998 -0.00016239399999999998 0.80350500000000014 -1.0422104999999997 -0.19934349999999995 67.039100000000005 0.077348000000000056 -0.26743249999999991 0.0025695650000000007 0.43531000000000003 -0.32870999999999989 8.0350100000000025e-06 -6.2538149999999987e-05 -21.129099999999998 -2.0429399999999993 -1.2617699999999996 -0.11978799999999999 -0.30278099999999991 0.65575499999999998 4.3089250000000013e-06 5.1900100000000009 0.6802760000000001 3.3150950000000012e-05 -12.352299999999998 0.0095771650000000003
decision_type=2 2 2 2 2 2 2 2 2 2 2 2 2 2 2 2 2 2 2 2 2 2 2 2 2 2 2 2 2 2
left_child=-1 3 -3 -2 5 16 -7 8 24 -10 11 -11 13 14 15 -6 -4 18 -18 25 -21 -15 -23 -24 -8 26 -19 -28 29 -29
right_child=1 2 4 -5 12 6 7 -9 9 10 -12 -13 -14 21 -16 -17 17 19 -20 20 -22 22 23 -25 -26 -27 27 28 -30 -31
leaf_value=1.2509898086134258e-06 -0.0023201759433943842 0.0019325559086428258 0.0021057844787355862 -0.00037795526209604883 -0.00052745631127667125 -0.00032842641096627071 0.0012161652232118121 -0.00030767062678135784 0.0083378305969138942 0.001373621861991548 -0.00082481896388344469 0.0076893189250348288 -3.8704194960215134e-05 0.0011317261321565663 -0.00010894148889731743 -0.0071312792599201209 0.0039531919272849337 -0.00030308082145404585 -0.00027528071263907154 -0.0028306550663338777 -0.00054759989449705343 0.00010802772557166034 -0.0031409212271682921 -0.00017637351533374065 -0.00071664845666964542 -0.00098156068335002698 0.0029968019240688339 0.003394199001777452 -0.00024656604534375098 -0.00059004727642916679
leaf_weight=211114 29 30 20 134 67 130 22 73 24 37 24 26 4641 39 59 27 20 491 57 28 76 68 20 34 50 72 29 20 151 21
leaf_count=211114 29 30 20 134 67 130 22 73 24 37 24 26 4641 39 59 27 20 491 57 28 76 68 20 34 50 72 29 20 151 21
internal_value=0 -4.05126e-05 -2.29972e-05 -0.000723504 -3.22711e-05 0.000165662 0.000924421 0.00156063 0.00230591 0.00388341 0.00265461 0.0039801 -8.70373e-05 -0.000801413 -0.00153145 -0.0024243 -0.000131679 -0.000178051 0.000823024 -0.000264856 -0.00116227 -0.000107652 -0.000503846 -0.00127435 -0.000126066 -0.000145812 -6.12976e-05 0.000475877 9.51121e-05 0.00135349
internal_weight=0 6519 6356 163 6326 1371 386 256 183 111 87 63 4955 314 153 94 985 965 77 888 104 161 122 54 72 784 712 221 192 41
internal_count=217633 6519 6356 163 6326 1371 386 256 183 111 87 63 4955 314 153 94 985 965 77 888 104 161 122 54 72 784 712 221 192 41
shrinkage=0.05


Tree=327
num_leaves=31
num_cat=0
split_feature=35 15 40 40 15 20 20 9 8 8 15 18 17 33 18 2 4 9 40 31 2 2 2 28 43 13 14 28 2 21
split_gain=0.00442076 0.0208622 0.0566517 0.18908 0.0266236 0.0552392 0.0183286 0.0524946 0.0158149 0.00995991 0.0212835 0.0102036 0.0192811 0.00972003 0.0578476 0.14443 0.0922888 0.0349812 0.036536 0.00979609 0.079099 0.0649962 0.0372597 0.0614497 0.0581047 0.0374654 0.059813 0.0241143 0.011759 0.0729032
threshold=-4.3203749999999994 -7.9465399999999986e-06 0.24966499999999994 -0.68744999999999989 -1.5418149999999998e-06 1.0000000180025095e-35 14.554100000000002 2.9275850000000002e-05 -7.7981199999999988e-06 1.1672950000000003e-05 -4.9253149999999993e-08 -0.00015077349999999997 -7.6164049999999991e-06 0.0031288150000000005 -9.6173349999999976e-06 -2.2522399999999996 -0.88881949999999998 1.8617650000000002e-06 0.46240350000000002 11.617550000000001 2.9632050000000003 2.7810200000000003 -2.4290249999999998 -0.96676949999999995 1.9902050000000007 -5.1489599999999996e-05 0.0035378750000000007 0.019389100000000003 -2.1540499999999994 1.6414900000000003
decision_type=2 2 2 2 2 2 2 2 2 2 2 2 2 2 2 2 2 2 2 2 2 2 2 2 2 2 2 2 2 2
left_child=1 2 3 -1 5 -3 9 -8 -4 11 -11 12 -6 19 15 -15 17 -17 -19 -2 21 22 23 -21 -25 26 -24 -26 29 -27
right_child=13 4 8 -5 6 -7 7 -9 -10 10 -12 -13 -14 14 -16 16 -18 18 -20 20 -22 -23 25 24 27 28 -28 -29 -30 -31
leaf_value=-0.00025941127586590415 6.9575588429042084e-07 -0.0033530279144179075 -0.00018016719393926906 0.0047185133392405182 9.0926354356458351e-05 0.00023990537476700649 -4.6241167001426224e-05 -0.0022451101663280401 -0.0018746152869425715 0.0018521358569887525 9.2425943795638359e-05 -4.7729998472314143e-05 -0.0018038772142026573 0.0050108517144690267 -0.00012860397976795668 -0.0016802045241430669 0.0025523253511993164 0.0020385962768159518 -0.00070247244844839809 -0.002985874132819249 -0.0027742073609260845 0.0020689237843458507 -1.7039067643054296e-06 0.0017092179486644455 -0.0025212127470391962 0.0030952014042884999 -0.0034873201942536981 -0.00046187486264402243 -1.204315892397132e-05 -0.00054284752368403131
leaf_weight=65 215225 20 40 27 29 23 95 38 21 20 122 349 25 20 341 35 36 20 31 29 28 34 32 25 21 21 20 44 757 40
leaf_count=65 215225 20 40 27 29 23 95 38 21 20 122 349 25 20 341 35 36 20 31 29 28 34 32 25 21 21 20 44 757 40
internal_value=0 -0.000112225 0.000418069 0.0012015 -0.000224756 -0.00143123 -0.000148239 -0.000674489 -0.000763502 -1.9815e-05 0.000340272 -0.000146694 -0.000786298 4.52505e-07 0.000224503 0.00107246 0.000426818 -0.000462929 0.000372456 -4.78577e-08 -0.000152326 -8.05638e-05 -0.000154459 -0.000984268 -0.000339306 -4.09566e-05 -0.00134233 -0.0011272 4.1771e-05 0.000709596
internal_weight=0 874 153 92 721 43 678 133 61 545 142 403 54 216759 483 142 122 86 51 216276 1051 1023 989 119 90 870 52 65 818 61
internal_count=217633 874 153 92 721 43 678 133 61 545 142 403 54 216759 483 142 122 86 51 216276 1051 1023 989 119 90 870 52 65 818 61
shrinkage=0.05


Tree=328
num_leaves=31
num_cat=0
split_feature=14 23 2 5 40 31 2 22 23 2 22 2 34 4 25 31 43 40 21 44 3 3 0 23 0 35 9 36 23 16
split_gain=0.00423955 0.0152263 0.0216795 0.00939579 0.0105214 0.00464542 0.0368062 0.190105 0.0518678 0.0287991 0.107321 0.0519175 0.145352 0.0776943 0.0288576 0.0413089 0.0264672 0.0249447 0.0191438 0.0155746 0.0322001 0.0784967 0.102797 0.0484401 0.0320455 0.052995 0.0505594 0.0319651 0.022401 0.0428023
threshold=0.71230950000000004 -14.053899999999997 -1.7088249999999998 1.2738100000000001e-05 0.57364500000000007 0.56878050000000013 3.0578500000000006 -2.9160599999999994 -7.5151499999999993 2.9632050000000003 2.9809550000000002 2.9401200000000007 0.45987150000000004 0.8580755000000001 15.043350000000002 2.3607850000000004 4.0888900000000019 0.57364500000000007 -1.6594799999999996 3.0726850000000008 -18.627349999999996 -17.729749999999996 -0.94951099999999988 -17.886149999999997 -4.1331249999999988 0.96084200000000008 -3.9007449999999992e-05 -0.60180299999999987 -13.504999999999997 4.1207450000000003e-07
decision_type=2 2 2 2 2 2 2 2 2 2 2 2 2 2 2 2 2 2 2 2 2 2 2 2 2 2 2 2 2 2
left_child=5 2 -2 4 -4 -1 9 -8 18 11 14 19 -13 16 15 -11 -14 -16 -9 20 23 22 -22 -7 25 -21 -26 -28 29 -29
right_child=1 -3 3 -5 -6 6 7 8 -10 10 -12 12 13 -15 17 -17 -18 -19 -20 24 21 -23 -24 -25 26 -27 27 28 -30 -31
leaf_value=-1.8400607893557245e-06 -0.0020859465561807156 -5.4159896510610433e-06 -0.0016057321180123836 -2.4405404370435978e-05 -0.00019450761289720373 0.00031040886850942944 0.0052117829660086766 0.00054858845568812994 0.0024160173826419939 -0.00015271363661629328 -0.0030639669540830387 0.0049828869351767934 -0.0023127822030801328 0.0027834768107567243 -0.0023455031972844155 0.0016577329641082683 3.5409702783605704e-05 -0.00040504126034159239 -0.00074645160650386696 -0.00035422439180273207 0.0046801915353474523 3.4539533720383897e-05 0.00017810351569096385 -0.0030468563378755272 0.00231842336399258 -0.002770902361282879 0.0013757296717719725 -0.00029254834674550997 -0.0001000239293734193 0.002759250186572899
leaf_weight=197793 20 656 25 92 28 22 21 45 21 164 35 20 20 20 22 39 30 67 78 414 21 16041 32 21 23 24 39 27 1753 20
leaf_count=197793 20 656 25 92 28 22 21 45 21 164 35 20 20 20 22 39 30 67 78 414 21 16041 32 21 23 24 39 27 1753 20
internal_value=0 -0.000113406 -0.00054275 -0.000329895 -0.00086018 4.29435e-07 2.40316e-05 0.000767558 0.000119442 1.75247e-05 -0.000447618 2.57344e-05 0.00122371 0.00014966 -0.000134015 0.000195106 -0.000903867 -0.000884706 -0.000272656 1.98865e-05 3.7236e-05 4.08868e-05 0.00196195 -0.00132919 -0.000101839 -0.000486645 -1.13204e-05 -4.0458e-05 -7.11421e-05 0.00100609
internal_weight=0 821 165 145 53 216812 19019 165 144 18854 327 18527 90 70 292 203 50 89 123 18437 16137 16094 53 43 2300 438 1862 1839 1800 47
internal_count=217633 821 165 145 53 216812 19019 165 144 18854 327 18527 90 70 292 203 50 89 123 18437 16137 16094 53 43 2300 438 1862 1839 1800 47
shrinkage=0.05


Tree=329
num_leaves=31
num_cat=0
split_feature=7 40 26 11 43 20 40 40 23 21 43 17 43 24 16 9 35 9 43 40 8 40 12 43 9 20 20 20 9 11
split_gain=0.00433452 0.0159012 0.0139286 0.0261988 0.0676756 0.139865 0.0156862 0.141378 0.212149 0.202071 0.217857 0.0881334 0.0835056 0.120451 0.0565156 0.0542706 0.0992144 0.0271588 0.0171755 0.0146208 0.0128908 0.0118204 0.0107839 0.0107524 0.0102853 0.0285509 0.0117931 0.0279163 0.0548991 0.0163026
threshold=2.2278700000000004e-05 5.4411200000000006 -7.2484149999999989e-05 -5.0495149999999994e-05 -0.465335 -1.8361949999999998 0.12375499999999996 -0.10081500000000009 -8.364709999999997 -8.4289549999999984 -0.77143500000000065 2.9436800000000002e-06 -0.12174999999999957 -0.072564049999999977 -1.34735e-08 -6.699424999999999e-06 1.0000000180025095e-35 5.9899600000000008e-06 0.55890500000000032 0.20129000000000011 1.6057000000000002e-05 0.24966499999999994 -1.4326249999999999e-05 0.23546500000000006 1.7091500000000004e-05 4.1736500000000012 -1.7634149999999997 -1.1107799999999999 -3.9923449999999997e-07 1.3123000000000001e-05
decision_type=2 2 2 2 2 2 2 2 2 2 2 2 2 2 2 2 2 2 2 2 2 2 2 2 2 2 2 2 2 2
left_child=1 2 3 4 -1 -6 7 -4 9 -9 -11 14 13 -10 15 -12 -17 18 -16 22 24 -21 -8 -14 26 -26 -5 28 -28 -29
right_child=-2 -3 6 20 5 -7 19 8 12 10 11 -13 23 -15 17 16 -18 -19 -20 21 -22 -23 -24 -25 25 -27 27 29 -30 -31
leaf_value=-8.4722972946172193e-06 -1.1943212812909287e-06 0.0013261420997271976 -3.0207298203790895e-06 8.4035024346112167e-05 -0.0053178130011517742 2.5205601317187155e-06 -0.0017763653123256517 0.00644983294085883 -0.0049612985401056783 0.0064745544712059211 -0.00036445439976017478 0.0038876287726452574 0.00071123273634614856 -2.3996452800929549e-05 -0.00019475319947416308 0.0007112509148884846 0.0052888873207848526 0.00093312282925773734 -0.0019258998797538327 0.0009135586284121799 0.0009950328529157559 -1.4566665392473438e-05 -0.00020432175001587895 -0.00056515020306895688 -0.0002705436771066161 0.0020878178517228833 -0.0033533996288315398 1.2478885654818875e-05 2.8510453218283754e-05 -0.00048079958323980282
leaf_weight=118 211572 24 1822 827 21 30 20 23 21 20 23 23 77 30 38 29 20 33 23 35 31 1728 24 21 33 21 20 673 30 223
leaf_count=118 211572 24 1822 827 21 30 20 23 21 20 23 23 77 30 38 29 20 33 23 35 31 1728 24 21 33 21 20 673 30 223
internal_value=0 4.16903e-05 3.6584e-05 -7.02376e-05 -0.000666261 -0.00218821 9.05808e-05 0.000180144 0.00105606 0.0020016 0.00151208 0.000986951 -0.000416177 -0.002057 0.00058505 0.00163919 0.00257967 -0.000222375 -0.000847481 -1.86097e-05 -1.60245e-05 3.85896e-06 -0.000918887 0.000437722 -3.31798e-05 0.000646597 -5.38837e-05 -0.000174453 -0.00132425 -0.00011029
internal_weight=0 6061 6037 2027 169 51 4010 2203 381 232 209 189 149 51 166 72 49 94 61 1807 1858 1763 44 98 1827 54 1773 946 50 896
internal_count=217633 6061 6037 2027 169 51 4010 2203 381 232 209 189 149 51 166 72 49 94 61 1807 1858 1763 44 98 1827 54 1773 946 50 896
shrinkage=0.05


Tree=330
num_leaves=31
num_cat=0
split_feature=28 40 41 41 4 30 41 5 33 21 4 18 22 13 21 16 30 21 44 39 40 3 20 20 3 26 37 37 20 19
split_gain=0.00427502 0.0301062 0.187583 0.154935 0.154205 0.138679 0.154356 0.188258 0.299212 0.224759 0.185276 0.290389 0.170829 0.178862 0.270316 0.295167 0.14697 0.213514 0.283833 0.190187 0.175315 0.174434 0.155066 0.13722 0.135024 0.182771 0.144114 0.13698 0.166718 0.183008
threshold=0.051198250000000008 -0.19934349999999995 -0.12554300000000002 -0.15132349999999997 0.21050500000000003 0.0015109500000000003 -0.057539999999999918 2.2914500000000002e-05 -1.9758899999999995e-05 10.889000000000001 0.115275 7.6735600000000018e-05 2.9137900000000005 -1.3758149999999998e-05 10.010650000000002 -1.4853299999999997e-05 0.0061309900000000011 3.4952500000000004 -0.60415499999999989 0.013816900000000002 -0.058960000000000005 -12.288549999999999 0.36276400000000003 -2.3663549999999995 -14.49255 -0.0029059199999999998 1.2277200000000002e-05 1.7767500000000002e-06 2.5491150000000005 8.167805000000002e-06
decision_type=2 2 2 2 2 2 2 2 2 2 2 2 2 2 2 2 2 2 2 2 2 2 2 2 2 2 2 2 2 2
left_child=-1 -2 3 -3 23 -4 24 12 10 -10 -9 -12 13 14 15 -8 17 18 -15 22 -20 -21 -18 -5 -7 -26 27 28 29 -27
right_child=1 2 5 4 -6 6 7 8 9 -11 11 -13 -14 16 -16 -17 19 -19 20 21 -22 -23 -24 -25 25 26 -28 -29 -30 -31
leaf_value=2.1202638504407805e-06 1.8825219428644932e-05 1.0863459468529109e-05 -0.0038690128092639499 0.0033930295312802634 0.0050891182940298076 0.0013001159046377455 0.0056513403877615932 -0.0015620588314667881 -0.0021556795625597225 -0.0077525783341289281 0.0073727682670869411 -0.00026253652622196542 -0.0043853675977083015 -0.00075717041843510692 0.005642232103105705 -0.0002702237055216797 -0.004080977316823651 -0.00019330622116919558 0.0086513926264491278 0.0029877356937504373 0.0024081524248923299 -0.0005694632714411278 -0.00097606400617593662 -0.0023293603019820613 -0.0051095389219699434 0.0031497031788148889 -0.0046662979810521239 0.0014783953069759858 -0.0047002296267381182 -0.0019387144231369524
leaf_weight=199381 12786 3969 32 20 30 35 25 53 123 21 20 33 21 31 33 133 61 198 22 44 23 159 118 22 40 24 29 46 34 67
leaf_count=199381 12786 3969 32 20 30 35 25 53 123 21 20 33 21 31 33 133 61 198 22 44 23 159 118 22 40 24 29 46 34 67
internal_value=0 -2.31613e-05 -0.000121376 5.25626e-05 0.00235123 -0.000614628 -0.000539868 -0.000278832 -0.0014878 -0.00297189 0.000528326 0.00261871 6.93738e-05 0.000179822 0.00152637 0.000666733 -0.000212238 0.000671428 0.00292429 -0.000846072 0.0054604 0.000201555 -0.00203416 0.000395587 -0.0016011 -0.0020242 -0.00140713 -0.000854401 -0.00171287 -0.000596714
internal_weight=0 18252 5466 4041 72 1425 1393 1118 250 144 106 53 868 847 191 158 656 274 76 382 45 203 179 42 275 240 200 171 125 91
internal_count=217633 18252 5466 4041 72 1425 1393 1118 250 144 106 53 868 847 191 158 656 274 76 382 45 203 179 42 275 240 200 171 125 91
shrinkage=0.05


Tree=331
num_leaves=31
num_cat=0
split_feature=34 43 43 44 18 21 43 41 41 41 2 36 42 1 41 41 6 14 10 6 37 21 41 36 41 28 1 36 43 3
split_gain=0.00417303 0.0252927 0.0574619 0.060765 0.126049 0.0968417 0.0746887 0.0716093 0.162122 0.1034 0.105886 0.0734106 0.0706404 0.0665753 0.341334 1.11037 0.0640127 0.193994 0.0489272 0.0972337 0.0343337 0.0317809 0.0263512 0.0257828 0.093642 0.0256408 0.0943704 0.0236547 0.0226965 0.022617
threshold=0.0096317150000000008 -0.88227999999999918 -0.15760999999999911 -0.16918499999999967 1.1699350000000001e-06 12.159000000000001 0.55890500000000032 -0.057539999999999918 -0.026150000000000003 0.078754999999999922 -2.9939399999999998 -0.0010580249999999998 0.20129000000000011 9.572065000000002 -0.078199999999999964 0.078754999999999922 -4.8439949999999985e-06 0.00024047200000000001 1.3788000000000002e-05 1.2194600000000003e-06 -1.6890749999999995e-07 9.0737900000000007 0.19792950000000006 0.00049241950000000008 0.017850000000000036 -0.0065198499999999989 -10.036849999999999 -0.0010135849999999998 -0.12174999999999957 -8.5162499999999977
decision_type=2 2 2 2 2 2 2 2 2 2 2 2 2 2 2 2 2 2 2 2 2 2 2 2 2 2 2 2 2 2
left_child=1 -1 18 6 7 16 13 12 -9 10 -10 -12 -5 -4 -15 -16 17 -6 19 21 -20 -3 -11 28 -25 26 -22 -27 -13 -8
right_child=-2 2 3 4 5 -7 29 8 9 22 11 23 -14 14 15 -17 -18 -19 20 -21 25 -23 -24 24 -26 27 -28 -29 -30 -31
leaf_value=2.2255486972121722e-05 3.5362900411267031e-06 -0.00022925528899602951 -0.00018984337807292399 -0.0030900328181451189 -0.0059233343493542631 -0.0034675600073639473 0.0015927965621730521 0.0040459088680724949 -0.0026674055795107661 -0.0019321230848436243 0.0036157556321649328 -0.0010998531174845996 -6.589508184861513e-05 3.5937533160298093e-07 -0.010638381750322879 -0.00010953858679634075 -0.00013629429380487081 -0.00018664427899628728 -0.0022531681375585321 -0.0039030891220318154 -0.0039323746082161621 -0.0018407017955420696 -8.6500395909348588e-05 0.00073971953284968669 0.0044564801105298106 -0.0016227534529645237 -0.00027983417382334403 -0.00013683829224610396 0.00059743139736159235 -1.1823310737501472e-05
leaf_weight=23535 172605 142 1955 20 20 26 22 31 24 20 21 20 560 315 35 88 488 56 20 25 21 39 586 111 20 27 112 3343 1298 12048
leaf_count=23535 172605 142 1955 20 20 26 22 31 24 20 21 20 560 315 35 88 488 56 20 25 21 39 586 111 20 27 112 3343 1298 12048
internal_value=0 -1.35556e-05 -5.2769e-05 -1.53116e-05 0.000178256 -0.000484046 -5.94911e-05 0.000322394 0.000456458 0.000403471 0.000626921 0.000680706 -0.000170176 -0.000314673 -0.000871848 -0.00310555 -0.000346508 -0.0016963 -0.000231206 -0.000980189 -0.000187411 -0.000576473 -0.000147412 0.000638169 0.00130716 -0.000175617 -0.000856551 -0.000148743 0.000571676 -8.89857e-06
internal_weight=0 45028 21493 17764 3301 590 14463 2711 2131 2100 1494 1470 580 2393 438 123 564 76 3729 206 3523 181 606 1449 131 3503 133 3370 1318 12070
internal_count=217633 45028 21493 17764 3301 590 14463 2711 2131 2100 1494 1470 580 2393 438 123 564 76 3729 206 3523 181 606 1449 131 3503 133 3370 1318 12070
shrinkage=0.05


Tree=332
num_leaves=31
num_cat=0
split_feature=41 28 25 12 11 26 27 0 15 7 6 15 20 10 20 15 16 16 26 16 8 4 13 12 3 3 4 4 16 19
split_gain=0.00416905 0.0560999 0.094342 0.0536233 0.228013 0.0121013 0.00438758 0.011527 0.0122741 0.0622206 0.139604 0.037872 0.0484803 0.035232 0.0304283 0.0263089 0.0615298 0.0153522 0.0158804 0.0341419 0.0148266 0.04215 0.0193962 0.0223772 0.0498087 0.026228 0.0223537 0.0176081 0.0857413 0.0130052
threshold=5.6849350000000003 0.19726850000000004 16.451500000000003 -8.8131899999999982e-06 -3.2696799999999995e-05 0.0033062250000000007 91.481750000000019 -13.909449999999998 3.6456250000000008e-06 3.7305750000000001e-05 1.0580900000000002e-06 2.5395100000000004e-05 3.3419800000000004 3.8569350000000007e-05 -8.5876849999999987 1.0214300000000003e-06 4.3089250000000013e-06 -5.7111899999999989e-06 -0.028182349999999998 -8.1957199999999988e-05 1.3245700000000003e-05 -0.63310749999999982 -1.4146449999999999e-05 -7.008014999999999e-05 -9.5548399999999987 -15.040049999999999 0.30910700000000008 2.1341250000000005 3.0231500000000004e-06 0.0026916950000000005
decision_type=2 2 2 2 2 2 2 2 2 2 2 2 2 2 2 2 2 2 2 2 2 2 2 2 2 2 2 2 2 2
left_child=6 2 3 5 -5 -2 -1 -8 15 10 14 12 13 -11 -10 17 -17 18 -9 -20 22 -22 26 24 -24 -25 -19 28 -27 -13
right_child=1 -3 -4 4 -6 -7 7 8 9 11 -12 29 -14 -15 -16 16 -18 20 19 -21 21 -23 23 25 -26 27 -28 -29 -30 -31
leaf_value=1.7812243436375427e-07 -4.1012679051533753e-05 -0.0021324476877149817 0.0030904913126842412 0.0056631568332126013 -2.1507485454615592e-05 -0.0012328885528735225 0.00098210205161012708 -0.00012665268819168356 -0.00087781531819408501 -0.0014378317469631188 0.0046558465241737989 -0.0011491035603144219 0.0023606760744899345 0.0010935571609513352 0.0012554140309930517 -0.0002329315709705124 -0.003230247635434827 -0.00031907312844795704 -0.0001170564232090714 -0.0024908505619220837 0.0024079761556012359 8.8112429565105206e-05 -4.9792880915144155e-05 0.0017603141222776765 -0.002879098275055488 -1.9337590474912829e-05 -0.0017403619536863907 -0.00092188264120936355 0.0033272051782114436 -0.00029130572396301682
leaf_weight=215186 666 27 27 22 89 22 25 77 35 28 23 71 28 27 32 67 23 132 33 28 22 178 60 23 21 445 35 44 20 117
leaf_count=215186 666 27 27 22 89 22 25 77 35 28 23 71 28 27 32 67 23 132 33 28 22 178 60 23 21 445 35 44 20 117
internal_value=0 0.000110322 0.000183633 8.54034e-05 0.00110518 -7.9125e-05 -4.34101e-07 -8.30828e-05 -0.000100055 0.000155764 0.00129482 -0.000222522 0.000667056 -0.00019515 0.00014104 -0.000176504 -0.000998912 -0.0001103 -0.00060405 -0.00120667 -4.07716e-05 0.000343297 -0.000139251 -9.11154e-06 -0.000783317 0.000108766 -0.000616948 3.41376e-05 0.0001246 -0.000615261
internal_weight=0 853 826 799 111 688 216780 1594 1569 361 90 271 83 55 67 1208 90 1118 138 61 980 200 780 613 81 532 167 509 465 188
internal_count=217633 853 826 799 111 688 216780 1594 1569 361 90 271 83 55 67 1208 90 1118 138 61 980 200 780 613 81 532 167 509 465 188
shrinkage=0.05


Tree=333
num_leaves=31
num_cat=0
split_feature=21 1 17 16 26 36 16 36 18 17 43 12 13 7 1 41 41 43 40 9 23 13 31 23 40 40 33 19 22 17
split_gain=0.0042741 0.0203766 0.0537955 0.118332 0.173153 0.0332381 0.0633615 0.0511016 0.0552297 0.0288832 0.0154605 0.0783627 0.133858 0.206572 0.0375289 0.104141 0.169867 0.0221245 0.0663632 0.200637 0.0191594 0.0149399 0.0798916 0.0352693 0.0426853 0.170942 0.0302661 0.0284807 0.0196426 0.0744383
threshold=13.390900000000002 10.154350000000003 2.9436800000000002e-06 1.0552950000000002e-06 0.00023966550000000002 0.026744400000000005 -5.8728149999999988e-07 0.00036375000000000009 2.1594550000000003e-07 8.5947450000000013e-08 0.55890500000000032 0.00011228600000000002 6.2308800000000016e-05 5.6918900000000001e-05 8.267730000000002 -0.12554300000000002 0.19792950000000006 1.3895649999999999 -0.19934349999999995 -2.7238999999999998e-05 -13.08405 0.00020297300000000004 2.3607850000000004 -8.2009299999999978 -0.74380499999999983 0.2761725000000001 0.00038371750000000001 0.0016856000000000002 0.66942300000000021 -1.4690199999999997e-06
decision_type=2 2 2 2 2 2 2 2 2 2 2 2 2 2 2 2 2 2 2 2 2 2 2 2 2 2 2 2 2 2
left_child=-1 10 3 5 -5 6 -3 9 -9 -8 14 17 13 -13 20 -16 -17 18 -12 -20 -2 23 27 24 -22 -26 -27 -23 29 -25
right_child=1 2 -4 4 -6 -7 7 8 -10 -11 11 12 -14 -15 15 16 -18 -19 19 -21 21 22 -24 28 25 26 -28 -29 -30 -31
leaf_value=-8.6232891160129698e-07 -0.0014491050736978651 0.0031133747042116269 -0.0016399244748754429 -5.5263000762178788e-05 0.0064453225850593298 -0.00045233979340039942 0.00029298303964120961 0.00018585748262661843 0.0036260521085932848 -0.0014984524014127803 -8.3483427137300437e-05 0.0057838763452309656 -0.00033121896361862721 -0.00015459221138843096 0.00040475305734711083 -0.0062352075221133417 -5.2968186442740266e-05 -0.00013848132107131044 -0.00030248584142908739 0.0059435318224132063 -1.1737687311371048e-05 0.0018743423962621906 0.0030152493409696039 0.003335422782627228 -0.0042239185189828282 0.00078603190177091171 -0.0010087547367826726 -2.5035753416399001e-05 -3.2770947910196367e-05 0.00015700491925842169
leaf_weight=214386 23 23 29 21 20 107 60 28 20 36 153 32 57 27 58 20 25 627 36 20 156 21 25 21 35 46 48 328 995 150
leaf_count=214386 23 23 29 21 20 107 60 28 20 36 153 32 57 27 58 20 25 627 36 20 156 21 25 21 35 46 48 328 995 150
internal_value=0 5.6936e-05 0.0004208 0.000610517 0.00311575 0.000235646 0.000676451 0.00028722 0.00161927 -0.000378805 1.38188e-05 0.000179003 0.00139682 0.00306627 -6.67836e-05 -0.000995657 -0.00280063 1.00244e-05 0.000455542 0.00192823 -1.5012e-05 3.0615e-06 0.000284841 -6.95682e-05 -0.000568179 -0.00124108 -0.000130455 8.92535e-05 5.23049e-05 0.000547337
internal_weight=0 3247 344 315 41 274 167 144 48 96 2903 952 116 59 1951 103 45 836 209 56 1848 1825 374 1451 285 129 94 349 1166 171
internal_count=217633 3247 344 315 41 274 167 144 48 96 2903 952 116 59 1951 103 45 836 209 56 1848 1825 374 1451 285 129 94 349 1166 171
shrinkage=0.05


Tree=334
num_leaves=31
num_cat=0
split_feature=10 24 19 36 40 21 32 12 27 43 9 9 8 33 22 8 23 23 23 43 22 12 20 22 40 10 14 12 36 16
split_gain=0.00408219 0.0175143 0.0575445 0.044357 0.021213 0.0209452 0.0192808 0.153688 0.206137 0.196186 0.130762 0.080662 0.164082 0.0648717 0.0888078 0.0353892 0.0606025 0.0403459 0.138713 0.036111 0.0319981 0.0289871 0.0699543 0.0777468 0.123699 0.0996091 0.0555764 0.0269831 0.0172052 0.0480206
threshold=1.6290050000000002e-05 1.3511250000000004 0.00010273900000000001 -2.2564299999999995 5.2590600000000007 -6.0969499999999988 1.1329200000000001 -0.00016553599999999998 3.4746900000000003 3.0695900000000012 -1.2306999999999998e-05 3.2410900000000003e-06 1.2192250000000002e-05 0.00012485500000000002 -0.92553999999999992 1.2502200000000002e-05 -10.712249999999999 -12.729499999999998 -15.921249999999999 -4.9462249999999992 -1.5785349999999998 -7.7688949999999977e-05 -2.5244499999999994 -1.2116999999999998 0.14973499999999998 1.2120050000000001e-05 0.0017362250000000003 -7.213659999999999e-05 -0.028793999999999997 -1.34735e-08
decision_type=2 2 2 2 2 2 2 2 2 2 2 2 2 2 2 2 2 2 2 2 2 2 2 2 2 2 2 2 2 2
left_child=1 4 -3 -4 6 -5 28 8 9 -8 -10 15 13 -13 -15 17 -17 18 -12 -19 -21 22 26 24 25 -24 -9 -23 29 -1
right_child=-2 2 3 5 -6 -7 7 21 10 -11 11 12 -14 14 -16 16 -18 19 -20 20 -22 27 23 -25 -26 -27 -28 -29 -30 -31
leaf_value=0.00010076610903172563 2.7059546398982411e-06 0.00019122800708482434 -0.003278214925722707 -0.0019150680824774708 0.0014142660287374245 -0.00037836020338171002 0.0059781823202266007 -0.00034295796842798154 0.0044458254464552743 1.5825484495673498e-05 -0.0011011789645376017 -0.00081133217697060907 0.0053037360877732729 0.0041533565585268667 -0.00044498050618650654 -0.0034695162572792142 0.00033337198092340262 0.00040832632409794979 0.0043508165859384466 -0.0029755296974061907 -0.00036096135200932623 0.0016558232643963796 -0.0066769061232792278 -1.5806642725995819e-05 -0.00015917403339478893 -0.0017464546358678492 0.0023983626431222896 -4.0880933878482766e-05 -1.5640911448449798e-05 -0.00050960467768663097
leaf_weight=648 188240 184 21 30 26 85 37 64 20 22 28 50 21 21 21 22 20 44 20 22 25 24 21 60 33 20 26 991 26146 641
leaf_count=648 188240 184 21 30 26 85 37 64 20 22 28 50 21 21 21 22 20 44 20 22 25 24 21 60 33 20 26 991 26146 641
internal_value=0 -1.73296e-05 -0.000385216 -0.00116511 -1.32804e-05 -0.000779241 -1.45582e-05 0.000153497 0.00104329 0.00375493 0.000533778 0.000267652 0.00131582 0.000405536 0.00185419 -0.000386729 -0.00165862 -2.41732e-06 0.00117049 -0.000621092 -0.0015848 -0.000114375 -0.000629184 -0.00135332 -0.0024378 -0.00427181 0.000448979 -7.6182e-07 -2.44326e-05 -0.000202762
internal_weight=0 29393 320 136 29073 115 29047 1612 373 59 314 294 113 92 42 181 42 139 48 91 47 1239 224 134 74 41 90 1015 27435 1289
internal_count=217633 29393 320 136 29073 115 29047 1612 373 59 314 294 113 92 42 181 42 139 48 91 47 1239 224 134 74 41 90 1015 27435 1289
shrinkage=0.05


Tree=335
num_leaves=31
num_cat=0
split_feature=7 2 12 43 33 3 5 32 2 33 20 11 11 37 2 21 21 9 26 5 1 6 33 40 40 2 21 40 40 40
split_gain=0.00406563 0.015748 0.0133649 0.0334181 0.0157057 0.0241561 0.0158111 0.0107671 0.0405742 0.159165 0.0349306 0.0584039 0.0220019 0.0129406 0.0264602 0.0932381 0.0151963 0.0143071 0.0122104 0.0119676 0.0110714 0.00965928 0.00943984 0.037498 0.260625 0.109179 0.0129367 0.00886094 0.00829637 0.104607
threshold=2.2278700000000004e-05 3.0794900000000003 0.00040324100000000009 -3.9444949999999994 -8.1044199999999979e-05 -15.867949999999999 6.9938750000000009e-06 0.56648000000000021 -1.7334849999999997 -1.0876299999999998e-05 6.669455000000001 1.3123000000000001e-05 5.443675000000001e-05 -4.5033049999999994e-07 2.2358750000000005 4.1442900000000007 -8.1735099999999985 -2.0514499999999998e-05 0.0017607100000000002 3.6584050000000011e-05 -6.6365299999999996 4.0934050000000005e-07 5.1896350000000002e-06 -0.10081500000000009 -0.027530000000000051 -1.1780249999999997 8.1649450000000012 -0.25142799999999998 0.02582950000000005 0.056773999999999998
decision_type=2 2 2 2 2 2 2 2 2 2 2 2 2 2 2 2 2 2 2 2 2 2 2 2 2 2 2 2 2 2
left_child=1 2 4 -4 5 -1 -7 13 9 -9 12 -12 20 14 16 -16 -6 -15 -18 22 21 -10 28 27 -25 -26 -27 -24 -19 -30
right_child=-2 -3 3 -5 7 6 -8 8 10 -11 11 -13 -14 17 15 -17 18 19 -20 -21 -22 -23 23 24 25 26 -28 -29 29 -31
leaf_value=-0.001883749754842543 -1.156683585149854e-06 0.0014410936768399552 -0.00015118199923811271 0.0024389787457039349 -0.0014278181341160236 -0.0013678889031885216 -7.0855791113526873e-05 0.0050435430332851994 -0.001528447829193846 -3.3658790389232373e-06 -0.00023027211686389316 0.0033345918489067119 -0.0017472319267523876 -0.0011859407237194398 0.00011076785329983661 -0.0039784933248301971 1.9286731223912181e-05 9.7881618463312918e-05 -0.0012090966640417242 0.00099881513443666765 0.00012728432695730991 -0.00013960319820985353 1.4934766353868944e-07 0.005500131509732456 0.0038532458969348228 4.4809730446055642e-06 0.0013087398228890379 -0.00081447110026991671 -0.0024954214820714104 6.6660290691214411e-07
leaf_weight=23 211572 20 33 20 20 26 244 21 21 61 27 20 21 23 46 20 552 1587 21 34 181 31 722 25 20 385 20 35 43 1759
leaf_count=23 211572 20 33 20 20 26 244 21 21 61 27 20 21 23 46 20 552 1587 21 34 181 31 722 25 20 385 20 35 43 1759
internal_value=0 4.03765e-05 3.57391e-05 0.000826237 2.87424e-05 -0.00032826 -0.000195755 4.71097e-05 0.000303146 0.00128914 3.45381e-05 0.00128669 -0.000197159 2.86492e-05 -0.000178719 -0.0011284 -7.30204e-05 5.80185e-05 -2.57326e-05 6.4198e-05 -5.74534e-05 -0.000700483 5.7284e-05 0.000177357 0.000538818 0.000246976 6.88888e-05 -3.75147e-05 1.45198e-05 -5.8896e-05
internal_weight=0 6061 6041 53 5988 293 270 5695 383 82 301 47 254 5312 659 66 593 4653 573 4630 233 52 4596 1207 450 425 405 757 3389 1802
internal_count=217633 6061 6041 53 5988 293 270 5695 383 82 301 47 254 5312 659 66 593 4653 573 4630 233 52 4596 1207 450 425 405 757 3389 1802
shrinkage=0.05


Tree=336
num_leaves=31
num_cat=0
split_feature=26 1 5 15 40 5 7 40 41 16 40 16 26 2 40 40 22 4 14 12 19 21 11 40 40 41 40 37 28 12
split_gain=0.00404768 0.0570414 0.0262447 0.0417431 0.0506796 0.041265 0.0415787 0.0234959 0.0772882 0.083224 0.0430459 0.0122824 0.0116144 0.0363091 0.0204429 0.0683778 0.122929 0.0830661 0.0628296 0.0878826 0.0597688 0.0482322 0.229672 0.056052 0.0290144 0.0162076 0.0206969 0.0170349 0.014217 0.0490515
threshold=-0.062701649999999984 -13.794199999999998 1.2194250000000001e-05 -7.7047499999999992e-07 0.9482394999999999 1.2523200000000001e-05 2.6356650000000005e-05 -0.079468000000000025 0.56931500000000013 1.1210250000000002e-06 0.14973499999999998 8.0155350000000022e-06 -0.013856449999999998 -2.9939399999999998 0.20129000000000011 -0.30278099999999991 -1.7107249999999998 -0.24562099999999998 0.0039264450000000015 3.9044100000000008e-05 0.0016856000000000002 8.0248800000000013 3.1686600000000003e-05 0.327845 -0.058960000000000005 0.40643499999999982 -0.60254799999999997 1.8324750000000004e-05 -0.96676949999999995 -0.00061932799999999983
decision_type=2 2 2 2 2 2 2 2 2 2 2 2 2 2 2 2 2 2 2 2 2 2 2 2 2 2 2 2 2 2
left_child=1 -1 3 4 -3 -4 -7 8 9 -8 -9 -5 13 -2 15 25 -17 20 19 24 -18 23 -23 -16 -19 -15 -27 -28 29 -14
right_child=12 2 5 11 -6 6 7 10 -10 -11 -12 -13 28 14 21 16 17 18 -20 -21 -22 22 -24 -25 -26 26 27 -29 -30 -31
leaf_value=0.0027463213149894732 -0.0021471546759130435 -0.0031305353596744012 0.0023057302043763112 0.00011066402919823303 -0.00024739053936043224 0.0023868202092853612 0.00049158549996458796 -0.0024276776320766658 -5.0269257685074893e-05 0.0047145829012151808 -4.1367147894829452e-05 -0.0011144966884824934 0.001469732428406479 0.0013144791366011348 -0.0019936428668895843 0.0019603344710992167 -0.0047664903212959568 -1.0177907713044148e-05 -0.0031843357825313105 0.0025990156757567701 -0.0013786674373398495 -7.2952209601579761e-05 0.0056260677588976585 3.4453310793608362e-05 -0.0023297502217506658 -2.7399735915377085e-05 -0.00013879967988362875 -0.002084926168849368 1.4370236835442555e-06 -0.00028059991196084709
leaf_weight=20 22 27 23 185 35 20 28 20 152 20 343 23 42 21 36 27 30 26 22 21 23 90 22 635 28 703 22 23 214092 852
leaf_count=20 22 27 23 185 35 20 28 20 152 20 343 23 42 21 36 27 30 26 22 21 23 90 22 635 28 703 22 23 214092 852
internal_value=0 0.000106053 4.5773e-05 -0.000364236 -0.00150295 0.00022845 0.000146499 6.69141e-05 0.000502076 0.00225117 -0.000172844 -2.48105e-05 -4.38428e-07 -0.00012869 -0.000103007 -0.000259422 -0.00114547 -0.00170452 -0.00083478 -0.000145577 -0.0032963 8.597e-05 0.0010465 -7.43566e-05 -0.00121292 -5.54809e-05 -9.39424e-05 -0.00113349 6.06146e-07 -0.00019837
internal_weight=0 896 876 270 62 606 583 563 200 48 363 208 216737 1751 1729 946 177 150 97 75 53 783 112 671 54 769 748 45 214986 894
internal_count=217633 896 876 270 62 606 583 563 200 48 363 208 216737 1751 1729 946 177 150 97 75 53 783 112 671 54 769 748 45 214986 894
shrinkage=0.05


Tree=337
num_leaves=31
num_cat=0
split_feature=21 44 12 1 3 30 19 14 40 12 36 28 19 40 7 6 40 6 29 22 10 40 3 23 20 19 3 28 40 40
split_gain=0.0040832 0.068535 0.103124 0.0870138 0.0819931 0.325435 0.0987256 0.13151 0.157415 0.086146 0.173675 0.077946 0.0719408 0.121617 0.0600553 0.072745 0.225682 0.0651543 0.0681724 0.0970698 0.056495 0.0477517 0.0467774 0.0328281 0.029193 0.0292968 0.0280928 0.0275316 0.0743304 0.295157
threshold=-12.332599999999998 0.19419999999999996 -2.9756999999999996e-05 -10.666549999999999 -8.1461699999999979 0.0088898900000000027 0.0029219050000000002 0.0010249100000000002 -0.3562499999999999 -3.3926549999999991e-05 -0.0010976549999999997 -0.0041669849999999989 5.7772900000000012e-08 0.016888500000000004 6.1374150000000009e-05 -1.5427749999999998e-06 -0.058960000000000005 6.8029550000000002e-06 -0.057755649999999999 -1.1342749999999999 3.6463750000000005e-05 -0.12496499999999998 -9.1449549999999977 -7.829159999999999 2.7591150000000004 3.0721050000000003e-05 -6.280479999999999 -0.14368899999999998 0.354709 -0.19934349999999995
decision_type=2 2 2 2 2 2 2 2 2 2 2 2 2 2 2 2 2 2 2 2 2 2 2 2 2 2 2 2 2 2
left_child=1 2 4 11 5 -1 7 22 -9 12 -11 -3 13 -6 15 16 23 18 21 24 -8 -17 -7 -14 -20 -26 27 28 29 -5
right_child=-2 3 -4 26 9 6 20 8 -10 10 -12 -13 14 -15 -16 17 -18 -19 19 -21 -22 -23 -24 -25 25 -27 -28 -29 -30 -31
leaf_value=0.0067275738451056753 -1.1628139939574151e-06 -0.0046354334450734317 -3.2403401436984086e-05 -3.1530667310783967e-05 -2.2543296214793753e-05 -0.0022457671398296952 -0.0020055127892798434 0.00034549099589890707 0.0052954288458244674 0.0058877659476517389 0.00041843755940096757 -0.0002210821449989453 0.0019335810832368833 -0.0033510073880472302 -0.00012320804551948855 -0.00019986130964753102 0.0061605944802722665 0.0025995759608797801 5.7349067540202769e-05 0.0039800853056866413 0.00093823730037131872 -0.0030248349676618262 0.0010605403337293588 -0.00061058949063408363 0.0029163030397739934 0.00058210325607832623 -0.0016317348801811902 2.9988667891731051e-06 6.4552189897490344e-06 -0.0043204433265701591
leaf_weight=26 211535 20 1590 156 163 20 39 29 36 21 47 20 21 33 241 52 25 35 156 21 28 21 23 32 20 41 29 2653 446 54
leaf_count=26 211535 20 1590 156 163 20 39 29 36 21 47 20 21 33 241 52 25 35 156 21 28 21 23 32 20 41 29 2653 446 54
internal_value=0 4.03371e-05 0.000227138 -0.000110076 0.000592332 0.00150798 0.000732499 0.00166789 0.003087 0.000394221 0.00210749 -0.00242826 0.00025891 -0.000582948 0.000507037 0.000865266 0.00224463 0.00055431 0.000324136 0.00073412 -0.000775289 -0.00101252 -0.000477277 0.000397478 0.000419994 0.00134741 -8.22972e-05 -6.8718e-05 -0.000358756 -0.00113439
internal_weight=0 6098 2720 3378 1130 201 175 108 65 929 68 40 861 196 665 424 78 346 311 238 67 73 43 53 217 61 3338 3309 656 210
internal_count=217633 6098 2720 3378 1130 201 175 108 65 929 68 40 861 196 665 424 78 346 311 238 67 73 43 53 217 61 3338 3309 656 210
shrinkage=0.05


Tree=338
num_leaves=31
num_cat=0
split_feature=18 24 4 43 23 3 19 20 15 3 23 23 40 40 23 43 3 34 40 14 4 6 5 20 36 4 24 43 43 40
split_gain=0.00389771 0.0546681 0.130748 0.176365 0.196644 0.208203 0.27486 0.218972 0.202188 0.188874 0.142928 0.20743 0.140495 0.231652 0.249298 0.216685 0.110685 0.303468 0.108369 0.0807064 0.0698695 0.10266 0.0683978 0.043857 0.0334923 0.0333308 0.218324 0.266436 0.326526 0.346773
threshold=5.4626650000000007e-05 0.82362200000000019 2.1341250000000005 5.3602800000000004 -18.143749999999997 -12.585899999999999 0.0021145800000000005 -9.4357099999999985 -3.9387549999999988e-06 -7.2857699999999985 -13.504999999999997 -15.368899999999998 -0.27744100000000016 0.46240350000000002 -8.8007399999999993 0.64319500000000052 -16.722199999999997 6.2013600000000011 -0.30278099999999991 0.0048329650000000007 1.0072750000000001 3.1916100000000005e-08 1.4208050000000002e-05 -3.7927449999999996 -2.2564299999999995 0.24725400000000003 0.21692150000000002 2.0339700000000001 -1.6462299999999999 -0.22452634999999985
decision_type=2 2 2 2 2 2 2 2 2 2 2 2 2 2 2 2 2 2 2 2 2 2 2 2 2 2 2 2 2 2
left_child=25 -2 3 4 -3 10 7 8 -7 12 11 22 23 14 15 -14 17 -4 -11 -12 21 -21 -6 -9 -5 -1 -27 28 -28 -30
right_child=1 2 16 24 5 6 -8 9 -10 18 19 -13 13 -15 -16 -17 -18 -19 -20 20 -22 -23 -24 -25 -26 26 27 -29 29 -31
leaf_value=-2.5396567052864898e-06 -2.4266935303376606e-05 0.0057438946612503221 -0.00087401524842254524 -0.0024397867144129817 -0.0019932649897675542 0.0079852765288457965 0.0068654708373360341 0.0017888525055604989 0.001674581152619794 0.00097952100114374256 0.0012655727863602807 0.0043234802720170202 -0.0013335346529360819 -0.00052908749481085161 0.0087761905081358491 0.005246964272047426 -0.0001918808381367718 0.0066624874122102155 -0.0033344803324989454 -0.0012760980364400895 -0.0007090641458275701 -0.006082189516164363 0.0014929968757011617 -0.00098958697102605165 -0.00032045291844984736 -3.8165294898776593e-05 -0.00011417928351851865 -5.7921304618606249e-05 -0.0001557873823168467 0.0019393532856293997
leaf_weight=159846 44029 23 34 21 34 22 25 20 30 24 24 35 22 37 22 29 1103 22 37 25 51 20 24 49 166 8943 527 1341 264 784
leaf_count=159846 44029 23 34 21 34 22 25 20 30 24 24 35 22 37 22 29 1103 22 37 25 51 20 24 49 166 8943 527 1341 264 784
internal_value=0 -1.29379e-05 0.000249729 0.000768948 0.00121782 0.0010214 0.00183374 0.00140294 0.00434449 0.000765601 -0.000187568 0.00128369 0.00158442 0.00269386 0.0043274 0.00240832 -8.17829e-05 0.00208675 -0.00163717 -0.00132779 -0.00197613 -0.00341214 -0.000550674 -0.000184242 -0.000558453 3.46067e-06 8.43383e-05 0.000460041 0.000901049 0.00141157
internal_weight=0 45928 1899 740 553 530 317 292 52 240 213 93 179 110 73 51 1159 56 61 120 96 45 58 69 187 171705 11859 2916 1575 1048
internal_count=217633 45928 1899 740 553 530 317 292 52 240 213 93 179 110 73 51 1159 56 61 120 96 45 58 69 187 171705 11859 2916 1575 1048
shrinkage=0.05


Tree=339
num_leaves=31
num_cat=0
split_feature=28 40 41 41 21 5 20 36 13 19 19 33 24 4 20 4 13 21 7 3 35 10 21 20 34 26 11 40 14 8
split_gain=0.00395135 0.0261178 0.150809 0.164216 0.139655 0.136022 0.228903 0.211749 0.182084 0.179741 0.284925 0.179249 0.185078 0.166766 0.218661 0.18615 0.143568 0.179619 0.175253 0.166875 0.131693 0.167255 0.121324 0.250062 0.160029 0.206696 0.176802 0.124805 0.131536 0.127083
threshold=0.041210350000000007 -0.19934349999999995 -0.12554300000000002 -0.057539999999999918 0.5292785000000001 2.2914500000000002e-05 7.8420150000000008 0.27368000000000009 -1.8365149999999998e-05 8.167805000000002e-06 0.00010798250000000001 1.1486250000000002e-05 -0.48397549999999995 -0.27873999999999993 -2.4468249999999996 0.15463500000000002 -5.7078899999999985e-06 7.6671550000000011 3.1953250000000008e-05 -9.6022399999999983 0.098593250000000007 3.8126050000000004e-05 4.5505850000000008 13.012750000000002 0.4236100000000001 -0.00046379649999999994 7.3519100000000019e-05 -0.011175000000000155 0.015505300000000001 -1.0536949999999999e-05
decision_type=2 2 2 2 2 2 2 2 2 2 2 2 2 2 2 2 2 2 2 2 2 2 2 2 2 2 2 2 2 2
left_child=-1 -2 -3 4 -4 8 7 9 13 -7 -11 -12 -13 14 -5 -15 17 19 -19 -10 -6 -22 23 24 25 -18 -26 29 -29 -24
right_child=1 2 3 5 20 6 -8 -9 16 10 11 12 -14 15 -16 -17 22 18 -20 -21 21 -23 27 -25 26 -27 -28 28 -30 -31
leaf_value=2.1907956612601908e-06 1.6140485760008892e-05 4.0067605792480355e-05 0.0010051335005656532 0.0010034665197599681 -0.0014880690138474231 5.0630176375467706e-05 0.0031864216063964973 0.0022544352330207346 -0.0070070009722257966 -0.00760133362533192 -5.1714734650710356e-05 -0.0016103618752385956 -0.0063121267075378759 -0.0012741773877945996 0.007483379091338619 0.0026999006514905398 -0.0001389995494502641 -0.0022222090614377522 0.0038202204166736921 -0.0019007038898553219 -0.0077041160430304624 -0.0015323007205987106 -0.00032500426961589861 -0.0045933212287491186 -0.0002169070395273887 0.0062856203790063103 0.0031612740597327001 0.0012738223602354994 -0.00269650239427574 -0.002539892725901501
leaf_weight=196821 14523 4641 46 30 226 68 27 31 20 28 62 50 36 68 23 52 21 24 24 80 21 23 169 20 161 31 51 126 25 105
leaf_count=196821 14523 4641 46 30 226 68 27 31 20 28 62 50 36 68 23 52 21 24 24 80 21 23 169 20 161 31 51 126 25 105
internal_value=0 -2.07186e-05 -0.000105836 -0.000516721 -0.00154145 -0.000273618 -0.00120674 -0.00163807 -2.44775e-08 -0.0021326 -0.00297613 -0.00210109 -0.00357854 0.00147961 0.0038155 0.000447923 -0.000298714 -0.00171516 0.000799006 -0.00292196 -0.00197531 -0.00447794 -3.03757e-06 0.000797084 0.00120545 0.00369106 0.000595769 -0.000537707 0.000616484 -0.00117378
internal_weight=0 20812 6289 1648 316 1332 302 275 1030 244 176 148 86 173 53 120 857 148 48 100 270 44 709 284 264 52 212 425 151 274
internal_count=217633 20812 6289 1648 316 1332 302 275 1030 244 176 148 86 173 53 120 857 148 48 100 270 44 709 284 264 52 212 425 151 274
shrinkage=0.05


Tree=340
num_leaves=31
num_cat=0
split_feature=31 3 44 22 6 44 21 22 11 36 20 23 38 18 18 21 19 11 44 40 22 11 15 40 1 13 4 1 18 30
split_gain=0.00394326 0.0240481 0.0809888 0.0530863 0.13652 0.0438739 0.08325 0.090868 0.0848075 0.0448974 0.0389315 0.275185 0.0508228 0.0737402 0.0249119 0.0204523 0.0615453 0.198115 0.348281 0.697972 0.0761618 0.21369 0.0443518 0.11365 0.0555405 0.181479 0.274125 0.0857981 0.0335671 0.0343631
threshold=-0.29411049999999994 -16.131449999999997 -6.0850499999999998 -1.3120349999999996 -5.7203749999999994e-08 -0.8551649999999994 0.77184100000000011 0.43047700000000005 0.00014627600000000001 -2.2564299999999995 -2.0176449999999995 -13.405749999999998 0.11219700000000001 -0.00019488549999999998 4.6772900000000005e-07 7.3737850000000007 7.799435000000001e-05 4.247685000000001e-05 2.014730000000001 0.016888500000000004 -0.96156149999999985 5.0670100000000008e-05 -6.4763899999999986e-07 0.077348000000000056 9.319485000000002 1.6103150000000005e-05 0.115275 8.6177750000000017 -6.7236599999999979e-05 0.011952750000000002
decision_type=2 2 2 2 2 2 2 2 2 2 2 2 2 2 2 2 2 2 2 2 2 2 2 2 2 2 2 2 2 2
left_child=1 2 -1 4 -4 6 8 -8 -5 -7 11 -11 -12 -14 -9 -3 17 22 19 -19 21 -18 23 -17 27 -26 -27 28 29 -24
right_child=-2 15 3 5 -6 9 7 14 -10 10 12 -13 13 -15 -16 16 20 18 -20 -21 -22 -23 24 -25 25 26 -28 -29 -30 -31
leaf_value=0.0029584883892675865 2.6305118453250702e-06 -2.1441220070965615e-05 -0.00095783102196247245 -0.00096447982106002278 0.0045368897131993439 -0.0025460851774550975 0.002389333531658243 -0.0001417064597199928 -0.0039812601832690071 0.0057303869832222437 -0.00013321568151628197 -0.00059254089691064657 -0.0030727213242317778 -0.00037858315359912533 -0.0024029611378777885 0.00011469799753452298 -0.00032642421192576878 -0.0001600476420456041 -0.00070031833662035161 0.010377550885702174 -0.00013870317660866566 0.0056244218997480028 -3.3844117316893184e-06 0.0038294287452274528 -1.8356206606767957e-05 0.00033136263483549665 0.0074421426187694555 -0.0025625550728257036 8.2989163633143115e-05 -0.0028008763958501689
leaf_weight=20 188793 24160 26 74 20 20 30 29 34 22 1138 79 37 81 21 71 48 33 51 30 1717 22 23 29 175 33 23 34 739 21
leaf_count=20 188793 24160 26 74 20 20 30 29 34 22 1138 79 37 81 21 71 48 33 51 30 1717 22 23 29 175 33 23 34 739 21
internal_value=0 -1.72199e-05 -0.000203704 -0.000242962 0.00143118 -0.00029217 -0.00100865 0.000213854 -0.00191421 -0.00019435 -0.000159689 0.000784731 -0.000235633 -0.00122336 -0.00109143 -6.04141e-06 0.000115985 0.000383299 0.0023713 0.00485786 -7.27949e-05 0.00154384 0.000185884 0.00119197 8.98834e-05 0.000774424 0.00325186 -0.000103665 3.10696e-06 -0.00133855
internal_weight=0 28840 1631 1611 46 1565 188 80 108 1377 1357 101 1256 118 50 27209 3049 1262 114 63 1787 70 1148 100 1048 231 56 817 783 44
internal_count=217633 28840 1631 1611 46 1565 188 80 108 1377 1357 101 1256 118 50 27209 3049 1262 114 63 1787 70 1148 100 1048 231 56 817 783 44
shrinkage=0.05


Tree=341
num_leaves=31
num_cat=0
split_feature=44 23 19 3 24 13 43 44 20 9 6 28 12 6 11 0 0 3 31 44 13 13 40 40 16 19 11 3 41 16
split_gain=0.00394606 0.0195135 0.0674317 0.0182402 0.280656 0.051505 0.0365516 0.0137003 0.060074 0.244836 0.233052 0.346081 0.349937 0.221485 0.123819 0.113455 0.0823539 0.151088 0.0508167 0.0499204 0.089418 0.102519 0.0967003 0.630256 0.492232 0.452614 0.369747 0.281125 0.5059 0.600018
threshold=-3.3334999999999999 -20.320949999999996 0.00031424650000000008 -16.722199999999997 1.1195950000000001 -4.083924999999999e-05 5.9225950000000012 -0.20255000000000042 13.501750000000001 3.8012650000000006e-05 -4.1871149999999995e-06 -0.012542949999999999 -2.7980949999999995e-05 -3.3864449999999993e-07 6.5110500000000013e-05 6.6559100000000013 7.5113150000000006 -6.6044149999999986 -0.39250049999999997 0.086360000000000006 3.3176100000000009e-05 3.4207850000000005e-05 0.1751400000000001 0.039429999999999972 -2.9575949999999995e-06 2.1973200000000002e-08 -0.00017480399999999995 -6.8126799999999994 -0.057539999999999918 9.6924450000000025e-07
decision_type=2 2 2 2 2 2 2 2 2 2 2 2 2 2 2 2 2 2 2 2 2 2 2 2 2 2 2 2 2 2
left_child=3 2 -2 4 5 -1 -7 8 -3 14 -11 12 -12 -13 16 -16 -10 -18 -19 20 22 -22 23 26 -25 -26 -9 28 29 -27
right_child=1 7 -4 -5 -6 6 -8 19 9 10 11 13 -14 -15 15 -17 17 18 -20 -21 21 -23 -24 24 25 27 -28 -29 -30 -31
leaf_value=0.0013733981637051331 0.0031838066843920434 -3.0184261224878633e-05 -0.00078589043405372658 9.119457731159391e-06 0.0059450070862658326 -0.0030359130386690028 -0.0003299870080529497 0.0069957629009149971 -9.2695937476947464e-05 -0.00054424733743336921 0.01022227827644976 0.0055756790870377286 0.0019244828782272333 -0.00016605811215573391 -0.00025402826840187722 -0.0052863928001031695 0.0051431278628756034 -0.00083257083066643183 0.0022956308240827637 -4.6293945345569504e-06 -0.0029862256810702092 -0.0001321799167501853 -0.00012509110261709426 -0.0019082996014023795 -0.0018993337956172498 0.015260507674699103 0.00018343705757924587 0.0013659216078079997 0.0030341114120510143 0.0040031539136543871
leaf_weight=20 20 57609 23 67110 20 24 26 20 607 68 27 22 24 71 24 21 22 37 20 83204 32 1881 1649 36 22 29 4880 26 39 20
leaf_count=20 20 57609 23 67110 20 24 26 20 607 68 27 22 24 71 24 21 22 37 20 83204 32 1881 1649 36 22 29 4880 26 39 20
internal_value=0 -4.4999e-06 0.00106048 1.00734e-05 0.000721406 -0.000771052 -0.00162883 -4.8044e-06 -2.37046e-05 0.000372146 0.00186818 0.00300739 0.00631743 0.0011922 -6.17251e-05 -0.00260247 0.000104942 0.0016235 0.000265044 7.24555e-06 0.000121682 -0.000179921 0.000207527 0.000315668 0.00329057 0.00466674 0.000211242 0.00593388 0.0072835 0.0106657
internal_weight=0 150433 43 67200 90 70 50 150390 58552 943 212 144 51 93 731 45 686 79 57 91838 8634 1913 6721 5072 172 136 4900 114 88 49
internal_count=217633 150433 43 67200 90 70 50 150390 58552 943 212 144 51 93 731 45 686 79 57 91838 8634 1913 6721 5072 172 136 4900 114 88 49
shrinkage=0.05


Tree=342
num_leaves=31
num_cat=0
split_feature=37 17 4 38 44 41 40 4 44 34 20 21 40 40 44 14 34 6 5 44 16 19 11 17 5 40 16 21 40 44
split_gain=0.0039186 0.0322204 0.0485302 0.100353 0.173639 0.228172 0.396847 0.447428 0.468438 0.30954 0.286614 0.340499 0.247446 0.373656 0.354886 0.344443 0.332258 0.204933 0.203286 0.251004 0.242621 0.176701 0.161313 0.200547 0.144527 0.13559 0.121207 0.150083 0.228628 0.116149
threshold=-1.1071149999999997e-08 6.7803500000000016e-08 -0.10727949999999999 0.00030268300000000004 -1.8692049999999989 -0.2272394999999999 -0.22452634999999985 -1.0382099999999996 -0.77194499999999999 1.9974350000000001 7.3475050000000008 4.6976250000000013 -0.040859549999999939 0.02582950000000005 2.014730000000001 0.0039264450000000015 0.16738200000000003 1.3950750000000001e-06 1.2293000000000001e-05 0.65993499999999961 1.9598050000000002e-06 0.0024010250000000006 -5.2550399999999997e-05 7.7830150000000009e-06 1.4537250000000002e-05 0.2761725000000001 2.7687200000000004e-06 3.3144750000000003 0.056773999999999998 0.36284999999999995
decision_type=2 2 2 2 2 2 2 2 2 2 2 2 2 2 2 2 2 2 2 2 2 2 2 2 2 2 2 2 2 2
left_child=-1 -2 3 -3 -5 25 -7 21 10 12 11 -9 14 22 16 18 -10 -18 19 20 -15 -8 23 -14 -20 -6 27 28 -26 -24
right_child=1 2 -4 4 5 6 7 8 9 -11 -12 -13 13 15 -16 -17 17 -19 24 -21 -22 -23 29 -25 26 -27 -28 -29 -30 -31
leaf_value=6.0019421275900636e-06 -4.6944084476376642e-05 -1.2567488942948468e-05 -8.1764561708050612e-06 -4.8600544906440393e-05 -0.0036512383919706246 -7.9299997946935773e-09 -0.0058402616929795065 0.000325740111899601 0.0092423691816458653 -0.0042449425657927666 0.010374808407920813 0.0073030176527989921 -0.006086703282198869 0.0044214469616653748 -0.00059344601934237684 0.0084777150877052912 0.0054159407450172772 -0.00025080542165798966 0.0074467381567228583 -0.0043945430711443932 -0.0023073558786737046 -0.000619375646045894 0.00047475030835981307 0.0001896938426320308 0.0020770295988768342 1.1816756326834928e-05 -0.00048299529206071221 0.00060931704542599614 0.0089845337877783975 0.0030238558924597161
leaf_weight=120889 33725 7545 50556 2229 26 744 21 36 33 23 21 34 20 37 37 25 39 27 20 21 21 71 361 35 25 891 22 25 23 51
leaf_count=120889 33725 7545 50556 2229 26 744 21 36 33 23 21 34 20 37 37 25 39 27 20 21 21 71 361 35 25 891 22 25 23 51
internal_value=0 -7.49988e-06 1.36089e-05 0.000101981 0.000277717 0.000548212 0.00087954 0.0015161 0.00184313 0.00147606 0.00525165 0.0037147 0.00163614 0.00124988 0.00358449 0.00295392 0.00514594 0.00309773 0.00224209 0.000289287 0.00198516 -0.0018111 0.000450764 -0.00209263 0.00358358 -9.2043e-05 0.00277028 0.00375073 0.00538688 0.000790295
internal_weight=0 96744 63019 12463 4918 2689 1772 1028 936 845 91 70 822 686 136 219 99 66 194 79 58 92 467 55 115 917 95 73 48 412
internal_count=217633 96744 63019 12463 4918 2689 1772 1028 936 845 91 70 822 686 136 219 99 66 194 79 58 92 467 55 115 917 95 73 48 412
shrinkage=0.05


Tree=343
num_leaves=31
num_cat=0
split_feature=11 31 7 14 24 20 19 1 17 17 1 3 15 6 29 31 3 11 11 31 19 13 10 38 24 31 2 14 11 11
split_gain=0.0039333 0.0267012 0.0699193 0.305699 0.0983283 0.0690929 0.187194 0.101058 0.135185 0.241152 0.0885704 0.0745812 0.0455758 0.0206457 0.0205776 0.0679021 0.210253 0.0369985 0.0380566 0.025382 0.0688511 0.024528 0.0215693 0.0162222 0.0156146 0.0153554 0.0702379 0.0636868 0.0200017 0.0528699
threshold=-0.000119502 5.5507350000000004 3.8223600000000004e-05 0.035247800000000003 -1.2617699999999996 -11.463149999999997 0.00016688000000000003 0.80539150000000015 4.7046700000000012e-05 0.00026978200000000004 -2.6487599999999998 -12.288549999999999 1.1129000000000003e-05 1.5327350000000001e-07 0.30041650000000003 2.7376000000000005 -15.396099999999999 -0.00013975599999999997 -0.00016577949999999997 2.3607850000000004 0.0029219050000000002 -4.7934999999999994e-05 2.3474250000000003e-05 1.0252250000000003 -1.1409399999999998 11.617550000000001 2.8579150000000006 0.00034418150000000005 -8.8703799999999996e-05 -7.7868449999999985e-05
decision_type=2 2 2 2 2 2 2 2 2 2 2 2 2 2 2 2 2 2 2 2 2 2 2 2 2 2 2 2 2 2
left_child=1 14 3 4 -3 11 -7 10 12 -10 23 -4 -9 -13 15 19 -17 18 21 -1 -21 -16 -18 -8 -5 -2 28 -28 -27 -30
right_child=25 2 5 24 -6 6 7 8 9 -11 -12 13 -14 -15 17 16 22 -19 -20 20 -22 -23 -24 -25 -26 26 27 -29 29 -31
leaf_value=1.1922372038181367e-05 -1.3509818592211955e-06 0.00712911267099636 -0.0029932438605817773 -0.0017668831131785461 0.0024881442628102378 0.004518746087034323 -0.00052160983391028514 -0.0024170991715072886 0.0068213868944440037 -8.8281527340378888e-05 -0.0030347474549974624 0.00065617123029182835 0.00049425679885089482 -0.0010295057592242408 -0.0019961738436125287 0.0042884490951492858 0.001602397456736071 0.0013381927618646497 -0.0022221435695731393 -0.003021695242088754 0.00041386057331692426 -0.00022144355130767647 -0.00017441199674782479 0.00099435296934098009 -0.00014618152577202724 -0.0011187337478251256 -0.00032554126757366412 -0.0042239995743148032 0.0024820988322608174 -0.00010873128430117219
leaf_weight=26685 188506 21 33 23 25 26 60 20 23 28 36 39 41 34 21 38 20 29 30 25 35 267 117 25 42 47 22 20 20 1275
leaf_count=26685 188506 21 33 23 25 26 60 20 23 28 36 39 41 34 21 38 20 29 30 25 35 267 117 25 42 47 22 20 20 1275
internal_value=0 1.75857e-05 0.000388842 0.00148772 0.00460685 5.46622e-05 0.000494754 4.57248e-05 0.00112806 0.00302784 -0.000956105 -0.00102066 -0.000460286 -0.000128939 1.11047e-05 1.60362e-05 0.00099773 -0.000371475 -0.000527388 9.61268e-06 -0.00101762 -0.000350851 8.49762e-05 -7.57384e-05 -0.000719661 -2.56928e-06 -0.000168506 -0.00218195 -0.000105492 -6.87185e-05
internal_weight=0 27743 476 111 46 365 259 233 112 51 121 106 61 73 27267 26920 175 347 318 26745 60 288 137 85 65 189890 1384 42 1342 1295
internal_count=217633 27743 476 111 46 365 259 233 112 51 121 106 61 73 27267 26920 175 347 318 26745 60 288 137 85 65 189890 1384 42 1342 1295
shrinkage=0.05


Tree=344
num_leaves=31
num_cat=0
split_feature=20 2 31 40 29 2 21 0 1 2 34 16 16 11 3 43 16 36 25 21 2 2 19 19 40 22 21 19 11 11
split_gain=0.00390848 0.0504638 0.195777 0.0224833 0.0192806 0.0477599 0.0332005 0.140713 0.0775219 0.0304409 0.0858956 0.0201365 0.0712721 0.125946 0.030846 0.0815137 0.0312101 0.0693857 0.0303792 0.0278974 0.0253505 0.0690945 0.160465 0.15045 0.048861 0.0421207 0.0196837 0.019212 0.0732452 0.0181272
threshold=-10.268199999999998 3.0333000000000006 2.3607850000000004 0.039429999999999972 0.13068350000000004 2.9891800000000006 -8.6662999999999979 -11.150399999999999 -9.3239949999999983 -3.0487399999999996 0.052080500000000009 5.8204250000000011e-06 9.9131400000000028e-06 -2.6900849999999998e-05 -16.266399999999997 -3.2048399999999995 3.9398900000000012e-06 0.069832100000000022 4.6947250000000009 14.999250000000002 -2.7019749999999996 -2.4792649999999994 2.8823200000000004e-07 7.3302800000000012e-05 -0.058960000000000005 -2.7294899999999997 -3.7984549999999992 0.00026673250000000006 -3.9555399999999991e-05 5.2422100000000008e-05
decision_type=2 2 2 2 2 2 2 2 2 2 2 2 2 2 2 2 2 2 2 2 2 2 2 2 2 2 2 2 2 2
left_child=1 4 3 -3 6 11 7 -1 -9 10 -8 14 13 -13 15 -6 18 -18 -16 27 24 22 -22 -24 25 -20 -27 28 -14 -10
right_child=-2 2 -4 -5 5 -7 9 8 29 -11 -12 12 19 -15 16 -17 17 -19 20 -21 21 -23 23 -25 -26 26 -28 -29 -30 -31
leaf_value=0.0045292013332073116 -1.6910069417454098e-06 0.0012959175473744318 0.0051760070479561007 -0.00016738771322014233 -3.3824046152497839e-05 -0.0019327379610954917 0.00011407243531613476 0.0029595500386979741 -0.00027026656603695523 2.4771831503427036e-05 0.0036618014582700201 -0.0048696111725724262 -0.0035690926207826122 -0.00018178503201660964 0.0016658952573009274 -0.0037355453253258026 -0.00018098034537009273 0.0035512717050733044 0.0017603124755070261 0.0013331086648395284 -0.00073937343336959811 -3.2717789710276344e-05 0.0067783163246349434 0.00064540479436772105 -0.0023347140427424826 -0.0016370568210959391 -0.00017490063280381106 -0.00010775755292729429 -8.233035947997734e-05 0.00084716405101566443
leaf_weight=21 204602 35 23 105 58 35 76 24 172 9556 22 23 20 38 27 20 33 20 23 30 41 1878 20 20 33 32 82 457 61 46
leaf_count=21 204602 35 23 105 58 35 76 24 172 9556 22 23 20 38 27 20 33 20 23 30 41 1878 20 20 33 32 82 457 61 46
internal_value=0 2.65508e-05 0.000900795 0.000198439 1.54767e-05 -9.67201e-05 4.88631e-05 0.000603141 0.00026245 3.37631e-05 0.000910501 -7.46829e-05 -0.000325222 -0.00194933 -5.7763e-06 -0.000982983 2.8729e-05 0.00122742 -7.37835e-07 -0.000150803 -2.18741e-05 2.89516e-05 0.00145877 0.00371186 -0.000607565 -0.000191536 -0.00058533 -0.000233549 -0.000943259 -3.44785e-05
internal_weight=0 13031 163 140 12868 2951 9917 263 242 9654 98 2916 629 61 2287 78 2209 53 2156 568 2129 1959 81 40 170 137 114 538 81 218
internal_count=217633 13031 163 140 12868 2951 9917 263 242 9654 98 2916 629 61 2287 78 2209 53 2156 568 2129 1959 81 40 170 137 114 538 81 218
shrinkage=0.05


Tree=345
num_leaves=31
num_cat=0
split_feature=44 28 1 34 18 12 16 24 15 21 43 7 2 14 4 21 40 41 43 43 12 16 7 13 30 36 30 1 1 34
split_gain=0.00401871 0.0141111 0.0379664 0.123209 0.0779856 0.124646 0.114034 0.10871 0.112776 0.17394 0.0801143 0.0884767 0.0496046 0.0801346 0.0515153 0.0453232 0.114726 0.220282 0.50433 0.352623 0.354355 0.24033 0.224785 0.0497816 0.0382068 0.04067 0.0889247 0.0355953 0.120805 0.101869
threshold=-3.2113799999999997 0.051198250000000008 7.6571900000000008 0.069860150000000024 8.913810000000002e-05 0.00013315750000000002 9.6924450000000025e-07 0.27811600000000009 9.2565100000000011e-07 12.832950000000002 1.1065400000000005 4.051930000000001e-05 1.3671000000000004 0.0034134750000000004 1.8987000000000003 0.099100950000000007 -0.25142799999999998 -0.25176499999999996 -0.27803499999999998 -5.5958699999999988 0.00024379100000000001 -1.6167949999999998e-06 4.4005200000000003e-05 -5.3688449999999996e-05 0.0015109500000000003 -0.23644799999999996 0.019658500000000006 5.0179900000000011 4.0814950000000012 0.36930950000000001
decision_type=2 2 2 2 2 2 2 2 2 2 2 2 2 2 2 2 2 2 2 2 2 2 2 2 2 2 2 2 2 2
left_child=-1 -2 15 -4 6 -6 24 -8 9 10 11 -9 13 -7 -14 16 -3 23 19 -19 21 -21 -20 -18 -5 26 -26 28 -17 -29
right_child=1 2 3 4 5 12 7 8 -10 -11 -12 -13 14 -15 -16 27 17 18 22 20 -22 -23 -24 -25 25 -27 -28 29 -30 -31
leaf_value=9.9807192041354649e-06 -2.7624795135654018e-07 -4.6537883923110723e-05 -0.0031883324455381831 -0.0021121020309187266 -0.004100480855522619 -0.0037335005545173772 -0.0011324537278879516 0.00057557162059390036 -0.0014160687011826668 0.0064949667638005779 -0.00078628509674308594 0.0050107936378429429 0.0021266225115497313 -0.00016701996903268287 -0.000524880853954528 -4.8333432187132517e-05 0.0018508899903099518 -0.00097351098908499503 -0.0045039942952732016 0.0070091756782494491 0.011033383113575232 0.00068027486791834247 0.0015737830130092335 -0.00015120685598528575 -0.0034279196280598023 -0.00011762488382046503 0.00015434649114201711 -0.00036676781113119069 -0.00075388182019212209 0.00054310838276259304
leaf_weight=68918 137733 1221 36 27 30 28 37 23 20 23 25 22 23 36 90 5918 35 24 29 30 24 30 32 275 30 927 41 523 676 747
leaf_count=68918 137733 1221 36 27 30 28 37 23 20 23 25 22 23 36 90 5918 35 24 29 30 24 30 32 275 30 927 41 523 676 747
internal_value=0 -4.6253e-06 -5.91698e-05 -0.000300611 -0.000225388 -0.00112025 -6.77394e-05 0.00121987 0.0019901 0.00272261 0.00148312 0.0027439 -0.000615128 -0.00172736 1.48057e-05 -2.33727e-05 0.000210731 0.000866524 0.00231873 0.00437149 0.00589863 0.00384473 -0.00131565 7.48363e-05 -0.00025617 -0.00020596 -0.00135929 -7.398e-05 -0.000120664 0.000168411
internal_weight=0 148715 10982 1418 1382 207 1175 150 113 93 70 45 177 64 113 9564 1700 479 169 108 84 60 61 310 1025 998 71 7864 6594 1270
internal_count=217633 148715 10982 1418 1382 207 1175 150 113 93 70 45 177 64 113 9564 1700 479 169 108 84 60 61 310 1025 998 71 7864 6594 1270
shrinkage=0.05


Tree=346
num_leaves=31
num_cat=0
split_feature=35 16 19 36 43 40 40 3 43 43 21 1 20 20 12 40 43 11 14 43 40 0 20 17 16 3 44 34 43 43
split_gain=0.00396701 0.016553 0.084436 0.162382 0.235556 0.249274 0.617869 0.298099 0.256364 0.60631 0.436589 0.381677 0.331266 0.444836 0.83628 0.328481 0.714626 0.212343 0.238164 0.232587 0.172117 0.18478 0.407856 0.165045 0.155463 0.153914 0.150646 0.173407 0.132658 0.121673
threshold=1.8741500000000003e-05 2.1576500000000005e-08 5.3661700000000008e-06 0.00036375000000000009 1.46871 0.2761725000000001 -0.14969009999999991 -5.7548799999999991 -2.2545749999999996 -0.19603999999999996 6.3306750000000012 5.3828400000000007 5.531130000000001 1.5587400000000002 6.6138550000000007e-05 0.056773999999999998 0.35261000000000037 -2.0937149999999997e-05 0.0010249100000000002 -0.56159999999999977 -0.040859549999999939 8.9117650000000008 6.2570500000000004 1.5418850000000002e-07 3.2990050000000008e-07 -15.164099999999999 -0.93924999999999936 0.080091700000000016 0.31279500000000043 0.052215000000000351
decision_type=2 2 2 2 2 2 2 2 2 2 2 2 2 2 2 2 2 2 2 2 2 2 2 2 2 2 2 2 2 2
left_child=-1 -2 3 -3 5 6 -5 8 -8 10 11 12 13 17 -15 20 -17 18 -10 -19 21 22 24 -13 -11 -6 -22 28 -28 -29
right_child=1 2 -4 4 25 -7 7 -9 9 15 -12 23 -14 14 -16 16 -18 19 -20 -21 26 -23 -24 -25 -26 -27 27 29 -30 -31
leaf_value=-6.6581574225238627e-06 -1.2261772764945138e-05 -1.9937334154731533e-05 -1.489259710997219e-05 -7.3881893775902755e-05 0.0039223965722048884 3.0768888500828057e-06 -0.0007210049265208387 0.0062740226314583038 0.0083573308531884796 -0.0023135913512669507 -0.0010884195601101965 0.0054833185304153671 -0.0011787266034873265 0.01593659569487153 0.0018258130377424614 0.0092087164994449563 -0.00043232731906755361 -0.0034147294317583808 0.0021812200079521799 0.003402969709212153 0.004707984992169908 -0.0015429628692800179 0.0085544186467625977 0.011352239091414959 0.0033774636996289097 -1.4807201493338225e-05 0.00063414557114443732 -0.0033093065436419454 0.003694416669551222 -0.00021950723012471854
leaf_weight=110316 55129 8775 36382 966 25 1189 122 33 27 20 40 23 31 21 21 37 40 22 37 29 21 20 29 25 30 3491 520 42 38 132
leaf_count=110316 55129 8775 36382 966 25 1189 122 33 27 20 40 23 31 21 21 37 40 22 37 29 21 20 29 25 30 3491 520 42 38 132
internal_value=0 6.84422e-06 2.70269e-05 0.000123517 0.000302553 0.000592001 0.000893047 0.00157985 0.00146312 0.00168425 0.00374192 0.00456063 0.0035446 0.00447723 0.0088812 0.00107292 0.00420038 0.00286883 0.00478677 0.000462001 0.000790277 0.00275021 0.00383709 0.00854005 0.00110104 1.31877e-05 0.000532597 0.000412811 0.000842551 -0.000965321
internal_weight=0 107317 52188 15806 7031 3515 2326 1360 1327 1205 276 236 188 157 42 929 77 115 64 51 852 99 79 48 50 3516 753 732 558 174
internal_count=217633 107317 52188 15806 7031 3515 2326 1360 1327 1205 276 236 188 157 42 929 77 115 64 51 852 99 79 48 50 3516 753 732 558 174
shrinkage=0.05


Tree=347
num_leaves=31
num_cat=0
split_feature=40 22 1 20 1 2 21 43 38 43 21 22 18 15 1 22 26 33 20 40 22 34 21 21 37 12 25 1 17 24
split_gain=0.00423899 0.034083 0.114187 0.175975 0.0724966 0.0297017 0.142102 0.268466 0.123983 0.475976 0.0846738 0.181502 0.0858526 0.158305 0.0628329 0.0955601 0.0475814 0.0516349 0.0333714 0.0315556 0.0264471 0.108787 0.211682 0.157268 0.0761892 0.0605761 0.0735126 0.0676538 0.098218 0.0350053
threshold=-0.40968649999999995 3.0676500000000004 0.80539150000000015 -9.3188649999999988 1.0868900000000001 -2.9192849999999999 0.77184100000000011 0.64319500000000052 -0.0083346849999999997 1.1890849999999997 -2.0281699999999994 -3.0365249999999997 1.05179e-07 -5.8105949999999988e-08 -1.4776249999999997 -2.9378149999999996 0.00013131250000000003 -8.3102699999999969e-06 -5.0875749999999984 0.010257000000000018 2.9381050000000006 3.5771350000000006 4.6258850000000011 -1.0745949999999997 1.0676000000000001e-07 1.1504300000000003e-05 0.63826400000000005 0.80539150000000015 6.6559100000000008e-06 0.27811600000000009
decision_type=2 2 2 2 2 2 2 2 2 2 2 2 2 2 2 2 2 2 2 2 2 2 2 2 2 2 2 2 2 2
left_child=-1 5 3 -3 -4 6 8 -8 9 -2 11 -10 14 16 15 -12 17 -14 -16 -13 -7 22 23 -22 25 26 -25 28 -27 -29
right_child=1 2 4 -5 -6 20 7 -9 10 -11 12 19 13 -15 18 -17 -18 -19 -20 -21 21 -23 -24 24 -26 27 -28 29 -30 -31
leaf_value=8.1527981769402754e-06 -0.0079745936235412953 0.00036207362046015675 0.0029297576531826055 -0.0050155069066022406 -0.00033831661974090824 -4.7106484533713771e-06 0.0059262971773277971 -0.0011440850152023908 0.0047067153313863942 0.001058446806356577 -0.0034991703873825386 -0.00026755434935397054 -0.0022595937538668902 -0.0053884516820398862 0.00011390463122872328 0.00087084505969621463 -0.0032204526537680067 0.00024216094791358264 0.0023373969036765631 0.0014962050730587338 0.0036608017645448857 -0.0032873177337751263 0.0051623866929414522 0.00058976128288863781 -0.0017286384015783877 -0.003894602659782392 0.0037403909117225947 6.2918149134385677e-05 0.00049468403263017537 0.0020204719138564543
leaf_weight=92022 25 29 20 32 112 124157 25 29 22 35 29 202 30 25 108 22 20 66 20 29 32 20 23 81 54 26 24 264 25 25
leaf_count=92022 25 29 20 32 112 124157 25 29 22 35 29 202 30 25 108 22 20 66 20 29 32 20 23 81 54 26 24 264 25 25
internal_value=0 -5.9727e-06 -0.000669909 -0.00245895 0.000156846 -4.951e-06 -0.000332812 0.00212924 -0.000542845 -0.00270532 -0.000316408 0.000367161 -0.000856854 -0.00177961 -0.000129987 -0.00161407 -0.00100185 -0.000539637 0.000461325 -4.613e-05 -3.14519e-06 0.000335466 0.000466252 0.000262842 4.49363e-05 0.000260157 0.00130991 -6.40305e-05 -0.00174299 0.000232257
internal_weight=0 125611 193 61 132 125418 687 54 633 60 573 253 320 141 179 51 116 96 128 231 124731 574 554 531 499 445 105 340 51 289
internal_count=217633 125611 193 61 132 125418 687 54 633 60 573 253 320 141 179 51 116 96 128 231 124731 574 554 531 499 445 105 340 51 289
shrinkage=0.05


Tree=348
num_leaves=31
num_cat=0
split_feature=41 41 37 43 27 40 17 13 4 17 43 6 24 20 29 13 33 4 43 20 25 39 43 3 23 2 17 21 17 20
split_gain=0.00442334 0.0579508 0.0742617 0.221562 0.411083 0.378861 0.325145 0.522663 0.480666 0.42093 0.37026 0.340916 0.32224 0.280979 0.381696 0.253023 0.247211 0.228548 0.206268 0.186906 0.185316 0.180433 0.123077 0.17858 0.114461 0.0648895 0.0621424 0.0606211 0.060411 0.0596084
threshold=-0.30357199999999979 -0.026150000000000003 -5.1594099999999997e-07 0.8945249999999999 0.77166350000000017 0.056773999999999998 -1.1373949999999998e-07 1.0260100000000002e-05 0.17191050000000002 -1.3339849999999999e-05 -0.66712000000000005 8.2329800000000007e-07 0.31120700000000007 -4.0797899999999991 0.034198500000000007 -1.7032199999999996e-05 -6.9762949999999992e-06 0.092842600000000011 -2.7066499999999998 0.89163350000000008 3.1525300000000001 0.00047625050000000001 1.1065400000000005 -14.947699999999999 -7.0549999999999988 3.0794900000000003 -5.158589999999999e-05 8.2873200000000011 -0.00032874299999999994 -10.268199999999998
decision_type=2 2 2 2 2 2 2 2 2 2 2 2 2 2 2 2 2 2 2 2 2 2 2 2 2 2 2 2 2 2
left_child=-1 2 3 4 5 -2 9 8 12 26 24 18 -8 -11 16 21 19 -12 -10 -15 -13 -14 -5 -24 -9 -3 28 -25 -6 -4
right_child=1 25 29 22 6 -7 7 10 11 13 17 20 15 14 -16 -17 -18 -19 -20 -21 -22 -23 23 27 -26 -27 -28 -29 -30 -31
leaf_value=8.1247940167015068e-06 0.0004957877128981636 4.7094314503985185e-06 0.00034804219558853843 -0.003820920183109896 -0.0017854495171680659 0.0098136335157808698 0.0037552820159665623 -0.0014887353550221542 -0.0031083870299380579 -0.0015292410428325335 -0.0018622233053065429 0.010190498137325492 0.0024280921242898334 0.0047428308773542881 0.0098379076092637019 -0.0069937740108403177 0.0068953923788724536 -0.0082349856063314401 0.0031105487086460926 -0.0010594335133958209 0.004145725707348902 -0.0030705119341586694 0.0034181316657905525 -0.00040910494887668261 0.0024681045140111922 -0.0025429147444665434 -0.0034214337542653088 0.0016845509640663497 0.0018866889475334791 -0.00020953877658553321
leaf_weight=94658 20 112613 509 24 24 24 27 89 20 21 24 21 25 23 28 23 29 34 40 35 32 37 33 873 23 25 20 36 21 8222
leaf_count=94658 20 112613 509 24 24 24 27 89 20 21 24 21 25 23 28 23 29 34 40 35 32 37 33 873 23 25 20 36 21 8222
internal_value=0 -6.25393e-06 -0.000119556 0.000192919 0.000914431 0.00557825 0.000570122 -0.000262954 0.00131799 0.00220726 -0.00235538 0.00361874 -0.00100331 0.00378911 0.00476028 -0.00251486 0.00312611 -0.00559798 0.00103757 0.00124146 0.00654082 -0.000853333 -0.000285102 -0.000195017 -0.00067617 4.14399e-06 -0.00110245 -0.000326188 -7.17849e-05 -0.000177033
internal_weight=0 122975 10337 1606 640 44 596 395 225 201 170 113 112 136 115 85 87 58 60 58 53 62 966 942 112 112638 65 909 45 8731
internal_count=217633 122975 10337 1606 640 44 596 395 225 201 170 113 112 136 115 85 87 58 60 58 53 62 966 942 112 112638 65 909 45 8731
shrinkage=0.05


Tree=349
num_leaves=31
num_cat=0
split_feature=44 23 19 3 13 3 20 35 21 14 40 40 23 20 0 14 20 0 29 29 0 21 41 37 44 29 8 10 7 19
split_gain=0.00417662 0.0178412 0.0594727 0.0170111 0.251583 0.0146973 0.115784 0.0596168 0.0248468 0.020322 0.0295966 0.126122 0.0130695 0.284995 0.446584 0.116528 0.249593 0.351808 0.177038 0.10822 0.116538 0.0702063 0.145011 0.220988 0.0878996 0.0982269 0.149813 0.261173 0.301376 0.0920283
threshold=-3.2113799999999997 -20.320949999999996 0.00031424650000000008 -17.304849999999998 -3.3894799999999993e-05 -15.284849999999999 7.1058900000000014 0.48186100000000004 6.4146550000000007 0.0064150250000000004 -0.3562499999999999 0.71352749999999998 -16.164099999999994 -6.091804999999999 -4.0528699999999995 0.0025138000000000005 5.095670000000001 3.7602350000000002 0.082377100000000023 0.13068350000000004 -2.8094699999999997 5.0477900000000009 0.09983149999999999 2.5716500000000009e-07 -0.31477499999999997 -0.0038119849999999995 8.8259800000000019e-06 2.0248200000000004e-05 5.1057650000000007e-05 1.9131000000000004e-05
decision_type=2 2 2 2 2 2 2 2 2 2 2 2 2 2 2 2 2 2 2 2 2 2 2 2 2 2 2 2 2 2
left_child=3 2 -2 4 -1 6 7 8 9 10 -5 -12 13 14 -3 16 18 -18 -15 21 -21 24 23 -23 -17 -26 -27 29 -29 -28
right_child=1 12 -4 5 -6 -7 -8 -9 -10 -11 11 -13 -14 15 -16 19 17 -19 -20 20 -22 22 -24 -25 25 26 27 28 -30 -31
leaf_value=0.005362666691653431 0.0029989952873438596 0.0081377642990056696 -0.00076827961097892107 -7.1817012463321181e-05 -0.001667130745627219 1.1080652668844235e-05 0.0027542826090731463 -0.003112642635824159 0.0012884903501617373 -0.0001652703932521897 -0.0050436227074533236 -0.00027161772501939498 -7.046760618230881e-06 1.5681486658953124e-05 0.00025089509130339139 -0.00034184844892890079 -6.8980013814077466e-05 0.0088728492756755175 0.0048935505469853528 -0.0052895350055769084 -0.00071778671499487254 0.00088018189476133562 -0.00046839976049007346 0.0070989339708467025 -0.00031808028762536514 0.0001998218177438913 0.0031489215862469189 0.0099422060673532552 0.001631650204537512 -0.00058299927246171482
leaf_weight=20 20 28 22 45 35 68531 28 22 20 152 20 45 145909 266 50 1458 22 22 20 20 46 50 79 20 307 255 24 20 24 53
leaf_count=20 20 28 22 45 35 68531 28 22 20 152 20 45 145909 266 50 1458 22 22 20 20 46 50 79 20 307 255 24 20 24 53
internal_value=0 -4.7153e-06 0.00102566 1.01749e-05 0.000889159 9.47289e-06 -0.000322399 -0.000605778 -0.000410207 -0.000539878 -0.00105752 -0.00173993 -5.00638e-06 0.000102704 0.00308208 1.61841e-05 0.000896144 0.00440193 0.000356791 -0.00010707 -0.00210316 -4.95406e-05 0.000999894 0.00265697 -0.000122575 0.000345509 0.000887323 0.00233619 0.00540918 0.000580197
internal_weight=0 148715 42 68918 55 68863 332 304 282 262 110 65 148673 2764 78 2686 330 44 286 2356 66 2290 149 70 2141 683 376 121 44 77
internal_count=217633 148715 42 68918 55 68863 332 304 282 262 110 65 148673 2764 78 2686 330 44 286 2356 66 2290 149 70 2141 683 376 121 44 77
shrinkage=0.05


Tree=350
num_leaves=31
num_cat=0
split_feature=41 41 10 36 20 3 36 20 13 10 44 23 26 5 36 40 16 3 35 4 33 14 20 40 29 33 23 29 35 20
split_gain=0.00414299 0.058079 0.068626 0.219205 0.176881 0.100735 0.228934 0.560719 0.650256 0.177065 0.229109 0.487018 0.563478 0.406693 0.679141 0.35126 0.244298 0.253372 0.319223 0.240593 0.229838 0.207489 0.168058 0.15964 0.125018 0.0965149 0.0914189 0.091385 0.0806075 0.111305
threshold=-0.27889399999999981 -0.026150000000000003 1.1666750000000001e-05 -0.046235849999999988 5.0058800000000003 -13.614249999999998 -0.066940849999999982 -2.7544749999999998 9.0157500000000019e-05 5.2944100000000007e-05 2.5130600000000003 -14.667549999999997 9.0933550000000003e-05 9.9471450000000032e-06 0.00039011950000000009 0.077348000000000056 3.0231500000000004e-06 -16.131449999999997 0.00077135650000000012 0.17191050000000002 1.8005000000000005e-05 0.0033167500000000007 2.9284200000000005 0.039429999999999972 -0.0099490199999999977 -4.1217849999999994e-05 -18.143749999999997 0.18537850000000003 -4.3203749999999994 16.002400000000005
decision_type=2 2 2 2 2 2 2 2 2 2 2 2 2 2 2 2 2 2 2 2 2 2 2 2 2 2 2 2 2 2
left_child=-1 2 3 -2 25 6 7 -4 -9 10 11 13 15 14 -8 23 17 18 26 -17 -14 -19 -18 -13 -11 -5 -15 -12 -7 -30
right_child=1 -3 5 4 -6 28 9 8 -10 24 27 12 20 16 -16 19 22 21 -20 -21 -22 -23 -24 -25 -26 -27 -28 -29 29 -31
leaf_value=7.800284750957434e-06 -0.0042277611899274835 3.9012642004928054e-06 -0.0019707845386371693 -0.0040212109399726621 0.0039743426483420828 -0.0027090099541613112 -0.011200349624268711 0.01272950536063449 0.00057280037488619039 -0.0041615250703554403 -0.00030073673658732744 0.0017110598023282364 0.012379834977909924 0.0040756187302758914 0.0011611515097320081 -0.0031789396295491129 -0.0041705115203512838 0.0029502832777022077 0.0089793853418086659 0.0035661834712664136 0.0049739165824245323 -0.0025030021637920418 0.00095384985215787312 0.0077595528501357581 -0.00065573412047335248 -0.00044158853068675737 -0.00070504257455468184 0.0027201872018989752 -0.00017237973964705794 0.0018304688865152588
leaf_weight=95517 41 112638 33 20 22 31 20 22 22 35 674 20 20 20 25 39 32 33 24 20 22 37 32 24 93 322 20 26 7679 70
leaf_count=95517 41 112638 33 20 22 31 20 22 22 35 674 20 20 20 25 39 32 33 24 20 22 37 32 24 93 322 20 26 7679 70
internal_value=0 -6.10125e-06 -0.000124973 -0.000761774 -0.000371374 -9.65471e-05 0.000312126 0.00295604 0.00665115 0.000144707 0.000351655 0.00132622 0.00361944 -4.2166e-05 -0.00433285 0.00162908 0.000932989 0.00214675 0.00442057 -0.000892457 0.00850054 6.78324e-05 -0.00160833 0.00501024 -0.00161435 -0.000650923 0.00168529 -0.000188531 -0.000164467 -0.000154287
internal_weight=0 122116 9478 405 364 9073 1293 77 44 1216 1088 388 145 243 45 103 198 134 64 59 42 70 64 44 128 342 40 700 7780 7749
internal_count=217633 122116 9478 405 364 9073 1293 77 44 1216 1088 388 145 243 45 103 198 134 64 59 42 70 64 44 128 342 40 700 7780 7749
shrinkage=0.05


Tree=351
num_leaves=31
num_cat=0
split_feature=31 3 24 0 24 40 29 3 34 34 43 22 34 5 0 21 40 41 19 19 10 1 1 3 40 0 22 31 40 3
split_gain=0.00413761 0.0229714 0.0687093 0.0391182 0.0565832 0.0674712 0.0360026 0.0675958 0.0375905 0.10249 0.0284045 0.0228912 0.0225369 0.027538 0.0218648 0.0437496 0.17478 0.164268 0.260745 0.368653 0.13616 0.11295 0.0770689 0.0730439 0.0424837 0.0329144 0.0527853 0.0430997 0.0325401 0.0506179
threshold=-0.29411049999999994 -16.131449999999997 2.1521500000000002 1.6079050000000004 -0.96093699999999993 -0.30278099999999991 -0.027444349999999996 -17.304849999999998 4.6183500000000004 2.1557050000000006 3.7486700000000006 1.3814350000000004 1.2911250000000003 2.3352400000000004e-05 3.5805150000000006 8.4379150000000021 0.12375499999999996 -0.43858299999999995 8.0243550000000009e-08 1.117715e-05 3.7564000000000008e-05 10.319000000000001 8.6177750000000017 -10.660099999999998 0.016888500000000004 3.4082400000000006 0.94522650000000008 -0.34601549999999998 -0.40968649999999995 -7.8286749999999996
decision_type=2 2 2 2 2 2 2 2 2 2 2 2 2 2 2 2 2 2 2 2 2 2 2 2 2 2 2 2 2 2
left_child=1 2 3 10 5 -5 8 -8 9 12 11 -1 -6 -14 25 -16 21 23 -19 -20 -21 22 24 -18 28 -3 27 -27 -17 -30
right_child=-2 14 -4 4 6 -7 7 -9 -10 -11 -12 -13 13 -15 15 16 17 18 19 20 -22 -23 -24 -25 -26 26 -28 -29 29 -31
leaf_value=-6.6190520942970864e-05 2.6945540504671725e-06 1.9459138657984615e-05 0.0023498723140129678 -9.7515162017841191e-05 -0.00019061049391526916 -0.0034601014188956471 0.00035526432974230767 -0.0029009025306967907 -0.0019627742188308259 0.0024811314537821873 0.0015635191623774658 -0.0013666707801582691 -0.00030137636668184446 -0.0026652865283722351 -9.7471750380000733e-05 -6.6575748195738389e-05 0.0025491975112042083 -0.00053975548665870785 0.009442516444967344 0.0046435369040063101 -0.0011209648448857479 0.0033149192786051732 -0.0028164007684348953 -0.00039119315150734093 0.0015321866712636419 0.00011746447568277209 0.0026873175551221113 0.002499138657142231 -0.00021457757162245212 -0.0024929717176985977
leaf_weight=1019 188793 16804 26 26 285 35 28 37 29 35 26 35 28 22 9241 498 27 35 26 21 20 23 28 97 36 199 27 21 68 38
leaf_count=1019 188793 16804 26 26 285 35 28 37 29 35 26 35 28 22 9241 498 27 35 26 21 20 23 28 97 36 199 27 21 68 38
internal_value=0 -1.76391e-05 -0.000199901 -0.000241205 -0.000595247 -0.00202687 -0.000407038 -0.00149825 -0.000229272 -9.34033e-05 -6.9102e-05 -0.000109375 -0.000362385 -0.0013415 -6.71377e-06 -6.47845e-05 0.000264619 0.00147164 0.00295793 0.00478508 0.00183158 -0.000130154 -0.000248772 0.000249053 -0.000136438 2.78814e-05 0.00060087 0.000344806 -0.000235892 -0.00103136
internal_weight=0 28840 1631 1605 525 61 464 65 399 370 1080 1054 335 50 27209 10158 917 226 102 67 41 691 668 124 640 17051 247 220 604 106
internal_count=217633 28840 1631 1605 525 61 464 65 399 370 1080 1054 335 50 27209 10158 917 226 102 67 41 691 668 124 640 17051 247 220 604 106
shrinkage=0.05


Tree=352
num_leaves=31
num_cat=0
split_feature=44 44 3 14 29 21 1 20 33 18 4 9 22 6 10 20 40 40 0 5 7 35 36 43 34 2 7 20 33 1
split_gain=0.00394591 0.0498686 0.0538338 0.139898 0.0828746 0.0696558 0.0639156 0.0623736 0.135011 0.230601 0.29001 0.255115 0.25574 0.129698 0.116796 0.0907364 0.122645 0.809514 0.471023 0.421437 0.815637 0.36972 0.362132 0.341013 0.321024 0.232271 0.388164 0.565043 0.286434 0.151164
threshold=-0.8551649999999994 -0.20255000000000042 -15.867949999999999 0.0024307550000000006 0.041675700000000003 4.6258850000000011 4.0157350000000003 7.3475050000000008 6.4546800000000005e-06 -1.1530249999999996e-06 -1.0382099999999996 1.8617650000000002e-06 -0.54752699999999999 3.0680400000000004e-06 3.5411900000000006e-05 -8.175164999999998 0.14973499999999998 0.02582950000000005 -7.3054249999999987 1.4696900000000002e-05 4.2647350000000004e-05 -0.0017641349999999998 0.00030374650000000004 0.68409500000000023 0.023568350000000005 2.0823550000000006 3.3982100000000008e-05 -4.7705699999999993 5.3515850000000012e-06 11.597950000000003
decision_type=2 2 2 2 2 2 2 2 2 2 2 2 2 2 2 2 2 2 2 2 2 2 2 2 2 2 2 2 2 2
left_child=-1 2 3 -2 5 -5 -7 15 -9 10 -10 -12 13 -13 -14 -4 17 25 -19 23 22 -22 -21 24 -20 29 -27 28 -28 -17
right_child=1 -3 7 4 -6 6 -8 8 9 -11 11 12 14 -15 -16 16 -18 18 19 20 21 -23 -24 -25 -26 26 27 -29 -30 -31
leaf_value=6.5405725615643014e-06 0.0043643926225658191 6.3996428183138213e-06 0.00012095679110155961 0.00013427420391489333 -0.0028713039104331984 0.0037470643169919119 0.00018980475016059761 -5.3428415435381229e-05 -0.00036201268994836438 -0.00012300976465558125 -1.1844802743975639e-05 0.0051570750620157924 0.0002236397855449468 0.010851318193963381 0.0050100749434652527 -0.00012487499137788199 -2.2751193927415128e-05 -0.010245692559983581 -0.0044349688272923233 -0.0052029768358273758 -0.0066152443388441153 0.00030385719883876543 -0.013329398864880205 -0.0057642364664934574 0.0018996937925403472 0.00065519469211294031 -0.0069205184789531086 -0.011762238252558746 0.00020355060056994429 -0.002332098751959407
leaf_weight=111964 22 91838 2189 281 20 28 23 2289 72 246 35 20 25 20 26 4287 3691 20 25 29 26 75 26 25 100 68 21 20 43 79
leaf_count=111964 22 91838 2189 281 20 28 23 2289 72 246 35 20 25 20 26 4287 3691 20 25 29 26 75 26 25 100 68 21 20 43 79
internal_value=0 -6.93021e-06 -9.54406e-05 0.00049627 0.000254512 0.000442814 0.00214281 -0.000111886 0.000101348 0.000899281 0.0021694 0.00361592 0.00501122 0.0080042 0.00266378 -0.000166228 -0.000239883 -0.000405332 -0.0028116 -0.00232571 -0.00414524 -0.0014773 -0.00904456 -0.000433405 0.000632761 -0.000231705 -0.00215309 -0.00442646 -0.00213403 -0.000164813
internal_weight=0 105669 13831 374 352 332 51 13457 2733 444 198 126 91 40 51 10724 8535 4844 326 306 156 101 55 150 125 4518 152 84 64 4366
internal_count=217633 105669 13831 374 352 332 51 13457 2733 444 198 126 91 40 51 10724 8535 4844 326 306 156 101 55 150 125 4518 152 84 64 4366
shrinkage=0.05


Tree=353
num_leaves=31
num_cat=0
split_feature=31 3 43 35 25 43 20 27 43 43 2 23 43 0 4 4 30 8 0 21 40 41 19 19 10 1 1 3 40 0
split_gain=0.00395014 0.0209692 0.0660959 0.0304746 0.0564164 0.0334046 0.055696 0.0258757 0.0613371 0.0443063 0.0565383 0.0514299 0.027598 0.0449443 0.0251308 0.0277402 0.0248334 0.0588335 0.0202139 0.0397136 0.157433 0.14854 0.235329 0.332654 0.122843 0.101922 0.0695598 0.0654611 0.0385395 0.0296074
threshold=-0.29411049999999994 -16.131449999999997 6.1209300000000013 -0.12126899999999999 7.3223450000000012 -0.19603999999999996 -4.6287449999999994 1.5837600000000001 2.4693750000000008 0.85052500000000031 -0.98268899999999992 -17.289999999999996 2.0800550000000007 1.6079050000000004 -0.30653749999999996 -2.0429399999999993 0.053348600000000003 8.5226600000000012e-06 3.5805150000000006 8.4379150000000021 0.12375499999999996 -0.43858299999999995 8.0243550000000009e-08 1.117715e-05 3.7564000000000008e-05 10.319000000000001 8.6177750000000017 -10.660099999999998 0.016888500000000004 3.4082400000000006
decision_type=2 2 2 2 2 2 2 2 2 2 2 2 2 2 2 2 2 2 2 2 2 2 2 2 2 2 2 2 2 2
left_child=1 2 3 4 -1 6 -6 12 9 11 -11 -9 -5 -14 15 -8 -13 -18 29 -20 25 27 -23 -24 -25 26 28 -22 -21 -3
right_child=-2 18 -4 7 5 -7 14 8 -10 10 -12 16 13 -15 -16 -17 17 -19 19 20 21 22 23 24 -26 -27 -28 -29 -30 -31
leaf_value=-0.0024736709314964129 2.6328042468414294e-06 1.8478993006093157e-05 0.002665316422790056 -0.00032213098852621695 0.0018613073245244871 -0.0018577204895657761 -0.0003952472136006691 0.0022846026691392281 0.0020905001917580035 0.00018026109479251317 -0.0035793355363421143 3.1699985250826659e-06 -0.00028841026174227912 -0.0034156377111503392 -8.977908395784405e-05 -0.002720464355028842 -0.0026555834132263307 0.00084541417530826525 -9.377495130011152e-05 -0.000224142840188022 0.0024116661179707285 -0.00051273631929819082 0.0089701243062826029 0.0044112502885538902 -0.0010641000896430342 0.0031491069406594922 -0.0026754771500626315 -0.00037192127214270328 0.0014598617302706571 0.00056990890940981519
leaf_weight=39 188793 16804 20 322 29 34 29 24 34 20 20 831 27 20 110 23 28 21 9241 604 27 35 26 21 20 23 28 97 36 247
leaf_count=39 188793 16804 20 322 29 34 29 24 34 20 20 831 27 20 110 23 28 21 9241 604 27 35 26 21 20 23 28 97 36 247
internal_value=0 -1.72349e-05 -0.000191372 -0.000226837 -0.000718054 -0.000413747 -0.000156705 -0.000130563 4.04664e-06 -7.11011e-05 -0.00169954 9.53645e-07 -0.000487333 -0.00161915 -0.000517954 -0.00142371 -6.13277e-05 -0.00115516 -6.79652e-06 -6.26319e-05 0.00025121 0.00139677 0.00281011 0.00454593 0.00174035 -0.00012346 -0.000236139 0.000234182 -0.000129418 2.6467e-05
internal_weight=0 28840 1631 1611 264 225 191 1347 978 944 40 904 369 47 162 52 880 49 27209 10158 917 226 102 67 41 691 668 124 640 17051
internal_count=217633 28840 1631 1611 264 225 191 1347 978 944 40 904 369 47 162 52 880 49 27209 10158 917 226 102 67 41 691 668 124 640 17051
shrinkage=0.05


Tree=354
num_leaves=31
num_cat=0
split_feature=21 40 43 1 40 22 11 3 10 19 43 15 0 15 12 35 40 1 24 17 17 15 43 15 40 40 43 11 9 0
split_gain=0.00391418 0.0510968 0.0440104 0.101249 0.140175 0.508586 0.220143 0.309662 0.111131 0.0651503 0.0977905 0.0633701 0.10492 0.101094 0.0555304 0.0368799 0.113723 0.0306652 0.0664416 0.0181797 0.0255149 0.0169182 0.0565549 0.0256359 0.0179564 0.0624551 0.123869 0.0206856 0.0197236 0.0441202
threshold=-13.388899999999998 -4.6213449999999989 1.0000000180025095e-35 -3.2275299999999993 -0.46506469999999994 -0.75575599999999987 -1.1142449999999998e-06 -8.1170399999999976 1.7819450000000001e-05 8.8529750000000019e-08 1.7247300000000003 -5.525729999999999e-07 3.9279950000000006 -8.3748499999999991e-08 -3.4944649999999994e-05 -0.0033035399999999993 -0.011175000000000155 -8.7275699999999983 -0.25851049999999992 -5.1007699999999989e-07 -1.1656349999999997e-05 -9.0272649999999983e-06 -0.66712000000000005 -7.03526e-06 0.354709 -0.19934349999999995 -2.0405449999999985 -1.2385649999999997e-05 4.0720700000000005e-05 5.9730150000000011
decision_type=2 2 2 2 2 2 2 2 2 2 2 2 2 2 2 2 2 2 2 2 2 2 2 2 2 2 2 2 2 2
left_child=1 -1 17 4 19 6 7 -6 -9 -10 -11 12 -8 -13 -5 -15 -17 18 -3 20 -4 22 -19 -23 25 28 27 -27 29 -25
right_child=-2 2 3 14 5 -7 11 8 9 10 -12 13 -14 15 -16 16 -18 21 -20 -21 -22 23 -24 24 -26 26 -28 -29 -30 -31
leaf_value=0.0021425314373055729 -8.5702670278857697e-07 -0.0027727474083589828 -0.0002297641485236058 -0.0019822201253891065 0.0081185886264956066 0.008141766275279223 -0.0043316881358623511 0.0047833091299980882 -0.0010458166716168361 0.0038772014704031438 -0.0007102449313693103 0.0038455830001839792 8.560529053195241e-05 -0.00094923735237459588 -5.2470689645266659e-05 0.0039527501828355788 8.7885520086480907e-06 6.9294241945110747e-05 -0.00019711620301103195 6.0870356121483361e-06 -0.0024263383026118393 -0.0019383356089929295 0.0027370524483211786 -0.00010559144704555242 7.3629827354560538e-06 -0.0018595796494212534 -0.0043542742815420579 -6.4290092463766891e-05 -0.001543029537736272 0.0023144308970950082
leaf_weight=29 214135 34 39 39 21 25 20 20 34 26 21 20 41 58 845 21 141 368 95 238 20 20 21 323 822 21 27 68 21 20
leaf_count=29 214135 34 39 39 21 25 20 20 34 26 21 20 41 58 845 21 141 368 95 238 20 20 21 323 822 21 27 68 21 20
internal_value=0 5.24641e-05 3.49916e-05 0.000224267 0.000653658 0.00121208 0.000802529 0.00259419 0.00144555 0.000621411 0.00182749 7.63418e-05 -0.00136269 0.000442095 -0.000137607 0.000132687 0.000520043 -0.000132579 -0.000875965 -0.000188683 -0.000974366 -7.65314e-05 0.000213312 -0.000161818 -0.000134529 -0.000377519 -0.00138783 -0.000487898 -5.55523e-05 3.55177e-05
internal_weight=0 3498 3469 1629 745 448 423 122 101 81 47 301 61 240 884 220 162 1840 129 297 59 1711 389 1322 1302 480 116 89 364 343
internal_count=217633 3498 3469 1629 745 448 423 122 101 81 47 301 61 240 884 220 162 1840 129 297 59 1711 389 1322 1302 480 116 89 364 343
shrinkage=0.05


Tree=355
num_leaves=31
num_cat=0
split_feature=10 44 44 32 12 37 0 25 8 23 14 37 36 13 36 36 13 10 6 5 21 23 37 8 30 3 13 40 32 32
split_gain=0.00382884 0.019338 0.0418305 0.0789863 0.21951 0.0465717 0.0658375 0.117022 0.0535531 0.104437 0.169918 0.0460775 0.0611292 0.0405209 0.0633906 0.0401789 0.0885447 0.0415352 0.0403125 0.0371546 0.0368628 0.246723 0.166269 0.177351 0.374239 0.0745813 0.070673 0.0520772 0.0483707 0.0436661
threshold=1.6290050000000002e-05 0.46045500000000011 -1.1537099999999991 -3.4807049999999995 0.00012870650000000001 -4.6526849999999994e-07 -3.6002049999999994 3.9071550000000004 1.234225e-05 -8.2950649999999992 0.0024307550000000006 -2.9794199999999998e-07 -0.0043768949999999996 -4.5687299999999992e-05 0.00093787250000000003 0.046686200000000004 5.4609200000000012e-05 1.0226700000000002e-05 7.2428000000000018e-07 1.2137100000000001e-05 6.8989050000000001 -11.077049999999998 -2.4631349999999996e-08 -1.3024649999999999e-05 0.00027123500000000004 -9.4267299999999974 -1.2004249999999998e-05 0.039429999999999972 -0.54512899999999986 0.10550150000000001
decision_type=2 2 2 2 2 2 2 2 2 2 2 2 2 2 2 2 2 2 2 2 2 2 2 2 2 2 2 2 2 2
left_child=1 2 13 4 -4 6 7 -5 -8 10 -10 12 -7 14 -1 17 19 18 -13 -17 29 -22 23 24 -23 -25 -24 -27 -28 -19
right_child=-2 -3 3 5 -6 11 8 -9 9 -11 -12 15 -14 -15 -16 16 -18 20 -20 -21 21 22 26 25 -26 27 28 -29 -30 -31
leaf_value=0.0036004324771784016 2.6206382136317557e-06 2.4012062857689512e-05 0.00044721499990290877 -0.0052493884337309286 -0.0050993728994702305 0.002516670316576243 -0.00023567529670770102 3.508360902990469e-05 -0.0066057987246313137 0.00081140015285927807 -0.00023802587159231986 0.00015012635313411721 0.00024729160267153742 -7.1332291318458781e-06 1.2087994426224215e-05 -0.00054751650416034992 0.0037801579211554784 -3.59777773888735e-05 0.0019661648263563898 0.0012817525095946939 -0.0048287271623848943 -0.0072133229848077469 0.0031703781466820239 -0.0030747877305437781 0.0013767662408229497 -0.00013058991264079339 -0.0022026034119335238 -0.0022008213922215096 0.00032352201018715621 -0.00059141469196463225
leaf_weight=20 188240 14610 44 20 30 35 467 22 20 25 22 413 195 10060 32 70 20 1998 33 46 32 32 21 29 21 230 20 35 361 430
leaf_count=20 188240 14610 44 20 30 35 467 22 20 25 22 413 195 10060 32 70 20 1998 33 46 32 32 21 29 21 230 20 35 361 430
internal_value=0 -1.67832e-05 -5.71011e-05 -0.000180852 -0.0018014 -0.000154765 -0.00057525 -0.00248133 -0.000425333 -0.00174728 -0.0032703 -9.45319e-05 0.000592632 6.28145e-08 0.00139222 -0.000136222 0.00070763 -0.000167621 0.000284497 0.000177883 -0.000230459 -0.000529257 -0.000345568 -0.0011474 -0.0038097 -0.00066746 0.00034656 -0.000404017 0.000190917 -0.000134346
internal_weight=0 29393 14783 4671 74 4597 576 42 534 67 42 4021 230 10112 52 3791 136 3655 446 116 3209 781 749 347 53 294 402 265 381 2428
internal_count=217633 29393 14783 4671 74 4597 576 42 534 67 42 4021 230 10112 52 3791 136 3655 446 116 3209 781 749 347 53 294 402 265 381 2428
shrinkage=0.05


Tree=356
num_leaves=31
num_cat=0
split_feature=26 1 5 15 40 5 7 40 41 16 40 0 16 26 3 15 4 35 2 4 5 2 22 28 12 12 40 40 1 16
split_gain=0.0037392 0.0493006 0.0230159 0.0379331 0.0459766 0.0345433 0.0379847 0.0213516 0.0695438 0.0753713 0.0345101 0.014948 0.0109034 0.0103604 0.0253409 0.0411888 0.0334048 0.0960164 0.0413648 0.0306943 0.0303289 0.0113191 0.0111239 0.00930995 0.091399 0.0481804 0.122319 0.246767 0.0492383 0.0186625
threshold=-0.062701649999999984 -13.794199999999998 1.2194250000000001e-05 -7.7047499999999992e-07 0.9482394999999999 1.2523200000000001e-05 2.6356650000000005e-05 -0.079468000000000025 0.56931500000000013 1.1210250000000002e-06 0.14973499999999998 -9.7972349999999988 8.0155350000000022e-06 -0.028182349999999998 -15.284849999999999 -1.5692399999999998e-07 1.0072750000000001 -1.5367699999999997 -2.7519549999999997 0.53444550000000013 1.5888550000000002e-05 2.7316900000000004 0.43047700000000005 -0.96676949999999995 -0.00093344999999999984 -0.00020892849999999997 -0.30278099999999991 0.22528099999999995 -4.7501699999999989 1.1210250000000002e-06
decision_type=2 2 2 2 2 2 2 2 2 2 2 2 2 2 2 2 2 2 2 2 2 2 2 2 2 2 2 2 2 2
left_child=1 -1 3 4 -3 -4 -7 8 9 -8 -9 -10 -5 14 15 -2 18 -18 -16 21 -19 -20 -22 24 -15 26 28 -28 -26 -27
right_child=13 2 5 12 -6 6 7 10 11 -11 -12 -13 -14 23 16 -17 17 20 19 -21 22 -23 -24 -25 25 29 27 -29 -30 -31
leaf_value=0.0025565239041316092 -0.0030227224608461258 -0.0029738028643266634 0.0021175416516084427 0.00011313797894635592 -0.0002276887394064683 0.0022832896962245285 0.00046537991729564968 -0.0021815744468767664 0.001131078526629173 0.0044842095766216518 -4.4919416173458401e-05 -0.00025256526340635619 -0.0010411972266687688 0.0025152729517186907 -0.0018811989822613729 -9.3387009704504946e-05 0.0037942197057418527 0.0013069288273072745 -3.5161478545439364e-05 -0.0017508772552085655 -4.5486044263904633e-05 -0.0010012597940374235 -0.0012348420601483669 9.6753594243884988e-07 -0.00064021812021175203 2.8341312276485247e-05 -0.0060573904821247769 0.00010267570300178755 0.0026080228498904035 -0.00052614677733284936
leaf_weight=20 20 27 23 185 35 20 28 20 23 20 343 129 23 31 37 30 20 36 577 29 66 32 28 214905 28 610 29 37 20 202
leaf_count=20 20 27 23 185 35 20 28 20 23 20 343 129 23 31 37 30 20 36 577 29 66 32 28 214905 28 610 29 37 20 202
internal_value=0 0.000101932 4.58908e-05 -0.00033807 -0.00142358 0.000216962 0.000141982 6.59145e-05 0.000480744 0.00213989 -0.000162641 -4.31981e-05 -1.45049e-05 -4.2139e-07 -0.000172124 -0.00126512 -0.000105881 0.000569041 -0.000255864 -0.000161605 7.28599e-05 -8.59253e-05 -0.000399762 2.74608e-07 -0.00015533 -0.000244735 -0.00120729 -0.00260402 0.000713216 -0.000109598
internal_weight=0 896 876 270 62 606 583 563 200 48 363 152 208 216737 875 50 825 150 675 638 130 609 94 215862 957 926 114 66 48 812
internal_count=217633 896 876 270 62 606 583 563 200 48 363 152 208 216737 875 50 825 150 675 638 130 609 94 215862 957 926 114 66 48 812
shrinkage=0.05


Tree=357
num_leaves=31
num_cat=0
split_feature=41 28 25 12 11 26 44 44 40 40 24 1 4 24 4 14 20 43 8 3 37 4 15 10 20 29 36 39 30 40
split_gain=0.00366794 0.048392 0.0842869 0.0476194 0.204288 0.0107013 0.00463871 0.0453788 0.0495524 0.26702 0.405429 0.345627 0.362113 0.448553 0.42875 0.413251 0.395249 0.396173 0.374838 0.311427 0.290692 0.268471 0.26706 0.228377 0.210889 0.276359 0.219821 0.315145 0.258083 0.221348
threshold=5.6849350000000003 0.19726850000000004 16.451500000000003 -8.8131899999999982e-06 -3.2696799999999995e-05 0.0033062250000000007 -0.8551649999999994 -0.35442999999999975 0.1751400000000001 -0.058960000000000005 -0.82489099999999993 11.597950000000003 0.49902250000000004 -0.19670549999999998 -0.58642949999999983 0.00011889250000000002 10.211950000000002 0.64319500000000052 7.6917800000000018e-06 -5.4431949999999993 1.4324750000000003e-07 -0.041759549999999999 -2.8691299999999994e-07 1.9576250000000004e-05 -8.0887399999999996 0.024486450000000003 -0.00053969399999999996 6.1378200000000013e-06 0.00031279300000000007 0.056773999999999998
decision_type=2 2 2 2 2 2 2 2 2 2 2 2 2 2 2 2 2 2 2 2 2 2 2 2 2 2 2 2 2 2
left_child=6 2 3 5 -5 -2 -1 8 9 -8 -11 12 14 -14 20 19 17 24 22 -16 -12 -20 -19 -15 25 -17 28 -28 -26 -29
right_child=1 -3 -4 4 -6 -7 7 -9 -10 10 11 -13 13 23 15 16 -18 18 21 -21 -22 -23 -24 -25 26 -27 27 29 -30 -31
leaf_value=6.701728143710663e-06 -4.0483387657949488e-05 -0.0019795262194411073 0.0029191554155355943 0.0053540521237829871 -2.6748468466332802e-05 -0.0011613006629473106 -5.1613773839843003e-05 2.8945225837373912e-06 1.4758605270658838e-05 -0.0076722445064330144 -0.0016765833263052629 -0.006382105252015647 -0.0097470465252461683 0.0026496786925153258 -0.0040346797735045861 0.0083612117344852212 0.0061559120623109441 -0.0042520444643182253 -0.0089037630138381462 0.0028921823366545142 -0.007646876522423034 -0.0017184239686824955 0.0017571907782894414 -0.003279960798775597 0.007037842516665874 0.00081182573749511333 -0.0050607154245759988 0.0010185312202328084 0.001311007409118675 -0.0045356346003245568
leaf_weight=111473 666 27 27 22 89 22 4763 94973 4602 22 75 27 22 22 86 22 31 26 26 20 28 26 64 62 23 27 30 174 136 20
leaf_count=111473 666 27 27 22 89 22 4763 94973 4602 22 75 27 22 22 86 22 31 26 26 20 28 26 64 62 23 27 30 174 136 20
internal_value=0 0.000103479 0.000171568 7.87209e-05 0.00103972 -7.63235e-05 -4.07178e-07 -7.93233e-06 -0.000107435 -0.000205539 -0.00096214 -0.000806256 -0.000642617 -0.00339151 -0.000284654 0.000152107 0.000656673 0.000359676 -0.00193148 -0.00272772 -0.00329958 -0.00531109 2.11895e-05 -0.00172696 0.00111279 0.00420135 0.000717644 -0.000291561 0.00213942 0.000445937
internal_weight=0 853 826 799 111 688 216780 105307 10334 5732 969 947 920 106 814 711 605 574 142 106 103 52 90 84 432 49 383 224 159 194
internal_count=217633 853 826 799 111 688 216780 105307 10334 5732 969 947 920 106 814 711 605 574 142 106 103 52 90 84 432 49 383 224 159 194
shrinkage=0.05


Tree=358
num_leaves=31
num_cat=0
split_feature=31 20 10 9 16 36 16 10 2 22 23 43 20 9 41 40 30 9 23 43 9 23 2 28 21 40 40 43 0 29
split_gain=0.00365248 0.0353824 0.128896 0.179259 0.2221 0.16348 0.0985427 0.0416809 0.0369535 0.178804 0.0397798 0.0358998 0.070932 0.325112 0.19185 0.541817 0.551753 0.0767273 0.0869083 0.149237 0.0572974 0.205987 0.0631465 0.142092 0.0535896 0.105224 0.125629 0.0504245 0.20678 0.0856124
threshold=0.56878050000000013 3.8241100000000006 2.7034150000000006e-05 -1.3696949999999999e-05 3.8630400000000007e-07 0.020652350000000003 7.0201950000000013e-05 1.0512900000000001e-05 3.0578500000000006 -2.9160599999999994 -7.6703599999999996 -0.88227999999999918 -4.0204099999999992 -3.4889849999999996e-05 0.22260499999999997 0.22528099999999995 0.010273350000000002 -1.7830049999999997e-05 -10.262699999999999 -1.3362800000000006 -2.2309399999999997e-05 -10.354649999999998 1.8942800000000002 0.11940450000000001 0.43558650000000004 0.354709 -0.22452634999999985 -0.41630000000000006 -9.4930899999999987 0.057167000000000003
decision_type=2 2 2 2 2 2 2 2 2 2 2 2 2 2 2 2 2 2 2 2 2 2 2 2 2 2 2 2 2 2
left_child=-1 8 3 4 5 -3 7 -5 11 -10 -11 12 17 14 15 16 -14 18 19 24 21 -15 -22 -24 25 26 -2 28 -13 -30
right_child=1 2 -4 6 -6 -7 -8 -9 9 10 -12 27 13 20 -16 -17 -18 -19 -20 -21 22 -23 23 -25 -26 -27 -28 -29 29 -31
leaf_value=-2.0081787477537062e-06 -0.00070787070684933241 0.0044606726274616032 -0.00011380155209936474 0.0021802036052659705 0.0057557743909695241 -0.00029814757625421933 0.0031832052470755507 -7.9148125750478927e-05 0.0051860938244499269 -0.00029295425123836198 0.0020415408228555781 0.0050614845589734619 0.013309761081737551 0.004096215244914804 0.00020378911708879364 -0.00033020996751718755 0.002452755764126778 -9.3686235657892123e-05 -0.0003990698421574236 -0.0052976165694417435 -0.00016616007739553491 -0.00044608473444164164 -4.226490032124275e-05 -0.0047627167270984511 -8.1166914664995479e-05 -9.736369050058005e-05 -0.0059537088675424461 1.5805811724570906e-05 0.0030850891197797656 0.00013008683423093012
leaf_weight=198549 21 26 770 22 38 59 28 283 20 107 22 24 22 35 60 41 25 1921 684 24 690 87 44 25 74 42 25 13411 26 428
leaf_count=198549 21 26 770 22 38 59 28 283 20 107 22 24 22 35 60 41 25 1921 684 24 690 87 44 25 74 42 25 13411 26 428
internal_value=0 2.0893e-05 0.000280729 0.000946933 0.0025781 0.00115749 0.00034443 8.38215e-05 3.05452e-06 0.000787179 0.000105177 -3.54295e-06 -0.000139288 0.000215552 0.00238393 0.0038704 0.00753476 -0.000270112 -0.000659667 -0.00161799 -0.000148717 0.000857034 -0.000310379 -0.00175257 -0.00107286 -0.00190679 -0.00355887 3.3792e-05 0.000538421 0.000299316
internal_weight=0 19084 1226 456 123 85 333 305 17858 149 129 17709 3820 1029 148 88 47 2791 870 186 881 122 759 69 162 88 46 13889 478 454
internal_count=217633 19084 1226 456 123 85 333 305 17858 149 129 17709 3820 1029 148 88 47 2791 870 186 881 122 759 69 162 88 46 13889 478 454
shrinkage=0.05


Tree=359
num_leaves=31
num_cat=0
split_feature=14 23 2 5 43 11 31 7 14 0 20 19 1 17 17 1 3 19 15 17 29 31 3 19 19 19 31 19 13 10
split_gain=0.00362091 0.0138816 0.0197799 0.00818841 0.0101056 0.00434701 0.0236279 0.0610802 0.271733 0.133782 0.0591293 0.16092 0.0937877 0.122297 0.211376 0.0776497 0.0634574 0.079627 0.0387545 0.0190692 0.0187728 0.0600008 0.195895 0.0354466 0.0303209 0.0263103 0.0220626 0.0613661 0.019599 0.0194511
threshold=0.71230950000000004 -14.053899999999997 -1.7088249999999998 1.2738100000000001e-05 0.55890500000000032 -0.000119502 5.5507350000000004 3.8223600000000004e-05 0.035247800000000003 -5.7641099999999996 -11.463149999999997 0.00016688000000000003 0.80539150000000015 4.7046700000000012e-05 0.00026978200000000004 -2.6487599999999998 -10.845499999999999 0.0082071400000000017 1.1129000000000003e-05 2.0915550000000003e-06 0.30041650000000003 2.7376000000000005 -15.396099999999999 0.00015321200000000004 0.0035512250000000003 0.005156565000000001 2.3607850000000004 0.0029219050000000002 4.3872650000000008e-05 2.3474250000000003e-05
decision_type=2 2 2 2 2 2 2 2 2 2 2 2 2 2 2 2 2 2 2 2 2 2 2 2 2 2 2 2 2 2
left_child=5 2 -2 4 -4 6 20 8 9 -8 16 -12 15 18 -15 -13 17 -9 -14 -18 21 26 -23 -22 -25 -26 -1 -28 -27 -24
right_child=1 -3 3 -5 -6 -7 7 10 -10 -11 11 12 13 14 -16 -17 19 -19 -20 -21 23 22 29 24 25 28 27 -29 -30 -31
leaf_value=1.3703021038652026e-05 -0.0019887916682637297 -1.694411725854546e-06 -0.00026898717966987256 -2.6250368683656197e-05 -0.0016933408611839694 -2.2909810641773226e-06 0.0017512839757425052 -0.0045194623576456008 -0.00070519318314836714 0.007149262094489215 0.0041962039155455742 -8.4868036080989421e-05 -0.0022243057680316268 0.0064433438605983225 -7.9500753027214512e-05 -0.0028704933109111154 0.0011119024551589974 -0.00021505552077932019 0.00047133157549978933 -0.00065502562088973681 0.0015831954761365938 0.0042279507014124345 0.0015242375902562344 -0.0012998968134086361 0.0015378312354732771 -0.0013121770651534548 -0.0028381857383064928 0.00040525439049815765 -0.00011587906767653337 -0.00016307084177895331
leaf_weight=26272 20 656 33 92 20 189499 24 22 64 22 26 82 20 23 27 36 26 21 40 37 22 36 20 85 20 43 25 35 168 117
leaf_count=26272 20 656 33 92 20 189499 24 22 64 22 26 82 20 23 27 36 26 21 40 37 22 36 20 85 20 43 25 35 168 117
internal_value=0 -0.000104806 -0.000514753 -0.000311437 -0.000806479 3.96868e-07 1.90453e-05 0.000370496 0.00140166 0.00433293 5.54197e-05 0.000469378 4.43886e-05 0.0010947 0.00292101 -0.00093472 -0.000936517 -0.00241731 -0.000427214 7.41828e-05 1.28917e-05 1.76135e-05 0.000945732 -0.000357383 -0.000492487 -0.000195388 1.15158e-05 -0.000946179 -0.000359674 8.32516e-05
internal_weight=0 821 165 145 53 216812 27313 470 110 46 360 254 228 110 50 118 106 43 60 63 26843 26505 173 338 316 231 26332 60 211 137
internal_count=217633 821 165 145 53 216812 27313 470 110 46 360 254 228 110 50 118 106 43 60 63 26843 26505 173 338 316 231 26332 60 211 137
shrinkage=0.05


Tree=360
num_leaves=31
num_cat=0
split_feature=37 17 24 17 44 44 40 40 44 26 26 44 41 14 25 25 20 9 10 14 32 16 9 20 33 1 44 2 31 5
split_gain=0.00362294 0.0288775 0.0453172 0.107365 0.199707 0.263019 0.242206 0.578431 0.498242 0.41815 0.367091 0.232135 0.5472 0.476767 0.361328 0.316749 0.150128 0.253786 0.122641 0.111184 0.107345 0.312486 0.0992566 0.0833765 0.150059 0.140931 0.45593 0.117173 0.0742166 0.0651463
threshold=-1.1071149999999997e-08 3.4718200000000011e-08 -0.10473849999999998 -3.0819049999999996e-06 -1.1956799999999992 1.151035 0.22528099999999995 0.056773999999999998 -0.23675500000000002 0.00012263650000000003 0.00033276500000000006 0.31988499999999936 0.14791590000000002 0.0017362250000000003 4.5134100000000013 1.7736900000000002 9.7253800000000012 2.4238900000000003e-05 2.9751750000000002e-05 8.0324000000000012e-05 0.77684100000000011 6.9009750000000011e-07 -6.2460399999999982e-05 -6.0084349999999995 -9.7463599999999976e-06 3.5697400000000008 -0.77194499999999999 0.45047650000000006 0.22731750000000003 1.3551850000000001e-05
decision_type=2 2 2 2 2 2 2 2 2 2 2 2 2 2 2 2 2 2 2 2 2 2 2 2 2 2 2 2 2 2
left_child=1 2 3 -1 -5 6 7 11 -9 -10 -11 16 13 14 15 18 19 -18 -13 -6 -7 -22 -21 24 -24 27 -27 28 -25 -15
right_child=-2 -3 -4 4 5 20 -8 8 9 10 -12 12 -14 29 -16 -17 17 -19 -20 22 21 -23 23 25 -26 26 -28 -29 -30 -31
leaf_value=-1.9122359203891347e-05 -7.2114002913754656e-06 -9.9531121333527311e-06 -5.0005955682320905e-06 -4.0863223719713353e-05 -0.0032183107256423685 -5.9338551173915367e-05 -4.7943407051692312e-05 0.00023029484712960534 0.012625940438162312 7.9734382503058611e-05 0.0093418913520872584 0.0040879544297585486 -1.5141337917763546e-05 0.0020373991615832148 0.00097082183611663922 0.013632164821028709 -0.00096842668231693092 0.0054850166686474739 0.0091774123231880365 -0.0026409031083555121 -4.8696817790742144e-05 0.0070535262700841053 0.0049520626727566457 0.00023704456483138373 0.00097870798348142856 0.0081668477695281839 0.00074488362879074192 -0.0030504422057645339 -0.0024499634359488958 -0.0013474205597525553
leaf_weight=7822 96744 85493 20313 3282 20 1667 566 39 24 23 20 29 150 44 22 20 25 39 20 24 59 21 28 533 157 22 348 31 27 21
leaf_count=7822 96744 85493 20313 3282 20 1667 566 39 24 23 20 29 150 44 22 20 25 39 20 24 59 21 28 533 157 22 348 31 27 21
internal_value=0 5.77108e-06 4.37502e-05 0.000109405 0.000247863 0.000486013 0.00084566 0.00114925 0.00472336 0.00733872 0.00438771 0.000906393 0.00214111 0.00421442 0.00655055 0.0083296 0.000605099 0.00296414 0.00616528 0.000478226 2.65218e-05 0.00181564 0.000541415 0.00060806 0.00158008 0.000420939 0.00118619 -5.81522e-05 0.000107492 0.000943842
internal_weight=0 120889 35396 15083 7261 3979 2232 1666 106 67 43 1560 306 156 91 69 1254 64 49 1190 1747 80 1170 1146 185 961 370 591 560 65
internal_count=217633 120889 35396 15083 7261 3979 2232 1666 106 67 43 1560 306 156 91 69 1254 64 49 1190 1747 80 1170 1146 185 961 370 591 560 65
shrinkage=0.05


Tree=361
num_leaves=31
num_cat=0
split_feature=17 31 17 2 14 22 33 9 41 41 41 32 3 8 34 15 3 31 2 2 14 15 2 21 15 18 4 7 11 4
split_gain=0.00365858 0.0132715 0.0792757 0.314736 0.0581829 0.0138726 0.0126293 0.0172956 0.0157456 0.0366888 0.0159621 0.0127819 0.0554241 0.0310321 0.0133851 0.0236882 0.0117228 0.00681494 0.0650085 0.0600479 0.0524439 0.0264498 0.0503774 0.04167 0.0680829 0.0244656 0.123378 0.0617205 0.0363053 0.0332436
threshold=6.1187250000000013e-05 8.0070900000000016 0.00012097400000000001 1.8439650000000001 0.0078496150000000025 -2.7551599999999996 -0.00037994999999999994 6.2607250000000023e-05 0.91305500000000017 -0.27889399999999981 0.35345999999999994 5.9680600000000004 -16.413199999999996 2.0066100000000004e-05 10.726400000000002 4.6826750000000007e-05 -14.947699999999999 11.617550000000001 2.8579150000000006 2.7562500000000005 0.00075811550000000013 -4.0168599999999999e-07 2.0639650000000005 2.2931300000000006 -3.9387549999999988e-06 -0.00028306949999999995 -1.4133199999999999 3.7432200000000004e-05 -6.7024799999999989e-05 -3.1702649999999997
decision_type=2 2 2 2 2 2 2 2 2 2 2 2 2 2 2 2 2 2 2 2 2 2 2 2 2 2 2 2 2 2
left_child=17 6 3 -3 -4 -6 7 8 9 -2 -11 14 -13 16 -8 -16 -14 -1 19 21 -20 22 -19 24 -24 26 27 -23 -27 -29
right_child=1 2 4 -5 5 -7 11 -9 -10 10 -12 12 13 -15 15 -17 -18 18 20 -21 -22 25 23 -25 -26 28 -28 29 -30 -31
leaf_value=-1.3630570639789441e-06 -0.00024186669515588815 -0.00029318305396887844 -0.0025285105442415679 0.0069397048298491248 0.0013903041414596374 -1.4420747583840396e-05 1.7964114036139028e-05 0.0010849540872732179 2.524238090800365e-06 -0.002909383258741835 -0.0009779903905291576 0.0028469800302575875 -0.0012006084386181708 0.0019894768042649958 -4.7082246489410935e-05 -0.0019461274002727199 6.683605274031462e-05 -0.00018224418328493497 -0.00011904414397953399 0.0022960771801822208 -0.0030133821444264068 0.0023774378884991168 -0.0047747220500605186 -2.7447172297715126e-06 -0.00064910470769973482 -0.001755116154129913 0.0038419378428952767 -8.3022384516714902e-05 1.4728010001926091e-05 -0.0023827521733685653
leaf_weight=194291 92 53 23 21 20 145 21092 20 109 23 20 21 21 20 52 24 139 294 29 27 34 20 20 22 20 30 25 55 849 22
leaf_count=194291 92 53 23 21 20 145 21092 20 109 23 20 21 21 20 52 24 139 294 29 27 34 20 20 22 20 30 25 55 849 22
internal_value=0 1.93834e-05 0.000373109 0.00175939 -0.000172557 0.000155849 1.50993e-05 -0.00032861 -0.000444476 -0.000805388 -0.00201106 1.93457e-05 0.000416187 0.000132594 1.55775e-05 -0.000646781 -9.9516e-05 -2.1682e-06 -0.000110276 -3.87728e-05 -0.00168107 -8.5229e-05 -0.000455384 -0.0017506 -0.00271191 4.64146e-05 0.000709922 -9.72992e-05 -4.56762e-05 -0.000740088
internal_weight=0 21895 262 74 188 165 21633 264 244 135 43 21369 201 180 21168 76 160 195738 1447 1384 63 1357 356 62 40 1001 122 97 879 77
internal_count=217633 21895 262 74 188 165 21633 264 244 135 43 21369 201 180 21168 76 160 195738 1447 1384 63 1357 356 62 40 1001 122 97 879 77
shrinkage=0.05


Tree=362
num_leaves=31
num_cat=0
split_feature=44 23 19 3 13 3 36 31 16 22 8 29 0 21 38 40 40 40 44 40 28 40 5 24 10 18 40 40 24 4
split_gain=0.00370649 0.0163308 0.0563106 0.0129903 0.225619 0.0134396 0.0495201 0.0861058 0.119534 0.0585314 0.0525595 0.0418882 0.0569701 0.043085 0.0484585 0.0253424 0.266829 0.0964498 0.0261458 0.0181208 0.0173421 0.0323499 0.0288716 0.0125662 0.0650559 0.0313344 0.0378084 0.0193775 0.013525 0.0838142
threshold=-3.2113799999999997 -20.320949999999996 0.00031424650000000008 -17.304849999999998 -3.3894799999999993e-05 -13.353949999999999 0.14537000000000003 -3.9230749999999994 3.6544900000000005e-06 -0.75575599999999987 3.8643000000000004e-06 0.55826100000000012 -2.1576199999999992 8.8284250000000011 1.8271150000000003 -0.32870999999999989 0.077348000000000056 -0.10081500000000009 -8.0894199999999987 -0.19934349999999995 -0.14368899999999998 0.30085850000000008 1.3551850000000001e-05 2.1521500000000002 4.5652150000000006e-05 0.0011059200000000003 -1.2321154999999997 -0.68744999999999989 1.5291850000000002 0.8580755000000001
decision_type=2 2 2 2 2 2 2 2 2 2 2 2 2 2 2 2 2 2 2 2 2 2 2 2 2 2 2 2 2 2
left_child=3 2 -2 4 -1 6 11 10 9 -9 -8 13 -13 14 15 -5 17 19 -18 -17 22 -22 -20 28 25 27 -27 -25 -3 -30
right_child=1 23 -4 5 -6 -7 7 8 -10 -11 -12 12 -14 -15 -16 16 18 -19 20 -21 21 -23 -24 24 -26 26 -28 -29 29 -31
leaf_value=0.0050140824436675762 0.0029015120305120948 -4.9751634240706617e-06 -0.00076424254072083968 9.6720886175263266e-06 -0.0016430913673580756 1.2254329169509424e-05 0.00077027476122020746 -0.001586822481649939 0.0044949057073349003 0.0021926563587476265 -0.0025806391593174672 -0.0036277081102265847 -0.00015536538223925704 0.0020758052697125266 0.0019729691509855914 -0.00063094425655435776 -0.0019077474421646914 -0.0053779897425556555 -0.00023519425465985059 -0.0027593696786789228 -0.0015970554273937725 -5.0954956266141332e-05 0.0022916760780265122 4.7428446463953231e-05 -0.003117365639191121 -0.00030866172843767954 0.0026348794018849729 -0.0014941219597353161 -0.00016875917070786905 0.0016267278272147799
leaf_weight=20 20 148196 22 542 35 67375 25 21 28 20 22 21 27 21 25 20 20 32 26 20 36 562 20 47 20 24 20 36 241 89
leaf_count=20 20 148196 22 542 35 67375 25 21 28 20 22 21 27 21 25 20 20 32 26 20 36 562 20 47 20 24 20 36 241 89
internal_value=0 -4.442e-06 0.000981355 9.58518e-06 0.000777699 8.9717e-06 -0.000139662 0.000852328 0.00197663 0.000256826 -0.000798238 -0.000223533 -0.00167452 -0.00017093 -0.000207139 -0.000249786 -0.000440855 -0.00333197 -0.00012736 -0.00169516 -7.20686e-05 -0.000144031 0.000863445 -4.72048e-06 -0.000466781 -4.93665e-05 0.00102931 -0.000621196 -4.26317e-06 0.000315478
internal_weight=0 148715 42 68918 55 68863 1488 116 69 41 47 1372 48 1324 1303 1278 736 72 664 40 644 598 46 148673 147 127 44 83 148526 330
internal_count=217633 148715 42 68918 55 68863 1488 116 69 41 47 1372 48 1324 1303 1278 736 72 664 40 644 598 46 148673 147 127 44 83 148526 330
shrinkage=0.05


Tree=363
num_leaves=31
num_cat=0
split_feature=7 2 26 11 43 35 12 4 13 22 40 1 38 17 17 40 28 13 9 21 21 4 23 23 43 9 33 40 40 15
split_gain=0.00363304 0.013895 0.0122407 0.0226075 0.0736333 0.107879 0.0123742 0.0120752 0.0254307 0.0804057 0.209342 0.0226757 0.0131684 0.0345908 0.0783299 0.117484 0.021248 0.0130205 0.0106039 0.0105385 0.0704617 0.0091854 0.00866092 0.0143155 0.0590885 0.00962495 0.00876135 0.00858012 0.058664 0.0935747
threshold=2.2278700000000004e-05 3.0794900000000003 -7.2484149999999989e-05 -5.4981049999999991e-05 -0.465335 0.00096694450000000013 0.00063520950000000014 -0.11971949999999999 -3.5841599999999997e-06 -1.4043099999999997 0.60008550000000016 6.4432250000000009 -7.2562149999999984e-05 2.9139200000000007e-07 7.6001650000000017e-07 0.039429999999999972 -0.13224499999999997 -2.8688749999999995e-05 1.7606750000000002e-05 -9.853489999999999 -10.181949999999999 0.8580755000000001 -19.568199999999997 -17.067199999999996 4.6757400000000002 1.9011650000000006e-05 -5.1110149999999994e-05 0.2761725000000001 -0.10081500000000009 -1.2070449999999998e-07
decision_type=2 2 2 2 2 2 2 2 2 2 2 2 2 2 2 2 2 2 2 2 2 2 2 2 2 2 2 2 2 2
left_child=1 2 3 4 -1 -6 7 8 9 10 -4 -11 13 16 15 -15 -9 -16 27 20 -14 -18 26 24 -24 -25 -5 28 -10 -30
right_child=-2 -3 6 22 5 -7 -8 12 18 11 -12 -13 19 14 17 -17 21 -19 -20 -21 -22 -23 23 25 -26 -27 -28 -29 29 -31
leaf_value=7.9955867673758092e-06 -1.0934172948499798e-06 0.0013538984011393041 0.0064242433096660528 -0.0014505441650336643 -0.0050907247327268128 0.00010252327323541978 0.0012670232708511652 -0.0016108200015878538 -1.5009045115736245e-05 -8.255226647200646e-06 -9.6698953325358164e-05 0.0015766317837075734 -3.1800681120598528e-05 0.0044910182642524891 0.001280602147675208 -5.5242413442034308e-05 0.00010981043923227598 -7.1535514418941701e-05 -0.00096932843740511971 -8.1138324237782758e-07 -0.002922820179844621 -0.0009167761236154626 0.0030100290514201333 -5.0885607013567251e-05 -1.7484964836326238e-05 0.00091842975203829938 -3.797985197667478e-05 -5.900200940693972e-05 0.0039302051884498304 0.00040347765906891952
leaf_weight=111 211572 20 20 21 20 20 22 20 383 171 32 26 173 30 21 27 414 117 23 2011 24 23 20 1707 83 26 23 379 26 68
leaf_count=111 211572 20 20 21 20 20 22 20 383 171 32 26 173 30 21 27 414 117 23 2011 24 23 20 1707 83 26 23 379 26 68
internal_value=0 3.8168e-05 3.3812e-05 -6.61963e-05 -0.000654811 -0.0024941 8.44646e-05 7.7941e-05 0.000216479 0.000662535 0.00241136 0.000200918 2.33008e-05 0.000220738 0.000778267 0.00233753 -1.7157e-05 0.000134225 9.01218e-05 -3.50004e-05 -0.000384006 5.57796e-05 -1.89193e-05 -2.30568e-06 0.000570382 -3.63431e-05 -0.000712158 0.000118588 0.000259693 0.00137896
internal_weight=0 6061 6041 2031 151 40 4010 3988 1128 249 52 197 2860 652 195 57 457 138 879 2208 197 437 1880 1836 103 1733 44 856 477 94
internal_count=217633 6061 6041 2031 151 40 4010 3988 1128 249 52 197 2860 652 195 57 457 138 879 2208 197 437 1880 1836 103 1733 44 856 477 94
shrinkage=0.05


Tree=364
num_leaves=31
num_cat=0
split_feature=27 12 12 12 3 9 9 28 19 19 4 4 4 11 40 40 43 12 40 13 11 29 7 14 16 16 40 11 28 33
split_gain=0.00358721 0.0107439 0.0144419 0.0374648 0.0203033 0.017904 0.025326 0.0311061 0.0168712 0.0341066 0.0155069 0.0518175 0.0218373 0.0192418 0.0548186 0.162422 0.118655 0.0263268 0.0317117 0.0253253 0.0167648 0.0187081 0.013936 0.0114328 0.0209634 0.0186155 0.0107406 0.0102202 0.00784586 0.00776348
threshold=91.481750000000019 0.0021796500000000004 0.00010937550000000001 0.00011857750000000002 -15.867949999999999 -3.7379349999999993e-05 -1.4103749999999997e-05 0.42036700000000005 0.00061572950000000014 0.0015021400000000001 -3.7913399999999995 -3.1702649999999997 -2.2787549999999999 4.247685000000001e-05 0.43531000000000003 -0.60254799999999997 1.06199 -0.00020892849999999997 -0.60254799999999997 8.383530000000002e-05 3.0643750000000003e-05 -2.4419499999999998 4.5510850000000002e-05 0.0014416350000000004 2.5770550000000005e-06 1.9598050000000002e-06 -0.95020299999999991 7.0554250000000006e-05 1.0121250000000004 0.0031288150000000005
decision_type=2 2 2 2 2 2 2 2 2 2 2 2 2 2 2 2 2 2 2 2 2 2 2 2 2 2 2 2 2 2
left_child=29 2 10 -4 -5 -6 7 -7 27 -10 26 -12 -13 17 15 -15 -17 18 -14 20 23 -22 -16 24 -19 -25 -2 -8 -11 -1
right_child=1 -3 3 4 5 6 8 -9 9 28 11 12 13 14 22 16 -18 19 -20 -21 21 -23 -24 25 -26 -27 -28 -29 -30 -31
leaf_value=2.0578757311945264e-07 -0.00019629146595847983 0.0010488529860768244 -0.0023287584038410823 -0.0014739041028951762 0.00093569198284563354 -0.0002441328462252083 -0.00011689396196743474 -0.002789805189095205 0.0019983389421563166 -0.00046975226869835755 0.0025570333853829653 -0.001647792618659878 -0.00034609140270346213 -0.00031868811323813666 -0.0019840084802819464 0.0055851721316755101 0.00076078357920050625 2.1871105092730374e-05 -0.002608593760634817 0.0017666416167048738 -0.0016930044692520414 7.3766210748701651e-05 -0.00020248658914604912 -3.1580643689119109e-05 0.0012438267942933316 -0.0018779935693601147 -0.001400189727974066 -0.0012415008382078904 0.00055304525837224607 0.0002599773230309034
leaf_weight=215747 44 21 23 30 36 30 58 20 26 50 20 20 59 89 21 26 25 683 21 20 31 29 23 43 37 20 32 31 30 288
leaf_count=215747 44 21 23 30 36 30 58 20 26 50 20 20 59 89 21 26 25 683 21 20 31 29 23 43 37 20 32 31 30 288
internal_value=0 -7.4638e-05 -8.95989e-05 -0.000381496 -0.000237486 -0.000105484 -0.000258473 -0.0012624 -1.05548e-06 0.0004251 -1.11648e-05 3.39032e-05 -1.00921e-05 1.89709e-05 0.000486682 0.000970506 0.00322028 -7.22897e-05 -0.000939998 8.14673e-06 -3.35732e-05 -0.000839065 -0.00105276 2.81503e-05 8.46661e-05 -0.000617743 -0.000703196 -0.000508611 -8.62032e-05 5.52094e-07
internal_weight=0 1598 1577 334 311 281 245 50 195 106 1243 1167 1147 1127 184 140 51 943 80 863 843 60 44 783 720 63 76 89 80 216035
internal_count=217633 1598 1577 334 311 281 245 50 195 106 1243 1167 1147 1127 184 140 51 943 80 863 843 60 44 783 720 63 76 89 80 216035
shrinkage=0.05


Tree=365
num_leaves=31
num_cat=0
split_feature=40 22 25 2 21 43 37 43 19 21 40 23 23 15 20 43 3 5 19 40 20 28 13 6 32 20 0 37 0 5
split_gain=0.00357459 0.0298667 0.074967 0.0277782 0.122056 0.234338 0.111856 0.360631 0.174652 0.0715239 0.177901 0.0781634 0.113243 0.156888 0.0639687 0.0489623 0.0498389 0.0470191 0.0336593 0.0204214 0.0576393 0.181759 0.122436 0.131934 0.0689466 0.213903 0.289338 0.245817 0.170894 0.160933
threshold=-0.40968649999999995 3.1185250000000004 1.2242750000000002 -2.9192849999999999 0.77184100000000011 0.64319500000000052 1.3227200000000003e-07 1.3507450000000001 3.4442350000000003e-06 -2.0281699999999994 0.016888500000000004 -9.709209999999997 -8.2634549999999987 1.1777450000000001e-08 -6.5323449999999985 0.85052500000000031 -8.8592349999999982 1.3685250000000001e-05 1.1521400000000002e-06 -0.018010000000000078 16.002400000000005 0.69707500000000011 1.0260100000000002e-05 1.5668650000000001e-06 -1.0750649999999997 3.8241100000000006 5.6987450000000015 -8.7984999999999989e-06 6.9051650000000011 3.4028100000000007e-05
decision_type=2 2 2 2 2 2 2 2 2 2 2 2 2 2 2 2 2 2 2 2 2 2 2 2 2 2 2 2 2 2
left_child=-1 3 -3 4 6 -6 9 8 -8 10 -2 15 13 -13 -9 17 -17 -11 -14 20 24 22 23 -22 25 29 27 -27 -28 -5
right_child=1 2 -4 19 5 -7 7 14 -10 11 -12 12 18 -15 -16 16 -18 -19 -20 -21 21 -23 -24 -25 -26 26 28 -29 -30 -31
leaf_value=7.4866670463504268e-06 -0.00018447726200944127 0.00024771823306817919 -0.0036101500262157062 -0.0012462982316541636 0.0055072545148432258 -0.0010984507168077158 -0.0088754827844968534 0.003021321364940377 -0.0024867905937793222 0.0022040063603549829 0.0035956620998174025 -0.0055988250654081641 0.00031142406689996867 -0.00087507362887919999 -0.00070951037072248895 -0.0026363550511935806 2.9810370346799923e-05 -0.00060879644493070382 -0.0018618585392832757 3.9722289678310117e-06 0.0048926899178331953 0.0052635017277983332 -0.001964281044492964 -0.00035003406306107843 -4.022582258877085e-05 0.0066179579443716927 -0.0045342268787549236 0.00123463738294405 4.9991844357196794e-05 0.0013437505418985541
leaf_weight=92022 196 34 20 572 25 29 20 20 23 39 37 32 62 39 27 24 65 24 25 110795 20 21 40 30 13087 26 29 115 68 67
leaf_count=92022 196 34 20 572 25 29 20 20 23 39 37 32 62 39 27 24 65 24 25 110795 20 21 40 30 13087 26 29 115 68 67
internal_value=0 -5.4847e-06 -0.00118112 -4.97907e-06 -0.000322047 0.00195975 -0.000516702 -0.00214929 -0.00545828 -0.000246107 0.000415802 -0.000743607 -0.00152233 -0.00300409 0.000878078 6.58571e-05 -0.000689156 0.00113246 -0.000313082 -3.23466e-06 -5.99655e-05 0.00107491 9.75726e-05 0.00174706 -6.89866e-05 -0.000498169 0.000781332 0.00222731 -0.00132055 -0.000974728
internal_weight=0 125611 54 125557 687 54 633 90 43 543 233 310 158 71 47 152 89 63 87 124870 14075 111 90 50 13964 877 238 141 97 639
internal_count=217633 125611 54 125557 687 54 633 90 43 543 233 310 158 71 47 152 89 63 87 124870 14075 111 90 50 13964 877 238 141 97 639
shrinkage=0.05


Tree=366
num_leaves=31
num_cat=0
split_feature=26 15 7 43 16 16 0 38 4 35 32 18 16 26 17 5 10 21 18 13 2 33 3 2 3 0 15 28 12 3
split_gain=0.00354753 0.0220339 0.039332 0.0378034 0.0284734 0.180342 0.0909789 0.0456166 0.0606034 0.0209336 0.0172393 0.0698492 0.0142982 0.009113 0.0351166 0.0766246 0.122724 0.0757498 0.0500227 0.0418255 0.0337957 0.0286574 0.0220277 0.0134886 0.0116318 0.00932298 0.0163897 0.00889678 0.0810193 0.0450363
threshold=-0.062701649999999984 -8.2618699999999988e-07 4.1263950000000007e-05 -0.88227999999999918 3.6544900000000005e-06 8.7195400000000012e-06 -6.7140449999999996 0.18048750000000005 -0.88881949999999998 -0.27384599999999998 -2.4309499999999997 6.9277650000000016e-07 9.9131400000000028e-06 -0.028182349999999998 4.8443000000000012e-06 2.8166850000000003e-05 4.8753150000000003e-05 14.999250000000002 8.913810000000002e-05 -1.0950399999999997e-06 -2.7519549999999997 -0.00028142099999999996 -14.947699999999999 2.8060500000000004 -7.8588299999999993 8.2756850000000011 -5.9855799999999987e-07 -0.96676949999999995 -0.00093344999999999984 -16.266399999999997
decision_type=2 2 2 2 2 2 2 2 2 2 2 2 2 2 2 2 2 2 2 2 2 2 2 2 2 2 2 2 2 2
left_child=1 2 3 12 10 -6 -7 -8 -9 -4 11 -3 -1 14 18 16 17 24 20 -20 -2 -17 -22 25 -16 -24 -27 28 -15 -30
right_child=13 4 9 -5 5 6 7 8 -10 -11 -12 -13 -14 27 15 21 -18 -19 19 -21 22 -23 23 -25 -26 26 -28 -29 29 -31
leaf_value=-2.8684343505162925e-05 -0.0016528031528324416 -1.5024302833685275e-05 0.0012807791500535765 -0.0029651562213654295 0.005151453605919544 0.0031776854264171563 0.0008391297244186816 -0.0035530793023229182 -0.00019011761095670581 -0.0001492393570451736 -5.3154270438311474e-05 0.0033152799859817606 -0.0016529864336916945 0.0023625216310686104 -0.00028507124598692508 -0.002539517019645048 0.0046165624129571375 0.0032783148010639713 -0.00053838277589934684 -0.0036647913081105802 -0.0016479322047139842 -0.00026753575274986885 8.2021835092114308e-05 -0.0013115281731145281 0.00096557663637213413 -0.0014802386306525608 -5.7336300185802615e-05 9.196847554571363e-07 -0.0016512363023928559 -0.00015012903133535861
leaf_weight=42 39 74 33 22 21 20 37 21 37 114 435 20 20 31 97 23 20 20 23 20 23 35 430 21 23 28 73 214905 53 873
leaf_count=42 39 74 33 22 21 20 37 21 37 114 435 20 20 31 97 23 20 20 23 20 23 35 430 21 23 28 73 214905 53 873
internal_value=0 9.92849e-05 -0.000321409 -0.0011845 0.000245421 0.000890684 0.00011263 -0.000532644 -0.00140774 0.000171785 7.95306e-05 0.000693551 -0.000552653 -4.10448e-07 -0.000161445 0.000388446 0.000952837 0.000429447 -0.000343905 -0.00199253 -0.000228447 -0.00116849 -0.000131839 -6.86684e-05 -4.53637e-05 -1.95157e-05 -0.000451804 2.42307e-07 -0.00015187 -0.000236046
internal_weight=0 896 231 84 665 136 115 95 58 147 529 94 62 216737 875 218 160 140 657 43 614 58 575 552 120 531 101 215862 957 926
internal_count=217633 896 231 84 665 136 115 95 58 147 529 94 62 216737 875 218 160 140 657 43 614 58 575 552 120 531 101 215862 957 926
shrinkage=0.05


Tree=367
num_leaves=31
num_cat=0
split_feature=31 20 10 11 40 40 16 34 11 11 2 18 44 20 9 5 20 25 31 9 40 40 44 10 34 19 9 21 28 40
split_gain=0.00363309 0.0303502 0.112871 0.27929 0.234683 0.438152 0.0737427 0.0707353 0.0377143 0.0453154 0.0336677 0.164293 0.029835 0.0675702 0.317666 0.241354 0.110991 0.1459 0.0798408 0.0681045 0.0710438 0.257966 0.235861 0.306441 0.066014 0.122036 0.0508162 0.113722 0.193071 0.0700069
threshold=0.56878050000000013 3.8241100000000006 2.7034150000000006e-05 -4.4153649999999994e-05 -0.68744999999999989 0.354709 7.0201950000000013e-05 0.2810120000000001 -1.5142749999999998e-05 -2.6900849999999998e-05 3.0578500000000006 3.940980000000001e-05 0.87140500000000032 -4.0204099999999992 -3.4889849999999996e-05 1.3245850000000001e-05 -0.94259349999999986 23.183300000000006 1.0295050000000001 -1.7830049999999997e-05 0.354709 -0.10081500000000009 1.9491550000000004 3.6244450000000012e-05 0.56775900000000001 0.00064301250000000016 -2.2309399999999997e-05 1.0000000180025095e-35 0.068796600000000013 -0.027530000000000051
decision_type=2 2 2 2 2 2 2 2 2 2 2 2 2 2 2 2 2 2 2 2 2 2 2 2 2 2 2 2 2 2
left_child=-1 10 3 4 -3 -6 7 -5 9 -9 12 -12 -2 19 15 -15 18 -18 -17 20 21 -14 23 -23 -24 -26 27 29 -29 -16
right_child=1 2 -4 6 5 -7 -8 8 -10 -11 11 -13 13 14 26 16 17 -19 -20 -21 -22 22 24 -25 25 -27 -28 28 -30 -31
leaf_value=-2.0028420744382951e-06 3.2105450552569373e-05 -0.0006255591083082926 -0.00010770498844879383 0.0025099219941174464 0.0086561914386240665 0.00031665142617254917 0.0032232625246251703 -5.9168257100212098e-05 0.00011244667696873274 -0.0032248703292134455 -0.00016718981871491183 0.0037492059028175263 -0.00028310076053539686 0.0069483570110757389 -0.0022594908929683944 0.0022591824916016775 0.0049687424443471025 -0.00010243086992135352 -0.0013427794704603004 -8.7199254396759236e-05 -1.5520213049769203e-05 -0.010348970369086601 -0.00040481902631768208 -0.0019688759387160343 -0.0058549062168458477 -0.00081266388607521855 -0.00029231610363467553 0.0058385140252842881 1.5940446069829965e-05 0.0010777925178869433
leaf_weight=198549 13880 26 770 28 36 28 20 26 272 20 114 35 401 24 33 25 37 23 40 1927 312 20 64 24 20 30 760 24 35 30
leaf_count=198549 13880 26 770 28 36 28 20 26 272 20 114 35 401 24 33 25 37 23 40 1927 312 20 64 24 20 30 760 24 35 30
internal_value=0 2.08375e-05 0.000261488 0.000884907 0.00338027 0.00500764 0.000271292 0.000100658 -0.000111479 -0.00143556 4.31615e-06 0.000752769 -1.98119e-06 -0.000125544 0.000220474 0.00235582 0.00147405 0.00302479 4.25905e-05 -0.000253044 -0.000619959 -0.000957321 -0.00266847 -0.00577801 -0.0014683 -0.00282956 -0.000140258 0.00080699 0.00238444 -0.000670308
internal_weight=0 19084 1226 456 90 64 366 346 318 46 17858 149 17709 3829 1031 149 125 60 65 2798 871 559 158 44 114 50 882 122 59 63
internal_count=217633 19084 1226 456 90 64 366 346 318 46 17858 149 17709 3829 1031 149 125 60 65 2798 871 559 158 44 114 50 882 122 59 63
shrinkage=0.05


Tree=368
num_leaves=31
num_cat=0
split_feature=20 2 31 40 29 2 24 4 4 3 7 13 44 23 11 13 7 23 6 11 12 11 40 40 36 28 15 3 19 20
split_gain=0.00356892 0.0433708 0.172825 0.0204491 0.014422 0.0382408 0.0251161 0.0992207 0.205012 0.0550466 0.0231147 0.0213516 0.0176799 0.0556528 0.0350223 0.182779 0.210562 0.127142 0.0905715 0.0588965 0.0552717 0.0487733 0.0283742 0.148182 0.121894 0.0838496 0.0297568 0.0281252 0.0480349 0.0239333
threshold=-10.268199999999998 3.0333000000000006 2.3607850000000004 0.039429999999999972 0.13068350000000004 2.9891800000000006 0.42697150000000006 0.32420950000000004 0.8580755000000001 -9.2417599999999975 2.6356650000000005e-05 0.00010711200000000001 -0.8551649999999994 -14.35675 -3.8189799999999991e-05 4.6620650000000009e-05 3.8396450000000007e-05 -9.3927399999999981 -4.3754449999999995e-07 -8.8703799999999996e-05 5.4039850000000007e-05 -1.7190199999999997e-05 -0.32870999999999989 0.12375499999999996 0.14537000000000003 -0.10172349999999998 -7.057509999999999e-07 -10.051449999999997 0.0078562650000000029 -12.188449999999998
decision_type=2 2 2 2 2 2 2 2 2 2 2 2 2 2 2 2 2 2 2 2 2 2 2 2 2 2 2 2 2 2
left_child=1 4 3 -3 6 12 -1 10 -9 -10 -8 -11 14 -14 15 16 -6 18 19 -18 -20 -16 25 24 26 -15 -24 28 -17 -28
right_child=-2 2 -4 -5 5 -7 7 8 9 11 -12 -13 13 22 21 27 17 -19 20 -21 -22 -23 23 -25 -26 -27 29 -29 -30 -31
leaf_value=2.54142011227556e-05 -1.6158842468878895e-06 0.0012226019532785618 0.0048526471846423161 -0.00017293797409538892 0.0053023198122073983 -0.0017248211337885422 0.0011846787083266315 0.0046196031125220593 0.0016257423249714379 -0.0021764387657640326 -0.00012890550257028732 1.5390052634757013e-05 -0.002625013460055925 0.0030534284840383489 -0.00097292179104932486 -0.0031751516109999596 -0.0038309155707247559 0.0034992425618017272 -0.00039961156668141492 -0.00012094926224444466 0.0033176337648183106 5.4413206838539659e-05 0.00033719221306643612 -6.732243260125193e-05 -0.004490631015173027 -1.7060143007741258e-05 -0.0029522935765618017 -0.00024385625263122443 8.4158385579939941e-05 -0.00066263461060589186
leaf_weight=9405 204602 35 23 105 33 35 37 39 38 20 353 25 23 23 130 26 20 31 20 23 20 1038 29 639 35 668 21 92 20 25
leaf_count=9405 204602 35 23 105 33 35 37 39 38 20 353 25 23 23 130 26 20 31 20 23 20 1038 29 639 35 668 21 92 20 25
internal_value=0 2.53713e-05 0.000835849 0.000175947 1.51049e-05 -8.19312e-05 4.39799e-05 0.000385016 0.0016295 0.000224508 -4.28341e-06 -0.000958756 -6.2212e-05 -0.000184907 6.13275e-05 0.000558273 0.00178512 0.00076699 -0.00025349 -0.00184651 0.00145901 -5.99306e-05 -0.000145933 -0.000359114 -0.00205416 8.51414e-05 -0.000917139 -0.000748591 -0.00175806 -0.00170791
internal_weight=0 13031 163 140 12868 2951 9917 512 122 83 390 45 2916 1463 1453 285 147 114 83 43 40 1168 1440 749 110 691 75 138 46 46
internal_count=217633 13031 163 140 12868 2951 9917 512 122 83 390 45 2916 1463 1453 285 147 114 83 43 40 1168 1440 749 110 691 75 138 46 46
shrinkage=0.05


Tree=369
num_leaves=31
num_cat=0
split_feature=21 43 12 1 3 30 1 43 16 32 12 14 32 18 19 29 40 1 26 40 40 35 15 35 40 24 39 8 34 17
split_gain=0.00355807 0.056706 0.083449 0.0775677 0.0728672 0.290116 0.0825202 0.0998672 0.0772257 0.0789751 0.0765993 0.172914 0.0704217 0.0683411 0.0580302 0.125965 0.169923 0.0641177 0.0660335 0.0932214 0.151284 0.207001 0.116799 0.053895 0.0750005 0.0510965 0.0433153 0.0406036 0.0372973 0.0336648
threshold=-12.332599999999998 -0.19603999999999996 -2.9756999999999996e-05 -10.666549999999999 -8.1461699999999979 0.0088898900000000027 -2.5377799999999993 9.0491300000000017 -8.5618749999999992e-07 11.695650000000002 -3.4944649999999994e-05 9.7352650000000017e-05 0.027412250000000003 1.7723000000000003e-07 5.7772900000000012e-08 0.0054568950000000007 -0.079468000000000025 -6.820479999999999 -0.00011522749999999999 -0.22452634999999985 0.1751400000000001 0.0038880100000000003 3.828160000000001e-08 -0.0010673699999999998 -0.40968649999999995 -1.0674849999999998 0.17438400000000001 1.1288600000000001e-05 7.9426800000000002 7.9464600000000009e-08
decision_type=2 2 2 2 2 2 2 2 2 2 2 2 2 2 2 2 2 2 2 2 2 2 2 2 2 2 2 2 2 2
left_child=1 3 4 12 5 -3 7 8 -7 25 14 13 -1 -12 15 -6 -17 18 19 28 21 22 -21 24 -20 -10 -19 -25 -16 -22
right_child=-2 2 -4 -5 10 6 -8 -9 9 -11 11 -13 -14 -15 17 16 -18 26 23 20 29 -23 -24 27 -26 -27 -28 -29 -30 -31
leaf_value=-0.00019004440153366886 -1.085469472846367e-06 0.00632746854546265 -2.5782465223675598e-05 -7.3011613857525639e-05 0.00014179098164714075 0.0023066187649965287 -0.0019321306662347455 0.0033329776426853641 0.0016463678777012426 -0.0032288082619197668 -0.00022677829876253477 0.0058148156174320327 -0.0043859269324457275 0.0031481550481112213 -0.00063735170186687774 4.3827868522266333e-05 -0.0061770142474588717 -0.00019401581737952256 -0.00020796880094103975 0.0044883669626539233 0.0018909298136713917 0.0081546963361324755 -0.00079107102588750434 -0.002016115906444611 0.0029767781955199195 -0.0014461248595828446 -0.002700922353930461 0.00010085316844518 0.0018840551341418176 -0.00074023219020736804
leaf_weight=20 211535 26 1592 3336 140 35 26 38 34 20 60 20 20 20 55 23 21 96 36 22 20 20 20 25 38 22 21 241 20 31
leaf_count=20 211535 26 1592 3336 140 35 26 38 34 20 60 20 20 20 55 23 21 96 36 22 20 20 20 25 38 22 21 241 20 31
internal_value=0 3.76541e-05 0.000207458 -9.92554e-05 0.000536059 0.00139925 0.000667057 0.00112061 0.000363218 -0.000531768 0.000349298 0.00165653 -0.00228799 0.000616955 0.00019161 -0.000591622 -0.00292521 0.000415044 0.000649712 0.00140167 0.00230874 0.00396801 0.00197435 0.000233922 0.00142744 0.00043146 -0.000643973 -9.81101e-05 3.50235e-05 0.000291596
internal_weight=0 6098 2722 3376 1130 201 175 149 111 76 929 100 40 80 829 184 44 645 528 188 113 62 42 340 74 56 117 266 75 51
internal_count=217633 6098 2722 3376 1130 201 175 149 111 76 929 100 40 80 829 184 44 645 528 188 113 62 42 340 74 56 117 266 75 51
shrinkage=0.05


Tree=370
num_leaves=31
num_cat=0
split_feature=31 44 20 23 0 40 40 20 32 5 3 9 5 10 14 26 3 20 14 11 21 43 36 10 21 33 20 39 40 26
split_gain=0.00353106 0.0222932 0.0546312 0.093827 0.0572267 0.055996 0.350009 0.322327 0.312024 0.233653 0.229016 0.197698 0.169905 0.168916 0.146214 0.315418 0.128781 0.165784 0.109104 0.106392 0.157963 0.207127 0.0938233 0.0828271 0.145979 0.0778052 0.0752586 0.066901 0.0631664 0.469715
threshold=-0.32859199999999994 -0.5618949999999997 1.4617650000000004 -17.067199999999996 11.577900000000001 0.327845 -0.040859549999999939 14.554100000000002 2.2468500000000007 1.9027100000000003e-05 -10.105049999999997 1.1207750000000001e-05 1.4272700000000001e-05 2.5716400000000003e-05 0.00039568100000000005 0.00045620850000000006 -14.176449999999997 3.8922100000000004 0.00039568100000000005 9.9230750000000009e-05 -1.2295899999999997 -0.36707999999999957 0.046686200000000004 3.2100050000000004e-05 2.1804450000000002 2.4189300000000002e-05 5.0058800000000003 0.00082751800000000007 -0.10081500000000009 -0.00062257399999999998
decision_type=2 2 2 2 2 2 2 2 2 2 2 2 2 2 2 2 2 2 2 2 2 2 2 2 2 2 2 2 2 2
left_child=1 -1 3 -3 5 6 28 8 11 10 -9 -8 14 -14 15 -13 27 -18 -15 20 -20 -22 25 -19 -25 26 -21 -16 -4 -30
right_child=-2 2 4 -5 -6 -7 7 9 -10 -11 -12 12 13 18 16 -17 17 23 19 22 21 -23 -24 24 -26 -27 -28 -29 29 -31
leaf_value=1.6620322306264201e-05 2.4021289459519148e-06 0.0034918001982857405 -0.00011264185021108674 0.00013010538714903827 0.0018529432581191132 9.4956136604148414e-06 -0.0058206652915528557 -0.003285419524625121 0.0047653683956172168 -0.00054487434046512299 -0.010761428552214056 0.0002572828942599396 -0.0061594969678914089 0.00083861363056625816 -0.00021734651281104354 -0.0074658266850747175 0.0048047946440055965 -0.00045733406112003654 -0.0008764044919242972 -0.0033674929962892622 -0.001823847053068069 -0.0086920202209749605 -0.0043680592405144127 0.00010817973408848048 0.0052562018731675507 0.00097110363962122433 -0.00039095023482029021 -0.0040117097583355476 -0.0026319726555499787 0.0029935091514053059
leaf_weight=17532 190529 21 3542 1789 36 3329 22 21 23 22 20 39 21 42 26 20 25 100 34 35 21 23 20 40 21 46 54 21 59 100
leaf_count=17532 190529 21 3542 1789 36 3329 22 21 23 22 20 39 21 42 26 20 25 100 34 35 21 23 20 40 21 46 54 21 59 100
internal_value=0 -1.68859e-05 -7.82556e-05 0.000169108 -0.000135938 -0.000145205 -0.00026233 -0.00129102 -0.000951569 -0.00470174 -0.00693225 -0.00116713 -0.000993014 -0.00183718 -0.000137279 -0.00236072 0.000425738 0.00101663 -0.00150712 -0.00192995 -0.00343609 -0.00541403 -0.00117203 0.00042841 0.00188045 -0.000698539 -0.0015615 -0.0019127 -6.88768e-05 0.000906066
internal_weight=0 27104 9572 1810 7762 7726 4397 696 633 63 41 610 588 296 292 59 233 186 275 233 78 44 155 161 61 135 89 47 3701 159
internal_count=217633 27104 9572 1810 7762 7726 4397 696 633 63 41 610 588 296 292 59 233 186 275 233 78 44 155 161 61 135 89 47 3701 159
shrinkage=0.05


Tree=371
num_leaves=31
num_cat=0
split_feature=27 22 12 12 18 22 4 4 3 8 22 4 2 16 4 24 16 14 21 17 43 22 19 21 21 3 18 13 17 33
split_gain=0.00353889 0.00963653 0.0663113 0.0168546 0.0207747 0.066246 0.0182387 0.0531585 0.128263 0.113515 0.0692122 0.0343665 0.0648036 0.0346379 0.0726395 0.019727 0.0175858 0.0686522 0.014152 0.011877 0.0108622 0.037142 0.0108924 0.00970797 0.00722204 0.0114449 0.0100049 0.00835712 0.00760535 0.00699667
threshold=91.481750000000019 -2.2401749999999994 -0.00011213399999999999 -0.00015437249999999999 -0.00053704299999999996 -0.90610399999999991 5.1455300000000008 1.1247450000000001 -11.515449999999998 -7.9332349999999979e-06 1.5157700000000001 0.53444550000000013 1.2660400000000003 1.1066350000000001e-05 -1.7643199999999999 1.3511250000000004 3.6544900000000005e-06 0.00039568100000000005 0.77184100000000011 3.0701000000000005e-08 -2.39771 -0.90610399999999991 0.00043921550000000008 14.999250000000002 -5.4139599999999986 -13.443999999999997 1.0319200000000003e-05 0.00010299250000000001 -1.9423899999999999e-05 0.0031288150000000005
decision_type=2 2 2 2 2 2 2 2 2 2 2 2 2 2 2 2 2 2 2 2 2 2 2 2 2 2 2 2 2 2
left_child=29 2 -2 4 5 -3 7 11 9 -9 15 13 -13 16 -15 -10 23 -18 -8 -4 21 -6 -22 24 27 -26 28 -5 -27 -1
right_child=1 3 19 6 20 -7 18 8 10 -11 -12 12 -14 14 -16 -17 17 -19 -20 -21 22 -23 -24 -25 25 26 -28 -29 -30 -31
leaf_value=2.1960316678630297e-07 0.0029739892707584658 -0.0033386925026813209 -0.0012714586091793277 -8.1843598713943951e-05 0.002151108309299161 -0.00027723980712645284 -0.001735152716059087 0.00070955579756714759 -0.00027399019764863693 0.005972928375704214 0.0022884736720470756 0.000463662620895775 -0.003561372053809464 -0.00074332619231427094 0.0035181152430595834 -0.0020550639420848296 -0.0031910939657661531 0.0006206741858342732 -0.00016937707980339898 0.00012287170485641191 -0.0015263720197981456 -0.00042151453548130839 -0.00018444765509259249 -0.0003933854719964454 -0.00076979341383169716 0.0010388967622626903 0.0013337020165636205 -0.0010656658605591434 0.00011447081043071031 0.00024682878103274357
leaf_weight=215747 20 24 21 351 20 67 27 21 53 20 24 20 20 20 20 22 21 27 31 56 20 47 62 182 30 24 20 23 305 288
leaf_count=215747 20 24 21 351 20 67 27 21 53 20 24 20 20 20 20 22 21 27 31 56 20 47 62 182 30 24 20 23 305 288
internal_value=0 -7.41336e-05 0.000408866 -0.000105347 -0.0004894 -0.00108466 -3.22518e-05 9.50152e-06 0.000925355 0.00327705 -4.8581e-05 -0.000111119 -0.00154885 -5.49024e-05 0.00138739 -0.000796438 -0.000113592 -0.00104697 -0.000898273 -0.0002574 -0.000125854 0.000346433 -0.000511746 -6.56751e-05 1.35325e-05 0.000167355 0.000247912 -0.000142346 0.000181906 5.48362e-07
internal_weight=0 1598 97 1501 240 91 1261 1203 140 41 99 1063 40 1023 40 75 983 48 58 77 149 67 82 935 753 379 349 374 329 216035
internal_count=217633 1598 97 1501 240 91 1261 1203 140 41 99 1063 40 1023 40 75 983 48 58 77 149 67 82 935 753 379 349 374 329 216035
shrinkage=0.05


Tree=372
num_leaves=31
num_cat=0
split_feature=10 43 35 28 12 15 43 36 4 13 40 37 0 8 28 28 6 25 7 43 21 21 12 37 35 28 28 33 16 21
split_gain=0.0034568 0.0165548 0.0338424 0.0593711 0.179052 0.266875 0.0336057 0.0739039 0.0563243 0.0446832 0.0530169 0.0321182 0.0703314 0.0582463 0.132015 0.0558054 0.0591227 0.0522465 0.0460458 0.0458804 0.102932 0.0491873 0.145614 0.0454957 0.0722955 0.19358 0.364501 0.139911 0.226564 0.0879511
threshold=1.6290050000000002e-05 -0.465335 0.068482350000000011 -0.25901299999999999 -0.00019160099999999998 2.1189900000000004e-07 1.1065400000000005 -0.11978799999999999 -0.48550749999999993 -4.5687299999999992e-05 0.2761725000000001 -4.6526849999999994e-07 -3.6002049999999994 1.234225e-05 -0.0320142 -0.026643299999999998 -1.5941299999999999e-06 1.3881450000000002 2.2731700000000001e-05 -0.15760999999999911 -7.6068149999999983 -7.4922749999999985 -5.1784899999999993e-05 -1.1565649999999999e-07 -2.4344349999999997e-05 0.0040724050000000012 0.004545350000000001 1.0000000180025095e-35 -8.137874999999998e-09 -6.9314949999999991
decision_type=2 2 2 2 2 2 2 2 2 2 2 2 2 2 2 2 2 2 2 2 2 2 2 2 2 2 2 2 2 2
left_child=1 2 3 4 5 -1 7 8 -3 10 -8 12 -9 -14 -15 16 -13 -18 19 20 -17 22 -21 -20 25 29 -27 -28 -29 -25
right_child=-2 6 -4 -5 -6 -7 9 11 -10 -11 -12 15 13 14 -16 18 17 -19 23 21 -22 -23 -24 24 -26 26 27 28 -30 -31
leaf_value=0.0058480577953584564 2.4900647216528345e-06 -0.003181527418564656 -0.00032472736635218966 2.5722459423737723e-05 -0.0001188423157161416 -0.00049794447307552521 0.002730766459541201 -0.0025392083912335623 -0.00073921269427551636 -1.0358434514095967e-05 -0.00045774175874116328 0.0026583524344342521 -0.00013034323718655693 -0.0039386285758651373 0.00064420925715239722 -0.0039631745343467629 0.0023356006800644663 7.6581006329828145e-05 0.00015464216062312469 0.0048498093537763572 -4.6429151479270126e-05 0.00015551349903378069 0.00046821688498244771 -0.0011510460626296712 -8.1972428459953288e-05 -0.0077355078908149149 0.00024598794230838348 -0.0067794695077585251 -0.00092392804506503902 9.7462789385771765e-06
leaf_weight=37 188240 32 672 13712 145 30 32 39 90 10159 22 31 438 33 30 20 29 218 611 23 104 530 108 228 1265 25 79 24 53 574
leaf_count=37 188240 32 672 13712 145 30 32 39 90 10159 22 31 438 33 30 20 29 218 611 23 104 530 108 228 1265 25 79 24 53 574
internal_value=0 -1.5947e-05 2.18346e-05 3.85603e-05 0.000868904 0.00300656 -5.32153e-05 -0.000165687 -0.00137982 -2.73349e-06 0.00143174 -0.00013249 -0.000494015 -0.000334808 -0.00175632 -8.27139e-05 0.00060013 0.00034181 -0.000134808 0.000204386 -0.000678162 0.000369947 0.0012375 -0.000227941 -0.000331926 -0.000653585 -0.00213055 -0.00123232 -0.00274903 -0.000320255
internal_weight=0 29393 14596 13924 212 67 14797 4584 122 10213 54 4462 540 501 63 3922 278 247 3644 785 124 661 131 2859 2248 983 181 156 77 802
internal_count=217633 29393 14596 13924 212 67 14797 4584 122 10213 54 4462 540 501 63 3922 278 247 3644 785 124 661 131 2859 2248 983 181 156 77 802
shrinkage=0.05


Tree=373
num_leaves=31
num_cat=0
split_feature=27 13 13 23 4 4 33 41 41 43 6 30 4 26 41 41 23 17 4 24 7 36 0 1 41 41 19 10 13 11
split_gain=0.00330879 0.0232772 0.0332979 0.0296053 0.0252906 0.0969498 0.0969516 0.113983 0.228816 0.199074 0.334397 0.210723 0.0602353 0.0515796 0.0631013 0.294435 0.0361768 0.1221 0.0267296 0.0377079 0.0305132 0.0256211 0.0220277 0.0218956 0.0202747 0.056139 0.0800995 0.0194888 0.0187573 0.0295974
threshold=29.419400000000007 -7.1201799999999986e-05 -6.7776199999999983e-05 -15.138399999999999 -0.54650249999999989 -1.5265699999999998 -0.00016239399999999998 -0.81049899999999986 1.0338880000000001 -0.32314999999999999 -1.3813599999999996e-07 0.12582950000000004 -0.26743249999999991 0.0025695650000000007 -0.41158849999999991 0.32610899999999998 -23.590149999999998 -2.4916349999999997e-05 -2.0429399999999993 -1.2617699999999996 2.8402950000000006e-05 -0.11978799999999999 5.0081900000000008 3.7283150000000007 0.35345999999999994 -0.17681499999999981 0.0085594900000000012 4.1429900000000008e-05 -2.7794449999999996e-05 -0.00019804799999999998
decision_type=2 2 2 2 2 2 2 2 2 2 2 2 2 2 2 2 2 2 2 2 2 2 2 2 2 2 2 2 2 2
left_child=-1 3 -3 -2 5 16 -7 -8 9 10 -9 -11 13 14 -6 -16 17 -4 20 -20 -18 -15 -23 24 25 -22 -27 -10 29 -14
right_child=1 2 4 -5 12 6 7 8 27 11 -12 -13 28 21 15 -17 18 -19 19 -21 23 22 -24 -25 -26 26 -28 -29 -30 -31
leaf_value=1.0833628698435372e-06 -0.0020735580480661531 0.001641891507266943 -0.00084968871121028709 -0.00031159338661327913 -0.00012632471880717771 -0.00027810928148727936 -0.00027188760703286051 0.010880069360136987 -0.00064048183756732716 -0.00066804472597524229 0.0020399807425944701 0.0049376262227694197 -0.0022226242083706895 0.00098965796753943259 -0.0066206229729922836 -0.00043605318254532309 0.0018488612139481121 0.0036737923152171652 -0.0025743545010650103 -0.0003953606896521663 -0.00023746900427818363 -8.1936459512993082e-05 -0.0016092858561933101 0.00022619892518513978 -6.1211422135715198e-05 -0.0038017963424014549 0.00022444543539590781 0.0011961062164482427 -2.2200798419962909e-06 -0.00025474430904408866
leaf_weight=211114 29 30 35 134 59 130 73 20 52 38 23 30 20 39 27 67 20 26 26 84 159 90 32 281 303 30 21 20 4193 428
leaf_count=211114 29 30 35 134 59 130 73 20 52 38 23 30 20 39 27 67 20 26 26 84 159 90 32 281 303 30 21 20 4193 428
internal_value=0 -3.50841e-05 -1.99538e-05 -0.000625072 -2.78348e-05 0.000162224 0.000833884 0.00139857 0.00206492 0.00348887 0.00615165 0.00180505 -8.04222e-05 -0.000750638 -0.00140801 -0.00221247 -0.000100985 0.00107835 -0.000178842 -0.000910396 -7.99829e-05 -0.00012593 -0.000482553 -0.000128568 -0.000322895 -0.000700467 -0.00214393 -0.000130318 -3.50769e-05 -0.000342596
internal_weight=0 6519 6356 163 6326 1371 386 256 183 111 43 68 4955 314 153 94 985 61 924 110 814 161 122 794 513 210 51 72 4641 448
internal_count=217633 6519 6356 163 6326 1371 386 256 183 111 43 68 4955 314 153 94 985 61 924 110 814 161 122 794 513 210 51 72 4641 448
shrinkage=0.05


Tree=374
num_leaves=31
num_cat=0
split_feature=35 3 3 34 11 13 29 7 6 15 17 15 15 6 33 2 18 13 11 7 8 34 18 18 36 14 19 14 3 40
split_gain=0.00333586 0.0286201 0.0809221 0.0173768 0.0210859 0.0223427 0.0213219 0.0346811 0.0146956 0.031187 0.0374085 0.0154772 0.0102282 0.0480324 0.00801125 0.0472726 0.110586 0.0367314 0.0317963 0.0233695 0.017005 0.0103196 0.0214265 0.0176675 0.00754154 0.105264 0.211304 0.0650456 0.0736429 0.0906488
threshold=-4.3203749999999994 -15.040049999999999 -16.131449999999997 10.726400000000002 5.2422100000000008e-05 -5.5913199999999999e-05 -2.4419499999999998 4.0700250000000004e-05 6.6168600000000009e-07 -1.1660999999999999e-06 8.2035700000000018e-06 3.2364950000000003e-06 -5.5152549999999989e-06 -4.3754449999999995e-07 0.0031288150000000005 -2.2968949999999997 -9.6173349999999976e-06 -4.4225099999999991e-05 -6.7024799999999989e-05 4.0185600000000004e-05 2.6917900000000005e-05 3.2423100000000002 -0.0023843999999999996 -9.7133699999999988e-05 -2.2564299999999995 0.030258200000000002 0.0063939700000000014 0.0064150250000000004 -12.423099999999998 -0.19934349999999995
decision_type=2 2 2 2 2 2 2 2 2 2 2 2 2 2 2 2 2 2 2 2 2 2 2 2 2 2 2 2 2 2
left_child=1 2 -1 -3 5 -5 7 -6 12 10 -10 -11 13 -7 24 16 -16 -17 19 -19 21 -20 -23 -24 25 27 -27 -2 29 -29
right_child=14 3 -4 4 6 8 -8 -9 9 11 -12 -13 -14 -15 15 17 -18 18 20 -21 -22 22 23 -25 -26 26 -28 28 -30 -31
leaf_value=-0.00062278259350490332 -0.00018021003738553565 0.001276883814862231 0.0029399265881303502 0.0014440415259109021 -0.0029129068818292583 -0.00069339537596399038 -0.00018975393244010562 -0.00060061945577035661 -0.0031160645221957983 -1.6010874495254996e-05 -0.00016575014895005595 -0.0014902875960979146 -5.4024478718142875e-05 0.0024539316192782614 0.0045522188078030009 0.0016782137320279296 -4.1101481474470351e-05 -0.0025554450124036523 -0.00092162244732857553 -0.00047885410654305901 0.0014981416394584813 0.0015139202725777069 -0.0014752534776926042 7.1507580908776924e-05 4.2839214230810292e-07 0.005976347135729157 -3.9936623547705323e-05 -0.0010750744926626794 -0.0001528181524973639 -0.0055912656142027119
leaf_weight=37 433 20 28 23 24 27 85 50 22 162 21 20 333 22 20 31 38 20 28 42 20 24 20 240 215683 20 54 25 41 20
leaf_count=37 433 20 28 23 24 27 85 50 22 162 21 20 333 22 20 31 38 20 28 42 20 24 20 240 215683 20 54 25 41 20
internal_value=0 -9.74865e-05 0.000911923 -0.000178589 -0.000215483 -8.56287e-05 -0.000729999 -0.00135055 -0.00014359 -0.00046415 -0.00167521 -0.000178019 4.52216e-05 0.00071969 3.93078e-07 0.000203798 0.0015428 2.10637e-05 -0.000109321 -0.00114872 8.47839e-05 -5.816e-06 8.44748e-05 -4.7474e-05 -6.11783e-08 -0.000178125 0.00158609 -0.00042967 -0.00168567 -0.00308227
internal_weight=0 874 65 809 789 630 159 74 607 225 43 182 382 49 216759 483 58 425 394 62 332 312 284 260 216276 593 74 519 86 45
internal_count=217633 874 65 809 789 630 159 74 607 225 43 182 382 49 216759 483 58 425 394 62 332 312 284 260 216276 593 74 519 86 45
shrinkage=0.05


Tree=375
num_leaves=31
num_cat=0
split_feature=34 44 29 9 43 15 21 14 28 1 41 40 40 43 44 14 19 40 40 40 43 4 19 4 43 43 43 10 44 44
split_gain=0.00330644 0.0164198 0.023 0.0552003 0.192107 0.250396 0.0206541 0.0100259 0.0365404 0.083396 0.0175084 0.252055 0.0464294 0.019936 0.0100013 0.0146028 0.011308 0.0286568 0.188276 0.00774757 0.00635382 0.00599064 0.0411108 0.0053568 0.0061388 0.00493336 0.00572016 0.00459384 0.0165948 0.0436679
threshold=0.0037330700000000002 0.87140500000000032 -0.0028213899999999996 3.0195150000000005e-05 -0.026199999999999776 5.234035000000001e-08 6.1622250000000012 0.00010396350000000002 0.0036901250000000003 9.319485000000002 0.027234499999999971 -0.079468000000000025 0.039429999999999972 -0.054875 0.19419999999999996 0.00010873100000000003 8.167805000000002e-06 -0.058960000000000005 0.51872500000000021 0.10022550000000004 0.16841000000000064 -0.091821799999999981 9.7782250000000015e-08 0.095552850000000009 0.23546500000000006 0.27381999999999979 0.60048999999999852 1.6290050000000002e-05 0.46045500000000011 0.36284999999999995
decision_type=2 2 2 2 2 2 2 2 2 2 2 2 2 2 2 2 2 2 2 2 2 2 2 2 2 2 2 2 2 2
left_child=1 2 3 -1 5 -5 25 10 14 -10 12 -12 13 -4 21 -16 17 -17 -19 -14 -15 22 -9 24 -23 -6 -27 28 29 -2
right_child=27 -3 7 4 6 -7 -8 8 9 -11 11 -13 19 20 15 16 -18 18 -20 -21 -22 23 -24 -25 -26 26 -28 -29 -30 -31
leaf_value=-1.8343192354095787e-05 -4.3269646326222138e-05 2.2095893805144682e-05 0.0020089802026632244 0.00023468870174838232 0.00043223837010171137 -0.0072712530388380396 -0.0017169737701351552 -0.0017381027865164805 4.4285769293243745e-05 -0.0037173503736519947 -2.4036783412303916e-05 -0.0050006722563501593 -0.00090294004534371194 0.00057614323637086146 -0.001510955026738388 -3.9681491591316341e-05 -8.0375389575279197e-05 -0.0054768988726937098 -3.1957287872312203e-05 -1.2915580249241871e-05 -0.0002845201972219081 0.00048370269323980337 -4.3551758234904703e-05 -1.6737940107564108e-05 -7.5857851207496247e-06 -0.00095468050309136746 7.2548789108516177e-06 4.5801956404200005e-06 2.3045042488896648e-05 -0.00072622628988884737
leaf_weight=349 14116 8142 24 20 45 25 20 38 41 23 1187 26 25 317 22 142 551 20 77 1114 23 134 616 707 121 20 68 176159 13223 238
leaf_count=349 14116 8142 24 20 45 25 20 38 41 23 1187 26 25 317 22 142 551 20 77 1114 23 134 616 707 121 20 68 176159 13223 238
internal_value=0 -2.35973e-05 -8.82425e-05 -0.00039667 -0.00106352 -0.00393528 -0.000218883 -5.58482e-05 -0.000128273 -0.00130755 1.06032e-05 -0.000130708 0.000124649 0.000616233 -9.7188e-05 -0.000240346 -0.000204962 -0.00049219 -0.00115463 -3.24508e-05 0.000517922 -2.52545e-05 -0.000142012 5.41212e-05 0.000250581 6.39435e-06 -0.000211367 1.60959e-06 -1.73663e-05 -5.45936e-05
internal_weight=0 13897 5755 547 198 45 153 5208 2492 64 2716 1213 1503 364 2428 812 790 239 97 1139 340 1616 654 962 255 133 88 203736 27577 14354
internal_count=217633 13897 5755 547 198 45 153 5208 2492 64 2716 1213 1503 364 2428 812 790 239 97 1139 340 1616 654 962 255 133 88 203736 27577 14354
shrinkage=0.05


Tree=376
num_leaves=31
num_cat=0
split_feature=3 21 34 4 43 16 21 1 16 30 20 15 20 0 26 17 17 16 16 3 6 40 40 3 36 43 20 37 16 39
split_gain=0.003333 0.028561 0.109421 0.0793937 0.0440452 0.0212748 0.0117277 0.103887 0.0404773 0.0125743 0.0369525 0.0200174 0.0128941 0.00881314 0.00764173 0.0288418 0.0946429 0.0291922 0.0537176 0.0475452 0.0218283 0.0178202 0.0245451 0.00823364 0.0173886 0.00739564 0.0900078 0.0567083 0.181015 0.0103846
threshold=-5.5710999999999995 -15.424049999999998 0.34287850000000003 -0.48550749999999993 1.269409999999999 1.6824400000000002e-06 18.392150000000004 8.8482550000000018 7.0198000000000018e-08 0.064526950000000013 19.256550000000001 -2.5159149999999997e-06 -19.608449999999998 13.257850000000003 0.069955350000000013 -6.3032849999999992e-06 -2.4916349999999997e-05 0.00017885500000000004 1.0552950000000002e-06 -6.9704649999999999 -4.0493649999999993e-07 -1.0110337999999996 0.51872500000000021 -15.164099999999999 -0.96073299999999995 0.93421999999999994 -12.926599999999999 6.3729050000000018e-07 3.2990050000000008e-07 0.0027520250000000004
decision_type=2 2 2 2 2 2 2 2 2 2 2 2 2 2 2 2 2 2 2 2 2 2 2 2 2 2 2 2 2 2
left_child=14 2 -2 -4 -5 -6 9 13 -9 10 12 -11 -3 -8 -1 16 -16 18 23 20 -20 -22 -23 -17 -25 26 -14 -28 29 -29
right_child=1 6 3 4 5 -7 7 8 -10 11 -12 -13 25 -15 15 17 -18 -19 19 -21 21 22 -24 24 -26 -27 27 28 -30 -31
leaf_value=-1.8476223940979236e-06 0.004000723791181199 0.0011237570244142822 0.0032431468644062988 0.0017580402507205849 -0.0001504274404226529 -0.0018783329764846713 -0.0002878799565077215 0.0041372212464921175 0.00095613073557615285 -0.0015459992918828182 0.0016364133426603597 -0.00017483527387319691 0.002941486629237846 -0.0015283643519589012 -0.0004802062354700418 0.0008307560376124457 0.0027586960555602089 0.0011160691644951893 0.00023622004159343696 -0.0033444884074428543 -0.00029056246081988015 -0.0025687133575653816 -0.00052934235479915515 -0.0012219042464173126 -3.5653641887986271e-05 5.2554267806337668e-06 -7.770144476200623e-05 -0.0011513184708792322 0.0046751271193864307 0.00022276805257619842
leaf_weight=187345 21 26 20 29 163 20 45 20 20 29 35 324 28 21 67 23 34 34 35 22 33 36 25 34 338 27941 774 20 27 44
leaf_count=187345 21 26 20 29 163 20 45 20 20 29 35 324 28 21 67 23 34 34 35 22 33 36 25 34 338 27941 774 20 27 44
internal_value=0 1.55933e-05 0.000544565 0.000231723 -5.23734e-05 -0.00033927 1.10341e-05 0.000536007 0.00254668 9.1315e-06 1.27551e-05 -0.00028748 1.0786e-05 -0.00068258 -2.45535e-06 -0.000169643 0.000610117 -0.000305429 -0.000393947 -0.00119607 -0.000829675 -0.00122655 -0.00173291 -8.73121e-05 -0.000144074 9.78243e-06 0.000151427 6.11132e-05 0.0012418 -0.000206634
internal_weight=0 29607 253 232 212 183 29354 106 40 29248 28895 353 28860 66 188026 681 101 580 546 151 129 94 61 395 372 28834 893 865 91 64
internal_count=217633 29607 253 232 212 183 29354 106 40 29248 28895 353 28860 66 188026 681 101 580 546 151 129 94 61 395 372 28834 893 865 91 64
shrinkage=0.05


Tree=377
num_leaves=31
num_cat=0
split_feature=7 40 32 26 26 11 5 33 29 2 29 9 29 9 27 13 1 8 32 18 6 15 28 9 23 9 27 11 28 29
split_gain=0.00342022 0.0128101 0.010716 0.0111974 0.0841827 0.0217458 0.0212034 0.0627993 0.015919 0.0657508 0.0406246 0.0239862 0.0568837 0.0123867 0.0677994 0.0121321 0.031442 0.0150769 0.0123418 0.0448225 0.0151312 0.0108148 0.0290292 0.0509668 0.0114206 0.0102067 0.00844556 0.0247709 0.0132311 0.00805121
threshold=2.2278700000000004e-05 5.4411200000000006 20.036400000000004 6.5389250000000011e-05 6.5962400000000017e-05 0.00029283300000000005 2.1762900000000005e-05 -6.9762949999999992e-06 0.015602350000000003 -2.3232449999999996 0.014392250000000002 -6.226684999999999e-06 0.022351850000000003 1.3394150000000003e-05 0.14304650000000002 -7.7087449999999976e-06 -8.0658149999999988 1.6057000000000002e-05 -0.068837399999999979 1.1421250000000002e-05 8.812610000000001e-08 -2.4511349999999994e-07 0.015480150000000002 -3.8804849999999993e-06 -17.193949999999997 1.7606750000000002e-05 8.3686350000000012 1.5647500000000006e-05 0.10445350000000002 -0.013848099999999997
decision_type=2 2 2 2 2 2 2 2 2 2 2 2 2 2 2 2 2 2 2 2 2 2 2 2 2 2 2 2 2 2
left_child=1 2 3 8 -5 6 21 -8 10 -10 13 12 -11 15 -15 16 -1 26 19 20 -18 22 24 -24 -6 -23 28 -28 -17 -16
right_child=-2 -3 -4 4 5 -7 7 -9 9 11 -12 -13 -14 14 29 17 18 -19 -20 -21 -22 25 23 -25 -26 -27 27 -29 -30 -31
leaf_value=-0.002037667342392524 -1.0609081686353703e-06 0.0011898996478218276 -0.0010219758227928348 0.0029019825612758049 0.0011838988589824156 0.0012941664886106131 0.0030090972553201332 -5.6210588941625752e-05 -0.0030153722773234009 -0.0030141480144701073 0.0017979015276068822 3.7286484219392252e-05 -0.00022791199113978818 0.0031429617908725047 0.00074653241384881909 2.2012931304861373e-05 -0.0014165029988635069 0.0010744018333987109 -1.7282603294693578e-05 -0.0026903017877235209 0.00010241018629200811 6.9294110093022482e-08 0.00017636351077329737 0.0029021925127987441 -2.6942048104820739e-05 -0.0011092676783153452 -3.3742419382178924e-05 -0.0018723738470557889 0.0011562108495686866 -4.8734747830598273e-05
leaf_weight=23 211572 24 24 27 21 37 24 55 21 23 32 370 90 20 39 2332 20 34 417 21 91 1641 47 27 268 21 90 23 26 173
leaf_count=23 211572 24 24 27 21 37 24 55 21 23 32 370 90 20 39 2332 20 34 417 21 91 1641 47 27 268 21 90 23 26 173
internal_value=0 3.70332e-05 3.245e-05 3.66586e-05 0.000127525 9.25361e-05 7.14047e-05 0.000875022 -1.45761e-05 -0.000276516 2.49384e-05 -0.000157436 -0.000795022 7.79284e-06 0.000360099 -1.87704e-05 -0.000226539 2.86722e-05 -0.000150663 -0.000572023 -0.000171268 4.00537e-05 0.000287299 0.00117092 6.10429e-05 -1.39476e-05 1.42834e-05 -0.000407977 3.45189e-05 9.75644e-05
internal_weight=0 6061 6037 6013 2168 2141 2104 79 3845 504 3341 483 113 3309 232 3077 572 2505 549 132 111 2025 363 74 289 1662 2471 113 2358 212
internal_count=217633 6061 6037 6013 2168 2141 2104 79 3845 504 3341 483 113 3309 232 3077 572 2505 549 132 111 2025 363 74 289 1662 2471 113 2358 212
shrinkage=0.05


Tree=378
num_leaves=31
num_cat=0
split_feature=11 31 4 4 16 3 16 13 7 20 16 19 3 11 26 20 38 20 29 31 3 11 13 28 31 19 10 11 38 19
split_gain=0.00326645 0.0224931 0.0559395 0.0608471 0.0658998 0.103708 0.182641 0.131973 0.0897213 0.0586129 0.0503169 0.047103 0.042079 0.0335648 0.0330944 0.0291609 0.0236194 0.0191553 0.0160011 0.0525233 0.161919 0.029407 0.0334848 0.0461451 0.0190253 0.0547632 0.0176217 0.0122161 0.047822 0.0807333
threshold=-0.000119502 5.5507350000000004 -4.6178049999999988 6.913310000000001 -9.7420549999999983e-05 -16.558299999999999 -1.3281999999999998e-05 6.2308800000000016e-05 3.7146400000000007e-05 -9.9085449999999984 1.5710250000000004e-05 0.0039594400000000007 -12.288549999999999 -0.00019804799999999998 0.0010465900000000002 -11.277699999999998 -0.39553799999999995 3.0677450000000004 0.30041650000000003 2.7376000000000005 -15.396099999999999 -0.00013975599999999997 6.2308800000000016e-05 -0.00037084249999999992 2.3607850000000004 0.0029219050000000002 2.3474250000000003e-05 -0.00010809399999999999 -0.11222949999999998 0.00037934750000000005
decision_type=2 2 2 2 2 2 2 2 2 2 2 2 2 2 2 2 2 2 2 2 2 2 2 2 2 2 2 2 2 2
left_child=1 18 17 4 9 -6 7 -7 11 -4 14 -8 -11 15 -10 -12 -5 -3 19 24 -21 22 23 -20 -1 -26 -22 28 29 -2
right_child=27 2 3 16 5 6 8 -9 10 12 13 -13 -14 -15 -16 -17 -18 -19 21 20 26 -23 -24 -25 25 -27 -28 -29 -30 -31
leaf_value=1.0776215467748264e-05 -0.0041194913772051225 -0.00033486787122001261 0.0013716870156241824 -0.0021251206208641334 0.0045416160894092171 0.0055149045787402434 0.003894448651117273 0.00085792837620327447 -0.00064839541337278215 -0.0032814206409966574 -0.001865680855090349 0.00050396602503800141 -0.00017608763379447132 0.0019156838660516467 -0.0034023278637323531 0.00036380582764236765 7.0850821153726438e-05 -0.0020316279947846421 -0.0001791806908191315 0.0037656310432985745 0.001448373706152779 0.0011969240231776675 -0.00016385256815707274 -0.0025521105871303008 -0.0026678950111381711 0.00039608613631571645 -0.00015762674910290981 -1.1253430493446304e-06 -8.6964861630140639e-05 -0.00013723946296002916
leaf_weight=26685 20 80 27 24 22 32 20 29 24 20 22 21 24 21 20 44 25 21 42 38 20 29 236 40 25 35 117 188160 1675 35
leaf_count=26685 20 80 27 24 22 32 20 29 24 20 22 21 24 21 20 44 25 21 42 38 20 29 236 40 25 35 117 188160 1675 35
internal_value=0 1.60258e-05 0.000356774 0.000638074 0.000884998 0.00126011 0.00095027 0.00330093 0.000116605 -0.000462239 -0.000522261 0.00215786 -0.0015876 0.000174619 -0.00190018 -0.000379356 -0.00100473 -0.00068766 1.00774e-05 1.4426e-05 0.000877824 -0.000327287 -0.000466287 -0.00133671 8.77655e-06 -0.000880573 7.68259e-05 -2.34138e-06 -0.000134601 -0.00158533
internal_weight=0 27743 476 375 326 255 233 61 172 71 131 41 44 87 44 66 49 101 27267 26920 175 347 318 82 26745 60 137 189890 1730 55
internal_count=217633 27743 476 375 326 255 233 61 172 71 131 41 44 87 44 66 49 101 27267 26920 175 347 318 82 26745 60 137 189890 1730 55
shrinkage=0.05


Tree=379
num_leaves=31
num_cat=0
split_feature=33 44 4 41 38 1 21 4 4 44 41 42 5 21 15 41 20 16 33 1 42 41 29 4 37 44 25 13 13 21
split_gain=0.00335697 0.0228224 0.0404628 0.141529 0.117981 0.0878705 0.190845 0.0846319 0.161986 0.173746 0.188373 0.521689 0.314064 0.215344 0.245154 0.239346 0.337916 0.225265 0.184962 0.116008 0.0979781 0.21372 0.0930525 0.0815242 0.0768956 0.074075 0.131382 0.0824854 0.0709378 0.0977396
threshold=1.3939150000000002e-05 -0.8551649999999994 0.026035500000000007 5.6849350000000003 0.00055523300000000014 5.9655550000000011 1.0105000000000002 -1.5265699999999998 -0.36598199999999997 4.0845250000000011 0.70899650000000014 -0.079468000000000025 1.1738350000000001e-05 -3.2639049999999998 -3.5297349999999998e-06 -0.71931549999999989 4.9008950000000011 8.7195400000000012e-06 8.2405400000000009e-05 -3.3144899999999997 0.30085850000000008 -0.039869999999999954 0.16279950000000001 1.0000000180025095e-35 6.710375000000001e-07 -0.52047500000000058 9.4910900000000016 -3.5841599999999997e-06 -3.5841599999999997e-06 -4.5569299999999986
decision_type=2 2 2 2 2 2 2 2 2 2 2 2 2 2 2 2 2 2 2 2 2 2 2 2 2 2 2 2 2 2
left_child=-1 -2 3 4 5 23 -7 -6 9 10 11 12 -9 17 15 -15 -17 20 -14 -16 21 -13 -21 28 -10 26 27 -26 29 -3
right_child=1 2 -4 -5 7 6 -8 8 24 -11 -12 13 18 14 19 16 -18 -19 -20 22 -22 -23 -24 -25 25 -27 -28 -29 -30 -31
leaf_value=3.0022595122571369e-06 1.0396660435033835e-05 -0.0023060798741982099 -0.00017062072497716786 0.0038485878481878903 -0.00016726312040225033 -2.3673274941060643e-05 -0.0062498525041883119 0.0011496974726371166 0.000352426663597348 -0.00038951400831696548 -0.00012868187844835863 0.0062429144268944152 0.0041760531172258201 -0.0002211368517323752 0.0037441299296915535 0.009349229087001731 0.0012994374825873159 -0.0036725424681581225 0.0094723047592731972 0.00093473372838713249 -0.00025231422220883815 -0.00013741895440034569 -0.002261369130844417 0.0018998162018760924 0.0048178654903704926 -0.00040045370939906331 -0.00082344971941220924 0.00060467394408381852 -0.00012479816777345414 -0.00051353006021977101
leaf_weight=176401 29656 97 5501 24 1636 32 20 37 911 241 213 21 32 21 30 32 22 39 34 122 128 35 28 40 26 979 46 21 856 352
leaf_count=176401 29656 97 5501 24 1636 32 20 37 911 241 213 21 32 21 30 32 22 39 34 122 128 35 28 40 26 979 46 21 856 352
internal_value=0 -1.28444e-05 -7.23847e-05 1.65695e-05 1.37061e-06 -0.000401605 -0.00241836 0.000122332 0.000279317 0.000786355 0.00114326 0.00160957 0.00483719 0.000914076 0.00190652 0.00430825 0.00606968 -0.00022078 0.00690443 0.000905795 0.000510844 0.00225521 0.000338128 -0.000323633 1.4675e-05 -0.000272351 0.00107617 0.00293538 -0.000391785 -0.000900785
internal_weight=0 41232 11576 6075 6051 1397 52 4654 3018 1035 794 581 103 478 255 75 54 223 66 180 184 56 150 1345 1983 1072 93 47 1305 449
internal_count=217633 41232 11576 6075 6051 1397 52 4654 3018 1035 794 581 103 478 255 75 54 223 66 180 184 56 150 1345 1983 1072 93 47 1305 449
shrinkage=0.05


Tree=380
num_leaves=31
num_cat=0
split_feature=37 17 4 13 24 43 41 40 4 34 6 21 20 0 3 6 7 43 25 7 18 40 4 40 13 5 11 43 25 43
split_gain=0.00335371 0.0267763 0.0409926 0.0910947 0.0849448 0.152422 0.204474 0.475199 0.351658 0.286643 0.358264 0.256812 0.30028 0.309002 0.198806 0.31364 0.273586 0.23581 0.250675 0.235504 0.139791 0.0975508 0.175773 0.123038 0.158479 0.201304 0.120875 0.113212 0.172766 0.102681
threshold=-1.1071149999999997e-08 6.7803500000000016e-08 -0.076958199999999991 5.2534050000000007e-06 -0.12052649999999999 1.8568299999999998 -0.2272394999999999 0.02582950000000005 -1.0382099999999996 1.4642750000000004 3.1919750000000004e-07 -8.2769249999999985 1.8064750000000001 6.8280300000000009 -10.496249999999998 9.7954900000000019e-07 3.2333100000000004e-05 -0.61387499999999962 1.3625700000000001 3.3833000000000006e-05 -0.00087365449999999981 -0.12496499999999998 -0.88881949999999998 -0.040859549999999939 -2.3243949999999996e-05 1.1911150000000002e-05 -1.2385649999999997e-05 -0.36707999999999957 0.65801200000000015 0.51814999999999956
decision_type=2 2 2 2 2 2 2 2 2 2 2 2 2 2 2 2 2 2 2 2 2 2 2 2 2 2 2 2 2 2
left_child=-1 -2 4 -4 5 6 -3 11 20 10 -10 12 -8 -14 15 -12 -16 -18 -19 -17 -9 -13 -23 24 25 -24 -26 28 -25 -29
right_child=1 2 3 -5 -6 -7 7 8 9 -11 14 21 13 -15 16 19 17 18 -20 -21 -22 22 23 27 26 -27 -28 29 -30 -31
leaf_value=5.5525044189596141e-06 -4.2896089612515153e-05 -7.449647533856556e-05 -9.5670450558750503e-05 4.5360740945612495e-05 -1.9636076987620217e-05 -3.9299842528251367e-05 0.0076425280923064325 0.00099431371629841374 0.0086424861275912115 -0.0023181730994944398 0.0046742567185949734 -7.900625805316214e-05 0.00021155121369181127 0.0063117004210093558 0.0077193128491570761 -0.0047299225533676617 -0.0020567129763852184 0.0069496220201612086 0.001972381411663567 0.0014134475192687929 -0.0046422309907608325 -0.0023508989004444123 -0.0032357188698370013 0.0064305977558251478 0.0070746875159481241 0.0028362546284020377 0.0020565009244213192 0.00010055961156281062 0.00078440523849123908 0.0023673680964358419
leaf_weight=120889 33725 1232 18923 28993 8553 3043 23 22 29 24 38 1021 103 26 36 26 21 39 72 39 22 45 21 20 24 39 24 463 42 56
leaf_count=120889 33725 1232 18923 28993 8553 3043 23 22 29 24 38 1021 103 26 36 26 21 39 72 39 22 45 21 20 24 39 24 463 42 56
internal_value=0 -6.93828e-06 1.23048e-05 -1.03353e-05 8.41331e-05 0.000219635 0.000444311 0.000725265 0.00237027 0.00293986 0.0033605 0.000407822 0.00237942 0.00144104 0.00279527 0.00106571 0.00385566 0.00280194 0.00372114 -0.0010439 -0.00182396 0.000237063 0.000676717 0.000874457 0.00242419 0.000711064 0.00456559 0.000586383 0.00260576 0.000345148
internal_weight=0 96744 63019 47916 15103 6550 3507 2275 368 324 300 1907 152 129 271 103 168 132 111 65 44 1755 734 689 108 60 48 581 62 519
internal_count=217633 96744 63019 47916 15103 6550 3507 2275 368 324 300 1907 152 129 271 103 168 132 111 65 44 1755 734 689 108 60 48 581 62 519
shrinkage=0.05


Tree=381
num_leaves=31
num_cat=0
split_feature=41 41 10 36 20 37 37 3 36 20 14 10 34 23 26 4 43 43 35 31 34 11 41 40 43 37 31 7 3 10
split_gain=0.00378994 0.0517365 0.0737815 0.233215 0.153735 0.10355 0.130069 0.0932446 0.219421 0.473331 0.78346 0.149824 0.191109 0.222869 0.207395 0.290648 0.19975 0.262233 0.482266 0.210573 0.26052 0.220394 0.279673 0.459257 0.198215 0.160459 0.158062 0.130629 0.125317 0.105064
threshold=-0.27889399999999981 -0.016969000000000036 1.1666750000000001e-05 -0.09986109999999998 5.0058800000000003 5.1003550000000007e-08 1.0154450000000001e-07 -13.443999999999997 -0.066940849999999982 -2.9298699999999998 0.010316650000000002 5.3457800000000008e-05 0.19209600000000002 -17.067199999999996 -0.00026235999999999995 0.36048500000000006 2.8998450000000005 -2.3298099999999988 -0.026904649999999999 -0.24545849999999997 0.92011300000000007 -0.00010305049999999998 -0.057539999999999918 0.10022550000000004 -1.9691099999999999 -5.6654399999999984e-07 -0.18994699999999998 4.9491850000000003e-05 -15.510599999999998 1.6290050000000002e-05
decision_type=2 2 2 2 2 2 2 2 2 2 2 2 2 2 2 2 2 2 2 2 2 2 2 2 2 2 2 2 2 2
left_child=-1 2 3 -2 5 -5 -7 8 9 -4 -11 12 13 -10 15 24 17 27 -19 -20 21 -21 23 -23 -14 -15 -13 -16 -17 -24
right_child=1 -3 7 4 -6 6 -8 -9 11 10 -12 26 14 25 16 28 -18 18 19 20 -22 22 29 -25 -26 -27 -28 -29 -30 -31
leaf_value=7.4605263304579801e-06 -0.0046544905317880752 4.0734326290561663e-06 -0.0018209963102194975 -0.00024190025050898806 0.0036616559875255919 -0.0057492019812343644 -0.0010626846777628536 -0.00014819471334761241 -0.0053551196289481594 0.013202222497611297 0.00061026160450031359 -0.0045578999095596375 -0.00094060679289719297 0.0035154165999448463 -0.0017088841724146803 -0.00062573009417974399 -0.0017764381256087551 0.010310418639433227 -0.00066342480338385534 -0.00061161979988572145 -0.0020646032431977804 0.01271619292383548 0.0055883487464267424 0.0025913398829288782 -0.007053055942413353 -0.00015399808384893203 -0.00052753488483909053 0.0028164978612356052 0.0043398895542378782 0.0012865369100472891
leaf_weight=95517 35 111756 34 327 22 20 57 8422 20 21 30 31 36 31 52 24 35 21 45 21 20 24 22 21 21 765 113 23 27 40
leaf_count=95517 35 111756 34 327 22 20 57 8422 20 21 30 31 36 31 52 24 35 21 45 21 20 24 22 21 21 765 113 23 27 40
internal_value=0 -5.83549e-06 -0.000112726 -0.000731039 -0.00040869 -0.000630343 -0.00227996 -8.39305e-05 0.00028251 0.00274871 0.00579519 0.000131916 0.000308119 -0.000142075 0.00115849 -0.000739042 0.001791 0.00222304 0.00311468 0.00233172 0.0032424 0.00407162 0.00499077 0.00799126 -0.00319256 -1.10937e-05 -0.00139518 -0.0003211 0.00200313 0.00281299
internal_weight=0 122116 10360 461 426 404 77 9899 1477 85 51 1392 1248 816 432 108 324 289 214 193 148 128 107 45 57 796 144 75 51 62
internal_count=217633 122116 10360 461 426 404 77 9899 1477 85 51 1392 1248 816 432 108 324 289 214 193 148 128 107 45 57 796 144 75 51 62
shrinkage=0.05


Tree=382
num_leaves=31
num_cat=0
split_feature=40 40 20 8 5 13 14 28 13 8 20 40 9 20 2 43 14 21 6 28 0 0 20 20 2 36 13 17 21 8
split_gain=0.00340857 0.046693 0.0750929 0.209302 0.245824 0.165792 0.154389 0.0966923 0.0871053 0.0771231 0.22505 0.388097 0.894985 0.183545 0.808531 0.902652 0.543952 0.430637 0.386637 0.337432 0.196346 0.193454 0.397323 0.278979 0.60735 0.327266 0.50118 0.263641 0.256405 0.192262
threshold=0.2761725000000001 0.016888500000000004 -11.463149999999997 -7.1639649999999996e-06 2.1942650000000002e-05 -1.1714349999999999e-05 4.4272650000000011e-05 0.17278200000000002 -1.0115749999999997e-05 -6.4090999999999985e-06 8.6104250000000011 0.056773999999999998 3.1090750000000007e-05 -2.0176449999999995 -2.0077749999999996 0.93421999999999994 0.0030998800000000006 3.8437450000000006 -1.1060999999999997e-06 -0.011692949999999999 -4.8765649999999985 1.9180150000000002 3.4514100000000005 7.4294300000000009 -0.89221499999999987 -0.0099885099999999973 -1.5788349999999999e-05 8.3123850000000019e-07 -2.3555799999999993 -5.5639049999999989e-06
decision_type=2 2 2 2 2 2 2 2 2 2 2 2 2 2 2 2 2 2 2 2 2 2 2 2 2 2 2 2 2 2
left_child=1 -1 3 4 5 -3 -5 -8 -6 10 -4 12 -12 19 15 16 -15 21 29 20 -11 22 28 -23 -25 26 -26 -24 -16 -19
right_child=-2 2 9 6 8 -7 7 -9 -10 13 11 -13 -14 14 17 -17 -18 18 -20 -21 -22 23 27 24 25 -27 -28 -29 -30 -31
leaf_value=3.8484197669057639e-06 7.0700085317096923e-06 0.0081225401730534944 -0.0001807539833395181 0.0037560952543888404 -0.002444142583626672 0.0021133758314218457 -0.0001910588016345139 -0.0036954043120865456 0.0022223670460516588 -0.00030423648040481407 -0.013438041841921709 -0.00065292281854251795 -0.0013043282010767145 0.014357572723645719 9.3853945442204205e-05 -0.00027825913803798566 0.0044448419053468016 0.003592304012272507 0.0010848139018318473 6.084650283759433e-05 -0.0019501110244877847 -0.00060874881082278185 0.0074658209903110916 0.0067489031000641762 0.0099758641167898635 -7.3014054469010115e-05 0.0005523492881894886 0.00091412702571762598 0.0046158691884060814 0.010230086007213687
leaf_weight=111744 95596 24 3735 23 20 22 187 22 20 317 21 297 55 25 626 52 31 24 113 1492 423 1758 34 37 21 790 43 28 33 20
leaf_count=111744 95596 24 3735 23 20 22 187 22 20 317 21 297 55 25 626 52 31 24 113 1492 423 1758 34 37 21 790 43 28 33 20
internal_value=0 -5.53819e-06 -0.000107442 0.00064894 0.00275581 0.00524859 -0.000132055 -0.000559937 -0.000110888 -0.000131555 -0.000297705 -0.00146878 -0.00465706 -1.52197e-05 0.000203924 0.00446537 0.00887017 7.34343e-05 0.00263313 -0.000372113 -0.00124505 -4.58155e-05 0.000680319 -0.000243453 0.000477298 0.000205577 0.00364444 0.00450699 0.000320298 0.00660948
internal_weight=0 122037 10293 318 86 46 232 209 40 9975 4108 373 76 5867 3635 108 56 3527 157 2232 740 3370 721 2649 891 854 64 62 659 44
internal_count=217633 122037 10293 318 86 46 232 209 40 9975 4108 373 76 5867 3635 108 56 3527 157 2232 740 3370 721 2649 891 854 64 62 659 44
shrinkage=0.05


Tree=383
num_leaves=31
num_cat=0
split_feature=33 43 40 1 8 40 27 40 43 21 19 37 28 20 1 1 4 22 1 28 8 12 10 22 13 13 22 40 21 21
split_gain=0.00331526 0.0226492 0.0346619 0.163439 0.0317262 0.093332 0.233164 0.0386452 0.0287279 0.145727 0.0510547 0.166565 0.0579451 0.0358148 0.0277503 0.0332744 0.0565672 0.0869627 0.0269835 0.0665357 0.0264271 0.0669337 0.0715347 0.208388 0.0625172 0.110027 0.0946001 0.322867 0.0647652 0.0403403
threshold=1.3939150000000002e-05 0.85052500000000031 -5.6825599999999996 -0.89553799999999983 2.3740300000000004e-05 -0.17527649999999997 2.898495 0.02582950000000005 1.0196000000000003 -15.424049999999998 0.0037947300000000001 2.5183500000000006e-06 0.15361650000000002 -4.8420449999999997 -12.232849999999997 -9.3239949999999983 -0.36598199999999997 -1.1076049999999997 -8.9602949999999968 -0.18761549999999996 1.2777200000000002e-05 -3.2974799999999995e-05 1.5224150000000001e-05 -1.0309599999999997 -3.2904449999999993e-05 -2.7794449999999996e-05 -0.90610399999999991 -0.027530000000000051 -3.9665599999999999 -10.360699999999998
decision_type=2 2 2 2 2 2 2 2 2 2 2 2 2 2 2 2 2 2 2 2 2 2 2 2 2 2 2 2 2 2
left_child=-1 2 3 -2 14 -6 -7 -8 9 -3 12 13 -11 -12 -4 16 17 -16 19 -17 -20 22 23 -22 26 -26 27 -24 -29 -27
right_child=1 8 4 -5 5 6 7 -9 -10 10 11 -13 -14 -15 15 18 -18 -19 20 -21 21 -23 24 -25 25 29 -28 28 -30 -31
leaf_value=2.9835498169067468e-06 -0.0017988737954874525 0.0043790886505369357 -0.0017249593480664774 0.0045932918784092188 4.436270543241831e-05 -0.0057139040476478706 -0.0025305917957753297 -0.00017322358380534743 4.3827572713349527e-06 0.00010486524236327511 0.0020573681995821455 0.0052409834950594815 -0.0020896047524087513 -0.00027539557230990173 0.0045158171640997313 -0.003241836047685786 7.2621675962650052e-05 -9.1029379009341935e-05 -8.9652551552310566e-05 0.00013316352933088639 0.0059637891827151179 0.0028864593088325243 0.0071966619865799497 0.00017665835124976834 -0.0036415566238524066 -0.0011204473390534987 -1.4174360005920603e-05 -0.00052645194985616707 0.0023592877034388951 -8.4816598917475895e-06
leaf_weight=176401 20 22 25 20 275 27 21 101 29229 261 21 20 34 76 21 23 103 20 9595 40 20 22 22 70 23 92 222 59 29 719
leaf_count=176401 20 22 25 20 275 27 21 101 29229 261 21 20 34 76 21 23 103 20 9595 40 20 22 22 70 23 92 222 59 29 719
internal_value=0 -1.27644e-05 -7.21032e-05 0.00139721 -7.7201e-05 -0.000501683 -0.00150949 -0.000579 1.03786e-05 0.000414188 0.00020247 0.00108628 -0.000148057 0.000229636 -6.09939e-05 -5.72394e-05 0.000697858 0.00226857 -6.71822e-05 -0.00109898 -6.12038e-05 0.000152384 0.000104495 0.00146269 -3.40255e-07 -0.000231337 0.000579935 0.00177896 0.00042453 -0.000134623
internal_weight=0 41232 11569 40 11529 424 149 122 29663 434 412 117 295 97 11105 11080 144 41 10936 63 10873 1278 1256 90 1166 834 332 110 88 811
internal_count=217633 41232 11569 40 11529 424 149 122 29663 434 412 117 295 97 11105 11080 144 41 10936 63 10873 1278 1256 90 1166 834 332 110 88 811
shrinkage=0.05


Tree=384
num_leaves=31
num_cat=0
split_feature=21 1 12 16 23 16 39 24 12 17 8 0 40 1 19 16 37 10 5 29 15 35 19 40 38 41 2 40 35 43
split_gain=0.00332341 0.0155069 0.051057 0.0906773 0.077335 0.0766653 0.0342568 0.0384174 0.0460071 0.0422854 0.0129535 0.0347597 0.0724035 0.0306532 0.0724795 0.119296 0.0170849 0.0222511 0.0119472 0.0370617 0.0134427 0.0545565 0.0813633 0.15362 0.057911 0.0287668 0.129423 0.103941 0.0553037 0.138353
threshold=13.390900000000002 10.154350000000003 0.00012235900000000003 1.0552950000000002e-06 -6.6317949999999994 -7.8838099999999994e-07 0.00030061950000000002 0.090067850000000019 4.7453150000000012e-05 1.0181200000000001e-07 -1.7548399999999996e-05 2.9488950000000007 -0.027530000000000051 8.7485050000000015 9.2439950000000013e-05 1.0000000180025095e-35 -3.2566999999999998e-07 2.2759000000000004e-05 7.9290400000000026e-06 -0.58729449999999994 2.8964050000000007e-06 0.22099200000000002 0.0070645400000000011 0.077348000000000056 -0.55203199999999986 0.17390849999999994 1.6226100000000001 0.30085850000000008 -0.012144499999999997 0.23546500000000006
decision_type=2 2 2 2 2 2 2 2 2 2 2 2 2 2 2 2 2 2 2 2 2 2 2 2 2 2 2 2 2 2
left_child=-1 10 3 5 -4 -3 7 9 -9 -7 11 16 -13 18 15 -15 -2 -18 19 -12 25 -22 23 24 -23 27 -27 28 29 -20
right_child=1 2 4 -5 -6 6 -8 8 -10 -11 13 12 -14 14 -16 -17 17 -19 20 -21 21 22 -24 -25 -26 26 -28 -29 -30 -31
leaf_value=-7.6040060837276834e-07 -0.0011575020938180388 0.0029564288454130296 -0.0024952333298963771 0.0031860604717005646 0.0014230922411661597 0.00088920293078684296 -0.000479192971310547 0.00024053976410955545 0.0035502340456116058 -0.0019511521036474735 0.0024227664121315769 -7.4547939083622933e-05 -0.0029818616484672848 0.0050961991547540369 -0.00064936434947802425 -0.00023331832463727986 0.0018097055691760032 4.0172093972814882e-05 -0.0055436537995074801 3.5514749697540537e-05 -4.2494367157954467e-05 -0.0013821277451435371 -0.00026852165728969492 0.0054245622406015178 0.0023772650906175846 -1.1259697827734486e-05 0.0040403740038163962 -3.782049899830516e-05 -0.00068005760964452038 -8.7112040879825758e-05
leaf_weight=214386 25 25 34 31 20 38 134 21 21 20 21 61 33 21 35 21 20 159 26 72 456 21 55 25 20 1360 20 384 47 21
leaf_count=214386 25 25 34 31 20 38 134 21 21 20 21 61 33 21 35 21 20 159 26 72 456 21 55 25 20 1360 20 384 47 21
internal_value=0 5.02061e-05 0.000367627 0.000630482 -0.001044 0.000324601 4.34233e-05 0.000743729 0.00189539 -9.02298e-05 1.25924e-05 -0.000299681 -0.0010952 4.8315e-05 0.00103107 0.00243144 6.6882e-05 0.000237885 1.83813e-05 0.000574572 -2.86131e-06 0.000207952 0.00115178 0.00233537 0.000451722 -6.83293e-05 4.74596e-05 -0.000402615 -0.00189284 -0.00310562
internal_weight=0 3247 344 290 54 259 234 100 42 58 2903 298 94 2605 77 42 204 179 2528 93 2435 577 121 66 41 1858 1380 478 94 47
internal_count=217633 3247 344 290 54 259 234 100 42 58 2903 298 94 2605 77 42 204 179 2528 93 2435 577 121 66 41 1858 1380 478 94 47
shrinkage=0.05


Tree=385
num_leaves=31
num_cat=0
split_feature=44 23 29 3 13 3 20 35 12 28 24 40 3 0 20 13 16 5 0 0 18 43 38 10 11 40 13 1 34 38
split_gain=0.00332811 0.014825 0.0567715 0.0118792 0.199357 0.0126665 0.0961608 0.0456296 0.0190431 0.0299617 0.0234139 0.0356941 0.0113002 0.0237818 0.0210854 0.186297 0.381888 0.0517725 0.0529974 0.0879847 0.0559878 0.0196037 0.0317593 0.0947715 0.0740662 0.109572 0.0541038 0.0702637 0.0492315 0.0329908
threshold=-3.2113799999999997 -20.320949999999996 -0.0099490199999999977 -17.304849999999998 -3.3894799999999993e-05 -15.284849999999999 7.1058900000000014 0.48186100000000004 0.00029028150000000004 0.024548700000000003 -0.43859649999999994 -0.51801999999999981 -7.4497099999999987 -10.244649999999998 16.002400000000005 -1.7032199999999996e-05 1.0372650000000001e-07 8.6368500000000018e-06 10.606500000000002 9.5649650000000026 8.6855700000000027e-09 1.3091549999999998 -0.042600949999999992 1.2934400000000001e-05 2.4577100000000002e-05 -0.32870999999999989 1.7245800000000004e-05 0.90664800000000012 0.54644700000000013 -0.0070525449999999995
decision_type=2 2 2 2 2 2 2 2 2 2 2 2 2 2 2 2 2 2 2 2 2 2 2 2 2 2 2 2 2 2
left_child=3 2 -2 4 -1 6 7 8 10 -10 11 -5 13 -3 21 16 -16 -17 19 -19 -20 22 23 -14 26 -26 28 -28 -25 -24
right_child=1 12 -4 5 -6 -7 -8 -9 9 -11 -12 -13 14 -15 15 17 -18 18 20 -21 -22 -23 29 24 25 -27 27 -29 -30 -31
leaf_value=0.004725816053396557 -0.0008176857327767224 0.0012715476315713966 0.0028630399072426373 -0.00028530870055295632 -0.0015319352300554915 9.9886586131531438e-06 0.0025042739351712438 -0.0027510029570707545 -0.00034045274674389609 0.0019701585860639171 -0.00035902473323167112 -0.003203855201136321 -0.0038352415803092304 3.6999075359036345e-06 -0.00042914447311321403 0.0023685305703838823 0.0074780155119907044 -0.00023625460052211826 -0.0033619698407934408 0.0030476218966296901 -1.3013138959649952e-05 4.4793805827818367e-06 0.0002844133860805882 -0.0021610797691263384 -0.00012857874327814803 -0.0038548504265610763 -4.2043939013593285e-05 0.0027434686075240382 -0.00013320430938147185 -6.6858253562636344e-05
leaf_weight=20 22 37 20 22 35 68531 28 22 47 20 173 20 20 106890 37 20 26 280 26 22 24 20525 692 34 47 34 61 36 250 19612
leaf_count=20 22 37 20 22 35 68531 28 22 47 20 173 20 20 106890 37 20 26 280 26 22 24 20525 692 34 47 34 61 36 250 19612
internal_value=0 -4.20916e-06 0.000935041 9.08276e-06 0.000743611 8.4961e-06 -0.000299595 -0.000557847 -0.000386749 0.000349282 -0.000616117 -0.00167509 -4.4745e-06 4.13862e-06 -2.65359e-05 0.000319755 0.00283413 -0.000106066 -0.000246668 2.96819e-06 -0.00175447 -3.01823e-05 -6.44088e-05 -0.000465541 -0.000319666 -0.00169269 -2.77627e-05 0.000991755 -0.000375978 -5.48862e-05
internal_weight=0 148715 42 68918 55 68863 332 304 282 67 215 42 148673 106927 41746 435 63 372 352 302 50 41311 20786 482 462 81 381 97 284 20304
internal_count=217633 148715 42 68918 55 68863 332 304 282 67 215 42 148673 106927 41746 435 63 372 352 302 50 41311 20786 482 462 81 381 97 284 20304
shrinkage=0.05


Tree=386
num_leaves=31
num_cat=0
split_feature=21 44 12 1 3 30 19 14 15 12 14 18 19 29 43 1 12 32 39 43 16 28 10 14 3 34 10 3 44 3
split_gain=0.00325303 0.0483868 0.0733528 0.0683933 0.0672876 0.257629 0.0801702 0.113336 0.1425 0.0695188 0.152195 0.0620051 0.0502902 0.111795 0.161124 0.0559811 0.0566398 0.0973665 0.164773 0.111994 0.076187 0.0640293 0.0484784 0.0396831 0.0378474 0.0377535 0.0285459 0.023553 0.0248244 0.0224694
threshold=-12.332599999999998 0.19419999999999996 -2.9756999999999996e-05 -10.856449999999997 -8.1461699999999979 0.0088898900000000027 0.0029219050000000002 0.0010249100000000002 4.4044100000000007e-07 -3.4944649999999994e-05 9.7352650000000017e-05 1.7723000000000003e-07 5.7772900000000012e-08 0.0054568950000000007 1.3895649999999999 -6.820479999999999 -7.7688949999999977e-05 0.16359550000000003 0.00070929100000000013 0.68409500000000023 1.5560450000000002e-06 -1.7331449999999997 3.6463750000000005e-05 0.00014136750000000003 -9.1449549999999977 14.135600000000002 2.0608650000000005e-05 -6.280479999999999 0.23534999999999953 -7.5517599999999989
decision_type=2 2 2 2 2 2 2 2 2 2 2 2 2 2 2 2 2 2 2 2 2 2 2 2 2 2 2 2 2 2
left_child=1 2 4 -3 5 -1 7 24 -9 12 11 -11 13 -6 -15 16 21 -18 19 -19 23 -14 -8 -20 -7 -17 -23 28 -5 -28
right_child=-2 3 -4 27 9 6 22 8 -10 10 -12 -13 15 14 -16 25 17 18 20 -21 -22 26 -24 -25 -26 -27 29 -29 -30 -31
leaf_value=0.0059745502092902409 -1.037897774002161e-06 -0.0022891574022599211 -2.5931857948345064e-05 0.0015819959117280909 0.00013307236211143651 -0.0020988004911487224 -0.0018578617733556969 0.00069958510729419595 0.0054091762512488741 -0.00021213200525115403 0.0054680603432643695 0.0030025500024203214 0.0026739559998358825 -0.0060707474997616379 5.7884970980618774e-06 -0.00019019301524091743 0.00015235669905361738 0.0073666836119082287 -0.00060651625510497705 0.0020753207574307451 0.0034759184687256656 -0.0020166124403476716 0.00086904547616930877 0.0017282152932628896 0.00087521692539271705 -0.0025306262353080372 0.0014720521137033676 -0.0014860982705582062 -6.638553356452501e-05 -0.00022121584712185623
leaf_weight=26 211535 35 1590 23 140 20 39 36 29 60 20 20 21 20 24 96 143 20 52 20 23 20 28 28 23 21 22 29 3291 179
leaf_count=26 211535 35 1590 23 140 20 39 36 29 60 20 20 21 20 24 96 143 20 52 20 23 20 28 28 23 21 22 29 3291 179
internal_value=0 3.60039e-05 0.000192962 -9.03808e-05 0.000500964 0.00133045 0.000640468 0.00148338 0.00280079 0.000321496 0.00156684 0.000591538 0.000171273 -0.000557858 -0.00275627 0.000379273 0.000598547 0.00107491 0.00199746 0.004721 0.00093978 3.55716e-05 -0.000718259 0.00021064 -0.000508047 -0.000610271 -0.000215135 -6.73604e-05 -5.49453e-05 -3.5883e-05
internal_weight=0 6098 2720 3378 1130 201 175 108 65 929 100 80 829 184 44 645 528 286 143 40 103 242 67 80 43 117 221 3343 3314 201
internal_count=217633 6098 2720 3378 1130 201 175 108 65 929 100 80 829 184 44 645 528 286 143 40 103 242 67 80 43 117 221 3343 3314 201
shrinkage=0.05


Tree=387
num_leaves=31
num_cat=0
split_feature=7 2 29 2 31 3 40 40 10 15 43 5 12 12 33 40 0 22 21 36 40 21 31 2 13 28 5 35 21 1
split_gain=0.00320417 0.0123231 0.00982505 0.0388351 0.0268175 0.0742101 0.0122932 0.117613 0.299694 0.130365 0.0509351 0.0241284 0.0233284 0.0230242 0.110208 0.0229214 0.0185864 0.0177356 0.0138169 0.0129771 0.0480091 0.0114703 0.0110795 0.0112824 0.0324303 0.00857228 0.023612 0.00782296 0.00767984 0.00739494
threshold=2.2278700000000004e-05 3.0794900000000003 0.015602350000000003 -2.4792649999999994 0.18225650000000002 -12.74245 -0.079468000000000025 -0.0054100000000001361 1.7151150000000003e-05 -1.2070449999999998e-07 -0.15760999999999911 8.1441900000000017e-06 0.00040324100000000009 -0.00010625949999999998 4.809870000000001e-07 -0.12496499999999998 0.89142450000000018 2.2191300000000003 14.003250000000001 0.033124950000000007 0.71352749999999998 6.8989050000000001 0.12620500000000004 2.2358750000000005 -1.9183499999999996e-06 0.044227750000000003 7.7170000000000025e-06 -3.541399999999999e-05 -13.388899999999998 -8.9602949999999968
decision_type=2 2 2 2 2 2 2 2 2 2 2 2 2 2 2 2 2 2 2 2 2 2 2 2 2 2 2 2 2 2
left_child=1 2 4 -4 6 -6 15 8 9 -8 -11 -12 13 14 -9 -1 -17 18 19 25 -21 27 -5 28 -25 29 -27 -13 -24 -15
right_child=-2 -3 3 22 5 -7 7 12 -10 10 11 21 -14 17 -16 16 -18 -19 -20 20 -22 -23 23 24 -26 26 -28 -29 -30 -31
leaf_value=-1.7089619257691616e-05 -1.0268526860469525e-06 0.0012749185448046774 -0.001700773640579821 -0.0011861776711330528 0.0036048051179386679 -3.1622570661559799e-05 0.0036706272876472212 -4.5418851493785777e-05 0.0071567042451351889 -0.0019060994176349291 0.0020108493498992176 0.00022280878786529813 0.0014712825891495284 0.0003310480871772123 0.0040844666160410274 -9.5167127111298299e-05 -0.002107172348041786 -0.0014576199798544364 -0.0013070540766057094 0.0026937367468019063 3.3048416108530634e-05 0.000971595790525455 0.00080251982186793256 -0.0019328616707800141 0.00011495869701571666 -0.0019607143127012977 3.1371134765304664e-05 -0.0011419652769940772 9.5760669517873156e-07 -2.078338764078923e-05
leaf_weight=2183 211572 20 37 21 20 47 28 84 20 30 20 21 28 161 20 22 24 21 20 21 88 21 31 29 58 21 51 21 829 2064
leaf_count=2183 211572 20 37 21 20 47 28 84 20 30 20 21 28 161 20 22 24 21 20 21 88 21 31 29 58 21 51 21 829 2064
internal_value=0 3.58445e-05 3.17423e-05 -0.000110997 6.02277e-05 0.00105388 4.68297e-05 0.000117763 0.00142886 0.000616403 -0.000140396 0.00049781 3.59141e-05 2.01594e-05 0.00074879 -4.03645e-05 -0.00114491 -1.08082e-05 1.71575e-06 1.2595e-05 0.000545658 1.74798e-05 -5.02305e-05 -2.50406e-05 -0.000567648 -1.27006e-05 -0.000549654 -0.000459578 2.98511e-05 4.67498e-06
internal_weight=0 6061 6041 1005 5036 67 4969 2740 161 141 113 83 2579 2551 104 2229 46 2447 2426 2406 109 63 968 947 87 2297 72 42 860 2225
internal_count=217633 6061 6041 1005 5036 67 4969 2740 161 141 113 83 2579 2551 104 2229 46 2447 2426 2406 109 63 968 947 87 2297 72 42 860 2225
shrinkage=0.05


Tree=388
num_leaves=31
num_cat=0
split_feature=41 40 28 20 19 6 25 3 44 43 36 18 5 1 1 6 32 16 20 21 3 29 21 20 15 12 34 40 6 20
split_gain=0.00321598 0.0377482 0.0871245 0.194729 0.212904 0.357063 0.248603 0.166711 0.188435 0.182759 0.30473 0.384143 0.545369 0.159495 0.190444 0.125172 0.111064 0.104617 0.167886 0.102926 0.099897 0.0879619 0.270744 0.236268 0.405762 0.226168 0.166568 0.214986 0.237133 0.247916
threshold=0.27484500000000006 -0.018010000000000078 -0.071195649999999985 -4.8420449999999997 1.8317000000000004e-07 -2.8071799999999994e-06 7.8655400000000011 -17.304849999999998 -1.2354849999999999 -0.99152500000000054 0.10225450000000001 8.9857900000000023e-06 1.4907900000000002e-05 -3.5464499999999997 -4.9009399999999994 2.8636100000000006e-07 4.7390700000000008 -8.6326249999999977e-06 1.3891550000000004 -2.0281699999999994 -6.4469949999999994 -0.0086682099999999974 -7.375894999999999 4.5525700000000011 3.0566700000000009e-07 -6.6568449999999981e-05 0.22523850000000004 -0.10081500000000009 -1.5941299999999999e-06 5.3163050000000007
decision_type=2 2 2 2 2 2 2 2 2 2 2 2 2 2 2 2 2 2 2 2 2 2 2 2 2 2 2 2 2 2
left_child=1 2 3 4 16 -6 -7 -5 13 17 11 12 -11 14 -9 19 20 -10 -19 -8 -1 22 23 24 -4 -25 27 -24 -29 -30
right_child=-2 -3 21 7 5 6 15 8 9 10 -12 -13 -14 -15 -16 -17 -18 18 -20 -21 -22 -23 26 25 -26 -27 -28 28 29 -31
leaf_value=-0.0056212394757742673 6.8192765276711103e-06 3.041175297496005e-06 0.00098808297989307916 0.0031121617041366257 0.0075160147855058319 0.004500986922197847 -0.00032844381916913252 -0.00043952366722250477 -0.0036853187905552874 -0.012228932252940562 0.00043053497203210416 -0.00052709756898419822 -0.0031749736698260772 -0.0043007565642862273 0.004305752320974336 -0.0022667510353094971 0.0011694410865727282 0.0024541799362990651 -0.0016954037558976919 0.0040295706821780186 -0.00079999086862829114 -0.00013917103919964182 -0.00015569588182139319 -0.0015309340102887068 0.0088871840752886028 0.0029039576242212207 -0.00044689362453877103 0.00247834205211773 0.0024587924571925317 -0.00071118412022663194
leaf_weight=22 96350 111070 37 23 22 33 42 262 26 29 37 34 39 24 23 51 21 39 65 20 21 7159 627 57 29 58 910 217 90 196
leaf_count=22 96350 111070 37 23 22 33 42 262 26 29 37 34 39 24 23 51 21 39 65 20 21 7159 627 57 29 58 910 217 90 196
internal_value=0 -5.41739e-06 -9.74073e-05 -0.00058746 0.000642968 0.00157784 0.000683048 -0.00106243 -0.00122855 -0.00219614 -0.00345651 -0.00486651 -0.00703622 -0.000386217 -5.65716e-05 -0.000431925 -0.00181108 -0.000848512 -0.00013931 0.00107737 -0.00326668 -5.38877e-05 0.000221008 0.00207433 0.0044589 0.000705794 5.65711e-05 0.000462016 0.00123201 0.000286361
internal_weight=0 121283 10213 833 232 168 146 601 578 269 139 102 68 309 285 113 64 130 104 62 43 9380 2221 181 66 115 2040 1130 503 286
internal_count=217633 121283 10213 833 232 168 146 601 578 269 139 102 68 309 285 113 64 130 104 62 43 9380 2221 181 66 115 2040 1130 503 286
shrinkage=0.05


Tree=389
num_leaves=31
num_cat=0
split_feature=21 44 12 12 2 40 43 8 9 12 38 31 12 43 13 24 23 40 1 32 12 1 24 30 23 22 17 3 20 13
split_gain=0.00318054 0.0147433 0.0720818 0.145741 0.0660108 0.113808 0.0332447 0.123455 0.0343807 0.027593 0.0256406 0.0270004 0.0184807 0.0940531 0.0332786 0.0616395 0.0451457 0.0693412 0.031361 0.0439417 0.0537264 0.0293029 0.0637114 0.0200447 0.0180979 0.0205642 0.0865881 0.0381695 0.0169392 0.0135994
threshold=13.390900000000002 -0.52047500000000058 0.00010937550000000001 0.00012870650000000001 1.7176300000000002 1.0064425000000004 0.93421999999999994 -1.5177349999999998e-05 3.7539700000000009e-05 8.9791600000000009e-05 -0.21186449999999998 -0.62584899999999988 0.00010937550000000001 -0.19603999999999996 0.00020297300000000004 0.73617500000000013 -8.2009299999999978 0.12375499999999996 9.8382400000000008 -0.027746149999999994 6.1414500000000013e-05 6.8996100000000009 0.33996650000000006 0.0020175450000000004 -10.914099999999999 -0.076877299999999996 -1.4690199999999997e-06 -12.126699999999998 3.0677450000000004 5.5544400000000006e-07
decision_type=2 2 2 2 2 2 2 2 2 2 2 2 2 2 2 2 2 2 2 2 2 2 2 2 2 2 2 2 2 2
left_child=-1 2 6 -4 10 -6 7 -2 28 -8 -5 -12 18 14 16 -16 17 -14 21 20 23 24 -23 -20 -3 26 -26 -28 -9 -29
right_child=1 12 3 4 5 -7 9 8 -10 -11 11 -13 13 -15 15 -17 -18 -19 19 -21 -22 22 -24 -25 25 -27 27 29 -30 -31
leaf_value=-7.4387664115892589e-07 0.0035374519991643368 -0.001179947167010737 0.004688089804723859 -0.0013512112099252752 0.0045385446176742731 -0.00049167145943184473 -2.2121098244089266e-05 -9.4449516367223709e-05 0.0018233978890566504 -0.0015406154039796563 0.001857629839796573 -0.0004705764235978043 -0.0036855259678001554 -0.0026466438955722905 0.00011412526919169772 0.0030052421767669288 -7.8615504330870108e-05 -0.00042636660304304 0.0014398604543034541 -0.00069551831036205258 0.003326747314012782 -0.00016175449987001589 -0.0033667977040749975 -0.00061981713921081144 0.0033246279922896065 1.8644429004854098e-05 0.0017077688332210528 0.00038230807828949765 -0.0017526000767247752 -0.001061058614342325
leaf_weight=214386 31 29 25 34 23 22 856 67 20 31 20 33 24 39 151 21 263 51 27 31 27 69 20 21 25 1170 25 25 20 47
leaf_count=214386 31 29 25 34 23 22 856 67 20 31 20 33 24 39 151 21 263 51 27 31 27 69 20 21 25 1170 25 25 20 47
internal_value=0 4.91151e-05 0.00018994 0.00118761 0.000524637 0.00207933 3.7126e-05 0.00075905 -4.5908e-05 -7.51914e-05 -0.000279513 0.000407992 -3.14924e-05 -0.000280053 -9.90788e-05 0.00046711 -0.000387199 -0.0014693 5.85208e-05 0.000887936 0.00154243 -3.83236e-06 -0.000881989 0.000538752 5.53319e-05 8.30587e-05 0.000700802 2.45584e-05 -0.000475634 -0.00055989
internal_weight=0 3247 1182 157 132 45 1025 138 107 887 87 53 2065 549 510 172 338 75 1516 106 75 1410 89 48 1321 1292 122 97 87 72
internal_count=217633 3247 1182 157 132 45 1025 138 107 887 87 53 2065 549 510 172 338 75 1516 106 75 1410 89 48 1321 1292 122 97 87 72
shrinkage=0.05


Tree=390
num_leaves=31
num_cat=0
split_feature=40 22 41 28 26 3 24 13 1 30 4 24 4 43 33 24 30 25 11 34 38 5 6 13 25 29 5 43 43 43
split_gain=0.00317623 0.0489941 0.0474511 0.150688 0.135667 0.161725 0.553256 0.380849 0.0998478 0.0911223 0.111101 0.221384 0.301165 0.101686 0.195977 0.247205 0.372134 0.233969 0.16161 0.119423 0.0893364 0.0816648 0.0561367 0.0600247 0.0398017 0.0312511 0.0299297 0.0290942 0.03494 0.0223227
threshold=-0.19934349999999995 3.1185250000000004 0.12358499999999996 -0.48753549999999996 -0.00031763949999999994 -10.496249999999998 0.50944100000000014 2.7325550000000001e-05 -6.4490099999999995 0.0007327525000000001 -0.30653749999999996 -0.46592299999999992 -1.8861499999999998 3.0695900000000012 3.6044750000000008e-05 0.41602950000000005 0.0064016150000000003 7.3223450000000012 -0.0001144375 0.15036250000000004 -0.0008031274999999999 2.0813300000000003e-05 8.9452500000000013e-07 3.081705000000001e-05 2.8026550000000001 -0.019172949999999998 1.2904050000000002e-05 -0.93682499999999969 0.85052500000000031 1.5956900000000005
decision_type=2 2 2 2 2 2 2 2 2 2 2 2 2 2 2 2 2 2 2 2 2 2 2 2 2 2 2 2 2 2
left_child=-1 2 -2 8 5 6 26 -8 -4 25 11 12 -11 14 15 18 -17 -16 -12 27 21 29 23 -21 -13 -6 -5 -20 -29 -7
right_child=1 -3 3 4 9 20 7 -9 -10 10 13 24 -14 -15 17 16 -18 -19 19 22 -22 -23 -24 -25 -26 -27 -28 28 -30 -31
leaf_value=6.6218736930776791e-06 -2.6628312181728549e-07 -0.0020967874422370058 -0.001037484147141017 -0.0024263081307435643 0.0017975271824318705 -0.0022708584276343964 0.011354227483719694 0.001940546280405085 -0.0056986146728741013 -0.0014961309679783882 0.0016726941023953259 -0.00043125397767616218 0.0056077750579051275 -0.00042530925189282909 -0.0088370591192506263 0.0065828498250440418 -0.0022298006644850834 -0.0016437858666624658 -0.00045141159204831638 -0.003394203319277784 0.0024525375724867141 0.0016116665329773796 -0.0021306046742081111 -0.0070473421273915017 -0.0025687928664930434 -0.00010016067737759506 3.9350310089503182e-05 -0.0037987453219968646 -0.0010322435133402906 -0.00072434172242148113
leaf_weight=98843 116138 28 27 20 22 35 22 21 20 25 25 98 37 269 20 23 25 26 40 22 30 33 21 23 28 1564 32 21 25 70
leaf_count=98843 116138 28 27 20 22 35 22 21 20 25 25 98 37 269 20 23 25 26 40 22 30 33 21 23 28 1564 32 21 25 70
internal_value=0 -5.50994e-06 -5.01689e-06 -0.000215278 -0.000164108 0.000911995 0.00256082 0.00675685 -0.00302094 -0.000286413 -0.000749526 0.000297315 0.0027433 -0.00111398 -0.00179757 -0.00118961 0.00199293 -0.0047713 -0.00205267 -0.0026654 -2.03741e-05 -0.000557964 -0.00426521 -0.00526136 -0.000906263 -7.38371e-05 -0.00090898 -0.00143763 -0.00229521 -0.00123985
internal_weight=0 118790 118762 2624 2577 263 95 43 47 2314 728 188 62 540 271 225 48 46 177 152 168 138 66 45 126 1586 52 86 46 105
internal_count=217633 118790 118762 2624 2577 263 95 43 47 2314 728 188 62 540 271 225 48 46 177 152 168 138 66 45 126 1586 52 86 46 105
shrinkage=0.05


Tree=391
num_leaves=31
num_cat=0
split_feature=31 20 3 13 13 3 40 40 14 11 12 2 22 22 43 20 9 16 41 40 9 23 43 41 40 40 0 23 4 9
split_gain=0.00310001 0.0269278 0.0752104 0.0445051 0.0983744 0.0621296 0.106291 0.293347 0.395024 0.0287147 0.0459704 0.027277 0.159239 0.0360951 0.0258838 0.052901 0.254245 0.173974 0.320986 0.545541 0.0587357 0.0763838 0.123419 0.0454901 0.101431 0.0660716 0.0444084 0.189318 0.0504867 0.0461662
threshold=0.56878050000000013 3.8241100000000006 -18.015749999999997 2.3721450000000003e-05 2.6751950000000004e-05 -9.7440149999999992 -0.68744999999999989 0.327845 0.028251800000000004 -0.00019804799999999998 0.00024379100000000001 3.0578500000000006 -2.9160599999999994 2.8297800000000004 -0.88227999999999918 -4.0204099999999992 -3.4889849999999996e-05 -2.3178849999999996e-05 0.22260499999999997 0.22528099999999995 -1.7830049999999997e-05 -10.262699999999999 -1.3362800000000006 0.40643499999999982 0.354709 -0.027530000000000051 -3.6002049999999994 -10.354649999999998 -0.48550749999999993 -7.5483199999999991e-06
decision_type=2 2 2 2 2 2 2 2 2 2 2 2 2 2 2 2 2 2 2 2 2 2 2 2 2 2 2 2 2 2
left_child=-1 11 -3 9 -5 6 -6 8 -8 -4 -11 14 -13 -14 15 20 17 -17 19 -19 21 22 23 24 25 -2 27 -18 -29 -28
right_child=1 2 3 4 5 -7 7 -9 -10 10 -12 12 13 -15 -16 16 26 18 -20 -21 -22 -23 -24 -25 -26 -27 29 28 -30 -31
leaf_value=-1.8500791636280139e-06 -0.0016500493283038615 0.0030781816726590952 -0.0019218365402775819 0.0040008289013348988 -0.00014396236701643041 -0.0002533356274064002 0.0087112021363533014 0.00014603898032184025 -0.000422893236973323 -7.4466715110438518e-05 0.0021980452107053009 0.0048286472237668932 -0.00041663870437878359 0.0015868639018474916 2.971967069973403e-05 -0.00040626091779794233 0.0041310727438558974 0.0097675246898742286 0.00019399981887861784 -0.00048229229994051692 -7.5863650501634995e-05 -0.00032675110632602244 -0.0048157235886416554 0.00014820251421167934 -0.00015379089800262593 -0.0053894898809847382 -0.0011169753324472421 0.0019369807472685353 -0.00085826716466770115 -9.8226579602441391e-05
leaf_weight=198549 27 23 20 20 122 196 29 87 20 686 23 20 100 29 13889 47 31 34 46 21 1921 684 24 58 56 21 136 20 84 610
leaf_count=198549 27 23 20 20 122 196 29 87 20 686 23 20 100 29 13889 47 31 34 46 21 1921 684 24 58 56 21 136 20 84 610
internal_value=0 1.92481e-05 0.000245925 0.000191775 0.000568928 0.000417743 0.000927554 0.00188877 0.004983 -5.34511e-05 -7.463e-07 3.68615e-06 0.00067737 3.37611e-05 -1.98209e-06 -0.000117245 0.000189192 0.00210674 0.00327616 0.00585396 -0.000230224 -0.00057106 -0.00146949 -0.000973748 -0.00159945 -0.00328605 -0.000132938 0.000701544 -0.000320719 -0.00028395
internal_weight=0 19084 1226 1203 474 454 258 136 49 729 709 17858 149 129 17709 3820 1029 148 101 55 2791 870 186 162 104 48 881 135 104 746
internal_count=217633 19084 1226 1203 474 454 258 136 49 729 709 17858 149 129 17709 3820 1029 148 101 55 2791 870 186 162 104 48 881 135 104 746
shrinkage=0.05


Tree=392
num_leaves=31
num_cat=0
split_feature=20 9 5 0 2 22 22 33 43 11 5 11 13 3 0 40 40 41 2 20 3 20 14 34 40 5 40 2 28 43
split_gain=0.00323186 0.0205674 0.0637138 0.293938 0.0304273 0.0653107 0.0621977 0.065515 0.0163799 0.059266 0.131021 0.357252 0.098178 0.203634 0.251723 0.0877066 0.202707 0.398608 0.247839 0.267316 0.0977241 0.0868247 0.0889043 0.0552151 0.0738515 0.0534987 0.0510545 0.166366 0.0803292 0.199126
threshold=-8.0887399999999996 -7.4788549999999987e-05 1.7356700000000003e-05 -9.2506749999999993 3.0333000000000006 -3.0099549999999993 2.8556750000000002 1.5735400000000003e-06 -0.15760999999999911 -1.6735099999999998e-05 8.7409800000000018e-06 -3.5635449999999991e-05 2.8875250000000004e-05 -12.126699999999998 -4.5705949999999991 -0.10081500000000009 0.14973499999999998 -0.039869999999999954 2.7316900000000004 -10.065 -9.6563599999999976 -14.223749999999997 0.00049938750000000007 0.0096317150000000008 -0.011175000000000155 7.7170000000000025e-06 -0.079468000000000025 -2.7703699999999993 -0.048971099999999997 2.1697850000000001
decision_type=2 2 2 2 2 2 2 2 2 2 2 2 2 2 2 2 2 2 2 2 2 2 2 2 2 2 2 2 2 2
left_child=1 2 3 -1 8 -6 -7 -8 -3 10 11 -10 13 14 -12 -15 17 18 19 -17 -19 -22 23 24 -23 -13 28 -28 29 -14
right_child=-2 4 -4 -5 5 6 7 -9 9 -11 12 25 26 15 -16 16 -18 20 -20 -21 21 22 -24 -25 -26 -27 27 -29 -30 -31
leaf_value=-0.00012032964477705665 -2.2908852117178001e-06 -1.6651782036445276e-05 -6.5596901402267105e-05 -0.0064926477732528427 0.0032363780864952357 -0.00023903730624517255 0.00061837138021170787 0.0038632430242917814 0.0067114056772472151 3.5526244502765089e-06 0.0075851887337524786 0.0019287958418059332 0.0054553020484846733 -0.00017767854199447205 0.00025189912412315607 0.009677327418273006 -8.4816939261377804e-05 0.0040403735951431803 0.00044382875906497549 0.0025126650499220451 0.0037377018062397837 -0.0022678222487835836 -0.0026542216368556104 0.0011092551422110899 0.00045337140800256749 -0.00045962806241846011 -0.0040285985355012601 -0.0003070893621707485 -3.151553138634662e-05 -0.0011240744774746101
leaf_weight=102 190678 13460 1323 22 21 161 60 21 29 9126 22 37 23 525 25 30 489 21 24 23 20 33 23 191 102 64 32 488 435 23
leaf_count=102 190678 13460 1323 22 21 161 60 21 29 9126 22 37 23 525 25 30 489 21 24 23 20 33 23 191 102 64 32 488 435 23
internal_value=0 1.62056e-05 -0.000167171 -0.0012509 2.6608e-05 0.000561632 0.000329526 0.00145963 2.10342e-05 6.40765e-05 0.000271802 0.00181985 0.000192226 0.000444376 0.0036845 0.000341549 0.00062669 0.00137172 0.00465926 0.00656813 0.000722637 0.000533822 0.000350219 0.000562189 -0.000211809 0.000415339 -0.000192673 -0.000536105 0.000178605 0.00216561
internal_weight=0 26955 1447 124 25508 263 242 81 25245 11785 2659 130 2529 1528 47 1481 956 467 77 53 390 369 349 326 135 101 1001 520 481 46
internal_count=217633 26955 1447 124 25508 263 242 81 25245 11785 2659 130 2529 1528 47 1481 956 467 77 53 390 369 349 326 135 101 1001 520 481 46
shrinkage=0.05


Tree=393
num_leaves=31
num_cat=0
split_feature=17 31 8 17 9 36 38 44 3 32 23 43 4 33 7 32 3 25 9 33 44 26 18 24 3 21 40 40 40 22
split_gain=0.00332327 0.0107378 0.0642436 0.167162 0.032763 0.0265926 0.0114183 0.0129265 0.0516392 0.0203434 0.0103579 0.0115242 0.0589074 0.0102575 0.0354267 0.00978408 0.00919056 0.035184 0.00861249 0.0069504 0.0076512 0.012545 0.00653241 0.0766202 0.0904111 0.116978 0.111124 0.226892 0.23979 0.464087
threshold=6.1187250000000013e-05 8.0070900000000016 -6.8290849999999985e-06 0.00012097400000000001 -5.4530299999999995e-05 -0.066940849999999982 -0.012723849999999998 0.81788000000000027 -16.870699999999996 11.695650000000002 -7.6703599999999996 0.31279500000000043 2.2539600000000006 2.2255350000000004e-05 7.9169600000000015e-05 -22.304899999999996 -13.009399999999998 5.8644050000000005 3.0195150000000005e-05 1.1486250000000002e-05 1.5644200000000008 -0.00031763949999999994 5.4626650000000007e-05 0.82362200000000019 -7.2857699999999985 -15.424049999999998 -0.30278099999999991 0.40779500000000007 0.14973499999999998 0.96059250000000007
decision_type=2 2 2 2 2 2 2 2 2 2 2 2 2 2 2 2 2 2 2 2 2 2 2 2 2 2 2 2 2 2
left_child=22 6 3 -3 -4 -5 7 8 -2 10 11 12 -10 19 18 -8 17 -13 -15 20 21 -9 -1 -24 25 -25 -27 28 -28 -30
right_child=1 2 4 5 -6 -7 15 13 9 -11 -12 16 -14 14 -16 -17 -18 -19 -20 -21 -22 -23 23 24 -26 26 27 -29 29 -31
leaf_value=1.604830394132195e-06 0.0019501890146453992 0.0044619836597121322 -0.0020062279194067029 0.00088614926621500808 2.6011388717961383e-05 -0.0011425237050813545 -0.0010275210781731982 -0.00030791517212560822 0.0025752945421397902 -0.0013184870924782622 -0.00089528941098251382 -8.515501352191607e-05 -9.346524303410742e-05 -0.00057788178077716897 -0.0026194638732704337 2.7503678068947705e-05 5.9753984643762198e-06 -0.002264597570386038 0.00063982569552536008 0.00054956271310705547 -0.00016576079093721837 -0.0017775674047425128 -4.2504871380808247e-05 0.0033508285547361235 -0.00049655156437453855 -0.00020209943829900624 0.0013428869416018578 1.5194692182810008e-05 0.010788375311815236 0.00039675738649252301
leaf_weight=168515 33 30 23 35 144 30 22 53 26 31 33 117 101 53 20 19578 924 22 20 30 550 20 26061 37 238 356 193 295 21 22
leaf_count=168515 33 30 23 35 144 30 22 53 26 31 33 117 101 53 20 19578 924 22 20 30 550 20 26061 37 238 356 193 295 21 22
internal_value=0 1.84738e-05 0.000336647 0.00137473 -0.000253878 -5.01613e-05 1.46203e-05 -9.817e-05 -2.18085e-06 -5.3559e-05 -2.14962e-05 2.735e-06 0.000452895 -0.000263771 -0.000755059 2.63195e-05 -5.10471e-05 -0.000430103 -0.000244263 -0.000193802 -0.000229598 -0.00071056 -2.06645e-06 -2.47923e-05 0.00037246 0.000596296 0.000481394 0.000939631 0.00209518 0.00547173
internal_weight=0 21895 262 95 167 65 21633 2033 1287 1254 1223 1190 127 746 93 19600 1063 139 73 653 623 73 195738 27223 1162 924 887 531 236 43
internal_count=217633 21895 262 95 167 65 21633 2033 1287 1254 1223 1190 127 746 93 19600 1063 139 73 653 623 73 195738 27223 1162 924 887 531 236 43
shrinkage=0.05


Tree=394
num_leaves=31
num_cat=0
split_feature=31 3 9 3 36 3 3 0 0 11 11 11 20 22 20 0 6 8 24 0 2 24 15 15 38 19 28 18 4 6
split_gain=0.00339824 0.0262426 0.0469686 0.0263854 0.053804 0.0250583 0.0541841 0.0144095 0.0430302 0.0178327 0.0607395 0.0142037 0.00785564 0.0073452 0.00581003 0.090245 0.0209212 0.0519042 0.168313 0.0458041 0.0223441 0.0301002 0.0264 0.0358047 0.0126927 0.0119485 0.009257 0.00770834 0.0065791 0.00500726
threshold=29.306750000000005 -15.284849999999999 -1.1728849999999997e-05 -14.267049999999999 1.8680450000000002 -13.243349999999998 -12.74245 -7.3054249999999987 -8.3447299999999967 -5.7102799999999991e-05 -0.00016577949999999997 -1.7190199999999997e-05 -14.223749999999997 2.5976000000000004 -19.608449999999998 -11.535399999999997 -3.5658699999999996e-06 -1.4759749999999999e-05 0.69957950000000013 -10.077899999999998 -2.2229199999999998 -0.55552099999999982 8.0636700000000017e-06 3.9881800000000008e-05 -0.39553799999999995 0.0070645400000000011 0.42036700000000005 -8.547639999999998e-05 0.18998850000000003 -4.7355299999999985e-06
decision_type=2 2 2 2 2 2 2 2 2 2 2 2 2 2 2 2 2 2 2 2 2 2 2 2 2 2 2 2 2 2
left_child=14 2 -2 4 -3 -5 -7 8 12 10 -9 -11 13 -8 15 -1 24 18 -18 -19 21 -21 25 -24 -17 26 27 -22 -28 -26
right_child=1 3 -4 5 -6 6 7 9 -10 11 -12 -13 -14 -15 -16 16 17 19 -20 20 22 -23 23 -25 29 -27 28 -29 -30 -31
leaf_value=0.0031592910575758051 -0.0030852954700822011 -0.0005091922546853312 -0.00014134840492347611 -0.0015588436929127576 0.0030740451390738601 0.0024673366425087724 -0.00015692603101969923 -0.00059784084066538332 -0.0025879222497513349 -0.0010885802949567071 0.002752588883807524 -9.5192067813364535e-06 0.00013865368472997452 -0.0013847838478146255 -6.173518421313036e-08 -0.0016764980740845204 -0.00031742739512992559 0.0022031282508661125 0.0053002761892275889 -0.0026336081730551088 0.0009747518148894111 -9.3916556527671806e-05 0.0026848346705082805 7.1184500771586932e-05 -3.750973818265872e-05 -0.0010486059238448634 -0.00024737830737435348 5.4093111997748095e-06 -0.0012598531470367951 -0.00077103570311967478
leaf_weight=24 20 22 42 28 20 21 29 31 22 33 24 402 74 21 216223 21 40 22 20 20 24 28 20 38 60 36 68 141 21 38
leaf_count=24 20 22 42 28 20 21 29 31 22 33 24 402 74 21 216223 21 40 22 20 20 24 28 20 38 60 36 68 141 21 38
internal_value=0 -0.000103579 -0.00109101 -1.93685e-05 0.00119711 -9.39556e-05 -3.15251e-05 -0.000114035 -0.000550036 1.58759e-05 0.000864165 -9.1379e-05 -0.000188475 -0.000672626 3.76877e-07 0.000153095 3.22429e-05 0.000179928 0.00155514 -1.74713e-05 -0.000140838 -0.00115212 -1.35056e-06 0.000972443 -0.000560978 -0.000196109 -7.5283e-05 0.000146405 -0.000486277 -0.000321938
internal_weight=0 789 62 727 42 685 657 636 146 490 55 435 124 50 216844 621 597 478 60 418 396 48 348 58 119 290 254 165 89 98
internal_count=217633 789 62 727 42 685 657 636 146 490 55 435 124 50 216844 621 597 478 60 418 396 48 348 58 119 290 254 165 89 98
shrinkage=0.05


Tree=395
num_leaves=31
num_cat=0
split_feature=25 36 43 25 43 43 27 21 43 24 37 7 36 22 5 19 10 2 39 40 19 41 20 25 21 14 20 19 7 3
split_gain=0.00331778 0.02446 0.161348 0.0214719 0.0226614 0.0893312 0.114279 0.158888 0.0549849 0.0437669 0.0389449 0.0338537 0.0271768 0.0166342 0.111808 0.0552851 0.0995887 0.0514529 0.0821721 0.109165 0.102627 0.0723143 0.218171 0.157466 0.10841 0.0653129 0.0589843 0.0750023 0.0576502 0.101284
threshold=2.3108700000000004 0.046686200000000004 3.2464850000000003 2.4608900000000005 1.0196000000000003 -0.23716000000000023 2.3608400000000005 -3.9665599999999999 1.0000000180025095e-35 -0.35379549999999998 -1.0243099999999997e-06 3.2764650000000005e-05 0.036905850000000011 -2.5049849999999996 6.9938750000000009e-06 3.865525000000001e-10 2.8428900000000005e-05 -2.8691749999999998 0.0012038450000000003 -0.079468000000000025 2.4445350000000004e-06 -0.33012499999999995 2.3761250000000005 3.1525300000000001 -10.360699999999998 0.00057278950000000004 -7.1032649999999995 1.6081950000000002e-07 5.3732400000000008e-05 -8.8592349999999982
decision_type=2 2 2 2 2 2 2 2 2 2 2 2 2 2 2 2 2 2 2 2 2 2 2 2 2 2 2 2 2 2
left_child=1 -1 -3 4 5 10 8 -8 -7 -9 -2 -10 -12 14 -5 16 -16 18 25 26 -21 -19 23 -23 -25 -17 27 -20 -26 -30
right_child=3 2 -4 13 -6 6 7 9 11 -11 12 -13 -14 -15 15 17 -18 21 19 20 -22 22 -24 24 28 -27 -28 -29 29 -31
leaf_value=2.6290666339134962e-06 -0.0019924313923402226 0.0048214782537024806 -3.2203711227048802e-05 0.0033568881811403954 -1.2372860190938928e-05 -0.0024635774922942455 -0.0055276458582678364 -0.0031032116258367234 0.0020330246175707663 -0.00038315942836925391 -4.5801731905954237e-05 -0.00018606797185544995 0.0017470511451723393 -1.5518784355305616e-05 1.0995093019600437e-05 0.0029634716473874111 0.0044574870089854812 2.4052308026148834e-05 -0.00093770820054818287 -0.0056661013129126773 -0.0012268043705262245 0.0034233072071518295 0.0057342490009475687 0.0030776750090668568 -0.00096734831426277068 -0.00069430183746310205 -0.001464808759308653 0.0032929264492122454 0.0030297983036750038 -0.00050000371615573796
leaf_weight=172216 25 20 119 26 879 21 30 21 23 50 539 68 22 39290 34 23 20 3717 22 23 30 39 21 26 140 26 50 20 30 63
leaf_count=172216 25 20 119 26 879 21 30 21 23 50 539 68 22 39290 34 23 20 3717 22 23 30 39 21 26 140 26 50 20 30 63
internal_value=0 3.16419e-06 0.000666168 -1.20448e-05 -0.000187558 -0.000380283 -0.0012572 -0.00247678 -0.000157394 -0.00118768 -6.15406e-05 0.000374802 2.45062e-05 -5.28998e-06 8.79559e-05 6.81164e-05 0.00165784 4.7822e-05 -0.000747567 -0.00134577 -0.00315329 8.60543e-05 0.000808504 0.000461388 1.53842e-05 0.00102261 -0.000304473 0.00107688 -0.000326331 0.000638642
internal_weight=0 172355 139 45278 1678 799 213 101 112 71 586 91 561 43600 4310 4284 54 4230 194 145 53 4036 319 298 259 49 92 42 233 93
internal_count=217633 172355 139 45278 1678 799 213 101 112 71 586 91 561 43600 4310 4284 54 4230 194 145 53 4036 319 298 259 49 92 42 233 93
shrinkage=0.05


Tree=396
num_leaves=31
num_cat=0
split_feature=42 42 5 32 34 14 1 1 20 42 10 39 20 44 44 20 32 39 44 11 20 44 28 44 21 42 16 35 15 34
split_gain=0.00329459 0.0463197 0.101164 0.137525 0.191254 0.440609 0.255912 0.207043 0.155877 0.232314 0.290653 0.556506 0.169651 0.149498 0.151194 0.140427 0.215122 0.192149 0.380424 0.34253 0.312093 0.266547 0.442496 0.552479 0.463653 0.322301 0.45648 0.496335 0.507841 0.299964
threshold=-0.19934349999999995 -0.018010000000000078 9.0806150000000018e-06 0.31163200000000008 0.12526550000000003 0.00017214350000000002 -9.4683649999999986 -7.376174999999999 -4.7705699999999993 -0.079468000000000025 3.4769000000000005e-05 0.0066980350000000006 13.501750000000001 0.054565000000000204 -2.1380549999999996 0.19035450000000001 0.22670350000000003 1.9415700000000001e-05 -1.4363049999999993 0.00010408000000000001 14.554100000000002 1.4428800000000004 0.13760400000000003 0.55624500000000021 1.0000000180025095e-35 -0.058960000000000005 1.5560450000000002e-06 0.0018651800000000001 -6.9195199999999976e-08 0.66511650000000011
decision_type=2 2 2 2 2 2 2 2 2 2 2 2 2 2 2 2 2 2 2 2 2 2 2 2 2 2 2 2 2 2
left_child=-1 2 -2 15 5 -5 -7 -8 9 10 11 -6 -10 14 -12 16 -4 -17 -19 20 21 22 23 25 -25 26 27 28 -20 -23
right_child=1 -3 3 4 8 6 7 -9 12 -11 13 -13 -14 -15 -16 17 -18 18 19 -21 -22 29 -24 24 -26 -27 -28 -29 -30 -31
leaf_value=6.744116322619586e-06 0.00044424755092753627 2.6197339418269467e-06 -0.00042522913976915632 -0.0092473890863662492 0.010661667958281572 0.0034797997298565784 -0.0069494520600710532 -0.00050231902913021092 -0.0010197598323374221 -0.0014749875033232504 -0.00079092554964777916 0.00064966667393621599 0.0029529397508927754 -0.0030699270264314561 0.0049010695292963646 -0.00021763820405528651 0.0021587038716286071 -0.00038220457397753556 0.0091137312259525066 -0.00032331248103480967 -0.0035604000133462252 -0.00083051931522003643 -0.0014776783861668299 0.013277957144600805 0.003548493861686439 0.0015162155231964332 -0.00053059952313497922 0.011145736262228133 -0.0016742311631484581 0.0055509560191157187
leaf_weight=98843 711 111070 2728 21 23 22 20 33 668 78 28 35 28 27 20 1746 83 615 20 243 25 113 54 24 25 219 29 36 24 22
leaf_count=98843 711 111070 2728 21 23 22 20 33 668 78 28 35 28 27 20 1746 83 615 20 243 25 113 54 24 25 219 29 36 24 22
internal_value=0 -5.61166e-06 -0.000124039 -0.000181687 -0.000723656 -0.00284589 -0.00105347 -0.0029352 -0.000499032 0.000691446 0.00196199 0.00461994 -0.000859939 -9.35007e-05 0.00158074 -9.1178e-05 -0.000348934 0.000135599 0.000561238 0.00125694 0.00190669 0.00214817 0.00275543 0.00336177 0.00831395 0.00262196 0.0048436 0.00679174 0.00322939 0.000209425
internal_weight=0 118790 7720 7009 1003 96 75 53 907 211 133 58 696 75 48 6006 2811 3195 1449 834 591 566 431 377 49 328 109 80 44 135
internal_count=217633 118790 7720 7009 1003 96 75 53 907 211 133 58 696 75 48 6006 2811 3195 1449 834 591 566 431 377 49 328 109 80 44 135
shrinkage=0.05


Tree=397
num_leaves=31
num_cat=0
split_feature=44 23 40 44 20 3 0 20 3 3 21 13 40 3 9 20 3 13 0 1 0 21 43 3 19 20 40 41 0 5
split_gain=0.00326253 0.0128944 0.0538425 0.0118019 0.0489212 0.130739 0.277633 0.225858 0.101257 0.0735223 0.0709355 0.215718 0.541595 0.0610322 0.209761 0.211257 0.252345 0.169036 0.115413 0.210911 0.0576126 0.0569157 0.0459893 0.0627805 0.154176 0.0753582 0.110804 0.697389 0.403246 0.386325
threshold=-3.2113799999999997 -20.320949999999996 -0.30278099999999991 -0.20255000000000042 7.2203350000000013 -11.042399999999999 4.3666400000000012 8.3060300000000016 -10.845499999999999 -12.423099999999998 -10.181949999999999 -1.2004249999999998e-05 0.056773999999999998 -8.7781499999999983 3.1873550000000002e-05 9.0309850000000029 -9.1936899999999984 1.3781400000000002e-05 6.6559100000000013 -1.5747349999999998 5.1648150000000008 4.2802450000000007 0.85052500000000031 -15.867949999999999 1.9639400000000003e-08 -8.175164999999998 0.14973499999999998 -0.026150000000000003 -7.3054249999999987 1.4696900000000002e-05
decision_type=2 2 2 2 2 2 2 2 2 2 2 2 2 2 2 2 2 2 2 2 2 2 2 2 2 2 2 2 2 2
left_child=-1 2 -2 4 22 6 -6 9 -7 -8 11 12 -10 14 18 21 17 -17 20 -20 -12 -16 23 24 -3 -25 27 28 -27 -30
right_child=1 3 -4 -5 5 8 7 -9 10 -11 13 -13 -14 -15 15 16 -18 -19 19 -21 -22 -23 -24 25 -26 26 -28 -29 29 -31
leaf_value=8.9928145858868837e-06 -0.00083511872005394912 0.0047766565540223477 0.0027493997843703257 6.6672645902045121e-06 -0.00014359042987642303 -0.0031945091237503224 0.0038613458916578179 0.0068183770871030449 0.0082158156777656973 9.854070740402677e-05 6.7902381387218249e-05 5.6061167360690238e-05 -7.5794218422810518e-05 -2.1558984050131396e-06 0.00014693498356387459 0.0097415585862195495 0.00038333866576539116 0.0033187127499695636 0.0015413003892241423 -0.0049920258051618788 0.0024921512014088876 0.0030127588380959684 -1.6638328015213585e-05 0.00010605876689196 0.00026262595383701523 -0.0095051062370839646 -1.6099393533026149e-05 -0.00021991227905149752 -0.00037389291256355745 -0.0039505938456913057
leaf_weight=68918 22 20 20 91838 135 24 21 32 31 34 427 267 54 9152 99 21 27 20 21 30 26 21 35430 2177 349 20 3639 4456 150 152
leaf_count=68918 22 20 20 91838 135 24 21 32 31 34 427 267 54 9152 99 21 27 20 21 30 26 21 35430 2177 349 20 3639 4456 150 152
internal_value=0 -4.16748e-06 0.000871795 -4.41494e-06 -2.23223e-05 7.54565e-05 0.00127586 0.00347847 4.93811e-05 0.00153525 5.70168e-05 0.000754448 0.0029482 3.20782e-05 0.000484839 0.00191017 0.00413672 0.00660846 -4.68318e-05 -0.00230183 0.000207042 0.000648454 -4.43301e-05 -0.000133824 0.000507289 -0.000156155 -0.000223974 -0.000382295 -0.00262943 -0.00217409
internal_weight=0 148715 42 148673 56835 10442 222 87 10220 55 10196 352 85 9844 692 188 68 41 504 51 453 120 46393 10963 369 10594 8417 4778 322 302
internal_count=217633 148715 42 148673 56835 10442 222 87 10220 55 10196 352 85 9844 692 188 68 41 504 51 453 120 46393 10963 369 10594 8417 4778 322 302
shrinkage=0.05


Tree=398
num_leaves=31
num_cat=0
split_feature=11 31 4 4 16 22 3 16 43 20 23 3 8 38 20 36 22 19 3 31 2 14 11 11 11 11 20 11 3 44
split_gain=0.00323173 0.0183203 0.0478954 0.0511289 0.0544567 0.0951333 0.185551 0.155626 0.115188 0.0492015 0.0488389 0.0405428 0.040508 0.022363 0.0175047 0.0152692 0.0146577 0.0132838 0.0152819 0.013091 0.0528271 0.0462399 0.018397 0.0559318 0.0671028 0.0177947 0.0140834 0.0795149 0.23545 0.0275088
threshold=-0.000119502 5.5507350000000004 -4.6178049999999988 7.2676700000000007 -9.7420549999999983e-05 -2.4279499999999996 -15.396099999999999 -1.3281999999999998e-05 7.4706100000000015 -9.9085449999999984 -8.7640249999999984 -12.288549999999999 -2.8574899999999999e-06 -0.39553799999999995 3.0677450000000004 1.20103 1.60782 0.011340200000000002 -9.095304999999998 11.617550000000001 2.8579150000000006 0.00034418150000000005 -9.3323749999999985e-05 -8.0872649999999985e-05 -6.7024799999999989e-05 -5.7102799999999991e-05 -19.608449999999998 -3.9555399999999991e-05 -8.1170399999999976 3.6866600000000003
decision_type=2 2 2 2 2 2 2 2 2 2 2 2 2 2 2 2 2 2 2 2 2 2 2 2 2 2 2 2 2 2
left_child=1 15 14 4 9 8 -7 -8 11 -4 17 -6 -11 -5 -3 -1 -17 18 -9 26 22 -22 -21 -24 -25 -26 27 28 -2 -29
right_child=19 2 3 13 5 6 7 10 -10 12 -12 -13 -14 -15 -16 16 -18 -19 -20 20 21 -23 23 24 25 -27 -28 29 -30 -31
leaf_value=1.3535631532517336e-05 -0.00029439892066875474 -0.00030571398614483771 0.0012539442438147879 -0.00214477731497027 -0.0031112975472261991 0.0050891578800099741 0.0041429567125423122 -0.0012747200875666118 0.0024133222736418252 -0.0030961742065119327 0.0019797894908281577 -0.00026146340266374558 -0.0001030983878431121 0.00010966384328309107 -0.0019277250103186816 -0.00028751295702468207 -0.0016985046680063186 0.00065153790951626438 0.0003531051365003112 -0.0012159264969846442 -0.00031987378421366555 -0.0036416972830193117 0.0024296049327114655 -0.0022722497493461043 0.0013907086062577689 -7.7161842572710132e-05 -1.8799484184607178e-06 -0.00023002676742437216 0.0062435922803290725 0.00071278298705909128
leaf_weight=27097 40 80 28 22 26 34 31 46 25 20 28 24 26 22 21 149 21 22 21 36 22 20 22 35 21 1228 188046 294 21 105
leaf_count=27097 40 80 28 22 26 34 31 46 25 20 28 24 26 22 21 149 21 22 21 36 22 20 22 35 21 1228 188046 294 21 105
internal_value=0 1.59404e-05 0.000323462 0.000583752 0.000796615 0.00114075 0.00175829 0.000993092 -0.000357811 -0.000398562 0.000158513 -0.00174338 -0.00140444 -0.00101756 -0.000642964 1.0572e-05 -0.000461812 -0.000414473 -0.000764506 -2.3289e-06 -0.000155543 -0.00190169 -0.000100895 -7.01587e-05 -0.00011299 -5.24819e-05 -1.20401e-06 0.000275117 0.00195638 1.80811e-05
internal_weight=0 27743 476 375 331 257 182 148 75 74 117 50 46 44 101 27267 170 89 67 189890 1384 42 1342 1306 1284 1249 188506 460 61 399
internal_count=217633 27743 476 375 331 257 182 148 75 74 117 50 46 44 101 27267 170 89 67 189890 1384 42 1342 1306 1284 1249 188506 460 61 399
shrinkage=0.05


Tree=399
num_leaves=31
num_cat=0
split_feature=25 36 43 41 41 4 24 24 43 43 43 35 33 20 4 18 43 43 4 14 4 4 16 43 20 20 21 43 34 20
split_gain=0.00317823 0.0221225 0.145594 0.0199696 0.258739 0.233946 1.31837 0.900313 1.12742 1.03465 0.945056 0.811844 0.681813 0.647539 0.585451 0.556886 0.423057 0.714673 0.420606 0.586682 0.330123 0.513595 0.310685 0.282432 0.670835 0.537975 0.365868 0.75188 0.360645 0.269152
threshold=2.3108700000000004 0.046686200000000004 3.2464850000000003 0.22260499999999997 -0.10141500000000002 0.14946850000000003 0.25201650000000003 -0.27366849999999993 1.8568299999999998 -0.99152500000000054 0.23546500000000006 -0.00030204249999999999 -1.8028799999999996e-05 7.2203350000000013 2.0063000000000004 6.9277650000000016e-07 2.1697850000000001 -1.3362800000000006 1.3297700000000001 0.00059245900000000015 -0.20278049999999997 -0.96247749999999999 1.9779150000000004e-07 -0.71725499999999964 -4.4743249999999994 3.3940200000000007 -6.9314949999999991 1.5525100000000001 0.87201550000000017 7.4294300000000009
decision_type=2 2 2 2 2 2 2 2 2 2 2 2 2 2 2 2 2 2 2 2 2 2 2 2 2 2 2 2 2 2
left_child=1 -1 -3 4 -2 7 16 15 9 -9 11 -11 -13 22 23 20 17 -7 19 -19 21 -6 -12 24 -8 28 27 -25 -26 -28
right_child=3 2 -4 -5 5 6 14 8 -10 10 13 12 -14 -15 -16 -17 -18 18 -20 -21 -22 -23 -24 26 25 -27 29 -29 -30 -31
leaf_value=2.5880210729461504e-06 2.3049264853018402e-05 0.0045808566390769558 -2.9775587692917628e-05 2.4929736398314931e-05 -0.00088829709981648019 -0.001074089926725242 -0.003030375526126089 -0.0014225232724067796 -5.0139509210053107e-05 -0.0051644950218033047 -0.0036745884773416167 -0.0079036029710550793 -0.019388305352601623 0.0024480768460004281 -0.0014110552017912734 -0.0059292017554980706 -0.00016399137007040577 -0.0044028778860886247 -0.0030924507823025735 -0.014054176548961551 -0.00083222549067065029 0.0017001159658550668 -0.010525476579732641 0.0018784190467081919 0.011140275453743969 0.0011544511769236785 9.2853522377837669e-05 0.01267805124502047 0.0038144758759049834 0.0030954136400513591
leaf_weight=172216 21435 20 119 20370 293 122 29 236 386 50 59 24 28 36 181 38 131 31 48 32 484 554 23 83 42 44 378 20 28 93
leaf_count=172216 21435 20 119 20370 293 122 29 236 386 50 59 24 28 36 181 38 131 31 48 32 484 554 23 83 42 44 378 20 28 93
internal_value=0 3.09694e-06 0.000633625 -1.17888e-05 -4.18175e-05 -0.000442169 0.000101007 -0.000752204 -0.00203873 -0.00372205 -0.00618882 -0.00971357 -0.0140877 -0.003142 0.0011299 3.90697e-05 -0.00243731 -0.00371545 -0.00661856 -0.00930512 0.000209464 0.000804715 -0.00559618 0.00177134 0.00375952 0.00548678 0.00127603 0.00397544 0.00820996 0.000685716
internal_weight=0 172355 139 45278 24908 3473 1262 2211 842 456 220 102 52 118 898 1369 364 233 111 63 1331 847 82 717 143 114 574 103 70 471
internal_count=217633 172355 139 45278 24908 3473 1262 2211 842 456 220 102 52 118 898 1369 364 233 111 63 1331 847 82 717 143 114 574 103 70 471
shrinkage=0.05


Tree=400
num_leaves=31
num_cat=0
split_feature=7 7 21 43 40 41 26 37 4 4 40 29 28 40 29 40 40 21 13 8 26 12 40 21 37 40 2 26 13 36
split_gain=0.00315494 0.0214885 0.0252338 0.0623702 0.0261859 0.335355 0.360391 0.426857 0.111095 0.2316 0.246787 0.063567 0.0569143 0.155398 0.0476495 0.0261087 0.0458871 0.0257852 0.0448135 0.0239721 0.0393481 0.0241116 0.124643 0.144737 0.0175666 0.25607 0.0170455 0.0165098 0.0150299 0.0144092
threshold=3.140425000000001e-05 3.0144500000000006e-05 14.003250000000001 0.20156999999999983 0.22528099999999995 -0.016969000000000036 -0.00015089299999999995 2.2463100000000002e-07 -0.18381849999999997 -0.088954349999999988 0.10022550000000004 -0.011286199999999998 -0.13224499999999997 -0.3562499999999999 -0.0067043449999999996 0.056773999999999998 0.10022550000000004 -12.050999999999998 1.1232050000000002e-05 -1.8563549999999996e-05 -6.9110449999999985e-05 0.00014174050000000004 -0.27744100000000016 4.6258850000000011 -1.1772349999999996e-06 -0.19934349999999995 -2.3732299999999995 -5.9348099999999995e-05 -8.7538749999999986e-05 0.011562400000000002
decision_type=2 2 2 2 2 2 2 2 2 2 2 2 2 2 2 2 2 2 2 2 2 2 2 2 2 2 2 2 2 2
left_child=1 28 4 -4 5 6 7 -3 14 10 -10 -11 13 -7 -8 27 -17 18 -14 20 -19 24 -23 -24 25 -21 -6 -13 -1 -26
right_child=-2 2 3 -5 26 12 8 -9 9 11 -12 15 17 -15 -16 16 -18 19 -20 21 -22 22 23 -25 29 -27 -28 -29 -30 -31
leaf_value=0.0013407448708243291 3.1802577829408832e-06 -0.010039044596791988 -0.00026115409587434659 0.0024359576196943903 0.001236117620490924 -6.1257492472725211e-05 0.0025989538204850677 -0.00032302843319484967 -0.0084329188152838953 -0.0031633318370871202 -0.0012563407870475204 0.0017347586220421364 0.0029405935569411668 -0.0045548108142191689 -0.00018716262557861402 -0.0027388917752946525 -0.00015533785694167498 -0.002835625159477786 1.6564722215518583e-05 -5.2966485701294255e-05 0.00016725110526749631 8.0480463732427514e-05 -0.005120363611994045 -3.6478695775648317e-05 8.585111436263427e-06 0.0058414786748471675 -2.7407803535441592e-06 -0.00019259677149238998 2.755323651335819e-06 -0.00039942814624042565
leaf_weight=21 170149 26 58 34 28 74 21 20 23 23 25 20 20 26 57 23 68 20 38 234 24 207 28 28 3035 20 3315 25 39710 233
leaf_count=21 170149 26 58 34 28 74 21 20 23 23 25 20 20 26 57 23 68 20 38 234 24 207 28 28 3035 20 3315 25 39710 233
internal_value=0 -1.13958e-05 -8.75387e-05 0.000735605 -9.74237e-05 -0.000178761 -0.00170805 -0.00581469 -0.00104523 -0.00165121 -0.00469512 -0.000732288 -5.17991e-05 -0.00122958 0.000562946 -0.000321156 -0.000808324 -2.14985e-05 0.00102485 -3.73482e-05 -0.00119769 -2.38594e-05 -0.000485673 -0.00257842 1.06259e-05 0.000411163 7.63554e-06 0.000664006 3.46252e-06 -2.05052e-05
internal_weight=0 47484 7753 92 7661 4318 331 46 285 207 48 159 3987 100 78 136 91 3887 58 3829 44 3785 263 56 3522 254 3343 45 39731 3268
internal_count=217633 47484 7753 92 7661 4318 331 46 285 207 48 159 3987 100 78 136 91 3887 58 3829 44 3785 263 56 3522 254 3343 45 39731 3268
shrinkage=0.05


Tree=401
num_leaves=31
num_cat=0
split_feature=17 31 20 13 7 4 33 9 40 40 19 32 28 8 37 40 43 34 37 18 12 14 14 7 14 32 23 40 40 43
split_gain=0.00310359 0.00962864 0.0608573 0.0471494 0.0921079 0.0260583 0.0100742 0.0143037 0.0132269 0.0258362 0.0179034 0.0114328 0.0482722 0.0857573 0.0119188 0.0175739 0.010048 0.014099 0.0065256 0.0899406 0.0345161 0.0482939 0.0947729 0.145298 0.0700792 0.0572899 0.0572739 0.0442713 0.131037 0.105006
threshold=6.1187250000000013e-05 8.0070900000000016 9.3032900000000023 -3.7996599999999988e-05 7.4390400000000012e-05 3.2200950000000002 -0.00037994999999999994 6.2607250000000023e-05 -1.1055550000000001 0.2761725000000001 0.023723250000000005 5.9680600000000004 -0.65584149999999986 8.0986800000000012e-06 -2.7510949999999998e-05 -1.0735979999999996 3.4885250000000001 18.825800000000005 -1.6329399999999996e-05 0.006463130000000001 -0.00012120199999999998 0.0078496150000000025 0.01464405 3.8223600000000004e-05 0.019024750000000003 -10.048129999999999 -13.824199999999998 -0.27744100000000016 0.2761725000000001 2.7388300000000005
decision_type=2 2 2 2 2 2 2 2 2 2 2 2 2 2 2 2 2 2 2 2 2 2 2 2 2 2 2 2 2 2
left_child=18 6 3 4 -3 -5 7 8 -2 10 -10 14 16 -14 15 -8 17 -13 19 20 27 -22 23 -23 -24 -26 -25 -1 29 -29
right_child=1 2 -4 5 -6 -7 11 -9 9 -11 -12 12 13 -15 -16 -17 -18 -19 -20 -21 21 22 24 26 25 -27 -28 28 -30 -31
leaf_value=-3.3186662290135125e-05 3.2577603317283491e-05 -0.00062246937913269828 0.0028360678375809749 -0.0015656799425355968 0.004065844308934175 1.2790365536727883e-05 6.7614512227009987e-05 0.00099272375402506443 -0.0024338887203063271 -0.00021883773782895374 -0.00048932877662082323 -2.513455605272706e-05 2.0939400991633667e-05 0.0042768227428314279 1.6183370419798856e-05 -0.0019038162748620379 0.00050897498105494478 -0.001460375266635145 -3.0074757421776159e-06 0.0032625602481526914 5.1584075322170511e-05 0.0051369536045448132 -0.0023076495854184031 -0.00097876064503977351 0.002583838693681173 1.0358735520352831e-05 0.0025802206307707822 -0.005171177411518459 0.00013386943406280277 -0.00042761492775753143
leaf_weight=317 103 22 22 31 20 167 26 20 29 92 20 77 29 20 21122 20 53 22 193369 22 1683 28 25 26 28 95 20 28 77 20
leaf_count=317 103 22 22 31 20 167 26 20 29 92 20 77 29 20 21122 20 53 22 193369 22 1683 28 25 26 28 95 20 28 77 20
internal_value=0 1.78528e-05 0.000319145 8.8427e-05 0.00161006 -0.000234344 1.42038e-05 -0.000292774 -0.000398143 -0.000712783 -0.00164019 1.79963e-05 0.000393312 0.00175803 1.44325e-05 -0.000789529 -4.66312e-05 -0.000344077 -1.99699e-06 8.0484e-05 5.06562e-05 0.000143017 0.000836179 0.00229718 0.000105678 0.000596192 0.000568623 -0.000347415 -0.0011443 -0.00319469
internal_weight=0 21895 262 240 42 198 21633 264 244 141 49 21369 201 49 21168 46 152 99 195738 2369 2347 1905 222 74 148 123 46 442 125 48
internal_count=217633 21895 262 240 42 198 21633 264 244 141 49 21369 201 49 21168 46 152 99 195738 2369 2347 1905 222 74 148 123 46 442 125 48
shrinkage=0.05


Tree=402
num_leaves=31
num_cat=0
split_feature=31 7 11 26 11 19 8 10 43 21 11 20 0 17 4 0 11 24 16 2 19 11 8 16 0 7 2 34 19 4
split_gain=0.00320846 0.0209976 0.083853 0.16517 0.0244264 0.0485241 0.0460719 0.0433891 0.0195989 0.0165824 0.00620162 0.00502999 0.0742808 0.0208193 0.0546454 0.042965 0.0218869 0.0225402 0.0217469 0.0173883 0.0138078 0.0337559 0.0146004 0.0113615 0.0112276 0.00913371 0.0117034 0.00771114 0.00786177 0.00772447
threshold=29.306750000000005 3.8223600000000004e-05 -5.7102799999999991e-05 0.0085896400000000008 -2.3324049999999996e-05 0.010140600000000001 -7.4956549999999995e-06 3.6244450000000012e-05 6.1209300000000013 -3.7984549999999992 -1.7778499999999996e-05 -19.608449999999998 -11.535399999999997 1.3092400000000001e-06 0.49902250000000004 -10.077899999999998 0.00010408000000000001 1.0406250000000001 2.6355450000000002e-05 -2.1984249999999999 1.5812550000000003e-08 9.408120000000002e-06 1.6746900000000004e-05 9.7977450000000009e-08 -5.9456399999999991 3.4219000000000006e-05 1.5523400000000003 1.3837400000000002 0.00049086500000000016 -2.3911599999999997
decision_type=2 2 2 2 2 2 2 2 2 2 2 2 2 2 2 2 2 2 2 2 2 2 2 2 2 2 2 2 2 2
left_child=11 2 3 -2 5 7 -7 -3 -9 -10 -4 12 -1 14 15 -14 17 24 -18 23 21 -21 27 -17 -15 -26 -27 -22 -29 -30
right_child=1 4 10 -5 -6 6 -8 8 9 -11 -12 -13 13 16 -16 19 18 -19 -20 20 22 -23 -24 -25 25 26 -28 28 29 -31
leaf_value=0.002869832664509886 -0.00056262618993059728 -0.0033111873477616391 -0.00070264380401334698 0.0054523592443382818 -4.8311742191762447e-05 0.0018900256627670455 -0.0012325797032514988 -0.0018589741984297607 -0.0014649716266874402 0.00028575447730346291 -2.418302080830634e-05 -4.1905411075547648e-08 0.0021533473719803926 -0.0011424788404838183 0.002786795296742639 -0.00017227207301237453 0.001758036850315832 -0.002010901659825602 -0.00049144304375658976 -9.5254304344832369e-05 -0.0010961031633087259 0.0024797442527778914 0.0011909962324352819 -0.0015416271030127453 -0.00093629760570668934 -0.00023060847596114285 0.0012134999735644669 -0.00027511191818621887 1.3550793327584226e-05 0.0012121180975373136
leaf_weight=24 25 23 39 21 294 27 21 33 21 38 247 216223 24 36 20 33 21 26 22 35 20 20 22 28 24 47 20 138 41 20
leaf_count=24 25 23 39 21 294 27 21 33 21 38 247 216223 24 36 20 33 21 26 22 35 20 20 22 28 24 47 20 138 41 20
internal_value=0 -0.000100645 0.000201981 0.00218335 -0.000320495 -0.000811427 0.000523886 -0.00136878 -0.000883173 -0.000337385 -0.0001167 3.66202e-07 0.000142463 3.28202e-05 0.000239249 0.00010552 -0.000389517 -0.000669624 0.00060714 -3.2149e-05 0.000126261 0.000841109 -3.68782e-05 -0.000800828 -0.000395031 -9.93378e-05 0.000200469 -0.000160226 -6.61683e-05 0.000406524
internal_weight=0 789 332 46 457 163 48 115 92 59 286 216844 621 597 401 381 196 153 43 357 296 55 241 61 127 91 67 219 199 61
internal_count=217633 789 332 46 457 163 48 115 92 59 286 216844 621 597 401 381 196 153 43 357 296 55 241 61 127 91 67 219 199 61
shrinkage=0.05


Tree=403
num_leaves=31
num_cat=0
split_feature=34 43 30 2 43 20 0 2 30 40 40 21 9 21 32 2 8 19 2 36 14 0 30 44 18 40 40 26 4 7
split_gain=0.00315231 0.0261377 0.070683 0.0667003 0.0312885 0.145148 0.337152 0.0882184 0.0584861 0.0857804 0.398112 0.0554132 0.0469136 0.0362506 0.0600571 0.106216 0.0374631 0.0286037 0.122998 0.066023 0.0326451 0.164834 0.1065 0.163003 0.17687 0.148674 0.438505 0.542667 0.111959 0.136931
threshold=0.20270750000000001 0.80790999999999979 0.00070518350000000013 3.0794900000000003 1.0196000000000003 12.319050000000002 7.1107950000000004 -2.9192849999999999 0.0029116950000000002 0.10022550000000004 -0.12496499999999998 -15.424049999999998 -6.9686149999999993e-05 8.5720600000000022 -1.7584249999999997 1.694625 -1.2067199999999997e-05 3.865525000000001e-10 -2.7279399999999994 -0.17249249999999997 0.0013551600000000002 -10.244649999999998 0.0031784400000000007 -0.7296000000000008 6.9277650000000016e-07 0.38220950000000015 -0.17527649999999997 -0.00015596749999999997 -0.13131799999999996 3.2333100000000004e-05
decision_type=2 2 2 2 2 2 2 2 2 2 2 2 2 2 2 2 2 2 2 2 2 2 2 2 2 2 2 2 2 2
left_child=-1 2 -2 17 5 7 -7 -3 9 10 -9 -10 -13 14 15 -14 -15 18 -4 -20 22 -22 23 -19 28 26 -26 -28 29 -25
right_child=1 4 3 -5 -6 6 -8 8 11 -11 -12 12 13 16 -16 -17 -18 20 19 -21 21 -23 -24 24 25 -27 27 -29 -30 -31
leaf_value=3.5947108180669407e-06 0.0027051984765895888 -0.0027336721446212884 0.0042159798865031919 0.0021116986630555145 4.7781740486825342e-06 -2.8236758485036265e-05 0.0077953864325536418 -0.00023485699797367744 0.0019598331663997449 -7.6319743878462597e-05 0.0070457193010952327 0.0016105263819648438 -0.00023295783032608599 0.002251589931228619 -0.0002363105307610425 -0.0048092925257930928 -8.8361467154300056e-05 -0.0053215199763144488 0.0025076021936771354 -0.00016412309740975286 0.0042877790029954418 -4.4481271874758177e-05 -0.00011203819124029099 0.00076270692805963818 -0.00021869862790235099 -6.8529983396869139e-05 -0.0014832871031831018 -0.01313089571427554 0.00083513488024720007 -0.0023270682425401441
leaf_weight=160396 23 26 20 35 40564 40 21 57 33 86 28 35 32 26 339 21 50 20 26 209 22 11043 4026 61 48 52 20 20 167 87
leaf_count=160396 23 26 20 35 40564 40 21 57 33 86 28 35 32 26 339 21 50 20 26 209 22 11043 4026 61 48 52 20 20 167 87
internal_value=0 -1.00735e-05 -6.46032e-05 -6.86209e-05 1.08626e-05 0.000321707 0.00266514 0.000126687 0.000231877 0.00103702 0.00216345 -2.49867e-05 -0.000155204 -0.000287256 -0.000481018 -0.00204622 0.000712148 -7.34444e-05 0.000451826 0.000131472 -8.20493e-05 -3.58676e-05 -0.000195579 -0.000903658 -0.000709466 -0.00218818 -0.0034407 -0.00730709 -5.22612e-05 -0.00105358
internal_weight=0 57237 15879 15856 41358 794 61 733 707 171 85 536 503 468 392 53 76 15821 255 235 15566 11065 4501 475 455 140 88 40 315 148
internal_count=217633 57237 15879 15856 41358 794 61 733 707 171 85 536 503 468 392 53 76 15821 255 235 15566 11065 4501 475 455 140 88 40 315 148
shrinkage=0.05


Tree=404
num_leaves=31
num_cat=0
split_feature=37 17 38 43 19 43 40 41 25 25 30 7 35 41 43 20 25 34 40 43 6 15 18 40 6 34 14 43 19 40
split_gain=0.00306211 0.0250569 0.0384026 0.107836 0.202735 0.233873 0.21736 0.513677 0.427469 0.386927 0.196557 0.167986 0.262798 0.180826 0.538327 0.211663 0.181547 0.197518 0.273557 0.150155 0.138335 0.148283 0.133664 0.126677 0.116273 0.111719 0.0917584 0.121024 0.118184 0.121924
threshold=-1.1071149999999997e-08 3.4718200000000011e-08 0.00017319450000000003 0.55890500000000032 0.00043921550000000008 -2.0405449999999985 0.2761725000000001 -0.057539999999999918 0.51355700000000015 2.4608900000000005 0.0048391350000000005 7.4390400000000012e-05 0.14260400000000004 0.37828249999999997 -0.27803499999999998 9.8666800000000006 1.7736900000000002 0.11064900000000001 -0.040859549999999939 -0.93682499999999969 2.5485750000000003e-07 1.1195050000000002e-06 -4.5779349999999994e-05 0.10022550000000004 -2.9396449999999995e-06 0.066349850000000016 0.0020033100000000008 0.31279500000000043 1.8223950000000001e-09 -0.040859549999999939
decision_type=2 2 2 2 2 2 2 2 2 2 2 2 2 2 2 2 2 2 2 2 2 2 2 2 2 2 2 2 2 2
left_child=1 2 -1 4 5 -4 7 8 -7 23 -11 12 13 14 16 20 19 -18 -19 -9 21 26 -23 -10 -21 -13 27 28 -16 -30
right_child=-2 -3 3 -5 -6 6 -8 11 9 10 -12 25 -14 -15 15 -17 17 18 -20 24 -22 22 -24 -25 -26 -27 -28 -29 29 -31
leaf_value=-1.7446886539171266e-08 -6.629780276877707e-06 -9.3414832965000804e-06 -3.8680589851553665e-07 -2.3648808453536959e-05 -5.2253176320554351e-05 0.010877849016105758 -5.701674473811174e-05 -0.00066018636222425439 0.0028320668392222037 0.0080511449066559878 0.0018689566385000946 -6.7141408268775381e-05 0.0065259474617916915 -3.6290807646268101e-05 -0.0031875640120623372 0.0048551951589096073 0.0089914975913416139 0.0072978135073910756 0.0007725163381514399 0.0064871507852027818 0.0037473671307088809 -0.00028414837979653387 -0.0054947633610572671 -0.0020965972944395617 0.0023596432513831142 -0.0048603040120860901 -0.0010195070713084062 0.0029758507843426845 0.0039742554218369502 0.0004521273072196368
leaf_weight=21975 96744 85493 1307 7239 2817 20 496 34 22 36 20 31 21 380 21 28 24 29 36 21 30 32 20 32 91 20 87 54 26 447
leaf_count=21975 96744 85493 1307 7239 2817 20 496 34 22 36 20 31 21 380 21 28 24 29 36 21 30 32 20 32 91 20 87 54 26 447
internal_value=0 5.30562e-06 4.06832e-05 0.000107325 0.000260692 0.000522674 0.00085486 0.00114442 0.00415378 0.00293122 0.00584322 0.000871223 0.000975292 0.000889584 0.0012486 0.00059043 0.00333513 0.00511509 0.0036838 0.00225008 0.000423884 0.000278753 -0.00228823 -8.8623e-05 0.00313355 -0.00194681 0.000488963 0.000728446 0.000482779 0.000645733
internal_weight=0 120889 35396 13421 6182 3365 2058 1562 130 110 56 1432 1381 1360 980 745 235 89 65 146 717 687 52 54 112 51 635 548 494 473
internal_count=217633 120889 35396 13421 6182 3365 2058 1562 130 110 56 1432 1381 1360 980 745 235 89 65 146 717 687 52 54 112 51 635 548 494 473
shrinkage=0.05


Tree=405
num_leaves=31
num_cat=0
split_feature=10 33 9 5 16 19 5 21 4 29 40 28 12 25 16 8 43 8 8 7 38 17 36 40 7 39 38 14 8 9
split_gain=0.00314028 0.0222414 0.0526218 0.0380555 0.0597303 0.154106 0.0326092 0.0480466 0.0282518 0.0357231 0.0210807 0.0212729 0.08363 0.222041 0.0728615 0.047513 0.0984686 0.0502025 0.0306745 0.0475349 0.0242309 0.112958 0.0380791 0.0682509 0.133685 0.0942196 0.0908288 0.0701163 0.0223013 0.0209378
threshold=1.4525850000000001e-05 -9.3333449999999986e-05 -1.1728849999999997e-05 1.0838450000000003e-05 4.3089250000000013e-06 0.00019078500000000004 7.4666350000000006e-06 1.1870700000000001 0.26785250000000005 -0.022880599999999997 5.2590600000000007 -0.071195649999999985 -0.00034307199999999993 3.7654200000000002 5.3530650000000009e-05 1.2777200000000002e-05 1.9002500000000004 1.234225e-05 1.1288600000000001e-05 3.0982400000000003e-05 0.30670150000000002 -8.1349849999999988e-07 -0.036175849999999996 -0.40968649999999995 2.8402950000000006e-05 0.0015197350000000001 0.039173400000000004 0.0050185850000000016 -1.1467649999999999e-05 1.4838700000000002e-05
decision_type=2 2 2 2 2 2 2 2 2 2 2 2 2 2 2 2 2 2 2 2 2 2 2 2 2 2 2 2 2 2
left_child=1 2 -1 4 6 -6 7 -4 -8 -10 11 12 13 -3 -15 17 -17 18 -14 -20 22 -22 23 -13 25 -25 -26 -27 -23 -24
right_child=-2 10 3 -5 5 -7 8 -9 9 -11 -12 20 15 14 -16 16 -18 -19 19 -21 21 28 29 24 26 27 -28 -29 -30 -31
leaf_value=0.0018354555913086595 1.950453470103248e-06 0.0059964125586371994 -5.2500299253469249e-05 6.4288296221595814e-05 -0.0043760407871949224 -0.00024962162769952555 6.2381785632294289e-07 -0.0034385979583021254 -0.00015686712171085866 -0.0025355015991846341 0.0015394788675952111 -1.8112556055964879e-06 -3.4926114052383834e-05 -0.00066826676791387055 0.0022745869194764194 0.0033768650940469193 -0.00075332569346452756 -0.0019980394938864912 0.0002527574154022471 0.0030290556251808694 0.0040123037489441541 0.0014942117404478433 -1.8508556576899813e-05 -0.0027209370019183302 -0.00075302003882825373 -0.00027865412427802638 -0.0050483188558246191 0.0031702183801098727 -0.00025950679135578343 0.001491046402588836
leaf_weight=29 196871 22 22 362 35 64 313 20 38 27 22 259 943 58 33 31 27 31 58 21 21 22 18021 29 20 56 32 20 103 23
leaf_count=29 196871 22 22 362 35 64 313 20 38 27 22 259 943 58 33 31 27 31 58 21 21 22 18021 29 20 56 32 20 103 23
internal_value=0 -1.84947e-05 -0.000260206 -0.00032919 -0.000603639 -0.00170846 -0.000343217 -0.00166493 -0.00019636 -0.00114492 -7.41486e-06 -9.13103e-06 0.000192779 0.0014887 0.000398922 6.09708e-05 0.00145419 -1.57687e-05 4.43589e-05 0.000990761 -2.24137e-05 0.000619191 -2.74882e-05 -0.00050044 -0.00132302 -0.000296261 -0.00339628 0.000628944 4.91477e-05 -1.65844e-05
internal_weight=0 20762 910 881 519 99 420 42 378 65 19852 19830 1224 113 91 1111 58 1053 1022 79 18606 146 18460 416 157 105 52 76 125 18044
internal_count=217633 20762 910 881 519 99 420 42 378 65 19852 19830 1224 113 91 1111 58 1053 1022 79 18606 146 18460 416 157 105 52 76 125 18044
shrinkage=0.05


Tree=406
num_leaves=31
num_cat=0
split_feature=27 12 44 12 12 23 40 40 16 40 22 6 4 44 12 13 22 4 18 14 18 16 1 7 44 20 25 16 13 1
split_gain=0.00301245 0.0081907 0.0130423 0.0114048 0.0318554 0.0232803 0.0167338 0.0296011 0.0772982 0.0195013 0.011622 0.0565031 0.0170402 0.0365933 0.0168849 0.034416 0.0248073 0.0169235 0.0632493 0.0124083 0.0228098 0.0265022 0.0100688 0.0098044 0.00816683 0.00652043 0.0324863 0.0444635 0.0315725 0.0751479
threshold=91.481750000000019 0.0021796500000000004 10.167125 0.00010937550000000001 0.00011857750000000002 -19.309399999999997 -0.079468000000000025 1.3497390500000004 1.5710250000000004e-05 -0.97867999999999988 -2.2401749999999994 1.9804200000000007e-06 -2.2787549999999999 8.5166700000000013 -0.00019160099999999998 9.4595700000000006e-05 -0.92553999999999992 1.5563800000000001 7.6735600000000018e-05 0.0020798200000000005 -4.5779349999999994e-05 3.9398900000000012e-06 -7.376174999999999 3.6171700000000005e-05 -0.89938499999999999 -14.223749999999997 0.33580650000000006 -8.0791249999999992e-08 -5.3688449999999996e-05 4.3945300000000005
decision_type=2 2 2 2 2 2 2 2 2 2 2 2 2 2 2 2 2 2 2 2 2 2 2 2 2 2 2 2 2 2
left_child=25 2 3 10 -5 -6 9 8 -8 -7 11 24 23 14 16 17 -14 18 19 20 -16 -22 -18 -12 -2 26 27 -1 29 -28
right_child=1 -3 -4 4 5 6 7 -9 -10 -11 12 -13 13 -15 15 -17 22 -19 -20 -21 21 -23 -24 -25 -26 -27 28 -29 -30 -31
leaf_value=0.0031710235219725292 -0.00079683520678623491 0.00091255550321258337 -0.0011509552180411578 -0.0021631234669422903 -0.0015388928086708647 -0.00011590743496136775 -0.00044700927138342751 -0.00026269286159747248 0.0028616213235035243 -0.0020731032157164007 -0.001643232270507724 0.002885152527014725 -0.0018677999840292616 0.0021463858539937063 0.0012630528265643601 0.0016997114723292931 0.00066311953733719968 -0.0010275337834364587 0.002431956287990842 -0.00089819121528237787 1.174723034066769e-05 -0.0016775809934188148 -0.00048481984938714758 -0.00040704692409583657 0.00043633994302945211 -3.5489910644788637e-07 1.0972912557638036e-05 -8.6370539776742768e-05 1.7256571082718772e-05 0.0030717859242878182
leaf_weight=20 29 21 28 22 29 35 41 145 31 20 20 20 28 20 35 31 26 38 27 39 711 24 72 81 25 213934 65 22 1965 29
leaf_count=20 29 21 28 22 29 35 41 145 31 20 20 20 28 20 35 31 26 38 27 39 711 24 72 81 25 213934 65 22 1965 29
internal_value=0 -6.83977e-05 -8.14605e-05 -6.21281e-05 -0.000326449 -0.000192207 -4.86265e-05 0.000148813 0.00097754 -0.000827615 7.50946e-06 0.00061491 -3.15076e-05 2.81053e-05 -1.29864e-05 6.25142e-05 -0.000555272 4.44424e-06 5.13523e-05 -2.80992e-05 1.59704e-05 -4.34145e-05 -0.000180265 -0.000651836 -0.000225921 5.05934e-07 8.81602e-05 0.00146477 6.00797e-05 0.000955266
internal_weight=0 1598 1577 1549 323 301 272 217 72 55 1226 74 1152 1051 1031 905 126 874 836 809 770 735 98 101 54 216035 2101 42 2059 94
internal_count=217633 1598 1577 1549 323 301 272 217 72 55 1226 74 1152 1051 1031 905 126 874 836 809 770 735 98 101 54 216035 2101 42 2059 94
shrinkage=0.05


Tree=407
num_leaves=31
num_cat=0
split_feature=35 15 15 41 40 35 43 19 15 43 8 40 3 8 43 43 15 15 28 35 43 7 43 43 43 21 21 19 35 17
split_gain=0.00296217 0.0797508 0.0730664 0.0829126 0.689116 0.496778 0.864035 0.683306 0.6839 0.708286 0.44686 0.288313 0.271124 0.21119 0.222366 0.427455 0.798057 0.687694 0.922381 0.196709 0.181187 0.174819 0.215684 0.138158 0.480751 0.835811 0.51553 0.330246 0.17468 0.230963
threshold=1.8741500000000003e-05 -3.0013349999999998e-08 -3.1922299999999996e-08 0.19792950000000006 0.10022550000000004 -0.0054261899999999983 1.8131900000000003 0.00042279750000000005 1.9390250000000003e-07 -1.3362800000000006 1.0032150000000002e-05 0.039429999999999972 -9.4732099999999981 -9.4822049999999974e-06 0.85052500000000031 -0.465335 -1.2418349999999998e-08 1.5700050000000004e-06 0.0077550700000000011 -0.0047501849999999997 -0.054875 5.8951700000000007e-05 -1.1637600000000001 -0.15760999999999911 -0.82558500000000012 -6.7912899999999992 0.43558650000000004 0.00018145150000000004 -0.0017641349999999998 3.6649000000000006e-08
decision_type=2 2 2 2 2 2 2 2 2 2 2 2 2 2 2 2 2 2 2 2 2 2 2 2 2 2 2 2 2 2
left_child=2 -2 -1 4 5 6 7 8 11 -10 -11 12 -4 14 15 -7 20 18 -18 -15 -17 -9 -23 24 -21 27 28 -26 -27 -30
right_child=1 -3 3 -5 -6 13 -8 21 9 10 -12 -13 -14 19 -16 16 17 -19 -20 23 -22 22 -24 -25 25 26 -28 -29 29 -31
leaf_value=3.8286527336507746e-05 -4.1905259814496888e-05 4.4765185828682949e-05 0.0016030975104046937 1.264507494877119e-05 -3.6960068921858779e-06 -0.00015071172229124373 -0.00018351531582858175 -0.00098043105091392144 -0.0027638193768992399 -0.016245717631893291 -0.0069281748228769927 -0.0071030765584099197 -0.0040361607900978652 0.0032676105037535309 -0.00013473666471425425 -0.004913636895140544 -0.018252399775277203 -0.0017058485363183233 -0.0042402540232338339 -2.3782238093456975e-05 0.00033326595782311511 -0.001109704322829955 -0.0073197166642381094 -3.1223800196298833e-05 -0.011820860149676045 -0.0031411245521330449 -0.0066734259820805169 -0.0040604577603517104 -0.0034147493971977382 0.0025925722571992086
leaf_weight=50806 48106 59211 39 31317 24101 146 470 224 30 31 22 31 47 40 241 21 24 30 23 520 76 29 27 1807 29 27 32 26 20 80
leaf_count=50806 48106 59211 39 31317 24101 146 470 224 30 31 22 31 47 40 241 21 24 30 23 520 76 29 27 1807 29 27 32 26 20 80
internal_value=0 5.91423e-06 -5.75344e-06 -4.33521e-05 -0.000105554 -0.000705477 -0.00170738 -0.00319949 -0.00543163 -0.00890303 -0.0123781 -0.00296901 -0.00147882 -0.000402547 -0.0012818 -0.00214569 -0.00381964 -0.00762025 -0.0113954 -0.000211433 -0.000802661 -0.00160511 -0.00410382 -0.0002662 -0.000844677 -0.00283937 -0.00100157 -0.00815231 0.000427562 0.00139111
internal_weight=0 107317 110316 59510 28193 4092 950 480 200 83 53 117 86 3142 561 320 174 77 47 2581 97 280 56 2541 734 214 159 55 127 100
internal_count=217633 107317 110316 59510 28193 4092 950 480 200 83 53 117 86 3142 561 320 174 77 47 2581 97 280 56 2541 734 214 159 55 127 100
shrinkage=0.05


Tree=408
num_leaves=31
num_cat=0
split_feature=7 2 32 26 26 11 5 29 2 29 2 23 26 9 25 13 1 8 18 33 7 15 24 10 40 40 33 1 33 33
split_gain=0.00296539 0.010515 0.00902904 0.00986034 0.0733882 0.0185058 0.0184015 0.0145693 0.0492211 0.034506 0.024905 0.0319687 0.0143485 0.00999597 0.059698 0.0107946 0.0271706 0.0122059 0.0114278 0.0474233 0.010236 0.00886134 0.041127 0.0126241 0.0149192 0.122691 0.0132281 0.00762141 0.00629967 0.0206346
threshold=2.2278700000000004e-05 3.0794900000000003 20.036400000000004 6.5389250000000011e-05 6.5962400000000017e-05 0.00029283300000000005 3.2672850000000007e-05 0.015602350000000003 -2.3232449999999996 0.014392250000000002 2.2358750000000005 -10.617199999999999 -2.2730149999999994e-05 1.3394150000000003e-05 0.15866050000000001 -7.7087449999999976e-06 -8.0658149999999988 1.6057000000000002e-05 1.1421250000000002e-05 8.785105000000002e-06 1.3880100000000001e-05 -1.0749399999999998e-07 0.21342250000000004 1.7987700000000004e-05 0.10022550000000004 -0.19934349999999995 -7.8596449999999982e-06 -6.9135299999999988 2.1416600000000004e-05 3.7829800000000008e-05
decision_type=2 2 2 2 2 2 2 2 2 2 2 2 2 2 2 2 2 2 2 2 2 2 2 2 2 2 2 2 2 2
left_child=1 2 3 7 -5 6 21 9 -9 13 12 -12 -10 15 -15 16 -1 -17 20 -20 -18 22 23 24 25 -6 -25 -22 -29 -30
right_child=-2 -3 -4 4 5 -7 -8 8 10 -11 11 -13 -14 14 -16 17 18 -19 19 -21 27 -23 -24 26 -26 -27 -28 28 29 -31
leaf_value=-0.0018947249316387691 -9.8785169657305909e-07 0.0011790508276317271 -0.00093718438401992901 0.0027102708471594037 -3.0081699259502758e-05 0.001195654481287764 0.0015403506759044138 -0.0026325458289301468 8.2003101549919089e-06 0.0016585531780037854 -0.0027708326658466833 2.2353712327977912e-05 -0.0013619013453535446 0.0029365179309388625 7.8856250312162726e-05 1.6698583182552998e-05 -0.00084743751402937867 0.00097056731327243423 6.4088315728282484e-06 -0.0026152216904649877 -0.00078168941108742735 -4.4538673887130566e-06 0.0021354325292459518 -0.0014088613545936825 -1.6279410275422191e-05 0.0035641121292679478 -3.8097771605614321e-05 1.0445439685155222e-05 0.0018551069486943562 -0.00021826523601096903
leaf_weight=23 211572 20 24 27 131 37 21 21 429 32 20 21 20 20 212 2466 36 34 69 23 27 1593 27 24 215 29 66 344 20 30
leaf_count=23 211572 20 24 27 131 37 21 21 429 32 20 21 20 20 212 2466 36 34 69 23 27 1593 27 24 215 29 66 344 20 30
internal_value=0 3.44831e-05 3.06937e-05 3.45543e-05 0.000119777 8.71393e-05 6.7664e-05 -1.3518e-05 -0.000262135 2.45645e-05 -0.000160546 -0.00134018 -5.28287e-05 8.73891e-06 0.000325206 -1.5161e-05 -0.000211106 2.96712e-05 -0.000140572 -0.000648999 -3.82187e-05 5.28312e-05 0.000238309 0.000128153 0.000255783 0.000621366 -0.000403635 3.09781e-05 8.66686e-05 0.000611084
internal_weight=0 6061 6041 6017 2170 2143 2106 3847 511 3336 490 41 449 3304 232 3072 572 2500 549 92 457 2085 492 465 375 160 90 421 394 50
internal_count=217633 6061 6041 6017 2170 2143 2106 3847 511 3336 490 41 449 3304 232 3072 572 2500 549 92 457 2085 492 465 375 160 90 421 394 50
shrinkage=0.05


Tree=409
num_leaves=31
num_cat=0
split_feature=14 23 1 28 11 32 10 3 43 31 2 14 11 35 11 11 11 40 37 12 43 36 22 12 40 40 17 26 40 10
split_gain=0.00293914 0.0118397 0.0188121 0.00693276 0.00341765 0.0162497 0.11758 0.0189906 0.0139356 0.0114349 0.0458159 0.0398038 0.0169705 0.042385 0.0421916 0.0548937 0.0157922 0.0110971 0.0110369 0.0312576 0.0743294 0.225595 0.0248389 0.0234694 0.0867785 0.144127 0.0327944 0.0782238 0.160524 0.0292616
threshold=0.71230950000000004 -14.053899999999997 -4.2653099999999986 0.010025000000000001 -0.000119502 20.036400000000004 3.0656350000000003e-05 -12.918299999999999 7.9818950000000006 11.617550000000001 2.8579150000000006 0.00034418150000000005 -8.8703799999999996e-05 1.6674650000000002 -7.7868449999999985e-05 -6.7024799999999989e-05 -5.7102799999999991e-05 -5.4467549999999987 -1.6329399999999996e-05 0.00024379100000000001 0.078545000000000101 -0.30938449999999995 1.1712050000000003 -0.00015994749999999997 -0.19934349999999995 0.2761725000000001 4.1302500000000008e-06 -0.0029059199999999998 0.51872500000000021 2.8428900000000005e-05
decision_type=2 2 2 2 2 2 2 2 2 2 2 2 2 2 2 2 2 2 2 2 2 2 2 2 2 2 2 2 2 2
left_child=4 2 -2 -4 5 -1 -7 -8 -9 18 12 -12 13 -11 -14 -16 -17 -18 19 23 21 -21 -22 24 -6 -26 -25 28 -28 -29
right_child=1 -3 3 -5 9 6 7 8 -10 10 11 -13 14 -15 15 16 17 -19 -20 20 22 -23 -24 26 25 -27 27 29 -30 -31
leaf_value=1.445159488996895e-05 -0.0017364246963988989 8.016812447577628e-07 -6.3668355526880831e-05 -0.00092116067145790726 0.00017901334129939123 0.0038016335704647332 -0.0011646995573369857 -0.00026798294178054981 0.0014046431135648163 0.00064307875387991471 -0.00030379521097281467 -0.0033857821526180488 0.0022182498035544997 -0.0023770720037506322 -0.0023700930838598516 0.0013107100414345041 -0.0010560837699033852 -4.9133017312664532e-05 -2.1556110569281398e-06 0.0064538304746383814 -0.00038842151384537956 -0.00080706556963496445 0.0013599821140880004 4.615099818671209e-05 -0.004820305747069562 -0.00021467363569209572 0.0057781316165346659 0.001690380882414152 -5.0535619245945581e-05 -0.00016120085241128751
leaf_weight=27204 25 656 110 30 203 23 33 33 20 21 22 20 20 26 26 21 28 1199 186338 20 74 23 28 1162 26 49 21 26 27 119
leaf_count=27204 25 656 110 30 203 23 33 33 20 21 22 20 20 26 26 21 28 1199 186338 20 74 23 28 1162 26 49 21 26 27 119
internal_value=0 -9.44252e-05 -0.000473024 -0.000247417 3.57559e-07 1.68928e-05 0.000626164 -0.000223089 0.000363197 -2.02571e-06 -0.000145272 -0.00177141 -9.4342e-05 -0.00102764 -6.04431e-05 -9.62153e-05 -4.88429e-05 -7.21115e-05 -9.72583e-07 0.000123011 0.000826555 0.0025701 9.15324e-05 6.0541e-05 -0.00035794 -0.00181129 0.000146399 0.000749965 0.00249951 0.000170807
internal_weight=0 821 165 140 216812 27313 109 86 53 189499 1383 42 1341 47 1294 1274 1248 1227 188116 1778 145 43 102 1633 278 75 1355 193 48 145
internal_count=217633 821 165 140 216812 27313 109 86 53 189499 1383 42 1341 47 1294 1274 1248 1227 188116 1778 145 43 102 1633 278 75 1355 193 48 145
shrinkage=0.05


Tree=410
num_leaves=31
num_cat=0
split_feature=21 44 12 3 30 41 41 12 12 22 1 20 38 17 8 1 20 17 12 9 10 41 2 15 30 12 41 15 41 22
split_gain=0.00290662 0.0418981 0.0649607 0.0597193 0.23218 0.0718822 0.294987 0.0911586 0.0609084 0.138892 0.0562216 0.0589527 0.054157 0.0317631 0.0306168 0.0295708 0.0382034 0.0968556 0.11453 0.0341637 0.0750364 0.123141 0.0745789 0.0422452 0.0329202 0.0272007 0.0249885 0.0465136 0.0348069 0.0235713
threshold=-12.332599999999998 0.19419999999999996 -2.9756999999999996e-05 -8.1461699999999979 0.0088898900000000027 -0.0046074999999999996 0.37828249999999997 -0.00015437249999999999 -3.4944649999999994e-05 -0.90610399999999991 -10.666549999999999 0.10183770000000002 -8.2807199999999982e-05 5.9936600000000005e-06 6.8346150000000008e-06 -6.820479999999999 3.1622300000000005 4.0430350000000003e-07 -8.641424999999998e-05 -7.5483199999999991e-06 3.2100050000000004e-05 0.057875000000000128 -1.7088249999999998 -1.2701699999999997e-06 0.16934650000000004 -5.5795849999999995e-05 -0.039869999999999954 5.9976150000000007e-09 0.057875000000000128 -1.5785349999999998
decision_type=2 2 2 2 2 2 2 2 2 2 2 2 2 2 2 2 2 2 2 2 2 2 2 2 2 2 2 2 2 2
left_child=1 2 3 4 -1 7 -7 13 15 12 11 -3 -10 -6 -8 16 19 29 -19 20 21 -5 -21 -24 -17 -22 -25 -28 -29 -18
right_child=-2 10 -4 8 5 6 14 -9 9 -11 -12 -13 -14 -15 -16 24 17 18 -20 22 25 -23 23 26 -26 -27 27 28 -30 -31
leaf_value=0.0056601441866055563 -9.8107978069610686e-07 -2.7451516070868821e-05 -2.5903898993965983e-05 0.0041954168647569011 0.002230898174180073 0.0065713645043698234 0.0017637216813272971 -0.0027901589133323109 0.0024875993247557445 0.0050807453019106538 -6.1243254910216981e-05 -0.0038664840708952397 -0.00035898409933824126 -0.00055329300186713227 -0.00048173129997315027 -0.00019380283892617362 0.0017030690028695971 0.00048179088860610808 0.0045081218124709485 -0.0031673719718431437 8.9623742670400213e-05 0.00015260534928529523 -0.0018809555708842176 -0.00033156132467617935 -0.0024038232884430501 -0.0019531281951458367 0.0028685691830469297 0.0009711610996324954 -0.0010080933835221609 -0.00014267958109712709
leaf_weight=26 211535 20 1590 31 21 22 20 29 24 21 3338 20 55 20 63 107 20 38 33 21 88 48 29 132 20 20 20 58 36 128
leaf_count=26 211535 20 1590 31 21 22 20 29 24 21 3338 20 55 20 63 107 20 38 33 21 88 48 29 132 20 20 20 58 36 128
internal_value=0 3.40329e-05 0.000180089 0.000469937 0.00125138 0.000596364 0.00142377 -0.000644737 0.000300862 0.00146654 -8.35727e-05 -0.00194697 0.000505801 0.000872756 5.93417e-05 0.00016025 0.000287266 0.000835043 0.00235318 3.88945e-05 0.000567954 0.00173903 -0.000295342 -7.60234e-05 -0.000541838 -0.000288664 0.000136753 0.000679012 0.000213149 0.000106746
internal_weight=0 6098 2720 1130 201 175 105 70 929 100 3378 40 79 41 83 829 702 219 71 483 187 79 296 275 127 108 246 114 94 148
internal_count=217633 6098 2720 1130 201 175 105 70 929 100 3378 40 79 41 83 829 702 219 71 483 187 79 296 275 127 108 246 114 94 148
shrinkage=0.05


Tree=411
num_leaves=31
num_cat=0
split_feature=33 43 40 1 8 40 27 40 43 21 19 37 14 28 16 36 21 43 10 4 12 13 0 18 4 0 4 38 43 40
split_gain=0.00291079 0.0174919 0.0305857 0.144433 0.0261217 0.0773463 0.199875 0.0311393 0.0239235 0.116142 0.0457168 0.146239 0.0599131 0.0475697 0.0246526 0.0708335 0.0235365 0.112054 0.170422 0.268827 0.057796 0.228971 0.028558 0.0231513 0.0946533 0.151371 0.090929 0.140755 0.182206 0.156085
threshold=1.3939150000000002e-05 0.85052500000000031 -5.6825599999999996 -0.89553799999999983 2.3740300000000004e-05 -0.17527649999999997 2.898495 0.02582950000000005 1.0196000000000003 -15.424049999999998 0.0037947300000000001 2.5183500000000006e-06 0.0033167500000000007 0.15361650000000002 -7.8838099999999994e-07 -0.0038727899999999997 9.718770000000001 1.7247300000000003 3.1005150000000009e-05 -0.13885249999999996 0.00011505000000000002 -4.8647349999999993e-06 -1.5098999999999998 -5.194759999999999e-05 -0.40498649999999997 7.4151700000000007 -1.5265699999999998 0.0010868200000000003 -4.0456399999999988 -0.51801999999999981
decision_type=2 2 2 2 2 2 2 2 2 2 2 2 2 2 2 2 2 2 2 2 2 2 2 2 2 2 2 2 2 2
left_child=-1 2 3 -2 23 -6 -7 -8 9 -3 13 12 -12 14 15 -11 -10 18 19 -18 -19 -22 -23 26 25 -25 -4 -28 -29 -30
right_child=1 8 4 -5 5 6 7 -9 16 10 11 -13 -14 -15 -16 -17 17 20 -20 -21 21 22 -24 24 -26 -27 27 28 29 -31
leaf_value=2.7956306445294737e-06 -0.0016883961443454609 0.0039164938411803711 -0.0001599810108030399 0.0043206136481603614 4.3023030354809389e-05 -0.0052642420071168563 -0.0022618478277720336 -0.00014575976633255272 -5.2366006233817986e-06 0.0030182846350362523 0.0025854974572818417 0.0049171607688913363 -0.0004316764609304875 -0.0019029856927398428 -0.00019737229016381886 -0.00035846902179267692 0.007996111915285424 -0.00011627922042808838 -0.00011580291131629624 0.00090278714487794791 0.0056721901690418072 0.0015257779008243234 -0.0006652715291458099 0.00013370085667191778 -0.00012198714095545244 0.0047373977308430215 -0.000400290912615391 -0.00032663285453071907 -8.4564475504040736e-05 0.0015857540654924092
leaf_weight=176401 20 22 2079 20 275 27 21 101 28297 25 21 20 76 34 195 41 22 714 62 34 22 20 58 57 7499 26 431 312 193 508
leaf_count=176401 20 22 2079 20 275 27 21 101 28297 25 21 20 76 34 195 41 22 714 62 34 22 20 58 57 7499 26 431 312 193 508
internal_value=0 -1.19604e-05 -6.41076e-05 0.00131611 -6.88963e-05 -0.000454065 -0.00137151 -0.000510004 8.37774e-06 0.000376878 0.000187869 0.0010242 0.000221526 -0.000143828 8.53344e-05 0.000920604 2.90615e-06 0.000250133 0.00169008 0.00368945 4.13939e-05 0.00116718 -0.000103464 -5.41901e-05 -0.000103401 0.00157582 5.17192e-05 0.000356515 0.000678512 0.00112588
internal_weight=0 41232 11569 40 11529 424 149 122 29663 434 412 117 97 295 261 66 29229 932 118 56 814 100 78 11105 7582 83 3523 1444 1013 701
internal_count=217633 41232 11569 40 11529 424 149 122 29663 434 412 117 97 295 261 66 29229 932 118 56 814 100 78 11105 7582 83 3523 1444 1013 701
shrinkage=0.05


Tree=412
num_leaves=31
num_cat=0
split_feature=44 43 21 22 3 1 26 4 34 21 40 41 3 17 18 40 24 2 26 13 6 21 31 4 38 13 40 18 8 1
split_gain=0.0030921 0.0378662 0.0471144 0.1178 0.0672537 0.152352 0.187975 0.274073 0.0791953 0.0865731 0.0502652 0.450919 0.520262 0.620689 0.723568 1.10137 0.448923 0.338086 0.248501 0.300714 0.23413 0.206472 0.145353 0.128443 0.147724 0.120193 0.0952992 0.0919418 0.0820102 0.078634
threshold=-0.20255000000000042 0.85052500000000031 -8.8025949999999984 -2.5049849999999996 -7.0441249999999993 -7.0827799999999987 -6.9741099999999975e-05 0.081083500000000017 0.33174250000000005 -11.282949999999998 0.14973499999999998 -0.026150000000000003 -12.510449999999999 2.6933700000000002e-07 -5.1821499999999985e-07 0.056773999999999998 0.12900400000000004 -1.2057699999999998 -7.737779999999999e-05 -1.7937199999999998e-05 -1.0087549999999998e-06 5.5200300000000011 -0.061241799999999992 0.047281200000000002 0.00018177850000000004 2.7325550000000001e-05 0.056773999999999998 -1.5623199999999996e-05 7.3677000000000015e-06 11.597950000000003
decision_type=2 2 2 2 2 2 2 2 2 2 2 2 2 2 2 2 2 2 2 2 2 2 2 2 2 2 2 2 2 2
left_child=1 2 3 -1 5 6 7 -5 9 -8 11 12 20 14 16 -16 22 -15 19 -19 -4 -17 -14 27 -25 28 -24 -20 -22 -13
right_child=-2 -3 10 4 -6 -7 8 -9 -10 -11 -12 29 13 17 15 21 -18 18 23 -21 25 -23 26 24 -26 -27 -28 -29 -30 -31
leaf_value=0.0033047799285950853 6.9751671698677983e-06 4.5125176384736788e-06 0.005970531941528117 0.00096600111695200523 -0.00010762120506731834 -5.1874868093610882e-05 0.0041620256697933655 0.00783013674042125 -0.0022483457712223756 0.00061702033502650656 7.1609024550909201e-06 -7.6716993998737122e-05 0.0032275394060770459 -0.006731326604494825 -0.016876315517136111 -0.0069396228363565087 -0.0082150842100170204 0.0077012862119590873 -0.0020329119219571691 0.00019236029533203694 0.0031523236255687212 -0.00018224610597826542 0.00044267992959178698 -0.00082725349482363803 -0.0065430027987167716 -0.0026455643600246941 -0.0040286556626101212 0.0023215191811754333 -0.0008945085374372346 -0.0012270903020892452
leaf_weight=29 91838 112058 22 33 1329 412 20 26 20 124 4607 6545 23 20 26 26 22 20 22 40 31 20 26 26 20 26 22 27 21 152
leaf_count=29 91838 112058 22 33 1329 412 20 26 20 124 4607 6545 23 20 26 26 22 20 22 40 31 20 26 26 20 26 22 27 21 152
internal_value=0 -5.0923e-06 -8.34425e-05 0.000141336 9.46256e-05 0.000517911 0.00157061 0.00399087 0.000699903 0.00110938 -0.000121588 -0.000204697 -0.00175521 -0.00268764 -0.00488775 -0.00865082 -0.0019744 -0.000613246 0.000176184 0.00269534 0.00141504 -0.00400163 -4.06668e-05 -0.00141486 -0.00331236 0.000130163 -0.00160668 0.000366468 0.00151803 -0.000102827
internal_weight=0 125795 13737 1993 1964 635 223 59 164 144 11744 7137 440 340 165 72 93 175 155 60 100 46 71 95 46 78 48 49 52 6697
internal_count=217633 125795 13737 1993 1964 635 223 59 164 144 11744 7137 440 340 165 72 93 175 155 60 100 46 71 95 46 78 48 49 52 6697
shrinkage=0.05


Tree=413
num_leaves=31
num_cat=0
split_feature=34 43 30 2 43 20 0 39 21 2 35 33 23 21 12 32 2 21 32 40 40 20 43 19 20 25 20 23 2 10
split_gain=0.00294271 0.0227355 0.0624132 0.0599638 0.0270147 0.129402 0.299404 0.0800287 0.165096 0.0517317 0.0476198 0.047468 0.0440915 0.03216 0.0509058 0.0370334 0.0902856 0.0268968 0.093101 0.159193 0.251853 0.542364 0.477284 0.515031 0.326495 0.318907 0.215769 0.158635 0.130272 0.126169
threshold=0.20270750000000001 0.80790999999999979 0.00070518350000000013 3.0794900000000003 1.0196000000000003 12.319050000000002 7.1107950000000004 0.00063658600000000007 -5.4139599999999986 -2.9192849999999999 0.013629200000000003 0.00091355850000000014 -17.193949999999997 10.010650000000002 4.5107700000000002e-05 -1.7584249999999997 1.694625 -4.5569299999999986 0.65138850000000015 0.43531000000000003 -0.011175000000000155 0.46527500000000005 -0.99152500000000054 0.005156565000000001 5.3893600000000008 29.284250000000004 -3.1555199999999997 -14.137299999999998 -0.66094299999999995 1.8163700000000004e-05
decision_type=2 2 2 2 2 2 2 2 2 2 2 2 2 2 2 2 2 2 2 2 2 2 2 2 2 2 2 2 2 2
left_child=-1 2 -2 17 5 7 -7 8 -3 -9 -10 12 -11 15 -15 16 -14 -4 -19 20 26 -22 23 25 -24 -23 27 -20 -28 -29
right_child=1 4 3 -5 -6 6 -8 9 10 11 -12 -13 13 14 -16 -17 -18 18 19 -21 21 22 24 -25 -26 -27 28 29 -30 -31
leaf_value=3.4731468722612881e-06 0.0025421431599407579 0.0047356208718086316 -0.00016772426478075294 0.0020029218246262258 4.139611317465307e-06 -2.6823006301128771e-05 0.0073458304961345026 -0.0024929173556460151 -4.1767849427782027e-05 -0.0023125927953673376 0.0022915664583420207 0.0021020157249343661 1.7283566540288854e-05 -8.3093846603463019e-05 0.0030790811410406609 -2.9833337694745516e-05 -0.0040142796240702624 -9.9498339344932256e-05 0.0056307636246423331 -6.8047214188084336e-05 -0.00063147810027603009 0.012561372731755855 -0.003160629089532969 0.0011398073898037963 0.0045453615814309428 0.0046794495412281582 -0.00023375565807573614 0.0037602984773305557 -0.0043767202971503145 0.00050356055576682667
leaf_weight=160396 23 26 4800 35 40564 40 21 23 115 23 27 24 41 35 20 378 21 8772 21 1395 99 33 28 28 27 21 370 36 20 171
leaf_count=160396 23 26 4800 35 40564 40 21 23 115 23 27 24 41 35 20 378 21 8772 21 1395 99 33 28 28 27 21 370 36 20 171
internal_value=0 -9.73284e-06 -6.05901e-05 -6.43655e-05 9.79328e-06 0.000298629 0.0025113 0.000114491 0.00107259 -0.000170395 0.000401894 -7.18379e-05 -0.000172557 -7.3121e-05 0.00106679 -0.00021561 -0.00134825 -6.89388e-05 -2.59146e-05 0.000261092 0.000798736 0.00218822 0.00422581 0.00664278 0.000622312 0.00949618 0.000268126 0.00149002 -0.000446215 0.00106995
internal_weight=0 57237 15879 15856 41358 794 61 733 168 565 142 542 518 495 55 440 62 15821 11021 2249 854 236 137 82 55 54 618 228 390 207
internal_count=217633 57237 15879 15856 41358 794 61 733 168 565 142 542 518 495 55 440 62 15821 11021 2249 854 236 137 82 55 54 618 228 390 207
shrinkage=0.05


Tree=414
num_leaves=31
num_cat=0
split_feature=44 44 13 13 40 40 16 19 16 11 3 5 29 4 7 24 28 43 10 8 21 20 41 40 0 2 37 32 16 3
split_gain=0.00303735 0.0374388 0.0737061 0.0942334 0.0786551 0.456706 0.413478 0.409921 0.350413 0.331091 0.322378 0.219841 0.196442 0.110905 0.167721 0.53791 0.13359 0.157519 0.309571 0.383945 0.0897986 0.096076 0.0729473 0.195196 0.81654 0.467398 0.368981 0.243255 0.188682 0.103914
threshold=-0.20255000000000042 0.086360000000000006 3.3176100000000009e-05 3.4207850000000005e-05 0.1751400000000001 0.039429999999999972 -1.00264e-06 2.1973200000000002e-08 2.7201950000000006e-07 -0.00017480399999999995 -7.6205499999999988 1.5352250000000005e-05 0.0057611650000000013 -0.22659549999999998 3.0316350000000003e-05 0.115276 -0.015011549999999997 0.052215000000000351 2.3474250000000003e-05 1.1792650000000001e-05 -7.375894999999999 0.10183770000000002 0.19792950000000006 -0.040859549999999939 -3.1104599999999993 2.1067000000000005 -1.3027999999999998e-08 -0.32370999999999994 2.886525000000001e-07 -5.8879799999999989
decision_type=2 2 2 2 2 2 2 2 2 2 2 2 2 2 2 2 2 2 2 2 2 2 2 2 2 2 2 2 2 2
left_child=-1 2 4 -4 5 9 12 -8 10 -2 -9 -10 -7 14 15 -11 17 -15 19 -19 21 -16 23 24 25 -18 28 -25 -26 -29
right_child=1 -3 3 -5 -6 6 7 8 11 13 -12 -13 -14 16 20 -17 22 18 -20 -21 -22 -23 -24 27 26 -27 -28 29 -30 -31
leaf_value=-5.0470157769170493e-06 0.0066126734635327013 -3.3706572319669738e-06 -0.0028583194240809464 -0.00012203883763927883 -0.00011602717569877029 -0.0040477840041813372 -0.0018234772544184871 0.012522514501156715 -0.00020485851190252496 -0.00041651791054418019 0.0045704319328251589 0.0064742561810734595 0.0022958059086585821 0.00052016718232271561 0.0045561052692937665 -0.0097293198635452424 -0.0088989829976344487 -0.00012205593908826511 0.00028099549391742121 -0.0076458344882457119 -0.00039149063630939573 8.2200375545653527e-05 -3.0465004199981089e-05 -0.0042780581501054779 0.01106216449290514 0.0019107070914469661 0.0013589639417154508 0.00037979702122837997 0.0047870517708361151 0.0039965123414731352
leaf_weight=125795 20 83204 32 1881 1649 26 22 26 28 69 25 22 23 115 20 20 20 30 74 39 355 30 1114 28 25 20 36 2842 23 20
leaf_count=125795 20 83204 32 1881 1649 26 22 26 28 69 25 22 23 115 20 20 20 30 74 39 355 30 1114 28 25 20 36 2842 23 20
internal_value=0 6.91314e-06 0.000106016 -0.00016781 0.000183955 0.000281485 0.00281389 0.0043612 0.00570835 0.000192592 0.00862443 0.00273395 -0.00107018 0.000166281 -0.000543962 -0.00250928 0.000246276 -0.000857505 -0.00196542 -0.00437463 -0.000112077 0.00187176 0.000315262 0.000443046 0.00238559 -0.00349414 0.00518546 0.000359698 0.00805534 0.000405071
internal_weight=0 91838 8634 1913 6721 5072 172 123 101 4900 51 50 49 4880 494 89 4386 258 143 69 405 50 4128 3014 124 40 84 2890 48 2862
internal_count=217633 91838 8634 1913 6721 5072 172 123 101 4900 51 50 49 4880 494 89 4386 258 143 69 405 50 4128 3014 124 40 84 2890 48 2862
shrinkage=0.05


Tree=415
num_leaves=31
num_cat=0
split_feature=17 37 2 38 4 2 17 3 38 32 33 32 40 1 14 33 43 40 40 40 40 26 38 14 3 18 24 3 43 21
split_gain=0.00302869 0.00870611 0.0592773 0.0457694 0.0785955 0.0378327 0.0147748 0.0390568 0.0138786 0.0149805 0.00814978 0.00774458 0.0456418 0.0860981 0.00767415 0.00725452 0.0111178 0.00905254 0.0776868 0.0392381 0.0622531 0.00710518 0.00671754 0.0514133 0.00757006 0.00579487 0.063039 0.0794937 0.0984203 0.130102
threshold=6.1187250000000013e-05 -2.7510949999999998e-05 2.5460950000000007 -3.2628099999999995 3.8631150000000005 1.4821150000000003 0.00020736000000000002 -13.009399999999998 -1.0090899999999998 -22.304899999999996 -0.00058211249999999993 5.9680600000000004 0.056773999999999998 -4.5317299999999987 0.0039264450000000015 -3.5620349999999992e-05 2.4196300000000006 0.354709 -0.30278099999999991 0.14973499999999998 -0.079468000000000025 -0.0019040299999999999 -0.092780149999999992 0.0052393350000000003 -13.243349999999998 5.4626650000000007e-05 0.82362200000000019 -7.2857699999999985 -5.4542349999999997 -15.424049999999998
decision_type=2 2 2 2 2 2 2 2 2 2 2 2 2 2 2 2 2 2 2 2 2 2 2 2 2 2 2 2 2 2
left_child=25 2 5 4 -3 6 7 -2 10 -10 -5 15 13 -13 -14 16 17 18 -11 20 -20 -8 23 -17 -25 -1 -27 28 -28 -30
right_child=1 3 -4 8 -6 -7 21 -9 9 11 -12 12 14 -15 -16 22 -18 -19 19 -21 -22 -23 -24 24 -26 26 27 -29 29 -31
leaf_value=1.4850828760105927e-06 -0.0026147718518768673 0.0039547607298300131 -0.002442255773348734 -0.00034887909306979218 -0.00018067058818242341 0.002088893731997814 0.001080419641939443 3.1875705652688025e-05 0.0011179682313306857 -4.7316037863290295e-05 -0.0015010191191686317 -0.00015759249469868208 -0.00099770021370204631 0.0040776292407697055 4.665385954031579e-05 0.0023363527066437568 4.2407671941744083e-05 -4.9303130679494548e-05 -0.001236748916063724 -0.00034762829394928895 -0.0047336462634484638 -6.4602455815821451e-05 2.1763969181757691e-05 -0.00061199516792493388 0.00019952674633964059 -3.9443488002676397e-05 -0.0010849963858726413 -0.00047790439219441689 0.0040006900714019888 0.0005923534281113233
leaf_weight=168515 20 20 28 66 27 20 20 46 31 394 20 28 20 21 146 27 1008 529 35 34 20 42 19160 42 91 26061 84 238 29 811
leaf_count=168515 20 20 28 66 27 20 20 46 31 394 20 28 20 21 146 27 1008 529 35 34 20 42 19160 42 91 26061 84 238 29 811
internal_value=0 1.7636e-05 -0.00033261 2.04742e-05 0.00157909 6.65122e-05 -0.000249485 -0.000770139 1.70941e-05 1.96196e-05 -0.000616819 1.804e-05 0.000316628 0.0016575 -7.91719e-05 1.50317e-05 -7.51265e-05 -0.000192196 -0.000348698 -0.0016829 -0.00250835 0.00030476 2.44582e-05 0.000347092 -5.67433e-05 -1.97274e-06 -2.33773e-05 0.000336952 0.000546839 0.000710022
internal_weight=0 21895 176 21719 47 148 128 66 21672 21586 86 21555 215 49 166 21340 2020 1012 483 89 55 62 19320 160 133 195738 27223 1162 924 840
internal_count=217633 21895 176 21719 47 148 128 66 21672 21586 86 21555 215 49 166 21340 2020 1012 483 89 55 62 19320 160 133 195738 27223 1162 924 840
shrinkage=0.05


Tree=416
num_leaves=31
num_cat=0
split_feature=28 1 12 12 40 40 40 12 10 12 20 1 12 15 2 35 16 26 19 26 16 10 40 13 13 7 21 3 20 0
split_gain=0.00311342 0.0445221 0.031654 0.0345921 0.1124 0.158421 0.130724 0.118361 0.0639538 0.0258044 0.031126 0.0253707 0.0224921 0.0336716 0.0226017 0.0177067 0.0169422 0.0141263 0.0139756 0.0126752 0.0114494 0.0111707 0.0077052 0.00705469 0.0330776 0.00724486 0.0173514 0.00791385 0.00756192 0.0203678
threshold=-0.96676949999999995 -14.127399999999998 -0.0018492449999999998 -0.00020892849999999997 -0.30278099999999991 0.22528099999999995 -0.57440449999999987 -0.00029231849999999997 2.8986250000000004e-05 -0.00012499999999999998 7.745845000000001 -7.1790999999999991 -7.3957599999999985e-05 6.3536550000000009e-06 -1.1556049999999998 -0.93075499999999989 0.00012350650000000004 -0.0016081899999999998 9.5798550000000015e-06 0.0041053400000000007 9.6924450000000025e-07 1.0512900000000001e-05 -0.57440449999999987 -2.3243949999999996e-05 -2.5389999999999996e-05 2.7630050000000005e-05 10.191550000000001 -14.605749999999999 16.002400000000005 6.4712700000000014
decision_type=2 2 2 2 2 2 2 2 2 2 2 2 2 2 2 2 2 2 2 2 2 2 2 2 2 2 2 2 2 2
left_child=1 -1 -3 4 6 7 19 8 -6 10 11 -5 13 14 18 -13 17 -7 22 -4 -17 -14 -11 24 -23 26 -25 -27 -29 -30
right_child=-2 2 3 9 5 16 -8 -9 -10 12 -12 15 21 -15 -16 20 -18 -19 -20 -21 -22 23 -24 25 -26 27 -28 28 29 -31
leaf_value=0.0021196068520784261 5.4230246925163722e-07 0.0018831296986900272 -0.00072640685869243635 0.0015947804331797391 -0.003833231829445471 0.0001634558336058211 0.0042041314576636074 -0.0066463038395158953 7.3390822508372379e-05 7.3907237849294021e-05 0.0022417663405940405 0.00086662527355656498 -0.0011963135226687883 -0.0023188625532034515 -0.0016098935143628087 -0.00011686659815425699 0.0012121183720591945 -0.0015409488657314797 0.0010405362131468091 0.00069000483067198229 -0.0017081203873385677 2.033400853397325e-05 -0.0011194941474102615 2.5083342244705331e-05 0.0022103695035184502 -0.00071926391859354535 0.0015898320780252106 -9.5880543268194699e-06 6.2139952955696961e-05 -0.0014033656025374611
leaf_weight=23 215858 20 56 26 22 31 20 20 20 38 25 24 20 26 26 26 20 20 26 22 20 125 21 91 20 48 22 814 66 37
leaf_count=23 215858 20 56 26 22 31 20 20 20 38 25 24 20 26 26 26 20 20 26 22 20 125 21 91 20 48 22 814 66 37
internal_value=0 -6.59495e-05 -9.46411e-05 -0.000117479 -0.000687077 -0.00163383 0.000597795 -0.00348047 -0.00197294 -2.98194e-05 0.000670302 0.000261066 -9.12069e-05 -0.000699231 -0.000319858 -0.000234313 -2.12603e-05 -0.000504938 7.47416e-05 -0.000326906 -0.000808716 -2.41922e-05 -0.000350863 -5.02421e-06 0.000322408 -4.90666e-05 0.000329725 -9.34224e-05 -6.0663e-05 -0.000464304
internal_weight=0 1775 1752 1732 231 133 98 62 42 1501 121 96 1380 137 111 70 71 51 85 78 46 1243 59 1223 145 1078 113 965 917 103
internal_count=217633 1775 1752 1732 231 133 98 62 42 1501 121 96 1380 137 111 70 71 51 85 78 46 1243 59 1223 145 1078 113 965 917 103
shrinkage=0.05


Tree=417
num_leaves=31
num_cat=0
split_feature=26 1 5 5 15 35 22 4 40 16 3 40 16 26 2 40 40 8 0 25 25 43 21 11 40 10 14 15 29 28
split_gain=0.00302055 0.0360564 0.0163464 0.0291843 0.0274044 0.0366312 0.0264974 0.0787818 0.0140359 0.0362803 0.131937 0.0193875 0.00866875 0.00777775 0.0272329 0.0166097 0.0592819 0.0904612 0.0855488 0.0830375 0.118679 0.0595451 0.0324695 0.164667 0.0398268 0.0194461 0.0128355 0.0127588 0.0456006 0.0113058
threshold=-0.062701649999999984 -13.794199999999998 1.2137100000000001e-05 1.2406650000000003e-05 -7.7047499999999992e-07 -0.27384599999999998 0.55254350000000019 0.08589150000000001 -0.079468000000000025 1.3884700000000001e-05 -9.5548399999999987 0.14973499999999998 8.0155350000000022e-06 -0.013856449999999998 -2.9939399999999998 0.20129000000000011 -0.30278099999999991 -6.8290849999999985e-06 -4.8765649999999985 44.542100000000012 32.859550000000006 0.97785500000000003 8.0248800000000013 3.1686600000000003e-05 0.327845 3.0829950000000005e-05 0.0037958600000000003 -3.4995899999999995e-05 1.0482150000000001 -0.96676949999999995
decision_type=2 2 2 2 2 2 2 2 2 2 2 2 2 2 2 2 2 2 2 2 2 2 2 2 2 2 2 2 2 2
left_child=1 -1 4 -4 5 -3 8 -8 9 -5 -11 -10 -6 14 -2 16 27 21 -19 20 25 -18 24 26 -17 -20 -24 28 -16 -15
right_child=13 2 3 6 12 -7 7 -9 11 10 -12 -13 -14 29 15 22 17 18 19 -21 -22 -23 23 -25 -26 -27 -28 -29 -30 -31
leaf_value=0.0021907692548120395 -0.0018534075653984805 -0.0029780264853616245 0.0019321681267288312 -6.1759254009479889e-05 0.00010189498741272081 -0.00033438233038300257 -9.131053579039872e-05 0.0036802274303045128 -0.0016428170692441718 -0.0012318279259488918 0.0044425871600435041 -7.8808103175095863e-05 -0.00092863356087194849 -0.00017696223337333952 -3.549242766073404e-05 -0.0016621194988450346 -0.0043742303268767763 0.0020006418182553411 0.00053610399287814896 0.0010213688688963886 -0.0050730313724753539 -0.00094074546966863709 0.00027731628430426925 0.004753044975752181 4.742641396696281e-05 -0.0016156442951233614 -0.0010916625718496306 -0.00011382896822167938 0.0026272763057204433 1.217013059267151e-06
leaf_weight=20 22 20 23 113 181 38 45 20 21 20 21 351 23 894 82 36 28 30 21 32 22 23 67 22 635 21 23 667 20 214092
leaf_count=20 22 20 23 113 181 38 45 20 21 20 21 351 23 894 82 36 28 30 21 32 22 23 67 22 635 21 23 667 20 214092
internal_value=0 9.16142e-05 4.36883e-05 0.000184778 -0.000286957 -0.00124598 0.000116775 0.00106916 -9.1602e-07 0.000400513 0.00167458 -0.000167099 -1.42921e-05 -3.78737e-07 -0.000105331 -8.30885e-05 -0.000224079 -0.00104909 -0.000329952 -0.00105826 -0.00209808 -0.0028258 8.72521e-05 0.000875348 -4.42929e-05 -0.00053977 -7.25339e-05 -3.41857e-05 0.000486619 4.76071e-07
internal_weight=0 896 876 614 262 58 591 65 526 154 41 372 204 216737 1751 1729 946 177 126 96 64 51 783 112 671 42 90 769 102 214986
internal_count=217633 896 876 614 262 58 591 65 526 154 41 372 204 216737 1751 1729 946 177 126 96 64 51 783 112 671 42 90 769 102 214986
shrinkage=0.05


Tree=418
num_leaves=31
num_cat=0
split_feature=31 20 3 13 13 3 40 40 19 11 16 2 18 14 2 22 23 43 20 9 30 16 16 37 40 13 13 2 28 9
split_gain=0.00292239 0.0215412 0.0635788 0.0379141 0.0863753 0.0517229 0.0902248 0.248614 0.355114 0.0265749 0.0246014 0.059909 0.0292334 0.0319184 0.0216779 0.141787 0.0311351 0.0200785 0.0453931 0.219646 0.259849 0.147651 0.263992 0.136962 0.256469 0.0705129 0.0749957 0.0547151 0.123231 0.0493304
threshold=0.56878050000000013 3.8241100000000006 -18.015749999999997 2.3721450000000003e-05 2.6751950000000004e-05 -9.7440149999999992 -0.68744999999999989 0.327845 0.0032667350000000002 -0.00019804799999999998 3.0231500000000004e-06 1.4821150000000003 -0.00011261149999999999 0.0022785850000000005 3.0578500000000006 -2.9160599999999994 -7.6703599999999996 -0.88227999999999918 -4.0204099999999992 -2.2309399999999997e-05 0.0026438850000000003 -2.3178849999999996e-05 -7.0069149999999991e-06 -3.2260049999999996e-06 -0.17527649999999997 1.6488300000000006e-05 5.8318900000000008e-05 1.8942800000000002 0.11940450000000001 -1.7830049999999997e-05
decision_type=2 2 2 2 2 2 2 2 2 2 2 2 2 2 2 2 2 2 2 2 2 2 2 2 2 2 2 2 2 2
left_child=-1 14 -3 9 -5 6 -6 8 -8 -4 12 -12 -11 -14 17 -16 -17 18 29 20 -20 -22 -23 24 -24 -25 -27 -21 -29 -2
right_child=1 2 3 4 5 -7 7 -9 -10 10 11 -13 13 -15 15 16 -18 -19 19 27 21 22 23 25 -26 26 -28 28 -30 -31
leaf_value=-1.7962932596478361e-06 -0.00051881343517175868 0.0028254820765932498 -0.0018521206340301431 0.0037355468225723598 -0.00014397359515643359 -0.00023421673958114644 0.0085808300738930334 0.00012447494468949442 5.1769954861020268e-05 0.001756594598227821 -2.1440365905108009e-05 0.0027351534366769356 -8.9165572877680628e-05 -0.0015694141605285365 0.0045225393306463956 -0.00035419798056702742 0.0017111190129071475 2.7637934312134238e-05 0.0066147603745445281 -0.000119391082324633 -0.0010400656924817295 0.0057361106347922361 -0.00038264109996536999 -0.0019303580068084651 0.0069525274417008565 0.0027548768127248712 -0.00079836718800696408 -3.3431826688518579e-06 -0.004399355627509067 -6.4993138027397122e-05
leaf_weight=198549 870 23 20 20 122 196 26 87 23 20 73 27 550 39 20 107 22 13889 22 690 68 33 26 39 22 27 33 44 25 1921
leaf_count=198549 870 23 20 20 122 196 26 87 23 20 73 27 550 39 20 107 22 13889 22 690 68 33 26 39 22 27 33 44 25 1921
internal_value=0 1.86885e-05 0.00022143 0.000171643 0.00051975 0.000378084 0.000843244 0.00172884 0.00457739 -5.46979e-05 -3.99482e-06 0.00072284 -0.000123344 -0.000187179 4.76983e-06 0.000605344 -1.97338e-06 -2.83282e-07 -0.000101801 0.00018206 0.00140685 0.000944862 0.00169472 0.000787473 0.00297931 -0.000275236 0.000800593 -0.000253637 -0.0015961 -0.000206456
internal_weight=0 19084 1226 1203 474 454 258 136 49 729 709 100 609 589 17858 149 129 17709 3820 1029 270 248 180 147 48 99 60 759 69 2791
internal_count=217633 19084 1226 1203 474 454 258 136 49 729 709 100 609 589 17858 149 129 17709 3820 1029 270 248 180 147 48 99 60 759 69 2791
shrinkage=0.05


Tree=419
num_leaves=31
num_cat=0
split_feature=44 44 14 3 7 8 9 20 37 36 8 21 40 40 40 3 36 26 40 3 28 33 38 40 4 24 40 0 40 37
split_gain=0.00296629 0.0336227 0.108465 0.0849148 0.0808158 0.0877687 0.0766845 0.158379 0.0689189 0.0630126 0.0955654 0.217576 0.0711603 1.19601 0.178381 0.233649 0.271789 0.38648 0.126946 0.0866978 0.0697095 0.0929438 0.0854959 0.0687364 0.151315 0.27149 0.198719 1.00162 0.0826838 0.0640004
threshold=-0.20255000000000042 0.086360000000000006 0.00083188600000000011 -12.423099999999998 3.4347950000000007e-05 -1.4320549999999998e-05 2.7158350000000004e-05 5.3893600000000008 -8.7984999999999989e-06 0.0052581350000000006 1.5162550000000001e-05 -9.6904849999999971 0.14973499999999998 0.077348000000000056 0.02582950000000005 -7.197614999999999 0.00047818200000000006 1.0000000180025095e-35 0.039429999999999972 -5.8362949999999989 -0.041208949999999994 -1.5142999999999999e-05 -0.0027172199999999998 -0.079468000000000025 0.21856850000000003 0.18321400000000002 -0.040859549999999939 -2.9082999999999997 -0.14969009999999991 1.3687350000000002e-07
decision_type=2 2 2 2 2 2 2 2 2 2 2 2 2 2 2 2 2 2 2 2 2 2 2 2 2 2 2 2 2 2
left_child=-1 2 3 -2 5 -4 -7 -8 -6 12 -11 -12 13 14 19 18 17 -17 -16 20 -5 -22 -23 28 26 -26 27 -25 -24 -28
right_child=1 -3 4 9 8 6 7 -9 -10 10 11 -13 -14 -15 15 16 -18 -19 -20 -21 21 22 23 24 25 -27 29 -29 -30 -31
leaf_value=-4.9876268349164262e-06 -0.002264276379526778 -2.9138067317218846e-06 -0.003606452226243994 -0.0022548574897297969 0.002360387483220679 -0.00032610552779518308 -0.00025031840043358974 -0.0051521141930537017 -1.5054258986294414e-05 2.4181744858314369e-05 -0.0058471211879198874 -0.00026471683985676011 -7.0615557009538334e-05 0.011291237726807596 0.0019434878671994713 -0.0079854683531448249 0.0035203044854656414 0.0014256039808969946 0.0053681081832321585 0.0032453756825513362 0.0031192333163874409 0.0034885348309762775 -6.1756884138534571e-05 -0.0055574437486939137 -0.0068989594533923095 0.00052710819227286265 0.00037411956727043669 0.0084692364438836067 -0.0029167623366587441 -0.0011076451120413066
leaf_weight=125795 34 83204 23 28 31 750 45 26 2033 422 24 64 1063 25 73 20 27 24 43 24 28 20 1030 20 20 32 2569 35 26 75
leaf_count=125795 34 83204 23 28 31 750 45 26 2033 422 24 64 1063 25 73 20 27 24 43 24 28 20 1030 20 20 32 2569 35 26 75
internal_value=0 6.8318e-06 0.000100748 0.000227041 -0.00014793 -0.000560127 -0.000474785 -0.00204534 2.06234e-05 0.000241923 -0.000288369 -0.00178719 0.000294113 0.000388239 0.00032166 0.00183025 -0.000428826 -0.00285216 0.00321296 0.000249455 0.000230937 0.000248993 0.000227993 0.000210863 0.000342495 -0.00232907 0.000393966 0.00336863 -0.000132051 0.000332088
internal_weight=0 91838 8634 5726 2908 844 821 71 2064 5692 510 88 5182 4119 4094 187 71 44 116 3907 3883 3855 3827 3807 2751 52 2699 55 1056 2644
internal_count=217633 91838 8634 5726 2908 844 821 71 2064 5692 510 88 5182 4119 4094 187 71 44 116 3907 3883 3855 3827 3807 2751 52 2699 55 1056 2644
shrinkage=0.05


Tree=420
num_leaves=31
num_cat=0
split_feature=40 41 2 37 11 0 28 3 35 17 0 7 43 20 20 16 44 40 13 3 20 23 19 30 12 12 20 20 2 30
split_gain=0.00308469 0.0276669 0.0681961 0.055979 0.161512 0.253152 0.0609432 0.179843 0.0855905 0.130813 0.0860467 0.0841107 0.219949 0.393662 0.118978 0.0805689 0.0798844 0.152948 0.231273 0.0651785 0.058639 0.0580089 0.0577052 0.196568 0.0524661 0.0508514 0.210976 0.100507 0.282461 0.154035
threshold=0.46240350000000002 -0.016969000000000036 3.0794900000000003 -2.7510949999999998e-05 1.6735200000000005e-05 6.3956300000000006 -0.18761549999999996 -18.015749999999997 -0.052110149999999994 6.9933600000000013e-06 6.0594650000000003 4.8886400000000007e-05 -0.36707999999999957 -2.5244499999999994 8.0730100000000018 4.7861450000000004e-06 -1.1537099999999991 0.14973499999999998 3.2426150000000008e-05 -10.496249999999998 7.0124150000000007 -7.5371299999999986 1.1921100000000003e-10 0.00052219300000000011 -4.0171199999999992e-05 1.7268900000000003e-05 16.002400000000005 -5.6544449999999999 2.4109800000000003 0.043133650000000003
decision_type=2 2 2 2 2 2 2 2 2 2 2 2 2 2 2 2 2 2 2 2 2 2 2 2 2 2 2 2 2 2
left_child=1 3 -3 4 -1 -6 7 -5 9 11 16 12 13 -9 -14 -11 19 18 -18 -10 -13 -19 23 -8 -12 26 -24 28 29 -27
right_child=-2 2 -4 6 5 -7 22 8 10 15 24 20 14 -15 -16 -17 17 21 -20 -21 -22 -23 25 -25 -26 27 -28 -29 -30 -31
leaf_value=-0.00024874472059309487 7.1135157226620526e-06 4.4415936463039688e-06 -0.0027184520331818775 0.0036770703514472794 0.0074030981864780191 -0.00027181783754547887 -0.0043457991115334856 -0.00066141598286949808 -0.0033063791096494587 -0.00088023824077522895 0.002592653276224155 -2.1207315353023116e-07 -0.00089628904898249448 0.0090199568907597238 0.0032147126182363456 -0.0045860907083393118 -0.007754329409466923 -0.0024671609872408836 -0.0012686814772206601 -0.00023405025350097951 -0.0029046538590337154 0.00039149016813358429 2.4842405143719389e-05 0.0014896958967980298 -0.00098564482593376727 0.0023381428248893141 0.0045363155803687947 -0.00021729874459114275 -0.00015776983502985645 -0.00049666733849012569
leaf_weight=90 89633 111733 23 24 21 22 31 21 21 44 20 57 88 21 22 22 28 36 27 97 25 35 7850 27 21 211 26 6458 837 62
leaf_count=90 89633 111733 23 24 21 22 31 21 21 44 20 57 88 21 22 22 28 36 27 97 25 35 7850 27 21 211 26 6458 837 62
internal_value=0 -4.98129e-06 3.88121e-06 -6.59538e-05 0.000955624 0.0034764 -7.43872e-05 -0.00056502 -0.000739055 -0.000149578 -0.00135956 0.00040492 0.00110118 0.00417927 -7.40887e-05 -0.00211552 -0.00171569 -0.0025912 -0.00457047 -0.000780821 -0.000885713 -0.00105797 -5.51126e-05 -0.00162928 0.000759866 -4.92008e-05 3.97355e-05 -0.000141757 0.000297749 0.00169434
internal_weight=0 128000 111756 16244 133 43 16111 609 585 300 285 234 152 42 110 66 244 126 55 118 82 71 15502 58 41 15444 7876 7568 1110 273
internal_count=217633 128000 111756 16244 133 43 16111 609 585 300 285 234 152 42 110 66 244 126 55 118 82 71 15502 58 41 15444 7876 7568 1110 273
shrinkage=0.05


Tree=421
num_leaves=31
num_cat=0
split_feature=26 1 5 5 7 15 40 40 41 6 40 0 16 21 29 26 2 40 40 19 6 1 0 15 43 21 11 40 41 41
split_gain=0.00295763 0.0325059 0.0151061 0.0298661 0.03433 0.0235257 0.0342353 0.0124335 0.0517899 0.0554185 0.0196485 0.0109939 0.00816394 0.00770035 0.00744539 0.00702436 0.0243738 0.0150185 0.0536413 0.100898 0.101033 0.109656 0.0726465 0.0465611 0.0289275 0.028811 0.146246 0.0362094 0.0119858 0.0167235
threshold=-0.062701649999999984 -13.794199999999998 1.2248200000000001e-05 1.2523200000000001e-05 2.6356650000000005e-05 -7.7047499999999992e-07 0.9482394999999999 -0.079468000000000025 0.56931500000000013 -1.1060999999999997e-06 0.14973499999999998 -9.7972349999999988 8.0155350000000022e-06 12.159000000000001 1.0482150000000001 -0.013856449999999998 -2.9939399999999998 0.20129000000000011 -0.30278099999999991 0.0078562650000000029 5.6989500000000011e-07 -4.2653099999999986 -4.1883099999999986 -4.7338599999999997e-07 -0.27803499999999998 8.0248800000000013 3.1686600000000003e-05 0.327845 0.40643499999999982 0.68231549999999996
decision_type=2 2 2 2 2 2 2 2 2 2 2 2 2 2 2 2 2 2 2 2 2 2 2 2 2 2 2 2 2 2
left_child=1 -1 5 -4 -5 6 -3 8 9 -6 -9 -10 -7 14 -12 16 -2 18 28 20 22 -22 -20 -24 -25 27 -27 -19 -18 -30
right_child=15 2 3 4 7 12 -8 10 11 -11 13 -13 -14 -15 -16 -17 17 25 19 -21 21 -23 23 24 -26 26 -28 -29 29 -31
leaf_value=0.0020837791275698692 -0.0017538842367436948 -0.0024574065225385347 0.0020847077833241203 0.0021553711897831819 0.00016614829827449286 9.6952989298052742e-05 -8.7742945262497035e-05 -0.0016504441708093511 0.00091883622915939548 0.0035669719263830267 -5.1872479533453453e-05 -0.00026777475350525128 -0.00090101909796509944 -0.00050191296654766501 0.0005908767770610243 4.3758138361610367e-07 0.0011455936722909212 -0.0015836147740224587 0.0020658807916333899 0.0021707679782015147 -0.00010178067517699675 -0.0046757539058729126 -0.003267599977552891 0.00067561240011855268 -0.0016181377111934127 -6.8016111225814617e-05 0.0044796445396390154 4.6446373405812248e-05 -0.0008384764523952982 6.7371244009112091e-06
leaf_weight=20 22 27 20 20 25 188 35 20 23 23 215 129 23 71 57 214986 21 36 22 22 20 38 20 28 27 90 22 635 64 684
leaf_count=20 22 27 20 20 25 188 35 20 23 23 215 129 23 71 57 214986 21 36 22 22 20 38 20 28 27 90 22 635 64 684
internal_value=0 9.06551e-05 4.515e-05 0.000184857 0.000119682 -0.000263433 -0.00111969 4.7366e-05 0.000363922 0.00179571 -0.000127045 -8.82218e-05 -1.18307e-05 -3.8217e-05 8.28213e-05 -3.74772e-07 -0.000100115 -7.90719e-05 -0.000213139 -0.000997924 -0.00144767 -0.00309852 -0.000460569 -0.00120166 -0.00045041 8.29043e-05 0.000825274 -4.10085e-05 -3.25056e-05 -6.55806e-05
internal_weight=0 896 876 603 583 273 62 563 200 48 363 152 211 343 272 216737 1751 1729 946 177 155 58 97 75 55 783 112 671 769 748
internal_count=217633 896 876 603 583 273 62 563 200 48 363 152 211 343 272 216737 1751 1729 946 177 155 58 97 75 55 783 112 671 769 748
shrinkage=0.05


Tree=422
num_leaves=31
num_cat=0
split_feature=4 38 4 43 41 40 18 40 40 43 17 40 43 43 7 28 12 17 5 40 11 7 5 20 22 21 40 29 43 18
split_gain=0.00294752 0.123963 0.218458 0.292168 0.4356 1.22012 0.897129 0.501868 0.410481 0.353818 0.352339 0.350614 0.313998 0.288906 0.271064 0.244093 0.337962 0.221912 0.26743 0.215479 0.207492 0.207597 0.206927 0.196988 0.251136 0.207659 0.193677 0.192698 0.151164 0.160748
threshold=0.17191050000000002 -0.00072248699999999985 0.79460700000000006 2.5222350000000002 0.24875600000000014 -0.040859549999999939 1.0319200000000003e-05 0.2761725000000001 0.02582950000000005 -0.88227999999999918 6.6559100000000008e-06 -0.058960000000000005 -3.0299649999999994 -1.7081299999999999 2.7447650000000005e-05 -0.021603249999999997 -7.9519599999999983e-05 5.6518550000000013e-07 1.1911150000000002e-05 -0.10081500000000009 4.707400000000001e-05 4.0878450000000008e-05 1.7537650000000003e-05 1.9841050000000002 0.22982800000000003 5.7588600000000012 0.056773999999999998 -0.0039001649999999993 0.97785500000000003 8.9857900000000023e-06
decision_type=2 2 2 2 2 2 2 2 2 2 2 2 2 2 2 2 2 2 2 2 2 2 2 2 2 2 2 2 2 2
left_child=-1 2 3 4 5 6 11 8 9 -7 13 22 -10 -8 -15 20 -17 -16 -19 -20 21 26 -2 27 -25 -26 -14 -18 29 -11
right_child=1 -3 -4 -5 -6 7 10 -9 12 28 -12 -13 15 14 17 16 23 18 19 -21 -22 -23 -24 24 25 -27 -28 -29 -30 -31
leaf_value=-3.8528049457269138e-06 0.0083546927108222417 -3.3087227004534504e-05 -1.9727170353670148e-05 -4.8997472856943127e-05 -9.1373268231463876e-05 0.0049810024511481804 -0.0010227483742423109 -3.5074663036422034e-05 -0.0012479923582456346 0.001141718776566219 -0.0038697791147223187 0.0046527908054283876 0.0024645358962328014 0.0091170896897979446 0.00052194612651047388 -0.00265837033764304 0.0082781612751600536 0.0011726885020883907 0.010659692179234256 0.0043487081313383228 0.0097637668345123534 -8.4438712854700338e-05 0.015064823466818781 0.0054798033839601676 -0.0049890952026180463 0.0015457397364380381 0.0079218839792333344 0.0032787849593216931 0.0033943002755557634 -0.00055573277816878958
leaf_weight=151301 27 48230 10968 2917 1474 44 38 1373 45 236 21 36 29 21 55 30 23 37 21 38 20 22 20 21 20 31 37 119 38 341
leaf_count=151301 27 48230 10968 2917 1474 44 38 1373 45 236 21 36 29 21 55 30 23 37 21 38 20 22 20 21 20 31 37 119 38 341
internal_value=0 8.78811e-06 0.000120359 0.00033573 0.000601855 0.000974374 0.00390734 0.000595226 0.00141474 0.000649603 0.00230532 0.00836595 0.00268482 0.00292284 0.00379453 0.00318759 0.00231161 0.00305431 0.00450514 0.00659499 0.00516666 0.00412186 0.0112101 0.00300834 0.000877943 -0.00101694 0.00552396 0.00408854 0.000339714 0.000138546
internal_weight=0 66332 18102 7134 4217 2743 314 2429 1056 659 231 83 397 210 172 352 244 151 96 59 108 88 47 214 72 51 66 142 615 577
internal_count=217633 66332 18102 7134 4217 2743 314 2429 1056 659 231 83 397 210 172 352 244 151 96 59 108 88 47 214 72 51 66 142 615 577
shrinkage=0.05


Tree=423
num_leaves=31
num_cat=0
split_feature=40 41 21 40 6 12 0 2 29 44 0 20 8 10 44 44 24 31 40 40 34 37 44 36 20 9 21 20 25 22
split_gain=0.00340928 0.0447949 0.060349 0.280478 0.413209 0.350376 0.144293 0.102326 0.14952 0.079016 0.062975 0.17485 0.501611 0.561252 0.136505 0.244175 0.448368 0.510845 0.363404 0.404652 0.51315 0.302479 0.381522 0.415737 0.269492 0.290661 0.19741 0.244083 0.403915 0.205108
threshold=0.2761725000000001 -0.026150000000000003 10.697700000000001 0.077348000000000056 2.0843950000000004e-06 6.1414500000000013e-05 8.6233850000000025 0.99685600000000008 -0.019172949999999998 1.0000000180025095e-35 2.8590650000000006 4.023365000000001 8.5226600000000012e-06 2.1416250000000004e-05 -0.13697500000000049 0.27512500000000012 -0.36932949999999992 0.097528350000000014 0.039429999999999972 0.12375499999999996 0.14687100000000003 -6.7840449999999985e-07 3.2439200000000006 0.0064979950000000003 -2.0176449999999995 -1.8734599999999998e-05 -11.150349999999998 -12.926599999999999 10.786550000000002 -1.8407349999999998
decision_type=2 2 2 2 2 2 2 2 2 2 2 2 2 2 2 2 2 2 2 2 2 2 2 2 2 2 2 2 2 2
left_child=1 2 10 4 5 -4 7 -5 -9 -7 11 14 -13 -14 26 16 -16 -18 -19 20 -20 22 23 -17 -25 -26 29 28 -28 -1
right_child=-2 -3 3 6 -6 9 -8 8 -10 -11 -12 12 13 -15 15 21 17 18 19 -21 -22 -23 -24 24 25 -27 27 -29 -30 -31
leaf_value=0.0033540700508711851 7.0707364223908431e-06 3.2118196596706881e-06 -0.0057122372420346963 -0.0026387505086236879 -0.008124794131489815 0.0022904751002316617 0.0041800740640610462 0.003010394113012948 -0.00027809980423189459 -0.0009017902945786427 -0.00023901238013727337 -0.0002400902287508419 0.0088920477143591813 -0.00038638999452424681 -0.0037389506441163458 0.0083061023988193483 0.00042091253942027127 0.00081372046651350413 0.012040996286444941 0.0012147493836612111 0.0021902081416919831 -0.00019861088495652936 -0.0011776892290476504 -5.5846869654487821e-05 0.0091697857715189457 0.0008508278861405589 0.0084059609499360834 -0.00041163654092003462 -0.00031956000158162273 -0.0009567571661219436
leaf_weight=74 95596 112638 31 38 27 36 20 39 304 42 3636 141 39 28 37 32 189 44 39 26 20 1609 72 70 21 21 21 2663 36 44
leaf_count=74 95596 112638 31 38 27 36 20 39 304 42 3636 141 39 28 37 32 189 44 39 26 20 1609 72 70 21 21 21 2663 36 44
internal_value=0 -5.53876e-06 -0.000110406 -0.000625093 -0.00258726 -0.00121557 4.0379e-05 -0.000176928 9.58106e-05 0.000571563 -7.92183e-05 3.19588e-05 0.00145249 0.00501449 -2.69234e-05 0.000270625 0.00147043 0.00207655 0.00450225 0.00641161 0.00870175 3.72385e-05 0.0017941 0.00327999 0.00184396 0.00501031 -0.000255484 -0.000342341 0.00289511 0.00174664
internal_weight=0 122037 9399 537 136 109 401 381 343 78 8862 5226 208 67 5018 2180 355 318 129 85 59 1825 216 144 112 42 2838 2720 57 118
internal_count=217633 122037 9399 537 136 109 401 381 343 78 8862 5226 208 67 5018 2180 355 318 129 85 59 1825 216 144 112 42 2838 2720 57 118
shrinkage=0.05


Tree=424
num_leaves=31
num_cat=0
split_feature=17 37 18 38 4 18 3 38 32 21 34 13 24 4 33 43 41 41 41 41 38 14 3 43 34 18 17 3 12 8
split_gain=0.00337727 0.00858788 0.0543917 0.041232 0.0705506 0.0343552 0.0173791 0.0122182 0.0135858 0.00764985 0.00756548 0.0328416 0.0119286 0.00900981 0.00756143 0.00946911 0.00841929 0.0567291 0.045283 0.0510124 0.0062575 0.0486328 0.00654866 0.00596438 0.0054065 0.118564 0.0595783 0.119835 0.0239371 0.176425
threshold=6.1187250000000013e-05 -2.7510949999999998e-05 0.00014095500000000004 -3.2628099999999995 3.8631150000000005 0.0073236350000000011 -14.605749999999999 -1.0090899999999998 -22.304899999999996 -3.9665599999999999 6.2013600000000011 -8.7538749999999986e-05 1.2323400000000002 2.5139300000000007 -3.5620349999999992e-05 2.4196300000000006 -0.4949349999999999 0.29985500000000015 -0.15132349999999997 0.078754999999999922 -0.092780149999999992 0.0052393350000000003 -13.243349999999998 -1.3362800000000006 34.706300000000006 0.0042538100000000011 1.8285550000000003e-05 -13.353949999999999 0.00011857750000000002 -6.8290849999999985e-06
decision_type=2 2 2 2 2 2 2 2 2 2 2 2 2 2 2 2 2 2 2 2 2 2 2 2 2 2 2 2 2 2
left_child=24 2 -2 4 -3 -4 -7 9 -9 -5 14 -12 13 -13 15 16 -10 18 23 -20 21 -16 -23 -18 -1 26 28 -28 -26 -30
right_child=1 3 5 7 -6 6 -8 8 10 -11 11 12 -14 -15 20 -17 17 -19 19 -21 -22 22 -24 -25 25 -27 27 -29 29 -31
leaf_value=-1.36654232847549e-06 -0.0024404835102849083 0.0037515879100465097 0.0014897834673433864 -0.0012046801099542439 -0.00016648311370604294 -0.001558222320151496 -5.073181566881555e-05 0.0010665749430641411 -4.3698535934828933e-05 -0.00022251707462022418 0.0020801287813810633 -0.00071699895307648226 0.0010015365226375735 0.00012391228250492346 0.002360358423291473 3.3509738538803065e-05 0.00028686823493262638 -5.3621228480481192e-05 -0.004283172939904034 -0.001166017948915916 2.2487021995669273e-05 -0.00059156514094539517 0.00018678410315260409 -0.00081663902049816303 -0.00015729630720455492 0.0036311223254805168 -0.0045945131622085519 -0.00039782928673472878 -7.5411750177728531e-05 0.0046608744003936988
leaf_weight=194293 26 20 32 31 27 24 94 31 516 55 23 37 34 229 25 977 25 388 21 35 19094 39 88 24 1120 21 22 75 185 22
leaf_count=194293 26 20 32 31 27 24 94 31 516 55 23 37 34 229 25 977 25 388 21 35 19094 39 88 24 1120 21 22 75 185 22
internal_value=0 1.86233e-05 -0.000329237 2.14421e-05 0.00150078 3.6713e-05 -0.00035734 1.82339e-05 2.06036e-05 -0.000576553 1.90993e-05 0.000259264 0.000119664 6.94343e-06 1.54457e-05 -7.74418e-05 -0.000184875 -0.000332637 -0.00136367 -0.00233495 2.50308e-05 0.000344572 -5.22365e-05 -0.000253625 -2.08317e-06 -9.84406e-05 -0.000153441 -0.00134965 -6.60014e-05 0.000427962
internal_weight=0 21895 176 21719 47 150 118 21672 21586 86 21555 323 300 266 21232 1986 1009 493 105 56 19246 152 127 49 195738 1445 1424 97 1327 207
internal_count=217633 21895 176 21719 47 150 118 21672 21586 86 21555 323 300 266 21232 1986 1009 493 105 56 19246 152 127 49 195738 1445 1424 97 1327 207
shrinkage=0.05


Tree=425
num_leaves=31
num_cat=0
split_feature=43 3 29 37 29 14 38 40 22 43 3 38 40 40 14 11 4 23 3 5 17 40 20 13 34 44 10 5 3 34
split_gain=0.00321533 0.02225 0.071493 0.0914729 0.0735221 0.0895863 0.142816 0.0689155 0.09788 0.0537319 0.0319665 0.0846324 0.112122 0.227181 0.0702055 0.024033 0.019931 0.0197645 0.0195969 0.145556 0.0413439 0.0334222 0.0166379 0.0134938 0.0125913 0.0269794 0.226602 0.0217398 0.0661565 0.149409
threshold=-2.1087049999999987 -18.015749999999997 0.24911750000000002 -4.2848749999999994e-06 -0.0070766649999999993 0.018015550000000002 0.015434100000000001 0.20129000000000011 -1.5001349999999998 -0.465335 -17.495099999999997 -0.0016790549999999998 -0.079468000000000025 0.30085850000000008 0.0039264450000000015 -8.5970349999999982e-06 0.92648250000000021 -19.078199999999999 -17.304849999999998 2.4191200000000003e-05 1.0181200000000001e-07 -0.10081500000000009 0.53247600000000006 2.8875250000000004e-05 0.209427 2.1563400000000006 1.7328400000000005e-05 1.6207250000000003e-05 -18.627349999999996 0.87201550000000017
decision_type=2 2 2 2 2 2 2 2 2 2 2 2 2 2 2 2 2 2 2 2 2 2 2 2 2 2 2 2 2 2
left_child=24 2 3 -2 -5 6 7 8 -6 -10 11 12 22 -14 -13 -7 -16 -11 19 20 21 -12 -3 -22 -1 26 -26 -27 29 -29
right_child=1 10 -4 4 5 15 -8 -9 9 17 18 14 13 -15 16 -17 -18 -19 -20 -21 23 -23 -24 -25 25 27 -28 28 -30 -31
leaf_value=2.0837841294400132e-05 0.0036254501864525744 0.0014191213835493684 -0.002502932527013833 -0.00055219252912126586 0.0043324967413075057 -0.0017815380339420194 0.0052230187113640244 -0.00052528884436503216 0.0024836037976863987 0.00086067276795140715 -0.00038881479582050815 0.0029301810977631296 -0.0060315776830388891 -0.0002288988890172363 4.0186688190233056e-05 5.7131540905594687e-05 -0.0014507690927968253 -0.0011756003443644204 -3.9329449815279663e-06 0.004226123427125735 -0.0002474872970803214 0.0021264076065465715 -0.00059593067214336771 -0.0016472463833672396 0.0049546469108766667 -0.00012816460178601333 -0.00076737340493691008 -0.00026416660472353793 1.7523385866399706e-05 0.0052125958912074572
leaf_weight=44331 22 21 21 153 26 27 22 54 29 22 25 20 31 37 132 52 27 26 165289 23 36 28 20 33 24 4469 62 33 2518 20
leaf_count=44331 22 21 21 153 26 27 22 54 29 22 25 20 31 37 132 52 27 26 165289 23 36 28 20 33 24 4469 62 33 2518 20
internal_value=0 -3.38188e-06 0.000346171 0.000484349 0.000316212 0.000831197 0.00145016 0.000921484 0.00167999 0.000784334 -4.33949e-06 -0.000530652 -0.00162904 -0.00287424 0.000138198 -0.000571275 -0.000212994 -0.000242309 -3.42325e-06 0.000577595 -0.000110243 0.000939982 0.000436169 -0.000916937 1.09215e-05 -5.07683e-05 0.000829469 -6.15212e-05 5.43206e-05 0.00180254
internal_weight=0 166176 454 433 411 258 179 157 103 77 165722 288 109 68 179 79 159 48 165434 145 122 53 41 69 51457 7126 86 7040 2571 53
internal_count=217633 166176 454 433 411 258 179 157 103 77 165722 288 109 68 179 79 159 48 165434 145 122 53 41 69 51457 7126 86 7040 2571 53
shrinkage=0.05


Tree=426
num_leaves=31
num_cat=0
split_feature=44 3 41 21 44 44 20 0 40 41 17 10 14 36 6 7 16 36 33 21 43 35 20 3 27 36 25 44 21 36
split_gain=0.00318558 0.010189 0.0209559 0.505322 0.0187446 0.0407761 0.0502485 0.0809154 0.0596714 0.681524 0.569462 0.370391 0.323923 0.400306 0.323097 0.282075 0.361499 0.651264 0.24917 0.276298 0.207449 0.173788 0.170153 0.208022 0.141488 0.127634 0.0830877 0.0785926 0.0456785 0.0436587
threshold=-3.2113799999999997 -7.4497099999999987 5.6849350000000003 -3.7462599999999999 -0.81248999999999982 -0.16918499999999967 13.501750000000001 11.964650000000001 -0.14969009999999991 -0.12554300000000002 2.6933700000000002e-07 3.1709050000000001e-05 0.00018765950000000002 -0.0043768949999999996 3.8636850000000014e-06 3.6724600000000004e-05 4.8253050000000006e-09 3.6895150000000009e-05 -3.1705049999999995e-06 -1.9516699999999998 0.60048999999999852 -0.00013444999999999996 -11.056249999999999 -6.4713699999999994 1.2058450000000003 0.00049241950000000008 3.2492400000000008 -0.31477499999999997 10.335750000000003 -0.0028220599999999995
decision_type=2 2 2 2 2 2 2 2 2 2 2 2 2 2 2 2 2 2 2 2 2 2 2 2 2 2 2 2 2 2
left_child=-1 2 -2 -4 -3 6 8 -8 -6 -10 12 14 13 -11 28 16 17 -15 -17 -20 24 -18 -13 25 -14 27 -26 -24 -12 -7
right_child=1 4 3 -5 5 29 7 -9 9 10 11 22 20 15 -16 18 21 -19 19 -21 -22 -23 23 -25 26 -27 -28 -29 -30 -31
leaf_value=8.8861413634482513e-06 2.7139946403702269e-06 1.0013934551401078e-07 0.0079145509040071862 -5.7487548183514742e-05 -2.2217422733147465e-05 0.00041230316662944346 0.00027173243006423358 0.003548648856979396 -2.6250749493872006e-05 -0.010992903374911597 -0.00045327656432697227 0.001453704107859123 -0.0023288546818574624 -0.0029089035771903585 0.0083483985843486163 0.0023023617320827076 -0.0061429734760895379 -0.013792417763249465 0.00058100926059220608 -0.0065159523321199238 -0.0054740941765928823 -0.00023626866115426475 -0.0042602333737214891 -0.0056780331798911322 0.0042103080142710716 0.0022373285753102125 1.689637278172153e-05 -0.00044261949827029769 0.0025680702528916299 -2.8748005863078401e-05
leaf_weight=68918 106576 26687 21 372 2924 604 183 21 2893 21 29 38 35 28 20 28 20 27 24 32 21 33 26 34 21 22 27 28 22 7898
leaf_count=68918 106576 26687 21 372 2924 604 183 21 2893 21 29 38 35 28 20 28 20 27 24 32 21 33 26 34 21 22 27 28 22 7898
internal_value=0 -4.11805e-06 4.05788e-06 0.000368499 -2.50678e-05 -6.96696e-05 -0.000163357 0.000609062 -0.00018816 -0.000329664 -0.0019673 -6.52995e-06 -0.00332191 -0.00443874 0.00296226 -0.00372188 -0.00541205 -0.00825172 -0.00154881 -0.0034744 -0.00103455 -0.00246521 -0.00143075 -0.00242719 8.87079e-05 -0.000972871 0.00185151 -0.00228073 0.00085005 2.5852e-06
internal_weight=0 148715 106969 393 41746 15059 6557 204 6353 3429 536 219 317 213 71 192 108 55 84 56 104 53 148 110 83 76 48 54 51 8502
internal_count=217633 148715 106969 393 41746 15059 6557 204 6353 3429 536 219 317 213 71 192 108 55 84 56 104 53 148 110 83 76 48 54 51 8502
shrinkage=0.05


Tree=427
num_leaves=31
num_cat=0
split_feature=17 37 2 38 10 2 17 19 38 32 33 32 25 14 14 26 33 43 38 41 40 26 43 14 22 40 43 35 31 37
split_gain=0.00293608 0.00770727 0.0504356 0.0367676 0.0674774 0.0340241 0.0139857 0.0237232 0.0109612 0.0123827 0.00759338 0.00710553 0.0409907 0.00917965 0.00811221 0.00582119 0.00572638 0.0086825 0.00790361 0.0112229 0.115241 0.0223457 0.0227975 0.00564301 0.0260347 0.0930447 0.138657 0.0240422 0.0160391 0.00818063
threshold=6.1187250000000013e-05 -2.7510949999999998e-05 2.5460950000000007 -3.2628099999999995 3.9524350000000007e-05 1.4821150000000003 0.00020736000000000002 0.0090028250000000008 -1.0090899999999998 -22.304899999999996 -0.00058211249999999993 5.9680600000000004 12.831100000000001 0.0040917000000000011 0.012476400000000002 -0.0019040299999999999 -3.5620349999999992e-05 2.8998450000000005 -0.55203199999999986 -0.2029299999999998 -0.30278099999999991 0.00015513750000000002 -1.1637600000000001 0.0048329650000000007 2.7036350000000007 -0.10081500000000009 -1.5196849999999988 0.14260400000000004 -2.2534849999999995 -2.7948149999999997e-06
decision_type=2 2 2 2 2 2 2 2 2 2 2 2 2 2 2 2 2 2 2 2 2 2 2 2 2 2 2 2 2 2
left_child=-1 2 5 4 -3 6 7 -2 10 -10 -5 16 -13 -14 -15 -8 17 18 -11 -20 -21 22 -22 24 27 -26 -27 28 -18 -30
right_child=1 3 -4 8 -6 -7 15 -9 9 11 -12 12 13 14 -16 -17 23 -19 19 20 21 -23 -24 -25 25 26 -28 -29 29 -31
leaf_value=-1.9423468358498076e-06 -0.00012519383014043107 -0.00021355486533138903 -0.0022581395226422634 -0.00028772485662061212 0.0036182311724405739 0.0019738618718110955 0.00099763345263454545 -0.0021878887506318278 0.0010178331350259888 0.00058792500188728286 -0.0013998400047421455 0.0020182423478157341 -0.00095845619479881694 0.0010694840029048334 1.7076459645303421e-05 -3.8777874024595983e-05 -0.0011628310005367636 4.5502275566344414e-05 -4.0575257435389314e-05 -3.64676702385781e-05 -0.0017349629358033695 -0.0010771888818663475 -0.0040135545254958308 1.2826989879411535e-05 7.8155552787001879e-06 -0.00032865129821099497 0.0048504883184380433 0.0014065674156427121 -0.00064183073412751521 5.4466822165975339e-05
leaf_weight=195738 46 27 28 66 20 20 20 20 31 34 20 30 21 21 143 42 28 944 581 391 21 26 23 16794 151 24 28 32 43 2220
leaf_count=195738 46 27 28 66 20 20 20 20 31 34 20 30 21 21 143 42 28 944 581 391 21 26 23 16794 151 24 28 32 43 2220
internal_value=0 1.73643e-05 -0.000312178 2.00347e-05 0.00141699 5.59767e-05 -0.000243693 -0.000750253 1.70052e-05 1.92496e-05 -0.000546356 1.78135e-05 0.000303818 2.58028e-05 0.000151836 0.000295548 1.4932e-05 -6.51695e-05 -0.000162264 -0.000186743 -0.000370958 -0.00223933 -0.00292604 2.3307e-05 9.29829e-05 0.000635991 0.00246012 4.5531e-05 2.65205e-05 4.12362e-05
internal_weight=0 21895 176 21719 47 148 128 66 21672 21586 86 21555 215 185 164 62 21340 2020 1076 1042 461 70 44 19320 2526 203 52 2323 2291 2263
internal_count=217633 21895 176 21719 47 148 128 66 21672 21586 86 21555 215 185 164 62 21340 2020 1076 1042 461 70 44 19320 2526 203 52 2323 2291 2263
shrinkage=0.05


Tree=428
num_leaves=31
num_cat=0
split_feature=3 21 39 14 39 16 21 14 26 14 30 20 4 4 20 43 20 37 16 39 25 41 40 4 24 4 33 24 4 43
split_gain=0.00313017 0.0208342 0.0933001 0.0915311 0.0123753 0.019055 0.00978845 0.0927105 0.0339943 0.018505 0.01025 0.0282298 0.0176936 0.0106408 0.00773 0.00646466 0.0713838 0.0440017 0.139991 0.00815553 0.00613441 0.0257529 0.205255 0.187775 0.996951 0.608282 0.668308 0.582699 0.570171 0.524243
threshold=-5.5710999999999995 -15.424049999999998 0.00077178350000000012 0.00022094500000000003 0.0066980350000000006 8.9452450000000012e-07 18.392150000000004 9.9237900000000007e-05 0.0020748500000000005 5.7443850000000011e-05 0.064526950000000013 19.256550000000001 -0.45249949999999994 0.79460700000000006 -19.608449999999998 0.93421999999999994 -12.926599999999999 5.9581800000000005e-07 3.2990050000000008e-07 0.0027520250000000004 2.3108700000000004 -0.35786749999999995 -0.19934349999999995 0.18998850000000003 0.25201650000000003 0.79460700000000006 -0.00037994999999999994 -0.27366849999999993 -0.20278049999999997 1.8568299999999998
decision_type=2 2 2 2 2 2 2 2 2 2 2 2 2 2 2 2 2 2 2 2 2 2 2 2 2 2 2 2 2 2
left_child=20 2 -2 4 -4 -6 10 8 9 -8 11 14 -12 -14 -3 16 -16 -18 19 -19 -1 -22 -23 27 -25 26 -26 28 -24 -29
right_child=1 6 3 -5 5 -7 7 -9 -10 -11 12 -13 13 -15 15 -17 17 18 -20 -21 21 22 23 24 25 -27 -28 29 -30 -31
leaf_value=2.2513651929737488e-06 0.0036583270915018931 0.00087277189527062895 0.00089238721204007259 0.0029735051134523998 -0.0001357763795863882 -0.0017716062220279128 -0.00035008779304916975 0.0029588548550756452 0.00070366501567076668 -0.0024751975110848434 -0.0013794801966866999 0.0014318959949222128 -7.2347159220953469e-05 -0.0012633475920301863 0.0026273769757348682 6.0202386698232508e-06 -6.0774007493568447e-05 -0.0009717909611503101 0.0041221722811449714 0.00022582255375957835 2.7023090291194377e-05 2.3053473789161493e-05 0.00069144464840994557 -0.0017033302824277321 -0.0038937133096624168 -0.00029749753072193436 0.0025123506811273351 -0.0022585267929246017 -0.001136542507452038 -0.00018398434171670329
leaf_weight=148882 21 26 24 26 162 20 21 28 37 20 32 35 301 20 28 27941 773 21 27 44 16700 17724 1120 531 44 533 545 741 689 517
leaf_count=148882 21 26 24 26 162 20 21 28 37 20 32 35 301 20 28 27941 773 21 27 44 16700 17724 1120 531 44 533 545 741 689 517
internal_value=0 1.51113e-05 0.000466899 0.00017802 -0.000174809 -0.000315538 1.12174e-05 0.000490828 -0.000395131 -0.00138673 9.47923e-06 1.27508e-05 -0.00025832 -0.000146553 1.10298e-05 1.02527e-05 0.000142683 6.22531e-05 0.00109595 -0.000161099 -2.37947e-06 -1.99926e-05 -5.49757e-05 -0.000347982 8.1593e-05 0.000926329 0.0020338 -0.000579507 -4.78705e-06 -0.00140595
internal_weight=0 29607 253 232 206 182 29354 106 78 41 29248 28895 353 321 28860 28834 893 865 92 65 188026 39144 22444 4720 1653 1122 589 3067 1809 1258
internal_count=217633 29607 253 232 206 182 29354 106 78 41 29248 28895 353 321 28860 28834 893 865 92 65 188026 39144 22444 4720 1653 1122 589 3067 1809 1258
shrinkage=0.05


Tree=429
num_leaves=31
num_cat=0
split_feature=43 3 29 21 29 36 5 40 3 38 40 40 14 30 4 3 5 17 31 4 39 20 9 15 35 38 4 34 44 1
split_gain=0.00314018 0.0199633 0.0645919 0.0968929 0.0595984 0.0969573 0.0384825 0.077065 0.0293671 0.0760283 0.101187 0.205353 0.0608778 0.026249 0.0177261 0.0173662 0.130581 0.0376008 0.0303376 0.0169458 0.0162317 0.0151138 0.0150651 0.0141684 0.0122533 0.0111667 0.0528571 0.0137271 0.0260188 0.119717
threshold=-2.1087049999999987 -18.015749999999997 0.24911750000000002 5.2853500000000002 -0.0070766649999999993 -0.013126049999999998 1.3371950000000002e-05 0.10022550000000004 -17.495099999999997 -0.0016790549999999998 -0.079468000000000025 0.30085850000000008 0.0039264450000000015 0.00045550750000000008 0.8580755000000001 -17.304849999999998 2.4191200000000003e-05 1.0181200000000001e-07 -0.13269049999999996 0.078893300000000013 0.00088582400000000012 0.53247600000000006 2.7930050000000005e-06 -4.8581699999999991e-06 -0.0047501849999999997 -1.0090899999999998 1.2369950000000001 0.21701850000000003 2.1563400000000006 4.8656050000000013
decision_type=2 2 2 2 2 2 2 2 2 2 2 2 2 2 2 2 2 2 2 2 2 2 2 2 2 2 2 2 2 2
left_child=25 2 3 4 19 -6 13 -8 9 10 21 -12 -11 -7 23 16 17 18 -10 20 -2 -3 -21 -14 -19 26 -1 -27 29 -29
right_child=1 8 -4 -5 5 6 7 -9 15 12 11 -13 14 -15 -16 -17 -18 24 -20 22 -22 -23 -24 -25 -26 27 -28 28 -30 -31
leaf_value=-0.00013664800813925328 -0.00046756498474748626 0.0013490045046810771 -0.002380341482126997 0.0031525221305914344 0.0033979588980946572 0.0012961439490318336 0.0028694436759427559 -0.00017331494410704497 0.0024302544370584656 0.0027251310527208264 -0.0057345227240735014 -0.00021763933714405664 0.00085574789194843592 -0.00050177582467801618 -0.0013437183368036391 -3.850808324667039e-06 0.0039993301302235088 -0.0017896002508374902 -3.763825264865194e-05 -0.00051805939959141309 -0.0018432083634422726 -0.00057153978807036768 0.0011180990032395735 -0.00029011434661335581 -0.00039062514381435498 1.9726724304791997e-05 0.0020217966308885087 -0.00024626674969026606 -6.700886058236731e-05 0.0041939296602504323
leaf_weight=104 65 21 21 31 30 25 38 46 20 20 31 37 38 108 28 165289 23 24 33 34 32 20 24 93 45 44449 39 63 6782 20
leaf_count=104 65 21 21 31 30 25 38 46 20 20 31 37 38 108 28 165289 23 24 33 34 32 20 24 93 45 44449 39 63 6782 20
internal_value=0 -3.34213e-06 0.000327762 0.000459102 0.0002514 0.000733672 0.000365337 0.00120317 -4.2492e-06 -0.000508709 -0.00154977 -0.00273269 0.000125231 -0.000163821 -0.000201801 -3.37099e-06 0.00054358 -0.000107914 0.000893642 -0.000517123 -0.000921385 0.000412154 0.000158972 4.22732e-05 -0.000877225 1.07931e-05 0.000452019 9.56353e-06 -5.62404e-05 0.00082366
internal_weight=0 166176 454 433 402 247 217 84 165722 288 109 68 179 133 159 165434 145 122 53 155 97 41 58 131 69 51457 143 51314 6865 83
internal_count=217633 166176 454 433 402 247 217 84 165722 288 109 68 179 133 159 165434 145 122 53 155 97 41 58 131 69 51457 143 51314 6865 83
shrinkage=0.05


Tree=430
num_leaves=31
num_cat=0
split_feature=23 1 26 21 1 40 36 0 21 3 16 28 4 22 44 20 16 16 25 30 23 31 9 11 20 22 5 24 29 12
split_gain=0.00299111 0.0307473 0.0763232 0.137087 0.0179142 0.0637313 0.0145229 0.0183242 0.0296648 0.0185737 0.0350455 0.0925269 0.038669 0.0235178 0.0142579 0.0396223 0.0103357 0.0284185 0.0470791 0.0233198 0.010851 0.00989447 0.0549353 0.00954624 0.00836681 0.00809989 0.00764247 0.00627906 0.00541715 0.00447216
threshold=-6.007039999999999 12.027950000000002 0.00013131250000000003 4.904135000000001 10.319000000000001 -0.0054100000000001361 -0.0036820849999999994 6.0594650000000003 -15.424049999999998 -6.4965349999999988 2.4065350000000007e-07 -0.005765489999999999 -0.15847949999999997 2.4063700000000003 -0.16918499999999967 10.382050000000001 3.2855150000000007e-05 7.2294100000000005e-06 15.043350000000002 0.0064016150000000003 -5.7717399999999985 -6.1956549999999995 1.1207750000000001e-05 9.7538050000000017e-06 -16.050999999999998 1.3139950000000002 1.0179600000000002e-05 -1.1409399999999998 -0.18041899999999997 0.0021796500000000004
decision_type=2 2 2 2 2 2 2 2 2 2 2 2 2 2 2 2 2 2 2 2 2 2 2 2 2 2 2 2 2 2
left_child=-1 4 25 -4 6 -6 -2 9 -9 21 13 -12 -13 24 15 -10 17 20 -19 -18 23 22 -8 -16 -11 -3 -22 -23 -28 -29
right_child=1 2 3 -5 5 -7 7 8 14 10 11 12 -14 -15 16 -17 19 18 -20 -21 26 27 -24 -25 -26 -27 28 29 -30 -31
leaf_value=-7.2048115257830237e-07 0.0014037252765410815 -0.00024787074114880983 0.00020382569635567845 -0.0054562711982362091 0.0026262595315441309 -9.1033464405869304e-05 -0.00027267079420122776 -0.001567532440741262 -0.00011615365791389807 -0.00083947238138838058 0.0042913048562877518 -0.00025417767432166862 0.0023260627013587509 0.001651993368723197 0.0011626457313104767 -0.0022288433259875871 8.157024752195174e-05 -2.6070745613348359e-05 0.0031057247790158729 -0.001992810768133495 -0.0013405710155298255 -0.00065321783567373083 0.0028463235938397703 3.5803817152450044e-05 0.00013355555417004215 0.00064002471061128845 -0.00097248875616060102 3.2506828182265066e-05 -1.6069155019961231e-05 0.00065872268149115402
leaf_weight=214394 20 84 23 20 31 71 48 36 107 24 20 53 20 25 20 28 42 30 20 20 21 33 20 312 278 37 20 1690 57 29
leaf_count=214394 20 84 23 20 31 71 48 36 107 24 20 53 20 25 20 28 42 30 20 20 21 33 20 312 278 37 20 1690 57 29
internal_value=0 4.76897e-05 -0.000619376 -0.00242878 8.32665e-05 0.00073481 6.09128e-05 5.18183e-05 -0.000168947 0.000122089 0.000421802 0.00127824 0.000452737 0.000178229 -9.4576e-05 -0.000554341 1.99412e-05 9.84133e-05 0.00122665 -0.000587585 -3.27768e-05 5.29239e-05 0.00064468 0.000103686 5.62288e-05 2.36345e-05 -0.000495079 2.99562e-05 -0.00026449 4.30713e-05
internal_weight=0 3239 164 43 3075 102 2973 2953 713 2240 420 93 73 327 677 135 542 480 50 62 430 1820 68 332 302 121 98 1752 77 1719
internal_count=217633 3239 164 43 3075 102 2973 2953 713 2240 420 93 73 327 677 135 542 480 50 62 430 1820 68 332 302 121 98 1752 77 1719
shrinkage=0.05


Tree=431
num_leaves=31
num_cat=0
split_feature=44 3 13 3 36 17 29 40 28 37 20 17 20 40 20 19 40 40 41 2 40 3 0 35 44 44 41 40 17 7
split_gain=0.00300848 0.00982482 0.16761 0.0118993 0.0389823 0.0731244 0.104637 0.172434 0.0359702 0.0359323 0.0465108 0.0421627 0.0155071 0.0268702 0.0124594 0.0097643 0.0102984 0.117613 0.0757039 0.0147725 0.0205955 0.00925228 0.0204067 0.0802138 0.0174669 0.0364616 0.0458663 0.505134 0.460268 0.368553
threshold=-3.2113799999999997 -17.304849999999998 -3.3894799999999993e-05 -13.353949999999999 0.14537000000000003 8.0974050000000018e-05 -0.18041899999999997 -0.63161949999999989 -0.22198749999999998 0.000104555 8.7615050000000014 1.2024350000000002e-06 -6.091804999999999 -0.51801999999999981 6.5793150000000002 3.865525000000001e-10 -0.32870999999999989 0.077348000000000056 0.078754999999999922 -1.6362849999999998 0.30085850000000008 -7.4497099999999987 -10.077899999999998 0.009633835000000002 -0.81248999999999982 -0.16918499999999967 -0.15132349999999997 -0.079468000000000025 2.6933700000000002e-07 3.3716300000000008e-05
decision_type=2 2 2 2 2 2 2 2 2 2 2 2 2 2 2 2 2 2 2 2 2 2 2 2 2 2 2 2 2 2
left_child=1 2 -1 4 9 6 8 -8 -6 10 12 -11 13 -3 15 -14 -17 18 -18 -19 -21 22 23 -2 -23 26 -26 -28 29 -29
right_child=21 3 -4 -5 5 -7 7 -9 -10 11 -12 -13 14 -15 -16 16 17 19 -20 20 -22 24 -24 -25 25 -27 27 28 -30 -31
leaf_value=0.0043280185159528623 0.00015187133431707813 -1.491209242203695e-05 -0.0014098659604288881 1.1190872753271799e-05 -0.0019712745350989281 -0.0020019994264293926 -0.00048686634372210224 0.0055067807845521856 0.00082637439607559067 -9.932621178450064e-05 0.0019327384907648175 -0.0033070819014392331 0.00081334656561011804 -0.0021566904741390585 -0.0014033848708277221 4.3244449888697552e-06 -0.0048757396137807524 0.001040983524448588 -0.0011786117896149841 -0.0013889690947478577 -6.5375612773381804e-05 3.2959430832926107e-07 2.9255422119784142e-06 0.0035269132691792037 -9.7913438646575089e-06 1.3049585213735682e-06 -3.5324909269519185e-05 -0.0051648034290567102 3.451656539511251e-05 -0.0015623253687036514
leaf_weight=20 147 32 35 67375 20 20 21 28 27 21 26 20 26 27 20 510 20 28 45 31 566 26687 106802 20 2959 8502 3090 119 213 176
leaf_count=20 147 32 35 67375 20 20 21 28 27 21 26 20 26 27 20 510 20 28 45 31 566 26687 106802 20 2959 8502 3090 119 213 176
internal_value=0 8.63559e-06 0.000676637 8.10207e-06 -0.000131756 0.000748382 0.00132138 0.00293807 -0.000364115 -0.00020617 -0.00016126 -0.00166409 -0.00020298 -0.000995048 -0.000165474 -0.00014528 -0.00016605 -0.000291979 -0.00231619 -8.1461e-05 -0.000134105 -4.00193e-06 3.78911e-06 0.000556068 -2.39655e-05 -6.70204e-05 -0.000155613 -0.000275537 -0.00173667 -0.00301553
internal_weight=0 68918 55 68863 1488 116 96 49 47 1372 1331 41 1305 59 1246 1226 1200 690 65 625 597 148715 106969 167 41746 15059 6557 3598 508 295
internal_count=217633 68918 55 68863 1488 116 96 49 47 1372 1331 41 1305 59 1246 1226 1200 690 65 625 597 148715 106969 167 41746 15059 6557 3598 508 295
shrinkage=0.05


Tree=432
num_leaves=31
num_cat=0
split_feature=21 3 12 5 17 7 40 40 8 1 4 16 5 5 26 14 36 7 37 6 0 37 6 36 22 40 38 18 24 19
split_gain=0.00305669 0.0115015 0.055217 0.0113593 0.0363411 0.0134058 0.0452762 0.0739444 0.0114993 0.0144441 0.0524473 0.14871 0.0237035 0.0420065 0.0264977 0.0304192 0.0422336 0.0129366 0.0127453 0.00876335 0.0253204 0.0604221 0.0207649 0.0528811 0.0135519 0.0938456 0.0123111 0.0149492 0.0104645 0.0302146
threshold=13.390900000000002 -4.7500199999999992 2.9775650000000003e-05 7.9290400000000026e-06 2.1981950000000002e-08 2.6525600000000002e-05 0.039429999999999972 0.46240350000000002 -0.00012086649999999999 10.154350000000003 0.61713700000000016 1.0552950000000002e-06 4.5981050000000003e-05 3.4653000000000009e-05 0.00049099350000000007 0.00012967350000000005 -0.00042538249999999998 4.051930000000001e-05 7.0494250000000013e-07 -5.5476599999999992e-06 7.7322150000000009 2.3922400000000003e-05 -4.8439949999999985e-06 0.00049241950000000008 2.3818600000000001 -0.68744999999999989 5.8699600000000016 -1.337395e-06 -0.57695549999999984 0.00018145150000000004
decision_type=2 2 2 2 2 2 2 2 2 2 2 2 2 2 2 2 2 2 2 2 2 2 2 2 2 2 2 2 2 2
left_child=-1 3 -3 4 -2 6 -5 -8 18 19 11 12 13 14 15 -11 -17 -16 -7 20 -10 -22 23 -21 26 -26 28 -28 29 -24
right_child=1 2 -4 5 -6 8 7 -9 9 10 -12 -13 -14 -15 17 16 -18 -19 -20 22 21 -23 24 -25 25 -27 27 -29 -30 -31
leaf_value=-7.292492717712659e-07 0.0024108736078016506 -0.00065036288277177075 0.0028158747652196328 0.00013154610065360016 5.7644215460944305e-05 0.00010105574348840275 -0.0034984167632221494 -0.00027178941655360442 -1.1317320390245264e-05 -9.7458932963845883e-05 -0.0018164572932316031 0.0040611153593220354 -0.0014520620266557673 0.0024677732449379704 -0.0001998952303202478 0.0032329368276987226 0.00015031447447836399 -0.0018776627045008357 -0.0016409510330829239 0.0030702566915715582 3.9926970081675494e-05 -0.0033877168182880266 0.00080658837463275842 -0.00016987543882009961 -0.0002519049995410941 0.0030277603839781006 -0.0018282260520936689 -2.4665815171660881e-05 -3.3873255324129839e-05 -6.2627528331767396e-05
leaf_weight=214386 21 27 20 173 75 21 26 56 258 82 24 28 20 21 27 20 25 20 21 20 36 20 154 34 88 29 20 27 1569 285
leaf_count=214386 21 27 20 173 75 21 26 56 258 82 24 28 20 21 27 20 25 20 21 20 36 20 154 34 88 29 20 27 1569 285
internal_value=0 4.81493e-05 0.000824632 3.67447e-05 0.000572413 2.01777e-05 -0.000327143 -0.00129487 5.12647e-05 6.35521e-05 0.000413381 0.000633612 0.00018724 0.000355373 0.000100428 0.000475787 0.00152037 -0.000913839 -0.000769948 2.67788e-05 -0.000220499 -0.00118423 6.16599e-05 0.00103017 3.75808e-05 0.000561004 7.78011e-06 -0.000792138 2.65033e-05 0.000242291
internal_weight=0 3247 47 3200 96 3104 255 82 2849 2807 267 243 215 195 174 127 45 47 42 2540 314 56 2226 54 2172 117 2055 47 2008 439
internal_count=217633 3247 47 3200 96 3104 255 82 2849 2807 267 243 215 195 174 127 45 47 42 2540 314 56 2226 54 2172 117 2055 47 2008 439
shrinkage=0.05


Tree=433
num_leaves=31
num_cat=0
split_feature=35 15 44 43 15 15 7 41 41 44 14 10 38 41 24 24 14 30 17 7 17 38 18 4 17 41 41 22 0 0
split_gain=0.00298085 0.0386531 0.0279367 0.0517565 0.110119 0.201524 0.240547 0.230545 0.480923 0.307103 0.0654268 0.10272 0.0625179 0.0467601 0.0409689 0.0393488 0.036687 0.0313307 0.0296654 0.0538261 0.0504352 0.124177 0.0439628 0.0415029 0.0640891 0.0382698 0.0418536 0.0264893 0.0219896 0.0205158
threshold=-0.27384599999999998 5.5700600000000008e-07 5.2253350000000003 0.027469999999999221 -1.5418149999999998e-06 -3.8226149999999993e-05 3.8533650000000003e-05 -0.43858299999999995 0.70899650000000014 1.6884999999999997 0.0027461200000000003 1.5030250000000002e-05 -0.21186449999999998 -0.43858299999999995 1.5291850000000002 1.3511250000000004 0.0019309400000000001 0.12582950000000004 -3.0819049999999996e-06 3.2088200000000009e-05 -4.2326149999999998e-07 0.6802760000000001 -3.6458549999999993e-05 -1.8861499999999998 -1.9423899999999999e-05 -0.7808004999999999 0.24875600000000014 -3.0611199999999994 8.7505950000000023 7.0096050000000014
decision_type=2 2 2 2 2 2 2 2 2 2 2 2 2 2 2 2 2 2 2 2 2 2 2 2 2 2 2 2 2 2
left_child=1 2 3 4 5 14 12 -8 9 -9 16 -12 -7 -14 29 17 28 -4 19 -5 21 22 -20 24 -21 -25 -27 -3 -6 -1
right_child=-2 27 15 18 10 6 7 8 -10 -11 11 -13 13 -15 -16 -17 -18 -19 20 23 -22 -23 -24 25 -26 26 -28 -29 -30 -31
leaf_value=-2.7571880885874156e-05 -9.9721024311901782e-07 -0.0018487938416238529 -0.00033107897947556923 -0.0025939517329299218 -5.7797269172076934e-06 -0.0018324896272841015 0.00033529287680628329 0.0045592086023168157 0.00071359019758873688 0.012421540200264883 -0.00057463507612489837 0.0043142636184624978 -0.00024569840983271467 0.0023987574922102795 0.0019469098387708073 -0.0019461010932847037 -0.0020154487931264425 0.0013541442180623211 0.0014002798558269407 -0.0001775527070124458 6.206887450149779e-05 0.0044341742544455219 -0.0011262752468500174 -1.4836539513124351e-05 0.0023874067678316979 -0.003453335180878639 -0.00058807085736659178 -0.00014079905422069094 -0.0013144961501322023 -0.0016378590966269258
leaf_weight=196 211491 23 250 26 387 27 39 27 38 23 22 21 35 32 25 34 27 31 36 152 2707 23 33 47 29 25 26 1744 35 22
leaf_count=196 211491 23 250 26 387 27 39 27 38 23 22 21 35 32 25 34 27 31 36 152 2707 23 33 47 29 25 26 1744 35 22
internal_value=0 3.43375e-05 0.000114052 0.000149245 0.000470923 0.0010235 0.00211616 0.00353533 0.00495353 0.00817588 -5.02107e-05 0.00181297 0.000198761 0.00101733 2.97768e-05 -0.000339551 -0.000228644 -0.000145165 5.01717e-05 -0.000418087 0.000101197 0.00125249 0.000191927 -0.000215318 0.000233408 -0.00104409 -0.00199261 -0.000163031 -0.000114323 -0.000190078
internal_weight=0 6142 4375 4060 956 464 221 127 88 50 492 43 94 67 243 315 449 281 3104 305 2799 92 69 279 181 98 51 1767 422 218
internal_count=217633 6142 4375 4060 956 464 221 127 88 50 492 43 94 67 243 315 449 281 3104 305 2799 92 69 279 181 98 51 1767 422 218
shrinkage=0.05


Tree=434
num_leaves=31
num_cat=0
split_feature=3 21 34 14 43 16 21 40 22 8 30 20 4 4 20 43 20 28 1 33 30 28 34 25 24 43 41 41 19 34
split_gain=0.00282404 0.0186874 0.0842933 0.0815336 0.0112058 0.0168505 0.0086411 0.0912752 0.230041 0.0167939 0.00915145 0.0253064 0.0155577 0.00949894 0.00710435 0.0060865 0.0635566 0.040157 0.0822601 0.0126447 0.0191057 0.00645348 0.00546717 0.00545808 0.0242643 0.165007 0.0239081 0.334707 0.262197 0.592615
threshold=-5.5710999999999995 -15.424049999999998 0.34287850000000003 0.00022094500000000003 1.269409999999999 1.1210250000000002e-06 18.392150000000004 -0.3819765 0.25066200000000005 1.0032150000000002e-05 0.064526950000000013 19.256550000000001 -0.45249949999999994 0.79460700000000006 -19.608449999999998 0.93421999999999994 -12.926599999999999 0.093819000000000013 9.8382400000000008 3.1155900000000011e-05 0.008423845000000001 0.059419700000000013 4.6183500000000004 2.3108700000000004 -0.66179549999999987 5.7275300000000007 -0.10141500000000002 0.09983149999999999 3.0639350000000006e-08 0.12895050000000005
decision_type=2 2 2 2 2 2 2 2 2 2 2 2 2 2 2 2 2 2 2 2 2 2 2 2 2 2 2 2 2 2
left_child=23 2 -2 4 -4 -6 10 9 -9 -8 11 14 -12 22 -3 16 -16 19 -19 21 -21 -18 -14 24 25 -1 -25 28 29 -28
right_child=1 6 3 -5 5 -7 7 8 -10 -11 12 -13 13 -15 15 -17 17 18 -20 20 -22 -23 -24 26 -26 -27 27 -29 -30 -31
leaf_value=0.004865512747364846 0.0034757092606187579 0.00083662701810960881 0.00074570561169068621 0.0028060541168088097 -0.00014049904415874067 -0.0016814838353457163 -0.0021919789304956794 -0.00086730384460906871 0.0056883354067711325 -0.00033359777576885295 -0.0012953223320437248 0.0013557796240950537 -0.00086783468737849044 -0.0011943770444486292 0.0024827650756508645 5.6424199772158735e-06 -6.0621276849582967e-05 -1.5443858949136204e-05 0.0039286142017954263 0.0019322618656315172 2.303001218885919e-05 -0.00097103157349920366 -1.2243703463597653e-05 2.2610006893296618e-05 1.4734040559109974e-06 -2.0601359810503412e-05 -0.0085146585360317585 1.5044871823046114e-05 -0.00047016462880593242 -0.0010955858084400138
leaf_weight=20 21 26 29 26 157 20 20 32 23 31 32 35 20 20 28 27941 728 39 20 20 38 20 281 18403 148735 127 33 18453 2109 146
leaf_count=20 21 26 29 26 157 20 20 32 23 31 32 35 20 20 28 27941 728 39 20 20 38 20 281 18403 148735 127 33 18453 2109 146
internal_value=0 1.43534e-05 0.000442232 0.00016765 -0.000165352 -0.000314622 1.06655e-05 0.000461291 0.00187415 -0.00106237 9.03239e-06 1.21237e-05 -0.000244009 -0.000139205 1.04942e-05 9.74924e-06 0.000138247 6.23554e-05 0.00132152 -2.98171e-05 0.000681386 -8.49638e-05 -6.90936e-05 -2.26012e-06 2.10798e-06 0.000644176 -1.88739e-05 -5.56817e-05 -0.0006261 -0.00246335
internal_weight=0 29607 253 232 206 177 29354 106 55 51 29248 28895 353 321 28860 28834 893 865 59 806 58 748 301 188026 148882 147 39144 20741 2288 179
internal_count=217633 29607 253 232 206 177 29354 106 55 51 29248 28895 353 321 28860 28834 893 865 59 806 58 748 301 188026 148882 147 39144 20741 2288 179
shrinkage=0.05


Tree=435
num_leaves=31
num_cat=0
split_feature=35 15 44 43 15 15 3 40 40 43 3 9 24 24 9 30 17 3 7 17 23 3 40 40 17 7 22 16 0 0
split_gain=0.00278549 0.0347658 0.0252992 0.046623 0.0996668 0.182148 0.219208 0.208226 0.484297 0.264386 0.109305 0.0570405 0.0370042 0.0354367 0.0329887 0.0282884 0.0266381 0.065741 0.0868004 0.0447517 0.113177 0.0420644 0.0417114 0.114123 0.0349768 0.025484 0.0238196 0.0195754 0.0184269 0.0209373
threshold=-0.27384599999999998 5.5700600000000008e-07 5.2253350000000003 0.027469999999999221 -1.5418149999999998e-06 -3.8226149999999993e-05 -12.423099999999998 -0.57440449999999987 0.43531000000000003 -1.9072949999999993 -15.510599999999998 1.2501700000000001e-05 1.5291850000000002 1.3511250000000004 -2.4587249999999997e-05 0.12582950000000004 -3.0819049999999996e-06 -14.389699999999999 3.2088200000000009e-05 -4.2326149999999998e-07 -11.469999999999999 -8.7425699999999988 0.77415 -0.14969009999999991 -1.7471999999999995e-05 4.5510850000000002e-05 -3.0611199999999994 1.3186150000000004e-06 7.0096050000000014 5.6987450000000015
decision_type=2 2 2 2 2 2 2 2 2 2 2 2 2 2 2 2 2 2 2 2 2 2 2 2 2 2 2 2 2 2
left_child=1 2 3 4 5 12 11 25 9 -9 -6 14 28 15 -7 -4 17 -5 -19 20 -18 24 23 -23 -20 -8 -3 -12 29 -1
right_child=-2 26 13 16 10 6 7 8 -10 -11 27 -13 -14 -15 -16 -17 19 18 21 -21 -22 22 -24 -25 -26 -27 -28 -29 -30 -31
leaf_value=-0.00021014307192818635 -9.6397934905044521e-07 -0.0017525470390726541 -0.00031505402117873021 0.002304056108308335 0.0035722671293478927 0.00070157382624529423 -0.00078859157106110254 0.012128491601906717 0.00026216056622988849 0.0049585322322349794 -0.00010769105578481101 0.0023079584337392591 0.0018505562974605709 -0.0018474633108673838 -0.0016544789585868085 0.0012862599528049149 -0.00022499824385054774 -0.0037709253263892607 -1.9634271515175129e-05 5.9746201503925803e-05 0.0033683357824985357 -0.00021068070014997341 8.3414874622233929e-05 -0.0037198902187002311 0.0023275272913798246 0.0016517986926191952 -0.00013290604930237657 -0.0013056749260883678 -0.0015524965173840015 0.0014269464547396638
leaf_weight=174 211491 23 250 21 20 24 23 20 39 36 435 20 25 34 39 31 56 20 65 2707 36 65 77 36 21 20 1744 37 22 22
leaf_count=174 211491 23 250 21 20 24 23 20 39 36 435 20 25 34 39 31 56 20 65 2707 36 65 77 36 21 20 1744 37 22 22
internal_value=0 3.31933e-05 0.000108793 0.000142284 0.000447593 0.000973295 0.00201209 0.00323333 0.00454001 0.00751923 -4.81915e-05 -1.84065e-05 2.8547e-05 -0.000322867 -0.000756935 -0.000138397 4.8252e-05 -0.000395472 -0.000595085 9.66035e-05 0.00118109 -0.000354491 -0.000793187 -0.00146149 0.00055351 0.000346474 -0.000153988 -0.000201601 -0.000180399 -2.63881e-05
internal_weight=0 6142 4375 4060 956 464 221 138 95 56 492 83 243 315 63 281 3104 305 284 2799 92 264 178 101 86 43 1767 472 218 196
internal_count=217633 6142 4375 4060 956 464 221 138 95 56 492 83 243 315 63 281 3104 305 284 2799 92 264 178 101 86 43 1767 472 218 196
shrinkage=0.05


Tree=436
num_leaves=31
num_cat=0
split_feature=43 37 22 34 27 8 8 0 8 14 23 34 1 24 40 19 14 23 7 8 38 41 41 38 43 31 23 19 16 11
split_gain=0.00280338 0.0144449 0.0190585 0.0161986 0.106517 0.0453575 0.0713889 0.0314013 0.0320224 0.0244695 0.022369 0.0202026 0.0524575 0.0156937 0.0192527 0.0154147 0.0152109 0.0143326 0.0190985 0.0133386 0.0100149 0.00970525 0.0525694 0.0777575 0.149538 0.0338364 0.0182534 0.0221011 0.0102526 0.0144557
threshold=-3.6431499999999999 -2.7510949999999998e-05 2.1080900000000002 2.6849000000000003 16.401900000000001 1.5650000000000004e-05 1.8861250000000002e-05 5.3241200000000006 -2.0196449999999995e-05 0.0059042550000000015 -11.829199999999998 0.21701850000000003 6.8043050000000012 1.2323400000000002 -0.80044776999999989 0.0012391700000000002 0.0098803550000000021 -13.748199999999999 3.3150950000000012e-05 -1.4161149999999999e-06 -1.0090899999999998 -0.25176499999999996 0.29985500000000015 0.054851550000000006 -5.3152649999999992 2.0971700000000006 -8.2950649999999992 0.00034026750000000006 7.5631600000000019e-07 6.0793300000000006e-05
decision_type=2 2 2 2 2 2 2 2 2 2 2 2 2 2 2 2 2 2 2 2 2 2 2 2 2 2 2 2 2 2
left_child=1 2 -1 11 -5 7 -7 8 -6 13 -11 -3 17 -10 -15 19 -17 18 -13 -12 -18 -19 23 25 -25 26 27 -23 -28 -30
right_child=-2 3 -4 4 5 6 -8 -9 9 10 15 12 -14 14 -16 16 20 21 -20 -21 -22 22 -24 24 -26 -27 28 -29 29 -31
leaf_value=-0.00012857378688273631 -2.4926055900814937e-06 2.3153889156909139e-05 -0.001973380556566034 0.0033354050982779882 0.0018850945500889793 0.0038744384609162813 -0.00029956424800080381 0.0014069393384967331 4.2112078907037459e-05 -0.0016960967350314604 -0.0018051422276551387 -0.0019582553961906041 0.0017260593199656189 9.203907813405915e-05 0.0022354906135296916 -0.0012023873918224127 0.00097928680738227237 -1.3826801853358864e-05 -0.00027686483637744304 -0.0003994086995953694 -6.7841011608883549e-05 -0.0021595329317674245 -6.0590929401708888e-05 -0.00097288447522677832 0.004309731613223752 -0.0026548887447764478 -3.8307769925818898e-05 -0.00083936651907267745 -0.0020024500758154319 -0.00018235015522805043
leaf_weight=42 182435 30628 21 27 20 20 21 38 185 32 27 24 39 22 20 26 27 1683 57 45 148 46 1695 37 21 30 71 102 20 24
leaf_count=42 182435 30628 21 27 20 20 21 38 185 32 27 24 39 22 20 26 27 1683 57 45 148 46 1695 37 21 30 71 102 20 24
internal_value=0 1.29194e-05 -0.000743509 1.42758e-05 0.000260024 0.000128431 0.00173653 1.66811e-05 -7.90251e-05 -0.000152864 -0.000445407 9.58563e-06 -9.83823e-05 0.0002402 0.00111273 -0.000298806 -7.39393e-05 -0.000117058 -0.000775055 -0.000926559 9.37159e-05 -0.000102765 -0.000175924 -0.000732872 0.000939787 -0.00106398 -0.000882506 -0.00124969 -0.000409959 -0.00100967
internal_weight=0 35198 63 35135 658 631 41 590 552 532 305 34477 3849 227 42 273 201 3810 81 72 175 3729 2046 351 58 293 263 148 115 44
internal_count=217633 35198 63 35135 658 631 41 590 552 532 305 34477 3849 227 42 273 201 3810 81 72 175 3729 2046 351 58 293 263 148 115 44
shrinkage=0.05


Tree=437
num_leaves=31
num_cat=0
split_feature=44 3 13 23 20 10 40 14 26 24 7 32 40 8 40 36 19 24 10 13 23 24 23 12 23 33 36 2 23 19
split_gain=0.00285707 0.0152817 0.140125 0.0110338 0.114123 0.0769236 0.0655671 0.0430855 0.0406698 0.0458977 0.0532777 0.0411016 0.0843453 0.0733144 0.031942 0.0252886 0.0252767 0.0222982 0.0215818 0.0148523 0.0146169 0.129347 0.0382819 0.14834 0.027274 0.149973 0.0234529 0.0221241 0.0175755 0.0270932
threshold=-3.6478300000000004 -17.304849999999998 3.5056900000000007e-05 -18.396099999999997 -6.0084349999999995 6.1899350000000009e-05 0.24966499999999994 0.0027461200000000003 -0.00043562299999999995 0.49038950000000003 4.0700250000000004e-05 -0.44443899999999997 -0.14969009999999991 -1.0648199999999999e-05 0.46240350000000002 0.0052581350000000006 0.00034026750000000006 0.25201650000000003 1.9891650000000005e-05 5.2821900000000003e-05 -18.143749999999997 -0.78263349999999987 -18.021849999999997 0.00033422200000000007 -17.886149999999997 -5.1110149999999994e-05 0.0022490050000000005 -1.4562349999999997 -17.728849999999998 0.00055143100000000012
decision_type=2 2 2 2 2 2 2 2 2 2 2 2 2 2 2 2 2 2 2 2 2 2 2 2 2 2 2 2 2 2
left_child=1 2 -1 4 -2 7 -7 14 -9 11 -11 12 -10 -14 -6 16 17 -13 19 -17 21 -5 23 -22 25 -24 27 -23 29 -26
right_child=3 -3 -4 20 5 6 -8 8 9 10 -12 15 13 -15 -16 18 -18 -19 -20 -21 22 26 24 -25 28 -27 -28 -29 -30 -31
leaf_value=0.0039790766607482172 0.003339921371926638 8.2972874685022194e-06 -0.0014239442456528196 0.0037164337823924146 -0.0028555407703970523 -0.0041807618845664174 -0.00040535256038824827 0.0015013991781485788 -0.0004581308830113683 -0.0031815870890008788 8.5308681870325628e-05 0.00019731221227936731 0.00044881458110467064 0.0046787324922618048 -0.00017469143013158829 -0.00095272466849284957 -0.00037262258703824264 0.0019146015409205576 -0.00011862420511976314 -0.0027650860226640364 2.8247338687776849e-05 0.0014389303757951666 0.0038787637436677146 -0.0046077543267694469 -0.0017814550840869613 -0.00026723542053497858 -0.00099690453464115563 -4.4708628956858159e-05 -2.8218261664215798e-06 -0.0001135542827137215
leaf_weight=21 22 62850 28 26 25 23 23 39 49 26 24 89 20 21 20 26 201 24 37 20 80 32 29 22 35 88 48 117 153488 80
leaf_count=21 22 62850 28 26 25 23 23 39 49 26 24 89 20 21 20 26 201 24 37 20 80 32 29 22 35 88 48 117 153488 80
internal_value=0 8.98543e-06 0.000891636 -3.65256e-06 -0.000203295 -0.000320163 -0.00229306 -0.000174022 -5.76139e-05 -0.000170838 -0.00161348 -2.27234e-05 0.000942014 0.00261536 -0.00166405 -0.00024143 -3.62609e-05 0.000562046 -0.00101761 -0.00174071 -2.75961e-06 0.000401752 -3.34604e-06 -0.000971675 -2.70351e-06 0.000760405 -3.57186e-05 0.000273925 -3.28478e-06 -0.000621176
internal_weight=0 62899 49 154734 689 667 46 621 576 537 50 487 90 41 45 397 314 113 83 46 154045 223 153822 102 153720 117 197 149 153603 115
internal_count=217633 62899 49 154734 689 667 46 621 576 537 50 487 90 41 45 397 314 113 83 46 154045 223 153822 102 153720 117 197 149 153603 115
shrinkage=0.05


Tree=438
num_leaves=31
num_cat=0
split_feature=7 40 2 32 26 26 5 33 11 29 2 29 2 26 15 15 34 15 9 25 13 3 18 22 8 29 25 11 36 25
split_gain=0.00273737 0.0103295 0.00769503 0.00773641 0.00876179 0.0627598 0.0160735 0.0546849 0.0163557 0.0118159 0.0435551 0.0304016 0.0204777 0.012671 0.00953189 0.0233634 0.0100317 0.00920539 0.00919476 0.0538983 0.00970752 0.0351779 0.0150396 0.047519 0.0101612 0.00650967 0.00621026 0.0189431 0.00975418 0.0062751
threshold=2.2278700000000004e-05 5.4411200000000006 3.0578500000000006 20.036400000000004 6.5389250000000011e-05 6.5962400000000017e-05 2.1762900000000005e-05 -6.9762949999999992e-06 0.00029283300000000005 0.015602350000000003 -2.3232449999999996 0.014392250000000002 2.2358750000000005 -2.2730149999999994e-05 -2.4511349999999994e-07 -4.0168599999999999e-07 2.6849000000000003 -2.1145799999999999e-07 1.3394150000000003e-05 0.15866050000000001 -1.0115749999999997e-05 -8.3639349999999979 1.1421250000000002e-05 1.5774100000000002 1.6057000000000002e-05 -0.013848099999999997 8.4120350000000013 1.0155450000000003e-05 0.053416050000000007 5.8644050000000005
decision_type=2 2 2 2 2 2 2 2 2 2 2 2 2 2 2 2 2 2 2 2 2 2 2 2 2 2 2 2 2 2
left_child=1 2 3 4 9 -6 8 -8 14 11 -11 18 13 -12 15 16 -7 -16 20 -20 21 22 -1 -24 26 -21 28 -28 29 -22
right_child=-2 -3 -4 -5 5 6 7 -9 -10 10 12 -13 -14 -15 17 -17 -18 -19 19 25 24 -23 23 -25 -26 -27 27 -29 -30 -31
leaf_value=2.9933399326506482e-05 -9.4911293495033334e-07 0.0010683759891738495 -0.00082930894725275449 -0.00086318449806033952 0.00251240539817243 6.0657921531885779e-05 0.0027778382695638967 -8.258511294116034e-05 0.001101315616100741 -0.0024639858362553199 7.8824549758779566e-06 0.0015587887271976799 -0.0013399561666918806 -0.001279640073189512 -0.0010260734230541858 0.0014296122607004528 0.0012173079597414473 3.5627334282648481e-06 0.0027948936261236669 0.00066313173607714148 1.2275396206533983e-05 -0.0017706449432018741 2.7406471602965743e-05 -0.0028328985367988939 0.00088387052733998974 -5.196049841395959e-05 8.2448037548520111e-06 -0.0015037427271535207 0.00097583185477695367 0.00084211722398480496
leaf_weight=365 211572 24 26 24 27 299 24 55 37 21 429 32 33 20 22 39 20 1634 20 39 2391 34 53 20 34 173 89 27 27 23
leaf_count=365 211572 24 26 24 27 299 24 55 37 21 429 32 33 20 22 39 20 1634 20 39 2391 34 53 20 34 173 89 27 27 23
internal_value=0 3.31308e-05 2.90152e-05 3.27278e-05 3.63192e-05 0.000116919 8.65541e-05 0.000786404 5.95974e-05 -9.07366e-06 -0.000234937 2.50741e-05 -0.000137821 -4.94682e-05 4.04596e-05 0.000274407 0.000133175 -1.0116e-05 1.01791e-05 0.000313667 -1.28079e-05 -0.000221359 -0.000101095 -0.000756239 2.51837e-05 7.95895e-05 1.37659e-05 -0.000343683 3.07524e-05 2.01819e-05
internal_weight=0 6061 6037 6011 5987 2157 2130 79 2051 3830 503 3327 482 449 2014 358 319 1656 3295 232 3063 472 438 73 2591 212 2557 116 2441 2414
internal_count=217633 6061 6037 6011 5987 2157 2130 79 2051 3830 503 3327 482 449 2014 358 319 1656 3295 232 3063 472 438 73 2591 212 2557 116 2441 2414
shrinkage=0.05


Tree=439
num_leaves=31
num_cat=0
split_feature=17 37 18 38 3 13 3 38 32 21 32 40 8 3 15 35 35 19 23 19 15 3 16 33 40 40 21 12 21 12
split_gain=0.00272112 0.00669647 0.0459706 0.0319491 0.0627222 0.0312209 0.0110574 0.0106322 0.0117144 0.00690133 0.00667821 0.0399794 0.0901921 0.00652351 0.00561709 0.0498715 0.0361065 0.108991 0.186682 0.0892819 0.0579882 0.0785595 0.121537 0.108044 0.247965 0.244845 0.27742 0.138717 0.0961018 0.0943812
threshold=6.1187250000000013e-05 -2.7510949999999998e-05 0.00014095500000000004 -3.2628099999999995 -12.510449999999999 0.00021504100000000004 -14.605749999999999 -1.0090899999999998 -22.304899999999996 -3.9665599999999999 5.9680600000000004 0.056773999999999998 1.0032150000000002e-05 -15.993649999999997 -2.0464649999999995e-06 0.026995850000000005 -0.022146949999999995 8.167805000000002e-06 -8.421034999999998 6.1128050000000005e-06 -1.9150249999999998e-05 -7.5894749999999993 -2.5610849999999994e-07 1.3446100000000002e-05 0.24966499999999994 -0.57440449999999987 5.8567400000000012 -6.6568449999999981e-05 -10.950149999999999 -0.00014520799999999997
decision_type=2 2 2 2 2 2 2 2 2 2 2 2 2 2 2 2 2 2 2 2 2 2 2 2 2 2 2 2 2 2
left_child=14 2 -2 4 -3 -4 -7 9 -9 -5 -10 12 -12 -13 15 16 17 18 19 -1 -19 22 -22 -24 25 -25 27 29 -23 -27
right_child=1 3 5 7 -6 6 -8 8 10 -11 11 13 -14 -15 -16 -17 -18 20 -20 -21 21 28 23 24 -26 26 -28 -29 -30 -31
leaf_value=-0.00021546772619367044 -0.0022314000892108129 0.0034436712332171736 0.0015194401527972741 -0.0011350661348138427 -0.00025063245487183815 -0.0012938000034014494 -7.5616546946919859e-05 0.00098985488941487408 1.440182178539135e-05 -0.00020219119661471103 -0.00023203236172587914 -0.00089959744502612871 0.0041325068983496752 4.3314085485000201e-05 2.3152911091349081e-06 -0.0002122123435514974 -1.9878585698576422e-05 -9.1665023030473522e-05 0.0044705963028287754 0.0029320182826958101 0.00014474644035168368 0.0021514942500895514 0.00030825564817266995 4.2562403430802874e-05 -0.00034823051438148542 0.0025645492458716036 0.0092701471775122318 0.0010365533018124378 -0.00043746451849636757 0.0072609804437809584
leaf_weight=101 26 20 29 31 27 23 98 31 21340 55 29 21 20 145 157327 3073 31490 2048 38 29 733 39 184 46 79 20 23 42 443 23
leaf_count=101 26 20 29 31 27 23 98 31 21340 55 29 21 20 145 157327 3073 31490 2048 38 29 733 39 184 46 79 20 23 42 443 23
internal_value=0 1.67166e-05 -0.000290457 1.92057e-05 0.00132141 4.5973e-05 -0.000307172 1.63816e-05 1.85922e-05 -0.00053846 1.71953e-05 0.000294466 0.00154941 -7.59699e-05 -1.86989e-06 -1.90119e-05 -2.21117e-06 0.00014237 0.00138779 0.000486664 8.55135e-05 0.000307855 0.000532442 0.00121393 0.00192914 0.0030974 0.00439854 0.00308034 -0.000227984 0.00507659
internal_weight=0 21895 176 21719 47 150 121 21672 21586 86 21555 215 49 166 195738 38411 35338 3848 168 130 3680 1632 1150 417 233 154 108 85 482 43
internal_count=217633 21895 176 21719 47 150 121 21672 21586 86 21555 215 49 166 195738 38411 35338 3848 168 130 3680 1632 1150 417 233 154 108 85 482 43
shrinkage=0.05


Tree=440
num_leaves=31
num_cat=0
split_feature=35 15 42 41 27 43 44 42 20 43 43 39 18 3 4 19 43 33 27 36 3 3 14 4 28 11 13 5 5 26
split_gain=0.00283671 0.0638644 0.0640637 0.491308 0.380323 0.46964 0.701584 0.438799 0.372614 0.463417 0.916746 0.398939 0.346322 0.592827 0.291468 0.234556 0.236446 0.386089 0.416968 0.547833 0.266598 0.463204 0.172746 0.153018 0.259832 0.157789 0.125707 0.111317 0.108246 0.16797
threshold=1.8741500000000003e-05 -3.0013349999999998e-08 0.2761725000000001 0.19792950000000006 1.3732500000000003 2.4693750000000008 1.9491550000000004 0.14973499999999998 -5.0875749999999984 0.80790999999999979 -0.465335 0.00063658600000000007 -2.8839749999999998e-05 -7.0090999999999992 0.026035500000000007 8.167805000000002e-06 1.3091549999999998 -6.7813849999999989e-06 0.21094650000000004 0.0011454550000000003 -7.0441249999999993 -6.6876799999999994 0.00017214350000000002 0.038924450000000006 0.025975700000000001 -5.3658449999999993e-06 -6.4036749999999993e-06 8.0350100000000025e-06 9.607735000000002e-06 8.2883200000000013e-05
decision_type=2 2 2 2 2 2 2 2 2 2 2 2 2 2 2 2 2 2 2 2 2 2 2 2 2 2 2 2 2 2
left_child=-1 2 3 4 15 6 7 8 14 10 11 -10 -12 -14 -6 16 17 18 -2 -20 -19 -22 -11 24 25 27 -16 -17 29 -25
right_child=1 -3 -4 -5 5 -7 -8 -9 9 22 12 -13 13 -15 26 23 -18 20 19 -21 21 -23 -24 28 -26 -27 -28 -29 -30 -31
leaf_value=-5.6302798196937842e-06 0.0001012837757246286 4.0554334874656208e-05 1.7336097547853799e-05 1.4456402527216688e-05 0.0019959380457294173 -7.7406516590698641e-05 -0.00011995504612839017 -0.00052755913986439571 0.0014341595650907478 0.00081891236817076187 -0.0054602046229410917 -0.0065486403086277498 -0.017180420918499723 -0.006331749686505646 -0.0062079383836438264 0.0041836719185559318 -0.00017493980639845277 -0.0001287959216816099 -0.012316983342004408 -0.0024262119857926985 -0.0079705177705310399 -0.0010038624842673017 -0.0042614600678710056 -0.00062122033458866018 0.0046766367864840893 -0.00031783467255239531 -0.0021435607620962681 0.0006388366918239492 -0.00035393205674504209 -0.0050816777031741367
leaf_weight=110316 28 59211 25494 18325 32 422 252 98 29 27 20 34 34 20 30 23 423 232 28 28 34 80 44 62 33 720 52 597 873 32
leaf_count=110316 28 59211 25494 18325 32 422 252 98 29 27 20 34 34 20 30 23 423 232 28 28 34 80 44 62 33 720 52 597 873 32
internal_value=0 5.78762e-06 -3.70048e-05 -9.82717e-05 -0.000580134 -0.0013847 -0.00220564 -0.00345706 -0.00434864 -0.00560784 -0.00730684 -0.00287402 -0.0110807 -0.0131624 -0.00205117 -0.000304471 -0.00101426 -0.00183991 -0.00488064 -0.0073716 -0.0011017 -0.00308164 -0.00232949 -4.57325e-05 0.000293589 0.000185649 -0.00363053 0.000770339 -0.00052752 -0.00213967
internal_weight=0 107317 48106 22612 4287 1094 672 420 322 208 137 63 74 54 114 3193 853 430 84 56 346 114 71 2340 1373 1340 82 620 967 94
internal_count=217633 107317 48106 22612 4287 1094 672 420 322 208 137 63 74 54 114 3193 853 430 84 56 346 114 71 2340 1373 1340 82 620 967 94
shrinkage=0.05


Tree=441
num_leaves=31
num_cat=0
split_feature=33 44 2 0 8 40 27 40 21 2 40 40 20 21 43 43 6 43 7 20 12 32 40 30 43 11 25 4 4 8
split_gain=0.00283121 0.0148324 0.0283395 0.118769 0.0231281 0.0661974 0.178279 0.0273082 0.0226428 0.171082 0.178593 0.273037 0.297943 0.247219 0.215971 0.546504 0.184671 0.154368 0.0616083 0.104622 0.0561665 0.0749052 0.193713 0.241788 0.300677 0.333465 0.154485 0.132001 0.253196 0.0901967
threshold=1.3939150000000002e-05 -0.8551649999999994 -3.0487399999999996 -9.3712599999999977 2.3740300000000004e-05 -0.17527649999999997 2.898495 0.02582950000000005 3.8437450000000006 1.9944900000000001 0.2761725000000001 -0.079468000000000025 -2.1740799999999996 5.7588600000000012 -0.36707999999999957 -1.3362800000000006 1.0907100000000001e-06 -0.88227999999999918 4.6722500000000005e-05 -6.0084349999999995 6.7631250000000007e-05 -0.10597649999999999 -0.14969009999999991 0.0032977850000000006 -0.41630000000000006 -7.7868449999999985e-05 6.4137900000000014 -0.29052249999999996 -2.5331249999999996 -8.7699499999999972e-06
decision_type=2 2 2 2 2 2 2 2 2 2 2 2 2 2 2 2 2 2 2 2 2 2 2 2 2 2 2 2 2 2
left_child=-1 -2 3 -3 8 -6 -7 -8 20 -10 11 13 14 -11 15 -13 -16 -15 19 -18 -4 22 -22 24 25 -24 -25 28 -28 -26
right_child=1 2 4 -5 5 6 7 -9 9 10 -12 12 -14 17 16 -17 18 -19 -20 -21 21 -23 23 26 29 -27 27 -29 -30 -31
leaf_value=2.7571506443220146e-06 6.9403859922547075e-06 0.0042216116223062275 -0.00011587957978705644 -0.00015438308668361034 3.1724931287054414e-05 -0.0049541559544633391 -0.0021046444166651266 -0.00012299852816546704 3.2984514473224007e-05 -0.0023723992923098398 -8.4146434940455888e-05 -0.0010892183052915656 -0.0070260201881892775 0.00013440701203018597 -0.0044315862180492665 -0.010892855283981633 0.0039618438074830922 0.0059328334323557408 -0.0022248181680749571 -0.00017356422215156133 -0.00011562659485715304 2.7993511273840919e-05 0.0024241297710492896 -0.0025730547512673434 0.0029761189018331826 0.010160579956853046 -0.00063646201178926278 0.00013419754517706358 0.0062536964953324066 -0.0014688081915446675
leaf_weight=176401 29656 20 4952 69 274 27 21 101 2250 36 333 44 33 22 27 21 20 24 21 65 385 2540 30 33 21 26 24 102 30 25
leaf_count=176401 29656 20 4952 69 274 27 21 101 2250 36 333 44 33 22 27 21 20 24 21 65 385 2540 30 33 21 26 24 102 30 25
internal_value=0 -1.17958e-05 -5.97951e-05 0.000828987 -6.66813e-05 -0.000429527 -0.00127774 -0.000464102 -5.28089e-05 -0.000172935 -0.000890147 -0.00174765 -0.0026275 0.000730958 -0.00189442 -0.00425655 -0.000739991 0.00315967 0.000200321 0.000799473 -1.02177e-05 0.000152481 0.000620228 0.00159378 0.00355566 0.00601605 0.00053499 0.00119246 0.0031914 0.000560398
internal_weight=0 41232 11576 89 11487 423 149 122 11064 2896 646 313 231 82 198 65 133 46 106 85 8168 3216 676 291 102 56 189 156 54 46
internal_count=217633 41232 11576 89 11487 423 149 122 11064 2896 646 313 231 82 198 65 133 46 106 85 8168 3216 676 291 102 56 189 156 54 46
shrinkage=0.05


Tree=442
num_leaves=31
num_cat=0
split_feature=31 3 9 3 0 17 4 15 6 2 0 3 27 15 20 0 0 0 13 12 28 21 15 0 14 5 6 15 3 15
split_gain=0.00276299 0.0242777 0.0460164 0.0182606 0.044299 0.0208948 0.0265763 0.0230836 0.0321201 0.0215431 0.0297583 0.0177898 0.0138684 0.00613078 0.00520271 0.0638645 0.0219674 0.0507976 0.0229425 0.0722817 0.146037 0.0141356 0.0143804 0.0121634 0.0111276 0.00680235 0.014529 0.007057 0.00512199 0.00508104
threshold=29.306750000000005 -15.284849999999999 -1.1728849999999997e-05 -14.267049999999999 0.26643300000000009 -8.1349849999999988e-07 -0.81164199999999986 -1.9150249999999998e-05 3.5548950000000005e-07 2.3302900000000002 -8.4553549999999991 -13.080499999999999 91.481750000000019 -9.0272649999999983e-06 -19.608449999999998 -11.535399999999997 -10.580349999999997 -9.6465949999999978 1.6852200000000004e-05 6.9237300000000022e-05 0.69707500000000011 18.392150000000004 6.5735000000000015e-07 -5.9456399999999991 0.0025934100000000004 1.7650100000000002e-05 -1.5427749999999998e-06 1.2060150000000002e-06 -6.5484699999999991 -9.9303049999999995e-07
decision_type=2 2 2 2 2 2 2 2 2 2 2 2 2 2 2 2 2 2 2 2 2 2 2 2 2 2 2 2 2 2
left_child=14 2 -2 4 -3 7 -7 -5 12 11 28 -8 -9 -13 15 -1 -17 -18 19 24 -21 23 -23 -20 29 27 -27 -25 -11 -19
right_child=1 3 -4 5 -6 6 9 8 -10 10 -12 13 -14 -15 -16 16 17 18 21 20 -22 22 -24 25 -26 26 -28 -29 -30 -31
leaf_value=0.0026737776501249756 -0.003017109212232754 0.0027026948303682731 -0.00010315701393188821 0.00040213053166683371 -0.00054866658531616192 0.0015540038056185172 0.0015553793095750734 -0.0012185369430153517 -0.0025865298255946705 0.00048355017599533312 -0.0023177948962573125 0.00076161865877953389 0.00032870292127751911 -1.5601056597840277e-05 -7.5224977540419418e-08 -0.0015858996417227899 0.002402131670564616 -0.00092855369550220307 -0.00095547572959608137 -0.00010485424625750801 0.0052288893071818169 -0.00044551962379046022 -0.0020875665260246027 6.5400853286902647e-05 0.00099227848781579696 -0.00015337164601078257 0.0013648757819912415 -0.0007728291817127482 -0.00057215194543392431 -0.00010546717652011597
leaf_weight=24 20 20 42 35 22 28 20 30 26 20 23 27 28 421 216223 20 23 21 37 33 21 40 20 83 22 40 26 36 27 175
leaf_count=24 20 20 42 35 22 28 20 30 26 20 23 27 28 421 216223 20 23 21 37 33 21 40 20 83 22 40 26 36 27 175
internal_value=0 -9.3397e-05 -0.00104314 -1.24009e-05 0.000999601 -7.44506e-05 5.21713e-05 -0.000676703 -0.00112622 -2.5991e-05 -0.000844091 9.63745e-05 -0.000471594 3.12403e-05 3.3983e-07 0.000144856 4.31907e-05 9.96583e-05 4.0683e-06 0.000331692 0.00196938 -0.000311938 -0.000992869 -0.000127902 -7.39737e-05 3.76126e-05 0.000444726 -0.000188181 -0.000122917 -0.000193655
internal_weight=0 789 62 727 42 685 566 119 84 538 70 468 58 448 216844 621 597 577 554 272 54 282 60 222 218 185 66 119 47 196
internal_count=217633 789 62 727 42 685 566 119 84 538 70 468 58 448 216844 621 597 577 554 272 54 282 60 222 218 185 66 119 47 196
shrinkage=0.05


Tree=443
num_leaves=31
num_cat=0
split_feature=21 40 40 22 19 43 3 5 7 10 13 15 22 12 43 28 26 40 44 24 5 7 18 1 13 14 22 40 12 1
split_gain=0.00270057 0.0104163 0.0193333 0.0655377 0.0501947 0.125754 0.31154 0.071726 0.0689531 0.06219 0.0939903 0.120309 0.0417718 0.0439566 0.0399692 0.0361488 0.0364467 0.0431921 0.0332842 0.0207977 0.0213312 0.0178199 0.0171049 0.0143884 0.0118131 0.010821 0.00902309 0.00896598 0.0197397 0.00809457
threshold=13.390900000000002 1.3818860000000004 -0.51801999999999981 2.3818600000000001 5.8709150000000007e-05 0.052215000000000351 -8.0060399999999969 1.8784800000000004e-05 3.5630700000000011e-05 7.1508850000000012e-05 1.8732900000000002e-05 -1.1433699999999999e-07 -0.96156149999999985 -7.9519599999999983e-05 0.39187000000000044 -0.041208949999999994 -0.00022275099999999995 0.38220950000000015 -0.93924999999999936 0.65909550000000017 1.4773100000000001e-05 3.1685750000000011e-05 -2.6695749999999999e-07 12.302700000000002 5.5544400000000006e-07 6.4372200000000014e-05 -0.71561699999999984 -0.0054100000000001361 0.00025439800000000003 12.495800000000001
decision_type=2 2 2 2 2 2 2 2 2 2 2 2 2 2 2 2 2 2 2 2 2 2 2 2 2 2 2 2 2 2
left_child=-1 2 23 4 5 7 -7 8 21 10 11 -8 -6 -14 24 -15 17 -17 22 27 -21 -4 -16 26 -13 -24 -2 28 -18 -3
right_child=1 29 3 -5 12 6 9 -9 -10 -11 -12 14 13 15 18 16 19 -19 -20 20 -22 -23 25 -25 -26 -27 -28 -29 -30 -31
leaf_value=-6.8545450667342505e-07 0.00094204562809318312 -0.00015224609558965208 -0.00019321758969174252 0.0023180262585220913 0.0017615591520162917 0.0067169507950893608 0.0036112720679267554 -0.0023728117503849671 0.0022660697594151964 -0.0018688094199335735 0.003623919001908909 0.00039886368219110109 -0.0025192325847456232 0.0014458526664598407 0.0011522069957572967 -0.0024331470400738909 0.001946305797828245 -0.0001968134134076536 -0.0023113934341712264 -0.001843300617329078 2.6954061937548463e-05 -0.0018999316677218306 0.00016908361646562333 -0.0011433938956088242 0.0019846027560086678 -0.0012218821494727685 -1.4337620326311828e-05 -8.8056409876142231e-06 3.029223256062989e-05 -0.0011878177837934345
leaf_weight=214386 25 334 65 37 28 24 27 39 28 21 29 24 20 34 20 38 20 50 22 30 31 20 27 28 23 29 1825 288 41 20
leaf_count=214386 25 334 65 37 28 24 27 39 28 21 29 24 20 34 20 38 20 50 22 30 31 20 27 28 23 29 1825 288 41 20
internal_value=0 4.52577e-05 7.65843e-05 0.000252402 0.000174255 0.000606671 0.00130529 -0.000523997 0.00011409 0.000720251 0.00099075 0.000546785 -0.000122472 -0.000218039 -2.38431e-05 -0.000131528 -0.00023922 -0.0011625 -0.000598733 -4.10521e-05 -0.000892843 -0.000594797 -0.000102963 -1.84399e-05 0.00117486 -0.000551238 -1.41352e-06 0.000107828 0.000658493 -0.000210753
internal_weight=0 3247 2893 1015 978 398 246 152 113 222 201 172 580 552 145 532 498 88 98 410 61 85 76 1878 47 56 1850 349 61 354
internal_count=217633 3247 2893 1015 978 398 246 152 113 222 201 172 580 552 145 532 498 88 98 410 61 85 76 1878 47 56 1850 349 61 354
shrinkage=0.05


Tree=444
num_leaves=31
num_cat=0
split_feature=10 44 43 36 43 16 6 14 38 40 40 37 23 9 0 13 16 12 19 39 28 1 28 23 17 11 5 43 12 33
split_gain=0.00266626 0.0222461 0.065818 0.144949 0.0641912 0.0674964 0.138789 0.0616027 0.0730005 0.0644754 0.131296 0.0373537 0.0435392 0.0333789 0.030144 0.0242328 0.0572967 0.0293186 0.101757 0.10666 0.147331 0.0401529 0.0365073 0.0923014 0.105035 0.0239243 0.0630074 0.153644 0.0280765 0.0280439
threshold=1.4525850000000001e-05 0.46045500000000011 -0.56159999999999977 -0.0089461399999999983 -0.36707999999999957 -1.1598249999999999e-07 -5.7203749999999994e-08 0.00099716450000000021 -9.2802049999999987e-05 -0.027530000000000051 0.30085850000000008 -1.1844749999999999e-05 -14.758849999999999 -7.9747199999999981e-06 -7.1234599999999988 -4.5687299999999992e-05 2.5612450000000006e-07 0.00019908750000000003 7.0271150000000011e-06 2.1748700000000001e-05 0.032205550000000006 4.1385600000000009 0.063754200000000011 -14.564499999999997 7.2522850000000019e-08 -2.7423149999999998e-06 1.3024650000000002e-05 0.39187000000000044 -7.9519599999999983e-05 -0.00037994999999999994
decision_type=2 2 2 2 2 2 2 2 2 2 2 2 2 2 2 2 2 2 2 2 2 2 2 2 2 2 2 2 2 2
left_child=1 4 11 -4 5 6 -1 8 -5 -9 -11 12 -3 -7 -13 16 -6 25 19 -19 -21 -20 -23 24 -24 26 29 -28 -29 -17
right_child=-2 2 3 7 15 13 -8 9 -10 10 -12 14 -14 -15 -16 17 -18 18 21 20 -22 22 23 -25 -26 -27 27 28 -30 -31
leaf_value=-0.0045399906639376599 1.7972268676067116e-06 -0.0030312493992641978 0.0049080299598807916 -0.0032031115262361708 0.0031239820997870996 -0.0021530578381359754 0.00039896404184401038 -0.00011858124100301114 0.00045329031106734345 0.0055215559966330027 -0.00013905098632676529 0.0019655559419697968 -0.00042299397356373449 3.7807505563394824e-05 2.2590290570182836e-05 -0.0014286949370916073 -0.0002675873507872563 -0.0050418937372160152 0.0015090440298990871 -2.3322213023914773e-05 -0.0048464790327852822 -6.6210959933825237e-05 0.0027717246428073852 -0.0038804255499954986 -0.0018202969914647947 2.190019641387382e-05 -0.0044175645710091546 -0.0019949510166621955 -2.5520664903011745e-05 -7.7985964661689362e-05
leaf_weight=33 196871 20 21 20 20 21 25 37 43 21 20 20 80 101 10591 39 33 20 36 76 20 550 20 23 33 6063 29 22 102 2623
leaf_count=33 196871 20 21 20 20 21 25 37 43 21 20 20 80 101 10591 39 33 20 36 76 20 550 20 23 33 6063 29 22 102 2623
internal_value=0 -1.70418e-05 3.2317e-05 0.00103261 -7.1312e-05 -0.0010069 -0.00241113 0.000455414 -0.000707472 0.00139467 0.00276028 1.7188e-05 -0.000944645 -0.000339309 2.62525e-05 -5.39667e-05 0.00101225 -5.9819e-05 -0.000354133 -0.00172017 -0.00102815 -0.000114767 -0.000208149 -0.00123533 -8.74586e-05 -3.40276e-05 -0.000154486 -0.00114119 -0.000374936 -9.77747e-05
internal_weight=0 20762 10873 162 9889 180 58 141 63 78 41 10711 100 122 10611 9709 53 9656 778 116 96 662 626 76 53 8878 2815 153 124 2662
internal_count=217633 20762 10873 162 9889 180 58 141 63 78 41 10711 100 122 10611 9709 53 9656 778 116 96 662 626 76 53 8878 2815 153 124 2662
shrinkage=0.05


Tree=445
num_leaves=31
num_cat=0
split_feature=23 1 22 19 8 20 17 29 5 1 38 9 33 6 40 21 17 34 0 29 29 15 3 3 43 25 34 15 16 36
split_gain=0.00266173 0.0281154 0.0728702 0.0161534 0.0241479 0.0436174 0.0290649 0.0185387 0.0713981 0.0182352 0.0593258 0.0159848 0.0238559 0.0138437 0.0222451 0.0128044 0.055253 0.0130445 0.0165224 0.0188502 0.0195689 0.0126049 0.0193099 0.0173903 0.00988151 0.0139296 0.00758757 0.0170417 0.00819867 0.0272331
threshold=-6.007039999999999 12.027950000000002 1.8645100000000003 0.00028936550000000009 -3.3519149999999992e-05 2.3761250000000005 -1.0118749999999999e-05 -1.2159399999999998 1.6293600000000003e-05 10.319000000000001 -0.0007663809999999999 5.2649200000000011e-05 -2.0789249999999993e-06 6.2955500000000002e-06 0.12375499999999996 -19.754149999999996 7.7830150000000009e-06 0.22523850000000004 5.4701800000000009 -0.18041899999999997 -0.78911549999999997 -6.5679299999999979e-08 -5.5440799999999983 -5.5951849999999999 0.20156999999999983 1.2865300000000002 0.71357000000000015 2.8457750000000006e-07 1.6824400000000002e-06 0.020652350000000003
decision_type=2 2 2 2 2 2 2 2 2 2 2 2 2 2 2 2 2 2 2 2 2 2 2 2 2 2 2 2 2 2
left_child=-1 3 21 4 5 -2 -6 8 -8 11 -11 13 -13 26 -15 16 -5 24 -19 20 -20 23 -23 -3 -17 -26 28 -28 -9 -30
right_child=1 2 -4 15 6 -7 7 9 -10 10 -12 12 -14 14 -16 17 -18 18 19 -21 -22 22 -24 -25 25 -27 27 -29 29 -31
leaf_value=-6.796554418694706e-07 -0.00012395605394292783 0.0015836712842929046 -0.0029670040479282361 -0.00072292942214906893 0.0018499855691625272 0.0030687220433878795 -0.00037959695085495093 6.1487661916675607e-05 0.0034063920733751734 0.0031852661106677263 -3.6847468065388973e-05 -0.0015988995920529954 -2.1328777516397453e-05 0.0017950295419723262 -0.00027178090433311735 4.6982538352865276e-05 0.0026255112961569632 -0.00012470376335628036 -0.00075779811925409982 -9.8867554035491476e-05 -0.0027769218254252337 -0.0016204254952754127 0.00011992563986618857 -0.0001512232036965053 3.3953846747993213e-05 -0.0016937337029594346 -1.057221908472799e-05 -0.0015305959612622088 -1.5738431666050219e-05 0.0014993517908630401
leaf_weight=214394 23 20 27 28 25 20 33 944 20 20 50 35 76 30 23 1099 22 239 30 39 20 28 37 52 28 20 93 23 91 44
leaf_count=214394 23 20 27 28 25 20 33 944 20 20 50 35 76 30 23 1099 22 239 30 39 20 28 37 52 28 20 93 23 91 44
internal_value=0 4.49874e-05 -0.00059289 7.90075e-05 0.000192678 0.00136101 0.000159342 0.000130822 0.00104908 9.67649e-05 0.000883756 5.62282e-05 -0.000518761 0.000107369 0.000898112 -3.65268e-05 0.000750384 -6.32017e-05 -0.000341257 -0.000922789 -0.00156545 -0.000124999 -0.000629764 0.000330692 1.6312e-05 -0.000685916 7.22985e-05 -0.000311956 0.000113609 0.000478069
internal_weight=0 3239 164 3075 1550 43 1507 1482 53 1429 70 1359 111 1248 53 1525 50 1475 328 89 50 137 65 72 1147 48 1195 116 1079 135
internal_count=217633 3239 164 3075 1550 43 1507 1482 53 1429 70 1359 111 1248 53 1525 50 1475 328 89 50 137 65 72 1147 48 1195 116 1079 135
shrinkage=0.05


Tree=446
num_leaves=31
num_cat=0
split_feature=35 15 40 41 27 43 44 40 0 43 43 4 39 40 19 43 33 25 3 3 3 11 15 15 19 4 28 11 5 5
split_gain=0.00258022 0.0575208 0.0573007 0.44047 0.340571 0.420178 0.632572 0.396131 0.342176 0.445255 0.59249 0.39329 0.378844 0.300183 0.211521 0.21303 0.34674 0.377768 0.508324 0.240641 0.417744 0.16345 0.155543 0.267129 0.167647 0.137551 0.225835 0.143744 0.0995154 0.0975202
threshold=1.8741500000000003e-05 -3.0013349999999998e-08 0.2761725000000001 0.19792950000000006 1.3732500000000003 2.4693750000000008 1.9491550000000004 0.14973499999999998 -3.4028749999999994 0.80790999999999979 -0.465335 -0.046791299999999994 0.00047625050000000001 -0.040859549999999939 8.167805000000002e-06 1.3091549999999998 -6.7813849999999989e-06 0.22983600000000001 -13.166999999999998 -7.0441249999999993 -6.6876799999999994 2.3881450000000005e-05 -2.8691299999999994e-07 -1.2624199999999998e-05 0.00031424650000000008 0.038924450000000006 0.025975700000000001 -5.3658449999999993e-06 8.0350100000000025e-06 9.607735000000002e-06
decision_type=2 2 2 2 2 2 2 2 2 2 2 2 2 2 2 2 2 2 2 2 2 2 2 2 2 2 2 2 2 2
left_child=-1 2 3 4 14 6 7 8 11 10 12 -6 -10 -12 15 16 17 -2 -19 -18 -21 -11 23 -13 -25 26 27 28 -16 -27
right_child=1 -3 -4 -5 5 -7 -8 -9 9 21 13 22 -14 -15 25 -17 19 18 -20 20 -22 -23 -24 24 -26 29 -28 -29 -30 -31
leaf_value=-5.3697129214068538e-06 0.00011418249247461583 3.851465810771877e-05 1.6300818767581532e-05 1.3701939119919186e-05 0.0019129555779867449 -7.4106785842813794e-05 -0.00010670390366641866 -0.00049200318502030591 0.0015532241017180719 0.00038968561143959846 -0.0064868658191382725 -0.0017979248214919025 -0.0070895525631385686 -0.013799503091205326 0.0039637491301856131 -0.00016578573147619244 -0.00012225545087035086 -0.00084882181836292152 -0.010688719221049853 -0.0075704454267157845 -0.00095448150113952134 -0.0051064406702304652 -0.00056694778721538125 -0.0043053543010804184 -0.010100444742979912 -0.0020297074506762584 0.0043652539159555808 -0.00030219123956195897 0.00061208993790602283 -0.00033474714625454617
leaf_weight=110316 28 59211 25494 18325 39 422 252 98 21 31 23 39 32 36 23 423 232 21 35 34 80 24 27 24 26 94 33 720 597 873
leaf_count=110316 28 59211 25494 18325 39 422 252 98 21 31 23 39 32 36 23 423 232 21 35 34 80 24 27 24 26 94 33 720 597 873
internal_value=0 5.51977e-06 -3.50918e-05 -9.30346e-05 -0.000549286 -0.00131064 -0.00208716 -0.00327543 -0.00412256 -0.00569283 -0.00750204 -0.00243072 -0.00366506 -0.0109488 -0.000288426 -0.000962459 -0.00174616 -0.00462778 -0.00699876 -0.00104658 -0.00292766 -0.00200862 -0.00389109 -0.00489954 -0.0073188 -4.2721e-05 0.000278995 0.000178363 0.000736426 -0.000499511
internal_weight=0 107317 48106 22612 4287 1094 672 420 322 167 112 155 53 59 3193 853 430 84 56 346 114 55 116 89 50 2340 1373 1340 620 967
internal_count=217633 107317 48106 22612 4287 1094 672 420 322 167 112 155 53 59 3193 853 430 84 56 346 114 55 116 89 50 2340 1373 1340 620 967
shrinkage=0.05


Tree=447
num_leaves=31
num_cat=0
split_feature=31 20 10 11 23 43 15 2 1 37 18 2 18 22 23 10 9 36 40 40 37 2 2 1 14 10 40 40 19 2
split_gain=0.0027191 0.0180008 0.0805764 0.196737 0.271083 0.122352 0.0553486 0.124011 0.0391308 0.0305428 0.0284684 0.0195536 0.137462 0.0284513 0.0199293 0.0179059 0.0415073 0.16522 0.145137 0.329121 0.0487798 0.128227 0.0422091 0.0405894 0.0397165 0.0378639 0.0558181 0.112753 0.0267204 0.103673
threshold=0.56878050000000013 3.8241100000000006 2.7034150000000006e-05 -4.4153649999999994e-05 -10.354649999999998 -2.7863399999999992 -1.0179149999999999e-07 -1.4562349999999997 6.7196500000000006 7.5042600000000009e-06 -1.4018299999999999e-05 3.0578500000000006 3.940980000000001e-05 -2.7041249999999994 -8.326019999999998 2.4273950000000005e-05 -1.9561949999999997e-05 -0.09986109999999998 0.22528099999999995 -0.040859549999999939 1.7767500000000002e-06 -2.2968949999999997 2.4712900000000002 -4.2653099999999986 0.00066001700000000005 2.1755500000000002e-05 -0.32870999999999989 0.22528099999999995 3.865525000000001e-10 -2.7279399999999994
decision_type=2 2 2 2 2 2 2 2 2 2 2 2 2 2 2 2 2 2 2 2 2 2 2 2 2 2 2 2 2 2
left_child=-1 11 3 4 -3 9 7 -5 -9 -6 -8 15 13 -13 -15 16 17 18 19 23 22 -22 24 -2 -19 -26 -27 -28 29 -17
right_child=1 2 -4 6 5 -7 10 8 -10 -11 -12 12 -14 14 -16 28 -18 20 -20 -21 21 -23 -24 -25 25 26 27 -29 -30 -31
leaf_value=-1.732690172290821e-06 5.3251194884069259e-05 0.007648848564977842 -0.00010857648754903371 0.0043472765556543894 -0.0012510848855729112 0.0044365483185087908 -0.0017724838570720748 -0.00055467668260882009 0.0018210053799311236 0.0013268770641298034 8.2431274544029742e-07 -0.001618118383766128 0.0033165453488306542 -0.00022910201223287283 0.0015758000528148842 0.0040506485731202704 -3.1046639709489984e-05 0.00029087907496616047 -1.9384126256530485e-05 -0.0088704714351998913 0.0045384529302828014 -3.1606402273720244e-05 0.0016425785081228242 -0.0029687710772122958 -6.60790560199319e-05 -0.00016371672279158857 -0.0045178892048583792 -0.00016104883124238838 2.6814842988661038e-05 0.00017972764735958436
leaf_weight=198549 25 22 770 24 27 21 25 52 26 20 239 29 35 65 20 20 5210 99 45 21 20 66 25 20 69 41 33 27 11860 128
leaf_count=198549 25 22 770 24 27 21 25 52 26 20 239 29 35 65 20 20 5210 99 45 21 20 66 25 20 69 41 33 27 11860 128
internal_value=0 1.80268e-05 0.00020336 0.000730094 0.00282445 0.00126361 0.000215089 0.00120429 0.000237217 -0.00015408 -0.000167103 5.30322e-06 0.000575691 -0.000265799 0.000195581 5.04086e-07 -7.24637e-05 -0.00051194 -0.00220898 -0.00370188 -1.62263e-05 0.0010312 -0.000322616 -0.00128987 -0.000505255 -0.000968885 -0.00158565 -0.00255731 3.51467e-05 0.000702825
internal_weight=0 19084 1226 456 90 68 366 102 78 47 264 17858 149 114 85 17709 5701 491 111 66 380 86 294 45 269 170 101 60 12008 148
internal_count=217633 19084 1226 456 90 68 366 102 78 47 264 17858 149 114 85 17709 5701 491 111 66 380 86 294 45 269 170 101 60 12008 148
shrinkage=0.05


Tree=448
num_leaves=31
num_cat=0
split_feature=27 4 11 13 11 18 40 12 40 16 8 1 16 4 32 11 26 16 12 13 12 11 5 17 16 20 14 0 29 16
split_gain=0.00263932 0.00864931 0.0244091 0.086464 0.0154538 0.0171377 0.0444451 0.0131745 0.0148424 0.0220785 0.0114302 0.0375011 0.0233966 0.0693675 0.0153648 0.0467631 0.0324855 0.0151693 0.0270589 0.0308689 0.0288398 0.010346 0.0064059 0.0102883 0.00780227 0.00561973 0.0342954 0.0608828 0.0370831 0.0930534
threshold=91.481750000000019 5.1455300000000008 -0.00035055549999999991 0.00035752750000000007 -0.00020968799999999995 0.006463130000000001 -0.43704099999999996 -0.00014946199999999997 -0.19934349999999995 8.953990000000002e-05 -4.8730199999999995e-06 2.1386600000000002 6.5238050000000013e-06 -1.5265699999999998 11.695650000000002 5.8604700000000005e-05 0.031042450000000003 9.6924450000000025e-07 0.00015080600000000005 7.5148700000000015e-05 0.00010629050000000001 -0.00037784299999999994 1.1630300000000001e-05 -3.7416649999999998e-06 5.2573900000000008e-06 -19.608449999999998 4.0236400000000007e-05 -10.077899999999998 0.052166800000000006 8.0536650000000016e-08
decision_type=2 2 2 2 2 2 2 2 2 2 2 2 2 2 2 2 2 2 2 2 2 2 2 2 2 2 2 2 2 2
left_child=25 2 3 -2 -4 7 -7 8 22 -10 17 12 14 -14 15 -12 -16 -9 20 -20 -19 -3 24 -24 -6 26 -1 -28 29 -29
right_child=1 21 4 -5 5 6 -8 10 9 -11 11 -13 13 -15 16 -17 -18 18 19 -21 -22 -23 23 -25 -26 -27 27 28 -30 -31
leaf_value=-0.00154327804640551 0.0031878907986101694 -0.0014065077410195955 -0.0010579645337435442 -0.00071040468207105413 -5.1776124635817611e-05 -0.00060991653956955782 0.0022589814706912474 -6.1250409439519112e-05 -0.0020741703999616829 3.9656391544711022e-05 -1.3341645702078035e-05 0.0020636276951033023 -0.0009384855320301237 0.0026954836762060636 -0.00013238616501926013 0.0024137720127501306 -0.0020112295050889123 -0.00059318778700852661 0.0013077482793540606 -0.0011789520043142452 -0.0029498554812605673 -0.00020436113208277328 0.00080094240974479659 -0.00034651299642324116 -0.0013847858511975833 6.838280740122643e-08 0.002179713519504539 -0.00056722541281487796 -4.165217974615897e-05 0.0040084725577617065
leaf_weight=28 25 25 39 33 23 27 27 457 30 21 361 24 24 29 129 21 28 34 26 24 21 63 30 56 21 215491 38 25 433 20
leaf_count=28 25 25 39 33 23 27 27 457 30 21 361 24 24 29 129 21 28 34 26 24 21 63 30 56 21 215491 38 25 433 20
internal_value=0 -6.40217e-05 -3.59399e-05 0.000969895 -7.61178e-05 -4.9018e-05 0.000824532 -8.37287e-05 -0.000480885 -0.00120377 -2.27055e-05 0.00012606 4.75102e-05 0.00104991 -5.10563e-05 0.000120086 -0.000467467 -0.000185765 -0.000727702 0.000114132 -0.00149301 -0.00054588 -0.000197291 5.37621e-05 -0.000687985 4.73565e-07 0.000160976 0.000253455 0.000100321 0.00146642
internal_weight=0 1598 1510 58 1452 1413 54 1359 181 51 1178 616 592 53 539 382 157 562 105 50 55 88 130 86 44 216035 544 516 478 45
internal_count=217633 1598 1510 58 1452 1413 54 1359 181 51 1178 616 592 53 539 382 157 562 105 50 55 88 130 86 44 216035 544 516 478 45
shrinkage=0.05


Tree=449
num_leaves=31
num_cat=0
split_feature=33 41 41 18 23 43 43 25 38 4 23 23 43 43 4 4 36 32 6 19 16 20 10 38 43 28 43 40 43 21
split_gain=0.00260403 0.0145765 0.0805363 0.19324 0.429367 0.35687 0.562243 0.278693 0.247741 0.263481 0.27703 0.262635 0.224253 0.202771 0.438527 0.351508 0.185021 0.272735 0.331852 0.207752 0.181666 0.149986 0.142812 0.137803 0.364603 0.416303 0.182801 0.243054 0.153694 0.135063
threshold=1.3939150000000002e-05 0.22260499999999997 -0.15132349999999997 -1.0012199999999997e-06 -9.6131449999999976 -0.99152500000000054 0.51814999999999956 6.6944750000000006 -0.0024070099999999998 -1.0382099999999996 -6.7889449999999991 -10.311099999999998 0.27381999999999979 -0.41630000000000006 -0.13885249999999996 -1.5265699999999998 -0.0026257799999999999 -1.7584249999999997 9.7954900000000019e-07 0.00083889400000000008 -9.5111699999999976e-06 6.7384950000000012 1.5224150000000001e-05 -0.0018693799999999997 2.2194399999999996 0.017503900000000003 2.5222350000000002 0.077348000000000056 1.3895649999999999 -4.8509399999999987
decision_type=2 2 2 2 2 2 2 2 2 2 2 2 2 2 2 2 2 2 2 2 2 2 2 2 2 2 2 2 2 2
left_child=-1 2 -2 8 23 -6 7 -7 11 22 16 13 -12 14 15 -4 17 -11 20 -20 -19 -15 -10 26 25 -25 27 28 -5 -24
right_child=1 -3 3 4 5 6 -8 -9 9 10 12 -13 -14 21 -16 -17 -18 18 19 -21 -22 -23 29 24 -26 -27 -28 -29 -30 -31
leaf_value=2.6442158972287378e-06 5.9212480029796203e-06 1.6753915913952734e-05 -0.0021126913795755666 0.00038559660541834191 7.3431302227172131e-05 -0.012333578172893753 -0.0019540493137780667 -0.0050476806198379827 0.0020933848113949913 -0.0010446067772863898 0.0020160146980713529 -0.0065244800541439055 0.008104870549868793 -0.00049135587051593371 0.0011645525824004674 -0.011271437258110382 9.7740234604898709e-05 0.0084286079620942474 0.0041384047511701287 -1.58318723551929e-06 0.0033555428337907266 0.0037251684584391669 -0.0028757520981321804 -0.0017667511339074255 -0.00011921166481383949 -0.0090401938625449402 -0.00047089918440876933 0.0063955784838815978 0.0044844405484932041 -0.00056844282073078439
leaf_weight=176401 15809 21801 22 190 106 21 159 35 39 80 62 21 20 254 34 20 834 25 40 125 60 23 82 136 586 23 297 22 26 280
leaf_count=176401 15809 21801 22 190 106 21 159 35 39 80 62 21 20 254 34 20 834 25 40 125 60 23 82 136 586 23 297 22 26 280
internal_value=0 -1.13126e-05 -4.28025e-05 -0.000255468 -0.000665797 -0.00230089 -0.00347148 -0.00777989 6.95877e-05 0.000333388 0.000692153 -0.00109212 0.0035011 -0.000768948 -0.00305675 -0.006474 0.000494272 0.00149642 0.00230954 0.00100205 0.00484762 -0.000141247 -0.000781381 -0.000255747 -0.000695383 -0.00281888 0.000356457 0.00138891 0.000878976 -0.00109109
internal_weight=0 41232 19431 3622 1601 321 215 56 2021 1647 1246 374 82 353 76 42 1164 330 250 165 85 277 401 1280 745 159 535 238 216 362
internal_count=217633 41232 19431 3622 1601 321 215 56 2021 1647 1246 374 82 353 76 42 1164 330 250 165 85 277 401 1280 745 159 535 238 216 362
shrinkage=0.05


Tree=450
num_leaves=31
num_cat=0
split_feature=21 5 17 7 40 40 1 11 40 22 6 37 40 22 1 23 13 12 12 13 40 16 7 26 29 0 22 6 11 3
split_gain=0.00258776 0.00993297 0.0316056 0.012145 0.0289097 0.103325 0.0174244 0.0959214 0.106525 0.278176 0.0949437 0.103278 0.0597631 0.0526766 0.0273947 0.0365236 0.0252084 0.0180337 0.017514 0.015417 0.0150197 0.0140598 0.012593 0.0475973 0.0108227 0.0231199 0.0133945 0.092969 0.126871 0.0332074
threshold=13.390900000000002 7.9290400000000026e-06 2.1981950000000002e-08 2.9875150000000001e-05 0.039429999999999972 0.1751400000000001 8.7485050000000015 2.3076350000000001e-05 0.327845 1.1712050000000003 4.4498500000000004e-07 2.1076050000000003e-07 -0.30278099999999991 1.4271150000000004 8.267730000000002 -7.1062399999999988 2.9321100000000005e-06 0.00018381700000000002 9.2030350000000023e-05 3.8976100000000001e-05 -0.079468000000000025 6.4489550000000005e-07 3.0697150000000005e-05 -5.7418099999999992e-05 -0.78911549999999997 11.322650000000001 0.66942300000000021 -1.0755299999999999e-06 4.247685000000001e-05 -10.340399999999997
decision_type=2 2 2 2 2 2 2 2 2 2 2 2 2 2 2 2 2 2 2 2 2 2 2 2 2 2 2 2 2 2
left_child=-1 2 -2 4 20 -6 14 8 9 -8 13 -12 -9 -11 22 -16 -15 18 -10 -7 -3 -18 23 -5 25 -24 27 28 -26 -29
right_child=1 3 -4 6 5 19 7 12 17 10 11 -13 -14 16 15 -17 21 -19 -20 -21 -22 -23 24 -25 26 -27 -28 29 -30 -31
leaf_value=-6.7098458211615806e-07 0.0022598245292015022 -2.3615005956683623e-05 6.5264455736420746e-05 0.0027445705721402193 -0.0037643412351826555 -6.4221658540191126e-06 0.0064507601713254805 -6.8757137507253162e-05 -0.00035944298132396585 0.0015749148662715538 0.00067003432098620887 0.0050927307361482901 -0.0038452167172363261 -0.0022798845519719181 -0.0027935875444381965 2.5501439490148591e-05 0.00023228943081567591 0.00090291814598127866 -0.001928210247106935 -0.001389996678881289 0.0012236297728332622 -0.0013290885411801614 -0.00011718734003035493 -0.00028291983194444705 0.0005015820307729586 -0.001724506978583425 2.7292433786876722e-05 -0.0014668515006210222 0.0050721584597009824 0.000225323776477749
leaf_weight=214386 21 337 75 20 24 125 24 22 93 35 33 22 20 20 20 27 46 22 22 24 26 21 330 37 49 24 1574 43 22 89
leaf_count=214386 21 337 75 20 24 125 24 22 93 35 33 22 20 20 20 27 46 22 22 24 26 21 330 37 49 24 1574 43 22 89
internal_value=0 4.43023e-05 0.000545324 2.90379e-05 -0.000187781 -0.000719693 7.34797e-05 0.000386491 0.00066652 0.00139934 0.000714407 0.00243911 -0.00186707 -6.31247e-05 2.02607e-05 -0.00117411 -0.000722106 -0.000408647 -0.000659555 -0.00022928 6.57193e-05 -0.000257098 4.59168e-05 0.000779358 2.62987e-05 -0.000226158 7.65912e-05 0.000458838 0.00191782 -0.000325915
internal_weight=0 3247 96 3151 536 173 2615 380 338 201 177 55 42 122 2235 47 87 137 115 149 363 67 2188 57 2131 354 1777 203 71 132
internal_count=217633 3247 96 3151 536 173 2615 380 338 201 177 55 42 122 2235 47 87 137 115 149 363 67 2188 57 2131 354 1777 203 71 132
shrinkage=0.05


Tree=451
num_leaves=31
num_cat=0
split_feature=17 24 4 7 6 7 16 3 18 36 13 43 28 32 3 13 17 34 13 39 19 33 6 19 5 40 43 40 40 15
split_gain=0.00249383 0.0196578 0.0885351 0.080991 0.122621 0.0905014 0.040796 0.0326871 0.0169865 0.0134661 0.0228873 0.0271816 0.0236124 0.0170148 0.0774787 0.0166565 0.0129516 0.0468618 0.053036 0.0244972 0.0447396 0.028025 0.0384745 0.0506853 0.0909271 0.164736 0.0424616 0.0741533 0.258121 0.0350823
threshold=2.5901300000000006e-05 1.5291850000000002 4.1822950000000008 3.4485700000000008e-05 -1.5427749999999998e-06 7.8093250000000017e-05 -8.1957199999999988e-05 -14.605749999999999 0.0021193250000000005 1.20103 8.055315000000001e-05 -1.39862 1.9114100000000003 5.9680600000000004 -15.867949999999999 -5.8484999999999993e-05 1.5863700000000005e-05 4.1501900000000012 -7.1201799999999986e-05 0.029330700000000005 0.0054117850000000006 1.1132650000000001e-05 -2.1612149999999997e-07 0.0039594400000000007 2.1459700000000004e-05 0.10022550000000004 0.64319500000000052 0.30085850000000008 -0.12496499999999998 -5.5152549999999989e-06
decision_type=2 2 2 2 2 2 2 2 2 2 2 2 2 2 2 2 2 2 2 2 2 2 2 2 2 2 2 2 2 2
left_child=16 9 3 -3 -5 6 -6 -4 -8 13 11 -11 -12 -2 -15 -16 -1 19 -19 21 -21 -18 -23 -24 26 -26 29 28 -28 -25
right_child=1 2 7 4 5 -7 8 -9 -10 10 12 -13 -14 14 15 -17 17 18 -20 20 -22 22 23 24 25 -27 27 -29 -30 -31
leaf_value=2.2075187156398291e-07 9.4916049963505359e-06 0.0040522690365006305 -0.0023588158327454171 0.0041651024549289352 -0.0024279478518874388 0.0026929005093406888 0.00072822050503666778 -0.0001907719841724294 -0.001041867743238665 -0.0003267304413335247 -0.00027452232560518103 -0.0024609179040417078 0.0014987557316392972 0.0033496362495324798 0.0014777683425927536 -6.1464820309366e-05 6.6018391587504045e-07 -0.0028847853096802007 -0.00049740696373866812 3.6055523667693545e-05 0.0028881566888594537 0.00013764452659284908 -2.7005904201784555e-05 0.00093187548164709816 -0.0046503101108497412 0.00014969029235186154 -0.00021126838466443585 -3.3858356643685186e-05 -0.0071681136669940323 -0.00046479838530649433
leaf_weight=180411 30471 22 21 22 25 25 33 101 23 37 177 25 21 21 20 145 4522 26 221 44 20 389 362 58 39 33 40 59 20 200
leaf_count=180411 30471 22 21 22 25 25 33 101 23 37 177 25 21 21 20 145 4522 26 221 44 20 389 362 58 39 33 40 59 20 200
internal_value=0 1.30862e-05 0.000436291 0.00124983 0.000768159 6.31333e-05 -0.000748523 -0.00056396 1.21997e-06 9.36299e-06 -0.000348956 -0.00118729 -8.64474e-05 1.24019e-05 0.000489168 0.000125109 -2.18911e-06 -7.42537e-05 -0.00074871 -4.54617e-05 0.000927337 -5.63424e-05 -0.000271147 -0.000467226 -0.000822147 -0.00245031 -0.000511198 -0.00129253 -0.00253022 -0.000150817
internal_weight=0 31189 272 150 128 106 81 122 56 30917 260 62 198 30657 186 165 186444 6033 247 5786 64 5722 1200 811 449 72 377 119 60 258
internal_count=217633 31189 272 150 128 106 81 122 56 30917 260 62 198 30657 186 165 186444 6033 247 5786 64 5722 1200 811 449 72 377 119 60 258
shrinkage=0.05


Tree=452
num_leaves=31
num_cat=0
split_feature=31 20 10 11 23 10 12 34 11 17 22 44 11 43 7 43 20 0 27 11 11 22 22 27 0 9 23 20 43 0
split_gain=0.00249752 0.0164565 0.0726262 0.17642 0.246971 0.0922942 0.051904 0.0515203 0.0205293 0.0512723 0.0178372 0.0184995 0.0297009 0.0232778 0.0431912 0.0154297 0.0459963 0.199322 0.296588 0.159815 0.092377 0.259731 0.0656585 0.058273 0.0805989 0.0433518 0.0620053 0.115152 0.0410158 0.15874
threshold=0.56878050000000013 3.8241100000000006 2.7183000000000004e-05 -4.4153649999999994e-05 -9.7498999999999985 2.2759000000000004e-05 -0.00076963199999999991 0.2810120000000001 -1.5142749999999998e-05 7.2680000000000008e-07 2.7783350000000007 5.2253350000000003 -0.000119502 -3.376385 4.6995750000000012e-05 -0.88227999999999918 -4.0204099999999992 -3.8017449999999995 3.2168250000000005 -3.3619499999999992e-05 -0.00027218349999999996 2.3818600000000001 2.1923050000000006 21.296850000000003 -5.7641099999999996 -1.7830049999999997e-05 -10.262699999999999 -5.0223249999999995 -0.41630000000000006 -9.4930899999999987
decision_type=2 2 2 2 2 2 2 2 2 2 2 2 2 2 2 2 2 2 2 2 2 2 2 2 2 2 2 2 2 2
left_child=-1 15 3 4 -3 -6 -5 -8 9 -9 11 13 -13 14 -4 16 25 18 -18 20 22 23 -20 24 -22 26 27 -2 29 -17
right_child=1 2 10 6 5 -7 7 8 -10 -11 -12 12 -14 -15 -16 28 17 -19 19 -21 21 -23 -24 -25 -26 -27 -28 -29 -30 -31
leaf_value=-1.6605909986198805e-06 -0.00083288742270090004 0.0062898722037883301 -0.00029040250107451965 0.0026855064113624396 -0.00063827036497875666 0.0035394165711477399 0.0020848536455214972 -0.0027730605286627038 5.1917102478950223e-05 0.00049807034223340446 -0.0012064036563970149 -0.0022996458672898137 -7.3626612602099557e-05 -5.0444423304022219e-05 0.0028557036085658186 0.0044476144219515847 0.0069453256867497912 -0.00020529157557493474 0.00021348332624116808 0.005162613988068188 0.0033922280119802715 0.0050037042478132728 -0.0027558380692739616 -0.0015649270716223966 -0.00027467098119949641 -5.4923903536021876e-05 -0.00026023741260100254 -0.0046811780840574687 1.3375199836599877e-05 0.00027514572158800785
leaf_weight=198549 167 31 24 20 39 20 29 23 273 25 35 23 43 621 20 24 22 769 52 20 22 35 29 37 47 1921 700 22 13537 454
leaf_count=198549 167 31 24 20 39 20 29 23 273 25 35 23 43 621 20 24 22 769 52 20 22 35 29 37 47 1921 700 22 13537 454
internal_value=0 1.72767e-05 0.000194481 0.000691081 0.00267646 0.000777895 0.00020815 6.65871e-05 -0.000115748 -0.00106935 -0.000103738 -5.09431e-05 -0.000849361 2.82984e-05 0.00113965 5.11114e-06 -8.36441e-05 0.000201654 0.00138704 0.000881739 0.000496075 0.00126913 -0.000849607 3.60111e-05 0.000894485 -0.000188524 -0.000477215 -0.00128084 2.94484e-05 0.000484642
internal_weight=0 19084 1226 460 90 59 370 350 321 48 766 731 66 665 44 17858 3843 1033 264 242 222 141 81 106 69 2810 889 189 14015 478
internal_count=217633 19084 1226 460 90 59 370 350 321 48 766 731 66 665 44 17858 3843 1033 264 242 222 141 81 106 69 2810 889 189 14015 478
shrinkage=0.05


Tree=453
num_leaves=31
num_cat=0
split_feature=31 3 3 9 3 3 22 13 13 15 40 17 20 0 28 16 30 20 0 0 0 13 16 7 2 9 3 2 38 5
split_gain=0.00243989 0.0222208 0.0509539 0.0304098 0.0248126 0.0451077 0.0109219 0.0102441 0.0132873 0.00903191 0.0206129 0.0236696 0.0123045 0.0116809 0.00576353 0.00548937 0.00643478 0.00404932 0.055938 0.0220089 0.042239 0.0198189 0.0544224 0.0216712 0.0128992 0.0120214 0.00963684 0.0089646 0.0147066 0.00731795
threshold=29.306750000000005 -14.605749999999999 -14.176449999999997 -1.7427699999999996e-05 -13.243349999999998 -12.74245 3.0909850000000003 -4.7934999999999994e-05 -2.9523999999999997e-05 8.0636700000000017e-06 0.039429999999999972 5.3722100000000007e-06 7.1058900000000014 -0.37795349999999994 1.0121250000000004 2.7687200000000004e-06 0.35534200000000005 -19.608449999999998 -11.535399999999997 -10.580349999999997 -9.6465949999999978 1.6852200000000004e-05 3.6544900000000005e-06 2.5944250000000002e-05 2.6388200000000004 -2.4137799999999998e-05 -6.4469949999999994 -2.2229199999999998 0.18048750000000005 1.7279250000000002e-05
decision_type=2 2 2 2 2 2 2 2 2 2 2 2 2 2 2 2 2 2 2 2 2 2 2 2 2 2 2 2 2 2
left_child=17 3 -3 -2 -4 -6 7 -7 -9 12 14 -12 15 -14 -11 -10 -17 18 -1 -20 -21 22 23 -22 25 -25 27 28 -23 -29
right_child=1 2 4 -5 5 6 -8 8 9 10 11 -13 13 -15 -16 16 -18 -19 19 20 21 26 -24 24 -26 -27 -28 29 -30 -31
leaf_value=0.0024946016298296554 -0.0023575978118363615 0.0023733775058644825 -0.001650569079113969 -0.00026143769523551168 0.0022661967047800618 0.00094320974627044049 -0.0011353794561121807 -0.001218145294347778 4.8220269791579155e-05 0.00077754455586810688 -0.0024462343503811016 -6.9594669621437792e-05 0.001743699167855084 7.4119562850682999e-05 -0.00024968104561493319 0.00011373662959418394 -0.00089690379188848773 -4.6826264458699281e-08 -0.0015979609065107073 0.0021887562913394977 0.0011414692878158373 -9.3115576173124083e-05 0.0021173625131066529 -0.0012491017281216297 0.00096552275354042658 -0.00013582177396873139 -0.0012288363496772946 -0.00025753910951156067 -0.0017301607884608373 0.0003832520340136317
leaf_weight=24 24 22 24 62 21 25 24 25 356 22 22 20 20 22 36 28 36 216223 20 23 37 34 36 29 22 148 25 133 23 67
leaf_count=24 24 22 24 62 21 25 24 25 356 22 22 20 20 22 36 28 36 216223 20 23 37 34 36 29 22 148 25 133 23 67
internal_value=0 -8.77664e-05 5.04099e-06 -0.000846413 -7.14691e-05 -1.37851e-05 -8.90676e-05 -4.80357e-05 -9.02523e-05 -4.00791e-05 -0.000470916 -0.0013145 5.31756e-05 0.000869157 0.000139956 -2.84226e-05 -0.000454749 3.19343e-07 0.000127814 3.26669e-05 8.91878e-05 2.02164e-06 0.000306527 3.02978e-05 -0.000176302 -0.000318224 -0.000291686 -0.000200523 -0.000753678 -4.28741e-05
internal_weight=0 789 703 86 681 657 636 612 587 562 100 42 462 42 58 420 64 216844 621 597 577 554 272 236 199 177 282 257 57 200
internal_count=217633 789 703 86 681 657 636 612 587 562 100 42 462 42 58 420 64 216844 621 597 577 554 272 236 199 177 282 257 57 200
shrinkage=0.05


Tree=454
num_leaves=31
num_cat=0
split_feature=21 44 12 3 30 19 15 7 24 12 22 7 15 1 32 19 29 40 40 0 10 22 37 29 40 3 40 37 3 6
split_gain=0.00247291 0.0346803 0.0556991 0.0560095 0.201481 0.0667467 0.0868062 0.190721 0.064238 0.0536096 0.121288 0.0521765 0.0500072 0.0489057 0.0392562 0.0365212 0.0907487 0.135827 0.0499792 0.136747 0.129903 0.119783 0.0699075 0.0403705 0.0463163 0.0368766 0.0269477 0.0522908 0.0212641 0.0208594
threshold=-12.332599999999998 0.19419999999999996 -2.9756999999999996e-05 -8.1461699999999979 0.0088898900000000027 0.0029219050000000002 4.4044100000000007e-07 4.3412800000000006e-05 -1.7211949999999998 -3.4944649999999994e-05 -0.90610399999999991 2.5944250000000002e-05 -1.5692399999999998e-07 -10.856449999999997 11.695650000000002 5.7772900000000012e-08 0.0054568950000000007 -0.079468000000000025 -0.17527649999999997 -1.8941599999999998 2.7183000000000004e-05 -1.0073749999999999 0.00046534500000000004 -0.067941949999999987 0.10022550000000004 -6.5484699999999991 -0.60254799999999997 5.3317650000000004e-06 -6.280479999999999 7.8911650000000013e-07
decision_type=2 2 2 2 2 2 2 2 2 2 2 2 2 2 2 2 2 2 2 2 2 2 2 2 2 2 2 2 2 2
left_child=1 2 3 4 -1 6 8 -8 -6 15 11 -11 -10 -3 -7 16 -5 -18 22 20 -20 23 26 -21 25 -25 -17 -28 -15 -27
right_child=-2 13 -4 9 5 14 7 -9 12 10 -12 -13 -14 28 -16 18 17 -19 19 21 -22 -23 -24 24 -26 29 27 -29 -30 -31
leaf_value=0.0052964182069095284 -9.0492921666021401e-07 -0.0019349247690323475 -2.6471324450778223e-05 0.00013816309207803507 -0.0017542830489110203 0.00021453288598174619 0.0066491660196334127 -0.00025592168698494792 0.0030988736226308078 0.0021989421909081232 0.004739937965842685 -0.00048737309454054416 -0.00031226667578309952 -4.4343165646573754e-05 -0.0023344742184828802 -0.00013946570512924557 0.00018945401181712362 -0.0053723528216193831 0.0062420331640169026 -0.0016918213092139923 0.00096601090086291411 0.0040749537917145065 0.0023830186633226141 0.0030543142134168495 -0.00013846781247044625 -0.0006993886712007225 -0.00034724903381813535 -0.0032157658079540853 -0.0014041773677835692 0.0012285560694432749
leaf_weight=26 211535 35 1590 140 25 44 20 20 22 28 21 51 21 3314 23 154 23 21 20 29 28 20 23 21 212 20 47 24 29 47
leaf_count=26 211535 35 1590 140 25 44 20 20 22 28 21 51 21 3314 23 154 23 21 20 29 28 20 23 21 212 20 47 24 29 47
internal_value=0 3.13913e-05 0.000164272 0.000432664 0.00118945 0.000579268 0.00134838 0.00319662 0.000261184 0.000268925 0.00136253 0.000464739 0.00143297 -7.56059e-05 -0.000660499 0.000137007 -0.000484343 -0.00246504 0.00031426 0.000662128 0.00316435 0.000317983 -0.00024261 8.95956e-05 0.000261799 0.00122608 -0.000511008 -0.00131689 -5.61395e-05 0.00065305
internal_weight=0 6098 2720 1130 201 175 108 40 68 929 100 79 43 3378 67 829 184 44 645 397 48 349 248 329 300 88 225 71 3343 67
internal_count=217633 6098 2720 1130 201 175 108 40 68 929 100 79 43 3378 67 829 184 44 645 397 48 349 248 329 300 88 225 71 3343 67
shrinkage=0.05


Tree=455
num_leaves=31
num_cat=0
split_feature=11 31 4 18 15 15 28 13 19 20 21 33 13 2 20 36 0 23 11 33 19 37 31 19 13 22 7 31 2 12
split_gain=0.00251878 0.0140391 0.0374571 0.0424004 0.134574 0.119247 0.133544 0.097026 0.0812649 0.0851273 0.0641354 0.0582083 0.0531224 0.0287325 0.0181604 0.011202 0.0116921 0.0106398 0.00978867 0.0519578 0.105405 0.0244706 0.0199908 0.0364771 0.0281647 0.00960687 0.00800612 0.00754025 0.0350834 0.0404809
threshold=-0.000119502 5.5507350000000004 -4.6178049999999988 -0.00028306949999999995 -9.0272649999999983e-06 1.8224600000000005e-05 -1.7331449999999997 -3.7996599999999988e-05 0.0006688480000000001 5.3163050000000007 -1.8600249999999996 0.00018972300000000001 5.8318900000000008e-05 -1.9639149999999999 3.0677450000000004 1.20103 -3.8805449999999992 -7.272854999999999 -0.00010809399999999999 -0.00012302899999999995 0.00036703250000000005 -4.2848749999999994e-06 0.060246950000000007 9.8727300000000016e-07 -7.1201799999999986e-05 2.9809550000000002 3.4099100000000007e-05 11.617550000000001 2.8304750000000003 1.8509400000000006e-05
decision_type=2 2 2 2 2 2 2 2 2 2 2 2 2 2 2 2 2 2 2 2 2 2 2 2 2 2 2 2 2 2
left_child=1 15 14 5 7 -4 -7 -5 -9 12 11 -8 -10 -12 -3 -1 -17 -18 19 20 -2 -21 -23 -24 -25 -26 -14 -20 -29 -30
right_child=18 2 3 4 -6 6 10 8 9 -11 13 -13 26 -15 -16 16 17 -19 27 21 -22 22 23 24 25 -27 -28 28 29 -31
leaf_value=1.1911653269153706e-05 -0.0045298078733321742 -0.00022786787069435378 0.0044303959691508986 0.0034015736609804802 -0.0032704172330201031 0.0040744867523677562 4.5962288554403046e-05 0.0030141157542609358 -0.002397492492684361 0.0027740110043114764 -0.00028764060393552342 -0.0037230696866754442 -0.00097100073522280751 0.002360397014999762 -0.0018799786739345154 -0.0001084717066738528 -0.00046913478095250743 -0.0019148051785305145 -1.1092678422450273e-07 0.0013008470357843917 -8.4202578059375816e-05 1.4386853760102661e-05 -0.001879415556912726 -0.0016231828485267802 -6.1201304383232892e-05 -0.0011144402880745475 6.6580222415516983e-05 -7.231228720860909e-05 -9.291546986154888e-05 -0.0031686606674338688
leaf_weight=27097 20 80 24 26 26 21 21 22 33 21 21 20 23 20 21 115 35 20 186792 32 40 1175 37 34 369 23 97 1325 23 20
leaf_count=27097 20 80 24 26 26 21 21 22 33 21 21 20 23 20 21 115 35 20 186792 32 40 1175 37 34 369 23 97 1325 23 20
internal_value=0 1.40727e-05 0.000283275 0.000513461 0.000132995 0.00125642 0.00051685 0.000531593 0.000150882 -0.000211137 -0.000394252 -0.00179259 -0.000620863 0.00100409 -0.000571376 9.37324e-06 -0.000395236 -0.000994833 -2.05603e-06 -0.000120448 -0.00156607 -6.85092e-05 -9.5261e-05 -0.000373525 -0.000242732 -0.000122998 -0.000132289 -9.67497e-07 -0.000117927 -0.00152349
internal_weight=0 27743 476 375 248 127 103 222 196 174 82 41 153 41 101 27267 170 55 189890 1730 60 1670 1638 463 426 392 120 188160 1368 43
internal_count=217633 27743 476 375 248 127 103 222 196 174 82 41 153 41 101 27267 170 55 189890 1730 60 1670 1638 463 426 392 120 188160 1368 43
shrinkage=0.05


Tree=456
num_leaves=31
num_cat=0
split_feature=23 36 3 7 16 3 3 22 40 21 44 12 4 24 1 40 40 23 18 24 31 5 21 11 3 10 37 24 18 26
split_gain=0.00247297 0.0153586 0.0996201 0.0191431 0.0110978 0.0221501 0.064376 0.104355 0.407441 0.0359818 0.0255505 0.0264767 0.0506761 0.0354116 0.0289135 0.026801 0.0474501 0.0576774 0.0199226 0.0174421 0.0174148 0.0651973 0.0143066 0.0263105 0.0131619 0.0186882 0.0352685 0.0118694 0.0378412 0.00998391
threshold=-6.1276249999999992 -0.0013312399999999998 -6.0035249999999989 6.7809300000000008e-05 -1.8851849999999998e-07 -6.4965349999999988 -6.2531049999999988 0.72070850000000009 -0.17527649999999997 -11.746099999999997 -0.16918499999999967 9.4907600000000006e-05 0.49902250000000004 0.3698105000000001 8.267730000000002 0.10022550000000004 -0.079468000000000025 -5.9061699999999986 -3.3509749999999996e-07 0.13058350000000002 -6.1956549999999995 1.5576600000000003e-05 -13.876599999999998 2.2434500000000001e-06 -7.3483349999999996 1.8878250000000005e-05 -2.3515049999999995e-08 -0.22123499999999999 2.6286550000000006e-06 -0.00062257399999999998
decision_type=2 2 2 2 2 2 2 2 2 2 2 2 2 2 2 2 2 2 2 2 2 2 2 2 2 2 2 2 2 2
left_child=-1 2 3 -2 24 20 7 9 -9 -7 22 12 13 15 -15 16 29 19 -11 -18 21 -6 23 -8 -3 26 -26 28 -27 -12
right_child=1 4 -4 -5 5 6 10 8 -10 18 11 -13 -14 14 -16 -17 17 -19 -20 -21 -22 -23 -24 -25 25 27 -28 -29 -30 -31
leaf_value=-9.3599556769440029e-07 -7.4270585741224328e-05 3.6755197528137276e-05 -0.0028947877182376527 0.0016276846428672797 -0.0004129692061334416 -0.00174460379161073 -0.00031579575576435437 -5.9223920999846258e-05 0.008274455442336728 0.001948439015832264 0.001072228233624628 -0.0013218077859554409 0.0028936415131024015 5.0691259796373995e-05 -0.0021693180331071329 -0.00012719663641711274 0.00077382804430545379 0.0037465164793419777 7.4574588068525124e-06 0.002365924269834068 -1.0605682209436736e-05 0.0031656643729365899 -0.00010196837110499398 0.0021638518971303709 -0.0027806981429603188 -8.477130974099539e-05 -0.00010415078475034534 -6.1725685300616367e-05 -0.0022530235479313924 -0.00015256074213833228
leaf_weight=211122 95 1550 33 20 35 21 23 44 22 20 20 21 21 44 22 103 123 22 39 20 2632 20 703 20 20 79 32 581 27 99
leaf_count=211122 95 1550 33 20 35 21 23 44 22 20 20 21 21 44 22 103 123 22 39 20 2632 20 703 20 20 79 32 581 27 99
internal_value=0 3.03501e-05 -0.000473176 0.000221722 4.20618e-05 9.15579e-05 0.000253829 0.00124695 0.00271867 3.27868e-05 0.000136991 0.000415508 0.000492478 0.000381165 -0.000689312 0.000563727 0.000814309 0.00136317 0.000665417 0.000996499 7.79502e-06 0.000888352 -4.78151e-05 0.000837529 -4.60321e-05 -0.000219673 -0.00113359 -0.000150497 -0.000637062 5.32861e-05
internal_weight=0 6511 148 115 6363 4074 1387 146 66 80 1241 495 474 453 66 387 284 165 59 143 2687 55 746 43 2289 739 52 687 106 119
internal_count=217633 6511 148 115 6363 4074 1387 146 66 80 1241 495 474 453 66 387 284 165 59 143 2687 55 746 43 2289 739 52 687 106 119
shrinkage=0.05


Tree=457
num_leaves=31
num_cat=0
split_feature=5 3 38 36 24 32 3 12 13 32 26 12 12 40 40 35 43 23 24 34 16 33 13 40 37 11 18 16 16 36
split_gain=0.00243231 0.0167027 0.229077 0.0199634 0.013033 0.0113033 0.0446212 0.0650722 0.10327 0.132784 0.0793775 0.075233 0.0695509 0.0610367 0.109842 0.126456 0.132806 0.0903364 0.049799 0.0931599 0.125288 0.0877688 0.0444819 0.0431425 0.0378221 0.0896934 0.0586708 0.0967338 0.0862385 0.082372
threshold=1.5738550000000005e-05 -18.627349999999996 0.08967940000000002 0.024751450000000005 0.44009350000000008 -1.0750649999999997 -15.732949999999999 0.00024379100000000001 0.00011609150000000002 -5.551709999999999 0.00029543500000000009 5.4039850000000007e-05 0.0003174535000000001 -0.3819765 0.22528099999999995 0.018029750000000001 -4.0456399999999988 -16.164099999999994 -0.74181699999999984 4.1501900000000012 -3.2239999999999995e-06 0.00012485500000000002 -3.5092449999999993e-05 -5.6825599999999996 -1.6329399999999996e-05 -3.3619499999999992e-05 0.00034847100000000005 1.4317750000000002e-06 1.9679500000000004e-05 0.12161000000000001
decision_type=2 2 2 2 2 2 2 2 2 2 2 2 2 2 2 2 2 2 2 2 2 2 2 2 2 2 2 2 2 2
left_child=5 2 3 4 -2 6 13 11 9 -9 12 23 -11 -1 15 16 -15 -16 19 20 21 -13 -21 -8 25 -20 27 -26 -28 -29
right_child=1 -3 -4 -5 -6 -7 7 8 -10 10 -12 18 -14 14 17 -17 -18 -19 24 22 -22 -23 -24 -25 26 -27 28 29 -30 -31
leaf_value=-9.9222496468416216e-05 1.4811236871095568e-05 -6.6361118856988205e-06 0.0054013631639203861 0.001562601260205838 -0.0013012110310592108 8.9739280478752158e-06 -0.0022351866274783832 0.0047115998979037005 0.00012159530090370853 2.7870183657796591e-07 -0.00089382771795892444 -0.0018205805842463193 0.0039221966948109468 -0.0010685974179068581 0.0029600415323511702 0.00028331370517012795 -0.0057862199842929844 -0.0009044959645566011 0.0033827206271477431 0.0021261614690592976 -0.0007147748331808243 -0.0054178399655696319 -0.00037489096155695739 3.6834185870845401e-05 -0.00041290878652736708 -0.00026103909550696255 -0.0039093151945120619 0.0036559255211873927 -0.00030391558946068348 0.00024346978456530146
leaf_weight=301 317 105226 21 20 20 105836 21 30 349 20 37 39 26 26 20 28 35 62 24 20 121 30 160 4137 504 57 27 28 43 48
leaf_count=301 317 105226 21 20 20 105836 21 30 349 20 37 39 26 26 20 28 35 62 24 20 121 30 160 4137 504 57 27 28 43 48
internal_value=0 -5.4443e-06 0.000326327 2.77954e-05 -6.3291e-05 5.13206e-06 -6.05239e-05 -2.19738e-05 0.000546961 0.0018607 0.000830254 -7.19544e-05 0.00221701 -0.00052778 -0.00128214 -0.00249852 -0.00377543 3.80742e-05 -0.000439466 -0.000912121 -0.00168435 -0.00338461 -9.69962e-05 2.53593e-05 -0.000200229 0.000818593 -0.00032719 -0.000162161 -0.00169457 0.00150069
internal_weight=0 105604 378 357 337 112029 6193 5721 462 113 83 5259 46 472 171 89 61 82 1101 370 190 69 180 4158 731 81 650 580 70 76
internal_count=217633 105604 378 357 337 112029 6193 5721 462 113 83 5259 46 472 171 89 61 82 1101 370 190 69 180 4158 731 81 650 580 70 76
shrinkage=0.05


Tree=458
num_leaves=31
num_cat=0
split_feature=10 44 44 19 19 16 0 37 23 16 23 43 40 40 14 28 40 33 13 9 34 43 13 37 44 7 36 21 12 1
split_gain=0.00249419 0.0132367 0.0293156 0.0433149 0.0440549 0.120879 0.026621 0.0249113 0.0406365 0.0342956 0.0280475 0.103041 0.0683091 0.173807 0.0624123 0.0647974 0.169421 0.376497 0.206988 0.0380767 0.0590963 0.0379864 0.0340012 0.122755 0.0407857 0.0522435 0.0937446 0.023298 0.111408 0.107619
threshold=1.6290050000000002e-05 0.46045500000000011 0.36284999999999995 0.0026916950000000005 9.5798550000000015e-06 -1.1598249999999999e-07 -7.5291399999999991 -1.1844749999999999e-05 -14.758849999999999 1.7917850000000003e-05 -10.854299999999997 -0.56159999999999977 -0.30278099999999991 0.354709 0.0010925600000000002 -0.055936599999999996 0.327845 -5.1285049999999996e-06 3.3800650000000006e-06 1.4838700000000002e-05 0.10237950000000001 -2.5440100000000001 -5.1489599999999996e-05 -4.6526849999999994e-07 1.03867 2.7630050000000005e-05 -0.0032442449999999993 -8.2769249999999985 -4.9376749999999994e-05 -6.2535999999999996
decision_type=2 2 2 2 2 2 2 2 2 2 2 2 2 2 2 2 2 2 2 2 2 2 2 2 2 2 2 2 2 2
left_child=1 2 27 4 5 -4 -3 8 -8 -10 11 14 -13 -14 -9 16 17 -16 -19 22 -21 -20 23 -17 25 26 -24 28 29 -1
right_child=-2 6 3 -5 -6 -7 7 10 9 -11 -12 12 13 -15 15 19 -18 18 21 20 -22 -23 24 -25 -26 -27 -28 -29 -30 -31
leaf_value=0.00062488984004166134 2.1151384566257986e-06 0.0018431337046786213 -0.0036505318485069438 -0.0025994251092318638 0.00039626315314343136 -0.00010206557076344326 -0.0025769610737409934 0.0023413353447957037 0.00016247024368980917 -0.0021312725830648564 -8.0526944177182742e-06 -0.00013553835789582904 0.0050958333665039393 -0.00013849476271044013 0.0079153927362009806 -0.0040469837490187876 -0.00032573312702742209 0.0046200666886844297 -0.0025367823880515063 -8.7667226349757201e-05 0.0034709118921637128 0.00036163829005090523 0.0044803008179206657 7.6949710178485553e-06 -6.6656977066533645e-05 3.6188106742877951e-05 0.00070620797937647839 -5.7026793028879963e-05 -0.00015268019146789984 0.003739275071226681
leaf_weight=368 188240 20 32 24 104 96 23 31 88 20 11941 31 35 29 24 24 119 22 26 28 20 20 21 84 1777 151 76 13272 857 30
leaf_count=368 188240 20 32 24 104 96 23 31 88 20 11941 31 35 29 24 24 119 22 26 28 20 20 21 84 1777 151 76 13272 857 30
internal_value=0 -1.35459e-05 -4.69025e-05 -0.000577305 -0.00036812 -0.000989182 2.02057e-05 1.77068e-05 -0.000668688 -0.000262297 2.39256e-05 0.000175575 0.00179091 0.00272403 0.000112242 8.3353e-05 0.000920024 0.00253138 0.000631145 2.40963e-06 0.00139507 -0.0012766 -2.89302e-05 -0.000893345 1.71719e-05 0.000617833 0.00152328 -3.75555e-05 0.000168359 0.000859642
internal_weight=0 29393 14783 256 232 128 14610 14590 131 108 14459 2518 95 64 2423 2392 211 92 68 2181 48 46 2133 108 2025 248 97 14527 1255 398
internal_count=217633 29393 14783 256 232 128 14610 14590 131 108 14459 2518 95 64 2423 2392 211 92 68 2181 48 46 2133 108 2025 248 97 14527 1255 398
shrinkage=0.05


Tree=459
num_leaves=31
num_cat=0
split_feature=32 39 41 42 43 21 43 43 42 7 19 15 20 1 43 14 2 25 35 32 10 39 5 41 42 42 23 23 8 39
split_gain=0.00246547 0.0158466 0.0478139 0.249138 0.224692 0.386129 0.306045 0.124519 0.197964 0.46296 0.101591 0.0685677 0.0598556 0.149148 0.194541 0.0348492 0.0240496 0.0231924 0.0208044 0.0207811 0.0204195 0.0420846 0.0202686 0.0414433 0.12193 0.222308 0.132162 0.138562 0.135753 0.132386
threshold=-0.12163499999999998 0.00012298350000000005 0.14791590000000002 1.0000000180025095e-35 1.3895649999999999 2.9920850000000008 0.72566000000000008 -1.3362800000000006 -0.040859549999999939 2.9596200000000003e-05 2.6963350000000004e-08 -1.0749399999999998e-07 -6.0084349999999995 4.8656050000000013 0.80790999999999979 0.00048506450000000007 0.66626200000000002 3.2492400000000008 0.0042315250000000007 -0.26260899999999993 9.5296300000000015e-06 3.6514300000000011e-05 1.0838450000000003e-05 0.27484500000000006 0.077348000000000056 0.10022550000000004 -10.103949999999999 -9.8578649999999985 -2.8574899999999999e-06 0.00015995400000000002
decision_type=2 2 2 2 2 2 2 2 2 2 2 2 2 2 2 2 2 2 2 2 2 2 2 2 2 2 2 2 2 2
left_child=1 2 3 4 5 -1 7 -7 9 -9 -10 -11 13 -5 -15 18 -14 20 -12 -17 21 -18 23 24 26 -26 28 -28 29 -3
right_child=-2 22 -4 12 -6 6 -8 8 10 11 15 -13 16 14 -16 19 17 -19 -20 -21 -22 -23 -24 -25 25 -27 27 -29 -30 -31
leaf_value=0.0078434052700176865 -2.6562470372468329e-06 -0.0034965001840464543 -6.0118066918035586e-06 -0.00015638366376688882 -0.00013720434694633541 -0.00066365955147870692 0.0074436080374289315 0.010336639547604137 0.0041694976884866179 0.0030201923102140429 0.001818710965004325 -0.0010248980407777709 0.0014861013026448847 0.0060074038652861159 -0.00027563880366043039 -0.001515312011833885 0.0027793138413653652 -0.001709645999580971 8.5708870425481698e-06 0.00025960575353274959 -1.6434160814432516e-05 -0.00016253753507748292 9.8103547748473537e-06 -1.362270869383838e-06 0.0042123754776548601 -0.00014007691941790441 -0.0058355545619547013 -0.0015248466162328365 -0.0038616821113973856 0.00031163129660992741
leaf_weight=25 174228 25 10461 91 229 79 20 20 21 22 57 20 27 28 22 20 20 20 22 94 3588 31 22824 3806 30 1329 21 166 25 262
leaf_count=25 174228 25 10461 91 229 79 20 20 21 22 57 20 27 28 22 20 20 20 22 94 3588 31 22824 3806 30 1329 21 166 25 262
internal_value=0 1.06622e-05 5.24124e-05 0.00018957 0.00111176 0.0018268 0.00142569 0.00108665 0.00158765 0.00407547 0.000866875 0.00109396 3.8e-05 0.00104902 0.00324287 0.000507522 -6.74536e-07 -1.16456e-05 0.00131462 -5.17833e-05 -2.31332e-06 0.00099113 -1.11992e-05 -9.58605e-05 -0.000289435 -4.39963e-05 -0.000957872 -0.00200894 -0.000327908 -2.00875e-05
internal_weight=0 43405 14917 4456 629 400 375 355 276 62 214 42 3827 141 50 193 3686 3659 79 114 3639 51 28488 5664 1858 1359 499 187 312 287
internal_count=217633 43405 14917 4456 629 400 375 355 276 62 214 42 3827 141 50 193 3686 3659 79 114 3639 51 28488 5664 1858 1359 499 187 312 287
shrinkage=0.05


Tree=460
num_leaves=31
num_cat=0
split_feature=44 24 38 40 41 14 3 9 34 5 3 34 35 19 24 23 9 43 23 40 41 5 7 29 14 34 43 36 34 14
split_gain=0.00254724 0.0146379 0.0110297 0.0287375 0.126785 0.0108626 0.0159261 0.0270686 0.00894057 0.0228862 0.0551085 0.112319 0.0319548 0.0862055 0.019368 0.0278187 0.0220342 0.0158347 0.0133638 0.0129547 0.0682358 0.0590575 0.0907389 0.105863 0.0623914 0.094828 0.0552732 0.0332804 0.0515838 0.0833108
threshold=2.4429550000000004 -1.7211949999999998 -1.0090899999999998 -0.60254799999999997 -0.43858299999999995 0.35177850000000005 -15.040049999999999 -2.6287349999999995e-05 0.209427 1.6368250000000004e-05 -18.627349999999996 0.7542350000000001 0.96084200000000008 0.0011496050000000004 -0.88671549999999988 -12.040949999999999 6.2607250000000023e-05 -2.4699349999999991 -14.758849999999999 0.46240350000000002 0.22260499999999997 9.2943400000000012e-06 2.7807850000000002e-05 0.032325400000000004 0.03333885000000001 1.2911250000000003 -2.7066499999999998 1.20103 1.4642750000000004 0.013134900000000001
decision_type=2 2 2 2 2 2 2 2 2 2 2 2 2 2 2 2 2 2 2 2 2 2 2 2 2 2 2 2 2 2
left_child=5 -2 3 -3 -5 -1 7 -7 -4 19 11 -11 14 -14 15 -12 -17 18 -16 20 21 24 23 -23 25 -10 27 28 -24 -30
right_child=1 2 8 4 -6 6 -8 -9 9 10 12 -13 13 -15 17 16 -18 -19 -20 -21 -22 22 26 -25 -26 -27 -28 -29 29 -31
leaf_value=-2.0584902945063851e-06 -0.00060979605095398204 -0.00016538589862217411 1.8729110532139688e-05 -0.00065883138608610766 0.004177068370272932 -0.002104549906084685 -7.1399420766751579e-06 -0.00034472295573375396 -0.0013010139022489016 -0.00024603574107333835 0.0018745995687952798 0.0046245456824544817 0.0034632746613642664 -4.0055317312165294e-05 0.0011252678101300263 9.58280190381124e-05 0.0017430491513964212 0.0013090963423435045 -8.7923239413418891e-05 -1.1325885002892914e-05 -5.6790479567244236e-05 -0.00034683136209737159 -0.0010795408468276208 0.0043817050888719676 0.00079970830251113517 -0.0049094984470866619 0.0016285892736682993 -0.0027010722561196117 -0.0013147521339609133 0.0028963918676194939
leaf_weight=169435 95 76 40987 33 23 24 412 244 67 29 28 20 25 59 23 263 22 21 1736 1721 1883 29 219 20 20 25 23 24 24 23
leaf_count=169435 95 76 40987 33 23 24 412 244 67 29 28 20 25 59 23 263 22 21 1736 1721 1883 29 219 20 20 25 23 24 24 23
internal_value=0 1.02349e-05 1.1477e-05 0.000467892 0.00132734 -2.85891e-06 -0.000202299 -0.000502319 1.0203e-05 -4.52312e-05 8.37154e-05 0.00174196 4.63917e-05 0.0010026 8.01533e-06 0.00037073 0.000222982 -5.57655e-05 -7.206e-05 -0.000115618 -0.000191768 -0.000727974 -0.000417538 0.00158318 -0.00173135 -0.00228158 -0.00073075 -0.00091787 -0.000756979 0.00074602
internal_weight=0 47518 47423 132 56 170115 680 268 47291 6304 2226 49 2177 84 2093 313 285 1780 1759 4078 2357 474 362 49 112 92 313 290 266 47
internal_count=217633 47518 47423 132 56 170115 680 268 47291 6304 2226 49 2177 84 2093 313 285 1780 1759 4078 2357 474 362 49 112 92 313 290 266 47
shrinkage=0.05


Tree=461
num_leaves=31
num_cat=0
split_feature=34 0 29 24 25 16 19 9 10 26 7 7 33 13 15 32 20 15 18 24 4 40 41 40 44 44 4 21 26 21
split_gain=0.00246602 0.013214 0.0403045 0.0584444 0.038001 0.0999398 0.0277674 0.0106427 0.108672 0.00538389 0.00482817 0.00742159 0.0041904 0.02184 0.0317535 0.00389127 0.0399379 0.0805978 0.00361411 0.0453814 0.0874919 0.296183 0.117118 0.345338 0.260364 0.374037 0.447576 0.422759 0.432929 0.429867
threshold=0.0037330700000000002 7.2069900000000011 -0.0028213899999999996 0.086738700000000016 0.18709850000000003 2.4065350000000007e-07 4.9504050000000005e-09 2.6395250000000001e-05 2.6635100000000002e-05 -0.00011255749999999999 3.9861150000000007e-05 3.6018400000000007e-05 2.3770450000000005e-06 -1.7937199999999998e-05 1.8187600000000001e-07 -0.023235649999999997 3.5249450000000002 -4.4025599999999992e-08 -1.4018299999999999e-05 -0.28484049999999994 -1.4133199999999999 -5.6825599999999996 0.51323350000000023 0.24966499999999994 4.0845250000000011 0.27512500000000012 -0.26743249999999991 -12.050999999999998 -0.00039100399999999997 7.3737850000000007
decision_type=2 2 2 2 2 2 2 2 2 2 2 2 2 2 2 2 2 2 2 2 2 2 2 2 2 2 2 2 2 2
left_child=1 15 3 4 5 -3 -6 8 -4 -9 11 -8 -11 14 -14 16 -1 -18 19 20 -2 -22 23 24 25 27 -27 28 -23 -29
right_child=18 2 7 -5 6 -7 10 9 -10 12 -12 -13 13 -15 -16 -17 17 -19 -20 -21 21 22 -24 -25 -26 26 -28 29 -30 -31
leaf_value=9.3074005012858073e-05 -4.4504829858140362e-05 0.00035266592482609364 8.0482794914692385e-05 -0.0032273850492250257 -0.0017752412852205454 -0.0044330275366883144 4.2498202596367009e-05 -0.00082038093401241071 -0.0037959814074253828 1.038692886792636e-05 0.00015980708939484578 -0.0011649011613008044 -0.0026236682715772902 9.6664707573113255e-06 9.4517731217406845e-05 7.1650811207313167e-06 0.00017595384331192085 -0.0039217537091462877 5.4342919064381141e-06 -3.147534486011176e-05 0.0063197133241919808 0.0010774983410638843 -0.00013546702168706792 -4.2528678378710123e-05 -0.001253476288544724 0.0032748824539174069 -0.0021107763157818807 -0.00014657524006415478 0.009903278335089756 0.0035877877202768688
leaf_weight=235 5775 24 130 21 25 20 35 21 21 1812 134 20 21 199 22 11107 30 20 148842 44555 20 33 1525 1785 112 313 44 620 24 88
leaf_count=235 5775 24 130 21 25 20 35 21 21 1812 134 20 21 199 22 11107 30 20 148842 44555 20 33 1525 1785 112 313 44 620 24 88
internal_value=0 -2.03788e-05 -0.000124352 -0.000690857 -0.000484395 -0.00182265 -0.000209241 -5.33485e-05 -0.000458628 -2.38559e-05 -2.09755e-06 -0.000396556 -1.57122e-05 -0.000211132 -0.00123297 2.48407e-06 -0.000179944 -0.00146313 1.39006e-06 -9.57566e-06 8.47991e-05 0.000248412 0.00022169 0.000402102 0.00104527 0.00127473 0.0026111 0.000651091 0.00479362 0.000317583
internal_weight=0 13897 2505 279 258 44 214 2226 151 2075 189 55 2054 242 43 11392 285 50 203736 54894 10339 4564 4544 3019 1234 1122 357 765 57 708
internal_count=217633 13897 2505 279 258 44 214 2226 151 2075 189 55 2054 242 43 11392 285 50 203736 54894 10339 4564 4544 3019 1234 1122 357 765 57 708
shrinkage=0.05


Tree=462
num_leaves=31
num_cat=0
split_feature=44 24 4 38 4 14 2 34 5 3 34 7 24 4 18 21 43 19 37 6 28 12 26 14 24 34 14 4 40 43
split_gain=0.00256075 0.01307 0.0193075 0.00995336 0.0451946 0.00981878 0.0147108 0.00799854 0.020929 0.0491928 0.100218 0.0303976 0.020454 0.040796 0.162139 0.226909 0.0149589 0.0135005 0.013167 0.0196037 0.0124376 0.0401211 0.0150043 0.0120948 0.013469 0.0118873 0.0479459 0.0102274 0.0106689 0.0100036
threshold=2.4429550000000004 -1.7211949999999998 -0.26743249999999991 -1.0090899999999998 1.2369950000000001 0.71230950000000004 -1.8915949999999997 0.21701850000000003 1.6368250000000004e-05 -18.627349999999996 0.7542350000000001 2.8896600000000004e-05 -0.88671549999999988 -0.42458499999999993 -0.0015010249999999998 -0.52329599999999987 -2.4699349999999991 0.00021631850000000002 -1.1844749999999999e-05 -3.3864449999999993e-07 0.54025350000000005 0.00048242450000000008 0.011675600000000003 0.00080566250000000002 0.91519300000000003 10.726400000000002 0.0090263400000000025 1.2369950000000001 0.20129000000000011 -8.7558049999999987
decision_type=2 2 2 2 2 2 2 2 2 2 2 2 2 2 2 2 2 2 2 2 2 2 2 2 2 2 2 2 2 2
left_child=5 2 -2 4 -3 -1 -7 -5 25 10 -10 -11 13 14 -13 -16 17 29 19 -19 23 22 -22 -20 -25 -9 -27 -26 -29 -14
right_child=1 3 -4 7 -6 6 -8 8 9 11 -12 12 16 -15 15 -17 -18 18 20 -21 21 -23 -24 24 27 26 -28 28 -30 -31
leaf_value=-2.4585058374021282e-06 -0.0015526574904056775 -0.00011073425468622969 -5.5587627984125226e-05 1.8208519212057638e-05 0.0019852120035959942 -0.0016415507581200473 -0.00021053222174135622 -0.00010106002061931571 -0.0002297845496098583 0.001985908343922347 0.0043709426384884861 -0.00011213761447482865 -0.0011998965021363499 -3.983194383266003e-05 0.0074929898121627054 -3.8754752895329145e-05 0.0013188456364150625 -0.0018503502795837172 0.0011635129548680694 0.00019241639174651939 0.0011406974062202094 0.0025847511204483455 -0.00038427726420330282 3.2710352049469556e-05 -0.00016628232194795887 0.00052716800089035165 -0.0026173244550591335 -0.0019583699574944888 -0.0003645674414829479 -0.00024743259536244431
leaf_weight=169919 33 97 62 41097 35 20 176 3958 29 20 20 88 30 215 20 20 20 23 22 24 23 20 54 1110 67 27 22 21 21 340
leaf_count=169919 33 97 62 41097 35 20 176 3958 29 20 20 88 30 215 20 20 20 23 22 24 23 20 54 1110 67 27 22 21 21 340
internal_value=0 1.0262e-05 -0.000575622 1.14357e-05 0.000445009 -2.86648e-06 -0.000356555 1.02255e-05 -4.27415e-05 8.16654e-05 0.00164806 4.57657e-05 2.74452e-05 0.000380912 0.00108763 0.00372712 -4.08585e-05 -5.63537e-05 1.53236e-05 -0.000807235 4.42177e-05 0.000589485 7.12347e-05 1.59805e-06 -1.93717e-05 -0.000110642 -0.000884645 -0.000549749 -0.00116147 -0.000324659
internal_weight=0 47518 95 47423 132 170115 196 47291 6194 2187 49 2138 2118 343 128 40 1775 1755 1385 47 1338 97 77 1241 1219 4007 49 109 42 370
internal_count=217633 47518 95 47423 132 170115 196 47291 6194 2187 49 2138 2118 343 128 40 1775 1755 1385 47 1338 97 77 1241 1219 4007 49 109 42 370
shrinkage=0.05


Tree=463
num_leaves=31
num_cat=0
split_feature=44 23 20 9 19 33 21 19 33 28 40 40 43 20 14 37 35 2 21 22 1 21 7 25 20 20 20 43 40 40
split_gain=0.00254552 0.0083519 0.245453 0.409714 0.135426 0.240334 0.0711588 0.193099 0.0653066 0.0628848 0.0930787 0.221005 0.0714297 0.0522225 0.186583 0.0584635 0.0662975 0.0758458 0.048694 0.104242 0.0446692 0.163065 0.051007 0.0556261 0.041598 0.0371649 0.0367634 0.0364891 0.054133 0.177595
threshold=-3.2113799999999997 -16.164099999999994 -6.9945499999999994 -7.9747199999999981e-06 3.0639350000000006e-08 -5.1110149999999994e-05 6.6102700000000008 0.00031424650000000008 -2.0917349999999997e-05 0.063754200000000011 -0.3819765 1.0000000180025095e-35 1.3507450000000001 5.7713600000000005 0.0048329650000000007 1.4797450000000002e-05 -0.0081784949999999992 -2.2522399999999996 5.1273750000000007 2.0667800000000005 -4.5317299999999987 -4.4014699999999989 3.5484950000000007e-05 0.15500600000000003 3.8241100000000006 7.5325700000000007 4.6322050000000017 1.3507450000000001 -0.079468000000000025 0.12375499999999996
decision_type=2 2 2 2 2 2 2 2 2 2 2 2 2 2 2 2 2 2 2 2 2 2 2 2 2 2 2 2 2 2
left_child=-1 2 3 -2 5 -4 9 -8 -7 13 -11 -12 -13 15 -15 16 17 -6 20 -20 21 -18 23 -22 -19 -16 -26 28 -24 -30
right_child=1 -3 4 -5 6 8 7 -9 -10 10 11 12 -14 14 25 -17 18 24 19 -21 22 -23 27 -25 26 -27 -28 -29 29 -31
leaf_value=7.9434147188576338e-06 0.0090950238294317393 -5.3243544211897904e-06 0.0053981083578095897 -0.00020736378962816351 -0.0037077186508130662 0.0021805404627708701 0.0056084080109940265 -0.00073421968045295216 -0.00032216948701639615 -0.00012449397891738681 -0.0067476711391160895 0.0015966239401937596 -0.0025785717403050516 0.0041396757602342408 0.00083452572325768424 0.0021876569119090813 0.0039763902782485065 -0.0002755523809228288 0.00022545306811799814 0.0042938592636346589 -0.0024873040017293095 -1.4047363337646617e-05 -0.00034904747282357099 -0.00038393414503934496 -0.003585499452892691 -0.0017104801733125897 -0.00055385909896358502 -0.00028729860209644921 0.0019346254014871427 -0.00016532744270015038
leaf_weight=68918 20 145909 31 29 22 38 20 30 83 103 21 21 20 33 26 28 31 168 74 20 33 147 211 662 20 32 20 435 162 266
leaf_count=68918 20 145909 31 29 22 38 20 30 83 103 21 21 20 33 26 28 31 168 74 20 33 147 211 662 20 32 20 435 162 266
internal_value=0 -3.68116e-06 8.1763e-05 0.00358953 1.94197e-05 0.00147014 -6.52291e-05 0.00180283 0.000463806 -0.000101786 -0.00104586 -0.00257651 -0.000440057 -3.66097e-05 0.00113815 -8.31095e-05 -0.000111107 -0.000915869 -2.04181e-05 0.00109107 -7.40801e-05 0.000680916 -0.000150049 -0.000483806 -0.000620577 -0.000569615 -0.00206968 6.59295e-05 0.00030639 0.000629515
internal_weight=0 148715 2806 49 2757 152 2605 50 121 2555 165 62 41 2390 91 2299 2271 230 2041 94 1947 178 1769 695 208 58 40 1074 639 428
internal_count=217633 148715 2806 49 2757 152 2605 50 121 2555 165 62 41 2390 91 2299 2271 230 2041 94 1947 178 1769 695 208 58 40 1074 639 428
shrinkage=0.05


Tree=464
num_leaves=31
num_cat=0
split_feature=32 15 15 7 8 8 3 3 7 16 15 12 44 5 8 19 3 3 15 11 40 40 12 20 12 40 16 12 14 28
split_gain=0.00249508 0.0236639 0.080001 0.118563 0.136702 0.0558609 0.155086 0.025559 0.0226263 0.0324672 0.0932778 0.0304178 0.0358387 0.0204723 0.0250153 0.0178057 0.0332535 0.0594703 0.0218451 0.0184836 0.0176901 0.0157661 0.00959043 0.0093918 0.00873235 0.0116375 0.0109814 0.00847822 0.00755691 0.00481462
threshold=-10.048129999999999 -9.0272649999999983e-06 -2.0464649999999995e-06 4.4824350000000007e-05 -9.2373749999999973e-06 -9.1205699999999983e-06 -13.707299999999998 -10.051449999999997 5.6588250000000005e-05 -1.4853299999999997e-05 1.6353050000000004e-05 6.7631250000000007e-05 -1.47746 1.1003450000000002e-05 -5.7804399999999992e-06 3.865525000000001e-10 -17.069699999999997 -15.510599999999998 4.6040750000000013e-06 -5.0495149999999994e-05 0.22528099999999995 -0.74380499999999983 0.00021549250000000002 -19.608449999999998 0.00011505000000000002 -0.32870999999999989 3.3134750000000005e-06 1.9714300000000002e-05 0.0025138000000000005 0.54025350000000005
decision_type=2 2 2 2 2 2 2 2 2 2 2 2 2 2 2 2 2 2 2 2 2 2 2 2 2 2 2 2 2 2
left_child=1 5 3 4 -3 6 -1 -8 9 10 -4 23 22 -7 -15 -11 -17 -18 19 -19 -12 -20 -13 -10 26 -26 -21 -16 -9 -2
right_child=29 2 8 -5 -6 13 7 28 11 15 20 12 -14 14 27 16 17 18 21 24 -22 -23 -24 -25 25 -27 -28 -29 -30 -31
leaf_value=0.0052309840754605832 -1.6042296335428387e-07 -0.0061655421333853162 0.0035012761931284332 0.00062809216040664187 -0.0011618463475501929 0.0013427202553776582 0.0017777139828388539 0.00058507554402405574 -0.00095644118444961979 0.0012766172504668179 -0.00081095975079473908 -0.0011912754596457543 -0.0029556834175971086 -0.0016828152484647165 -0.00022181130565961899 -0.0017787381536672237 0.0025115950518976088 0.0013416433115008451 -0.00039775284094722307 -1.7321307716743636e-05 0.00099840948374052964 -0.001830054168298375 3.5256895644124596e-05 5.1893362658173666e-06 0.00013236561313864184 -0.0014761677064993621 0.00090522918035276236 0.00076246739134568585 -0.00055884573242413651 8.7469786915878012e-05
leaf_weight=20 214315 21 26 39 39 21 23 22 29 26 35 34 22 28 138 27 23 26 83 629 22 25 30 204 22 23 34 26 42 1579
leaf_count=20 214315 21 26 39 39 21 23 22 29 26 35 34 22 28 138 27 23 26 83 629 22 25 30 204 22 23 34 26 42 1579
internal_value=0 -5.96514e-05 -0.00014724 -0.00151811 -0.00291314 0.000328749 0.00126082 0.000348133 -4.44248e-05 7.24357e-05 0.00101945 -0.000411125 -0.00121478 -0.000139472 -0.000301587 -1.31878e-05 -5.07831e-05 3.15312e-06 -6.53673e-05 3.23237e-05 -0.000112607 -0.000729304 -0.000616338 -0.000114499 -1.57586e-05 -0.000689774 2.9989e-05 -6.57671e-05 -0.000165623 4.80485e-07
internal_weight=0 1739 1419 99 60 320 107 87 1320 1001 83 319 86 213 192 918 892 865 842 734 57 108 64 233 708 45 663 164 64 215894
internal_count=217633 1739 1419 99 60 320 107 87 1320 1001 83 319 86 213 192 918 892 865 842 734 57 108 64 233 708 45 663 164 64 215894
shrinkage=0.05


Tree=465
num_leaves=31
num_cat=0
split_feature=5 3 38 39 23 33 30 19 15 3 13 13 16 31 16 9 6 16 3 9 22 23 22 3 33 17 26 9 31 9
split_gain=0.00244749 0.01268 0.191177 0.0217672 0.0217574 0.0401472 0.0103262 0.0295307 0.0689412 0.0806025 0.0467712 0.0502753 0.0282816 0.0126908 0.0650297 0.101487 0.118579 0.162083 0.0123167 0.0114276 0.0660836 0.231 0.0561108 0.171014 0.0452624 0.0159577 0.0119283 0.0221601 0.0412585 0.0219786
threshold=1.5738550000000005e-05 -18.627349999999996 0.08967940000000002 0.0038655250000000003 -16.421799999999994 -1.5989499999999997e-05 0.35534200000000005 0.0019525250000000003 4.4044100000000007e-07 -10.340399999999997 0.00015586950000000003 -3.2904449999999993e-05 4.7861450000000004e-06 -13.003849999999998 1.0552950000000002e-06 3.2410900000000003e-06 1.3087800000000002e-06 1.1066350000000001e-05 -5.1609149999999993 -5.5880499999999995e-05 2.9381050000000006 -7.4282149999999989 -2.8603449999999997 -7.9686699999999986 1.2966450000000002e-06 2.3833200000000002e-07 0.0020748500000000005 -4.4425899999999991e-05 2.7376000000000005 -3.9007449999999992e-05
decision_type=2 2 2 2 2 2 2 2 2 2 2 2 2 2 2 2 2 2 2 2 2 2 2 2 2 2 2 2 2 2
left_child=6 2 3 4 5 -2 13 8 12 -10 11 -9 -8 14 18 -16 17 -17 -1 20 22 24 23 -15 -22 -26 -21 28 -28 -29
right_child=1 -3 -4 -5 -6 -7 7 10 9 -11 -12 -13 -14 19 15 16 -18 -19 -20 26 21 -23 -24 -25 25 -27 27 29 -30 -31
leaf_value=-8.4702279181823021e-05 -0.00038104049126559404 -6.4996809853026904e-06 0.0049198577280982307 -0.0015508094012537707 -3.941117554419991e-05 0.0027870519708812938 -0.00020952830973827025 -0.00049814889847766609 0.0038468653923305479 -5.9712275904002451e-05 -1.4005255128722638e-05 -0.0040009438742085231 -0.0021737209489219823 0.004376165887103222 -0.00059359357294922052 0.0057010046616382815 -0.00067840525600611451 0.00070209380571595249 0.0011513143356534654 5.6561691391758077e-06 -0.0020291695167566105 0.0058972936131216234 -1.1455109650794834e-05 7.6845831045100601e-05 -9.0492291469889186e-05 0.0018829434081999352 -0.00012305184233705628 0.0006602780820100121 -0.0024138366882809729 -8.8014232120126127e-05
leaf_weight=501 20 105226 21 21 296 20 219 20 23 31 50 21 20 30 52 34 26 31 21 105375 20 22 1748 101 21 20 61 101 29 3452
leaf_count=501 20 105226 21 21 296 20 219 20 23 31 50 21 20 30 52 34 26 31 21 105375 20 22 1748 101 21 20 61 101 29 3452
internal_value=0 -5.46126e-06 0.00028361 1.08894e-05 0.000108496 0.00120301 5.14805e-06 -0.000253691 -9.33207e-06 0.0016042 -0.00104047 -0.00229226 -0.000373896 6.03832e-06 0.000223813 0.00116849 0.00217539 0.00331691 -3.49775e-05 4.7334e-06 0.000124332 0.00150501 6.33437e-05 0.00106142 -7.90961e-05 0.000872159 2.58099e-06 -8.63696e-05 -0.000861194 -6.67428e-05
internal_weight=0 105604 378 357 336 40 112029 384 293 54 91 41 239 111645 665 143 91 65 522 110980 1962 83 1879 131 61 41 109018 3643 90 3553
internal_count=217633 105604 378 357 336 40 112029 384 293 54 91 41 239 111645 665 143 91 65 522 110980 1962 83 1879 131 61 41 109018 3643 90 3553
shrinkage=0.05


Tree=466
num_leaves=31
num_cat=0
split_feature=3 21 1 5 36 16 21 40 22 8 30 20 18 4 20 43 20 37 16 30 14 44 12 22 13 20 9 12 44 43
split_gain=0.00248282 0.0153649 0.0748288 0.135845 0.028661 0.0134876 0.00657422 0.081493 0.192679 0.0160839 0.00797435 0.0233163 0.0140203 0.00796918 0.00560664 0.00605286 0.0560002 0.036118 0.111461 0.0055576 0.00539981 0.0309151 0.122348 0.0462098 0.0475713 0.0606244 0.287567 0.0501328 0.0398965 0.0508698
threshold=-5.5710999999999995 -15.424049999999998 -11.052099999999998 3.3381050000000008e-05 3.8353050000000004 2.1242850000000004e-06 18.392150000000004 -0.3819765 0.25066200000000005 1.0032150000000002e-05 0.064526950000000013 19.256550000000001 -2.1298199999999995e-05 0.79460700000000006 -19.608449999999998 0.93421999999999994 -12.926599999999999 5.9581800000000005e-07 3.2990050000000008e-07 0.0080523800000000013 9.7352650000000017e-05 0.086360000000000006 -4.0171199999999992e-05 2.9137900000000005 1.9549350000000003e-05 11.498700000000001 4.3278050000000005e-05 4.0059400000000012e-05 -0.078939999999999774 0.68409500000000023
decision_type=2 2 2 2 2 2 2 2 2 2 2 2 2 2 2 2 2 2 2 2 2 2 2 2 2 2 2 2 2 2
left_child=20 2 3 -2 5 -4 10 9 -9 -8 11 14 -12 -14 -3 16 -16 -18 19 -19 21 28 -23 24 25 27 -27 -24 29 -1
right_child=1 6 4 -5 -6 -7 7 8 -10 -11 12 -13 13 -15 15 -17 17 18 -20 -21 -22 22 23 -25 -26 26 -28 -29 -30 -31
leaf_value=-0.0002566450794611782 0.0037779681799675977 0.00074391470854887022 -0.00016923998717983423 -0.00096773768099956206 0.0014486074595389746 -0.0015549178508808836 -0.0021420041099190711 -0.00077079575935385953 0.0052289022254231182 -0.00032332966788559256 -0.001322452962065452 0.0013013158571889758 -7.3631961889261777e-05 -0.0011038042293512263 0.0023382291034067747 5.2541700021103953e-06 -4.5207926335317361e-05 -0.00066737201866797283 0.0037030822327964149 0.00027083038915072012 8.4795229157883745e-07 -0.0033709558250613497 -9.8742314519012178e-05 0.0021354207114936369 0.0020206331609306685 -0.00015782563932898309 -0.0062352180076639266 -0.0026268694385362325 0.00031571737630115671 3.3473272857780145e-06
leaf_weight=2127 38 26 144 25 26 20 20 32 23 31 27 35 306 20 28 27941 773 27 27 38 167488 31 1004 21 23 103 24 20 892 16293
leaf_count=2127 38 26 144 25 26 20 20 32 23 31 27 35 306 20 28 27941 773 27 27 38 167488 31 1004 21 23 103 24 20 892 16293
internal_value=0 1.34584e-05 0.00040144 0.00189475 -9.37112e-05 -0.000338225 1.01144e-05 0.00040317 0.00173817 -0.00103654 8.68987e-06 1.15755e-05 -0.000227518 -0.000136833 1.00114e-05 9.34963e-06 0.000137492 6.62543e-05 0.00100278 -0.000118884 -2.11918e-06 -2.63163e-05 -0.000269786 -0.000189337 -0.000230921 -0.000275913 -0.00130631 -0.00014812 -1.08599e-05 -2.66746e-05
internal_weight=0 29607 253 63 190 164 29354 106 55 51 29248 28895 353 326 28860 28834 893 865 92 65 188026 20538 1226 1195 1174 1151 127 1024 19312 18420
internal_count=217633 29607 253 63 190 164 29354 106 55 51 29248 28895 353 326 28860 28834 893 865 92 65 188026 20538 1226 1195 1174 1151 127 1024 19312 18420
shrinkage=0.05


Tree=467
num_leaves=31
num_cat=0
split_feature=27 4 11 13 11 18 3 12 40 16 12 22 4 4 4 18 16 40 40 1 23 11 5 22 16 22 35 15 44 44
split_gain=0.00248484 0.00811234 0.0212308 0.0729837 0.0135297 0.0140273 0.0481486 0.0118991 0.0132574 0.0196729 0.00996311 0.036345 0.0105992 0.0991051 0.02468 0.0154972 0.0160643 0.0272942 0.0262433 0.0151823 0.0139123 0.00950063 0.00621502 0.0101486 0.00664143 0.00519332 0.00519236 0.0251171 0.0285378 0.0424508
threshold=91.481750000000019 5.1455300000000008 -0.00035055549999999991 0.00035752750000000007 -0.00020968799999999995 0.006463130000000001 -11.746199999999998 -0.00014946199999999997 -0.19934349999999995 8.953990000000002e-05 -0.00011213399999999999 -0.81200999999999979 1.1247450000000001 1.5563800000000001 0.53444550000000013 2.8533150000000003e-05 1.1210250000000002e-06 -0.32870999999999989 0.65575499999999998 -5.999204999999999 -10.262699999999999 -0.00037784299999999994 1.1630300000000001e-05 -0.36388649999999995 5.2573900000000008e-06 1.9180500000000003 -0.27384599999999998 5.5700600000000008e-07 5.4977150000000021 -0.31477499999999997
decision_type=2 2 2 2 2 2 2 2 2 2 2 2 2 2 2 2 2 2 2 2 2 2 2 2 2 2 2 2 2 2
left_child=26 2 3 -2 -4 7 -7 8 22 -10 11 -9 14 -14 15 16 -12 19 -19 -18 -15 -3 24 -24 -6 -21 27 28 29 -1
right_child=1 21 4 -5 5 6 -8 10 9 -11 12 -13 13 20 -16 -17 17 18 -20 25 -22 -23 23 -25 -26 -27 -28 -29 -30 -31
leaf_value=5.2276905046652787e-05 0.0029409178048372272 -0.0013534985943697393 -0.00099108563288329878 -0.00064062269154943141 -8.4211197692797134e-05 0.0026899307215353476 -0.00040181866099695023 0.0022983995779733441 -0.0019606965146764803 3.4653375734619445e-05 -1.1882739861694021e-05 -0.00018778653148376402 0.0035653566598193723 -0.0011735541840497525 -0.0014074234624526331 0.0012874110625402649 0.0011544399554259145 -0.0029450520710088313 -0.00053594255083365947 -0.0010036770130833854 0.00024774761986918749 -0.00020151215969582112 0.0010461138840764763 -0.00023957070326573694 -0.0013140655677056029 7.2994936324123825e-05 -7.712349827886589e-07 -0.00012372002335431586 -0.00042351109330562343 0.00044888924830714975
leaf_weight=2677 25 25 39 33 23 20 34 21 30 21 852 49 20 33 35 21 20 20 26 24 36 63 20 66 21 21 210723 1504 229 902
leaf_count=2677 25 25 39 33 23 20 34 21 30 21 852 49 20 33 35 21 20 20 26 24 36 63 20 66 21 21 210723 1504 229 902
internal_value=0 -6.21198e-05 -3.49237e-05 0.000903145 -7.23947e-05 -4.70381e-05 0.000743274 -7.84412e-05 -0.000455883 -0.00113908 -2.04472e-05 0.000558069 -5.69961e-05 0.000466278 -0.000102699 -5.62912e-05 -8.55931e-05 -0.00065137 -0.00158338 8.20684e-06 -0.000432005 -0.000528781 -0.000187859 5.94257e-05 -0.000671187 -0.00050123 4.59497e-07 4.92817e-05 0.00011761 0.000152233
internal_weight=0 1598 1510 58 1452 1413 54 1359 181 51 1178 70 1108 89 1019 984 963 111 46 65 69 88 130 86 44 45 216035 5312 3808 3579
internal_count=217633 1598 1510 58 1452 1413 54 1359 181 51 1178 70 1108 89 1019 984 963 111 46 65 69 88 130 86 44 45 216035 5312 3808 3579
shrinkage=0.05


Tree=468
num_leaves=31
num_cat=0
split_feature=34 38 40 43 30 6 2 41 41 3 44 14 43 24 11 37 37 44 37 8 37 6 1 43 34 15 38 40 43 20
split_gain=0.00245408 0.0198547 0.0243359 0.0173584 0.0540711 0.073142 0.049346 0.0293717 0.301012 0.500115 0.301721 0.27485 0.58061 0.512681 0.234566 0.232233 0.185446 0.181744 0.336761 0.355708 0.209864 0.205857 0.188668 0.153643 0.141394 0.113508 0.10977 0.173682 0.195177 0.146053
threshold=0.20270750000000001 0.010018650000000002 -4.8282449999999999 0.80790999999999979 0.00081747500000000012 9.362525000000001e-07 3.0794900000000003 -0.10141500000000002 0.040430000000000084 -11.042399999999999 1.03867 0.00093504000000000015 -0.026199999999999776 -0.46592299999999992 8.2536500000000019e-05 -1.1024749999999998e-06 -1.6890749999999995e-07 -0.31477499999999997 6.710375000000001e-07 -6.2294649999999986e-06 -1.8701649999999998e-06 2.3526650000000005e-06 3.8749050000000005 -2.0405449999999985 0.61729100000000015 7.7511400000000007e-07 0.0061275400000000008 0.056773999999999998 -1.1637600000000001 3.8922100000000004
decision_type=2 2 2 2 2 2 2 2 2 2 2 2 2 2 2 2 2 2 2 2 2 2 2 2 2 2 2 2 2 2
left_child=1 -1 -3 4 5 -2 7 -6 9 17 11 12 13 -11 -13 -14 -12 18 -9 -20 22 26 24 -18 -19 -17 27 29 -29 -22
right_child=3 2 -4 -5 6 -7 -8 8 -10 10 16 14 15 -15 -16 25 23 20 19 -21 21 -23 -24 -25 -26 -27 -28 28 -30 -31
leaf_value=2.0803201652955577e-06 0.00026027568334635967 0.0019595040553083112 0.00022758335388722891 8.1733989994675442e-06 9.9467437827879429e-06 0.0035507082397089108 0.0018154080595039496 6.0565570013103897e-05 -1.6645687692955936e-05 -0.0033966238171650241 0.0042723073764532075 -0.00070449290011772919 -0.00691881560254842 -0.012917207772918646 -0.0060064417738467457 0.00044548469002121221 0.0019151258807687554 -0.0067945587826216073 -0.010275016758241691 -0.0012463768109834442 0.0010790970227626295 0.0046812221933636936 0.0014976809239791087 -0.0040770034710674186 -0.0017907150457479777 -0.0039222317158765646 -0.00046524808863345125 0.0010443722742989106 0.0074714420147107127 -0.0028466413030400874
leaf_weight=159781 57 21 594 41358 7241 24 35 83 7489 26 23 126 20 31 25 51 20 20 20 24 154 31 30 23 48 21 181 27 21 28
leaf_count=159781 57 21 594 41358 7241 24 35 83 7489 26 23 126 20 31 25 51 20 20 20 24 154 31 30 23 48 21 181 27 21 28
internal_value=0 3.17171e-06 0.000286722 -8.88813e-06 -5.33261e-05 0.00123522 -5.99328e-05 -6.40968e-05 -0.00012701 -0.000927127 -0.0024123 -0.00308565 -0.00460919 -0.00857449 -0.0015823 -0.00215243 0.000648402 -0.000112174 -0.00181407 -0.0053503 0.000288086 0.00075222 -0.00180526 -0.00128997 -0.00326243 -0.000828433 0.000455872 0.00118075 0.00385622 0.000475137
internal_weight=0 160396 615 57237 15879 81 15798 15763 8522 1033 366 300 149 57 151 92 66 667 127 44 540 442 98 43 68 72 411 230 48 182
internal_count=217633 160396 615 57237 15879 81 15798 15763 8522 1033 366 300 149 57 151 92 66 667 127 44 540 442 98 43 68 72 411 230 48 182
shrinkage=0.05


Tree=469
num_leaves=31
num_cat=0
split_feature=10 44 44 36 30 28 6 8 28 28 36 39 4 28 13 44 13 36 13 30 16 43 33 5 43 29 43 33 30 21
split_gain=0.00240775 0.0124444 0.0275694 0.050506 0.101496 0.0479465 0.0421954 0.0626893 0.0533168 0.115106 0.0566768 0.144438 0.133729 0.0549924 0.0434646 0.10745 0.198338 0.0394651 0.0619125 0.0775924 0.0519177 0.113595 0.163605 0.0473268 0.0697875 0.0776114 0.0413301 0.057149 0.0408345 0.0442237
threshold=1.6290050000000002e-05 0.46045500000000011 -1.1537099999999991 -0.028793999999999997 0.00254236 0.42036700000000005 -9.3385949999999991e-07 -1.4320549999999998e-05 -0.064774849999999981 -0.036151699999999995 -0.00035081549999999999 2.7534100000000005e-06 0.062832900000000011 -0.021603249999999997 -1.8365149999999998e-05 -0.64641000000000026 -2.8688749999999995e-05 -0.0018769449999999999 -9.3995499999999988e-06 0.0010071450000000003 -7.5536299999999985e-08 -0.36707999999999957 1.3416450000000002e-07 1.4620550000000002e-05 0.10586500000000011 0.00029728800000000004 -0.19603999999999996 -3.7862549999999995e-06 0.00019286000000000002 -9.3875849999999996
decision_type=2 2 2 2 2 2 2 2 2 2 2 2 2 2 2 2 2 2 2 2 2 2 2 2 2 2 2 2 2 2
left_child=1 2 -1 4 -4 -6 7 -5 -9 -10 11 12 -11 -12 15 16 -8 18 19 -16 21 22 -19 28 25 -25 27 -20 -22 -30
right_child=-2 -3 3 6 5 -7 14 8 9 10 13 -13 -14 -15 17 -17 -18 20 26 -21 23 -23 -24 24 -26 -27 -28 -29 29 -31
leaf_value=7.5560375623428125e-07 2.0781610742398157e-06 1.9416866531245049e-05 -0.0039091528282976162 -0.002495189835500402 -0.00029300221626529137 -0.0027362841684159568 0.00071368104515083064 0.00155055686451748 -0.0031183503450183956 -0.0010200221811537632 -0.0025919370013798471 -0.0003760384628358039 -0.0065053671472014686 7.1922346458538636e-05 0.0033495513418529302 -0.0001254375301869004 -0.0054310926307905528 -0.0061828200736090376 0.0036290341592393818 -0.00011926104005916777 -0.00027196377926979248 -0.00023792769698725063 6.5546340763169363e-05 0.0042995547234399795 0.0001634245707890009 0.0003917714479863814 1.9152447767764363e-05 0.00026068649342906772 0.0012170471396494382 0.00011991660200678505
leaf_weight=10112 188240 14610 24 34 230 22 24 37 37 25 20 245 20 619 38 207 29 20 20 28 674 752 22 27 94 24 340 34 102 923
leaf_count=10112 188240 14610 24 34 230 22 24 37 37 25 20 245 20 619 38 207 29 20 20 28 674 752 22 27 94 24 340 34 102 923
internal_value=0 -1.33091e-05 -4.5652e-05 -0.000146117 -0.000802204 -0.000506305 -0.000104916 -0.000383704 -0.000312128 -0.000383473 -0.000274549 -0.000854267 -0.00345795 -1.14535e-05 -1.88221e-05 -0.000639765 -0.00264855 3.32906e-05 0.000460651 0.00187793 -4.12302e-05 -0.000379264 -0.00290987 0.000104322 0.000971396 0.0024606 0.000223238 0.00150822 3.03227e-05 0.000229094
internal_weight=0 29393 14783 4671 276 252 4395 1037 1003 966 929 290 45 639 3358 260 53 3098 460 66 2638 794 42 1844 145 51 394 54 1699 1025
internal_count=217633 29393 14783 4671 276 252 4395 1037 1003 966 929 290 45 639 3358 260 53 3098 460 66 2638 794 42 1844 145 51 394 54 1699 1025
shrinkage=0.05


Tree=470
num_leaves=31
num_cat=0
split_feature=35 15 41 40 27 43 44 35 4 4 24 4 18 23 25 0 12 1 16 8 5 7 43 6 6 36 20 4 16 6
split_gain=0.00241865 0.0524051 0.0673103 0.575667 0.400168 0.601034 0.557626 0.386042 0.402975 0.493151 0.460519 0.358867 0.796842 0.338098 0.300843 0.273468 0.225834 0.221631 0.200854 0.181199 0.172753 0.306973 0.21604 0.139108 0.217542 0.181709 0.132272 0.128147 0.115492 0.267372
threshold=1.8741500000000003e-05 -3.1922299999999996e-08 0.19792950000000006 0.10022550000000004 0.77166350000000017 1.8131900000000003 1.5039450000000001 -0.0054261899999999983 0.14503350000000001 1.3297700000000001 -0.27366849999999993 -1.2205099999999998 -5.6792399999999992e-06 -7.9481399999999995 0.81985550000000007 -4.5705949999999991 -2.9756999999999996e-05 -3.1361349999999999 5.8204250000000011e-06 -1.3457849999999999e-05 1.5656100000000004e-05 3.6576900000000006e-05 0.20156999999999983 1.3950750000000001e-06 1.3087800000000002e-06 -0.0021716899999999996 -9.1578099999999996 0.058475500000000007 1.4045900000000002e-08 -9.7500849999999969e-07
decision_type=2 2 2 2 2 2 2 2 2 2 2 2 2 2 2 2 2 2 2 2 2 2 2 2 2 2 2 2 2 2
left_child=1 -1 3 4 23 6 7 8 10 17 13 -12 -13 18 -9 -14 20 -10 -6 -18 22 -22 -16 24 28 -25 -27 -28 -3 -30
right_child=-2 2 -4 -5 5 -7 -8 14 9 -11 11 12 15 -15 16 -17 19 -19 -20 -21 21 -23 -24 25 -26 26 27 -29 29 -31
leaf_value=3.2098203772382143e-05 5.3441590060563702e-06 -0.00013344458926172232 1.3413263219575295e-05 1.1303866430848581e-08 0.0019522113100780795 -4.338022466617986e-05 -0.00051873021155680302 -0.0070927148303863681 -0.0075579400366405022 -0.0027166529221826102 -0.00071208621554363233 -0.016101174578070639 -0.0017442500391708954 -0.0059650160332374207 -2.4242728934897221e-05 -0.0087626732602391552 -4.4841040653409441e-06 -0.014912433882376978 -0.0038336081315173947 -0.0061485632099114208 -0.0065748990915017215 0.00089592332071995121 0.0065248250145668865 0.0048858412368281284 -0.0052967143054767499 -0.0033155081806951004 0.00052047987542440746 -0.00081494522758404685 -0.0018324253930660367 -6.8619145407609566e-05
leaf_weight=50806 107317 977 31317 24101 60 500 281 22 20 28 26 20 35 27 34 23 20 21 20 30 20 44 20 20 24 28 689 243 419 441
leaf_count=50806 107317 977 31317 24101 60 500 281 22 20 28 26 20 35 27 34 23 20 21 20 30 20 44 20 20 24 28 689 243 419 441
internal_value=0 -5.19888e-06 -3.70408e-05 -9.30856e-05 -0.000641407 -0.00138653 -0.00228078 -0.00333426 -0.00451468 -0.00783168 -0.00342997 -0.00579931 -0.00749505 -0.00112706 -0.00159469 -0.00452742 -0.000874712 -0.0113249 0.000505756 -0.00369093 0.000318601 -0.00143871 0.00240134 -0.000313299 -0.000567192 0.000168838 7.05674e-05 0.000172295 -0.000505402 -0.000927962
internal_weight=0 110316 59510 28193 4092 1251 751 470 280 69 211 104 78 107 190 58 168 41 80 50 118 64 54 2841 1861 980 960 932 1837 860
internal_count=217633 110316 59510 28193 4092 1251 751 470 280 69 211 104 78 107 190 58 168 41 80 50 118 64 54 2841 1861 980 960 932 1837 860
shrinkage=0.05


Tree=471
num_leaves=31
num_cat=0
split_feature=21 5 17 7 40 40 1 11 40 22 6 22 40 14 13 0 1 23 17 21 34 33 1 37 18 23 19 9 15 22
split_gain=0.00244455 0.00941553 0.0287955 0.0106368 0.0352993 0.0555119 0.0126608 0.0767761 0.0680757 0.194794 0.062545 0.053713 0.051743 0.0487421 0.0291214 0.0449682 0.0234985 0.0347575 0.0160141 0.0134534 0.0164576 0.0114789 0.00925739 0.0503856 0.10044 0.0162571 0.0699791 0.0155324 0.0111751 0.0639877
threshold=13.390900000000002 7.9290400000000026e-06 2.1981950000000002e-08 2.6525600000000002e-05 0.039429999999999972 0.46240350000000002 8.7485050000000015 2.3076350000000001e-05 0.327845 1.1712050000000003 2.6709550000000002e-06 1.4745750000000002 -0.30278099999999991 0.00013878450000000001 -6.4036749999999993e-06 -0.5738764999999999 8.267730000000002 -7.1062399999999988 -1.1373949999999998e-07 18.392150000000004 4.6183500000000004 1.3416450000000002e-07 4.3945300000000005 -3.6091699999999993e-06 2.4151150000000003e-05 -9.2399249999999977 0.00010798250000000001 5.9192500000000006e-05 1.2644850000000001e-05 -0.96156149999999985
decision_type=2 2 2 2 2 2 2 2 2 2 2 2 2 2 2 2 2 2 2 2 2 2 2 2 2 2 2 2 2 2
left_child=-1 2 -2 4 -3 -6 16 8 9 -8 11 13 -9 -11 -13 -16 22 -18 -10 -20 -21 -17 28 24 -24 26 -25 -27 -5 -30
right_child=1 3 -4 6 5 -7 7 12 18 10 -12 14 -14 -15 15 21 17 -19 19 20 -22 -23 23 25 -26 27 -28 -29 29 -31
leaf_value=-6.5215318872287814e-07 0.0021673619597485021 0.00012362388670288639 7.2635234697372659e-05 -7.5165426055647159e-05 -0.0030451149563305081 -0.000249423197458652 0.005045573049466367 -5.9127912324832073e-05 0.0010336370230652392 2.5134824793964911e-05 0.0023514849748701243 -0.0020204280991532398 -0.0035730657738167792 0.0031498827598018886 0.0018428129289532081 -0.0013218516011393685 -0.0025502873846562583 4.8316533221006997e-05 -0.00012230985071305393 -0.0022523240004011314 -0.00037439021814082355 -0.00010457902380342907 8.1292810195795822e-05 0.0030894998775858606 0.0044791950937360528 -7.0941230091125829e-06 -0.0002559372488340833 -0.0013485746289876735 0.0025755864154133534 4.3879798890195552e-05
leaf_weight=214386 21 173 75 1538 26 56 27 22 20 26 39 23 20 24 24 34 22 31 91 20 28 45 37 22 20 349 54 23 27 330
leaf_count=214386 21 173 75 1538 26 56 27 22 20 26 39 23 20 24 24 34 22 31 91 20 28 45 37 22 20 349 54 23 27 330
internal_value=0 4.3059e-05 0.000530857 2.81975e-05 -0.000281387 -0.00113586 5.54572e-05 0.000301464 0.000514491 0.00104255 0.000539848 0.000138405 -0.00173243 0.00152501 -0.000411836 -5.26359e-05 1.10295e-05 -0.00103035 -0.000289226 -0.000479565 -0.00115686 -0.000628468 3.40266e-05 0.000224252 0.00162442 4.61056e-05 0.000712479 -9.00351e-05 -1.66666e-05 0.000235353
internal_weight=0 3247 96 3151 255 82 2896 443 401 242 215 176 42 50 126 103 2453 53 159 139 48 79 2400 505 57 448 76 372 1895 357
internal_count=217633 3247 96 3151 255 82 2896 443 401 242 215 176 42 50 126 103 2453 53 159 139 48 79 2400 505 57 448 76 372 1895 357
shrinkage=0.05


Tree=472
num_leaves=31
num_cat=0
split_feature=23 1 22 19 17 1 40 29 11 16 36 2 1 43 37 3 15 3 3 16 0 15 0 37 2 37 29 0 39 11
split_gain=0.00245423 0.0230325 0.0657855 0.0148437 0.019908 0.0186277 0.0832893 0.020893 0.0636482 0.0158339 0.0125817 0.0112569 0.0274068 0.0106791 0.0177378 0.0150061 0.0105571 0.0158341 0.0148461 0.0103611 0.0273703 0.0307316 0.0116967 0.0199591 0.0223363 0.0100029 0.00876549 0.0261378 0.006591 0.00752911
threshold=-6.007039999999999 12.027950000000002 1.8645100000000003 0.00028936550000000009 -1.0118749999999999e-05 10.319000000000001 -0.0054100000000001361 -1.2159399999999998 2.5904850000000002e-06 2.1581450000000003e-05 -0.0013912449999999999 2.3560350000000008 6.5342350000000007 0.20156999999999983 7.3586600000000014e-08 -5.8107599999999993 -6.5679299999999979e-08 -5.5440799999999983 -5.5951849999999999 1.6824400000000002e-06 8.9117650000000008 -5.4793599999999992e-08 10.160850000000002 1.6684100000000004e-08 0.33161050000000009 3.6272750000000004e-06 -0.18041899999999997 7.5113150000000006 0.034433300000000007 0.00023337100000000004
decision_type=2 2 2 2 2 2 2 2 2 2 2 2 2 2 2 2 2 2 2 2 2 2 2 2 2 2 2 2 2 2
left_child=-1 3 16 4 -2 7 -7 8 -6 10 -9 19 -13 15 -15 26 18 -18 -3 22 21 -21 -12 -24 -25 -23 27 28 29 -5
right_child=1 2 -4 13 5 6 -8 9 -10 -11 11 12 -14 14 -16 -17 17 -19 -20 20 -22 25 23 24 -26 -27 -28 -29 -30 -31
leaf_value=-6.5262613344696324e-07 0.0014806814933324168 0.0014851529956649758 -0.0027898998341293517 -7.8856403288397745e-05 -0.00025902936309152709 0.003372669816174797 -0.0001043212854043662 0.001173646292496684 0.0033155844420252839 -0.00098735610796104418 6.2197200885729005e-05 -4.7393274510593786e-05 0.002261092621301941 1.1373566636999992e-05 -0.0017434688566027035 0.0012570937504357933 -0.0014486106702406689 0.00012734368402389748 -0.00011781884192644682 0.001875599244855266 0.0018260689991213188 -1.0827549234959342e-05 3.398177011128377e-05 -0.00030306726041779824 -0.0024158294400628867 -0.0012767590427392862 2.112587991835839e-05 -0.0017800575967326208 -0.00055196426617809362 0.00097805032826727258
leaf_weight=214394 29 20 27 107 33 24 61 27 20 34 989 36 20 36 24 23 28 37 52 20 29 71 86 29 22 20 1229 27 59 20
leaf_count=214394 29 20 27 107 33 24 61 27 20 34 989 36 20 36 24 23 28 37 52 20 29 71 86 29 22 20 1229 27 59 20
internal_value=0 4.31982e-05 -0.000534148 7.399e-05 0.000182955 0.000158212 0.000877417 0.000115641 0.00108988 7.83054e-05 0.000105164 8.33419e-05 0.000777066 -3.67613e-05 -0.000690563 -9.98445e-06 -8.95832e-05 -0.000551529 0.000327451 5.26559e-05 0.000458315 0.000100973 2.21871e-06 -0.000430765 -0.00121445 -0.000289054 -3.01944e-05 -0.00032631 -0.000115282 8.75856e-05
internal_weight=0 3239 164 3075 1550 1521 85 1436 53 1383 1349 1322 56 1525 60 1465 137 65 72 1266 140 111 1126 137 51 91 1442 213 186 127
internal_count=217633 3239 164 3075 1550 1521 85 1436 53 1383 1349 1322 56 1525 60 1465 137 65 72 1266 140 111 1126 137 51 91 1442 213 186 127
shrinkage=0.05


Tree=473
num_leaves=31
num_cat=0
split_feature=5 3 28 36 30 20 2 23 44 11 5 19 21 17 10 13 6 5 32 20 19 23 17 32 0 23 15 20 31 23
split_gain=0.00243206 0.0112787 0.182109 0.0224243 0.0162355 0.00960639 0.036152 0.149855 0.0250044 0.0627161 0.27646 0.142034 0.337606 0.0945394 0.0745193 0.0537903 0.143024 0.0350863 0.0374116 0.0372586 0.0970525 0.0314228 0.0583787 0.0266869 0.0255711 0.083779 0.115331 0.064607 0.0282594 0.0257606
threshold=1.5738550000000005e-05 -18.627349999999996 0.10445350000000002 0.033124950000000007 0.0029116950000000002 -8.175164999999998 3.0333000000000006 -9.5739449999999984 0.19419999999999996 -3.0554299999999993e-05 8.7409800000000018e-06 2.4445350000000004e-06 -3.5251549999999994 1.2494200000000003e-07 3.8126050000000004e-05 -1.9421199999999996e-05 1.8381350000000001e-06 9.3682950000000011e-06 -22.304899999999996 -16.050999999999998 0.00074690950000000009 -13.237099999999998 9.2305600000000024e-08 -1.5525049999999998 -7.750214999999999 -7.6703599999999996 -2.3552749999999996e-08 -8.5876849999999987 1.1289300000000002 -12.525949999999998
decision_type=2 2 2 2 2 2 2 2 2 2 2 2 2 2 2 2 2 2 2 2 2 2 2 2 2 2 2 2 2 2
left_child=5 2 3 4 -2 6 8 -8 9 10 -1 12 -12 14 -14 16 -13 -17 -19 20 -20 22 -10 -21 25 26 -23 28 -27 -26
right_child=1 -3 -4 -5 -6 -7 7 -9 21 -11 11 15 13 -15 -16 17 -18 18 19 23 -22 24 -24 -25 29 27 -28 -29 -30 -31
leaf_value=0.0050374494343431615 1.3635347966210776e-05 -6.423382001894784e-06 0.0049103768478380517 0.0016345796488167253 -0.0012645674163380776 -2.8349464294324388e-07 0.0045018189275414563 0.00023101183969913565 -0.00043771077981463432 5.4519860753449302e-05 0.0068358990378867557 0.0045560307123444299 0.00088495788993895978 0.0022960525361585579 -0.0033795768575655099 -0.0021667144306342207 -0.00092165133951661686 -0.0021334908991342502 0.0038629413303819353 0.0013511644472600894 -0.00083844685274095322 -0.00025526977953761943 0.0032947536452047643 -0.00025404706868812358 -0.0013830198861208322 -0.00021232130423590214 -0.0051570365721133951 0.0024116100598842861 -0.0021501790297770644 -3.4869183696441546e-06
leaf_weight=33 311 105226 20 20 27 98548 23 192 22 4944 27 22 20 33 21 21 26 21 21 28 23 28 20 344 34 317 21 23 20 7197
leaf_count=33 311 105226 20 20 27 98548 23 192 22 4944 27 22 20 33 21 21 26 21 21 28 23 28 20 344 34 317 21 23 20 7197
internal_value=0 -5.44402e-06 0.000267186 7.79013e-06 -8.84696e-05 5.1318e-06 4.47184e-05 0.000687889 3.42946e-05 0.000114809 0.000580541 0.000338238 0.00205017 0.000304024 -0.00129932 -3.47168e-06 0.00158895 -0.000170363 -7.44288e-05 2.95142e-05 0.0014054 -2.42307e-05 0.00133965 -0.000133225 -3.17285e-05 -0.000416351 -0.00235603 -0.00015234 -0.000327328 -9.97345e-06
internal_weight=0 105604 378 358 338 112029 13481 215 13266 5584 640 607 101 74 41 506 48 458 437 416 44 7682 42 372 7640 409 49 360 337 7231
internal_count=217633 105604 378 358 338 112029 13481 215 13266 5584 640 607 101 74 41 506 48 458 437 416 44 7682 42 372 7640 409 49 360 337 7231
shrinkage=0.05


Tree=474
num_leaves=31
num_cat=0
split_feature=34 0 29 8 0 20 40 40 36 6 26 20 44 3 0 22 40 40 1 12 40 0 25 20 21 3 2 33 0 23
split_gain=0.00231818 0.0125879 0.0392481 0.0504669 0.0442338 0.0637727 0.0334473 0.144115 0.0069887 0.0231991 0.00528421 0.0040017 0.0535143 0.108513 0.257892 0.313735 0.77972 0.480045 0.20718 0.259798 0.179895 0.427843 0.26304 0.325839 0.132 0.128779 0.20164 0.114852 0.0817776 0.132145
threshold=0.0033180400000000004 8.3974050000000009 -0.0027413149999999998 -1.1467649999999999e-05 8.5096200000000017 5.8578400000000004 -0.0054100000000001361 -0.14969009999999991 -0.00035081549999999999 -7.6351549999999998e-07 -0.00010438299999999998 7.2203350000000013 0.23534999999999953 -8.7781499999999983 4.2310700000000008 -0.47921199999999992 0.22528099999999995 0.039429999999999972 -1.0953499999999996 -1.5746649999999996e-05 -0.011175000000000155 5.6987450000000015 3.0293700000000006 8.9118250000000021 4.7688000000000015 -10.603549999999998 -0.34235099999999991 -1.3841399999999998e-05 7.1107950000000004 -9.1724949999999978
decision_type=2 2 2 2 2 2 2 2 2 2 2 2 2 2 2 2 2 2 2 2 2 2 2 2 2 2 2 2 2 2
left_child=1 8 3 -3 5 -4 7 -5 9 -1 -6 -2 13 14 -13 16 17 -16 25 -20 21 -21 23 -23 27 26 -17 -22 -14 -30
right_child=11 2 4 6 10 -7 -8 -9 -10 -11 -12 12 28 -15 15 18 -18 -19 19 20 24 22 -24 -25 -26 -27 -28 -29 29 -31
leaf_value=-0.0019215036307241463 -1.7468448326988335e-06 -0.0027946385222354106 1.6039917810067655e-05 8.4502121923909132e-05 -0.000794746400875045 -0.0037090740939311217 0.00028142288486845713 -0.0046464060099837791 2.1658248712560358e-06 0.00021320020942117222 4.819528656852581e-06 -5.0654866498310149e-05 -1.4346198691195676e-05 3.4478053493086748e-05 0.0035632523273726787 -0.00012198087031265459 0.00016540230407892449 0.01336951588940186 0.0069203424049192113 0.0072031041128664377 -0.0029563120496834839 0.00048798114874313929 -0.0028117027160161259 0.0076694537984704691 0.0036322284731655739 0.00015148871439773107 -0.0063402485401390807 0.00032358217833679725 -0.0037110927380369207 -0.00035306418283345469
leaf_weight=20 174913 28 27 60 21 20 74 22 9668 35 1291 1094 14081 14238 26 32 73 24 20 36 31 56 33 22 26 168 22 192 30 1250
leaf_count=20 174913 28 27 60 21 20 74 22 9668 35 1291 1094 14081 14238 26 32 73 24 20 36 31 56 33 22 26 168 22 192 30 1250
internal_value=0 -2.2086e-05 -0.000154758 -0.000840084 -6.19691e-05 -0.00156911 -0.000489266 -0.00118477 -1.03146e-06 -0.000563056 -7.9784e-06 1.20572e-06 1.76247e-05 8.13421e-05 0.000441046 0.00114791 0.00346006 0.00827026 0.000702145 0.00136035 0.00107955 0.00246653 0.000930349 0.00251352 0.000260723 -0.000531256 -0.00265535 -0.000132367 -4.91291e-05 -0.000431768
internal_weight=0 11266 1543 184 1359 47 156 82 9723 55 1312 206367 31454 16093 1855 761 123 50 638 416 396 147 111 78 249 222 54 223 15361 1280
internal_count=217633 11266 1543 184 1359 47 156 82 9723 55 1312 206367 31454 16093 1855 761 123 50 638 416 396 147 111 78 249 222 54 223 15361 1280
shrinkage=0.05


Tree=475
num_leaves=31
num_cat=0
split_feature=33 40 41 41 11 18 38 44 23 4 43 12 4 38 21 4 32 4 25 1 21 14 25 43 21 14 15 26 20 11
split_gain=0.00240192 0.0132125 0.0118462 0.0743723 0.167137 0.199869 0.309918 0.402205 0.443722 0.42915 0.367025 0.259452 0.219493 0.241373 0.286155 0.340562 0.219583 0.195229 0.218701 0.191451 0.377908 0.173972 0.157115 0.15557 0.202785 0.157957 0.14891 0.136707 0.140376 0.133772
threshold=1.3939150000000002e-05 5.6762150000000009 0.22260499999999997 -0.15132349999999997 7.6561400000000015e-05 -5.6792399999999992e-06 0.0034638500000000005 -2.0033199999999987 -7.0549999999999988 -0.11642199999999998 -2.1087049999999987 5.4039850000000007e-05 -1.0382099999999996 0.0026319150000000007 3.8437450000000006 0.019144700000000004 -1.7584249999999997 -0.075009849999999989 0.63826400000000005 -2.3990449999999996 -1.5854549999999998 0.0015752050000000003 2.5401000000000002 0.80790999999999979 4.7688000000000015 0.0050185850000000016 -2.2530999999999997e-06 -0.0022709099999999997 -7.8361449999999992 6.0793300000000006e-05
decision_type=2 2 2 2 2 2 2 2 2 2 2 2 2 2 2 2 2 2 2 2 2 2 2 2 2 2 2 2 2 2
left_child=-1 2 3 -2 5 12 27 -8 10 -10 -9 -12 -5 14 17 26 21 22 -19 29 -21 -15 -14 25 -25 -22 -16 -7 -29 -18
right_child=1 -3 -4 4 -6 6 7 8 9 -11 11 -13 13 16 15 -17 19 18 -20 20 23 -23 -24 24 -26 -27 -28 28 -30 -31
leaf_value=2.5395321809049203e-06 8.714616224426636e-06 -0.00077158425380427324 1.547050552959655e-05 -0.00081096283766373886 -0.00093896642088072346 0.0041233831495490108 -0.00028811495501342079 -0.00014973362669479684 0.0064373820179025642 -0.001772281887866857 -0.0043370965521413989 -0.0095357771273484118 0.00019350789348989556 0.0017216613731132107 0.0017937065429093008 -0.0082895351698971369 0.00043889540964879743 0.00084402912049811761 0.0056997344176510749 0.0093725924496538948 0.0008450040942395335 -0.0036778383643832056 -0.0041297263403218187 0.0013772765710850113 0.0072937391403441638 0.0053876899289951492 -0.0026146102535213292 0.0041917067371832675 -4.0835676957265429e-05 0.0046156635876589769
leaf_weight=176401 15752 57 21801 286 696 21 422 40 20 78 96 32 169 26 30 20 220 78 33 20 147 35 24 28 30 22 53 20 955 21
leaf_count=176401 15752 57 21801 286 696 21 422 40 20 78 96 32 169 26 30 20 220 78 33 20 147 35 24 28 30 22 53 20 955 21
internal_value=0 -1.08648e-05 -9.81168e-06 -3.8261e-05 -0.000242557 -7.69037e-05 -0.000431795 -0.00124792 -0.00277062 -9.68403e-05 -0.00433033 -0.00563677 0.000404286 0.000767843 -0.000154887 -0.00243256 0.00145191 0.000616825 0.00228762 0.00180545 0.00278369 -0.00137641 -0.000344096 0.00220317 0.00443752 0.00143636 -0.00102124 0.000131955 4.59857e-05 0.000802846
internal_weight=0 41232 41175 19374 3622 2926 1684 688 266 98 168 128 1242 956 407 103 549 304 111 488 247 61 193 227 58 169 83 996 975 241
internal_count=217633 41232 41175 19374 3622 2926 1684 688 266 98 168 128 1242 956 407 103 549 304 111 488 247 61 193 227 58 169 83 996 975 241
shrinkage=0.05


Tree=476
num_leaves=31
num_cat=0
split_feature=23 1 26 30 19 8 20 17 34 4 2 40 8 43 15 1 21 17 37 0 15 40 22 43 36 1 28 11 3 15
split_gain=0.00233241 0.0208813 0.0641579 0.117375 0.0133095 0.021277 0.0383738 0.0226208 0.0144072 0.0356552 0.0159511 0.0422766 0.0111417 0.014235 0.014682 0.0118169 0.010427 0.0465271 0.0130476 0.0145297 0.0192833 0.0143786 0.00934253 0.0080033 0.0136756 0.00705256 0.0255994 0.00783207 0.035449 0.00671143
threshold=-6.007039999999999 12.027950000000002 0.00013131250000000003 0.00254236 0.00028936550000000009 -3.3519149999999992e-05 2.3761250000000005 -1.0118749999999999e-05 2.1557050000000006 0.067233750000000023 2.2570350000000006 1.2236470000000002 -1.4759749999999999e-05 0.23546500000000006 4.7226350000000001e-07 10.319000000000001 -19.754149999999996 7.7830150000000009e-06 4.353285000000001e-06 5.4701800000000009 3.3046650000000007e-05 0.039429999999999972 1.3139950000000002 0.20156999999999983 0.0027849950000000006 -11.844449999999998 -0.025004749999999996 4.8912350000000013e-05 -8.1170399999999976 5.756625000000001e-06
decision_type=2 2 2 2 2 2 2 2 2 2 2 2 2 2 2 2 2 2 2 2 2 2 2 2 2 2 2 2 2 2
left_child=-1 4 22 -4 5 6 -2 -7 10 -10 12 -12 13 14 -9 25 17 -6 23 -20 21 -21 -3 -18 -25 26 -14 29 -29 -27
right_child=1 2 3 -5 16 7 -8 8 9 -11 11 -13 15 -15 -16 -17 18 -19 19 20 -22 -23 -24 24 -26 27 -28 28 -30 -31
leaf_value=-6.3622261732806585e-07 -0.00012155283943486764 -0.00020965659955652968 -0.0049679423790985316 0.00026943612104767689 -0.00067531070734340969 0.001634811558716592 0.0028730732008989436 6.857720004177281e-05 -8.1953005230223596e-05 0.0025935010827379304 0.0027661134957452306 3.2760963990262504e-06 0.0017028652578907591 -0.0015840256326191593 -0.0012633691360824741 0.00098434081596064367 3.4373657707014229e-05 0.0023973718936428092 -0.00014311874968986078 -0.0014426362621386283 -0.0023105905597913079 0.00025249139434890822 0.00074391748760693169 6.3738621259593254e-05 -0.0016241855877888159 5.1063441063728599e-06 7.1239913009505903e-05 6.441798503366734e-06 0.0023313082509730521 -0.00076809177120719992
leaf_weight=214394 23 84 20 23 28 25 20 120 33 20 20 45 30 20 25 37 1184 22 170 22 20 29 37 30 20 871 121 91 20 29
leaf_count=214394 23 84 20 23 28 25 20 120 33 20 20 45 30 20 25 37 1184 22 170 22 20 29 37 30 20 871 121 91 20 29
internal_value=0 4.21125e-05 -0.00050761 -0.00216655 7.1431e-05 0.000174611 0.0012713 0.000143319 0.000118159 0.000927652 8.81359e-05 0.00085338 5.1669e-05 -0.000333548 -0.000161069 0.000104681 -3.34409e-05 0.00067667 -5.75125e-05 -0.000394016 -0.000994754 -0.00047874 8.19322e-05 8.20653e-06 -0.000611431 7.66707e-05 0.000395404 2.90656e-05 0.000425337 -1.98078e-05
internal_weight=0 3239 164 43 3075 1550 43 1507 1482 53 1429 65 1364 165 145 1199 1525 50 1475 241 71 51 121 1234 50 1162 151 1011 111 900
internal_count=217633 3239 164 43 3075 1550 43 1507 1482 53 1429 65 1364 165 145 1199 1525 50 1475 241 71 51 121 1234 50 1162 151 1011 111 900
shrinkage=0.05


Tree=477
num_leaves=31
num_cat=0
split_feature=27 3 0 2 0 34 11 22 4 6 8 12 3 32 22 19 12 22 43 14 19 13 15 12 11 11 21 16 4 7
split_gain=0.00237771 0.00737727 0.00708044 0.00734125 0.0178962 0.0230134 0.0149078 0.0141707 0.0165897 0.0189789 0.00994901 0.0076833 0.014526 0.0216565 0.0142512 0.0217777 0.00975765 0.0384558 0.00977823 0.0256621 0.113098 0.0229989 0.0184265 0.0165194 0.0157338 0.0131332 0.0119064 0.011284 0.00828568 0.00774664
threshold=91.481750000000019 -18.305499999999995 -13.909449999999998 1.9944900000000001 -4.5705949999999991 18.825800000000005 -0.00035055549999999991 2.5976000000000004 0.34232900000000005 8.812610000000001e-08 -8.6830199999999981e-05 -0.00015437249999999999 -14.947699999999999 7.7527300000000006 -0.92553999999999992 0.0012845400000000002 -0.00011213399999999999 -0.71561699999999984 -0.19603999999999996 0.0078496150000000025 0.0016856000000000002 4.8217100000000003e-05 1.4474800000000001e-05 0.00012870650000000001 4.8912350000000013e-05 3.0643750000000003e-05 -7.905149999999999 8.7195400000000012e-06 0.29311550000000003 3.4347950000000007e-05
decision_type=2 2 2 2 2 2 2 2 2 2 2 2 2 2 2 2 2 2 2 2 2 2 2 2 2 2 2 2 2 2
left_child=-1 -2 -3 6 7 -6 -4 8 -5 -10 -8 12 13 -12 15 -14 17 -13 19 27 -21 22 24 -23 25 -20 -22 28 -18 -16
right_child=1 2 3 4 5 -7 10 -9 9 -11 11 16 14 -15 29 -17 18 -19 21 20 26 23 -24 -25 -26 -27 -28 -29 -30 -31
leaf_value=4.4948326054814122e-07 -0.0010150287806754931 0.00078608969482593248 0.00099005492783261519 1.9991549010769266e-05 -7.7638964939978917e-05 -0.0024762536841444675 0.00098842420392548274 0.0011415352295443882 -0.00010059106196942075 -0.0019766092873536624 -0.00051515306204910974 0.0019880757161821559 -0.0023828054580877982 0.0015981866154606648 -0.001009530483861454 -0.00018237801639109174 -7.0398317750902087e-05 -0.00025511985272065168 4.6225565479682792e-05 0.0040010544222737242 0.0008568735764129088 -0.0020862413638615576 -0.001368843277101405 -0.00051020559426130294 0.0013965400503366254 -0.00092593279635031281 -0.00061445491109307941 -0.0010959956216393038 0.00096888955320190747 -6.9630168769381807e-05
leaf_weight=216035 20 25 36 148 20 20 23 20 28 26 27 29 23 22 28 22 221 56 405 22 20 23 25 60 20 38 44 25 21 101
leaf_count=216035 20 25 36 148 20 20 23 20 28 26 27 29 23 22 28 22 221 56 405 22 20 23 25 60 20 38 44 25 21 101
internal_value=0 -6.0766e-05 -4.86714e-05 -6.21093e-05 -0.000303423 -0.00127695 -1.31363e-05 -0.000128013 -0.000253711 -0.00100386 -4.19131e-05 -6.11483e-05 -0.000326751 0.000433693 -0.000540899 -0.00130704 -2.44734e-06 0.000510206 -4.9607e-05 0.000157262 0.000908426 -0.000177496 -4.66278e-05 -0.000946938 2.47661e-05 -3.7165e-05 -0.000154665 -8.46863e-05 1.97878e-05 -0.00027364
internal_weight=0 1598 1578 1553 262 40 1291 222 202 54 1255 1232 223 49 174 45 1009 85 924 353 86 571 488 83 463 443 64 267 242 129
internal_count=217633 1598 1578 1553 262 40 1291 222 202 54 1255 1232 223 49 174 45 1009 85 924 353 86 571 488 83 463 443 64 267 242 129
shrinkage=0.05


Tree=478
num_leaves=31
num_cat=0
split_feature=17 36 3 35 17 3 17 36 33 13 16 1 31 11 23 2 40 4 34 21 31 40 16 11 19 40 10 0 36 17
split_gain=0.00235062 0.01734 0.106044 0.0474739 0.0583688 0.0462517 0.0106974 0.0398936 0.0257041 0.0360814 0.0650094 0.10691 0.0905607 0.102291 0.0237537 0.0202818 0.0994762 0.017192 0.062185 0.0269576 0.0159678 0.0146312 0.0247515 0.0143593 0.0131346 0.0318844 0.0118244 0.0101368 0.00959451 0.0221604
threshold=2.5901300000000006e-05 -2.2564299999999995 -15.624449999999998 5.1900100000000009 6.1187250000000013e-05 -12.288549999999999 1.5863700000000005e-05 -2.2564299999999995 1.1132650000000001e-05 -3.7996599999999988e-05 -8.6326249999999977e-06 4.0814950000000012 -0.26240999999999998 9.4172200000000006e-05 -21.129099999999998 2.7316900000000004 0.327845 -0.091821799999999981 1.9974350000000001 4.1442900000000007 -0.26240999999999998 0.12375499999999996 -3.5869249999999995e-05 6.0793300000000006e-05 0.0095771650000000003 0.016888500000000004 2.1587450000000003e-05 14.717250000000002 1.20103 4.7046700000000012e-05
decision_type=2 2 2 2 2 2 2 2 2 2 2 2 2 2 2 2 2 2 2 2 2 2 2 2 2 2 2 2 2 2
left_child=6 2 -2 5 -5 -4 -1 -8 14 10 21 12 13 23 -9 17 -17 18 19 20 -11 22 -10 -12 -19 -26 -14 28 -3 -30
right_child=1 27 3 4 -6 -7 7 8 9 15 11 -13 26 -15 -16 16 -18 24 -20 -21 -22 -23 -24 -25 25 -27 -28 -29 29 -31
leaf_value=6.480616347451552e-08 0.0032611407010398547 1.2337021816706057e-05 -0.0029912717175102446 0.0030519318722543264 -0.00052375612783362162 -0.00012044134967622318 -0.0019176375851484722 -0.0017221523274201902 -0.00015025309802022886 -0.0013993796567214863 -0.0014140807311973889 -0.0045810386180880867 -0.0010763512614740496 -0.0041644082243389368 4.7106944675982086e-06 -0.0038991121645085519 -3.3036053738407753e-05 -2.8290298004182903e-05 0.0030949196434812624 0.0012635521331301588 5.7470445197877245e-05 -9.4230753780983538e-05 0.0021956030031023231 0.00027991139716257088 -0.0023607211309614028 0.00016258734458754207 8.1242091727612962e-06 0.0010594743973619506 -0.0010546307728214162 -5.1339319760109169e-05
leaf_weight=180411 29 30683 20 21 25 47 29 20 23 26 29 20 30 36 4625 20 99 604 20 36 68 97 22 22 21 31 155 23 69 272
leaf_count=180411 29 30683 20 21 25 47 29 20 23 26 29 20 30 36 4625 20 99 604 20 36 68 97 22 22 21 31 155 23 69 272
internal_value=0 1.27049e-05 0.000563969 -0.000128226 0.00110862 -0.000977406 -2.12533e-06 -6.76191e-05 -5.86833e-05 -0.000249948 -0.000626069 -0.00105281 -0.000793383 -0.00212378 -2.72467e-06 -7.34754e-05 -0.000682797 1.64865e-05 0.000499403 0.000100092 -0.000345488 0.000251458 0.00099661 -0.000683339 -9.39364e-05 -0.000856441 -0.000167737 1.01836e-05 9.40572e-06 -0.000254351
internal_weight=0 31189 142 113 46 67 186444 6033 6004 1359 434 292 272 87 4645 925 119 806 150 130 94 142 45 51 656 52 185 31047 31024 341
internal_count=217633 31189 142 113 46 67 186444 6033 6004 1359 434 292 272 87 4645 925 119 806 150 130 94 142 45 51 656 52 185 31047 31024 341
shrinkage=0.05


Tree=479
num_leaves=31
num_cat=0
split_feature=22 2 41 11 3 21 2 41 5 23 29 20 4 14 7 22 2 5 5 33 28 28 2 7 16 43 25 24 5 22
split_gain=0.00230102 0.0615971 0.0257224 0.00578363 0.0107499 0.00593996 0.00553492 0.0599173 0.0174812 0.0319951 0.00921864 0.0121521 0.0115584 0.00391258 0.00386222 0.00347336 0.0655973 0.103279 0.151132 0.0880028 0.0654345 0.0973786 0.0434774 0.0398502 0.0239558 0.0212345 0.00834284 0.00557143 0.00350886 0.0381437
threshold=-3.0951399999999993 3.0333000000000006 -0.10141500000000002 -0.0005162264999999999 -13.614249999999998 5.2037050000000002 3.0794900000000003 -0.016969000000000036 5.8886400000000006e-05 -8.326019999999998 0.027036700000000004 -6.1474899999999986 0.090019550000000018 0.00096226550000000008 3.0443300000000004e-05 -2.9623449999999996 -2.8691749999999998 1.4537250000000002e-05 1.7452100000000005e-05 -1.3458149999999998e-05 -0.0033222799999999995 -0.0022296149999999995 3.0333000000000006 6.293350000000001e-05 -1.2403199999999998e-07 0.27381999999999979 0.23578950000000001 1.1195950000000001 7.2568900000000009e-06 -2.8040299999999996
decision_type=2 2 2 2 2 2 2 2 2 2 2 2 2 2 2 2 2 2 2 2 2 2 2 2 2 2 2 2 2 2
left_child=1 2 3 4 -1 -5 15 8 10 -10 14 12 -12 -7 -8 16 17 19 -19 -2 -21 -22 27 -20 -23 26 -26 -18 29 -17
right_child=6 -3 -4 5 -6 13 7 -9 9 -11 11 -13 -14 -15 -16 28 22 18 23 20 21 24 -24 -25 25 -27 -28 -29 -30 -31
leaf_value=0.0014196580657153393 -0.0031182701361276918 0.0023834023511881243 0.0013809377300169532 -1.0733596192318645e-05 1.6543769398531581e-05 -0.00015304254180095581 -0.0006614507253543707 -0.0026465419497664856 -0.0001369173144308716 0.0023974969338041775 -0.0019995770181015938 -5.5104753782335838e-05 -0.00037880401975020175 -0.0011193150890176186 -2.739605050986248e-05 0.0011341428000355336 -3.0165933767317562e-06 -0.004508447957834086 -0.0022449860677581802 0.0024731672989156354 -0.003185487789861244 0.0015396062485004743 0.0017871559567377998 0.00046901261913789269 0.0011888260072737467 -0.001439674798748456 -7.6902051999544105e-05 -0.00065537924379124456 2.3504458449343391e-07 2.423049031032034e-05
leaf_weight=20 21 28 34 1586 43 22 25 23 33 20 22 51 22 20 611 80 3981 39 21 29 22 35 34 38 23 20 30 33 208278 2389
leaf_count=20 21 28 34 1586 43 22 25 23 33 20 22 51 22 20 611 80 3981 39 21 29 22 35 34 38 23 20 30 33 208278 2389
internal_value=0 5.70536e-05 1.92926e-05 -8.08526e-06 0.000461977 -2.62756e-05 -4.6329e-07 -0.000131163 -5.73703e-05 0.000819465 -0.000120944 -0.000580366 -0.00118919 -0.000613172 -5.23196e-05 2.71248e-08 -4.43224e-05 -0.000787286 -0.00209338 -7.61883e-05 0.000325596 -0.000153477 6.70127e-06 -0.000496987 0.000464154 -5.14734e-05 0.000472376 -8.37981e-06 9.37488e-07 6.01936e-05
internal_weight=0 1753 1725 1691 63 1628 215880 807 784 53 731 95 44 42 636 215073 4326 278 98 180 159 130 4048 59 108 73 53 4014 210747 2469
internal_count=217633 1753 1725 1691 63 1628 215880 807 784 53 731 95 44 42 636 215073 4326 278 98 180 159 130 4048 59 108 73 53 4014 210747 2469
shrinkage=0.05


Tree=480
num_leaves=31
num_cat=0
split_feature=7 7 40 41 26 37 0 32 28 40 43 43 41 21 13 12 40 13 11 40 43 13 37 8 23 43 35 26 36 13
split_gain=0.0023149 0.0190126 0.0182999 0.220858 0.233854 0.473089 0.0925867 0.0562387 0.0493886 0.130146 0.0468749 0.13169 0.0225085 0.0202729 0.0370672 0.0190353 0.127623 0.0228389 0.0967738 0.0419373 0.0313487 0.0304933 0.0755673 0.0200582 0.0339804 0.0175002 0.0174338 0.031822 0.0138735 0.0123292
threshold=3.140425000000001e-05 3.0144500000000006e-05 0.22528099999999995 -0.016969000000000036 -0.00015089299999999995 2.2463100000000002e-07 7.0096050000000014 -0.58764449999999979 -0.13224499999999997 -0.3562499999999999 0.20156999999999983 0.97785500000000003 -0.057539999999999918 -12.050999999999998 1.1232050000000002e-05 0.00017051850000000002 -0.19934349999999995 -1.6676799999999996e-05 -3.8189799999999991e-05 -0.079468000000000025 -0.086730000000000182 -1.4552299999999998e-05 -1.0066799999999999e-07 -1.8563549999999996e-05 -8.2255699999999994 -1.9072949999999993 1.6674650000000002 0.031042450000000003 -0.60180299999999987 -8.7538749999999986e-05
decision_type=2 2 2 2 2 2 2 2 2 2 2 2 2 2 2 2 2 2 2 2 2 2 2 2 2 2 2 2 2 2
left_child=1 29 3 4 5 -3 7 -6 9 -5 12 -12 25 14 -10 17 -17 18 -15 -20 -21 22 -19 24 -23 -9 27 -4 -25 -1
right_child=-2 2 26 8 6 -7 -8 10 13 -11 11 -13 -14 15 -16 16 -18 21 19 20 -22 23 -24 28 -26 -27 -28 -29 -30 -31
leaf_value=0.001215408715021719 2.7241629988271221e-06 -0.0091925969580188404 7.6731092069396213e-06 -8.1293764980121833e-05 0.0019555988868454562 0.00065178951437068781 -0.0034165528888538133 -0.00023264222979553766 0.0026518798494362273 -0.0041864340901016615 -0.0044012056359547551 -0.00042608753016817923 0.00063829250966591651 0.0035004902049600474 -7.4509509697930446e-06 4.9720219529833228e-05 -0.0031627982633024758 -0.0035063827404221894 -5.3549768013303221e-05 0.0029646987644290287 0.00047851464582890916 0.0001820897398829402 5.6497292291129747e-05 -0.0010471365658304421 -0.0026084599886507932 -0.0019516740837570981 0.0012061308784177527 -0.0019448365661359969 -7.161094182050692e-07 3.5741428147051264e-06
leaf_weight=21 170149 26 3321 75 21 23 31 57 20 26 29 74 56 23 38 188 37 22 324 21 32 24 46 32 20 20 30 21 3116 39710
leaf_count=21 170149 26 3321 75 21 23 31 57 20 26 29 74 56 23 38 188 37 22 324 21 32 24 46 32 20 20 30 21 3116 39710
internal_value=0 -9.76147e-06 -8.13835e-05 -0.000148777 -0.00137857 -0.00457176 -0.00083528 -0.000523921 -4.62943e-05 -0.00113806 -0.000744556 -0.0015453 -0.000124434 -1.83286e-05 0.00090956 -3.21813e-05 -0.000478561 -4.73991e-06 0.000351831 0.000159737 0.00146361 -4.84909e-05 -0.0010962 -2.61713e-05 -0.00108634 -0.000679144 6.17579e-06 -4.5958e-06 -1.13532e-05 4.21466e-06
internal_weight=0 47484 7753 4381 337 49 288 257 4044 101 236 103 133 3943 58 3885 225 3660 400 377 53 3260 68 3192 44 77 3372 3342 3148 39731
internal_count=217633 47484 7753 4381 337 49 288 257 4044 101 236 103 133 3943 58 3885 225 3660 400 377 53 3260 68 3192 44 77 3372 3342 3148 39731
shrinkage=0.05


Tree=481
num_leaves=31
num_cat=0
split_feature=4 38 4 41 41 43 40 43 11 40 37 27 43 7 38 36 23 41 15 27 43 43 34 43 26 41 38 10 40 24
split_gain=0.00230037 0.133344 0.135015 0.215441 1.17448 0.367992 0.43974 0.594534 0.449033 0.435973 0.341789 0.345132 0.304027 0.315454 0.353971 0.2961 0.350309 0.337529 0.26649 0.25535 0.223581 0.308624 0.622045 0.33236 0.270855 0.21465 0.206927 0.180781 0.178094 0.563696
threshold=0.10312400000000001 -0.00015868999999999999 0.79460700000000006 0.19792950000000006 -0.15132349999999997 2.5222350000000002 -0.040859549999999939 -1.6462299999999999 -8.8703799999999996e-05 0.039429999999999972 -4.9754949999999999e-07 3.0030300000000003 -0.32314999999999999 3.2333100000000004e-05 -0.00093797899999999992 -0.0049083749999999987 -6.3147749999999991 0.078754999999999922 -2.2530999999999997e-06 6.1732900000000006 -0.93682499999999969 0.47541999999999979 0.13562800000000003 0.85052500000000031 -0.00012032499999999998 -0.057539999999999918 -0.00064176049999999996 3.1349550000000005e-05 -0.058960000000000005 0.21342250000000004
decision_type=2 2 2 2 2 2 2 2 2 2 2 2 2 2 2 2 2 2 2 2 2 2 2 2 2 2 2 2 2 2
left_child=-1 2 3 4 -2 6 7 -6 -9 12 11 -11 13 26 -15 17 28 -10 -12 -19 -20 22 25 -23 -25 -22 -8 -13 -17 -30
right_child=1 -3 -4 -5 5 -7 9 8 15 10 18 27 -14 14 -16 16 -18 19 20 -21 21 23 -24 24 -26 -27 -28 -29 29 -31
leaf_value=-3.9532078948237588e-06 -1.5458383383805093e-05 -4.4256770655248151e-05 -1.5248759636078616e-05 -2.8850173885465403e-05 -0.00088898880556193829 -0.00028329915864576941 0.0014869034078191573 -0.0034099983330816031 0.003608604780975324 0.0095892935328072675 -0.0033402034025956789 -0.00037141476800157269 0.00048714050704989713 0.0026428822468534982 0.0087700628622163403 0.0015440995442784497 0.009640552569180727 0.012684385598238028 -6.0555509116966283e-05 0.0052872308902442459 0.011798743781185261 -0.0045075162236268319 0.00074849048447187829 0.00737473164248513 -0.00085410337313078337 0.0056536190110879642 -0.0040037008248460055 0.00619676385918865 0.011586947101611823 0.0020041416952664265
leaf_weight=136755 6406 49631 15788 6420 82 345 78 20 46 33 22 22 1302 110 30 126 20 28 65 20 27 21 46 20 20 30 22 20 21 57
leaf_count=136755 6406 49631 15788 6420 82 345 78 20 46 33 22 22 1302 110 30 126 20 28 65 20 27 21 46 20 20 30 22 20 21 57
internal_value=0 6.6844e-06 8.75965e-05 0.000192631 0.000349939 0.00123894 0.00146847 0.00293032 0.0038569 0.00113979 0.00280107 0.00576281 0.000788569 0.00242382 0.00395585 0.00431394 0.00332558 0.00666918 0.00191609 0.00960224 0.00242106 0.00340463 0.00507384 0.000586143 0.00326031 0.00856447 0.00027897 0.00275629 0.00270646 0.00458413
internal_weight=0 80878 31247 15459 9039 2633 2288 420 338 1868 326 75 1542 240 140 318 224 94 251 48 229 164 103 61 40 57 100 42 204 78
internal_count=217633 80878 31247 15459 9039 2633 2288 420 338 1868 326 75 1542 240 140 318 224 94 251 48 229 164 103 61 40 57 100 42 204 78
shrinkage=0.05


Tree=482
num_leaves=31
num_cat=0
split_feature=17 36 3 35 17 3 17 34 3 39 11 33 6 40 40 21 36 40 40 23 17 11 34 40 29 9 38 3 7 1
split_gain=0.00253755 0.0157565 0.0962109 0.0428405 0.0526743 0.041748 0.00955052 0.0372393 0.061413 0.027057 0.0383208 0.0233782 0.0328089 0.0444652 0.335441 0.313325 0.0450876 0.144193 0.0198148 0.0802563 0.0183368 0.0257455 0.0159307 0.0111529 0.00966529 0.0137107 0.0111712 0.0211848 0.0136731 0.00916272
threshold=2.5901300000000006e-05 -2.2564299999999995 -15.624449999999998 5.1900100000000009 6.1187250000000013e-05 -12.288549999999999 1.5863700000000005e-05 3.2423100000000002 -15.867949999999999 0.029330700000000005 2.0886150000000003e-05 1.1132650000000001e-05 -2.1612149999999997e-07 -0.25142799999999998 -0.0054100000000001361 -2.0281699999999994 -0.0018769449999999999 0.24966499999999994 0.1751400000000001 -12.940099999999997 2.2171350000000002e-05 0.00013338650000000002 1.5909750000000003 0.354709 -0.15264749999999996 1.0829900000000001e-05 -0.0154986 -15.396099999999999 3.0697150000000005e-05 -7.376174999999999
decision_type=2 2 2 2 2 2 2 2 2 2 2 2 2 2 2 2 2 2 2 2 2 2 2 2 2 2 2 2 2 2
left_child=6 2 -2 5 -5 -4 -1 9 -9 11 -11 24 22 -14 15 -15 17 -16 19 -18 -10 -22 -13 -20 25 -8 27 -26 -29 -30
right_child=1 -3 3 4 -6 -7 7 8 20 10 -12 12 13 14 16 -17 18 -19 23 -21 21 -23 -24 -25 26 -27 -28 28 29 -31
leaf_value=-1.3881666329731236e-07 0.0031077735599708456 1.0797006884525554e-05 -0.0028406148147769273 0.0029003907067817638 -0.00049639799987198792 -0.00011313561324912255 4.2948589043589895e-05 -0.0025459490920992623 -6.6873089507590611e-05 -0.00028755342769727578 0.0028076364859407478 6.3001068776640215e-05 9.9864338858357503e-06 -0.00055482489264250038 -0.0041084814449402927 -0.0077227134207796854 -0.00042000261172162073 1.3829220526669724e-05 -0.0012017760439318539 0.0034930603409884502 -0.00036494135244909023 -0.0023056793874784492 0.0015125015083685867 5.2073266208144227e-06 -0.0014420550043477971 0.0017117754088212681 1.6860703124006265e-05 0.001105143118693377 -0.0011821255263991285 -0.00011943495890535752
leaf_weight=180411 29 31047 20 21 25 47 32 36 182 20 20 363 341 30 29 31 38 79 21 20 54 25 20 216 37 20 4244 20 24 131
leaf_count=180411 29 31047 20 21 25 47 32 36 182 20 20 363 341 30 29 31 38 79 21 20 54 25 20 216 37 20 4244 20 24 131
internal_value=0 1.32004e-05 0.00053869 -0.000120632 0.00105431 -0.000927309 -2.20822e-06 -6.40916e-05 -0.000610013 -3.58247e-05 0.00126004 -4.49249e-05 -0.000242247 -0.000423489 -0.000742055 -0.00419752 -0.00021902 -0.00109309 0.000100978 0.000929329 -0.000342987 -0.000979099 0.000138693 -0.000101741 7.07554e-06 0.000684805 -8.33335e-07 -0.000355048 -0.000125224 -0.000283981
internal_weight=0 31189 142 113 46 67 186444 6033 297 5736 40 5696 1188 805 464 61 403 108 295 58 261 79 383 237 4508 52 4456 212 175 155
internal_count=217633 31189 142 113 46 67 186444 6033 297 5736 40 5696 1188 805 464 61 403 108 295 58 261 79 383 237 4508 52 4456 212 175 155
shrinkage=0.05


Tree=483
num_leaves=31
num_cat=0
split_feature=44 43 32 19 35 36 7 13 7 25 25 8 38 20 22 22 2 40 37 25 13 3 5 37 14 40 40 37 40 40
split_gain=0.0024389 0.0293756 0.0665822 0.0471209 0.153267 0.159838 0.0369294 0.0825742 0.0596403 0.100154 0.0506364 0.0480643 0.039745 0.0388826 0.18337 0.0662692 0.0594219 0.261088 0.0377662 0.0750698 0.0668271 0.052234 0.0359913 0.0341983 0.0528915 0.110409 0.381822 0.0337385 0.052646 0.126909
threshold=0.81788000000000027 -0.56159999999999977 5.9680600000000004 2.3425250000000002e-09 -0.00073331449999999995 -3.351814999999999e-05 3.5203800000000003e-05 -4.4225099999999991e-05 3.3557350000000008e-05 6.6944750000000006 10.786550000000002 1.3103000000000001e-05 0.054851550000000006 -6.2436999999999996 2.8297800000000004 -2.6823499999999991 2.2794050000000001 0.10022550000000004 -2.6534649999999999e-07 0.51355700000000015 -2.9523999999999997e-05 -8.3242249999999967 1.3194150000000001e-05 -2.4249749999999994e-07 0.0010249100000000002 -0.10081500000000009 0.20129000000000011 -1.4149849999999998e-08 -0.10081500000000009 1.0361695000000004
decision_type=2 2 2 2 2 2 2 2 2 2 2 2 2 2 2 2 2 2 2 2 2 2 2 2 2 2 2 2 2 2
left_child=1 2 3 4 5 -1 7 -5 18 27 12 -12 13 16 15 -15 -8 -18 19 -9 -20 22 -21 24 25 -17 -27 -10 -29 -30
right_child=-2 -3 -4 6 -6 -7 10 8 9 -11 11 -13 -14 14 -16 23 17 -19 20 21 -22 -23 -24 -25 -26 26 -28 28 29 -31
leaf_value=-0.006016560532813086 7.7207916426460632e-06 1.460678084138333e-07 0.0020684770539981614 -0.0031227072415416705 -2.5005538458587666e-05 -7.1076796339184517e-05 -0.00018660307021971804 0.0024786223882600962 -7.3251175803811268e-05 -0.0043317202683759949 0.00040245780286250732 0.0025209002405437576 -0.0020902489678064741 0.0020460890234039069 0.0044058031853031329 -0.0011072662271908484 -0.0066276457213825775 -0.00013951930628549683 -0.0029972930337614592 -2.8128239773650424e-05 -0.00020682892997511628 0.001647537573537706 -0.002061819320018306 -0.00013151125412323128 -2.3866436280746093e-05 0.0075947874089858196 -0.0002774497880234903 -0.00012826398371544202 -0.005561355035169982 -0.00011543410263307717
leaf_weight=26 69582 143917 34 26 117 20 462 38 101 21 126 34 24 39 24 30 20 69 22 112 867 39 27 1518 188 24 43 40 20 23
leaf_count=26 69582 143917 34 26 117 20 462 38 101 21 126 34 24 39 24 30 20 69 22 112 867 39 27 1518 188 24 43 40 20 23
internal_value=0 -3.62867e-06 -0.000135039 -0.000153312 -0.000986367 -0.00343157 -0.000118821 -0.00033249 -0.000277112 -0.00106038 -9.07101e-06 0.000852627 -6.55526e-05 -4.54481e-05 6.35275e-05 6.95063e-06 -0.000414502 -0.00159753 -0.0001318 0.000461214 -0.000275884 3.05308e-05 -0.000423162 -3.71572e-05 0.000465402 0.00141368 0.00254246 -0.000687016 -0.00143389 -0.00264842
internal_weight=0 148051 4134 4100 163 46 3937 1336 1310 205 2601 160 2441 2417 1866 1842 551 89 1105 216 889 178 139 1803 285 97 67 184 83 43
internal_count=217633 148051 4134 4100 163 46 3937 1336 1310 205 2601 160 2441 2417 1866 1842 551 89 1105 216 889 178 139 1803 285 97 67 184 83 43
shrinkage=0.05


Tree=484
num_leaves=31
num_cat=0
split_feature=11 36 10 30 24 3 19 40 44 43 29 35 7 40 28 1 1 32 31 30 13 13 7 2 23 33 25 14 25 29
split_gain=0.00239594 0.017297 0.0339818 0.0223725 0.0271936 0.0244767 0.020531 0.10104 0.213413 0.385154 0.158533 0.0149838 0.0133768 0.012891 0.0120425 0.0126206 0.0118172 0.00865758 0.00960339 0.0266023 0.0172507 0.0252597 0.0486003 0.0341863 0.0868307 0.0582797 0.0331213 0.0661945 0.021717 0.0254551
threshold=-0.00016577949999999997 3.8353050000000004 3.5838500000000006e-05 0.16934650000000004 -2.2419299999999995 -15.867949999999999 0.00021631850000000002 -0.22452634999999985 3.0726850000000008 0.27381999999999979 0.24911750000000002 1.6674650000000002 4.3412800000000006e-05 -0.3562499999999999 1.0121250000000004 4.2010150000000008 -1.3583049999999999 20.036400000000004 0.23863350000000003 0.00078399800000000005 -0.00013597249999999997 -4.8647349999999993e-06 4.1854750000000001e-05 2.9632050000000003 -18.884799999999995 2.6373100000000003e-05 0.97461900000000001 0.0061690100000000008 21.272000000000002 0.30041650000000003
decision_type=2 2 2 2 2 2 2 2 2 2 2 2 2 2 2 2 2 2 2 2 2 2 2 2 2 2 2 2 2 2
left_child=1 3 -3 4 -1 -5 7 10 9 -9 13 -7 -13 -6 17 -16 -10 18 -8 -20 -21 22 -22 24 -24 -25 27 -26 29 -28
right_child=-2 2 -4 5 6 11 14 8 16 -11 -12 12 -14 -15 15 -17 -18 -19 19 20 21 -23 23 25 26 -27 28 -29 -30 -31
leaf_value=0.0017732887026134202 -1.7825884917277429e-06 0.0019517674751114102 -8.8928170289899057e-05 -0.0021476670876955212 -2.4225517908291116e-05 0.0006148445040613799 1.8250036458806992e-05 0.0068215822966426216 -2.6458776190730873e-06 -0.0009067979037354235 0.004338114009061385 -0.0018245072703575718 -0.0002340412627419051 -0.0011753747847105844 -0.00018776038980701873 -0.0015388620787998662 -0.0014366721118719283 0.0010458526501315646 -0.0014923876436197052 -0.0011084735898503615 0.002023198975458447 -0.00011115134839834133 0.0035460988625709436 0.00014445106218506515 0.0035052143804205115 -0.0031477527976676357 -9.9045609191846028e-05 -0.00042789760548697344 0.0012754264338873328 -0.001979845230234787
leaf_weight=22 195107 34 51 23 894 29 18329 38 51 28 21 20 39 25 56 25 20 20 33 39 38 2343 20 41 20 20 179 23 25 20
leaf_count=22 195107 34 51 23 894 29 18329 38 51 28 21 20 39 25 56 25 20 20 33 39 38 2343 20 41 20 20 179 23 25 20
internal_value=0 1.54397e-05 0.00072735 1.27432e-05 1.62631e-05 -0.000695348 1.45303e-05 0.000227502 0.00149607 0.00354288 4.26153e-05 -0.000315764 -0.000773182 -5.55408e-05 3.72673e-06 -0.000604767 -0.000406597 6.05713e-06 5.07294e-06 -8.11545e-05 -6.43298e-05 -4.9408e-05 0.000325371 0.000139976 0.000368447 -0.00093496 0.00013042 0.00140146 -0.000113573 -0.000288071
internal_weight=0 22526 85 22441 22330 111 22308 1077 137 66 940 88 59 919 21231 81 71 21150 21130 2801 2768 2729 386 348 287 61 267 43 224 199
internal_count=217633 22526 85 22441 22330 111 22308 1077 137 66 940 88 59 919 21231 81 71 21150 21130 2801 2768 2729 386 348 287 61 267 43 224 199
shrinkage=0.05


Tree=485
num_leaves=31
num_cat=0
split_feature=44 3 13 23 20 10 21 40 5 36 3 40 40 5 29 34 39 23 24 23 12 23 33 36 2 25 23 24 14 23
split_gain=0.00241805 0.0111326 0.124936 0.0103857 0.0891017 0.06576 0.0942017 0.0553687 0.0391058 0.0506755 0.0310033 0.0542354 0.137242 0.0269712 0.0333605 0.0160228 0.0322237 0.0123775 0.108876 0.0309106 0.122623 0.0244527 0.133558 0.0189275 0.0179256 0.0158736 0.0154341 0.0257922 0.0135656 0.0120856
threshold=-3.6478300000000004 -17.304849999999998 3.5056900000000007e-05 -18.396099999999997 -6.0084349999999995 6.1899350000000009e-05 5.357330000000001 0.24966499999999994 1.3371950000000002e-05 0.013761450000000001 -17.069699999999997 0.22528099999999995 -0.10081500000000009 1.2356950000000002e-05 0.0038092700000000005 4.1501900000000012 0.00088582400000000012 -18.143749999999997 -0.78263349999999987 -18.021849999999997 0.00033422200000000007 -17.886149999999997 -5.1110149999999994e-05 0.0022490050000000005 -1.4562349999999997 0.23366500000000004 -17.728849999999998 0.33294350000000006 0.0034134750000000004 -16.164099999999994
decision_type=2 2 2 2 2 2 2 2 2 2 2 2 2 2 2 2 2 2 2 2 2 2 2 2 2 2 2 2 2 2
left_child=1 2 -1 4 -2 6 8 -7 9 13 11 12 -10 15 -15 16 -6 18 -5 20 25 22 -21 24 -20 -19 27 -23 -26 -28
right_child=3 -3 -4 17 5 7 -8 -9 10 -11 -12 -13 -14 14 -16 -17 -18 19 23 21 -22 26 -24 -25 28 -27 29 -29 -30 -31
leaf_value=0.0036769324292739236 0.0029337468187970281 7.6789616534795242e-06 -0.0014248577805119568 0.0034108392931627277 -0.00014382496947201606 -0.0038591363755783635 0.0026688182437542961 -0.00038974693743512037 -0.00036332851739322961 -0.002379948981960249 -0.00030011811245869117 -0.00048058949747776733 0.0043637252371159516 -0.0030199651070049751 -0.00023384537939405577 0.0011189048074629682 -0.0020139169365463133 0.0012165035754670888 0.0012952023802824898 0.0036628597582076226 -0.0041790527612399521 -0.00023846128605663054 -0.00024966591322688397 -0.00089510646466806065 0.0011454208554278012 -0.00038422416324403641 0.0001209498481107551 -0.0022140028639114464 -0.00028472990014968429 -4.1663565789746777e-06
leaf_weight=21 22 62850 28 26 202 23 28 23 34 38 155 47 28 21 22 20 26 21 32 29 22 95 88 48 20 59 1955 20 97 151533
leaf_count=21 22 62850 28 26 202 23 28 23 34 38 155 47 28 21 22 20 26 21 32 29 22 95 88 48 20 59 1955 20 97 151533
internal_value=0 8.2663e-06 0.000761624 -3.36023e-06 -0.000197051 -0.000300316 -0.000165195 -0.00212444 -0.00029901 -0.00066273 0.000154262 0.000800398 0.00177147 -0.000438489 -0.00159451 -0.00023805 -0.000357081 -2.49391e-06 0.000369744 -3.03355e-06 -0.000873155 -2.45619e-06 0.000720105 -3.16194e-05 0.000246551 3.59669e-05 -3.00657e-06 -0.000582034 -4.02597e-05 -2.57273e-06
internal_weight=0 62899 49 154734 689 667 621 46 593 329 264 109 62 291 43 248 228 154045 223 153822 102 153720 117 197 149 80 153603 115 117 153488
internal_count=217633 62899 49 154734 689 667 621 46 593 329 264 109 62 291 43 248 228 154045 223 153822 102 153720 117 197 149 80 153603 115 117 153488
shrinkage=0.05


Tree=486
num_leaves=31
num_cat=0
split_feature=12 19 40 28 19 30 40 40 43 23 43 5 16 4 16 35 20 24 19 32 10 12 10 3 36 43 19 32 13 21
split_gain=0.00233443 0.0321983 0.055708 0.00943584 0.0682266 0.122655 0.129226 0.249292 0.269267 0.254968 0.0480557 0.0434732 0.0372641 0.12265 0.113861 0.0593122 0.0881276 0.0252908 0.0260781 0.0238218 0.0592237 0.0243915 0.0217014 0.0204902 0.018466 0.0101074 0.0145349 0.0081717 0.0817616 0.122833
threshold=0.00022537400000000003 1.3835200000000002e-09 1.6492065000000002 0.27127250000000008 0.0011496050000000004 0.053348600000000003 0.30085850000000008 -0.3562499999999999 0.027469999999999221 -9.142059999999999 1.1470050000000007 1.7003450000000004e-05 -2.6594849999999998e-05 0.92648250000000021 -8.1957199999999988e-05 -0.93075499999999989 1.0555450000000002 0.86341500000000015 0.0030314700000000005 -2.9812749999999997 1.7656850000000004e-05 0.00102238 1.6453300000000004e-05 -13.443999999999997 -0.96073299999999995 1.0196000000000003 0.015646000000000004 -1.7584249999999997 3.0213650000000005e-05 6.3306750000000012
decision_type=2 2 2 2 2 2 2 2 2 2 2 2 2 2 2 2 2 2 2 2 2 2 2 2 2 2 2 2 2 2
left_child=-1 2 -2 19 5 6 7 10 9 -9 -5 -7 14 -14 22 16 -15 -17 -19 20 -3 23 -6 -22 -24 26 -20 28 29 -21
right_child=1 3 -4 4 12 11 -8 8 -10 -11 -12 -13 13 15 -16 17 -18 18 25 27 21 -23 24 -25 -26 -27 -28 -29 -30 -31
leaf_value=-1.9860948721651303e-06 0.003324169593579427 -0.0024986681692870192 -0.0001059787450340709 -0.0010638621182485675 0.0014272247319636138 -0.0020536327717469677 -0.0011434405027102913 0.011123321324121208 2.5937139289453624e-05 0.0031394622099469418 0.0020249039597183584 0.00042304664071904173 -0.0037712431108677547 -0.00052259810953259923 0.0036159512511706759 -3.0597213618369459e-05 0.0033291924482371006 -0.0024998908916201729 -0.0019493895453100169 0.0003786362155021076 0.0017677320464281367 -0.0014631597345451948 -0.0012936043728473123 -0.00011050900122324303 2.7148887649934829e-05 0.00026702363235623733 -0.00032163227742785242 6.8387601223738952e-06 -0.00020414155089975943 0.0049634441736132089
leaf_weight=189725 20 33 29 34 23 34 30 20 20 20 20 37 26 33 24 106 27 26 24 48 20 23 32 53 153 21 32 26704 215 21
leaf_count=189725 20 33 29 34 23 34 30 20 20 20 20 37 26 33 24 106 27 26 24 48 20 23 32 53 153 21 32 26704 215 21
internal_value=0 1.35019e-05 0.00129408 1.12496e-05 0.000187162 0.000937801 0.00177637 0.00254475 0.00476291 0.00713139 8.01253e-05 -0.000762969 -0.000119076 -0.000491934 0.000355032 -0.000174974 0.00121071 -0.000572778 -0.00113075 6.4361e-06 -0.000671404 -4.32814e-05 -2.12278e-05 0.000404078 -0.000201306 -0.000668443 -0.00101924 9.6761e-06 0.000276466 0.00177401
internal_weight=0 27908 49 27859 742 215 144 114 60 40 54 71 527 295 232 269 60 209 103 27117 129 96 208 73 185 77 56 26988 284 69
internal_count=217633 27908 49 27859 742 215 144 114 60 40 54 71 527 295 232 269 60 209 103 27117 129 96 208 73 185 77 56 26988 284 69
shrinkage=0.05


Tree=487
num_leaves=31
num_cat=0
split_feature=34 38 40 43 39 7 21 41 41 3 19 13 24 18 21 1 37 18 43 21 43 14 13 3 8 9 23 23 20 43
split_gain=0.00231417 0.0181648 0.0220229 0.0158024 0.0421058 0.0288769 0.0498803 0.0251678 0.260006 0.421568 0.366467 0.239431 0.251457 0.910731 0.197508 0.281231 0.215664 0.180513 0.138945 0.134879 0.249158 0.211017 0.188452 0.149941 0.130294 0.12148 0.117041 0.12602 0.116347 0.106265
threshold=0.20270750000000001 0.010018650000000002 -4.8282449999999999 0.80790999999999979 4.9405750000000011e-05 1.0181100000000002e-05 3.0686450000000005 -0.10141500000000002 0.040430000000000084 -11.042399999999999 1.4262400000000002e-07 2.2246450000000004e-05 -0.42581149999999995 2.9789650000000003e-06 4.2802450000000007 4.3945300000000005 -1.8701649999999998e-06 -5.6792399999999992e-06 -1.2170650000000005 -3.2639049999999998 -0.27803499999999998 0.0013992450000000001 -3.3894799999999993e-05 -15.867949999999999 7.1768150000000007e-06 3.0195150000000005e-05 -12.729499999999998 -11.469999999999999 -4.2474399999999992 -3.376385
decision_type=2 2 2 2 2 2 2 2 2 2 2 2 2 2 2 2 2 2 2 2 2 2 2 2 2 2 2 2 2 2
left_child=1 -1 -3 4 -2 6 -6 -7 9 14 -11 12 17 -14 15 16 26 -12 -13 28 21 -21 23 -23 -24 -20 -9 -28 -18 -16
right_child=3 2 -4 -5 5 7 -8 8 -10 10 11 18 13 -15 29 -17 19 -19 25 20 -22 22 24 -25 -26 -27 27 -29 -30 -31
leaf_value=2.0360633294450512e-06 0.0020416682479359833 0.0018655974002545657 0.00021803635361932104 7.6478224274347702e-06 -7.5049044729288047e-06 9.0769497056717239e-06 0.0024625059404511816 -0.00033911245442660792 -1.4458520690914609e-05 -0.0075192611912886301 0.00015960362434270793 0.003356334193085786 -0.010585067891262068 -0.0010505906192286472 0.00090974229018544203 0.0046918160347131027 -0.0041118556231429636 -0.0051791286561638124 0.00012558062644075108 0.007151815494289622 -0.00068097935134294233 0.0017313289875276567 -0.00063892415499837744 0.0074117777553120894 0.0036077711061807353 -0.0037531283899658813 -0.0069809314786696292 -0.0014352123145363294 -0.00019856931650282466 -0.002689783813315744
leaf_weight=159781 24 21 594 41358 60 7257 31 35 7466 30 76 24 39 70 26 34 22 20 80 20 117 26 73 21 24 27 21 20 139 97
leaf_count=159781 24 21 594 41358 60 7257 31 35 7466 30 76 24 39 70 26 34 22 20 80 20 117 26 73 21 24 27 21 20 139 97
internal_value=0 3.07997e-06 0.000274295 -8.63105e-06 -5.10305e-05 -5.41983e-05 0.000833927 -5.93251e-05 -0.000117676 -0.00085795 -0.00222439 -0.00175163 -0.00281859 -0.00446201 -0.000117037 0.000286695 -2.44411e-06 -0.000952632 -8.19542e-05 0.000420603 0.00108174 0.00233929 0.00167088 0.0042694 0.000411805 -0.000853159 -0.0024628 -0.0042757 -0.000733304 -0.00192891
internal_weight=0 160396 615 57237 15879 15855 91 15764 8507 1041 366 336 205 109 675 552 518 96 131 442 281 164 144 47 97 107 76 41 161 123
internal_count=217633 160396 615 57237 15879 15855 91 15764 8507 1041 366 336 205 109 675 552 518 96 131 442 281 164 144 47 97 107 76 41 161 123
shrinkage=0.05


Tree=488
num_leaves=31
num_cat=0
split_feature=10 37 28 12 30 21 1 15 7 26 11 26 36 26 40 3 6 3 36 13 28 22 21 2 40 17 20 28 12 43
split_gain=0.0022493 0.0116597 0.0296831 0.0481648 0.029052 0.0230813 0.068447 0.0209067 0.0625589 0.0210653 0.0293695 0.110473 0.0546673 0.0258938 0.0434901 0.0187431 0.0759191 0.025191 0.052678 0.0387686 0.0160284 0.0241094 0.0146222 0.0387649 0.0586703 0.132103 0.023013 0.0192116 0.0484252 0.014523
threshold=1.6290050000000002e-05 -4.8108399999999992e-07 -0.65584149999999986 -0.00018440399999999996 0.00032882100000000003 -9.853489999999999 -8.6073649999999979 6.7475600000000015e-05 3.3982100000000008e-05 -0.00016755599999999999 2.6990100000000001e-05 -0.00019299199999999998 -0.17249249999999997 -0.00015089299999999995 -0.32870999999999989 -19.074649999999995 -5.7203749999999994e-08 -17.495099999999997 -0.040164599999999995 -3.7996599999999988e-05 -0.25901299999999999 -1.9047249999999998 5.357330000000001 1.3921450000000002 0.2761725000000001 3.0227000000000002e-07 -1.0436899999999998 0.13760400000000003 0.00019908750000000003 0.16841000000000064
decision_type=2 2 2 2 2 2 2 2 2 2 2 2 2 2 2 2 2 2 2 2 2 2 2 2 2 2 2 2 2 2
left_child=1 2 3 -1 -4 6 -6 9 -9 10 -7 12 -12 14 -11 16 -15 18 -17 -20 21 -19 27 -24 25 26 -25 -22 -29 -8
right_child=-2 -3 4 -5 5 7 29 8 -10 13 11 -13 -14 15 -16 17 -18 20 19 -21 22 -23 23 24 -26 -27 -28 28 -30 -31
leaf_value=-0.0030618206528569797 2.0086192874441958e-06 3.3714690516418958e-07 -0.0015928619062774926 -0.00038140083481091305 -0.0027560485398299213 1.5556008944427726e-05 -0.00053842887149877232 0.0031880296862800608 -7.7462822292463068e-05 4.6779122035681772e-05 0.0024321975736529568 0.0040202034698185425 -8.9703125472089388e-05 -0.0011231741045921808 -0.0030545130059090302 -0.0025809808671328938 0.0027358184878092011 0.00012240056550415996 -0.0024144316627644005 -8.9975604006126722e-05 -4.6420290815654028e-05 -0.0022461143574522189 3.7109837759321347e-05 0.0004593797375902443 7.4023980250038305e-05 -0.0046618255935754862 -0.0016280347299154686 0.00016916418750828968 0.0027750938920126783 0.0005740177537281061
leaf_weight=21 188240 25000 31 83 31 1031 81 20 55 26 25 22 153 25 20 30 26 22 20 174 1869 21 267 31 73 28 23 118 21 46
leaf_count=21 188240 25000 31 83 31 1031 81 20 55 26 25 22 153 25 20 30 26 22 20 174 1869 21 267 31 73 28 23 118 21 46
internal_value=0 -1.28637e-05 -8.7988e-05 -0.000922639 -6.77493e-05 -5.66458e-05 -0.000649655 -3.37933e-05 0.000793335 -4.92056e-05 0.000123122 0.000677624 0.000264496 -0.000125131 -0.00130161 -0.000105437 0.000844155 -0.000123394 -0.000631133 -0.00032961 -7.74039e-05 -0.00103432 -6.04709e-05 -0.000328017 -0.000956977 -0.00187482 -0.000429704 -4.24361e-06 0.000562866 -0.000135495
internal_weight=0 29393 4393 104 4289 4258 158 4100 75 4025 1231 200 178 2794 46 2748 51 2697 224 194 2473 43 2430 422 155 82 54 2008 139 127
internal_count=217633 29393 4393 104 4289 4258 158 4100 75 4025 1231 200 178 2794 46 2748 51 2697 224 194 2473 43 2430 422 155 82 54 2008 139 127
shrinkage=0.05


Tree=489
num_leaves=31
num_cat=0
split_feature=18 24 4 40 41 40 44 44 34 16 21 21 4 40 1 3 21 10 30 16 1 3 44 21 11 2 17 20 21 40
split_gain=0.00227216 0.0369886 0.0746977 0.263799 0.102904 0.326679 0.218744 0.304475 0.486499 0.406805 0.374732 0.475495 0.348671 0.414605 0.338936 0.305836 0.25939 0.251652 0.612636 0.178678 0.175327 0.166067 0.157342 0.266087 0.284365 0.153307 0.152431 0.122722 0.109978 0.0901809
threshold=-1.4018299999999999e-05 -0.28484049999999994 -1.4133199999999999 -5.6825599999999996 0.37828249999999997 0.24966499999999994 4.0845250000000011 0.27512500000000012 1.5909750000000003 -7.0069149999999991e-06 -7.375894999999999 4.3518600000000012 -0.26743249999999991 0.077348000000000056 4.2601300000000011 -8.1804699999999979 8.0248800000000013 2.5132750000000004e-05 0.0050916450000000005 6.5238050000000013e-06 8.267730000000002 -13.614249999999998 0.71026 -4.8509399999999987 1.5647500000000006e-05 -0.68918149999999989 1.0891950000000004e-06 -0.8551494999999999 -2.0281699999999994 -0.058960000000000005
decision_type=2 2 2 2 2 2 2 2 2 2 2 2 2 2 2 2 2 2 2 2 2 2 2 2 2 2 2 2 2 2
left_child=1 2 -1 -4 5 6 7 10 12 -10 15 17 13 22 -13 26 -16 18 28 21 -18 -19 29 -24 27 -21 -5 -25 -12 -9
right_child=-2 -3 3 4 -6 -7 -8 8 9 -11 11 14 -14 -15 16 -17 20 19 -20 25 -22 -23 23 24 -26 -27 -28 -29 -30 -31
leaf_value=-4.207322331689475e-05 3.1003817159449761e-06 -2.6812951715774782e-05 0.005958357319468633 0.0037985602540605841 -0.00011753645473570136 -4.327934662825567e-05 -0.0013281304652789712 0.0044815906353861739 0.0032207635946438782 -0.0059169919326387613 0.00018768618189954266 0.0061961366122704935 -0.0015746401836319519 0.0092098134460684381 -0.00042292279467115153 0.00078379459578586236 0.0060583244187428671 0.0035292652453982123 -0.010436496456069026 -0.005745986584730892 0.00066149713281818011 -0.00010310915079924579 -0.00073722155767817256 0.0059945458225256799 0.0024810160497012973 -0.00064580323140523061 0.0090282835283274337 0.010884012544660697 -0.0039845129455154003 0.00093875429245200378
leaf_weight=5775 159056 48238 20 38 1612 1785 90 23 21 29 56 40 33 32 106 66 34 38 22 23 27 183 21 33 44 41 22 21 22 82
leaf_count=5775 159056 48238 20 38 1612 1785 90 23 21 29 56 40 33 32 106 66 34 38 22 23 27 183 21 33 44 41 22 21 22 82
internal_value=0 -8.41857e-06 7.74029e-05 0.000228581 0.000203361 0.00037979 0.00103818 0.00123967 0.00247468 -0.00207913 0.000656564 0.000129586 0.00326254 0.00388608 0.00206212 0.00313252 0.00107194 -0.000909466 -0.00306752 -0.000152254 0.00366956 0.000521462 0.00312554 0.00437031 0.00546479 -0.00247868 0.00571613 0.00789601 -0.000989088 0.0017148
internal_weight=0 58577 10339 4564 4544 2932 1147 1057 339 50 718 592 289 256 207 126 167 385 100 285 61 221 224 119 98 64 60 54 78 105
internal_count=217633 58577 10339 4564 4544 2932 1147 1057 339 50 718 592 289 256 207 126 167 385 100 285 61 221 224 119 98 64 60 54 78 105
shrinkage=0.05


Tree=490
num_leaves=31
num_cat=0
split_feature=44 24 4 38 18 44 18 24 4 40 40 16 23 6 37 3 37 44 36 16 24 4 19 37 40 40 23 20 8 6
split_gain=0.00247493 0.0127682 0.016772 0.00803036 0.0353468 0.00765789 0.0451865 0.191573 0.264136 0.26983 0.581448 0.303669 0.240912 0.254065 0.273218 0.201507 0.193503 0.166217 0.161968 0.105688 0.0893233 0.141299 0.159555 0.211007 0.295807 0.534851 0.250083 0.305988 0.268472 0.333191
threshold=2.4429550000000004 -1.7211949999999998 -0.26743249999999991 -1.0090899999999998 0.00082871750000000014 0.23534999999999953 3.8326850000000012e-06 0.24276500000000004 1.1247450000000001 -0.25142799999999998 0.354709 -7.7313249999999984e-06 -9.1724949999999978 -1.7906249999999997e-06 9.0834600000000011e-08 -8.7018349999999973 4.1234850000000007e-07 1.2627400000000006 -0.43959349999999991 -7.8838099999999994e-07 -0.19428249999999997 0.019144700000000004 0.00037934750000000005 -4.9967849999999993e-08 0.2761725000000001 -0.14969009999999991 -13.953099999999997 6.4251500000000012 1.4521400000000001e-05 -2.9396449999999995e-06
decision_type=2 2 2 2 2 2 2 2 2 2 2 2 2 2 2 2 2 2 2 2 2 2 2 2 2 2 2 2 2 2
left_child=5 2 -2 4 -3 -1 20 -8 9 -9 11 -11 16 -14 15 -15 17 19 -10 -13 21 22 23 24 25 -7 -27 28 29 -28
right_child=1 3 -4 -5 -6 6 7 8 18 10 -12 12 13 14 -16 -17 -18 -19 -20 -21 -22 -23 -24 -25 -26 26 27 -29 -30 -31
leaf_value=2.3167588459463176e-06 -0.001479615239165441 -0.00010034845190697677 -8.4304453259626891e-05 1.016162869183069e-05 0.0017368030401687267 0.00028827015136509242 -3.9519368783482666e-05 -0.00014244042126832225 0.0040487602840585174 -0.0026575528883508275 -1.4053461613257383e-05 0.00054743068960508236 0.0094906571485437411 0.0098153488456525599 0.00044225038284951418 0.0040551800950791462 0.00014793178384024943 0.0074916300755417491 -0.00010551980940798141 0.0040580857308188294 -0.00011947940059480636 -0.00041155129383224669 -1.1068830341264719e-05 1.9902961160615535e-05 -0.00012948878867221798 0.00042272156133549288 0.011168744694926621 -0.00053762029710924253 0.00078409147258339971 0.0047787358237495513
leaf_weight=137825 33 96 62 47291 36 270 8860 270 24 21 257 36 27 22 35 49 64 22 1048 53 16945 953 2084 694 277 56 24 30 33 136
leaf_count=137825 33 96 62 47291 36 270 8860 270 24 21 257 36 27 22 35 49 64 22 1048 53 16945 953 2084 694 277 56 24 30 33 136
internal_value=0 1.00886e-05 -0.000568991 1.12487e-05 0.000400693 -2.81804e-06 -2.47352e-05 5.87692e-05 0.000510448 0.00116537 0.00176795 0.00315997 0.00355662 0.00516066 0.00405774 0.00584002 0.00233754 0.00360002 -1.25135e-05 0.00263805 -6.6631e-05 0.000129883 0.000273054 0.000662601 0.00120259 0.0018747 0.00340995 0.00416011 0.00489033 0.00573724
internal_weight=0 47518 95 47423 132 170115 32290 10788 1928 856 586 329 308 133 106 71 175 111 1072 89 21502 4557 3604 1520 826 549 279 223 193 160
internal_count=217633 47518 95 47423 132 170115 32290 10788 1928 856 586 329 308 133 106 71 175 111 1072 89 21502 4557 3604 1520 826 549 279 223 193 160
shrinkage=0.05


Tree=491
num_leaves=31
num_cat=0
split_feature=34 43 30 6 2 41 41 3 19 43 44 37 8 21 13 33 18 24 34 23 14 43 21 5 5 18 3 8 34 28
split_gain=0.00265623 0.0159764 0.0451236 0.0630111 0.0446044 0.0256325 0.25648 0.447003 0.341156 0.222853 0.18096 0.244289 0.311796 0.222166 0.170407 0.208369 0.713741 0.885342 0.169031 0.245837 0.201069 0.23836 0.333397 0.298791 0.23768 0.157742 0.139936 0.13309 0.12728 0.120888
threshold=0.20270750000000001 0.80790999999999979 0.00081747500000000012 9.362525000000001e-07 3.0794900000000003 -0.10141500000000002 0.057875000000000128 -11.042399999999999 2.0365400000000003e-07 -0.99152500000000054 -0.31477499999999997 6.710375000000001e-07 -6.8290849999999985e-06 -4.6302799999999991 2.2246450000000004e-05 2.5314900000000001e-05 1.1699350000000001e-06 0.41602950000000005 0.24594850000000004 -12.298649999999999 0.041697100000000008 -0.99152500000000054 4.6258850000000011 1.4404800000000001e-05 1.1911150000000002e-05 -4.8450849999999989e-07 -15.164099999999999 7.1768150000000007e-06 0.56775900000000001 -0.025004749999999996
decision_type=2 2 2 2 2 2 2 2 2 2 2 2 2 2 2 2 2 2 2 2 2 2 2 2 2 2 2 2 2 2
left_child=-1 2 3 -2 5 -4 7 10 -9 28 11 -7 -13 -12 15 16 17 -11 19 -15 21 22 23 24 26 -17 -20 -25 -10 -23
right_child=1 -3 4 -5 -6 6 -8 8 9 14 13 12 -14 18 -16 25 -18 -19 20 -21 -22 29 -24 27 -26 -27 -28 -29 -30 -31
leaf_value=3.299758268763781e-06 0.00022032724214991425 7.1213250005236959e-06 7.2964325806718523e-06 0.0032743908891764784 0.0017250527121359484 -0.00021758029489722777 -1.1709476546410683e-05 -0.0065934165655515894 0.0033618729522762202 -0.0027761502223174004 -0.0018781376522126422 -0.0093516081606503567 -0.0012365882686371434 0.0056383275463686962 -0.00071459842052009888 -0.00023715915169625937 -0.0011076613956232139 -0.017311441706260668 0.00094286802499978385 -0.0010031677564918274 -0.0031532546102597905 -0.0021844636575429656 -0.0023721287134321756 -0.00049107503247163866 0.010317151173949242 -0.0051079424260189465 0.0067216006698436115 0.0043127919455790628 -0.0010478342601951832 0.00035986147128617166
leaf_weight=160396 57 41358 7241 24 35 97 7361 39 30 22 99 20 29 38 113 68 57 20 22 22 37 62 32 46 20 22 20 21 36 189
leaf_count=160396 57 41358 7241 24 35 97 7361 39 30 22 99 20 29 38 113 68 57 20 22 22 37 62 32 46 20 22 20 21 36 189
internal_value=0 -9.24696e-06 -5.18793e-05 0.00112523 -5.79147e-05 -6.18735e-05 -0.000120646 -0.000811329 -0.00214669 -0.00167543 -9.05193e-05 -0.00167122 -0.00454884 0.000289058 -0.00225064 -0.00316901 -0.00475193 -0.00969772 0.000710575 0.00320311 0.000377496 0.000694578 0.00219621 0.00332944 0.00583094 -0.0014278 0.00369465 0.00101461 0.000956578 -0.000268617
internal_weight=0 57237 15879 81 15798 15763 8522 1161 407 368 754 146 49 608 302 189 99 42 509 60 449 412 161 129 62 90 42 67 66 251
internal_count=217633 57237 15879 81 15798 15763 8522 1161 407 368 754 146 49 608 302 189 99 42 509 60 449 412 161 129 62 90 42 67 66 251
shrinkage=0.05


Tree=492
num_leaves=31
num_cat=0
split_feature=13 32 10 7 3 19 25 33 44 10 21 19 33 19 33 37 18 37 33 38 24 11 22 3 28 3 43 3 25 33
split_gain=0.00253001 0.011349 0.0604959 0.0271384 0.0101303 0.00995453 0.00763658 0.010369 0.0202597 0.0126527 0.00686529 0.00641829 0.0318517 0.00793535 0.102225 0.0190454 0.0159491 0.00786288 0.0166724 0.00741751 0.00891604 0.0310436 0.00769561 0.0179 0.00651535 0.00591593 0.027882 0.0288028 0.0655828 0.0263857
threshold=0.00014699600000000001 20.036400000000004 2.0928800000000005e-05 3.6018400000000007e-05 -11.586999999999998 1.2683350000000002e-07 87.628850000000014 0.00018972300000000001 6.3761350000000014 2.3665400000000002e-05 0.93373450000000013 6.4033200000000016e-05 -3.9040499999999993e-05 0.00051133100000000018 -0.00014064699999999996 -5.2213149999999988e-06 -0.0035278599999999994 -4.0691899999999991e-07 -2.9943699999999996e-05 -1.0090899999999998 1.5291850000000002 7.6561400000000015e-05 -0.28109449999999997 -11.976899999999999 1.9114100000000003 -15.040049999999999 -3.7428349999999995 -18.627349999999996 1.5225300000000004 -0.00028142099999999996
decision_type=2 2 2 2 2 2 2 2 2 2 2 2 2 2 2 2 2 2 2 2 2 2 2 2 2 2 2 2 2 2
left_child=-1 5 -3 -4 -5 -2 11 8 10 -9 -8 12 -7 14 -13 -16 -17 18 -18 22 24 -22 23 -15 25 26 -21 28 -28 -29
right_child=1 2 3 4 -6 6 7 9 -10 -11 -12 13 -14 19 15 16 17 -19 -20 20 21 -23 -24 -25 -26 -27 27 29 -30 -31
leaf_value=-2.4508526040841037e-06 0.00090580980490079634 0.0026894960957579315 0.001626677367312368 -0.0011789053538011323 -4.0748933921956151e-05 -0.0021727768506389113 -0.00071649234172503423 -0.001540256986030225 0.0014397999422120242 -0.00030079668824942982 0.00012206317945898404 0.0030853038577459239 -2.9417504126915726e-05 -0.0017992662498727441 0.0015368995597999033 0.0013011014998374263 -0.0016718330991517924 2.9576593224632451e-05 -7.3024529549348664e-05 2.6572165390036314e-05 0.0021645504473417529 -0.00055723940293484538 -7.1455050990562981e-05 -1.3647087723711594e-05 0.00071215528075823167 1.7595320658724816e-05 0.00021384079130560473 0.0015644272695118117 -0.003253654261119664 -0.00022334383385450943
leaf_weight=180357 31 25 20 29 60 20 46 29 21 71 52 29 130 25 21 23 22 555 63 3862 20 22 102 32 33 30657 30 21 25 1200
leaf_count=180357 31 25 20 29 60 20 46 29 21 71 52 29 130 25 21 23 22 555 63 3862 20 22 102 32 33 30657 30 21 25 1200
internal_value=0 1.18583e-05 0.000471177 -3.76114e-05 -0.000411609 1.02011e-05 9.45301e-06 -0.00028493 3.04574e-05 -0.00066024 -0.000271545 1.12005e-05 -0.000315199 1.25331e-05 0.000177711 5.44362e-05 7.48035e-06 -3.90092e-05 -0.000486834 9.26425e-06 1.07747e-05 0.000738851 -0.000331489 -0.000796813 9.9212e-06 9.2738e-06 -4.03784e-05 -0.000243014 -0.00136229 -0.000192596
internal_weight=0 37276 134 109 89 37142 37111 219 119 100 98 36892 150 36742 713 684 663 640 85 36029 35870 42 159 57 35828 35795 5138 1276 55 1221
internal_count=217633 37276 134 109 89 37142 37111 219 119 100 98 36892 150 36742 713 684 663 640 85 36029 35870 42 159 57 35828 35795 5138 1276 55 1221
shrinkage=0.05


Tree=493
num_leaves=31
num_cat=0
split_feature=21 3 36 5 29 7 40 40 43 43 40 11 20 43 1 7 1 20 40 1 10 13 29 23 31 8 1 40 15 1
split_gain=0.00240888 0.00906673 0.041742 0.00884628 0.028047 0.00859554 0.0304794 0.0473322 0.00937582 0.0338912 0.0796328 0.223991 0.0622981 0.0965828 0.0238723 0.024417 0.02248 0.0197832 0.0237439 0.0186964 0.0161289 0.0136747 0.0524744 0.0325169 0.0175061 0.016073 0.0326241 0.0346673 0.0290772 0.0282229
threshold=13.390900000000002 -4.7500199999999992 0.00049241950000000008 7.9290400000000026e-06 -0.58729449999999994 2.6525600000000002e-05 0.039429999999999972 0.46240350000000002 1.9902050000000007 0.55890500000000032 -0.19934349999999995 6.3446200000000008e-06 -3.4270099999999997 1.3507450000000001 12.027950000000002 4.3412800000000006e-05 10.319000000000001 19.256550000000001 -0.74380499999999983 8.267730000000002 2.0760350000000002e-05 0.00020297300000000004 0.41922450000000006 -10.914099999999999 4.5971550000000008 -4.7438199999999996e-05 10.829750000000002 0.12375499999999996 -6.5679299999999979e-08 5.9655550000000011
decision_type=2 2 2 2 2 2 2 2 2 2 2 2 2 2 2 2 2 2 2 2 2 2 2 2 2 2 2 2 2 2
left_child=-1 3 -3 4 -2 6 -5 -8 9 21 -11 12 13 -12 16 -16 17 19 -19 20 -10 23 -23 -7 25 -25 29 28 -28 -27
right_child=1 2 -4 5 -6 8 7 -9 14 10 11 -13 -14 -15 15 -17 -18 18 -20 -21 -22 22 -24 24 -26 26 27 -29 -30 -31
leaf_value=-6.4737892293820125e-07 0.0021204309426442101 0.0024634672256070192 -0.00055029350041877476 0.00011623036879195371 5.3107293662227068e-05 -0.0018623582842410545 -0.0028170984636884757 -0.00023558455910850691 0.0011749022934853918 -5.381620773872643e-05 -0.00034759312428915031 0.004777030064881704 -0.00041077483483181721 0.0044532566002453682 -0.0001334204664349922 -0.0022832551359388163 0.0012091708157694323 -4.3519513471232304e-05 -0.0020716565902586335 -0.00086756802899551333 1.8858058712629083e-05 0.00011699999560359789 0.002630857955095549 -0.0013246817053700595 -0.0010880788699395431 6.1190908125285693e-05 0.0031729906805346465 -0.00051745334127664808 0.00065642402890565181 -0.00054657894176120736
leaf_weight=214386 21 20 27 173 75 25 26 56 33 260 22 37 86 20 28 25 34 31 27 55 352 368 22 23 39 1060 22 23 24 233
leaf_count=214386 21 20 27 173 75 25 26 56 33 260 22 37 86 20 28 25 34 31 27 55 352 368 22 23 39 1060 22 23 24 233
internal_value=0 4.27438e-05 0.000732158 3.2618e-05 0.000505334 1.79979e-05 -0.000260115 -0.00105411 4.28905e-05 8.89976e-05 0.00049141 0.00135055 0.000360089 0.00193853 -0.000135548 -0.00114749 -3.47339e-05 -0.000119659 -0.000987652 -5.24188e-06 0.000117948 -4.00154e-06 0.000258807 -7.47369e-05 -4.3353e-05 -1.39348e-05 8.19972e-06 0.00106752 0.00186 -4.83299e-05
internal_weight=0 3247 47 3200 96 3104 255 82 2849 2264 425 165 128 42 585 53 532 498 58 440 385 1839 390 1449 1424 1385 1362 69 46 1293
internal_count=217633 3247 47 3200 96 3104 255 82 2849 2264 425 165 128 42 585 53 532 498 58 440 385 1839 390 1449 1424 1385 1362 69 46 1293
shrinkage=0.05


Tree=494
num_leaves=31
num_cat=0
split_feature=34 38 2 43 2 27 6 41 41 3 43 4 24 43 18 24 21 20 20 43 40 44 43 12 13 10 14 34 12 21
split_gain=0.00239588 0.0159326 0.0200328 0.0142695 0.0399539 0.0355504 0.0862022 0.0228721 0.227694 0.363242 0.235294 0.220482 0.892204 0.462521 0.319419 0.163055 0.156188 0.154754 0.26074 0.492624 0.158774 0.152913 0.22708 0.133082 0.153538 0.118926 0.114802 0.113473 0.0793939 0.118326
threshold=0.20270750000000001 0.010018650000000002 -2.8979349999999995 0.80790999999999979 3.0794900000000003 0.31820000000000009 9.362525000000001e-07 -0.10141500000000002 0.040430000000000084 -11.042399999999999 -1.1067849999999997 0.14946850000000003 -0.42581149999999995 -0.026199999999999776 -7.8593299999999982e-06 -0.59879749999999998 8.1649450000000012 -2.1023349999999996 1.9003050000000001 -0.99152500000000054 0.039429999999999972 3.2439200000000006 -1.9691099999999999 0.00017661200000000001 -3.7996599999999988e-05 2.7183000000000004e-05 0.0025934100000000004 0.26856750000000007 6.7631250000000007e-05 -0.52329599999999987
decision_type=2 2 2 2 2 2 2 2 2 2 2 2 2 2 2 2 2 2 2 2 2 2 2 2 2 2 2 2 2 2
left_child=1 -1 -3 4 5 6 -2 -7 9 16 15 12 14 -14 25 -11 17 23 19 21 -21 22 -19 24 -9 -12 -13 -20 29 -29
right_child=3 2 -4 -5 -6 7 -8 8 -10 10 11 26 13 -15 -16 -17 -18 18 27 20 -22 -23 -24 -25 -26 -27 -28 28 -30 -31
leaf_value=2.1562093408315956e-06 -7.7161874563045087e-05 0.0017748399534390218 0.00020348222285611892 6.6870641327728818e-06 0.0016383986703086913 7.5190200062000297e-06 0.003751708311236663 0.0032164537735904254 -1.7367702021081951e-05 0.0034595975010045647 0.0012529615055579294 -0.00033822284149033141 -0.015501589525956662 -0.0053878214031171344 -0.0074829770188080159 -0.0016439054675763201 -0.0037697904945941576 0.01028582403774966 0.0016284316840415643 -0.0011522442839405915 0.0030479368016434211 0.0012040855456143618 0.003871176790365811 -0.0038759877240019183 -0.0010849833617053827 -0.0020739062610044159 -0.0041153506934642793 -0.0015064357951614954 -0.0026539208263094572 0.0017833162747215615
leaf_weight=159781 49 21 594 41358 35 7247 21 24 7494 29 48 103 20 26 20 34 28 22 47 90 30 20 37 35 153 61 25 82 58 41
leaf_count=159781 49 21 594 41358 35 7247 21 24 7494 29 48 103 20 26 20 34 28 22 47 90 30 20 37 35 153 61 25 82 58 41
internal_value=0 3.13388e-06 0.000257138 -8.78211e-06 -4.90727e-05 -5.28004e-05 0.0010715 -5.77896e-05 -0.000113295 -0.000809207 -0.00207493 -0.00265301 -0.00380652 -0.00978511 -0.00167462 0.000705326 -0.00011467 4.54921e-05 0.000593763 0.00191628 -0.000102199 0.00498232 0.00626308 -0.00105881 -0.000501738 -0.000608864 -0.00107594 -0.000560539 -0.00112895 -0.000409852
internal_weight=0 160396 615 57237 15879 15844 70 15774 8527 1033 366 303 175 46 129 63 667 639 427 199 120 79 59 212 177 109 128 228 181 123
internal_count=217633 160396 615 57237 15879 15844 70 15774 8527 1033 366 303 175 46 129 63 667 639 427 199 120 79 59 212 177 109 128 228 181 123
shrinkage=0.05


Tree=495
num_leaves=31
num_cat=0
split_feature=20 2 31 40 29 9 8 1 2 16 2 43 21 0 1 2 36 10 12 13 1 4 0 3 20 0 9 32 16 2
split_gain=0.00233044 0.0281955 0.13478 0.0188977 0.0104633 0.0262498 0.0437786 0.0530275 0.0410335 0.146785 0.0292016 0.0286809 0.0215799 0.24122 0.031472 0.0245425 0.0434352 0.0207828 0.0509621 0.0174662 0.0174621 0.0202954 0.0130403 0.0279486 0.0180356 0.0126851 0.0177482 0.0375167 0.0550805 0.0236831
threshold=-10.268199999999998 3.0333000000000006 2.3607850000000004 0.039429999999999972 0.70424300000000006 -4.7071399999999991e-05 -7.6371749999999986e-06 -4.4631249999999989 -2.6524249999999996 2.1216150000000003e-07 -2.3232449999999996 6.9941450000000005 -6.9314949999999991 -11.801599999999999 -12.640099999999999 -3.0795949999999999 9.5098800000000019e-05 1.5224150000000001e-05 -6.8312649999999984e-05 -3.7996599999999988e-05 -4.5317299999999987 -0.29052249999999996 -12.520849999999998 -5.7274249999999993 -14.223749999999997 -10.244649999999998 -1.8179499999999994e-05 -1.5525049999999998 -2.4990899999999996e-06 2.6198050000000004
decision_type=2 2 2 2 2 2 2 2 2 2 2 2 2 2 2 2 2 2 2 2 2 2 2 2 2 2 2 2 2 2
left_child=1 4 3 -3 12 6 19 -8 9 -7 -10 -9 13 -1 -15 16 -14 18 -16 -6 21 -19 23 -17 -25 -12 27 28 -27 -29
right_child=-2 2 -4 -5 5 8 7 11 10 -11 25 -13 15 14 17 22 -18 20 -20 -21 -22 -23 -24 24 -26 26 -28 29 -30 -31
leaf_value=0.0044053511398969396 -1.305752732537106e-06 0.0010973928785201028 0.004221209147932393 -0.00024416572675233639 0.0015150150710334337 -0.0010087165921167643 -7.1785593471036127e-05 -0.0035901609475591355 -0.0016532909733359702 0.004642770882637706 0.0010213544641513952 -0.0011457398190118726 -9.9756351523360047e-06 0.0018556124266676005 0.0029506056308355256 -0.0018809672450235946 0.0028513522863726224 -0.0016360907816003118 -0.00018206866293808531 -0.00042373371171169525 9.2535485713081891e-05 -0.00023721283948534698 1.3414835021655986e-05 -0.0011886202047614797 -2.2153352776256859e-05 -0.0034825994686054234 1.0147697926707925e-05 -0.00033016414721974538 -0.00051457515709679919 0.0016742475883802399
leaf_weight=34 204602 35 23 105 21 27 39 28 30 20 26 21 36 24 20 26 21 33 37 26 387 121 10771 38 259 22 671 56 54 20
leaf_count=34 204602 35 23 105 21 27 39 28 30 20 26 21 36 24 20 26 21 33 37 26 387 121 10771 38 259 22 671 56 54 20
internal_value=0 2.05019e-05 0.000673983 9.12239e-05 1.22242e-05 -0.00013818 -0.000789529 -0.00144755 -4.32212e-05 0.00139617 -0.000120185 -0.00254255 2.57398e-05 0.000304436 8.02697e-05 9.34446e-06 0.0010442 9.01849e-06 0.000917115 0.000442516 -8.6659e-05 -0.000536972 4.02747e-06 -0.000309011 -0.000171398 -6.6012e-05 -0.000100364 -0.000588214 -0.00137374 0.000197313
internal_weight=0 13031 163 140 12868 1061 135 88 926 47 879 49 11807 656 622 11151 57 598 57 47 541 154 11094 323 297 849 823 152 76 76
internal_count=217633 13031 163 140 12868 1061 135 88 926 47 879 49 11807 656 622 11151 57 598 57 47 541 154 11094 323 297 849 823 152 76 76
shrinkage=0.05


Tree=496
num_leaves=31
num_cat=0
split_feature=21 40 40 3 5 1 44 3 19 32 23 15 16 25 17 37 7 17 40 40 13 20 35 3 44 19 12 0 1 19
split_gain=0.00227373 0.00830715 0.0164471 0.0519145 0.0366689 0.0439011 0.0438613 0.117384 0.245264 0.0958801 0.0738002 0.0702841 0.0822928 0.055561 0.0538228 0.0397028 0.0384439 0.0328279 0.0304826 0.0442389 0.0382524 0.0266976 0.0377918 0.0282769 0.035785 0.0621541 0.0274117 0.0168186 0.0112991 0.00721427
threshold=13.390900000000002 1.3818860000000004 -0.51801999999999981 -4.8298799999999993 4.5981050000000003e-05 -6.9135299999999988 -0.23675500000000002 -7.9686699999999986 6.8566600000000009e-05 7.7527300000000006 -8.8007399999999993 -4.3823949999999997e-07 1.0552950000000002e-06 44.542100000000012 6.0555850000000007e-09 1.5720100000000002e-06 0.00014486400000000003 -2.2078049999999998e-07 0.039429999999999972 -0.19934349999999995 6.5388950000000007e-06 -10.825549999999998 -0.45169549999999997 -6.4166599999999994 0.7622899999999998 2.7427600000000005e-05 4.2942200000000004e-05 5.0081900000000008 12.302700000000002 3.0721050000000003e-05
decision_type=2 2 2 2 2 2 2 2 2 2 2 2 2 2 2 2 2 2 2 2 2 2 2 2 2 2 2 2 2 2
left_child=-1 2 28 4 5 -4 7 8 -7 10 13 17 14 -8 -13 -10 -6 -9 19 -16 29 -12 -23 24 25 -24 -25 -26 -2 -20
right_child=1 -3 3 -5 16 6 9 11 15 -11 21 12 -14 -15 18 -17 -18 -19 20 -21 -22 22 23 26 27 -27 -28 -29 -30 -31
leaf_value=-6.2895616562830665e-07 -3.0533216539344867e-06 -0.0001870995834140733 -0.001810792270116508 0.0026340627008308234 -0.0025154652441851796 0.0069690282141726297 -0.0040525625294139901 -0.0030486428295262158 0.0019716133210749831 0.0024346807607798838 -0.0014880382922624617 0.0026375981640409342 0.0030971626072763079 -0.00041128714874503206 -0.00030305028733838461 -0.00117889613378793 3.6810325723814059e-05 -0.00018386268071253655 0.00063858445568863926 0.0023552482859392106 -0.0022701570286501565 0.0020200902468059212 -0.0028584924797178247 5.2569614642076579e-05 7.3990901460077474e-06 0.00022302641425792698 0.002526165864297322 0.0015047343236801681 -0.0010150385020616731 -0.00028428321927138873
leaf_weight=214386 1850 354 25 22 25 22 20 20 20 39 27 22 30 22 34 20 36 20 30 29 23 25 30 24 301 36 21 20 28 72
leaf_count=214386 1850 354 25 22 25 22 20 20 20 39 27 22 30 22 34 20 36 20 30 29 23 25 30 24 301 36 21 20 28 72
internal_value=0 4.15274e-05 6.95032e-05 0.000231667 0.000178442 0.000256174 0.000313147 0.000760055 0.0027286 4.26289e-05 -0.000134729 0.000324164 0.000647567 -0.00214523 0.000297625 0.000396359 -0.0010092 -0.00161625 2.3798e-05 0.000920611 -0.000428196 3.97363e-05 0.000129999 2.06184e-05 -0.000117323 -0.00117766 0.00120691 0.000100691 -1.81415e-05 -1.28516e-05
internal_weight=0 3247 2893 1015 993 932 907 342 62 565 526 280 240 42 210 40 61 40 188 63 125 484 457 432 387 66 45 321 1878 102
internal_count=217633 3247 2893 1015 993 932 907 342 62 565 526 280 240 42 210 40 61 40 188 63 125 484 457 432 387 66 45 321 1878 102
shrinkage=0.05


Tree=497
num_leaves=31
num_cat=0
split_feature=10 32 13 6 30 15 35 28 18 4 2 2 33 36 7 36 40 40 22 43 43 32 5 40 38 8 36 25 25 16
split_gain=0.00224976 0.0116986 0.0602497 0.0559521 0.0435614 0.0318062 0.0153163 0.0153071 0.057482 0.106306 0.0497129 0.0323441 0.0358609 0.0335258 0.0355125 0.0152717 0.0207746 0.0606199 0.0699907 0.0498183 0.0821806 0.0156943 0.0873848 0.14236 0.028165 0.0302004 0.0128274 0.104316 0.0295204 0.0362696
threshold=1.6290050000000002e-05 11.695650000000002 1.4393350000000002e-05 -4.0493649999999993e-07 0.16934650000000004 -1.9731699999999997e-07 0.67406600000000017 -0.39445199999999997 -0.0011457799999999997 -2.2787549999999999 -1.9349399999999999 -1.6619399999999998 0.00023007250000000004 -0.60180299999999987 2.6525600000000002e-05 0.18330700000000003 -0.22452634999999985 0.43531000000000003 1.7143050000000002 2.4693750000000008 -1.3362800000000006 2.6219150000000004 9.4354350000000019e-06 0.74319900000000005 -0.11222949999999998 1.2071550000000001e-05 0.046686200000000004 2.6373500000000001 2.9280800000000005 5.5858500000000015e-07
decision_type=2 2 2 2 2 2 2 2 2 2 2 2 2 2 2 2 2 2 2 2 2 2 2 2 2 2 2 2 2 2
left_child=1 7 5 6 -5 -3 -4 8 9 -1 -10 12 -12 14 -13 21 -17 18 19 20 -18 26 23 -23 25 -24 -9 -28 -29 -30
right_child=-2 2 3 4 -6 -7 -8 15 10 -11 11 13 -14 -15 -16 16 17 -19 -20 -21 -22 22 24 -25 -26 -27 27 28 29 -31
leaf_value=-0.00053622344296854862 2.0088231621849171e-06 0.0018763819181633432 0.00074278995118220342 -0.0039811287471675314 -0.00096598754171282062 -6.984309106090624e-05 -0.0011135949339222862 -1.7800209601487858e-05 0.0023380947478353451 0.0045572769595808157 -0.0022577564255698234 2.2323516459437089e-05 0.00010936402957213432 -6.2614943323903793e-05 0.003001941830443684 -3.24801047825601e-06 -0.001262591119202074 -6.2431632189174422e-05 0.0010755494480863923 -0.00031608944902053248 -0.0049821504917754618 0.0055132139939814808 -0.0001773003508231118 -9.9913312754194664e-06 -0.0015316919045289979 0.0019547088161925787 0.0027365512019285557 -0.0014294161347834233 -0.00010899779823568019 0.00058126893128630645
leaf_weight=20 188240 26 25 25 23 109 20 26905 23 21 32 20 32 218 20 416 33 221 21 26 27 20 98 28 30 20 38 32 581 283
leaf_count=20 188240 26 25 25 23 109 20 26905 23 21 32 20 32 218 20 416 33 221 21 26 27 20 98 28 30 20 38 32 581 283
internal_value=0 -1.2865e-05 -0.000369627 -0.0013489 -0.00253637 0.000304985 -8.227e-05 -1.0076e-05 0.000302697 0.00207264 9.23562e-05 -6.80537e-05 -0.0010742 0.000181532 0.00151213 -1.42711e-05 -0.000237855 -0.000535405 -0.00151229 -0.00214421 -0.00293639 -8.33755e-06 0.000437513 0.00229134 -0.00016373 0.000184057 -1.14765e-05 0.000170684 6.18639e-05 0.000117097
internal_weight=0 29393 228 93 48 135 45 29165 386 41 345 322 64 258 40 28779 744 328 107 86 60 28035 196 48 148 118 27839 934 896 864
internal_count=217633 29393 228 93 48 135 45 29165 386 41 345 322 64 258 40 28779 744 328 107 86 60 28035 196 48 148 118 27839 934 896 864
shrinkage=0.05


Tree=498
num_leaves=31
num_cat=0
split_feature=2 22 12 29 40 31 22 22 21 40 21 27 21 34 1 37 32 40 40 29 34 4 40 20 2 2 2 2 2 10
split_gain=0.00226428 0.0719899 0.250747 0.0486337 0.0798403 0.0373766 0.0214329 0.0176457 0.0565583 0.0382571 0.117598 0.050914 0.0618623 0.119934 0.0681802 0.0480684 0.0332457 0.0281201 0.0250544 0.0157575 0.00814869 0.00556993 0.00500444 0.00403232 0.0277851 0.0281591 0.115657 0.0285567 0.0447841 0.0264127
threshold=-2.9481199999999999 3.0909850000000003 -1.1550849999999998e-05 0.24911750000000002 -0.17527649999999997 2.3607850000000004 2.7533050000000006 -3.0611199999999994 -1.4816349999999998 -0.25142799999999998 0.26237100000000008 0.18787850000000003 -1.9516699999999998 0.012298850000000002 -0.98331399999999991 -1.4332649999999998e-07 0.032964150000000005 0.02582950000000005 0.010257000000000018 0.020263550000000002 0.020803550000000004 -0.96247749999999999 -0.011175000000000155 -12.926599999999999 -2.8979349999999995 -2.7519549999999997 -2.6812799999999997 -2.6029249999999995 -2.5508599999999997 4.0563250000000008e-05
decision_type=2 2 2 2 2 2 2 2 2 2 2 2 2 2 2 2 2 2 2 2 2 2 2 2 2 2 2 2 2 2
left_child=1 3 -3 5 6 7 21 8 -1 -9 11 22 18 -14 20 -16 -17 -10 19 -13 -15 -5 -11 24 -2 -26 -27 29 -29 -28
right_child=23 2 -4 4 -6 -7 -8 9 17 10 -12 12 13 14 15 16 -18 -19 -20 -21 -22 -23 -24 -25 25 26 27 28 -30 -31
leaf_value=0.0025679719470510331 0.0017870611327057502 -0.0011372851044089819 0.0053855695391575864 -0.00090087704244069767 -0.0035062506177928297 0.0017646506348996652 -0.0018203596247906757 -9.7696873320764431e-06 0.00092014545973922535 2.7182652229384988e-05 0.0020579952604940013 -1.6411163652754531e-05 -0.0054615064425161111 -0.00095972251525381583 -0.00059674030812659673 -0.0047816080239664934 -0.0019649378015310507 -0.0013013097264273053 0.0013828782585915179 -0.001624465409840923 0.00026189436713710081 1.9773495153893475e-05 0.00095871234617724054 -7.5071504439565776e-08 -0.00080524684273098647 0.0028103346825350617 -0.0025746959014213647 0.0019754217371034124 3.4335728949632449e-05 -6.4110321215015247e-05
leaf_weight=27 23 34 26 20 25 29 23 4525 28 46 38 39 20 20 23 22 20 29 20 25 43 92 21 209083 95 38 20 30 3127 22
leaf_count=27 23 34 26 20 25 29 23 4525 28 46 38 39 20 20 23 22 20 29 20 25 43 92 21 209083 95 38 20 30 3127 22
internal_value=0 -3.26134e-05 0.00168929 -5.2733e-05 -0.000910768 -2.51379e-05 -0.000430123 -3.5632e-05 0.000682873 -4.80455e-05 -0.000561986 -0.00089496 -0.00124559 -0.00186069 -0.00129806 -0.00243414 -0.00344034 -0.000210069 -0.000161835 -0.000644557 -0.000125921 -0.000144628 0.000319155 7.97534e-07 5.51782e-05 4.32234e-05 6.81245e-05 3.55505e-05 5.27813e-05 -0.00125963
internal_weight=0 5195 60 5135 160 4975 135 4946 84 4862 337 299 232 148 128 65 42 57 84 64 63 112 67 212438 3355 3332 3237 3199 3157 42
internal_count=217633 5195 60 5135 160 4975 135 4946 84 4862 337 299 232 148 128 65 42 57 84 64 63 112 67 212438 3355 3332 3237 3199 3157 42
shrinkage=0.05


Tree=499
num_leaves=31
num_cat=0
split_feature=34 38 22 43 30 37 2 19 22 36 43 16 4 21 12 40 40 2 4 38 10 21 6 25 4 12 9 14 3 17
split_gain=0.00225788 0.0142894 0.0195453 0.0129785 0.038202 0.0586568 0.0355729 0.0247218 0.104996 0.0542302 0.0243193 0.0895237 0.15281 0.022878 0.0647252 0.101257 0.400998 0.293314 0.189088 0.251657 0.205277 0.177418 0.159588 0.135475 0.223748 0.114056 0.110252 0.0912784 0.0797714 0.117961
threshold=0.20270750000000001 0.010018650000000002 3.0909850000000003 0.80790999999999979 0.00081747500000000012 4.6928000000000003e-07 3.0794900000000003 3.865525000000001e-10 -2.7041249999999994 -0.17249249999999997 0.76755000000000007 -3.5429899999999995e-08 -0.039029899999999999 -4.5569299999999986 -2.1362649999999998e-05 -0.14969009999999991 0.14973499999999998 -2.1984249999999999 0.22808000000000003 -0.032169599999999993 3.3886950000000006e-05 -8.4289549999999984 -1.2331049999999998e-06 2.7306300000000001 -0.13885249999999996 -0.00019998049999999997 4.9401950000000002e-05 0.0025934100000000004 -14.389699999999999 5.3722100000000007e-06
decision_type=2 2 2 2 2 2 2 2 2 2 2 2 2 2 2 2 2 2 2 2 2 2 2 2 2 2 2 2 2 2
left_child=1 -1 -3 4 5 -2 7 8 -6 -10 13 12 -12 14 15 26 18 -18 19 -17 23 27 -22 25 -25 -21 -9 -20 -23 -30
right_child=3 2 -4 -5 6 -7 -8 10 9 -11 11 -13 -14 -15 -16 16 17 -19 21 20 22 28 -24 24 -26 -27 -28 -29 29 -31
leaf_value=2.1164048735103886e-06 0.00013712222338913956 0.00018803276462274365 0.0016736391110538061 6.2273923645142173e-06 0.0037344551099522507 0.0030499021668510978 0.0015397562065377966 -9.4683097536565726e-05 0.0022266083435776335 -0.00015722398095898294 -0.0053787539012061999 0.0003740889481793411 -0.00021512368576072491 -1.7649174043821506e-05 3.2949553916330351e-05 -0.0078324777630927132 0.0045384425048456143 -0.00021816912646026212 -0.00078288320794606342 -0.0017485179848247959 -0.0086861881666118277 -0.0021422608592547476 -0.0025792255476952287 -0.0015107436048680568 -0.0072364336666872814 0.0026138693893103509 0.0030801072335244891 -0.0052416614504181783 0.00010909937071736972 0.0043969889525729026
leaf_weight=159781 56 592 23 41358 22 25 35 1171 27 205 23 81 38 10685 2376 23 34 693 22 31 20 20 23 91 21 29 28 24 53 23
leaf_count=159781 56 592 23 41358 22 25 35 1171 27 205 23 81 38 10685 2376 23 34 693 22 31 20 20 23 91 21 29 28 24 53 23
internal_value=0 3.04229e-06 0.000243592 -8.52544e-06 -4.69502e-05 0.00103613 -5.25034e-05 -5.60389e-05 0.00043325 0.000120205 -6.40522e-05 -0.000715386 -0.00216207 -5.80335e-05 -0.000150196 -0.000338902 -0.000683719 4.28589e-06 -0.00199998 -0.0028615 -0.00232972 -0.000556025 -0.00541967 -0.00155724 -0.00258431 0.000359969 -2.05429e-05 -0.0031092 0.000667373 0.00140675
internal_weight=0 160396 615 57237 15879 81 15798 15763 254 232 15509 142 61 15367 4682 2306 1107 727 380 238 215 142 43 172 112 60 1199 46 96 76
internal_count=217633 160396 615 57237 15879 81 15798 15763 254 232 15509 142 61 15367 4682 2306 1107 727 380 238 215 142 43 172 112 60 1199 46 96 76
shrinkage=0.05


Tree=500
num_leaves=31
num_cat=0
split_feature=44 43 32 19 36 40 26 9 31 25 11 33 0 39 33 13 37 19 31 24 32 25 40 41 23 19 19 15 39 41
split_gain=0.00233794 0.0262481 0.0577508 0.0424147 0.0831564 0.161798 0.0255163 0.05537 0.0276501 0.119353 0.0387641 0.0323667 0.0620685 0.0348501 0.0381814 0.127797 0.0351474 0.072604 0.0366237 0.0316936 0.0355342 0.0315774 0.081032 0.174091 0.115053 0.0354636 0.171112 0.0777842 0.0293036 0.0302532
threshold=0.81788000000000027 -0.56159999999999977 5.9680600000000004 2.3425250000000002e-09 -0.00024330749999999999 -0.10081500000000009 0.0058547700000000013 3.5897900000000007e-05 -1.6647349999999996 9.4910900000000016 4.8912350000000013e-05 -9.3333449999999986e-05 -2.8094699999999997 5.4821750000000008e-05 1.5271550000000005e-05 -2.7794449999999996e-05 -2.6534649999999999e-07 2.2514500000000002e-07 0.18966250000000004 0.23066900000000004 -0.10191949999999998 1.2242750000000002 -0.079468000000000025 -0.10141500000000002 -13.148399999999997 5.5624400000000012e-07 2.4445350000000004e-06 7.9739600000000016e-08 1.035515e-05 0.19792950000000006
decision_type=2 2 2 2 2 2 2 2 2 2 2 2 2 2 2 2 2 2 2 2 2 2 2 2 2 2 2 2 2 2
left_child=1 2 3 4 5 -1 8 -8 9 -5 -11 12 -10 14 16 -16 17 -13 19 28 -21 22 -15 -24 -25 27 -27 -23 -18 -30
right_child=-2 -3 -4 6 -6 -7 7 -9 11 10 -12 13 -14 21 15 -17 18 -19 -20 20 -22 25 23 24 -26 26 -28 -29 29 -31
leaf_value=-6.6240757256640466e-05 7.5592938394982154e-06 1.5379363622485745e-08 0.0019244132046022809 -0.0042961185554131155 -7.3200768743951367e-05 -0.0052853197710916264 6.4349604975985937e-05 0.0030382051298147418 -0.0035288049816153948 -0.00079613511666442108 0.0018054685006583379 0.0029386189997172487 0.00011816439754121738 -0.00060620234884633346 -0.0046105938249855266 -8.8259602513271164e-05 -0.00011394960118213594 7.9481392100569793e-05 -0.0020996626052074137 -0.00023416518566331696 0.002710667294159066 -8.6929079939524151e-05 -0.0001702901957287395 0.0016020663110317573 0.0069009667867794642 0.0039456003938665102 1.6378541266429743e-05 -0.0031019255972919552 -0.00091662613650726364 -0.00012868048803521442
leaf_weight=33 69582 143917 34 21 103 27 72 20 20 45 21 27 28 60 21 61 1987 125 25 21 20 103 52 21 20 29 622 27 259 230
leaf_count=33 69582 143917 34 21 103 27 72 20 20 45 21 27 28 60 21 61 1987 125 25 21 20 103 52 21 20 29 622 27 259 230
internal_value=0 -3.55277e-06 -0.000127771 -0.000144789 -0.000935149 -0.00241483 -0.000112066 0.00071084 -0.000131756 -0.00101299 3.16479e-05 -0.000111355 -0.00140141 -9.46644e-05 -0.000183554 -0.00124642 -0.000151202 0.000587355 -0.000195364 -0.00017645 0.00120234 0.000169529 0.000826376 0.00175062 0.0041869 4.08504e-05 0.000191413 -0.000713121 -0.000199281 -0.000546018
internal_weight=0 148051 4134 4100 163 60 3937 92 3845 87 66 3758 48 3710 2776 82 2694 152 2542 2517 41 934 153 93 41 781 651 130 2476 489
internal_count=217633 148051 4134 4100 163 60 3937 92 3845 87 66 3758 48 3710 2776 82 2694 152 2542 2517 41 934 153 93 41 781 651 130 2476 489
shrinkage=0.05


Tree=501
num_leaves=31
num_cat=0
split_feature=13 29 32 10 41 19 41 30 24 43 36 19 30 19 33 38 18 37 33 37 28 36 2 33 16 19 34 10 36 28
split_gain=0.00223355 0.0100287 0.0235168 0.0643498 0.0935484 0.00883099 0.0086302 0.0132114 0.00776367 0.031721 0.0217121 0.00545327 0.027484 0.00721093 0.0947402 0.0179217 0.0147676 0.00953672 0.0187629 0.00647769 0.011065 0.00590754 0.00636851 0.00575218 0.00560613 0.00523111 0.0452725 0.129204 0.0238849 0.055055
threshold=0.00014699600000000001 2.0528200000000001 20.036400000000004 3.0656350000000003e-05 -1.2960724999999997 1.2683350000000002e-07 0.56931500000000013 0.35534200000000005 -2.2419299999999995 7.347125000000001 -2.2564299999999995 6.4033200000000016e-05 0.0061309900000000011 0.00051133100000000018 -0.00014064699999999996 0.065375400000000014 -0.0035278599999999994 -4.0691899999999991e-07 -2.9943699999999996e-05 0.00046534500000000004 1.9114100000000003 1.8680450000000002 -0.31697849999999994 -4.5759799999999988e-05 -4.7504049999999995e-05 0.018986450000000005 34.706300000000006 5.2944100000000007e-05 0.86690500000000015 0.69707500000000011
decision_type=2 2 2 2 2 2 2 2 2 2 2 2 2 2 2 2 2 2 2 2 2 2 2 2 2 2 2 2 2 2
left_child=25 2 5 4 -4 -2 7 -3 9 -7 -10 12 -12 14 -13 16 -16 18 -18 20 21 -15 -23 -19 -21 -1 28 -28 -27 -30
right_child=1 6 3 -5 -6 8 -8 -9 10 -11 11 13 -14 19 15 -17 17 23 -20 24 -22 22 -24 -25 -26 26 27 -29 29 -31
leaf_value=-3.7241693419032183e-06 0.00086804249821094957 -0.00017848246447854386 -0.00022217449937749693 -0.00028353859566207696 0.0041554212574667947 0.0019919740634577465 -0.00010672359868684518 -0.0017469410980120303 -0.0016380773298328676 -0.00032991608861362027 -2.7368229665157605e-05 0.0029676662482008148 -0.0020163441257682281 8.673535038695992e-06 0.0012362035442888357 0.001186363938893809 -0.0017259090325145129 0.00085910751874507707 -9.9785590167384195e-05 6.6682111571060008e-06 0.00087298316886173441 -0.0010193595401750796 5.8307820934435145e-05 -5.1838441589359669e-06 -0.00097882338581726917 2.3106535396851652e-05 -0.0010641324656634507 0.0043547681702131571 0.0030641071973929817 -0.00034937430712118472
leaf_weight=175468 30 29 23 67 26 24 91 25 20 38 132 29 20 35890 23 33 24 20 68 27 37 29 26 514 31 4797 22 22 21 27
leaf_count=175468 30 29 23 67 26 24 91 25 20 38 132 29 20 35890 23 33 24 20 68 27 37 29 26 514 31 4797 22 22 21 27
internal_value=0 1.11418e-05 1.27625e-05 0.000723568 0.00210063 1.05349e-05 -0.000403871 -0.000904621 9.83938e-06 0.00056888 8.90066e-06 9.79326e-06 -0.000289076 1.10294e-05 0.000168714 4.96966e-05 -8.1e-06 -5.38172e-05 -0.000523992 7.91855e-06 8.76961e-06 7.88003e-06 -0.000509917 2.71866e-05 -0.00052006 -2.30278e-06 4.87112e-05 0.00164532 3.42116e-05 0.00114402
internal_weight=0 37276 37131 116 49 37015 145 54 36985 62 36923 36903 152 36751 711 682 649 626 92 36040 35982 35945 55 534 58 180357 4889 44 4845 48
internal_count=217633 37276 37131 116 49 37015 145 54 36985 62 36923 36903 152 36751 711 682 649 626 92 36040 35982 35945 55 534 58 180357 4889 44 4845 48
shrinkage=0.05


Tree=502
num_leaves=31
num_cat=0
split_feature=5 30 19 15 13 13 16 15 31 16 9 6 16 32 12 12 3 13 32 10 40 40 15 13 10 20 11 11 40 43
split_gain=0.00222021 0.00972569 0.0244046 0.060252 0.0395868 0.0391363 0.0277249 0.01447 0.00985263 0.0563906 0.086056 0.101099 0.139176 0.0103478 0.0310142 0.0657163 0.105896 0.0865683 0.131137 0.072772 0.0659137 0.128574 0.0636087 0.0608713 0.120369 0.0573309 0.0550117 0.0521115 0.209642 0.139498
threshold=1.5738550000000005e-05 0.35534200000000005 0.0019525250000000003 7.2144500000000009e-06 0.00015586950000000003 -3.2904449999999993e-05 6.5238050000000013e-06 4.4044100000000007e-07 -13.003849999999998 1.0552950000000002e-06 3.2410900000000003e-06 1.3087800000000002e-06 1.1066350000000001e-05 -1.0750649999999997 5.4039850000000007e-05 0.00024379100000000001 -15.732949999999999 0.00015586950000000003 -5.551709999999999 1.4677150000000001e-05 0.30085850000000008 -0.25142799999999998 4.6040750000000013e-06 3.162045000000001e-05 1.2745350000000003e-05 13.501750000000001 -3.3619499999999992e-05 -5.0495149999999994e-05 0.327845 0.8945249999999999
decision_type=2 2 2 2 2 2 2 2 2 2 2 2 2 2 2 2 2 2 2 2 2 2 2 2 2 2 2 2 2 2
left_child=1 8 3 6 5 -4 7 -3 9 -1 -11 12 -12 14 -10 25 22 18 -18 -20 21 -21 23 26 -25 27 -17 28 29 -16
right_child=-2 2 4 -5 -6 -7 -8 -9 13 10 11 -13 -14 -15 15 16 17 -19 19 20 -22 -23 -24 24 -26 -27 -28 -29 -30 -31
leaf_value=-4.3337111655373839e-05 -5.2015077080687771e-06 -0.00021726859242727931 -0.00053024719993118193 0.0026248814433347434 -1.7192073952173816e-05 -0.0036207360259833789 -0.0019637043282966175 0.00092066870777216545 1.3858336877009349e-05 -0.00054525881737040786 0.0052677784137866931 -0.00063052605456994986 0.00063556336502980197 8.1699272345207735e-06 -0.0048191811468617143 -0.001638509125600999 0.0042170418303937949 0.00011315103357159424 -0.001023780894664876 0.0001096827135188505 -0.00057106379099423064 0.005779211516492069 0.0011641971122783919 -0.0051207878196146348 -0.0009595014182546916 -0.0023615013101311306 0.0016464181780465879 -0.00023165194565015875 0.00018994401499639935 -0.00055728362085574192
leaf_weight=522 105604 220 20 20 50 21 21 32 4037 52 34 26 31 105280 48 26 36 307 38 20 20 20 30 25 57 39 25 820 120 32
leaf_count=522 105604 220 20 20 50 21 21 32 4037 52 34 26 31 105280 48 26 36 307 38 20 20 20 30 25 57 39 25 820 120 32
internal_value=0 4.9032e-06 -0.000246297 -2.41565e-05 -0.000961539 -0.00211318 -0.000218225 -7.27686e-05 5.76719e-06 0.000197651 0.00107734 0.00200454 0.00305857 4.61741e-06 -6.09982e-05 -0.000242716 0.000173473 0.000575972 0.00163632 0.000688295 0.00177261 0.00294445 -0.000915498 -0.0013846 -0.00222819 -0.000480088 -2.82506e-05 -0.000408152 -0.0011318 -0.00311442
internal_weight=0 112029 384 293 91 41 273 252 111645 665 143 91 65 110980 5700 1663 604 441 134 98 60 40 163 133 82 1059 51 1020 200 80
internal_count=217633 112029 384 293 91 41 273 252 111645 665 143 91 65 110980 5700 1663 604 441 134 98 60 40 163 133 82 1059 51 1020 200 80
shrinkage=0.05


Tree=503
num_leaves=31
num_cat=0
split_feature=21 44 12 41 22 11 33 0 18 25 23 2 1 1 18 40 15 40 35 40 3 40 44 40 3 37 40 35 15 40
split_gain=0.00216728 0.0282199 0.0454983 0.0488181 0.209349 0.0983883 0.245726 0.343606 0.117314 0.0940051 0.0966383 0.0809026 0.0531668 0.0431425 0.0398965 0.091078 0.0497315 0.0903834 0.0233595 0.0348346 0.0221646 0.0413739 0.0182893 0.0174047 0.0172643 0.016505 0.0287656 0.0144483 0.012488 0.0121659
threshold=-12.332599999999998 0.19419999999999996 -2.9756999999999996e-05 0.35345999999999994 -0.90610399999999991 -1.1142449999999998e-06 -4.3173299999999989e-06 -3.6002049999999994 -7.4011349999999986e-07 1.5545350000000002 -7.1276349999999988 -2.0813999999999995 -2.6487599999999998 -10.856449999999997 -5.194759999999999e-05 0.12375499999999996 -1.0749399999999998e-07 0.43531000000000003 -0.0097302449999999985 -0.018010000000000078 -5.1152499999999987 -0.86218949999999983 0.23534999999999953 0.24966499999999994 -6.280479999999999 -1.72674e-06 0.51872500000000021 0.48186100000000004 2.6299250000000005e-06 -3.1661799999999998
decision_type=2 2 2 2 2 2 2 2 2 2 2 2 2 2 2 2 2 2 2 2 2 2 2 2 2 2 2 2 2 2
left_child=1 2 3 4 5 6 7 -1 11 -10 -11 -8 20 -3 15 -7 17 -16 23 -20 27 -22 -15 -18 25 26 -24 -5 -29 -4
right_child=-2 13 29 12 -6 14 8 -9 9 10 -12 -13 -14 22 16 -17 18 -19 19 -21 21 -23 24 -25 -26 -27 -28 28 -30 -31
leaf_value=0.0011087578725410448 -8.4716369364150615e-07 -0.0018134636103474934 -0.0012485401341837132 -0.00017382254222700358 0.0042557764583187625 -0.0038994274320430125 0.0046666476118844002 0.0092432963513905033 0.0006092470327320581 -0.00015722901574918071 -0.0050724678154801953 0.00065896280695382952 0.0021127464270210587 0.0012984660969814288 0.0043147814125404698 2.2230848908452972e-05 -0.0020201425242703411 -0.00023635708721485573 0.0017396201652114874 1.8710920930381557e-05 -0.0002720390805633441 0.0025643175153891207 -0.0022571382860959326 -5.3006342141484117e-05 -0.0013181817773902031 -3.2161077481957515e-05 -9.9181121255783854e-05 -0.00054096948248722289 -0.0020425625483039768 -7.5300484881245507e-06
leaf_weight=34 211535 35 20 274 38 20 20 21 52 20 20 34 27 25 20 57 22 24 33 270 36 20 23 23 27 3221 47 45 20 1570
leaf_count=34 211535 35 20 274 38 20 20 21 52 20 20 34 27 25 20 57 22 24 33 270 36 20 23 23 27 3221 47 45 20 1570
internal_value=0 2.93875e-05 0.000149254 0.000391827 0.000645551 0.000440792 0.00136633 0.00421467 0.000293319 -0.000792534 -0.00261485 0.00214329 -3.38511e-05 -6.71306e-05 4.41339e-05 -0.000996382 0.000248521 0.00183234 4.82676e-05 0.000206137 -0.000180581 0.000740945 -4.88471e-05 -0.00101472 -5.89986e-05 -4.8668e-05 -0.000808224 -0.000332809 -0.001003 -2.31402e-05
internal_weight=0 6098 2720 1130 708 670 201 55 146 92 40 54 422 3378 469 77 392 44 348 303 395 56 3343 45 3318 3291 70 339 65 1590
internal_count=217633 6098 2720 1130 708 670 201 55 146 92 40 54 422 3378 469 77 392 44 348 303 395 56 3343 45 3318 3291 70 339 65 1590
shrinkage=0.05


Tree=504
num_leaves=31
num_cat=0
split_feature=28 1 12 12 40 41 6 40 12 19 6 12 15 11 0 40 35 22 38 18 40 40 24 22 15 4 36 44 20 0
split_gain=0.00226651 0.0309627 0.0230302 0.0289562 0.0864693 0.116718 0.144571 0.096192 0.0178715 0.0280169 0.0387378 0.0203957 0.0276335 0.0250507 0.0166114 0.0134415 0.0102831 0.00975557 0.00955864 0.00861274 0.0191434 0.0291825 0.00774713 0.00592953 0.0386544 0.00796209 0.0119704 0.0066375 0.00523021 0.0889398
threshold=-0.96676949999999995 -14.127399999999998 -0.0018492449999999998 -0.00020892849999999997 -0.30278099999999991 -0.2272394999999999 -1.0441299999999996e-06 -0.57440449999999987 -0.00012499999999999998 3.0721050000000003e-05 1.8853450000000003e-07 -7.3957599999999985e-05 6.3536550000000009e-06 1.7875200000000005e-05 2.9488950000000007 0.57364500000000007 -4.3203749999999994 -2.6579249999999996 1.8271150000000003 -3.7438549999999997e-06 0.97758200000000006 -0.3562499999999999 -1.7211949999999998 -0.54752699999999999 5.1880700000000008e-06 0.21856850000000003 -2.2564299999999995 -6.9611899999999993 16.002400000000005 12.423150000000001
decision_type=2 2 2 2 2 2 2 2 2 2 2 2 2 2 2 2 2 2 2 2 2 2 2 2 2 2 2 2 2 2
left_child=1 -1 -3 4 7 15 -7 16 9 -5 -11 12 13 18 -12 -6 -4 -13 -10 20 21 -19 -22 25 -25 -21 27 -27 -2 -30
right_child=28 2 3 8 5 6 -8 -9 11 10 14 17 -14 -15 -16 -17 -18 19 -20 23 22 -23 -24 24 -26 26 -28 -29 29 -31
leaf_value=0.0017663386400470146 -1.6455124715513551e-07 0.0016067862791533116 0.00069057576765771964 -0.00046153385310601658 0.0010494921013014392 -0.00041905291376490922 -0.005224595996482736 0.0035997060831869025 -0.00026530798568273893 0.0023956625302911133 -0.00073828191586168643 0.00093329132079681451 -0.0021168028080585199 -0.001816662239037793 0.0012128176273836289 -0.00048421936784870921 -0.00062419644532030422 0.00016484076436609031 0.00087417061037670541 0.00011424289465933351 -0.00052175498702935238 -0.0021481924403148394 8.1133680798258152e-05 -3.4890781457112297e-05 0.0023289608105967223 -0.00038196691801369362 -7.0936196930144392e-05 -0.0016247220069566368 1.7577796441930413e-05 0.0021059282730280788
leaf_weight=23 214465 20 20 43 20 29 34 20 63 34 24 27 26 22 20 50 58 25 26 518 72 30 205 98 21 22 204 21 1340 53
leaf_count=23 214465 20 20 43 20 29 34 20 63 34 24 27 26 22 20 50 58 25 26 518 72 30 205 98 21 22 204 21 1340 53
internal_value=0 -5.62693e-05 -8.01962e-05 -9.96764e-05 -0.000620812 -0.0014512 -0.00301252 0.000506145 -1.94749e-05 0.000563175 0.00112808 -7.05623e-05 -0.000649558 -0.000305879 0.000148582 -4.60161e-05 -0.000287075 -6.74703e-06 6.75734e-05 -2.76196e-05 -0.000244755 -0.00109681 -7.55738e-05 5.39291e-05 0.000382259 2.85543e-06 -0.000230743 -0.000988894 4.62702e-07 9.70341e-05
internal_weight=0 1775 1752 1732 231 133 63 98 1501 121 78 1380 137 111 44 70 78 1243 89 1216 332 55 277 884 119 765 247 43 215858 1393
internal_count=217633 1775 1752 1732 231 133 63 98 1501 121 78 1380 137 111 44 70 78 1243 89 1216 332 55 277 884 119 765 247 43 215858 1393
shrinkage=0.05


Tree=505
num_leaves=31
num_cat=0
split_feature=35 15 41 40 15 13 23 40 41 43 18 36 43 0 23 38 34 43 44 17 44 38 4 3 43 4 26 20 38 25
split_gain=0.00217398 0.0438224 0.0507037 0.357397 0.249674 0.271988 0.245619 0.267657 0.445047 0.271096 0.236009 0.296681 0.290976 0.293305 0.209025 0.223528 0.285244 0.203752 0.382497 0.453241 0.157667 0.147084 0.252755 0.266947 0.32821 0.197406 0.191314 0.14589 0.148941 0.163769
threshold=1.8741500000000003e-05 -3.0013349999999998e-08 0.17390849999999994 0.14973499999999998 7.2144500000000009e-06 4.2516950000000003e-05 -10.954249999999998 -0.018010000000000078 -0.057539999999999918 0.68409500000000023 1.1699350000000001e-06 -0.0032442449999999993 2.2194399999999996 5.8026400000000011 -11.401999999999999 -0.025457549999999999 0.022167950000000002 -0.99152500000000054 0.31988499999999936 4.5743450000000006e-07 0.50668999999999997 -0.0022598049999999997 -0.11642199999999998 -8.9021549999999987 1.5525100000000001 0.069718000000000016 -0.00021357299999999997 -14.223749999999997 0.054851550000000006 2.4608900000000005
decision_type=2 2 2 2 2 2 2 2 2 2 2 2 2 2 2 2 2 2 2 2 2 2 2 2 2 2 2 2 2 2
left_child=-1 -2 3 4 5 10 7 9 -9 20 21 12 13 -12 -13 -16 -17 -18 -19 -20 -7 22 -3 25 -25 26 -24 -23 29 -29
right_child=1 2 -4 -5 -6 6 -8 8 -10 -11 11 14 -14 -15 15 16 17 18 19 -21 -22 27 23 24 -26 -27 -28 28 -30 -31
leaf_value=-4.9289005735256456e-06 -3.0380853132002289e-05 -0.0045998347471284343 -1.1194174937609874e-05 -5.6992997800944563e-06 -0.00023803863412332827 0.001422443351705289 0.00033469708450547045 0.0065242527273005326 0.00033945006842473315 0.0098744085037403492 0.0021932364363035756 -0.00058582789549326323 -0.0018840155275635579 0.0064307322784882496 -0.0026808262130777749 0.00016600733272175737 -0.0020365928999482373 0.0020769188750991503 0.012446049394271713 0.0019288106122985482 0.006667491765287907 0.0034906929774159521 0.0066786860988941044 -0.0056616582235114446 -0.00029271072092021367 -0.00096783327635667114 0.00093199892765066274 0.00029494060959737843 -0.0015168949888486947 0.0018297120268369054
leaf_weight=110316 48106 38 30389 23158 1102 38 171 37 136 22 144 233 30 57 35 241 23 232 21 20 23 37 28 36 136 37 30 2465 105 187
leaf_count=110316 48106 38 30389 23158 1102 38 171 37 136 22 144 233 30 57 35 241 23 232 21 20 23 37 28 36 136 37 30 2465 105 187
internal_value=0 5.06664e-06 3.3866e-05 8.1376e-05 0.000437394 0.000600553 0.00180196 0.00278205 0.00166221 0.00511617 0.000476489 0.00112981 0.00270934 0.00339491 0.000676556 0.00119078 0.00144312 0.00248293 0.00286369 0.00731569 0.00340008 0.000258083 -0.000784488 -0.000241479 -0.00141644 0.00188582 0.00370626 0.000371892 0.000330037 0.000403162
internal_weight=0 107317 59211 28822 5664 4562 427 256 173 83 4135 1036 231 201 805 572 537 296 273 41 61 3099 305 267 172 95 58 2794 2757 2652
internal_count=217633 107317 59211 28822 5664 4562 427 256 173 83 4135 1036 231 201 805 572 537 296 273 41 61 3099 305 267 172 95 58 2794 2757 2652
shrinkage=0.05


Tree=506
num_leaves=31
num_cat=0
split_feature=44 44 36 40 40 3 3 26 22 16 21 1 40 40 18 28 40 3 16 41 16 15 31 16 16 11 10 35 21 16
split_gain=0.00240037 0.0250873 0.0715704 0.0838834 0.228793 0.0596638 0.0749347 0.0690345 0.0805309 0.0585296 0.054812 0.0765288 0.0585663 0.16808 0.275578 0.105441 0.101732 0.0603359 0.0799452 0.0537095 0.0527547 0.0521121 0.0474827 0.109625 0.165165 0.150062 0.158304 0.256729 0.445548 0.215087
threshold=0.81788000000000027 0.23534999999999953 -0.17249249999999997 -0.30278099999999991 0.43531000000000003 -13.522749999999998 -13.443999999999997 0.0033062250000000007 3.0016000000000003 2.3057600000000002e-06 -5.0001749999999996 -3.8531599999999995 -0.22452634999999985 0.20129000000000011 0.00016883300000000004 0.036329200000000013 -0.040859549999999939 -15.164099999999999 1.1210250000000002e-06 -0.026150000000000003 2.1581450000000003e-05 -1.0179149999999999e-07 0.065679050000000003 2.2634400000000003e-07 3.2990050000000008e-07 -1.3707349999999998e-05 2.6099450000000003e-05 0.0021782100000000003 4.7688000000000015 -3.870074999999999e-07
decision_type=2 2 2 2 2 2 2 2 2 2 2 2 2 2 2 2 2 2 2 2 2 2 2 2 2 2 2 2 2 2
left_child=1 -1 3 -3 -5 10 -7 22 9 -9 11 -4 -12 14 15 16 -14 19 21 -18 -11 -19 -8 25 -25 26 27 28 29 -24
right_child=-2 2 5 4 -6 6 7 8 -10 20 12 -13 13 -15 -16 -17 17 18 -20 -21 -22 -23 23 24 -26 -27 -28 -29 -30 -31
leaf_value=2.0064579813035772e-06 7.6595588069134456e-06 -0.00027025592488436295 -0.0036376086897143981 0.0055470506773175055 0.00021386712696431595 -0.0028689547310204945 -9.4521916133636006e-05 -2.100591731895496e-05 0.0036707382692657124 0.0030933886844925866 -0.00015976908951809794 -8.7545242313498181e-05 -0.0025259823779509006 -0.00019207472465740155 0.0070641015805969279 0.0042742375734936408 0.0021610602214368001 0.0015800122107868771 -0.00044594355561497181 -0.00017722721211915391 0.00042192355297932709 0.0043483236742972884 -0.00050384068764169183 0.0035176723740946991 -5.8031545051593791e-05 -0.00010276659755068254 -0.00076120808495632733 -0.00017356222626523185 -0.010747651387022675 -0.0067147531156660986
leaf_weight=137825 69582 77 20 30 61 25 6969 219 20 33 300 63 21 268 21 24 33 34 23 96 42 34 46 34 644 563 424 61 21 20
leaf_count=137825 69582 77 20 30 61 25 6969 219 20 33 300 63 21 268 21 24 33 34 23 96 42 34 46 34 644 563 424 61 21 20
internal_value=0 -3.59989e-06 -7.91617e-05 0.000944332 0.00197206 -9.62572e-05 -0.000135289 -0.000127776 0.000600691 0.000391845 0.000283688 -0.000942982 0.000402908 0.000707607 0.00155066 0.00111375 0.000799014 0.0011164 0.00210227 0.000420939 0.00159737 0.00296417 -0.000153822 -0.000381766 0.000121281 -0.000682264 -0.00125264 -0.00266054 -0.00440428 -0.00238594
internal_weight=0 148051 10226 168 91 10058 9121 9096 314 294 937 83 854 554 286 265 241 220 91 129 75 68 8782 1813 678 1135 572 148 87 66
internal_count=217633 148051 10226 168 91 10058 9121 9096 314 294 937 83 854 554 286 265 241 220 91 129 75 68 8782 1813 678 1135 572 148 87 66
shrinkage=0.05


Tree=507
num_leaves=31
num_cat=0
split_feature=13 32 43 10 3 19 25 33 44 10 40 21 19 33 19 33 24 18 37 33 38 24 11 5 20 0 21 28 3 43
split_gain=0.00227426 0.00914392 0.0526856 0.101151 0.0140684 0.00768014 0.0065959 0.00938785 0.0183813 0.0103299 0.00980241 0.00609867 0.00554353 0.0291311 0.00622236 0.0809499 0.016535 0.0132768 0.00840797 0.0155652 0.00641434 0.00779897 0.0277383 0.00775061 0.00535171 0.0212413 0.00546474 0.00519266 0.00517498 0.0253479
threshold=0.00014699600000000001 20.036400000000004 -0.5126099999999999 3.0656350000000003e-05 -12.126699999999998 1.2683350000000002e-07 87.628850000000014 0.00018972300000000001 6.3761350000000014 3.0829950000000005e-05 0.8902650000000002 0.93373450000000013 6.4033200000000016e-05 -3.9040499999999993e-05 0.00051133100000000018 -9.3333449999999986e-05 -0.88671549999999988 -0.0035278599999999994 -4.0691899999999991e-07 -2.9943699999999996e-05 -1.0090899999999998 1.5291850000000002 7.6561400000000015e-05 1.1508200000000001e-05 16.002400000000005 7.0096050000000014 -12.050999999999998 1.9114100000000003 -15.040049999999999 -3.7428349999999995
decision_type=2 2 2 2 2 2 2 2 2 2 2 2 2 2 2 2 2 2 2 2 2 2 2 2 2 2 2 2 2 2
left_child=-1 5 3 -3 -4 -2 12 8 11 10 -9 -8 13 -7 15 -14 -17 -18 19 -19 23 24 -23 -16 27 26 -26 28 29 -22
right_child=1 2 4 -5 -6 6 7 9 -10 -11 -12 -13 14 -15 20 16 17 18 -20 -21 21 22 -24 -25 25 -27 -28 -29 -30 -31
leaf_value=-2.3236796646357747e-06 0.00079642510015307465 0.0042351094751872801 -0.0013930271724737916 -0.00061630607427408304 8.2526913216237781e-05 -0.0020690962884691542 -0.00067142845870441078 -0.0019412021967582405 0.0013780226835349045 -0.00017115016505400151 -0.0004486133701985554 0.00011892231693939092 0.0025030734854434352 -1.9315597661401489e-05 -0.0010628934478778061 0.0014534803663264031 0.0011742537211039631 -0.0015243779449519935 2.8172407208204988e-05 -9.1705207504203047e-05 2.5279383868785357e-05 0.0020390757697077789 -0.00053373698134567935 -0.00014641585613452392 -0.00056173966845057702 0.001808323180594016 0.00020192243064743681 0.00065497705867117832 1.5381491836670015e-05 -0.00023211455315939636
leaf_weight=180357 31 22 21 21 70 20 46 22 21 56 22 52 35 130 28 20 23 26 539 70 3829 20 22 131 27 20 177 31 30469 1275
leaf_count=180357 31 22 21 21 70 20 46 22 21 56 22 52 35 130 28 20 23 26 539 70 3829 20 22 131 27 20 177 31 30469 1275
internal_value=0 1.12429e-05 0.000423532 0.00186581 -0.000257986 9.75549e-06 9.09836e-06 -0.000264491 3.56028e-05 -0.000621604 -0.00119491 -0.000252059 1.07225e-05 -0.00029262 1.19609e-05 0.000158228 3.71817e-05 -5.86691e-06 -4.86114e-05 -0.000479721 9.06629e-06 1.04709e-05 0.000691412 -0.000307808 9.67264e-06 0.000253303 0.00010085 8.13986e-06 7.57618e-06 -3.90187e-05
internal_weight=0 37276 134 43 91 37142 37111 219 119 100 44 98 36892 150 36742 713 678 658 635 96 36029 35870 42 159 35828 224 204 35604 35573 5104
internal_count=217633 37276 134 43 91 37142 37111 219 119 100 44 98 36892 150 36742 713 678 658 635 96 36029 35870 42 159 35828 224 204 35604 35573 5104
shrinkage=0.05


Tree=508
num_leaves=31
num_cat=0
split_feature=6 7 44 33 7 44 6 40 14 6 18 44 30 22 4 22 21 6 28 28 4 4 36 20 27 40 40 37 8 16
split_gain=0.00215644 0.00970985 0.0213695 0.0704529 0.0961925 0.184845 0.190801 0.0569821 0.0401666 0.0796031 0.03181 0.0281392 0.0375246 0.02037 0.0551971 0.0278944 0.0113565 0.00950599 0.0232673 0.109313 0.0296312 0.107596 0.0135901 0.0525688 0.00921165 0.0323609 0.0989483 0.156702 0.106216 0.03087
threshold=2.8692150000000002e-06 3.3982100000000008e-05 -0.60415499999999989 4.5064500000000007e-06 3.1253400000000008e-05 1.03867 3.3806250000000003e-06 -0.018010000000000078 0.00017796000000000004 3.8636850000000014e-06 -1.0012199999999997e-06 0.6060099999999996 0.00032481900000000001 2.1326650000000007 0.097742300000000018 2.0027750000000002 9.1952100000000012 2.7311750000000006e-06 0.006384845000000001 0.0068628400000000011 -0.3422659999999999 -1.1200049999999997 0.0085105150000000015 6.5101600000000008 29.419400000000007 0.20129000000000011 -0.058960000000000005 9.6707250000000022e-06 1.6500000000000005e-05 3.9398900000000012e-06
decision_type=2 2 2 2 2 2 2 2 2 2 2 2 2 2 2 2 2 2 2 2 2 2 2 2 2 2 2 2 2 2
left_child=17 2 -2 13 8 6 -6 -8 9 10 -5 12 -10 15 16 -4 -15 -1 22 -20 21 -21 -19 -24 -3 26 -26 -28 -29 -27
right_child=1 24 3 4 5 -7 7 -9 11 -11 -12 -13 -14 14 -16 -17 -18 18 19 20 -22 -23 23 -25 25 29 27 28 -30 -31
leaf_value=-1.4847827394839689e-06 5.3392260915545054e-06 4.6676263697976359e-06 1.4095805036338027e-05 0.0018083066965032014 0.0060351066874344342 -0.00022761596314849918 0.0034513767910539176 0.00042263921186324964 0.00047288384116209094 -0.0031187475078777427 -0.00060540631739758495 -9.5021754527993359e-05 0.0027780820963757666 -5.7516101359669272e-07 0.0022901030426257622 -0.0015030030215125263 0.0012644936289507313 4.4237142380647376e-05 -0.0039486761788880579 7.2637448908188578e-05 -6.9697741960176153e-05 -0.0040986642614701521 -3.3252031729755399e-05 -0.0028562304748629688 -0.00014440031099359092 -4.6101109087612368e-05 -0.005403915918820227 -0.0022119913557764599 0.0022401533167188364 0.00084874258467052498
leaf_weight=166883 4438 41333 1340 21 35 75 24 44 51 25 39 73 27 157 36 31 20 1132 21 52 363 22 94 20 551 526 24 37 21 118
leaf_count=166883 4438 41333 1340 21 35 75 24 44 51 25 39 73 27 157 36 31 20 1132 21 52 363 22 94 20 551 526 24 37 21 118
internal_value=0 9.22756e-06 6.64705e-05 0.000202257 0.00078302 0.0016606 0.00303551 0.00149161 0.000121117 -0.000748295 0.000239393 0.000610521 0.00127084 5.04663e-05 0.000505368 -2.02077e-05 0.00014237 -2.68452e-06 -0.000120182 -0.000424926 -0.000255592 -0.00116748 -8.16521e-06 -0.000528511 5.81329e-07 -0.000131681 -0.000385559 -0.00200603 -0.000600008 0.000117861
internal_weight=0 49046 6436 1998 414 178 103 68 236 85 60 151 78 1584 213 1371 177 168587 1704 458 437 74 1246 114 42610 1277 633 82 58 644
internal_count=217633 49046 6436 1998 414 178 103 68 236 85 60 151 78 1584 213 1371 177 168587 1704 458 437 74 1246 114 42610 1277 633 82 58 644
shrinkage=0.05


Tree=509
num_leaves=31
num_cat=0
split_feature=44 3 21 43 24 43 27 19 37 28 1 38 8 26 14 40 2 2 2 22 0 4 38 18 4 38 18 15 40 40
split_gain=0.00216867 0.0248903 0.119467 0.0556433 0.0258404 0.025595 0.0633096 0.0950357 0.0897819 0.0470106 0.133468 0.0491283 0.0830353 0.123436 0.0480347 0.0733525 0.046571 0.054168 0.211885 0.0481413 0.0405135 0.0894989 0.0369629 0.0744828 0.128034 0.0449774 0.0395301 0.0282042 0.0345462 0.0287461
threshold=0.81788000000000027 -18.627349999999996 4.6976250000000013 -0.465335 -0.33207549999999991 -0.465335 9.4382900000000021 1.1921100000000003e-10 -5.2213149999999988e-06 0.068796600000000013 8.6177750000000017 -0.0059856599999999994 1.4521400000000001e-05 -0.00084087799999999987 0.0009049345000000001 0.02582950000000005 -2.7279399999999994 -2.1540499999999994 -1.9100699999999999 -0.18541999999999997 6.5600500000000013 -0.36598199999999997 -0.0025634199999999998 2.9789650000000003e-06 0.34232900000000005 -0.0024070099999999998 6.6496350000000014e-08 -3.7519499999999994e-07 0.077348000000000056 -0.10081500000000009
decision_type=2 2 2 2 2 2 2 2 2 2 2 2 2 2 2 2 2 2 2 2 2 2 2 2 2 2 2 2 2 2
left_child=1 2 3 -1 -5 6 7 -3 -9 11 27 12 14 -14 15 -10 -8 19 -19 -18 -20 -22 23 26 -25 -24 -13 28 -11 -29
right_child=-2 5 -4 4 -6 -7 16 8 9 10 -12 22 13 -15 -16 -17 17 18 20 -21 21 -23 25 24 -26 -27 -28 29 -30 -31
leaf_value=0.0023055908244631693 7.2805085168767299e-06 -0.0032961901012943905 0.0041403952919478928 -0.0017605552400969567 5.217074296634758e-05 1.697145670926086e-07 0.0027967970401368801 -0.0030737193789368926 -0.003784896798849028 1.0862946079038423e-05 0.0043370844849381354 0.00014252877021068717 -0.0001482342576400697 -0.0057033179899372045 1.0283926914722073e-05 -0.00010299453290152146 -0.0031184877376654188 0.0049843229498656005 -7.2954590591208472e-05 2.7941533781197522e-05 0.0034383830145214172 0.00021174837682403714 -0.0024562925778030022 0.0046743347909068691 0.00041545109626516333 -0.00013711998089156673 -0.0023077557233136758 0.00012550667130805475 0.0026762430910457625 -0.0019873968616097542
leaf_weight=22 69582 24 21 28 66 142078 20 26 24 31 22 93 20 20 155 31 20 25 289 31 29 83 21 25 60 4665 20 60 20 22
leaf_count=22 69582 24 21 28 66 142078 20 26 24 31 22 93 20 20 155 31 20 25 289 31 29 83 21 25 60 4665 20 60 20 22
internal_value=0 -3.42174e-06 0.000670212 4.1989e-05 -0.00048779 -4.04567e-06 -0.00010667 -0.000156915 -0.000142739 -0.000128331 0.000729582 -0.000154232 -0.00083787 -0.00292578 -0.000440173 -0.00170964 0.000433088 0.000333981 0.000518339 -0.00120595 0.000239911 0.00104722 -0.000119239 0.000549927 0.00166806 -0.000147513 -0.00029115 0.000132852 0.00105611 -0.00044137
internal_weight=0 148051 137 116 94 147914 5836 5339 5315 5289 155 5134 250 40 210 55 497 477 426 51 401 112 4884 198 85 4686 113 133 51 82
internal_count=217633 148051 137 116 94 147914 5836 5339 5315 5289 155 5134 250 40 210 55 497 477 426 51 401 112 4884 198 85 4686 113 133 51 82
shrinkage=0.05


Tree=510
num_leaves=31
num_cat=0
split_feature=40 22 1 20 1 29 28 22 43 34 43 3 3 40 21 43 23 33 43 16 4 15 1 18 18 36 41 41 20 8
split_gain=0.00217468 0.0233345 0.0966397 0.152081 0.0456165 0.0156083 0.0145993 0.0714152 0.173626 0.0546299 0.1708 0.0441641 0.0669182 0.186307 0.0375224 0.114789 0.2795 0.0938309 0.207899 0.054959 0.0676397 0.0585855 0.0795994 0.0355972 0.115338 0.0661805 0.0349082 0.213742 0.13559 0.173155
threshold=-0.60254799999999997 3.0676500000000004 0.80539150000000015 -9.3188649999999988 1.0868900000000001 0.18537850000000003 0.051198250000000008 2.9137900000000005 1.06199 0.069860150000000024 -0.5126099999999999 -19.074649999999995 -18.305499999999995 0.327845 -1.9516699999999998 -1.0505799999999998 -10.522449999999997 4.9664550000000009e-06 -3.2048399999999995 9.9131400000000028e-06 2.3910900000000006 -9.0272649999999983e-06 3.3087900000000006 -0.00016939049999999998 -3.2607899999999997e-05 0.082812500000000011 -0.12554300000000002 -0.057539999999999918 9.0309850000000029 -1.4130749999999998e-05
decision_type=2 2 2 2 2 2 2 2 2 2 2 2 2 2 2 2 2 2 2 2 2 2 2 2 2 2 2 2 2 2
left_child=-1 6 3 -3 -4 -6 -2 9 -9 10 -8 -11 13 -13 15 16 -14 -18 -19 21 -21 22 -17 25 -25 -23 -16 -28 -29 -30
right_child=1 2 4 -5 5 -7 7 8 -10 11 -12 12 14 -15 26 19 17 18 -20 20 -22 23 -24 24 -26 -27 27 28 29 -31
leaf_value=6.1820701747050627e-06 7.7050383927091324e-07 0.00040258971765007149 0.0023078211194660979 -0.0045965923678522817 -2.482031128911118e-05 -0.0013397314329407753 0.00048194036988372156 -0.0053275110837024513 0.00025397724989728121 0.0017017870938515344 -0.0045697321100979698 -0.0051053875271463772 0.0065054514990399845 0.00072232995544254666 1.5918738934584673e-05 0.0038770417684149423 0.00016107056223171054 -8.7689000440971739e-06 0.0065298421118086484 -0.0039651626831619068 -0.00040392032595718778 -0.0034566261992619151 -0.00042661969159131074 0.0034252102480778653 -0.00024132671371045043 0.00033999110226735262 -0.0016283648873579252 -0.0001928665120083039 0.0043633189173609335 0.00045752949889318385
leaf_weight=86025 124704 29 20 32 171 26 44 22 38 36 27 24 22 32 3424 22 207 31 20 20 40 22 21 23 318 24 246 1793 36 134
leaf_count=86025 124704 29 20 32 171 26 44 22 38 36 27 24 22 32 3424 22 207 31 20 20 40 22 21 23 318 24 246 1793 36 134
internal_value=0 -4.04088e-06 -0.000461643 -0.00221993 3.26227e-05 -0.000198362 -3.07223e-06 -7.5394e-05 -0.00179257 -5.97025e-05 -0.00143912 -4.46234e-05 -5.43573e-05 -0.00177526 -3.93064e-05 0.000288071 0.00109567 0.000634367 0.00255539 -0.000173413 -0.001591 2.43904e-05 0.00177525 -0.00017015 5.97637e-06 -0.00147578 -8.4057e-05 -0.000239022 -6.49115e-05 0.00128464
internal_weight=0 131608 278 61 217 197 131330 6626 60 6566 71 6495 6459 56 6403 770 280 258 51 490 60 430 43 387 341 46 5633 2209 1963 170
internal_count=217633 131608 278 61 217 197 131330 6626 60 6566 71 6495 6459 56 6403 770 280 258 51 490 60 430 43 387 341 46 5633 2209 1963 170
shrinkage=0.05


Tree=511
num_leaves=31
num_cat=0
split_feature=31 2 26 22 2 2 34 38 40 15 7 13 5 29 40 22 22 41 43 37 2 22 0 36 34 33 22 43 0 1
split_gain=0.00221395 0.010939 0.0864834 0.0118378 0.00875769 0.0348987 0.114972 0.0613174 0.0343871 0.0838642 0.0295669 0.0638196 0.16029 0.0291744 0.0260375 0.0126898 0.0106352 0.0773183 0.120241 0.164508 0.0261302 0.109995 0.176232 0.133612 0.0786833 0.0729067 0.0620451 0.221593 0.0593413 0.0468791
threshold=0.56878050000000013 3.0794900000000003 -0.0022709099999999997 -2.6299349999999992 2.9632050000000003 2.9401200000000007 0.45987150000000004 -0.062954099999999985 0.02582950000000005 -6.4763899999999986e-07 5.6588250000000005e-05 -4.4398749999999987e-06 1.4338400000000003e-05 0.16279950000000001 0.2761725000000001 -2.8256249999999992 -2.8603449999999997 -0.039869999999999954 1.5956900000000005 2.9738650000000005e-07 -2.5011349999999997 -2.6299349999999992 -5.018114999999999 -0.084377249999999987 0.35804150000000007 0.0031288150000000005 3.0909850000000003 1.9461850000000005 -4.1883099999999986 -3.5464499999999997
decision_type=2 2 2 2 2 2 2 2 2 2 2 2 2 2 2 2 2 2 2 2 2 2 2 2 2 2 2 2 2 2
left_child=-1 4 -3 -4 5 16 -7 -8 9 -6 11 12 -10 -9 -12 -13 17 -2 19 -19 21 22 23 -18 29 26 28 -28 -23 -25
right_child=1 2 3 -5 8 6 7 13 10 -11 14 15 -14 -15 -16 -17 20 18 -20 -21 -22 25 -24 24 -26 -27 27 -29 -30 -31
leaf_value=-1.5634787318285197e-06 -3.1982908488655527e-05 0.0033703701105488497 -0.0013291245630352934 0.00012795353846819997 -0.0037958306067074387 0.0043442449142457916 0.0023855058399203702 0.00027014844946769213 7.4381904809250329e-05 0.00072820058732759208 -0.0023596357891801749 -0.0013972917643790741 0.0051610471411420028 -0.0021473361222888346 -0.00037828387091591592 -0.00013312382349952179 0.0033213397792095723 -0.00013948171247687676 0.00080368496109581289 -0.0059988446580246093 6.9610466930037826e-06 -0.00011805423190753504 0.0047271829913370315 0.0002967435683240183 -0.00053211808835218477 0.002780748041792928 0.0055162653382550084 -0.0010450870476582227 0.0020956325920246121 0.0037201584880676821
leaf_weight=198549 2235 21 20 46 21 20 20 26 59 20 20 23 21 24 97 145 39 23 31 25 14549 1292 31 20 128 24 22 31 31 20
leaf_count=198549 2235 21 20 46 21 20 20 26 59 20 20 23 21 24 97 145 39 23 31 25 14549 1292 31 20 128 24 22 31 31 20
internal_value=0 1.62664e-05 0.000575645 -0.000313585 1.37046e-05 1.87215e-05 0.00100092 4.56844e-05 -0.000216022 -0.00158899 -6.17983e-05 0.000247298 0.00140963 -0.000890244 -0.000716977 -0.000306194 1.39435e-05 -8.6321e-05 -0.00162361 -0.00319123 2.82767e-05 0.000217606 0.00121135 0.000684827 7.27793e-05 4.8669e-05 1.01648e-06 0.00167849 -6.6184e-05 0.00200845
internal_weight=0 19084 87 66 18997 18591 90 70 406 41 365 248 80 50 117 168 18501 2314 79 48 16187 1638 238 207 168 1400 1376 53 1323 40
internal_count=217633 19084 87 66 18997 18591 90 70 406 41 365 248 80 50 117 168 18501 2314 79 48 16187 1638 238 207 168 1400 1376 53 1323 40
shrinkage=0.05


Tree=512
num_leaves=31
num_cat=0
split_feature=27 4 11 13 11 3 11 26 18 3 18 36 4 43 22 4 29 15 40 3 40 40 16 5 40 43 3 31 16 17
split_gain=0.00220987 0.00653834 0.0176981 0.0608664 0.0109392 0.0203699 0.0129855 0.0241089 0.014916 0.0422362 0.011552 0.0273177 0.022005 0.0195938 0.0132466 0.011308 0.0104684 0.0132706 0.015424 0.00916498 0.00746445 0.0211417 0.0194538 0.0140398 0.0117626 0.0192912 0.0341895 0.00816994 0.0188473 0.00562583
threshold=91.481750000000019 5.1455300000000008 -0.00035055549999999991 0.00035752750000000007 -5.9599849999999995e-05 -6.5484699999999991 -2.6900849999999998e-05 0.069955350000000013 0.0042538100000000011 -10.051449999999997 0.00010559900000000002 1.20103 0.46668750000000003 -2.9452350000000007 0.43047700000000005 0.34232900000000005 0.70424300000000006 -1.3871299999999999e-05 -0.32870999999999989 -12.352299999999998 -0.17527649999999997 -0.49100999999999978 4.7861450000000004e-06 8.1441900000000017e-06 0.80350500000000014 -0.71725499999999964 -7.1685999999999988 -6.1956549999999995 4.3089250000000013e-06 -4.2326149999999998e-07
decision_type=2 2 2 2 2 2 2 2 2 2 2 2 2 2 2 2 2 2 2 2 2 2 2 2 2 2 2 2 2 2
left_child=-1 2 3 -2 5 16 7 29 10 -10 12 -12 15 -13 -15 20 -4 -18 -19 -3 21 27 23 -22 25 -25 -27 28 -8 -6
right_child=1 19 4 -5 6 -7 8 -9 9 -11 11 13 -14 14 -16 -17 17 18 -20 -21 22 -23 -24 24 -26 26 -28 -29 -30 -31
leaf_value=4.333281917540546e-07 0.0026832446049083955 -0.0013107888878342543 -0.0002451026687998345 -0.00058749272008726348 -0.00070912528826738708 0.0011233548171003351 -7.7041507766979365e-05 0.0015404458850114041 0.0025533989747054879 -0.00043333455516780122 -0.0022242130659010616 0.0011559575730461802 0.0014403446090000217 -2.6753134261525704e-05 -0.0016205476914447816 -0.0012131181032269856 2.9126108426641186e-05 -0.00034716872221245219 -0.0020275977598632582 -0.00016506124454735983 0.0010888921660649508 0.0012075891224269169 -0.0013230006908997894 0.000428927301430976 -7.2268679931849789e-06 -0.002804154324985575 -0.00044433492623532157 0.00015886108621127363 -0.0015912260809272994 0.00023467355560690824
leaf_weight=216035 25 24 115 33 20 20 143 37 20 29 21 20 24 32 22 22 23 22 36 64 23 38 36 33 286 20 66 245 24 75
leaf_count=216035 25 24 115 33 20 20 143 37 20 29 21 20 24 32 22 22 23 22 36 64 23 38 36 33 286 20 66 245 24 75
internal_value=0 -5.8582e-05 -3.41664e-05 0.000822308 -6.83781e-05 -0.000396671 -1.10065e-05 0.000457686 -6.70458e-05 0.00078574 -0.000106654 -0.000632605 -5.46066e-05 -0.000180932 -0.000676077 -9.29387e-05 -0.000551776 -0.000987177 -0.00139019 -0.000477532 -6.59759e-05 7.91178e-05 -0.000206692 -0.000112797 -0.000181041 -0.000598778 -0.00099313 -2.49646e-05 -0.000294649 3.59791e-05
internal_weight=0 1598 1510 58 1452 216 1236 132 1104 49 1055 95 960 74 54 936 196 81 58 88 914 450 464 428 405 119 86 412 167 95
internal_count=217633 1598 1510 58 1452 216 1236 132 1104 49 1055 95 960 74 54 936 196 81 58 88 914 450 464 428 405 119 86 412 167 95
shrinkage=0.05


Tree=513
num_leaves=31
num_cat=0
split_feature=44 23 20 30 21 33 26 37 43 7 37 40 40 38 19 2 3 13 23 24 23 12 23 33 14 25 23 33 29 12
split_gain=0.00222566 0.0102023 0.0754955 0.0632257 0.145538 0.0463947 0.0386444 0.0309623 0.0348721 0.0268503 0.0170464 0.0291215 0.118492 0.0229362 0.0175934 0.0148729 0.0101094 0.107196 0.010108 0.094391 0.0277195 0.108374 0.0205711 0.118748 0.0166508 0.0142049 0.0134394 0.0236331 0.0123878 0.0123609
threshold=-3.6478300000000004 -18.396099999999997 -6.0084349999999995 0.016485500000000004 5.357330000000001 8.2405400000000009e-05 -0.00043562299999999995 -1.8701649999999998e-06 -0.23716000000000023 3.3982100000000008e-05 6.5116250000000006e-08 -0.27744100000000016 0.24966499999999994 -0.010271549999999999 6.3553350000000007e-07 -1.6362849999999998 -17.304849999999998 3.5056900000000007e-05 -18.143749999999997 -0.78263349999999987 -18.021849999999997 0.00033422200000000007 -17.886149999999997 -5.1110149999999994e-05 0.0034134750000000004 0.23366500000000004 -17.728849999999998 -3.7334249999999996e-05 -0.019959349999999997 0.00033422200000000007
decision_type=2 2 2 2 2 2 2 2 2 2 2 2 2 2 2 2 2 2 2 2 2 2 2 2 2 2 2 2 2 2
left_child=16 2 -2 4 6 -5 -4 9 -9 -8 13 -12 -13 -10 -15 -16 17 -1 19 -3 21 25 23 -22 -21 -20 27 -24 -26 -29
right_child=1 18 3 5 -6 -7 7 8 10 -11 11 12 -14 14 15 -17 -18 -19 20 24 22 -23 26 -25 28 -27 -28 29 -30 -31
leaf_value=0.0034262548489052622 0.0026866604711606422 0.0031656021399472734 0.0017161143652629108 -0.003853517773677595 0.003942064933566837 -0.00078367545302171493 -0.0025795007554864115 0.0016992401159024503 0.0012161876295522234 -0.00045935122070659421 9.9116517618466079e-06 -0.0034798993992521186 -0.00024129504824734545 0.00085095826296992532 -0.0013799120964628829 -0.00019748168561373815 7.3709290942699222e-06 -0.0012994829366756936 0.0011445960539276713 0.00090059743425196137 0.0034352383064507538 -0.0039347281509187516 -0.0017774589575780958 -0.00025399512619101605 -0.0013957672995318371 -0.00036965707337096042 -2.4060341068453259e-06 -0.00045688226116798246 -9.2253399532471152e-05 0.00096203798505939636
leaf_weight=21 22 26 23 20 21 32 28 22 32 32 107 38 110 32 33 137 62850 28 21 38 29 22 29 88 21 59 153488 66 138 20
leaf_count=21 22 26 23 20 21 32 28 22 32 32 107 38 110 32 33 137 62850 28 21 38 29 22 29 88 21 59 153488 66 138 20
internal_value=0 -3.22378e-06 -0.000195197 -0.000290251 -0.000148698 -0.00196438 -0.000293321 -0.000374262 -0.000248098 -0.00144875 -0.000335709 -0.000618502 -0.00107283 -2.7536e-05 -0.000224562 -0.000427012 7.93063e-06 0.000725833 -2.36514e-06 0.000334019 -2.8528e-06 -0.000826836 -2.30606e-06 0.00066043 -3.96923e-05 2.78344e-05 -2.81086e-06 -0.000543129 -0.000264416 -0.000126901
internal_weight=0 154734 689 667 615 52 594 571 511 60 489 255 148 234 202 170 62899 49 154045 223 153822 102 153720 117 197 80 153603 115 159 86
internal_count=217633 154734 689 667 615 52 594 571 511 60 489 255 148 234 202 170 62899 49 154045 223 153822 102 153720 117 197 80 153603 115 159 86
shrinkage=0.05


Tree=514
num_leaves=31
num_cat=0
split_feature=2 22 12 29 39 31 22 22 21 1 29 22 21 6 11 23 29 40 10 13 15 44 17 22 20 0 13 2 12 33
split_gain=0.00217858 0.0600723 0.225518 0.0437805 0.0733753 0.0335328 0.018469 0.0152409 0.123159 0.0738229 0.0570085 0.048404 0.122312 0.0698829 0.0659292 0.111075 0.010221 0.0239061 0.00968868 0.00948892 0.00882726 0.00659994 0.00554518 0.00479864 0.00362409 0.0684243 0.0183034 0.0621584 0.0399916 0.0749256
threshold=-2.9481199999999999 3.0909850000000003 -1.1550849999999998e-05 0.24911750000000002 0.010368050000000002 2.3607850000000004 2.7036350000000007 -3.0365249999999997 -2.0281699999999994 -0.50917349999999983 0.027036700000000004 -2.9378149999999996 0.18529350000000003 -1.1549749999999999e-07 -3.4539199999999996e-05 -9.3130249999999979 0.11680600000000001 -0.3819765 5.1039400000000005e-05 7.2975750000000002e-06 1.4474800000000001e-05 0.026084999999999251 6.0555850000000007e-09 -2.6299349999999992 -19.608449999999998 -11.535399999999997 4.8217100000000003e-05 -2.6287249999999998 6.2839950000000011e-05 -0.00090391799999999997
decision_type=2 2 2 2 2 2 2 2 2 2 2 2 2 2 2 2 2 2 2 2 2 2 2 2 2 2 2 2 2 2
left_child=1 3 -3 5 -5 7 20 8 -1 10 21 12 13 14 15 18 -13 -18 -9 -16 22 -10 -6 -24 25 -2 27 -27 -29 -30
right_child=24 2 -4 4 6 -7 -8 11 9 -11 -12 16 -14 -15 19 -17 17 -19 -20 -21 -22 -23 23 -25 -26 26 -28 28 29 -31
leaf_value=0.0041088796168332921 0.0026809567841701212 -0.0011396623111068038 0.0050463401273680994 -0.0034777195721803962 0.00076111651287646964 0.0016710744560033822 -0.0017901756590054858 -0.0013253129893564619 0.00023200621237311938 0.0020016591411870744 -0.0031802318186410481 -7.447751855567056e-06 0.0025848781779958785 -0.003659885665443393 -0.00021492131983967709 -0.0050560835149371999 -8.8941030823300551e-05 -0.0018935012534105529 0.00019523657630832699 0.0011143271636683495 -0.0011343340016901494 -0.00088516274372523189 -0.00083941070799482993 6.2839655077238737e-05 3.6984472533847603e-07 0.002922760673100129 -0.00032400916719964095 -0.00015689462544614093 0.0023429270727587316 -0.0001155053844522166
leaf_weight=20 25 34 26 23 20 29 21 20 39 29 21 4549 22 28 29 20 78 24 22 25 20 20 20 56 211594 20 257 412 51 79
leaf_count=20 25 34 26 23 20 29 21 20 39 29 21 4549 22 28 29 20 78 24 22 25 20 20 20 56 211594 20 257 412 51 79
internal_value=0 -3.19903e-05 0.00154094 -5.03692e-05 -0.000864467 -2.41871e-05 -0.000425746 -3.4127e-05 0.000502216 -0.000159557 -0.000942999 -4.84903e-05 -0.00088745 -0.00141794 -0.000876787 -0.00198924 -1.85468e-05 -0.000513543 -0.000528835 0.000400471 -0.000178737 -0.000146695 2.03452e-05 -0.000174595 7.82296e-07 0.000104185 2.55295e-05 0.000185372 8.43612e-05 0.000848957
internal_weight=0 5195 60 5135 160 4975 137 4946 129 109 80 4817 166 144 116 62 4651 102 42 54 116 59 96 76 212438 844 819 562 542 130
internal_count=217633 5195 60 5135 160 4975 137 4946 129 109 80 4817 166 144 116 62 4651 102 42 54 116 59 96 76 212438 844 819 562 542 130
shrinkage=0.05


Tree=515
num_leaves=31
num_cat=0
split_feature=30 40 8 1 9 0 13 19 19 33 5 40 40 1 33 1 13 2 40 23 19 13 1 19 19 13 4 17 22 0
split_gain=0.00222059 0.0233609 0.0157246 0.0279997 0.0548417 0.14563 0.0518791 0.0815403 0.0436145 0.023192 0.0231613 0.0214184 0.0614023 0.0935381 0.101128 0.0726896 0.0388942 0.0344032 0.0241979 0.0995251 0.024089 0.0374964 0.0235721 0.0230946 0.0211149 0.0385309 0.0152445 0.029217 0.0943625 0.195461
threshold=0.053348600000000003 5.6762150000000009 6.6503000000000005e-06 -0.89553799999999983 3.1500050000000003e-05 7.2069900000000011 3.7051150000000005e-05 0.00016688000000000003 0.0019525250000000003 0.0031288150000000005 9.2943400000000012e-06 -0.22452634999999985 0.14973499999999998 -3.6486249999999996 0.00023007250000000004 -5.6681399999999993 -5.8484999999999993e-05 -1.2781099999999996 -0.3562499999999999 -11.351199999999999 7.0271150000000011e-06 2.3721450000000003e-05 -14.712749999999998 4.555630000000001e-05 0.11686450000000001 0.00052452550000000014 6.5834800000000007 2.9982650000000003e-05 2.2495850000000002 -3.0090749999999997
decision_type=2 2 2 2 2 2 2 2 2 2 2 2 2 2 2 2 2 2 2 2 2 2 2 2 2 2 2 2 2 2
left_child=-1 2 3 4 6 -6 8 -8 -2 -9 -7 18 13 14 -13 17 -14 -16 22 -20 21 -18 -4 -22 26 -26 27 -5 -29 -30
right_child=1 -3 11 24 5 10 7 9 -10 -11 -12 12 16 -15 15 -17 20 -19 19 -21 23 -23 -24 -25 25 -27 -28 28 29 -31
leaf_value=7.6827682522794728e-07 -0.00017160197560399496 0.0015229362546354728 0.0014662936329841614 -4.4650420612022968e-05 0.005281664283829742 0.0017688333122697214 0.0031659795551416308 -0.00012878668948890966 -0.0025271030215662906 0.0016710490233063783 -0.00024940162210524168 -0.0031498400085183675 0.0016909790534035503 -0.0044175490108457217 -0.0021700637885369361 0.0025485402455239599 -0.00024261220646990667 0.00032288124972593884 0.0036530035686155315 -0.0013351099187275395 0.0013320803193858377 -0.0029297276717261413 -0.00011380828673406223 -0.00020571320895482241 -0.0027356954262177172 -0.00016006721419920347 -0.00083352686466511199 6.6400246460467487e-05 0.0062912675924599176 -0.00023029903079279596
leaf_weight=212711 135 24 24 2134 20 21 29 96 23 22 44 32 28 21 25 23 37 31 20 20 27 20 1427 255 20 53 54 210 20 27
leaf_count=212711 135 24 24 2134 20 21 29 96 23 22 44 32 28 21 25 23 37 31 20 20 27 20 1427 255 20 53 54 210 20 27
internal_value=0 -3.32021e-05 -4.08272e-05 3.32833e-05 0.000427509 0.00155065 0.000114503 0.000790564 -0.000514491 0.000206776 0.000402644 -0.000149125 -0.000432673 -0.00135749 -0.000778565 0.000181951 -0.000100039 -0.000790041 -5.4229e-05 0.00115895 -0.00024797 -0.00118546 -8.76729e-05 -5.84777e-05 -2.77762e-05 -0.000865719 -2.75792e-06 1.60047e-05 0.000519655 0.00254484
internal_weight=0 4922 4898 2908 390 85 305 147 158 118 65 1990 499 132 111 79 367 56 1491 40 339 57 1451 282 2518 73 2445 2391 257 47
internal_count=217633 4922 4898 2908 390 85 305 147 158 118 65 1990 499 132 111 79 367 56 1491 40 339 57 1451 282 2518 73 2445 2391 257 47
shrinkage=0.05


Tree=516
num_leaves=31
num_cat=0
split_feature=12 24 25 40 19 28 19 34 3 17 17 30 32 10 16 36 12 32 21 43 19 43 44 43 39 6 40 43 34 19
split_gain=0.00219733 0.00872751 0.0480135 0.140432 0.0162054 0.0171117 0.0170399 0.0575039 0.0203781 0.0130247 0.0372724 0.0182506 0.0240399 0.0791569 0.0202058 0.0157224 0.0131823 0.0088171 0.0328654 0.0232633 0.0926752 0.0417222 0.0368715 0.0720665 0.0473705 0.0432011 0.0693419 0.0301826 0.0232653 0.0336037
threshold=-0.00029231849999999997 -0.57695549999999984 2.2291500000000002 -0.17527649999999997 1.2759600000000001e-05 -0.22198749999999998 9.7599650000000017e-05 2.1557050000000006 -19.074649999999995 -2.4916349999999997e-05 -1.9423899999999999e-05 0.16934650000000004 3.7022150000000003 1.6453300000000004e-05 2.9426600000000004e-05 0.86690500000000015 -0.00047637949999999998 0.40858550000000005 7.5557450000000008 0.55890500000000032 3.7480150000000004e-05 0.85052500000000031 1.3201050000000005 -1.0505799999999998 0.044881000000000004 -3.0575749999999994e-07 0.1751400000000001 -0.71725499999999964 1.3837400000000002 0.0020341900000000004
decision_type=2 2 2 2 2 2 2 2 2 2 2 2 2 2 2 2 2 2 2 2 2 2 2 2 2 2 2 2 2 2
left_child=1 2 3 -1 5 -4 7 -6 -8 15 -11 12 -12 -14 -15 -10 -13 -3 19 22 -21 -22 23 -19 28 26 -25 -27 -24 -30
right_child=-2 17 4 -5 6 -7 8 -9 9 10 11 16 13 14 -16 -17 -18 18 -20 20 21 -23 24 25 -26 27 -28 -29 29 -31
leaf_value=4.520631316861707e-05 -1.7397658617586529e-06 1.5689370358509071e-05 -0.0019580561181646769 0.0049498481038972387 0.0026519279516360257 4.1184614237863574e-06 0.0014260617636392891 -0.00094506755413021899 -7.4419538358348671e-05 0.0022296594106592238 3.6175766246366404e-05 -0.00012162429089872412 0.0036594532034359877 -3.1031441684254399e-05 0.001458406669779175 -0.0010036169911044827 -0.001582715244148858 -0.0029400393424189783 0.0013948045854906216 0.0032540092391586356 0.0016837594113145744 -0.00010361388235961052 -8.2302415188366217e-05 -0.0028888246757933535 0.0022805034708289896 0.0016634766567641729 -9.9786427474030548e-05 -0.00027804110634850539 -0.0027859920095943385 -0.00034659478744364001
leaf_weight=54 194330 19914 20 20 25 25 27 20 424 21 706 38 20 106 29 51 26 35 36 22 34 822 536 39 20 26 52 87 20 48
leaf_count=54 194330 19914 20 20 25 25 27 20 424 21 706 38 20 106 29 51 26 35 36 22 34 822 536 39 20 26 52 87 20 48
internal_value=0 1.45084e-05 0.000126753 0.00137079 6.68974e-05 -0.000867959 9.50746e-05 0.00105326 6.52966e-05 3.94411e-05 0.000146706 9.94176e-05 0.000159969 0.000723829 0.000288922 -0.000174186 -0.000715192 6.16673e-06 -0.000100549 -0.00013147 4.97328e-05 -3.26201e-05 -0.000315822 -0.000843906 -0.000113558 -0.000484276 -0.00129509 0.00016868 -0.000192832 -0.00106406
internal_weight=0 23303 1612 74 1538 45 1493 45 1448 1421 946 925 861 155 135 475 64 21691 1777 1741 878 856 863 239 624 204 91 113 604 68
internal_count=217633 23303 1612 74 1538 45 1493 45 1448 1421 946 925 861 155 135 475 64 21691 1777 1741 878 856 863 239 624 204 91 113 604 68
shrinkage=0.05


Tree=517
num_leaves=31
num_cat=0
split_feature=8 20 16 41 24 33 40 40 40 40 14 2 43 16 10 21 40 40 13 26 40 8 6 40 34 7 40 30 37 41
split_gain=0.0021504 0.00731745 0.02836 0.0335833 0.00561248 0.0188919 0.0580787 0.110417 0.0159671 0.040048 0.0570523 0.0527788 0.0366673 0.0145263 0.0130406 0.007827 0.0628913 0.260835 0.09637 0.0780155 0.0409249 0.0238811 0.0596922 0.0323251 0.0184065 0.011257 0.0107041 0.00821809 0.00645402 0.00602378
threshold=-1.8258849999999995e-05 19.256550000000001 2.5770550000000005e-06 -0.81049899999999986 0.91519300000000003 -0.00016239399999999998 0.2761725000000001 -0.12496499999999998 0.71352749999999998 -0.027530000000000051 0.00036183850000000008 1.5763700000000003 -0.88227999999999918 1.8237450000000004e-06 4.6438600000000006e-05 11.881850000000002 0.010257000000000018 0.039429999999999972 -8.0191649999999986e-06 5.2797150000000007e-05 0.077348000000000056 -4.7438199999999996e-05 -7.8153549999999983e-06 -0.079468000000000025 0.017144000000000003 3.5630700000000011e-05 0.2761725000000001 0.00070518350000000013 0.00046534500000000004 0.040430000000000084
decision_type=2 2 2 2 2 2 2 2 2 2 2 2 2 2 2 2 2 2 2 2 2 2 2 2 2 2 2 2 2 2
left_child=1 4 3 -3 5 6 7 -1 9 12 -11 -12 -6 -14 -15 29 18 -18 19 -17 -19 22 -20 -23 -25 -22 27 -27 -10 -7
right_child=-2 2 -4 -5 8 15 -8 -9 28 10 11 -13 13 14 -16 16 17 20 21 -21 25 23 -24 24 -26 26 -28 -29 -30 -31
leaf_value=-0.00012428054952369377 -1.9268753168835934e-06 -0.00026418241262757058 0.00096742239547893411 -0.0025977579397953206 0.0017444244294892997 3.1793642419585626e-05 -1.0725724120482087e-05 0.0038385838535759833 2.3223143646152229e-05 -0.00010064224454040145 -0.0042940729213031851 -0.00086851867659867789 -1.3368442905501211e-05 -0.00195483756750556 -0.00023149611373335811 0.0004607563616115262 -0.0051565300220129855 -0.0022592069801644159 6.7031259025775481e-05 0.0047213838028602323 0.0010724023474904243 -1.9391081492466951e-05 -0.0030938006718497493 0.00061798669087390111 0.0025762235363072251 -0.00024972499462213216 -3.0474600181461028e-05 -0.001622063522154349 0.00091947110451569421 -2.4379119253923832e-05
leaf_weight=39 189196 58 28 21 26 20285 193 32 462 51 22 23 141 21 23 22 29 23 59 21 20 201 20 30 20 24 261 20 21 6241
leaf_count=39 189196 58 28 21 26 20285 193 32 462 51 22 23 141 21 23 22 29 23 59 21 20 201 20 30 20 24 261 20 21 6241
internal_value=0 1.28198e-05 -0.000399885 -0.0008845 1.43786e-05 1.81478e-05 0.000439082 0.0016618 -0.000117021 -0.000398971 -0.00124561 -0.00254323 -1.37721e-05 -0.00026087 -0.001054 1.40737e-05 -0.000145214 -0.000600641 0.000315097 0.00254153 -0.000220983 2.49857e-05 -0.000733179 0.000263611 0.00140128 -7.674e-05 -0.000152094 -0.000873515 6.21904e-05 1.85774e-05
internal_weight=0 28437 107 79 28330 27540 264 71 790 307 96 45 211 185 44 27276 750 377 373 43 348 330 79 251 50 325 305 44 483 26526
internal_count=217633 28437 107 79 28330 27540 264 71 790 307 96 45 211 185 44 27276 750 377 373 43 348 330 79 251 50 325 305 44 483 26526
shrinkage=0.05


Tree=518
num_leaves=31
num_cat=0
split_feature=12 19 29 26 40 40 43 31 12 24 3 17 17 39 32 21 33 3 40 8 0 33 40 10 28 28 40 10 33 6
split_gain=0.00209946 0.0280381 0.0534493 0.00824635 0.0416186 0.125186 0.163692 0.0190377 0.0186323 0.0156283 0.0275653 0.0324602 0.0410717 0.0268147 0.0209343 0.0149089 0.010113 0.0335702 0.0472906 0.0753061 0.0198892 0.0084288 0.0533302 0.150396 0.105567 0.0877508 0.0875701 0.0834963 0.0495982 0.0686401
threshold=0.00022537400000000003 1.3835200000000002e-09 -0.00087486899999999991 -0.0037174099999999996 0.14973499999999998 -0.40968649999999995 -3.9444949999999994 29.306750000000005 0.00055056400000000013 1.1195950000000001 -16.558299999999999 5.3722100000000007e-06 2.0681900000000003e-05 2.3303150000000001 -7.1146499999999993 6.1622250000000012 -0.00014064699999999996 -17.304849999999998 0.327845 -1.1906199999999998e-05 3.6588600000000002 -1.6545349999999999e-05 0.077348000000000056 1.3379750000000002e-05 0.34469700000000009 0.15361650000000002 0.12375499999999996 1.6453300000000004e-05 -1.7351949999999996e-05 -1.0755299999999999e-06
decision_type=2 2 2 2 2 2 2 2 2 2 2 2 2 2 2 2 2 2 2 2 2 2 2 2 2 2 2 2 2 2
left_child=-1 2 -2 4 5 -3 -7 9 -9 13 -11 14 -13 16 -12 -14 17 -5 19 -19 -21 22 23 -18 25 27 -24 -25 29 -29
right_child=1 3 -4 7 -6 6 -8 8 -10 10 11 12 15 -15 -16 -17 21 18 -20 20 -22 -23 26 24 -26 -27 -28 28 -30 -31
leaf_value=-1.8834903497104867e-06 0.0031963013908125506 3.688137219931829e-05 -0.00016358963372928477 -0.0012004664020579575 -3.2061166411660639e-05 -0.00034373898497073074 0.0054960003128923874 -0.0019732489502227207 -4.1300967523756507e-05 -0.0018123848359742813 0.001583396680039836 -0.0023581076708311839 9.8182701628462855e-06 0.0017185098289147667 4.7735366624097695e-05 -0.0013671420527971349 -0.0035602573216908097 0.0030598458654891988 6.4351457907855454e-05 0.0011257547911372966 -0.00086869859008584173 1.8505274518678727e-05 0.0027482926673812851 0.0028925197564240081 0.0029392805349440707 -0.0028322313440084044 -1.1578121040436132e-05 0.0014572171942281598 -0.0028446400396387617 -0.00054635073511045485
leaf_weight=189725 20 133 29 35 590 21 28 24 26 29 28 30 92 23 107 25 38 39 241 25 25 22555 29 20 24 36 3232 49 20 335
leaf_count=189725 20 133 29 35 590 21 28 24 26 29 28 30 92 23 107 25 38 39 241 25 25 22555 29 20 24 36 3232 49 20 335
internal_value=0 1.28044e-05 0.00120779 1.07026e-05 0.000171838 0.000832828 0.00299325 6.11011e-06 -0.000968636 7.91273e-06 -0.000344485 -0.000193531 -0.000707609 1.20134e-05 0.000366243 -0.000284404 1.05436e-05 0.000271925 0.000428088 0.00141304 0.000128528 6.92129e-06 -6.21448e-05 -0.000531367 -0.000293562 -0.000462232 1.29653e-05 -0.000261005 -0.00041712 -0.000290687
internal_weight=0 27908 49 27859 772 182 49 27087 50 27037 311 282 147 26726 135 117 26703 365 330 89 50 26338 3783 522 484 460 3261 424 404 384
internal_count=217633 27908 49 27859 772 182 49 27087 50 27037 311 282 147 26726 135 117 26703 365 330 89 50 26338 3783 522 484 460 3261 424 404 384
shrinkage=0.05


Tree=519
num_leaves=31
num_cat=0
split_feature=32 12 29 19 4 6 3 12 33 10 15 40 6 13 40 15 22 3 3 23 40 40 14 40 43 18 40 20 20 15
split_gain=0.00222232 0.0200627 0.052126 0.0871936 0.109677 0.0395575 0.0391719 0.0296407 0.0804755 0.0645441 0.0202819 0.0254531 0.0148872 0.0175584 0.0134482 0.0131457 0.00995637 0.00767105 0.0121998 0.0704402 0.00966052 0.00780408 0.0386012 0.0118524 0.0230957 0.00681683 0.00582775 0.00516083 0.00506913 0.00477654
threshold=-10.048129999999999 0.00019109250000000003 -0.067941949999999987 0.0059260250000000006 0.065295950000000005 -4.5011399999999994e-06 -15.867949999999999 0.00011857750000000002 0.00091355850000000014 1.9737400000000002e-05 3.6456250000000008e-06 -0.74380499999999983 3.5548950000000005e-07 4.8217100000000003e-05 0.354709 2.2039450000000004e-06 2.0895950000000005 -16.266399999999997 -13.166999999999998 -18.884799999999995 -2.3049710499999994 0.57364500000000007 0.00059245900000000015 -0.17527649999999997 3.3061900000000009 2.0038450000000001e-05 -4.7245149999999994 -11.277699999999998 -7.8361449999999992 1.1195050000000002e-06
decision_type=2 2 2 2 2 2 2 2 2 2 2 2 2 2 2 2 2 2 2 2 2 2 2 2 2 2 2 2 2 2
left_child=1 7 3 4 -3 -4 -7 10 9 -9 15 26 13 -8 -13 17 -14 -1 19 -19 -21 23 27 29 -25 -11 -12 -23 -26 -20
right_child=-2 2 5 -5 -6 6 12 8 -10 25 11 14 16 -15 -16 -17 -18 18 21 20 -22 22 -24 24 28 -27 -28 -29 -30 -31
leaf_value=-0.00076857351832586578 4.534611923244346e-07 0.0044252666040847542 0.0014402504067000902 -0.00071274895275968855 0.00025233432773553256 -0.0022565266265051572 0.0016471696900407552 -0.003966761394721372 0.0016440207919610355 -0.00044087012455991766 -0.0010152123734852385 -0.002555396258831024 -0.0015653988487429162 -0.00039979562173936175 -0.00072180362243670973 0.0010382215965599303 -0.00015947162225048113 0.0031500323957880032 -3.9249998958614298e-05 0.00023900407797191291 -0.0012353154181619175 -0.0007660974230384454 0.0023585702595300974 -0.0018437584374893319 -0.00051012294502202971 -0.0015163327035818087 -0.00014948378422319846 0.0001318890675156581 0.00038972382030022284 0.00060367629965185198
leaf_weight=32 215894 32 29 36 31 28 20 22 24 41 22 20 20 22 20 31 34 20 780 25 20 20 20 27 34 23 167 80 29 30
leaf_count=32 215894 32 29 36 31 28 20 22 24 41 22 20 20 22 20 31 34 20 780 25 20 20 20 27 34 23 167 80 29 30
internal_value=0 -5.62965e-05 0.000356247 0.00125022 0.00237192 -0.000222207 -0.000611007 -0.00012621 -0.000916033 -0.00163047 -6.31157e-05 -0.000492762 -0.000131064 0.00057495 -0.0016386 2.2589e-05 -0.000680185 -5.59777e-06 1.69047e-05 0.000681068 -0.000416249 -2.54194e-05 0.000353338 -7.59204e-05 -0.000620263 -0.000827364 -0.000250256 -4.77082e-05 -9.59078e-05 -1.54379e-05
internal_weight=0 1739 252 99 63 153 124 1487 110 86 1377 229 96 42 40 1148 54 1117 1085 65 45 1020 120 900 90 64 189 100 63 810
internal_count=217633 1739 252 99 63 153 124 1487 110 86 1377 229 96 42 40 1148 54 1117 1085 65 45 1020 120 900 90 64 189 100 63 810
shrinkage=0.05


Tree=520
num_leaves=31
num_cat=0
split_feature=23 36 3 7 16 3 44 40 40 3 15 29 18 22 40 40 33 40 23 31 6 24 26 3 10 24 7 28 29 3
split_gain=0.00207515 0.0140682 0.0850675 0.0165587 0.00924955 0.0178342 0.0553206 0.0485955 0.144025 0.267408 0.0412449 0.0303951 0.0215789 0.0259188 0.0144722 0.0568622 0.0477602 0.0143424 0.0258486 0.0133435 0.0577882 0.0108921 0.0107524 0.0105437 0.0229924 0.015631 0.0388359 0.00931404 0.00696308 0.0142655
threshold=-6.1276249999999992 -0.0013312399999999998 -6.0035249999999989 6.7809300000000008e-05 -1.8851849999999998e-07 -6.4965349999999988 -0.052540000000000468 0.2761725000000001 -0.17527649999999997 -6.2531049999999988 -1.8360349999999999e-07 -0.20482949999999997 -1.2645199999999997e-07 0.43047700000000005 0.016888500000000004 0.12375499999999996 1.1132650000000001e-05 -0.011175000000000155 -6.0395599999999989 -6.1956549999999995 -1.0087549999999998e-06 -0.092714749999999985 0.00033276500000000006 -6.7538149999999986 1.8878250000000005e-05 -0.22123499999999999 4.8350600000000004e-05 -0.010344149999999998 -0.10712749999999999 -6.9704649999999999
decision_type=2 2 2 2 2 2 2 2 2 2 2 2 2 2 2 2 2 2 2 2 2 2 2 2 2 2 2 2 2 2
left_child=-1 2 3 -2 23 19 14 8 27 -10 -11 -9 21 -14 16 -16 17 -7 -19 20 -6 -12 -13 -3 -25 26 -26 -8 29 -21
right_child=1 4 -4 -5 5 6 7 11 9 10 12 22 13 -15 15 -17 -18 18 -20 28 -22 -23 -24 24 25 -27 -28 -29 -30 -31
leaf_value=-8.5741187668345937e-07 -8.7257300882284713e-05 1.973062848720025e-05 -0.0026918646960411661 0.0014956508814793778 0.0027647918073687998 -3.0552605548465668e-05 0.0010812735045328736 -0.0018868727235323087 0.0066026172042324182 0.0031371928092002316 0.000592826537880732 -3.3450752182813763e-05 0.0029106799483997747 0.00067659908704258305 -0.0026355289064509714 -8.0817591138197727e-05 0.0023592561128377085 -0.00033242157136555763 0.0021792106643607396 -0.000149849422835929 -0.00054349100030253101 -0.0008554359804838897 0.0012314841462648474 -0.0014008229833845504 -0.0026956825470597322 -2.8442547897146838e-05 -0.00013485873320427457 -5.5784998284810407e-05 1.637791871232779e-05 -0.0015566702442993121
leaf_weight=211122 95 1728 33 20 22 378 20 21 27 22 37 105 20 37 23 411 24 20 21 182 33 20 20 39 20 445 57 181 2430 20
leaf_count=211122 95 1728 33 20 22 378 20 21 27 22 37 105 20 37 23 411 24 20 21 182 33 20 20 39 20 445 57 181 2430 20
internal_value=0 2.7802e-05 -0.000454108 0.000188031 3.90109e-05 8.41977e-05 0.000229805 0.00064389 0.000952997 0.00205744 0.00115509 -0.00012676 0.000772576 0.00146049 -1.09977e-05 -0.000216206 0.000190041 6.57902e-05 0.000954024 9.03705e-06 0.000779822 8.46643e-05 0.000168939 -4.14133e-05 -0.00022975 -0.000142256 -0.000800008 5.73552e-05 -7.06978e-06 -0.000289139
internal_weight=0 6511 148 115 6363 4074 1387 510 364 163 136 146 114 57 877 434 443 419 41 2687 55 57 125 2289 561 522 77 201 2632 202
internal_count=217633 6511 148 115 6363 4074 1387 510 364 163 136 146 114 57 877 434 443 419 41 2687 55 57 125 2289 561 522 77 201 2632 202
shrinkage=0.05


Tree=521
num_leaves=31
num_cat=0
split_feature=12 23 19 43 3 21 19 40 40 19 11 28 15 24 22 34 34 12 30 12 22 1 13 10 38 19 22 19 14 40
split_gain=0.00206457 0.00826069 0.0669868 0.0317392 0.0443126 0.0429307 0.0367015 0.150146 0.27909 0.196456 0.0438135 0.0152493 0.0129807 0.0110751 0.0213114 0.010219 0.012995 0.0678641 0.128326 0.0312636 0.0560152 0.0530509 0.013358 0.0126958 0.0114794 0.0511199 0.0763147 0.0137991 0.0318749 0.0120898
threshold=-0.00029231849999999997 -15.479399999999998 5.5624400000000012e-07 -2.9452350000000007 -19.074649999999995 -3.1868999999999996 0.0006688480000000001 -0.018010000000000078 0.20129000000000011 1.9131000000000004e-05 3.7226350000000003e-05 -1.7331449999999997 3.0566700000000009e-07 0.91519300000000003 -1.4497649999999997 34.706300000000006 6.2013600000000011 -0.00047637949999999998 0.064526950000000013 -0.00093344999999999984 -0.90610399999999991 -4.339389999999999 3.5922650000000011e-05 2.8986250000000004e-05 -0.032169599999999993 4.1504100000000008e-05 -0.20719599999999996 0.00036703250000000005 0.0090263400000000025 -0.3562499999999999
decision_type=2 2 2 2 2 2 2 2 2 2 2 2 2 2 2 2 2 2 2 2 2 2 2 2 2 2 2 2 2 2
left_child=1 2 -1 -4 5 -5 7 13 9 -9 -10 -8 -7 14 -6 16 24 19 -19 21 -21 -18 -20 -17 25 26 -3 28 -27 -29
right_child=-2 15 3 4 6 12 11 8 10 -11 -12 -13 -14 -15 -16 23 17 18 22 20 -22 -23 -24 -25 -26 27 -28 29 -30 -31
leaf_value=0.0023288349767398991 -1.6863899762210802e-06 -0.0041202208569438882 0.0020023106235471677 -0.0030869040516249484 -0.0016020686499478359 -0.0010713297314526114 0.0013534745944309094 0.0018134434067178518 -0.00043126365933089959 0.0087376410310666657 0.0022826261121613812 9.0190875904977685e-07 0.00059647837546435763 0.0010225232134954158 -1.7710517938460476e-05 -0.0016883373576274609 -0.00028556697006774413 0.0047982202514752076 0.0014301486254407793 -0.0025810782816411268 5.1753981573836362e-05 0.0026542255355577384 -0.00013394081035458355 -5.0827779993816314e-05 7.6881768918544949e-06 0.0022330455214023457 -7.6319420112927884e-05 -8.3538671827530685e-06 -0.00058984757793950854 -0.00042639153080204569
leaf_weight=33 194330 20 21 21 23 28 21 20 58 21 20 2712 20 22 275 20 57 22 20 31 58 21 43 29 18776 20 28 600 20 243
leaf_count=33 194330 20 21 21 23 28 21 20 58 21 20 2712 20 22 275 20 57 22 20 31 58 21 43 29 18776 20 28 600 20 243
internal_value=0 1.40633e-05 8.74211e-05 6.47458e-05 5.21914e-05 -0.00120134 7.94593e-05 0.000503818 0.00202016 0.00535998 0.000264606 1.12949e-05 -0.00037641 -6.00702e-05 -0.000139993 1.98239e-06 3.75292e-06 0.000360532 0.00151064 -0.000224852 -0.0008653 0.000505916 0.000362596 -0.000719199 -8.0934e-07 -0.000172184 -0.00176128 -8.58001e-05 0.000821599 -0.000128856
internal_weight=0 23303 3295 3262 3241 69 3172 439 119 41 78 2733 48 320 298 20008 19959 252 85 167 89 78 63 49 19707 931 48 883 40 843
internal_count=217633 23303 3295 3262 3241 69 3172 439 119 41 78 2733 48 320 298 20008 19959 252 85 167 89 78 63 49 19707 931 48 883 40 843
shrinkage=0.05


Tree=522
num_leaves=31
num_cat=0
split_feature=31 20 10 10 11 20 2 4 11 11 44 11 43 16 0 16 33 33 0 37 20 6 2 41 21 20 2 32 37 2
split_gain=0.00209585 0.0125648 0.0668651 0.0404287 0.129832 0.176321 0.0515091 0.0322801 0.105727 0.0324548 0.0157608 0.027414 0.0180591 0.0132993 0.0267458 0.0427213 0.104181 0.0394854 0.0375285 0.0700157 0.0338246 0.0318374 0.0222281 0.0217027 0.272262 0.0194201 0.018406 0.0821979 0.0177341 0.0263785
threshold=0.56878050000000013 3.8241100000000006 1.0512900000000001e-05 2.7183000000000004e-05 -4.4153649999999994e-05 5.095670000000001 1.8439650000000001 0.26785250000000005 -7.4584349999999995e-06 -1.6735099999999998e-05 5.2253350000000003 -0.000119502 -4.3789749999999996 5.8204250000000011e-06 -3.1948099999999999 1.2311050000000001e-05 -8.1044199999999979e-05 0.0031288150000000005 -5.7641099999999996 -2.7948149999999997e-06 2.6112300000000004 1.2112450000000003e-07 -2.0813999999999995 5.6849350000000003 -2.2818199999999993 -19.608449999999998 -1.8039399999999997 1.9738300000000002 -1.1844749999999999e-05 -2.2522399999999996
decision_type=2 2 2 2 2 2 2 2 2 2 2 2 2 2 2 2 2 2 2 2 2 2 2 2 2 2 2 2 2 2
left_child=-1 13 -3 4 5 -4 -7 9 -9 -6 12 -12 -5 23 15 16 -15 20 21 -20 25 -18 -16 -2 -25 -17 27 -24 29 -27
right_child=1 2 3 10 7 6 -8 8 -10 -11 11 -13 -14 14 22 17 18 -19 19 -21 -22 -23 26 24 -26 28 -28 -29 -30 -31
leaf_value=-1.52120846569792e-06 2.0880133758147838e-05 0.0027838575204441442 0.0055827058555829963 0.0014156081361025351 -0.0016252890020362375 -0.00044054371238736486 0.0025336586331225893 0.0041012151185714175 -0.00016527757982331886 2.4877124391446063e-05 -0.002142964439815842 -7.7921704117519175e-05 -7.327829998313165e-05 -0.0032911475398577751 0.0016687652617110871 -0.0014747310097812227 -0.0025447554129641504 0.002036928220768459 0.0028368623204269999 -0.00090374781319606592 -0.0018324423232115806 -0.00018033065347741026 3.445320714442795e-05 0.0057772560404952275 -0.00019208824239567862 0.00031310642617895747 2.3858363504916388e-05 -0.0032968617537888984 -4.1670062041474157e-05 -0.0014876270654637649
leaf_weight=198549 13872 24 27 21 34 37 24 20 53 241 25 45 675 39 20 27 24 20 22 29 31 35 95 22 145 33 2554 23 814 53
leaf_count=198549 13872 24 27 21 34 37 24 20 53 241 25 45 675 39 20 27 24 20 22 29 31 35 95 22 145 33 2554 23 814 53
internal_value=0 1.58266e-05 0.000170667 0.00011849 0.000502846 0.00221864 0.000729634 6.8966e-05 0.00100362 -0.000179143 -0.000100282 -0.000815437 -2.8355e-05 5.19636e-06 -7.75332e-05 -0.000282036 -0.00107073 -0.000161877 -0.000283486 0.000709849 -0.000207781 -0.00114213 8.08128e-06 2.77011e-05 0.000594292 -0.000153451 -4.34899e-06 -0.000614871 -0.000113812 -0.000796648
internal_weight=0 19084 1226 1202 436 88 61 348 73 275 766 70 696 17858 3819 1127 149 978 110 51 958 59 2692 14039 167 927 2672 118 900 86
internal_count=217633 19084 1226 1202 436 88 61 348 73 275 766 70 696 17858 3819 1127 149 978 110 51 958 59 2692 14039 167 927 2672 118 900 86
shrinkage=0.05


Tree=523
num_leaves=31
num_cat=0
split_feature=34 44 30 37 2 19 2 36 41 41 3 19 39 7 35 44 28 18 44 21 37 39 6 12 5 38 4 9 16 3
split_gain=0.00211291 0.012587 0.0340365 0.0520411 0.0302508 0.0221965 0.0961042 0.0476779 0.0203345 0.214662 0.336988 0.436959 0.187144 0.221873 0.147254 0.253342 0.317993 0.220905 0.263692 0.142693 0.133987 0.185468 0.140586 0.123856 0.136285 0.123084 0.290192 0.132963 0.123288 0.108995
threshold=0.20270750000000001 -0.81248999999999982 0.00081747500000000012 4.6928000000000003e-07 3.0794900000000003 3.865525000000001e-10 -2.7279399999999994 -0.17249249999999997 -0.10141500000000002 0.040430000000000084 -11.042399999999999 1.4262400000000002e-07 0.0005469880000000001 3.4099100000000007e-05 0.0040397650000000007 -0.31477499999999997 0.016125400000000002 0.00053621450000000009 2.6702450000000004 -3.3402249999999998 2.3922400000000003e-05 0.018267100000000005 -5.390634999999999e-07 -0.00026918199999999992 2.4666550000000005e-05 -0.019831249999999998 0.26785250000000005 1.1615200000000002e-05 8.2193200000000006e-07 -12.203099999999997
decision_type=2 2 2 2 2 2 2 2 2 2 2 2 2 2 2 2 2 2 2 2 2 2 2 2 2 2 2 2 2 2
left_child=-1 -2 3 -3 5 6 -4 -8 -7 10 14 -12 13 -13 17 16 -16 -10 -19 -17 21 22 -14 -21 29 26 -24 -27 -29 -25
right_child=1 2 4 -5 -6 8 7 -9 9 -11 11 12 20 -15 15 19 -18 18 -20 23 -22 -23 25 24 -26 27 -28 28 -30 -31
leaf_value=2.9429945918403977e-06 6.2877369945786354e-06 0.00012946470063915282 0.0037357880768831824 0.0028730695693520831 0.0014170183527416418 -3.3144766628634544e-07 0.0021433955915899088 -0.00012760935827114045 9.6578259188288327e-05 -2.0286683679964504e-05 -0.0080136742264065568 -0.0010000241757370531 0.00041858083679234488 -0.0084477268885530064 -0.00075641019323554183 -0.0026143940261275792 -0.0091424285015091304 0.0080756946466863152 -4.359891405329109e-05 0.0040753423275964448 -0.0048355489530050285 0.0038560840245918369 -0.0087469887227052817 -0.00019671743368990238 -0.003955578324384988 0.00069623557713136756 -0.0013391554086970596 -0.0054450739989988506 -0.00042796490283217282 0.0036003710945015366
leaf_weight=160396 41348 56 20 25 35 7162 26 208 355 7330 28 20 92 20 26 52 20 20 20 20 22 20 20 106 20 55 39 24 25 23
leaf_count=160396 41348 56 20 25 35 7162 26 208 355 7330 28 20 92 20 26 52 20 20 20 20 22 20 20 106 20 55 39 24 25 23
internal_value=0 -8.24719e-06 -4.60715e-05 0.000976256 -5.13099e-05 -5.45681e-05 0.00040906 0.000124725 -6.21563e-05 -0.000115141 -0.000792141 -0.0020119 -0.00151324 -0.00472388 -0.000119614 -0.00102664 -0.00440251 0.000493487 0.00401605 -0.000323967 -0.00108083 -0.00078045 -0.0011441 0.00038078 -0.000115135 -0.0020261 -0.00385029 -0.00099123 -0.00288532 0.000480283
internal_weight=0 57237 15889 81 15808 15773 254 234 15519 8357 1027 365 337 40 662 267 46 395 40 221 297 275 255 169 149 163 59 104 49 129
internal_count=217633 57237 15889 81 15808 15773 254 234 15519 8357 1027 365 337 40 662 267 46 395 40 221 297 275 255 169 149 163 59 104 49 129
shrinkage=0.05


Tree=524
num_leaves=31
num_cat=0
split_feature=21 44 2 41 22 2 19 7 24 7 20 0 28 1 28 36 19 31 1 41 41 41 41 1 13 13 41 26 44 34
split_gain=0.00213561 0.0249366 0.0412411 0.0875832 0.560816 0.112632 0.177916 0.272355 0.0687247 0.124682 0.0539186 0.134148 0.0481654 0.03929 0.0555218 0.0291841 0.0236739 0.0347123 0.0234302 0.0195385 0.0431706 0.0189206 0.108669 0.0634891 0.0431363 0.0162886 0.0205989 0.0173689 0.0156756 0.0143245
threshold=-12.332599999999998 0.19419999999999996 -0.55943749999999992 0.17390849999999994 -1.0073749999999999 -1.7835899999999998 8.8529750000000019e-08 4.7250350000000001e-05 0.21342250000000004 3.4099100000000007e-05 -1.0436899999999998 0.44681350000000003 -0.026643299999999998 -10.666549999999999 -0.0041669849999999989 -2.2564299999999995 5.8709150000000007e-05 -0.012028349999999998 -14.712749999999998 -0.01032849999999985 -0.25176499999999996 -0.35786749999999995 0.22260499999999997 0.80539150000000015 -9.7102499999999991e-06 -1.3137649999999998e-05 -0.25176499999999996 -8.4243249999999976e-05 0.23534999999999953 0.34287850000000003
decision_type=2 2 2 2 2 2 2 2 2 2 2 2 2 2 2 2 2 2 2 2 2 2 2 2 2 2 2 2 2 2
left_child=1 2 3 4 5 6 12 -8 10 -10 19 -12 -1 14 -3 -5 17 -13 -17 20 -7 -4 23 -23 -24 26 -18 -27 -15 -30
right_child=-2 13 21 15 -6 8 7 -9 9 -11 11 16 -14 28 -16 18 25 -19 -20 -21 -22 22 24 -25 -26 27 -28 -29 29 -31
leaf_value=-0.0019062978306744931 -8.4095172771851178e-07 -0.0034821191267110406 1.6796382405332053e-05 0.0016582856174409246 0.0082768837267697872 -0.00018354276901537154 0.0067754021824591552 0.00035154455143845444 -0.0046691165808806544 0.00016594748674037874 0.003979451229097322 0.0025235490710690135 0.001357438134145923 0.0012044353368692118 0.00024352879394427655 0.0014127046482220371 -9.6380904793073169e-05 0.00034718320123494395 -0.00018085119350989636 0.00070117808472541343 -0.0025673654636509881 -0.0047599916229955838 0.0024323624658791235 -0.00077598794101504617 -0.00024343945999552504 -0.0018481055594747886 0.0018321525627106893 -1.9256651009797949e-05 1.3180898094851521e-05 -0.00021737105962734701
leaf_weight=26 211535 20 1357 24 24 109 33 33 20 40 30 27 20 25 20 24 45 57 593 37 23 20 20 20 61 20 20 37 2372 941
leaf_count=26 211535 20 1357 24 24 109 33 33 20 40 30 27 20 25 20 24 45 57 593 37 23 20 20 20 61 20 20 37 2372 941
internal_value=0 2.9172e-05 0.00014185 0.000354237 0.000787859 0.000476357 0.00189977 0.00356347 0.000133513 -0.00144574 0.000367477 0.000855678 -0.000487282 -6.15577e-05 -0.0016193 -5.2326e-05 0.00040076 0.00104673 -0.000118865 -0.000314272 -0.000598906 -3.66234e-05 -0.00063572 -0.00276799 0.000417252 -4.40057e-05 0.000497014 -0.000660958 -4.2891e-05 -5.23034e-05
internal_weight=0 6098 2720 1242 601 577 112 66 465 60 405 236 46 3378 40 641 206 84 617 169 132 1478 121 40 81 122 65 57 3338 3313
internal_count=217633 6098 2720 1242 601 577 112 66 465 60 405 236 46 3378 40 641 206 84 617 169 132 1478 121 40 81 122 65 57 3338 3313
shrinkage=0.05


Tree=525
num_leaves=31
num_cat=0
split_feature=32 12 31 17 4 35 15 8 5 3 12 33 10 15 40 20 40 15 17 18 12 4 2 11 15 18 21 12 3 19
split_gain=0.00211374 0.0183328 0.0473064 0.0969604 0.170811 0.0388787 0.0508487 0.0686924 0.0350196 0.029539 0.0262858 0.0723918 0.0579049 0.0184596 0.0221927 0.0140033 0.0117543 0.0114992 0.00769048 0.0256472 0.0199826 0.0407587 0.0142095 0.0106677 0.00760152 0.00603608 0.00593676 0.00549802 0.00354892 0.00412681
threshold=-10.048129999999999 0.00019109250000000003 -1.3092349999999997 7.2522850000000019e-08 -2.6817999999999995 -0.052110149999999994 -2.8691299999999994e-07 -1.1179299999999998e-05 1.6461450000000005e-05 -15.867949999999999 0.00011857750000000002 0.00091355850000000014 1.9737400000000002e-05 3.6456250000000008e-06 -0.74380499999999983 -12.188449999999998 0.354709 2.2039450000000004e-06 1.3092400000000001e-06 2.4151150000000003e-05 4.4132250000000008e-05 0.18998850000000003 2.9401200000000007 -5.0495149999999994e-05 5.5700600000000008e-07 2.0038450000000001e-05 -15.424049999999998 0.0001006575 -11.456749999999998 0.0035512250000000003
decision_type=2 2 2 2 2 2 2 2 2 2 2 2 2 2 2 2 2 2 2 2 2 2 2 2 2 2 2 2 2 2
left_child=1 10 3 4 -3 6 7 -4 -5 -7 13 12 -12 17 26 -8 -16 18 19 23 22 -22 -20 -1 -11 -14 -15 -25 29 -28
right_child=-2 2 5 8 -6 9 15 -9 -10 24 11 -13 25 14 16 -17 -18 -19 20 -21 21 -23 -24 27 -26 -27 28 -29 -30 -31
leaf_value=0.0010545478492834568 4.4224528425151481e-07 -0.0001779561569925309 0.0036530296670009748 -0.001820838273938751 0.0061993006068015739 -0.0026317709870636464 0.00024769204673762228 -0.00035360383975785231 0.00097502921134946525 -0.00098602923389989883 -0.0037559942543421961 0.0015625580888202725 -0.00041875494317515053 -0.0010178450166925112 -0.0023992623249068858 -0.0015167885631936688 -0.00068503324146149689 0.00096934582688845694 -0.00013536096489029628 0.0014611248840083137 -7.0113773204196305e-05 -0.002814876861659633 0.0012546031523379497 -3.9093679246860065e-05 0.00016896486460985937 -0.0014307571850266593 -0.0010351546430320015 0.00078144170464448904 3.3060422593691681e-05 -0.00016251812124946376
leaf_weight=24 215894 21 23 21 21 20 23 20 24 28 22 24 41 22 20 22 20 31 228 32 38 21 20 733 29 23 20 21 105 42
leaf_count=24 215894 21 23 21 21 20 23 20 24 28 22 24 41 22 20 22 20 31 228 32 38 21 20 733 29 23 20 21 105 42
internal_value=0 -5.4904e-05 0.000339453 0.00128289 0.00301067 -0.000157994 0.000559945 0.00178948 -0.000329709 -0.000978497 -0.000121735 -0.000865517 -0.00154312 -6.23192e-05 -0.00047221 -0.000614943 -0.00154215 1.94447e-05 -6.91783e-06 7.38515e-05 -0.000220023 -0.00104706 -2.32671e-05 1.67915e-05 -0.000398401 -0.000782443 -0.000245768 -1.62406e-05 -0.000144057 -0.000444014
internal_weight=0 1739 252 87 42 165 88 43 45 77 1487 110 86 1377 229 45 40 1148 1117 810 307 59 248 778 57 64 189 754 167 62
internal_count=217633 1739 252 87 42 165 88 43 45 77 1487 110 86 1377 229 45 40 1148 1117 810 307 59 248 778 57 64 189 754 167 62
shrinkage=0.05


Tree=526
num_leaves=31
num_cat=0
split_feature=21 40 41 44 3 19 24 23 11 4 38 13 40 17 40 24 40 6 26 4 6 43 26 43 37 35 1 22 35 22
split_gain=0.00209175 0.00767845 0.0152432 0.047545 0.134288 0.214495 0.0545536 0.0846129 0.0537711 0.0644123 0.22093 0.0795975 0.0493165 0.0384337 0.0460391 0.129923 0.0377054 0.03664 0.0608951 0.033642 0.0336215 0.0226745 0.0253449 0.0218439 0.0128065 0.0124418 0.0095954 0.00793922 0.00793887 0.00623644
threshold=13.390900000000002 1.3818860000000004 0.51323350000000023 -0.52047500000000058 -7.9686699999999986 6.8566600000000009e-05 1.1195950000000001 -8.8365399999999976 2.7947950000000004e-05 -0.14345599999999994 0.0091225150000000029 1.8732900000000002e-05 0.2761725000000001 9.8540950000000013e-08 0.10022550000000004 0.33996650000000006 0.2761725000000001 6.0096700000000009e-07 0.011675600000000003 0.22808000000000003 2.4187900000000002e-06 0.16841000000000064 0.0025695650000000007 -0.93682499999999969 0.000104555 0.0080513700000000021 12.302700000000002 0.88875850000000012 -0.0012133999999999997 -0.71561699999999984
decision_type=2 2 2 2 2 2 2 2 2 2 2 2 2 2 2 2 2 2 2 2 2 2 2 2 2 2 2 2 2 2
left_child=-1 2 3 4 5 -2 7 12 9 10 -6 17 -5 20 15 23 -16 19 25 -11 21 22 28 -15 27 -19 29 -18 -9 -4
right_child=1 -3 26 6 8 -7 -8 13 -10 11 -12 -13 -14 14 16 -17 24 18 -20 -21 -22 -23 -24 -25 -26 -27 -28 -29 -30 -31
leaf_value=-6.0326127602561315e-07 0.0069154345025751922 -0.00017997448385936507 0.00076559549259120393 -0.0038614242708056492 -0.00067458325928751515 0.0006476828919869896 0.0025358551854151304 -0.0010164858523889311 -0.0017940310999181059 -0.00040234406444173061 0.0061563773197121918 0.0029045180323958885 -0.0006979748993347001 0.0004333834538036692 0.0020335463421677405 -0.004063259721234707 -0.00082033165332783637 6.7970730231513415e-05 0.0025476902890950444 -0.0026932965053922753 0.0023772429507595877 0.0018013409006622776 0.0014372149949849701 -0.001396785415304096 -0.0012382122045726813 -0.0013280771877907684 -0.00091991858548838004 0.0001490881384411709 3.4780985703195616e-05 -1.4274066857398447e-05
leaf_weight=214386 21 354 26 22 29 39 20 21 29 59 20 23 28 56 23 28 24 79 25 22 23 24 32 23 22 20 29 176 124 1826
leaf_count=214386 21 354 26 22 29 39 20 21 29 59 20 23 28 56 23 28 24 79 25 22 23 24 32 23 22 20 29 176 124 1826
internal_value=0 3.98308e-05 6.67272e-05 0.0002232 0.000678511 0.0028414 -3.47626e-05 -0.000116891 0.000254416 0.000468874 0.00211356 0.00011541 -0.00208989 5.43765e-05 -0.000271436 -0.00113671 0.000106459 -0.000197514 0.000342745 -0.00102458 0.000566367 0.000359153 0.000163602 -9.94505e-05 -9.31942e-05 -0.000214059 -1.7457e-05 3.27578e-05 -0.000117471 -3.32557e-06
internal_weight=0 3247 2893 1012 366 60 646 626 306 277 49 228 50 576 352 107 245 205 124 81 224 201 177 79 222 99 1881 200 145 1852
internal_count=217633 3247 2893 1012 366 60 646 626 306 277 49 228 50 576 352 107 245 205 124 81 224 201 177 79 222 99 1881 200 145 1852
shrinkage=0.05


Tree=527
num_leaves=31
num_cat=0
split_feature=31 11 3 11 11 36 11 7 20 3 11 11 37 40 12 12 7 26 7 22 6 16 40 18 16 4 4 30 36 14
split_gain=0.00210389 0.0305684 0.0855235 0.0298575 0.0195274 0.0424146 0.0140187 0.0251045 0.0128733 0.0115902 0.00802831 0.017694 0.0051094 0.015254 0.0333645 0.108113 0.0732767 0.031825 0.043741 0.0238468 0.0194704 0.0438223 0.0855916 0.142732 0.0256113 0.0252995 0.0253998 0.0148571 0.0126603 0.0426928
threshold=-28.391649999999995 0.00023337100000000004 -11.746199999999998 0.00017205800000000003 9.9230750000000009e-05 1.20103 5.2422100000000008e-05 3.8694900000000008e-05 6.669455000000001 -15.867949999999999 4.247685000000001e-05 3.0643750000000003e-05 0.00019513800000000003 1.1592150000000003 6.9237300000000022e-05 8.536500000000002e-05 8.1544850000000023e-05 0.0058547700000000013 4.1085100000000004e-05 -2.1597749999999993 3.8272700000000001e-07 2.886525000000001e-07 -1.0422104999999997 -0.00078172349999999986 1.1210250000000002e-06 -0.38361349999999994 -2.8246699999999998 0.12582950000000004 -2.2564299999999995 0.03977975000000001
decision_type=2 2 2 2 2 2 2 2 2 2 2 2 2 2 2 2 2 2 2 2 2 2 2 2 2 2 2 2 2 2
left_child=1 3 -3 4 6 -6 9 -8 -4 -1 11 -11 28 14 19 -16 17 18 -17 -14 21 -21 24 -24 -23 26 -22 -19 29 -2
right_child=12 2 8 -5 5 -7 7 -9 -10 10 -12 -13 13 -15 15 16 -18 27 -20 20 25 22 23 -25 -26 -27 -28 -29 -30 -31
leaf_value=-0.0010806773882359266 -0.00050343424875083848 0.0029143749435822808 -0.0011859532018626431 -0.0019914159654449161 0.0024399046734536324 -0.00074155053007416436 -0.002310583703607942 -0.00011182291062890299 0.00037282337908874509 -4.2063078957459772e-05 0.00086354887673885318 -0.0012001037847533423 0.001274888029729482 -0.00018321181497519908 0.0041016394009189263 0.0025829600646102339 0.0023459922997669008 -0.0017025297990767288 -0.00055419157119467857 -0.00014536703881331449 -0.00027079843549962301 0.0015261015482709891 4.5752958976663655e-05 0.0058819323044735942 -0.00045962104850038872 -0.00011011055541975011 -0.0025264821759871364 -0.00028411622943167462 2.0555234574193238e-07 0.0013428735827009015
leaf_weight=30 297 31 26 22 22 20 21 34 27 573 22 35 38 340 22 20 36 30 25 273 26 22 22 20 62 225 24 48 215205 35
leaf_count=30 297 31 26 22 22 20 21 34 27 573 22 35 38 340 22 20 36 30 25 273 26 22 22 20 62 225 24 48 215205 35
internal_value=0 -7.79136e-05 0.000828298 -0.000175631 -0.00012286 0.000924926 -0.000184409 -0.00095135 -0.000391859 -0.000120497 -7.47741e-05 -0.000108727 3.10188e-07 0.000101803 0.000210319 0.000816479 0.000361929 -0.000218773 0.000840098 5.62251e-05 -1.24829e-05 0.000210621 0.000981928 0.00282489 6.04492e-05 -0.000336186 -0.00135353 -0.00082966 -2.70411e-07 -0.000308793
internal_weight=0 863 84 779 757 42 715 55 53 660 630 608 216770 1233 893 181 159 123 45 712 674 399 126 42 84 275 50 78 215537 332
internal_count=217633 863 84 779 757 42 715 55 53 660 630 608 216770 1233 893 181 159 123 45 712 674 399 126 42 84 275 50 78 215537 332
shrinkage=0.05


Tree=528
num_leaves=31
num_cat=0
split_feature=19 14 20 22 22 40 14 43 30 12 41 40 3 3 40 14 12 11 0 11 2 5 31 20 7 30 14 20 9 15
split_gain=0.00207067 0.0119756 0.028125 0.161168 0.0180106 0.0538162 0.00920597 0.0323832 0.00860765 0.0414024 0.0657117 0.08623 0.127853 0.0415401 0.0406649 0.0268546 0.0266934 0.0267945 0.0294957 0.0224094 0.0379549 0.0363448 0.0764486 0.0217897 0.0167199 0.04235 0.0260243 0.031531 0.0163988 0.0199898
threshold=0.0024010250000000006 0.00029103850000000009 9.7253800000000012 -0.45388899999999993 2.5680450000000006 -0.011175000000000155 0.00029902350000000005 -0.086730000000000182 0.053348600000000003 -0.00013742649999999999 0.32610899999999998 0.2761725000000001 -9.949049999999998 -13.353949999999999 -0.71412249999999966 0.026901650000000003 -0.00012908049999999998 3.2725900000000011e-05 12.975350000000001 1.6172700000000005e-05 1.1481900000000003 9.2265950000000021e-06 -8.7764099999999985 6.5101600000000008 2.9038250000000003e-05 0.12582950000000004 0.0039264450000000015 19.256550000000001 3.235295000000001e-05 -8.2618699999999988e-07
decision_type=2 2 2 2 2 2 2 2 2 2 2 2 2 2 2 2 2 2 2 2 2 2 2 2 2 2 2 2 2 2
left_child=8 2 4 -4 -2 -6 7 -3 -1 10 11 12 -10 -13 -12 16 -11 19 24 -18 21 22 -21 -20 25 -19 28 -28 29 -26
right_child=1 6 3 -5 5 -7 -8 -9 9 15 14 13 -14 -15 -16 -17 17 18 23 20 -22 -23 -24 -25 26 -27 27 -29 -30 -31
leaf_value=-1.1645704961982933e-06 2.2308877930730193e-05 -0.0022153489867508011 0.0049751858504896518 -0.00011421939096050796 -2.9613025823459239e-05 0.0022894326069945238 5.6204325091632331e-06 9.2704223741086692e-05 -0.0054539816901389582 0.0013462328295697392 -0.00034129685015579553 0.0015801555543112043 -0.00049177399987820533 -0.001235054212190191 0.0017158377951440905 0.0018110704002901913 -3.053954704579589e-05 0.0022432313395918091 -0.00050442423592397497 0.0038500795111031036 0.0019423755550330196 -3.3220512449755621e-05 -6.7526193015510222e-05 -0.0027054581140295011 -0.0020513306884649431 -0.00082527939508588105 -0.00060164820624777351 -0.002748599597834982 9.0978360723806967e-05 -0.00025501237966128135
leaf_weight=156262 934 21 20 70 82 36 56530 55 27 35 316 20 25 38 26 20 2211 22 23 20 36 245 33 22 21 23 118 20 263 59
leaf_count=156262 934 21 20 70 82 36 56530 55 27 35 316 20 25 38 26 20 2211 22 23 20 36 245 33 22 21 23 118 20 263 59
internal_value=0 8.11518e-06 0.00016842 0.00101676 9.58439e-05 0.000677892 4.8811e-06 -0.000545047 -2.93108e-06 -7.91216e-05 -0.000526812 -0.00158983 -0.0030683 -0.000264292 -0.000184906 -1.53071e-05 -2.68994e-05 -4.23229e-05 -0.000351865 2.71264e-05 0.000408861 0.000223605 0.00141082 -0.00158049 -0.000246755 0.000674881 -0.000332979 -0.000912801 -9.96979e-05 -0.000726546
internal_weight=0 57748 1142 90 1052 118 56606 76 159885 3623 452 110 52 58 342 3171 3151 3116 571 2545 334 298 53 45 526 45 481 138 343 80
internal_count=217633 57748 1142 90 1052 118 56606 76 159885 3623 452 110 52 58 342 3171 3151 3116 571 2545 334 298 53 45 526 45 481 138 343 80
shrinkage=0.05


Tree=529
num_leaves=31
num_cat=0
split_feature=21 44 8 3 25 10 29 7 20 0 3 17 38 15 29 43 4 38 39 3 19 22 12 43 19 7 20 2 37 40
split_gain=0.00208153 0.0227678 0.0375334 0.0662357 0.15682 0.152827 0.13887 0.0462379 0.0399412 0.132788 0.0344732 0.0307119 0.0375234 0.026446 0.0700452 0.0986007 0.0302766 0.0559939 0.0221111 0.0187885 0.017924 0.0265914 0.0212266 0.135383 0.0389155 0.0216701 0.0160896 0.0158221 0.0140728 0.0254667
threshold=-12.332599999999998 0.19419999999999996 1.2071550000000001e-05 -6.7538149999999986 15.043350000000002 3.2663050000000006e-05 0.0050660950000000005 2.5944250000000002e-05 9.609650000000002 7.3114750000000006 -6.3074049999999993 1.2509250000000002e-06 1.0252250000000003 4.3610150000000006e-08 0.0054568950000000007 1.06199 -0.10392349999999999 0.0019194400000000001 0.0015197350000000001 -9.1449549999999977 0.0066777400000000006 -0.64669949999999987 -5.4578149999999995e-05 9.0491300000000017 6.4033200000000016e-05 3.4485700000000008e-05 19.256550000000001 0.79287500000000011 -1.72674e-06 0.51872500000000021
decision_type=2 2 2 2 2 2 2 2 2 2 2 2 2 2 2 2 2 2 2 2 2 2 2 2 2 2 2 2 2 2
left_child=1 2 20 4 5 6 -4 -5 13 -10 28 19 -13 14 -9 -16 17 -15 -7 -6 22 -22 23 24 -1 -26 -24 -28 29 -3
right_child=-2 10 3 7 11 18 -8 8 9 -11 -12 12 -14 16 15 -17 -18 -19 -20 -21 21 -23 26 -25 25 -27 27 -29 -30 -31
leaf_value=0.0015469787945255155 -8.3023692288364564e-07 -0.0021063352100495454 0.0023080787474841435 0.0018205686394372979 -0.0016953913101381412 -0.00042289062548661605 0.007729382837645799 5.1460943708145305e-05 -0.00041997695359668796 0.0044899413941450238 -0.0016189389403942695 0.002486656767665409 -0.0002263398436368264 0.00014890918267818792 -0.0046983305399494607 -0.00054911516451183057 -5.4596850004352647e-05 0.0028979535833328824 0.0018281382659915838 -3.8567193722021286e-05 -0.00013315416727939584 -0.001891183336459411 1.7743588301059922e-05 0.0043278011345786842 -0.0020761281459999738 -0.00015421122428961099 -0.0019890053548442667 -0.00011841304332427592 -2.6547998233768583e-05 -7.588400297189513e-05
leaf_weight=27 211535 23 27 39 22 24 21 169 40 21 35 25 26 59 21 45 294 27 20 77 76 30 1488 21 20 55 20 26 3273 47
leaf_count=27 211535 23 27 39 22 24 21 169 40 21 35 25 26 59 21 45 294 27 20 77 76 30 1488 21 20 55 20 26 3273 47
internal_value=0 2.88003e-05 0.000136467 0.000388563 0.00110356 0.00272879 0.0046799 0.000146563 4.99858e-05 0.00127032 -5.78942e-05 0.000106755 0.00110356 -7.10558e-05 -0.000487992 -0.00186932 0.000186787 0.00101198 0.000600304 -0.00040675 -3.76366e-07 -0.00063071 3.99467e-05 0.000671936 -8.07427e-05 -0.000666722 -1.07278e-05 -0.000931714 -4.15507e-05 -0.000743032
internal_weight=0 6098 2720 957 242 92 48 715 676 61 3378 150 51 615 235 66 380 86 44 99 1763 106 1657 123 102 75 1534 46 3343 70
internal_count=217633 6098 2720 957 242 92 48 715 676 61 3378 150 51 615 235 66 380 86 44 99 1763 106 1657 123 102 75 1534 46 3343 70
shrinkage=0.05


Tree=530
num_leaves=31
num_cat=0
split_feature=10 44 44 37 32 7 28 0 37 35 33 32 40 15 33 21 12 3 20 43 40 43 20 5 9 6 3 4 40 2
split_gain=0.00209196 0.0109003 0.0241579 0.0366791 0.0831129 0.038561 0.069378 0.0230221 0.0183304 0.0285355 0.0539386 0.0215473 0.0667646 0.181182 0.0718783 0.0178337 0.092829 0.0976371 0.10411 0.0966641 0.209566 0.0821538 0.0501525 0.0484481 0.102682 0.0365011 0.0617713 0.0468465 0.0300761 0.0281183
threshold=1.6290050000000002e-05 0.46045500000000011 0.36284999999999995 -9.8400049999999974e-09 0.084769400000000009 2.5529050000000006e-05 0.0055462550000000008 -7.5291399999999991 -1.1844749999999999e-05 -0.17054099999999997 1.8894300000000003e-05 3.1099700000000006 0.327845 -6.4763899999999986e-07 0.00015643550000000002 -8.2769249999999985 -4.9376749999999994e-05 -11.334749999999998 6.5101600000000008 -0.12174999999999957 2.0913550000000005 0.027469999999999221 -5.585399999999999 1.2194250000000001e-05 3.5495300000000002e-07 -7.9179699999999979e-07 -8.3242249999999967 -0.21786749999999996 0.010257000000000018 -1.9639149999999999
decision_type=2 2 2 2 2 2 2 2 2 2 2 2 2 2 2 2 2 2 2 2 2 2 2 2 2 2 2 2 2 2
left_child=1 2 15 4 5 6 -4 -3 9 -9 -11 -10 13 -13 -15 16 17 -1 21 20 -18 23 -23 -19 -25 26 -24 28 -27 -21
right_child=-2 7 3 -5 -6 -7 -8 8 11 10 -12 12 -14 14 -16 -17 19 18 -20 29 -22 22 25 24 -26 27 -28 -29 -30 -31
leaf_value=0.0033814858449852294 1.9370901513479328e-06 0.0017134568195615431 -9.5902263268143889e-05 0.00015446293933121883 -0.0037379986988829239 0.00026900746715107421 -0.003849886369443993 9.5123204502872092e-05 1.3120737388981306e-05 -0.0034992108494043351 -0.0003054783856849752 0.0048900642866751051 -0.00019982939012971055 0.0027435208193492145 -0.00075676228315304888 -5.122613101243201e-05 -0.0062608061016362626 0.00042602098425656253 0.0031762790213071962 -0.0012793760685226739 6.2400320360355091e-05 0.0019458067414537556 -0.0033276764456576743 0.0050455538066276149 0.00026754002574307377 -0.0027622001227791773 -0.00029036512501369677 0.00063943308195264672 -0.00018315972679724488 6.497106114247254e-05
leaf_weight=33 188240 20 32 112 24 68 20 72 14208 20 39 28 148 20 55 13272 20 48 34 41 38 24 26 23 22 20 47 95 26 758
leaf_count=33 188240 20 32 112 24 68 20 72 14208 20 39 28 148 20 55 13272 20 48 34 41 38 24 26 23 22 20 47 95 26 758
internal_value=0 -1.24056e-05 -4.26756e-05 -0.000524165 -0.00105199 -0.000514784 -0.00153974 1.82228e-05 1.5899e-05 -0.000572893 -0.0013881 2.12335e-05 0.00048046 0.00145796 0.000176647 -3.41906e-05 0.000145965 0.000776979 0.000541503 -0.000147084 -0.00211802 0.000270862 -0.000221544 0.001531 0.00270964 -0.000464611 -0.00137215 5.24814e-06 -0.00130448 -4.01296e-06
internal_weight=0 29393 14783 256 144 120 52 14610 14590 131 59 14459 251 103 75 14527 1255 398 365 857 58 331 238 93 45 214 73 141 46 799
internal_count=217633 29393 14783 256 144 120 52 14610 14590 131 59 14459 251 103 75 14527 1255 398 365 857 58 331 238 93 45 214 73 141 46 799
shrinkage=0.05


Tree=531
num_leaves=31
num_cat=0
split_feature=23 1 22 19 8 28 9 16 25 40 40 35 15 43 14 34 4 8 24 21 10 37 16 19 26 15 21 3 9 43
split_gain=0.00207808 0.0178509 0.0579858 0.0114265 0.017649 0.0398363 0.0155135 0.020037 0.0353233 0.0183721 0.060077 0.0784208 0.0369585 0.0356439 0.0504236 0.0274492 0.01882 0.0181848 0.0159894 0.00915883 0.0393211 0.0109341 0.0156638 0.029049 0.0152011 0.00900263 0.0149814 0.0105989 0.00710351 0.00664503
threshold=-6.007039999999999 12.027950000000002 1.8645100000000003 0.00028936550000000009 -3.182764999999999e-05 0.04793780000000001 5.2649200000000011e-05 2.3811300000000004e-05 7.0520850000000008 -0.3562499999999999 0.10022550000000004 -0.00055351899999999993 3.1455100000000005e-08 -1.9691099999999999 8.5822300000000013e-05 1.7130900000000002 -0.066674049999999985 -1.8258849999999995e-05 0.73617500000000013 -19.754149999999996 4.3453600000000007e-05 4.353285000000001e-06 1.0552950000000002e-06 0.0011030500000000002 0.069955350000000013 -6.5679299999999979e-08 7.1162100000000006 -5.5951849999999999 4.4916950000000007e-05 0.20156999999999983
decision_type=2 2 2 2 2 2 2 2 2 2 2 2 2 2 2 2 2 2 2 2 2 2 2 2 2 2 2 2 2 2
left_child=-1 3 25 4 5 -2 7 9 -9 -6 11 -11 16 -14 -15 18 -13 -8 28 20 -5 29 -23 -24 -25 27 -27 -3 -12 -21
right_child=1 2 -4 19 6 -7 17 8 -10 10 15 12 13 14 -16 -17 -18 -19 -20 21 -22 22 23 24 -26 26 -28 -29 -30 -31
leaf_value=-6.0053438384958581e-07 -4.5264250600725534e-05 0.0013121519088963396 -0.0025863329528537753 0.0018284012960066321 -2.3937149677422035e-05 0.0028169268863905473 -0.0016220204650890084 -9.6622004006665372e-05 0.0027765123590506851 0.0032619771899356112 -2.5789997005357159e-05 -0.0010474847294544281 -0.0001585734495723624 0.00053943283456646905 0.0040473906400230976 0.0018060237474163019 0.00062869522706464516 -9.3918812819993039e-05 -0.0014260322095651645 3.1131865803877096e-05 -0.001012518611692247 3.390165997248042e-05 -0.0025090395854022065 -0.00075310578657224962 0.00073935158804736359 0.0002250503942195792 -0.0012976295480135985 -4.2256136559724557e-05 0.00094112247035809575 -0.00055732556931616269
leaf_weight=214394 31 20 27 29 739 20 25 23 20 35 378 34 22 20 21 21 33 88 20 1184 21 123 20 76 22 35 30 52 20 50
leaf_count=214394 31 20 27 29 739 20 25 23 20 35 378 34 22 20 21 21 33 88 20 1184 21 123 20 76 22 35 30 52 20 50
internal_value=0 3.97502e-05 -0.000468521 6.6858e-05 0.000162461 0.00107716 0.000131341 0.000177269 0.00123972 0.000143252 0.000347809 0.00116119 0.000595598 0.001465 0.00233619 4.2095e-05 -0.000221904 -0.000431994 -4.65235e-05 -3.03125e-05 0.000635215 -5.28728e-05 -0.000360918 -0.000772467 -0.000418064 -5.11416e-05 -0.000477725 0.000333968 2.27986e-05 7.28837e-06
internal_weight=0 3239 164 3075 1550 51 1499 1386 43 1343 604 165 130 63 41 439 67 113 418 1525 50 1475 241 118 98 137 65 72 398 1234
internal_count=217633 3239 164 3075 1550 51 1499 1386 43 1343 604 165 130 63 41 439 67 113 418 1525 50 1475 241 118 98 137 65 72 398 1234
shrinkage=0.05


Tree=532
num_leaves=31
num_cat=0
split_feature=40 22 1 13 1 2 35 15 15 33 26 21 29 14 41 20 25 28 22 44 34 44 3 3 40 21 44 23 33 4
split_gain=0.00208634 0.0213596 0.0869669 0.143265 0.0403651 0.0157453 0.0777409 0.0522444 0.0923059 0.0788398 0.043716 0.0512168 0.0739493 0.028357 0.0180501 0.0158651 0.0142347 0.014157 0.0639713 0.152511 0.0492052 0.152194 0.0401398 0.0593645 0.164621 0.0356245 0.101428 0.247804 0.0834045 0.142679
threshold=-0.60254799999999997 3.0676500000000004 0.80539150000000015 -3.1724749999999996e-06 1.0868900000000001 -2.9939399999999998 -0.14027249999999997 2.9011450000000001e-09 -5.8105949999999988e-08 1.3416450000000002e-07 -0.00012641899999999998 -1.2295899999999997 0.0088661900000000012 0.00038378800000000009 0.057875000000000128 -7.2112649999999991 7.0520850000000008 0.051198250000000008 2.9137900000000005 -1.0681750000000003 0.069860150000000024 0.55624500000000021 -19.074649999999995 -18.305499999999995 0.327845 -1.9516699999999998 1.03867 -10.522449999999997 -9.7463599999999976e-06 -0.36598199999999997
decision_type=2 2 2 2 2 2 2 2 2 2 2 2 2 2 2 2 2 2 2 2 2 2 2 2 2 2 2 2 2 2
left_child=-1 5 3 -3 -4 6 -2 8 10 14 13 -12 -13 -8 15 -9 -6 -7 20 -20 21 -19 -22 24 -24 26 -25 -28 -29 -30
right_child=1 2 4 -5 16 17 7 9 -10 -11 11 12 -14 -15 -16 -17 -18 18 19 -21 22 -23 23 25 -26 -27 27 28 29 -31
leaf_value=6.0552018266634967e-06 -0.0033441699360264466 -0.0045729188423138112 0.0021673441448365341 0.00027397727354846503 -2.8133568867261263e-05 1.7906360737979007e-06 -7.58732912934782e-05 0.00016765405855360716 -0.0029162870959482511 0.0030220879367552703 3.8723967768822187e-05 9.2233516486539026e-05 -0.0039705900368668763 0.0023132525447161481 -0.00024495643637399629 0.0019423883525450947 -0.0013049949578125962 -0.0043226840849793346 0.00021963427710656297 -0.0050114662861398592 0.0016208861896302553 0.00044590094474353302 -0.0048045238494523806 -0.00015396554684694096 0.00067352966957514584 -8.276396960963891e-05 0.0061327934730798011 0.00011511378868260122 0.0056891800259472811 0.00049486050586729571
leaf_weight=86025 20 30 20 31 172 124246 27 34 39 25 79 21 24 23 146 20 25 27 38 22 36 44 24 490 32 5633 22 199 20 39
leaf_count=86025 20 30 20 31 172 124246 27 34 39 25 79 21 24 23 146 20 25 27 38 22 36 44 24 490 32 5633 22 199 20 39
internal_value=0 -3.95796e-06 -0.000441767 -0.00210974 2.71108e-05 -3.0312e-06 -0.000295685 -0.000156485 -0.000717733 0.000374829 -0.000224953 -0.00072821 -0.00207461 0.00102312 4.39218e-05 0.000824963 -0.000190172 -2.00703e-06 -7.32181e-05 -0.00169844 -5.83669e-05 -0.0013675 -4.4056e-05 -5.33358e-05 -0.00167421 -3.91598e-05 0.00027983 0.00103897 0.000604616 0.00225565
internal_weight=0 131608 278 61 217 131330 458 438 213 225 174 124 45 50 200 54 197 130872 6626 60 6566 71 6495 6459 56 6403 770 280 258 59
internal_count=217633 131608 278 61 217 131330 458 438 213 225 174 124 45 50 200 54 197 130872 6626 60 6566 71 6495 6459 56 6403 770 280 258 59
shrinkage=0.05


Tree=533
num_leaves=31
num_cat=0
split_feature=31 20 10 10 11 23 10 34 11 38 22 44 11 3 16 0 16 33 33 0 37 20 5 41 17 34 26 2 20 3
split_gain=0.00209004 0.0118933 0.0602236 0.0362784 0.115377 0.172313 0.0658475 0.0450749 0.0158617 0.0434359 0.0141824 0.015111 0.0233294 0.0193474 0.0125762 0.0247208 0.0390585 0.0922663 0.0338753 0.0330685 0.0619219 0.0303418 0.0293883 0.0193935 0.134942 0.123265 0.0556736 0.0192739 0.0177409 0.0173524
threshold=0.56878050000000013 3.8241100000000006 1.0512900000000001e-05 2.7183000000000004e-05 -4.4153649999999994e-05 -9.7498999999999985 2.2759000000000004e-05 0.2810120000000001 -1.5142749999999998e-05 -0.11222949999999998 2.7783350000000007 5.2253350000000003 -0.000119502 -14.267049999999999 5.8204250000000011e-06 -3.1948099999999999 1.2311050000000001e-05 -8.1044199999999979e-05 0.0031288150000000005 -5.7641099999999996 -2.7948149999999997e-06 2.6112300000000004 1.7836500000000001e-05 5.6849350000000003 -3.4453399999999998e-07 0.21701850000000003 0.0014686500000000002 -2.0813999999999995 -19.608449999999998 -19.074649999999995
decision_type=2 2 2 2 2 2 2 2 2 2 2 2 2 2 2 2 2 2 2 2 2 2 2 2 2 2 2 2 2 2
left_child=-1 14 -3 4 5 -4 -7 -6 9 -9 11 13 -13 -5 23 16 17 -16 21 22 -21 28 -19 -2 -25 -26 -27 -17 -18 -29
right_child=1 2 3 10 7 6 -8 8 -10 -11 -12 12 -14 -15 15 27 18 19 -20 20 -22 -23 -24 24 25 26 -28 29 -30 -31
leaf_value=-1.5190993611339671e-06 2.0898940716473542e-05 0.0026464683252318839 0.0052543348777268472 0.0015599533239810627 0.0020745869010345185 -0.00064886246960983187 0.0028798660193569961 0.00057596506194386172 5.7192649373841067e-05 -0.0024322155368281528 -0.0010735359451895679 -0.0020501764511446589 -7.7319755130934775e-05 -1.9101961957944662e-05 -0.0031153149044817279 0.0015537170047173277 -0.0014106290904304911 -0.0025919830066240615 0.0018799176916945725 0.0026478787689070901 -0.00086988750127633919 -0.0017379680840906898 -0.00026130832158837862 0.0042118114738100721 0.0036538920416205657 4.5171124184567054e-05 -0.0023727012513745649 -0.0011803263625141324 -0.00010987808654120575 9.5527143039141873e-06
leaf_weight=198549 13872 24 29 20 26 39 20 24 274 24 35 23 43 645 39 20 27 21 20 22 29 31 38 22 20 93 32 31 900 2641
leaf_count=198549 13872 24 29 20 26 39 20 24 274 24 35 23 43 645 39 20 27 21 20 22 29 31 38 22 20 93 32 31 900 2641
internal_value=0 1.58046e-05 0.000166451 0.000116933 0.000481026 0.00209849 0.000547317 7.20116e-05 -8.9687e-05 -0.000928125 -9.03058e-05 -4.32291e-05 -0.00076483 2.83884e-05 5.46238e-06 -7.49869e-05 -0.000271595 -0.00102572 -0.000156703 -0.000284861 0.00064758 -0.000199222 -0.00109087 2.73468e-05 0.000562947 9.32631e-06 -0.000573804 7.32279e-06 -0.000147764 -4.25202e-06
internal_weight=0 19084 1226 1202 436 88 59 348 322 48 766 731 66 665 17858 3819 1127 149 978 110 51 958 59 14039 167 145 125 2692 927 2672
internal_count=217633 19084 1226 1202 436 88 59 348 322 48 766 731 66 665 17858 3819 1127 149 978 110 51 958 59 14039 167 145 125 2692 927 2672
shrinkage=0.05


Tree=534
num_leaves=31
num_cat=0
split_feature=44 3 24 3 8 21 13 10 10 18 27 37 40 40 32 21 40 41 40 34 40 21 40 36 9 4 8 13 40 40
split_gain=0.00209552 0.00795851 0.0498986 0.111339 0.0904637 0.0500965 0.0477375 0.0415348 0.0245992 0.0346407 0.0323008 0.033636 0.0464309 0.0218378 0.014357 0.0415013 0.0183813 0.25717 0.102244 0.0182186 0.0134626 0.0114246 0.00976784 0.00772316 0.0487748 0.0298011 0.0772622 0.116301 0.177639 0.344665
threshold=-3.2113799999999997 -13.353949999999999 1.0406250000000001 -16.722199999999997 -1.0065749999999999e-05 8.8284250000000011 6.0257150000000006e-05 2.9751750000000002e-05 5.8844850000000006e-05 -5.8589749999999996e-05 53.953100000000013 4.7478300000000009e-05 -0.63161949999999989 0.077348000000000056 4.7390700000000008 -6.7912899999999992 -0.25142799999999998 -0.10141500000000002 -0.011175000000000155 0.66511650000000011 -0.3562499999999999 5.2037050000000002 0.30085850000000008 -0.022925199999999996 0.00060039650000000006 0.26785250000000005 1.0000000180025095e-35 3.0213650000000005e-05 -0.17527649999999997 0.20129000000000011
decision_type=2 2 2 2 2 2 2 2 2 2 2 2 2 2 2 2 2 2 2 2 2 2 2 2 2 2 2 2 2 2
left_child=1 2 5 -4 -5 8 7 -6 10 -10 11 14 -13 -8 15 -1 20 21 19 -19 -17 22 -18 24 25 -2 -27 28 -28 -30
right_child=23 -3 3 4 6 -7 13 -9 9 -11 -12 12 -14 -15 -16 16 17 18 -20 -21 -22 -23 -24 -25 -26 26 27 -29 29 -31
leaf_value=0.001897869206156126 -0.00011501395627988115 9.7784611761653597e-06 0.0040647223200225699 0.0031493392360321844 -0.0003440330921104319 0.0021205208469283485 0.0019970061113417613 -0.0031885371579500363 -0.0026894270010113059 -3.0012516770511867e-05 0.0013774856603049558 4.0019250757593127e-05 -0.003284882151222389 -0.00033954311613342724 -0.0014218346631463172 -3.4812972774835501e-05 -0.00098828229150967669 -0.00097401098806585654 -0.0064195378764998123 -0.0031081760296365248 0.001286901084095007 0.0011057859128868585 -6.2134701718973725e-05 -4.5966844968727493e-07 0.0023029544306072324 -0.00020894553055635039 -2.990086803653845e-05 -3.8610452135706694e-05 0.003330897146060113 1.7735716462014423e-05
leaf_weight=24 6179 67375 22 21 33 23 20 21 24 25 32 21 21 20 23 525 30 20 20 20 20 20 558 139783 22 1237 291 889 158 156
leaf_count=24 6179 67375 22 21 33 23 20 21 24 25 32 21 21 20 23 525 30 20 20 20 20 20 558 139783 22 1237 291 889 158 156
internal_value=0 7.20716e-06 -0.000105069 0.000805817 0.000182374 -0.000193825 -0.000480459 -0.00145023 -0.000232314 -0.00133258 -0.000191899 -0.000230471 -0.00162243 0.000828731 -0.000184072 -0.000161058 -0.000201795 -0.000377602 -0.00350057 -0.00204109 1.36903e-05 -6.94143e-05 -0.000109387 -3.33997e-06 -4.84157e-05 -5.42216e-05 8.33237e-05 0.000325316 0.000860078 0.00168487
internal_weight=0 68918 1543 137 115 1406 94 54 1383 49 1334 1302 42 40 1260 1237 1213 668 60 40 545 608 588 148715 8932 8910 2731 1494 605 314
internal_count=217633 68918 1543 137 115 1406 94 54 1383 49 1334 1302 42 40 1260 1237 1213 668 60 40 545 608 588 148715 8932 8910 2731 1494 605 314
shrinkage=0.05


Tree=535
num_leaves=31
num_cat=0
split_feature=40 41 2 43 20 10 36 20 35 4 44 37 3 36 20 14 43 40 44 18 4 40 41 10 18 11 11 20 5 21
split_gain=0.00213181 0.0289652 0.0525634 0.176546 0.0576517 0.0514391 0.13111 0.115667 0.0731257 0.0565298 0.080942 0.110492 0.0540042 0.157736 0.301968 0.308007 0.118375 0.160049 0.115177 0.265895 0.339139 0.332428 0.307214 0.31505 0.269993 0.204568 0.184679 0.15478 0.11459 0.0927505
threshold=0.2761725000000001 -0.026150000000000003 3.0333000000000006 -0.086730000000000182 -7.8361449999999992 1.1666750000000001e-05 -0.046235849999999988 5.0058800000000003 -0.0019317949999999998 0.097742300000000018 0.50668999999999997 -2.5915349999999997e-08 -13.614249999999998 -0.066940849999999982 -2.7544749999999998 0.01464405 2.8998450000000005 0.12375499999999996 2.5130600000000003 -0.00019488549999999998 -0.38361349999999994 0.10022550000000004 -0.057539999999999918 2.7183000000000004e-05 -0.00036585349999999998 -4.858219999999999e-05 5.2422100000000008e-05 4.2563050000000011 1.6536050000000006e-05 -0.69128549999999989
decision_type=2 2 2 2 2 2 2 2 2 2 2 2 2 2 2 2 2 2 2 2 2 2 2 2 2 2 2 2 2 2
left_child=1 5 -3 -4 -5 6 -1 8 -8 -10 11 -11 13 14 -7 -16 18 -18 19 24 -21 22 23 -22 28 -23 -27 -24 -15 -28
right_child=-2 2 3 4 -6 12 7 -9 9 10 -12 -13 -14 16 15 -17 17 -19 -20 20 21 25 27 -25 -26 26 29 -29 -30 -31
leaf_value=-0.0033221508195288708 5.5912357266995308e-06 3.7099856467367521e-06 -0.0053409816450584917 0.00095015306030344466 -0.0016632071767768747 -0.0011853946379040171 -0.0026028531603515151 0.0031750168773049324 0.00024932717841003759 -0.00016595099863479847 -0.00014937496457044801 -0.0052474319026299312 -0.00011405987798486592 0.0022044723766157406 0.0097244468610733752 0.0013229577899134407 -0.0057539335358887909 0.00024697994039161135 -0.00015823658230720684 0.0078644578647799803 0.0087255168749834407 0.0022519739558770051 0.0018831461781729495 0.0015301874678196579 -0.0066928001304040674 -0.0057804504035240305 -0.0026816111130453166 -0.0024610342368340263 -0.0021303090325091034 0.0019287375108979175
leaf_weight=41 95596 112531 20 51 36 33 39 22 182 20 73 23 7713 30 20 24 20 25 776 20 32 31 97 29 20 28 24 26 31 20
leaf_count=41 95596 112531 20 51 36 33 39 22 182 20 73 23 7713 30 20 24 20 25 776 20 32 31 97 29 20 28 24 26 31 20
internal_value=0 -4.37982e-06 2.65675e-06 -0.00110502 -0.000131237 -8.87063e-05 -0.000643515 -0.000337598 -0.000566908 -0.000300459 -0.00116305 -0.00288395 -6.40455e-05 0.000235924 0.00243015 0.00514182 9.61761e-05 -0.00242009 0.000193455 0.000896837 0.00156917 0.00113047 0.00240364 0.00530479 -0.00165138 -0.00114394 -0.00260606 0.000964864 1.55068e-06 -0.000585998
internal_weight=0 122037 112638 107 87 9399 400 359 337 298 116 43 8999 1286 77 44 1209 45 1164 388 307 287 184 61 81 103 72 123 61 44
internal_count=217633 122037 112638 107 87 9399 400 359 337 298 116 43 8999 1286 77 44 1209 45 1164 388 307 287 184 61 81 103 72 123 61 44
shrinkage=0.05


Tree=536
num_leaves=31
num_cat=0
split_feature=1 21 44 44 21 40 40 1 24 3 14 44 44 40 14 36 3 21 25 20 16 18 6 20 3 20 26 0 40 20
split_gain=0.00212181 0.00868752 0.0412952 0.0564274 0.113991 0.154848 0.515513 0.5479 0.177681 0.115855 0.143263 0.208667 0.113177 0.0533073 0.0433904 0.0774367 0.0413322 0.143666 0.292478 0.101123 0.0630153 0.20796 0.0561941 0.0431329 0.0583736 0.0536023 0.0495075 0.0402033 0.0436983 0.0579607
threshold=5.9655550000000011 7.1162100000000006 0.026084999999999251 0.87140500000000032 9.8452300000000026 0.20129000000000011 -0.079468000000000025 9.319485000000002 -0.092714749999999985 -8.7018349999999973 0.00054376850000000009 0.23534999999999953 0.23534999999999953 0.010257000000000018 0.00070374100000000013 -0.0043768949999999996 -7.9686699999999986 10.335750000000003 6.4137900000000014 6.669455000000001 3.6544900000000005e-06 0.00016883300000000004 9.0987550000000003e-06 -1.1107799999999999 -9.7440149999999992 -0.8551494999999999 -0.00012032499999999998 7.5113150000000006 0.077348000000000056 -4.1606849999999991
decision_type=2 2 2 2 2 2 2 2 2 2 2 2 2 2 2 2 2 2 2 2 2 2 2 2 2 2 2 2 2 2
left_child=-1 -2 16 4 9 6 -6 -8 -9 10 11 -4 13 -10 15 -11 17 19 -19 20 22 -22 23 24 -3 -25 -27 28 29 -17
right_child=1 2 3 -5 5 -7 7 8 12 14 -12 -13 -14 -15 -16 27 -18 18 -20 -21 21 -23 -24 25 -26 26 -28 -29 -30 -31
leaf_value=-2.7580217776024829e-06 1.8441345933657681e-05 0.0026430846536976259 -0.00077957556658314869 -2.4639507134960923e-05 2.1812389604630693e-05 8.7922424012276681e-05 -0.010498851865346437 -0.0056387146487395512 0.0012956096013487482 0.0029521548530788604 -6.4974719804956327e-05 -0.0071187037441372272 -0.0037879293267655285 -0.0019084116211161017 -0.00029724020339671353 0.00018867316792992928 -1.199058668808581e-05 0.0057823845800833501 0.00051694061844713033 0.002627610135833321 -0.0057227907690230494 -0.00021900554692682976 -0.0021362056065991055 -0.0024933577112581894 0.00045771370723042098 -0.0016097804401274394 0.00033235570000309466 -0.0013113497258733075 -0.0003127289753273225 0.0020863813713332068
leaf_weight=165868 42436 38 34 2086 195 208 26 32 34 36 108 21 29 21 137 79 5212 35 107 37 20 121 25 21 156 37 290 28 74 82
leaf_count=165868 42436 38 34 2086 195 208 26 32 34 36 108 21 29 21 137 79 5212 35 107 37 20 121 25 21 156 37 290 28 74 82
internal_value=0 8.83739e-06 -3.48493e-05 -0.000179403 -0.000461604 -0.000984851 -0.00164698 -0.00393863 -0.00246823 1.44721e-05 -0.0011228 -0.00319997 -0.00126043 7.2256e-05 0.000439643 0.000777279 4.17058e-05 0.000357225 0.00181476 7.94124e-05 -5.37561e-05 -0.000999684 0.000181475 0.000288379 0.000885776 -4.4653e-05 0.000112603 0.000479577 0.000692964 0.00115521
internal_weight=0 51765 9329 3230 1144 545 337 142 116 599 163 55 84 55 436 299 6099 887 142 745 708 141 567 542 194 348 327 263 235 161
internal_count=217633 51765 9329 3230 1144 545 337 142 116 599 163 55 84 55 436 299 6099 887 142 745 708 141 567 542 194 348 327 263 235 161
shrinkage=0.05


Tree=537
num_leaves=31
num_cat=0
split_feature=21 40 41 22 0 40 20 3 40 40 26 25 20 41 19 44 12 4 12 38 23 18 40 30 23 44 40 19 16 1
split_gain=0.00210606 0.006896 0.0143757 0.0464744 0.0374818 0.0791236 0.0991661 0.169899 0.102535 0.0844047 0.0667405 0.110523 0.0352338 0.0629673 0.0327539 0.0569183 0.119629 0.0301833 0.0428461 0.0365653 0.0231533 0.0281546 0.0187435 0.0244594 0.017888 0.0164793 0.0116487 0.0113033 0.0122168 0.00869545
threshold=13.390900000000002 1.3818860000000004 0.51323350000000023 2.3818600000000001 3.6588600000000002 0.20129000000000011 -9.0227099999999982 -8.216879999999998 0.40779500000000007 0.056773999999999998 6.2222600000000016e-05 29.284250000000004 2.9284200000000005 -0.10141500000000002 5.4568300000000011e-05 0.4120049999999989 0.0001006575 -0.10727949999999999 6.2839950000000011e-05 -0.00010994849999999998 -8.8007399999999993 -2.1824149999999994e-06 -0.19934349999999995 0.030440600000000005 -7.2505749999999987 2.9060500000000005 -0.0054100000000001361 0.0011030500000000002 -4.2042099999999992e-07 12.302700000000002
decision_type=2 2 2 2 2 2 2 2 2 2 2 2 2 2 2 2 2 2 2 2 2 2 2 2 2 2 2 2 2 2
left_child=-1 2 3 4 12 9 -7 -8 -9 10 24 -12 14 27 15 16 17 -2 19 -19 21 -16 -22 26 -6 -17 -24 28 -14 -4
right_child=1 -3 29 -5 5 6 7 8 -10 -11 11 -13 13 -15 20 25 -18 18 -20 -21 22 -23 23 -25 -26 -27 -28 -29 -30 -31
leaf_value=-6.0532097564687145e-07 0.0023732886422658341 -0.00016833830715182497 -2.8450411154536501e-06 0.0019567642051009212 -0.0017177211388986072 -0.00035856090465598311 0.0064719177824868399 0.0035951880388893189 -0.0011305320292194665 -0.0027871387384948323 0.0046053468050169096 -6.284691025939538e-05 -0.0015714255836515112 -0.0025846510067554741 -0.0022072792131910793 -0.0017066801950022638 0.004754444668512969 0.0023512349608063236 -0.0017466387985872905 -8.6359535962401431e-05 0.0015084686734813399 -8.3781985282454315e-05 0.0011399914273060858 -0.0014421837009389751 2.95133995678043e-06 1.8261395291321807e-05 2.5677776925758496e-06 0.00042844432296913846 -0.00018681808556500598 -0.00087539625006872394
leaf_weight=214386 20 354 1852 37 23 37 22 22 24 24 21 32 21 34 27 20 21 25 21 40 21 37 25 28 44 45 226 49 66 29
leaf_count=214386 20 354 1852 37 23 37 22 22 24 24 21 32 21 34 27 20 21 25 21 40 21 37 25 28 44 45 226 49 66 29
internal_value=0 3.99668e-05 6.5456e-05 0.000217411 0.000151404 0.000680759 0.00172454 0.00285799 0.00112959 -8.03325e-05 0.000461029 0.00178681 -3.0151e-05 -0.000660084 0.000162454 0.000690856 0.00130674 0.000623706 0.000216826 0.000851177 -0.000116263 -0.000979632 6.79227e-05 -4.05055e-05 -0.000587727 -0.00051249 0.000115857 -0.000178942 -0.000521034 -1.62975e-05
internal_weight=0 3247 2893 1012 975 249 105 68 46 144 120 53 726 170 556 192 127 106 86 65 364 64 300 279 67 65 251 136 87 1881
internal_count=217633 3247 2893 1012 975 249 105 68 46 144 120 53 726 170 556 192 127 106 86 65 364 64 300 279 67 65 251 136 87 1881
shrinkage=0.05


Tree=538
num_leaves=31
num_cat=0
split_feature=11 19 30 31 13 7 41 40 15 29 36 22 8 39 41 34 9 24 28 0 31 30 34 11 11 43 11 32 13 38
split_gain=0.00206272 0.0135211 0.0658002 0.112514 0.149159 0.197169 0.079696 0.216412 0.356578 0.0776568 0.0169588 0.0335961 0.0157025 0.015437 0.013326 0.0207072 0.0109069 0.0109005 0.00846555 0.0176939 0.00616044 0.0230979 0.0200488 0.0725493 0.0968067 0.0374569 0.0182126 0.0407708 0.104577 0.0378469
threshold=-0.00016577949999999997 0.00057209200000000006 0.064526950000000013 1.6082200000000002 4.9502400000000009e-05 4.9182200000000012e-05 0.057875000000000128 0.077348000000000056 5.1880700000000008e-06 0.012122000000000003 3.8353050000000004 -1.5001349999999998 -9.9319149999999982e-06 2.3303150000000001 0.24875600000000014 0.043783950000000009 -3.6403899999999992e-05 -2.2419299999999995 1.0121250000000004 -4.1883099999999986 0.23863350000000003 0.00078399800000000005 6.2013600000000011 -0.00040717649999999999 -0.00057958749999999996 1.8131900000000003 -0.00025295999999999994 -1.5525049999999998 6.9697650000000012e-05 0.18048750000000005
decision_type=2 2 2 2 2 2 2 2 2 2 2 2 2 2 2 2 2 2 2 2 2 2 2 2 2 2 2 2 2 2
left_child=1 2 3 6 -5 -6 7 8 9 -1 13 -12 -13 17 15 -8 -15 -3 20 -20 -19 -22 26 24 -24 -25 -23 28 -28 -29
right_child=-2 10 -4 4 5 -7 14 -9 -10 -11 11 12 -14 16 -16 -17 -18 18 19 -21 21 22 23 25 -26 -27 27 29 -30 -31
leaf_value=0.0030033746032495402 -1.6539901390568252e-06 0.00091051931511063945 -0.002299439055786934 -0.0016593973780982198 0.00046969671625290711 0.0063520156512043152 5.9345842277657033e-05 -2.4520293196170924e-05 0.0087856082117512072 -0.0013500104979833677 0.002503649769078038 0.0012103065343002197 -0.00046030684883216732 -0.0017102095998283899 -8.7365881088329332e-06 -0.0020340889158043346 -0.00022251192255810437 1.386382229368885e-05 0.0001079695112660856 -0.0013398183826615828 -0.001381538904300242 -0.00016119980808765083 0.00013675400719512253 -0.0020999935334893288 0.0036259057383920832 0.00018087133917274684 0.0041401089532056099 -7.4130822539552742e-05 -8.1928500995590275e-05 0.0020423875214129858
leaf_weight=20 195107 33 27 20 29 28 27 150 21 21 20 22 39 22 1349 21 28 17827 51 36 33 1921 50 27 33 54 22 529 44 22
leaf_count=20 195107 33 27 20 29 28 27 150 21 21 20 22 39 22 1349 21 28 17827 51 36 33 1921 50 27 33 54 22 529 44 22
internal_value=0 1.43259e-05 0.000149354 0.000188569 0.00205571 0.00335926 9.92155e-05 0.00100253 0.00348734 0.000773592 3.21253e-06 0.000725281 0.000142209 3.91405e-07 -3.78663e-05 -0.000856532 -0.000877099 2.51279e-06 1.06167e-06 -0.000491115 3.14412e-06 -6.67279e-05 -5.06699e-05 0.000485121 0.00152401 -0.000579417 -8.52916e-05 0.000151045 0.00132542 1.03763e-05
internal_weight=0 22526 1713 1686 77 57 1609 212 62 41 20813 81 61 20732 1397 48 50 20682 20649 87 20562 2735 2702 164 83 81 2538 617 66 551
internal_count=217633 22526 1713 1686 77 57 1609 212 62 41 20813 81 61 20732 1397 48 50 20682 20649 87 20562 2735 2702 164 83 81 2538 617 66 551
shrinkage=0.05


Tree=539
num_leaves=31
num_cat=0
split_feature=20 9 7 3 43 13 2 7 33 38 6 22 33 6 6 16 34 24 33 13 43 11 7 5 3 3 7 7 14 40
split_gain=0.00207017 0.0200704 0.0579427 0.0938474 0.228658 0.0396684 0.0185177 0.0510078 0.0345105 0.0955227 0.0524362 0.038385 0.0885182 0.184995 0.0317518 0.0255268 0.0225462 0.0896918 0.013214 0.0128792 0.00969353 0.0383127 0.127892 0.200856 0.0496985 0.0738698 0.135654 0.247272 0.0588463 0.104234
threshold=-8.0887399999999996 -7.4788549999999987e-05 9.322835000000002e-05 -8.3639349999999979 -0.71725499999999964 2.6751950000000004e-05 2.8304750000000003 7.2992550000000006e-05 4.8167950000000007e-05 0.016571850000000003 7.2428000000000018e-07 2.9584000000000006 1.5735400000000003e-06 8.575480000000001e-07 6.1484100000000015e-08 -8.5618749999999992e-07 2.6849000000000003 0.82362200000000019 -9.7463599999999976e-06 -9.0948349999999971e-06 -0.15760999999999911 -1.6735099999999998e-05 2.7277450000000004e-05 9.0154850000000027e-06 -15.284849999999999 -12.203099999999997 3.8223600000000004e-05 3.2190950000000007e-05 0.00042166850000000005 -0.040859549999999939
decision_type=2 2 2 2 2 2 2 2 2 2 2 2 2 2 2 2 2 2 2 2 2 2 2 2 2 2 2 2 2 2
left_child=1 2 3 4 -1 18 20 8 9 11 14 16 19 -14 -10 -12 17 -8 -5 -13 -3 22 23 -22 -24 26 27 -26 29 -27
right_child=-2 6 -4 5 -6 -7 7 -9 10 -11 15 12 13 -15 -16 -17 -18 -19 -20 -21 21 -23 24 -25 25 28 -28 -29 -30 -31
leaf_value=-1.2257223780205309e-05 -1.8334981098948216e-06 -1.4977233616456911e-05 -8.7489645546004875e-06 -0.0012185420262698166 -0.0064672722812721753 -0.0019363816847651511 -3.1663707199633908e-05 0.0020797461521498109 -0.00047349680608022027 0.0036779960880812725 0.0017473909351836136 -0.00088091888125442584 -0.00064191177027003677 0.0056447199492831723 -0.0030324311331949303 -0.00055870590045482718 -0.0015208733114970687 0.0032876512332309393 5.4585822218343418e-05 0.0004052312115605161 0.0056107228208929884 1.0617156754628761e-06 -0.0021486838483605938 6.0142606096819815e-05 -0.00020135592543131986 -0.00020538055899188684 -0.00064144885793605171 0.0069760412176644131 -9.1556069834627083e-05 0.00086141469927803231
leaf_weight=34 190678 13035 1154 23 23 34 659 36 22 20 21 24 22 25 27 28 23 21 179 103 28 9051 23 39 24 385 37 24 1266 565
leaf_count=34 190678 13035 1154 23 23 34 659 36 22 20 21 24 22 25 27 28 23 21 179 103 28 9051 23 39 24 385 37 24 1266 565
internal_value=0 1.29701e-05 -0.000168178 -0.000796098 -0.00261691 -0.000356324 2.32461e-05 0.000230821 0.000163925 0.000261256 -0.00072695 0.000183337 0.000848234 0.00270204 -0.00188352 0.000429621 1.87684e-05 7.08445e-05 -9.03743e-05 0.000162179 1.45028e-05 4.80871e-05 0.000226099 0.00237979 0.000164009 0.000187126 0.00163363 0.00338734 0.000131642 0.000429082
internal_weight=0 26955 1447 293 57 236 25508 1031 995 897 98 877 174 47 49 49 703 680 202 127 24477 11442 2391 67 2324 2301 85 48 2216 950
internal_count=217633 26955 1447 293 57 236 25508 1031 995 897 98 877 174 47 49 49 703 680 202 127 24477 11442 2391 67 2324 2301 85 48 2216 950
shrinkage=0.05


Tree=540
num_leaves=31
num_cat=0
split_feature=13 17 24 32 5 43 23 36 29 0 14 31 32 25 23 23 20 12 22 16 14 35 35 5 14 9 22 39 22 40
split_gain=0.00205274 0.00649879 0.00545805 0.00653764 0.0177124 0.00553289 0.010753 0.00445289 0.00631027 0.0352751 0.0068457 0.00543856 0.0049292 0.0115064 0.0415533 0.00457127 0.00601866 0.00416298 0.00387995 0.00383664 0.00379676 0.0108428 0.0195129 0.149275 0.0369988 0.0180006 0.108332 0.177929 0.0215429 0.0900709
threshold=0.00031977250000000008 -0.00032874299999999994 1.5291850000000002 20.036400000000004 1.5198800000000003e-05 5.4503350000000017 -15.262649999999999 1.20103 -0.28811899999999996 8.2756850000000011 0.020162700000000002 -3.9230749999999994 3.7022150000000003 10.229550000000001 -16.914099999999994 -7.2505749999999987 0.98860800000000004 -0.0010381749999999999 1.0369550000000003 -9.7420549999999983e-05 0.00096226550000000008 -0.00073331449999999995 -0.0007689394999999999 8.5475200000000021e-06 0.0011990500000000003 -5.7594049999999995e-05 2.8798550000000005 7.4540950000000013e-05 -2.5336099999999995 0.056773999999999998
decision_type=2 2 2 2 2 2 2 2 2 2 2 2 2 2 2 2 2 2 2 2 2 2 2 2 2 2 2 2 2 2
left_child=1 -1 3 7 -5 6 -4 8 9 10 -2 -10 -13 14 -14 17 -17 -9 -12 -8 -3 22 25 -24 -25 26 28 -28 29 -22
right_child=2 20 5 4 -6 -7 19 15 11 -11 18 12 13 -15 -16 16 -18 -19 -20 -21 21 -23 23 24 -26 -27 27 -29 -30 -31
leaf_value=-0.000792205585328424 0.0010112277090956923 4.0801940425350484e-06 -0.0013853949191325228 0.0017469605448422955 -0.00011830662857391871 7.1961875500288258e-05 0.00011467564042605874 -0.00070461003997479565 -0.00064968497489087081 0.0021926093610610616 4.0892147094171513e-05 1.0779856148505577e-05 -5.6302092885339845e-05 2.2244448880549622e-05 0.0026372718064868379 -0.00022916162380243879 -0.0013057297322666274 9.4539352769309272e-05 0.00075120914552826443 -0.00052477191950726725 0.0032222021019724374 2.5675783114156179e-06 -0.0045006677447288115 -0.0021124369319791602 1.8183824774984016e-05 -4.2218354469180877e-05 2.1534940143672951e-05 0.0056827515520600849 -3.6369963385081003e-05 -6.7894763974023097e-07
leaf_weight=26 20 115356 25 20 35 81 45 20 31 21 496 24115 45 169 21 37 20 88 20 49 27 52416 21 22 276 23017 35 23 946 110
leaf_count=26 20 115356 25 20 35 81 45 20 31 21 496 24115 45 169 21 37 20 88 20 49 27 52416 21 22 276 23017 35 23 946 110
internal_value=0 -1.76348e-06 1.33715e-05 1.54397e-05 0.000559972 -0.000246797 -0.000463767 1.42467e-05 1.59596e-05 0.000182363 0.000103603 1.2158e-05 1.30006e-05 0.000240887 0.000800744 -0.000244644 -0.000606905 -5.34513e-05 6.84238e-05 -0.000218653 -1.65658e-06 -1.0263e-05 -3.77388e-05 -0.000426235 -0.00013911 -3.26088e-05 0.000161241 0.0022665 4.84938e-05 0.000634487
internal_weight=0 192275 25358 25158 55 200 119 25103 24938 557 536 24381 24350 235 66 165 57 108 516 94 192249 76893 24477 319 298 24158 1141 58 1083 137
internal_count=217633 192275 25358 25158 55 200 119 25103 24938 557 536 24381 24350 235 66 165 57 108 516 94 192249 76893 24477 319 298 24158 1141 58 1083 137
shrinkage=0.05


Tree=541
num_leaves=31
num_cat=0
split_feature=19 14 20 22 20 14 26 30 12 41 40 3 3 40 14 12 11 0 11 17 17 5 16 20 4 20 18 29 0 40
split_gain=0.00203382 0.0106882 0.0254156 0.145174 0.0169045 0.00835908 0.0315748 0.00809691 0.0385651 0.0615957 0.0755069 0.114096 0.036103 0.0360318 0.0228185 0.0242852 0.0241608 0.0264081 0.0199637 0.038835 0.144767 0.0221942 0.0281982 0.0199057 0.0151217 0.0302029 0.0257697 0.0234073 0.0265631 0.0345802
threshold=0.0024010250000000006 0.00029103850000000009 9.7253800000000012 -0.45388899999999993 -11.702999999999998 0.00029902350000000005 0.00010974150000000001 0.053348600000000003 -0.00013742649999999999 0.32610899999999998 0.2761725000000001 -9.949049999999998 -13.353949999999999 -0.71412249999999966 0.026901650000000003 -0.00012908049999999998 3.2725900000000011e-05 12.975350000000001 1.6172700000000005e-05 4.6606600000000007e-08 -6.6467399999999989e-09 9.2265950000000021e-06 4.1207450000000003e-07 6.5101600000000008 -2.0429399999999993 -0.41059849999999992 -0.00087365449999999981 -1.2159399999999998 9.5649650000000026 0.24966499999999994
decision_type=2 2 2 2 2 2 2 2 2 2 2 2 2 2 2 2 2 2 2 2 2 2 2 2 2 2 2 2 2 2
left_child=7 2 4 -4 -2 6 -3 -1 9 10 11 -9 -12 -11 15 -10 18 24 -17 20 -20 22 -21 -19 25 -18 -26 28 29 -28
right_child=1 5 3 -5 -6 -7 -8 8 14 13 12 -13 -14 -15 -16 16 17 23 19 21 -22 -23 -24 -25 26 -27 27 -29 -30 -31
leaf_value=-1.1915823892014718e-06 0.0012603391690208809 9.0016322487177357e-05 0.004722804619232193 -0.00010746302612395605 5.6154609781024975e-05 5.6918431383764442e-06 -0.0022243829130002271 -0.0051752361792346676 0.0012838305213621684 -0.00032506648595682247 0.0014218265853560297 -0.00048759441915899516 -0.001202685501304682 0.0016113356101693803 0.001668333060806617 -2.9088819288268423e-05 -0.00065459208193975171 -0.00046859227459999215 7.7379201369910593e-05 -5.1347270133798395e-05 0.0049114642178340424 -0.00013087371766319153 0.0024907175576663575 -0.0025723224357617172 -0.001773027107440706 0.0016287372747986713 -0.0019038287391049383 3.5619425190022194e-05 0.00069686252175381888 -0.00025696181452504414
leaf_weight=156262 30 56 20 70 1022 56530 20 27 35 316 20 25 38 26 20 2211 28 23 59 24 21 210 20 22 29 30 60 284 27 68
leaf_count=156262 30 56 20 70 1022 56530 20 27 35 316 20 25 38 26 20 2211 28 23 59 24 21 210 20 22 29 30 60 284 27 68
internal_value=0 8.04265e-06 0.000159487 0.00096593 9.04945e-05 4.98734e-06 -0.000519036 -2.90488e-06 -7.68004e-05 -0.000508878 -0.00153806 -0.00292156 -0.000297681 -0.000177855 -1.52113e-05 -2.5897e-05 -4.06083e-05 -0.000334544 2.53396e-05 0.000385643 0.00134633 8.30651e-05 0.00110414 -0.00149708 -0.000235088 0.00052644 -0.000329465 -0.000234105 -0.000728309 -0.00102893
internal_weight=0 57748 1142 90 1052 56606 76 159885 3623 452 110 52 58 342 3171 3151 3116 571 2545 334 80 254 44 45 526 58 468 439 155 128
internal_count=217633 57748 1142 90 1052 56606 76 159885 3623 452 110 52 58 342 3171 3151 3116 571 2545 334 80 254 44 45 526 58 468 439 155 128
shrinkage=0.05


Tree=542
num_leaves=31
num_cat=0
split_feature=32 30 40 40 21 43 43 12 40 19 20 1 43 15 28 31 10 20 41 43 10 11 9 21 0 20 41 41 21 43
split_gain=0.00208136 0.0133315 0.0402003 0.206537 0.213792 0.116958 0.239459 0.143889 0.11904 0.0798617 0.0403473 0.106573 0.143755 0.0367171 0.0338336 0.027774 0.0261333 0.0881863 0.0597994 0.085121 0.0439208 0.0276741 0.0221674 0.0662789 0.0496963 0.0220376 0.0192674 0.0685212 0.156337 0.443905
threshold=-0.12163499999999998 0.0011509850000000002 -0.14969009999999991 -0.0054100000000001361 2.3968500000000001 1.3895649999999999 0.64319500000000052 0.00015956650000000002 -0.058960000000000005 1.1187350000000001e-07 -6.0084349999999995 4.8656050000000013 0.80790999999999979 2.4676700000000005e-07 0.014053500000000002 -0.14333549999999998 1.5224150000000001e-05 0.6143630000000001 -0.10141500000000002 -0.23716000000000023 1.54009e-05 -5.0036299999999994e-06 3.0620350000000006e-05 8.0248800000000013 6.5600500000000013 -0.8551494999999999 0.22260499999999997 -0.12554300000000002 0.18529350000000003 -0.36707999999999957
decision_type=2 2 2 2 2 2 2 2 2 2 2 2 2 2 2 2 2 2 2 2 2 2 2 2 2 2 2 2 2 2
left_child=1 2 -1 4 -4 6 7 8 -6 -10 11 -5 -13 14 -9 -11 17 18 -12 -20 -18 -21 24 -24 -22 -17 27 -3 29 -29
right_child=-2 26 3 10 5 -7 -8 13 9 15 16 12 -14 -15 -16 25 20 -19 19 21 22 -23 23 -25 -26 -27 -28 28 -30 -31
leaf_value=-5.4252980134021245e-06 -2.4405776760269038e-06 1.2679470568976258e-05 0.0051731439053158586 -0.00014954736764317777 0.0047134106817764178 -0.0001146414354931828 0.0058347898795286061 0.00129772359880582 0.003416968810904239 -0.00099953648648806845 1.8063447959673573e-05 0.0051986983211935256 -0.00024615056465325904 -0.0019490163786772261 -0.00062171416495151923 0.00030478984559886157 -0.0021292829378653554 -7.850784675095955e-05 0.0043081688750985893 0.0021547941113661587 -3.0830443020663829e-05 -2.9557779760517442e-05 7.2284437365480151e-05 0.0031240682884634391 -0.0020760903067154383 0.0017968506292720344 1.7490206678368637e-05 0.0030778393771677334 -0.000455485931685178 -0.00080632493985473546
leaf_weight=10161 174228 6556 30 89 31 202 28 38 35 20 49 27 22 27 58 50 25 339 31 29 2977 29 93 22 30 49 19972 123 2080 183
leaf_count=10161 174228 6556 30 89 31 202 28 38 35 20 49 27 22 27 58 50 25 339 31 29 2977 29 93 22 30 49 19972 123 2080 183
internal_value=0 9.7965e-06 4.89386e-05 0.000176512 0.00106522 0.000836155 0.00140776 0.00100531 0.00188651 0.00131746 4.23314e-05 0.000881448 0.00275407 -0.000320076 0.000138063 0.000699953 1.03783e-05 0.000355254 0.0014208 0.00219309 -4.18955e-05 0.00106262 -2.51803e-05 0.000656104 -5.12354e-05 0.00104328 -9.8206e-06 -7.08194e-05 -0.000300249 0.000754957
internal_weight=0 43405 14491 4330 568 538 336 308 185 154 3762 138 49 123 96 119 3624 477 138 89 3147 58 3122 115 3007 99 28914 8942 2386 306
internal_count=217633 43405 14491 4330 568 538 336 308 185 154 3762 138 49 123 96 119 3624 477 138 89 3147 58 3122 115 3007 99 28914 8942 2386 306
shrinkage=0.05


Tree=543
num_leaves=31
num_cat=0
split_feature=21 3 12 8 1 30 5 29 29 9 3 12 40 6 31 9 11 6 4 11 11 40 1 20 43 40 2 31 40 16
split_gain=0.00208052 0.00681428 0.0364384 0.00730483 0.0143505 0.0111888 0.00710645 0.0223695 0.0102766 0.0199531 0.0149793 0.0149941 0.0487819 0.0115046 0.0361724 0.277223 0.0347317 0.0269388 0.0180379 0.0125704 0.0292944 0.0694377 0.0186301 0.0415626 0.0317428 0.0116922 0.0425527 0.025962 0.0390458 0.0225142
threshold=13.390900000000002 -4.7500199999999992 2.9775650000000003e-05 -0.00012086649999999999 14.319400000000002 0.015345200000000002 7.9290400000000026e-06 -0.58729449999999994 -0.78911549999999997 5.7645350000000012e-05 -16.413199999999996 8.3131550000000012e-05 0.68543200000000015 -1.1060999999999997e-06 -1.9652199999999997 3.5461000000000012e-05 2.0886150000000003e-05 -1.0087549999999998e-06 0.12265600000000002 1.0155450000000003e-05 5.8862150000000007e-06 -0.079468000000000025 7.7500100000000005 -0.53881199999999996 0.51814999999999956 0.010257000000000018 2.0367550000000008 0.69959700000000014 0.2761725000000001 1.7917850000000003e-05
decision_type=2 2 2 2 2 2 2 2 2 2 2 2 2 2 2 2 2 2 2 2 2 2 2 2 2 2 2 2 2 2
left_child=-1 3 -3 5 6 -2 7 -5 9 10 -8 -12 -13 14 15 16 18 -15 -10 20 -16 -22 -21 -24 -25 26 -19 29 -29 -27
right_child=1 2 -4 4 -6 -7 8 -9 13 -11 11 12 -14 17 19 -17 -18 25 -20 22 21 -23 23 24 -26 27 -28 28 -30 -31
leaf_value=-6.0164044897455542e-07 0.00019197329164030851 -0.00056081347490733065 0.0022549843945307659 0.0018958857210236602 0.001209485084917525 -0.0014402038259764337 -0.0013897955987142102 4.9622412016712286e-05 -0.00030653400424532319 -0.0015176309418166057 -0.00022592401862355128 0.0026857996414764787 -4.981380352546694e-05 -0.0015928121204153826 0.00011317033219992407 0.0063485766539815823 -0.0020020458789769607 3.7820168963523193e-05 0.0015858324443979656 2.9534982760190388e-05 -0.00012538409461350448 0.0033664528292623196 0.00077364841531759698 -0.0033023302491346843 -0.0004852908172324533 7.5545304795911135e-05 0.0019175469808414487 -0.0027894939813201992 -0.00039029956977764096 -0.0015054148558192538
leaf_weight=214386 21 27 20 21 26 21 22 75 34 27 315 20 88 27 471 20 21 1046 20 287 35 24 23 20 20 365 31 22 74 24
leaf_count=214386 21 27 20 21 26 21 22 75 34 27 315 20 88 27 471 20 21 1046 20 287 35 24 23 20 20 365 31 22 74 24
internal_value=0 3.97238e-05 0.000637398 3.09455e-05 3.96575e-05 -0.000624115 2.99463e-05 0.000453493 1.65535e-05 -0.00019785 -0.000117773 -5.16163e-05 0.000456781 5.60225e-05 0.000191232 0.00111814 -0.000276646 -2.69409e-05 0.000394342 9.11678e-05 0.000244735 0.00129502 -0.000141377 -0.000919976 -0.00189381 1.26054e-07 9.19256e-05 -0.000203726 -0.000940115 -2.19947e-05
internal_weight=0 3247 47 3200 3158 42 3132 96 3036 472 445 423 108 2564 975 95 75 1589 54 880 530 59 350 63 40 1562 1077 485 96 389
internal_count=217633 3247 47 3200 3158 42 3132 96 3036 472 445 423 108 2564 975 95 75 1589 54 880 530 59 350 63 40 1562 1077 485 96 389
shrinkage=0.05


Tree=544
num_leaves=31
num_cat=0
split_feature=44 33 38 15 18 14 20 14 38 20 6 13 19 26 40 5 7 1 22 43 1 40 40 15 27 23 28 40 6 14
split_gain=0.0020411 0.00721696 0.0173953 0.0528402 0.0162048 0.0808831 0.0963592 0.103147 0.0583856 0.0697075 0.157236 0.0834387 0.0918502 0.181488 0.358914 0.0990366 0.179064 0.0738556 0.0909575 0.0799735 0.0568155 0.0411415 0.0849568 0.090753 0.102401 0.0397842 0.088672 0.314081 0.225222 0.0595873
threshold=-3.2113799999999997 1.3939150000000002e-05 0.6802760000000001 -1.9144549999999996e-08 -7.9974899999999992e-07 0.00013551050000000002 11.498700000000001 0.00012967350000000005 -0.0024070099999999998 7.5325700000000007 1.5232100000000002e-06 -5.7078899999999985e-06 0.0016272200000000002 -0.00018615449999999999 -0.19934349999999995 2.4666550000000005e-05 6.5271300000000013e-05 -3.7730749999999995 -0.71561699999999984 0.052215000000000351 -11.446699999999998 0.14973499999999998 -0.12496499999999998 -3.9387549999999988e-06 1.0089350000000004 -15.921249999999999 0.0079892800000000031 -0.19934349999999995 5.0712000000000011e-07 0.0025934100000000004
decision_type=2 2 2 2 2 2 2 2 2 2 2 2 2 2 2 2 2 2 2 2 2 2 2 2 2 2 2 2 2 2
left_child=-1 2 -2 -4 5 6 7 20 9 11 -11 12 13 -7 -15 17 -17 18 19 -14 -3 22 -19 -24 -25 26 29 -28 -29 -10
right_child=1 4 3 -5 -6 8 -8 -9 25 10 -12 -13 15 14 -16 16 -18 21 -20 -21 -22 -23 23 24 -26 -27 27 28 -30 -31
leaf_value=7.1129626878276767e-06 1.107027417920537e-06 0.002575448798882502 0.00066243478795513511 -0.0028065709981352225 -7.996417469176608e-05 -0.00073691114016233208 0.0034119488782835107 0.0036412385288410102 0.0014613098186573689 -0.00016536014903211158 0.0049873953143469412 -6.4989590083754941e-05 -0.0053483238221087963 -8.8312528965789604e-05 -0.0093325389954510944 -0.0052861525383247811 -0.00049213461739725515 -0.00025079097585679243 4.5742509452261488e-05 -0.00087692850782332236 -3.3551608127810246e-05 -0.00034560472054678229 -0.00053977593852323486 0.0013203705326304772 0.0061646406009822387 1.1095934718471077e-05 -0.00022133106250312639 0.0020810991273278239 0.0087324157551120149 -0.00015341746564531054
leaf_weight=68918 130813 23 23 21 9076 91 32 24 67 57 20 880 20 21 21 28 64 72 53 20 225 119 20 24 20 6340 98 35 20 388
leaf_count=68918 130813 23 23 21 9076 91 32 24 67 57 20 880 20 21 21 28 64 72 53 20 225 119 20 24 20 6340 98 35 20 388
internal_value=0 -3.29631e-06 7.72688e-07 -0.000993227 -3.31125e-05 1.53077e-05 0.000816639 0.000511309 -1.34261e-05 -0.000293041 0.00117302 -0.000370733 -0.000840286 -0.00199171 -0.00471043 -0.000492244 -0.00195118 -0.000106547 -0.0013127 -0.00311263 0.000208412 0.000333342 0.000927421 0.00225291 0.00352231 4.81471e-05 0.000434503 0.00147579 0.00449976 8.43556e-05
internal_weight=0 148715 130857 44 17858 8782 304 272 8478 1530 77 1453 573 133 42 440 92 348 93 40 248 255 136 64 44 6948 608 153 55 455
internal_count=217633 148715 130857 44 17858 8782 304 272 8478 1530 77 1453 573 133 42 440 92 348 93 40 248 255 136 64 44 6948 608 153 55 455
shrinkage=0.05


Tree=545
num_leaves=31
num_cat=0
split_feature=44 23 23 3 16 21 39 43 27 31 19 7 36 2 18 4 33 31 31 19 2 40 21 40 26 24 31 2 28 19
split_gain=0.00205497 0.0230786 0.0467973 0.021167 0.104143 0.251858 0.0368676 0.0217872 0.0567607 0.085564 0.0861337 0.0475129 0.0460686 0.0735328 0.0571963 0.0983552 0.0547426 0.0356302 0.0656561 0.059899 0.138011 0.282448 0.0460582 0.147659 0.185994 0.0506812 0.0995264 0.0474224 0.0397439 0.0715499
threshold=0.81788000000000027 -17.728849999999998 -17.289999999999996 -18.627349999999996 1.8037350000000004e-08 3.1442200000000002 0.00095358200000000002 -0.465335 9.4382900000000021 -1.6647349999999996 1.1921100000000003e-10 1.0181100000000002e-05 0.026744400000000005 -1.6862799999999998 -8.547639999999998e-05 -0.13131799999999996 0.00091355850000000014 0.081247600000000017 0.078570100000000018 4.2063200000000008e-08 -2.2229199999999998 -0.30278099999999991 4.7688000000000015 -0.12496499999999998 8.0716500000000012e-05 0.3698105000000001 0.44795650000000004 2.8304750000000003 0.068796600000000013 6.8566600000000009e-05
decision_type=2 2 2 2 2 2 2 2 2 2 2 2 2 2 2 2 2 2 2 2 2 2 2 2 2 2 2 2 2 2
left_child=3 -2 -3 4 5 -1 -6 8 9 -5 -11 -12 13 -10 -15 -16 -14 18 28 20 21 -19 25 -24 -25 27 -27 -21 -13 -30
right_child=1 2 -4 7 6 -7 -8 -9 12 10 11 17 16 14 15 -17 -18 19 -20 22 -22 -23 23 24 -26 26 -28 -29 29 -31
leaf_value=-0.00022557339930484122 -0.0013148627783679829 0.0018622487799695915 6.8072794016901939e-06 -0.0028546964112420342 0.00018757782966601484 0.0065973858027497225 -0.0021183807093900844 -1.7014685757805771e-08 0.0030380650453554229 -0.0031199681220035322 0.0023146121518061594 -0.0001058086472027283 -0.00012526646757510823 -0.0015354117418475519 0.0042094828149129172 0.00035517003082835195 0.0025165744458458257 6.0854334657525891e-05 0.0022251793379602473 0.000224733864532652 -0.00010904679388593227 -0.0080636024152045144 -7.7859550303027201e-05 -0.00032032159582567627 -0.0070576423772035924 -0.0042743270055871111 -0.00031551763248273065 -0.0017301266868316541 0.0030015970617130044 -4.0136316294655414e-05
leaf_weight=38 33 34 69515 29 52 21 26 142078 37 24 20 4240 296 27 20 96 21 23 31 518 69 20 107 21 20 20 77 33 29 58
leaf_count=38 33 34 69515 29 52 21 26 142078 37 24 20 4240 296 27 20 96 21 23 31 518 69 20 107 21 20 20 77 33 29 58
internal_value=0 7.08709e-06 7.71434e-06 -3.33084e-06 0.000617879 0.00220294 -0.000581075 -3.90621e-06 -9.85891e-05 -0.000146165 -0.000131372 -0.000117803 0.00041249 0.00105132 0.000537272 0.00101971 4.97451e-05 -0.000127041 -6.76755e-05 -0.000411972 -0.00149461 -0.00371796 -0.000259641 -0.00105548 -0.00360682 -7.78757e-05 -0.00113177 0.000107655 -8.41022e-05 0.000973775
internal_weight=0 69582 69549 148051 137 59 78 147914 5836 5339 5310 5286 497 180 143 116 317 5266 4358 908 112 43 796 148 41 648 97 551 4327 87
internal_count=217633 69582 69549 148051 137 59 78 147914 5836 5339 5310 5286 497 180 143 116 317 5266 4358 908 112 43 796 148 41 648 97 551 4327 87
shrinkage=0.05


Tree=546
num_leaves=31
num_cat=0
split_feature=44 44 21 22 3 1 26 4 34 21 40 41 6 35 1 15 35 29 31 34 28 44 18 14 44 14 24 21 34 1
split_gain=0.00200258 0.0237737 0.0387019 0.0924367 0.0527027 0.123318 0.145201 0.211173 0.0555652 0.0654879 0.0369417 0.325576 0.415793 0.426468 0.312312 0.296022 0.27018 0.289812 0.407473 0.305483 0.230296 0.240736 0.200587 0.125958 0.117478 0.101573 0.109377 0.0732605 0.063247 0.0569643
threshold=-0.20255000000000042 -0.8551649999999994 -8.8025949999999984 -2.5049849999999996 -7.0441249999999993 -7.0827799999999987 -6.9741099999999975e-05 0.081083500000000017 0.33174250000000005 -11.282949999999998 0.14973499999999998 -0.026150000000000003 -2.7360799999999994e-06 -0.0031236499999999995 -7.1790999999999991 8.4719750000000013e-08 0.056928300000000008 -0.0065327349999999987 -0.14930449999999998 0.078737600000000005 -0.0045370499999999991 -0.31477499999999997 1.5027300000000003e-05 0.0023552050000000004 -0.60415499999999989 0.0030998800000000006 -0.23609949999999996 -8.6662999999999979 0.017144000000000003 11.597950000000003
decision_type=2 2 2 2 2 2 2 2 2 2 2 2 2 2 2 2 2 2 2 2 2 2 2 2 2 2 2 2 2 2
left_child=1 -1 3 -3 5 6 7 -5 9 -8 11 12 13 -4 -14 -15 17 18 22 20 -19 24 23 -16 -22 26 -21 -13 -26 -29
right_child=-2 2 10 4 -6 -7 8 -9 -10 -11 -12 27 14 15 16 -17 -18 19 -20 25 21 -23 -24 -25 28 -27 -28 29 -30 -31
leaf_value=3.5415703783944082e-06 5.6133573893621047e-06 0.0029393863240016051 -0.010590653653806924 0.00083500169718552734 -8.2371507045861706e-05 -4.187851894415192e-05 0.0036430682335048914 0.0067974729006420129 -0.0018247582640469773 0.0005615520629507955 9.619870965712013e-06 -0.0025929222659685589 -0.0066353443821537354 -0.0056090408787390009 0.0039148088671294426 0.0011159516320913101 -0.0058380944349448243 -0.0075014827750800629 0.0075627287818441323 0.00031451584092186146 -0.0032443385847145696 -0.0066018981218803679 -0.0035804086668497839 -0.00070827310488451854 -0.00047455366812139421 -0.0012423466425389052 0.0047011054103711144 -5.2261242229976027e-05 0.0031318915216252208 -0.0010313486580236331
leaf_weight=111964 91838 29 22 33 1340 415 20 27 20 125 4636 29 21 36 34 30 21 21 26 30 25 20 23 26 31 29 27 6563 20 152
leaf_count=111964 91838 29 22 33 1340 415 20 27 20 125 4636 29 21 36 34 30 21 21 26 30 25 20 23 26 31 29 27 6563 20 152
internal_value=0 -4.09809e-06 -6.59423e-05 0.00013695 9.59039e-05 0.000469168 0.00141176 0.00351811 0.000645819 0.000986589 -0.000100421 -0.000171414 -0.00148603 -0.00456183 -0.000721429 -0.00255223 -0.000348479 2.10138e-05 0.00210064 -0.00109563 -0.00275855 -0.00172104 0.000389627 0.00191147 -0.000436603 0.00116671 0.00239237 -8.52536e-05 0.000939739 -7.44238e-05
internal_weight=0 125795 13831 2009 1980 640 225 60 165 145 11822 7186 442 88 354 66 333 312 109 203 117 96 83 60 76 86 57 6744 51 6715
internal_count=217633 125795 13831 2009 1980 640 225 60 165 145 11822 7186 442 88 354 66 333 312 109 203 117 96 83 60 76 86 57 6744 51 6715
shrinkage=0.05


Tree=547
num_leaves=31
num_cat=0
split_feature=6 6 29 44 44 29 20 0 37 37 43 1 43 40 9 40 30 11 37 8 34 35 16 34 16 21 20 2 19 13
split_gain=0.0020623 0.00990445 0.0286415 0.0205644 0.0744259 0.11712 0.266406 0.100717 0.0623193 0.124176 0.0616042 0.036184 0.0213353 0.0188025 0.0166505 0.0153278 0.0134252 0.011739 0.0196107 0.0114764 0.0162925 0.0095491 0.0201612 0.0542221 0.0810874 0.0307249 0.0196029 0.0819186 0.0170272 0.0148822
threshold=-2.2961349999999994e-06 -2.6132299999999998e-06 -1.2159399999999998 -0.47859499999999983 0.71026 0.004918495000000001 -2.1023349999999996 -5.8367999999999993 4.6105250000000002e-08 8.1633150000000002e-08 0.51814999999999956 6.1111750000000002 0.60048999999999852 0.039429999999999972 5.9192500000000006e-05 -0.10081500000000009 5.9900250000000003e-05 3.3784900000000002e-05 -7.9713399999999989e-08 1.8439700000000002e-05 0.014983150000000002 -0.034275499999999993 -3.1157049999999994e-07 0.18345600000000004 -3.2239999999999995e-06 18.392150000000004 -9.9085449999999984 -2.1751149999999995 1.1921100000000003e-10 -2.3829049999999998e-05
decision_type=2 2 2 2 2 2 2 2 2 2 2 2 2 2 2 2 2 2 2 2 2 2 2 2 2 2 2 2 2 2
left_child=1 21 -3 10 5 8 7 -7 16 -10 -4 -11 -12 15 19 -9 -5 -18 -19 -6 -21 22 23 24 -1 26 27 -25 -24 -30
right_child=-2 2 3 4 14 6 -8 13 9 11 12 -13 -14 -15 -16 -17 17 18 -20 20 -22 -23 28 25 -26 -27 -28 -29 29 -31
leaf_value=-8.4063994933764429e-06 -2.9917772378344594e-06 0.0015708170074049121 -0.0026131375163360015 -0.0013686018695739178 2.063207083891398e-06 0.0032183410046472045 0.0072259155386200291 -1.7497188356076418e-05 0.0045298058457972174 -0.00016924403165858031 0.0012309162541843015 0.0021678407817406964 -3.1616989575789764e-05 -0.00061631271564692729 0.0012789582079130923 0.0016684384212007552 9.54680335025142e-05 0.00019934217511352313 -0.0019414368710931739 2.5579460142921562e-05 -0.0018726142783270915 -3.741694380977258e-06 0.0012791695909142549 0.0032040816085869804 0.0031399732879668963 0.0018900279742665588 4.071471237545156e-05 5.3723358296792863e-05 0.00050884947334303265 -3.0447210252330562e-05
leaf_weight=43 157954 32 23 20 1499 38 20 28 23 67 34 22 2115 42 25 26 260 23 20 26 20 51136 26 26 39 25 966 100 134 2821
leaf_count=43 157954 32 23 20 1499 38 20 28 23 67 34 22 2115 42 25 26 260 23 20 26 20 51136 26 26 39 25 966 100 134 2821
internal_value=0 7.91842e-06 8.04467e-05 6.94349e-05 0.000178714 0.000658004 0.00184298 0.00103956 0.000238493 0.00125481 -3.91901e-05 0.000408462 -1.16421e-05 0.000177129 -1.09587e-06 0.00079425 -0.000113914 -3.10963e-05 -0.000796369 -2.18087e-05 -0.000799722 2.19782e-06 7.48588e-05 0.000248004 0.00148899 0.000156902 0.000117224 0.000703797 5.21726e-06 -5.99179e-06
internal_weight=0 59679 4363 4331 2159 589 154 134 435 112 2172 89 2149 96 1570 54 323 303 43 1545 46 55316 4180 1199 82 1117 1092 126 2981 2955
internal_count=217633 59679 4363 4331 2159 589 154 134 435 112 2172 89 2149 96 1570 54 323 303 43 1545 46 55316 4180 1199 82 1117 1092 126 2981 2955
shrinkage=0.05


Tree=548
num_leaves=31
num_cat=0
split_feature=5 15 21 1 37 11 23 15 14 25 28 41 41 39 13 41 41 21 32 37 15 43 43 35 3 30 35 43 31 24
split_gain=0.0020263 0.0146616 0.0363988 0.0798973 0.0315573 0.0788618 0.134319 0.0495409 0.0818726 0.0305124 0.0402142 0.0987938 0.141351 0.0525883 0.0302481 0.0298771 0.0649255 0.0729264 0.0241239 0.0414803 0.0384092 0.0256456 0.0565674 0.398766 0.0318042 0.0635828 0.0282329 0.143571 0.0273567 0.0240492
threshold=9.9471450000000032e-06 -5.1309549999999988e-07 -15.424049999999998 -1.2762649999999998 1.8324750000000004e-05 -4.4153649999999994e-05 -10.576799999999997 -2.4511349999999994e-07 0.00029902350000000005 21.272000000000002 -0.10172349999999998 -0.33012499999999995 0.14791590000000002 0.0088996250000000013 -3.5092449999999993e-05 -0.41158849999999991 0.68231549999999996 2.2931300000000006 -4.3985699999999994 -6.6903649999999996e-06 -7.03526e-06 -0.15760999999999911 -0.026199999999999776 0.0016231600000000002 -14.176449999999997 0.00036855800000000006 -0.026904649999999999 -1.1067849999999997 2.3607850000000004 0.31809300000000001
decision_type=2 2 2 2 2 2 2 2 2 2 2 2 2 2 2 2 2 2 2 2 2 2 2 2 2 2 2 2 2 2
left_child=1 2 3 -1 -3 6 -6 8 -7 10 11 -4 -13 -14 -9 -11 17 -17 -12 20 -20 26 23 -23 25 -24 27 -21 -26 -27
right_child=-2 4 9 -5 5 7 -8 14 -10 15 18 12 13 -15 -16 16 -18 -19 19 21 -22 22 24 -25 28 29 -28 -29 -30 -31
leaf_value=-0.003880163739231648 1.9373080676173263e-06 -4.4841305525619198e-06 -7.0300523383779202e-05 0.00010254465658577188 0.0045181831905963541 0.0041578084125285389 -0.00011383821346338235 0.0018788767201344441 -0.00013419955737481359 -5.1858904847559365e-05 0.0012967703885465199 0.005622432906446713 -0.00094437276954598332 0.0024817703186445651 -7.8259986893025567e-06 -0.0040501797421564978 -0.00016943623986267282 -0.00023404625036554147 9.0851791901513935e-06 1.9562514080462282e-05 -0.0029577506101001443 0.00024210641944349636 -0.002885013436232463 -0.0076820743548705649 -4.9477261887099071e-05 -8.5206920846303557e-05 -1.8527294873155852e-05 0.0044134154876453316 -0.0018247190170189822 -0.0013229384511550262
leaf_weight=20 187414 23189 157 34 29 20 34 22 25 116 32 21 24 21 618 31 69 21 20 120 24 77 29 20 1599 160 3591 22 22 52
leaf_count=20 187414 23189 157 34 29 20 34 22 25 116 32 21 24 21 618 31 69 21 20 120 24 77 29 20 1599 160 3591 22 22 52
internal_value=0 -1.20149e-05 -7.99989e-05 -0.00137253 5.82672e-06 0.000325477 0.00201836 0.000169781 0.00177336 -6.87919e-05 -4.678e-05 0.000612045 0.0022352 0.000654494 5.70294e-05 -0.000625221 -0.00117489 -0.00250905 -7.22512e-05 -7.98887e-05 -0.00160919 -6.8067e-05 -0.000214573 -0.00139175 -0.000153249 -0.000689176 8.81627e-06 0.0007003 -7.35706e-05 -0.000388801
internal_weight=0 30219 6282 54 23937 748 63 685 45 6228 5991 223 66 45 640 237 121 52 5768 5736 44 5692 1959 97 1862 241 3733 142 1621 212
internal_count=217633 30219 6282 54 23937 748 63 685 45 6228 5991 223 66 45 640 237 121 52 5768 5736 44 5692 1959 97 1862 241 3733 142 1621 212
shrinkage=0.05


Tree=549
num_leaves=31
num_cat=0
split_feature=1 21 10 21 11 26 36 11 19 22 18 28 39 16 19 34 18 14 34 37 3 7 31 28 15 33 40 40 22 2
split_gain=0.00199337 0.00807129 0.0345856 0.0730546 0.288852 0.0473783 0.0549722 0.107091 0.258277 0.105564 0.0669593 0.0738319 0.201189 0.0560905 0.0866479 0.0526703 0.0527308 0.0525374 0.0504101 0.106244 0.0474162 0.0458277 0.0751259 0.0281425 0.0259636 0.0766545 0.128703 0.0863025 0.035404 0.0866384
threshold=5.9655550000000011 7.1162100000000006 1.7656850000000004e-05 7.2928950000000006 8.8810700000000017e-06 -7.2484149999999989e-05 0.00057969850000000008 -3.5357649999999998e-06 1.5088800000000002e-05 1.9824050000000002 -7.2403999999999991e-09 0.0040724050000000012 1.4661650000000003e-06 -9.7727699999999997e-08 7.3264550000000007e-07 0.024150900000000003 -2.3744499999999999e-05 0.00020887000000000002 0.18345600000000004 6.3099400000000006e-06 -9.6563599999999976 2.3472700000000003e-05 -0.015172 0.54025350000000005 1.2060150000000002e-06 -1.2657449999999999e-05 0.10022550000000004 -0.14969009999999991 2.2191300000000003 2.1574400000000007
decision_type=2 2 2 2 2 2 2 2 2 2 2 2 2 2 2 2 2 2 2 2 2 2 2 2 2 2 2 2 2 2
left_child=-1 -2 3 4 -3 23 10 8 -8 -10 15 -12 -13 14 -9 -7 -17 -18 21 -20 -19 22 -14 -5 28 26 27 -26 -4 -30
right_child=1 2 24 5 -6 6 7 13 9 -11 11 12 18 -15 -16 16 17 20 19 -21 -22 -23 -24 -25 25 -27 -28 -29 29 -31
leaf_value=-2.673239859809417e-06 1.7822802554952284e-05 -7.0451063957870758e-06 1.6312534460813042e-05 0.0001988877816187304 -0.0065865406113020568 -3.6623014202437842e-05 -0.0071558322958298962 -0.0041513939815922647 -0.00039302130772354691 -0.0043595237762201573 0.00018573918002641628 -0.0056160426501843507 -0.0041364113283634653 0.00031125889909694519 -6.6596555316701176e-05 -0.00050718637622118145 9.9053478227621622e-05 0.0010644116214489959 -0.0048926451707666276 0.00026108357473276556 0.0035145169663519482 -6.7267473120000769e-05 -0.00029494253313064946 0.0021137118601473048 -0.0013692739310458407 -3.9220193190218374e-05 -0.00012201033113524319 -0.0052210764432227457 -4.4376908915448141e-06 0.0011449557514380839
leaf_weight=165868 42436 69 5252 473 22 441 20 20 104 20 221 22 20 171 37 42 41 39 20 20 40 206 35 20 33 1086 100 26 480 249
leaf_count=165868 42436 69 5252 473 22 441 20 20 104 20 221 22 20 171 37 42 41 39 20 20 40 206 35 20 33 1086 100 26 480 249
internal_value=0 8.56573e-06 -3.35431e-05 -0.000211998 -0.00159769 -0.000149325 -0.000287552 -0.00081572 -0.0018832 -0.00103278 -0.000116254 -0.000518463 -0.00100029 -0.000141521 -0.00149986 0.000246603 0.00101761 0.00155128 -0.000662922 -0.00231578 0.00230497 -0.00040961 -0.00169184 0.000276568 1.83932e-05 -0.00018934 -0.00121469 -0.00306668 6.16347e-05 0.000388153
internal_weight=0 51765 9329 2103 91 2012 1519 372 144 124 1147 544 323 228 57 603 162 120 301 40 79 261 55 493 7226 1245 159 59 5981 729
internal_count=217633 51765 9329 2103 91 2012 1519 372 144 124 1147 544 323 228 57 603 162 120 301 40 79 261 55 493 7226 1245 159 59 5981 729
shrinkage=0.05


Tree=550
num_leaves=31
num_cat=0
split_feature=5 30 15 19 13 15 11 40 40 41 40 32 8 43 17 16 16 35 43 44 34 6 25 24 34 30 17 23 25 20
split_gain=0.00207006 0.0095699 0.0198139 0.0269386 0.0393198 0.0360899 0.0192418 0.0130615 0.0176666 0.00954537 0.0869124 0.151777 0.202371 0.167844 0.121149 0.11241 0.392822 0.220935 0.277215 0.437141 0.396066 0.454585 0.17209 0.121376 0.108186 0.115549 0.096683 0.0952675 0.0911445 0.184059
threshold=1.5738550000000005e-05 0.35534200000000005 -1.6870249999999996e-07 0.0019525250000000003 0.00015586950000000003 7.2144500000000009e-06 -3.2696799999999995e-05 1.3170840000000001 -0.86218949999999983 0.19792950000000006 0.14973499999999998 3.1099700000000006 1.6500000000000005e-05 1.4285350000000012 2.3116650000000003e-06 -4.6602349999999998e-06 -1.3281999999999998e-05 0.0017192650000000002 0.64319500000000052 0.7622899999999998 0.12216150000000002 4.0682900000000007e-06 1.3255600000000001 1.3511250000000004 4.6183500000000004 0.016485500000000004 1.4977250000000001e-06 -5.7717399999999985 13.887650000000002 14.554100000000002
decision_type=2 2 2 2 2 2 2 2 2 2 2 2 2 2 2 2 2 2 2 2 2 2 2 2 2 2 2 2 2 2
left_child=1 -1 7 5 -5 6 -4 8 -3 10 11 15 13 -13 -15 16 24 18 19 20 21 -18 -19 27 25 -2 -14 28 29 -17
right_child=9 2 3 4 -6 -7 -8 -9 -10 -11 -12 12 26 14 -16 23 17 22 -20 -21 -22 -23 -24 -25 -26 -27 -28 -29 -30 -31
leaf_value=5.5915498210915735e-06 -0.00014425299865270129 -0.00053108906916653111 0.0014629048870292969 -0.0022361942797821635 0.0003457213819713396 0.0022615198942366986 -0.00013834773453050338 -2.4492287442886403e-05 -0.0021047182795647982 1.1353268648110828e-05 6.1572200781574138e-06 -0.0070579152994469044 -0.0012455727308761421 0.00011038042846786116 -0.0049480206193402414 -4.9882563501321743e-05 -0.014397716293111443 0.0029788350101772531 -0.00096710629437122577 -0.001017229621891379 -0.0016562189658130097 -0.0045429719769427643 -0.0017812376441576575 0.0032466980790819173 -0.0031239805083411436 0.0036838604207150641 0.0018334350513484695 0.003159190821597606 -0.0011796871871881062 0.0041662065959266886
leaf_weight=111645 1370 42 21 30 29 20 176 35 31 48293 49212 24 82 29 20 5942 25 31 92 49 22 22 49 28 30 20 37 23 178 26
leaf_count=111645 1370 42 21 30 29 20 176 35 31 48293 49212 24 82 29 20 5942 25 31 92 49 22 22 49 28 30 20 37 23 178 26
internal_value=0 4.7345e-06 -0.000244445 -1.97743e-05 -0.000967117 0.000237798 3.23442e-05 -0.000818604 -0.00119934 -5.02255e-06 -1.88216e-05 -0.000170601 -0.00155963 -0.00363218 -0.00195427 -0.000136872 -0.000495759 -0.00217269 -0.00302449 -0.00462855 -0.00719312 -0.00978486 6.32905e-05 -3.78403e-05 -0.000153288 -8.91722e-05 -0.000288234 -5.27482e-05 -6.47682e-05 -3.15149e-05
internal_weight=0 112029 384 276 59 217 197 108 73 105604 57311 8099 192 73 49 7907 1710 290 210 118 69 47 80 6197 1420 1390 119 6169 6146 5968
internal_count=217633 112029 384 276 59 217 197 108 73 105604 57311 8099 192 73 49 7907 1710 290 210 118 69 47 80 6197 1420 1390 119 6169 6146 5968
shrinkage=0.05


Tree=551
num_leaves=31
num_cat=0
split_feature=17 37 17 28 35 29 25 24 31 6 37 43 41 19 13 41 7 24 30 12 41 41 14 32 13 7 20 42 4 18
split_gain=0.0019557 0.0119021 0.0723905 0.016881 0.0231289 0.0107179 0.0262487 0.0155811 0.0115516 0.054309 0.0328958 0.0218263 0.0533926 0.00960036 0.0118578 0.0151285 0.0108698 0.0091922 0.0130005 0.00990382 0.0494788 0.0961561 0.0688841 0.0407498 0.0172581 0.0359099 0.017093 0.0189292 0.0167063 0.0544804
threshold=2.5901300000000006e-05 -6.2538149999999987e-05 5.7099050000000007e-05 -0.96676949999999995 -1.5367699999999997 -1.2159399999999998 38.031000000000013 2.1521500000000002 -6.1956549999999995 1.3627200000000002e-05 -2.7510949999999998e-05 -1.1067849999999997 -0.25176499999999996 0.11686450000000001 0.00015586950000000003 -0.10141500000000002 3.7305750000000001e-05 0.54950250000000012 0.12582950000000004 8.7312800000000009e-05 -0.35786749999999995 0.24875600000000014 0.011360800000000002 -2.4309499999999997 2.8023750000000001e-05 3.4611100000000012e-05 3.8922100000000004 -0.43704099999999996 0.49902250000000004 0.00025725050000000005
decision_type=2 2 2 2 2 2 2 2 2 2 2 2 2 2 2 2 2 2 2 2 2 2 2 2 2 2 2 2 2 2
left_child=-1 2 -2 -4 -5 6 -3 8 9 10 -7 12 -12 14 15 -8 -16 -10 19 24 -21 22 -22 -24 25 -19 27 -23 -27 -30
right_child=1 5 3 4 -6 7 13 -9 17 -11 11 -13 -14 -15 16 -17 -18 18 -20 20 21 26 23 -25 -26 28 -28 -29 29 -31
leaf_value=-1.9385889603913827e-06 0.0023343228381571333 -0.0019801914441235236 -0.0010933376606569963 -0.00047822887381033337 0.0014513280680112076 -0.0016862078854066331 -0.0001291884309687179 0.0012854298062544938 1.5582047896346121e-05 0.0025637265310506337 -0.0001100265680179291 -2.6950551026864224e-05 0.003134594495904388 0.00082645483516072 0.0009434943977976219 -0.0017250837430495909 -0.00024746395098057891 0.0023541078131165704 0.00093839748529717332 1.5393879988996073e-05 -0.0037360840852252789 -4.2493562733499048e-05 -0.0024119416015937218 0.00012254208925047093 -0.00013476681952737533 -6.5065783405133572e-05 0.0012928733862372611 -0.0016561886937346401 0.0025578047585180946 -0.00018717811307236416
leaf_weight=186444 38 22 36 41 25 23 33 24 28559 25 32 131 21 22 25 27 82 20 30 617 37 135 29 35 786 214 20 21 28 51
leaf_count=186444 38 22 36 41 25 23 33 24 28559 25 32 131 21 22 25 27 82 20 30 617 37 135 29 35 786 214 20 21 28 51
internal_value=0 1.15886e-05 0.000471571 -0.000222395 0.000252664 9.51458e-06 -0.000345627 1.19445e-05 1.09527e-05 0.000362437 9.65813e-05 0.00031943 0.00117558 -0.000155361 -0.000284702 -0.000847341 3.07973e-05 8.28624e-06 -9.47097e-05 -0.000110261 -0.000233841 -0.000788995 -0.00201874 -0.0010259 -9.73266e-06 0.000304251 -8.32905e-05 -0.000259722 0.000164329 0.000785727
internal_weight=0 31189 140 102 66 31049 211 30838 30814 232 207 184 53 189 167 60 107 30582 2023 1993 894 277 101 64 1099 313 176 156 293 79
internal_count=217633 31189 140 102 66 31049 211 30838 30814 232 207 184 53 189 167 60 107 30582 2023 1993 894 277 101 64 1099 313 176 156 293 79
shrinkage=0.05


Tree=552
num_leaves=31
num_cat=0
split_feature=21 40 40 22 0 40 20 8 40 20 5 20 40 19 6 7 13 19 39 32 40 37 0 24 35 19 16 33 40 1
split_gain=0.00191172 0.00682208 0.0137174 0.0408775 0.0317634 0.0667248 0.0850498 0.147179 0.0750815 0.0426867 0.0650282 0.0311563 0.050035 0.0286645 0.0591121 0.0758085 0.0387115 0.0262834 0.019394 0.0189317 0.0240649 0.0243822 0.0189518 0.018205 0.0164864 0.0105207 0.0095886 0.00869113 0.00849198 0.00837069
threshold=13.390900000000002 1.3818860000000004 -0.51801999999999981 2.3818600000000001 3.6588600000000002 0.20129000000000011 -9.0227099999999982 -7.9332349999999979e-06 0.056773999999999998 4.1005450000000012 1.6536050000000006e-05 2.9284200000000005 0.10022550000000004 5.4568300000000011e-05 4.4498500000000004e-07 3.0697150000000005e-05 1.6216200000000002e-06 6.1128050000000005e-06 0.0043455600000000009 -4.3985699999999994 -0.17527649999999997 -1.4028749999999999e-06 -4.6333449999999994 0.47318500000000002 -8.5689099999999979e-05 0.0011030500000000002 -4.2042099999999992e-07 4.8167950000000007e-05 0.039429999999999972 12.027950000000002
decision_type=2 2 2 2 2 2 2 2 2 2 2 2 2 2 2 2 2 2 2 2 2 2 2 2 2 2 2 2 2 2
left_child=-1 2 29 4 11 8 -7 -8 9 23 -11 13 -13 14 16 -16 -4 18 24 22 -21 -22 -15 -6 -18 26 -14 28 -23 -2
right_child=1 -3 3 -5 5 6 7 -9 -10 10 -12 12 25 19 15 -17 17 -19 -20 20 21 27 -24 -25 -26 -27 -28 -29 -30 -31
leaf_value=-5.7671717693694355e-07 -3.3914403645406638e-06 -0.0001691074120114695 -0.0015343931472930959 0.0018428794613321994 0.0001409544202942925 -0.00033309218627904113 0.00057889481102297159 0.0052637425439509876 -0.0026130217234216009 -0.00023925390150570487 0.0032309422793332489 -0.0023578839111988519 -0.0014483199820720725 2.915677754208446e-05 -1.1036729151585506e-05 0.0038630659880124897 0.001916942563839257 0.0020107243128374345 -0.00067212951544206592 0.0015385181843012106 -0.0016044972105495011 0.0010820163384080801 -0.0018648635863688209 -0.0016545422693889124 6.3657057471573348e-05 0.00039807639656587251 -0.00022386756373539833 -0.00091498960391618318 5.1512498086000996e-05 -0.00085950429493095734
leaf_weight=214386 1849 354 28 37 48 37 38 30 24 27 27 33 21 25 23 28 20 24 40 25 24 22 28 20 30 49 67 21 219 29
leaf_count=214386 1849 354 28 37 48 37 38 30 24 27 27 33 21 25 23 28 20 24 40 25 24 22 28 20 30 49 67 21 219 29
internal_value=0 3.80783e-05 6.34304e-05 0.000211528 0.00014981 0.000634757 0.00159606 0.00264574 -5.65888e-05 0.000446316 0.00149584 -1.76203e-05 -0.000610107 0.000163211 0.000655802 0.00211592 0.000131393 0.000540533 0.000148482 -9.79709e-05 5.08869e-05 -7.91508e-05 -0.000971458 -0.000387133 0.000804971 -0.00018911 -0.000516066 6.05756e-05 0.000145583 -1.66115e-05
internal_weight=0 3247 2893 1015 978 251 105 68 146 122 54 727 170 557 193 51 142 114 90 364 311 286 53 68 50 137 88 262 241 1878
internal_count=217633 3247 2893 1015 978 251 105 68 146 122 54 727 170 557 193 51 142 114 90 364 311 286 53 68 50 137 88 262 241 1878
shrinkage=0.05


Tree=553
num_leaves=31
num_cat=0
split_feature=23 1 13 11 26 11 11 3 29 14 0 6 3 29 14 34 43 40 40 34 35 17 17 20 22 20 6 29 34 12
split_gain=0.00195624 0.0151029 0.058914 0.0133673 0.025508 0.0109933 0.057384 0.015367 0.0440125 0.0643998 0.0129344 0.0268973 0.0116146 0.0242373 0.0875533 0.0359945 0.0102478 0.0156275 0.0776476 0.106141 0.0286038 0.00849722 0.0161718 0.00620906 0.00513945 0.00465826 0.00547688 0.00496667 0.00375735 0.0113412
threshold=-6.007039999999999 12.027950000000002 -1.2004249999999998e-05 -3.9082349999999992e-06 7.7908300000000021e-05 2.2232350000000001e-05 2.0886150000000003e-05 -7.0771999999999986 -0.034806349999999993 0.00066001700000000005 9.0503000000000018 4.4498500000000004e-07 -6.9704649999999999 0.014392250000000002 0.00014492950000000003 0.057366000000000007 0.27381999999999979 -0.079468000000000025 0.1751400000000001 0.0069692250000000008 -5.0976099999999995e-05 1.1291000000000001e-07 6.5530550000000015e-08 -12.464199999999998 1.3330350000000004 -14.223749999999997 -1.3116499999999997e-05 0.70424300000000006 0.54644700000000013 0.00022537400000000003
decision_type=2 2 2 2 2 2 2 2 2 2 2 2 2 2 2 2 2 2 2 2 2 2 2 2 2 2 2 2 2 2
left_child=-1 5 -3 -4 24 6 12 10 9 -9 28 -12 25 16 15 -15 17 -14 19 20 -19 22 -18 -17 -5 -2 -27 -28 -7 -30
right_child=1 2 3 4 -6 7 -8 8 -10 -11 11 -13 13 14 -16 23 21 18 -20 -21 -22 -23 -24 -25 -26 26 27 -29 29 -31
leaf_value=-5.8266396508160632e-07 -0.00032515633570348698 -0.002391866552551942 0.00090116139309071573 -3.9257816125528839e-05 -0.0014507634670618216 1.5498240323964576e-05 0.0026138195413335308 8.8629339271309703e-05 -1.7893997940378113e-05 -0.0036953016304165512 0.0021614658475820245 -0.00015611642344494261 -4.9006138907805924e-05 0.0019332266881823064 0.003096442703408133 -0.00079806697904132311 -0.00011953996545344125 -0.0007001331816189288 -6.2521588217956988e-05 0.0048310981579230763 0.0019125113179325082 4.1168618939152043e-05 -0.0018225916131632402 4.8552290601621094e-05 0.00086676897820628569 0.00085427217894903148 3.6780939182321964e-05 -0.0006262944885810581 -1.326329578919935e-05 -0.0010639507443342797
leaf_weight=214394 98 31 33 45 31 667 23 22 123 23 21 31 208 24 33 32 46 22 150 22 20 156 20 67 24 20 1079 29 105 34
leaf_count=214394 98 31 33 45 31 667 23 22 123 23 21 31 208 24 33 32 46 22 150 22 20 156 20 67 24 20 1079 29 105 34
internal_value=0 3.85674e-05 -0.000428947 2.85753e-05 -0.000259378 6.35015e-05 0.000130399 -7.0099e-05 -0.000507399 -0.00184538 1.55263e-05 0.00077983 0.000102207 0.000250408 0.000809583 0.000196035 0.000114956 0.000259621 0.000559594 0.00201768 0.000543983 -0.000160038 -0.000635616 -0.000225102 0.000275882 5.50099e-06 3.42283e-05 1.94261e-05 -3.37837e-05 -0.000270266
internal_weight=0 3239 164 133 100 3075 2049 1026 168 45 858 52 2026 800 156 123 644 422 214 64 42 222 66 99 69 1226 1128 1108 806 139
internal_count=217633 3239 164 133 100 3075 2049 1026 168 45 858 52 2026 800 156 123 644 422 214 64 42 222 66 99 69 1226 1128 1108 806 139
shrinkage=0.05


Tree=554
num_leaves=31
num_cat=0
split_feature=32 30 40 40 21 43 43 21 14 13 37 15 43 26 43 15 19 25 40 38 24 8 43 5 39 43 21 1 43 21
split_gain=0.00193734 0.0115148 0.0356244 0.182827 0.193609 0.102828 0.212879 0.138095 0.139795 0.0759329 0.0478619 0.0633864 0.0373884 0.039273 0.0299492 0.0240166 0.0215466 0.0939399 0.0413668 0.118162 0.0694518 0.0633759 0.0808267 0.0634341 0.0859456 0.0493074 0.0454238 0.052996 0.0643207 0.050662
threshold=-0.12163499999999998 0.0011509850000000002 -0.14969009999999991 -0.0054100000000001361 2.3968500000000001 1.3895649999999999 0.64319500000000052 3.9119950000000006 0.00030683250000000005 1.4744150000000002e-05 2.0081650000000003e-07 2.2656000000000001e-07 -0.66712000000000005 9.7569450000000018e-05 -3.0299649999999994 -2.8013149999999996e-08 4.1788700000000013e-09 1.5995450000000002 0.056773999999999998 -0.0035192999999999995 -0.29593199999999992 -1.8258849999999995e-05 -0.12174999999999957 1.5962300000000005e-05 4.2855650000000007e-05 0.8945249999999999 3.6376800000000005 4.9424050000000008 0.23546500000000006 7.1162100000000006
decision_type=2 2 2 2 2 2 2 2 2 2 2 2 2 2 2 2 2 2 2 2 2 2 2 2 2 2 2 2 2 2
left_child=1 2 -1 4 -4 6 7 -6 9 15 11 12 14 -14 -10 -9 17 -5 19 -18 -21 22 -22 25 -25 26 -23 -28 29 -29
right_child=-2 -3 3 16 5 -7 -8 8 10 -11 -12 -13 13 -15 -16 -17 18 -19 -20 20 21 23 -24 24 -26 -27 27 28 -30 -31
leaf_value=-5.3474782640600572e-06 -2.3546218190542024e-06 -8.7800548380213773e-06 0.0049112787030207985 0.00013229331513723314 0.0042885673296820769 -0.00010743605753124921 0.0054941532580414787 0.0027125113600050101 -4.6737633529403413e-05 0.005260594012215734 0.0016896328545246636 -0.0024493542566076565 0.00015522967069267818 0.0025785957923203356 -0.0025131974751025155 0.00026217591177555731 -0.0025052409870991617 -0.0037471692226927187 2.2408800453714514e-06 0.0035363960380147379 0.0044715083059228087 0.0031394318874282318 0.00081164844799180489 -0.0037756666178687566 0.00069626302720280373 -0.0011491973044802292 -0.00060043807400991984 0.0020545932382496227 0.0038797638989763075 -0.00048286715157354635
leaf_weight=10161 174228 28914 30 71 28 202 28 20 32 20 36 29 82 21 20 20 29 20 3300 22 22 21 48 21 22 33 54 37 20 42
leaf_count=10161 174228 28914 30 71 28 202 28 20 32 20 36 29 82 21 20 20 29 20 3300 22 22 21 48 21 22 33 54 37 20 42
internal_value=0 9.45147e-06 4.5829e-05 0.000165922 0.00100207 0.00078408 0.00132005 0.000940587 0.000605789 0.00274509 2.23423e-05 -0.000303867 9.7547e-05 0.000649314 -0.000995376 0.00148734 3.96783e-05 -0.000720336 5.85182e-05 0.000559098 0.00081894 0.000632115 0.00196189 0.000259778 -0.0014877 0.000622781 0.000958846 0.00065955 0.00134682 0.000705564
internal_weight=0 43405 14491 4330 568 538 336 308 280 60 220 184 155 103 52 40 3762 91 3671 371 342 320 70 250 43 207 174 153 99 79
internal_count=217633 43405 14491 4330 568 538 336 308 280 60 220 184 155 103 52 40 3762 91 3671 371 342 320 70 250 43 207 174 153 99 79
shrinkage=0.05


Tree=555
num_leaves=31
num_cat=0
split_feature=31 20 3 17 23 1 2 16 40 44 0 44 2 21 28 2 4 30 5 34 11 13 13 40 40 0 9 20 4 2
split_gain=0.00196969 0.0112521 0.0708931 0.105941 0.222253 0.206027 0.107663 0.0305186 0.0274391 0.0225001 0.0355322 0.0296894 0.262332 0.237348 0.218718 0.16421 0.281663 0.0854091 0.038113 0.0253812 0.0404997 0.0394396 0.0814829 0.0386539 0.0493494 0.0485448 0.0450391 0.0385464 0.0306813 0.027787
threshold=0.56878050000000013 -1.3693099999999998 -15.510599999999998 4.0793000000000007e-08 -10.753299999999998 -2.1876999999999995 2.0367550000000008 -4.2565349999999989e-06 -5.6825599999999996 1.0949350000000011 -8.5831699999999973 -0.31477499999999997 -2.7279399999999994 -4.467719999999999 -0.060167999999999992 2.9401200000000007 0.36048500000000006 0.0029116950000000002 1.3194150000000001e-05 0.36930950000000001 -4.2495899999999994e-05 8.7262050000000009e-05 7.5148700000000015e-05 0.49120000000000014 -0.27744100000000016 -5.7641099999999996 -2.2309399999999997e-05 -4.0204099999999992 0.12649250000000004 -2.1299649999999999
decision_type=2 2 2 2 2 2 2 2 2 2 2 2 2 2 2 2 2 2 2 2 2 2 2 2 2 2 2 2 2 2
left_child=-1 9 3 4 5 -3 7 -5 -4 11 -11 -2 13 -13 -15 -14 -17 -16 -19 -12 21 22 23 24 -21 -26 27 28 -27 -22
right_child=1 2 8 6 -6 -7 -8 -9 -10 10 19 12 15 14 17 16 -18 18 -20 20 29 -23 -24 -25 25 26 -28 -29 -30 -31
leaf_value=-1.4747124631309799e-06 3.5751221336702542e-07 0.0082513084571639254 -0.0015536712331662853 -0.001751296546759217 -0.0002137301738214372 0.0013274889914706971 0.0026335428359120019 -2.8955777302191156e-05 4.6863365737798237e-05 -0.0021706260301427738 9.2191444648303338e-05 0.0069735446595586836 -7.6974363555073604e-05 0.0059603493101894854 0.0026631579886833654 -0.00016498026616905154 0.0074457182374317206 -0.0027565960866576507 0.00010731110411982698 -0.00033816150555419602 0.0012138652659497134 -0.00010939458705106517 -0.0035232528158272861 -8.0071037090507206e-05 -0.0039088234151925215 -7.6416273978317079e-05 -0.0028531400054963608 0.0012230145994440787 -0.0028127843351103366 -7.8308148687566487e-05
leaf_weight=198549 10957 22 27 35 43 21 35 97 3258 21 1065 24 1205 20 21 31 20 21 26 117 43 375 26 177 22 21 31 21 20 1282
leaf_count=198549 10957 22 27 35 43 21 35 97 3258 21 1065 24 1205 20 21 31 20 21 26 117 43 375 26 177 22 21 31 21 20 1282
internal_value=0 1.53428e-05 9.58217e-05 0.000902314 0.00232809 0.00486991 0.000168083 -0.000485637 3.37083e-05 -2.97277e-06 -0.000120639 2.77779e-05 0.000247402 0.00256607 0.00136403 4.06416e-05 0.00281961 1.21748e-05 -0.00117231 -0.000107186 -0.000206641 -0.000485165 -0.000809105 -0.000636567 -0.00106114 -0.00179668 -0.00129704 -0.000518986 -0.00141123 -3.63735e-05
internal_weight=0 19084 3538 253 86 43 167 132 3285 15546 3221 12325 1368 112 88 1256 51 68 47 3200 2135 810 435 409 232 115 93 62 41 1325
internal_count=217633 19084 3538 253 86 43 167 132 3285 15546 3221 12325 1368 112 88 1256 51 68 47 3200 2135 810 435 409 232 115 93 62 41 1325
shrinkage=0.05


Tree=556
num_leaves=31
num_cat=0
split_feature=40 22 40 15 1 2 21 43 38 43 21 22 23 32 19 19 6 4 43 26 40 33 22 21 37 43 21 21 12 8
split_gain=0.00198263 0.0186751 0.0765228 0.157031 0.0211945 0.0144826 0.0721739 0.168201 0.0566549 0.309583 0.0548815 0.103599 0.0608238 0.0821357 0.133471 0.105735 0.0446586 0.0311759 0.0314473 0.030008 0.0169577 0.0155656 0.0132891 0.100379 0.0970282 0.0754038 0.0741433 0.0405748 0.0429557 0.0508112
threshold=-0.57440449999999987 3.0676500000000004 -0.040859549999999939 -7.385929999999999e-08 1.0868900000000001 -2.9192849999999999 0.77184100000000011 0.64319500000000052 -0.0083346849999999997 1.1890849999999997 -2.0281699999999994 -3.0365249999999997 -9.709209999999997 0.0052994200000000009 1.0077000000000001e-08 1.8317000000000004e-07 -7.9179699999999979e-07 0.36048500000000006 0.97785500000000003 6.2222600000000016e-05 0.010257000000000018 -1.2622299999999997e-06 2.9381050000000006 6.3306750000000012 2.2463100000000002e-07 2.9569100000000006 -1.6594799999999996 3.6376800000000005 1.1504300000000003e-05 -4.3983849999999991e-06
decision_type=2 2 2 2 2 2 2 2 2 2 2 2 2 2 2 2 2 2 2 2 2 2 2 2 2 2 2 2 2 2
left_child=-1 5 4 -4 -3 6 8 -8 9 -2 11 -10 17 -14 -15 -16 -11 18 19 -12 21 -13 -7 24 26 -26 -24 28 -28 -30
right_child=1 2 3 -5 -6 22 7 -9 10 16 12 20 13 14 15 -17 -18 -19 -20 -21 -22 -23 23 -25 25 -27 27 -29 29 -31
leaf_value=5.8541170872940215e-06 -0.0060695429954928564 0.0012592798600711958 0.00049541447329082603 -0.0049008667952595997 -0.00019346278707787332 -2.8634725264955095e-06 0.0045853792818961667 -0.00085176630269746638 0.0035470236367969353 -0.00054578056187892798 0.0024551467966779858 7.5443632441208447e-07 8.5315085445591783e-05 -0.005100901472203611 0.00099529857027598413 -0.0028733610708801087 0.0024660742792548263 -0.001279202218456949 -0.00032137784766422405 0.00015750034304801375 0.0011693848921226916 -0.0013766532329927113 0.0029709380093336222 0.0033937909640371802 -0.0034021515395910359 -7.0725979915420926e-05 0.00097917619251689891 0.0019798341084970163 0.00017669241670525729 -0.0010771466549218003
leaf_weight=86888 26 29 28 26 187 128942 25 33 22 32 27 303 61 29 33 38 20 37 73 30 29 22 25 24 33 35 109 30 330 107
leaf_count=86888 26 29 28 26 187 128942 25 33 22 32 27 303 61 29 33 38 20 37 73 30 29 22 25 24 33 35 109 30 330 107
internal_value=0 -3.89042e-06 -0.000419294 -0.0021028 1.58136e-06 -3.0308e-06 -0.000209974 0.00149183 -0.000336195 -0.00161476 -0.000194535 0.00021779 -0.000667201 -0.00136065 -0.00224269 -0.00107525 0.000612625 1.33478e-06 0.000365795 0.00124586 1.08881e-05 -9.24855e-05 -1.68986e-06 0.000216677 0.0001027 -0.00168745 0.000305245 0.000189547 9.11795e-05 -0.000130312
internal_weight=0 130745 270 54 216 130475 840 58 782 78 704 376 328 161 100 71 52 167 130 57 354 325 129635 693 669 68 601 576 546 437
internal_count=217633 130745 270 54 216 130475 840 58 782 78 704 376 328 161 100 71 52 167 130 57 354 325 129635 693 669 68 601 576 546 437
shrinkage=0.05


Tree=557
num_leaves=31
num_cat=0
split_feature=5 35 21 15 21 15 40 40 44 3 4 32 3 22 21 18 40 40 12 3 32 19 28 10 10 2 28 38 17 36
split_gain=0.00189885 0.0135981 0.0256979 0.0446821 0.0225829 0.0527784 0.0368256 0.187127 0.0586053 0.133512 0.0527971 0.0197525 0.0377653 0.0280484 0.0234899 0.0441647 0.112836 0.23177 0.0414203 0.0216665 0.0161614 0.0301594 0.0159711 0.0179465 0.0134288 0.0203493 0.0107908 0.0103393 0.0791904 0.022545
threshold=9.9471450000000032e-06 0.098593250000000007 -15.424049999999998 1.2060150000000002e-06 3.0686450000000005 2.2039450000000004e-06 0.22528099999999995 -0.32870999999999989 2.829940000000001 -10.911099999999999 0.16470650000000003 2.6219150000000004 -17.495099999999997 -2.4493349999999996 -8.8025949999999984 -3.7438549999999997e-06 0.51872500000000021 -0.40968649999999995 -7.9519599999999983e-05 -14.605749999999999 2.2468500000000007 8.793135000000002e-05 -0.020444849999999997 3.1349550000000005e-05 1.3788000000000002e-05 -1.4785599999999997 0.42036700000000005 0.42223950000000005 1.0000000180025095e-35 -0.14294799999999999
decision_type=2 2 2 2 2 2 2 2 2 2 2 2 2 2 2 2 2 2 2 2 2 2 2 2 2 2 2 2 2 2
left_child=1 11 3 -3 6 22 7 -4 9 -9 -11 20 -13 -14 18 16 17 -16 -15 -17 27 -22 23 -6 25 -21 -8 29 -29 -1
right_child=-2 2 4 -5 5 -7 26 8 -10 10 -12 12 13 14 15 19 -18 -19 -20 24 21 -23 -24 -25 -26 -27 -28 28 -30 -31
leaf_value=-0.00049527374064588811 1.8753923508104821e-06 1.4728340231497789e-05 -9.4579923744778319e-05 0.0027494272255353283 -0.00023018933846927854 0.0019969109773448897 1.2423613045333837e-05 -0.0064017491992158088 -0.00015584942535497249 -0.00080544569063931712 -0.0039792659156955776 0.0020715455951826052 0.0017348763616025411 -0.0021897060228285329 -0.00033795601181158089 0.0013183094433251038 -0.00013181065231151478 0.007099023672053591 -3.3187790174315884e-05 -0.0020631106018776167 0.00016870126808094535 -0.0017443319557442966 0.00011488154309040181 -0.0017186839685395913 4.0055949525638924e-05 -8.3514375428956776e-05 -0.0010023384586604932 0.003254206511025716 -3.9988199080934786e-05 -6.5556952194836917e-06
leaf_weight=238 187414 59 303 20 81 33 407 23 20 38 20 28 28 27 22 28 64 20 127 21 45 38 276 27 206 34 28 21 139 27798
leaf_count=238 187414 59 303 20 81 33 407 23 20 38 20 28 28 27 22 28 64 20 127 21 45 38 276 27 206 34 28 21 139 27798
internal_value=0 -1.16309e-05 -0.000167643 0.000707057 -0.00022266 7.80709e-05 -0.000372129 -0.000715859 -0.0025797 -0.00317818 -0.00189987 -4.42015e-06 0.000278268 0.000191245 0.000112517 0.000316731 0.00118971 0.00320346 -0.000411279 -3.46236e-06 -1.0468e-05 -0.000707145 -8.68294e-05 -0.000602313 -0.000145262 -0.00083936 -5.28944e-05 -8.41717e-06 0.000392375 -1.07045e-05
internal_weight=0 30219 1335 79 1256 417 839 404 101 81 58 28884 605 577 549 395 106 42 154 289 28279 83 384 108 261 55 435 28196 160 28036
internal_count=217633 30219 1335 79 1256 417 839 404 101 81 58 28884 605 577 549 395 106 42 154 289 28279 83 384 108 261 55 435 28196 160 28036
shrinkage=0.05


Tree=558
num_leaves=31
num_cat=0
split_feature=5 36 16 4 17 41 40 43 33 26 40 20 10 25 6 43 3 3 12 26 40 32 12 40 41 8 6 20 4 12
split_gain=0.00190876 0.00893998 0.0315621 0.0436492 0.0949121 0.154784 0.289914 0.197738 0.21926 0.13074 0.127611 0.30041 0.036657 0.0497525 0.0413878 0.0328305 0.0832007 0.0464126 0.064844 0.0925465 0.0606353 0.0413684 0.156108 0.0475932 0.181175 0.254709 0.153107 0.220778 0.174728 0.167431
threshold=1.5738550000000005e-05 -0.025848749999999997 4.4114900000000003e-07 0.18998850000000003 3.8906650000000017e-06 0.35345999999999994 0.38220950000000015 5.0027350000000004 -0.00012302899999999995 0.00057196550000000008 -0.079468000000000025 1.3198400000000003 1.2120050000000001e-05 2.6373500000000001 4.7923500000000012e-07 2.4693750000000008 -15.510599999999998 -18.305499999999995 -0.00015994749999999997 -0.00055385149999999991 0.40779500000000007 -7.1146499999999993 0.00017661200000000001 0.40779500000000007 0.12358499999999996 8.6517600000000013e-06 -4.0493649999999993e-07 1.0000000180025095e-35 -0.19656399999999996 0.00013315750000000002
decision_type=2 2 2 2 2 2 2 2 2 2 2 2 2 2 2 2 2 2 2 2 2 2 2 2 2 2 2 2 2 2
left_child=1 2 3 15 5 6 7 8 -5 10 -10 -12 13 -4 -15 17 -17 20 19 -19 -1 22 -20 24 25 26 27 -23 29 -28
right_child=-2 -3 12 4 -6 -7 -8 -9 9 -11 11 -13 -14 14 -16 16 -18 18 21 -21 -22 23 -24 -25 -26 -27 28 -29 -30 -31
leaf_value=-0.0036738834233388351 -4.8229057893507773e-06 8.5738650202834273e-06 -0.0030931599583378889 0.0069293368193838328 -0.00014944923430584622 -2.7743261390440361e-05 -0.00022525320872620903 -0.0012767872184049338 0.0064521944810015455 -0.00082478215141842763 -0.00090369959038475323 0.005811096385361687 -0.00014146354694785036 -0.00025035543898026079 -0.0023757814481440518 0.0031211323290004991 3.365382010665658e-05 0.0042445045143176688 -0.00089020683947235865 -0.00017663304260450192 -0.00010727689283297737 0.0035063849163155907 0.0039606211614294879 -7.4983599088473556e-06 -5.7754817587455287e-05 -0.0055528032683235199 0.0014218038646504284 -0.0012777220618304316 -0.0045132514103291476 -0.0026740866417120351
leaf_weight=22 105604 103605 22 36 681 353 137 25 24 24 36 31 2092 151 27 22 2670 20 43 29 26 38 27 961 677 35 45 66 48 56
leaf_count=22 105604 103605 22 36 681 353 137 25 24 24 36 31 2092 151 27 22 2670 20 43 29 26 38 27 961 677 35 45 66 48 56
internal_value=0 4.54631e-06 -4.49878e-05 1.4182e-05 0.00026561 0.000690018 0.00149951 0.00284207 0.00352401 0.00245799 0.00332377 0.00220315 -0.00020329 -0.000849996 -0.000572752 -5.65963e-05 5.88858e-05 -0.000205128 -0.000169056 0.00162791 -0.00174197 -0.00021317 0.000980827 -0.000256565 -0.0005046 -0.001555 -0.00100194 0.000470317 -0.00202956 -0.000849185
internal_weight=0 112029 8424 6132 1347 666 313 176 151 115 91 67 2292 200 178 4785 2692 2093 2045 49 48 1996 70 1926 965 288 253 104 149 101
internal_count=217633 112029 8424 6132 1347 666 313 176 151 115 91 67 2292 200 178 4785 2692 2093 2045 49 48 1996 70 1926 965 288 253 104 149 101
shrinkage=0.05


Tree=559
num_leaves=31
num_cat=0
split_feature=32 21 43 41 40 25 23 21 43 15 40 41 21 40 3 10 3 32 40 40 43 43 41 40 30 41 40 32 22 19
split_gain=0.00196962 0.0162322 0.0583561 0.167569 0.754138 0.734233 0.358969 0.183325 0.167376 0.280186 0.039046 0.0367327 0.0472652 0.03173 0.0268114 0.0193052 0.0532395 0.0967496 0.03828 0.184653 0.23645 0.0241117 0.0147161 0.0134874 0.012368 0.0339591 0.0922717 0.0916627 0.154232 0.0868053
threshold=-0.12472649999999999 0.18529350000000003 -0.15760999999999911 0.27484500000000006 0.24966499999999994 3.9071550000000004 -10.311099999999998 -0.69128549999999989 -3.9444949999999994 -7.7047499999999992e-07 -5.6825599999999996 5.6849350000000003 -1.6594799999999996 0.327845 -16.870699999999996 2.4122650000000005e-05 -12.918299999999999 -4.3985699999999994 -0.27744100000000016 0.2761725000000001 2.5758750000000012 1.5956900000000005 0.35345999999999994 -0.43704099999999996 0.0010071450000000003 0.22260499999999997 0.24966499999999994 -0.16729799999999997 0.33168800000000004 1.0092650000000002e-09
decision_type=2 2 2 2 2 2 2 2 2 2 2 2 2 2 2 2 2 2 2 2 2 2 2 2 2 2 2 2 2 2
left_child=1 2 3 4 5 -1 -7 8 -8 -10 -5 14 -13 -6 -4 18 17 -17 -16 20 -20 -19 -12 -24 -3 26 27 29 -29 -26
right_child=-2 24 11 10 13 6 7 -9 9 -11 22 12 -14 -15 15 16 -18 21 19 -21 -22 -23 23 -25 25 -27 -28 28 -30 -31
leaf_value=0.011963513640997311 -2.3443642327974466e-06 4.2006868757954739e-05 -0.0018327220384890099 0.002112455933543277 -0.0020689139222006569 0.0086998017609585081 -0.00031456666349965546 -0.0024440921794545529 0.0085348658729344617 0.0014779554144180836 -0.0012400859590203394 -0.0032566381288597771 0.00010181339502279034 -0.00010683383598797474 1.0535619790464265e-05 0.0035304262568505726 2.8315748621899778e-05 0.0013823601529181291 -0.0076535813423106447 -1.1185171310823651e-05 -0.00058676342102036627 -0.00053816483821058443 -6.3150563663209034e-05 0.0011891823994202161 0.001520536244318534 1.8326391358250237e-05 1.5622114829110695e-05 -0.0043307265376298391 -0.00018857964721973985 -0.00032905573937511026
leaf_weight=24 175099 11617 20 21 22 20 35 24 22 39 26 20 22 325 599 31 1993 26 20 181 29 44 945 22 65 18155 5458 38 55 2636
leaf_count=24 175099 11617 20 21 22 20 35 24 22 39 26 20 22 325 599 31 1993 26 20 181 29 44 945 22 65 18155 5458 38 55 2636
internal_value=0 9.651e-06 9.93385e-05 0.000350968 0.00108928 0.00388329 0.00249811 0.00146449 0.00244164 0.00402307 -2.11005e-05 -2.92161e-05 -0.00149745 -0.000231231 -8.26275e-06 4.22072e-06 8.5071e-05 0.001205 -0.000200002 -0.000748314 -0.00347118 0.000175173 -6.62211e-05 -3.4659e-05 -9.86762e-07 -1.99006e-05 -0.000104003 -0.000337686 -0.00188107 -0.000284545
internal_weight=0 42534 4510 1525 511 164 140 120 96 61 1014 2985 42 347 2943 2923 2094 101 829 230 49 70 993 967 38024 26407 8252 2794 93 2701
internal_count=217633 42534 4510 1525 511 164 140 120 96 61 1014 2985 42 347 2943 2923 2094 101 829 230 49 70 993 967 38024 26407 8252 2794 93 2701
shrinkage=0.05


Tree=560
num_leaves=31
num_cat=0
split_feature=1 21 43 43 21 40 40 1 24 43 23 12 10 37 24 15 32 43 15 35 10 25 31 9 19 17 44 4 15 43
split_gain=0.00194164 0.00723849 0.0358408 0.0510525 0.102125 0.139163 0.465232 0.4514 0.173312 0.102106 0.0767007 0.122023 0.108493 0.0478871 0.0380759 0.0318072 0.0377752 0.0783976 0.0810206 0.190644 0.161368 0.0723341 0.137711 0.11727 0.0720052 0.0614685 0.0546558 0.0974602 0.0422646 0.264952
threshold=5.9655550000000011 7.1162100000000006 -0.026199999999999776 -0.88227999999999918 9.8452300000000026 0.20129000000000011 -0.079468000000000025 9.319485000000002 -0.092714749999999985 -0.23716000000000023 -8.3897499999999976 8.536500000000002e-05 1.3944750000000001e-05 -1.1071149999999997e-08 -0.36167549999999998 1.3231850000000003e-06 -0.079849599999999979 0.55890500000000032 1.5876950000000005e-07 0.0064595250000000016 3.5411900000000006e-05 2.0531150000000005 0.094610100000000016 -2.1801549999999998e-05 8.8529750000000019e-08 4.0793000000000007e-08 -0.7296000000000008 0.18998850000000003 2.9253350000000003e-08 0.39187000000000044
decision_type=2 2 2 2 2 2 2 2 2 2 2 2 2 2 2 2 2 2 2 2 2 2 2 2 2 2 2 2 2 2
left_child=-1 -2 3 -3 10 6 -6 -8 -9 -10 11 12 -5 -11 -12 16 17 21 26 -20 -21 22 24 -23 25 -4 -19 -28 -18 -30
right_child=1 2 15 4 5 -7 7 8 9 13 14 -13 -14 -15 -16 -17 28 18 19 20 -22 23 -24 -25 -26 -27 27 -29 29 -31
leaf_value=-2.6383260146667533e-06 1.7220358839840062e-05 -1.8133179009404035e-05 0.00091938144236337394 -0.00058296059862533148 2.3631334899192201e-05 8.6024507798869849e-05 -0.0095526629610470058 -0.0055638712650585564 -0.0035902289025373118 0.0011915621204700855 0.0024153744729812302 -4.0248363897122692e-05 -0.0055537388460083015 -0.0018754216695379003 0.00023554235942790014 -0.00027674384390945732 2.3841796717116154e-05 6.2876203661214276e-05 -2.6054366597894302e-05 0.0066094687521690513 0.00058387320594192719 -0.003451683518817715 0.0050408172775464862 0.00050135137632465062 0.00046634878396190196 0.0039272563667812699 -0.00030033750921795607 -0.0042845806872355754 -0.0040960352745628373 1.597075370735831e-05
leaf_weight=165868 42436 2077 35 21 196 209 27 31 29 35 21 104 23 20 435 702 2569 1829 94 25 20 21 23 176 178 33 66 20 46 264
leaf_count=165868 42436 2077 35 21 196 209 27 31 29 35 21 104 23 20 435 702 2569 1829 94 25 20 21 23 176 178 33 66 20 46 264
internal_value=0 8.45386e-06 -3.14234e-05 -0.000166157 -0.000433268 -0.000928174 -0.0015553 -0.00373466 -0.0023687 -0.00118953 1.49334e-05 -0.000974081 -0.00318132 7.62953e-05 0.000335929 3.98631e-05 8.10297e-05 0.000222393 8.95578e-05 0.00125514 0.00393143 0.000807895 0.00134099 7.99619e-05 0.000995073 0.00237909 4.95388e-06 -0.00122691 -4.27064e-05 -0.000594198
internal_weight=0 51765 9329 3228 1151 547 338 142 115 84 604 148 44 55 456 6101 5399 2520 2054 139 45 466 269 197 246 68 1915 86 2879 310
internal_count=217633 51765 9329 3228 1151 547 338 142 115 84 604 148 44 55 456 6101 5399 2520 2054 139 45 466 269 197 246 68 1915 86 2879 310
shrinkage=0.05


Tree=561
num_leaves=31
num_cat=0
split_feature=44 37 34 27 8 8 3 26 11 36 16 33 40 34 19 19 16 19 3 19 20 8 34 32 10 36 5 37 29 32
split_gain=0.00194613 0.0158589 0.0193071 0.0941156 0.0447858 0.0288848 0.0200734 0.0175865 0.0143053 0.0135963 0.0243012 0.012772 0.0254287 0.0111316 0.00795236 0.0260664 0.00757675 0.0074501 0.00712438 0.0614174 0.0537478 0.0312519 0.042527 0.0413115 0.0271641 0.0697629 0.0413845 0.0414417 0.0488626 0.0439967
threshold=4.1935850000000015 -1.6329399999999996e-05 2.1557050000000006 16.401900000000001 -1.5882999999999997e-05 1.5650000000000004e-05 -16.413199999999996 -0.013856449999999998 -5.0495149999999994e-05 -0.30938449999999995 3.8630400000000007e-07 -6.6390649999999984e-05 -0.54531499999999988 0.35804150000000007 0.0043173400000000011 0.015646000000000004 7.2294100000000005e-06 0.0074449800000000012 -17.495099999999997 3.3439600000000001e-09 8.0730100000000018 -2.2746599999999997e-05 14.135600000000002 4.7390700000000008 1.0512900000000001e-05 -0.010945149999999999 1.0887750000000003e-05 1.2925450000000003e-06 0.082377100000000023 -1.7584249999999997
decision_type=2 2 2 2 2 2 2 2 2 2 2 2 2 2 2 2 2 2 2 2 2 2 2 2 2 2 2 2 2 2
left_child=18 11 13 -4 -5 6 7 -6 -8 10 -10 12 -2 -3 -11 -16 17 -9 19 -1 21 -21 23 24 25 -23 -26 29 -29 -28
right_child=1 2 3 4 5 -7 8 16 9 14 -12 -13 -14 -15 15 -17 -18 -19 -20 20 -22 22 -24 -25 26 -27 27 28 -30 -31
leaf_value=0.0025541952179212657 -0.00021450481395606468 1.676077064416744e-05 0.0033611399102179956 0.0018267138374396478 -0.0014627792352831948 0.0014859054439567087 -0.00022823348395726819 0.0004116081243555527 7.0710330989889121e-05 -5.416637914332696e-05 0.0024788527033524589 -0.0001180191790387938 -0.0024990939157197275 -0.00010116900491474201 0.0021606693764624654 4.7594326025756785e-05 -0.00090064824446393498 -0.00060706377542893669 -1.1391707133203044e-06 0.0014431512741852673 -0.0024218589936446317 0.0029284061509315508 -0.0018328884179150133 0.0017527559382744648 -0.00087476509290606371 -7.40066456654499e-06 0.0023844197887228804 -0.00043472063516105666 -0.0032660654530627651 -3.0345874145625273e-06
leaf_weight=21 29 27672 24 38 38 33 147 50 22 108 20 67 21 2157 20 54 29 28 185913 31 26 24 37 29 213 129 20 64 20 549
leaf_count=21 29 27672 24 38 38 33 147 50 22 108 20 67 21 2157 20 54 29 28 185913 31 26 24 37 29 213 129 20 64 20 549
internal_value=0 1.1699e-05 1.39321e-05 0.000292163 0.000166685 5.17832e-05 -3.99339e-05 -0.000538771 0.000155029 0.000406546 0.00121744 -0.000569307 -0.00117403 8.23301e-06 0.000219415 0.000618696 -0.000210618 4.5931e-05 -1.91091e-06 -0.000125278 -0.00017455 -0.000122194 -0.000166918 -0.0001081 -0.000161059 0.000453118 -0.000269568 -7.21608e-05 -0.00110885 8.0883e-05
internal_weight=0 30557 30440 611 587 549 516 145 371 224 42 117 50 29829 182 74 107 78 187076 1163 1142 1116 1085 1048 1019 153 866 653 84 569
internal_count=217633 30557 30440 611 587 549 516 145 371 224 42 117 50 29829 182 74 107 78 187076 1163 1142 1116 1085 1048 1019 153 866 653 84 569
shrinkage=0.05


Tree=562
num_leaves=31
num_cat=0
split_feature=26 15 7 40 16 40 8 40 2 16 2 14 6 11 8 16 29 23 16 16 28 14 13 12 40 40 11 36 18 18
split_gain=0.00195482 0.0132359 0.0186741 0.0246135 0.0357284 0.0167854 0.0956129 0.142144 0.0197912 0.0907284 0.0141353 0.0231185 0.0204161 0.0145135 0.0111901 0.0073201 0.00726675 0.00443471 0.00532359 0.00413089 0.00405468 0.0347355 0.104399 0.0549898 0.0882282 0.0808155 0.0305289 0.0223049 0.0148389 0.0136692
threshold=-0.062701649999999984 -8.2618699999999988e-07 4.1263950000000007e-05 1.0995585000000003 -4.5599799999999995e-07 0.57364500000000007 2.8970600000000003e-06 -0.60254799999999997 -1.7334849999999997 2.3057600000000002e-06 -1.9860649999999997 0.0039264450000000015 -2.0097049999999995e-06 -1.1362949999999998e-05 1.3245700000000003e-05 1.1210250000000002e-06 0.24911750000000002 -6.373664999999999 1.3186150000000004e-06 1.2322150000000003e-07 -0.96676949999999995 0.030258200000000002 0.00031977250000000008 -0.00020892849999999997 -0.46506469999999994 0.22528099999999995 0.00018270900000000003 -2.2564299999999995 -0.0015010249999999998 -5.8589749999999996e-05
decision_type=2 2 2 2 2 2 2 2 2 2 2 2 2 2 2 2 2 2 2 2 2 2 2 2 2 2 2 2 2 2
left_child=1 2 3 4 -1 6 7 -3 10 -10 11 12 19 -12 15 -4 -17 -7 -19 -8 21 23 -23 24 27 -26 28 -2 -25 -30
right_child=20 5 14 -5 -6 17 8 -9 9 -11 13 -13 -14 -15 -16 16 -18 18 -20 -21 -22 22 -24 26 25 -27 -28 -29 29 -31
leaf_value=-0.00028315548670001422 -0.0006923798298331626 -0.00031921941269956737 0.00017083707381588238 -1.1319252709738997e-05 -0.0032360249631165059 6.5985486863052097e-05 0.00015631169995578925 0.0050169266956800133 -0.00014830904918482419 0.0035593479819085805 -0.0018852042692268024 -0.001464417441986205 0.0016734705751084468 -4.3536224693525584e-05 0.00098681058149330584 -0.0013425193176590255 -3.9366115237024373e-05 -0.00012483126151618124 -0.00094472915597389846 -0.00066114346613176166 2.0152235975388018e-07 0.0028835076549225246 -0.00017109391834001488 0.00098546502809363618 -0.0041791310643241033 -0.00059346368691573547 -0.0014381702010257123 0.001509640150723736 -0.00065249998848337465 1.5728979030704694e-05
leaf_weight=21 23 24 76 43 20 233 68 26 77 21 23 22 22 20 28 20 23 83 26 20 215556 38 106 36 33 30 39 23 85 768
leaf_count=21 23 24 76 43 20 233 68 26 77 21 23 22 22 20 28 20 23 83 26 20 215556 38 106 36 33 30 39 23 85 768
internal_value=0 7.3701e-05 -0.000252359 -0.000847065 -0.00172358 0.000186964 0.00044545 0.00245558 7.72952e-05 0.000646189 -0.000241285 1.51931e-05 0.000311115 -0.00102861 8.74728e-05 -0.000124136 -0.000645484 -5.71618e-05 -0.000320403 -2.94736e-05 -3.04683e-07 -9.26973e-05 0.000634981 -0.000193744 -0.00125613 -0.00247167 -6.89596e-05 0.00040863 -8.89303e-06 -5.08589e-05
internal_weight=0 896 231 84 41 665 323 50 273 98 175 132 110 43 147 119 43 342 109 88 216737 1181 144 1037 109 63 928 46 889 853
internal_count=217633 896 231 84 41 665 323 50 273 98 175 132 110 43 147 119 43 342 109 88 216737 1181 144 1037 109 63 928 46 889 853
shrinkage=0.05


Tree=563
num_leaves=31
num_cat=0
split_feature=19 33 30 13 13 6 25 1 40 40 40 40 36 7 43 23 2 2 1 40 40 43 36 6 2 40 40 43 18 35
split_gain=0.00195148 0.0447831 0.0731918 0.139666 0.033475 0.0315401 0.0181118 0.00964944 0.0432238 0.00693328 0.0436949 0.00775733 0.00631324 0.00264891 0.00796843 0.0194063 0.0385697 0.0324742 0.0608611 0.0455439 0.155906 0.174141 0.0449954 0.0622805 0.0262658 0.0238472 0.0221257 0.019701 0.0127171 0.0210622
threshold=1.1921100000000003e-10 -3.1324499999999988e-05 0.0080523800000000013 2.5459000000000005e-05 1.1791850000000001e-06 -4.6037899999999992e-06 0.15866050000000001 -6.820479999999999 0.039429999999999972 -0.058960000000000005 0.056773999999999998 -0.32870999999999989 0.053416050000000007 2.2278700000000004e-05 1.06199 -10.004 -2.6812799999999997 2.1355600000000003 4.3945300000000005 -0.10081500000000009 0.327845 -0.71725499999999964 -0.00072135099999999996 -3.153044999999999e-08 -2.6812799999999997 0.016888500000000004 5.1007250000000015 0.97785500000000003 -0.0011457799999999997 -0.00092576649999999991
decision_type=2 2 2 2 2 2 2 2 2 2 2 2 2 2 2 2 2 2 2 2 2 2 2 2 2 2 2 2 2 2
left_child=1 2 3 -1 -3 -6 -7 8 -8 11 -11 -9 -4 14 15 16 -2 19 -19 -18 21 -21 23 -23 -17 -24 27 -26 29 -16
right_child=13 4 12 -5 5 6 7 9 -10 10 -12 -13 -14 -15 28 24 17 18 -20 20 -22 22 25 -25 26 -27 -28 -29 -30 -31
leaf_value=0.0002166900213015812 0.0023052765373865005 -0.0016508728700464896 -0.0011689186564167772 0.0054824052667390788 -0.0017161774649844122 -0.0012225217727518613 3.4492416494534459e-05 -9.9362069655733884e-06 -0.0025352627049142033 0.0018139384744408277 -1.4101853435486665e-05 -0.0010273764405746989 1.583241715390772e-05 -6.2938364253609141e-07 -0.0020833487182244427 -0.0013467274752578565 -0.00012032960270884336 2.5696055222097429e-05 -0.002853079334459321 0.0048311542842527982 -9.1994240630571445e-05 0.00055967701691476957 -0.00036099341628465078 0.0038779796110107925 6.7828758040263595e-06 0.0015068270206247689 0.0016887245199177414 0.0014764917319236861 -2.0016313285215728e-05 -6.9422151235001465e-05
leaf_weight=34 23 38 22 20 30 32 90 296 20 39 202 20 23 210816 20 35 302 91 23 38 262 31 54 26 2644 25 20 23 2297 37
leaf_count=34 23 38 22 20 30 32 90 296 20 39 202 20 23 210816 20 35 302 91 23 38 262 31 54 26 2644 25 20 23 2297 37
internal_value=0 -7.49079e-05 0.000925894 0.00216695 -0.000204086 -0.00012867 -6.05368e-05 -4.78944e-06 -0.000432736 7.97242e-05 0.000281722 -7.43312e-05 -0.000563379 2.99263e-07 3.31968e-05 8.00021e-05 0.00028484 0.000230298 -0.00055511 0.000351621 0.000678523 0.00183873 0.00100261 0.00207329 1.41559e-05 0.000230089 3.18823e-05 1.94575e-05 -3.83233e-05 -0.000776063
internal_weight=0 866 99 54 767 729 699 667 110 557 241 316 45 216767 5951 3597 875 852 114 738 436 174 136 57 2722 79 2687 2667 2354 57
internal_count=217633 866 99 54 767 729 699 667 110 557 241 316 45 216767 5951 3597 875 852 114 738 436 174 136 57 2722 79 2687 2667 2354 57
shrinkage=0.05


Tree=564
num_leaves=31
num_cat=0
split_feature=13 32 10 3 13 19 19 33 19 36 33 18 37 33 37 14 28 3 19 34 10 36 43 39 43 5 33 43 36 40
split_gain=0.0019375 0.00691999 0.0433853 0.0198604 0.0203966 0.00640744 0.00446829 0.0227713 0.00477754 0.0654852 0.0290813 0.011318 0.00685574 0.0129599 0.00671272 0.00641128 0.00563989 0.0141119 0.00444982 0.0364296 0.10921 0.0202281 0.0464975 0.0202967 0.014859 0.0493937 0.152326 0.0299445 0.0286568 0.0441394
threshold=0.00014699600000000001 20.036400000000004 2.0928800000000005e-05 -11.825449999999998 0.00035752750000000007 1.2683350000000002e-07 6.4033200000000016e-05 -3.9040499999999993e-05 0.00051133100000000018 -0.23644799999999996 -8.1044199999999979e-05 -0.0035278599999999994 -4.0691899999999991e-07 -2.9943699999999996e-05 0.00046534500000000004 0.072154950000000009 -0.96676949999999995 -14.818499999999998 0.018986450000000005 34.706300000000006 5.2944100000000007e-05 0.86690500000000015 -6.8296099999999988 0.17438400000000001 -1.7757399999999997 1.1278150000000001e-05 4.1785500000000008e-05 -1.8432249999999992 0.0055718750000000013 0.12375499999999996
decision_type=2 2 2 2 2 2 2 2 2 2 2 2 2 2 2 2 2 2 2 2 2 2 2 2 2 2 2 2 2 2
left_child=18 5 -3 -4 -5 -2 7 -7 9 -8 -11 -12 13 -13 16 -16 17 -10 -1 21 -21 23 -23 24 27 26 -26 -20 29 -27
right_child=1 2 3 4 -6 6 8 -9 14 10 11 12 -14 -15 15 -17 -18 -19 19 20 -22 22 -24 -25 25 28 -28 -29 -30 -31
leaf_value=-3.4557008057690848e-06 0.00072762196817371483 0.0022476325519382957 -0.0010033179331568702 0.001733464059153838 -0.00011802359858491257 -0.001790562438032967 0.0027622137781809614 -1.7026665529611882e-05 -0.0013835054329247214 0.0017247424795205008 0.0010777660827759816 -0.001345724637004813 1.7507801234826869e-05 -7.0305441668228858e-05 -0.00085551662791245203 3.7496184813790026e-05 9.3428174376259194e-06 -7.860783383169419e-05 -1.616767369267563e-05 -0.001013885554592972 0.0039681245567573407 -0.00031920815914350835 0.0028177872932116902 -0.0014935328879139642 9.1601053206651507e-05 0.00054414833467491457 0.0051518863585442894 -0.0019565923052141444 -0.00040871585219174602 -9.9279431402933961e-05
leaf_weight=175468 31 25 37 21 51 21 23 131 25 25 23 28 549 69 44 37 36015 121 3374 22 22 27 21 22 58 503 20 20 233 567
leaf_count=175468 31 25 37 21 51 21 23 131 25 25 23 28 549 69 44 37 36015 121 3374 22 22 27 21 22 58 503 20 20 233 567
internal_value=0 1.03772e-05 0.000369042 -6.18277e-05 0.000421994 9.08323e-06 8.48302e-06 -0.000262055 9.59565e-06 0.000137404 5.04144e-05 -1.21539e-05 -5.09591e-05 -0.000438468 7.06713e-06 -0.000447597 8.08557e-06 -0.000302049 -2.14475e-06 4.49057e-05 0.00147712 3.1899e-05 0.00105323 2.16793e-05 2.86604e-05 0.000166933 0.00138911 -2.76021e-05 9.37716e-05 0.000203192
internal_weight=0 37276 134 109 72 37142 37111 152 36959 717 694 669 646 97 36242 81 36161 146 180357 4889 44 4845 48 4797 4775 1381 78 3394 1303 1070
internal_count=217633 37276 134 109 72 37142 37111 152 36959 717 694 669 646 97 36242 81 36161 146 180357 4889 44 4845 48 4797 4775 1381 78 3394 1303 1070
shrinkage=0.05


Tree=565
num_leaves=31
num_cat=0
split_feature=31 21 40 41 22 43 2 0 20 43 43 20 39 14 40 15 36 26 43 40 35 37 0 40 4 41 34 43 40 41
split_gain=0.00190251 0.0116039 0.096923 0.0589239 0.195053 0.435032 0.101078 0.129089 0.14721 0.151453 0.224006 0.137288 0.112024 0.064079 0.0583982 0.0514513 0.084321 0.0584043 0.0404684 0.038325 0.0362368 0.0353294 0.0332576 0.0331086 0.0750031 0.0390491 0.0303653 0.0363418 0.0250646 0.12246
threshold=0.56878050000000013 2.4716600000000004 5.6762150000000009 -0.057539999999999918 -2.1597749999999993 0.43278000000000022 2.1355600000000003 -6.4232249999999995 -1.3693099999999998 1.1065400000000005 4.1559750000000006 -11.463149999999997 0.011984750000000001 0.0011630900000000001 0.327845 2.8964050000000007e-06 -0.60180299999999987 -0.0019040299999999999 -0.56159999999999977 0.010257000000000018 0.12005900000000001 1.9887400000000004e-06 -9.7972349999999988 -0.10081500000000009 -0.19656399999999996 0.14791590000000002 0.22523850000000004 1.9002500000000004 1.0000000180025095e-35 0.46135450000000006
decision_type=2 2 2 2 2 2 2 2 2 2 2 2 2 2 2 2 2 2 2 2 2 2 2 2 2 2 2 2 2 2
left_child=-1 28 3 14 5 -5 19 11 9 12 -11 -8 18 26 15 16 -3 -18 -9 23 -19 -17 -7 25 -25 -6 -13 -28 29 -2
right_child=1 2 -4 4 6 22 7 8 -10 10 -12 13 -14 -15 -16 21 17 20 -20 -21 -22 -23 -24 24 -26 -27 27 -29 -30 -31
leaf_value=-1.4493462891773455e-06 -0.00061723721969733755 -0.0039530018605291846 0.0025889217863502719 0.0074481219435632547 0.0021858666607710935 -0.0019434209457055358 0.0029448270078033345 4.3826716325362887e-05 0.0053660917854638406 0.0063681364480951998 -9.0297668117273128e-05 -0.0017508447250639575 -0.0031673159217461945 -0.0022703700329424095 -7.7198872032196251e-05 -0.00075663386825908674 -0.0029668503389984838 -8.9342238307806607e-05 0.0025136215107825896 0.002161487245133945 -0.0019111331944129365 0.0022152922934037633 0.0009055164476012578 0.0010530935600399972 -0.0029559081285177465 2.4314748464924937e-05 0.0022576948191272094 -6.6062210475833274e-05 4.4372791555312773e-05 1.7557102816264107e-05
leaf_weight=198549 929 25 38 29 21 21 35 43 26 29 25 21 21 39 1184 20 28 124 27 21 35 20 20 20 28 4135 20 106 7824 4170
leaf_count=198549 929 25 38 29 21 21 35 43 26 29 25 21 21 39 1184 20 28 124 27 21 35 20 20 20 28 4135 20 106 7824 4170
internal_value=0 1.50789e-05 7.15458e-05 5.59227e-05 0.000141777 0.00276134 0.000102061 0.000870111 0.00190161 0.00128039 0.00337812 7.19822e-05 3.55901e-05 -0.000468607 -0.0002243 -0.000915444 -0.00122578 -0.000861176 0.000996462 3.08006e-05 -0.000490365 0.000729329 -0.000553695 2.01573e-05 -0.00128549 3.52369e-05 9.41199e-06 0.000302788 -1.18415e-05 -9.80977e-05
internal_weight=0 19084 6161 6123 4687 70 4617 392 171 145 54 221 91 186 1436 252 212 187 70 4225 159 40 41 4204 48 4156 147 126 12923 5099
internal_count=217633 19084 6161 6123 4687 70 4617 392 171 145 54 221 91 186 1436 252 212 187 70 4225 159 40 41 4204 48 4156 147 126 12923 5099
shrinkage=0.05


Tree=566
num_leaves=31
num_cat=0
split_feature=5 10 26 38 2 9 22 6 20 12 43 28 22 12 15 33 19 3 30 20 22 40 23 12 35 11 37 20 2 31
split_gain=0.00191024 0.0153203 0.014821 0.0113392 0.0495572 0.0104666 0.0582031 0.0772829 0.0261765 0.0464122 0.136484 0.0106124 0.0101789 0.0297918 0.0100963 0.0196304 0.0091399 0.0407427 0.00846099 0.0139258 0.0121301 0.0217307 0.0083911 0.00910933 0.00744551 0.0217845 0.00944224 0.00632082 0.0188529 0.0537382
threshold=3.4653000000000009e-05 2.5132750000000004e-05 -0.028182349999999998 -3.2628099999999995 1.8038550000000002 -7.8930349999999975e-05 3.0438950000000005 -1.3171099999999997e-06 -9.1578099999999996 -1.6843699999999999e-05 1.0000000180025095e-35 -0.0026100249999999998 2.7263850000000005 3.3605250000000012e-05 9.2565100000000011e-07 -0.00028142099999999996 3.865525000000001e-10 -7.4804449999999987 0.064526950000000013 19.256550000000001 -0.52681499999999992 0.71352749999999998 -6.9062749999999991 -0.00020892849999999997 0.48186100000000004 0.0006088815000000002 -6.2538149999999987e-05 -8.0887399999999996 3.0333000000000006 2.3607850000000004
decision_type=2 2 2 2 2 2 2 2 2 2 2 2 2 2 2 2 2 2 2 2 2 2 2 2 2 2 2 2 2 2
left_child=5 -2 14 4 -4 6 8 -8 9 10 -1 -12 -10 -14 -3 -16 17 -5 19 24 21 -20 23 -22 26 -26 -18 28 -7 -30
right_child=1 2 3 16 -6 27 7 -9 12 -11 11 -13 13 -15 15 -17 18 -19 20 -21 22 -23 -24 -25 25 -27 -28 -29 29 -31
leaf_value=-0.004885386149809082 0.001395394634287186 -0.00016053322765517992 -3.0075295893160125e-05 -0.0024836633607414173 0.0027710947053947166 1.9207246629119953e-05 -6.8256132824619554e-05 -0.0042024320233758775 4.6744112187992471e-06 -1.9307096119184874e-05 -0.0013001917827187711 4.7440680869688856e-05 -3.0142694038204356e-05 -0.0022409610718023033 -0.0021216943809783764 -0.0003399836683596592 0.0010490736331452023 2.1773376202915198e-05 -0.0016524150210603398 0.0010437687071812847 0.00050033049241313208 -0.00016496900476241 0.000924890807419572 -0.00029430135754502588 0.00010228526489166089 0.001486953344305441 1.2812059365723417e-05 -3.9262998568231571e-06 0.00021804603708298128 0.0027018750729136329
leaf_weight=22 20 156 75 20 20 22838 26 20 2120 147 21 48 64 20 22 52 22 86 37 33 46 73 21 167 204 33 27577 163384 235 24
leaf_count=22 20 156 75 20 20 22838 26 20 2120 147 21 48 64 20 22 52 22 86 37 33 46 73 21 167 204 33 27577 163384 235 24
internal_value=0 1.20276e-05 1.10617e-05 1.42976e-05 0.000559645 -1.82442e-06 -0.0001037 -0.00186572 -7.05086e-05 -0.00056867 -0.0014561 -0.000362708 -1.67144e-05 -0.000556528 -0.000388694 -0.000869681 1.24681e-05 -0.000450951 1.42092e-05 1.72513e-05 -0.000232246 -0.000665292 -2.8677e-05 -0.000122691 1.60344e-05 0.000295087 1.36381e-05 -4.65214e-07 2.40179e-05 0.000448208
internal_weight=0 28664 28644 28414 95 188969 2488 46 2442 238 91 69 2204 84 230 74 28319 106 28213 27869 344 110 234 213 27836 237 27599 186481 23097 259
internal_count=217633 28664 28644 28414 95 188969 2488 46 2442 238 91 69 2204 84 230 74 28319 106 28213 27869 344 110 234 213 27836 237 27599 186481 23097 259
shrinkage=0.05


Tree=567
num_leaves=31
num_cat=0
split_feature=18 24 4 43 43 40 40 40 44 40 43 40 21 23 23 34 40 2 11 15 37 40 38 37 40 34 39 43 20 6
split_gain=0.00189376 0.0271055 0.0619863 0.100326 0.232017 0.142295 0.252694 0.32384 0.261558 0.350013 0.338478 0.311682 0.291006 0.28773 0.253345 0.239447 0.221734 0.208514 0.189361 0.18886 0.180081 0.127682 0.121486 0.0825772 0.0823121 0.0689323 0.0685909 0.0634023 0.0614189 0.0590148
threshold=-1.4018299999999999e-05 -0.28484049999999994 -0.96247749999999999 2.0800550000000007 -2.2545749999999996 0.74319900000000005 -0.25142799999999998 -0.10081500000000009 0.98037999999999992 0.24966499999999994 1.06199 0.12375499999999996 -1.3861349999999997 -13.08405 -9.4279799999999998 0.63863650000000016 0.056773999999999998 -2.9192849999999999 5.0670100000000008e-05 -6.4763899999999986e-07 9.5974100000000018e-07 -0.058960000000000005 0.012463850000000002 5.3354450000000012e-07 -0.3562499999999999 0.23286900000000002 0.011984750000000001 -0.27803499999999998 1.5587400000000002 1.7851150000000003e-06
decision_type=2 2 2 2 2 2 2 2 2 2 2 2 2 2 2 2 2 2 2 2 2 2 2 2 2 2 2 2 2 2
left_child=1 2 -1 4 -4 6 17 20 10 13 11 15 -13 -10 18 16 21 -6 23 -15 -8 -9 -18 -12 -19 27 -17 28 -23 -27
right_child=-2 -3 3 -5 5 -7 7 8 9 -11 14 12 -14 19 -16 26 22 24 -20 -21 -22 25 -24 -25 -26 29 -28 -29 -30 -31
leaf_value=-2.7547541518802966e-05 2.8304729586386012e-06 -2.3432022673671658e-05 -0.00017931839119950978 -0.00013773898475575609 0.0043444528037910532 -9.7736255451954363e-05 0.0074988361790447548 0.0031460139121918477 0.00094670127833854751 -0.0015158873299420204 0.0015854966393817451 0.0080305215241387503 0.00072633784089703123 0.0043024245323613286 -0.00092878471283862991 -0.0014844329011781763 0.005769908487804812 -0.00010915701892075881 0.0094362804677803076 0.010821120470762252 0.0019710150932391677 0.0041433001707662787 0.0011525640646660967 0.0058787948152582564 -0.0034084716204961299 -0.00050731905741418744 -0.0047799182010930964 -4.3969245317592207e-05 0.00036293160334356471 -0.0032473051656067941
leaf_weight=6539 159056 48238 1012 1263 26 344 34 32 22 23 24 25 30 20 21 75 29 345 20 25 26 21 28 21 20 135 20 114 22 23
leaf_count=6539 159056 48238 1012 1263 26 344 34 32 22 23 24 25 30 20 21 75 29 345 20 25 26 21 28 21 20 135 20 114 22 23
internal_value=0 -7.68567e-06 6.5781e-05 0.00022638 0.00040765 0.000797166 0.00105783 0.00157237 0.00128214 0.00380598 0.00092723 0.000474186 0.00404642 0.00563289 0.00384567 8.04528e-05 0.000611576 1.82281e-05 0.00538819 0.00792392 0.00510345 0.000136823 0.00350174 0.00358904 -0.000289941 -0.000168872 -0.00217822 0.000573129 0.00220916 -0.000906178
internal_weight=0 58577 10339 3800 2537 1525 1181 790 730 90 640 554 55 67 86 499 404 391 65 45 60 347 57 45 365 315 95 157 43 158
internal_count=217633 58577 10339 3800 2537 1525 1181 790 730 90 640 554 55 67 86 499 404 391 65 45 60 347 57 45 365 315 95 157 43 158
shrinkage=0.05


Tree=568
num_leaves=31
num_cat=0
split_feature=44 3 36 23 20 36 21 14 26 37 43 40 40 40 40 3 39 37 35 40 23 24 23 12 23 33 36 37 14 25
split_gain=0.00192225 0.0104 0.103399 0.0101105 0.061979 0.0540259 0.083033 0.025573 0.034929 0.0268671 0.0241239 0.0239914 0.0238154 0.0144214 0.025657 0.0999005 0.0263483 0.0250709 0.0406128 0.0328796 0.00830019 0.0828035 0.0236969 0.0920022 0.0175499 0.105771 0.0158241 0.0148312 0.0349483 0.0124002
threshold=-3.6478300000000004 -17.304849999999998 -0.032913249999999998 -18.396099999999997 -6.0084349999999995 0.14537000000000003 5.357330000000001 0.0027461200000000003 -0.00043562299999999995 -1.8701649999999998e-06 -0.23716000000000023 -0.30278099999999991 0.46240350000000002 -0.040859549999999939 0.30085850000000008 -18.015749999999997 0.00019707500000000003 -3.2566999999999998e-07 -0.00081825299999999991 -0.51801999999999981 -18.143749999999997 -0.78263349999999987 -18.021849999999997 0.00033422200000000007 -17.886149999999997 -5.1110149999999994e-05 0.0022490050000000005 6.3729050000000018e-07 0.0069578350000000008 0.23366500000000004
decision_type=2 2 2 2 2 2 2 2 2 2 2 2 2 2 2 2 2 2 2 2 2 2 2 2 2 2 2 2 2 2
left_child=1 2 -1 4 -2 6 7 12 -9 11 -11 -10 -6 17 15 16 -15 18 -12 -19 21 -5 23 29 25 -24 27 -23 -29 -22
right_child=3 -3 -4 20 5 -7 -8 8 9 10 13 -13 -14 14 -16 -17 -18 19 -20 -21 22 26 24 -25 -26 -27 -28 28 -30 -31
leaf_value=0.0032800022396259013 0.002417062201791189 6.8025800982451511e-06 -0.0013377675436694754 0.0029547709766820146 -0.0025196101562566281 -0.0023184710322370411 0.0026434627547860146 0.0014265051726147983 -6.1458864998396322e-05 0.0014035572945747688 -4.2448422482266325e-05 -0.0021402660829543101 -0.00021398089665602868 -0.0010702836166490756 -0.00020954418540100053 -0.0038434907654300333 0.0014655098132789137 3.1294184652836542e-05 0.0027677014032269653 -0.0021146302648481822 0.0010664454852563462 -9.5186168133345794e-05 0.0032288586411721495 -0.0036279733504422686 -2.5438808121185162e-06 -0.00025295325999650234 -0.00083687230230680145 0.0025084037117358094 -0.00044745272298314377 -0.00034834764544137801
leaf_weight=22 22 62850 27 26 24 31 25 31 23 23 36 35 21 21 192 25 20 119 20 21 21 109 29 22 153603 88 48 20 20 59
leaf_count=22 22 62850 27 26 24 31 25 31 23 23 36 35 21 21 192 25 20 119 20 21 21 109 29 22 153603 88 48 20 20 59
internal_value=0 7.37027e-06 0.000735517 -2.996e-06 -0.000194103 -0.000280229 -0.00018088 -0.000296443 -0.000205234 -0.000299783 -0.000176229 -0.00131591 -0.00144365 -0.000256262 -0.000501882 -0.00135232 0.000166689 6.70544e-05 0.000961177 -0.000290594 -2.14123e-06 0.000302681 -2.58314e-06 -0.000764437 -2.07761e-06 0.00061006 -4.73408e-05 0.000207005 0.00103048 2.30356e-05
internal_weight=0 62899 49 154734 689 667 636 611 566 535 477 58 45 454 258 66 41 196 56 140 154045 223 153822 102 153720 117 197 149 40 80
internal_count=217633 62899 49 154734 689 667 636 611 566 535 477 58 45 454 258 66 41 196 56 140 154045 223 153822 102 153720 117 197 149 40 80
shrinkage=0.05


Tree=569
num_leaves=31
num_cat=0
split_feature=44 23 37 35 0 43 33 40 38 38 4 4 40 31 12 3 20 33 40 33 40 34 37 21 28 16 37 33 36 9
split_gain=0.00195946 0.0154695 0.0144064 0.0122608 0.0601665 0.0944561 0.0114676 0.0228901 0.0086922 0.00727854 0.0341689 0.0345553 0.0524543 0.0147214 0.00909334 0.0070182 0.0498555 0.061808 0.102673 0.0815279 0.0657392 0.0449162 0.0764177 0.0497668 0.0571786 0.0466233 0.0676212 0.037927 0.0522065 0.168638
threshold=4.1935850000000015 -14.667549999999997 -1.6329399999999996e-05 0.96084200000000008 3.0384450000000007 -6.0363149999999992 -6.6390649999999984e-05 -0.54531499999999988 -1.0090899999999998 -0.062954099999999985 0.46668750000000003 1.2369950000000001 -0.30278099999999991 5.5507350000000004 0.0014415300000000001 -17.495099999999997 8.0730100000000018 -0.00020540699999999998 0.43531000000000003 -9.3333449999999986e-05 0.68543200000000015 14.135600000000002 -4.2848749999999994e-06 -4.6302799999999991 -0.071195649999999985 1.8237450000000004e-06 -4.5033049999999994e-07 4.8167950000000007e-05 -0.014259749999999998 2.3499650000000005e-06
decision_type=2 2 2 2 2 2 2 2 2 2 2 2 2 2 2 2 2 2 2 2 2 2 2 2 2 2 2 2 2 2
left_child=15 -2 6 8 -5 -6 7 -3 -4 10 -10 12 -12 -11 -13 16 17 18 -1 20 -19 22 -21 25 -25 -24 -27 28 29 -26
right_child=1 2 3 4 5 -7 -8 -9 9 13 11 14 -14 -15 -16 -17 -18 19 -20 21 -22 -23 23 24 27 26 -28 -29 -30 -31
leaf_value=0.0042796109614539005 0.0013079649725588516 -0.00020618359859358394 0.00080939473214932485 -0.00014754188209124876 -0.00015194703155430034 0.0040764323993353179 -0.00011268558653572394 -0.0023737375452626674 7.7841802237073473e-05 1.194305838470596e-05 -9.8715045203876103e-05 -0.00049683299965898081 -0.0035204920381753861 0.0010236563678416941 0.00064723420458904005 -1.1514749796140136e-06 -0.0022892230088473299 -0.0043775425654166613 -0.0006646758347328398 0.0025232824300223129 -0.00045798033673275754 -0.0020728317887578336 -0.00028612390891622435 0.0022000578245448803 0.0046255743863487927 -0.0043665899867413654 -0.00051792091902916587 -0.00086072486061499962 3.6799445338865782e-06 -0.0015097698224486695
leaf_weight=21 23 29 34 134 28 25 66 21 470 29494 21 132 24 36 20 185913 26 20 21 29 23 27 82 30 24 21 25 116 677 21
leaf_count=21 23 29 34 134 28 25 66 21 470 29494 21 132 24 36 20 185913 26 20 21 29 23 27 82 30 24 21 25 116 677 21
internal_value=0 1.17389e-05 1.07626e-05 1.28835e-05 0.000416501 0.00184257 -0.000545388 -0.00111656 1.03868e-05 9.48716e-06 -0.000153848 -0.00070661 -0.00192366 1.31764e-05 -0.000346298 -1.91744e-06 -0.000124362 -7.48575e-05 0.00180747 -0.000147056 -0.00228103 -5.9831e-05 -6.80565e-06 -8.04729e-05 5.52507e-05 -0.00100085 -0.00227492 -2.15324e-05 0.000113296 0.00176241
internal_weight=0 30557 30534 30418 187 53 116 50 30231 30197 667 197 45 29530 152 187076 1163 1137 42 1095 43 1052 1025 996 868 128 46 838 722 45
internal_count=217633 30557 30534 30418 187 53 116 50 30231 30197 667 197 45 29530 152 187076 1163 1137 42 1095 43 1052 1025 996 868 128 46 838 722 45
shrinkage=0.05


Tree=570
num_leaves=31
num_cat=0
split_feature=5 15 21 8 27 28 40 41 39 40 40 21 37 11 23 15 3 13 32 37 15 44 43 35 3 30 0 36 20 35
split_gain=0.00194467 0.0127488 0.0314502 0.0691237 0.0257733 0.0348575 0.0838129 0.124416 0.0444701 0.0255829 0.0559628 0.059551 0.0253715 0.0645015 0.11546 0.04409 0.0736405 0.0232353 0.0215301 0.0354676 0.0319948 0.0233427 0.0534296 0.365514 0.0289605 0.0567938 0.0243151 0.0223772 0.0347021 0.045866
threshold=9.9471450000000032e-06 -5.1309549999999988e-07 -15.424049999999998 2.1409200000000002e-06 21.296850000000003 -0.10172349999999998 0.327845 0.14791590000000002 0.0088996250000000013 0.40779500000000007 -0.86218949999999983 2.2931300000000006 1.8324750000000004e-05 -4.4153649999999994e-05 -10.576799999999997 -2.4511349999999994e-07 -8.7018349999999973 -3.5092449999999993e-05 -4.3985699999999994 -6.6903649999999996e-06 -7.03526e-06 0.15640499999999993 -0.026199999999999776 0.0011868900000000001 -14.176449999999997 0.00036855800000000006 -8.9809199999999993 -0.0021716899999999996 -1.2822499999999997 -0.00184816
decision_type=2 2 2 2 2 2 2 2 2 2 2 2 2 2 2 2 2 2 2 2 2 2 2 2 2 2 2 2 2 2
left_child=1 2 3 -1 5 6 7 -4 -9 10 -6 -12 -3 14 -14 16 -15 -17 -7 20 -20 22 23 -21 25 -24 -23 -27 29 -29
right_child=-2 12 4 -5 9 18 -8 8 -10 -11 11 -13 13 15 -16 17 -18 -19 19 21 -22 26 24 -25 -26 27 -28 28 -30 -31
leaf_value=9.5397959547185844e-05 1.8978839368527297e-06 -4.3785317122848516e-06 0.0052417377231731305 -0.0036090694591985086 -8.6700744630853973e-05 0.0012251002521040278 -5.9623919352503483e-05 -0.00088938348678008574 0.0022612284356173839 -4.5582541633456427e-05 -0.0036044784609905699 -0.00029021014578693607 0.004140184455298305 -0.00014565783021680545 -0.00015435640206680332 0.0016410564284094356 0.0039248604947715654 -1.2537441736406916e-05 -1.2590811238624155e-05 0.00025338989893301719 -0.0027203855348413228 0.0017053297391092721 -0.0027324438652079875 -0.0073648533038794999 -6.9703991094922758e-05 0.00038244598765991964 -8.406612103983425e-07 -0.0036079013745256815 -9.0880058066442412e-05 -0.0006497355266099859
leaf_weight=34 187414 23189 21 20 65 32 157 24 21 116 33 23 29 25 34 22 20 618 20 74 24 21 29 20 1621 67 3715 20 87 38
leaf_count=34 187414 23189 21 20 65 32 157 24 21 116 33 23 29 25 34 22 20 618 20 74 24 21 29 20 1621 67 3715 20 87 38
internal_value=0 -1.17704e-05 -7.51647e-05 -0.00127663 -6.47474e-05 -4.45169e-05 0.000568862 0.0020639 0.000580902 -0.000576142 -0.00108478 -0.00224326 4.86671e-06 0.000291481 0.0018225 0.000150673 0.00166346 4.43048e-05 -6.82311e-05 -7.54463e-05 -0.00148957 -6.45149e-05 -0.000204452 -0.00136751 -0.000145737 -0.000657143 8.7497e-06 -0.000373258 -0.000722445 -0.00166979
internal_weight=0 30219 6282 54 6228 5991 223 66 45 237 121 56 23937 748 63 685 45 640 5768 5736 44 5692 1956 94 1862 241 3736 212 145 58
internal_count=217633 30219 6282 54 6228 5991 223 66 45 237 121 56 23937 748 63 685 45 640 5768 5736 44 5692 1956 94 1862 241 3736 212 145 58
shrinkage=0.05


Tree=571
num_leaves=31
num_cat=0
split_feature=12 19 32 12 32 22 40 40 6 31 5 16 43 3 32 19 19 34 6 37 40 40 19 40 40 40 19 34 33 41
split_gain=0.00191191 0.0214722 0.0451599 0.00663378 0.0355893 0.0622539 0.136237 0.301584 0.215333 0.113459 0.0423025 0.0804771 0.0364266 0.0302568 0.0162742 0.0429977 0.0245355 0.0211877 0.0113245 0.0111156 0.0778663 0.20195 0.0105897 0.00976986 0.0890324 0.0924261 0.199315 0.0229388 0.0222351 0.0334414
threshold=0.00022537400000000003 1.3835200000000002e-09 0.013997400000000002 0.00017051850000000002 -0.30255749999999998 1.8907150000000004 -0.3562499999999999 0.02582950000000005 1.0580900000000002e-06 0.39660250000000008 9.7041100000000015e-06 -4.5599799999999995e-07 0.85052500000000031 -16.266399999999997 -0.75845349999999989 3.4442350000000003e-06 1.9131000000000004e-05 0.61729100000000015 -9.7500849999999969e-07 3.4242650000000004e-07 -0.011175000000000155 -0.22452634999999985 2.8757950000000006e-06 0.20129000000000011 0.02582950000000005 0.056773999999999998 0.00024544750000000004 0.042236150000000007 -2.8748149999999997e-05 0.027234499999999971
decision_type=2 2 2 2 2 2 2 2 2 2 2 2 2 2 2 2 2 2 2 2 2 2 2 2 2 2 2 2 2 2
left_child=3 2 -2 -1 5 9 -7 8 -8 10 11 -5 -9 -12 15 -15 -17 -18 -19 23 21 -21 -16 24 28 26 -26 -27 -6 -30
right_child=1 -3 -4 4 19 6 7 12 -10 -11 13 -13 -14 14 22 16 17 18 -20 20 -22 -23 -24 -25 25 27 -28 -29 29 -31
leaf_value=-1.0824667652234449e-07 0.0028857854292073173 1.0379778040964314e-05 -0.0002025928015615952 0.00015313524982721666 -0.0016166745104003765 -2.2931643762921973e-05 -0.0026069726264621651 -0.0008181704663841699 -0.0090777023279224513 0.0033197856542756202 0.0017579367216967513 -0.0040315063208254285 0.0016576084892828175 -0.002061758800908657 0.0009800378858044773 0.0013826586719638411 -0.001487703457832774 0.00091747197123671269 -0.00031245232533632701 -2.7985794311259979e-05 9.0601752083022952e-07 0.0060104890089132824 7.3459257484263736e-06 1.2346469764768748e-05 -0.0069046927837189288 -6.3439248090920353e-05 0.0001542514655739069 -0.001796106340435262 0.00088383568164291217 -6.1880738547426175e-05
leaf_weight=183728 20 27859 29 27 21 163 36 39 20 24 22 20 24 35 33 23 33 24 85 45 555 20 184 3312 20 72 20 26 103 1011
leaf_count=183728 20 27859 29 27 21 163 36 39 20 24 22 20 24 35 33 23 33 24 85 45 555 20 184 3312 20 72 20 26 103 1011
internal_value=0 1.22191e-05 0.00105797 -1.79739e-06 -5.35472e-05 -0.000365803 -0.000961947 -0.00224816 -0.00491795 -3.61703e-05 -0.000201897 -0.00162756 0.000124983 -4.92625e-05 -0.000144606 -0.000469969 -0.000132316 -0.0003777 -4.16433e-05 -6.034e-06 0.000192667 0.00183001 0.000155267 -3.2903e-05 -0.00015063 -0.00134982 -0.00337522 -0.000523126 -4.82512e-06 2.55598e-05
internal_weight=0 27908 49 189725 5997 792 282 119 56 510 486 47 63 439 417 200 165 142 109 5205 620 65 217 4585 1273 138 40 98 1135 1114
internal_count=217633 27908 49 189725 5997 792 282 119 56 510 486 47 63 439 417 200 165 142 109 5205 620 65 217 4585 1273 138 40 98 1135 1114
shrinkage=0.05


Tree=572
num_leaves=31
num_cat=0
split_feature=32 15 15 40 13 34 1 13 40 20 12 41 12 6 40 2 35 16 35 40 41 43 11 37 15 11 10 16 28 41
split_gain=0.00191529 0.0160816 0.0552461 0.0381818 0.0347394 0.0438867 0.0771975 0.0218572 0.0206446 0.0837097 0.295252 0.0478702 0.0749377 0.0860211 0.0323178 0.031026 0.0136835 0.013669 0.010638 0.0282979 0.0080829 0.0069716 0.00659261 0.00614021 0.00601486 0.00401267 0.0223017 0.0067904 0.00280182 0.0120907
threshold=-10.048129999999999 -9.0272649999999983e-06 -4.4303949999999996e-06 0.1751400000000001 -5.5913199999999999e-05 5.3516150000000016 2.8816950000000006 -1.1714349999999999e-05 0.22528099999999995 -6.1474899999999986 0.00013315750000000002 0.32610899999999998 0.00010338350000000002 -4.7362049999999994e-07 0.43531000000000003 2.5248350000000008 -0.93075499999999989 8.0155350000000022e-06 -4.3203749999999994 -1.7334769999999997 1.0020695000000002 7.7155150000000008 -3.3619499999999992e-05 4.7478300000000009e-05 -5.4662999999999995e-05 -6.2059949999999982e-05 4.1429900000000008e-05 4.3089250000000013e-06 0.54025350000000005 0.40643499999999982
decision_type=2 2 2 2 2 2 2 2 2 2 2 2 2 2 2 2 2 2 2 2 2 2 2 2 2 2 2 2 2 2
left_child=1 4 3 -3 -1 6 -6 -7 11 10 15 12 16 -14 -11 -10 -4 25 19 -9 -19 -18 -17 24 -20 26 -13 -27 -2 -30
right_child=28 2 8 -5 5 7 -8 18 9 14 -12 17 13 -15 -16 22 21 20 23 -21 -22 -23 -24 -25 -26 27 -28 -29 29 -31
leaf_value=0.001950281222837345 -6.7942743811969366e-08 -0.00060894234883298562 -0.0011309053759429265 -0.0033702155424093477 -0.00054150215094393521 -0.0014106864901259541 0.0037457291180977509 -0.00030212008568923925 0.0015099277151637666 -0.0022054200101410972 0.0069336155836936088 0.0017205293982988222 -0.0048082824219423149 -0.00071368396788000553 -4.7533298980046768e-05 -0.0015031003631884232 0.0010343010448361219 -0.0013772112420701889 -0.00020874079315322697 0.0021259253805328625 -0.00031106947265016063 -0.00010799727880272687 -0.00023467213319409419 5.5679020423277896e-05 -0.0012799890481983312 -4.8266798665281389e-06 -0.0006407062533253338 0.00071761970051310907 0.00025238943450120081 -3.6355540065199918e-05
leaf_weight=28 214315 31 22 21 21 30 21 30 21 20 20 20 23 29 131 20 22 20 38 20 160 34 21 112 20 750 20 34 564 1015
leaf_count=28 214315 31 22 21 21 30 21 30 21 20 20 20 23 29 131 20 22 20 38 20 160 34 21 112 20 750 20 34 564 1015
internal_value=0 -5.22631e-05 -0.000124468 -0.00172407 0.000267922 0.0001066 0.00160211 -0.000144646 -6.36203e-05 0.000365045 0.00165111 -0.000151697 -0.0010545 -0.00252476 -0.000333346 -5.29297e-05 -7.43231e-05 -3.48006e-05 2.79956e-05 0.000669098 -0.00042953 0.000340763 -0.000853418 -0.000160564 -0.000578137 5.14266e-05 0.000539912 2.65039e-05 4.20973e-07 6.67807e-05
internal_weight=0 1739 1419 52 320 292 42 250 1367 233 82 1134 130 52 151 62 78 1004 220 50 180 56 41 170 58 824 40 784 215894 1579
internal_count=217633 1739 1419 52 320 292 42 250 1367 233 82 1134 130 52 151 62 78 1004 220 50 180 56 41 170 58 824 40 784 215894 1579
shrinkage=0.05


Tree=573
num_leaves=31
num_cat=0
split_feature=35 15 41 40 27 43 44 4 24 16 10 16 12 44 29 25 15 13 19 20 43 43 15 14 16 11 16 19 26 19
split_gain=0.00185566 0.037759 0.0538352 0.467762 0.301382 0.492385 0.451242 0.315735 0.837313 0.64158 0.427833 0.4988 0.379034 0.639019 0.297935 0.168006 0.158404 0.143733 0.121516 0.208029 0.149899 0.404243 0.432077 0.686599 0.150007 0.142073 0.121064 0.10427 0.137099 0.121262
threshold=1.8741500000000003e-05 -3.1922299999999996e-08 0.19792950000000006 0.10022550000000004 0.77166350000000017 1.8131900000000003 1.5039450000000001 0.05656205000000001 -0.17321899999999998 -7.5536299999999985e-08 3.1005150000000009e-05 7.4656150000000005e-08 0.00012235900000000003 -0.39412499999999978 -0.0068962399999999988 5.5910550000000008 3.828160000000001e-08 1.8732900000000002e-05 1.9131000000000004e-05 10.886100000000001 -0.15760999999999911 -1.1067849999999997 9.6733300000000013e-08 0.00037336950000000003 -5.0028699999999995e-08 6.0793300000000006e-05 1.5876450000000002e-07 3.4128000000000006e-08 -9.5483799999999982e-05 4.6729550000000004e-08
decision_type=2 2 2 2 2 2 2 2 2 2 2 2 2 2 2 2 2 2 2 2 2 2 2 2 2 2 2 2 2 2
left_child=1 -1 3 4 18 6 7 8 15 14 11 16 13 -11 -9 -6 -10 -12 19 20 21 -3 23 -23 -25 27 -20 -22 -29 -30
right_child=-2 2 -4 -5 5 -7 -8 9 10 12 17 -13 -14 -15 -16 -17 -18 -19 26 -21 25 22 -24 24 -26 -27 -28 28 29 -31
leaf_value=2.7105296949835847e-05 4.681035236800536e-06 -5.1166430946775821e-05 1.3539699684711132e-05 2.215079219213124e-06 0.0010081534319511659 -6.9131293355894741e-06 -0.0004469337543166385 -0.0046386230896626199 -0.0078085911693051464 -0.0046329021840415992 -0.0045063736081561619 -0.014035328409888529 -0.0018478794392649434 -0.013870815870662532 0.0016075977564988927 -0.0036853326442228122 -0.0015156644369153584 0.00012584159708102093 -0.00052402450458374653 -0.0055916818296758552 0.0001655139935111561 -0.0087804888038330569 -0.010716535104438664 0.0043402960032108235 -0.0012138156593033684 -0.0044675445052416761 0.00036641267720325836 -0.004210732702882399 -0.0037489071870887916 -0.00029616954178684471
leaf_weight=50806 107317 153 31317 24101 143 500 281 35 20 39 34 22 24 36 42 22 20 33 647 21 636 28 20 20 31 20 931 29 28 277
leaf_count=50806 107317 153 31317 24101 143 500 281 35 20 39 34 22 24 36 42 22 20 33 647 21 636 28 20 20 31 20 931 29 28 277
internal_value=0 -4.55378e-06 -3.15824e-05 -8.17043e-05 -0.000575971 -0.00122262 -0.00203201 -0.00297969 -0.001977 -0.00465463 -0.00499478 -0.0079881 -0.00731699 -0.0090671 -0.00123159 0.000382355 -0.00466213 -0.00222483 -0.000291228 -0.000656741 -0.0005733 -0.00166204 -0.00415158 -0.00248957 0.000964267 -0.000296165 1.32215e-06 -0.000210157 -0.000925508 -0.000613142
internal_weight=0 110316 59510 28193 4092 1251 751 470 294 176 129 62 99 75 77 165 40 67 2841 1263 1242 252 99 79 51 990 1578 970 334 305
internal_count=217633 110316 59510 28193 4092 1251 751 470 294 176 129 62 99 75 77 165 40 67 2841 1263 1242 252 99 79 51 990 1578 970 334 305
shrinkage=0.05


Tree=574
num_leaves=31
num_cat=0
split_feature=44 44 14 7 8 9 20 23 43 37 6 35 23 13 40 40 23 40 32 13 34 40 28 40 35 18 43 17 35 26
split_gain=0.00185982 0.0229361 0.0866663 0.0679434 0.0768124 0.0612279 0.139814 0.059946 0.0583014 0.0566425 0.0513121 0.137603 0.221993 0.104665 0.0675111 0.959311 1.35977 0.0969648 0.0685857 0.229217 0.0609098 0.0602974 0.143661 0.156859 0.470694 0.400172 0.0572534 0.135729 0.133978 0.0528747
threshold=-0.20255000000000042 0.086360000000000006 0.00083188600000000011 3.4485700000000008e-05 -1.4320549999999998e-05 2.7158350000000004e-05 5.3893600000000008 -12.424149999999999 0.027469999999999221 -8.7984999999999989e-06 -3.9944899999999989e-06 0.0010356450000000002 -9.1724949999999978 1.1548300000000001e-05 0.14973499999999998 0.056773999999999998 -7.560039999999999 0.039429999999999972 0.26698650000000007 -7.3238049999999987e-06 0.043783950000000009 -0.17527649999999997 0.068796600000000013 -0.040859549999999939 -0.00017715349999999997 -1.8548349999999995e-07 1.0000000180025095e-35 1.8389750000000001e-07 -0.00016634499999999995 0.00015025450000000004
decision_type=2 2 2 2 2 2 2 2 2 2 2 2 2 2 2 2 2 2 2 2 2 2 2 2 2 2 2 2 2 2
left_child=-1 2 7 4 -4 8 -7 -2 -6 -5 11 26 -13 -14 15 17 -17 18 21 -20 -19 -12 23 24 -23 -26 27 -9 -29 -28
right_child=1 -3 3 9 5 6 -8 10 -10 -11 14 12 13 -15 -16 16 -18 20 19 -21 -22 22 -24 -25 25 -27 29 28 -30 -31
leaf_value=-3.9493180319997584e-06 -0.0018101794863862265 -2.639620552280241e-06 -0.0033647093975045922 0.002210496852020352 0.00021346535403903453 -0.00019085396864071261 -0.004760385477913168 7.7649799168284515e-05 -0.00067555469931675758 -1.5007541607961603e-05 -4.921796684976415e-05 -0.0062624546885490422 -0.0041408390262222391 -0.0003145324819900539 -6.4616471003234562e-05 0.017366484962403776 0.00041969731803341163 0.0046611696947366004 -0.0052871059210019668 0.00038579431097984882 0.00092506264985180078 -0.0033343273290918902 -0.0035922313803563484 0.0003921191930306073 0.0012904129666276277 0.0098557371824863366 0.00031894529184447844 -0.0056959875618552112 -0.00048185688595237609 0.0021561208064039897
leaf_weight=125795 37 83204 23 29 318 47 26 250 439 2026 905 20 20 168 1066 20 29 20 24 69 24 23 22 2302 30 25 580 22 28 42
leaf_count=125795 37 83204 23 29 318 47 26 250 439 2026 905 20 20 168 1066 20 29 20 24 69 24 23 22 2302 30 25 580 22 28 42
internal_value=0 5.40957e-06 8.29779e-05 -0.000139311 -0.000514437 -0.000435454 -0.00181836 0.000195869 -0.000302096 1.63986e-05 0.000208916 -9.2702e-05 -0.00125436 -0.000721586 0.000283676 0.000389968 0.00733675 0.000291132 0.000260951 -0.00107818 0.00262329 0.00029861 0.000429661 0.000466838 0.002672 0.00518374 0.000169365 -0.000397971 -0.00277607 0.000442999
internal_weight=0 91838 8634 2908 853 830 73 5726 757 2055 5689 1130 208 188 4559 3493 49 3444 3400 93 44 3307 2402 2380 78 55 922 300 50 622
internal_count=217633 91838 8634 2908 853 830 73 5726 757 2055 5689 1130 208 188 4559 3493 49 3444 3400 93 44 3307 2402 2380 78 55 922 300 50 622
shrinkage=0.05


Tree=575
num_leaves=31
num_cat=0
split_feature=21 44 12 4 4 38 18 1 38 25 4 4 4 43 38 1 38 36 21 3 43 30 19 37 26 17 33 23 1 44
split_gain=0.00190734 0.0201705 0.0317328 0.0404349 0.110593 0.247305 0.121607 0.0767832 0.0556114 0.277854 0.0793668 0.104453 0.0553425 0.145823 0.155727 0.0304842 0.0480625 0.0280598 0.0313002 0.0544972 0.0255058 0.0195721 0.026258 0.0186178 0.0180043 0.026105 0.0142033 0.0128638 0.0392505 0.0125909
threshold=-12.332599999999998 0.19419999999999996 -2.9756999999999996e-05 -1.3105149999999999 -0.51868499999999995 0.015434100000000001 -9.7133699999999988e-05 -7.6550599999999998 -0.0008031274999999999 4.2979400000000005 0.20333750000000003 0.8580755000000001 -0.17044799999999996 1.7247300000000003 0.0021318600000000006 -10.666549999999999 1.0000000180025095e-35 -0.0036820849999999994 -15.424049999999998 -7.7933949999999994 0.35261000000000037 0.00021316700000000003 5.8709150000000007e-05 1.7767500000000002e-06 -0.00021357299999999997 2.0335950000000003e-07 0.00058287550000000012 -9.5298349999999985 -5.2034849999999997 0.23534999999999953
decision_type=2 2 2 2 2 2 2 2 2 2 2 2 2 2 2 2 2 2 2 2 2 2 2 2 2 2 2 2 2 2
left_child=1 2 3 26 5 -5 7 -7 9 -6 -11 -12 13 14 -10 16 -3 -14 23 -20 21 -21 -23 -19 25 -22 -1 28 -17 -29
right_child=-2 15 -4 4 8 6 -8 -9 12 10 11 -13 17 -15 -16 27 -18 18 19 20 24 22 -24 -25 -26 -27 -28 29 -30 -31
leaf_value=-0.00013555701679967782 -7.9473826541129462e-07 0.00030703222088050101 -1.5063968285303003e-05 -0.0018257413283403628 0.0064676463506614145 6.4145289139733427e-05 0.0067181461180671649 0.0043929745387868025 -0.00017102486528009259 -0.00057450798801081426 0.0042267711761960532 4.3114616631567985e-05 -0.0014463442575106456 -0.0014946265250204527 0.0048317241648744257 -0.0023255552576908183 -0.0031593240195070395 -0.0017456197558203713 0.0026398216681958399 0.00019567255419039207 -0.0024318735370235075 0.0022513118481384711 -5.81574944590102e-05 -0.00034928289446085089 -4.947456640264944e-05 9.218415392751922e-05 -0.0012415330456514355 0.0011276444319719304 -0.00016550762948310528 -2.1982304429415515e-05
leaf_weight=94 211535 20 1590 28 21 21 23 20 28 94 25 37 36 33 35 24 20 29 22 116 21 32 20 135 198 20 42 24 170 3120
leaf_count=94 211535 20 1590 28 21 21 23 20 28 94 25 37 36 33 35 24 20 29 22 116 21 32 20 135 198 20 42 24 170 3120
internal_value=0 2.75689e-05 0.000128909 0.00033149 0.000442123 0.00209351 0.00380819 0.00217577 0.000273689 0.00106826 0.000341415 0.00173007 7.97044e-05 0.00119791 0.00260828 -5.4031e-05 -0.00142615 -9.09591e-05 -8.676e-06 0.000215924 8.49023e-05 0.000557005 0.00136305 -0.000596196 -0.000246952 -0.00120063 -0.000477108 -3.75887e-05 -0.00043273 -1.32065e-05
internal_weight=0 6098 2720 1130 994 92 64 41 902 177 156 62 725 96 63 3378 40 629 593 429 407 168 52 164 239 41 136 3338 194 3144
internal_count=217633 6098 2720 1130 994 92 64 41 902 177 156 62 725 96 63 3378 40 629 593 429 407 168 52 164 239 41 136 3338 194 3144
shrinkage=0.05


Tree=576
num_leaves=31
num_cat=0
split_feature=23 36 3 10 11 11 16 3 43 5 28 26 37 8 26 37 3 2 16 15 3 37 25 24 36 43 6 30 16 9
split_gain=0.00185565 0.0122341 0.072721 0.0141802 0.00812601 0.0274154 0.0124387 0.0302056 0.0554794 0.117979 0.0329892 0.0275413 0.0144886 0.0143942 0.0511558 0.0116051 0.0304771 0.0405831 0.0260752 0.0294875 0.0107561 0.0106396 0.00923625 0.00908073 0.00898765 0.00852285 0.0150825 0.0183279 0.00708084 0.00565538
threshold=-6.1276249999999992 -0.0013312399999999998 -6.0035249999999989 6.4420400000000024e-05 2.2232350000000001e-05 2.1571850000000003e-05 1.7823250000000002e-07 -6.4965349999999988 -0.12174999999999957 1.1911150000000002e-05 -0.076175349999999989 -0.0010304099999999998 -8.1836399999999988e-08 -2.0605899999999995e-05 0.00014692550000000004 3.7614450000000006e-08 -7.4119349999999988 -0.53849999999999987 1.2311050000000001e-05 7.0470800000000012e-07 -7.9298599999999988 0.000104555 0.15742650000000002 -0.78263349999999987 -0.0012103199999999998 0.35261000000000037 3.3806250000000003e-06 0.00022849000000000003 5.8204250000000011e-06 4.6760200000000007e-05
decision_type=2 2 2 2 2 2 2 2 2 2 2 2 2 2 2 2 2 2 2 2 2 2 2 2 2 2 2 2 2 2
left_child=-1 2 3 -2 5 6 22 13 9 -9 -10 -11 -13 14 -8 -6 20 -18 19 -19 -17 23 -3 -15 -24 26 -12 -28 -23 -26
right_child=1 4 -4 -5 15 -7 7 8 10 11 25 12 -14 21 -16 16 17 18 -20 -21 -22 28 24 -25 29 -27 27 -29 -30 -31
leaf_value=-8.107982556275151e-07 -8.4145911752880485e-05 0.00089550402021343659 -0.0024921116702237424 0.0013806696808023845 2.4482459633407392e-05 0.001759849471126292 -2.1935002468233187e-05 0.0049602959193748575 0.0021771242818067549 0.0023332262092957364 4.6860242156238016e-05 0.0013572178261132318 -0.00017346855199251038 0.00086908667403020386 0.00285472993964504 -0.00013914274023992947 -0.0029866686448041862 -0.00077887008073724781 -0.0020299993494215115 0.0015825206669978797 0.00077706234088899305 -0.00013503879210475134 0.001029501354891441 -3.221413708217205e-05 3.8651718928385295e-06 -0.00012093052089392532 0.00013765898474957794 0.0022782129048573552 -0.0014349406728962838 -0.00039658030987733842
leaf_weight=211122 95 29 33 20 1455 24 68 20 20 21 93 22 52 29 20 378 21 39 21 20 35 20 21 769 2834 199 20 20 22 91
leaf_count=211122 95 29 33 20 1455 24 68 20 20 21 93 22 52 29 20 378 21 39 21 20 35 20 21 769 2834 199 20 20 22 91
internal_value=0 2.62905e-05 -0.000423109 0.000170605 3.67433e-05 7.45676e-05 6.5312e-05 0.000188501 0.000516477 0.00146993 0.000204979 0.000735118 0.0002816 2.3453e-05 0.000631852 -4.7665e-05 -0.000251896 -0.00103045 -0.000516944 2.16014e-05 -6.14982e-05 -4.02841e-05 7.54764e-06 5.39902e-07 -1.19327e-06 8.61755e-05 0.000396056 0.00120794 -0.00081594 -8.59313e-06
internal_weight=0 6511 148 115 6363 4394 4370 1395 467 115 352 95 74 928 88 1969 514 101 80 59 413 840 2975 798 2946 332 133 40 42 2925
internal_count=217633 6511 148 115 6363 4394 4370 1395 467 115 352 95 74 928 88 1969 514 101 80 59 413 840 2975 798 2946 332 133 40 42 2925
shrinkage=0.05


Tree=577
num_leaves=31
num_cat=0
split_feature=13 17 24 32 5 43 23 27 37 3 0 6 19 10 3 3 28 40 2 18 24 17 40 40 15 31 43 43 16 1
split_gain=0.00182275 0.00598412 0.00506847 0.00653199 0.0150913 0.00495025 0.00903478 0.00404947 0.0169279 0.021248 0.0130349 0.0157975 0.00929783 0.0067131 0.00424117 0.0120375 0.00377742 0.00392102 0.00576627 0.00345942 0.0299451 0.0489031 0.0619377 0.246712 0.143946 0.207143 0.137917 0.255397 0.418919 0.186569
threshold=0.00031977250000000008 -0.00032874299999999994 1.5291850000000002 20.036400000000004 1.5198800000000003e-05 5.4503350000000017 -15.262649999999999 5.5455250000000005 9.6707250000000022e-06 -11.042399999999999 10.442600000000001 3.2281550000000005e-06 0.0024905200000000004 1.0862450000000001e-05 -18.015749999999997 -17.495099999999997 1.0121250000000004 -0.40968649999999995 2.0639650000000005 -1.4018299999999999e-05 -0.28484049999999994 -3.0819049999999996e-06 0.24966499999999994 -0.30278099999999991 1.3231850000000003e-06 -0.57081549999999992 2.6836000000000007 0.80790999999999979 3.0231500000000004e-06 -4.5317299999999987
decision_type=2 2 2 2 2 2 2 2 2 2 2 2 2 2 2 2 2 2 2 2 2 2 2 2 2 2 2 2 2 2
left_child=1 -1 3 7 -5 6 -4 8 -2 -10 12 -12 -9 -14 -15 -16 -17 -18 -19 20 21 -3 23 -23 26 -26 27 29 -29 -25
right_child=2 19 5 4 -6 -7 -8 10 9 -11 11 -13 13 14 15 16 17 18 -20 -21 -22 22 -24 24 25 -27 -28 28 -30 -31
leaf_value=-0.0007601594622490054 8.1424034760665248e-06 -8.691919095740924e-05 -0.0012881307539064437 0.0016545390777173452 -6.7194712547851459e-05 6.3397123332474567e-05 -0.0002186612886052512 0.0010580720037029572 -0.0021737563745409714 0.00013101909367833287 0.0019129273230819742 -5.0575382192619149e-05 0.00096121999478782538 -0.00035720744061668833 0.0011435657543188427 5.4405904553216149e-05 -2.0318471620274254e-05 -0.001235909716851893 -7.5068317591617617e-05 2.2282713314610131e-06 -3.22102133058505e-05 -3.7407357530008762e-05 -2.9313752287993464e-05 0.0025881532778927775 -0.0034001405527165985 0.00048432357726450534 -0.00036523690416763677 0.0056307151815781255 -0.0012975663982797416 0.00055381739470861363
leaf_weight=26 22271 3055 25 20 35 81 94 23 20 20 21 20 20 65 25 2497 78 20 23 145768 38136 1857 2319 155 39 286 111 80 30 413
leaf_count=26 22271 3055 25 20 35 81 94 23 20 20 21 20 20 65 25 2497 78 20 23 145768 38136 1857 2319 155 39 286 111 80 30 413
internal_value=0 -1.66176e-06 1.26001e-05 1.45932e-05 0.00055889 -0.000238111 -0.00044334 1.34007e-05 6.29666e-06 -0.00102137 7.01693e-05 0.000955121 5.69802e-05 4.854e-05 4.17993e-05 5.16122e-05 4.11848e-05 -0.00023165 -0.000614995 -1.55918e-06 -1.34369e-05 7.23557e-05 0.000164338 0.000315491 0.000903762 1.81879e-05 0.00126854 0.00153602 0.00374118 0.00110896
internal_weight=0 192275 25358 25158 55 200 119 25103 22311 40 2792 41 2751 2728 2708 2643 2618 121 43 192249 46481 8345 5290 2971 1114 325 789 678 110 568
internal_count=217633 192275 25358 25158 55 200 119 25103 22311 40 2792 41 2751 2728 2708 2643 2618 121 43 192249 46481 8345 5290 2971 1114 325 789 678 110 568
shrinkage=0.05


Tree=578
num_leaves=31
num_cat=0
split_feature=33 41 43 13 21 8 16 16 11 40 21 25 25 36 20 22 40 10 21 19 12 14 0 34 43 23 8 18 20 18
split_gain=0.0018729 0.0138061 0.0097221 0.0191652 0.0767617 0.105826 0.0777096 0.107029 0.111121 0.134274 0.155849 0.101402 0.107209 0.138677 0.101647 0.220552 0.157724 0.232642 0.215909 0.0796288 0.0775801 0.264515 0.222213 0.214678 0.108502 0.0981655 0.066839 0.0737498 0.0665563 0.0651614
threshold=1.3939150000000002e-05 -5.672744999999999 0.85052500000000031 -5.2730899999999988e-06 3.8437450000000006 -2.2746599999999997e-05 4.7861450000000004e-06 1.5710250000000004e-05 9.4172200000000006e-05 -0.27744100000000016 -3.8826699999999996 2.7306300000000001 3.0293700000000006 -0.028793999999999997 0.53247600000000006 2.3537500000000002 0.22528099999999995 1.3587550000000002e-05 3.1442200000000002 0.00097729900000000027 0.00013691200000000002 0.0027461200000000003 -2.7237549999999993 0.24594850000000004 -0.71725499999999964 -12.040949999999999 -1.22044e-05 -4.0549399999999993e-06 5.5992650000000008 -2.8839749999999998e-05
decision_type=2 2 2 2 2 2 2 2 2 2 2 2 2 2 2 2 2 2 2 2 2 2 2 2 2 2 2 2 2 2
left_child=-1 -2 3 4 6 -6 11 8 28 -10 -11 14 13 -13 15 16 17 -3 -19 -9 26 22 23 -22 25 -23 27 -7 -8 -30
right_child=1 2 -4 -5 5 20 7 19 9 10 -12 12 -14 -15 -16 -17 -18 18 -20 -21 21 24 -24 -25 -26 -27 -28 -29 29 -31
leaf_value=2.2424952784256118e-06 -0.0007804716925828212 0.00037336352009636662 6.6535777950663474e-06 -5.4627238544812718e-07 -0.0031397863554514984 0.0032772321987632213 -0.00015886663225945423 -0.0027800513162219431 -0.00013356997957229255 -0.0015111721393623158 -0.0076096417843390636 -0.005579227038542741 -3.5703843352682218e-05 -0.00059210448331095515 0.0001546597798369651 0.0004082858284848237 -0.00034168404843354518 0.0092562800231722319 0.0025494919325518869 0.00017563313527018925 -0.0082785184393789433 -0.0033459928772044223 -0.00062230671123277568 -0.0019559702374972402 0.0015363067631925433 1.2340654949147305e-05 -0.00027982543624305479 -0.00028864581645707249 -0.0040425583686446772 -0.00070032447920831539
leaf_weight=176401 58 24 29634 7544 37 29 172 24 26 20 22 20 1251 46 584 226 23 28 21 451 29 31 46 25 72 73 627 29 25 35
leaf_count=176401 58 24 29634 7544 37 29 172 24 26 20 22 20 1251 46 584 226 23 28 21 451 29 31 46 25 72 73 627 29 25 35
internal_value=0 -9.59397e-06 -8.50806e-06 -4.74422e-05 -0.000135976 -0.000515798 -9.5381e-06 -0.00044067 -0.00118003 -0.00295748 -0.00470561 0.000140767 -0.000139322 -0.00210335 0.000547915 0.00126115 0.00326893 0.00440652 0.00638194 2.62933e-05 -0.000414771 -0.00112251 -0.00317602 -0.00535141 4.42567e-05 -0.000988701 -0.000129608 0.00149429 -0.000659053 -0.00209292
internal_weight=0 41232 41174 11540 3996 998 2998 775 300 68 42 2223 1317 66 906 322 96 73 49 475 961 276 100 54 176 104 685 58 232 60
internal_count=217633 41232 41174 11540 3996 998 2998 775 300 68 42 2223 1317 66 906 322 96 73 49 475 961 276 100 54 176 104 685 58 232 60
shrinkage=0.05


Tree=579
num_leaves=31
num_cat=0
split_feature=19 14 20 33 43 40 40 39 15 15 30 0 21 32 2 19 9 24 9 9 1 2 41 40 44 22 3 31 0 13
split_gain=0.00190495 0.00953763 0.0219394 0.0169317 0.0493287 0.104629 0.139899 0.00799898 0.0383216 0.101966 0.0148761 0.0215628 0.0119128 0.0104964 0.075031 0.0104411 0.00944041 0.00908029 0.0369852 0.0256672 0.0316849 0.0699373 0.0518596 0.0838726 0.0221228 0.0203221 0.01058 0.00985358 0.0370836 0.0865936
threshold=0.0024010250000000006 0.00029103850000000009 13.012750000000002 4.226840000000001e-06 0.97785500000000003 0.12375499999999996 1.0000000180025095e-35 2.3303150000000001 6.3536550000000009e-06 6.1210100000000012e-05 0.35534200000000005 2.6507300000000007 -5.6560049999999995 20.036400000000004 -1.4330849999999997 0.0059260250000000006 -1.6446249999999999e-05 1.3511250000000004 -6.2460399999999982e-05 -4.9083349999999995e-05 -1.5747349999999998 -0.104999 0.43359400000000009 0.20129000000000011 5.2253350000000003 2.3223600000000002 -15.510599999999998 -1.4873599999999998 4.9393250000000011 3.8018750000000006e-05
decision_type=2 2 2 2 2 2 2 2 2 2 2 2 2 2 2 2 2 2 2 2 2 2 2 2 2 2 2 2 2 2
left_child=-1 2 3 -2 5 6 -5 10 12 -10 13 -12 -9 17 -15 -14 -11 27 -19 -20 22 -22 23 -21 25 26 -23 28 -3 -30
right_child=1 7 -4 4 -6 -7 -8 8 9 16 11 -13 15 14 -16 -17 -18 18 19 20 21 24 -24 -25 -26 -27 -28 -29 29 -31
leaf_value=-2.8113420930365094e-06 -1.8350825146916098e-05 -1.2706044017070446e-06 0.0017145227216381253 0.00060549107019424212 1.8863369528744581e-05 -0.00013748243627639649 0.0058272413195758731 -0.001159424545546768 0.0033356914374962801 -0.0010049994903965854 -2.3968333111805543e-05 -0.0021297430907725357 -0.00092376194326789125 0.0030972927798178385 -0.00019982233450491552 0.00046426683326163104 0.00029199745944463355 0.001342146871376018 -0.0017883862425411021 -0.0039653927532964633 0.0027910494800459634 -0.0012253923867683626 -0.00012439448583624041 -0.00044040121707237433 -0.0013693254947429523 0.0011987888002562719 9.2766507680239945e-06 1.1763695013705003e-06 0.0012850106793019832 -2.9696530358586192e-05
leaf_weight=159885 743 1824 22 29 264 61 23 33 32 20 31 20 20 22 80 42 47 36 28 27 23 20 147 45 30 34 131 53384 203 327
leaf_count=159885 743 1824 22 29 264 61 23 33 32 20 31 20 20 22 80 42 47 36 28 27 23 20 147 45 30 34 131 53384 203 327
internal_value=0 7.78367e-06 0.000150844 0.000120129 0.000393049 0.00126725 0.00291511 4.89749e-06 0.000325407 0.0010138 3.79526e-06 -0.000849762 -0.000391969 4.56763e-06 0.00051132 1.65156e-05 -9.51658e-05 3.64887e-06 -0.00020412 -0.000318895 -0.00022886 0.000170507 -0.000662875 -0.00176227 -0.00010983 9.4412e-05 -0.000154256 5.59095e-06 0.000105705 0.000473861
internal_weight=0 57748 1142 1120 377 113 52 56606 194 99 56412 51 95 56361 102 62 67 56259 521 485 457 238 219 72 215 185 151 55738 2354 530
internal_count=217633 57748 1142 1120 377 113 52 56606 194 99 56412 51 95 56361 102 62 67 56259 521 485 457 238 219 72 215 185 151 55738 2354 530
shrinkage=0.05


Tree=580
num_leaves=31
num_cat=0
split_feature=44 24 18 14 2 35 38 4 11 15 38 23 21 36 33 40 34 40 36 19 24 23 17 9 3 17 4 7 18 4
split_gain=0.00187748 0.00887691 0.0118767 0.00753619 0.0139579 0.00728254 0.0137109 0.039903 0.0112154 0.011321 0.0113016 0.00767246 0.0332464 0.0425579 0.0231143 0.0223616 0.0219735 0.0696097 0.0111974 0.00724248 0.00617543 0.0782775 0.17181 0.022431 0.0132687 0.0219915 0.0230771 0.0121007 0.0243823 0.0863467
threshold=2.4429550000000004 -1.7211949999999998 -8.547639999999998e-05 0.71230950000000004 -1.8915949999999997 -1.5367699999999997 -1.0090899999999998 0.92648250000000021 -0.00014890799999999998 -1.5416449999999997e-05 -0.39553799999999995 -13.656999999999998 -6.1725999999999992 0.12161000000000001 -4.8226049999999992e-05 0.86046950000000011 0.83312700000000006 -0.10081500000000009 0.013761450000000001 0.00052909500000000015 -0.88671549999999988 -12.040949999999999 6.0555850000000007e-09 6.2607250000000023e-05 -13.707299999999998 -3.4453399999999998e-07 -2.3911599999999997 3.8091200000000006e-05 -0.00022562899999999998 -2.3911599999999997
decision_type=2 2 2 2 2 2 2 2 2 2 2 2 2 2 2 2 2 2 2 2 2 2 2 2 2 2 2 2 2 2
left_child=3 2 -2 -1 -5 8 7 -7 10 -10 -3 12 -8 14 15 -14 18 -18 -16 -11 21 22 -13 24 25 26 -23 -26 29 -29
right_child=1 5 -4 4 -6 6 11 -9 9 19 -12 20 13 -15 16 -17 17 -19 -20 -21 -22 23 -24 -25 27 -27 -28 28 -30 -31
leaf_value=-2.097023495625988e-06 -0.0012773322493528888 -0.0017552943029643402 -8.4966698642574564e-05 -0.0015639943112182664 -0.00017007961016536849 -4.4533492958483602e-06 -0.002166185589667293 0.0022807919601641169 0.00087175339017099205 0.00015380549723756435 -0.00023373796758768061 0.005658053994302463 -0.0025250719070754714 0.0017756896425672839 -0.00015820663679363292 -0.0002390678091298627 -0.00051070604193326392 0.0030408501495416702 -0.0013648103347804865 -0.00060435027165416013 9.7499703149120837e-06 -0.00029932287804480703 -0.00028601687370082213 0.0016774519906539353 -9.3180017279452756e-05 -1.8868990975910306e-05 -0.0019662040921199758 2.4960898289546918e-05 7.6854840333691026e-05 0.0039872084530361467
leaf_weight=169919 31 23 64 20 176 72 20 26 26 56 26 20 20 29 498 23 37 22 20 72 45608 56 31 20 197 290 33 44 134 20
leaf_count=169919 31 23 64 20 176 72 20 26 26 56 26 20 20 29 498 23 37 22 20 72 45608 56 31 20 197 290 33 44 134 20
internal_value=0 8.78694e-06 -0.000474054 -2.45445e-06 -0.000312316 9.75419e-06 1.10389e-05 0.000601836 -0.000289081 -7.9445e-05 -0.000947938 9.81021e-06 -0.00015831 -9.64338e-05 -0.000184001 -0.00130233 -0.00010066 0.000813603 -0.000204794 -0.000272657 1.22314e-05 0.000146165 0.00204499 2.41999e-05 -1.85198e-05 -0.000229865 -0.00091738 0.000184265 0.000460308 0.00126316
internal_weight=0 47518 95 170115 196 47423 47220 98 203 154 49 47122 669 649 620 43 577 59 518 128 46453 845 51 794 774 379 89 395 198 64
internal_count=217633 47518 95 170115 196 47423 47220 98 203 154 49 47122 669 649 620 43 577 59 518 128 46453 845 51 794 774 379 89 395 198 64
shrinkage=0.05


Tree=581
num_leaves=31
num_cat=0
split_feature=21 40 39 43 40 13 22 3 24 17 40 40 33 40 40 40 43 40 44 6 12 15 40 15 40 16 43 1 1 5
split_gain=0.00181656 0.0289962 0.0172096 0.0354562 0.112404 0.201773 0.171304 0.0468217 0.0325169 0.0237771 0.0411364 0.166549 0.141013 0.0345022 0.0310999 0.0714167 0.0850934 0.0759116 0.0499973 0.0596005 0.0450806 0.0358231 0.0268814 0.0233757 0.0263839 0.0158407 0.0145512 0.00918193 0.00811964 0.00764896
threshold=-13.388899999999998 -4.6213449999999989 0.0020372800000000003 1.0000000180025095e-35 0.2761725000000001 -1.2004249999999998e-05 -1.8123449999999999 -6.5216149999999988 -0.24490649999999997 4.8443000000000012e-06 0.077348000000000056 -0.43704099999999996 0.0002933525000000001 0.46240350000000002 0.46240350000000002 -0.32870999999999989 0.80790999999999979 0.056773999999999998 -2.3840000000000008 6.9635550000000006e-07 -4.5142299999999996e-05 2.0938650000000004e-08 0.60008550000000016 7.0470800000000012e-07 -0.71412249999999966 6.5238050000000013e-06 0.13650500000000013 -10.336599999999999 -12.640099999999999 1.1003450000000002e-05
decision_type=2 2 2 2 2 2 2 2 2 2 2 2 2 2 2 2 2 2 2 2 2 2 2 2 2 2 2 2 2 2
left_child=1 -1 3 27 5 -5 -7 -8 -9 14 11 -11 -13 -12 15 23 17 21 19 -18 -20 -17 -16 25 -25 28 -10 -3 -4 -15
right_child=-2 2 9 4 -6 6 7 8 26 10 13 12 -14 29 22 16 18 -19 20 -21 -22 -23 -24 24 -26 -27 -28 -29 -30 -31
leaf_value=0.0016102089424685833 -5.838457977196677e-07 -0.0010652410244455538 -0.00080362146846741321 0.0057306396455715008 -4.8542741062836588e-05 0.0044036075929657923 0.0023630872560897846 -0.0014834550453972928 0.001435379724465574 -6.8912989833033416e-05 -0.0018206773552164022 0.0064788169183191803 0.00068446179599656416 0.00063240495292120617 0.0016604316870216284 -0.005389169792622505 0.00020025528388299899 -0.00082292452995740895 0.0020027005654429239 -0.0027826249334435543 -0.0010420668125152588 -0.0025020494033180349 -9.1226433993583205e-06 -0.0003559254297062376 -0.0022571384391829436 0.0011140194943072858 -8.4396172164743477e-05 -8.9731148826444389e-06 7.2142766998620122e-05 -6.5839153267352007e-05
leaf_weight=29 214135 21 29 24 369 28 20 37 21 122 27 21 21 47 25 21 34 37 31 33 20 22 677 107 22 35 63 1015 303 237
leaf_count=29 214135 21 29 24 369 28 20 37 21 122 27 21 21 47 25 21 34 37 31 33 20 22 677 107 22 35 63 1015 303 237
internal_value=0 3.57409e-05 2.25788e-05 0.000143083 0.000462854 0.0014406 0.000831366 0.000121985 -0.000248445 -8.03423e-05 0.000225226 0.000865985 0.00358164 -0.000112666 -0.000184314 -0.000421668 -0.00122445 -0.00248332 -0.000370979 -0.00126892 0.000808674 -0.00391204 5.03344e-05 -0.000101202 -0.000680163 0.000102302 0.000295548 -3.0384e-05 -4.35471e-06 4.97153e-05
internal_weight=0 3498 3469 1598 562 193 169 141 121 1871 475 164 42 311 1396 694 198 80 118 67 51 43 702 496 129 367 84 1036 332 284
internal_count=217633 3498 3469 1598 562 193 169 141 121 1871 475 164 42 311 1396 694 198 80 118 67 51 43 702 496 129 367 84 1036 332 284
shrinkage=0.05


Tree=582
num_leaves=31
num_cat=0
split_feature=44 44 20 3 0 20 3 3 3 22 6 9 19 20 21 0 5 3 20 23 0 41 41 22 2 36 21 23 21 8
split_gain=0.00184638 0.00658569 0.036089 0.103506 0.245496 0.177513 0.0823664 0.0532563 0.0528768 0.149159 0.351873 0.0900552 0.153275 0.0841905 0.0688339 0.103406 0.0449386 0.0346383 0.0307015 0.149718 0.361046 0.0518668 0.435886 0.257043 0.225323 0.400909 0.194785 0.748132 0.338075 0.368925
threshold=-3.2113799999999997 -0.20255000000000042 7.2203350000000013 -11.042399999999999 4.2310700000000008 8.3060300000000016 -10.845499999999999 -12.423099999999998 -8.4822199999999981 -0.54752699999999999 2.6062900000000005e-06 4.2640350000000002e-05 0.00015966750000000004 8.7615050000000014 6.8372650000000013 4.7206650000000012 7.9290400000000026e-06 -14.605749999999999 -5.9130249999999984 -15.806199999999999 -4.3615599999999999 -0.27889399999999981 0.19792950000000006 2.8798550000000005 -2.3732299999999995 -0.004072179999999999 -7.8035849999999991 -10.522449999999997 4.6258850000000011 -8.1940399999999975e-06
decision_type=2 2 2 2 2 2 2 2 2 2 2 2 2 2 2 2 2 2 2 2 2 2 2 2 2 2 2 2 2 2
left_child=-1 2 18 4 17 7 -5 -6 9 10 -8 14 13 -13 16 -16 -11 -4 19 20 -2 -20 23 24 25 -23 27 -26 29 -28
right_child=1 -3 3 6 5 -7 8 -9 -10 11 -12 12 -14 -15 15 -17 -18 -19 21 -21 -22 22 -24 -25 26 -27 28 -29 -30 -31
leaf_value=6.7651690733046726e-06 0.0071670648850267749 5.1452475082533817e-06 -0.0018411260935513732 -0.0028816905718106987 0.0034474141511877648 0.006079857024032566 0.00023619519104249779 0.00026244199868025522 1.5009186389249673e-05 -0.0023145928075488579 0.0063682494767229349 0.0017443582819065672 0.00013230013029943876 0.0062266486234148037 9.4239197683120257e-05 0.0045162645833624988 -0.00010878676369034731 0.00018465331690791233 9.3822038395872376e-06 1.4217251578097282e-05 8.1302468947797032e-05 -0.008585905068827308 -3.2252703320461457e-07 -0.0052322054713537609 0.0054372244853376677 -0.0013597471605862666 -0.0030739824731473623 -0.00027451062903725712 -0.00012764429941703457 -0.00087602892439241184
leaf_weight=68918 25 91838 26 24 21 33 75 35 9275 24 34 22 78 20 39 20 609 112 14414 13551 64 23 14930 30 63 116 233 637 1287 1057
leaf_count=68918 25 91838 26 24 21 33 75 35 9275 24 34 22 78 20 39 20 609 112 14414 13551 64 23 14930 30 63 116 233 637 1287 1057
internal_value=0 -3.13514e-06 -1.65053e-05 6.74587e-05 0.00112347 0.00317097 4.40032e-05 0.00145681 5.08898e-05 0.000412229 0.00214895 0.000179098 0.00144357 0.00387878 -4.01745e-05 0.00159323 -0.000192419 -0.000197015 -3.53976e-05 2.76421e-05 0.00207169 -6.16209e-05 -0.000117315 -0.000624193 -0.000583725 -0.00255544 -0.000500091 0.000239546 -0.000701001 -0.00127302
internal_weight=0 148715 56877 10447 227 89 10220 56 10196 921 109 812 120 42 692 59 633 138 46430 13640 89 32790 18376 3446 3416 139 3277 700 2577 1290
internal_count=217633 148715 56877 10447 227 89 10220 56 10196 921 109 812 120 42 692 59 633 138 46430 13640 89 32790 18376 3446 3416 139 3277 700 2577 1290
shrinkage=0.05


Tree=583
num_leaves=31
num_cat=0
split_feature=32 15 15 8 3 40 13 40 20 12 21 40 12 40 19 5 8 15 11 13 13 20 4 21 40 15 21 37 0 8
split_gain=0.00181239 0.0142621 0.049232 0.0358871 0.104229 0.0337151 0.019725 0.021738 0.0858492 0.261254 0.0312118 0.0286328 0.0248001 0.04325 0.0579621 0.0150114 0.0188734 0.0114307 0.0227664 0.0113692 0.0144283 0.00964519 0.00598467 0.0142641 0.00642344 0.00587337 0.00774568 0.00756004 0.0057791 0.00457131
threshold=-10.048129999999999 -9.0272649999999983e-06 -4.4303949999999996e-06 -9.1205699999999983e-06 -12.288549999999999 0.1751400000000001 -6.7776199999999983e-05 0.22528099999999995 -6.1474899999999986 0.00011857750000000002 0.77184100000000011 0.43531000000000003 0.00011228600000000002 -0.32870999999999989 0.00051133100000000018 1.1003450000000002e-05 -5.7804399999999992e-06 4.6040750000000013e-06 -6.4452949999999984e-05 8.055315000000001e-05 2.8875250000000004e-05 -19.608449999999998 0.36048500000000006 3.7008850000000004 0.02582950000000005 -2.9419199999999994e-05 3.4952500000000004 -6.2538149999999987e-05 7.2069900000000011 -2.7540099999999997e-05
decision_type=2 2 2 2 2 2 2 2 2 2 2 2 2 2 2 2 2 2 2 2 2 2 2 2 2 2 2 2 2 2
left_child=1 3 5 4 -1 -3 -4 12 9 10 -9 -10 17 -14 -15 -5 -17 18 -8 20 -6 -19 24 -24 29 27 -27 -18 -23 -20
right_child=-2 2 6 15 19 -7 7 8 11 -11 -12 -13 13 14 -16 16 25 21 22 -21 -22 28 23 -25 -26 26 -28 -29 -30 -31
leaf_value=0.0037521650955358596 4.0950827282987301e-07 -0.00058099255097218813 -0.0013082536951133667 0.0011446054823907269 -0.00026239590544719249 -0.0031757287366071113 0.0017181821531266905 -0.001069588442060781 -0.0020621451309852999 0.0065215353837369807 0.0012557194204082071 -2.4557997145348055e-05 -0.00013854364431822701 -0.0040144347219029444 -0.00049016785945111359 -0.0014631626587028482 0.00094359060395104088 -0.0012241641343374294 -0.00066510943585308278 -0.00048609794072035589 0.0016140865880602394 -0.00010084824865799427 -0.00019391142866677708 0.0015678401628974826 -0.00091013160432339656 2.1750048121989327e-05 -0.0012764806646737271 -6.7749042415364764e-05 -0.00097761180507156755 2.3503863366888475e-05
leaf_weight=26 215894 31 31 21 20 21 20 31 20 21 27 125 102 20 28 28 23 29 25 40 21 129 27 20 20 27 20 94 22 670
leaf_count=26 215894 31 31 21 20 21 20 31 20 21 27 125 102 20 28 28 23 29 25 40 21 129 27 20 20 27 20 94 22 670
internal_value=0 -5.08398e-05 -0.000118838 0.000250688 0.00099776 -0.00162887 -6.13969e-05 -3.24653e-05 0.000416905 0.00174303 1.28825e-05 -0.000305604 -0.000122986 -0.000720966 -0.00195861 -0.000124601 -0.000263421 -2.97459e-05 5.29438e-05 0.000113629 0.000698729 -0.000388987 9.23677e-06 0.00055577 -2.66892e-05 -5.85865e-05 -0.000530689 0.000131061 -0.000228589 -1.2664e-06
internal_weight=0 1739 1419 320 107 52 1367 1336 224 79 58 145 1112 150 48 213 192 962 782 81 41 180 762 47 715 164 47 117 151 695
internal_count=217633 1739 1419 320 107 52 1367 1336 224 79 58 145 1112 150 48 213 192 962 782 81 41 180 762 47 715 164 47 117 151 695
shrinkage=0.05


Tree=584
num_leaves=31
num_cat=0
split_feature=34 0 29 39 25 15 19 33 7 5 37 7 5 18 0 20 13 40 21 31 29 0 1 12 32 19 16 0 25 14
split_gain=0.00180521 0.00986767 0.0333781 0.0532163 0.0333652 0.0934013 0.0234753 0.00935644 0.096139 0.00468914 0.00371439 0.0124397 0.0227152 0.0510193 0.00340963 0.0123557 0.16196 0.48572 0.121931 0.0701642 0.0936299 0.136372 0.0613811 0.141094 0.074186 0.0806483 0.0707254 0.0580666 0.0309005 0.0222414
threshold=0.0037330700000000002 7.2069900000000011 -0.0028213899999999996 1.0987050000000003e-06 0.18709850000000003 7.0184150000000016e-08 4.9504050000000005e-09 -2.7006449999999994e-06 3.2764650000000005e-05 9.5554350000000008e-06 2.3630050000000003e-08 5.1392350000000003e-05 1.8904150000000004e-05 -1.8548349999999995e-07 4.865495000000001 16.002400000000005 -1.7032199999999996e-05 0.10022550000000004 -7.4922749999999985 -1.3092349999999997 -0.044712599999999991 8.6233850000000025 -1.5747349999999998 7.0100100000000005e-06 -4.3985699999999994 4.8386800000000011e-07 2.7687200000000004e-06 7.8324700000000016 19.280350000000002 0.0006072295000000001
decision_type=2 2 2 2 2 2 2 2 2 2 2 2 2 2 2 2 2 2 2 2 2 2 2 2 2 2 2 2 2 2
left_child=1 -1 3 4 5 -3 -6 8 -4 -8 -9 -12 13 -13 -2 -16 17 18 -17 22 21 -21 26 -24 25 -25 27 -18 29 -26
right_child=14 2 7 -5 6 -7 9 10 -10 -11 11 12 -14 -15 15 16 19 -19 -20 20 -22 -23 23 24 28 -27 -28 -29 -30 -31
leaf_value=2.3210460708771521e-06 -2.8847078926007525e-06 0.00042317374768134175 -0.0036562239545310151 -0.0030432367721611327 -0.0016414467393550088 -0.0042033212980095418 -0.0006682701166441389 1.4411573181847026e-05 2.5902889301476487e-05 0.00010802613643255384 0.00013547215478090631 -0.0031003321487293326 -4.8643379753602033e-05 0.00016271956716082059 9.3282831891520763e-06 0.0035639052937040104 0.0018428461252478882 0.0088238614932855675 -0.00099501544559395618 -0.00032678989254750576 -1.6809098997327967e-06 -0.0058331415798007092 0.0038594503580437357 -0.00081913574180188817 -0.00056550841150055937 0.003100249806552061 -0.0032709103077650072 -0.0012440407243467725 -0.0013727989841693974 0.0014996885598355387
leaf_weight=11392 145869 24 20 21 24 20 22 1765 156 168 149 23 88 25 57379 20 25 21 55 23 60 22 30 21 32 35 23 39 60 22
leaf_count=11392 145869 24 20 21 24 20 22 1765 156 168 149 23 88 25 57379 20 25 21 55 23 60 22 30 21 32 35 23 39 60 22
internal_value=0 -1.74359e-05 -0.000107285 -0.000622819 -0.000425808 -0.00167978 -0.000167983 -4.26694e-05 -0.000392521 1.81392e-05 -1.26334e-05 -0.000180123 -0.000525884 -0.00140083 1.18932e-06 1.1459e-05 0.000261986 0.00210264 0.000220697 -0.000188786 -0.00129473 -0.00301878 0.000215826 0.000698097 0.000140211 0.00163048 -0.000892843 -3.82255e-05 -0.000591851 0.000275868
internal_weight=0 13897 2505 279 258 44 214 2226 176 190 2050 285 136 48 203736 57867 488 96 75 392 105 45 287 200 170 56 87 64 114 54
internal_count=217633 13897 2505 279 258 44 214 2226 176 190 2050 285 136 48 203736 57867 488 96 75 392 105 45 287 200 170 56 87 64 114 54
shrinkage=0.05


Tree=585
num_leaves=31
num_cat=0
split_feature=6 6 29 44 23 43 44 35 19 17 29 24 43 23 22 9 8 22 40 40 33 23 31 9 7 21 1 29 30 11
split_gain=0.0018305 0.00896975 0.0246704 0.017597 0.0706239 0.0537894 0.0460339 0.0947466 0.145963 0.207089 0.0892108 0.0422969 0.0187668 0.0162942 0.0158639 0.0134908 0.00998607 0.0147621 0.0093474 0.0307571 0.0182079 0.0210218 0.00887858 0.0112302 0.0087535 0.0170703 0.0890469 0.137599 0.0153816 0.0654814
threshold=-2.2961349999999994e-06 -2.6132299999999998e-06 -1.2159399999999998 -0.47859499999999983 -14.564499999999997 0.51814999999999956 0.71026 0.00061983350000000003 3.2780400000000001e-07 6.0555850000000007e-09 -0.010876149999999998 0.33294350000000006 0.60048999999999852 -6.1887249999999989 -2.6579249999999996 5.9192500000000006e-05 1.8439700000000002e-05 -0.23203099999999996 0.056773999999999998 0.60008550000000016 -9.1244649999999997e-06 -9.8258599999999969 3.1828900000000004 -2.4587249999999997e-05 3.140425000000001e-05 -10.781899999999998 -10.856449999999997 0.0017855900000000003 5.3541850000000006e-05 9.7538050000000017e-06
decision_type=2 2 2 2 2 2 2 2 2 2 2 2 2 2 2 2 2 2 2 2 2 2 2 2 2 2 2 2 2 2
left_child=1 24 -3 5 -5 -4 7 11 9 -9 -11 13 -7 14 -6 16 -8 -18 20 -20 -16 -22 -14 -24 25 26 27 -1 29 -27
right_child=-2 2 3 4 6 12 15 8 -10 10 -12 -13 22 -15 18 -17 17 -19 19 -21 21 -23 23 -25 -26 28 -28 -29 -30 -31
leaf_value=-9.4010956780510725e-05 -2.81862822211582e-06 0.0014596791681469768 -0.0024393736712859803 0.002985799432049548 0.0010099472614702126 0.0011568867330531837 9.2777809334958265e-07 0.0073403601534664633 9.7725873496933168e-06 0.0039815205969297007 0.00035805102692838586 0.0022083999823239125 -8.120852234987193e-06 -0.0014363818607671421 0.0010936420533605423 0.0011497010226303246 -0.0017675522193803771 5.4937569184403405e-05 -0.0022379117049786145 -4.2926810927590718e-05 -0.0014256697678110169 0.00011589645103880242 -0.0014568704905589889 -0.00012752108319700906 8.7709215707402901e-06 0.00010912399443441245 -4.8786648618983559e-05 -0.0055657985938705676 -2.6175282035795098e-05 -0.0032014370849100266
leaf_weight=27 157954 32 23 22 37 34 1492 20 90 26 49 22 2044 20 38 25 20 25 20 79 26 148 24 47 49596 59 248 20 5346 20
leaf_count=27 157954 32 23 22 37 34 1492 20 90 26 49 22 2044 20 38 25 20 25 20 79 26 148 24 47 49596 59 248 20 5346 20
internal_value=0 7.46014e-06 7.64813e-05 6.62614e-05 0.000167349 -3.42214e-05 0.000138334 0.000520818 0.00145271 0.0028197 0.00161419 7.87677e-05 -8.47988e-06 -4.85472e-05 3.12134e-05 -2.46532e-06 -2.12058e-05 -0.000755058 -8.52276e-05 -0.000486358 0.000102093 -0.000114453 -2.72139e-05 -0.000576879 2.01616e-06 -5.65519e-05 -0.000426961 -0.00242243 -3.64099e-05 -0.000728993
internal_weight=0 59679 4363 4331 2159 2172 2137 575 185 95 75 390 2149 368 348 1562 1537 45 311 99 212 174 2115 71 55316 5720 295 47 5425 79
internal_count=217633 59679 4363 4331 2159 2172 2137 575 185 95 75 390 2149 368 348 1562 1537 45 311 99 212 174 2115 71 55316 5720 295 47 5425 79
shrinkage=0.05


Tree=586
num_leaves=31
num_cat=0
split_feature=23 36 36 12 9 9 18 29 4 28 11 35 24 19 4 3 29 34 3 38 34 38 40 40 34 15 21 12 34 20
split_gain=0.00183448 0.0113127 0.0168779 0.0519269 0.0109762 0.012206 0.010918 0.0374257 0.0208924 0.0184865 0.010244 0.00894845 0.00940394 0.0249744 0.0178604 0.0656122 0.00825806 0.0163563 0.00796166 0.0264033 0.0425451 0.0350161 0.0180814 0.0683866 0.0485336 0.013159 0.0101811 0.00899875 0.00595099 0.00409881
threshold=-6.007039999999999 -0.0036820849999999994 -0.0013312399999999998 3.086160000000001e-05 3.7539700000000009e-05 3.5897900000000007e-05 0.00014095500000000004 -0.034806349999999993 0.34232900000000005 -0.00177484 8.4464750000000012e-06 1.6674650000000002 0.82362200000000019 1.0077000000000001e-08 0.8580755000000001 -8.8592349999999982 -0.097607599999999989 0.56775900000000001 -6.4713699999999994 -0.0029691849999999996 0.090098850000000022 -0.0007663809999999999 0.10022550000000004 -0.058960000000000005 0.0069692250000000008 -2.2729399999999997e-07 12.159000000000001 3.3605250000000012e-05 0.61729100000000015 -11.277699999999998
decision_type=2 2 2 2 2 2 2 2 2 2 2 2 2 2 2 2 2 2 2 2 2 2 2 2 2 2 2 2 2 2
left_child=-1 -2 3 -3 5 11 8 -8 10 -10 -6 12 18 -14 28 -16 17 -12 -4 20 -20 -21 23 26 -25 -22 -23 -27 -15 -24
right_child=1 2 4 -5 6 -7 7 -9 9 -11 16 -13 13 14 15 -17 -18 -19 19 21 25 22 29 24 -26 27 -28 -29 -30 -31
leaf_value=-5.6424001281310093e-07 0.0011422965819055326 0.00016288411152740794 5.2233714856677318e-06 -0.002888832504140737 -0.0011767575162356598 0.0010766427612731106 -0.0022571712915053538 -5.9505321042395637e-05 -3.0919843993615359e-05 0.0021188739629724295 -0.0014117612836571426 -0.00066347676815894376 0.001862823279057361 0.00063238758391336253 -0.00053279799675302842 0.0032168356224428862 -1.5273111870647995e-07 0.00021331213537753989 -0.0025638810547388858 0.0018987724947614232 0.00098606085836460506 -7.6728731095847898e-05 -0.00064088279905263337 0.00089457250511701652 0.0038194115415377465 4.6537946274133442e-07 0.00089923906984950013 -0.0012366281776589208 -0.00025338937644442519 3.9573404462996584e-07
leaf_weight=214394 23 46 1682 20 23 31 26 76 20 20 32 40 26 23 28 20 356 30 20 35 24 162 29 37 23 49 32 21 108 177
leaf_count=214394 23 46 1682 20 23 31 26 76 20 20 32 40 26 23 28 20 356 30 20 35 24 162 29 37 23 49 32 21 108 177
internal_value=0 3.73478e-05 2.94455e-05 -0.000761878 4.60257e-05 9.05054e-05 -0.000149823 -0.000619695 -5.01823e-05 0.00104398 -0.000149426 7.84509e-05 9.03408e-05 0.000414784 0.000204454 0.00102955 -9.2898e-05 -0.000625435 6.13094e-05 0.000216214 -0.000469812 0.000374208 0.000258208 0.000540517 0.00201576 -2.42652e-05 8.42556e-05 -0.000370663 -9.78713e-05 -8.98813e-05
internal_weight=0 3239 3216 66 3150 2567 583 102 481 40 441 2536 2496 205 179 48 418 62 2291 609 114 495 460 254 60 94 194 70 131 206
internal_count=217633 3239 3216 66 3150 2567 583 102 481 40 441 2536 2496 205 179 48 418 62 2291 609 114 495 460 254 60 94 194 70 131 206
shrinkage=0.05


Tree=587
num_leaves=31
num_cat=0
split_feature=30 40 5 13 13 40 15 7 37 3 22 19 44 39 12 40 40 34 22 1 22 0 33 1 16 3 8 14 23 0
split_gain=0.00181438 0.0190444 0.0112722 0.026399 0.0973451 0.0298639 0.0207211 0.0321163 0.0288607 0.0816787 0.0289062 0.0294945 0.0338364 0.0652793 0.020822 0.0535902 0.109159 0.0208065 0.0205145 0.0200946 0.0177718 0.0414208 0.0169982 0.0181579 0.048242 0.0180818 0.0594955 0.0833981 0.0235194 0.0163031
threshold=0.053348600000000003 5.6762150000000009 2.1613750000000003e-05 -6.0913899999999993e-05 -7.1201799999999986e-05 -0.0054100000000001361 9.1030600000000033e-06 2.7277450000000004e-05 -6.2538149999999987e-05 -11.746199999999998 2.7533050000000006 0.00017333600000000004 5.9270900000000006 0.12384550000000001 -0.00020892849999999997 -0.19934349999999995 0.24966499999999994 99.159650000000013 -0.81200999999999979 14.818150000000001 2.9137900000000005 -7.3054249999999987 0.0014581450000000003 -7.376174999999999 5.8204250000000011e-06 -10.726899999999999 -7.4956549999999995e-06 0.0075758350000000004 -9.8578649999999985 12.975350000000001
decision_type=2 2 2 2 2 2 2 2 2 2 2 2 2 2 2 2 2 2 2 2 2 2 2 2 2 2 2 2 2 2
left_child=-1 2 6 4 5 -4 14 -8 9 -9 11 -10 17 -14 15 -2 -17 -13 -7 22 -16 -22 25 24 -24 26 28 -28 -5 -27
right_child=1 -3 3 19 -6 18 7 8 10 -11 -12 12 13 -15 20 16 -18 -19 -20 -21 21 -23 23 -25 -26 29 27 -29 -30 -31
leaf_value=6.9446089735756459e-07 -0.00010451866313350693 0.0013750201144527333 0.00079325637524951689 -0.00032668727855909515 0.0028629724672513974 -0.00019446385745790654 0.0019177635963042749 0.0030654183212919313 -0.0019345106623950413 -0.00035392459321883509 0.0015462612892345835 -1.5610622327798199e-05 0.0033387477175676307 -0.00065265108773019168 3.0736860306910548e-05 -0.004791521673323587 -0.00022793210319880595 -0.0014885356143797535 -0.0022097796885013257 0.0012399104082167311 -0.0022381359458638053 -5.9264456376695312e-05 -8.641102917450058e-05 -0.00018761930232071074 0.002277159096459703 -0.0002127325502736551 -0.0039130610780505649 -0.00069082467773729211 0.0018118228789535352 -0.0013200158175979077
leaf_weight=212711 235 24 35 36 33 28 29 31 20 40 30 308 21 20 2577 20 38 26 23 23 29 88 77 285 30 662 28 71 20 35
leaf_count=212711 235 24 35 36 33 28 29 31 20 40 30 308 21 20 2577 20 38 26 23 23 29 88 77 285 30 662 28 71 20 35
internal_value=0 -3.00121e-05 -3.68967e-05 -0.000157639 0.000554388 -0.000331465 1.07541e-05 0.000300447 0.000205886 0.00113903 4.9996e-05 -6.36444e-05 3.61352e-05 0.00139172 -4.01627e-05 -0.000440456 -0.00180158 -0.000130269 -0.00110333 -0.000224515 3.3733e-06 -0.000599327 -0.00025159 2.08919e-05 0.000576272 -0.000376958 -0.00086541 -0.00160216 0.000437066 -0.000268335
internal_weight=0 4922 4898 1386 119 86 3512 525 496 71 425 395 375 41 2987 293 58 334 51 1267 2694 117 1244 392 107 852 155 99 56 697
internal_count=217633 4922 4898 1386 119 86 3512 525 496 71 425 395 375 41 2987 293 58 334 51 1267 2694 117 1244 392 107 852 155 99 56 697
shrinkage=0.05


Tree=588
num_leaves=31
num_cat=0
split_feature=26 1 7 19 15 7 16 3 43 4 18 40 0 2 22 26 2 14 15 38 19 15 40 40 40 14 32 14 18 3
split_gain=0.00182522 0.0189673 0.010902 0.0330459 0.0125065 0.0445682 0.0115899 0.0254314 0.0396363 0.0229342 0.0110003 0.0092713 0.007461 0.0063238 0.00456751 0.00384244 0.0138469 0.010638 0.0363837 0.0545545 0.0356162 0.0261294 0.0298779 0.0258032 0.0836253 0.0244915 0.0247646 0.0137641 0.0171678 0.0363035
threshold=-0.062701649999999984 -13.794199999999998 2.5944250000000002e-05 8.8529750000000019e-08 1.2644850000000001e-05 3.7582300000000008e-05 6.4489550000000005e-07 -8.0060399999999969 -1.39862 -0.58642949999999983 1.5027300000000003e-05 -0.12496499999999998 -6.5153999999999987 -1.7088249999999998 2.8556750000000002 -0.013856449999999998 -2.9939399999999998 0.0036550950000000006 -6.247729999999999e-06 -0.13745849999999996 0.0011030500000000002 -1.8735799999999998e-06 0.46240350000000002 -0.57440449999999987 0.43531000000000003 0.0050185850000000016 11.695650000000002 0.0013144900000000002 -1.1273899999999999e-05 -7.4119349999999988
decision_type=2 2 2 2 2 2 2 2 2 2 2 2 2 2 2 2 2 2 2 2 2 2 2 2 2 2 2 2 2 2
left_child=1 -1 3 -3 6 -6 14 8 11 -9 -11 -8 -7 -14 -4 16 -2 18 19 -18 23 22 -20 -19 -25 -22 -27 28 29 -23
right_child=15 2 4 -5 5 12 7 9 -10 10 -12 -13 13 -15 -16 -17 17 20 21 -21 25 27 -24 24 -26 26 -28 -29 -30 -31
leaf_value=0.0015937114495318382 -0.0013205546101248316 0.0023529344592316194 -1.7714479170592643e-05 -4.511341622656248e-05 0.0020178474584650811 0.00075792548209985559 -0.0011961383201802771 0.0016778685724213056 -0.0029392535424631206 -0.00099709123734590755 0.00054150488971832348 -0.00011961047783188406 -0.00094819388201964705 -1.571227249223739e-05 0.00070471164875451236 3.0641100054901185e-07 0.0024973614792543233 -0.000275587628027751 -0.0023023510149128182 1.9460275645291531e-05 -0.0017366715267417021 0.00016376102010124468 -0.00010205125045735663 -0.0040257654812497403 -0.00014681999446386756 -6.6887694735044231e-05 0.0013264371986900058 0.00044331026694252574 5.1879101357491963e-06 -0.0017833880125138865
leaf_weight=20 22 20 449 51 33 23 30 21 20 26 21 60 24 75 23 214986 36 57 27 58 20 54 36 24 33 359 35 152 795 43
leaf_count=20 22 20 449 51 33 23 30 21 20 26 21 60 24 75 23 214986 36 57 27 58 20 54 36 24 33 359 35 152 795 43
internal_value=0 7.1216e-05 3.64558e-05 0.000630393 -1.59287e-05 0.000387653 -0.000112167 -0.000455974 -0.000925871 0.000304154 -0.000309633 -0.000478453 -5.33015e-05 -0.000241768 1.74885e-05 -2.9441e-07 -7.40626e-05 -5.82021e-05 2.40311e-05 0.000968444 -0.000245251 -5.61629e-05 -0.00104504 -0.00102782 -0.00178006 -2.97604e-05 5.68848e-05 3.5105e-06 -7.1433e-05 -0.000699408
internal_weight=0 896 876 71 805 155 650 178 110 68 47 90 122 99 472 216737 1751 1729 1201 94 528 1107 63 114 57 414 394 1044 892 97
internal_count=217633 896 876 71 805 155 650 178 110 68 47 90 122 99 472 216737 1751 1729 1201 94 528 1107 63 114 57 414 394 1044 892 97
shrinkage=0.05


Tree=589
num_leaves=31
num_cat=0
split_feature=12 23 19 43 3 21 19 40 40 27 0 28 15 21 40 21 32 43 32 3 21 19 21 13 9 26 32 12 3 10
split_gain=0.00182853 0.0072121 0.0569201 0.0243034 0.0352376 0.0335738 0.0319239 0.130181 0.237879 0.199469 0.0379686 0.0117866 0.0108814 0.00988616 0.0320818 0.00905177 0.0131647 0.0248034 0.00780904 0.0257321 0.0168075 0.0236068 0.0165226 0.0801985 0.00893076 0.00769774 0.0212762 0.118252 0.0599519 0.0187025
threshold=-0.00029231849999999997 -15.479399999999998 5.5624400000000012e-07 -2.9452350000000007 -19.074649999999995 -3.1868999999999996 0.0006688480000000001 -0.018010000000000078 0.20129000000000011 0.51768300000000012 0.53133500000000011 -1.7331449999999997 3.0566700000000009e-07 -4.467719999999999 -0.3819765 -8.9484099999999973 4.7390700000000008 4.6757400000000002 0.43851750000000006 -13.614249999999998 -3.9665599999999999 0.0078562650000000029 -4.784279999999999 -4.2631049999999996e-05 1.7606750000000002e-05 0.00063056350000000006 5.9680600000000004 -0.0003970589999999999 -16.722199999999997 2.7034150000000006e-05
decision_type=2 2 2 2 2 2 2 2 2 2 2 2 2 2 2 2 2 2 2 2 2 2 2 2 2 2 2 2 2 2
left_child=1 2 -1 -4 5 -5 7 13 9 -9 -10 -8 -7 -6 -15 -13 18 -18 22 20 21 -20 23 -17 -22 -3 -27 28 -28 -30
right_child=-2 25 3 4 6 12 11 8 10 -11 -12 15 -14 14 -16 16 17 -19 19 -21 24 -23 -24 -25 -26 26 27 -29 29 -31
leaf_value=0.002147920004922939 -1.5870630300941864e-06 -6.523918498274018e-06 0.0017563503323582978 -0.0027354017041424025 0.00073796536235022365 -0.00097467365163278637 0.001190627893499498 0.0085389430471695966 -0.00038664203483645466 0.001561847295878189 0.0021397489072114695 -0.00069391671663059096 0.00055232849259482467 -6.7334041220831601e-06 -0.0020834816066781061 0.0034919456475472547 0.0021767956532130484 0.00010486503323101295 -0.0027130245035302571 6.1120861580797156e-05 0.0001362498190048981 -0.00063409363241993973 -1.8456677699435437e-06 4.7496899684962598e-05 -0.0010535633966355818 6.1282984468900484e-05 0.0022211182513274252 0.0039631057899026456 -0.0021039282008793883 -0.00023297210416999673
leaf_weight=33 194330 18619 21 21 35 28 21 20 58 21 20 46 20 265 20 20 20 52 22 283 46 36 2054 109 24 1290 20 23 22 34
leaf_count=33 194330 18619 21 21 35 28 21 20 58 21 20 46 20 265 20 20 20 52 22 283 46 36 2054 109 24 1290 20 23 22 34
internal_value=0 1.32349e-05 8.17789e-05 6.08768e-05 4.9891e-05 -0.00106794 7.4207e-05 0.000469982 0.00188191 0.00496531 0.000261151 1.06338e-05 -0.000338423 -5.50787e-05 -0.00015247 1.4967e-06 1.34956e-05 0.000680401 -5.01529e-06 -0.000204951 -0.000793218 -0.00142265 3.26272e-05 0.00058152 -0.000271686 1.94685e-06 0.000115494 0.000821882 -0.000128751 -0.000967991
internal_weight=0 23303 3295 3262 3241 69 3172 439 119 41 78 2733 48 320 285 2712 2666 72 2594 411 128 58 2183 129 70 20008 1389 99 76 56
internal_count=217633 23303 3295 3262 3241 69 3172 439 119 41 78 2733 48 320 285 2712 2666 72 2594 411 128 58 2183 129 70 20008 1389 99 76 56
shrinkage=0.05


Tree=590
num_leaves=31
num_cat=0
split_feature=1 21 43 44 21 7 24 3 14 3 23 6 11 19 32 14 36 0 40 40 44 3 21 25 12 10 43 33 14 33
split_gain=0.00183275 0.00666602 0.0305512 0.0447828 0.0888507 0.123077 0.215967 0.0944751 0.122589 0.0933951 0.0669684 0.0667086 0.143131 0.0634435 0.168397 0.0365579 0.0629799 0.0353747 0.0371161 0.0467575 0.0383958 0.0326764 0.119356 0.246019 0.0689339 0.137434 0.0475834 0.0778703 0.0433174 0.0371841
threshold=5.9655550000000011 7.1162100000000006 -0.026199999999999776 0.87140500000000032 9.8452300000000026 2.8093650000000005e-05 -0.092714749999999985 -8.7018349999999973 0.00037336950000000003 -7.5517599999999989 -8.2009299999999978 5.341650000000001e-07 -4.2280249999999992e-06 6.1128050000000005e-06 -0.27584949999999991 0.00070374100000000013 -0.0043768949999999996 7.5113150000000006 0.077348000000000056 -0.058960000000000005 0.19419999999999996 -7.9686699999999986 10.335750000000003 6.2236100000000008 0.0001006575 1.1666750000000001e-05 0.85052500000000031 -7.8596449999999982e-06 0.00045608700000000004 -1.0416649999999998e-05
decision_type=2 2 2 2 2 2 2 2 2 2 2 2 2 2 2 2 2 2 2 2 2 2 2 2 2 2 2 2 2 2
left_child=-1 -2 3 4 7 6 -6 8 -3 -8 -7 -10 -13 14 -12 16 -9 18 19 -18 -21 22 24 -24 26 -26 27 -4 -27 -30
right_child=1 2 21 -5 5 10 9 15 11 -11 13 12 -14 -15 -16 -17 17 -19 -20 20 -22 -23 23 -25 25 28 -28 -29 29 -31
leaf_value=-2.5632835305584008e-06 1.6626102959392859e-05 -0.0044862111487335909 0.0034698464320432063 -1.6653371231901401e-05 -0.006158998259109337 -0.0029549902224411759 -0.0040158813080051915 0.0026688745969093161 0.00035492624297199819 -7.0522306705242949e-05 -0.0053299250763042703 0.00021449927195546126 -0.0052108361421778684 0.00010967629175554436 -0.00047348210169393729 -0.00027880362815439893 -0.00018620403510901859 -0.0012409228766045999 -0.00028768101669442869 0.0011916168161119815 0.0035684755180097581 -1.1996663878343708e-05 0.005503392439754862 0.00052226935414761435 -0.0042108420048448765 -0.0023596317280732497 -0.00030768835272169785 0.00065622810036056948 -0.0010292071618271227 0.0002226408577026468
leaf_weight=165868 42436 22 28 2086 28 26 20 36 89 60 21 31 20 270 119 137 51 28 74 89 21 5213 32 110 22 21 100 202 74 299
leaf_count=165868 42436 22 28 2086 28 26 20 36 89 60 21 31 20 270 119 137 51 28 74 89 21 5213 32 110 22 21 100 202 74 299
internal_value=0 8.2134e-06 -3.00545e-05 -0.000154449 -0.000406149 -0.000868549 -0.00237964 1.44969e-05 -0.00101652 -0.00105686 -0.000494243 -0.000471277 -0.00191308 -0.000338196 -0.00120195 0.000397579 0.000707494 0.000439016 0.000639179 0.00106519 0.00164538 3.57617e-05 0.000316127 0.00164478 6.32204e-05 -0.000364862 0.000602863 0.000998756 -0.000150112 -2.5715e-05
internal_weight=0 51765 9329 3228 1142 544 108 598 162 80 436 140 51 410 140 436 299 263 235 161 110 6101 888 142 746 416 330 230 394 373
internal_count=217633 51765 9329 3228 1142 544 108 598 162 80 436 140 51 410 140 436 299 263 235 161 110 6101 888 142 746 416 330 230 394 373
shrinkage=0.05


Tree=591
num_leaves=31
num_cat=0
split_feature=19 33 30 13 33 9 1 40 40 14 29 7 2 29 29 9 31 11 11 23 2 40 40 10 11 16 40 22 40 32
split_gain=0.00177832 0.0406508 0.0873868 0.0299931 0.0214857 0.0883451 0.0266158 0.0089135 0.0208428 0.00569604 0.00307813 0.00241241 0.00727071 0.00722595 0.024887 0.0151288 0.0145664 0.048049 0.0129491 0.0206086 0.0144777 0.00932606 0.125923 0.132166 0.0426159 0.0231301 0.172017 0.0123388 0.0112492 0.0121202
threshold=1.1921100000000003e-10 -3.5620349999999992e-05 0.0080523800000000013 1.1791850000000001e-06 -5.1285049999999996e-06 1.9954650000000004e-05 -6.7241199999999983 -0.058960000000000005 0.056773999999999998 0.0007810015000000002 -0.0035217549999999997 2.2278700000000004e-05 3.0794900000000003 0.015602350000000003 0.016084300000000003 -1.7830049999999997e-05 0.18225650000000002 -7.7805099999999985e-06 -7.2289149999999995e-05 -11.761549999999998 -2.2968949999999997 -0.079468000000000025 -0.027530000000000051 1.2120050000000001e-05 3.0128700000000004e-06 2.1242850000000004e-06 0.1751400000000001 2.1326650000000007 -0.12496499999999998 0.038984450000000011
decision_type=2 2 2 2 2 2 2 2 2 2 2 2 2 2 2 2 2 2 2 2 2 2 2 2 2 2 2 2 2 2
left_child=1 2 -1 -3 5 6 -5 10 -9 -4 -8 12 13 16 -15 -16 21 -18 19 -17 -20 28 23 24 -23 27 -27 -24 -2 -30
right_child=11 3 9 4 -6 -7 7 8 -10 -11 -12 -13 -14 14 15 18 17 -19 20 -21 -22 22 25 -25 -26 26 -28 -29 29 -31
leaf_value=0.0027060327839139157 -1.7171532406090408e-05 -0.0015539437764489706 -2.4477234605001285e-05 -0.001294754002044915 5.0233761034943077e-05 -0.0031078664786287724 -5.4937571638385478e-06 0.0016675821909302613 -2.8673380499061422e-05 -0.0011565588849043707 -0.00079159651771988138 -6.0054397881029711e-07 0.0009834073903039098 -0.0016857199092100929 -0.0014163265546085315 -0.0020513098468654791 0.0027657506607716813 -0.00013071459810008593 0.0010772101138436776 8.3559234022127039e-05 -2.2605331435820186e-05 0.0022537342786866552 1.6640705907164035e-05 0.005558382353878448 -0.00097121758110006349 0.0040609543648315594 4.4228199098424404e-05 -0.00094281257770489901 -6.7234962140598028e-05 -0.0017338307043246459
leaf_weight=39 2152 38 25 38 542 29 33 27 55 20 20 210816 20 24 20 20 21 45 31 26 861 21 2322 21 20 30 239 34 24 20
leaf_count=39 2152 38 25 38 542 29 33 27 55 20 20 210816 20 24 20 20 21 45 31 26 861 21 2322 21 20 30 239 34 24 20
internal_value=0 -7.15073e-05 0.000973716 -0.000183782 -0.000113801 -0.000553932 -0.000125816 0.000203218 0.00052985 -0.000527625 -0.000302136 2.85677e-07 3.16803e-05 2.8471e-05 -9.54248e-05 -5.55844e-05 5.30549e-05 0.000790888 -2.65707e-05 -0.000844645 1.5617e-05 4.30821e-05 0.00010555 0.00233274 0.000680587 5.2946e-05 0.00049219 2.79461e-06 -3.33531e-05 -0.000824778
internal_weight=0 866 84 782 744 202 173 135 82 45 53 216767 5951 5931 982 958 4949 66 938 46 892 4883 2687 62 41 2625 269 2356 2196 44
internal_count=217633 866 84 782 744 202 173 135 82 45 53 216767 5951 5931 982 958 4949 66 938 46 892 4883 2687 62 41 2625 269 2356 2196 44
shrinkage=0.05


Tree=592
num_leaves=31
num_cat=0
split_feature=5 10 26 38 2 21 40 40 9 22 6 29 29 22 4 29 43 19 43 20 19 44 44 1 20 2 21 19 23 43
split_gain=0.00174724 0.0138007 0.0126627 0.010484 0.0426997 0.0104244 0.0094994 0.0276803 0.00942901 0.0518873 0.0697521 0.0239848 0.0985492 0.0157017 0.0238442 0.0147611 0.0165819 0.00824541 0.036978 0.00689391 0.0394158 0.00618162 0.0259929 0.039201 0.0257844 0.0567021 0.02918 0.0203409 0.098806 0.421278
threshold=3.4653000000000009e-05 2.5132750000000004e-05 -0.028182349999999998 -3.2628099999999995 1.8038550000000002 -19.754149999999996 0.40779500000000007 -0.19934349999999995 -7.8930349999999975e-05 3.0438950000000005 -1.3171099999999997e-06 0.022351850000000003 0.024486450000000003 -3.0099549999999993 0.060991550000000005 0.18537850000000003 1.9002500000000004 3.865525000000001e-10 0.10586500000000011 -19.608449999999998 0.00020669100000000003 -0.20255000000000042 -0.52047500000000058 11.791050000000002 -4.9373099999999992 2.0823550000000006 -7.905149999999999 0.00047256250000000005 -10.712249999999999 -0.61387499999999962
decision_type=2 2 2 2 2 2 2 2 2 2 2 2 2 2 2 2 2 2 2 2 2 2 2 2 2 2 2 2 2 2
left_child=8 -2 6 4 -4 -5 7 -3 9 11 -11 13 -13 14 -1 -14 -17 18 -7 20 -19 22 -21 24 25 26 -24 28 29 -23
right_child=1 2 3 5 -6 17 -8 -9 -10 10 -12 12 15 -15 -16 16 -18 19 -20 21 -22 27 23 -25 -26 -27 -28 -29 -30 -31
leaf_value=0.00023360236787993926 0.0013244722596937209 -0.00027956903852499658 -9.4448855961672965e-06 -0.00060650866453750712 0.0025907070084940642 -0.0023633745491679296 -6.4410805521765733e-05 -0.0022423834651580485 -4.5476828264696239e-07 -5.4470068887614904e-05 -0.0039820592122850945 -0.00369893760264197 -2.8842547218826238e-05 1.2957788931277428e-05 -0.0022079259478277893 -0.0018896666002110579 -0.0003177155997357605 0.0023313981711544328 2.3504693097514298e-05 1.0595855916961285e-05 -0.00049814885996966039 -0.00011723523977999711 -0.001929305414122003 -0.0022844633530174482 -2.1137261401585979e-05 -0.00246417722869164 -5.2419280144094474e-05 1.8326096822054108e-05 0.00010738773226771578 0.0076825530929098655
leaf_weight=20 20 82 75 68 20 20 125 23 186481 26 20 22 225 2079 20 25 51 20 86 20254 32 70 24 24 468 37 151 6049 993 23
leaf_count=20 20 82 75 68 20 20 125 23 186481 26 20 22 225 2079 20 25 51 20 86 20254 32 70 24 24 468 37 151 6049 993 23
internal_value=0 1.1503e-05 1.05862e-05 1.35772e-05 0.000537956 1.18181e-05 -0.000358917 -0.000709519 -1.74485e-06 -9.84389e-05 -0.00176212 -6.71002e-05 -0.000468456 -5.9213e-06 -0.000987162 -0.000232341 -0.000834805 1.33064e-05 -0.00042685 1.49641e-05 0.000590138 1.38995e-05 2.1452e-07 -0.000298455 -0.000228361 -0.000685817 -0.000309821 5.40971e-05 0.000253341 0.00181174
internal_weight=0 28664 28644 28414 95 28319 230 105 188969 2488 46 2442 323 2119 40 301 76 28251 106 28145 52 28093 20958 704 680 212 175 7135 1086 93
internal_count=217633 28664 28644 28414 95 28319 230 105 188969 2488 46 2442 323 2119 40 301 76 28251 106 28145 52 28093 20958 704 680 212 175 7135 1086 93
shrinkage=0.05


Tree=593
num_leaves=31
num_cat=0
split_feature=5 20 0 43 9 39 25 12 43 40 0 36 9 0 0 8 40 20 40 8 25 26 4 29 25 3 10 43 28 7
split_gain=0.00176629 0.0102847 0.0724919 0.127366 0.12002 0.0883683 0.125306 0.0857324 0.0663306 0.0907955 0.0248188 0.0196803 0.016071 0.0149524 0.0159875 0.00989587 0.0213695 0.182393 0.0621068 0.110555 0.198227 0.18558 0.0823132 0.0701036 0.0890595 0.05131 0.0437165 0.0427385 0.0245808 0.0228064
threshold=1.6628950000000003e-05 14.554100000000002 12.168450000000002 1.8568299999999998 2.9275850000000002e-05 0.0015197350000000001 3.3858250000000005 -3.0781449999999993e-05 0.93421999999999994 0.10022550000000004 8.2756850000000011 0.34392800000000007 3.5461000000000012e-05 6.9051650000000011 5.8791150000000014 1.3746700000000002e-05 -0.058960000000000005 8.6104250000000011 0.14973499999999998 1.4299350000000002e-05 1.8789550000000002 0.00010374500000000002 0.047281200000000002 -0.029146949999999994 2.4608900000000005 -6.1678749999999996 1.5958700000000004e-05 -0.12174999999999957 -0.96676949999999995 3.0854000000000006e-05
decision_type=2 2 2 2 2 2 2 2 2 2 2 2 2 2 2 2 2 2 2 2 2 2 2 2 2 2 2 2 2 2
left_child=1 15 4 -4 10 6 -6 -7 11 -10 13 12 -9 14 -3 -1 28 18 19 20 27 23 -23 -21 25 26 -25 -18 -17 -27
right_child=-2 2 3 -5 5 7 -8 8 9 -11 -12 -13 -14 -15 -16 16 17 -19 -20 21 -22 22 -24 24 -26 29 -28 -29 -30 -31
leaf_value=1.641939465253493e-06 -5.0630169266714568e-06 -4.0904462261198666e-05 0.0042916912237415091 -0.0004095673603146947 -0.00043952689370295651 -0.0026750416044729395 -0.0048432234978515358 -0.00062396330117322086 0.0038077976269546942 -0.00039219006612256635 0.0013197291804785242 0.0001427858536480926 -0.0024948727011784894 -0.0013545037783582563 0.0011305290967720794 0.0015134944226937715 0.0026075059961840454 0.0049408883194701049 -2.0938124856998047e-07 -0.0022597363888053226 0.0064424083649646498 -0.0010458046829120982 -0.005046471401583404 0.0025171217075915069 0.0033879758316379596 -0.0022399345121084479 0.00057109184731357144 0.00046020066774439159 1.4536184363232338e-06 -6.0179478314239535e-05
leaf_weight=111765 96153 1000 25 34 30 39 35 22 22 31 35 25 24 21 30 27 32 20 1757 20 20 36 20 33 30 20 230 84 5983 30
leaf_count=111765 96153 1000 25 34 30 39 35 22 22 31 35 25 24 21 30 27 32 20 1757 20 20 36 20 33 30 20 230 84 5983 30
internal_value=0 4.00744e-06 -0.000132062 0.00158249 -0.000209048 -0.00125196 -0.00281075 -0.000630353 1.27352e-05 0.0013512 9.90548e-06 -0.000986401 -0.00160009 -3.37138e-05 -6.78504e-06 5.56292e-06 5.80957e-05 0.000186567 0.000145439 0.000606529 0.00184519 0.000204483 -0.00247461 0.000617787 0.000785572 0.000536141 0.00081527 0.00105256 8.24648e-06 -0.000932081
internal_weight=0 121480 1373 59 1314 228 65 163 124 53 1086 71 46 1051 1030 120107 8342 2332 2312 555 136 419 56 363 343 313 263 116 6010 50
internal_count=217633 121480 1373 59 1314 228 65 163 124 53 1086 71 46 1051 1030 120107 8342 2332 2312 555 136 419 56 363 343 313 263 116 6010 50
shrinkage=0.05


Tree=594
num_leaves=31
num_cat=0
split_feature=19 14 20 15 20 14 28 30 12 40 40 3 40 10 12 13 13 40 40 7 14 43 14 19 17 3 43 7 34 14
split_gain=0.00179391 0.00842213 0.0197335 0.133346 0.0147901 0.006934 0.0290948 0.0068246 0.0295318 0.0448228 0.0566878 0.0970683 0.035 0.0311184 0.020082 0.0147656 0.0231732 0.0232678 0.038926 0.0192584 0.0232025 0.0798768 0.0153997 0.0245772 0.0198235 0.0434498 0.0778983 0.0273124 0.0162367 0.0414868
threshold=0.0024010250000000006 0.00029103850000000009 9.7253800000000012 1.3231850000000003e-06 -11.702999999999998 0.00029902350000000005 0.0065032050000000006 0.053348600000000003 -0.00013742649999999999 -0.32870999999999989 0.2761725000000001 -9.949049999999998 -0.71412249999999966 2.0063250000000001e-05 -0.00012908049999999998 0.00019235650000000003 0.00010299250000000001 0.20129000000000011 -1.2951254999999999 6.1374150000000009e-05 0.0086891900000000011 -2.39771 0.0035378750000000007 0.00086743600000000008 -1.4690199999999997e-06 -7.4497099999999987 2.8998450000000005 3.7305750000000001e-05 2.6849000000000003 0.00014136750000000003
decision_type=2 2 2 2 2 2 2 2 2 2 2 2 2 2 2 2 2 2 2 2 2 2 2 2 2 2 2 2 2 2
left_child=7 2 4 -4 -2 6 -3 -1 9 12 11 -11 -9 -12 -10 16 19 18 -18 20 22 -22 24 -24 25 26 -16 -27 29 -26
right_child=1 5 3 -5 -6 -7 -8 8 14 10 13 -13 -14 -15 15 -17 17 -19 -20 -21 21 -23 23 -25 28 27 -28 -29 -30 -31
leaf_value=-1.1552364282934971e-06 0.0011754347146294701 0.00011221630128781208 -0.00037410500997623334 0.0038721434565209519 4.9074509314461609e-05 5.4829100527380521e-06 -0.002109432330271375 -0.0003070764009016439 0.001157527882807901 -0.0046031951714583024 0.0011372323720327891 -0.0003228576737456024 0.0016363491634838285 -0.0012142813054250676 0.0042174320129561241 0.00096276840560824146 -0.00022154154801021583 -0.00020985668790624961 -0.0032693532228586265 -0.00026016543570655078 -0.00096469669647160036 0.003396298528449344 -0.00019057243796209258 -0.0021386501217784829 -0.00039597904938273138 0.0013795455067884179 0.00023960679964147858 -0.00083369064273226649 1.7266482023037588e-06 0.0026592660325695759
leaf_weight=156262 30 56 64 26 1022 56530 20 316 36 27 24 26 25 34 20 37 22 77 20 630 21 21 85 20 25 20 32 46 2039 20
leaf_count=156262 30 56 64 26 1022 56530 20 316 36 27 24 26 25 34 20 37 22 77 20 630 21 21 85 20 25 20 32 46 2039 20
internal_value=0 7.55341e-06 0.000141988 0.000852589 8.1195e-05 4.84126e-06 -0.000472428 -2.72818e-06 -7.057e-05 -0.000448673 -0.00132137 -0.00250341 -0.000164597 -0.000241241 -1.66746e-05 -3.01582e-05 -4.20169e-05 -0.000726218 -0.00167288 -1.46857e-05 5.11518e-05 0.0012158 2.99489e-05 -0.000561635 5.81579e-05 0.00068862 0.00176954 -0.000163013 2.24599e-05 0.000961908
internal_weight=0 57748 1142 90 1052 56606 76 159885 3623 452 111 53 341 58 3171 3135 3098 119 42 2979 2349 42 2307 105 2202 118 52 66 2084 45
internal_count=217633 57748 1142 90 1052 56606 76 159885 3623 452 111 53 341 58 3171 3135 3098 119 42 2979 2349 42 2307 105 2202 118 52 66 2084 45
shrinkage=0.05


Tree=595
num_leaves=31
num_cat=0
split_feature=21 41 8 7 0 6 23 43 32 26 0 37 26 37 1 1 16 29 15 36 12 9 28 35 4 1 26 40 41 10
split_gain=0.00180531 0.0290616 0.0149765 0.0526216 0.0302054 0.0608439 0.0197282 0.053683 0.0143415 0.0178861 0.0326095 0.034144 0.0141414 0.0134512 0.0107534 0.0174898 0.0485222 0.0377222 0.0190345 0.0168733 0.0165285 0.0104358 0.0158904 0.00968536 0.00911043 0.0440346 0.15349 0.0138589 0.0321045 0.0392104
threshold=-13.388899999999998 4.6270000000000016 1.4108500000000001e-05 2.7447650000000005e-05 10.302050000000003 1.3627200000000002e-05 -11.970249999999998 6.5436949999999996 20.036400000000004 -0.0011493749999999998 5.8026400000000011 6.3099400000000006e-06 -0.00026235999999999995 -1.7368199999999998e-07 -10.856449999999997 -6.4490099999999995 1.3186150000000004e-06 -0.062948099999999993 -1.2833349999999995e-07 0.00021640350000000003 -4.2234949999999994e-05 -2.8181699999999998e-05 -0.65584149999999986 0.0048012500000000008 -0.51868499999999995 -3.4017299999999993 0.00045620850000000006 0.83132200000000001 0.32610899999999998 2.9157150000000003e-05
decision_type=2 2 2 2 2 2 2 2 2 2 2 2 2 2 2 2 2 2 2 2 2 2 2 2 2 2 2 2 2 2
left_child=1 2 14 -4 6 -6 7 -5 9 10 11 -8 -11 -14 19 16 18 -18 -16 -1 -21 -13 -23 -9 25 26 -17 28 29 -26
right_child=-2 -3 3 4 5 -7 8 23 -10 12 -12 21 13 -15 15 24 17 -19 -20 20 -22 22 -24 -25 27 -27 -28 -29 -30 -31
leaf_value=0.0018039732515171638 -5.8203602406333723e-07 0.0016400046600080845 0.0027526284137275071 0.0026198530664529513 0.0034649949828599348 -0.00020322956143690345 -0.0021953571141542245 0.00066487333885258224 0.0012479204897924015 0.0012028845386036361 0.001371841168465835 0.0003081331495961518 -0.0011814186428223778 9.3080973816447507e-05 0.001104714612839075 -0.00041804899482778668 -0.0030140120630945872 -0.00065967328555416316 -0.00024176399198408134 0.0011588772134432062 -0.00062144005546542762 -0.0015506442794503529 -7.1695921152630556e-05 -0.00066387040333211196 -5.1138486967964261e-05 -3.4681242277862339e-05 0.0037247547247615228 3.2936579413179217e-05 3.0671016404287201e-05 -0.0013806207744876207
leaf_weight=20 214135 28 20 27 20 26 33 24 21 27 20 38 22 351 32 59 27 46 146 22 32 32 42 32 108 442 36 1291 360 114
leaf_count=20 214135 28 20 27 20 26 33 24 21 27 20 38 22 351 32 59 27 46 146 22 32 32 42 32 108 442 36 1291 360 114
internal_value=0 3.56302e-05 2.26842e-05 0.00022306 0.000152303 0.00139165 6.70864e-05 0.000788544 -3.50995e-05 -8.2787e-05 -0.000520805 -0.000781859 9.78952e-05 1.79094e-05 -3.11646e-05 -4.76978e-05 -0.0004449 -0.00153046 2.99577e-07 0.000563361 0.000103874 -0.000365382 -0.000711241 -9.44088e-05 -6.3294e-06 0.000175228 0.00115186 -5.83828e-05 -0.000260949 -0.000733846
internal_weight=0 3498 3470 735 715 46 669 83 586 565 165 145 400 373 2735 2661 251 73 178 74 54 112 74 56 2410 537 95 1873 582 222
internal_count=217633 3498 3470 735 715 46 669 83 586 565 165 145 400 373 2735 2661 251 73 178 74 54 112 74 56 2410 537 95 1873 582 222
shrinkage=0.05


Tree=596
num_leaves=31
num_cat=0
split_feature=21 3 4 44 43 40 2 20 26 40 40 40 12 8 23 17 40 12 14 12 43 8 24 13 24 24 26 8 9 40
split_gain=0.00176959 0.00611579 0.0327954 0.00738649 0.0219067 0.053553 0.190713 0.0782518 0.0236943 0.0275048 0.0126929 0.0438092 0.12488 0.0167438 0.0110789 0.00922075 0.0104103 0.00900459 0.0084677 0.00846091 0.0641495 0.019208 0.032427 0.0181391 0.0330245 0.0241162 0.0152205 0.0118551 0.0106819 0.00788279
threshold=13.390900000000002 -4.7500199999999992 -0.062481749999999996 -1.8692049999999989 0.55890500000000032 -0.22452634999999985 1.1724700000000003 -6.6230499999999992 -0.00011051649999999998 0.077348000000000056 0.056773999999999998 -0.3819765 5.2782450000000008e-05 -2.3363949999999995e-05 -8.326019999999998 -3.0819049999999996e-06 0.2761725000000001 5.5422750000000004e-05 0.00010606000000000001 0.00010937550000000001 0.10586500000000011 -2.1553249999999996e-05 0.09559055000000001 0.00020297300000000004 0.73617500000000013 0.91519300000000003 -0.0037174099999999996 -1.7936499999999997e-05 -3.4518649999999996e-06 0.1751400000000001
decision_type=2 2 2 2 2 2 2 2 2 2 2 2 2 2 2 2 2 2 2 2 2 2 2 2 2 2 2 2 2 2
left_child=-1 3 -3 10 19 -6 -7 -8 -9 -10 11 13 -13 -2 15 -12 -17 -11 -18 21 23 22 -5 25 -25 26 28 -23 -21 -29
right_child=1 2 -4 4 5 6 7 8 9 17 14 12 -14 -15 -16 16 18 -19 -20 20 -22 27 -24 24 -26 -27 -28 29 -30 -31
leaf_value=-5.5486498847802741e-07 -0.0012659011898116055 0.0021374481020393432 -0.00053388900251707971 -0.00032810447386321452 -4.8485463800994945e-05 0.0047013385233003651 0.002907169570115305 0.0013362689222412884 -0.0022053048432280776 0.00020389837409798668 -0.0010808978272947454 -0.00083189543891841401 0.0043521583087221235 -3.7079618612626465e-05 -0.001326707691548328 0.00092823528524604631 0.00014138974411386751 -0.0010320484227850102 -0.00059441800801086301 -0.00024200173545631557 -0.0024997862274176441 -0.00088576599648929142 0.001932789510132612 0.00011721683703848313 0.0022276738459844465 -0.0016623340087140344 3.3298700953207825e-06 -8.7254698249935531e-06 -0.0018565864428819624 0.00029943020179404008
leaf_weight=214386 30 20 27 29 271 30 24 20 20 56 31 26 21 365 29 20 68 20 92 21 28 35 35 158 21 28 274 1176 20 252
leaf_count=214386 30 20 27 29 271 30 24 20 20 56 31 26 21 365 29 20 68 20 92 21 28 35 35 158 21 28 274 1176 20 252
internal_value=0 3.66354e-05 0.00060285 2.83192e-05 6.78539e-05 0.000387912 0.00108358 0.000308348 -0.000229339 -0.000555508 -0.000117646 4.13008e-05 0.00148438 -0.000130408 -0.000410373 -0.000284432 -0.000147262 -0.000121351 -0.0002817 -1.02689e-07 -0.000168253 6.04624e-05 0.000908322 -4.31903e-05 0.000364812 -0.000256113 -0.000131115 2.33721e-05 -0.0010296 4.56549e-05
internal_weight=0 3247 47 3200 2518 441 170 140 116 96 682 442 47 395 240 211 180 76 160 2077 550 1527 64 522 179 343 315 1463 41 1428
internal_count=217633 3247 47 3200 2518 441 170 140 116 96 682 442 47 395 240 211 180 76 160 2077 550 1527 64 522 179 343 315 1463 41 1428
shrinkage=0.05


Tree=597
num_leaves=31
num_cat=0
split_feature=44 23 23 3 32 24 44 38 20 0 14 5 43 33 40 40 13 33 24 14 40 40 26 22 15 13 37 40 40 14
split_gain=0.00175238 0.0191888 0.0406949 0.0189554 0.0882527 0.0307148 0.0201006 0.050594 0.0449498 0.120791 0.206905 0.0542827 0.0634311 0.116105 0.153231 0.319763 0.310979 0.0773643 0.0938814 0.0540533 0.0840093 0.435552 0.0518537 0.0591762 0.0545589 0.0643072 0.0514913 0.0483785 0.151425 0.15408
threshold=0.81788000000000027 -17.728849999999998 -17.289999999999996 -18.627349999999996 -0.58764449999999979 0.25201650000000003 0.23534999999999953 1.8271150000000003 8.3915400000000009 7.8324700000000016 6.2945500000000009e-05 9.8828500000000014e-06 -0.56159999999999977 -5.4458249999999988e-06 0.20129000000000011 -0.30278099999999991 2.3229900000000003e-05 -1.8227649999999998e-06 0.15353800000000004 0.00015957750000000003 -0.079468000000000025 0.10022550000000004 0.0033062250000000007 2.9809550000000002 -5.525729999999999e-07 1.5725600000000004e-05 8.5454350000000004e-08 -0.12496499999999998 0.1751400000000001 0.0023552050000000004
decision_type=2 2 2 2 2 2 2 2 2 2 2 2 2 2 2 2 2 2 2 2 2 2 2 2 2 2 2 2 2 2
left_child=3 -2 -3 4 -1 -6 -5 8 11 -10 -11 12 -8 14 15 -14 -17 18 -15 20 -12 -22 -13 24 25 -24 -18 -19 29 -29
right_child=1 2 -4 6 5 -7 7 -9 9 10 19 22 13 17 -16 16 26 27 -20 -21 21 -23 23 -25 -26 -27 -28 28 -30 -31
leaf_value=0.0032708270464208906 -0.0011988618430526308 0.0017365111815332271 6.2706417968993289e-06 1.3930235686712941e-06 -0.00057301976042950845 0.0012133586920598256 -0.00013876258859485166 0.0019136179826091393 -9.8879512719765393e-05 -0.0058718739596026193 -0.00010798406274706513 -0.00011038621346803385 1.873142636296424e-06 -0.00033130872383574177 -0.00012126951963213021 0.0090653261125057567 0.0037565013990927213 -6.4456913997370675e-05 -0.0041711260392185067 -0.00033297338221047467 -0.0090144953923299905 -8.3265414066899701e-05 0.0032223529539131112 0.0032599926985858473 -0.00022269349741571307 0.00024915796246370358 0.00040924605680629615 0.0040149493168983256 -0.00011215623462777604 -0.00080963510250591723
leaf_weight=25 33 34 69515 137725 77 35 567 32 1204 22 46 7088 66 78 89 27 27 225 20 188 20 43 31 20 127 44 20 59 123 23
leaf_count=25 33 34 69515 137725 77 35 567 32 1204 22 46 7088 66 78 89 27 27 225 20 188 20 43 31 20 127 44 20 59 123 23
internal_value=0 6.54455e-06 7.11649e-06 -3.07585e-06 0.000584786 -1.47765e-05 -3.62034e-06 -7.13861e-05 -7.76399e-05 -0.000328082 -0.00119316 -3.3463e-05 0.000261121 0.000560638 0.00150089 0.00253213 0.00478884 0.000152837 -0.00111494 -0.000846588 -0.00173245 -0.00291858 -8.68186e-05 0.000665647 0.000408781 0.00147808 0.00233214 0.000441773 0.000997391 0.00266171
internal_weight=0 69582 69549 148051 137 112 147914 10189 10157 1523 319 8634 1324 757 229 140 74 528 98 297 109 63 7310 222 202 75 47 430 205 82
internal_count=217633 69582 69549 148051 137 112 147914 10189 10157 1523 319 8634 1324 757 229 140 74 528 98 297 109 63 7310 222 202 75 47 430 205 82
shrinkage=0.05


Tree=598
num_leaves=31
num_cat=0
split_feature=5 35 15 35 19 26 4 39 3 32 11 12 22 22 16 24 5 13 12 32 19 18 40 40 11 7 37 25 40 33
split_gain=0.00190135 0.0132835 0.016507 0.0367399 0.0338375 0.0499604 0.0400819 0.0216617 0.0209561 0.0164062 0.0375985 0.0465709 0.122904 0.028365 0.0253195 0.0928048 0.0154076 0.0154044 0.0184613 0.0141129 0.0255648 0.0133863 0.0229664 0.0675151 0.015576 0.0107274 0.0350159 0.0705914 0.134414 0.0334586
threshold=9.9471450000000032e-06 0.098593250000000007 1.5700050000000004e-06 0.12005900000000001 0.0019525250000000003 -0.0029059199999999998 -1.0382099999999996 0.00228283 -12.423099999999998 2.6219150000000004 -8.0872649999999985e-05 -0.00019160099999999998 -1.0073749999999999 -2.4493349999999996 1.0552950000000002e-06 -1.1409399999999998 6.5656500000000012e-06 5.2821900000000003e-05 -9.3922149999999983e-05 2.2468500000000007 8.793135000000002e-05 1.7622650000000003e-05 -0.51801999999999981 0.51872500000000021 -6.2059949999999982e-05 2.9741550000000003e-05 4.353285000000001e-06 7.8655400000000011 0.49120000000000014 0.00091355850000000014
decision_type=2 2 2 2 2 2 2 2 2 2 2 2 2 2 2 2 2 2 2 2 2 2 2 2 2 2 2 2 2 2
left_child=1 9 7 -4 5 -5 -7 -3 -6 19 -11 12 -12 -13 17 -16 -9 18 -15 25 -21 24 -23 -24 -18 26 -1 28 -28 -29
right_child=-2 2 3 4 8 6 -8 16 -10 10 11 13 -14 14 15 -17 21 -19 -20 20 -22 22 23 -25 -26 -27 27 29 -30 -31
leaf_value=1.0742963199942331e-05 1.8766280786293772e-06 -0.0014250999566118826 -0.0016817105913928356 0.0032406919261911363 0.00028988677334891073 0.0021830342395419608 -0.00059524826433249376 -0.00150561509746529 -0.0015829422027309192 -0.0013375520820929005 0.0033150811252851738 0.0017744417075307327 -0.0015058624267112464 0.0015087578413658775 0.0036021223890281328 -0.00017021668964259466 -0.0013891028941345766 -0.0012278113439186621 -5.2081635562886796e-05 0.0001453222920503726 -0.0016159731337546347 7.6308301149472237e-05 -0.0036275738395661825 -0.00027762033683105091 -7.2093997463955781e-05 -4.1039912395802043e-05 0.0044812598929305147 -0.00013754312834621433 -5.0350989264795011e-05 0.0018973281756663473
leaf_weight=14767 187414 37 21 23 59 21 34 22 20 35 39 27 20 20 23 56 23 26 359 45 38 62 21 53 939 13174 30 166 36 23
leaf_count=14767 187414 37 21 23 59 21 34 22 20 35 39 27 20 20 23 56 23 26 359 45 38 62 21 53 939 13174 30 166 36 23
internal_value=0 -1.16386e-05 -0.000165835 0.000282414 0.000545132 0.00128386 0.000465551 -0.000234797 -0.000184247 -4.51172e-06 0.000253121 0.000350793 0.00168086 0.000197224 0.000109239 0.000928059 -0.000195474 -5.04821e-05 3.02846e-05 -1.00235e-05 -0.000661054 -0.000169224 -0.000633543 -0.00122828 -0.000103582 -8.10707e-06 2.07744e-05 0.000601692 0.00200947 0.000110087
internal_weight=0 30219 1335 178 157 78 55 1157 79 28884 605 570 59 511 484 79 1120 405 379 28279 83 1098 136 74 962 28196 15022 255 66 189
internal_count=217633 30219 1335 178 157 78 55 1157 79 28884 605 570 59 511 484 79 1120 405 379 28279 83 1098 136 74 962 28196 15022 255 66 189
shrinkage=0.05


Tree=599
num_leaves=31
num_cat=0
split_feature=6 6 29 44 23 43 44 35 14 16 2 24 43 23 40 33 40 34 23 9 8 20 35 15 6 15 43 40 40 13
split_gain=0.00177958 0.00790944 0.0215985 0.015861 0.0629407 0.0492373 0.0411607 0.0849848 0.131846 0.282931 0.0430992 0.0390459 0.0169473 0.0146196 0.0131863 0.0334248 0.0285456 0.0250494 0.0184117 0.0121625 0.00901608 0.0143514 0.00869391 0.0265681 0.0417927 0.077995 0.120198 0.17435 0.578153 0.185103
threshold=-2.2961349999999994e-06 -2.6132299999999998e-06 -1.2159399999999998 -0.47859499999999983 -14.564499999999997 0.51814999999999956 0.71026 0.00061983350000000003 0.00024686750000000001 5.4941650000000011e-08 -2.1751149999999995 0.33294350000000006 0.60048999999999852 -6.1887249999999989 0.056773999999999998 -9.1244649999999997e-06 0.49120000000000014 0.040636950000000012 -9.8258599999999969 5.9192500000000006e-05 1.8439700000000002e-05 -3.2419049999999996 -0.034275499999999993 -1.2833349999999995e-07 -5.1152599999999989e-06 -2.6163199999999997e-05 3.4885250000000001 -0.3819765 0.43531000000000003 2.4792000000000003e-05
decision_type=2 2 2 2 2 2 2 2 2 2 2 2 2 2 2 2 2 2 2 2 2 2 2 2 2 2 2 2 2 2
left_child=1 22 -3 5 -5 -4 7 11 9 -9 -10 13 -7 14 15 17 -16 -6 -17 20 -8 -22 23 24 -1 -26 27 -27 29 -29
right_child=-2 2 3 4 6 12 19 8 10 -11 -12 -13 -14 -15 16 18 -18 -19 -20 -21 21 -23 -24 -25 25 26 -28 28 -30 -31
leaf_value=2.7907262205368558e-05 -2.779151619027761e-06 0.0013663883891240403 -0.0023339233309936547 0.0028193050179900394 0.0027916965265467296 0.0010992723262889367 1.2859495957326302e-06 -0.00011273550564790359 0.0024243493650574241 0.0073369602971361031 0.00012251709611168444 0.0021203538402253552 -2.5965465329663127e-05 -0.0013627096988284414 -0.0021275427284854231 -0.0012286637023497147 -4.9224571746435693e-05 0.00039576707446637257 0.00016050954740342644 0.0010920243776708957 -0.0016716152174402459 0.00011820242972741352 -3.4237550881885875e-06 -1.4917927823104521e-05 -4.2391218420674255e-05 9.028757922878604e-05 -8.3792531609704296e-05 0.01037276129797101 -0.00019531115564327679 0.0040051534361693827
leaf_weight=805 157954 32 23 22 20 34 1492 26 25 25 109 22 2115 20 20 28 95 24 161 25 21 24 51136 2842 251 69 114 25 53 21
leaf_count=805 157954 32 23 22 20 34 1492 26 25 25 109 22 2115 20 20 28 95 24 161 25 21 24 51136 2842 251 69 114 25 53 21
internal_value=0 7.35565e-06 7.2169e-05 6.26066e-05 0.000158579 -3.27909e-05 0.000131187 0.000492859 0.00137544 0.00353908 0.000551963 7.42005e-05 -8.16273e-06 -4.81239e-05 2.7427e-05 0.000243656 -0.000410671 0.00148483 -4.52939e-05 -1.95123e-06 -1.97452e-05 -0.000717046 2.24356e-06 7.15746e-05 0.00025529 0.000598711 0.00116934 0.00201968 0.0033644 0.00746581
internal_weight=0 59679 4363 4331 2159 2172 2137 575 185 51 134 390 2149 368 348 233 115 44 189 1562 1537 45 55316 4180 1338 533 282 168 99 46
internal_count=217633 59679 4363 4331 2159 2172 2137 575 185 51 134 390 2149 368 348 233 115 44 189 1562 1537 45 55316 4180 1338 533 282 168 99 46
shrinkage=0.05


Tree=600
num_leaves=31
num_cat=0
split_feature=7 7 41 41 26 37 0 28 43 43 28 40 41 8 26 12 40 34 21 6 13 31 40 40 13 31 40 22 26 22
split_gain=0.0019071 0.0158886 0.0164665 0.213925 0.214747 0.404567 0.131301 0.0532582 0.0427411 0.106971 0.0401731 0.102503 0.0197487 0.0176407 0.0326547 0.0180695 0.106307 0.0159887 0.0142732 0.0303372 0.0159825 0.0754339 0.0328078 0.0338731 0.0282002 0.0116465 0.0299177 0.0101542 0.0394237 0.029818
threshold=3.140425000000001e-05 3.0144500000000006e-05 -0.2029299999999998 -0.016969000000000036 -0.00015089299999999995 2.2463100000000002e-07 7.0096050000000014 0.04793780000000001 0.20156999999999983 0.97785500000000003 -0.13224499999999997 -0.3562499999999999 -0.057539999999999918 -1.8563549999999996e-05 -7.044784999999999e-05 0.00017051850000000002 -0.19934349999999995 0.030373650000000006 -12.050999999999998 -2.1612149999999997e-07 -1.6676799999999996e-05 0.93980800000000009 -0.079468000000000025 -0.018010000000000078 -1.5406899999999996e-05 -3.3192499999999998 -0.74380499999999983 -1.9316499999999996 0.00014692550000000004 -1.8407349999999998
decision_type=2 2 2 2 2 2 2 2 2 2 2 2 2 2 2 2 2 2 2 2 2 2 2 2 2 2 2 2 2 2
left_child=1 -1 -3 4 5 -4 7 8 12 -10 11 -5 17 14 -12 18 -17 -6 19 -15 21 22 -20 -24 -22 26 -26 28 -27 -29
right_child=-2 2 3 10 6 -7 -8 -9 9 -11 13 -13 -14 15 -16 16 -18 -19 20 -21 24 -23 23 -25 25 27 -28 29 -30 -31
leaf_value=3.9164055675070888e-06 2.4725975240680241e-06 8.0510715517593901e-06 -0.0088745334160048508 -8.9137273040250874e-05 -0.00017080880451566315 0.00042225526412948967 -0.0044553792208202854 0.0018448602228256115 -0.0041345644900242671 -0.00040160619657835477 -0.0025094540056306868 -0.0037323292351804692 0.0005666604699482295 -3.0543822039793382e-05 0.00017787208977936713 4.4270891733929368e-05 -0.0028903159434038746 -0.0017796472998705449 -6.2854998086107528e-05 0.0023752860022068492 -0.0014609968770160136 0.0032234636821418202 0.0027156760718713962 0.0003075788602291141 -3.6979243276092399e-05 8.8464201986534498e-05 -0.0022846194643352646 -0.0018963010098689535 0.0024682709746412005 -5.4797081134654272e-06
leaf_weight=39731 170149 3403 25 75 47 22 23 22 28 61 20 26 55 38 26 186 37 23 316 20 34 21 23 40 57 134 20 21 20 2930
leaf_count=39731 170149 3403 25 75 47 22 23 22 28 61 20 26 55 38 26 186 37 23 316 20 34 21 23 40 57 134 20 21 20 2930
internal_value=0 -8.86004e-06 -7.43342e-05 -0.000138784 -0.00141346 -0.00452285 -0.000849213 -0.000497765 -0.000738595 -0.00157602 -4.2332e-05 -0.00102699 -0.000142349 -1.711e-05 -0.000990531 -5.61979e-06 -0.000442634 -0.000699427 2.09055e-05 0.000799053 8.4242e-06 0.000306486 0.000144859 0.00118673 -2.86481e-05 -1.33433e-05 -0.000620782 1.72037e-06 0.00039753 -1.89352e-05
internal_weight=0 47484 7753 4350 306 47 259 236 214 89 4044 101 125 3943 46 3897 223 70 3674 58 3616 400 379 63 3216 3182 77 3105 154 2951
internal_count=217633 47484 7753 4350 306 47 259 236 214 89 4044 101 125 3943 46 3897 223 70 3674 58 3616 400 379 63 3216 3182 77 3105 154 2951
shrinkage=0.05


Tree=601
num_leaves=31
num_cat=0
split_feature=34 38 40 34 4 44 43 20 0 40 40 4 19 4 43 44 11 17 2 24 21 1 40 40 14 43 43 24 40 0
split_gain=0.00176867 0.0114465 0.0167216 0.0112963 0.0142196 0.0320292 0.0108825 0.0323336 0.0875933 0.104817 0.275843 0.221057 0.181536 0.172912 0.213397 0.171136 0.0805711 0.062998 0.0459764 0.0328845 0.0267325 0.063552 0.119473 0.343067 0.111849 0.137853 0.131192 0.182241 0.0978361 0.0624463
threshold=0.20270750000000001 0.010018650000000002 -4.8282449999999999 0.16380350000000002 -0.11642199999999998 1.6302050000000003 0.16841000000000064 5.7713600000000005 4.4327850000000009 0.30085850000000008 -0.17527649999999997 0.43776750000000003 3.7448700000000009e-07 -1.8861499999999998 -0.56159999999999977 1.6302050000000003 7.3519100000000019e-05 6.2770850000000025e-08 -0.4875334999999999 -0.35379549999999998 -5.4139599999999986 -3.4727449999999993 -0.19934349999999995 0.14973499999999998 0.00099716450000000021 -0.32314999999999999 -1.9691099999999999 -0.48397549999999995 -0.27744100000000016 -3.1104599999999993
decision_type=2 2 2 2 2 2 2 2 2 2 2 2 2 2 2 2 2 2 2 2 2 2 2 2 2 2 2 2 2 2
left_child=1 -1 -3 4 5 -4 7 20 -9 10 -10 12 17 -14 15 -15 -13 -12 -11 -18 21 22 28 24 -24 26 -26 -28 -2 -25
right_child=6 2 3 -5 -6 -7 -8 8 9 18 11 16 13 14 -16 -17 19 -19 -20 -21 -22 -23 23 29 25 -27 27 -29 -30 -31
leaf_value=1.8639298154275269e-06 7.6427481885345765e-07 0.0016045997618459212 0.0020605012282258767 -2.5182382843962478e-06 0.00015708837142753781 4.2918627063738226e-05 4.5307085427148615e-06 -3.4191002679399663e-05 -0.00018968546998291447 0.0023562736767582301 0.0011315623059913163 0.0026113068862105137 -0.00081690979052589029 -0.011604698232840747 -0.0030111633640545836 -0.0052141276120726788 0.00015456953024979504 -0.0027894709457177667 -2.2106879806531487e-05 -0.0026435816150513435 4.6954100628636586e-05 3.7349216484613308e-05 -0.0056967295020253269 0.0022501172374985701 -0.0015882359909375151 0.00038659389420236289 -0.0023309189306858643 -0.0085933846122186099 0.0035164786863052066 -0.00025733000782589342
leaf_weight=159781 343 21 37 367 148 42 43799 2596 365 22 21 20 22 20 36 22 21 20 266 21 7408 1707 28 27 59 37 26 21 21 309
leaf_count=159781 343 21 37 367 148 42 43799 2596 365 22 21 20 22 20 36 22 21 20 266 21 7408 1707 28 27 59 37 26 21 21 309
internal_value=0 2.69261e-06 0.000217988 0.000168966 0.000446212 0.000987862 -7.54552e-06 -4.69061e-05 -0.00017882 -0.000617437 -0.00101141 -0.00248891 -0.00358302 -0.00473179 -0.00583598 -0.00825726 -6.9542e-07 -0.000781137 0.000159575 -0.00124451 -1.30561e-06 -0.000139982 -0.000487519 -0.000983702 -0.00280687 -0.00224103 -0.00315822 -0.00512904 0.000203594 -5.58387e-05
internal_weight=0 160396 615 594 227 79 57237 13438 3452 856 568 203 141 100 78 42 62 41 288 42 9986 2578 871 507 171 143 106 47 364 336
internal_count=217633 160396 615 594 227 79 57237 13438 3452 856 568 203 141 100 78 42 62 41 288 42 9986 2578 871 507 171 143 106 47 364 336
shrinkage=0.05


Tree=602
num_leaves=31
num_cat=0
split_feature=30 40 13 13 5 3 5 15 35 9 7 5 15 13 43 36 33 15 15 23 16 2 14 16 3 19 20 21 12 40
split_gain=0.00177286 0.0172626 0.0106483 0.0454781 0.100787 0.0286372 0.0192604 0.020422 0.0462938 0.0845208 0.0440993 0.0497687 0.0522758 0.0474311 0.0361025 0.0299359 0.0191909 0.0178593 0.0289332 0.0226587 0.0496061 0.0208502 0.0188716 0.0240601 0.022318 0.021217 0.0198241 0.0192004 0.0171083 0.0476795
threshold=0.053348600000000003 5.6762150000000009 -7.1201799999999986e-05 -6.0913899999999993e-05 2.2519950000000001e-05 -16.266399999999997 2.1613750000000003e-05 9.1030600000000033e-06 1.6674650000000002 3.1873550000000002e-05 3.1112350000000007e-05 1.6536050000000006e-05 2.5395100000000004e-05 0.00015586950000000003 -0.026199999999999776 -2.2564299999999995 -0.00037994999999999994 6.5735000000000015e-07 4.4044100000000007e-07 -7.0549999999999988 1.0552950000000002e-06 2.9632050000000003 0.00047127200000000006 1.9598050000000002e-06 -7.197614999999999 1.7135300000000002e-05 -16.050999999999998 7.0074550000000011 -0.00020892849999999997 -0.19934349999999995
decision_type=2 2 2 2 2 2 2 2 2 2 2 2 2 2 2 2 2 2 2 2 2 2 2 2 2 2 2 2 2 2
left_child=-1 2 5 4 -4 -2 7 28 15 10 -10 12 -12 -13 -14 -9 -7 18 19 21 -21 -8 23 -19 26 -25 -24 -26 29 -5
right_child=1 -3 3 6 -6 16 17 8 9 -11 11 13 14 -15 -16 -17 -18 22 -20 20 -22 -23 24 25 27 -27 -28 -29 -30 -31
leaf_value=6.8646825929249442e-07 -0.0019344172983740767 0.0013080269825877624 -0.00033616821476882894 -7.1950846857973897e-05 0.0037734115547500553 -0.0009594638894716474 -0.00016701856741363391 0.001410390712402604 0.0026986701935086226 0.0040471327136037873 -0.0025578542936431324 0.0028701555347113213 0.0019742506070178933 -0.00034242135065142069 -0.00070294980713001953 -0.0001744267486378111 0.00049114646033941473 -9.0628282632678749e-05 0.0015963771124370399 -0.00014827099197954908 0.0026323552736911278 -0.0017290896471505138 -0.0016347259528831475 -0.0031350376151385718 -0.0001156638226583945 -0.00096888305286903719 -0.00036739804636117364 0.0015603272034786643 8.1309943086562928e-06 -0.0016789909809349097
leaf_weight=212711 27 24 37 226 25 38 737 33 21 20 23 27 20 20 34 307 57 30 25 53 23 22 36 20 54 26 216 25 2658 58
leaf_count=212711 27 24 37 226 25 38 737 33 21 20 23 27 20 20 34 307 57 30 25 53 23 22 36 20 54 26 216 25 2658 58
internal_value=0 -2.96667e-05 -3.62213e-05 -2.44385e-05 0.00132092 -0.000497488 -4.21331e-05 1.91408e-05 0.000312888 0.00100009 0.000579806 0.000220966 -0.000561635 0.0015031 0.000288606 -2.06062e-05 -8.90977e-05 -0.000208835 -7.96947e-05 -0.000129876 0.000693234 -0.000212296 -0.000481711 -0.00119224 -0.000318567 -0.00191069 -0.000548445 0.000414713 -3.12815e-05 -0.000400149
internal_weight=0 4922 4898 4776 62 122 4714 3447 505 165 145 124 77 47 54 340 95 1267 860 835 76 759 407 76 331 46 252 79 2942 284
internal_count=217633 4922 4898 4776 62 122 4714 3447 505 165 145 124 77 47 54 340 95 1267 860 835 76 759 407 76 331 46 252 79 2942 284
shrinkage=0.05


Tree=603
num_leaves=31
num_cat=0
split_feature=21 41 39 44 40 40 33 4 17 17 39 41 40 43 1 1 23 0 40 40 40 15 41 2 41 8 40 4 29 34
split_gain=0.00176348 0.0262291 0.0147873 0.0313105 0.112079 0.216243 0.261657 0.386424 0.0210052 0.0373231 0.0807876 0.0274317 0.0778151 0.0823079 0.0668741 0.0519785 0.0458413 0.0285374 0.0236483 0.0995615 0.0294962 0.0200811 0.0294428 0.019112 0.0145358 0.0106893 0.00787935 0.00570969 0.00676128 0.00459957
threshold=-13.388899999999998 4.6270000000000016 0.0020372800000000003 -0.20255000000000042 0.2761725000000001 -0.30278099999999991 -1.4746649999999997e-06 -0.12399149999999999 4.8443000000000012e-06 8.2035700000000018e-06 0.17438400000000001 -0.25176499999999996 -0.32870999999999989 0.80790999999999979 -7.1790999999999991 -11.446699999999998 -7.560039999999999 -2.0595049999999993 -0.040859549999999939 -0.43704099999999996 0.46240350000000002 7.0470800000000012e-07 0.70899650000000014 -1.8039399999999997 0.51323350000000023 2.8237600000000002e-05 -0.63161949999999989 0.79460700000000006 -0.067941949999999987 0.055819000000000001
decision_type=2 2 2 2 2 2 2 2 2 2 2 2 2 2 2 2 2 2 2 2 2 2 2 2 2 2 2 2 2 2
left_child=1 2 3 4 5 -1 -7 -8 11 10 -10 23 21 16 15 -15 -14 -18 19 -11 -20 24 -23 -4 -13 26 -26 -25 -29 -5
right_child=-2 -3 8 29 -6 6 7 -9 9 18 -12 12 13 14 -16 -17 17 -19 20 -21 -22 22 -24 27 25 -27 -28 28 -30 -31
leaf_value=-0.00022894838481079204 -5.7525327778177006e-07 0.0015593979349172774 0.0013959641822148116 6.5665237320040575e-05 -4.2979902357909425e-05 0.0084055913354677617 0.0072714386740699412 -0.0014408962125889958 0.00013090138289347428 -4.6525421203114094e-05 0.0037898756653620778 0.0010112201729163262 -0.0047906730731483551 -0.0011106077221204314 -0.0021973378004206878 0.0018786547405673475 -0.0031944202369777485 -0.00052339817048050461 -0.0016637248427286977 0.0035679284738801909 -4.7268869310295239e-05 -0.0024032479595189216 -0.00031623010509691151 2.4733503835334021e-05 -4.7114146727441757e-05 0.00083224805013301347 -0.0010747484618332237 -0.0012413625651970508 2.8868457725779577e-05 -0.00014509961117836206
leaf_weight=80 214135 28 25 688 340 20 20 35 48 111 22 38 20 26 35 33 20 20 32 23 239 20 109 679 277 33 20 20 22 415
leaf_count=80 214135 28 25 688 340 20 20 35 48 111 22 38 20 26 35 33 20 20 32 23 239 20 109 679 277 33 20 20 22 415
internal_value=0 3.52149e-05 2.29161e-05 0.000134632 0.00046501 0.00157931 0.00350812 0.00172723 -7.24481e-05 0.000214783 0.00128086 -0.000170111 -0.00040729 -0.00138933 -0.000465819 0.000561353 -0.00283616 -0.00185891 3.05224e-05 0.000573866 -0.000238142 -0.000102996 -0.000639799 3.68646e-05 8.51765e-05 -2.14588e-05 -0.000116315 -1.02609e-05 -0.000576003 -1.36343e-05
internal_weight=0 3498 3470 1598 495 155 75 55 1872 475 70 1397 651 154 94 59 60 40 405 134 271 497 129 746 368 330 297 721 42 1103
internal_count=217633 3498 3470 1598 495 155 75 55 1872 475 70 1397 651 154 94 59 60 40 405 134 271 497 129 746 368 330 297 721 42 1103
shrinkage=0.05


Tree=604
num_leaves=31
num_cat=0
split_feature=44 44 3 19 29 6 12 20 33 18 14 8 4 11 35 26 0 7 30 19 11 0 20 20 2 40 40 0 14 40
split_gain=0.00176175 0.020891 0.0357826 0.119357 0.0464846 0.0364654 0.0437183 0.0364232 0.0813144 0.137319 0.185345 0.225908 0.0751767 0.0699115 0.0880998 0.0658505 0.130859 0.182042 0.0596951 0.0946503 0.25479 0.0802307 0.0988828 0.0535164 0.0820444 0.0699481 0.39013 0.794184 0.31884 0.642903
threshold=-0.20255000000000042 -0.8551649999999994 -15.867949999999999 1.9639400000000003e-08 0.041675700000000003 2.4885350000000003e-06 0.00069094550000000016 7.3475050000000008 6.4546800000000005e-06 -1.1530249999999996e-06 0.00026116850000000005 8.9391550000000027e-06 -1.4133199999999999 5.8604700000000005e-05 -0.0039550049999999984 0.00033276500000000006 6.6559100000000013 4.2044600000000001e-05 0.00024154950000000004 7.3264550000000007e-07 2.0173800000000003e-05 7.4151700000000007 10.074550000000002 -8.175164999999998 3.0333000000000006 0.327845 -0.058960000000000005 -7.5291399999999991 0.00015638100000000001 0.077348000000000056
decision_type=2 2 2 2 2 2 2 2 2 2 2 2 2 2 2 2 2 2 2 2 2 2 2 2 2 2 2 2 2 2
left_child=1 -1 3 -3 5 6 -5 23 15 10 11 -10 -12 14 -14 18 -17 -18 -9 20 -20 -22 -23 24 -4 26 -25 -28 29 -29
right_child=-2 2 7 4 -6 -7 -8 8 9 -11 12 -13 13 -15 -16 16 17 -19 19 -21 21 22 -24 25 -26 -27 27 28 -30 -31
leaf_value=3.3177412223250555e-06 5.2650274248665943e-06 0.0041784832946723327 6.5352981068866493e-05 -1.425983581322106e-05 -0.0021331455965992066 0.0017853546595431862 0.002302707425587869 -0.0001641196319021295 0.0012120111428173361 -8.1905727117513819e-05 -0.00052326333904941641 0.0084779359223466615 -0.00014967677758677918 0.0042192412778438836 0.0035778807635917635 -0.00011900914177540809 -0.0059082856915968788 7.6561157190250617e-05 0.00026859469807798472 -1.6658559466859083e-05 0.006006856537889689 -3.154313197315094e-05 0.0046665464892915532 -4.24370531445764e-05 0.0025408036852775911 -4.6710825021309669e-08 -0.0082783664777978001 -0.0068054392806343031 -0.00055718109812144697 0.00023024951087926871
leaf_weight=111964 91838 20 2155 273 20 39 22 1290 23 246 59 20 51 22 23 135 27 24 218 525 25 21 24 3835 34 3462 37 63 1071 67
leaf_count=111964 91838 20 2155 273 20 39 22 1290 23 246 59 20 51 22 23 135 27 24 218 525 25 21 24 3835 34 3462 37 63 1071 67
internal_value=0 -3.84379e-06 -6.18175e-05 0.000420594 0.000208284 0.000348489 0.000158531 -7.52247e-05 8.77211e-05 0.00070697 0.00168709 0.00459151 0.000881345 0.00174459 0.00100889 -3.23953e-05 -0.000934153 -0.00309189 4.73608e-05 0.00038292 0.00111132 0.0037358 0.0024741 -0.000116751 0.000103802 -0.000173317 -0.000291564 -0.00106329 -0.000841013 -0.00317935
internal_weight=0 125795 13831 374 354 334 295 13457 2733 444 198 43 155 96 74 2289 186 51 2103 813 288 70 45 10724 2189 8535 5073 1238 1201 130
internal_count=217633 125795 13831 374 354 334 295 13457 2733 444 198 43 155 96 74 2289 186 51 2103 813 288 70 45 10724 2189 8535 5073 1238 1201 130
shrinkage=0.05


Tree=605
num_leaves=31
num_cat=0
split_feature=1 21 10 21 11 26 36 13 19 34 18 36 40 40 34 25 44 44 18 18 13 13 13 11 29 4 15 20 41 20
split_gain=0.00179952 0.00566321 0.0291894 0.0633779 0.252131 0.0402713 0.047018 0.0941135 0.157477 0.061198 0.057256 0.0663147 0.0939678 0.663925 0.0421226 0.0619063 0.0473394 0.076874 0.0472901 0.0352981 0.0543252 0.0377111 0.0256555 0.0221561 0.0665903 0.0488804 0.106389 0.0900827 0.0307628 0.168323
threshold=5.9655550000000011 7.1162100000000006 1.7656850000000004e-05 7.2928950000000006 8.8810700000000017e-06 -7.2484149999999989e-05 0.00057969850000000008 -3.5841599999999997e-06 1.5088800000000002e-05 0.0086390700000000004 -7.2403999999999991e-09 -0.00035081549999999999 -0.079468000000000025 0.056773999999999998 0.014983150000000002 0.50595050000000008 -0.8551649999999994 -0.31477499999999997 -9.323289999999999e-07 -3.8651899999999997e-07 8.0771300000000014e-06 1.2472550000000001e-05 -8.4323699999999987e-06 2.7947950000000004e-05 -0.0052842899999999988 1.0000000180025095e-35 1.6353050000000004e-05 5.8578400000000004 -0.016969000000000036 9.4321850000000023
decision_type=2 2 2 2 2 2 2 2 2 2 2 2 2 2 2 2 2 2 2 2 2 2 2 2 2 2 2 2 2 2
left_child=-1 -2 3 4 -3 -5 10 8 -8 -10 14 12 -12 -14 15 -7 -16 -18 -19 20 -9 -21 -13 28 25 -25 27 -27 -4 -30
right_child=1 2 23 5 -6 6 7 19 9 -11 11 22 13 -15 16 -17 17 18 -20 21 -22 -23 -24 24 -26 26 -28 -29 29 -31
leaf_value=-2.5399339373329041e-06 1.5892721226720097e-05 4.3639973646893699e-06 -4.9830640622330034e-05 0.00025995093863772907 -0.0061427015631290325 0.00010280437010241969 -0.0056106091197643372 -0.002859778586059326 -0.0034959669828731423 -0.00040368742200371345 6.245055859178421e-05 -0.0012273916375590945 -0.0083704016056858118 -0.00023918523410925861 -0.00031244243165789304 -0.0023364990511254291 0.0035651789215141133 0.00022254457038125902 0.0028030353659150107 0.00073452635019352988 -0.00017265269440588696 -0.00097277204193233044 0.00028363562183289026 -0.00021097729997238089 2.961743960401446e-05 -0.0060891584781347782 -0.00061189196110492789 -0.0013435617674258538 0.00012343374890118892 0.0029670018574249283
leaf_weight=165868 42436 69 3172 493 22 366 23 27 20 80 119 32 31 132 65 28 30 92 22 115 62 45 230 134 858 20 89 20 2880 53
leaf_count=165868 42436 69 3172 493 22 366 23 27 20 80 119 32 31 132 65 28 30 92 22 115 62 45 230 134 858 20 89 20 2880 53
internal_value=0 8.13858e-06 -2.71336e-05 -0.000191077 -0.00148174 -0.000132702 -0.00026014 -0.000748605 -0.00188015 -0.00102214 -0.000101719 -0.000473646 -0.00100576 -0.00178561 0.000233817 -7.05471e-05 0.000807596 0.00131317 0.000720534 -0.000189649 -0.000987848 0.000254349 9.90827e-05 2.05792e-05 -0.00018374 -0.000879786 -0.00157452 -0.00371636 5.80962e-05 0.000174818
internal_weight=0 51765 9329 2103 91 2012 1519 372 123 100 1147 544 282 163 603 394 209 144 114 249 89 160 262 7226 1121 263 129 40 6105 2933
internal_count=217633 51765 9329 2103 91 2012 1519 372 123 100 1147 544 282 163 603 394 209 144 114 249 89 160 262 7226 1121 263 129 40 6105 2933
shrinkage=0.05


Tree=606
num_leaves=31
num_cat=0
split_feature=24 4 43 42 41 43 41 23 4 14 43 14 16 16 5 19 34 14 43 14 42 41 41 1 43 16 42 4 4 4
split_gain=0.00174062 0.0829759 0.102067 0.171391 1.64376 1.34257 0.96455 1.0559 1.14037 0.820031 0.692162 0.638025 0.599674 0.440442 0.379847 0.116275 0.0797273 0.0622907 0.0614185 0.129414 0.178294 0.6223 0.389476 0.398542 0.357905 0.322247 0.298817 0.419841 0.234404 0.243298
threshold=-0.17538849999999997 0.0092838900000000012 1.5525100000000001 0.327845 0.14791590000000002 -0.93682499999999969 -0.12554300000000002 -12.877249999999998 1.5563800000000001 0.00059245900000000015 0.51814999999999956 0.00019198350000000004 -9.7727699999999997e-08 3.6046400000000006e-08 1.4208050000000002e-05 0.00055143100000000012 0.03659550000000001 9.3239650000000011e-05 1.2296250000000011 0.00096226550000000008 0.22528099999999995 0.14791590000000002 0.040430000000000084 -7.1790999999999991 -1.4591200000000002 3.5712200000000007e-07 -0.058960000000000005 -0.36598199999999997 -0.75155249999999996 -0.076958199999999991
decision_type=2 2 2 2 2 2 2 2 2 2 2 2 2 2 2 2 2 2 2 2 2 2 2 2 2 2 2 2 2 2
left_child=1 18 3 4 5 -3 -7 14 9 10 11 -9 -11 -13 15 -8 -12 -18 19 20 21 22 28 25 -25 -24 27 -26 -1 -30
right_child=-2 2 -4 -5 -6 6 7 8 -10 12 16 13 -14 -15 -16 -17 17 -19 -20 -21 -22 -23 23 24 26 -27 -28 -29 29 -31
leaf_value=-0.0039914125521053473 2.868325354077833e-06 -0.0004148674443680393 1.0185316124007813e-05 1.7722743392510771e-05 -1.365043317200555e-05 -0.00098195847204133441 -0.00051797544538903127 -0.018104098555631939 -0.0014088878650909465 -0.01895875667532285 -0.00080918555846437817 -0.0019198862777557225 -0.0089614733075723055 -0.012413242403417827 -0.0052492033465412159 0.0041667335459755527 -0.0028786144026805866 -0.0064507581577028924 -1.018289554264005e-05 2.0029123115225965e-05 -3.2903311520503485e-05 -2.9566007405339218e-05 -0.0050934802533447515 -0.00066991844042521825 0.0031649121526806131 0.0036757743234788493 0.0033981474074336916 0.012060795745087996 0.0015167740994835972 -0.00099372673357052974
leaf_weight=22 154189 529 18809 6184 5699 173 26 20 64 30 20 20 30 20 29 27 26 23 18085 9009 1860 1620 20 22 21 22 47 36 842 109
leaf_count=22 154189 529 18809 6184 5699 173 26 20 64 30 20 20 30 20 29 27 26 23 18085 9009 1860 1620 20 22 21 22 47 36 842 109
internal_value=0 -6.97094e-06 -6.41392e-05 -0.000172341 -0.00034683 -0.00217787 -0.00401375 -0.00557943 -0.00717753 -0.00913093 -0.0068848 -0.0108124 -0.0139601 -0.00716656 -0.000648688 0.00186857 -0.00346949 -0.00455533 5.02225e-05 0.000130372 0.000345493 0.000600407 0.00149485 0.003718 0.00512402 -0.000500061 0.00634966 0.00878336 0.00111099 0.00122903
internal_weight=0 63444 31729 12920 6736 1037 508 335 253 189 129 60 60 40 82 53 69 49 31715 13630 4621 2761 1141 168 126 42 104 57 973 951
internal_count=217633 63444 31729 12920 6736 1037 508 335 253 189 129 60 60 40 82 53 69 49 31715 13630 4621 2761 1141 168 126 42 104 57 973 951
shrinkage=0.05


Tree=607
num_leaves=31
num_cat=0
split_feature=5 35 21 14 21 15 41 41 10 43 3 32 11 41 41 1 11 41 28 10 32 19 23 44 9 9 36 36 20 28
split_gain=0.0017711 0.0118196 0.0198508 0.0351135 0.0191615 0.0394396 0.0311607 0.160806 0.0458574 0.0647431 0.071918 0.0151851 0.0338845 0.0441212 0.151288 0.212025 0.08931 0.0144589 0.0132047 0.0168911 0.0126412 0.0228293 0.0101927 0.0370587 0.374184 0.0395513 0.0828636 0.0539474 0.0327424 0.0293059
threshold=9.9471450000000032e-06 0.098593250000000007 -15.424049999999998 0.0023552050000000004 3.0686450000000005 2.2039450000000004e-06 -0.2272394999999999 0.32610899999999998 1.2745350000000003e-05 0.10586500000000011 -9.0194699999999983 2.6219150000000004 -8.0872649999999985e-05 -0.43858299999999995 0.12358499999999996 -4.5868149999999988 -4.6864649999999995e-05 0.59721000000000013 -0.020444849999999997 3.1349550000000005e-05 2.2468500000000007 8.793135000000002e-05 -14.564499999999997 -0.16918499999999967 2.0407650000000004e-05 1.0417350000000001e-05 -0.0010580249999999998 -0.014259749999999998 -9.7539799999999968 -0.022658049999999996
decision_type=2 2 2 2 2 2 2 2 2 2 2 2 2 2 2 2 2 2 2 2 2 2 2 2 2 2 2 2 2 2
left_child=1 11 3 -3 6 18 -4 8 -8 -10 -11 20 -13 -14 15 -15 -16 -18 19 -6 22 -22 23 28 25 27 -27 -25 -1 -29
right_child=-2 2 4 -5 5 -7 7 -9 9 10 -12 12 13 14 16 -17 17 -19 -20 -21 21 -23 -24 24 -26 26 -28 29 -30 -31
leaf_value=0.0015891922071234383 1.8112079629838698e-06 -2.220144335986898e-05 -4.9065723007473958e-05 0.0023639425959637657 -0.00017827372802609414 0.001730710660238842 -0.0045307848753873264 -8.2979915760306568e-05 3.5598210324051565e-05 -0.0050843345359515464 -0.0013206050160806627 -0.0012667181250331592 -2.7057865925164264e-05 0.00010676985334915419 0.0030945745565325276 0.0061023335667038017 -0.0011449560508108101 -2.5804935160579646e-05 0.00011283887747001996 -0.0016223361211208005 0.00013604894100404232 -0.0015283487823341459 5.0477169655956001e-06 0.0020647872120928791 -0.0071942421123094395 -0.0040134652609413032 -1.8864299193877302e-05 -0.001702148727179457 -4.2067155801940159e-05 -3.9546889903978765e-05
leaf_weight=31 187414 58 435 21 81 33 20 303 29 22 30 35 339 30 22 29 39 111 276 27 45 38 23727 29 20 20 37 29 3995 308
leaf_count=31 187414 58 435 21 81 33 20 303 29 22 30 35 339 30 22 29 39 111 276 27 45 38 23727 29 20 20 37 29 3995 308
internal_value=0 -1.12329e-05 -0.000156685 0.00061209 -0.00020504 7.19754e-05 -0.000342722 -0.00065891 -0.0023867 -0.0018573 -0.00291295 -4.51015e-06 0.000243349 0.000336072 0.000868977 0.00305374 0.000119552 -0.000316784 -7.05722e-05 -0.000539289 -9.81284e-06 -0.000625964 -7.99909e-06 -7.72677e-05 -0.000511323 -0.000195346 -0.00142048 -4.54625e-06 -2.95065e-05 -0.000182619
internal_weight=0 30219 1335 79 1256 417 839 404 101 81 52 28884 605 570 231 59 172 150 384 108 28279 83 28196 4469 443 423 57 366 4026 337
internal_count=217633 30219 1335 79 1256 417 839 404 101 81 52 28884 605 570 231 59 172 150 384 108 28279 83 28196 4469 443 423 57 366 4026 337
shrinkage=0.05


Tree=608
num_leaves=31
num_cat=0
split_feature=4 38 4 41 41 44 40 44 40 18 7 2 40 43 12 8 43 25 41 3 5 43 7 38 36 21 21 10 38 7
split_gain=0.002023 0.0980237 0.107575 0.172087 0.925001 0.295159 0.382904 0.516394 0.419889 0.332788 0.392738 0.457369 0.312504 0.307181 0.435736 0.336993 0.277812 0.297727 0.288397 0.261813 0.259879 0.236331 0.242528 0.339974 0.189981 0.185463 0.18372 0.216136 0.175469 0.160579
threshold=0.10312400000000001 -0.00015868999999999999 0.79460700000000006 0.19792950000000006 -0.15132349999999997 -2.1380549999999996 -0.040859549999999939 1.4428800000000004 0.039429999999999972 2.0038450000000001e-05 3.5630700000000011e-05 -2.2715599999999996 -0.10081500000000009 -0.93682499999999969 -6.3460899999999987e-05 -1.0860799999999997e-06 0.47541999999999979 4.1232750000000005 -0.057539999999999918 -7.4119349999999988 1.2194250000000001e-05 -0.32314999999999999 3.2333100000000004e-05 -0.00093797899999999992 0.0012328100000000002 -7.1421249999999992 -2.9336349999999993 2.6489900000000002e-05 -0.00064176049999999996 2.9313900000000001e-05
decision_type=2 2 2 2 2 2 2 2 2 2 2 2 2 2 2 2 2 2 2 2 2 2 2 2 2 2 2 2 2 2
left_child=-1 2 3 4 -2 -6 7 9 21 10 20 -12 -13 -10 25 16 17 18 -16 -17 29 22 28 -24 -14 -15 -11 -28 -8 -7
right_child=1 -3 -4 -5 5 6 8 -9 13 26 11 12 24 14 15 19 -18 -19 -20 -21 -22 -23 23 -25 -26 -27 27 -29 -30 -31
leaf_value=-3.7072314142813247e-06 -1.4285817260325266e-05 -3.7408031302096791e-05 -1.6159294989573352e-05 -2.8548941965437778e-05 -0.00019606676587186642 0.0062765719206072396 0.0013388117991360981 -0.00063549580843149072 0.00022321801325233539 0.0042413153460666908 0.00019083915810499873 0.01372693699917623 0.009406939862029895 0.003519295100704767 0.010283983443514444 0.012061264336109163 -0.00017912568191864661 0.00063568970116858298 0.0033355512934836692 0.0044883186754304917 -0.0018320897665734474 0.00039850070238613622 0.0021637148611692038 0.0081685309884293629 0.0042336187209002672 -0.0021982440964092276 0.0030381352679493528 -0.002213100722427805 -0.0037172368239473809 0.00066032189584802842
leaf_weight=136755 6406 49631 15788 6420 377 35 78 90 92 43 21 21 35 23 32 25 35 26 28 21 26 1291 110 30 36 37 36 43 22 20
leaf_count=136755 6406 49631 15788 6420 377 35 78 90 92 43 21 21 35 23 32 25 35 26 28 21 26 1291 110 30 36 37 36 43 22 20
internal_value=0 6.26848e-06 7.56418e-05 0.000169397 0.000309989 0.00109894 0.00131535 0.00270584 0.00101019 0.00365748 0.00494422 0.00684891 0.00836868 0.00266042 0.00364818 0.00496124 0.00357638 0.00510478 0.00704138 0.00860405 0.00228706 0.000666347 0.00210714 0.00345046 0.00678385 -6.52074e-06 0.00161136 0.000179868 0.000226481 0.0042343
internal_weight=0 80878 31247 15459 9039 2633 2256 406 1850 316 194 113 92 319 227 167 121 86 60 46 81 1531 240 140 71 60 122 79 100 55
internal_count=217633 80878 31247 15459 9039 2633 2256 406 1850 316 194 113 92 319 227 167 121 86 60 46 81 1531 240 140 71 60 122 79 100 55
shrinkage=0.05


Tree=609
num_leaves=31
num_cat=0
split_feature=13 29 32 10 8 13 3 22 24 13 36 31 36 13 23 6 3 13 11 36 13 5 5 20 35 41 3 41 38 41
split_gain=0.00199044 0.00598741 0.0138096 0.0422141 0.0761287 0.00662967 0.00773497 0.00798408 0.00500632 0.0248807 0.0141629 0.00471698 0.00925355 0.0745068 0.0105053 0.0142826 0.00802028 0.0073827 0.0074162 0.00724125 0.0185319 0.00553224 0.00727599 0.00484936 0.0255018 0.0352536 0.00482716 0.00421848 0.00417404 0.0173585
threshold=0.00014699600000000001 2.0528200000000001 20.036400000000004 3.0656350000000003e-05 -7.6371749999999986e-06 0.00067115250000000012 -12.288549999999999 2.3223600000000002 -2.2419299999999995 0.00030062600000000007 -2.2564299999999995 -8.7764099999999985 -0.43959349999999991 0.00018205200000000001 -15.687599999999998 1.9315000000000005e-06 -15.993649999999997 0.00019235650000000003 7.6561400000000015e-05 -0.30938449999999995 0.00021504100000000004 1.0944500000000002e-05 1.2583550000000001e-05 16.002400000000005 -0.12126899999999999 0.37828249999999997 -15.732949999999999 -0.38541124999999993 -0.39553799999999995 0.43359400000000009
decision_type=2 2 2 2 2 2 2 2 2 2 2 2 2 2 2 2 2 2 2 2 2 2 2 2 2 2 2 2 2 2
left_child=-1 2 8 4 -4 6 7 -3 9 -2 -10 17 13 -13 15 -15 -16 18 -12 20 -14 -18 -23 28 25 -25 -19 -5 29 -21
right_child=1 5 3 27 -6 -7 -8 -9 10 -11 11 12 19 14 16 -17 21 26 -20 23 -22 22 -24 24 -26 -27 -28 -29 -30 -31
leaf_value=-2.1738539848176286e-06 0.0019104780368797971 -0.0017076284414625578 -0.00060389478264066083 9.8011999884997872e-05 0.003378585104032287 0.00016307451403509751 -0.00012121094076428474 -0.00038893356880483532 -0.0013208785162714754 -0.00023220403401345331 -0.00016858236485859008 0.0026068987580196512 -0.0017271809069262373 0.00016399639624127774 -0.00090999464570943797 0.0017006277298787611 -0.0008079665320110508 -0.00081693700603431183 -0.0014552068796807103 0.00096310219596489337 -9.3326442649413374e-05 0.00092260256285292346 -3.869294908273493e-05 0.0027940238850230042 -8.8712521026190237e-05 -1.1167071958576952e-05 -3.2354664308822052e-05 -0.000699842837251102 8.0630998717056733e-06 -7.960680510450403e-05
leaf_weight=180357 20 22 21 37 28 49 50 24 20 42 24 31 21 62 28 20 20 21 21 58 100 22 187 21 126 24 295 30 35724 128
leaf_count=180357 20 22 21 37 28 49 50 24 20 42 24 31 21 62 28 20 20 21 21 58 100 22 187 21 126 24 295 30 35724 128
internal_value=0 1.0518e-05 1.17703e-05 0.000556463 0.00167181 -0.000310153 -0.000551696 -0.00101961 1.00633e-05 0.000458984 9.31007e-06 1.00304e-05 1.18057e-05 0.000260586 4.6026e-05 0.000538785 -0.000111197 -0.000169822 -0.000769007 9.26307e-06 -0.000376888 -1.35269e-05 6.24961e-05 1.05581e-05 0.000276191 0.00129792 -8.44946e-05 -0.000259236 9.29313e-06 0.000245539
internal_weight=0 37276 37131 116 49 145 96 46 37015 62 36953 36933 36572 370 339 82 257 361 45 36202 121 229 209 36081 171 45 316 67 35910 186
internal_count=217633 37276 37131 116 49 145 96 46 37015 62 36953 36933 36572 370 339 82 257 361 45 36202 121 229 209 36081 171 45 316 67 35910 186
shrinkage=0.05


Tree=610
num_leaves=31
num_cat=0
split_feature=44 37 23 44 6 28 28 21 23 5 18 23 2 18 6 44 44 0 36 9 26 13 35 17 17 40 4 23 38 28
split_gain=0.00185311 0.0175844 0.0440781 0.0673365 0.0980608 0.102187 0.0461124 0.0242948 0.0234181 0.0300738 0.0352183 0.0221289 0.120394 0.0255081 0.01978 0.054317 0.0385408 0.0215498 0.0556666 0.0237387 0.0179311 0.0171976 0.0180189 0.0168897 0.0315374 0.0483839 0.0309734 0.114782 0.0180794 0.0585711
threshold=0.81788000000000027 9.5974100000000018e-07 -12.877249999999998 1.381785 -5.7203749999999994e-08 -0.041208949999999994 -0.65584149999999986 3.0686450000000005 -16.036999999999995 1.0944500000000002e-05 4.6049500000000007e-05 -12.424149999999999 -2.1054099999999996 0.00016883300000000004 -1.4101549999999999e-06 0.92650999999999961 1.03867 8.2756850000000011 0.069832100000000022 3.8012650000000006e-05 0.0058547700000000013 -9.8125249999999977e-05 -0.17054099999999997 1.3966850000000002e-05 1.1457750000000002e-05 0.24966499999999994 -0.45249949999999994 -9.205079999999997 -0.39553799999999995 1.0121250000000004
decision_type=2 2 2 2 2 2 2 2 2 2 2 2 2 2 2 2 2 2 2 2 2 2 2 2 2 2 2 2 2 2
left_child=-1 -2 3 4 7 -6 -5 -3 -8 10 -10 12 -4 -14 15 -13 -17 23 -19 -20 -21 -11 -23 24 -16 -26 27 -25 29 -28
right_child=1 2 11 6 5 -7 8 -9 9 21 -12 14 13 -15 17 16 -18 18 19 20 -22 22 -24 26 25 -27 28 -29 -30 -31
leaf_value=-3.163012654909234e-06 1.4170516593663912e-05 0.00038108355911390393 0.0041747746958571957 0.001593953974291005 -0.0054745299185160554 -0.0011780633400532328 -0.0015537513396191424 -0.0017063116982899374 -0.000194392136130345 0.00088508365501184017 0.0023730291925444778 0.0020476457469132065 -0.00056353706084387846 0.0012902454174472952 -0.00013162510584556128 -0.0015170764569503311 9.6815378228019068e-05 -0.0028823045794852081 0.00090297741723676858 3.6680722143501045e-05 -0.0019205449715214359 -0.0019348542099275317 -0.00045791822993467924 0.0034509813429218824 -0.0026860836662367109 -0.00013040738428927675 0.0021125703014580432 -0.00014562456799700532 -9.2207226546220863e-05 -0.0006286076456672163
leaf_weight=148051 63976 46 20 33 25 31 37 20 34 20 22 35 72 25 2448 38 1395 25 31 25 22 24 148 31 31 46 38 78 766 40
leaf_count=148051 63976 46 20 33 25 31 37 20 34 20 22 35 72 25 2448 38 1395 25 31 25 22 24 148 31 31 46 38 78 766 40
internal_value=0 6.73e-06 -7.81816e-05 -0.000558585 -0.00155721 -0.00309613 -0.000175465 -0.00025146 -0.000380345 -0.00020528 0.000814238 -3.72645e-05 0.000642538 -8.57581e-05 -5.30175e-05 0.000101551 5.40185e-05 -0.000116381 -0.000829129 -0.00017106 -0.000879467 -0.000502639 -0.000664002 -9.52735e-05 -0.000162965 -0.00115932 8.40759e-05 0.000877263 -1.83618e-05 0.000706838
internal_weight=0 69582 5606 440 122 56 318 66 285 248 56 5166 117 97 5049 1468 1433 3581 103 78 47 192 172 3478 2525 77 953 109 844 78
internal_count=217633 69582 5606 440 122 56 318 66 285 248 56 5166 117 97 5049 1468 1433 3581 103 78 47 192 172 3478 2525 77 953 109 844 78
shrinkage=0.05


Tree=611
num_leaves=31
num_cat=0
split_feature=43 23 3 40 3 3 20 43 43 26 40 40 36 16 14 6 40 40 7 41 9 16 20 23 17 6 40 40 7 34
split_gain=0.00181763 0.0151534 0.00851508 0.0681079 0.0156164 0.0105618 0.0896156 0.0258381 0.0500362 0.0232918 0.0260897 0.150911 0.00779507 0.0336309 0.0403628 0.0770505 0.102105 0.291568 0.242872 0.111668 0.241503 0.196179 0.208586 0.18523 0.110099 0.0851547 0.146395 0.0797756 0.0737146 0.0690177
threshold=2.6836000000000007 -20.320949999999996 -17.495099999999997 0.1751400000000001 -17.069699999999997 -15.732949999999999 7.1058900000000014 9.7613850000000024 6.0173949999999996 -0.00039100399999999997 -0.3819765 0.20129000000000011 -0.046235849999999988 -2.8874799999999993e-07 0.0072893450000000009 1.6527500000000002e-06 -0.25142799999999998 -0.058960000000000005 3.6724600000000004e-05 -0.60497499999999982 -2.4587249999999997e-05 -8.6326249999999977e-06 4.8193800000000007 -12.100849999999999 7.9657250000000011e-07 2.4187900000000002e-06 0.327845 -0.40968649999999995 2.8896600000000004e-05 0.4236100000000001
decision_type=2 2 2 2 2 2 2 2 2 2 2 2 2 2 2 2 2 2 2 2 2 2 2 2 2 2 2 2 2 2
left_child=1 -1 3 -2 -4 6 7 8 9 -6 -11 -12 13 14 15 16 27 18 -18 -19 -21 24 23 -23 -22 26 -17 -3 -25 -30
right_child=2 12 4 -5 5 -7 -8 -9 -10 10 11 -13 -14 -15 -16 25 17 19 -20 20 21 22 -24 28 -26 -27 -28 -29 29 -31
leaf_value=0.0011202360747847705 -0.0023354124808166589 -3.1856820118626271e-05 0.0010779294408327104 0.0014123640594665299 0.0011544315872015433 7.2297330643931962e-06 0.002918711741222069 0.0011674585548462346 -0.0029745834589861757 5.1092289259031527e-05 -0.0048433304933661768 -0.00022371063866659017 -1.2667837306854457e-06 -0.00017209497022308194 -0.00016511267613368536 -0.0041309601894770117 0.0010967217593226965 -2.9517901688527564e-05 0.0068340324282845756 0.004962540533877193 0.00019701910787262022 -0.0035918126766946879 0.0054580694180913275 -0.00067730179638601838 -0.0045964304051860543 0.00011339690341366683 -0.00022589784229138686 -0.0032936004659859467 0.0008487892791163177 0.0048648985102772713
leaf_weight=30 27 299 34 22 20 76635 20 20 22 80 22 90 135206 3050 983 36 39 377 35 39 25 21 28 20 23 295 72 20 20 23
leaf_count=30 27 299 34 22 20 76635 20 20 22 80 22 90 135206 3050 983 36 39 377 35 39 25 21 28 20 23 295 72 20 20 23
internal_value=0 -3.38086e-06 6.1758e-06 -0.000652737 6.59542e-06 6.12181e-06 -0.000303754 -0.000557492 -0.000704923 -0.000469393 -0.000638541 -0.00113114 -3.62059e-06 -6.2501e-05 7.94361e-05 0.000254648 0.00049629 0.000855849 0.00381031 0.000476282 0.00143451 0.000574549 0.00172072 0.000474933 -0.00209984 -0.00032637 -0.00152759 -0.000236355 0.00183051 0.00299694
internal_weight=0 140641 76992 49 76943 76909 274 254 234 212 192 112 140611 5405 2355 1372 969 650 74 576 199 160 112 84 48 403 108 319 63 43
internal_count=217633 140641 76992 49 76943 76909 274 254 234 212 192 112 140611 5405 2355 1372 969 650 74 576 199 160 112 84 48 403 108 319 63 43
shrinkage=0.05


Tree=612
num_leaves=31
num_cat=0
split_feature=40 22 1 13 1 29 2 21 43 38 43 21 40 25 32 26 15 4 32 6 1 16 2 22 21 37 21 43 21 12
split_gain=0.00183239 0.0157243 0.0651543 0.117274 0.0290985 0.0139931 0.0129562 0.0571119 0.132818 0.0488948 0.275486 0.0467929 0.0861152 0.0542879 0.0885314 0.0655907 0.0680545 0.102804 0.0458581 0.0383746 0.0363208 0.0317326 0.0138878 0.0118239 0.0874029 0.0816293 0.0668223 0.0644679 0.0342792 0.0372447
threshold=-0.57440449999999987 3.0676500000000004 0.80539150000000015 -3.1724749999999996e-06 1.0868900000000001 0.18537850000000003 -2.9192849999999999 0.77184100000000011 0.64319500000000052 -0.0083346849999999997 1.1890849999999997 -2.0281699999999994 0.016888500000000004 0.20499650000000003 0.034387400000000005 0.00018073150000000004 9.2075100000000014e-09 0.10312400000000001 0.061239450000000008 -7.9179699999999979e-07 -1.3583049999999999 -2.3902349999999992e-07 -2.9939399999999998 2.9381050000000006 6.3306750000000012 2.2463100000000002e-07 -1.6594799999999996 2.9569100000000006 3.6376800000000005 1.1504300000000003e-05
decision_type=2 2 2 2 2 2 2 2 2 2 2 2 2 2 2 2 2 2 2 2 2 2 2 2 2 2 2 2 2 2
left_child=-1 6 3 -3 -4 -6 7 9 -9 10 -2 12 -11 -13 15 16 17 -15 -16 -12 -14 -19 -20 -8 25 26 -25 -27 29 -28
right_child=1 2 4 -5 5 -7 23 8 -10 11 19 13 20 14 18 -17 -18 21 22 -21 -22 -23 -24 24 -26 27 28 -29 -30 -31
leaf_value=5.627930293261222e-06 -0.0057010501307768911 -0.0040511832863558087 0.0018483277573614031 0.00033406542704230357 1.0756072994653795e-05 -0.0012591353590833024 -2.7900330793821946e-06 0.0040641405212809333 -0.00076739246106406051 -6.6964376212050571e-05 -0.0004714152809356165 0.00052620077905793426 0.00093328599151308578 -0.0047842055887923826 0.0019251345468640872 -0.0042809081439156129 -0.00011700861703667959 -0.0020804918821130951 0.0002511013052329266 0.0023205086382222361 0.0038773420886718669 0.00053272465413014983 -0.0012833499445997435 0.0028143842630088331 0.0031689463309400403 -0.0031295143254806827 0.00091032906278362821 -4.912797794012087e-05 0.0018194265085427711 -0.00012277683820666925
leaf_weight=86888 26 30 20 31 164 25 128942 25 33 334 32 79 22 27 29 21 66 26 30 20 20 21 29 25 24 33 109 35 30 437
leaf_count=86888 26 30 20 31 164 25 128942 25 33 334 32 79 22 27 29 21 66 26 30 20 20 21 29 25 24 33 109 35 30 437
internal_value=0 -3.7401e-06 -0.000384916 -0.00182261 3.46994e-05 -0.000157219 -2.95131e-06 -0.000198686 0.00131516 -0.000310966 -0.00149875 -0.000179365 0.000201364 -0.000615811 -0.000978136 -0.00167516 -0.0012843 -0.00232539 0.0002971 0.000602402 0.00233522 -0.000912884 -0.00050312 -1.68301e-06 0.000204294 9.79392e-05 0.000283718 -0.00154402 0.000173881 8.34659e-05
internal_weight=0 130745 270 61 209 189 130475 840 58 782 78 704 376 328 249 161 140 74 88 52 42 47 59 129635 693 669 601 68 576 546
internal_count=217633 130745 270 61 209 189 130475 840 58 782 78 704 376 328 249 161 140 74 88 52 42 47 59 129635 693 669 601 68 576 546
shrinkage=0.05


Tree=613
num_leaves=31
num_cat=0
split_feature=17 37 17 25 4 41 29 25 24 31 9 37 43 23 19 24 30 5 43 23 43 26 39 42 41 21 9 11 20 21
split_gain=0.00182224 0.00900694 0.0614017 0.0137209 0.0251844 0.0129657 0.00965785 0.0208836 0.0104627 0.00902217 0.0594969 0.0278754 0.0176311 0.0487052 0.00880411 0.00750016 0.0111122 0.00904592 0.0162518 0.0117566 0.0321176 0.0654428 0.0153834 0.0187171 0.102707 0.0443458 0.0529402 0.0371503 0.0305796 0.029948
threshold=2.5901300000000006e-05 -6.2538149999999987e-05 5.7099050000000007e-05 53.742400000000011 4.1822950000000008 0.43359400000000009 -1.2159399999999998 38.031000000000013 2.1521500000000002 -6.1956549999999995 8.781530000000002e-05 -2.7510949999999998e-05 -1.1067849999999997 -9.8578649999999985 0.11686450000000001 0.54950250000000012 0.12582950000000004 9.2265950000000021e-06 1.8131900000000003 -14.758849999999999 0.31279500000000043 -0.0007440124999999999 0.095974000000000018 0.354709 0.35345999999999994 8.1649450000000012 -2.0514499999999998e-05 0.00021904350000000002 -4.7705699999999993 -1.7478799999999997
decision_type=2 2 2 2 2 2 2 2 2 2 2 2 2 2 2 2 2 2 2 2 2 2 2 2 2 2 2 2 2 2
left_child=-1 2 -2 4 -4 -5 7 -3 9 10 11 -8 13 -13 -9 -11 17 18 -17 20 21 -19 23 24 25 26 28 29 -21 -28
right_child=1 6 3 5 -6 -7 8 14 -10 15 -12 12 -14 -15 -16 16 -18 19 -20 22 -22 -23 -24 -25 -26 -27 27 -29 -30 -31
leaf_value=-1.8712741338121363e-06 0.0021268855605740102 -0.0017857182837112554 0.0017354155852808619 -0.0017230229312851656 -0.00054033660548626474 -0.00011333082702235673 -0.0015679697727571931 -0.00028189035755732731 0.0010552477366161384 1.510959060551105e-05 0.0029284133229521107 0.0029981479491107167 -3.7786472465537593e-05 -7.9262878433736559e-05 0.00078218911949079484 -0.00011451190712716946 0.00087062157606681016 0.0035360883438261231 -0.0018675845851248596 -0.001233770313410787 -4.4207435714680268e-06 -0.00018170296032872887 0.00083312641503365936 1.8074044926263308e-05 -3.0907659094866955e-05 -0.0036456666834419598 0.0018349656277374987 -0.0014343031653816282 -0.0034963672460954901 -0.00068986918312989674
leaf_weight=186444 38 22 20 22 31 29 23 167 24 28559 20 20 133 36 22 39 30 20 20 32 510 29 38 607 560 20 24 43 28 23
leaf_count=186444 38 22 20 22 31 29 23 167 24 28559 20 20 133 36 22 39 30 20 20 32 510 29 38 607 560 20 24 43 28 23
internal_value=0 1.11862e-05 0.000411332 -0.000227796 0.000352115 -0.000807708 9.38199e-06 -0.000327741 1.16887e-05 1.08759e-05 0.000321504 7.55688e-05 0.000275576 0.00101981 -0.000158029 8.51939e-06 -8.45155e-05 -9.88929e-05 -0.000708774 -8.02874e-05 0.000113055 0.00133576 -0.00015889 -0.000187085 -0.000357676 -0.00143409 -0.00113921 -0.000372254 -0.00228965 0.000599408
internal_weight=0 31189 140 102 51 51 31049 211 30838 30814 232 212 189 56 189 30582 2023 1993 59 1934 559 49 1375 1337 730 170 150 90 60 47
internal_count=217633 31189 140 102 51 51 31049 211 30838 30814 232 212 189 56 189 30582 2023 1993 59 1934 559 49 1375 1337 730 170 150 90 60 47
shrinkage=0.05


Tree=614
num_leaves=31
num_cat=0
split_feature=35 11 8 34 11 29 8 18 16 13 43 43 15 11 33 18 40 8 19 24 1 10 15 36 14 19 14 18 40 16
split_gain=0.00190008 0.0150612 0.0181256 0.0136012 0.016975 0.0118762 0.0108204 0.0400772 0.0206129 0.0258426 0.0131664 0.0122476 0.00789134 0.00783629 0.00592398 0.0223026 0.0692669 0.106904 0.0547655 0.00944771 0.0057141 0.00454806 0.00420609 0.00416155 0.0483562 0.0892294 0.047136 0.0332223 0.0594256 0.019231
threshold=-4.3203749999999994 0.00040688200000000007 4.7147500000000009e-06 10.726400000000002 0.00017205800000000003 -2.4419499999999998 1.3245700000000003e-05 -3.6458549999999993e-05 7.5631600000000019e-07 -1.3473299999999999e-05 3.0124600000000004 5.6346800000000004 -8.2618699999999988e-07 -8.0872649999999985e-05 0.0031288150000000005 -9.6173349999999976e-06 0.91906500000000002 7.3677000000000015e-06 0.0002560000000000001 -1.4574199999999997 -11.632549999999998 0.00010661950000000001 -1.1433699999999999e-07 -2.2564299999999995 0.030258200000000002 0.0063939700000000014 0.0064150250000000004 -0.00078172349999999986 -0.60254799999999997 6.4713950000000014e-05
decision_type=2 2 2 2 2 2 2 2 2 2 2 2 2 2 2 2 2 2 2 2 2 2 2 2 2 2 2 2 2 2
left_child=1 3 -3 -1 6 -6 8 -8 21 11 13 -10 -12 -11 23 16 17 -16 -19 -18 -17 -5 -22 24 26 -26 29 -28 -29 -2
right_child=14 2 -4 4 5 -7 7 -9 9 10 12 -13 -14 -15 15 20 19 18 -20 -21 22 -23 -24 -25 25 -27 27 28 -30 -31
leaf_value=0.0011673203416285105 -0.0001657303076721627 0.0017961464057525914 -0.00026197717495961119 -4.8936105231516155e-05 -0.0019592092107770789 -0.00036053001967957244 0.0023593747560516931 -2.5291409619475836e-05 -0.0025419890327611941 0.0010259298743735797 -0.0014966513182364659 -0.00087359127096120091 -0.00037322647940190684 -0.00027926814939786235 0.0040178651343255002 -0.00086402421962702655 -0.0012738178420737055 0.0023472848575329408 -0.00096852390001224583 -6.7512351022507517e-06 -0.00026398233780072945 0.00072322922027524329 0.0001279107895464443 2.6971276342051953e-07 0.0039162938087247317 6.7330886479424046e-06 -0.00034249872409329731 -0.00068493786395993088 -0.0043415433715563263 0.0013854301152085621
leaf_weight=20 412 23 20 410 21 26 20 148 22 23 22 22 54 23 30 20 28 20 33 31 99 20 222 215683 20 54 41 25 20 21
leaf_count=20 412 23 20 410 21 26 20 148 22 23 22 22 54 23 30 20 28 20 33 31 99 20 222 215683 20 54 41 25 20 21
internal_value=0 -7.35743e-05 0.00083888 -0.000120789 -0.000152555 -0.00107483 -9.5818e-05 0.000258597 -0.00019572 -0.000668977 -0.000294322 -0.00170779 -0.000698428 0.000373331 2.96661e-07 0.000175208 0.00070172 0.00163278 0.000282725 -0.000608071 -4.40426e-05 -1.30214e-05 7.04655e-06 -9.39619e-08 -0.000132368 0.00106337 -0.000302859 -0.00137206 -0.0023101 -9.05008e-05
internal_weight=0 874 43 831 811 47 764 168 596 166 122 44 76 46 216759 483 142 83 53 59 341 430 321 216276 593 74 519 86 45 433
internal_count=217633 874 43 831 811 47 764 168 596 166 122 44 76 46 216759 483 142 83 53 59 341 430 321 216276 593 74 519 86 45 433
shrinkage=0.05


Tree=615
num_leaves=31
num_cat=0
split_feature=23 36 3 7 25 11 11 16 3 39 40 40 40 21 40 29 37 3 2 16 15 3 36 28 37 36 3 9 9 13
split_gain=0.00179164 0.0103455 0.0638867 0.012823 0.00676865 0.00607479 0.0238292 0.0106878 0.0247458 0.0466339 0.0610479 0.172352 0.17241 0.0464625 0.018818 0.0179026 0.00898597 0.0253257 0.0361107 0.021983 0.0237305 0.00865854 0.00788182 0.00760674 0.00595913 0.0055423 0.00517688 0.00655088 0.00465976 0.0117246
threshold=-6.1276249999999992 -0.0013312399999999998 -6.0035249999999989 6.7809300000000008e-05 0.15637350000000003 2.2232350000000001e-05 2.1571850000000003e-05 1.7823250000000002e-07 -6.9704649999999999 2.4575800000000006e-05 0.22528099999999995 -0.14969009999999991 -0.018010000000000078 4.6976250000000013 -1.0422104999999997 0.16279950000000001 3.7614450000000006e-08 -7.4119349999999988 -0.53849999999999987 1.2311050000000001e-05 7.0470800000000012e-07 -7.9298599999999988 -0.0012103199999999998 0.034568200000000007 0.00046534500000000004 0.86690500000000015 -8.9455249999999982 3.1090750000000007e-05 4.6760200000000007e-05 2.0437000000000004e-05
decision_type=2 2 2 2 2 2 2 2 2 2 2 2 2 2 2 2 2 2 2 2 2 2 2 2 2 2 2 2 2 2
left_child=-1 2 3 -2 -3 6 7 22 24 -10 11 14 -13 -14 -11 23 -7 21 -19 20 -20 26 -6 -12 25 -9 -18 -28 -24 -30
right_child=1 4 -4 -5 5 16 -8 8 9 10 15 12 13 -15 -16 -17 17 18 19 -21 -22 -23 28 -25 -26 -27 27 -29 29 -31
leaf_value=-7.9669059297639637e-07 -7.3195545383465582e-05 0.00073903292908225398 -0.0023266870657221951 0.0013197605662207935 0.00096729595714437208 2.2370397922441282e-05 0.0016356330503185747 -9.4674379024517496e-06 2.1660863631285805e-05 -0.00020125464210625618 -0.00016878539411011487 0.0073930448549799624 0.0034561243174331528 0.00016810372432122348 0.0014669350722794083 0.001184887615745538 -2.2799111155715461e-05 -0.0027760436242845444 -0.0006699861683629048 -0.0018356397432009028 0.0014483867900889893 0.00070487965646732077 6.4358616957011029e-06 -0.0013367977589950897 -0.00085422923482838089 0.00060896422161788098 -0.0011280555179557549 -0.00015602741463785957 -5.5811263684236241e-05 -0.0014263643329650222
leaf_weight=211122 95 34 33 20 21 1445 24 777 309 73 46 20 21 22 22 20 300 21 39 21 20 35 2846 20 20 38 26 52 71 20
leaf_count=211122 95 34 33 20 21 1445 24 777 309 73 46 20 21 22 22 20 300 21 39 21 20 35 2846 20 20 38 26 52 71 20
internal_value=0 2.5833e-05 -0.000387426 0.000169058 3.54452e-05 3.16655e-05 6.44633e-05 5.57868e-05 0.000170252 0.000429674 0.000946379 0.00152987 0.00355774 0.00177388 0.000185063 -0.000125608 -4.14975e-05 -0.000221048 -0.000930763 -0.000446377 4.81064e-05 -4.74862e-05 2.07566e-06 -0.000522729 -1.55706e-06 1.93674e-05 -0.00011715 -0.000480037 -4.82582e-06 -0.000357032
internal_weight=0 6511 148 115 6363 6329 4370 4346 1388 553 244 158 63 43 95 86 1959 514 101 80 59 413 2958 66 835 815 378 78 2937 91
internal_count=217633 6511 148 115 6363 6329 4370 4346 1388 553 244 158 63 43 95 86 1959 514 101 80 59 413 2958 66 835 815 378 78 2937 91
shrinkage=0.05


Tree=616
num_leaves=31
num_cat=0
split_feature=13 29 32 10 8 2 40 24 13 36 31 36 13 25 3 13 11 31 10 36 13 20 35 40 3 4 13 22 18 24
split_gain=0.00178162 0.00558094 0.0121436 0.0376258 0.0671154 0.00595159 0.00432286 0.00421147 0.021632 0.0122497 0.00408782 0.00864785 0.066617 0.00965637 0.00766176 0.00653728 0.00667953 0.00637529 0.00663138 0.0060601 0.0165367 0.00442665 0.0226841 0.0315224 0.00434455 0.00401186 0.00385147 0.00650532 0.00367156 0.0313013
threshold=0.00014699600000000001 2.0528200000000001 20.036400000000004 3.0656350000000003e-05 -7.6371749999999986e-06 2.2570350000000006 -0.079468000000000025 -2.2419299999999995 0.00030062600000000007 -2.2564299999999995 -8.7764099999999985 -0.43959349999999991 0.00018205200000000001 10.786550000000002 -16.722199999999997 0.00019235650000000003 7.6561400000000015e-05 -6.1956549999999995 1.7328400000000005e-05 -0.30938449999999995 0.00021504100000000004 16.002400000000005 -0.12126899999999999 -0.27744100000000016 -14.818499999999998 2.9223900000000005 0.00047077200000000005 2.4622600000000006 -1.4018299999999999e-05 -0.28484049999999994
decision_type=2 2 2 2 2 2 2 2 2 2 2 2 2 2 2 2 2 2 2 2 2 2 2 2 2 2 2 2 2 2
left_child=28 2 7 4 -4 26 -5 8 -2 -9 15 12 -12 -14 -15 16 -11 -16 -19 20 -13 -21 23 -23 25 -17 27 -3 29 -1
right_child=1 5 3 6 -6 -7 -8 9 -10 10 11 19 13 14 17 24 -18 18 -20 21 -22 22 -24 -25 -26 -27 -28 -29 -30 -31
leaf_value=7.7735584927945679e-05 0.0017747224675258623 -0.0010518926579746993 -0.00056181426979102459 -0.00078573856735602026 0.0031774877578884899 -0.001100477422005497 5.189356288187704e-05 -0.001228218542491959 -0.00022318226115852931 -0.00015190116355370267 0.0024703001718021809 -0.0016200572041617262 0.0008352753149042006 -0.00098762967383663651 0.0008855664942529984 -8.5197866825513892e-05 -0.0013729529774060385 -0.00091561524930739335 3.1415213144458399e-05 8.7091760736292306e-06 -7.6661596074700358e-05 -1.0532034139032476e-05 -8.0445227479411562e-05 0.0026420590757403432 -5.0119608233987242e-06 -0.0010636541003623279 0.00011277447717520029 -2.5494513906060573e-05 1.8054586238640827e-06 -3.5824308601159093e-05
leaf_weight=7412 20 26 21 24 28 20 43 20 42 24 31 21 35 20 20 22 21 20 244 35910 100 24 126 21 274 20 61 38 139478 33467
leaf_count=7412 20 26 21 24 28 20 43 20 42 24 31 21 35 20 20 22 21 20 244 35910 100 24 126 21 274 20 61 38 139478 33467
internal_value=0 9.95102e-06 1.116e-05 0.000521942 0.00157493 -0.000299643 -0.000248154 9.55929e-06 0.000421303 8.86847e-06 9.53838e-06 1.11911e-05 0.000251691 4.88094e-05 -4.17377e-05 -0.00015789 -0.000721725 2.48744e-05 -4.03295e-05 8.73304e-06 -0.000344524 9.91771e-06 0.00026371 0.00122734 -7.75972e-05 -0.000551129 -0.00017151 -0.000442469 -2.05667e-06 -1.52341e-05
internal_weight=0 37276 37131 116 49 145 67 37015 62 36953 36933 36572 370 339 304 361 45 284 264 36202 121 36081 171 45 316 42 125 64 180357 40879
internal_count=217633 37276 37131 116 49 145 67 37015 62 36953 36933 36572 370 339 304 361 45 284 264 36202 121 36081 171 45 316 42 125 64 180357 40879
shrinkage=0.05


Tree=617
num_leaves=31
num_cat=0
split_feature=44 44 23 3 27 37 43 12 21 10 10 21 12 10 40 21 34 4 4 1 31 11 13 17 27 6 20 21 40 23
split_gain=0.00181633 0.0166167 0.0532031 0.104412 0.0483577 0.0657605 0.0447232 0.061033 0.0407354 0.0562047 0.0416362 0.0708166 0.151882 0.0498778 0.0629265 0.0444082 0.0482142 0.0406491 0.158821 0.107901 0.0389323 0.106401 0.163004 0.223757 0.342765 0.167821 0.139811 0.0656912 0.281586 0.295388
threshold=0.81788000000000027 0.23534999999999953 -13.148399999999997 -13.707299999999998 10.741350000000002 -5.2213149999999988e-06 -0.23716000000000023 1.9714300000000002e-05 -5.0001749999999996 1.5030250000000002e-05 2.3969500000000005e-05 -3.7462599999999999 -0.00021507149999999998 2.1587450000000003e-05 -0.22452634999999985 2.3968500000000001 0.081872500000000015 -0.54650249999999989 -1.4133199999999999 -4.6697349999999984 0.06820240000000001 -4.4153649999999994e-05 4.3872650000000008e-05 9.3118750000000014e-06 0.48146750000000005 2.7956050000000007e-06 -5.5138199999999991 5.6987800000000011 -0.058960000000000005 -7.6924349999999988
decision_type=2 2 2 2 2 2 2 2 2 2 2 2 2 2 2 2 2 2 2 2 2 2 2 2 2 2 2 2 2 2
left_child=1 -1 3 8 5 -4 20 -8 9 -3 11 12 -10 -13 -15 -12 -17 18 -6 -20 -7 22 23 24 -22 -26 -25 -23 -29 -30
right_child=-2 2 4 -5 17 6 7 -9 10 -11 15 13 -14 14 -16 16 -18 -19 19 -21 21 27 -24 26 25 -27 -28 28 29 -31
leaf_value=1.4312696010198787e-06 6.6628754181005155e-06 -0.0031930699683289281 -0.0025968437441406425 0.0030176949827257302 4.5307748615691117e-05 -6.4900908757993544e-05 -0.0037464559782165452 0.00015972593742844766 0.0056613281877833377 -9.0223277899255033e-05 0.00025295897325959934 0.00013792621439012547 0.00033746569094325206 -0.00016872007273259048 0.0033074431697605179 -0.0031558929629682099 -0.0004333497163524849 9.4566639733137438e-05 0.00097983688290696584 0.0060541977312161847 -0.0076343077081673988 8.3661407736551185e-05 -3.6584597406741156e-05 -0.0019910308784687916 -0.00093592430936292209 -0.0058613580867781174 0.0025511960913313994 2.6651898361744017e-05 -0.0081820600951080756 -0.00041621197221684272
leaf_weight=137825 69582 20 27 34 115 6864 20 20 21 54 284 307 37 23 30 20 87 552 20 22 32 991 218 32 98 21 36 192 24 25
leaf_count=137825 69582 20 27 34 115 6864 20 20 21 54 284 307 37 23 30 20 87 552 20 22 32 991 218 32 98 21 36 192 24 25
internal_value=0 -3.13146e-06 -6.46275e-05 0.000298745 -0.000100422 -0.000133143 -0.000125384 -0.00179337 0.000194052 -0.00092883 0.000296763 0.000643685 0.00226507 0.000382461 0.00179892 -7.41149e-05 -0.000942236 0.000296474 0.00100637 0.00363784 -0.000117565 -0.000334153 -0.00100447 -0.00196793 -0.00304044 -0.00180512 0.000413678 -9.63873e-05 -0.000836753 -0.00421989
internal_weight=0 148051 10226 917 9309 8600 8573 40 883 74 809 418 58 360 53 391 107 709 157 42 8533 1669 437 219 151 119 68 1232 241 49
internal_count=217633 148051 10226 917 9309 8600 8573 40 883 74 809 418 58 360 53 391 107 709 157 42 8533 1669 437 219 151 119 68 1232 241 49
shrinkage=0.05


Tree=618
num_leaves=31
num_cat=0
split_feature=35 3 3 16 8 16 15 36 21 33 33 18 0 2 14 3 12 5 14 11 34 11 17 36 14 19 14 3 26 43
split_gain=0.001793 0.0142323 0.0391319 0.0127069 0.0120426 0.0172188 0.032771 0.011853 0.0110791 0.00997332 0.00536993 0.0200731 0.062457 0.0281457 0.00862255 0.00816642 0.0078462 0.00524862 0.00483236 0.00446683 0.0041947 0.00791984 0.004584 0.00391081 0.0439815 0.0783801 0.0436827 0.0376923 0.0264764 0.0190375
threshold=-4.3203749999999994 -15.040049999999999 -16.131449999999997 7.5631600000000019e-07 1.3245700000000003e-05 2.9426600000000004e-05 -8.2618699999999988e-07 3.8353050000000004 6.0533600000000005 0.0031288150000000005 0.0031288150000000005 -9.6173349999999976e-06 -4.5031199999999991 -1.4330849999999997 0.010316650000000002 -5.7841449999999996 0.0003174535000000001 1.7938100000000004e-05 7.2217900000000012e-05 -7.2289149999999995e-05 14.135600000000002 0.00013888100000000001 7.2914600000000015e-05 -2.2564299999999995 0.030258200000000002 0.0063939700000000014 0.0064150250000000004 -13.614249999999998 0.0020748500000000005 0.60048999999999852
decision_type=2 2 2 2 2 2 2 2 2 2 2 2 2 2 2 2 2 2 2 2 2 2 2 2 2 2 2 2 2 2
left_child=1 2 -1 20 5 6 -5 -6 17 -8 23 12 -12 -14 -15 19 -16 -7 -17 -13 -3 22 -22 24 26 -26 29 -28 -29 -2
right_child=10 3 -4 4 7 8 9 -9 -10 -11 11 15 13 14 16 18 -18 -19 -20 -21 21 -23 -24 -25 25 -27 27 28 -30 -31
leaf_value=-0.00042688060768980639 -0.0012407382712064481 0.00052345192808489732 0.0020506110513711716 -0.0024263068340763813 -0.0004287724989337911 -0.00091535529213348024 8.7523141976546604e-05 0.0010911554010817782 0.00073886097928222566 -0.0011763314893296749 0.0024656815447087867 -0.00036385613797044265 0.0016472492839304986 -0.00084474852651923856 0.00086983951041474938 -0.0002083926494898541 -0.00053071391608682471 -4.9090370804252523e-05 -0.0010863879672251642 0.00017167295650063951 -1.942749592834319e-05 -0.00085269304641509992 0.00075308563595172023 2.6882125506593224e-07 0.003685920499556232 2.1740093884377362e-05 -0.0027877176222067773 0.00031275525958763493 -0.0018837579209661191 8.7506727359141228e-06
leaf_weight=37 33 36 28 31 29 34 37 23 26 27 36 47 22 44 20 42 20 36 25 227 482 28 20 215683 20 54 29 34 23 400
leaf_count=37 33 36 28 31 29 34 37 23 26 27 36 47 22 44 20 42 20 36 25 227 482 28 20 215683 20 54 29 34 23 400
internal_value=0 -7.14712e-05 0.000640347 -0.000128663 -0.00043109 -0.000614749 -0.00109198 0.000243503 -0.000142489 -0.000445666 2.88181e-07 0.00016682 0.000666321 5.52176e-05 -0.000361743 -4.11838e-05 0.000169563 -0.000469848 -0.000536003 7.98121e-05 1.1776e-06 -3.42976e-05 1.13499e-05 -8.37269e-08 -0.000128311 0.00101206 -0.000290907 -0.00132019 -0.000573557 -8.6476e-05
internal_weight=0 874 65 809 243 191 95 52 96 64 216759 483 142 106 84 341 40 70 67 274 566 530 502 216276 593 74 519 86 57 433
internal_count=217633 874 65 809 243 191 95 52 96 64 216759 483 142 106 84 341 40 70 67 274 566 530 502 216276 593 74 519 86 57 433
shrinkage=0.05


Tree=619
num_leaves=31
num_cat=0
split_feature=40 22 31 21 19 36 23 21 40 31 4 25 11 22 21 40 44 20 44 10 40 21 44 19 38 17 17 44 3 18
split_gain=0.00178544 0.0279545 0.0601152 0.0617896 0.0505072 0.139196 0.0503885 0.044012 0.0463146 0.0402097 0.0832728 0.0381068 0.02816 0.0188033 0.200892 0.485377 0.378876 0.0839472 0.316275 0.115362 0.394965 0.0656158 0.234075 0.0589653 0.048136 0.108412 0.378567 0.0486415 0.0679972 0.0337351
threshold=0.24966499999999994 -2.9623449999999996 3.1828900000000004 -2.0281699999999994 1.0077000000000001e-08 -6.4303699999999992e-05 -8.9766299999999983 0.26237100000000008 0.02582950000000005 0.14839100000000002 0.36048500000000006 0.27692750000000005 -6.9454799999999977e-05 -2.6299349999999992 -6.488389999999999 -0.011175000000000155 -2.0033199999999987 -3.4870349999999992 0.36284999999999995 2.7034150000000006e-05 -0.011175000000000155 0.69234250000000008 -0.31477499999999997 1.1521400000000002e-06 -0.00026899199999999996 4.6606600000000007e-08 -1.4503199999999997e-07 0.46045500000000011 -13.799749999999998 -0.00016939049999999998
decision_type=2 2 2 2 2 2 2 2 2 2 2 2 2 2 2 2 2 2 2 2 2 2 2 2 2 2 2 2 2 2
left_child=1 2 3 6 5 -5 -1 9 -9 -6 12 -7 -11 14 15 -3 -17 19 -19 20 -16 24 -23 -22 25 26 29 28 -27 -21
right_child=-2 13 -4 4 7 11 -8 8 -10 10 -12 -13 -14 -15 17 16 -18 18 -20 21 23 22 -24 -25 -26 27 -28 -29 -30 -31
leaf_value=0.0027640963399160404 5.0756180087897772e-06 -0.0016364336356696771 -0.0028389435679855527 -0.0047613211724747096 4.9861286176959438e-05 0.00057752584325498901 0.00012884111878520344 0.0029983786115190016 -0.00022974478539254051 0.00087529440255214785 -0.004111922393453175 -0.00201322425207102 -0.0014785824179987821 -4.7186519772221911e-06 0.0078069173387484625 0.00061707767352345408 0.0096274990660715192 -0.00053433541721460644 0.0059012687154920843 0.00040470267629730402 0.00098105343198403726 -0.0010211708308289465 0.0053696471479032998 -0.002661360957918078 -7.613157543793208e-05 -0.0027176254324149341 -0.0081675195263371629 -0.0019048128814909814 0.00035635177557613227 -0.0020902766452854846
leaf_weight=26 96465 39 24 25 113 40 60 20 25 24 21 22 27 119381 20 20 28 60 28 42 25 38 23 20 739 20 21 38 179 20
leaf_count=26 96465 39 24 25 113 40 60 20 25 24 21 22 27 119381 20 20 28 60 28 42 25 38 23 20 739 20 21 38 179 20
internal_value=0 -4.04083e-06 -0.000407886 -0.000263108 -0.000585583 -0.00161176 0.000925546 -0.000197421 0.00120498 -0.000538544 -0.00146201 -0.000341773 -0.000370876 -2.61263e-06 0.000182254 0.00250679 0.00587316 2.33894e-05 0.00151336 -8.7258e-05 0.00196058 -0.000206106 0.00138848 -0.000637797 -0.000297956 -0.000810232 -0.00236537 -0.000265605 4.74093e-05 -0.000400129
internal_weight=0 121168 427 403 317 87 86 230 45 185 72 62 51 120741 1360 87 48 1273 88 1185 65 1120 61 45 1059 320 83 237 199 62
internal_count=217633 121168 427 403 317 87 86 230 45 185 72 62 51 120741 1360 87 48 1273 88 1185 65 1120 61 45 1059 320 83 237 199 62
shrinkage=0.05


Tree=620
num_leaves=31
num_cat=0
split_feature=21 44 1 8 3 25 17 5 29 40 40 4 11 25 43 17 43 33 4 34 3 3 8 23 44 38 44 10 15 15
split_gain=0.00175161 0.0157166 0.0262952 0.0248611 0.0483528 0.150022 0.0540759 0.0444102 0.0270392 0.100791 0.161848 0.0350528 0.021871 0.0207327 0.0581297 0.0291872 0.066373 0.0287655 0.0152537 0.0139771 0.01149 0.0140579 0.0160334 0.0266628 0.011143 0.0109442 0.0366065 0.0117343 0.0229342 0.0392758
threshold=-12.332599999999998 0.19419999999999996 -10.856449999999997 1.2071550000000001e-05 -8.1461699999999979 11.782150000000001 1.2509250000000002e-06 1.2523200000000001e-05 -0.0093381699999999981 -0.17527649999999997 0.039429999999999972 -0.54650249999999989 5.8862150000000007e-06 1.4520600000000001 0.27381999999999979 -3.1088599999999993e-08 2.0339700000000001 -2.3989049999999995e-06 -0.10392349999999999 0.069860150000000024 -14.605749999999999 -13.166999999999998 1.117565e-05 -8.0113399999999988 0.23534999999999953 -0.0091349949999999982 0.50668999999999997 3.7564000000000008e-05 4.0828900000000013e-06 2.0364650000000005e-05
decision_type=2 2 2 2 2 2 2 2 2 2 2 2 2 2 2 2 2 2 2 2 2 2 2 2 2 2 2 2 2 2
left_child=1 3 -3 20 5 -5 -7 -6 9 11 -11 -9 -13 17 -15 16 -16 -10 -17 -20 -1 -22 -23 -24 -4 26 -26 28 -28 -30
right_child=-2 2 24 4 7 6 -8 8 13 10 -12 12 -14 14 15 18 -18 -19 19 -21 21 22 23 -25 25 -27 27 -29 29 -31
leaf_value=-0.0010002861481292972 -7.6160332770758363e-07 -0.0014089755308149118 0.0010203129420988262 0.004903268321599488 0.0021207541172143778 -0.0008251962334098709 0.0017952571918223321 0.0016479325034500409 0.0017757526919046575 0.0048696081743635723 1.3269202004027504e-06 -0.00014034974272095883 -0.0018686366301236294 -0.0028421784571202643 0.0028743467700500652 -0.0014242731457670744 -0.00092419354806897119 7.5656223638668547e-05 -0.0014612651566130808 -4.6276594813426421e-05 0.0013065259757024167 3.7217511529067632e-05 -0.0018017202027181157 0.00012410792732247858 -0.0023157247031728428 -5.4478659013203113e-06 -0.00025478854860880757 -0.00059418448660163332 0.0026685825728054624 1.4523987453646008e-05
leaf_weight=28 211535 35 25 23 29 45 35 24 27 31 38 109 22 22 23 32 23 317 20 137 21 1641 32 41 21 2914 202 115 20 46
leaf_count=28 211535 35 25 23 29 45 35 24 27 31 38 109 22 22 23 32 23 317 20 137 21 1641 32 41 21 2914 202 115 20 46
internal_value=0 2.64194e-05 -4.56099e-05 0.000115874 0.000321045 0.00134442 0.000321252 0.000197616 0.000130015 0.000598886 0.00218853 -0.00010876 -0.000430596 -4.47388e-05 -0.000384499 -0.000154419 0.000975077 0.000209094 -0.000429322 -0.00022653 4.50162e-06 2.07172e-05 4.96343e-06 -0.000720091 -3.1336e-05 -3.92598e-05 -0.000283141 -0.000171694 9.59876e-06 0.000818784
internal_weight=0 6098 3378 2720 957 103 80 854 825 224 69 155 131 601 257 235 46 344 189 157 1763 1735 1714 73 3343 3318 404 383 268 66
internal_count=217633 6098 3378 2720 957 103 80 854 825 224 69 155 131 601 257 235 46 344 189 157 1763 1735 1714 73 3343 3318 404 383 268 66
shrinkage=0.05


Tree=621
num_leaves=31
num_cat=0
split_feature=40 22 40 15 24 40 2 35 5 21 36 26 15 20 26 25 12 40 22 21 37 40 43 43 43 8 21 8 21 17
split_gain=0.00179528 0.0138425 0.0613553 0.134734 0.0209183 0.0213264 0.011194 0.0526613 0.0496034 0.0607225 0.0818434 0.137097 0.0416704 0.0400163 0.0183642 0.0169075 0.0144662 0.018974 0.0109404 0.0784998 0.074104 0.0601209 0.163012 0.394875 0.0583131 0.0497748 0.0635992 0.0489452 0.0418812 0.0368609
threshold=-0.57440449999999987 3.0676500000000004 -0.040859549999999939 -6.9195199999999976e-08 0.62895050000000008 -0.10081500000000009 -2.9939399999999998 -0.12126899999999999 1.3436400000000001e-05 -1.7478799999999997 -5.0928699999999999e-05 -0.00013676749999999997 -1.1660999999999999e-06 -12.188449999999998 0.00013131250000000003 1.2037400000000003 -8.8131899999999982e-06 -0.10081500000000009 2.9381050000000006 6.3306750000000012 2.2463100000000002e-07 -0.011175000000000155 -0.19603999999999996 -0.71725499999999964 2.9569100000000006 -2.8574899999999999e-06 3.6376800000000005 -2.5985899999999997e-06 0.43558650000000004 6.4024300000000005e-07
decision_type=2 2 2 2 2 2 2 2 2 2 2 2 2 2 2 2 2 2 2 2 2 2 2 2 2 2 2 2 2 2
left_child=-1 6 4 -4 5 -3 7 -2 12 -10 11 -11 -9 -14 -12 16 17 -15 -8 20 21 25 23 -23 -22 26 -20 28 -24 -29
right_child=1 2 3 -5 -6 -7 18 8 9 10 14 -13 13 15 -16 -17 -18 -19 19 -21 24 22 27 -25 -26 -27 -28 29 -30 -31
leaf_value=5.570662406741203e-06 -0.0024821901088580493 4.8180048343162497e-06 0.00045010247508641977 -0.0045587211465463046 -0.0013761961496735846 0.0016932036295267091 -3.1629956165077867e-06 0.0025086982963288887 0.00013657147032596894 -0.00042917426111498146 0.00026664682884074863 -0.0062134766703820787 0.0022489043013636202 -0.00010745585106633372 -0.0014828410224557351 -0.0010438216614004757 -0.00018304168220879548 0.0020704992119863165 -8.8282485631335851e-05 0.0030056366090623972 -0.0029771160288488098 -0.00047640939856474117 -0.0024979934202168479 0.0086653324686700398 -4.7461719202276854e-05 -0.001968104034563112 0.0025226205787621438 0.00018657774131940175 4.1295729909418907e-05 0.0026163204139771148
leaf_weight=86888 25 171 29 25 24 21 129333 22 121 21 40 20 21 20 24 35 80 20 348 24 33 27 22 21 35 32 25 37 62 27
leaf_count=86888 25 171 29 25 24 21 129333 22 121 21 40 20 21 20 24 35 80 20 348 24 33 27 22 21 35 32 25 37 62 27
internal_value=0 -3.70204e-06 -0.000361343 -0.0018688 1.55206e-05 0.000189485 -2.96196e-06 -0.000252187 -0.000120701 -0.0006269 -0.00150671 -0.00325079 0.000457081 0.000200629 -0.000389411 -7.68789e-05 0.000205146 0.000981522 -2.10134e-06 0.000196033 9.52397e-05 0.000272248 0.000991109 0.0035231 -0.00146921 -7.56447e-05 8.6711e-05 0.000169922 -0.000623756 0.00121163
internal_weight=0 130745 270 54 216 192 130475 449 424 226 105 41 198 176 64 155 120 40 130026 693 669 601 196 48 68 405 373 148 84 64
internal_count=217633 130745 270 54 216 192 130475 449 424 226 105 41 198 176 64 155 120 40 130026 693 669 601 196 48 68 405 373 148 84 64
shrinkage=0.05


Tree=622
num_leaves=31
num_cat=0
split_feature=18 19 43 24 4 43 43 41 41 40 44 43 40 40 3 41 23 2 3 34 41 15 37 5 40 38 34 43 40 0
split_gain=0.00175228 0.0206126 0.0687115 0.0189597 0.0535926 0.0919782 0.194366 0.122156 0.224883 0.301959 0.235665 0.298753 0.349476 0.294893 0.25124 0.193702 0.193593 0.182444 0.172592 0.167705 0.17704 0.166584 0.157484 0.15166 0.0933706 0.0754424 0.0704756 0.0799129 0.0701595 0.060428
threshold=-1.4018299999999999e-05 4.8386800000000011e-07 -0.12174999999999957 -0.28484049999999994 -0.96247749999999999 2.0800550000000007 -2.2545749999999996 -0.71931549999999989 0.24875600000000014 -0.10081500000000009 0.98037999999999992 0.80790999999999979 0.12375499999999996 0.24966499999999994 -14.267049999999999 -0.25176499999999996 -9.6620099999999969 -2.9192849999999999 -15.993649999999997 0.63863650000000016 -0.057539999999999918 -6.4763899999999986e-07 1.2925450000000003e-06 1.1338000000000001e-05 -0.058960000000000005 0.012463850000000002 0.21701850000000003 -0.27803499999999998 -0.32870999999999989 1.1355750000000002
decision_type=2 2 2 2 2 2 2 2 2 2 2 2 2 2 2 2 2 2 2 2 2 2 2 2 2 2 2 2 2 2
left_child=1 2 -1 4 -3 6 -6 -8 9 22 11 12 19 14 -12 -14 18 -10 -13 20 25 -16 -9 -20 -22 -11 27 -26 -19 -25
right_child=-2 3 -4 -5 5 -7 7 8 17 10 13 16 15 -15 21 -17 -18 28 23 -21 24 -23 -24 29 26 -27 -28 -29 -30 -31
leaf_value=-7.9389977138994509e-05 2.7226889146648743e-06 -3.0555157769836164e-05 -0.0024582784480534849 -1.8820814607728978e-05 -0.00016312742575070943 -0.00014157687802236819 -9.220876950529047e-05 0.0073013172877836041 0.0040532026798106155 0.0051089583747088918 0.00086306584046476277 0.00054699258603663615 0.0015638147810629261 -0.0015483858551652661 0.0039816365763545043 0.0082264009676873678 -8.9334340266171192e-05 -0.00011062311642141088 0.0089303579495247937 -0.0020633403566661886 0.0026275042843190025 0.010103847526013851 0.0020049108483217427 0.0018907160533126446 0.0023938299362271211 0.0011843154255378372 -0.0010410261994791418 -0.00022565168330963226 -0.0030873190891552008 0.0057309388582195558
leaf_weight=169 159056 6539 37 48072 988 1262 342 32 26 25 22 22 24 21 20 20 34 345 23 86 30 25 25 20 40 24 155 107 21 21
leaf_count=169 159056 6539 37 48072 988 1262 342 32 26 25 22 22 24 21 20 20 34 345 23 86 30 25 25 20 40 24 155 107 21 21
internal_value=0 -7.393e-06 -0.000506666 -5.63099e-06 5.59343e-05 0.000206348 0.000382121 0.000738879 0.000982229 0.00147533 0.00119763 0.000859577 0.000332357 0.00362159 0.00524204 0.00459226 0.00310466 6.08315e-06 0.0043674 -6.90047e-05 0.00038116 0.00738286 0.00497833 0.00568066 -3.2908e-05 0.00318668 -0.000297187 0.000487132 -0.000281417 0.00385766
internal_weight=0 58577 206 58371 10299 3760 2498 1510 1168 776 719 631 511 88 67 44 120 392 86 467 381 45 57 64 332 49 302 147 366 41
internal_count=217633 58577 206 58371 10299 3760 2498 1510 1168 776 719 631 511 88 67 44 120 392 86 467 381 45 57 64 332 49 302 147 366 41
shrinkage=0.05


Tree=623
num_leaves=31
num_cat=0
split_feature=40 22 31 21 19 32 43 21 32 16 40 22 14 41 8 1 38 8 37 7 25 3 26 30 38 7 4 5 5 40
split_gain=0.00190287 0.0248679 0.0521511 0.0542436 0.0458976 0.112608 0.179805 0.0389903 0.0412546 0.061034 0.0407731 0.0380625 0.0230865 0.019267 0.0437295 0.136472 0.197071 0.107205 0.107474 0.158625 0.103482 0.102057 0.339553 0.195489 0.135035 0.0981621 0.142234 0.116373 0.0969961 0.0945809
threshold=0.24966499999999994 -2.9623449999999996 3.1828900000000004 -2.0281699999999994 1.0077000000000001e-08 0.0052994200000000009 0.13650500000000013 0.26237100000000008 0.017895950000000004 -3.870074999999999e-07 0.02582950000000005 -3.0365249999999997 0.00099716450000000021 -0.026150000000000003 1.0396700000000002e-05 -6.4490099999999995 -0.16268899999999997 9.0668200000000024e-06 -1.1071149999999997e-08 2.5529050000000006e-05 3.1525300000000001 -9.8562249999999967 8.8122200000000022e-05 0.0023437000000000002 -0.00017551749999999996 3.0316350000000003e-05 -0.17714399999999997 1.2293000000000001e-05 1.1853100000000002e-05 0.10022550000000004
decision_type=2 2 2 2 2 2 2 2 2 2 2 2 2 2 2 2 2 2 2 2 2 2 2 2 2 2 2 2 2 2
left_child=1 2 3 11 5 -5 -7 8 -6 -10 -9 -1 -11 14 17 21 -17 -3 -19 -20 -21 22 23 24 -16 26 -18 28 -27 -29
right_child=-2 13 -4 4 7 6 -8 10 9 12 -12 -13 -14 -15 15 16 25 18 19 20 -22 -23 -24 -25 -26 27 -28 29 -30 -31
leaf_value=0.0023382005352498804 5.2398737439642773e-06 -9.7682105223693952e-05 -0.0026493740697333124 0.00051209276249497451 4.6110069424685209e-05 -0.0067618891451274978 -0.00059942119696643203 0.0028203246957855302 -0.003816132564097643 -0.0017071967311148046 -0.0002085265663190512 0.00011319428794147251 0.00056287709303433082 2.5953556425470736e-06 0.0029576751324815343 0.0047879576976238578 0.0057215727501031891 -0.00025706497617389605 -0.0060697504132847489 -0.00060719141845263884 -0.0041631786336858148 -5.7499523021417794e-05 -0.0065095197609884459 -0.0047988182671178953 -0.00085157128107918355 -0.0003984705872248813 0.00064000535438481177 0.0011599111521428116 -0.004645695080644145 3.2453685934553504e-05
leaf_weight=29 96465 5473 24 38 120 20 29 20 20 21 25 57 24 112460 38 27 21 198 21 96 26 1394 27 20 60 41 40 307 20 472
leaf_count=29 96465 5473 24 38 120 20 29 20 20 21 25 57 24 112460 38 27 21 198 21 96 26 1394 27 20 60 41 40 307 20 472
internal_value=0 -4.1716e-06 -0.00038507 -0.000250223 -0.000552365 -0.00153059 -0.00311471 -0.00018234 -0.000503414 -0.00151792 0.00113763 0.000863487 -0.000496491 -2.82456e-06 -7.64296e-05 9.99584e-05 0.000578866 -0.000151275 -0.00101143 -0.00205593 -0.00136502 -0.000188818 -0.00145128 -0.00029389 0.000625483 0.000452734 0.0023894 0.000312095 -0.001791 0.000476779
internal_weight=0 121168 427 403 317 87 49 230 185 65 45 86 45 120741 8281 2467 928 5814 341 143 122 1539 145 118 98 901 61 840 61 779
internal_count=217633 121168 427 403 317 87 49 230 185 65 45 86 45 120741 8281 2467 928 5814 341 143 122 1539 145 118 98 901 61 840 61 779
shrinkage=0.05


Tree=624
num_leaves=31
num_cat=0
split_feature=44 36 16 10 41 40 41 3 40 26 4 43 21 10 13 23 3 13 43 14 32 22 40 13 2 40 40 8 6 22
split_gain=0.00182896 0.00650426 0.0530792 0.0503924 0.0510097 0.434422 0.272518 0.546214 0.388658 0.355123 0.143745 0.213501 0.191165 0.123013 0.166243 0.143554 0.121093 0.207871 0.112487 0.180501 0.112334 0.0748929 0.119373 0.0481409 0.0752748 0.129444 0.233417 0.15186 0.173859 0.297348
threshold=-3.2113799999999997 -0.022925199999999996 -2.8874799999999993e-07 0.00062138550000000008 0.43359400000000009 0.1751400000000001 0.057875000000000128 -9.7440149999999992 1.0000000180025095e-35 -0.0011493749999999998 -0.13528899999999996 -2.4699349999999991 -0.5982734999999999 5.3457800000000008e-05 -2.7794449999999996e-05 -14.667549999999997 -12.352299999999998 3.3176100000000009e-05 1.510785 0.00030683250000000005 0.65138850000000015 -0.57280449999999983 -0.19934349999999995 6.6841800000000008e-05 1.3671000000000004 -0.22452634999999985 0.40779500000000007 2.5188150000000004e-05 -1.6374549999999998e-06 0.37615800000000005
decision_type=2 2 2 2 2 2 2 2 2 2 2 2 2 2 2 2 2 2 2 2 2 2 2 2 2 2 2 2 2 2
left_child=-1 2 23 4 5 6 7 9 -9 -4 11 -11 -12 14 -8 -16 17 -17 19 -10 -15 22 -18 24 25 -2 27 28 29 -27
right_child=1 -3 3 -5 -6 -7 13 8 18 10 12 -13 -14 20 15 16 21 -19 -20 -21 -22 -23 -24 -25 -26 26 -28 -29 -30 -31
leaf_value=6.7331889545450188e-06 -3.0433291451395985e-05 -4.7706415719228268e-07 0.0054855430801399058 0.0023584695669342137 1.424742848865709e-05 1.8089252068981904e-05 -0.0043826777456243615 -0.010781441565268324 -0.008739673819149002 -0.00049673327186610554 0.0023045660167768161 -0.007802565728197805 -0.0028889632080618694 -0.00011569947083970828 -0.0036009404434090746 0.0059486417740117759 -0.00019527796191754913 -0.00044133975844098527 -0.001325880786171183 -0.0026956766023067758 0.0045137806671937146 0.00012584628862744769 -0.004128084662786153 -0.00013692692298644508 -2.5741172616532301e-05 0.0068039556285746554 -3.9046582265073612e-05 -0.00096400877641587477 0.0015739781832498339 0.00066414942760302715
leaf_weight=68918 515 139783 20 20 2388 2250 33 26 21 20 34 20 37 38 35 20 43 35 30 30 20 96 35 1347 1251 49 260 38 188 33
leaf_count=68918 515 139783 20 20 2388 2250 33 26 21 20 34 20 37 38 35 20 43 35 30 30 20 96 35 1347 1251 49 260 38 188 33
internal_value=0 -3.12032e-06 -4.44864e-05 -0.000146538 -0.000156115 -0.000299213 -0.00150314 -0.00281222 -0.00546259 -0.000647416 -0.00175245 -0.00414965 -0.000401921 -0.000625507 -0.00103681 -0.000618582 -0.000162763 0.00188229 -0.00375531 -0.00518438 0.00148067 -0.000809188 -0.00196 0.000101092 0.000238457 0.000543639 0.00106414 0.00199541 0.00241192 0.00433306
internal_weight=0 148715 8932 5251 5231 2843 593 238 107 131 111 40 71 355 297 264 229 55 81 51 58 174 78 3681 2334 1083 568 308 270 82
internal_count=217633 148715 8932 5251 5231 2843 593 238 107 131 111 40 71 355 297 264 229 55 81 51 58 174 78 3681 2334 1083 568 308 270 82
shrinkage=0.05


Tree=625
num_leaves=31
num_cat=0
split_feature=11 32 10 3 43 11 33 19 37 29 25 43 26 38 3 38 40 19 24 40 10 43 4 40 8 33 41 24 15 40
split_gain=0.00183046 0.00959375 0.055859 0.0110574 0.0102833 0.00777152 0.0404401 0.0905519 0.0213167 0.0140687 0.0474988 0.100295 0.0108785 0.0072975 0.0087588 0.01779 0.00700798 0.00680546 0.0403679 0.0295816 0.120433 0.23425 0.0691507 0.0665123 0.0876405 0.0501917 0.0475556 0.0742239 0.0273299 0.102088
threshold=-0.000119502 20.036400000000004 3.0656350000000003e-05 -12.918299999999999 7.9818950000000006 -0.00010809399999999999 -0.00012302899999999995 0.00036703250000000005 -4.2848749999999994e-06 0.0050660950000000005 0.26482700000000009 0.8945249999999999 0.0025695650000000007 0.020214400000000004 -14.703099999999997 -0.0038159099999999992 -0.10081500000000009 0.0006688480000000001 1.3511250000000004 -0.22452634999999985 2.4628450000000003e-05 -3.1159849999999993 -2.8246699999999998 -0.14969009999999991 5.5739500000000002e-06 9.2365500000000009e-05 0.057875000000000128 0.20684300000000003 2.9766600000000004e-05 0.1751400000000001
decision_type=2 2 2 2 2 2 2 2 2 2 2 2 2 2 2 2 2 2 2 2 2 2 2 2 2 2 2 2 2 2
left_child=1 17 -3 -4 -5 6 7 -2 -8 -10 11 -11 13 14 15 -12 -15 18 19 -1 21 -21 -22 24 -24 26 28 -28 -25 -30
right_child=5 2 3 4 -6 -7 8 -9 9 10 12 -13 -14 16 -16 -17 -18 -19 -20 20 22 -23 23 25 -26 -27 27 -29 29 -31
leaf_value=-1.4043220127842264e-05 -0.0041296075360151008 0.0026688717896910892 -0.0008236972826787016 -0.00020002209895403323 0.0012367995908425656 -7.8281438618386145e-07 0.0012166457358830486 -9.1128671920159844e-06 9.6233175309726468e-06 -0.0045166885504750098 -0.0018749780405414641 -3.1075499862254219e-06 -0.0012804414534548416 -7.7445489858457063e-05 -3.6615111463953045e-05 -0.00015990783245645919 0.001215751214667762 5.7606777459931337e-07 0.0016954454949690877 -3.2894594258367558e-05 0.0028857866379853065 0.00596488996245036 -0.00022703989409571728 -4.9703830044983493e-05 0.00434616692851705 -0.0025720280155655927 3.4947774361171467e-05 -0.0038479278836166492 0.0040681456237598472 3.6133180826989898e-05
leaf_weight=2852 20 23 33 33 20 188160 32 40 1146 20 21 32 20 22 303 54 20 24053 38 41 22 27 22 394 20 20 32 20 20 73
leaf_count=2852 20 23 33 33 20 188160 32 40 1146 20 21 32 20 22 303 54 20 24053 38 41 22 27 22 394 20 20 32 20 20 73
internal_value=0 1.19967e-05 0.000480159 -0.000105195 0.000342175 -1.75272e-06 -0.000107243 -0.00138261 -6.14214e-05 -8.63898e-05 -0.00031003 -0.0017391 -0.00014114 -8.68874e-05 -0.00015636 -0.000640127 0.000538362 1.01501e-05 7.44572e-05 5.70715e-05 0.000350587 0.00234858 0.000132508 3.17221e-05 0.00195068 -0.000112457 -2.11928e-05 -0.00145847 0.000132274 0.000903233
internal_weight=0 27743 109 86 53 189890 1730 60 1670 1638 492 52 440 420 378 75 42 27634 3581 3543 691 68 623 601 42 559 539 52 487 93
internal_count=217633 27743 109 86 53 189890 1730 60 1670 1638 492 52 440 420 378 75 42 27634 3581 3543 691 68 623 601 42 559 539 52 487 93
shrinkage=0.05


Tree=626
num_leaves=31
num_cat=0
split_feature=33 40 41 40 18 4 38 5 43 38 10 4 17 21 44 0 33 21 1 15 44 14 14 43 35 24 18 36 34 11
split_gain=0.00179595 0.0134101 0.00894379 0.0639538 0.14174 0.189686 0.319938 0.169133 0.195188 0.23895 0.128172 0.0988215 0.0957737 0.10348 0.139886 0.313748 0.34553 0.167463 0.404708 0.146393 0.143117 0.119781 0.190445 0.190229 0.115953 0.110963 0.109711 0.273599 0.137638 0.136593
threshold=1.3939150000000002e-05 5.6762150000000009 0.22260499999999997 0.10022550000000004 5.4626650000000007e-05 0.57834950000000018 -0.0015147749999999997 2.3574300000000006e-05 1.5525100000000001 -0.0027172199999999998 3.4116050000000007e-05 -1.5265699999999998 6.1187250000000013e-05 6.3306750000000012 0.71026 -3.4028749999999994 5.8000550000000005e-05 -4.6302799999999991 -4.7501699999999989 -4.4025599999999992e-08 1.5644200000000008 0.00057278950000000004 0.0015752050000000003 0.31279500000000043 -0.0069601449999999992 -1.0137249999999998 -7.546184999999998e-05 -0.09986109999999998 0.075586750000000022 2.6990100000000001e-05
decision_type=2 2 2 2 2 2 2 2 2 2 2 2 2 2 2 2 2 2 2 2 2 2 2 2 2 2 2 2 2 2
left_child=-1 2 3 4 7 6 -6 12 9 -9 -11 -12 13 14 26 16 -16 -17 -19 20 -20 -15 23 -23 -21 -24 27 -2 -29 -28
right_child=1 -3 -4 -5 5 -7 -8 8 -10 10 11 -13 -14 21 15 17 -18 18 19 24 -22 22 25 -25 -26 -27 29 28 -30 -31
leaf_value=2.1959432732105865e-06 -0.0055667474242528121 -0.00077578325927198316 1.3633874056364988e-05 7.6558965536073645e-06 -0.00087164267265637011 -0.00065824564783501112 -0.0087991298783163079 -0.0064821456126602636 -0.00016261098132590217 -0.0046519922347775166 -0.0034158282564021648 -4.769740942497358e-05 0.0017449358545640924 -0.00032428809209594984 0.0092284724984148699 -0.0016020737562420046 0.00091873452966583196 0.00712674540700391 0.0049081214846492839 -0.0047796211878968669 -0.00036491680206851134 0.00043689592275768523 0.0032841204035440053 0.006582299289841425 -5.4177834510269081e-05 -0.00089924715998052963 -0.00037791071224091866 -0.0046029800102405719 -0.00029428840936363465 0.00075066111132146432
leaf_weight=176401 31 57 21801 16134 35 492 20 28 306 26 28 98 85 91 22 84 29 24 22 21 31 20 23 34 34 51 960 20 253 372
leaf_count=176401 31 57 21801 16134 35 492 20 28 306 26 28 98 85 91 22 84 29 24 22 21 31 20 23 34 34 51 960 20 253 372
internal_value=0 -9.3948e-06 -8.33387e-06 -3.30535e-05 -0.000235771 -0.000969556 -0.00375437 -8.67257e-05 -0.000931128 -0.00223761 -0.00145572 -0.000796171 9.92189e-05 3.32971e-05 -8.51511e-05 0.000975991 0.00450333 0.000143147 0.00125374 -5.13689e-05 0.00182389 0.00106255 0.00204851 0.00430622 -0.00185844 0.000400989 -0.000258333 -0.00111541 -0.000609943 -6.2724e-05
internal_weight=0 41232 41175 19374 3240 547 55 2693 486 180 152 126 2207 2122 1903 267 51 216 132 108 53 219 128 54 55 74 1636 304 273 1332
internal_count=217633 41232 41175 19374 3240 547 55 2693 486 180 152 126 2207 2122 1903 267 51 216 132 108 53 219 128 54 55 74 1636 304 273 1332
shrinkage=0.05


Tree=627
num_leaves=31
num_cat=0
split_feature=12 19 29 23 3 37 28 3 20 2 20 19 21 13 9 9 36 3 25 1 40 43 32 16 25 1 21 8 32 23
split_gain=0.00179255 0.0184024 0.0419936 0.00662404 0.0355318 0.0707206 0.0292067 0.0889312 0.0626335 0.0572163 0.0612146 0.043392 0.0305327 0.0666075 0.0212367 0.0552312 0.01975 0.0159054 0.0525375 0.0271966 0.0467439 0.018365 0.0277086 0.0574134 0.0174376 0.0341362 0.0140078 0.014191 0.0126699 0.0663497
threshold=0.00022537400000000003 1.3835200000000002e-09 -0.00087486899999999991 -15.687599999999998 -19.074649999999995 -3.892934999999999e-07 0.10445350000000002 -16.870699999999996 0.53247600000000006 1.1481900000000003 4.023365000000001 0.00043921550000000008 6.507505000000001 0.00014004150000000002 -1.7427699999999996e-05 -2.8966949999999995e-05 -0.96073299999999995 -15.284849999999999 0.15500600000000003 3.3893400000000002 -0.018010000000000078 1.3507450000000001 -0.44443899999999997 -2.4990899999999996e-06 0.25399450000000007 3.9525500000000005 3.1442200000000002 -1.1179299999999998e-05 -1.5525049999999998 -14.94685
decision_type=2 2 2 2 2 2 2 2 2 2 2 2 2 2 2 2 2 2 2 2 2 2 2 2 2 2 2 2 2 2
left_child=-1 2 -2 4 5 -3 12 8 -8 10 -9 -11 17 -14 15 -13 -16 18 -6 20 -20 22 23 -21 25 -24 -23 -28 29 -5
right_child=1 3 -4 28 6 -7 7 9 -10 11 -12 14 13 -15 16 -17 -18 -19 19 21 -22 26 24 -25 -26 -27 27 -29 -30 -31
leaf_value=-1.7403844004311983e-06 0.0027425219770520928 0.003564501482560445 -0.00023562112308291974 0.0019368875903707635 -0.0022563604476970563 -0.00039025979907679497 -0.00079191638201120363 2.9869445692599846e-05 -0.0047015912528149788 -0.0026605469208031236 0.0030249261166318321 -8.3279640539331008e-05 0.0034140686943283077 -0.00049287534892149168 0.001390742521782938 -0.0033013313231640496 -0.00030527015504900349 1.827094286030676e-05 -0.0023987470462623821 0.0030494907919395094 -0.00026813557626567517 -0.00019318206610430673 0.0020935407150116389 -0.00025656384291480584 -0.00020080937259668135 3.7447108232981926e-05 -0.00034774445157381706 -0.0021879830051329918 1.2538456656618287e-05 9.7658346902853535e-05
leaf_weight=189725 20 20 29 52 31 26 21 59 20 24 24 40 20 24 21 20 94 2532 34 24 106 153 27 29 263 80 22 20 23213 860
leaf_count=189725 20 20 29 52 31 26 21 59 20 24 24 40 20 24 21 20 94 2532 34 24 106 153 27 29 263 80 22 20 23213 860
internal_value=0 1.18315e-05 0.000979947 1.01288e-05 -5.18432e-05 0.0013292 -6.90688e-05 -0.000523227 -0.00269907 -0.00020688 0.00089591 -0.000666838 -2.5475e-05 0.00128301 -0.000393415 -0.00115596 4.43651e-06 -4.28112e-05 -0.000238831 -0.00015632 -0.00078557 -1.37718e-05 0.000171291 0.00124052 1.81311e-05 0.000556274 -0.000415215 -0.00122405 1.97206e-05 0.000202527
internal_weight=0 27908 49 27859 3734 46 3688 323 41 282 83 199 3365 44 175 60 115 3321 789 758 140 618 423 53 370 107 195 42 24125 912
internal_count=217633 27908 49 27859 3734 46 3688 323 41 282 83 199 3365 44 175 60 115 3321 789 758 140 618 423 53 370 107 195 42 24125 912
shrinkage=0.05


Tree=628
num_leaves=31
num_cat=0
split_feature=12 24 27 44 19 19 3 3 28 17 17 30 20 36 16 27 28 16 7 27 21 28 21 40 43 19 43 38 23 19
split_gain=0.00174955 0.00701551 0.0406102 0.126732 0.0126893 0.0133188 0.0478518 0.0144576 0.0132718 0.010656 0.0256084 0.0135532 0.0204219 0.0117575 0.00910647 0.00827544 0.0240798 0.016879 0.0742324 0.00989841 0.00691717 0.00605163 0.0225601 0.0372353 0.011257 0.0490821 0.0409663 0.0501203 0.0303541 0.0487876
threshold=-0.00029231849999999997 -0.57695549999999984 2.2048650000000003 -2.9215450000000001 1.2759600000000001e-05 9.7599650000000017e-05 -15.040049999999999 -19.074649999999995 -0.22198749999999998 -2.4916349999999997e-05 -1.9423899999999999e-05 0.16934650000000004 -16.050999999999998 0.86690500000000015 -8.1957199999999988e-05 5.3277850000000013 -0.13224499999999997 2.3811300000000004e-05 5.3023950000000009e-05 14.963350000000002 -2.9957599999999993 -0.015657449999999996 7.5557450000000008 -0.95020299999999991 0.64319500000000052 3.7480150000000004e-05 0.8945249999999999 -0.006455564999999999 -10.062099999999999 0.0045184900000000009
decision_type=2 2 2 2 2 2 2 2 2 2 2 2 2 2 2 2 2 2 2 2 2 2 2 2 2 2 2 2 2 2
left_child=1 2 3 -1 8 6 -6 -7 -4 13 -11 12 -12 -9 -13 16 -14 -17 -19 -20 -15 22 24 -24 28 -26 27 -27 29 -3
right_child=-2 21 4 -5 5 7 -8 9 -10 10 11 14 15 20 -16 17 -18 18 19 -21 -22 -23 23 -25 25 26 -28 -29 -30 -31
leaf_value=-1.5705378852241365e-06 -1.552410815150326e-06 -0.00091376240937550944 -0.0017287385839154013 0.0046576923294924201 -0.0005277366058435291 0.0012033103901086617 0.0027535201152204536 -7.1590480390440003e-05 -6.8810390075668702e-07 0.0018589267996728968 0.0014053812110022034 -0.00016209126021372291 -0.0016099721047794448 -0.00038793716014576306 -0.0014051146587640371 5.9974660816028286e-05 3.6664511790867871e-05 0.0027356518042683038 0.00042021511890569094 -0.00065506722477087016 -0.0015711125585117511 1.6509969002963759e-05 -0.00040315641148481519 0.0026478796968149258 0.0020052999723379947 0.003038866371207405 -6.9748036265579458e-05 7.223640778517751e-05 -1.2154144972436251e-05 -1.4051062207928699e-05
leaf_weight=54 194330 288 20 20 25 27 20 424 25 21 31 41 26 30 23 532 152 33 49 38 21 18463 20 20 31 24 1230 35 1264 316
leaf_count=54 194330 288 20 20 25 27 20 424 25 21 31 41 26 30 23 532 152 33 49 38 21 18463 20 20 31 24 1230 35 1264 316
internal_value=0 1.2946e-05 0.000113581 0.00125769 5.85333e-05 8.3467e-05 0.0009306 5.71403e-05 -0.000768711 3.53623e-05 0.000132384 9.31872e-05 0.000145368 -0.000157865 -0.000608803 9.83069e-05 -0.000203855 0.000180799 0.000716454 -4.94484e-05 -0.000875127 5.46709e-06 -5.76942e-05 0.00112236 -7.25004e-05 3.92692e-05 -8.0132e-06 0.001279 -0.000151481 -0.000443052
internal_weight=0 23303 1612 74 1538 1493 45 1448 45 1421 946 925 861 475 64 830 178 652 120 87 51 21691 3228 40 3188 1320 1289 59 1868 604
internal_count=217633 23303 1612 74 1538 1493 45 1448 45 1421 946 925 861 475 64 830 178 652 120 87 51 21691 3228 40 3188 1320 1289 59 1868 604
shrinkage=0.05


Tree=629
num_leaves=31
num_cat=0
split_feature=21 41 1 23 39 44 40 13 40 17 40 40 33 40 41 41 43 1 14 14 15 40 41 12 12 12 14 1 22 40
split_gain=0.00174777 0.0235531 0.0136593 0.0668143 0.0122564 0.0222572 0.091125 0.193213 0.0840314 0.020659 0.0332074 0.136636 0.113449 0.0264613 0.0259033 0.0656402 0.0674342 0.064038 0.0435662 0.032737 0.0150602 0.0286573 0.00919733 0.00747626 0.00859406 0.0102197 0.00645622 0.0094143 0.0170527 0.00875313
threshold=-13.388899999999998 4.6270000000000016 -13.794199999999998 -7.317664999999999 0.0020372800000000003 -0.20255000000000042 0.2761725000000001 -1.104705e-05 -0.058960000000000005 4.8443000000000012e-06 0.077348000000000056 -0.43704099999999996 0.0002933525000000001 0.46240350000000002 -0.25176499999999996 0.32610899999999998 0.80790999999999979 -7.1790999999999991 0.0013144900000000002 0.00048506450000000007 4.4044100000000007e-07 -0.68744999999999989 0.51323350000000023 -0.00022375099999999998 -0.00011525999999999999 -8.1803149999999986e-05 8.9811050000000015e-05 -10.479449999999998 -1.5001349999999998 1.0064425000000004
decision_type=2 2 2 2 2 2 2 2 2 2 2 2 2 2 2 2 2 2 2 2 2 2 2 2 2 2 2 2 2 2
left_child=1 2 3 -1 5 6 7 -4 -9 14 11 -11 -13 -12 23 16 18 19 -16 -18 22 -22 -17 -6 -25 -26 29 28 -28 -7
right_child=-2 -3 4 -5 9 26 -8 8 -10 10 13 12 -14 -15 15 20 17 -19 -20 -21 21 -23 -24 24 25 -27 27 -29 -30 -31
leaf_value=0.0024785378548161439 -5.7268524799300848e-07 0.0014793984602355134 0.0060381440602941443 -0.00071641816814210172 0.00087292305429582495 0.0013559952299328872 -3.9954525474485848e-05 -0.00020683020813801425 0.0027419919091542918 -6.5350857948197094e-05 -0.001593649229201859 0.0058398042849841575 0.00064251969701477471 4.4355158131101629e-05 -0.001493400482577272 0.0008126041119144898 -0.00044159284680736835 -0.0020991626752862327 -0.0042262552052270618 0.0021567375176924876 -0.00025313252190871621 -0.002185111832880901 -4.3164759607243177e-05 -0.0010032369382748758 0.0010372017346526265 -1.2939692068899431e-05 -0.001820504238130525 -6.1096967455644675e-06 0.00024424049188382925 -2.4082945741678555e-05
leaf_weight=30 214135 28 20 36 25 20 333 78 35 122 27 21 21 284 35 35 27 34 25 22 116 23 305 21 24 668 20 1016 20 27
leaf_count=30 214135 28 20 36 25 20 333 78 35 122 27 21 21 284 35 35 27 34 25 22 116 23 305 21 24 668 20 1016 20 27
internal_value=0 3.50577e-05 2.34031e-05 0.000735835 9.58981e-06 0.000112194 0.000401921 0.00150827 0.000706522 -7.81407e-05 0.000205735 0.000781439 0.00324116 -9.7851e-05 -0.000177289 -0.000414979 -0.00135505 -0.000431883 -0.00263209 0.000725004 -0.000134332 -0.000572813 4.49291e-05 2.3041e-05 -6.75855e-06 2.34814e-05 -1.02113e-05 -3.57317e-05 -0.000788132 0.000563184
internal_weight=0 3498 3470 66 3404 1569 466 133 113 1835 475 164 42 311 1360 622 143 83 60 49 479 139 340 738 713 692 1103 1056 40 47
internal_count=217633 3498 3470 66 3404 1569 466 133 113 1835 475 164 42 311 1360 622 143 83 60 49 479 139 340 738 713 692 1103 1056 40 47
shrinkage=0.05


Tree=630
num_leaves=31
num_cat=0
split_feature=44 3 33 7 13 13 9 18 20 21 24 18 31 21 1 40 40 33 24 21 24 13 3 14 22 31 9 24 18 35
split_gain=0.00173078 0.00607788 0.0414764 0.116798 0.0546658 0.07461 0.0385916 0.0233481 0.0204315 0.0194345 0.0218917 0.0187769 0.0147233 0.0467375 0.0177065 0.0110759 0.176051 0.0851726 0.00775181 0.00768193 0.00604894 0.0354215 0.0090858 0.0134335 0.0152828 0.00688792 0.0220443 0.0147111 0.0348601 0.00679667
threshold=-3.2113799999999997 -13.353949999999999 -0.00016239399999999998 5.7739700000000006e-05 4.9502400000000009e-05 0.00012676650000000003 5.9192500000000006e-05 2.7404500000000002e-08 -11.463149999999997 7.466355000000001 1.1195950000000001 0.0036590750000000003 -3.9230749999999994 -8.1735099999999985 -0.79518899999999981 0.22528099999999995 -0.19934349999999995 -1.8028799999999996e-05 0.18662250000000002 4.7688000000000015 2.1521500000000002 -3.6340149999999998e-05 -11.042399999999999 0.037495750000000008 -0.047788899999999995 29.306750000000005 -2.3611749999999996e-05 -2.2419299999999995 -3.6458549999999993e-05 -4.3203749999999994
decision_type=2 2 2 2 2 2 2 2 2 2 2 2 2 2 2 2 2 2 2 2 2 2 2 2 2 2 2 2 2 2
left_child=1 2 3 4 7 -6 8 -1 -4 10 12 -7 14 -14 -10 16 -15 -18 -19 -17 25 -22 23 24 -23 27 -27 28 -2 -29
right_child=20 -3 6 -5 5 11 -8 -9 9 -11 -12 -13 13 15 -16 19 17 18 -20 -21 21 22 -24 -25 -26 26 -28 29 -30 -31
leaf_value=-0.00040804621274305865 0.0021291541062156386 8.7970331193615308e-06 -0.0015671891167876311 0.0034730474450043406 0.0029303769395357514 -0.0010169298336721465 -0.0023111862022709658 -0.0024836841903743338 -0.0021813965209821619 0.0011337404469183336 0.0012292846713015545 0.00086860063728754942 0.0022446431260323154 -4.0806126093352572e-05 -0.0001258147719041021 -7.2189147294890636e-05 -0.0050509381298907106 -0.00079043351676470286 -0.0021232715316000395 0.0008802388047115528 -0.0021737095376010984 -0.0018209516146453098 0.00075986656593158848 0.00053015102304117235 -0.00013506035725075025 -0.0014716153817999206 0.00013259244916581772 -0.00040113898782956066 -0.00017362686509538134 -2.497117712773198e-06
leaf_weight=42 27 67375 25 30 29 31 21 20 20 30 28 23 20 549 22 562 25 24 20 22 22 20 30 36 41 33 61 107 42 148296
leaf_count=42 27 67375 25 30 29 31 21 20 20 30 28 23 20 549 22 562 25 24 20 22 22 20 30 36 41 33 61 107 42 148296
internal_value=0 6.54998e-06 -9.15675e-05 0.000633221 4.5671e-05 0.000884746 -0.000184285 -0.00107761 -0.000151127 -0.000124348 -0.00015356 -0.000213834 -0.000184193 -0.000152556 -0.00110466 -0.000192443 -0.000339987 -0.00272042 -0.00139627 -3.631e-05 -3.03541e-06 -0.000321454 -5.91127e-07 -0.000235784 -0.000687812 -2.71606e-06 -0.000430587 -2.44517e-06 0.000727461 -2.78454e-06
internal_weight=0 68918 1543 175 145 83 1368 62 1347 1322 1292 54 1264 1222 42 1202 618 69 44 584 148715 149 127 97 61 148566 94 148472 69 148403
internal_count=217633 68918 1543 175 145 83 1368 62 1347 1322 1292 54 1264 1222 42 1202 618 69 44 584 148715 149 127 97 61 148566 94 148472 69 148403
shrinkage=0.05


Tree=631
num_leaves=31
num_cat=0
split_feature=26 1 5 5 28 12 10 36 4 1 24 13 1 13 9 3 35 11 10 30 40 13 13 5 40 40 5 29 13 20
split_gain=0.00174669 0.0160648 0.0105062 0.0201704 0.0349632 0.0200754 0.0147681 0.0120884 0.0164427 0.0057184 0.00548555 0.00514835 0.00914289 0.00884151 0.00441663 0.00523703 0.00410542 0.0032598 0.0032463 0.00318768 0.0164359 0.0111659 0.0467048 0.0933254 0.0288502 0.0450062 0.0212191 0.0200205 0.0194248 0.0599563
threshold=-0.062701649999999984 -13.794199999999998 1.2137100000000001e-05 1.6461450000000005e-05 0.69707500000000011 -0.00012499999999999998 2.0397950000000003e-05 0.43367700000000003 -1.1200049999999997 -9.9152199999999997 1.1195950000000001 1.8732900000000002e-05 -7.6550599999999998 1.0260100000000002e-05 3.5897900000000007e-05 -10.051449999999997 0.034571950000000011 -4.5422699999999995e-05 4.2853300000000005e-05 0.053348600000000003 5.6762150000000009 -7.1201799999999986e-05 -6.0913899999999993e-05 2.2519950000000001e-05 -0.027530000000000051 0.68543200000000015 2.1613750000000003e-05 -0.78911549999999997 -4.4225099999999991e-05 -16.050999999999998
decision_type=2 2 2 2 2 2 2 2 2 2 2 2 2 2 2 2 2 2 2 2 2 2 2 2 2 2 2 2 2 2
left_child=1 -1 7 4 5 -4 -5 -3 -9 -8 -7 13 -13 16 -14 -16 -11 -10 -18 -2 21 24 23 -23 27 -26 28 -21 29 -24
right_child=19 2 3 6 -6 10 9 8 17 11 -12 12 14 -15 15 -17 18 -19 -20 20 -22 22 26 -25 25 -27 -28 -29 -30 -31
leaf_value=0.0014708345601684414 5.6781169812139895e-07 -0.001122073588846957 0.0013873584162709968 -0.0013979011808987708 0.0022066861294593697 -2.6215634827828833e-05 0.00065897479498138031 -0.001282336542877042 -0.00055292466104219786 0.00027053441363225123 0.00085398027527844539 0.0010979431442960743 -0.00022278126561867722 -0.0011591087998112926 0.00098344171026838018 4.075283608731947e-07 0.00018811878088110297 0.00011939017815683025 -0.00052691892425460354 -0.00063914554571965721 0.0012614962845570214 -0.00030782243880601141 0.0030751748480681621 0.0038411729665392123 -0.003195059034624137 -0.00031326963606781129 -0.00024464556112720849 0.0015980664713424631 -9.0848698523657365e-06 -3.5802110715402233e-05
leaf_weight=20 212504 33 35 20 27 154 30 26 20 45 20 21 97 24 20 42 22 183 57 20 24 33 21 23 20 42 1104 20 2867 59
leaf_count=20 212504 33 35 20 27 154 30 26 20 45 20 21 97 24 20 42 22 183 57 20 24 33 21 23 20 42 1104 20 2867 59
internal_value=0 6.96671e-05 3.7677e-05 0.000150789 0.000513477 0.000294737 -7.56511e-05 -0.000227402 -9.84753e-05 -1.78243e-06 7.49563e-05 -6.22175e-05 0.000117405 -0.000280678 -1.20996e-05 0.000317515 -0.000110659 5.31523e-05 -0.000327795 -2.88007e-07 -4.32516e-05 -5.06914e-05 -3.78573e-05 0.00139623 -0.000567452 -0.00124288 -5.76817e-05 0.00047946 1.23583e-05 0.000780829
internal_weight=0 896 876 614 236 209 378 262 229 358 174 328 180 148 159 62 124 203 79 216737 4233 4209 4107 56 102 62 4051 40 2947 80
internal_count=217633 896 876 614 236 209 378 262 229 358 174 328 180 148 159 62 124 203 79 216737 4233 4209 4107 56 102 62 4051 40 2947 80
shrinkage=0.05


Tree=632
num_leaves=31
num_cat=0
split_feature=43 23 36 16 21 21 28 40 40 6 23 14 14 10 40 36 8 16 19 0 21 25 1 40 12 10 40 31 0 24
split_gain=0.00173694 0.0102337 0.0561154 0.171177 0.0380001 0.0166073 0.0156697 0.012148 0.0970911 0.0741979 0.0115515 0.0318834 0.00734223 0.0126724 0.0272972 0.0064174 0.01604 0.0189914 0.044788 0.0175244 0.0230517 0.0149463 0.0338456 0.0160084 0.0611682 0.0235074 0.0171007 0.0144401 0.0489565 0.0139617
threshold=-2.1087049999999987 -13.656999999999998 0.061248100000000007 5.8204250000000011e-06 7.0074550000000011 -6.1725999999999992 -0.071195649999999985 0.38220950000000015 -0.22452634999999985 3.5548950000000005e-07 -13.597549999999998 0.010823350000000001 0.71230950000000004 4.1122800000000012e-05 0.10022550000000004 1.20103 1.6500000000000005e-05 4.7861450000000004e-06 0.00020669100000000003 -2.7237549999999993 -19.754149999999996 53.742400000000011 6.6170850000000003 -0.3562499999999999 -0.00013742649999999999 3.8349550000000013e-05 0.20129000000000011 -8.7764099999999985 4.3023300000000004 -1.2617699999999996
decision_type=2 2 2 2 2 2 2 2 2 2 2 2 2 2 2 2 2 2 2 2 2 2 2 2 2 2 2 2 2 2
left_child=1 2 4 -4 5 -1 -7 8 -8 -10 11 -3 -2 14 -14 21 17 -17 -19 -20 -21 27 23 -23 -25 26 -26 28 -12 -29
right_child=12 10 3 -5 -6 6 7 -9 9 -11 15 -13 13 -15 -16 16 -18 18 19 20 -22 22 -24 24 25 -27 -28 29 -30 -31
leaf_value=-0.001638087565697788 -2.138588958693834e-06 -0.00026035168632650618 -0.00067497814506120796 0.0049499578496796041 -0.0024223340551543515 0.00094156204446335331 -6.9055349772000949e-05 9.7273540341864296e-06 -0.00061868188746990892 -0.0039348646094309048 -8.0449795253419627e-06 0.0023169302500855339 -0.0018111237907861425 6.8561633354678189e-05 1.024078881831277e-05 -2.3878839565901519e-05 0.00090282245159066998 -0.0027597651636989962 -0.0012272875014454391 0.0013184869782417081 -0.00040869465016465478 -0.00014542565943721013 0.0023376862014629295 0.0030154551957573199 -0.0015230990585405381 0.0012303014925027337 0.00010371752159482554 0.00063673651964338946 -0.0028043712017824874 9.9274037549534091e-06
leaf_weight=20 165995 30 38 21 20 30 357 318 37 31 72 20 36 97 48 395 34 22 41 25 85 156 20 22 20 39 84 89 20 49411
leaf_count=20 165995 30 38 21 20 30 357 318 37 31 72 20 36 97 48 395 34 22 41 25 85 156 20 22 20 39 84 89 20 49411
internal_value=0 8.02716e-06 -0.000161804 0.00132712 -0.000269856 -0.000215569 -0.000178764 -0.000223999 -0.000398882 -0.00213047 1.09548e-05 0.000770561 -2.48564e-06 -0.000320765 -0.000770344 1.02032e-05 -0.000152071 -0.000215216 -0.000652084 -0.000345004 -1.61534e-05 1.21596e-05 0.000342051 0.000217712 0.000561043 0.000183441 -0.000209132 9.89123e-06 -0.000615942 1.10544e-05
internal_weight=0 51457 872 59 813 793 773 743 425 68 50585 50 166176 181 84 50535 602 568 173 151 110 49933 341 321 165 143 104 49592 92 49500
internal_count=217633 51457 872 59 813 793 773 743 425 68 50585 50 166176 181 84 50535 602 568 173 151 110 49933 341 321 165 143 104 49592 92 49500
shrinkage=0.05


Tree=633
num_leaves=31
num_cat=0
split_feature=12 19 33 31 2 32 14 26 28 1 6 19 32 31 17 15 28 26 40 32 13 32 6 4 32 39 10 20 20 19
split_gain=0.00167711 0.0165603 0.041976 0.00616254 0.0269368 0.00944916 0.0648905 0.0229045 0.00857683 0.0352147 0.0450684 0.0273574 0.0126852 0.0885005 0.116656 0.0477923 0.0064813 0.0197642 0.053832 0.0158992 0.0639139 0.0100906 0.0383875 0.00828998 0.0066105 0.0594202 0.0476735 0.0337447 0.035046 0.0466671
threshold=0.00022537400000000003 1.3835200000000002e-09 -3.4257599999999996e-06 29.306750000000005 2.0639650000000005 -22.304899999999996 0.028251800000000004 0.00057196550000000008 1.0121250000000004 5.5238250000000013 -7.9179699999999979e-07 0.0041491750000000006 -7.1146499999999993 -1.0679299999999998 8.2035700000000018e-06 -2.1145799999999999e-07 0.54025350000000005 -0.00062257399999999998 0.30085850000000008 -5.551709999999999 4.3872650000000008e-05 -4.3985699999999994 -5.6979949999999981e-07 1.1247450000000001 -2.9812749999999997 0.0066980350000000006 1.3788000000000002e-05 2.7591150000000004 -1.1107799999999999 0.0026916950000000005
decision_type=2 2 2 2 2 2 2 2 2 2 2 2 2 2 2 2 2 2 2 2 2 2 2 2 2 2 2 2 2 2
left_child=-1 2 -2 5 -5 6 7 -3 12 11 -11 -10 13 15 -15 -7 19 18 -18 20 -14 22 -21 -19 25 -23 -27 28 -28 -30
right_child=1 3 -4 4 -6 8 -8 -9 9 10 -12 -13 16 14 -16 -17 17 23 -20 21 -22 24 -24 -25 -26 26 27 -29 29 -31
leaf_value=-1.6834144870423525e-06 0.0026920338140962487 0.00044570382306119427 -0.00028548572856756249 5.5610344738660149e-05 -0.0020217850393964907 0.00060515940918035255 0.0023192310128134492 -0.0018628670195626217 -0.0028361112996935847 -0.001157609975314699 0.0016957025906219403 -0.00044875833341696618 -0.0030223648995161057 0.0049076297702932998 4.8720321137807333e-05 -0.002398276028039758 0.0029770011486437977 0.0003101663493145827 -0.00038356679044507192 -0.00054622861185831624 0.00043122833174837419 0.001974230359001712 0.0017313809365126923 -0.00083014490602571246 1.0120704065327879e-05 -0.0026573181050480346 -3.6947052416280718e-05 0.00071260016453666866 -0.003364097977949617 -0.00013659792117929709
leaf_weight=189725 20 22 29 71 20 27 31 21 20 25 31 30 21 21 30 26 22 37 26 37 37 26 37 28 27023 24 64 57 24 21
leaf_count=189725 20 22 29 71 20 27 31 21 20 25 31 30 21 21 30 26 22 37 26 37 37 26 37 28 27023 24 64 57 24 21
internal_value=0 1.14442e-05 0.000929828 9.82893e-06 -0.00040096 1.11752e-05 0.000575425 -0.000681738 9.66744e-06 -0.000439231 0.000421902 -0.0014037 1.13922e-05 0.000562557 0.00204945 -0.000868224 9.3066e-06 0.000387198 0.00115669 7.74649e-06 -0.000819211 9.50256e-06 0.000592576 -0.000181045 7.91853e-06 -0.000267588 -0.000574363 -0.000273213 -0.00078873 -0.00185793
internal_weight=0 27908 49 27859 91 27768 74 43 27694 106 56 50 27588 104 51 53 27484 113 48 27371 58 27313 74 65 27239 216 190 166 109 45
internal_count=217633 27908 49 27859 91 27768 74 43 27694 106 56 50 27588 104 51 53 27484 113 48 27371 58 27313 74 65 27239 216 190 166 109 45
shrinkage=0.05


Tree=634
num_leaves=31
num_cat=0
split_feature=18 18 9 22 3 34 43 25 25 38 8 22 37 37 17 32 37 43 2 10 37 38 4 22 43 43 41 40 8 1
split_gain=0.00171154 0.0200483 0.0546105 0.277498 0.0425717 0.0327819 0.0417997 0.083754 0.10042 0.0314397 0.0486019 0.0770574 0.0341122 0.0988888 0.0511111 0.0464842 0.0283042 0.0270022 0.0246743 0.019613 0.0146497 0.014165 0.0553414 0.109346 0.0838059 0.137056 0.149121 0.379238 0.242993 0.16138
threshold=-1.4018299999999999e-05 -2.1298199999999995e-05 -6.0676099999999993e-05 2.6608750000000003 -10.279999999999999 0.30734050000000007 2.0800550000000007 3.7654200000000002 2.3879650000000008 0.0019194400000000001 1.1407850000000001e-05 -0.98411749999999987 1.6571250000000001e-07 1.8397900000000004e-07 -3.4453399999999998e-07 -0.28778899999999996 1.3687350000000002e-07 -0.61387499999999962 -1.7334849999999997 2.2759000000000004e-05 -8.0277649999999995e-07 0.0026319150000000007 -0.96247749999999999 3.0909850000000003 2.0800550000000007 -2.2545749999999996 0.24875600000000014 -0.079468000000000025 -5.1224849999999986e-06 -4.3929149999999995
decision_type=2 2 2 2 2 2 2 2 2 2 2 2 2 2 2 2 2 2 2 2 2 2 2 2 2 2 2 2 2 2
left_child=1 21 3 4 -3 9 7 8 19 12 20 -12 15 -14 -15 -4 -17 -18 -9 -7 -11 -1 -23 24 25 -24 27 28 -27 -30
right_child=-2 2 5 -5 -6 6 -8 18 -10 10 11 -13 13 14 -16 16 17 -19 -20 -21 -22 22 23 -25 -26 26 -28 -29 29 -31
leaf_value=-1.2191817696738915e-05 2.6908545953876629e-06 -0.0022206916933707062 -0.0020952387662244013 -0.0063703683844540228 5.5009492252093675e-05 -0.0019426090137823764 -3.2005226048021104e-05 -0.0016981786253557904 -0.0048959788853535427 0.0010728527780195913 0.0033822535017393285 7.9640696247607653e-05 -0.0038199396485321235 -0.0020880787465905408 1.9400616763152632e-05 5.3220746817355823e-06 5.0201143785670872e-05 0.0026483816620839207 -0.00018465017894613551 0.00024520020975614897 3.3995554114896373e-06 -2.7356161816293109e-05 -0.00013816383050363471 0.0031286726901670115 -0.00015200869843517623 0.0082973899073504782 -0.00021444473678506053 0.00071201205608646548 0.0050097700398139379 -0.00062521118816221137
leaf_weight=44826 159056 24 26 21 143 21 372 31 25 37 33 38 22 34 187 1900 20 20 205 20 238 6986 811 32 1155 26 344 929 27 24
leaf_count=44826 159056 24 26 21 143 21 372 31 25 37 33 38 22 34 187 1900 20 20 205 20 238 6986 811 32 1155 26 344 929 27 24
internal_value=0 -7.30656e-06 -0.000124833 -0.000953234 -0.000272037 -7.66013e-05 -0.000386785 -0.000823798 -0.00239834 5.224e-06 0.000448397 0.00161466 -6.41911e-05 -0.000623068 -0.000304827 4.88677e-06 3.30328e-05 0.00134929 -0.000383461 -0.000875385 0.00014729 -2.61581e-08 5.27451e-05 0.000219886 0.000191815 0.000375581 0.000684208 0.000991501 0.00436352 0.00235801
internal_weight=0 58577 3417 188 167 3229 674 302 66 2555 346 71 2209 243 221 1966 1940 40 236 41 275 55160 10334 3348 3316 2161 1350 1006 77 51
internal_count=217633 58577 3417 188 167 3229 674 302 66 2555 346 71 2209 243 221 1966 1940 40 236 41 275 55160 10334 3348 3316 2161 1350 1006 77 51
shrinkage=0.05


Tree=635
num_leaves=31
num_cat=0
split_feature=24 4 43 40 41 43 4 41 23 23 18 43 14 5 14 18 34 37 33 43 26 43 14 40 41 33 4 4 14 35
split_gain=0.00181163 0.0667279 0.090212 0.150509 1.72853 1.31196 0.818129 0.736002 0.973387 0.791244 0.574045 0.438476 0.479561 0.3619 0.128712 0.0962722 0.0563433 0.0781822 0.068319 0.0560298 0.0534579 0.0496202 0.114162 0.152805 0.53739 0.434417 0.231652 0.295008 0.255986 0.30973
threshold=-0.17538849999999997 0.019144700000000004 1.6830350000000001 0.24966499999999994 0.14791590000000002 -0.93682499999999969 1.6690850000000002 -0.12554300000000002 -12.877249999999998 -9.3130249999999979 2.3207350000000004e-06 0.51814999999999956 0.00019807550000000001 1.5065950000000003e-05 0.00015957750000000003 1.7022000000000002e-06 0.25506150000000005 -6.7840449999999985e-07 0.00038371750000000001 -2.4699349999999991 0.00022699600000000003 1.2296250000000011 0.00096226550000000008 0.22528099999999995 0.14791590000000002 -1.6545349999999999e-05 -0.076958199999999991 -0.053869949999999993 0.00015284250000000002 -0.0044675849999999987
decision_type=2 2 2 2 2 2 2 2 2 2 2 2 2 2 2 2 2 2 2 2 2 2 2 2 2 2 2 2 2 2
left_child=1 21 3 4 5 16 7 -7 13 10 -10 12 -11 15 -13 -9 17 -3 19 -18 -8 22 23 24 25 -1 28 -28 29 -27
right_child=-2 2 -4 -5 -6 6 20 8 9 11 -12 14 -14 -15 -16 -17 18 -19 -20 -21 -22 -23 -24 -25 -26 26 27 -29 -30 -31
leaf_value=0.0064371661268878824 2.9262481585422371e-06 0.0028646064495357376 1.2882572267437251e-05 1.3796101064917214e-05 -9.1655645759324299e-06 -0.0013126976544115196 2.7164465587347657e-05 0.0037994357073330323 -0.0083899995227428997 -0.015824947846122088 -0.017716118179691188 -0.0022767032405161965 -0.0060675421318806266 -0.0065193342713072248 -0.0068803289545361287 -0.0010477275288264668 -0.00098666911598370411 -0.00029291894892224463 0.0013631216023350136 -0.0033655451907849822 -0.0023069812231863453 -1.0239946388790914e-05 1.2131124129551172e-05 -3.1563417176465935e-05 -2.878212855113618e-05 0.0081371968807486296 -0.0030635139595474089 0.0016473601098606688 0.001127594091323864 0.0022680564868212219
leaf_weight=41 154189 21 18335 6443 5805 79 82 20 33 20 33 49 34 23 22 21 71 295 20 38 35 18247 9056 1880 1638 28 68 65 828 114
leaf_count=41 154189 21 18335 6443 5805 79 82 20 33 20 33 49 34 23 22 21 71 295 20 38 35 18247 9056 1880 1638 28 68 65 828 114
internal_value=0 -7.11171e-06 -5.87837e-05 -0.000158753 -0.00032466 -0.00236868 -0.00426918 -0.00552959 -0.006836 -0.0086242 -0.0130531 -0.00628577 -0.0096814 -0.00149935 -0.00370318 0.00131674 -0.000442553 -8.30834e-05 -0.00132311 -0.001816 -0.000671084 4.37747e-05 0.000115622 0.000316655 0.000551972 0.00138351 0.00119565 -0.000761207 0.00146397 0.00342535
internal_weight=0 63444 31479 13144 6701 896 451 334 255 191 66 125 54 64 71 41 445 316 129 109 117 31965 13718 4662 2782 1144 1103 133 970 142
internal_count=217633 63444 31479 13144 6701 896 451 334 255 191 66 125 54 64 71 41 445 316 129 109 117 31965 13718 4662 2782 1144 1103 133 970 142
shrinkage=0.05


Tree=636
num_leaves=31
num_cat=0
split_feature=4 38 4 41 41 44 33 40 40 44 44 12 28 8 8 44 3 20 44 4 4 18 18 44 7 38 33 23 38 34
split_gain=0.00207547 0.0847236 0.0958932 0.153125 0.816272 0.258925 0.346919 0.37791 0.458975 0.379946 0.292999 0.420254 0.266942 0.252671 0.236727 0.24463 0.232396 0.22003 0.293602 0.258905 0.402142 0.218369 0.206258 0.19442 0.21498 0.307713 0.193506 0.174928 0.152455 0.145767
threshold=0.10312400000000001 -0.00015868999999999999 0.79460700000000006 0.19792950000000006 -0.15132349999999997 -2.1380549999999996 -0.00037994999999999994 -0.040859549999999939 0.039429999999999972 1.4428800000000004 0.92650999999999961 -6.3460899999999987e-05 -0.021603249999999997 1.6746900000000004e-05 -1.0860799999999997e-06 -0.47859499999999983 -7.4119349999999988 8.3060300000000016 0.87140500000000032 0.17191050000000002 0.14503350000000001 2.4151150000000003e-05 1.1421250000000002e-05 0.31988499999999936 3.2333100000000004e-05 -0.00093797899999999992 1.7472250000000002e-06 -11.351199999999999 -0.00064176049999999996 0.15545400000000001
decision_type=2 2 2 2 2 2 2 2 2 2 2 2 2 2 2 2 2 2 2 2 2 2 2 2 2 2 2 2 2 2
left_child=-1 2 3 4 -2 -6 -7 9 23 13 11 12 -10 17 15 -13 -16 18 19 20 -8 26 -17 -9 28 -26 -21 -12 29 -25
right_child=1 -3 -4 -5 5 6 7 8 10 -11 27 14 -14 -15 16 22 -18 -19 -20 21 -22 -23 -24 24 25 -27 -28 -29 -30 -31
leaf_value=-3.7549959249618623e-06 -1.263733222022543e-05 -3.4256243073676088e-05 -1.582887627683913e-05 -2.735895852695887e-05 -0.00017979954090807486 -0.004105119355966357 0.0027497871323721485 0.00040770985301138708 0.0025826895024275054 -0.00026700934368450579 0.0044489107164554301 0.00021503374331531991 -0.0045869936363305899 0.0077319604868534954 0.011351459820289164 0.0081477855513286263 0.0042166276324895171 0.006520563602531091 0.0078382136462175327 0.0026488835229274803 -0.0067624189161870161 0.00095254667524068831 0.0030947490924280951 0.0031377067281441254 0.0019994393087637784 0.0077122532778109119 0.007481692751282347 -0.00087059326454918314 -0.0034841089312976693 -0.0011859661939420871
leaf_weight=136755 6406 49631 15788 6420 377 30 25 1286 37 84 20 33 20 32 25 36 21 39 23 53 20 83 46 44 110 30 34 68 22 35
leaf_count=136755 6406 49631 15788 6420 377 30 25 1286 37 84 20 33 20 32 25 36 21 39 23 53 20 83 46 44 110 30 34 68 22 35
internal_value=0 6.34925e-06 7.08448e-05 0.000159363 0.000291983 0.00103311 0.0012358 0.00130779 0.00100613 0.00271476 0.00277356 0.00375656 6.70112e-05 0.00352534 0.0050628 0.00385022 0.00809425 0.00303938 0.00246893 0.00189454 -0.00147786 0.00278723 0.00531316 0.000651945 0.00195521 0.00322361 0.00453757 0.000338385 0.000197029 0.00122216
internal_weight=0 80878 31247 15459 9039 2633 2256 2226 1833 393 306 218 57 309 161 115 46 277 238 215 45 170 82 1527 241 140 87 88 101 79
internal_count=217633 80878 31247 15459 9039 2633 2256 2226 1833 393 306 218 57 309 161 115 46 277 238 215 45 170 82 1527 241 140 87 88 101 79
shrinkage=0.05


Tree=637
num_leaves=31
num_cat=0
split_feature=43 3 6 3 41 41 7 0 14 24 5 21 35 5 14 34 26 9 11 40 19 19 41 39 40 43 15 43 19 1
split_gain=0.00211091 0.0158625 0.0917778 0.0146814 0.0213347 0.208166 0.292952 0.16247 0.205869 0.320056 0.182607 0.264109 0.177103 0.140274 0.137537 0.131063 0.12257 0.114885 0.106123 0.093073 0.052143 0.0401768 0.0369456 0.184632 0.0346838 0.266944 0.212885 0.307666 0.272351 0.198695
threshold=1.3895649999999999 -18.305499999999995 1.0000000180025095e-35 -7.4497099999999987 -0.12554300000000002 -0.026150000000000003 2.4302600000000003e-05 -9.6465949999999978 0.00012656100000000005 0.13242050000000002 1.5962300000000005e-05 12.159000000000001 0.0042315250000000007 1.2194250000000001e-05 0.00014912150000000003 0.031882050000000009 -8.039129999999999e-05 4.2640350000000002e-05 -1.0199649999999998e-05 0.056773999999999998 0.00015966750000000004 0.0003933880000000001 -0.15132349999999997 4.1855750000000003e-05 -0.12496499999999998 0.31279500000000043 1.1195050000000002e-06 -0.465335 1.5088800000000002e-05 11.597950000000003
decision_type=2 2 2 2 2 2 2 2 2 2 2 2 2 2 2 2 2 2 2 2 2 2 2 2 2 2 2 2 2 2
left_child=3 2 -2 -1 22 6 -6 13 9 15 12 14 18 -8 -12 17 -16 -9 -10 -18 -21 -15 -5 -24 -7 26 27 -26 -28 -27
right_child=1 -3 -4 4 5 24 7 8 10 -11 11 -13 -14 21 16 -17 19 -19 -20 20 -22 -23 23 -25 25 29 28 -29 -30 -31
leaf_value=3.9772701163823977e-06 -0.0011930003750211865 4.849084634017242e-06 0.0030499431015923624 6.3740486844926448e-06 -0.0060589982279842455 -8.9134592753159893e-07 0.0043962321411818266 0.00074918212956704561 -0.002562125193336132 -0.00654846537553777 0.0033036909997463228 -0.0065547518637253058 0.0056476098846178508 -0.0013480821180079754 -0.0038061408908106388 -0.0044798775438684973 0.0019908698947889913 -0.0033160476115881468 0.0016455213763038046 -0.0033890768686043364 2.2529163288709242e-05 0.0015450421297282446 -0.00040913775584106948 0.0052289569546701388 -0.0030962239807425726 -0.00099811943953039602 -0.0075326285996197839 0.00025879607898493073 -0.00084813077151011393 -0.004527116293708484
leaf_weight=94659 26 100886 25 9457 28 9645 25 63 22 39 20 21 20 30 32 25 31 24 47 21 24 20 53 20 71 351 20 1819 64 45
leaf_count=94659 26 100886 25 9457 28 9645 25 63 22 39 20 21 20 30 32 25 31 24 47 21 24 20 53 20 71 351 20 1819 64 45
internal_value=0 5.29474e-06 0.000886874 -4.57972e-06 -4.13359e-05 -8.42803e-05 -0.00109232 -0.000792608 -0.00120343 -0.00264751 -0.000287229 -0.00135762 0.00150477 0.00133819 -0.000504966 -0.00128914 -0.00121027 -0.000372261 0.000303953 -0.000117276 -0.00156955 -0.000190832 1.50235e-05 0.00113555 -4.30022e-05 -0.000214378 2.32955e-05 0.000132761 -0.00243968 -0.00139914
internal_weight=0 100937 51 116696 22037 12507 492 464 389 151 238 149 89 75 128 112 108 87 69 76 45 50 9530 73 12015 2370 1974 1890 84 396
internal_count=217633 100937 51 116696 22037 12507 492 464 389 151 238 149 89 75 128 112 108 87 69 76 45 50 9530 73 12015 2370 1974 1890 84 396
shrinkage=0.05


Tree=638
num_leaves=31
num_cat=0
split_feature=43 3 6 3 20 23 36 16 40 41 20 14 24 18 21 30 4 15 33 43 30 40 43 43 19 30 43 1 15 34
split_gain=0.00190509 0.0143159 0.0828295 0.01325 0.0300288 0.0939234 0.0286391 0.0471399 0.0187231 0.319092 0.299942 0.259016 0.325335 0.388505 0.253828 0.195508 0.182329 0.170997 0.128283 0.127768 0.0418429 0.0342291 0.272568 0.194015 0.57055 0.437702 0.288523 0.274865 0.269637 0.255816
threshold=1.3895649999999999 -18.305499999999995 1.0000000180025095e-35 -7.4497099999999987 16.002400000000005 -7.7212849999999991 0.0034201800000000005 1.0372650000000001e-07 0.077348000000000056 -0.026150000000000003 -11.463149999999997 0.00012656100000000005 0.1103785 -1.2645199999999997e-07 10.889000000000001 0.00020330650000000003 -0.079256599999999983 6.6406850000000019e-08 -9.1418099999999987e-07 -0.15760999999999911 0.0020175450000000004 -0.12496499999999998 0.31279500000000043 -0.19603999999999996 1.4530600000000001e-08 0.00031279300000000007 -0.465335 -1.9933749999999997 1.3231850000000003e-06 0.045441700000000008
decision_type=2 2 2 2 2 2 2 2 2 2 2 2 2 2 2 2 2 2 2 2 2 2 2 2 2 2 2 2 2 2
left_child=3 2 -2 -1 8 -6 7 -7 9 10 -5 12 16 -14 15 17 -12 -13 -18 -17 -21 -11 23 24 -23 27 -27 -26 -25 -28
right_child=1 -3 -4 4 5 6 -8 -9 -10 21 11 14 13 -15 -16 19 18 -19 -20 20 -22 22 -24 28 25 26 29 -29 -30 -31
leaf_value=3.7784068058247565e-06 -0.0011333503670847187 4.6066303372059208e-06 0.0028974459851160649 0.0038471156984324693 0.0030963251968534034 -0.0001618374594337573 -0.00026375190001352058 0.0030164327857346508 7.2435316754001604e-06 -2.2425566966889041e-06 0.0015996376890689134 -0.0061211627061129557 -0.012454262183164248 -0.0030185625461551053 -0.0045696709731773066 0.0043058897332789812 -0.0013377417147589419 0.00026680319609691982 -0.0065919402809370134 0.0011683632818878526 -0.0012934595832900546 -0.0086926735117837488 -0.00143379952226681 0.00028130910565537988 -0.0077114079419989146 -0.0011393041877380136 0.0071096538490946258 -0.0011725458227576585 -0.0038210520713885389 5.9806160491213882e-05
leaf_weight=94659 26 100886 25 23 31 28 132 20 9602 9549 25 20 20 24 37 26 26 22 21 45 28 24 384 1737 25 49 31 45 41 22
leaf_count=94659 26 100886 25 23 31 28 132 20 9602 9549 25 20 20 24 37 26 26 22 21 45 28 24 384 1737 25 49 31 45 41 22
internal_value=0 5.03e-06 0.00084253 -4.35074e-06 -3.92691e-05 0.000554351 0.000116566 0.00116244 -4.50079e-05 -8.60516e-05 -0.00165169 -0.00208187 -0.00392027 -0.00730752 -0.000883813 8.33974e-05 -0.00185029 -0.00277509 -0.00368536 0.00129609 0.000224102 -4.43695e-05 -0.000214967 2.21307e-05 -0.00147084 -0.000463143 0.00162636 -0.00350785 0.00018671 0.0041833
internal_weight=0 100937 51 116696 22037 211 180 48 21826 12224 317 294 116 44 178 141 72 42 47 99 73 11907 2358 1974 196 172 102 70 1778 53
internal_count=217633 100937 51 116696 22037 211 180 48 21826 12224 317 294 116 44 178 141 72 42 47 99 73 11907 2358 1974 196 172 102 70 1778 53
shrinkage=0.05


Tree=639
num_leaves=31
num_cat=0
split_feature=21 1 35 10 7 15 20 3 12 17 21 8 19 6 8 1 35 8 7 15 34 0 35 1 2 1 7 40 7 15
split_gain=0.00190515 0.00677075 0.0308166 0.123057 0.0535188 0.045154 0.0373499 0.0340293 0.0363034 0.0238187 0.0220511 0.0157551 0.00876729 0.0158341 0.00724199 0.0217358 0.0330306 0.0175762 0.0156178 0.0131821 0.0105583 0.0079768 0.00769274 0.032899 0.0764434 0.0317873 0.0660472 0.0166869 0.0141677 0.00873196
threshold=13.390900000000002 10.154350000000003 0.0080513700000000021 4.7241300000000005e-05 7.3710500000000019e-05 3.629320000000001e-08 5.9330550000000004 -6.1678749999999996 6.1414500000000013e-05 3.0701000000000005e-08 18.392150000000004 -1.9735149999999993e-05 1.5088800000000002e-05 -5.0878949999999982e-07 -1.7548399999999996e-05 8.1525150000000028 0.0080513700000000021 -1.6648199999999998e-05 5.4056000000000006e-05 -6.4763899999999986e-07 0.34287850000000003 7.0096050000000014 -0.27384599999999998 0.63221400000000016 0.33161050000000009 6.1111750000000002 3.6437750000000009e-05 0.056773999999999998 3.2333100000000004e-05 2.8964050000000007e-06
decision_type=2 2 2 2 2 2 2 2 2 2 2 2 2 2 2 2 2 2 2 2 2 2 2 2 2 2 2 2 2 2
left_child=-1 14 4 5 6 10 7 9 12 -3 -4 -11 13 -9 15 18 19 -16 -2 -17 -21 -20 23 27 -25 28 -27 -19 -26 -24
right_child=1 2 3 -5 -6 -7 -8 8 -10 11 -12 -13 -14 -15 17 16 -18 22 21 20 -22 -23 29 24 25 26 -28 -29 -30 -31
leaf_value=-5.7572441482448482e-07 0.0010708473286392881 0.002844242299470352 0.00030097283561190128 0.0044865965492499526 -0.0018200482163150365 0.0022380908764898779 -0.0015146446785925388 0.00015163907270518043 -0.0016637589084963951 0.0018477276655903551 -0.001509870423389406 -3.8126632851479509e-06 -0.0002407825330953562 0.0019298272362599771 0.0012044602478567868 0.00086596195961603718 -0.0020780931471723737 2.3303236981421703e-05 7.2733998763396812e-05 4.1312740255047439e-05 -0.0013878567794260259 -0.00080198072078708344 -6.7052637041910103e-05 0.003676226086681709 0.00088518010999541735 -0.00028392439166585368 0.0036065545293968177 -0.0011973121734627059 -0.00049888505887331987 0.00017321672869710376
leaf_weight=214386 34 20 40 20 37 20 26 31 26 20 29 27 27 21 32 21 34 224 124 28 24 33 1668 20 25 24 20 32 71 489
leaf_count=214386 34 20 40 20 37 20 26 31 26 20 29 27 27 21 32 21 34 224 124 28 24 33 1668 20 25 24 20 32 71 489
internal_value=0 3.80127e-05 0.000247758 0.000942628 -7.45437e-05 0.00014623 0.000251636 0.000518632 -4.31588e-05 0.00139905 -0.000460106 0.000784077 0.000490203 0.000869754 1.31583e-05 -0.000220333 -0.000790858 3.98687e-05 9.92799e-05 -0.000191323 -0.000618304 -0.000111123 2.53848e-05 0.00022225 0.000784688 0.000371611 0.00148448 -0.000129274 -0.000138451 -1.25827e-05
internal_weight=0 3247 344 109 235 89 198 172 105 67 69 47 79 52 2903 298 107 2605 191 73 52 157 2573 416 160 140 44 256 96 2157
internal_count=217633 3247 344 109 235 89 198 172 105 67 69 47 79 52 2903 298 107 2605 191 73 52 157 2573 416 160 140 44 256 96 2157
shrinkage=0.05


Tree=640
num_leaves=31
num_cat=0
split_feature=23 36 3 6 25 9 9 34 6 6 17 21 18 33 40 9 19 9 36 37 9 37 44 43 34 19 37 0 19 17
split_gain=0.0019156 0.00966511 0.0575712 0.0113655 0.00617173 0.00496593 0.0384097 0.00721293 0.0281211 0.0545571 0.00691119 0.00634693 0.00595632 0.00561969 0.0196467 0.0049943 0.00452335 0.00447326 0.00454159 0.00430857 0.00957263 0.00929885 0.0308374 0.00873797 0.00414583 0.00404439 0.0105392 0.0141591 0.0090797 0.0261485
threshold=-6.1276249999999992 -0.0013312399999999998 -6.0035249999999989 -4.5011399999999994e-06 0.15637350000000003 3.8435000000000007e-05 3.8012650000000006e-05 1.7130900000000002 -1.1517499999999998e-06 -2.4799399999999996e-06 9.8540950000000013e-08 -15.424049999999998 -7.9974899999999992e-07 3.8629500000000009e-06 0.2761725000000001 3.7539700000000009e-05 0.0016856000000000002 3.6406300000000004e-05 -0.0012103199999999998 -1.2728799999999998e-06 -4.6142999999999988e-05 -7.2225249999999991e-07 0.31988499999999936 -0.27803499999999998 1.5909750000000003 2.8823200000000004e-07 1.6684100000000004e-08 10.442600000000001 2.7427600000000005e-05 9.4821800000000005e-07
decision_type=2 2 2 2 2 2 2 2 2 2 2 2 2 2 2 2 2 2 2 2 2 2 2 2 2 2 2 2 2 2
left_child=-1 2 3 -2 -3 6 7 15 9 10 -9 -7 -10 25 -15 17 -14 18 -6 20 -20 22 -21 -22 -23 26 -13 -28 29 -27
right_child=1 4 -4 -5 5 11 -8 8 12 -11 -12 13 16 14 -16 -17 -18 -19 19 21 23 24 -24 -25 -26 28 27 -29 -30 -31
leaf_value=-8.2379043548784829e-07 0.0012388694172113903 0.00070784988708062031 -0.0022136417065859969 -7.2533960513905383e-05 0.00065626114621628756 -0.00085192169580841431 0.0020914418017206988 -0.00031497349223956982 -0.00061384549980258193 0.003122933028308857 0.00084563388043771615 5.770758963568322e-06 0.00043324498824509904 -0.0012950170184455765 -1.1991936654647892e-05 -0.00057147219689902753 -0.00047692233711131853 0.0005699735600580005 0.0011935898166181385 -0.0022150259835089516 -2.4812131142762034e-05 3.1439476991109122e-05 6.6901690182643705e-05 0.00095431704529026469 -0.00065656873736191887 3.8989877202766367e-05 -0.00010335212500649505 -0.0018586049827172249 -4.8473725426447353e-06 0.0021265932252572386
leaf_weight=211122 20 34 33 95 29 25 23 29 44 23 23 153 43 39 127 34 20 39 24 20 146 4630 57 27 22 60 27 20 625 20
leaf_count=211122 20 34 33 95 29 25 23 29 44 23 23 153 43 39 127 34 20 39 24 20 146 4630 57 27 22 60 27 20 625 20
internal_value=0 2.67118e-05 -0.000372726 0.000155536 3.60025e-05 3.23933e-05 5.26623e-05 4.36619e-05 0.000352883 0.00109524 0.000198372 -6.43839e-05 -0.000167459 -4.60006e-05 -0.000313426 3.24689e-05 0.000144303 3.65807e-05 3.23824e-05 2.87096e-05 0.000257818 1.91654e-05 -0.000525807 0.000128 2.81858e-05 3.0519e-06 -0.000195398 -0.000850268 5.93499e-05 0.000560891
internal_weight=0 6511 148 115 6363 6329 5233 5210 182 75 52 1096 107 1071 166 5028 63 4994 4955 4926 197 4729 77 173 4652 905 200 47 705 80
internal_count=217633 6511 148 115 6363 6329 5233 5210 182 75 52 1096 107 1071 166 5028 63 4994 4955 4926 197 4729 77 173 4652 905 200 47 705 80
shrinkage=0.05


Tree=641
num_leaves=31
num_cat=0
split_feature=5 10 26 38 11 33 15 21 9 22 27 29 39 22 20 29 44 19 20 13 44 20 19 44 44 21 20 20 0 34
split_gain=0.00183613 0.0117789 0.0104891 0.00933337 0.0385559 0.00840446 0.0128305 0.00783431 0.00771062 0.0455075 0.0666412 0.0210983 0.105331 0.013389 0.0211593 0.0124997 0.0141845 0.00729799 0.0352843 0.00689225 0.00616406 0.00582701 0.0340662 0.00559826 0.02474 0.0324141 0.0248749 0.0679047 0.0217133 0.0402674
threshold=3.4653000000000009e-05 2.5132750000000004e-05 -0.028182349999999998 -3.2628099999999995 -0.00020968799999999995 -0.00037994999999999994 3.6456250000000008e-06 -19.754149999999996 -7.8930349999999975e-05 3.0438950000000005 0.38900350000000006 0.022351850000000003 4.6016000000000008e-05 -3.0099549999999993 -10.617499999999998 0.18537850000000003 -1.8692049999999989 3.865525000000001e-10 5.095670000000001 3.162045000000001e-05 -0.64641000000000026 -19.608449999999998 0.00020669100000000003 -0.23675500000000002 -0.52047500000000058 12.474600000000001 -5.0875749999999984 -6.0084349999999995 -5.6766349999999992 0.010574050000000003
decision_type=2 2 2 2 2 2 2 2 2 2 2 2 2 2 2 2 2 2 2 2 2 2 2 2 2 2 2 2 2 2
left_child=8 -2 5 4 -4 6 -3 -5 9 11 -11 13 -13 14 -1 19 -17 18 -9 20 -14 22 -19 24 -23 26 27 28 29 -26
right_child=1 2 3 7 -6 -7 -8 17 -10 10 -12 12 15 -15 -16 16 -18 21 -20 -21 -22 23 -24 -25 25 -27 -28 -29 -30 -31
leaf_value=0.00024138237899023809 0.001224779132171534 -0.00034211562246048787 0.0024590395382256252 -0.00052402858202573474 -1.1727825971320272e-05 -0.00013361420269797147 -0.0018590624336502514 3.9120124422477731e-05 -6.2206488738498774e-07 -0.0038171463377148032 2.1858375237990494e-05 -0.003950720468528744 -2.4557051499512027e-05 1.4932767355801445e-05 -0.0020585801701236048 -0.00028110158820317 -0.0017349827339057811 0.0021624432952376082 -0.0022924543664521479 -0.00090487093169940632 0.00087913927141233307 1.0371229322500038e-05 -0.00046808755323581865 5.1871802921150545e-05 -6.061507457192859e-05 -0.002071914854110219 -1.2436829946189899e-05 -0.003249611308171513 -9.1299787673051466e-06 -0.0029769071928603809
leaf_weight=20 20 46 20 68 75 164 20 86 186481 20 26 20 186 2079 20 51 25 20 20 20 21 20254 32 7208 29 25 409 23 125 20
leaf_count=20 20 46 20 68 75 164 20 86 186481 20 26 20 186 2079 20 51 25 20 20 20 21 20254 32 7208 29 25 409 23 125 20
internal_value=0 1.1792e-05 1.0945e-05 1.36672e-05 0.000508434 -0.000325353 -0.000801796 1.20075e-05 -1.78868e-06 -8.92289e-05 -0.00164727 -5.988e-05 -0.00043631 -2.50058e-06 -0.000908599 -0.000204336 -0.000759352 1.32977e-05 -0.0004008 -1.85159e-05 6.71223e-05 1.48573e-05 0.000543655 1.38785e-05 7.65911e-07 -0.000307548 -0.000234761 -0.000696336 -0.000358835 -0.00125094
internal_weight=0 28664 28644 28414 95 230 66 28319 188969 2488 46 2442 323 2119 40 303 76 28251 106 227 207 28145 52 28093 20885 631 606 197 174 49
internal_count=217633 28664 28644 28414 95 230 66 28319 188969 2488 46 2442 323 2119 40 303 76 28251 106 227 207 28145 52 28093 20885 631 606 197 174 49
shrinkage=0.05


Tree=642
num_leaves=31
num_cat=0
split_feature=21 41 1 44 39 44 40 18 38 24 40 17 16 22 16 1 17 39 40 40 40 12 12 24 43 22 2 12 24 36
split_gain=0.0018529 0.0212656 0.0122036 0.0553892 0.0103752 0.0195034 0.0808539 0.171203 0.193531 0.0777485 0.0199191 0.018129 0.0346706 0.0422006 0.0396389 0.0427073 0.03201 0.071992 0.0183659 0.0793725 0.0235537 0.0177565 0.0367079 0.032762 0.0104862 0.00720261 0.0371115 0.00728957 0.0120957 0.00745165
threshold=-13.388899999999998 4.6270000000000016 -13.794199999999998 -2.0474100000000002 0.0020372800000000003 -0.20255000000000042 0.2761725000000001 -4.1247499999999997e-07 0.0019194400000000001 0.11369050000000001 -0.40968649999999995 4.8443000000000012e-06 2.5770550000000005e-06 -2.2092599999999996 1.1066350000000001e-05 -3.5464499999999997 8.2035700000000018e-06 0.17438400000000001 -0.040859549999999939 -0.60254799999999997 0.46240350000000002 -0.00018440399999999996 -0.00029231849999999997 -1.0137249999999998 -0.15760999999999911 -2.1850249999999996 -2.1299649999999999 -0.00010982249999999999 0.69957950000000013 -0.60180299999999987
decision_type=2 2 2 2 2 2 2 2 2 2 2 2 2 2 2 2 2 2 2 2 2 2 2 2 2 2 2 2 2 2
left_child=1 2 3 -1 5 6 7 8 -4 10 -9 12 25 -14 15 -15 17 -13 19 -18 -20 22 -16 -23 -25 26 -6 28 -27 -29
right_child=-2 -3 4 -5 11 -7 -8 9 -10 -11 -12 16 13 14 21 -17 18 -19 20 -21 -22 23 -24 24 -26 27 -28 29 -30 -31
leaf_value=0.0022375095230076584 -5.8965758980776581e-07 0.0014085083831949826 0.000355481582863087 -0.0006647716432754741 -0.0021166971711209042 -8.214813563840121e-06 -3.8647990711725898e-05 -0.00018364213236054638 0.006727357820804733 0.0027977890457259492 -0.002080087066315173 9.8904954741859302e-05 0.0008756726815542942 -0.0030434751357844153 -0.00033397212781879269 -0.00067295091392129266 -0.00016223546486286881 0.0035529598128670676 -0.0014841424504993485 0.0027235090571095149 -3.9666539771552178e-05 0.0018518333722022365 -0.0026404828425375341 -0.0014343620654835832 0.00011582418325512361 8.5867399226043171e-05 4.012777981959023e-06 -0.00042015213999548002 0.0015450049575429147 2.8757682309861462e-05
leaf_weight=31 214135 28 22 35 25 1103 333 45 26 20 20 48 38 38 69 38 103 22 32 31 239 20 23 20 24 49 118 105 20 773
leaf_count=31 214135 28 22 35 25 1103 333 45 26 20 20 48 38 38 69 38 103 22 32 31 239 20 23 20 24 49 118 105 20 773
internal_value=0 3.60967e-05 2.50225e-05 0.000698421 1.1966e-05 0.000106368 0.00037758 0.00141971 0.00380691 7.16487e-05 -0.000767164 -6.87515e-05 -0.00016163 -0.000668869 -0.000921854 -0.00185821 0.000197175 0.00118447 2.65325e-05 0.000505362 -0.000210232 -0.000465679 -0.0009106 0.000173894 -0.000588806 -3.5984e-05 -0.000366741 1.39613e-05 0.000508806 -2.49274e-05
internal_weight=0 3498 3470 66 3404 1569 466 133 48 85 65 1835 1360 270 232 76 475 70 405 134 271 156 92 64 44 1090 143 947 69 878
internal_count=217633 3498 3470 66 3404 1569 466 133 48 85 65 1835 1360 270 232 76 475 70 405 134 271 156 92 64 44 1090 143 947 69 878
shrinkage=0.05


Tree=643
num_leaves=31
num_cat=0
split_feature=23 1 22 36 11 11 1 25 43 1 1 15 43 40 0 20 17 6 0 6 36 28 1 4 43 19 44 36 22 17
split_gain=0.00180845 0.0126045 0.0513983 0.0094842 0.00971917 0.0424995 0.0101234 0.0228938 0.00832002 0.00821178 0.0372612 0.00783516 0.0125417 0.00858818 0.00578986 0.032388 0.0054015 0.00533576 0.0123665 0.00827478 0.00611492 0.00654092 0.0154871 0.0272924 0.00492518 0.0155612 0.0081623 0.013574 0.00437565 0.00397732
threshold=-6.007039999999999 12.027950000000002 1.8645100000000003 -0.0036820849999999994 2.2232350000000001e-05 2.0886150000000003e-05 8.0544250000000019 3.7654200000000002 0.20156999999999983 10.319000000000001 10.480750000000002 -6.5679299999999979e-08 0.43278000000000022 0.83132200000000001 -10.400999999999998 -12.464199999999998 7.0275550000000009e-08 -1.4992549999999998e-05 -1.3331099999999998 -1.2130949999999998e-05 3.8353050000000004 -0.025004749999999996 -9.3239949999999983 -0.097676349999999981 -0.88227999999999918 5.8709150000000007e-05 1.5039450000000001 0.022445900000000001 2.2495850000000002 -1.7471999999999995e-05
decision_type=2 2 2 2 2 2 2 2 2 2 2 2 2 2 2 2 2 2 2 2 2 2 2 2 2 2 2 2 2 2
left_child=-1 3 11 -2 5 9 8 -8 24 14 -11 13 -13 -3 15 -5 -12 18 -16 -19 21 22 23 -21 26 -26 27 -6 -17 -24
right_child=1 2 -4 4 6 -7 7 -9 -10 10 16 12 -14 -15 17 28 -18 19 -20 20 -22 -23 29 -25 25 -27 -28 -29 -30 -31
leaf_value=-5.6022209507811809e-07 0.0010942874968432907 0.0012427356388070622 -0.0023839051061292629 0.0020863213257499686 6.2667736025245039e-05 0.002252750684324976 7.6316711008317387e-05 -0.0020801403280779596 -0.00076216918153620917 0.0024620781751309552 0.00057140284974853525 -0.00096210583157162785 0.00045559876485080729 2.3548996100194369e-05 -4.4383146201393438e-05 1.3816959065961249e-05 -0.00031310874499063682 -0.00096443633481699406 0.0015141867267084309 0.0024983519304078074 -0.00064985662429535302 3.4573781674921192e-06 0.00075502535119085232 0.00014383201769305743 0.001575478159065824 -3.1661149513951628e-05 -5.8166832438255327e-06 -0.001669940826832317 0.0007486378767719978 1.3368748761529502e-05
leaf_weight=214394 22 20 27 23 26 23 32 20 38 20 28 39 26 52 35 170 45 21 20 20 32 1332 20 32 20 61 804 20 23 188
leaf_count=214394 22 20 27 23 26 23 32 20 38 20 28 39 26 52 35 170 45 21 20 20 32 1332 20 32 20 61 804 20 23 188
internal_value=0 3.70819e-05 -0.000390017 5.98605e-05 5.24064e-05 0.000115644 -7.34485e-05 -0.00075309 -3.69765e-05 9.11769e-05 0.00055001 2.93942e-06 -0.000395024 0.000362212 6.89057e-05 0.000312745 2.6156e-05 3.79238e-05 0.00052237 2.17265e-05 3.44786e-05 4.82341e-05 0.000277629 0.00104942 -7.37684e-06 0.000365163 -4.28777e-05 -0.00069064 0.000101386 8.46819e-05
internal_weight=0 3239 164 3075 3053 2032 1021 52 969 2009 93 137 65 72 1916 216 73 1700 55 1645 1624 1592 260 52 931 81 850 46 193 208
internal_count=217633 3239 164 3075 3053 2032 1021 52 969 2009 93 137 65 72 1916 216 73 1700 55 1645 1624 1592 260 52 931 81 850 46 193 208
shrinkage=0.05


Tree=644
num_leaves=31
num_cat=0
split_feature=40 22 24 20 41 13 23 29 0 43 4 36 33 5 43 40 13 15 14 1 3 28 22 43 34 11 20 14 14 19
split_gain=0.0018061 0.0136437 0.0631618 0.00998462 0.0602985 0.0973022 0.11548 0.0950281 0.221024 0.0815604 0.22357 0.162984 0.104526 0.0652736 0.0785941 0.049603 0.0328578 0.0576377 0.0321654 0.0312122 0.0175168 0.0153792 0.0471077 0.113988 0.0404827 0.134398 0.0369974 0.0445197 0.0587225 0.035012
threshold=-0.57440449999999987 3.1185250000000004 0.27811600000000009 -14.223749999999997 -0.60497499999999982 -5.3688449999999996e-05 -10.062099999999999 0.0057611650000000013 3.4977250000000004 0.35261000000000037 -0.084020649999999988 0.0098685450000000011 -0.00016239399999999998 1.1630300000000001e-05 2.7930350000000002 0.077348000000000056 3.4207850000000005e-05 6.2754300000000023e-08 0.00026773650000000009 1.7165550000000003 -9.5548399999999987 0.051198250000000008 2.9137900000000005 1.06199 0.069860150000000024 -8.1674799999999979e-06 -11.702999999999998 0.0011990500000000003 0.0075758350000000004 1.0092650000000002e-09
decision_type=2 2 2 2 2 2 2 2 2 2 2 2 2 2 2 2 2 2 2 2 2 2 2 2 2 2 2 2 2 2
left_child=-1 3 -3 4 -2 -6 13 8 -8 16 11 -11 -12 -7 -15 18 17 -9 -16 -10 -18 -5 24 -24 25 -23 27 -26 -29 -28
right_child=1 2 -4 21 5 6 7 9 19 10 12 -13 -14 14 15 -17 20 -19 -20 -21 -22 22 23 -25 26 -27 29 28 -30 -31
leaf_value=5.5874169771111436e-06 -8.8496768502398316e-05 0.00013968586362381993 -0.0030917338863582704 -9.3883839719653543e-07 0.0035577223959710235 0.001390511788709913 0.0069987197499722202 -0.00014704201335995966 0.0019120819815064104 0.0077081511780852461 0.0028975953874621719 0.0014013402062811936 -0.0012490611267342254 -0.0033403663061160067 -0.00018707765134009111 0.0012405183368914383 6.7098321491761856e-05 -0.003086099195099285 -0.0029576063365675514 -0.00081708921577956057 0.001845513890948496 0.00049650766357531425 -0.0045494428105303094 0.00018241695406946487 -8.7663686675417313e-06 -0.0040250107635630339 0.00087873219128203916 -0.0042054285842459647 -0.00050094714815318391 -5.5570466936724703e-05
leaf_weight=86888 1067 62 20 122868 26 26 20 69 22 20 21 21 55 35 22 27 45 22 20 20 20 42 20 35 48 27 102 20 23 5920
leaf_count=86888 1067 62 20 122868 26 26 20 69 22 20 21 21 55 35 22 27 45 22 20 20 20 42 20 35 48 27 102 20 23 5920
internal_value=0 -3.71318e-06 -0.000648465 -3.30855e-06 0.000122511 0.000581055 0.000414617 0.000905464 0.00267256 0.000504146 0.00150207 0.00447783 -0.000103274 -0.000850257 -0.00141045 -0.000431505 -0.000244297 -0.000857583 -0.00150638 0.000612477 0.000614303 -4.8269e-06 -8.14212e-05 -0.00153826 -6.846e-05 -0.00127278 -5.48663e-05 -0.00105551 -0.00222396 -3.97453e-05
internal_weight=0 130745 82 130663 1558 491 465 335 62 273 117 41 76 130 104 69 156 91 42 42 65 129105 6237 55 6182 69 6113 91 43 6022
internal_count=217633 130745 82 130663 1558 491 465 335 62 273 117 41 76 130 104 69 156 91 42 42 65 129105 6237 55 6182 69 6113 91 43 6022
shrinkage=0.05


Tree=645
num_leaves=31
num_cat=0
split_feature=4 38 4 43 41 41 27 4 43 41 41 43 25 4 18 23 24 43 37 5 24 20 3 32 32 5 41 5 43 43
split_gain=0.00182012 0.0757213 0.086771 0.129075 0.215361 0.740344 0.253695 0.356069 0.231008 0.371849 0.394128 0.441348 0.357361 0.322504 0.653632 0.33899 0.232934 0.183334 0.170727 0.168953 0.16852 0.162273 0.153389 0.236637 0.158912 0.152762 0.16225 0.152596 0.149415 0.27295
threshold=0.10312400000000001 -0.00015868999999999999 1.0072750000000001 2.1697850000000001 0.24875600000000014 -0.15132349999999997 0.98082900000000006 0.36048500000000006 -3.0299649999999994 0.078754999999999922 -0.057539999999999918 -0.77143500000000065 4.2979400000000005 0.17191050000000002 8.9857900000000023e-06 -10.914099999999999 0.33996650000000006 0.97785500000000003 -4.8108399999999992e-07 1.1681100000000001e-05 0.44009350000000008 19.256550000000001 -15.510599999999998 -0.05726499999999999 0.026424900000000005 1.5809250000000005e-05 -0.078199999999999964 1.6293600000000003e-05 -0.32314999999999999 -1.5836399999999993
decision_type=2 2 2 2 2 2 2 2 2 2 2 2 2 2 2 2 2 2 2 2 2 2 2 2 2 2 2 2 2 2
left_child=-1 2 3 4 5 -2 7 28 -8 10 12 20 25 -11 -15 -16 -13 -18 -17 -14 -12 -5 -9 -24 -25 26 -10 -19 29 -7
right_child=1 -3 -4 21 -6 6 8 22 9 13 11 16 19 14 15 18 17 27 -20 -21 -22 -23 23 24 -26 -27 -28 -29 -30 -31
leaf_value=-3.5164272825095136e-06 -1.1324772825208182e-05 -3.2441796581067753e-05 -2.07920030473718e-05 -3.7243431034996841e-05 -4.1036119991323028e-05 -0.00045573687058358996 -0.00091814374675697218 0.00057011323823154768 0.010507108985135953 -0.00070367979717737969 0.0088665508432313796 0.0017000927435675993 -0.0025575789832510058 0.012403404718032108 0.0071015483175870036 0.0043259012546124206 -0.00061218349876922533 0.0056391850375803187 -0.0007390470987912722 0.002895783665661263 0.0032214126551153668 0.0031971626379228655 -0.0057694447224069315 0.0020232068461813594 -0.002580619723078101 0.0028785496786109767 0.0047922987986922915 -0.00025595088289784534 0.00073086933647450525 0.0035861822230572218
leaf_weight=136755 3538 49631 14822 6846 3585 62 79 65 27 29 20 283 20 25 40 28 327 23 41 49 39 39 37 29 53 22 23 21 947 128
leaf_count=136755 3538 49631 14822 6846 3585 62 79 65 27 29 20 283 20 25 40 28 327 23 41 49 39 39 37 29 53 22 23 21 947 128
internal_value=0 5.94586e-06 6.69187e-05 0.000146069 0.000265143 0.000449468 0.00112398 0.000657378 0.00168636 0.00188868 0.00147098 0.000993316 0.00388642 0.00407708 0.00511173 0.00343932 0.000619677 -0.000204468 0.00131629 0.0013151 0.00513502 -1.89222e-05 -0.00138322 -0.00245016 -0.000952437 0.0063506 0.0078783 0.0028256 0.000987607 0.00226724
internal_weight=0 80878 31247 16425 9540 5955 2417 1321 1096 1017 854 713 141 163 134 109 654 371 69 69 59 6885 184 119 82 72 50 44 1137 190
internal_count=217633 80878 31247 16425 9540 5955 2417 1321 1096 1017 854 713 141 163 134 109 654 371 69 69 59 6885 184 119 82 72 50 44 1137 190
shrinkage=0.05


Tree=646
num_leaves=31
num_cat=0
split_feature=44 44 20 9 4 0 0 4 20 23 19 0 17 19 11 9 23 20 40 40 0 23 14 44 44 34 21 0 23 21
split_gain=0.00208994 0.0115944 0.058047 0.129732 0.245529 0.0791428 0.0813251 0.0598321 0.0305453 0.0585069 0.160071 0.0760054 0.0651934 0.10251 0.0736815 0.0440272 0.0938545 0.0409127 0.0575557 0.436659 0.603937 0.479383 0.321127 0.340342 0.35272 0.326025 0.215705 0.312919 0.28025 0.404293
threshold=-1.3566450000000001 -0.20255000000000042 13.501750000000001 3.8012650000000006e-05 -0.12399149999999999 10.442600000000001 8.3974050000000009 0.13360150000000001 -8.175164999999998 -9.4947349999999986 3.4128000000000006e-08 -8.2050999999999981 7.6001650000000017e-07 0.00057209200000000006 -7.2289149999999995e-05 -2.4137799999999998e-05 -10.954249999999998 3.4514100000000005 0.1751400000000001 -0.079468000000000025 -7.4136349999999984 -7.5371299999999986 0.00015638100000000001 -0.47859499999999983 -0.27579999999999932 1.1855600000000002 10.010650000000002 3.3228650000000006 -12.040949999999999 -8.8025949999999984
decision_type=2 2 2 2 2 2 2 2 2 2 2 2 2 2 2 2 2 2 2 2 2 2 2 2 2 2 2 2 2 2
left_child=-1 2 8 5 -5 6 -4 -6 9 10 -2 -12 14 -14 -13 16 -15 18 19 -10 21 -21 23 -22 -25 26 27 28 -24 -30
right_child=1 -3 3 4 7 -7 -8 -9 17 -11 11 12 13 15 -16 -17 -18 -19 -20 20 22 -23 25 24 -26 -27 -28 -29 29 -31
leaf_value=5.2340585368678894e-06 0.0045538051082403405 3.5197129917605947e-06 6.4584634351790148e-05 0.0059026298326110317 -0.0010079970549721859 0.0028902605354391118 -0.0032333731738253845 0.0019167983756940685 -3.7653514589328736e-05 2.1297948032602172e-05 0.00339011229800235 -0.0034298449783818799 0.0040289988440153218 0.0041204256899488555 -0.00013292545771872866 -0.00034389191677077218 7.2304279634004663e-05 1.1774268372671436e-05 -6.2840030834967075e-06 -0.0095223180397501772 -0.001275617399618828 -0.00033006372212422203 0.00048489785066199021 -0.011537967567849028 -0.0022600046056322756 -0.0044895660162437706 0.0022260658260590087 -0.0060821113900747159 0.0011618834854616262 -0.0023594937836812525
leaf_weight=101645 25 91838 286 30 34 23 20 36 5185 3443 20 20 22 21 111 89 45 8581 5010 37 70 23 428 21 20 50 75 25 114 286
leaf_count=101645 25 91838 286 30 34 23 20 36 5185 3443 20 20 22 21 111 89 45 8581 5010 37 70 23 428 21 20 50 75 25 114 286
internal_value=0 -4.58682e-06 -3.54145e-05 0.000541006 0.00211812 6.16405e-05 -0.000150968 0.000496183 -4.58392e-05 8.41514e-05 0.000697195 0.000403246 0.000209294 0.000835109 -0.000636272 0.000381782 0.00136034 -7.06042e-05 -0.000132918 -0.000233082 -0.00111498 -0.00599862 -0.000845905 -0.00339451 -0.00701213 -0.000556647 -0.000344744 -0.000570782 -0.000404377 -0.0013559
internal_weight=0 115988 24150 429 100 329 306 70 23721 3796 353 328 308 177 131 155 66 19925 11344 6334 1149 60 1089 111 41 978 928 853 828 400
internal_count=217633 115988 24150 429 100 329 306 70 23721 3796 353 328 308 177 131 155 66 19925 11344 6334 1149 60 1089 111 41 978 928 853 828 400
shrinkage=0.05


Tree=647
num_leaves=31
num_cat=0
split_feature=13 19 29 32 10 43 19 11 3 34 24 43 3 30 40 40 40 43 0 6 3 8 34 33 44 19 40 35 19 35
split_gain=0.00210108 0.00560362 0.00506385 0.00947373 0.0316098 0.059414 0.00582385 0.00760693 0.00432509 0.0138208 0.0136558 0.0125481 0.0222791 0.046593 0.0198529 0.182896 0.0843692 0.0940782 0.0580475 0.0458755 0.0254096 0.0131154 0.0117369 0.05221 0.0108363 0.00972875 0.0164044 0.0113849 0.00715962 0.00549049
threshold=0.00014699600000000001 1.2683350000000002e-07 2.0528200000000001 20.036400000000004 3.0656350000000003e-05 -0.5126099999999999 0.010140600000000001 -0.00027218349999999996 -12.585899999999999 0.24594850000000004 -2.2419299999999995 -4.1528 -18.627349999999996 0.0035869550000000006 -0.32870999999999989 0.10022550000000004 -0.058960000000000005 -1.9691099999999999 2.0124900000000006 2.8692150000000002e-06 -14.49255 -2.1553249999999996e-05 0.23286900000000002 -3.1324499999999988e-05 4.3053000000000017 0.00040781450000000006 0.327845 -0.0061398999999999994 0.00034026750000000006 -0.070123049999999978
decision_type=2 2 2 2 2 2 2 2 2 2 2 2 2 2 2 2 2 2 2 2 2 2 2 2 2 2 2 2 2 2
left_child=-1 -2 3 8 5 -5 7 -4 9 22 -11 21 13 -13 28 16 19 -18 -19 20 -16 -12 -3 -24 -23 -17 27 -27 -14 -10
right_child=1 2 6 4 -6 -7 -8 -9 29 10 11 12 14 -15 15 25 17 18 -20 -21 -22 24 23 -25 -26 26 -28 -29 -30 -31
leaf_value=-2.2334524903858465e-06 0.00068276551413169555 9.3595585530705435e-06 -0.0014323535104631448 0.0034381034127103968 -0.00024330349795002521 -8.0124013766180735e-05 3.2293363326769194e-05 -0.00028492858693005896 0.00011872031998698706 0.0011026729252594321 0.0012997959746644484 0.00029222160566132514 0.00083007869820553781 -0.0027604162775096489 -0.0029306410999693487 0.00081700989028303745 -0.00041515904602420052 -0.0060218638585259523 -0.0024678943352773788 0.0010292029544792098 -0.00055380303339283598 0.0011006213788071117 0.0026435001465395782 -7.9610633901514428e-05 -2.3214674882105982e-05 -0.001838334882631898 -2.8052923110275148e-05 -0.0003490950049154256 -1.2530272745467652e-05 1.6179118717857087e-05
leaf_weight=180357 31 9089 20 21 67 28 72 52 1382 23 20 25 26 25 22 31 20 27 20 23 23 22 23 75 857 21 806 33 830 23562
leaf_count=180357 31 9089 20 21 67 28 72 52 1382 23 20 25 26 25 22 31 20 27 20 23 23 22 23 75 857 21 806 33 830 23562
internal_value=0 1.08064e-05 1.02471e-05 1.13957e-05 0.000462546 0.00142769 -0.000285682 -0.000603658 9.98069e-06 -1.4629e-05 -0.000110738 -0.000120596 -0.000192403 -0.0012341 -0.000164728 -0.00031306 -0.00202808 -0.00328733 -0.00450954 -0.000787352 -0.00171581 3.37204e-05 1.52279e-05 0.000559487 4.91319e-06 -5.32082e-05 -8.45765e-05 -0.000928244 1.3063e-05 2.18603e-05
internal_weight=0 37276 37245 37101 116 49 144 72 36985 12041 2854 2831 1932 50 1882 1026 135 67 47 68 45 899 9187 98 879 891 860 54 856 24944
internal_count=217633 37276 37245 37101 116 49 144 72 36985 12041 2854 2831 1932 50 1882 1026 135 67 47 68 45 899 9187 98 879 891 860 54 856 24944
shrinkage=0.05


Tree=648
num_leaves=31
num_cat=0
split_feature=11 19 40 43 43 29 6 34 36 22 3 39 33 0 9 34 7 24 43 19 40 40 40 32 40 40 29 14 9 6
split_gain=0.00200389 0.0110642 0.0630067 0.207267 0.532007 0.0977509 0.0187356 0.0152899 0.0124957 0.0264851 0.0120636 0.0118412 0.0113884 0.0138144 0.00860138 0.00734542 0.0340173 0.00640003 0.020384 0.0282917 0.0187715 0.0487035 0.0414166 0.0104387 0.00731572 0.021018 0.00658808 0.0623956 0.162224 0.0232864
threshold=-0.00016577949999999997 0.00021631850000000002 -0.22452634999999985 -0.465335 0.39187000000000044 0.30041650000000003 2.6062900000000005e-06 0.10823050000000002 3.8353050000000004 -1.5001349999999998 -12.918299999999999 2.3303150000000001 -5.1110149999999994e-05 -4.5705949999999991 -3.6403899999999992e-05 34.706300000000006 7.7189600000000011e-05 0.91519300000000003 -1.6462299999999999 0.0035512250000000003 -0.058960000000000005 -0.40968649999999995 0.1751400000000001 -7.1146499999999993 -1.0110337999999996 0.24966499999999994 0.14443800000000004 0.0072893450000000009 -4.1568899999999994e-05 4.4498500000000004e-07
decision_type=2 2 2 2 2 2 2 2 2 2 2 2 2 2 2 2 2 2 2 2 2 2 2 2 2 2 2 2 2 2
left_child=1 2 5 6 -5 12 7 -4 11 -10 -11 15 13 -1 -13 17 -17 26 19 -19 21 -20 -22 -21 -25 -26 -3 28 29 -28
right_child=-2 8 3 4 -6 -7 -8 -9 9 10 -12 14 -14 -15 -16 16 -18 18 20 23 22 -23 -24 24 25 -27 27 -29 -30 -31
leaf_value=-6.1700139296287187e-05 -1.6302359206673048e-06 3.7617776079422559e-06 -0.00012336379301774761 0.010045098969712854 -0.00071411828229454638 0.0032447840585677033 0.0010089806158920629 -0.0017260032484376676 0.0022050534241134299 0.0011151137578417547 -0.00038272826926159483 -0.0014427432490871676 -9.7603850364981834e-06 -0.0016199020073399879 -0.00016310455935910858 -0.00038159805201422916 0.0020228649790321167 -0.0018819519974332414 7.4086813443170822e-05 0.00062096101576641493 -0.0023705054807448638 0.0023469048049134605 -3.4093580614687514e-05 9.3104169447941811e-05 -0.0018918887022731793 -0.0002591293140702039 0.001261675428180845 -6.4215141520989339e-05 0.0051962091496014703 -0.00034169251489233666
leaf_weight=33 195107 20009 46 20 27 23 23 22 20 20 41 24 871 25 29 38 24 34 149 26 21 28 196 41 27 73 39 522 21 54
leaf_count=33 195107 20009 46 20 27 23 23 22 20 20 41 24 871 25 29 38 24 34 149 26 21 28 196 41 27 73 39 522 21 54
internal_value=0 1.41201e-05 0.000169519 0.00116797 0.00386427 2.47848e-05 -0.000224618 -0.000641865 6.21827e-06 0.000626068 0.000108367 3.86717e-06 -5.49354e-05 -0.000733339 -0.000742564 5.72431e-06 0.000549162 4.138e-06 -0.000157533 -0.000567271 5.14957e-05 0.000433629 -0.000260198 -0.000299612 -0.000469363 -0.000699974 8.79745e-06 0.000167223 0.00122697 0.000330688
internal_weight=0 22526 1090 138 47 952 91 68 21436 81 61 21355 929 58 53 21302 62 21240 595 201 394 177 217 167 141 100 20645 636 114 93
internal_count=217633 22526 1090 138 47 952 91 68 21436 81 61 21355 929 58 53 21302 62 21240 595 201 394 177 217 167 141 100 20645 636 114 93
shrinkage=0.05


Tree=649
num_leaves=31
num_cat=0
split_feature=43 3 6 3 20 24 30 43 40 40 4 18 40 26 40 3 20 23 0 0 0 40 41 20 14 24 14 21 30 19
split_gain=0.00199068 0.0127878 0.0742273 0.0129941 0.0694916 0.0599467 0.207609 0.0494483 0.0441997 0.195133 0.242284 0.228215 0.0293956 0.0241521 0.0584277 0.0118668 0.0247812 0.0827098 0.0505717 0.0382077 0.0180872 0.0169593 0.287181 0.266529 0.226491 0.295842 0.375485 0.232258 0.173346 0.162884
threshold=1.3895649999999999 -18.305499999999995 1.0000000180025095e-35 -15.510599999999998 8.3915400000000009 -0.66179549999999987 0.017781650000000003 9.3976950000000006 -0.3819765 0.077348000000000056 -0.32383099999999992 0.00010559900000000002 -0.3819765 -0.00066825799999999992 0.30085850000000008 -7.4497099999999987 16.002400000000005 -7.7212849999999991 11.127850000000002 8.6233850000000025 -10.244649999999998 0.077348000000000056 -0.026150000000000003 -11.463149999999997 0.00012656100000000005 0.1103785 7.3840400000000026e-05 10.889000000000001 0.00020330650000000003 0.00032567350000000007
decision_type=2 2 2 2 2 2 2 2 2 2 2 2 2 2 2 2 2 2 2 2 2 2 2 2 2 2 2 2 2 2
left_child=15 2 -2 4 5 6 -3 12 -7 10 -10 -12 -8 -11 -15 20 21 -18 19 -19 -1 22 23 -17 25 -25 -27 28 29 -26
right_child=1 3 -4 -5 -6 8 7 -9 9 13 11 -13 -14 14 -16 16 17 18 -20 -21 -22 -23 -24 24 27 26 -28 -29 -30 -31
leaf_value=0.0012738545038051307 -0.0010737856332875358 0.0039746833406804532 0.0027419671262614432 6.3779481387800126e-06 0.0022125082010210589 4.7535794076560418e-05 -0.00043869510191143493 0.0013055741990683602 -0.0072325044136960061 0.0012555494560122801 0.0017330702137330484 -0.0052095893875230108 -0.0029401366123119775 -0.002817614079685882 -0.00020393273749137934 0.0036164304231414979 0.0028871785037946182 0.00014927418508125088 0.0022805931560983678 -0.0018346846600373588 2.8697959640545525e-06 7.0230389849531724e-06 -4.2225775022098889e-05 -0.0017177558474941179 -0.0058843878847255841 -0.0018619798379950225 -0.011138218098009627 -0.0043780310895149225 0.0012148350599219535 0.00035019222108200089
leaf_weight=28 26 35 25 100054 29 277 24 20 24 24 29 20 23 23 304 23 31 127 23 30 94631 9602 11907 72 20 20 24 37 99 22
leaf_count=28 26 35 25 100054 29 277 24 20 24 24 29 20 23 23 304 23 31 127 23 30 94631 9602 11907 72 20 20 24 37 99 22
internal_value=0 5.14176e-06 0.000796681 4.74162e-06 -0.000192039 -0.000278878 0.000853663 -0.000776722 -0.00044367 -0.000764576 -0.00311661 -0.00110067 -0.0016628 -0.000275406 -0.00038777 -4.4474e-06 -3.7493e-05 0.00050177 9.09496e-05 -0.000229826 3.24575e-06 -4.27062e-05 -8.17688e-05 -0.00156706 -0.00197258 -0.00369168 -0.00692175 -0.000852258 7.29443e-05 -0.00261866
internal_weight=0 100937 51 100886 832 803 102 67 701 424 73 49 47 351 327 116696 22037 211 180 157 94659 21826 12224 317 294 116 44 178 141 42
internal_count=217633 100937 51 100886 832 803 102 67 701 424 73 49 47 351 327 116696 22037 211 180 157 94659 21826 12224 317 294 116 44 178 141 42
shrinkage=0.05


Tree=650
num_leaves=31
num_cat=0
split_feature=17 36 37 17 7 0 13 40 24 24 24 40 37 30 4 34 4 0 17 24 0 23 20 35 35 32 3 31 39 37
split_gain=0.00190087 0.00725309 0.0222837 0.0580148 0.0230029 0.0144301 0.026132 0.0257832 0.0197319 0.0122284 0.0165028 0.0111429 0.0107719 0.0231474 0.0271326 0.0233532 0.00709826 0.00688465 0.00635034 0.0248038 0.0282173 0.0100854 0.0192485 0.0122422 0.0115235 0.00594704 0.0749278 0.00802461 0.00978611 0.00799702
threshold=2.5901300000000006e-05 1.20103 -6.2538149999999987e-05 5.7099050000000007e-05 5.5513350000000013e-05 -4.7236949999999993 8.055315000000001e-05 0.327845 1.3511250000000004 1.2323400000000002 0.69957950000000013 -1.3913339999999996 0.00046534500000000004 0.16934650000000004 3.4625400000000002 34.706300000000006 2.7715550000000007 14.717250000000002 2.3892950000000003e-05 0.47318500000000002 4.5621600000000013 -12.100849999999999 5.1544950000000016 -0.026904649999999999 -0.0089637499999999978 5.9680600000000004 -15.993649999999997 4.5971550000000008 0.12384550000000001 -2.7510949999999998e-05
decision_type=2 2 2 2 2 2 2 2 2 2 2 2 2 2 2 2 2 2 2 2 2 2 2 2 2 2 2 2 2 2
left_child=18 2 3 -2 -5 8 7 -7 -3 10 16 -11 13 15 -15 17 -8 25 -1 21 -21 22 24 -23 -20 29 -27 28 -28 -4
right_child=1 5 12 4 -6 6 9 -9 -10 11 -12 -13 -14 14 -16 -17 -18 -19 19 20 -22 23 -24 -25 -26 26 27 -29 -30 -31
leaf_value=-1.2830528709126441e-06 0.0027907296577513291 -8.0373604950798315e-05 -0.00047879990798676208 -0.0008667602829934498 0.0010966233182933558 -0.0024673185699308916 -0.00088445140572730458 -0.00033754482962346325 0.0017257638293085621 -0.0001622759041159346 0.0014496958258816796 -0.0014036282122231508 0.00097489225084026316 -0.0024950472428463401 -2.4251098278909921e-05 0.0012511988897897124 0.00012699845899311274 0.0008756539503693879 -0.0012958086718710894 -0.00041840432761967319 -0.0026169323080102915 0.00099534388416831266 -0.0017378826277794444 2.1625600202294486e-06 -6.1841597068512842e-05 0.0031099802869859906 -4.3804023770119956e-05 0.00057679404501889849 -0.001227251436939696 9.734642308374052e-06
leaf_weight=185584 26 62 84 35 26 27 22 30 20 48 21 29 29 20 25 38 82 23 21 54 20 33 22 519 191 21 138 43 20 30320
leaf_count=185584 26 62 84 35 26 27 22 30 20 48 21 29 29 20 25 38 82 23 21 54 20 33 22 519 191 21 138 43 20 30320
internal_value=0 1.1425e-05 1.39601e-05 0.000813041 -2.99083e-05 -0.000217908 -0.000400922 -0.00134639 0.000360148 -0.000134133 0.000171196 -0.000629798 1.17001e-05 1.07912e-05 -0.00112238 1.24529e-05 -8.69621e-05 1.09171e-05 -1.91122e-06 -0.000137466 -0.0010126 -5.50743e-05 -0.000330159 6.15375e-05 -0.000184074 1.02676e-05 0.000268116 -2.87952e-05 -0.000193607 8.38492e-06
internal_weight=0 31189 30848 87 61 341 259 57 82 202 125 77 30761 30732 45 30687 104 30649 186444 860 74 786 234 552 212 30626 222 201 158 30404
internal_count=217633 31189 30848 87 61 341 259 57 82 202 125 77 30761 30732 45 30687 104 30649 186444 860 74 786 234 552 212 30626 222 201 158 30404
shrinkage=0.05


Tree=651
num_leaves=31
num_cat=0
split_feature=1 1 40 40 40 14 38 23 10 10 21 21 40 6 36 18 43 36 4 21 43 23 10 1 28 3 24 36 29 5
split_gain=0.00188072 0.00511177 0.0187243 0.0909776 0.113607 0.181215 0.130978 0.0924441 0.0677133 0.142001 0.372957 0.115048 0.0593573 0.0521551 0.0482348 0.132264 0.036617 0.0230601 0.0368729 0.0219593 0.0204554 0.0117922 0.0140092 0.00902489 0.0286136 0.0480306 0.0860416 0.0136028 0.0248647 0.00929189
threshold=5.9655550000000011 5.3828400000000007 0.10022550000000004 -0.12496499999999998 -0.040859549999999939 0.00088131050000000012 -0.0012085899999999998 -10.195449999999999 2.1416250000000004e-05 2.8428900000000005e-05 5.1273750000000007 4.8336450000000006 0.12375499999999996 -6.6513949999999992e-07 0.0011048550000000003 2.8293550000000005e-07 0.35261000000000037 -0.23644799999999996 0.13767700000000002 6.3306750000000012 1.1065400000000005 -8.0718249999999987 4.3762800000000007e-05 5.2110150000000006 0.038127450000000007 -12.918299999999999 0.40640400000000004 0.061248100000000007 -0.11763599999999998 7.5984950000000007e-06
decision_type=2 2 2 2 2 2 2 2 2 2 2 2 2 2 2 2 2 2 2 2 2 2 2 2 2 2 2 2 2 2
left_child=1 23 3 17 5 -5 -7 -8 11 10 -10 -6 -4 -13 20 -16 -15 18 -3 -12 21 22 -11 -1 29 26 -26 28 -27 -25
right_child=-2 2 12 4 8 6 7 -9 9 14 19 13 -14 16 15 -17 -18 -19 -20 -21 -22 -23 -24 24 25 27 -28 -29 -30 -31
leaf_value=-2.0136733841217893e-06 8.3201833919446967e-06 0.0027173064052476549 0.0022260395138679694 -0.0053847293682224521 0.0032301770498937309 0.0024598615643169203 -0.0048366135417018084 -0.00013975110893873287 -0.0081903823037547153 0.0004129708029462823 0.00077079332550056279 -0.0017322141053647594 -4.9706470833249355e-06 -0.00023444796401867168 -0.0045804636564571411 0.0010376352134203032 0.0021838842832949015 -1.6997382089282722e-05 -0.00031884865762549453 -0.0014161710092924875 -0.00072713347584188643 0.0002184299148480097 0.0022619980608578772 0.00094418725017614443 7.7971104031388202e-05 0.0019816176808793292 0.0045621151657906011 -0.00048545929887548609 0.00013842227707719793 2.4838038396577437e-05
leaf_weight=157296 51765 20 30 32 30 21 20 22 22 21 24 39 4792 49 20 22 23 1519 20 22 36 61 20 28 23 24 20 43 77 1492
leaf_count=157296 51765 20 30 32 30 21 20 22 22 21 24 39 4792 49 20 22 23 1519 20 22 36 61 20 28 23 24 20 43 77 1492
internal_value=0 -2.59661e-06 -4.48398e-05 -0.000171702 -0.000770532 -0.00232064 -0.000764281 -0.00237635 -0.00039197 -0.000889382 -0.00283596 0.00048291 8.90955e-06 -0.000259594 -0.000154009 -0.00163765 0.000538075 1.42079e-05 0.00119923 -0.000275146 0.000297535 0.000659182 0.00131494 -7.72746e-07 0.000113576 0.00069721 0.00216362 0.000259324 0.000576409 4.17734e-05
internal_weight=0 165868 6865 2043 484 95 63 42 389 248 68 141 4822 111 180 42 72 1559 40 46 138 102 41 159003 1707 187 43 144 101 1520
internal_count=217633 165868 6865 2043 484 95 63 42 389 248 68 141 4822 111 180 42 72 1559 40 46 138 102 41 159003 1707 187 43 144 101 1520
shrinkage=0.05


Tree=652
num_leaves=31
num_cat=0
split_feature=42 22 24 2 38 18 15 33 26 21 29 38 28 22 43 34 43 3 3 41 21 18 18 19 30 34 43 36 44 43
split_gain=0.00187572 0.0121819 0.0562742 0.0104191 0.0455186 0.0377378 0.122331 0.0502983 0.0298334 0.0313282 0.0494195 0.0228739 0.0090986 0.0428605 0.109926 0.0365877 0.123632 0.0344432 0.040796 0.126139 0.0255165 0.0766519 0.208419 0.0589892 0.0500755 0.0305391 0.0838152 0.0271874 0.0264237 0.0594642
threshold=-0.57440449999999987 3.1185250000000004 0.27811600000000009 -2.9939399999999998 -0.076179349999999993 8.8419700000000017e-08 -5.8105949999999988e-08 1.3416450000000002e-07 -0.00012641899999999998 -1.2295899999999997 0.0088661900000000012 -0.0029691849999999996 0.051198250000000008 2.9137900000000005 1.06199 0.069860150000000024 -0.5126099999999999 -19.074649999999995 -18.305499999999995 -0.33012499999999995 -1.9516699999999998 -4.5779349999999994e-05 -0.00022562899999999998 0.00043921550000000008 0.0067147150000000004 0.78599850000000016 -0.36707999999999957 -0.14294799999999999 5.2253350000000003 -1.5196849999999988
decision_type=2 2 2 2 2 2 2 2 2 2 2 2 2 2 2 2 2 2 2 2 2 2 2 2 2 2 2 2 2 2
left_child=-1 3 -3 4 -2 7 8 -6 11 -10 -11 -7 -5 15 -15 16 -14 -17 19 -19 21 22 23 -20 -23 26 -26 -25 29 -27
right_child=1 2 -4 12 5 6 -8 -9 9 10 -12 -13 13 14 -16 17 -18 18 20 -21 -22 24 -24 27 25 28 -28 -29 -30 -31
leaf_value=5.694096096066867e-06 -0.0023623534690462595 0.00013091915101423154 -0.0029192276598899985 4.7011024457837311e-07 4.8797839208155957e-05 0.0021956988846068273 -0.0039824021502833295 0.002422481048968621 3.6868515568736866e-05 0.00015156471726229592 -0.0031697525273405823 -7.2921132650662917e-05 0.00045323362546061921 -0.0042107210849115463 0.00015217150983170584 0.0015292520395139167 -0.0039143251496940278 0.00066793660118946718 0.0027767377306008711 -0.0041272857193689564 -6.8885583983426099e-05 0.002207837965518896 0.0045522122320309994 -0.0018409046011652209 8.2198299415823489e-05 0.0013397800475049516 -0.0037432942813861053 0.00018736752804359545 -0.0010701943248825367 -0.00014105606796334001
leaf_weight=86888 24 62 20 123660 208 20 24 25 78 21 24 25 43 22 42 35 26 32 20 24 5565 24 36 20 45 83 21 95 51 370
leaf_count=86888 24 62 20 123660 208 20 24 25 78 21 24 25 43 22 42 35 26 32 20 24 5565 24 36 20 45 83 21 95 51 370
internal_value=0 -3.78407e-06 -0.000613019 -3.40174e-06 -0.000243846 -0.000124212 -0.00064324 0.000303485 -0.000166217 -0.000569231 -0.0016198 0.000935354 -2.57265e-06 -5.99829e-05 -0.00134757 -4.72856e-05 -0.00119251 -3.4979e-05 -4.35521e-05 -0.00138716 -3.16656e-05 0.000239092 0.00117191 0.000270493 -2.94462e-05 -0.000123648 -0.001135 -0.000165375 8.79184e-06 0.000130267
internal_weight=0 130745 82 130663 449 425 192 233 168 123 45 45 130214 6554 64 6490 69 6421 6386 56 6330 765 171 135 594 570 66 115 504 453
internal_count=217633 130745 82 130663 449 425 192 233 168 123 45 45 130214 6554 64 6490 69 6421 6386 56 6330 765 171 135 594 570 66 115 504 453
shrinkage=0.05


Tree=653
num_leaves=31
num_cat=0
split_feature=43 23 3 40 3 3 20 40 40 5 36 16 40 41 19 15 20 19 43 43 34 18 26 23 6 19 37 8 3 40
split_gain=0.00182394 0.0104306 0.0083114 0.0550632 0.0128162 0.00823634 0.0727984 0.0210651 0.152138 0.00952497 0.00694716 0.0443653 0.0435105 0.551405 0.311278 0.346555 0.337529 0.249356 0.335446 0.272 0.257387 0.222098 0.202101 0.0976507 0.0832003 0.0430121 0.0877711 0.0733142 0.0949012 0.141232
threshold=2.6836000000000007 -20.320949999999996 -17.495099999999997 0.1751400000000001 -17.069699999999997 -15.732949999999999 7.1058900000000014 -0.3819765 0.12375499999999996 1.0122450000000002e-05 -0.022925199999999996 -2.8874799999999993e-07 0.1751400000000001 0.19792950000000006 0.0036601650000000004 -5.1704799999999995e-08 9.0309850000000029 4.2063200000000008e-08 -1.1067849999999997 1.3895649999999999 0.47864000000000007 5.6944000000000004e-08 0.00018801950000000002 -14.35675 1.1384700000000002e-06 6.8566600000000009e-05 -1.1844749999999999e-05 1.4521400000000001e-05 -9.5548399999999987 -0.27744100000000016
decision_type=2 2 2 2 2 2 2 2 2 2 2 2 2 2 2 2 2 2 2 2 2 2 2 2 2 2 2 2 2 2
left_child=1 -1 3 -2 -4 6 7 -6 -9 -10 11 25 13 14 15 22 17 21 -19 20 -20 -17 -13 -16 -25 26 -3 -28 29 -29
right_child=2 10 4 -5 5 -7 -8 8 9 -11 -12 12 -14 -15 23 16 -18 18 19 -21 -22 -23 -24 24 -26 -27 27 28 -30 -31
leaf_value=0.00092883074856217715 -0.0021577741521199372 -0.0019472076738326763 0.0009771422779843253 0.0012120359164493329 4.1871813152952978e-05 7.1504056836726515e-06 0.0026369351988478232 -0.0045253932165602844 0.000823041542498686 -0.00036842286221704297 -8.1738171131341314e-07 -0.0087110975351450699 2.6364545203340401e-05 -2.12249133304198e-06 0.003302665088664402 0.0028949867605396942 0.0040689537368182628 -0.00015404420901668839 -0.012562348905485125 -0.0019570641950445457 -0.0051357459502988992 -0.0030901867716062455 -0.003257067035178118 0.00091193963300788836 -0.0026238465877083533 -1.1495333145545499e-05 0.00074386776323818993 -9.1492651260220256e-05 0.00040225450513821902 -0.0055158139020204545
leaf_weight=30 27 38 34 22 106 76635 20 24 20 104 132397 35 2056 2355 22 31 21 37 20 27 28 31 33 41 28 2613 647 30 101 20
leaf_count=30 27 38 34 22 106 76635 20 24 20 104 132397 35 2056 2355 22 31 21 37 20 27 28 31 33 41 28 2613 647 30 101 20
internal_value=0 -3.38672e-06 6.18651e-06 -0.000644798 6.60108e-06 6.17202e-06 -0.000267473 -0.000496166 -0.000881517 -0.000176251 -3.58561e-06 -4.82052e-05 -0.000147067 -0.000278694 -0.00211859 -0.00299073 -0.00191893 -0.00264161 -0.00404989 -0.00597185 -0.00823016 -9.76e-05 -0.00606429 0.000401983 -0.000522872 8.83786e-05 0.000400544 0.000512342 -0.000479691 -0.00226122
internal_weight=0 140641 76992 49 76943 76909 274 254 148 124 140611 8214 4765 2709 354 263 195 174 112 75 48 62 68 91 69 3449 836 798 151 50
internal_count=217633 140641 76992 49 76943 76909 274 254 148 124 140611 8214 4765 2709 354 263 195 174 112 75 48 62 68 91 69 3449 836 798 151 50
shrinkage=0.05


Tree=654
num_leaves=31
num_cat=0
split_feature=31 11 5 7 11 11 40 14 0 16 16 10 15 33 1 4 4 7 0 5 4 10 4 10 10 1 40 26 6 40
split_gain=0.00175355 0.0249053 0.059208 0.0206438 0.0172924 0.0127798 0.0300921 0.0116415 0.027192 0.00877761 0.0095655 0.00590986 0.00513894 0.00390529 0.0179619 0.0119934 0.0358603 0.158211 0.0545524 0.0379116 0.0121049 0.0417381 0.0408234 0.0996336 0.0345411 0.00674465 0.0133519 0.0121292 0.00636678 0.00629277
threshold=-28.391649999999995 0.00023337100000000004 2.0446800000000002e-05 8.0184150000000014e-05 0.00017205800000000003 9.9230750000000009e-05 0.43531000000000003 0.0010587900000000002 4.865495000000001 8.0155350000000022e-06 2.5770550000000005e-06 1.8691000000000005e-05 -2.8013149999999996e-08 0.0014581450000000003 -13.794199999999998 -3.3078599999999994 -0.81164199999999986 3.3557350000000008e-05 -5.3859899999999987 1.7003450000000004e-05 -0.3422659999999999 1.9215700000000003e-05 -0.20992299999999997 3.1349550000000005e-05 3.927225000000001e-05 0.72012600000000015 -0.95020299999999991 -0.013856449999999998 4.7923500000000012e-07 -4.7245149999999994
decision_type=2 2 2 2 2 2 2 2 2 2 2 2 2 2 2 2 2 2 2 2 2 2 2 2 2 2 2 2 2 2
left_child=1 4 -3 -4 5 7 -7 9 11 10 -1 12 -9 -2 -15 25 17 -17 -19 -20 21 -18 23 -22 -23 26 -16 -28 29 -24
right_child=13 2 3 -5 -6 6 -8 8 -10 -11 -12 -13 -14 14 15 16 20 18 19 -21 22 24 28 -25 -26 -27 27 -29 -30 -31
leaf_value=-3.9466486455239651e-06 -2.2420195882189597e-07 0.0024390245389440679 -0.0012907390115567698 0.00070173742133192727 -0.0015412000907500361 0.002004540402098924 -0.00067521237038818075 -0.0012249777430552058 -0.002153806677753372 0.001013509962358512 -0.0010987226550544923 -0.00011104716245696053 -0.00036961506147991269 0.0015049161614363337 4.5862855283000195e-06 0.0048766693075387073 0.0010725787952453728 0.00169489057730199 -0.0023742608692070163 0.00020587410574080423 -0.00034297470942874498 -0.0030810369769824321 -0.0010039188792870847 0.0040892942162740623 -0.00021001612264874645 3.6842775026107796e-05 -0.00045203325542388486 -0.0021933818841353057 0.00014130861645979107 -9.8184017879257896e-05
leaf_weight=400 215538 32 26 26 22 22 20 25 21 20 21 169 59 22 36 21 23 33 24 35 32 20 20 21 22 54 20 20 363 466
leaf_count=400 215538 32 26 26 22 22 20 25 21 20 21 169 59 22 36 21 23 33 24 35 32 20 20 21 22 54 20 20 363 466
internal_value=0 -7.11313e-05 0.000746842 -0.000294501 -0.000159334 -0.000119174 0.000728468 -0.000168965 -0.000424922 -9.93568e-06 -5.85554e-05 -0.000281418 -0.000624187 2.83186e-07 8.90506e-05 6.33076e-05 0.000117922 0.00096075 6.68992e-05 -0.000843672 1.94324e-05 -0.000639566 6.69212e-05 0.00141321 -0.00157717 -0.000390413 -0.000693989 -0.00132271 -1.71226e-05 -0.000135457
internal_weight=0 863 84 52 779 757 42 715 274 441 421 253 84 216770 1232 1210 1080 113 92 59 967 65 902 53 42 130 76 40 849 486
internal_count=217633 863 84 52 779 757 42 715 274 441 421 253 84 216770 1232 1210 1080 113 92 59 967 65 902 53 42 130 76 40 849 486
shrinkage=0.05


Tree=655
num_leaves=31
num_cat=0
split_feature=18 18 11 20 26 6 40 40 38 7 24 22 40 24 17 13 13 40 5 41 40 1 41 10 22 3 3 6 19 40
split_gain=0.00176472 0.0184915 0.0522799 0.12901 0.0422381 0.0839679 0.0263443 0.378006 0.0201864 0.0238698 0.0592808 0.0198598 0.124258 0.0142923 0.0448504 0.0564203 0.166129 0.157595 0.0496284 0.0635078 0.443679 0.175536 0.103286 0.164891 0.210517 0.121167 0.140353 0.134261 0.13081 0.0960031
threshold=-1.4018299999999999e-05 -2.1298199999999995e-05 -0.00010809399999999999 -3.7129549999999996 -0.00014606299999999996 6.5354350000000009e-06 0.2761725000000001 0.010257000000000018 0.025766600000000004 3.0982400000000003e-05 -0.82489099999999993 2.6608750000000003 -0.040859549999999939 -0.45225049999999994 -3.0819049999999996e-06 5.4609200000000012e-05 6.9697650000000012e-05 -0.3819765 9.9471450000000032e-06 -0.2272394999999999 0.10022550000000004 -4.9009399999999994 0.32610899999999998 3.6038200000000003e-05 2.3818600000000001 -15.510599999999998 -8.2474849999999993 9.362525000000001e-07 1.117715e-05 -0.027530000000000051
decision_type=2 2 2 2 2 2 2 2 2 2 2 2 2 2 2 2 2 2 2 2 2 2 2 2 2 2 2 2 2 2
left_child=1 13 3 -3 5 6 7 -4 11 10 -10 -6 -13 14 -1 18 17 -17 -16 -20 22 -22 23 24 25 -21 27 28 -27 -30
right_child=-2 2 4 -5 8 -7 -8 -9 9 -11 -12 12 -14 -15 15 16 -18 -19 19 20 21 -23 -24 -25 -26 26 -28 -29 29 -31
leaf_value=-6.0366425345403251e-05 2.7323394158508082e-06 -0.0048357931920327245 4.2233836168084812e-05 0.00034852501747385155 5.6760914131058127e-05 -0.0028600071814045285 2.421827541785192e-05 -0.005452125913466767 6.9078893732064611e-05 -0.00019687019873926046 -0.0035517193640134796 -8.6284609703094865e-06 -0.0042042424058308823 -9.01226499901943e-06 -0.00042151349999671535 0.00044053455493990297 -0.00034274456116735919 0.0053360431385226547 -3.4568512619869586e-05 -0.0012508393021464046 0.0078194738265592607 0.0024523661480858349 -7.071492832728836e-05 -0.000273633645570863 0.0065942262898066222 0.00094555976947078538 -0.00044799144237509208 -0.00088507261709310121 0.0071016681671608245 0.0032211523649370855
leaf_weight=2933 159056 20 240 30 2432 35 264 36 26 144 20 150 20 49525 314 31 81 35 1047 37 25 39 750 161 21 31 45 20 28 37
leaf_count=2933 159056 20 240 30 2432 35 264 36 26 144 20 150 20 49525 314 31 81 35 1047 37 25 39 750 161 21 31 45 20 28 37
internal_value=0 -7.41921e-06 -0.00012029 -0.0017252 -9.64572e-05 -0.000486691 -0.000332864 -0.000674422 -1.60903e-05 -0.000513619 -0.00150518 2.02396e-05 -0.00050223 -4.27187e-07 7.50255e-05 0.000221992 0.00117453 0.00303664 0.000167189 0.000249676 0.000498925 0.00454889 0.000269546 0.000941114 0.00183415 0.00132929 0.00192224 0.00284173 0.00361814 0.00489276
internal_weight=0 58577 3417 50 3367 575 540 276 2792 190 46 2602 170 55160 5635 2702 147 66 2555 2241 1194 64 1130 380 219 198 161 116 96 65
internal_count=217633 58577 3417 50 3367 575 540 276 2792 190 46 2602 170 55160 5635 2702 147 66 2555 2241 1194 64 1130 380 219 198 161 116 96 65
shrinkage=0.05


Tree=656
num_leaves=31
num_cat=0
split_feature=44 35 38 4 4 10 23 17 24 3 0 30 19 12 11 40 19 34 34 40 40 39 44 34 44 13 13 33 40 16
split_gain=0.00182573 0.00722669 0.0108001 0.0290236 0.0088795 0.00735848 0.00737198 0.0073303 0.00745413 0.0070038 0.0336645 0.0948232 0.0204332 0.111174 0.0556867 0.146336 0.0376411 0.124081 0.263579 0.0336515 0.175513 0.223538 0.305602 0.295288 0.153679 0.0597139 0.107463 0.221865 0.0577039 0.0539965
threshold=2.4429550000000004 -1.5367699999999997 -1.0090899999999998 0.79460700000000006 6.913310000000001 4.2243950000000007e-05 -7.829159999999999 2.3116650000000003e-06 1.3511250000000004 -9.5548399999999987 -7.9766549999999992 0.00023194100000000002 3.0639350000000006e-08 0.00026803150000000007 -8.8703799999999996e-05 -0.3562499999999999 1.1921100000000003e-10 0.055819000000000001 0.03659550000000001 -0.14969009999999991 0.02582950000000005 0.00026605000000000004 0.55624500000000021 0.63863650000000016 0.27512500000000012 7.5148700000000015e-05 5.2821900000000003e-05 -3.4237299999999992e-05 0.056773999999999998 -8.0791249999999992e-08
decision_type=2 2 2 2 2 2 2 2 2 2 2 2 2 2 2 2 2 2 2 2 2 2 2 2 2 2 2 2 2 2
left_child=9 4 3 -3 5 7 -7 -2 -9 10 11 -1 13 14 15 -12 17 18 -16 -18 21 22 24 -23 -21 26 28 -28 -22 -30
right_child=1 2 -4 -5 -6 6 -8 8 -10 -11 12 -13 -14 -15 16 -17 19 -19 -20 20 25 23 -24 -25 -26 -27 27 -29 29 -31
leaf_value=-0.0040213932029519129 -4.1511093605639783e-05 3.7518558239984053e-06 8.9359489197249844e-06 0.001929712510469404 -0.0012261832868468694 0.00091942197901112707 -0.0003135889635648875 -0.00038980106319286278 -0.0015387149411890278 3.1300579623603601e-06 -0.00018247813346440524 0.00013078445508654112 -2.9418306181945685e-05 0.0035700010572327304 0.0003122020426649835 0.0050779893080471084 -7.4249866472834861e-05 0.00012939883932219231 -0.0065743278557874874 0.00085210995956081295 0.001948472234814997 0.0088179203204899314 -0.0044406215140882594 0.00032884386717341846 0.0047358917236644113 0.0025480597666717674 -0.0064919303732312991 0.00010962842172440495 -0.0022957046526715678 -2.1771938120342783e-05
leaf_weight=20 91 71 47190 27 22 27 22 48 20 130927 39 44 36169 23 33 20 1351 160 24 282 36 21 26 20 28 21 20 35 27 789
leaf_count=20 91 71 47190 27 22 27 22 48 20 130927 39 44 36169 23 33 20 1351 160 24 282 36 21 26 20 28 21 20 35 27 789
internal_value=0 8.66499e-06 1.00249e-05 0.000534374 -0.000270925 -0.000169889 0.000365825 -0.000334983 -0.000727717 -2.42038e-06 -2.09644e-05 -0.00116677 -1.909e-05 0.000107327 8.01643e-05 0.00160073 4.89379e-05 -0.000584228 -0.00258739 0.000100669 0.000281753 0.0011915 0.000766202 0.00467691 0.0012029 -8.78335e-05 -0.000148863 -0.00229094 -1.05834e-05 -9.70124e-05
internal_weight=0 47518 47288 98 230 208 49 159 68 170115 39188 64 39124 2955 2932 59 2873 217 57 2656 1305 377 336 41 310 928 907 55 852 816
internal_count=217633 47518 47288 98 230 208 49 159 68 170115 39188 64 39124 2955 2932 59 2873 217 57 2656 1305 377 336 41 310 928 907 55 852 816
shrinkage=0.05


Tree=657
num_leaves=31
num_cat=0
split_feature=13 23 43 32 10 3 13 21 7 30 4 38 43 4 43 41 40 38 24 5 40 41 40 28 36 33 16 11 40 11
split_gain=0.00186918 0.00463408 0.0295714 0.0061848 0.0272063 0.0151444 0.0150198 0.0056738 0.00377679 0.00571257 0.00339461 0.0385338 0.0503537 0.110694 0.132991 0.129778 0.41467 0.154288 0.197457 0.137865 0.127861 0.125532 0.202655 0.130416 0.271317 0.135277 0.120526 0.133012 0.174289 0.122487
threshold=0.00014699600000000001 -20.320949999999996 4.6757400000000002 20.036400000000004 2.0928800000000005e-05 -11.825449999999998 0.00037732250000000004 -10.950149999999999 3.6985700000000007e-05 0.087932350000000006 -0.22659549999999998 0.0010868200000000003 2.0800550000000007 -0.96247749999999999 -2.2545749999999996 0.24875600000000014 -0.058960000000000005 0.0027865200000000002 -0.55552099999999982 1.2843600000000002e-05 -5.2578599999999982 -0.71931549999999989 0.016888500000000004 -0.16444249999999996 0.053416050000000007 -3.9040499999999993e-05 -8.6326249999999977e-06 -7.2289149999999995e-05 0.22528099999999995 -8.4578999999999977e-05
decision_type=2 2 2 2 2 2 2 2 2 2 2 2 2 2 2 2 2 2 2 2 2 2 2 2 2 2 2 2 2 2
left_child=10 2 -2 -3 -5 -6 -7 -4 9 -9 11 -1 13 -13 -15 16 17 -16 19 -19 -17 -18 -23 -24 25 -25 29 -28 -29 -27
right_child=1 3 7 4 5 6 -8 8 -10 -11 -12 12 -14 14 15 20 21 18 -20 -21 -22 22 23 24 -26 26 27 28 -30 -31
leaf_value=-4.2699082794621771e-05 -0.002029266718309373 1.1020092229609312e-05 -0.00062836956487444696 0.0020051491693482688 -0.00093248582295551584 0.0015749527770094575 -0.00012573008244618069 -7.2989397985410756e-05 9.2677851027604324e-05 -0.00099723609819193384 1.6655246076306768e-06 -7.9804067300964711e-05 -4.6244899254582771e-05 -0.0001081620655500902 -0.00075097143708262597 0.0037746852081216365 -0.00010351537821291352 -0.00036068369819108274 0.0063492123265929809 0.0040057133817754222 -0.00020057471746920123 9.3011574948310743e-05 -0.001214541081721202 -0.0020167273120023309 0.0063955429134269562 0.001925577669753693 0.0049627409037116994 0.0022173819063843257 -0.00069240394944584309 -0.0035418434935438983
leaf_weight=31165 20 36726 40 21 29 20 37 82 280 21 138481 2466 5111 999 20 21 472 29 52 48 550 429 39 26 30 20 34 281 63 21
leaf_count=31165 20 36726 40 21 29 20 37 82 280 21 138481 2466 5111 999 20 21 472 29 52 48 550 429 39 26 30 20 34 281 63 21
internal_value=0 1.01926e-05 -0.000150558 1.2126e-05 0.000391711 -2.26798e-06 0.000471001 -6.17307e-05 -2.55167e-06 -0.000261428 -2.1066e-06 -1.45807e-05 6.72331e-05 0.000170802 0.000367992 0.000590793 0.000826336 0.00333526 0.00396879 0.00236123 -5.43743e-05 0.000562145 0.000895329 0.00156497 0.00179318 0.00148291 0.00170007 0.00197935 0.00168449 -0.000874809
internal_weight=0 37276 443 36833 107 86 57 423 383 103 180357 41876 10711 5600 3134 2135 1564 149 129 77 571 1415 943 514 475 445 419 378 344 41
internal_count=217633 37276 443 36833 107 86 57 423 383 103 180357 41876 10711 5600 3134 2135 1564 149 129 77 571 1415 943 514 475 445 419 378 344 41
shrinkage=0.05


Tree=658
num_leaves=31
num_cat=0
split_feature=40 41 2 3 20 28 20 10 7 10 28 19 6 43 22 8 10 10 14 38 16 13 43 25 15 20 40 20 14 20
split_gain=0.00192454 0.0159718 0.0547261 0.150184 0.0934332 0.0518522 0.172396 0.204499 0.148104 0.132342 0.101885 0.124163 0.12071 0.0937543 0.102098 0.0833423 0.0783777 0.142162 0.105211 0.158791 0.212964 0.158799 0.0883252 0.133665 0.100628 0.0892752 0.106729 0.085255 0.0800123 0.0631067
threshold=-0.40968649999999995 0.011134999999999897 2.9891800000000006 -9.1449549999999977 -7.8361449999999992 -0.071195649999999985 -4.8420449999999997 1.5224150000000001e-05 3.2190950000000007e-05 4.0835050000000008e-05 -0.48753549999999996 1.8317000000000004e-07 1.2112450000000003e-07 2.5758750000000012 -2.2401749999999994 1.4953900000000001e-05 4.7241300000000005e-05 6.2725750000000019e-05 0.013786650000000003 -0.010271549999999999 1.9779150000000004e-07 1.7245800000000004e-05 -0.36707999999999957 7.8655400000000011 4.3610150000000006e-08 0.70659250000000007 -0.12496499999999998 -1.6961599999999997 0.00070374100000000013 16.002400000000005
decision_type=2 2 2 2 2 2 2 2 2 2 2 2 2 2 2 2 2 2 2 2 2 2 2 2 2 2 2 2 2 2
left_child=-1 -2 5 4 -4 6 7 -3 -9 10 15 -12 -13 14 -8 -10 18 -18 19 20 21 -16 25 24 -24 26 -21 -20 -25 -7
right_child=1 2 3 -5 -6 29 13 8 9 -11 11 12 -14 -15 16 -17 17 -19 27 22 -22 -23 23 28 -26 -27 -28 -29 -30 -31
leaf_value=5.4933766792013088e-06 2.639302744760174e-06 0.0043524277826884027 -0.00076695708630722956 0.00081802152823467296 -0.0053519827846903352 -2.5269936441306973e-05 -0.0041712919051793444 -0.0023712750809128458 -0.0017619740741793067 -0.00055919875391912668 2.6301003877220127e-05 0.0058340788184904277 0.001012788140506018 -0.0001404652452501151 0.00015845377887931786 0.0024335560893086953 0.0033737323123204988 -0.001425803299773381 0.002694876423105598 -0.0010412332328269258 -0.0065664456959305369 -0.0049399710279734192 -0.0015432130047966812 -0.002003041885696943 -0.0062247831985587261 -0.0011388904203488272 0.0038171174986368545 -0.00070664195803276796 0.0022035035305517782 0.001458794292799818
leaf_weight=92022 110215 33 20 43 25 14032 27 47 29 114 27 37 20 385 42 20 27 36 25 20 34 24 22 26 24 69 26 70 20 72
leaf_count=92022 110215 33 20 43 25 14032 27 47 29 114 27 37 20 385 42 20 27 36 25 20 34 24 22 26 24 69 26 70 20 72
internal_value=0 -4.02442e-06 -5.17279e-05 -0.00129504 -0.00331419 -4.45805e-05 -0.000359538 0.000620282 0.000201368 0.000690899 0.00176241 0.00281937 0.0041424 -0.000724876 -0.00118219 -4.95128e-05 -0.00100863 0.000631141 -0.00126561 -0.00171557 -0.00335163 -0.00169552 -0.000925206 -0.00207994 -0.00398577 -1.41781e-06 0.00170479 0.000188494 -0.000174109 -1.76939e-05
internal_weight=0 125611 15396 88 45 15308 1204 327 294 247 133 84 57 877 492 49 465 63 402 307 100 66 207 92 46 115 46 95 46 14104
internal_count=217633 125611 15396 88 45 15308 1204 327 294 247 133 84 57 877 492 49 465 63 402 307 100 66 207 92 46 115 46 95 46 14104
shrinkage=0.05


Tree=659
num_leaves=31
num_cat=0
split_feature=43 44 20 9 4 5 11 4 20 23 0 4 19 2 37 2 11 29 2 40 20 19 13 21 2 40 40 20 2 26
split_gain=0.00188539 0.009971 0.0488507 0.112801 0.219333 0.0813618 0.0717775 0.0529143 0.0296231 0.0707547 0.161596 0.250538 0.242283 0.0961481 0.0402756 0.0560573 0.055258 0.0354868 0.101551 0.220304 0.153629 0.171555 0.180053 0.0699048 0.121163 0.0505813 0.290815 0.187978 0.504794 0.178566
threshold=1.3895649999999999 -0.20255000000000042 13.501750000000001 3.8012650000000006e-05 -0.12399149999999999 8.4557000000000011e-06 4.1028950000000006e-05 0.13360150000000001 -8.4863549999999979 -9.4947349999999986 -7.1234599999999988 -0.049405799999999993 0.00061572950000000014 2.3031400000000004 1.5720100000000002e-06 -2.4013349999999996 -4.5422699999999995e-05 0.014392250000000002 -2.3732299999999995 -0.27744100000000016 -4.5635999999999983 2.0550550000000007e-06 6.9697650000000012e-05 -12.332599999999998 -1.6862799999999998 -0.079468000000000025 0.2761725000000001 -3.4870349999999992 1.8942800000000002 0.00038441350000000002
decision_type=2 2 2 2 2 2 2 2 2 2 2 2 2 2 2 2 2 2 2 2 2 2 2 2 2 2 2 2 2 2
left_child=1 2 8 5 -5 -4 -7 -6 9 10 11 -1 -13 14 15 -12 -16 -10 19 -19 21 -21 -23 24 -20 -25 27 29 -29 -27
right_child=-2 -3 3 4 7 6 -8 -9 17 -11 13 12 -14 -15 16 -17 -18 18 23 20 -22 22 -24 25 -26 26 -28 28 -30 -31
leaf_value=-0.00057070820752884292 5.0039238773763416e-06 3.2756667959605207e-06 0.0030668204184275101 0.0055432868473387015 -0.0009811693988012848 8.8277700595411677e-05 -0.0025638810684800515 0.0017693505212971812 -3.9967696526804026e-05 2.4394010008358119e-05 -0.0030550504388797677 0.0088258081885135686 0.0013011570274829864 0.0032208044608326063 0.0030206746747717264 -0.00024575760691020507 -0.00014901161049982132 -4.6742207217492603e-05 0.0040147277623031252 0.00031875226790564033 -0.0061361578353508204 -0.0075476894510211421 -0.00091885648545853439 0.00010105497618493828 0.00015879043784348525 -0.00019127831942079447 -2.4057657129800126e-05 -0.0011698079014453909 -0.0093447255270802995 -0.0049707513049487839
leaf_weight=31 100937 91838 21 30 34 287 28 36 18357 3203 21 23 20 23 20 115 44 186 27 45 27 20 21 893 83 130 1024 58 28 23
leaf_count=31 100937 91838 21 30 34 287 28 36 18357 3203 21 23 20 23 20 115 44 186 27 45 27 20 21 893 83 130 1024 58 28 23
internal_value=0 -4.32818e-06 -3.24206e-05 0.000492169 0.00196635 5.34234e-05 -0.00014747 0.000433384 -4.1786e-05 9.28503e-05 0.000831118 0.00285574 0.00532597 0.00015927 -0.000192806 -0.000679545 0.000841515 -6.4309e-05 -0.000238513 -0.0011046 -0.00284586 -0.00181286 -0.00415243 -0.000124232 0.00110525 -0.000186961 -0.000390601 -0.00196107 -0.00383141 -0.000909761
internal_weight=0 116696 24858 436 100 336 315 70 24422 3500 297 74 43 223 200 136 64 20922 2565 299 113 86 41 2266 110 2156 1263 239 86 153
internal_count=217633 116696 24858 436 100 336 315 70 24422 3500 297 74 43 223 200 136 64 20922 2565 299 113 86 41 2266 110 2156 1263 239 86 153
shrinkage=0.05


Tree=660
num_leaves=31
num_cat=0
split_feature=11 19 30 31 40 4 33 25 6 33 31 14 10 9 40 21 29 18 20 29 23 29 13 11 7 40 29 14 7 31
split_gain=0.00191666 0.0104583 0.0521821 0.0957916 0.0812643 0.173208 0.121618 0.17049 0.0162812 0.0117585 0.0116884 0.0347459 0.0949103 0.0861048 0.0116285 0.0112113 0.00977473 0.0193556 0.0225203 0.0147534 0.0266657 0.0151783 0.0262376 0.0419082 0.0326662 0.00758051 0.00640988 0.0784419 0.13202 0.0112976
threshold=-0.00016577949999999997 0.00057209200000000006 0.064526950000000013 5.5507350000000004 -0.22452634999999985 -2.1602949999999992 -3.7334249999999996e-05 3.9071550000000004 5.099150000000001e-06 -7.8596449999999982e-06 11.617550000000001 0.035247800000000003 4.0066100000000006e-05 -6.9686149999999993e-05 -0.32870999999999989 -9.1109899999999975 0.70424300000000006 0.012400400000000001 -4.6287449999999994 0.55826100000000012 -10.522449999999997 0.34967900000000007 0.00012676650000000003 -0.00023772999999999999 5.5869050000000007e-05 0.12375499999999996 0.14443800000000004 0.0072893450000000009 5.8508900000000005e-05 0.59697800000000012
decision_type=2 2 2 2 2 2 2 2 2 2 2 2 2 2 2 2 2 2 2 2 2 2 2 2 2 2 2 2 2 2
left_child=1 2 3 4 14 -6 7 -7 9 25 16 12 -12 -14 -1 -13 19 18 -18 21 -21 26 23 24 -23 -8 29 28 -28 -3
right_child=-2 10 -4 -5 5 6 8 -9 -10 -11 11 15 13 -15 -16 -17 17 -19 -20 20 -22 22 -24 -25 -26 -27 27 -29 -30 -31
leaf_value=-1.3435708113756145e-05 -1.5943592661221976e-06 7.2659748421983891e-06 -0.0020481517222597852 0.0033721840201431648 0.0046270241932363987 0.0062817574167638671 -0.0011553465149591903 -0.00024683548603206875 0.0012158708692804794 0.00014401840072714549 0.0041667651289026258 -0.0011850297066342572 0.0023858089944114912 -0.0015043809561272308 -0.00099290093435522612 7.8846561961187474e-05 -0.00015384179603383278 0.00060070349157925838 -0.0020562983629393524 0.0019585267627715238 5.1017384037933022e-05 -0.0036459293472580613 2.9001119401073086e-06 0.00051499414469369437 -0.00088296771408868555 -7.567613723761591e-05 0.0051543230842798953 -9.0766724582808282e-05 0.00038674590249220789 -0.00019224100032544264
leaf_weight=1348 195107 19081 27 23 28 20 37 20 25 125 20 23 25 33 31 74 35 27 28 27 57 20 112 22 23 29 20 396 53 737
leaf_count=1348 195107 19081 27 23 28 20 37 20 25 125 20 23 25 33 31 74 35 27 28 27 57 20 112 22 23 29 20 396 53 737
internal_value=0 1.38094e-05 0.000132563 0.000167486 0.000123163 0.000893351 0.000484981 0.00301746 1.6003e-05 -0.000141048 4.03546e-06 0.000410942 0.00119661 0.000172425 -3.54541e-05 -0.000220835 5.85088e-07 -0.000519354 -0.000999378 2.86241e-06 0.000664145 1.47999e-07 -0.00046086 -0.00125995 -0.00216807 -0.000680946 4.1702e-06 0.000186866 0.00169293 -1.53373e-07
internal_weight=0 22526 1713 1686 1663 284 256 40 216 191 20813 175 78 58 1379 97 20638 90 63 20548 84 20464 177 65 43 66 20287 469 73 19818
internal_count=217633 22526 1713 1686 1663 284 256 40 216 191 20813 175 78 58 1379 97 20638 90 63 20548 84 20464 177 65 43 66 20287 469 73 19818
shrinkage=0.05


Tree=661
num_leaves=31
num_cat=0
split_feature=19 14 40 40 43 40 25 26 0 32 19 6 6 19 33 20 2 2 3 32 8 3 5 40 7 14 7 2 23 39
split_gain=0.00191703 0.00712076 0.0162595 0.166647 0.142457 0.00665398 0.033193 0.00676646 0.0138072 0.0111654 0.0284844 0.00992016 0.0265496 0.0541324 0.0255138 0.0412337 0.015681 0.0113214 0.0110112 0.0396905 0.027621 0.0202089 0.0136908 0.0161967 0.0145995 0.0513235 0.0199926 0.0133998 0.0143009 0.0246279
threshold=0.0024010250000000006 0.00029103850000000009 0.22528099999999995 0.02582950000000005 1.2296250000000011 -5.6825599999999996 6.4137900000000014 0.00063056350000000006 10.442600000000001 20.036400000000004 0.0085594900000000012 1.4354600000000002e-06 9.362525000000001e-07 0.0030314700000000005 0.00015643550000000002 -0.31685699999999994 3.0578500000000006 2.8579150000000006 -15.732949999999999 3.7022150000000003 6.9919600000000016e-06 -15.624449999999998 8.245055000000002e-06 0.10022550000000004 2.8731350000000001e-05 0.015505300000000001 2.9741550000000003e-05 2.9401200000000007 -18.396099999999997 0.069372400000000015
decision_type=2 2 2 2 2 2 2 2 2 2 2 2 2 2 2 2 2 2 2 2 2 2 2 2 2 2 2 2 2 2
left_child=-1 2 3 -2 -5 6 -3 -7 9 11 -11 12 16 -14 -15 -16 18 -13 19 27 -21 -20 23 -23 25 -24 -26 28 -9 -30
right_child=1 5 -4 4 -6 7 -8 8 -10 10 -12 17 13 14 15 -17 -18 -19 21 20 -22 22 24 -25 26 -27 -28 -29 29 -31
leaf_value=-2.8202457953862723e-06 3.3290992538036021e-05 -2.4656663993596342e-05 -6.5683682566085861e-06 0.0062747330410361651 0.00051735965158017784 1.4782891760146795e-06 -0.0022248035252414411 0.0013740533359668915 0.0010312861215670882 0.0018113736000183662 -0.00044973035602687071 -3.5423118007051894e-05 0.0031053414865164089 6.3475267897150777e-05 0.0030543965880670365 0.00022022283762150133 0.0013848595669101501 -0.00092259366070179946 0.0014761406451725635 -0.00038851759091768225 -0.0028666282017101451 -0.0018486898365517848 0.002812630433486034 0.00016356580985302574 -0.0010593460528560592 3.9228320327020962e-05 8.6006040882993147e-05 -0.0011697855031461981 0.00014088169814729693 -0.0015396238013636321
leaf_weight=159885 355 120 744 21 22 52604 20 20 37 30 26 1280 20 158 21 33 22 37 26 23 22 20 22 20 39 69 1652 23 238 24
leaf_count=159885 355 120 744 21 22 52604 20 20 37 30 26 1280 20 158 21 33 22 37 26 23 22 20 22 20 39 69 1652 23 238 24
internal_value=0 7.80832e-06 0.000131421 0.000389371 0.0033291 5.31449e-06 -0.000338963 6.16809e-06 7.00474e-05 6.07492e-05 0.000761575 5.03363e-05 0.000109786 0.000618731 0.000384145 0.0013224 5.65988e-05 -6.03474e-05 4.33041e-05 -0.000213848 -0.00160004 9.20072e-05 7.22556e-05 -0.000842562 9.27902e-05 0.000709721 5.95905e-05 -9.32829e-06 8.53189e-05 -1.30577e-05
internal_weight=0 57748 1142 398 43 56606 140 56466 3862 3825 56 3769 2452 232 212 54 2220 1317 2198 350 45 1848 1822 40 1782 91 1691 305 282 262
internal_count=217633 57748 1142 398 43 56606 140 56466 3862 3825 56 3769 2452 232 212 54 2220 1317 2198 350 45 1848 1822 40 1782 91 1691 305 282 262
shrinkage=0.05


Tree=662
num_leaves=31
num_cat=0
split_feature=33 40 43 0 35 0 19 1 13 21 8 20 23 1 3 0 9 29 40 40 43 14 10 21 43 40 36 20 23 11
split_gain=0.00180465 0.012201 0.00945186 0.023899 0.111061 0.0225928 0.0218045 0.0200057 0.0191882 0.0756116 0.14974 0.112843 0.0702785 0.0698903 0.111652 0.22138 0.258466 0.0816403 0.065767 0.133521 0.160511 0.304763 0.224112 0.295771 0.286864 0.210902 0.193691 0.0987303 0.0816574 0.0644394
threshold=1.3939150000000002e-05 5.6762150000000009 0.39187000000000044 -8.9809199999999993 0.22099200000000002 -8.7098249999999968 2.1973200000000002e-08 -12.232849999999997 -5.7078899999999985e-06 3.8437450000000006 -2.0605899999999995e-05 3.3419800000000004 -17.886149999999997 4.0814950000000012 -11.586999999999998 -2.7237549999999993 -2.0514499999999998e-05 0.034198500000000007 0.24966499999999994 -0.22452634999999985 -0.71725499999999964 0.0067067750000000008 5.2944100000000007e-05 -4.8509399999999987 -2.1822199999999996 -0.040859549999999939 0.024751450000000005 -5.7563499999999985 -13.405749999999998 9.408120000000002e-06
decision_type=2 2 2 2 2 2 2 2 2 2 2 2 2 2 2 2 2 2 2 2 2 2 2 2 2 2 2 2 2 2
left_child=-1 2 3 4 6 -5 -2 -7 9 11 -11 12 -9 -12 15 16 -15 -16 19 -14 22 25 23 -21 -25 -22 28 -27 -26 -13
right_child=1 -3 -4 5 -6 7 -8 8 -10 10 13 29 18 14 17 -17 -18 -19 -20 20 21 -23 -24 24 26 27 -28 -29 -30 -31
leaf_value=2.2012546602461938e-06 0.001331453610039497 -0.00074043819681958814 5.416642194223916e-06 -0.00138710560249109 0.0038427590856206905 -0.0016362251024111174 -0.00016706205831467852 -0.0024517273763194681 -3.5432010269326654e-06 -0.0037596706426068389 -9.3484217282094933e-05 0.00011209657985445402 -4.7378515026863001e-05 -0.0012827958002449842 0.0017250405159681275 -0.00035741544337807604 -0.007434899914791928 -0.0010736751938805499 -7.2720189360552475e-05 -0.0012160803949882394 0.0045013244011594599 -0.0054509002715349203 -0.0016542434889642108 0.0007215977775172867 0.0061857832310904214 0.0036842984077520668 0.0021933838355107584 -1.5710207362595025e-05 0.010206559211339641 -0.00065849120836700137
leaf_weight=176401 29 57 30891 32 22 20 149 23 6611 35 546 428 382 38 48 99 31 57 575 28 36 20 27 33 28 20 20 183 23 741
leaf_count=176401 29 57 30891 32 22 20 149 23 6611 35 546 428 382 38 48 99 31 57 575 28 36 20 27 33 28 20 20 183 23 741
internal_value=0 -9.41753e-06 -8.40555e-06 -4.99246e-05 0.000491303 -6.06589e-05 7.70781e-05 -5.64363e-05 -5.32868e-05 -0.000149415 -0.000556956 -1.38325e-05 0.000289311 -0.000420088 -0.0010733 -0.00187269 -0.00404678 0.000205738 0.000335161 0.000628326 0.00124584 0.000478149 0.00249634 0.00334533 0.0045734 0.000974304 0.00636367 0.000348823 0.00799907 -0.00037636
internal_weight=0 41232 41175 10284 200 10084 178 10052 10032 3421 854 2567 1398 819 273 168 69 105 1375 800 418 259 159 132 104 239 71 203 51 1169
internal_count=217633 41232 41175 10284 200 10084 178 10052 10032 3421 854 2567 1398 819 273 168 69 105 1375 800 418 259 159 132 104 239 71 203 51 1169
shrinkage=0.05


Tree=663
num_leaves=31
num_cat=0
split_feature=43 23 36 16 21 21 28 40 40 9 23 11 40 29 2 31 2 13 11 5 20 23 11 43 14 35 16 40 3 36
split_gain=0.00184239 0.00882085 0.0507849 0.150501 0.0323165 0.0150127 0.012617 0.0104769 0.0864796 0.0709404 0.0104186 0.0300345 0.00895681 0.00650438 0.0252376 0.0139047 0.0795968 0.0109893 0.0186798 0.0129092 0.025312 0.0108919 0.00769108 0.00758488 0.00632939 0.0122424 0.00832691 0.0207181 0.00667395 0.042667
threshold=-2.1087049999999987 -13.656999999999998 0.061248100000000007 5.8204250000000011e-06 7.0074550000000011 -6.1725999999999992 -0.071195649999999985 0.38220950000000015 -0.10081500000000009 2.3499650000000005e-06 -13.597549999999998 3.2725900000000011e-05 -0.22452634999999985 0.70424300000000006 -2.4013349999999996 4.5971550000000008 -1.7835899999999998 -5.1489599999999996e-05 -7.4798149999999981e-05 1.8532800000000003e-05 9.3032900000000023 -10.712249999999999 -9.8516349999999987e-05 -5.3152649999999992 0.71230950000000004 -0.013548099999999999 0.00075861950000000015 0.43531000000000003 -18.015749999999997 0.12161000000000001
decision_type=2 2 2 2 2 2 2 2 2 2 2 2 2 2 2 2 2 2 2 2 2 2 2 2 2 2 2 2 2 2
left_child=1 2 4 -4 5 -1 -7 8 12 -10 11 -3 -8 15 -15 -12 -17 18 -16 22 -21 -18 23 -19 28 -26 -27 -28 29 -2
right_child=24 10 3 -5 -6 6 7 -9 9 -11 13 -13 -14 14 17 16 21 19 -20 20 -22 -23 -24 -25 25 26 27 -29 -30 -31
leaf_value=-0.0015546370032825507 0.00032092323986418421 -0.00039865532494500426 -0.00061025718392844095 0.0046640420818307793 -0.0022371880555874671 0.00083815018879249701 -6.3085429635221656e-05 9.3256317791702099e-06 -0.00066711016040062535 -0.0046623049263143914 1.0549758746223623e-05 0.0020601214286770026 -0.0010810681105953258 -0.0013959788911355039 -0.0019345898443134503 0.002841607549283975 -0.0011272795296376683 -0.00015014197560958564 0.00015476204065160583 9.9160678034917382e-06 0.0019455903390432168 0.00013866323569028906 -9.0271105066428634e-06 -0.0013907624719980628 -0.0014647792080631917 0.00016624005264424748 -0.001753237217781134 5.2354011538053337e-05 -2.7569627026659005e-06 -0.0016628156022714645
leaf_weight=20 415 27 38 21 20 30 357 318 25 20 49963 23 23 39 20 29 21 28 23 57 24 89 220 22 20 90 24 47 165551 29
leaf_count=20 415 27 38 21 20 30 357 318 25 20 49963 23 23 39 20 29 21 28 23 57 24 89 220 22 20 90 24 47 165551 29
internal_value=0 8.26724e-06 -0.000149405 0.00126704 -0.000252197 -0.000202134 -0.000167141 -0.000207731 -0.000370141 -0.00244275 1.09852e-05 0.000732382 -0.0001247 1.02715e-05 -0.000182685 1.19391e-05 0.000511329 -6.25878e-05 -0.00081703 2.98367e-05 0.000583449 -0.000103017 -0.000136247 -0.000696015 -2.55998e-06 -0.000298072 -0.000153139 -0.000557987 -2.23776e-06 0.000191355
internal_weight=0 51457 872 59 813 793 773 743 425 45 50585 50 380 50535 433 50102 139 394 43 351 81 110 270 50 166176 181 161 71 165995 444
internal_count=217633 51457 872 59 813 793 773 743 425 45 50585 50 380 50535 433 50102 139 394 43 351 81 110 270 50 166176 181 161 71 165995 444
shrinkage=0.05


Tree=664
num_leaves=31
num_cat=0
split_feature=16 16 36 12 40 4 4 5 6 6 12 3 26 43 12 15 29 14 40 40 44 36 36 40 41 17 36 43 37 40
split_gain=0.00181059 0.00754707 0.0292578 0.0715455 0.177589 0.0604246 0.06778 0.0588801 0.0734548 0.0374514 0.031658 0.0178746 0.0155311 0.0366964 0.0510585 0.03148 0.0300902 0.0266328 0.0424309 0.171176 0.0176465 0.0492455 0.0153713 0.0142599 0.174888 0.219289 0.24427 0.298108 0.489896 0.344889
threshold=-5.1967299999999993e-05 -3.8247049999999986e-06 -0.60180299999999987 -9.1528949999999994e-05 -0.49100999999999978 -0.81164199999999986 -0.54650249999999989 1.9720600000000006e-05 -5.7203749999999994e-08 6.9635550000000006e-07 0.00011857750000000002 -10.660099999999998 0.0020748500000000005 -1.7757399999999997 0.00021549250000000002 2.3836250000000008e-06 0.41922450000000006 0.0009049345000000001 -0.46506469999999994 0.30085850000000008 3.7911450000000002 -0.025848749999999997 0.5797365000000001 -0.10081500000000009 -0.10141500000000002 1.0102350000000002e-05 -0.0025086999999999996 2.4196300000000006 -1.9702449999999999e-07 0.016888500000000004
decision_type=2 2 2 2 2 2 2 2 2 2 2 2 2 2 2 2 2 2 2 2 2 2 2 2 2 2 2 2 2 2
left_child=-1 2 3 4 -2 7 -7 8 -5 -10 11 -8 23 20 15 17 -17 22 -19 -20 21 -14 -15 -4 -25 26 -26 28 29 -28
right_child=1 -3 12 5 -6 6 10 -9 9 -11 -12 -13 13 14 -16 16 -18 18 19 -21 -22 -23 -24 24 25 -27 27 -29 -30 -31
leaf_value=1.2185178605151947e-05 -0.00017327126713805936 1.83965376527297e-06 2.0531865366104218e-05 0.0036990189666943883 0.0043604106833097633 -0.0031458464795529532 -0.001927382143767318 -0.0011040175991150103 -0.000837601630057459 0.0020403353287838399 0.0015910288199302161 -0.00020835130925984086 0.0029498374675313247 -0.0004301693726420665 -0.0027049075380021423 -0.00026567276503721424 0.0013507199687666845 -0.00022965338153774022 -0.0052029280647359517 -0.00040898163214327121 -9.4307530554982994e-05 0.00012739583076729427 0.0011277275640168229 -3.6742965110823387e-06 -5.2415150217285499e-06 0.00031432327705431518 -0.010230767944691859 9.3253296137901158e-05 -0.0017699885852547595 -0.0026861297594483143
leaf_weight=26740 54 169343 8547 27 36 24 20 27 26 20 20 62 20 76 26 110 39 68 27 60 181 68 20 10904 273 373 33 131 250 28
leaf_count=26740 54 169343 8547 27 36 24 20 27 26 20 20 62 20 76 26 110 39 68 27 60 181 68 20 10904 273 373 33 131 250 28
internal_value=0 -1.70688e-06 -2.95761e-05 0.000447997 0.0016402 -2.67746e-05 -0.00075512 0.000890941 0.0016288 0.000413675 -0.000192597 -0.000627627 -3.66832e-05 -0.000269146 -0.000557855 -0.000418297 0.00015741 -0.000760051 -0.00116538 -0.00189676 0.000188067 0.00076886 -0.000105608 -2.88171e-05 -6.39894e-05 -0.000668471 -0.00118117 -0.00190748 -0.00275024 -0.00676766
internal_weight=0 190893 21550 316 90 226 126 100 73 46 102 82 21234 695 426 400 149 251 155 87 269 88 96 20539 11992 1088 715 442 311 61
internal_count=217633 190893 21550 316 90 226 126 100 73 46 102 82 21234 695 426 400 149 251 155 87 269 88 96 20539 11992 1088 715 442 311 61
shrinkage=0.05


Tree=665
num_leaves=31
num_cat=0
split_feature=1 26 1 33 32 43 4 19 19 28 18 12 19 12 32 34 44 34 44 4 13 28 12 38 9 33 30 14 32 7
split_gain=0.0018204 0.00524411 0.0288387 0.0608533 0.0121033 0.0282061 0.0339434 0.0111297 0.029451 0.0100808 0.0399894 0.0146698 0.00936568 0.0138366 0.00912347 0.0372594 0.0245385 0.088505 0.0620492 0.0871576 0.151033 0.110806 0.0656407 0.0730439 0.0643362 0.0568181 0.0554438 0.0631795 0.0583028 0.0775692
threshold=5.9655550000000011 0.00057196550000000008 6.039975000000001 -4.5791449999999988e-06 -10.048129999999999 0.72566000000000008 0.081083500000000017 4.9239600000000009e-05 1.7356400000000002e-06 1.0121250000000004 5.4626650000000007e-05 8.9791600000000009e-05 0.00051133100000000018 7.0894200000000017e-05 -0.28778899999999996 0.042894250000000009 0.98037999999999992 1.9974350000000001 -0.7296000000000008 0.53444550000000013 2.1772650000000002e-05 0.030456700000000003 9.4907600000000006e-05 0.0086255750000000016 3.4597700000000009e-05 -1.0416649999999998e-05 0.0015109500000000003 0.00022842950000000003 -1.2009849999999997 2.6525600000000002e-05
decision_type=2 2 2 2 2 2 2 2 2 2 2 2 2 2 2 2 2 2 2 2 2 2 2 2 2 2 2 2 2 2
left_child=-1 14 3 -3 5 6 -4 8 -7 -6 11 -11 13 -9 15 -2 18 -18 -17 21 -21 -20 23 26 -22 -24 27 -23 -28 -30
right_child=1 2 4 -5 9 7 -8 12 -10 10 -12 -13 -14 -15 -16 16 17 -19 19 20 24 22 25 -25 -26 -27 28 -29 29 -31
leaf_value=-2.5546298885727057e-06 -0.0019852971231739502 0.0034045208373936473 -0.00022241588225230003 4.0413125546964278e-05 5.7992386565817818e-05 -0.00019993230287354894 -0.0029622524406295271 -6.408848941926129e-05 0.0018724918715937141 0.00066103278166135878 0.002551250488540973 -0.0011009864150851388 0.00017053363646995517 -0.0017289467602495279 1.1212763024160897e-05 -9.4624924330516093e-06 0.00015628523529397331 0.003573807625070913 -0.0039042092611634872 -0.0049687447285448015 3.9171666650139776e-05 -0.0038418973032094076 -0.00048664885953586643 -0.0025695096712031336 -0.0028911482657209631 0.0011781120543945243 -0.0015305484834243544 -0.00024080355320495138 0.0032678008964032177 9.1498333982214657e-05
leaf_weight=165868 25 20 26 41 3404 60 20 26 24 27 20 21 39 24 42959 4020 359 20 20 28 67 21 83 41 26 134 41 29 23 117
leaf_count=165868 25 20 26 41 3404 60 20 26 24 27 20 21 39 24 42959 4020 359 20 20 28 67 21 83 41 26 134 41 29 23 117
internal_value=0 8.18567e-06 6.5115e-05 0.0011434 4.72945e-05 -0.000313216 -0.00141365 -2.06147e-05 0.000392189 7.00341e-05 0.000672826 -0.000109851 -0.000410227 -0.00086322 3.7369e-06 -5.98079e-05 -5.0236e-05 0.000336629 -8.17676e-05 -0.000543143 -0.00174934 -0.000256404 -0.00010721 -0.000624635 -0.000780058 0.00054136 -0.000279441 -0.00175326 0.000127692 0.000613319
internal_weight=0 51765 3752 61 3691 219 46 173 84 3472 68 48 89 50 48013 5054 5029 379 4650 630 121 509 489 272 93 217 231 50 181 140
internal_count=217633 51765 3752 61 3691 219 46 173 84 3472 68 48 89 50 48013 5054 5029 379 4650 630 121 509 489 272 93 217 231 50 181 140
shrinkage=0.05


Tree=666
num_leaves=31
num_cat=0
split_feature=34 26 43 2 30 6 41 40 25 43 19 43 28 25 7 20 0 31 43 13 15 37 14 4 26 34 14 36 27 23
split_gain=0.00183547 0.0102338 0.00973517 0.0264136 0.0222329 0.0430483 0.0194732 0.155869 0.334384 0.31262 0.294999 0.206579 0.285619 0.215671 0.191157 0.175473 0.209214 0.273069 0.170772 0.160739 0.181634 0.140016 0.222337 0.230174 0.326344 0.167881 0.148302 0.125279 0.119808 0.108862
threshold=0.20270750000000001 0.011675600000000003 0.80790999999999979 3.0794900000000003 0.00081747500000000012 9.362525000000001e-07 -0.10141500000000002 -0.079468000000000025 2.3108700000000004 -1.0505799999999998 8.8529750000000019e-08 -0.93682499999999969 0.010958100000000002 1.6560850000000003 4.6243650000000009e-05 -4.0204099999999992 -3.5052499999999998 3.1828900000000004 -2.39771 0.00012676650000000003 -1.2624199999999998e-05 3.7945450000000004e-07 0.00093504000000000015 0.14946850000000003 9.7569450000000018e-05 1.1210650000000002 0.004255295000000001 0.033124950000000007 6.3656550000000012 -15.0604
decision_type=2 2 2 2 2 2 2 2 2 2 2 2 2 2 2 2 2 2 2 2 2 2 2 2 2 2 2 2 2 2
left_child=1 -1 3 4 5 -2 -6 -8 11 15 -11 12 13 -9 -13 18 17 -17 -10 20 -12 22 23 24 -22 -23 -27 -18 -29 -16
right_child=2 -3 -4 -5 6 -7 7 8 9 10 19 14 -14 -15 29 16 27 -19 -20 -21 21 25 -24 -25 -26 26 -28 28 -30 -31
leaf_value=2.5917354129779879e-06 3.4304153027813046e-05 0.0010573562979239481 5.0904868576737909e-06 0.001331085460925741 1.2046926583952763e-05 0.0025586411645538952 -9.7359184616274949e-06 -0.0024321822750117956 -0.00041720634209923446 -0.0064707626444835444 -0.0059996994775719939 -0.00060052509345465078 0.0071269231060376546 0.0044740882143378255 0.00067150059452449735 0.0077239766081964424 -0.0013520352396881208 -0.00015390686246312478 -0.0057133809678539963 0.0024276312836698944 -0.011730289445258677 3.63675095633568e-05 -0.0014225307661225959 -0.00052311106352135543 -0.003161314260214567 -0.0049416769423068652 0.00014522506086074788 0.0041810146105708554 0.00022140129312677424 0.0042705024565186578
leaf_weight=160373 57 23 41358 35 7241 24 7246 26 45 34 25 292 26 20 55 22 94 22 23 23 20 169 134 20 25 38 23 25 81 34
leaf_count=160373 57 23 41358 35 7241 24 7246 26 45 34 25 292 26 20 55 22 94 22 23 23 20 169 134 20 25 38 23 25 81 34
internal_value=0 2.74298e-06 -7.6867e-06 -4.09658e-05 -4.39967e-05 0.000782256 -4.82425e-05 -9.94694e-05 -0.000609038 -0.00120954 -0.001971 0.000481946 0.00293813 0.000570544 1.77855e-05 3.75867e-05 0.000663562 0.00378503 -0.00220856 -0.00165026 -0.00185685 -0.00161543 -0.00258653 -0.00498617 -0.00696975 -0.000775206 -0.00302366 -2.31622e-05 0.00115527 0.0020464
internal_weight=0 160396 57237 15879 15844 81 15763 8522 1276 823 511 453 72 46 381 312 244 44 68 477 454 429 199 65 45 230 61 200 106 89
internal_count=217633 160396 57237 15879 15844 81 15763 8522 1276 823 511 453 72 46 381 312 244 44 68 477 454 429 199 65 45 230 61 200 106 89
shrinkage=0.05


Tree=667
num_leaves=31
num_cat=0
split_feature=23 36 43 7 16 44 43 40 41 28 43 29 37 29 0 35 21 21 13 35 5 35 15 2 14 1 40 40 28 4
split_gain=0.00171933 0.00892702 0.0473292 0.0104035 0.00589452 0.0109077 0.0249374 0.0281119 0.0874663 0.0780943 0.100657 0.0277975 0.027195 0.0218943 0.0209066 0.0195877 0.0111213 0.00908341 0.0223097 0.00902188 0.032657 0.00809489 0.0233402 0.00718628 0.00637683 0.00773284 0.0442829 0.0827678 0.00733926 0.0112384
threshold=-6.1276249999999992 -0.0013312399999999998 0.027469999999999221 6.7809300000000008e-05 -1.8851849999999998e-07 0.98037999999999992 0.052215000000000351 0.2761725000000001 0.14791590000000002 0.0023927900000000001 -0.19603999999999996 -0.20482949999999997 -9.8400049999999974e-09 -0.0031083199999999995 -2.1576199999999992 0.17102100000000001 -13.388899999999998 -13.876599999999998 -3.1724749999999996e-06 0.96084200000000008 1.5065950000000003e-05 -0.0081784949999999992 -1.0179149999999999e-07 2.5744950000000002 0.0012772050000000002 -7.4706449999999984 -0.12496499999999998 0.24966499999999994 0.13760400000000003 -0.32383099999999992
decision_type=2 2 2 2 2 2 2 2 2 2 2 2 2 2 2 2 2 2 2 2 2 2 2 2 2 2 2 2 2 2
left_child=-1 2 3 -2 24 6 7 8 9 12 -11 -9 14 -14 -6 -10 -13 18 -8 -7 -21 22 -19 -23 25 26 -3 -28 -27 -30
right_child=1 4 -4 -5 5 19 17 11 15 10 -12 16 13 -15 -16 -17 -18 21 -20 20 -22 23 -24 -25 -26 28 27 -29 29 -31
leaf_value=-7.8044864382481583e-07 -8.3437608348122604e-05 5.9956658523470042e-06 -0.0019651818610561477 0.0011735816855798476 0.00050799679874833075 -9.0486333420537731e-06 0.0019381503931072076 -0.0018436121317790821 -7.7330520857146244e-07 0.0048510267604797265 0.0010887208979693242 0.0011979894809580097 0.00067794597458227404 -0.0014577783806002812 0.0024513644161052073 0.001579690805668915 -1.2719454585002106e-05 -0.0017572711000796587 -0.00023255330050170445 -0.00044395166656209365 0.0022217397438362243 -3.118754109409436e-05 4.5585058571054234e-05 0.00066605163143928321 4.4457027464349559e-05 1.529384140119409e-07 -0.0041814647134742703 9.6901958246375084e-05 -0.0015185731690144167 -0.00019003751805053655
leaf_weight=211122 93 153 35 20 31 2420 20 20 295 32 40 21 28 21 25 21 196 26 29 27 20 705 58 39 1275 717 20 26 20 78
leaf_count=211122 93 153 35 20 31 2420 20 20 295 32 40 21 28 21 25 21 196 26 29 27 20 705 58 39 1275 717 20 26 20 78
internal_value=0 2.53064e-05 -0.000358577 0.000139044 3.42353e-05 7.03078e-05 0.000171676 0.000387563 0.000602694 0.00149256 0.00276086 -5.99472e-05 0.000622868 -0.000237364 0.00137557 0.000104258 0.000104446 -8.02435e-06 0.000653448 4.27661e-06 0.000690385 -4.71695e-05 -0.000512442 5.36129e-06 -2.9967e-05 -0.000123548 -0.000402977 -0.00176326 -5.53187e-05 -0.000461167
internal_weight=0 6511 148 113 6363 4074 1607 730 493 177 72 237 105 49 56 316 217 877 49 2467 47 828 84 744 2289 1014 199 46 815 98
internal_count=217633 6511 148 113 6363 4074 1607 730 493 177 72 237 105 49 56 316 217 877 49 2467 47 828 84 744 2289 1014 199 46 815 98
shrinkage=0.05


Tree=668
num_leaves=31
num_cat=0
split_feature=30 40 5 1 22 12 12 0 40 40 40 35 34 16 4 13 6 34 6 15 19 19 34 13 23 12 22 38 8 16
split_gain=0.00166739 0.0151883 0.00931006 0.0187521 0.0124526 0.0112603 0.0125394 0.0257199 0.0182103 0.0904374 0.0213099 0.0212937 0.0125074 0.0347303 0.0439673 0.0115435 0.0387116 0.0571478 0.0642191 0.0223793 0.0213052 0.0126379 0.0124954 0.00965941 0.0253687 0.0238973 0.0521856 0.0156663 0.00924241 0.00837525
threshold=0.053348600000000003 5.6762150000000009 4.066120000000001e-05 -14.127399999999998 -2.6579249999999996 -0.0018492449999999998 -0.00024057599999999997 5.4701800000000009 -0.22452634999999985 0.24966499999999994 -0.71412249999999966 5.1900100000000009 2.9757900000000004 -2.6787349999999996e-08 0.081083500000000017 -4.2631049999999996e-05 -3.7361699999999995e-07 34.706300000000006 1.4354600000000002e-06 -5.5152549999999989e-06 0.0063939700000000014 0.0045184900000000009 7.9426800000000002 -2.5389999999999996e-05 -7.8892249999999988 0.00010338350000000002 1.2794000000000001 5.8699600000000016 9.7751850000000015e-06 5.2573900000000008e-06
decision_type=2 2 2 2 2 2 2 2 2 2 2 2 2 2 2 2 2 2 2 2 2 2 2 2 2 2 2 2 2 2
left_child=-1 2 3 -2 -4 -5 7 8 10 -10 -7 -11 13 -8 28 16 20 19 -19 -18 -14 -20 -21 24 25 27 -27 -17 -15 -25
right_child=1 -3 4 5 -6 6 12 -9 9 11 -12 -13 15 14 -16 23 17 18 21 22 -22 -23 -24 29 -26 26 -28 -29 -30 -31
leaf_value=6.657351632355352e-07 0.001302897712782767 0.0012259788244894784 -0.0012776558148929057 0.00094644013894139799 -0.00017586526140947641 -0.00029234952621179632 -0.00038580748263153841 0.0014520123921101915 -0.0030406603781396851 -0.00047951296828436103 0.0010037039854380835 0.0013815469377070921 0.00011664937381916073 -0.00045258793078783825 0.0025607456357895652 3.9010715675956805e-05 -0.0013096917322836816 0.0042481304623652252 -0.00011064173329941696 0.0013307017968618312 -0.0020597770968875427 0.0016668494023178938 -2.954981630934456e-05 2.2519577442454423e-05 0.001020372088934327 2.0421307778198516e-05 -0.0034717916287627308 -0.001151726968394517 0.0009770954378473108 -0.00019653784202563869
leaf_weight=212711 27 24 27 30 511 338 66 21 34 51 35 22 23 26 33 109 25 20 20 25 22 20 52 2712 29 23 20 37 20 520
leaf_count=212711 27 24 27 30 511 338 66 21 34 51 35 22 23 26 33 109 25 20 20 25 22 20 52 2712 29 23 20 37 20 520
internal_value=0 -2.87707e-05 -3.49189e-05 -1.07039e-05 -0.00023116 -1.88892e-05 -2.56194e-05 -0.00026075 -0.000335684 -0.000910688 -0.000170736 8.13544e-05 5.36442e-06 0.0004608 0.00116809 -1.26936e-05 0.000349967 0.000710342 0.00193478 -9.91509e-06 -0.000947381 0.000778104 0.00041209 -3.44532e-05 -0.000356592 -0.000567872 -0.00160386 -0.000262752 0.000169014 -1.27248e-05
internal_weight=0 4922 4898 4360 538 4333 4303 501 480 107 373 73 3802 145 79 3657 207 162 60 102 45 40 77 3450 218 189 43 146 46 3232
internal_count=217633 4922 4898 4360 538 4333 4303 501 480 107 373 73 3802 145 79 3657 207 162 60 102 45 40 77 3450 218 189 43 146 46 3232
shrinkage=0.05


Tree=669
num_leaves=31
num_cat=0
split_feature=11 32 10 2 11 33 19 37 31 19 13 22 35 16 3 16 29 4 4 8 29 9 22 22 40 31 19 29 43 18
split_gain=0.00166458 0.0081004 0.0455049 0.0103946 0.00654413 0.0350258 0.0787733 0.0193445 0.0152085 0.0325298 0.0208599 0.00708241 0.00616612 0.0155197 0.0259939 0.0132626 0.0112205 0.0605517 0.104291 0.0350182 0.00964989 0.048986 0.0194894 0.0137103 0.00864256 0.00741755 0.0565665 0.0357614 0.0378912 0.00914875
threshold=-0.000119502 20.036400000000004 3.0656350000000003e-05 2.8060500000000004 -0.00010809399999999999 -0.00012302899999999995 0.00036703250000000005 -4.2848749999999994e-06 0.060246950000000007 9.8727300000000016e-07 -7.1201799999999986e-05 2.9809550000000002 1.6674650000000002 -1.6712999999999997e-05 -14.49255 -9.7420549999999983e-05 1.0482150000000001 5.566250000000001 1.3297700000000001 -7.1639649999999996e-06 0.70424300000000006 -5.0134299999999992e-05 -2.1850249999999996 2.4917950000000002 0.327845 5.5507350000000004 0.0006688480000000001 0.55826100000000012 0.60048999999999852 0.00096756250000000011
decision_type=2 2 2 2 2 2 2 2 2 2 2 2 2 2 2 2 2 2 2 2 2 2 2 2 2 2 2 2 2 2
left_child=1 12 -3 -4 5 6 -2 -7 -9 -10 -11 -12 16 15 -15 -14 20 18 19 -18 25 -22 -23 -24 -16 -1 -27 28 -28 -30
right_child=4 2 3 -5 -6 7 -8 8 9 10 11 -13 13 14 24 -17 17 -19 -20 -21 21 22 23 -25 -26 26 27 -29 29 -31
leaf_value=9.6048909940397397e-06 -0.0038475168014701928 0.0024170991087094479 -0.00038929834020867324 0.00091187698315479786 -7.8139120866093676e-07 0.0011616803957622325 -4.3413096318545293e-06 1.6022527789302446e-05 -0.001744404147044603 -0.0013868311230052152 -4.2706562755433373e-05 -0.00094703585270073515 -0.00024408255920749518 -0.002086511958623305 -0.00073408363405178543 0.0011011718664559777 0.0013283885823076836 -0.0017659983002016343 0.0034454761670091221 -0.0012131097226246671 -0.0022219366293625329 0.0013002407452754247 -0.001328857116062533 0.00027304619839282277 0.00049319625194094933 0.0027663011295122227 -0.0025354250514646997 0.0012289636537929796 0.00061616596478792241 -0.00062925792250704648
leaf_weight=27108 20 23 66 20 188160 32 40 1175 37 34 369 23 57 26 32 27 23 23 31 33 29 26 22 34 26 21 20 37 29 30
leaf_count=27108 20 23 66 20 188160 32 40 1175 37 34 369 23 57 26 32 27 23 23 31 33 29 26 22 34 26 21 20 37 29 30
internal_value=0 1.14402e-05 0.000441625 -8.66994e-05 -1.67142e-06 -9.84737e-05 -0.0012854 -5.58296e-05 -7.96149e-05 -0.000322323 -0.000198809 -9.57667e-05 9.74339e-06 -0.00029225 -0.00077282 0.000188321 1.15906e-05 0.000515565 0.00111874 -0.00016928 9.56407e-06 -0.000455686 0.000168963 -0.000356273 -0.000183924 1.14596e-05 0.000378442 -5.38428e-05 -0.000654651 -1.71004e-05
internal_weight=0 27743 109 86 189890 1730 60 1670 1638 463 426 392 27634 168 84 84 27466 110 87 56 27356 111 82 56 58 27245 137 116 79 59
internal_count=217633 27743 109 86 189890 1730 60 1670 1638 463 426 392 27634 168 84 84 27466 110 87 56 27356 111 82 56 58 27245 137 116 79 59
shrinkage=0.05


Tree=670
num_leaves=31
num_cat=0
split_feature=12 24 25 40 19 32 19 3 3 17 17 30 36 18 4 5 36 21 23 43 41 11 8 21 14 36 21 16 7 32
split_gain=0.00165825 0.00585378 0.0358674 0.111239 0.0104167 0.0117232 0.0105207 0.0418428 0.0121919 0.00850038 0.0211391 0.0110791 0.0156235 0.0509853 0.0794477 0.00902112 0.00897281 0.00637312 0.00548617 0.0330295 0.167485 0.300009 0.0744947 0.0349209 0.142587 0.0298381 0.0285742 0.0126025 0.0106054 0.00972126
