tree
version=v3
num_class=1
num_tree_per_iteration=1
label_index=0
max_feature_idx=39
objective=regression
feature_names=feature_1 feature_2 feature_3 feature_4 feature_5 feature_6 feature_7 feature_8 feature_9 feature_10 feature_11 feature_12 feature_13 feature_14 feature_15 feature_16 feature_17 feature_18 feature_19 feature_20 feature_21 feature_22 feature_23 feature_24 feature_25 feature_26 feature_27 feature_28 feature_29 feature_30 feature_31 feature_32 feature_33 feature_34 feature_35 feature_36 feature_37 feature_38 feature_39 feature_40
feature_infos=[-15.939299999999999:15.947900000000001] [-16.752600000000001:16.742699999999999] [-3.1493500000000001:3.1712600000000002] [-20.337599999999998:-4.4050799999999999] [-76.333299999999994:81.104100000000003] [4.7191799999999999e-06:0.024492400000000001] [-0.0134629:0.0043453500000000004] [7.6853900000000003e-06:0.0087102900000000007] [-0.0019838400000000002:0.0093822599999999999] [-0.0042041600000000002:0.0042393500000000002] [5.16389e-06:0.0043024400000000003] [-0.0307505:0.44305499999999998] [-0.25241999999999998:0.10157099999999999] [-0.0015938:0.16405600000000001] [1.1073199999999999e-05:8.1351999999999993] [-0.051134800000000001:2.89988] [-1.6246700000000001:0.29819499999999999] [-0.0342528:1.09792] [-12.1029:53.042499999999997] [3.4101299999999998e-11:351.17200000000003] [-54.533999999999999:55.582099999999997] [-54.234499999999997:40.377200000000002] [-3.1409400000000001:3.1415299999999999] [-52.629199999999997:-3.9076399999999998] [-15.932700000000001:8.9071200000000008] [0.13626099999999999:426.577] [-2.75034:1.68068] [0.119494:426.75] [-9.53993:25.175699999999999] [-26.306100000000001:16.1218] [4.0056099999999998e-05:10.1328] [-1116.75:849.51400000000001] [-1201.8099999999999:402.52300000000002] [-0.609962:0.153891] [0.0015259:23287.5] [-419.49400000000003:113.274] [-96.991100000000003:223.089] [-0.0093706699999999993:0.110289] [-4322.8400000000001:2111.3200000000002] [3.4248799999999999e-07:802.66200000000003]
tree_sizes=1501 1551 1520 1570 1521 1525 1517 1526 1544 1491 1534 1566 1500 1541 1488 1533 1478 1523 1496 1524 1551 1491 1485 1497 1493 1462 1521 1447 1557 1453 1422 1457 1523 1479 1456 1530 1572 1580 1521 1496 1469 1471 1469 1459 1432 1531 1499 1459 1452 1509 1441 1496 1551 1543 1481 1511 1514 1536 1491 1459 1471 1520 1535 1452 1533 1462 1537 1484 1448 1449 1490 1470 1528 1564 1501 1521 1573 1521 1541 1481 1514 1569 1470 1453 1555 1553 1532 1474 1556 1519 1465 1452 1531 1450 1442 1533 1476 1500 1532 1464 1449 1514 1485 1450 1518 1524 1507 1456 1559 1515 1468 1473 1563 1520 1528 1543 1474 1477 1470 1552 1499 1463 1535 1470 1466 1469 1522 1490 1520 1554 1556 1510 1509 1550 1447 1456 1480 1479 1454 1526 1527 1481 1566 1471 1523 1511 1571 1522 1482 1490 1463 1554 1503 1585 1431 1465 1586 1546 1482 1453 1494 1493 1471 1567 1491 1548 1571 1598 1570 1506 1559 1489 1541 1486 1548 1563 1478 1555 1478 1479 1504 1502 1478 1571 1532 1517 1582 1499 1478 1529 1475 1460 1486 1550 1485 1524 1586 1565 1454 1486 1570 1505 1457 1468 1561 1462 1604 1464 1522 1557 1503 1503 1504 1492 1493 1517 1511 1524 1601 1549 1494 1505 1542 1518 1517 1506 1483 1496 1506 1491 1509 1492 1479 1492 1544 1492 1456 1459 1524 1487 1489 1541 1560 1493 1545 1497 1528 1527 1542 1478 1499 1520 1535 1510 1497 1512 1573 1508 1496 1467 1552 1505 1524 1483 1547 1481 1503 1500 1503 1481 1520 1482 1517 1544 1503 1551 1561 1529 1527 1505 1547 1488 1565 1534 1527 1592 1548 1535 1500 1548 1497 1521 1493 1555 1496 1516 1489 1521 1494 1500 1527 1496 1493 1548 1471 1472 1509 1492 1504 1484 1493 1508 1560 1529 1467 1540 1493 1530 1470 1550 1499 1481 1528 1479 1602 1504 1475 1484 1517 1604 1465 1531 1534 1601 1501 1530 1550 1508 1510 1525 1542 1462 1480 1472 1580 1466 1461 1557 1460 1468 1473 1468 1477 1551 1513 1515 1476 1570 1491 1462 1459 1511 1553 1494 1503 1549 1506 1506 1473 1547 1469 1529 1546 1500 1472 1486 1498 1502 1482 1534 1505 1480 1470 1513 1446 1484 1494 1502 1524 1477 1523 1475 1474 1475 1509 1465 1546 1461 1493 1512 1546 1487 1520 1521 1464 1497 1507 1505 1498 1548 1492 1453 1491 1503 1531 1545 1528 1514 1485 1523 1500 1528 1501 1512 1539 1519 1506 1481 1509 1486 1464 1550 1570 1507 1521 1543 1493 1468 1511 1533 1541 1568 1475 1466 1524 1470 1556 1474 1480 1473 1540 1534 1493 1499 1511 1501 1490 1511 1495 1511 1516 1465 1527 1473 1493 1507 1510 1490 1486 1523 1521 1551 1511 1558 1520 1537 1466 1494 1473 1513 1546 1485 1506 1520 1521 1487 1472 1490 1505 1519 1519 1534 1542 1493 1513 1489 1490 1484 1526 1531 1506 1575 1522 1567 1547 1508 1458 1513 1524 1543 1559 1488 1471 1486 1478 1471 1525 1512 1491 1484 1524 1505 1555 1535 1528 1535 1552 1559 1502 1481 1503 1510 1498 1500 1510 1516 1489 1479 1513 1496 1495 1481 1550 1513 1535 1495 1508 1491 1521 1526 1532 1550 1515 1569 1497 1540 1542 1491 1493 1488 1504 1481 1503 1480 1534 1538 1465 1501 1500 1554 1498 1490 1539 1569 1492 1515 1567 1485 1522 1529 1507 1513 1470 1492 1470 1464 1502 1567 1491 1495 1509 1541 1500 1538 1547 1525 1508 1583 1534 1509 1510 1524 1495 1489 1532 1516 1496 1585 1495 1528 1496 1556 1482 1473 1613 1489 1537 1574 1509 1501 1487 1523 1519 1481 1504 1530 1569 1483 1563 1504 1478 1494 1504 1536 1551 1580 1515 1544 1513 1567 1548 1502 1527 1540 1527 1530 1492 1506 1492 1499 1500 1520 1450 1507 1507 1460 1533 1542 1516 1523 1501 1498 1515 1560 1524 1520 1480 1564 1508 1467 1518 1511 1518 1480 1507 1582 1510 1533 1566 1486 1519 1489 1501 1509 1539 1529 1532 1517 1537 1524 1522 1486 1500 1539 1522 1503 1497 1492 1502 1542 1497 1513 1529 1605 1512 1519 1538 1471 1503 1537 1511 1552 1499 1490 1537 1535 1486 1571 1509 1502 1572 1510 1477 1530 1520 1522 1483 1488 1545 1567 1505 1537 1537 1506 1490 1535 1522 1482 1502 1524 1580 1509 1508 1499 1469 1514 1503 1524 1533 1505 1537 1517 1507 1520 1474 1508 1503 1508 1479 1556 1512 1509 1512 1484 1515 1512 1536 1519 1567 1479 1539 1507 1469 1496 1517 1517 1551 1520 1520 1485 1489 1501 1486 1500 1491 1502 1481 1515 1493 1501 1544 1587 1470 1505 1525 1603 1488 1503 1564 1542 1511 1482 1507 1544 1489 1508 1494 1468 1505 1488 1538 1518 1524 1519 1568 1510 1496 1522 1493 1534 1475 1509 1509 1496 1492 1528 1500 1535 1513 1531 1554 1553 1493 1500 1487 1494 1503 1508 1486 1501 1501 1508 1507 1474 1496 1494 1526 1570 1605 1538 1598 1536 1513 1528 1516 1498 1489 1494 1486 1480 1573 1519 1535 1547 1488 1508 1502 1467 1551 1542 1528 1463 1508 1554 1526 1519 1526 1539 1504 1505 1512 1508 1515 1510 1532 1509 1567 1547 1504 1543 1488 1533 1541 1531 1493 1503 1499 1528 1500 1492 1505 1503 1497 1518 1518 1523 1516 1471 1543 1496 1499 1480 1563 1527 1527 1523 1522 1549 1512 1481 1545 1530 1486 1532 1466 1510 1488 1538 1573 1527 1584 1505 1529 1485 1530 1494 1513 1481 1538 1478 1516 1550 1567 1543 1472 1524 1544 1517 1482 1517 1489 1536 1520 1529 1524 1522 1492 1509 1522 1523 1506 1502 1555 1517 1521 1527 1532 1519 1490 1565 1571 1492 1546 1512 1555 1515 1512 1484 1534 1545 1544 1508 1551 1532 1493 1532 1527 1492 1480 1555 1494 1484 1490 1510 1529 1519 1520 1531 1547 1522 1510 1536 1526 1520 1509 1517 1521 1496 1573 1509 1519 1533 1462 1482 1499 1500 1516 1559 1546 1566 1546 1479 1542 1551 1554 1478 1509 1550 1475 1499 1500 1509 1540 1512 1519 1523 1490 1501 1553 1536 1517 1494 1551 1530 1510 1524 1487 1575 1492 1513 1477 1523 1505 1557 1482 1542 1532 1512 1493 1550 1521 1497 1484 1466 1509 1486 1533 1527 1493 1498 1525 1517 1516 1512 1526 1511 1478 1541 1509 1536 1506 1516 1502 1532 1489 1532 1509 1518 1491 1537 1529 1491 1519 1518 1517 1510 1502 1550 1541 1533 1540 1536 1501 1525 1497 1536 1511 1533 1518 1492 1583 1485 1550 1524 1546 1553 1515 1476 1517 1521 1499 1491 1481 1541 1471 1527 1509 1525 1530 1534 1498 1506 1543 1519 1508 1504 1539 1501 1495 1524 1519 1533 1486 1532 1511 1507 1498 1499 1529 1543 1510 1532 1536 1538 1518 1510 1486 1520 1549 1524 1507 1514 1509 1517 1532 1482 1553 1498 1514 1483 1548 1501 1506 1524 1494 1504 1514 1495 1517 1532 1511 1530 1529 1524 1548 1584 1506 1560 1526 1575 1604 1562 1535 1500 1506 1524 1519 1554 1580 1503 1570 1492 1523 1511 1546 1508 1561 1488 1529 1515 1502 1488 1504 1525 1492 1521 1526 1529 1491 1572 1578 1503 1577 1512 1500 1555 1524 1572 1555 1556 1495 1500 1541 1532 1551 1493 1499 1515 1489 1551 1532 1557 1518 1521 1494 1483 1487 1511 1538 1502 1522 1530 1541 1530 1577 1471 1527 1547 1521 1576 1471 1529 1502 1561 1500 1490 1532 1538 1510 1516 1521 1497 1536 1514 1497 1525 1540 1522 1508 1497 1564 1549 1546 1551 1495 1523 1515 1530 1514 1536 1531 1506 1538 1548 1538 1504 1527 1531 1566 1513 1528 1511 1538 1550 1514 1516 1535 1516 1501 1518 1547 1530 1521 1553 1507 1538 1513 1507 1501 1527 1476 1519 1528 1502 1541 1540 1494 1542 1525 1492 1474 1535 1505 1533 1495 1527 1495 1539 1508 1503 1511 1522 1524 1497 1508 1544 1529 1567 1527 1449 1530 1490 1553 1524 1534 1475 1578 1508 1545 1520 1521 1572 1512 1556 1518 1529 1545 1510 1529 1513 1505 1503 1535 1503 1541 1518 1519 1530 1524 1493 1527 1512 1503 1539 1506 1542 1520 1500 1509 1494 1508 1524 1485 1528 1489 1539 1545 1544 1519 1488 1507 1510 1528 1523 1517 1534 1539 1534 1521 1532 1507 1511 1549 1515 1546 1528 1489 1478 1520 1539 1523 1529 1499 1488 1520 1526 1490 1476 1507 1517 1494 1513 1569 1541 1546 1498 1520 1525 1526 1484 1545 1547 1514 1500 1514 1517 1495 1589 1553 1530 1512 1550 1538 1495 1483 1510 1514 1553 1505 1552 1540 1543 1508 1526 1511 1540 1540 1509 1475 1524 1500 1508 1540 1529 1566 1566 1560 1552 1570 1535 1495 1537 1508 1542 1560 1516 1515 1498 1494 1537 1532 1530 1506 1513 1507 1529 1517 1524 1550 1490 1513 1515 1530 1525 1494 1497 1523 1512 1480 1547 1525 1473 1526 1504 1524 1491 1499 1568 1526 1493 1520 1483 1518 1558 1526 1541 1508 1501 1498 1523 1529 1550 1554 1523 1503 1525 1530 1534 1518 1514 1592 1535 1551 1488 1498 1545 1571 1535 1565 1524 1497 1506 1529 1487 1526 1489 1554 1501 1544 1524 1563 1524 1535 1507 1529 1534 1503 1519 1534 1533 1523 1560 1515 1509 1489 1577 1513 1520 1540 1507 1539 1527 1553 1551 1522 1512 1503 1517 1534 1537 1510 1529 1505 1558 1539 1529 1520 1538 1525 1554 1499 1525 1510 1497 1470 1514 1493 1551 1538 1516 1540 1563 1505 1510 1508 1502 1532 1551 1547 1495 1486 1523 1511 1502 1531 1521 1507 1506 1596 1531 1538 1495 1536 1507 1521 1515 1507 1516 1536 1540 1557 1582 1525 1499 1537 1512 1503 1499 1520 1506 1529 1486 1554 1534 1483 1521 1545 1558 1484 1516 1492 1525 1516 1483 1485 1521 1526 1508 1500 1498 1493 1489 1548 1523 1564 1528 1506 1518 1509 1513 1514 1532 1529 1540 1500 1545 1551 1527 1498 1502 1515 1525 1545 1528 1521 1541 1524 1527 1493 1508 1498 1547 1505 1514 1495 1515 1506 1501 1522 1510 1551 1510 1521 1490 1554 1525 1517 1498 1564 1522 1506 1524 1508 1563 1520 1546 1534 1495 1545 1504 1508 1495 1524 1499 1519 1499 1523 1522 1506 1516 1531 1503 1509 1521 1504 1516 1520 1532 1536 1493 1527 1515 1531 1560 1498 1569 1539 1532 1530 1526 1527 1582 1507 1521 1552 1499 1484 1522 1545 1533 1524 1528 1530 1524 1512 1537 1530 1548 1508 1499 1525 1505 1513 1499 1548 1526 1548 1519 1552 1555 1493 1524 1509 1527 1523 1516 1512 1550 1487 1523 1565 1527 1543 1509 1493 1529 1494 1511 1537 1496 1513 1503 1552 1502 1511 1520 1537 1517 1518 1523 1512 1506 1548 1539 1512 1530 1496 1525 1531 1523 1509 1556 1516 1550 1525 1550 1507 1532 1516 1524 1516 1538 1532 1555 1543 1520 1508 1522 1501 1495 1487 1546 1498 1532 1559 1526 1518 1534 1522 1547 1534 1501 1549 1513 1533 1492 1551 1532 1518 1509 1512 1525 1534 1531 1528 1497 1521 1526 1492 1503 1572 1590 1529 1501 1524 1539 1560 1527 1537 1495 1542 1515 1537 1510 1532 1522 1549 1524 1500 1554 1515 1539 1515 1533 1505 1529 1557 1493 1547 1571 1532 1492 1503 1543 1509 1519 1526 1541 1540 1523 1502 1592 1566 1522 1529 1529 1522 1505 1503 1484 1525 1531 1557 1516 1516 1566 1510 1541 1523 1566 1521 1559 1530 1512 1521 1521 1508 1522 1533 1554 1517 1529 1531 1543 1508 1515 1541 1532 1494 1489 1552 1522 1497 1525 1542 1533 1543 1501 1536 1493 1521 1505 1569 1539 1530 1530 1539 1514 1546 1526 1496 1521 1549 1528 1535 1558 1542 1520 1534 1495 1530 1521 1501 1550 1529 1478 1560 1536 1521 1545 1509 1499 1561 1538 1538 1486 1516 1525 1510 1538 1527 1540 1500 1547 1523 1528 1511 1515 1524 1533 1494 1528 1527 1525 1520 1540 1515 1550 1528 1533 1499 1529 1494 1497 1543 1516 1481 1508 1539 1501 1495 1506 1514 1508 1514 1501 1496 1504 1497 1553 1543 1517 1533 1521 1523 1520 1496 1488 1524 1521 1522 1587 1517 1513 1511 1524 1493 1583 1526 1513 1518 1530 1530 1575 1554 1505 1508 1526 1539 1508 1567 1524 1560 1526 1524 1533 1502 1548 1504 1535 1530 1522 1518 1512 1534 1511 1534 1515 1510 1533 1511 1545 1513 1548 1500 1513 1555 1516 1545 1545 1478 1515 1554 1518 1536 1540 1515 1504 1507 1483 1517 1488 1526 1542 1504 1511 1527 1510 1521 1501 1534 1494 1600 1534 1550 1532 1549 1541 1551 1505 1532 1543 1544 1508 1509 1529 1519 1496 1504 1541 1514 1556 1526 1514 1530 1478 1520 1538 1508 1511 1495 1541 1505 1529 1537 1573 1500 1530 1527 1519 1530 1565 1522 1499 1519 1536 1540 1507 1522 1508 1557 1537 1533 1495 1525 1522 1485 1512 1508 1541 1553 1539 1507 1554 1515 1516 1517 1532 1499 1591 1541 1517 1510 1534 1527 1504 1511 1508 1531 1547 1521 1519 1531 1561 1561 1556 1529 1498 1516 1544 1571 1514 1527 1506 1506 1576 1546 1567 1547 1506 1557 1556 1506 1535 1534 1513 1555 1527 1540 1513 1489 1508 1525 1520 1518 1544 1504 1520 1524 1548 1542 1531 1520 1538 1514 1540 1524 1513 1501 1529 1539 1503 1526 1480 1517 1490 1521 1548 1503 1520 1559 1511 1504 1526 1517 1545 1489 1555 1521 1456 1542 1525 1544 1532 1505 1490 1519 1503 1533 1526 1545 1535 1488 1513 1498 1556 1485 1498 1530 1536 1508 1521 1573 1525 1539 1569 1532 1543 1494 1494 1505 1492 1557 1513 1486 1500 1515 1510 1505 1520 1501 1540 1505 1494 1512 1504 1514 1548 1570 1502 1546 1539 1508 1551 1548 1531 1533 1547 1509 1497 1531 1523 1540 1542

Tree=0
num_leaves=15
num_cat=0
split_feature=13 3 4 4 34 14 24 4 24 4 4 38 4 24
split_gain=57.2248 86.6754 40.8391 47.2073 17.0369 21.0383 13.89 13.4824 9.53306 14.4022 9.15222 37.5046 8.9855 37.6826
threshold=8.3693450000000004e-05 -6.0545599999999995 -0.96577349999999995 0.85613250000000007 0.66201150000000009 0.0016871300000000002 0.69923600000000008 1.5436950000000003 -0.82277699999999998 -2.2825899999999995 -0.48541799999999996 0.0090711750000000025 0.46547150000000009 0.39503000000000005
decision_type=2 2 2 2 2 2 2 2 2 2 2 2 2 2
left_child=1 2 8 4 10 -6 -5 -8 9 -1 11 -4 -12 -14
right_child=-2 -3 3 6 5 -7 7 -9 -10 -11 12 -13 13 -15
leaf_value=0.030507894428372213 0.030413703050621611 0.030404838392990515 0.031795063885716159 0.030025470020253728 0.032003509839959317 0.046694371204000877 0.077516440911557766 0.036039544777719687 0.029981204557529402 0.077082664166839371 0.041950110823136481 0.082731484430387664 0.031432456682807877 0.083067012726627781
leaf_weight=378 48466 42572 4974 13495 9894 2818 273 498 14047 247 74915 348 4365 343
leaf_count=378 48466 42572 4974 13495 9894 2818 273 498 14047 247 74915 348 4365 343
internal_value=0.0349579 0.0362598 0.0382288 0.0392043 0.0403817 0.0352602 0.0311442 0.0507259 0.0307877 0.0489142 0.0411481 0.0351257 0.0415506 0.0351943
internal_weight=0 169167 126595 111923 97657 12712 14266 771 14672 625 84945 5322 79623 4708
internal_count=217633 169167 126595 111923 97657 12712 14266 771 14672 625 84945 5322 79623 4708
shrinkage=1


Tree=1
num_leaves=15
num_cat=0
split_feature=13 7 14 34 23 14 14 23 34 34 20 20 2 22
split_gain=41.3449 27.8611 18.8534 25.0214 9.13191 18.0607 11.5793 24.81 10.7454 8.60789 9.40292 8.8201 23.4694 26.354
threshold=8.3693450000000004e-05 4.9763350000000009e-05 7.5703150000000014e-05 0.0071301150000000011 -16.783199999999997 0.0048352200000000012 0.0032082450000000006 -13.750649999999998 0.29730450000000003 0.58850850000000021 10.068200000000003 -8.1735049999999969 -2.4792649999999994 -2.4287549999999993
decision_type=2 2 2 2 2 2 2 2 2 2 2 2 2 2
left_child=1 2 3 -1 5 -4 9 -8 -9 10 11 12 13 -6
right_child=-2 -3 4 -5 6 -7 7 8 -10 -11 -12 -13 -14 -15
leaf_value=0.010610648014277682 -0.0038625958942773734 -0.0014247108410361446 -0.0040668472671502613 -0.0041581080220639702 0.053384909779800996 0.017208299805383079 0.016168045161558939 -0.0048093639971561204 0.0085636984456182088 -0.00013371344462931772 -0.0016373630046855503 0.0065613538335302351 -0.0018447776947353427 -0.0050671329948744626
leaf_weight=3087 48466 61985 6994 15750 385 1030 1793 9329 1581 7245 4056 49079 6537 316
leaf_count=3087 48466 61985 6994 15750 385 1030 1793 9329 1581 7245 4056 49079 6537 316
internal_value=0 0.00110663 0.00257054 -0.00173781 0.00348917 -0.00133587 0.00397118 -0.000184055 -0.00287143 0.0047518 0.00533808 0.00584046 0.000952289 0.0270356
internal_weight=0 169167 107182 18837 88345 8024 80321 12703 10910 67618 60373 56317 7238 701
internal_count=217633 169167 107182 18837 88345 8024 80321 12703 10910 67618 60373 56317 7238 701
shrinkage=0.15


Tree=2
num_leaves=15
num_cat=0
split_feature=3 14 4 4 23 3 23 3 34 19 25 33 3 34
split_gain=36.4657 53.1255 22.1561 26.206 20.4106 78.3457 20.2747 14.3678 9.90605 14.6487 9.80769 8.81429 8.66539 7.12654
threshold=-5.9424999999999999 0.0052402850000000008 -0.96577349999999995 0.92173400000000016 -15.570249999999998 -15.512049999999999 -17.487949999999994 -15.512049999999999 0.78160050000000014 0.00028840800000000003 1.1738050000000002 4.0148700000000011e-05 -17.304849999999998 0.74623100000000009
decision_type=2 2 2 2 2 2 2 2 2 2 2 2 2 2
left_child=1 2 -1 4 5 6 12 -6 -3 11 -8 -10 -4 -9
right_child=-2 8 3 -5 7 -7 10 13 9 -11 -12 -13 -14 -15
leaf_value=-0.0038149216445965755 -0.0040003088539780829 -0.0034844045040665099 0.056019718671162233 -0.0038067634378457743 -0.0043441492496047807 -0.0046931375964198961 0.077000081927786651 0.0058403407120213137 0.032924962027118795 -4.7722747645962074e-06 0.01903194793396526 0.0012289499914084996 0.0047191881306683841 0.00067648003098524012
leaf_weight=10440 41496 51271 101 10203 3536 11499 347 74535 526 6463 81 316 278 6541
leaf_count=10440 41496 51271 101 10203 3536 11499 347 74535 526 6463 81 316 278 6541
internal_value=0 0.00094243 0.00278128 0.00342414 0.00418537 -0.0015225 0.0436562 0.00501553 -0.0027481 0.00241972 0.0660295 0.0210295 0.0183903 0.00542373
internal_weight=0 176137 117561 107121 96918 12306 807 84612 58576 7305 428 842 379 81076
internal_count=217633 176137 117561 107121 96918 12306 807 84612 58576 7305 428 842 379 81076
shrinkage=0.15


Tree=3
num_leaves=15
num_cat=0
split_feature=3 14 18 18 34 14 23 3 24 18 38 19 34 14
split_gain=26.5017 39.8744 13.3384 15.7632 20.4885 16.9496 12.2438 29.8517 11.0259 8.68206 32.8529 8.56415 8.11931 29.8597
threshold=-6.0822949999999993 0.0052402850000000008 0.00010488150000000002 -0.00015207299999999999 0.26111200000000007 0.00062385550000000004 -6.1631349999999996 -5.8349799999999989 0.47421050000000003 -2.1309099999999999e-05 0.00099247700000000007 5.4017350000000006e-05 0.088735750000000016 0.00074095750000000005
decision_type=2 2 2 2 2 2 2 2 2 2 2 2 2 2
left_child=1 2 3 -1 9 -6 -2 -8 -4 10 -5 -10 -11 -14
right_child=6 -3 8 4 5 -7 7 -9 11 12 -12 -13 13 -15
leaf_value=-0.0022214322414115259 -0.0036940126055507584 -0.0023318677018113938 -0.0038188873653399076 -0.0041581631123167343 -0.0038638207579677194 0.0050941446938492863 0.045517605108045443 -0.001540405470373332 0.038751016086381346 0.0063954475108670113 0.019923506796205782 0.0054220513170045908 -0.0023098507629626735 0.014121606258806551
leaf_weight=11377 44022 58377 10511 6775 12654 7611 393 1329 216 49300 1570 881 9207 3410
leaf_count=11377 44022 58377 10511 6775 12654 7611 393 1329 216 49300 1570 881 9207 3410
internal_value=0 0.000853903 0.00249228 0.00304107 0.00370244 -0.000499445 -0.00320865 0.00919931 -0.0023254 0.00491435 0.000372481 0.0119845 0.00552649 0.00213108
internal_weight=0 171889 113512 101904 90527 20265 45744 1722 11608 70262 8345 1097 61917 12617
internal_count=217633 171889 113512 101904 90527 20265 45744 1722 11608 70262 8345 1097 61917 12617
shrinkage=0.15


Tree=4
num_leaves=15
num_cat=0
split_feature=3 14 4 4 23 3 14 30 16 23 3 23 3 3
split_gain=19.2308 30.2423 14.8899 17.9027 11.3285 25.1546 6.94663 10.2815 7.83046 5.95621 24.2637 5.99357 53.7292 5.73828
threshold=-6.1122599999999991 0.0094046000000000025 -1.2236799999999997 0.92173400000000016 -6.2136699999999996 -5.8349799999999989 0.00020237850000000003 0.0005590625000000001 4.4267150000000007e-07 -6.1917699999999991 -6.3035799999999993 -17.075499999999995 -16.724049999999995 -16.724049999999995
decision_type=2 2 2 2 2 2 2 2 2 2 2 2 2 2
left_child=1 2 -1 9 -2 6 7 -6 -9 11 -11 12 -4 -13
right_child=4 -3 3 -5 5 -7 -8 8 -10 10 -12 13 -14 -15
leaf_value=-0.003055039175388003 -0.003210458370557244 -0.0025028401629649025 0.049478630866781857 -0.0026654198867218475 0.063651048503181137 -0.0010362891200814616 0.0033257497687424931 -0.0048676134851532724 0.095391576630728586 -0.0060764950567855315 0.044090297223662894 -0.0028269818477074412 -0.0035508440634792445 0.0040084186089832585
leaf_weight=12009 44497 47027 456 13291 264 1616 105 106 21 3338 232 2857 7508 84306
leaf_count=12009 44497 47027 456 13291 264 1616 105 106 21 3338 232 2857 7508 84306
internal_value=0 0.000736096 0.00196449 0.00250276 -0.00270098 0.008033 0.0375813 0.0467804 0.0117107 0.00319873 -0.00281636 0.00342447 -0.0005145 0.00378437
internal_weight=0 171024 123997 111988 46609 2112 496 391 127 98697 3570 95127 7964 87163
internal_count=217633 171024 123997 111988 46609 2112 496 391 127 98697 3570 95127 7964 87163
shrinkage=0.15


Tree=5
num_leaves=15
num_cat=0
split_feature=3 13 4 4 38 4 33 13 4 17 37 38 13 4
split_gain=14.0457 22.1906 11.7712 13.3428 4.14186 5.00176 3.15309 21.7714 6.98287 5.60943 8.1695 5.50782 6.0964 5.15794
threshold=-6.1381299999999994 0.00010253600000000001 -1.2236799999999997 1.1140750000000001 -0.16375499999999996 2.2381350000000002 -4.3624849999999993e-05 5.0947250000000009e-05 0.30999400000000005 5.657635000000001e-07 8.6219650000000009e-07 -0.012802049999999997 1.4757950000000002e-05 0.38724300000000006
decision_type=2 2 2 2 2 2 2 2 2 2 2 2 2 2
left_child=1 2 -1 6 5 -5 7 8 -4 -9 -11 12 -10 -8
right_child=-2 -3 3 4 -6 -7 13 9 11 10 -12 -13 -14 -15
leaf_value=-0.0024813175009233066 -0.002281639543099435 -0.0023398932579348892 -0.0040908792994286932 0.033923569695370921 -0.002774541748585979 -0.00057458476182453483 0.0033375116903888017 0.016729651711077664 0.0055571880063681458 -0.0041370022699307157 0.06425513137242217 -0.0052907907106310038 0.036654726944000619 -0.00047173770766726746
leaf_weight=14005 47466 42339 6622 154 13029 245 83340 459 335 53 152 341 246 8847
leaf_count=14005 47466 42339 6622 154 13029 245 83340 459 335 53 152 341 246 8847
internal_value=0 0.000636435 0.00162225 0.00212716 -0.00231353 0.0127405 0.00272111 -9.61029e-05 -0.00238802 0.0259434 0.0465733 0.00984226 0.0187241 0.00297195
internal_weight=0 170167 127828 113823 13428 399 100395 8208 7544 664 205 922 581 92187
internal_count=217633 170167 127828 113823 13428 399 100395 8208 7544 664 205 922 581 92187
shrinkage=0.15


Tree=6
num_leaves=15
num_cat=0
split_feature=13 7 14 34 20 9 14 31 20 20 11 20 11 5
split_gain=9.93379 6.4572 3.84054 17.9961 5.19942 17.1549 9.74949 6.65057 5.89732 5.17554 30.648 8.45454 24.838 4.29967
threshold=0.00011098700000000001 5.7322200000000012e-05 7.5703150000000014e-05 0.0053646400000000012 9.6119850000000024 2.7541700000000004e-05 0.00030621600000000005 -0.41665649999999993 10.210350000000002 8.4896800000000017 8.0872300000000015e-06 -7.2112649999999991 -7.0053649999999991e-06 1.0934400000000002e-05
decision_type=2 2 2 2 2 2 2 2 2 2 2 2 2 2
left_child=1 2 3 9 -4 -6 8 -8 -7 11 -11 12 13 -1
right_child=-2 -3 4 -5 5 6 7 -9 -10 10 -12 -13 -14 -15
leaf_value=0.072357269270626245 -0.0020580394476202887 -0.00095595373627881759 0.0017548995809797982 -0.0023489588153317543 -0.0058117937926538488 0.053165500872257285 0.020118882397901244 -0.0055481421382525204 0.0180102805664706 -0.0041208335619650031 0.066223190779753 -1.3644656912667517e-05 -0.0025064294776206632 0.03589068286120891
leaf_weight=146 42472 49310 96106 18990 6396 133 322 771 557 356 229 1268 432 145
leaf_count=146 42472 49310 96106 18990 6396 133 322 771 557 356 229 1268 432 145
internal_value=0 0.000499021 0.0010691 -0.000753056 0.00144592 -0.00218472 0.0108264 0.00201341 0.0247866 0.0110118 0.0234155 0.00736727 0.0203119 0.0541866
internal_weight=0 175161 125851 21566 104285 8179 1783 1093 690 2576 585 1991 723 291
internal_count=217633 175161 125851 21566 104285 8179 1783 1093 690 2576 585 1991 723 291
shrinkage=0.15


Tree=7
num_leaves=15
num_cat=0
split_feature=4 4 14 34 34 14 5 14 4 4 26 34 20 11
split_gain=7.9808 11.6311 7.30344 28.9575 12.3069 24.7151 7.16304 11.5292 8.11581 7.96754 11.135 8.44623 7.0656 11.6197
threshold=-1.4177149999999996 1.2260050000000002 9.9284450000000011e-05 0.008054625000000001 0.0056110350000000012 0.00016362750000000005 2.1933250000000002e-05 4.9478950000000008e-05 0.10079300000000001 -0.091932049999999987 8.5627500000000006e-05 0.0041368300000000011 11.260050000000001 8.5222450000000026e-06
decision_type=2 2 2 2 2 2 2 2 2 2 2 2 2 2
left_child=-1 2 3 6 5 -4 7 12 9 10 -9 -11 -2 -14
right_child=1 -3 4 -5 -6 -7 -8 8 -10 11 -12 -13 13 -15
leaf_value=-0.0020919629503541389 0.00016866814294141109 -0.001966388024048759 0.011102912276778707 -0.0025703564447480997 0.0022661537461435622 -0.0061046129798342742 0.00011570798997899561 -0.0020749536243312178 0.00045134869478518974 0.035314747658904286 0.060203626128679064 0.01574605405156811 -0.0043165137780866083 0.069078763544170571
leaf_weight=34523 2247 37372 2322 33948 91836 9823 2119 561 601 888 73 1125 104 91
leaf_count=34523 2247 37372 2322 33948 91836 9823 2119 561 601 888 73 1125 104 91
internal_value=0 0.000394412 0.000999799 -0.000675842 0.00167271 -0.00281471 0.00756016 0.0103325 0.0161872 0.01976 0.00509592 0.0243784 0.00254556 0.0299346
internal_weight=0 183110 145738 41757 103981 12145 7809 5690 3248 2647 634 2013 2442 195
internal_count=217633 183110 145738 41757 103981 12145 7809 5690 3248 2647 634 2013 2442 195
shrinkage=0.15


Tree=8
num_leaves=15
num_cat=0
split_feature=3 23 3 16 14 23 23 3 23 3 14 3 23 34
split_gain=8.42892 19.7622 37.521 10.7557 9.78799 79.3569 43.0171 34.4448 40.3574 33.468 35.0626 19.4393 19.0282 19.8196
threshold=-6.2498799999999992 -6.3165649999999989 -5.8866849999999991 -2.2734799999999998e-07 0.0006072295000000001 -10.484749999999998 -9.8328599999999984 -10.389699999999999 -12.104349999999998 -10.010399999999999 0.012437950000000001 -10.550799999999997 -6.2906249999999995 0.11922750000000001
decision_type=2 2 2 2 2 2 2 2 2 2 2 2 2 2
left_child=4 -2 3 -3 5 7 9 8 -1 10 -6 -7 13 -13
right_child=1 2 -4 -5 6 11 -8 -9 -10 -11 -12 12 -14 -15
leaf_value=-0.0016718909577340694 -0.0024550528755368419 0.001296062375384769 -0.00034434368623584565 0.043849676353740832 0.009367646340472666 -0.0081653557541802174 -0.0030887939655179653 -0.0067630209814540342 0.046355685928653252 -0.0024251041371229913 -0.00056659164394980079 0.010142413027695226 -0.004677189320321691 -0.00049960195724443413
leaf_weight=1110 47681 164 2306 722 21107 1905 58609 19927 610 17793 12867 25489 2686 4657
leaf_count=1110 47681 164 2306 722 21107 1905 58609 19927 610 17793 12867 25489 2686 4657
internal_value=0 -0.00169012 0.0097362 0.0359729 0.0005156 0.00212347 -0.000305759 -0.00500511 0.0153611 0.00284511 0.00560524 0.00656578 0.00742052 0.00849842
internal_weight=0 50873 3192 886 166760 56384 110376 21647 1720 51767 33974 34737 32832 30146
internal_count=217633 50873 3192 886 166760 56384 110376 21647 1720 51767 33974 34737 32832 30146
shrinkage=0.15


Tree=9
num_leaves=15
num_cat=0
split_feature=4 4 0 20 0 23 1 1 0 1 22 23 22 1
split_gain=4.27089 6.16874 2.06357 17.4522 11.505 7.93463 3.43768 4.11269 2.17282 2.46604 15.9293 40.645 30.9152 24.7333
threshold=-1.4177149999999996 1.4356200000000003 11.310300000000002 11.805850000000001 12.687350000000002 -6.9680999999999989 -5.6723049999999988 4.0135700000000005 -12.275299999999998 -10.060549999999997 -0.96010649999999986 -7.5179349999999987 -2.0787749999999998 -12.647449999999997
decision_type=2 2 2 2 2 2 2 2 2 2 2 2 2 2
left_child=-1 2 8 -4 5 -5 -7 -8 -2 10 11 -10 -13 -14
right_child=1 -3 3 4 -6 6 7 -9 9 -11 -12 12 13 -15
leaf_value=-0.0015303462590019643 -0.001662499057276117 -0.0014812925309187319 -0.0025961913996972639 0.0044361304008524935 0.0043640038825545173 0.01567280416909073 0.094247579092804637 0.026489277153275908 -0.0030443852779179974 0.0012557281096487228 -0.0042568033780321819 -0.0023960229825395383 0.0053778709764154544 0.052969394496176388
leaf_weight=34523 7218 35678 9884 53 212 21 104 25 3857 113977 10275 636 351 819
leaf_count=34523 7218 35678 9884 53 212 21 104 25 3857 113977 10275 636 351 819
internal_value=0 0.000288527 0.000716816 -0.00133094 0.0288034 0.0543262 0.0719541 0.0811161 0.000870608 0.00101135 -0.0007363 0.00565133 0.0242224 0.0386919
internal_weight=0 183110 147432 10299 415 203 150 129 137133 129915 15938 5663 1806 1170
internal_count=217633 183110 147432 10299 415 203 150 129 137133 129915 15938 5663 1806 1170
shrinkage=0.15


Tree=10
num_leaves=15
num_cat=0
split_feature=4 4 24 4 14 23 23 14 1 27 1 21 27 0
split_gain=3.08572 4.46983 3.37421 5.76355 2.78356 26.4419 15.1353 19.5664 9.92672 9.32597 8.83281 9.94576 7.90347 11.6896
threshold=-1.4177149999999996 1.2260050000000002 1.0406250000000001 2.4974650000000005 0.00011358100000000001 -7.1806249999999991 -7.1806249999999991 0.00020775150000000003 10.481450000000002 0.83807700000000007 -10.060549999999997 -9.8496499999999987 2.8951050000000005 9.0369550000000007
decision_type=2 2 2 2 2 2 2 2 2 2 2 2 2 2
left_child=-1 4 -3 -4 5 -2 8 -8 10 -7 11 -6 -9 -14
right_child=1 2 3 -5 6 9 7 12 -10 -11 -12 -13 13 -15
leaf_value=-0.001300794327118936 -0.002319120192247249 -0.001444814872748935 0.026467573714431966 0.00022649814770238038 0.023897917971911497 0.0091182989075695355 0.0059827382934819996 -0.006502764491157699 -0.005093841534351622 -0.0001600251055826765 0.0028919012664823146 -0.0051231978305012948 -0.0001783530427908457 0.042114733455762748
leaf_weight=34523 35691 36451 264 657 281 7432 4760 13395 4156 3627 68497 4880 2864 155
leaf_count=34523 35691 36451 264 657 281 7432 4760 13395 4156 3627 68497 4880 2864 155
internal_value=0 0.000245248 -0.00121826 0.00774837 0.000620538 -0.000333368 0.00107105 -0.00248464 0.00203859 0.0060753 0.00244102 -0.00354309 -0.00494015 0.00199304
internal_weight=0 183110 37372 921 145738 46750 98988 21174 77814 11059 73658 5161 16414 3019
internal_count=217633 183110 37372 921 145738 46750 98988 21174 77814 11059 73658 5161 16414 3019
shrinkage=0.15


Tree=11
num_leaves=15
num_cat=0
split_feature=3 14 34 34 4 4 14 19 33 33 14 3 27 27
split_gain=4.52006 4.59626 40.865 23.8203 14.8516 18.6509 9.58546 8.55398 61.5235 21.8369 22.0313 24.5295 23.5405 11.8076
threshold=-6.2498799999999992 0.0006614075000000002 0.043039550000000003 0.034418900000000009 0.22843500000000003 -0.20288699999999996 0.00027515900000000003 3.7476600000000006e-05 3.8815300000000013e-06 7.3721900000000005e-06 0.0061666100000000003 -11.392199999999997 0.71630700000000014 0.86747050000000014
decision_type=2 2 2 2 2 2 2 2 2 2 2 2 2 2
left_child=1 2 4 -3 5 -1 -4 8 13 -9 11 12 -11 -5
right_child=-2 3 6 7 -6 -7 -8 9 -10 10 -12 -13 -14 -15
leaf_value=-0.0036563080400119977 -0.0012376655459762568 -0.0027845691880550453 -0.0047995045048086632 0.020629853884173151 -0.004960476079584308 0.0080354324696085087 0.00071493707967230707 -0.0019264349141470333 -0.0069077652084690933 0.032952186795897037 0.00051150943162495805 0.0032783019104752125 0.0088008730802269213 0.0085952180697132265
leaf_weight=3540 50873 46102 17196 3371 2822 23117 12071 28014 5464 1645 12640 4727 2027 4024
leaf_count=3540 50873 46102 17196 3371 2822 23117 12071 28014 5464 1645 12640 4727 2027 4024
internal_value=0 0.000377571 0.00144539 -0.000203189 0.00538734 0.00648279 -0.00252511 0.001719 0.00516264 0.000816272 0.00446826 0.0104229 0.0196203 0.0140812
internal_weight=0 166760 58746 108014 29479 26657 29267 61912 12859 49053 21039 8399 3672 7395
internal_count=217633 166760 58746 108014 29479 26657 29267 61912 12859 49053 21039 8399 3672 7395
shrinkage=0.15


Tree=12
num_leaves=15
num_cat=0
split_feature=3 23 3 16 16 30 16 23 3 14 23 3 23 3
split_gain=3.26574 11.0679 24.4743 7.18395 5.90882 5.42703 8.23817 4.14572 5.67394 4.34625 56.9974 34.8773 41.2388 29.212
threshold=-6.2498799999999992 -6.2906249999999995 -5.8866849999999991 -4.5891699999999995e-07 1.8103350000000003e-05 0.0013021900000000002 4.4267150000000007e-07 -6.2906249999999995 -6.3281449999999984 0.0006072295000000001 -10.016399999999999 -10.05805 -12.0435 -10.010399999999999
decision_type=2 2 2 2 2 2 2 2 2 2 2 2 2 2
left_child=7 -2 3 -3 5 -5 -7 9 -9 10 11 12 -1 -12
right_child=1 2 -4 4 -6 6 -8 8 -10 -11 13 -13 -14 -15
leaf_value=-0.0030287887314890388 -0.0016054779211998192 -0.0068158365305182383 -0.00067687134734914565 0.045493145364847949 -0.0099152020621495179 -0.012696548449175973 0.069436873352298367 -0.0034258105110115517 0.025355473040417038 -6.7530263301987214e-05 -0.0089813326099628821 -0.0059263564614859222 0.035723767800330847 0.0074149639556862178
leaf_weight=1533 47877 107 2155 541 61 93 39 8389 157 104672 2686 21056 1035 27232
leaf_count=1533 47877 107 2155 541 61 93 39 8389 157 104672 2686 21056 1035 27232
internal_value=0 -0.00105202 0.00779248 0.0294946 0.0347878 0.0388396 0.0115701 0.000320935 -0.00289706 0.000494757 0.001594 -0.00391358 0.0125899 0.00594293
internal_weight=0 50873 2996 841 734 673 132 166760 8546 158214 53542 23624 2568 29918
internal_count=217633 50873 2996 841 734 673 132 166760 8546 158214 53542 23624 2568 29918
shrinkage=0.15


Tree=13
num_leaves=15
num_cat=0
split_feature=4 4 39 4 38 4 38 4 4 4 23 19 37 38
split_gain=1.35115 1.77676 1.15095 19.6331 51.5809 28.0715 47.3317 9.01983 8.75385 11.351 6.10174 5.91885 8.80073 4.76194
threshold=-2.2825899999999995 1.6545300000000001 0.00017074050000000002 -0.26752999999999993 0.0032364300000000006 0.25797000000000009 -0.0030026649999999994 -1.4177149999999996 -0.30706199999999995 0.30999400000000005 -14.455649999999997 0.0036753050000000002 8.6219650000000009e-07 -0.0011540049999999998
decision_type=2 2 2 2 2 2 2 2 2 2 2 2 2 2
left_child=-1 2 8 4 -4 -5 -7 -6 -2 -10 11 -9 -13 -11
right_child=1 -3 3 5 7 6 -8 10 9 13 -12 12 -14 -15
leaf_value=-0.00096329861081130216 -0.0029314101278430037 -0.00083739015744059119 -0.00522467431544633 -0.0026813333942261623 0.0048781519663751542 0.020407736159055296 -0.0052777365888405934 0.0076006803107784137 0.0013544938313637825 0.0036311816062768853 0.026519354225614914 -0.0051879109349101784 0.073184112146263941 -0.0043848417147050109
leaf_weight=28475 17897 33981 3661 26921 806 3429 3050 821 82068 1936 2434 54 80 12020
leaf_count=28475 17897 33981 3661 26921 806 3429 3050 821 82068 1936 2434 54 80 12020
internal_value=0 0.000145011 0.000360139 0.00103898 0.00778604 -0.000547998 0.00831626 0.0191406 0.000114301 0.000681963 0.0225326 0.0123715 0.0416014 -0.00327285
internal_weight=0 189158 155177 41256 7856 33400 6479 4195 113921 96024 3389 955 134 13956
internal_count=217633 189158 155177 41256 7856 33400 6479 4195 113921 96024 3389 955 134 13956
shrinkage=0.15


Tree=14
num_leaves=15
num_cat=0
split_feature=3 23 3 14 23 3 23 16 23 3 23 14 14 30
split_gain=2.50128 9.42824 21.5084 6.34548 4.69722 4.20168 4.22413 3.63429 3.54048 8.89035 4.4269 3.36542 3.10262 2.94346
threshold=-6.2768299999999995 -6.3408649999999991 -5.9118649999999997 0.00042154700000000003 -5.9629699999999994 -6.0822949999999993 -6.1298999999999984 -3.6020549999999995e-07 -6.3408649999999991 -6.3853549999999988 -6.2136699999999996 0.00017734350000000003 0.0023568750000000005 0.0050404700000000009
decision_type=2 2 2 2 2 2 2 2 2 2 2 2 2 2
left_child=8 -2 3 4 5 7 -7 -3 -1 12 11 -11 -10 -9
right_child=1 2 -4 -5 -6 6 -8 13 9 10 -12 -13 -14 -15
leaf_value=0.00045716465915010676 -0.0014534030826121494 0.00012311875984510954 -0.00053728463388288646 -0.00050944634167371329 0.0031342261047525837 0.0030344201373264617 0.039958520647413377 0.05514004757172275 -0.0058037790964924861 0.062053084337316891 0.0078141603100336902 0.0012635999330086634 -0.00037433784054821819 -0.0015644349708137187
leaf_weight=156150 48259 34 2530 166 110 131 149 323 5006 85 147 27 4494 22
leaf_count=156150 48259 34 2530 166 110 131 149 323 5006 85 147 27 4494 22
internal_value=0 -0.000910749 0.0066471 0.0260872 0.0318285 0.0366181 0.0226833 0.0469129 0.000283936 -0.00248782 0.0249317 0.0473985 -0.00323537 0.0515241
internal_weight=0 51724 3465 935 769 659 280 379 165909 9759 259 112 9500 345
internal_count=217633 51724 3465 935 769 659 280 379 165909 9759 259 112 9500 345
shrinkage=0.15


Tree=15
num_leaves=15
num_cat=0
split_feature=3 14 34 34 4 4 24 24 18 4 24 34 18 4
split_gain=1.80849 2.14189 28.5692 16.4619 11.2717 13.6601 11.5828 11.2777 7.55091 6.25881 15.7962 13.1563 8.66224 8.04651
threshold=-6.3281449999999984 0.00048450950000000005 0.029848650000000001 0.026009600000000004 0.17832100000000004 -0.17035599999999998 0.16260300000000003 -0.14719649999999998 -7.1994299999999988e-06 -0.15814399999999998 -0.19886199999999996 0.06995460000000002 -1.9113899999999997e-05 0.17221800000000004
decision_type=2 2 2 2 2 2 2 2 2 2 2 2 2 2
left_child=1 2 4 -3 5 7 -6 8 -1 10 11 12 -4 -11
right_child=-2 3 9 -5 6 -7 -8 -9 -10 13 -12 -13 -14 -15
leaf_value=0.0017036408073424049 -0.00075798032628467517 -0.002384108454942223 -0.0035485867277651757 0.0012973567862104524 -0.0075902395079402362 0.0081057749151065561 0.029848683007999682 -0.0070214874152262725 0.047108448274727717 -0.0044014436527758374 -0.0047935239530814558 0.0072771005831311318 0.0516038572568168 0.0032368733551327296
leaf_weight=180 53435 44101 83 71859 2211 16088 203 2378 152 18943 2489 1519 281 3711
leaf_count=180 53435 44101 83 71859 2211 16088 203 2378 152 18943 2489 1519 281 3711
internal_value=0 0.00024667 0.00108664 -0.000102749 0.0052071 0.0064462 -0.0044419 -0.00340589 0.0224914 -0.0021474 0.00304872 0.0134148 0.0390279 -0.00315019
internal_weight=0 164198 48238 115960 21212 18798 2414 2710 332 27026 4372 1883 364 22654
internal_count=217633 164198 48238 115960 21212 18798 2414 2710 332 27026 4372 1883 364 22654
shrinkage=0.15


Tree=16
num_leaves=15
num_cat=0
split_feature=3 23 3 16 16 0 30 4 4 3 23 23 3 23
split_gain=1.31532 6.81191 15.6086 4.54583 4.9748 4.50207 3.2703 6.72188 3.069 2.52103 2.46588 2.46002 6.36192 3.19911
threshold=-6.2768299999999995 -6.3408649999999991 -5.8866849999999991 -2.2734799999999998e-07 1.2394850000000002e-05 12.402900000000001 0.0013021900000000002 0.18414250000000001 0.23858300000000002 -6.0545599999999995 -6.4717399999999996 -6.3408649999999991 -6.3853549999999988 -6.2136699999999996
decision_type=2 2 2 2 2 2 2 2 2 2 2 2 2 2
left_child=11 9 3 -3 5 6 8 -8 -5 10 -2 -1 -13 -14
right_child=1 2 -4 4 -6 -7 7 -9 -10 -11 -12 12 13 -15
leaf_value=0.00035029622606851563 -0.0044908442660138688 1.1211436791806287e-05 -0.00063954665971031281 0.040757860097593815 -0.0071377195544106604 -0.01447473238915839 -0.0035509529196270655 0.08934051065838762 -0.016411209114911882 -0.00070413377038689156 0.012120878494479169 -0.0027369062872749138 0.040189249710497928 0.0065390129982284741
leaf_weight=156150 6026 180 2467 533 89 47 106 21 22 42025 208 9500 112 147
leaf_count=156150 6026 180 2467 533 89 47 106 21 22 42025 208 9500 112 147
internal_value=0 -0.00066044 0.00576373 0.0215923 0.0263412 0.0304284 0.0335229 0.0118091 0.0384917 -0.0011217 -0.00393659 0.000205899 -0.00210454 0.0210905
internal_weight=0 51724 3465 998 818 729 682 127 555 48259 6234 165909 9759 259
internal_count=217633 51724 3465 998 818 729 682 127 555 48259 6234 165909 9759 259
shrinkage=0.15


Tree=17
num_leaves=15
num_cat=0
split_feature=4 3 23 3 23 14 23 3 23 14 14 4 24 4
split_gain=0.999937 1.5358 8.18026 20.6863 5.38243 6.58138 4.23968 19.9799 12.5608 6.53405 4.07088 3.86814 4.38583 8.23867
threshold=-2.2825899999999995 -6.3281449999999984 -6.4159099999999993 -6.0545599999999995 -6.1069649999999989 0.00015258600000000005 -6.4487099999999993 -6.4680349999999995 -6.3408649999999991 0.00040792350000000004 0.00068334050000000012 0.85613250000000007 0.82179550000000012 2.2381350000000002
decision_type=2 2 2 2 2 2 2 2 2 2 2 2 2 2
left_child=-1 6 -3 4 5 -4 11 10 9 -9 -8 -2 -13 -14
right_child=1 2 3 -5 -6 -7 7 8 -10 -11 -12 12 13 -15
leaf_value=-0.00082869666813256248 0.0011342464563743604 -0.0011409586734452664 0.042250327655929142 0.00053137618569044671 0.0071456074415099241 0.0053894647235791402 -0.0073178641260912688 0.07787079176605613 0.0090460318748228023 -0.0020681476428373049 -0.0013203691266042131 -0.0011070842171006241 0.025248961454058926 0.00013063425010194626
leaf_weight=28475 92682 47453 480 3477 233 141 4154 129 240 28 6580 32130 413 1018
leaf_count=28475 92682 47453 480 3477 233 141 4154 129 240 28 6580 32130 413 1018
internal_value=0 0.000124748 -0.000571399 0.00566904 0.0265866 0.033881 0.000387165 -0.00241919 0.0306259 0.0636142 -0.00364137 0.000634605 -0.000745205 0.00738002
internal_weight=0 189158 51784 4331 854 621 137374 11131 397 157 10734 126243 33561 1431
internal_count=217633 189158 51784 4331 854 621 137374 11131 397 157 10734 126243 33561 1431
shrinkage=0.15


Tree=18
num_leaves=15
num_cat=0
split_feature=3 23 3 23 14 3 3 23 23 23 3 23 14 14
split_gain=0.777541 11.8448 29.8837 9.44403 10.4959 6.85955 5.59295 7.0356 5.15092 4.84833 14.3591 11.7002 6.59619 5.7432
threshold=-6.4440149999999994 -6.551404999999999 -6.1381299999999994 -6.1631349999999996 0.00039548800000000005 -6.0822949999999993 -6.2498799999999992 -6.2906249999999995 -6.3575049999999989 -6.5700849999999997 -6.572074999999999 -6.3908299999999993 0.00014473050000000001 0.0022836250000000005
decision_type=2 2 2 2 2 2 2 2 2 2 2 2 2 2
left_child=9 5 3 4 6 -2 7 -3 -8 -1 13 12 -12 -11
right_child=1 2 -4 -5 -6 -7 8 -9 -10 10 11 -13 -14 -15
leaf_value=0.00044893391073598673 -0.0048537694473219095 0.061045485660247506 0.00048542479565144185 0.0047004291326521808 0.00042056026352822712 -0.00039768143907381939 0.0012763958960225082 0.018202306233849542 0.042692605855272098 -0.0058012084395876974 0.067557223089305424 0.0014698236574483244 0.017262589553498436 -0.00014530689357812384
leaf_weight=144092 9596 375 5078 337 171 40907 121 112 153 8283 140 282 101 7885
leaf_count=144092 9596 375 5078 337 171 40907 121 112 153 8283 140 282 101 7885
internal_value=0 -0.00047681 0.0056307 0.0262199 0.0340011 -0.00124438 0.0415468 0.0511924 0.024403 0.000168592 -0.00225158 0.0222104 0.0464794 -0.00304287
internal_weight=0 56850 6347 1269 932 50503 761 487 274 160783 16691 523 241 16168
internal_count=217633 56850 6347 1269 932 50503 761 487 274 160783 16691 523 241 16168
shrinkage=0.15


Tree=19
num_leaves=15
num_cat=0
split_feature=4 3 23 3 23 14 23 3 4 3 23 4 3 23
split_gain=0.782062 1.04689 19.1331 39.7539 16.214 15.6813 11.2299 9.9016 4.77559 5.00191 9.55727 4.55654 4.48802 4.79748
threshold=-2.6848399999999994 -6.6271099999999992 -6.6921149999999994 -6.1920449999999994 -6.2663199999999994 0.00040792350000000004 -6.6921149999999994 -6.1122599999999991 0.57692800000000011 -6.749814999999999 -6.6111549999999992 0.85613250000000007 -6.3035799999999993 -6.3908299999999993
decision_type=2 2 2 2 2 2 2 2 2 2 2 2 2 2
left_child=-1 6 7 4 5 12 11 -3 9 -8 -11 -2 -4 -14
right_child=1 2 3 -5 -6 -7 8 -9 -10 10 -12 -13 13 -15
leaf_value=-0.00077370704882503505 0.0014407482000905283 -0.0051695083613347431 0.045732658197114043 0.00038622830415855009 0.0043550912950135702 0.00050235427471437928 -0.0056071642930112416 -0.00033040594002054906 0.00054178773885801596 0.059526733819726167 -0.00010495077687686589 -0.00069358302976284356 0.0066061256476010605 0.046350697538823135
leaf_weight=25897 83855 12520 892 6537 642 271 11006 39624 4977 76 296 30762 157 121
leaf_count=25897 83855 12520 892 6537 642 271 11006 39624 4977 76 296 30762 157 121
internal_value=0 0.000104501 -0.000410082 0.00613643 0.0241821 0.0330155 0.000343241 -0.0014923 -0.00333372 -0.00502896 0.0120779 0.000867916 0.0405463 0.023905
internal_weight=0 191736 60764 8620 2083 1441 130972 52144 16355 11378 372 114617 1170 278
internal_count=217633 191736 60764 8620 2083 1441 130972 52144 16355 11378 372 114617 1170 278
shrinkage=0.15


Tree=20
num_leaves=15
num_cat=0
split_feature=39 19 19 33 13 33 18 17 37 17 23 24 13 14
split_gain=0.662696 4.82648 6.13225 12.0542 7.65842 4.54153 4.39582 8.10641 12.3795 6.8284 6.59357 5.47111 5.18438 6.31434
threshold=0.00017074050000000002 4.9230750000000014e-07 3.7476600000000006e-05 9.148070000000001e-06 1.7314450000000005e-05 9.148070000000001e-06 -5.6742149999999992e-06 -3.1052299999999995e-06 2.3615050000000003e-08 8.1566050000000012e-06 -14.361299999999998 -0.28392899999999993 -2.1361299999999998e-05 0.00062385550000000004
decision_type=2 2 2 2 2 2 2 2 2 2 2 2 2 2
left_child=-1 -2 3 4 -3 -4 7 -7 -9 10 -10 -8 13 -13
right_child=1 2 5 -5 -6 6 11 8 9 -11 -12 12 -14 -15
leaf_value=-0.0001578308366814628 -0.0019935086757638695 0.0032605343879610229 -0.0011456112866279182 -0.0018268517985417486 0.016154464236589179 0.0001140828026819296 -0.002142513051450259 -0.0015909544848293584 0.0054041410295778752 0.0081848050935175703 0.031687793740931773 0.0014657948554224641 0.00178597176928098 0.027880834844922486
leaf_weight=159603 13986 1865 19609 3171 2333 3566 6962 1237 286 1000 862 379 2334 440
leaf_count=159603 13986 1865 19609 3171 2333 3566 6962 1237 286 1000 862 379 2334 440
internal_value=0 0.000434091 0.00120497 0.00515352 0.0104262 0.000411593 0.00220084 0.00510489 0.0103626 0.0172464 0.0251398 0.000205179 0.00538901 0.015657
internal_weight=0 58030 44044 7369 4198 36675 17066 6951 3385 2148 1148 10115 3153 819
internal_count=217633 58030 44044 7369 4198 36675 17066 6951 3385 2148 1148 10115 3153 819
shrinkage=0.15


Tree=21
num_leaves=15
num_cat=0
split_feature=22 2 4 24 4 3 26 7 23 4 24 3 4 24
split_gain=0.633425 9.03277 0.659959 10.8978 18.4658 3.60525 7.39933 2.81645 2.28478 1.57959 3.35827 1.61927 1.77994 1.48618
threshold=-3.0952799999999994 -3.0230999999999995 -0.63345599999999991 -0.69216099999999992 -1.5283549999999997 -7.0757599999999989 -0.028182349999999998 3.9505800000000004e-05 -18.759599999999995 -1.4177149999999996 -0.55446799999999985 -8.0805899999999991 -1.0433649999999999 -0.82277699999999998
decision_type=2 2 2 2 2 2 2 2 2 2 2 2 2 2
left_child=1 -1 3 4 -2 7 -7 -6 -9 -5 11 12 -11 -4
right_child=2 -3 13 9 5 6 -8 8 -10 10 -12 -13 -14 -15
leaf_value=0.073691155164937405 0.0012789215181256174 -0.0043951574974314487 -0.0020201602781770656 -0.00062082326447779367 0.026569237709358835 0.094137787073850634 -0.0014816250533110252 0.0055187565973028535 0.054409778242309893 0.0022158496648721072 -0.0034801696034826523 -0.0015392354941516379 0.038846232503214305 0.00024227717698007187
leaf_weight=34 1736 1695 6800 32486 260 21 137 24 207 46 7763 76 85 166263
leaf_count=34 1736 1695 6800 32486 260 21 137 24 207 46 7763 76 85 166263
internal_value=0 -0.00285963 2.29004e-05 -0.000504198 0.00934901 0.0309356 0.0112273 0.0372775 0.0493302 -0.00108507 -0.00297738 0.0158786 0.0259837 0.000153381
internal_weight=0 1729 215904 42841 2385 649 158 491 231 40456 7970 207 131 173063
internal_count=217633 1729 215904 42841 2385 649 158 491 231 40456 7970 207 131 173063
shrinkage=0.15


Tree=22
num_leaves=15
num_cat=0
split_feature=22 16 36 16 3 17 22 2 4 23 4 3 17 4
split_gain=0.630711 0.567054 9.40093 8.08036 5.77337 7.52777 4.54744 21.4599 15.1404 19.8275 5.04182 4.67322 3.19787 2.89729
threshold=3.1180850000000002 -3.8224499999999993e-06 -0.032654949999999995 -3.5768449999999991e-05 -7.7231599999999991 5.943890000000001e-06 2.4316000000000004 2.4421250000000003 -0.63345599999999991 -9.355299999999998 1.0025000000000002 -9.0186749999999982 -6.2569149999999995e-06 -0.32415349999999993
decision_type=2 2 2 2 2 2 2 2 2 2 2 2 2 2
left_child=1 2 3 -1 5 12 -4 -8 -9 10 11 -10 -5 -7
right_child=-2 -3 6 4 -6 13 7 8 9 -11 -12 -13 -14 -15
leaf_value=0.0010967784948876498 -0.0042225724184145417 0.00014498847624060576 -0.0015669708228568181 0.0081071569519281187 0.0014085105994936301 0.028878948794397504 -0.0016035443763139331 -0.00015898023841618377 0.07031828819217717 0.0034602669792158326 0.0098680114516954322 -0.00281450852427432 0.038081622753210614 -0.00075602102826415626
leaf_weight=2082 793 168718 39571 96 436 98 4064 385 308 231 41 21 483 306
leaf_count=2082 793 168718 39571 96 436 98 4064 385 308 231 41 21 483 306
internal_value=0 1.54423e-05 -0.000438753 0.00704602 0.0157749 0.022147 -0.00102601 0.00321284 0.0230645 0.0379415 0.059469 0.0656502 0.0331118 0.00643266
internal_weight=0 216840 48122 3501 1419 983 44621 5050 986 601 370 329 579 404
internal_count=217633 216840 48122 3501 1419 983 44621 5050 986 601 370 329 579 404
shrinkage=0.15


Tree=23
num_leaves=15
num_cat=0
split_feature=22 22 2 23 14 19 10 1 1 33 33 14 17 5
split_gain=0.455689 0.448427 6.51727 0.440197 1.63088 4.74451 2.40488 2.50122 3.50634 2.31898 2.45204 1.6547 0.853444 0.554683
threshold=3.1180850000000002 -3.0952799999999994 -3.0230999999999995 -18.402399999999997 0.0058968150000000006 2.8998550000000006e-06 1.3168550000000003e-05 4.1352450000000003 -4.0791099999999991 -1.6474599999999996e-05 4.5690900000000007e-05 0.0006072295000000001 0.00023439450000000003 1.6793050000000003e-05
decision_type=2 2 2 2 2 2 2 2 2 2 2 2 2 2
left_child=1 2 -1 4 11 -6 7 8 -7 -10 -11 -3 13 -13
right_child=-2 3 -4 -5 5 6 -8 -9 9 10 -12 12 -14 -15
leaf_value=0.062630838703583269 -0.0035891865724138202 -0.00040932063635499698 -0.0036972172397769757 7.8517229507629854e-05 0.055522069775474234 0.0017694720310308704 9.3612229139831849e-05 -0.0037616886172650585 0.01600787893582422 0.10379401007853448 0.034266841684335046 -0.0073953027013570405 0.018349962436717333 -0.0028091145361522816
leaf_weight=34 793 4299 1695 205639 37 56 2413 81 26 25 21 1497 34 983
leaf_count=34 793 4299 1695 205639 37 56 2413 81 26 25 21 1497 34 983
internal_value=0 1.31259e-05 -0.00239291 3.24649e-05 -0.00096734 0.00218325 0.00143056 0.0168663 0.0299199 0.0518147 0.0720533 -0.00219696 -0.00525387 -0.00557747
internal_weight=0 216840 1729 215111 9472 2659 2622 209 128 72 46 6813 2514 2480
internal_count=217633 216840 1729 215111 9472 2659 2622 209 128 72 46 6813 2514 2480
shrinkage=0.15


Tree=24
num_leaves=15
num_cat=0
split_feature=16 36 16 10 22 2 4 23 3 3 23 4 11 16
split_gain=0.378579 6.79129 5.92904 3.9097 3.24793 14.9732 10.6474 14.5981 8.35838 4.52795 5.26093 3.65016 3.11149 2.7729
threshold=-3.8224499999999993e-06 -0.032654949999999995 -2.3103199999999996e-05 2.8234350000000002e-05 2.4316000000000004 2.4421250000000003 -0.63345599999999991 -10.319049999999999 -10.288849999999998 -10.219249999999999 -8.2722599999999975 1.0025000000000002 -6.4919299999999987e-05 -2.3103199999999996e-05
decision_type=2 2 2 2 2 2 2 2 2 2 2 2 2 2
left_child=1 2 -1 -4 13 -6 -7 8 11 -9 12 -8 -11 -3
right_child=-2 4 3 -5 5 6 7 9 -10 10 -12 -13 -14 -15
leaf_value=0.0016019772202867429 0.00010565984224604853 -0.00051389444374665637 0.024352483391185054 0.0069447326093973272 -0.0012867962107280838 -0.00015860471771564775 0.070273429711805224 -0.0060944599001423313 -0.0053706761919117213 0.027286418625590159 -0.0035376846311473338 0.010034098878182704 0.093434245794924209 -0.0032593588504304365
leaf_weight=2325 169333 27781 522 654 4216 396 239 190 45 32 53 25 32 11790
leaf_count=2325 169333 27781 522 654 4216 396 239 190 45 32 53 25 32 11790
internal_value=0 -0.000370428 0.00599213 0.0146716 -0.000867657 0.00264617 0.019031 0.0313671 0.0543836 0.00820071 0.0314151 0.0645689 0.0603603 -0.00133189
internal_weight=0 48300 3501 1176 44799 5228 1012 616 309 307 117 264 64 39571
internal_count=217633 48300 3501 1176 44799 5228 1012 616 309 307 117 264 64 39571
shrinkage=0.15


Tree=25
num_leaves=15
num_cat=0
split_feature=23 14 10 20 20 14 4 18 14 14 25 31 33 11
split_gain=0.315413 1.77405 3.36732 3.59716 5.861 4.21305 2.03462 2.54741 1.62422 1.26758 1.18416 1.08365 0.524385 0.509182
threshold=-17.896049999999999 0.0046292850000000012 1.4113800000000002e-05 1.8114300000000003 -1.4508449999999999 0.026764650000000004 -0.51881799999999989 0.00029085400000000006 0.00028247300000000004 0.0064171350000000009 0.73645450000000012 0.15287450000000005 -0.00016199399999999997 3.9213650000000004e-05
decision_type=2 2 2 2 2 2 2 2 2 2 2 2 2 2
left_child=1 8 3 4 11 6 -6 9 -1 -8 -11 -3 -4 -5
right_child=-2 2 12 13 5 -7 7 -9 -10 10 -12 -13 -14 -15
leaf_value=0.00010619295911693788 4.5516616991808375e-05 0.025292696616573566 0.0058308467947870112 -0.010349897554153876 0.01589408051555178 -0.001896681906081914 0.04990386243232272 0.019921267818426711 -0.0039231581412686733 0.11018991416150874 0.06393449993804097 -0.0045595811603370267 -0.00023050681846707976 0.010916873534469315
leaf_weight=4558 204632 36 357 109 21 34 22 20 4447 33 20 114 3197 33
leaf_count=4558 204632 36 357 109 21 34 22 20 4447 33 20 114 3197 33
internal_value=0 -0.000716418 0.00191394 0.0142611 0.023571 0.044537 0.0581469 0.067487 -0.00188365 0.0801712 0.092735 0.00260497 0.000378357 -0.00540762
internal_weight=0 13001 3996 442 300 150 116 95 9005 75 53 150 3554 142
internal_count=217633 13001 3996 442 300 150 116 95 9005 75 53 150 3554 142
shrinkage=0.15


Tree=26
num_leaves=15
num_cat=0
split_feature=3 23 3 23 14 3 23 3 23 14 14 25 3 14
split_gain=0.352877 14.262 28.5727 12.1786 15.1535 7.20331 6.21667 7.09853 15.7667 8.91588 8.21918 5.72291 3.98676 3.86693
threshold=-6.6541099999999984 -6.7383949999999997 -6.1920449999999994 -6.2906249999999995 0.00030621600000000005 -6.1381299999999994 -6.789509999999999 -6.8364449999999986 -6.6317949999999994 0.00032443100000000008 0.00035063800000000007 6.1968050000000012 -6.3035799999999993 0.0006614075000000002
decision_type=2 2 2 2 2 2 2 2 2 2 2 2 2 2
left_child=6 5 3 4 11 -2 13 10 9 -9 -8 12 -3 -1
right_child=1 2 -4 -5 -6 -7 7 8 -10 -11 -12 -13 -14 -15
leaf_value=0.0016907535234921753 -0.0042442049137154424 0.041712997937655698 0.0001914846902697322 0.0037458723855777229 0.0020511217448276713 -0.00024268485207379586 -0.0088355346418592558 0.065765762565127922 -0.00076172422100988344 -0.0012819989607253644 -0.0013127883716950669 -0.0063569047197233886 0.020083024022881372 -4.779293176835497e-05
leaf_weight=42337 13472 923 7047 802 432 40705 4059 153 629 63 16765 72 242 89932
leaf_count=42337 13472 923 7047 802 432 40705 4059 153 629 63 16765 72 242 89932
internal_value=0 -0.000296935 0.00505812 0.0189372 0.026237 -0.00123773 0.000122863 -0.00223222 0.0112453 0.0462102 -0.00277912 0.0346835 0.0372199 0.000508685
internal_weight=0 63695 9518 2471 1669 54177 153938 21669 845 216 20824 1237 1165 132269
internal_count=217633 63695 9518 2471 1669 54177 153938 21669 845 216 20824 1237 1165 132269
shrinkage=0.15


Tree=27
num_leaves=15
num_cat=0
split_feature=23 3 3 16 0 16 25 16 15 20 11 11 20 16
split_gain=0.430516 1.28585 6.06723 3.09703 3.40707 3.17266 2.93919 5.41357 2.27143 2.05342 3.97937 2.04735 1.58991 0.869521
threshold=-6.1069649999999989 -6.1381299999999994 -5.7833549999999994 -8.6382099999999991e-08 12.402900000000001 8.048685000000002e-06 2.1026900000000004 4.4267150000000007e-07 8.4460100000000009e-08 -3.1555199999999997 -3.8446549999999992e-06 1.8157550000000001e-06 -10.621449999999998 3.3113700000000002e-06
decision_type=2 2 2 2 2 2 2 2 2 2 2 2 2 2
left_child=-1 13 3 12 5 6 8 -8 9 10 -5 -11 -3 -2
right_child=1 2 -4 4 -6 -7 7 -9 -10 11 -12 -13 -14 -15
leaf_value=-3.4664279750071102e-05 -0.0013115065218511129 0.035126913557972081 -0.0013723271859966267 0.069066742608516377 -0.020537941344082353 -0.0090932212304323905 -0.012351252454229527 0.07095829039238967 0.012707914841631727 0.042266274570886574 -0.016671522959534609 0.088356556718874921 -0.0097139170922849686 0.0034511884648789934
leaf_weight=211912 3127 22 969 29 30 36 54 26 31 35 21 57 93 1191
leaf_count=211912 3127 22 969 29 30 36 54 26 31 35 21 57 93 1191
internal_value=0 0.001284 0.00522914 0.0199684 0.0275764 0.032571 0.0384995 0.0147243 0.0494938 0.0575245 0.0330567 0.0708222 -0.00113567 2.1502e-06
internal_weight=0 5721 1403 434 319 289 253 80 173 142 50 92 115 4318
internal_count=217633 5721 1403 434 319 289 253 80 173 142 50 92 115 4318
shrinkage=0.15


Tree=28
num_leaves=15
num_cat=0
split_feature=22 3 23 3 23 3 14 23 14 3 23 14 23 23
split_gain=0.327253 0.346284 18.3215 28.9348 10.3287 9.33074 9.03186 12.6845 7.3343 7.15356 11.7462 4.85461 51.2183 16.7335
threshold=3.1180850000000002 -6.9170499999999988 -6.9868449999999989 -6.1661399999999995 -6.9868449999999989 -6.1920449999999994 0.00036044150000000009 -6.2136699999999996 0.0029699900000000005 -7.0757599999999989 -6.8901449999999995 0.00068334050000000012 -10.917699999999998 -10.670499999999999
decision_type=2 2 2 2 2 2 2 2 2 2 2 2 2 2
left_child=1 4 5 6 11 -3 7 -4 9 -6 -11 12 -1 -13
right_child=-2 2 3 -5 8 -7 -8 -9 -10 10 -12 13 -14 -15
leaf_value=-0.004363308481669448 -0.0030416142169446816 -0.0043609604945202447 0.021607366548960991 -0.00049455653257450961 -0.0057089655325128757 -0.00019022994666846824 0.0032576804346402272 -0.0014085343113085316 0.00013857562255648441 0.052239902258378233 0.0010577129462826498 0.0022656439741262921 0.0070191286155459488 -0.0019884680718928582
leaf_weight=15478 793 17337 3036 9069 13203 39720 1369 655 12089 121 607 40885 20913 42358
leaf_count=15478 793 17337 3036 9069 13203 39720 1369 655 12089 121 607 40885 20913 42358
internal_value=0 1.11234e-05 -0.000260022 0.00457584 0.000143641 -0.00145752 0.0136635 0.017523 -0.00256484 -0.0049108 0.00956464 0.000732727 0.00217789 0.000100949
internal_weight=0 216840 71186 14129 145654 57057 5060 3691 26020 13931 728 119634 36391 83243
internal_count=217633 216840 71186 14129 145654 57057 5060 3691 26020 13931 728 119634 36391 83243
shrinkage=0.15


Tree=29
num_leaves=15
num_cat=0
split_feature=23 3 3 16 16 39 9 31 5 21 16 36 39 20
split_gain=0.527245 1.17873 5.92363 3.38815 2.24439 1.61766 1.45468 4.20511 2.18032 2.33845 1.42408 4.27805 3.4476 1.76859
threshold=-6.2136699999999996 -6.2187599999999987 -5.7268599999999994 -1.0302949999999999e-07 8.048685000000002e-06 0.0066011800000000008 3.6404800000000008e-05 -0.011094149999999999 2.1095700000000005e-05 -6.579159999999999 3.1357800000000004e-08 7.0939900000000015e-05 1.0692700000000002e-05 5.9330550000000004
decision_type=2 2 2 2 2 2 2 2 2 2 2 2 2 2
left_child=-1 -2 3 -3 5 6 10 8 9 -8 12 -12 13 -5
right_child=1 2 -4 4 -6 -7 7 -9 -10 -11 11 -13 -14 -15
leaf_value=-4.8659787872241836e-05 0.00011931510542259881 -0.0017655799084582112 -0.0017024234090561327 0.038404013410177643 -0.0048961129164712324 -0.01340043218806386 -0.022588316258043049 -0.02576446515896047 0.073326143196650914 0.042240293653711916 -0.027256381191546098 0.043861743681040462 -0.018935297498275046 -0.0072281106091711825
leaf_weight=208573 6750 223 1469 113 73 26 21 45 21 31 21 203 41 23
leaf_count=208573 6750 223 1469 113 73 26 21 45 21 31 21 203 41 23
internal_value=0 0.00112021 0.00404491 0.0140839 0.0198031 0.0231115 0.0249406 0.0103012 0.0325335 0.0160595 0.0292484 0.0371944 0.0191924 0.0306868
internal_weight=0 9060 2310 841 618 545 519 118 73 52 401 224 177 136
internal_count=217633 9060 2310 841 618 545 519 118 73 52 401 224 177 136
shrinkage=0.15


Tree=30
num_leaves=15
num_cat=0
split_feature=23 0 0 31 2 22 1 33 0 18 5 1 22 1
split_gain=0.393127 0.460596 0.370995 2.5077 1.79351 1.39397 1.11814 1.24001 1.07862 0.58782 0.727679 0.41369 2.66466 2.96477
threshold=-6.1069649999999989 12.402900000000001 8.3884950000000007 -0.011094149999999999 -0.71717999999999982 -0.64565649999999986 4.6517600000000003 1.4933200000000001e-06 10.429750000000002 5.6944000000000004e-08 1.9284800000000006e-05 11.797600000000001 1.2234400000000003 13.03345
decision_type=2 2 2 2 2 2 2 2 2 2 2 2 2 2
left_child=-1 2 11 4 -4 -6 7 -7 -9 -8 -11 -2 -13 -14
right_child=1 -3 3 -5 5 6 9 8 -10 10 -12 12 13 -15
leaf_value=-3.3124794506839927e-05 0.00073238659684730033 -0.0057021318798853408 0.048106339753510176 -0.0049918814869890187 -0.0070163640192393876 -0.0027738251510604195 0.0133234095312946 0.0056166476923681322 0.05488017339564976 0.064192095510328978 0.024213413520483298 -0.005967544201543119 0.045624324014534069 0.00048087665519273989
leaf_weight=211912 4665 208 33 273 70 71 20 20 20 21 20 169 64 67
leaf_count=211912 4665 208 33 273 70 71 20 20 20 21 20 169 64 67
internal_value=0 0.00122698 0.00148841 0.00519224 0.0153023 0.010829 0.0180917 0.00912608 0.0302484 0.0344061 0.0446903 0.00107961 0.00647887 0.0225357
internal_weight=0 5721 5513 548 275 242 172 111 40 61 41 4965 300 131
internal_count=217633 5721 5513 548 275 242 172 111 40 61 41 4965 300 131
shrinkage=0.15


Tree=31
num_leaves=15
num_cat=0
split_feature=36 16 19 10 23 3 3 33 16 10 33 23 3 36
split_gain=0.381703 16.7269 11.386 3.18657 2.88728 9.5418 6.61366 6.6596 4.42187 2.35845 2.18988 2.01302 3.04364 1.94923
threshold=0.041275950000000006 9.7425800000000004e-07 0.00052909500000000015 6.9325100000000012e-05 -9.8328599999999984 -10.010399999999999 -11.739649999999997 7.406795000000002e-05 1.5814050000000002e-05 1.4496750000000001e-05 -0.00037994999999999994 -12.0435 -7.8930599999999993 0.21912450000000003
decision_type=2 2 2 2 2 2 2 2 2 2 2 2 2 2
left_child=-1 -2 3 4 6 -6 7 10 9 -7 -3 -8 -13 -10
right_child=1 2 -4 -5 5 8 11 -9 13 -11 -12 12 -14 -15
leaf_value=-5.5618654467993676e-05 -0.0025828708682298107 0.0071579637138971261 0.0025684319354591185 0.002954188334920315 -0.0014929205811594914 0.082197760066871225 -0.0024010396793001649 -0.0070189046949716439 -0.0015268395216553471 0.041904954711216316 0.059254101325354691 0.036681401880284015 -0.0016056604188875666 0.031215706291453288
leaf_weight=201813 10868 21 3181 282 197 36 335 59 75 355 134 91 96 90
leaf_count=201813 10868 21 3181 282 197 36 335 59 75 355 134 91 96 90
internal_value=0 0.000709517 0.00793522 0.0175748 0.0203438 0.0268741 0.0136627 0.0358703 0.036925 0.0456148 0.0521959 0.00455846 0.017026 0.0163327
internal_weight=0 15820 4952 1771 1489 753 736 214 556 391 155 522 187 165
internal_count=217633 15820 4952 1771 1489 753 736 214 556 391 155 522 187 165
shrinkage=0.15


Tree=32
num_leaves=15
num_cat=0
split_feature=39 19 19 33 34 13 22 3 23 38 18 17 37 33
split_gain=0.316565 2.88499 3.77724 11.2064 5.90216 5.34779 5.23889 4.85418 7.66083 3.99289 24.736 21.2225 3.67966 3.21059
threshold=0.00012966950000000004 3.8086000000000004e-07 2.1691500000000004e-05 6.2812850000000001e-06 1.2883350000000002 4.7605950000000003e-06 1.5746600000000002 -6.6541099999999984 -6.5700849999999997 0.0040003800000000004 -5.6742149999999992e-06 1.0893100000000001e-07 -1.2525249999999998e-07 1.7495550000000002e-06
decision_type=2 2 2 2 2 2 2 2 2 2 2 2 2 2
left_child=-1 -2 3 4 5 -3 7 9 -9 11 -11 -7 -13 -4
right_child=1 2 13 -5 -6 6 -8 8 -10 10 -12 12 -14 -15
leaf_value=-0.00011451894337984586 -0.0015639387967304632 0.0016536445302805516 -0.0010397013773449147 -0.0026710528601651315 -0.00014302592081165595 -0.0093614760014187424 -0.0067834621835958613 -0.0033140721430610898 0.056716283861209041 0.05325498495261137 -0.010638580845175858 0.00068424871657043692 0.040030797607430099 0.0016295257116152682
leaf_weight=155373 14541 728 20374 3150 1089 408 198 367 55 411 204 60 492 20183
leaf_count=155373 14541 728 20374 3150 1089 408 198 367 55 411 204 60 492 20183
internal_value=0 0.000285788 0.000849439 0.00402521 0.00928274 0.0127944 0.0164894 0.0187969 0.00450979 0.0226249 0.032061 0.0165799 0.035754 0.000288627
internal_weight=0 62260 47719 7162 4012 2923 2195 1997 422 1575 615 960 552 40557
internal_count=217633 62260 47719 7162 4012 2923 2195 1997 422 1575 615 960 552 40557
shrinkage=0.15


Tree=33
num_leaves=15
num_cat=0
split_feature=22 2 14 3 4 2 22 19 22 2 2 20 11 19
split_gain=0.295685 4.4535 0.414624 0.655986 0.303799 0.281806 24.5891 2.54701 0.987112 12.566 1.50254 0.932219 2.90128 0.808705
threshold=-3.0952799999999994 -3.0230999999999995 0.0064171350000000009 -6.3853549999999988 0.43714250000000004 -3.0230999999999995 -2.9897199999999997 2.0955950000000004e-06 -2.9897199999999997 -2.9738899999999995 -2.9945099999999996 -10.621449999999998 -3.1095399999999994e-05 2.7347200000000005e-05
decision_type=2 2 2 2 2 2 2 2 2 2 2 2 2 2
left_child=1 -1 3 4 -3 6 7 11 9 10 -7 -2 -13 -8
right_child=5 2 -4 -5 -6 8 13 -9 -10 -11 -12 12 -14 -15
leaf_value=0.051797647883786872 0.10813263153864278 -0.0079873707423442526 0.00097939454907308081 0.00047384043462404162 -4.2418107720247159e-06 0.088113010344715151 -0.0065829539794857077 0.029686066845442834 7.5402066220812383e-05 -0.0037499588702260217 0.041023052956152245 0.10523467716832076 0.029857862710487095 -0.00099992824045538604
leaf_weight=34 27 721 432 416 126 31 1535 24 209951 3317 30 27 20 942
leaf_count=34 27 721 432 416 126 31 1535 24 209951 3317 30 27 20 942
internal_value=0 -0.00195378 -0.00303198 -0.00440405 -0.0067998 1.56463e-05 -0.00154417 0.0721484 3.44741e-05 -0.0025093 0.064954 0.0859199 0.0731594 -0.00445974
internal_weight=0 1729 1695 1263 847 215904 2575 98 213329 3378 61 74 47 2477
internal_count=217633 1729 1695 1263 847 215904 2575 98 213329 3378 61 74 47 2477
shrinkage=0.15


Tree=34
num_leaves=15
num_cat=0
split_feature=23 3 3 11 0 20 29 25 14 4 15 21 4 38
split_gain=0.280367 0.859055 3.90188 1.81564 1.38275 1.36132 1.47552 1.36013 4.23577 3.31671 2.26797 2.62832 1.86011 4.36775
threshold=-6.2663199999999994 -6.3035799999999993 -5.7268599999999994 1.6961250000000003e-05 -12.511149999999999 6.0948100000000007 -0.024773749999999997 1.6490850000000001 0.00012958450000000001 0.15990500000000005 8.4460100000000009e-08 5.9390900000000011 -0.13878399999999999 0.00074033250000000007
decision_type=2 2 2 2 2 2 2 2 2 2 2 2 2 2
left_child=-1 -2 3 4 -3 -5 -7 8 10 12 -6 -12 13 -9
right_child=1 2 -4 5 7 6 -8 9 -10 -11 11 -13 -14 -15
leaf_value=-3.8729348191495962e-05 -6.902341922334856e-05 -0.011858432303066366 -0.0015244452011602516 -0.013586549005419129 0.028047177822413182 0.044868278882826081 -0.00097812411789033956 -0.017499250133987516 -0.005274118612552261 0.037660404443433333 0.019021634341657368 -0.039805446770042184 -0.013339324099842684 0.070494093405167491
leaf_weight=206925 7815 50 1741 118 432 22 56 30 145 53 54 25 145 22
leaf_count=206925 7815 50 1741 118 432 22 56 30 145 53 54 25 145 22
internal_value=0 0.000748419 0.00295662 0.00972878 0.0124251 -0.00342289 0.0119529 0.0137653 0.0173531 0.00435077 0.0237738 0.000405469 -0.00461071 0.0197287
internal_weight=0 10708 2893 1152 956 196 78 906 656 250 511 79 197 52
internal_count=217633 10708 2893 1152 956 196 78 906 656 250 511 79 197 52
shrinkage=0.15


Tree=35
num_leaves=15
num_cat=0
split_feature=36 16 19 16 10 22 3 16 29 13 33 15 21 30
split_gain=0.283234 11.4234 9.86506 5.37876 3.04355 2.33756 1.64515 1.58391 2.34003 4.91779 20.253 18.786 7.54928 7.55167
threshold=0.046549500000000008 2.2974750000000004e-06 0.0016963150000000001 2.3988650000000003e-05 4.249380000000001e-05 2.4063700000000003 -6.2768299999999995 2.7652050000000001e-06 -0.0026320249999999992 -1.2858199999999998e-05 6.2812850000000001e-06 -5.5362349999999989e-07 -4.8424999999999994 0.0010749300000000002
decision_type=2 2 2 2 2 2 2 2 2 2 2 2 2 2
left_child=7 6 3 4 5 -3 -2 -1 9 10 -9 -12 -13 -14
right_child=1 2 -4 -5 -6 -7 -8 8 -10 -11 11 12 13 -15
leaf_value=0.00018688738621656218 -0.003050359089846447 0.029537781946026048 0.00053181180842835657 0.0055546520657881043 0.0106111597808325 -0.003403161983834042 0.0010226978502092426 -0.0026146724014940556 -0.0016778526455690863 -0.00094892724657459409 0.00087799995524391681 0.010252058773038294 0.05354413106279942 0.022318300232050219
leaf_weight=154728 7814 714 2158 750 362 52 3123 3283 28168 14638 862 277 387 317
leaf_count=154728 7814 714 2158 750 362 52 3123 3283 28168 14638 862 277 387 317
internal_value=0 0.000629551 0.00744992 0.0153995 0.0219453 0.0273016 -0.00188732 -4.65127e-05 -0.000799945 0.000451263 0.0044497 0.0170337 0.0312297 0.0394836
internal_weight=0 14973 4036 1878 1128 766 10937 202660 47932 19764 5126 1843 981 704
internal_count=217633 14973 4036 1878 1128 766 10937 202660 47932 19764 5126 1843 981 704
shrinkage=0.15


Tree=36
num_leaves=15
num_cat=0
split_feature=32 12 12 28 28 12 13 12 7 3 18 18 34 1
split_gain=0.292298 39.5851 11.7871 47.7943 30.3817 12.9683 12.6191 10.1794 9.92102 9.23662 10.8577 15.6402 15.2729 9.22226
threshold=-0.10883 2.7862550000000003e-05 3.3627650000000007e-05 0.0020348000000000002 0.0020348000000000002 9.962515000000001e-06 8.0484950000000009e-05 0.00011505000000000002 5.0076550000000004e-05 -6.1381299999999994 3.4240700000000004e-06 -7.8519049999999971e-06 0.03912005000000001 1.0837000000000001
decision_type=2 2 2 2 2 2 2 2 2 2 2 2 2 2
left_child=1 -1 4 6 13 -6 8 9 -4 10 11 -5 -13 -2
right_child=2 -3 3 7 5 -7 -8 -9 -10 -11 -12 12 -14 -15
leaf_value=-0.0035448210038444292 0.0031368547077756464 0.0053178968699161069 -0.0078928242545023668 0.0010735681689393998 -0.004517450300995993 0.0044989344931733741 -0.00038756737486698241 0.0010822659442057928 -0.0025848870212694061 -0.00020417208193284782 -0.00085991446769274373 0.022667901194484145 0.0014720658754486251 -0.0017841032860028212
leaf_weight=25899 65567 20170 20475 1722 24855 4195 13383 10171 12924 2458 1549 3423 985 9857
leaf_count=25899 65567 20170 20475 1722 24855 4195 13383 10171 12924 2458 1549 3423 985 9857
internal_value=0 0.000335468 -9.0081e-05 -0.0016416 0.000906255 -0.00321543 -0.00427941 0.00443494 -0.00583888 0.00779886 0.0103606 0.0131959 0.0179315 0.00249375
internal_weight=0 46069 171564 67090 104474 29050 46782 20308 33399 10137 7679 6130 4408 75424
internal_count=217633 46069 171564 67090 104474 29050 46782 20308 33399 10137 7679 6130 4408 75424
shrinkage=0.15


Tree=37
num_leaves=15
num_cat=0
split_feature=33 13 19 3 13 30 33 13 19 33 14 3 3 3
split_gain=0.283982 44.7957 25.964 32.5284 23.7694 23.0981 14.9113 18.764 13.9118 24.2285 17.6545 19.4963 13.5218 11.389
threshold=-3.7928249999999996e-06 1.0268350000000001e-05 4.6329000000000001e-06 -7.6157749999999993 1.0268350000000001e-05 0.0032644900000000005 -1.3360349999999997e-06 4.7605950000000003e-06 2.7347200000000005e-05 -1.5638149999999997e-06 0.00026688850000000007 -6.0545599999999995 -6.1122599999999991 -6.493739999999999
decision_type=2 2 2 2 2 2 2 2 2 2 2 2 2 2
left_child=1 13 3 5 6 -3 7 -2 9 10 11 -6 -11 -1
right_child=4 2 -4 -5 8 -7 -8 -9 -10 12 -12 -13 -14 -15
leaf_value=-0.0058691971596600287 -0.0057598890405443654 0.017615866717231494 0.00039372950184400933 0.00079106955949594625 0.024756481000480807 -0.00094892068470455772 0.0028691821434484164 0.012885424503129413 -0.00014094729024707972 -0.0080632786890662955 -0.0037373210874569697 -0.00090548067194063395 -0.00059859851047178929 -0.00013340316015603748
leaf_weight=21755 9119 7554 24514 7740 1518 1884 57047 1401 41411 20248 2646 1187 7476 12133
leaf_count=21755 9119 7554 24514 7740 1518 1884 57047 1401 41411 20248 2646 1187 7476 12133
internal_value=0 0.000234907 0.00352723 0.00799892 -0.000124984 0.01391 0.00191227 -0.0032768 -0.001973 -0.00426678 0.00497413 0.0134956 -0.00605037 -0.0038156
internal_weight=0 75580 41692 17178 142053 9438 67567 10520 74486 33075 5351 2705 27724 33888
internal_count=217633 75580 41692 17178 142053 9438 67567 10520 74486 33075 5351 2705 27724 33888
shrinkage=0.15


Tree=38
num_leaves=15
num_cat=0
split_feature=3 23 3 23 14 39 3 34 14 3 23 23 23 3
split_gain=0.364024 7.43689 17.2818 9.56196 9.91218 5.62521 4.84361 4.76918 6.15922 4.44654 15.1962 10.0374 3.9377 7.35615
threshold=-6.7842149999999988 -6.8719549999999989 -6.2498799999999992 -6.3575049999999989 0.00028247300000000004 0.00026683000000000007 -6.0545599999999995 0.080256200000000014 0.00044448550000000006 -6.493739999999999 -6.5922849999999995 -6.5295149999999991 -6.9313999999999991 -6.942054999999999
decision_type=2 2 2 2 2 2 2 2 2 2 2 2 2 2
left_child=12 6 3 4 5 9 7 8 -2 11 -11 -3 -1 -14
right_child=1 2 -4 -5 -6 -7 -8 -9 -10 10 -12 -13 13 -15
leaf_value=0.00047369156367634349 -0.0077245956285983824 0.046802167062906144 -0.00036653249590308138 0.0013574853484059483 0.00188121861909855 -0.0053129297845065596 -4.5716469559919851e-05 -0.00039031796163792342 0.00060096753813397477 -0.0095509189652169448 0.03775923598528378 0.0071063548633781481 -0.0021079099909467832 0.010884189262000582
leaf_weight=125296 6864 526 8498 1102 571 125 37551 8241 2821 255 381 197 24183 1022
leaf_count=125296 6864 526 8498 1102 571 125 37551 8241 2821 255 381 197 24183 1022
internal_value=0 -0.000290468 0.003154 0.0126306 0.0186758 0.0251378 -0.00101411 -0.00304267 -0.00529957 0.0279387 0.0187905 0.035986 0.000129565 -0.00158111
internal_weight=0 67132 11655 3157 2055 1484 55477 17926 9685 1359 636 723 150501 25205
internal_count=217633 67132 11655 3157 2055 1484 55477 17926 9685 1359 636 723 150501 25205
shrinkage=0.15


Tree=39
num_leaves=15
num_cat=0
split_feature=30 4 24 4 3 24 4 4 4 24 3 26 33 13
split_gain=0.312772 1.66424 8.233 13.7192 3.00969 2.89172 5.68561 7.85498 4.99942 3.0423 3.36452 3.00141 2.65927 3.9121
threshold=0.0043234350000000013 -0.38312399999999996 -0.49656149999999993 -1.8911349999999996 -6.0822949999999993 -0.49656149999999993 0.24753700000000003 1.4356200000000003 0.46547150000000009 0.50967450000000014 -7.2823399999999987 0.0059170700000000008 -0.00014004999999999999 2.4319250000000003e-05
decision_type=2 2 2 2 2 2 2 2 2 2 2 2 2 2
left_child=-1 2 3 -2 -5 -3 -7 8 -8 -10 12 -12 -11 -14
right_child=1 5 -4 4 -6 6 7 -9 9 10 11 -13 13 -15
leaf_value=-7.2133826208160083e-05 -0.00040489981977006337 -0.0019368691232926061 -0.0025953750204154987 0.021098745248481952 0.0020158899458868787 -0.0010559720129176954 0.0037374124520986795 0.00051468045105762679 -0.0046480863652986412 0.017324961525466764 0.0018958546907487423 0.043057489348575471 0.049681576320340162 0.019404877741870129
leaf_weight=187467 2072 10966 3638 1300 217 7575 714 2625 102 284 235 48 219 171
leaf_count=187467 2072 10966 3638 1300 217 7575 714 2625 102 284 235 48 219 171
internal_value=0 0.000448277 0.00243322 0.00753047 0.018369 -0.000177086 0.00143469 0.00572454 0.0134379 0.0199783 0.022603 0.00887733 0.0283662 0.0364064
internal_weight=0 30166 7227 3589 1517 22939 11973 4398 1773 1059 957 283 674 390
internal_count=217633 30166 7227 3589 1517 22939 11973 4398 1773 1059 957 283 674 390
shrinkage=0.15


Tree=40
num_leaves=15
num_cat=0
split_feature=3 34 25 14 27 34 34 25 14 18 18 35 28 1
split_gain=0.268205 6.65987 10.3323 7.84282 4.14038 6.92639 3.84787 5.14513 3.23062 2.50761 3.24749 2.96809 2.42494 15.1533
threshold=-15.628299999999998 0.077630600000000008 0.55773850000000003 0.012437950000000001 0.22308100000000003 0.13950200000000001 0.4780195000000001 2.7978650000000003 0.017917350000000002 -9.7093149999999984e-05 8.8556600000000012e-05 0.0010072350000000002 0.0099803200000000026 3.2090750000000003
decision_type=2 2 2 2 2 2 2 2 2 2 2 2 2 2
left_child=1 -1 3 4 9 -6 -4 8 -8 -3 11 -11 -7 -14
right_child=-2 2 6 -5 5 12 7 -9 -10 10 -12 -13 13 -15
leaf_value=-0.0021531287434685769 -4.6092294596197519e-05 0.010130811051058118 -0.0039636232382228662 0.000413987648786981 -0.0060417810533509916 0.018370535702949078 0.020822270541171969 -1.6193141044828742e-05 0.00091008195202342177 0.055113188026472928 0.0028261534155656892 0.016312121443058315 -0.012690562068019062 0.0863726714344107
leaf_weight=8680 202145 80 2294 652 249 432 554 1831 274 200 45 57 64 76
leaf_count=8680 202145 80 2294 652 249 432 554 1831 274 200 45 57 64 76
internal_value=0 0.000601584 0.00411376 0.0136624 0.0208428 0.0148402 0.000537593 0.00442093 0.014233 0.0337436 0.0399987 0.0465075 0.0239304 0.0410866
internal_weight=0 15488 6808 1855 1203 821 4953 2659 828 382 302 257 572 140
internal_count=217633 15488 6808 1855 1203 821 4953 2659 828 382 302 257 572 140
shrinkage=0.15


Tree=41
num_leaves=15
num_cat=0
split_feature=23 16 36 14 10 11 20 19 29 9 14 27 26 11
split_gain=0.389597 0.686695 1.53773 2.53025 2.34108 1.85231 2.4758 1.33416 1.22701 1.14357 1.1397 1.23592 0.837474 0.670695
threshold=-6.2663199999999994 1.7912000000000001e-07 0.00067376950000000012 0.00037299900000000005 6.9325100000000012e-05 1.1575600000000001e-05 3.9041150000000004 0.00045277650000000001 -0.029397749999999997 2.4644650000000005e-05 0.00016362750000000005 2.6025200000000006 -2.2730149999999994e-05 4.160220000000001e-06
decision_type=2 2 2 2 2 2 2 2 2 2 2 2 2 2
left_child=-1 -2 -3 4 5 8 -7 12 13 10 -10 -12 -8 -4
right_child=1 2 3 -5 -6 6 7 -9 9 -11 11 -13 -14 -15
leaf_value=-4.565459675740765e-05 -7.4066228358128013e-05 -0.00048799963609337098 -0.0043536308679669612 0.0019413902320409636 6.2424043314352338e-06 -0.0031242265604319985 0.069287864003230684 0.0023390387814618985 0.053181415920887591 0.0060029121237676003 0.0058290480175855917 0.050341296941041946 0.02827048299368471 0.030365183624339157
leaf_weight=206925 6554 2082 31 1473 195 125 21 22 79 24 32 25 24 21
leaf_count=206925 6554 2082 31 1473 195 125 21 22 79 24 32 25 24 21
internal_value=0 0.000882245 0.00239107 0.00528404 0.0135039 0.0200189 0.00934618 0.0326119 0.0296848 0.0361904 0.0415176 0.025352 0.0474119 0.00966743
internal_weight=0 10708 4154 2072 599 404 192 67 212 160 136 57 45 52
internal_count=217633 10708 4154 2072 599 404 192 67 212 160 136 57 45 52
shrinkage=0.15


Tree=42
num_leaves=15
num_cat=0
split_feature=23 16 36 3 10 16 14 36 17 3 27 16 36 33
split_gain=0.281484 0.496137 1.11101 3.52037 2.77544 1.9946 3.11761 1.12833 0.978247 1.26603 0.98613 0.977387 1.33484 0.742234
threshold=-6.2663199999999994 1.7912000000000001e-07 0.00067376950000000012 -6.493739999999999 7.2784900000000008e-05 3.6571050000000005e-06 7.2224100000000012e-05 0.036638050000000005 7.2838650000000014e-07 -5.4679649999999986 5.5491850000000005 5.6579350000000019e-07 0.0043417000000000013 -3.5620349999999992e-05
decision_type=2 2 2 2 2 2 2 2 2 2 2 2 2 2
left_child=-1 -2 -3 -4 5 6 -5 -7 9 10 11 -8 -13 -9
right_child=1 2 3 4 -6 7 8 13 -10 -11 -12 12 -14 -15
leaf_value=-3.8806408233832692e-05 -6.2956304602446048e-05 -0.00041479968847076611 0.00094012349922456215 0.0012045989357876211 -0.00015189945060510893 -0.0076701432389554456 0.064774950002016413 0.0050377190597355364 0.064811412864946752 0.00080004346556961537 0.018466441594665088 0.0061618466562192355 0.05846864492025064 0.04196813034941442
leaf_weight=206925 6554 2082 1558 59 174 59 46 25 32 20 31 21 23 24
leaf_count=206925 6554 2082 1558 59 174 59 46 25 32 20 31 21 23 24
internal_value=0 0.000749908 0.00203241 0.00449143 0.0152559 0.0231411 0.0309798 0.00630222 0.0411344 0.0357609 0.0415395 0.0494869 0.033504 0.0231261
internal_weight=0 10708 4154 2072 514 340 232 108 173 141 121 90 44 49
internal_count=217633 10708 4154 2072 514 340 232 108 173 141 121 90 44 49
shrinkage=0.15


Tree=43
num_leaves=15
num_cat=0
split_feature=3 25 20 0 3 39 22 2 20 0 14 16 39 33
split_gain=0.283593 1.62244 0.912583 4.35406 3.13015 3.62586 1.3845 1.42226 0.956484 3.02601 2.77567 2.08107 2.3292 1.64307
threshold=-6.9170499999999988 1.0923800000000001 -11.287099999999999 -10.402699999999998 -6.0545599999999995 0.010273900000000001 2.7283200000000005 -2.7531699999999995 13.471950000000001 9.5540300000000027 9.7364850000000017e-05 -2.7253799999999992e-06 0.020406850000000001 -1.0057549999999998e-06
decision_type=2 2 2 2 2 2 2 2 2 2 2 2 2 2
left_child=-1 -2 3 4 5 6 7 -3 -4 -10 -11 -12 13 -13
right_child=1 2 8 -5 -6 -7 -8 -9 9 10 11 12 -14 -15
leaf_value=0.00011968100690880906 -0.00073416980735040865 0.067138994718476633 0.00031153690603921507 7.5691029686835842e-06 0.00871196599598161 0.0051490417392492513 0.081871449196660243 0.013791813933957285 1.0840436824189369e-05 0.0048448785444368744 -0.0026408498512375026 0.097424141093253397 0.021970112844517609 0.042385666927349609
leaf_weight=146206 48648 23 20152 1248 244 47 32 22 735 152 26 23 49 26
leaf_count=146206 48648 23 20152 1248 244 47 32 22 735 152 26 23 49 26
internal_value=0 -0.000244979 0.000799763 0.00423557 0.018574 0.0379799 0.0580195 0.0410582 0.000537407 0.00503961 0.0184314 0.0350859 0.0450951 0.0682201
internal_weight=0 71427 22779 1616 368 124 77 45 21163 1011 276 124 98 49
internal_count=217633 71427 22779 1616 368 124 77 45 21163 1011 276 124 98 49
shrinkage=0.15


Tree=44
num_leaves=15
num_cat=0
split_feature=23 3 21 1 1 14 3 14 11 20 22 12 20 24
split_gain=0.269494 10.0453 3.16989 12.3739 4.20715 1.93969 1.93806 1.80462 1.80541 3.18254 3.33993 3.4763 1.70375 1.19456
threshold=-17.896049999999999 -17.304849999999998 3.0676450000000002 3.3844350000000003 3.1026300000000004 0.017917350000000002 -7.6471249999999991 0.021235350000000004 -0.00012009049999999999 -3.1555199999999997 -1.1071899999999999 -0.00018440399999999996 -4.0204099999999992 -0.27759899999999993
decision_type=2 2 2 2 2 2 2 2 2 2 2 2 2 2
left_child=1 2 4 -4 7 -5 -3 8 12 -10 13 -12 -1 -11
right_child=-2 6 3 5 -6 -7 -8 -9 9 10 11 -13 -14 -15
leaf_value=0.042584299631416793 4.2073117426766588e-05 -0.0031366995036442268 -0.01164492394084171 0.091126875951886163 -0.011073138576529858 0.039058074804911892 0.00063137281488665539 -0.0033998954944157353 -0.0085185531670084365 0.043680103948073722 -0.020433077774941921 0.056743117460402948 -0.011755216481617174 0.087495952631746018
leaf_weight=20 204632 7065 62 60 115 22 5433 45 26 21 24 29 37 42
leaf_count=20 204632 7065 62 60 115 22 5433 45 26 21 24 29 37 42
internal_value=0 -0.000662219 0.0201213 0.038923 0.0125797 0.0771572 -0.00149868 0.0237276 0.029862 0.038914 0.0495454 0.0217954 0.00731128 0.0728907
internal_weight=0 13001 503 144 359 82 12498 244 199 142 116 53 57 63
internal_count=217633 13001 503 144 359 82 12498 244 199 142 116 53 57 63
shrinkage=0.15


Tree=45
num_leaves=15
num_cat=0
split_feature=3 23 3 23 14 3 25 23 14 3 23 14 34 14
split_gain=0.22833 7.00017 15.4814 9.99866 9.55637 5.42807 5.17281 4.59311 5.84505 5.5232 11.1372 4.24569 3.62562 5.29966
threshold=-6.9170499999999988 -6.9868449999999989 -6.2768299999999995 -6.3408649999999991 0.00028247300000000004 -6.2768299999999995 2.7233150000000004 -6.9868449999999989 0.0006614075000000002 -7.0419349999999996 -6.907004999999999 0.00016362750000000005 0.077630600000000008 0.0005728895000000001
decision_type=2 2 2 2 2 2 2 2 2 2 2 2 2 2
left_child=7 5 3 4 6 12 -3 -1 9 -9 -11 -8 13 -2
right_child=1 2 -4 -5 -6 -7 11 8 -10 10 -12 -13 -14 -15
leaf_value=0.00049900930470046703 -0.0080394197613254288 0.023050427449911478 -0.00052940172502505614 -0.0012123404714834687 0.0019825964875859756 -7.3652055051631702e-05 -0.008342133863957964 -0.0062458421911908988 -0.00024815027500576972 0.062514587274038941 0.00052574718240681298 0.034695704753941563 -0.00095854797056748459 0.00044360997151224747
leaf_weight=120139 5695 1890 9816 1230 924 41908 224 7160 18404 77 426 67 7336 2337
leaf_count=120139 5695 1890 9816 1230 924 41908 224 7160 18404 77 426 67 7336 2337
internal_value=0 -0.000219817 0.00276768 0.0102335 0.0147675 -0.000957928 0.020184 0.000107389 -0.00169753 -0.00517847 0.0100151 0.00156692 -0.00336932 -0.00557119
internal_weight=0 71427 14151 4335 3105 57276 2181 146206 26067 7663 503 291 15368 8032
internal_count=217633 71427 14151 4335 3105 57276 2181 146206 26067 7663 503 291 15368 8032
shrinkage=0.15


Tree=46
num_leaves=15
num_cat=0
split_feature=23 19 33 14 14 25 18 38 14 11 38 4 18 26
split_gain=0.349222 0.425323 2.09357 1.17891 0.626915 0.789926 0.836914 1.34116 1.01632 0.99439 1.28399 3.05556 2.87217 0.817264
threshold=-6.2663199999999994 5.6558950000000006e-07 1.3458700000000004e-07 0.00015935200000000003 0.00013542600000000004 1.8209250000000001 1.6006350000000004e-07 -3.1241049999999991e-05 9.3253850000000015e-05 1.4057800000000001e-05 2.4066750000000005e-05 -0.0098646799999999989 -9.8260599999999987e-08 -5.2319999999999994e-05
decision_type=2 2 2 2 2 2 2 2 2 2 2 2 2 2
left_child=-1 2 4 -4 5 6 9 8 -8 10 11 -2 -12 -13
right_child=1 -3 3 -5 -6 -7 7 -9 -10 -11 12 13 -14 -15
leaf_value=-4.3224240859455507e-05 -0.0073526037385800184 0.0013886945921768531 -0.0090878169556274264 -1.5849692714787458e-05 -0.00012387488650901298 -0.0011416041975620748 0.0068927009015527299 -0.0086396136759817471 0.04585712009109557 -0.0074322750800222687 0.051184305038935105 0.049764427759813164 0.0053276111507148012 0.013068003381009758
leaf_weight=206925 101 7975 735 574 673 230 61 116 20 42 63 36 60 22
leaf_count=206925 101 7975 735 574 673 230 61 116 20 42 63 36 60 22
internal_value=0 0.00083528 -0.000779606 -0.00510974 0.00320083 0.00618022 0.00941251 0.00170255 0.0165135 0.0141004 0.0173073 0.00840505 0.0288152 0.0358451
internal_weight=0 10708 2733 1309 1424 751 521 197 81 324 282 159 123 58
internal_count=217633 10708 2733 1309 1424 751 521 197 81 324 282 159 123 58
shrinkage=0.15


Tree=47
num_leaves=15
num_cat=0
split_feature=23 3 3 3 23 38 4 12 23 17 37 5 26 9
split_gain=0.252313 0.39492 1.1372 1.0367 2.31643 1.81467 4.41413 1.66112 1.59867 1.47578 1.15284 0.999366 1.09904 1.07246
threshold=-6.2663199999999994 -5.4935999999999989 -6.2187599999999987 -6.0545599999999995 -6.0063449999999987 -0.00023061899999999997 0.12285950000000001 2.8882100000000003e-05 -6.0395599999999989 -8.6887199999999987e-08 3.1857500000000006e-08 1.2346100000000002e-05 -6.6528099999999991e-05 3.0614000000000009e-05
decision_type=2 2 2 2 2 2 2 2 2 2 2 2 2 2
left_child=-1 2 -2 4 5 7 9 -4 10 -7 -5 -11 -13 -14
right_child=1 -3 3 8 -6 6 -8 -9 -10 11 -12 12 13 -15
leaf_value=-3.6740602484366281e-05 0.00037775994799731582 -0.0016603381481926284 -0.03213478765516941 -0.0056136265082550986 -0.010930830599810882 -0.0013057949531895038 -0.026334343698587927 0.020518258951890925 0.0096137784678399195 0.017661763379971183 0.012645821548510631 0.019351065438240767 0.059539126289578581 0.022039873017506168
leaf_weight=206925 7976 1378 28 476 79 26 34 26 415 45 93 32 78 22
leaf_count=206925 7976 1378 28 476 79 26 34 26 415 45 93 32 78 22
internal_value=0 0.000709988 0.00106007 0.00507938 0.0118481 0.018032 0.0236862 -0.00678332 0.00253424 0.032064 -0.00262922 0.0369658 0.0435467 0.0512893
internal_weight=0 10708 9330 1354 370 291 237 54 984 203 569 177 132 100
internal_count=217633 10708 9330 1354 370 291 237 54 984 203 569 177 132 100
shrinkage=0.15


Tree=48
num_leaves=15
num_cat=0
split_feature=23 3 21 1 8 19 22 22 22 11 7 3 30 14
split_gain=0.210966 7.22501 2.29025 8.94016 3.08451 1.65368 3.39474 1.60802 2.27915 1.61636 1.57457 1.54753 1.51949 1.14609
threshold=-17.896049999999999 -17.304849999999998 3.0676450000000002 3.3844350000000003 -6.6141399999999985e-06 9.6074000000000005e-06 -1.4969799999999998 -1.6889349999999996 -1.1071899999999999 2.3517950000000001e-05 5.6911100000000005e-05 -9.4771649999999976 0.0032644900000000005 0.0075547300000000008
decision_type=2 2 2 2 2 2 2 2 2 2 2 2 2 2
left_child=1 2 4 -4 -1 6 -6 -7 9 -9 -10 13 -5 -3
right_child=-2 11 3 12 5 7 -8 8 10 -11 -12 -13 -14 -15
leaf_value=-0.008992171258332746 3.7225171317730391e-05 -0.0053828672646720347 -0.0099610420239661188 0.079433945752680299 0.077766731046140194 -0.0090149142060769148 0.0069854735607101067 0.021764607571531088 -0.0062774505836257176 0.082070652090478688 0.036308519113808869 1.3149843347870721e-05 0.035553899607979333 -0.00065643990188019019
leaf_weight=120 204632 2786 62 56 30 52 31 20 56 20 30 7741 26 1971
leaf_count=120 204632 2786 62 56 30 52 31 20 56 20 30 7741 26 1971
internal_value=0 -0.000585914 0.0170403 0.0330217 0.0106299 0.020482 0.0417959 0.0131778 0.0223367 0.0519176 0.00857812 -0.0012953 0.0655208 -0.00342453
internal_weight=0 13001 503 144 359 239 61 178 126 40 86 12498 82 4757
internal_count=217633 13001 503 144 359 239 61 178 126 40 86 12498 82 4757
shrinkage=0.15


Tree=49
num_leaves=15
num_cat=0
split_feature=22 2 2 14 3 2 3 23 3 23 14 34 3 25
split_gain=0.206064 4.42326 0.419356 0.347794 0.605779 0.268081 0.212574 5.28215 12.223 7.10376 6.39999 4.56395 4.3231 4.31648
threshold=3.0909850000000003 3.0578500000000006 -3.0230999999999995 0.0022836250000000005 -6.1920449999999994 2.8595700000000002 -6.942054999999999 -7.0353699999999995 -6.2498799999999992 -6.3408649999999991 0.00028247300000000004 0.093331050000000013 -6.2768299999999995 2.0477050000000001
decision_type=2 2 2 2 2 2 2 2 2 2 2 2 2 2
left_child=6 2 -2 4 -4 -5 -1 12 9 10 11 -9 -8 -12
right_child=1 -3 3 5 -6 -7 7 8 -10 -11 13 -13 -14 -15
leaf_value=0.00011746836287927727 0.014099355909274891 0.06509575594712011 -0.0076600474344268145 -0.00073664803945071094 0.00020655642645829957 0.016930222130104082 -0.0029681726289859356 0.01830073394410995 -0.00068559659232693263 -0.00074280443114069933 -0.0027939158142227553 -0.0047819139912031513 -4.6411132494581353e-05 0.02010211671766373
leaf_weight=144289 33 22 600 573 348 20 15748 2226 9935 1350 824 211 41215 239
leaf_count=144289 33 22 600 573 348 20 15748 2226 9935 1350 824 211 41215 239
internal_value=0 -0.00169816 -0.00263174 -0.00299003 -0.00477231 -0.000140801 1.25453e-05 -0.00019846 0.0023278 0.00850059 0.0120659 0.0163022 -0.000854162 0.00235392
internal_weight=0 1596 1574 1541 948 593 216037 71748 14785 4850 3500 2437 56963 1063
internal_count=217633 1596 1574 1541 948 593 216037 71748 14785 4850 3500 2437 56963 1063
shrinkage=0.15


Tree=50
num_leaves=15
num_cat=0
split_feature=33 4 4 24 1 13 22 14 17 27 7 1 27 31
split_gain=0.21748 2.20677 2.47666 1.73215 1.81253 1.64552 3.00237 2.07182 1.53969 3.06332 2.43401 2.3655 1.84276 1.85076
threshold=-0.00012302899999999995 0.49798950000000003 2.9123050000000004 0.53053000000000006 -8.0946249999999988 1.8043800000000002e-05 1.3071100000000002 0.0023568750000000005 5.943890000000001e-06 54.318200000000012 4.2600050000000002e-05 -1.1908549999999998 38.008700000000012 -3.9230749999999994
decision_type=2 2 2 2 2 2 2 2 2 2 2 2 2 2
left_child=1 -1 3 -3 -5 6 -6 -8 12 -10 11 -11 13 -7
right_child=-2 2 -4 4 5 8 7 -9 9 10 -12 -13 -14 -15
leaf_value=-0.00061837195821635895 -2.9030947891876412e-05 -0.0034083874550217513 -0.00015356490138831351 -0.0061790024575020652 -0.0041333961363668632 0.0070377820481856666 0.060946024787335767 0.0011492123995346694 0.0046807212788296752 0.018437092538390841 0.0032939645029338343 0.082836623386141242 0.0060319808809909713 0.05124859583407345
leaf_weight=6015 209770 159 929 90 166 27 32 22 197 21 28 33 43 101
leaf_count=6015 209770 159 929 90 166 27 32 22 197 21 28 33 43 101
internal_value=0 0.000774491 0.00530808 0.0108292 0.0138078 0.0164926 0.00586096 0.0365844 0.0216903 0.0148212 0.0391832 0.0577924 0.0328977 0.0419229
internal_weight=0 7863 1848 919 760 670 220 54 450 279 82 54 171 128
internal_count=217633 7863 1848 919 760 670 220 54 450 279 82 54 171 128
shrinkage=0.15


Tree=51
num_leaves=15
num_cat=0
split_feature=23 3 3 23 18 18 3 23 23 3 13 3 23 23
split_gain=0.218924 10.031 12.4265 16.1277 6.44443 8.22699 7.47358 7.6064 7.15852 6.17993 5.4646 4.22298 8.5498 5.04705
threshold=-7.1436399999999987 -7.2547399999999991 -6.3853549999999988 -6.5295149999999991 3.3180850000000009e-05 -5.8725749999999996e-05 -6.5460449999999986 -6.6695199999999994 -6.6509899999999993 -6.6828699999999985 5.8330650000000004e-05 -6.6541099999999984 -6.7637699999999983 -6.789509999999999
decision_type=2 2 2 2 2 2 2 2 2 2 2 2 2 2
left_child=-1 10 3 4 5 -3 7 11 -8 -9 -2 13 -13 -7
right_child=1 2 -4 -5 -6 6 8 9 -10 -11 -12 12 -14 -15
leaf_value=7.8029973027000913e-05 -0.0036573516042130677 -0.00035260509604481579 -0.00036147804613683278 -0.001103950733879217 -0.0011788253608701167 0.036541871220604594 -0.0088214961052192845 -0.0061514502801492512 0.031183130473926148 0.030163537807403558 0.00072574489201815277 -0.0078048613666352341 0.058779743152781061 0.014425631593960681
leaf_weight=171498 17838 514 12109 2603 513 1133 329 289 145 166 9981 164 59 292
leaf_count=171498 17838 514 12109 2603 513 1133 329 289 145 166 9981 164 59 292
internal_value=0 -0.000290061 0.0024358 0.00789292 0.0143909 0.016975 0.0204311 0.0242661 0.00341621 0.00709753 -0.00208477 0.0290062 0.00981169 0.03201
internal_weight=0 46135 18316 6207 3604 3091 2577 2103 474 455 27819 1648 223 1425
internal_count=217633 46135 18316 6207 3604 3091 2577 2103 474 455 27819 1648 223 1425
shrinkage=0.15


Tree=52
num_leaves=15
num_cat=0
split_feature=23 23 3 3 14 23 3 14 30 3 3 14 23 3
split_gain=0.345741 0.560172 10.1994 14.3892 8.48107 6.88151 8.95806 10.0367 7.68098 7.37847 4.15605 5.48824 27.9343 22.0931
threshold=-6.2906249999999995 -7.1436399999999987 -7.2233449999999992 -6.3853549999999988 0.00059260700000000009 -6.6317949999999994 -6.6271099999999992 0.00029851800000000006 0.0012661550000000004 -6.6023349999999992 -7.2233449999999992 0.0012017500000000003 -12.530349999999997 -12.418249999999999
decision_type=2 2 2 2 2 2 2 2 2 2 2 2 2 2
left_child=1 10 4 5 -3 6 7 8 -4 -7 11 12 13 -1
right_child=-2 2 3 -5 -6 9 -8 -9 -10 -11 -12 -13 -14 -15
leaf_value=0.019729583865164567 0.00079890159008474157 -0.0078749193487197486 0.030063746805833479 -0.00095849711912493149 -0.00092256018835501789 -0.0050476356818267192 0.0001859466599578566 0.0040104432312975235 -0.0035510833769312111 0.015063444959585328 -0.00091661780268869784 -0.0002090163255885705 0.0046575652463940881 -0.0052449239242474306
leaf_weight=851 11542 5270 1264 8859 15737 1171 794 692 174 632 61869 68021 28203 12554
leaf_count=851 11542 5270 1264 8859 15737 1171 794 692 174 632 61869 68021 28203 12554
internal_value=0 -4.4742e-05 -0.000595369 0.00260736 -0.00266669 0.00929022 0.0137844 0.0188535 0.0259963 0.00200184 6.63255e-05 0.000621048 0.00197804 -0.00365945
internal_weight=0 206091 34593 13586 21007 4727 2924 2130 1438 1803 171498 109629 41608 13405
internal_count=217633 206091 34593 13586 21007 4727 2924 2130 1438 1803 171498 109629 41608 13405
shrinkage=0.15


Tree=53
num_leaves=15
num_cat=0
split_feature=23 23 3 3 14 14 3 14 23 3 30 3 23 32
split_gain=0.255732 0.452196 7.55593 11.4419 6.28767 3.94496 3.00275 4.57451 51.1111 33.8384 19.3627 19.3038 27.3352 12.1701
threshold=-6.3408649999999991 -7.1436399999999987 -7.2547399999999991 -6.3281449999999984 0.0016871300000000002 0.00080594950000000009 -7.2233449999999992 0.00036044150000000009 -9.2080749999999991 -9.196419999999998 0.0013021900000000002 -9.1461449999999989 -10.7143 -0.057321699999999996
decision_type=2 2 2 2 2 2 2 2 2 2 2 2 2 2
left_child=1 6 4 5 -3 -4 7 8 11 -10 -11 12 -1 -14
right_child=-2 2 3 -5 -6 -7 -8 -9 9 10 -12 -13 13 -15
leaf_value=-0.0031374469251831453 0.0006392782224365405 -0.005497290253952191 0.010089724011155527 -0.0012600297878541727 -9.5223134572582535e-05 -3.8729503559524517e-05 -0.00077912513158672045 8.7064773353159511e-05 -0.012824462980209471 0.020575793394420776 -0.0019360312586492476 -0.0064617425772167314 0.00091769009881283864 0.042993292089965246
leaf_weight=1453 13224 8448 3924 8053 11376 1110 61869 90829 1010 5123 1033 9397 212 572
leaf_count=1453 13224 8448 3924 8053 11376 1110 61869 90829 1010 5123 1033 9397 212 572
internal_value=0 -4.13574e-05 -0.000550646 0.00224666 -0.00239731 0.00785639 5.63767e-05 0.000527891 0.00265767 0.0126231 0.0167982 -0.00348057 0.00904247 0.0316157
internal_weight=0 204409 32911 13087 19824 5034 171498 109629 18800 7166 6156 11634 2237 784
internal_count=217633 204409 32911 13087 19824 5034 171498 109629 18800 7166 6156 11634 2237 784
shrinkage=0.15


Tree=54
num_leaves=15
num_cat=0
split_feature=23 14 19 22 34 31 11 9 22 14 19 14 20 0
split_gain=0.560194 5.35134 11.4983 15.9391 15.1423 8.81438 30.4604 28.3632 28.9864 3.74271 7.9765 3.64508 3.49265 6.78011
threshold=-10.7143 0.00071923400000000013 1.1641400000000003e-06 1.6604000000000003 0.19264550000000003 -0.013576 1.4492750000000001e-05 3.7504050000000005e-06 0.057390050000000005 0.00068334050000000012 1.5158200000000003e-06 0.0044395100000000015 5.6934000000000013 4.646065000000001
decision_type=2 2 2 2 2 2 2 2 2 2 2 2 2 2
left_child=1 -1 3 4 5 7 11 -3 -9 -2 -11 -7 -10 -14
right_child=9 2 -4 -5 -6 6 -8 8 12 10 -12 -13 13 -15
leaf_value=-0.00095529556295476342 0.00061505028191012091 -0.012952530745275883 0.00064389451631256226 -0.010021279250778826 0.0023150066282269072 0.055337285268981767 -0.016613896201573768 -0.010566803474832222 0.063518671661529982 -0.0058854002499770146 -0.00043408482218414477 0.011758066119348749 -0.011077794703570279 0.074821566589749769
leaf_weight=39869 65844 502 39728 821 1579 532 196 214 349 6701 61168 47 44 39
leaf_count=39869 65844 502 39728 821 1579 532 196 214 349 6701 61168 47 44 39
internal_value=0 0.000303775 0.00144332 0.00878992 0.0132 0.0221378 0.0344977 0.0137937 0.0345779 -0.000190653 -0.000972317 0.0517998 0.0569413 0.0292846
internal_weight=0 83920 44051 4323 3502 1923 775 1148 646 133713 67869 579 432 83
internal_count=217633 83920 44051 4323 3502 1923 775 1148 646 133713 67869 579 432 83
shrinkage=0.15


Tree=55
num_leaves=15
num_cat=0
split_feature=39 18 24 18 34 3 24 18 19 33 3 23 3 22
split_gain=0.523087 0.978502 10.0552 9.23965 5.21476 4.01127 3.9781 7.77108 6.95379 7.74487 7.40985 6.16216 5.43311 4.93405
threshold=0.00012966950000000004 7.9309250000000023e-06 0.2652790000000001 0.00034490750000000004 0.97781150000000017 -6.2768299999999995 0.2652790000000001 -4.3947199999999993e-06 0.00019856900000000003 1.96131e-05 -7.5458749999999988 -7.2957849999999995 -6.3035799999999993 -1.3864299999999996
decision_type=2 2 2 2 2 2 2 2 2 2 2 2 2 2
left_child=-1 6 -3 4 5 -4 7 8 9 10 -2 -12 -13 -11
right_child=1 2 3 -5 -6 -7 -8 -9 -10 13 11 12 -14 -15
leaf_value=-0.00014720847137642096 0.024574041136834278 -0.0023554324591010373 0.018195148119861469 0.00093471924826863165 0.0029492242197659271 0.0011776839191297767 -0.0014451736715798314 -0.0011173708456828869 0.0018205040470736741 0.022056937075991646 -0.0045227986214940921 0.069466948068155995 -0.0042961481730274566 -0.00069850555406546016
leaf_weight=155373 1089 8325 1845 5073 1171 375 21968 12867 7390 254 436 53 39 1375
leaf_count=155373 1089 8325 1845 5073 1171 375 21968 12867 7390 254 436 53 39 1375
internal_value=0 0.000367366 0.001346 0.00498666 0.0110484 0.0153206 6.02901e-06 0.00136245 0.00436244 0.0101495 0.0175036 0.00292094 0.0381978 0.00284961
internal_weight=0 62260 16789 8464 3391 2220 45471 23503 10636 3246 1617 528 92 1629
internal_count=217633 62260 16789 8464 3391 2220 45471 23503 10636 3246 1617 528 92 1629
shrinkage=0.15


Tree=56
num_leaves=15
num_cat=0
split_feature=30 3 19 6 13 14 14 34 23 3 19 22 23 21
split_gain=0.431777 1.00647 0.992444 0.87123 0.789936 0.774154 0.692042 2.05388 1.59317 4.90378 2.64873 4.05426 2.52248 3.1648
threshold=0.0043234350000000013 -6.7842149999999988 1.7549500000000002e-06 6.3156650000000015e-07 0.00021455900000000002 0.00052710300000000012 0.0082895900000000012 2.6761500000000003 -13.08405 -13.076899999999998 0.00011964300000000002 1.8642900000000002 -7.3437899999999994 3.3871600000000002
decision_type=2 2 2 2 2 2 2 2 2 2 2 2 2 2
left_child=-1 2 5 4 6 -2 8 -8 -4 -10 11 12 13 -11
right_child=1 -3 3 -5 -6 -7 7 -9 9 10 -12 -13 -14 -15
leaf_value=-8.4752978939532374e-05 -0.00034224240285629144 0.0018238041540305865 -0.0022964163122915363 -0.00061737698405360704 -0.00076234841351559876 -0.0043265560885176772 0.00089634714888537313 0.010935643038967572 -0.0088486523460423044 0.015588905395341626 0.0019292896946301306 -0.010386704890059118 0.0022588270950289241 0.04041396788471744
leaf_weight=187467 2597 9307 1602 8083 2340 1900 1170 754 536 430 963 139 187 158
leaf_count=187467 2597 9307 1602 8083 2340 1900 1170 754 536 430 963 139 187 158
internal_value=0 0.000526699 -5.20523e-05 0.000490374 0.0015719 -0.00202563 0.00249161 0.00483067 0.00137072 0.00380535 0.00741886 0.0132027 0.0174336 0.0222596
internal_weight=0 30166 20859 16362 8279 4497 5939 1924 4015 2413 1877 914 775 588
internal_count=217633 30166 20859 16362 8279 4497 5939 1924 4015 2413 1877 914 775 588
shrinkage=0.15


Tree=57
num_leaves=15
num_cat=0
split_feature=23 3 3 14 23 34 14 3 3 3 23 3 23 14
split_gain=0.401555 26.7776 17.9417 16.4945 31.508 15.5306 15.1907 11.5486 9.86742 9.0127 7.25046 6.77444 18.6405 12.6561
threshold=-10.7143 -10.729049999999999 -10.729049999999999 0.0032082450000000006 -15.570249999999998 0.31672950000000005 0.0052402850000000008 -15.166249999999998 -15.512049999999999 -6.8084599999999993 -16.783199999999997 -7.2233449999999992 -7.3437899999999994 0.0012378850000000002
decision_type=2 2 2 2 2 2 2 2 2 2 2 2 2 2
left_child=1 3 6 4 7 8 -2 10 -6 -3 -1 12 13 -4
right_child=2 9 11 -5 5 -7 -8 -9 -10 -11 -12 -13 -14 -15
leaf_value=0.004387553138571712 -0.0060935101792375579 -0.0033004172725940562 0.0072719799400105031 0.0011475707622326057 -0.0058976149663698572 0.0021482041153132948 -0.00011566644894457829 -0.0072454856582056812 0.019674594817757039 0.00048945795217745028 0.044363661334355126 -0.000268529931466178 -0.0015973572244169145 0.00079470412970612022
leaf_weight=282 17885 31191 16755 16263 363 1843 20560 2778 5246 25794 160 49711 17393 11409
leaf_count=282 17885 31191 16755 16263 363 1843 20560 2778 5246 25794 160 49711 17393 11409
internal_value=0 0.000257191 -0.000161416 0.00415451 0.00873676 0.0140944 -0.00289662 -0.00366226 0.0180196 -0.00158495 0.0188585 0.000942363 0.00226367 0.00464809
internal_weight=0 83920 133713 26935 10672 7452 38445 3220 5609 56985 442 95268 45557 28164
internal_count=217633 83920 133713 26935 10672 7452 38445 3220 5609 56985 442 95268 45557 28164
shrinkage=0.15


Tree=58
num_leaves=15
num_cat=0
split_feature=30 3 18 38 18 34 14 23 19 33 33 22 22 23
split_gain=0.481067 0.554058 0.765262 3.70506 4.17506 2.04782 2.2032 1.98321 1.63675 5.80806 4.11975 3.16825 2.8459 2.14264
threshold=0.0031519250000000003 -6.7842149999999988 3.9077700000000007e-05 -0.012802049999999997 0.00070373700000000007 4.6183500000000004 0.00062385550000000004 -6.9313999999999991 0.00061655700000000011 -1.9711349999999996e-05 3.5008800000000009e-05 1.4463850000000003 2.4316000000000004 -16.783199999999997
decision_type=2 2 2 2 2 2 2 2 2 2 2 2 2 2
left_child=-1 2 -2 4 5 6 -4 8 10 11 12 -10 -8 -11
right_child=1 -3 3 -5 -6 -7 7 -9 9 13 -12 -13 -14 -15
leaf_value=-0.00010090691827256972 -0.00041453105310379073 0.0013627953542728257 -0.0038102000047469378 -0.002027186586224407 0.0012264838064351342 -0.0016087875397575912 0.02476169018156792 -0.0028342174088730014 -0.011566417787253157 0.0050379528144813687 -0.015516655608248638 0.055182003295049069 -0.015824534640062688 0.055655868486053521
leaf_weight=180649 18254 11397 126 3607 2512 208 405 97 80 22 83 20 43 130
leaf_count=180649 18254 11397 126 3607 2512 208 405 97 80 22 83 20 43 130
internal_value=0 0.000492882 0.000105403 0.00139967 0.00471709 0.0119398 0.0147411 0.0173973 0.0199037 0.0298588 0.0151792 0.00178327 0.0208661 0.0483296
internal_weight=0 36984 25587 7333 3726 1214 1006 880 783 252 531 100 448 152
internal_count=217633 36984 25587 7333 3726 1214 1006 880 783 252 531 100 448 152
shrinkage=0.15


Tree=59
num_leaves=15
num_cat=0
split_feature=34 3 27 14 36 14 14 4 18 26 32 26 4 26
split_gain=0.386744 0.875648 2.14065 1.75469 1.82599 1.69855 1.2133 1.04257 1.78514 2.8369 1.64996 1.07023 1.14152 2.8775
threshold=0.78160050000000014 -15.512049999999999 6.1827250000000005 0.016356000000000002 -2.2564299999999995 0.039549700000000007 0.0027514900000000005 -1.7688599999999999 -0.00028490899999999991 0.00013653850000000002 3.0995850000000007 0.00038798150000000003 0.46547150000000009 -0.00017802949999999999
decision_type=2 2 2 2 2 2 2 2 2 2 2 2 2 2
left_child=-1 2 5 -4 -5 6 -2 -8 9 -9 11 12 -10 -14
right_child=1 -3 3 4 -6 -7 7 8 10 -11 -12 -13 13 -15
leaf_value=-7.3485940813738281e-05 -0.0057695919345480519 0.00028916617564293443 -0.0051644016708795428 0.041265794217019904 0.0040974325063826934 -0.0017496717393938029 -0.0053038404843168876 0.0071196173926672103 0.0086240096540519239 0.061584895811938621 0.0556220469949767 -0.0055229093434046141 0.049811707714106881 0.0023119939485861159
leaf_weight=191737 67 23858 729 32 421 231 49 39 218 48 20 69 60 55
leaf_count=191737 67 23858 729 32 421 231 49 39 218 48 20 69 60 55
internal_value=0 0.000544098 0.00352848 -0.000608565 0.00672301 0.00924109 0.0133033 0.0155934 0.0176051 0.0371694 0.0135717 0.0114796 0.0150027 0.0270945
internal_weight=0 25896 2038 1182 453 856 625 558 509 87 422 402 333 115
internal_count=217633 25896 2038 1182 453 856 625 558 509 87 422 402 333 115
shrinkage=0.15


Tree=60
num_leaves=15
num_cat=0
split_feature=23 3 3 14 16 3 23 13 37 0 20 20 21 23
split_gain=0.428776 0.644425 2.54434 3.20848 1.84937 1.87004 3.79817 1.83165 1.78392 1.9571 7.69101 6.24824 1.8469 1.53756
threshold=-6.3743849999999993 -5.7268599999999994 -6.3853549999999988 0.00019135550000000002 -4.9329799999999984e-07 -6.1122599999999991 -6.0063449999999987 2.3330950000000004e-05 4.6045400000000001e-08 10.000450000000003 10.210350000000002 10.521450000000002 12.832950000000002 -6.1298999999999984
decision_type=2 2 2 2 2 2 2 2 2 2 2 2 2 2
left_child=-1 2 3 -2 -4 6 7 8 9 11 -11 12 -6 -7
right_child=1 -3 4 -5 5 13 -8 -9 -10 10 -12 -13 -14 -15
leaf_value=-5.7068568581369503e-05 -0.0060598729703566058 -0.001457833860477402 -0.0051772758902542881 0.0013936313128334911 0.037089644330886323 -0.0031722326343901377 -0.012714006223645677 -0.0044288676952847338 -0.0046526304258105271 -0.034530367651954288 0.05371442288160324 -0.046564054002215999 -0.0036872653290629383 0.0098164620458657398
leaf_weight=202738 1514 2430 262 9170 336 392 101 68 52 50 40 23 27 430
leaf_count=202738 1514 2430 262 9170 336 392 101 68 52 50 40 23 27 430
internal_value=0 0.000776769 0.0012124 0.000337416 0.00646129 0.00846873 0.0141843 0.0187425 0.0217267 0.0246085 0.00468954 0.0292528 0.0340567 0.00362234
internal_weight=0 14895 12465 10684 1781 1519 697 596 528 476 90 386 363 822
internal_count=217633 14895 12465 10684 1781 1519 697 596 528 476 90 386 363 822
shrinkage=0.15


Tree=61
num_leaves=15
num_cat=0
split_feature=23 3 14 23 3 3 34 3 14 23 3 4 23 23
split_gain=0.327647 30.2904 16.9584 16.5874 13.8519 13.5637 12.176 11.6871 11.3919 7.37539 6.91504 6.8007 5.69828 5.47828
threshold=-11.906049999999999 -11.892349999999999 0.0064171350000000009 -16.783199999999997 -11.892349999999999 -16.413199999999996 0.66201150000000009 -16.559399999999997 0.0067067750000000008 -16.042949999999994 -6.942054999999999 0.43714250000000004 -7.1806249999999991 -18.402399999999997
decision_type=2 2 2 2 2 2 2 2 2 2 2 2 2 2
left_child=1 2 3 5 8 13 7 9 12 -5 -3 -9 -2 -1
right_child=4 10 -4 6 -6 -7 -8 11 -10 -11 -12 -13 -14 -15
leaf_value=0.0024716773265126076 -0.0077014828568616137 -0.0031343221024018237 0.0010086848877727721 0.04338226089683863 0.00064076752949809954 -0.0060834666021187768 0.00098668821346805887 0.022302912202279791 -0.00019217690319330236 -0.010748788769011629 0.00042335955767760326 0.0032084096384955556 -0.0015653012360849173 0.037522040197336536
leaf_weight=165 10744 28052 8357 65 117733 1825 1196 3991 17474 440 21881 469 4985 256
leaf_count=165 10744 28052 8357 65 117733 1825 1196 3991 17474 440 21881 469 4985 256
internal_value=0 0.00027687 0.00579378 0.0105504 -0.000122346 -0.000484799 0.0145733 0.0178461 -0.00282823 -0.00378143 -0.00157532 0.020295 -0.00575674 0.023785
internal_weight=0 66697 16764 8407 150936 2246 6161 4965 33203 505 49933 4460 15729 421
internal_count=217633 66697 16764 8407 150936 2246 6161 4965 33203 505 49933 4460 15729 421
shrinkage=0.15


Tree=62
num_leaves=15
num_cat=0
split_feature=39 3 14 20 9 9 20 9 9 39 20 20 20 21
split_gain=0.437593 0.655286 1.19558 5.96647 58.4588 18.8149 15.3381 36.574 14.3695 11.7915 9.81627 6.94132 5.25168 4.66598
threshold=0.00017074050000000002 -7.2547399999999991 0.00030621600000000005 -6.6207549999999991 -2.1801549999999998e-05 -2.2312549999999997e-05 6.1742150000000011 2.0423650000000006e-05 2.3334450000000005e-05 4.556510000000001e-06 11.056200000000002 -10.831399999999999 -5.7563499999999985 -7.9193399999999992
decision_type=2 2 2 2 2 2 2 2 2 2 2 2 2 2
left_child=1 2 3 4 11 12 8 -8 9 -7 13 -1 -5 -9
right_child=-2 -3 -4 5 -6 6 7 10 -10 -11 -12 -13 -14 -15
leaf_value=0.0060257121701220934 0.00035274303400718675 -0.00052346938248614685 -0.0001069614664230782 0.012861608098301299 -0.012449822160520447 0.020222370437513921 -0.010257433232570813 -0.0014008690004654815 -0.0079981653740379428 0.00018359167901536909 0.0014278591209841143 0.036451949802393621 -0.0098977503679831564 0.037781565901122804
leaf_weight=201 58030 59314 85844 243 1485 1025 824 73 2648 1859 231 1050 3725 1081
leaf_count=201 58030 59314 85844 243 1485 1025 824 73 2648 1859 231 1050 3725 1081
internal_value=0 -0.000128254 0.000105489 0.00136804 0.00767461 -0.000105589 0.00419938 0.0147656 -1.9869e-05 0.00730556 0.029653 0.0315633 -0.00850397 0.035303
internal_weight=0 159603 100289 14445 2736 11709 7741 2209 5532 2884 1385 1251 3968 1154
internal_count=217633 159603 100289 14445 2736 11709 7741 2209 5532 2884 1385 1251 3968 1154
shrinkage=0.15


Tree=63
num_leaves=15
num_cat=0
split_feature=34 3 23 4 18 24 24 3 5 4 24 4 24 4
split_gain=0.395158 0.542116 4.48652 1.26757 2.14699 4.10191 1.69587 1.68785 1.09776 1.05404 3.07111 2.9518 2.00088 1.70988
threshold=0.70966450000000003 -15.512049999999999 -14.139049999999997 -3.3062649999999993 -0.00025461599999999999 -0.46452799999999994 -0.77950449999999993 -15.994799999999998 1.8127350000000005e-05 0.38724300000000006 0.77512900000000007 4.6865200000000007 -0.45059349999999992 0.92173400000000016
decision_type=2 2 2 2 2 2 2 2 2 2 2 2 2 2
left_child=-1 2 3 -2 5 7 -6 8 -5 12 13 -12 -8 -11
right_child=1 -3 -4 4 6 -7 9 -9 -10 10 11 -13 -14 -15
leaf_value=-7.6981068805465273e-05 -0.0031905056827582017 0.00033603561790437496 -0.0046292628465965666 0.023267230383105207 -0.0047192148148496932 0.00021800137677251599 0.024908754900740137 0.08317783062346279 0.057228718947788526 0.028891342604532834 0.049468070389728218 -0.0047145699197426432 -0.0016887215850285337 -0.0037489413712710998
leaf_weight=190063 164 25395 993 61 192 86 87 20 33 50 92 30 237 130
leaf_count=190063 164 25395 993 61 192 86 87 20 33 50 92 30 237 130
internal_value=0 0.000530695 0.00280351 0.00904779 0.0110194 0.0249508 0.00761317 0.0436088 0.0351899 0.0113956 0.017771 0.0361445 0.00545319 0.0053178
internal_weight=0 27570 2175 1182 1018 200 818 114 94 626 302 122 324 180
internal_count=217633 27570 2175 1182 1018 200 818 114 94 626 302 122 324 180
shrinkage=0.15


Tree=64
num_leaves=15
num_cat=0
split_feature=23 23 14 19 33 25 33 17 4 4 33 22 2 2
split_gain=0.322349 0.397673 2.29181 5.61432 27.31 6.85875 4.13834 6.33229 21.2872 16.4658 10.7521 5.01399 18.3543 12.9544
threshold=-6.3408649999999991 -11.549549999999998 0.0010945700000000002 2.4794150000000001e-06 3.2130100000000007e-06 1.7714450000000002 3.2993750000000005e-06 -6.6467399999999989e-09 0.38724300000000006 -0.42388399999999993 4.8267500000000005e-05 2.4316000000000004 2.3859450000000004 2.3859450000000004
decision_type=2 2 2 2 2 2 2 2 2 2 2 2 2 2
left_child=1 2 -1 4 5 -4 -5 -8 9 -9 11 13 -13 -11
right_child=-2 -3 3 6 -6 -7 7 8 -10 10 -12 12 -14 -15
leaf_value=-0.00056165218571072235 0.0007177294946673576 -0.00019907134923778346 0.022816381139621821 -0.0012574727101433657 -0.0098956291862912563 -9.1172888990941883e-05 -0.001797620283082254 0.0016845456903493696 -0.00052044584557614135 0.039249110133543111 0.0044469004199072515 -0.018247720769259259 0.058125996236073771 -0.016262594248669649
leaf_weight=37655 13224 133404 1549 14962 1272 363 5521 1371 6356 1045 512 177 118 104
leaf_count=37655 13224 133404 1549 14962 1272 363 5521 1371 6356 1045 512 177 118 104
internal_value=0 -4.64327e-05 0.000240344 0.00114587 0.00713638 0.0184673 0.000513573 0.00225643 0.00456794 0.014289 0.0231236 0.0297459 0.0123018 0.0342246
internal_weight=0 204409 71005 33350 3184 1912 30166 15204 9683 3327 1956 1444 295 1149
internal_count=217633 204409 71005 33350 3184 1912 30166 15204 9683 3327 1956 1444 295 1149
shrinkage=0.15


Tree=65
num_leaves=15
num_cat=0
split_feature=34 3 23 15 31 15 8 22 2 2 12 4 38 16
split_gain=0.38326 0.37019 2.73483 0.927656 0.933974 0.985557 1.65351 1.63103 7.88169 4.02618 2.29105 1.53345 3.60853 1.72537
threshold=0.78160050000000014 -15.871649999999999 -14.139049999999997 7.4066250000000009e-05 29.306750000000005 -2.6163199999999997e-05 -1.4102149999999998e-05 -1.1581899999999998 -1.1564299999999998 -0.87377249999999995 -0.00014945249999999999 0.7372645000000001 -0.076183649999999992 -3.8224499999999993e-06
decision_type=2 2 2 2 2 2 2 2 2 2 2 2 2 2
left_child=-1 2 3 4 5 -2 -7 8 -8 -9 -11 13 -13 -12
right_child=1 -3 -4 -5 -6 6 7 9 -10 10 11 12 -14 -15
leaf_value=-7.3154143350031591e-05 0.00094704723453353584 0.00039079398895415496 -0.0039478008931051753 -0.004579002965405571 -0.015687317695213303 0.0435650640928473 0.048376344663886336 -0.013290119534194551 -0.013382449628685048 0.06544481941631862 0.025609079603938729 0.08530711652711033 -0.0037202662189624136 -0.0046069331462209482
leaf_weight=191737 176 24185 771 114 31 39 113 149 79 21 71 20 21 106
leaf_count=191737 176 24185 771 114 31 39 113 149 79 21 71 20 21 106
internal_value=0 0.000541642 0.00267388 0.00810506 0.00985565 0.0108517 0.0136678 0.0116575 0.0229652 0.00606196 0.0181266 0.0135685 0.0397077 0.00751361
internal_weight=0 25896 1711 940 826 795 619 580 192 388 239 218 41 177
internal_count=217633 25896 1711 940 826 795 619 580 192 388 239 218 41 177
shrinkage=0.15


Tree=66
num_leaves=15
num_cat=0
split_feature=13 33 34 3 3 4 4 34 27 34 3 27 3 27
split_gain=0.322155 0.745002 0.626842 2.42345 2.94821 5.09475 9.79978 6.33674 7.3579 6.44105 13.5133 8.86917 5.09429 3.59703
threshold=9.0003600000000014e-05 7.3721900000000005e-06 0.021387400000000004 -9.812249999999997 -6.942054999999999 -0.13878399999999999 0.14988850000000004 0.0030911400000000005 0.4049525000000001 0.013102600000000001 -8.3608649999999987 0.22126450000000003 -8.0001399999999983 0.19822300000000001
decision_type=2 2 2 2 2 2 2 2 2 2 2 2 2 2
left_child=2 -2 3 -1 5 -5 7 -7 9 13 11 -11 -10 -9
right_child=1 -3 -4 4 -6 6 -8 8 12 10 -12 -13 -14 -15
leaf_value=-0.0019437737376645566 0.00070425178978188066 -0.00066011799886552111 0.00011817980740374905 -0.0022897465639250218 -0.00096244084578603361 -0.0058147629794713437 -0.0022055198063308007 0.017959398485640536 -0.0085611521596249632 -0.0042029471730749158 -0.014105105101249042 0.034497388674856758 0.0069348223334987696 0.0092789503128858451
leaf_weight=17975 34575 12176 110035 5499 24181 874 4863 1930 898 232 641 313 1019 2422
leaf_count=17975 34575 12176 110035 5499 24181 874 4863 1930 898 232 641 313 1019 2422
internal_value=0 0.00034891 -9.54572e-05 -0.000481796 0.00013117 0.001546 0.00314491 0.00626883 0.00768547 0.010458 0.000658707 0.0180231 -0.000324116 0.0131285
internal_weight=0 46751 170882 60847 42872 18691 13192 8329 7455 5538 1186 545 1917 4352
internal_count=217633 46751 170882 60847 42872 18691 13192 8329 7455 5538 1186 545 1917 4352
shrinkage=0.15


Tree=67
num_leaves=15
num_cat=0
split_feature=23 3 3 14 15 39 3 23 15 30 4 24 24 5
split_gain=0.334896 0.472075 1.97 2.80817 1.755 1.31862 1.31357 3.19655 2.16699 2.04145 1.87438 6.37908 2.93688 1.98147
threshold=-6.3908299999999993 -5.7268599999999994 -6.4440149999999994 0.00022740750000000003 8.4460100000000009e-08 6.8873900000000025e-05 -6.1381299999999994 -6.1631349999999996 -4.0359749999999992e-07 0.00091716950000000008 -0.077230699999999985 -0.072506899999999985 -0.11183149999999999 1.5725450000000004e-05
decision_type=2 2 2 2 2 2 2 2 2 2 2 2 2 2
left_child=-1 2 3 5 6 -2 7 8 -4 10 11 13 -12 -10
right_child=1 -3 4 -5 -6 -7 -8 -9 9 -11 12 -13 -14 -15
leaf_value=-5.1938760900748926e-05 -0.0072833304310200723 -0.0012011437188486831 -0.0020889631360769272 0.0012855560232351427 -0.0018838455099722345 0.0028618905735873046 0.0040243316211115649 -0.00085964159677702913 0.0085535022430121895 -0.019232574717274735 -0.017778765090874261 -0.047071306407451628 0.040967879331056972 0.066819983309712894
leaf_weight=201902 1415 2551 75 9400 547 362 804 236 24 21 21 29 217 29
leaf_count=201902 1415 2551 75 9400 547 362 804 236 24 21 21 29 217 29
internal_value=0 0.000666616 0.00102812 0.000251796 0.00536013 -0.00521661 0.0080816 0.0130847 0.0209955 0.0260727 0.0290458 0.00948775 0.0357844 0.0404352
internal_weight=0 15731 13180 11177 2003 1777 1456 652 416 341 320 82 238 53
internal_count=217633 15731 13180 11177 2003 1777 1456 652 416 341 320 82 238 53
shrinkage=0.15


Tree=68
num_leaves=15
num_cat=0
split_feature=7 20 11 14 5 22 2 2 22 19 2 22 14 5
split_gain=0.328339 1.10026 4.29526 4.4962 3.90486 2.46538 8.04398 2.80981 1.79936 5.41871 3.61406 2.40218 1.29375 1.13387
threshold=5.4733300000000007e-05 -8.1735049999999969 -1.5565849999999996e-05 0.00026688850000000007 1.9573550000000005e-05 2.9399650000000004 2.8862200000000002 2.9408750000000006 -2.6579249999999996 0.00047125900000000008 -2.6044999999999994 2.5991050000000002 6.6079350000000027e-05 1.7097650000000004e-05
decision_type=2 2 2 2 2 2 2 2 2 2 2 2 2 2
left_child=-1 2 3 4 5 7 -7 8 10 -10 12 -11 -2 -14
right_child=1 -3 -4 -5 -6 6 -8 -9 9 11 -12 -13 13 -15
leaf_value=-0.0001231690149052415 0.023640450890379722 5.091157665040134e-05 -0.0011129791047965166 0.0022702809428623728 0.0062939804370139504 -0.0060748466921429481 0.0968875496236586 -0.0080749600972107576 -0.0019546886538293739 0.01429847105589163 -0.011783349085957384 0.078470293972308605 0.073442736665646616 0.036822781579685396
leaf_weight=150412 30 59117 4582 2434 636 31 38 67 122 21 26 35 52 30
leaf_count=150412 30 59117 4582 2434 636 31 38 67 122 21 26 35 52 30
internal_value=0 0.0002756 0.00191465 0.0058535 0.0138696 0.0245292 0.0506291 0.0198271 0.0257431 0.0157767 0.0385982 0.0544059 0.0502939 0.0600452
internal_weight=0 67221 8104 3522 1088 452 69 383 316 178 138 56 112 82
internal_count=217633 67221 8104 3522 1088 452 69 383 316 178 138 56 112 82
shrinkage=0.15


Tree=69
num_leaves=15
num_cat=0
split_feature=30 4 38 4 23 3 3 3 23 4 27 16 1 28
split_gain=0.281588 0.850726 4.1623 7.89076 3.06893 3.62793 3.2411 2.69159 2.15021 2.09398 1.90749 2.30846 1.82718 4.06255
threshold=0.0050404700000000009 -0.38312399999999996 0.020180000000000003 -1.5283549999999997 -15.265799999999997 -14.385199999999999 -5.9751649999999996 -13.980049999999999 -13.606149999999998 -0.68792049999999982 67.650400000000005 8.7527200000000015e-06 7.745070000000001 0.15316750000000004
decision_type=2 2 2 2 2 2 2 2 2 2 2 2 2 2
left_child=-1 2 -2 -4 7 8 10 9 -6 -5 12 -12 -7 -14
right_child=1 -3 3 4 5 6 -8 -9 -10 -11 11 -13 13 -15
leaf_value=-6.5037856493175097e-05 -0.0019256618795444774 -1.9891944061288829e-05 -2.0038851904594574e-05 0.040616307836973058 0.037272605367682198 0.03219082268778168 0.00076621483328994527 -0.0066420473294477875 -0.014571006771064165 -0.0075331932594699235 -0.018098910655393156 0.041640902733938258 -0.017535506759304553 0.049753087276423517
leaf_weight=190023 3227 20992 2115 59 22 560 129 226 99 31 43 22 52 33
leaf_count=190023 3227 20992 2115 59 22 560 129 226 99 31 43 22 52 33
internal_value=0 0.000447616 0.00193053 0.00560023 0.014916 0.0191365 0.0226383 0.00209408 -0.0051449 0.0240315 0.0266123 0.00212072 0.0290804 0.0085883
internal_weight=0 27610 6618 3391 1276 960 839 316 121 90 710 65 645 85
internal_count=217633 27610 6618 3391 1276 960 839 316 121 90 710 65 645 85
shrinkage=0.15


Tree=70
num_leaves=15
num_cat=0
split_feature=23 0 29 0 23 16 36 14 0 29 29 14 14 16
split_gain=0.267705 0.288851 0.302016 0.677337 0.285545 0.283238 0.543133 1.05424 0.617882 1.49869 1.24708 0.843107 1.21864 0.818064
threshold=-6.2663199999999994 11.960450000000002 -0.0068302999999999992 12.402900000000001 -6.1298999999999984 3.1357800000000004e-08 0.00049153750000000007 0.0004987975000000001 3.5762150000000008 -0.0029118849999999999 -0.0027207899999999994 0.00016362750000000005 8.9811050000000015e-05 1.1018000000000001e-07
decision_type=2 2 2 2 2 2 2 2 2 2 2 2 2 2
left_child=-1 5 3 -3 -5 -2 -7 8 9 -8 -10 12 -11 -14
right_child=1 2 -4 4 -6 6 7 -9 10 11 -12 -13 13 -15
leaf_value=-3.784469546138401e-05 0.0001597338452036049 0.028192502689281744 -0.0049978975768571977 0.010059117189244246 -0.0076206457069989096 2.5204788498490843e-05 -7.6302013956321263e-05 0.00076516738199931518 0.010752697916192416 0.0095857702668373738 -0.0030514849712929746 0.0071381603506244905 0.013829860584311453 0.044166661549866801
leaf_weight=206925 5449 21 362 31 61 2222 161 1547 294 70 295 97 28 70
leaf_count=206925 5449 21 362 31 61 2222 161 1547 294 70 295 97 28 70
internal_value=0 0.000731324 -0.00288468 0.0038851 -0.00166333 0.000899173 0.0017414 0.00322984 0.00698633 0.0113381 0.00383889 0.0182729 0.0247018 0.035499
internal_weight=0 10708 475 113 92 10233 4784 2562 1015 426 589 265 168 98
internal_count=217633 10708 475 113 92 10233 4784 2562 1015 426 589 265 168 98
shrinkage=0.15


Tree=71
num_leaves=15
num_cat=0
split_feature=13 33 19 23 3 23 7 3 20 34 23 16 25 3
split_gain=0.259335 0.531642 4.45898 4.08927 2.95247 1.94479 1.74486 1.34942 1.03444 0.723422 0.677449 0.579439 0.490525 0.844365
threshold=9.0003600000000014e-05 -3.1267899999999992e-05 0.00015282300000000004 -12.223399999999998 -12.740499999999999 -17.297799999999995 5.0336000000000007e-05 -16.875299999999999 -2.0155699999999999 0.027879550000000006 -15.265799999999997 -9.349369999999999e-07 54.164200000000008 -15.402299999999999
decision_type=2 2 2 2 2 2 2 2 2 2 2 2 2 2
left_child=-1 2 3 4 5 7 8 11 -7 -3 -10 -2 -4 -14
right_child=1 9 12 -5 -6 6 -8 -9 10 -11 -12 -13 13 -15
leaf_value=-8.5645904609698778e-05 0.057201971097383647 0.00082253725655393416 0.00015781714071074997 -0.0051860230195897574 -0.0016652573360585977 0.085321041857823729 0.024308510276636011 0.00020506582455709577 0.069219527794048191 -0.00043978651653281978 0.031472310116109639 0.021527110944901194 0.024685964064717174 0.0030728810582096888
leaf_weight=170882 20 18583 4768 119 56 30 38 40 20 22684 23 21 47 302
leaf_count=170882 20 18583 4768 119 56 30 38 40 20 22684 23 21 47 302
internal_value=0 0.000313049 0.00170063 0.0176717 0.0286398 0.0374787 0.0503748 0.0198063 0.0639436 0.000128652 0.0490292 0.0389295 0.000555154 0.00598353
internal_weight=0 46751 5484 367 248 192 111 81 73 41267 43 41 5117 349
internal_count=217633 46751 5484 367 248 192 111 81 73 41267 43 41 5117 349
shrinkage=0.15


Tree=72
num_leaves=15
num_cat=0
split_feature=3 39 14 23 3 3 23 30 23 23 3 20 20 9
split_gain=0.261112 1.0137 0.713264 8.96824 6.56338 9.69503 32.0143 14.8063 7.96347 5.35743 9.50275 11.4952 11.4573 11.0133
threshold=-5.9118649999999997 1.6518200000000003e-06 0.00018273250000000005 -8.1113849999999985 -8.244114999999999 -6.8865649999999992 -6.9868449999999989 0.00036147050000000003 -6.9496149999999988 -11.762749999999999 -8.0805899999999991 7.7422400000000007 -7.8335649999999992 2.3746100000000003e-05
decision_type=2 2 2 2 2 2 2 2 2 2 2 2 2 2
left_child=2 -2 3 9 -5 6 7 -6 -7 -1 11 12 -11 -13
right_child=1 -3 -4 4 5 8 -8 -9 -10 10 -12 13 -14 -15
leaf_value=-0.00017178313938634224 -0.0015519318530526547 0.00063879312717842027 6.0316941968091334e-05 -0.012616536624148121 0.027519877849734906 -0.0060088447614045229 -0.0049117518403433763 0.00076443990050459342 0.0041575006618093414 0.035813537938139975 -0.0068005077639078284 -0.0098420148643736643 -0.0072120788101324353 0.074979973768623656
leaf_weight=9176 5495 35169 145859 618 1773 3039 2082 631 4036 176 8758 52 667 102
leaf_count=9176 5495 35169 145859 618 1773 3039 2082 631 4036 176 8758 52 667 102
internal_value=0 0.000342756 -7.87587e-05 -0.000730814 0.00244442 0.00324951 0.0087046 0.0204971 -0.000209358 -0.00277356 -0.00522091 0.00865486 0.00177073 0.0463388
internal_weight=0 40664 176969 31110 12179 11561 4486 2404 7075 18931 9755 997 843 154
internal_count=217633 40664 176969 31110 12179 11561 4486 2404 7075 18931 9755 997 843 154
shrinkage=0.15


Tree=73
num_leaves=15
num_cat=0
split_feature=32 1 12 32 32 13 3 14 3 23 4 16 39 23
split_gain=0.262789 23.1154 7.39104 31.1037 26.3693 7.95347 11.3787 6.63772 8.46911 10.7852 7.8067 8.9116 8.69973 7.74761
threshold=-0.10183049999999998 1.0837000000000001 1.9714300000000002e-05 -0.0078262299999999983 -0.0078262299999999983 8.6996500000000013e-05 -6.1122599999999991 0.0013588450000000002 -6.860879999999999 -6.8901449999999995 -0.21821949999999998 4.1385500000000005e-07 1.0077600000000002e-05 -6.8901449999999995
decision_type=2 2 2 2 2 2 2 2 2 2 2 2 2 2
left_child=1 -1 4 7 -2 6 -5 8 9 10 -4 12 -12 -10
right_child=2 -3 3 5 -6 -7 -8 -9 13 -11 11 -13 -14 -15
leaf_value=-0.0028860187546525017 -0.0029030892120611071 0.0037159606733496949 -0.0018211283858626335 -0.0059895125320129552 0.0025017232328441632 -6.5389644829708842e-05 3.5347767696872475e-05 0.00029821283025774971 -0.0016721907752233034 -0.0032736896834585751 0.01984671002894885 -0.00078378099786387473 0.0053664044094747032 0.010092911902252841
leaf_weight=24643 29645 23135 903 28053 64503 12201 9422 11412 5094 1436 3358 862 1293 1673
leaf_count=24643 29645 23135 903 28053 64503 12201 9422 11412 5094 1436 3358 862 1293 1673
internal_value=0 0.000310783 -8.74192e-05 -0.00119084 0.000799874 -0.00339175 -0.00447474 0.00300924 0.00512554 0.00847719 0.0111072 0.0132248 0.0158211 0.00123649
internal_weight=0 47778 169855 75707 94148 49676 37475 26031 14619 7852 6416 5513 4651 6767
internal_count=217633 47778 169855 75707 94148 49676 37475 26031 14619 7852 6416 5513 4651 6767
shrinkage=0.15


Tree=74
num_leaves=15
num_cat=0
split_feature=7 20 0 3 11 17 19 28 34 0 20 0 3 4
split_gain=0.285132 0.740457 6.18186 4.40027 4.46698 1.84809 1.825 2.89112 1.66296 1.53611 1.8072 3.94268 3.34486 3.66063
threshold=5.4733300000000007e-05 -6.8954199999999988 -7.1279699999999995 -6.0545599999999995 -6.2747399999999975e-05 -2.5904249999999994e-06 2.4794150000000001e-06 -0.00061352699999999989 0.18398 -6.9153299999999991 5.5978600000000007 5.4039500000000009 -6.4132949999999989 -0.7518554999999999
decision_type=2 2 2 2 2 2 2 2 2 2 2 2 2 2
left_child=-1 2 3 4 6 -6 7 -2 -7 -3 -11 -12 13 -13
right_child=1 9 -4 -5 5 8 -8 -9 -10 10 11 12 -14 -15
leaf_value=-0.00011477915596432664 0.07221154694614762 -0.0012948053603723229 -0.00082007873065358041 0.00079862666569402625 -0.0040877894781853842 0.024674763300442788 0.0023348671639141622 -0.0046887849806807932 0.0073499172818664383 -0.00012779387065042509 -0.00039779554982075088 7.7176650291845489e-06 0.00096319806002806516 0.011812212508955821
leaf_weight=150412 22 14484 7987 1376 69 673 755 22 153 29731 6597 822 2426 2104
leaf_count=150412 22 14484 7987 1376 69 673 755 22 153 29731 6597 822 2426 2104
internal_value=0 0.000256827 0.00137884 0.00709962 0.0122178 0.0194956 0.00406549 0.0337614 0.0214657 3.59358e-05 0.000498375 0.00205638 0.00508146 0.00849598
internal_weight=0 67221 11057 3070 1694 895 799 44 826 56164 41680 11949 5352 2926
internal_count=217633 67221 11057 3070 1694 895 799 44 826 56164 41680 11949 5352 2926
shrinkage=0.15


Tree=75
num_leaves=15
num_cat=0
split_feature=34 14 3 23 3 23 14 14 4 4 4 3 23 23
split_gain=0.288305 1.70889 4.01673 5.75936 17.7935 6.11482 5.38167 4.16969 3.421 3.31331 4.8995 9.16843 10.4694 8.92228
threshold=0.012110300000000003 0.0032082450000000006 -9.0186749999999982 -9.0165099999999985 -9.9601599999999983 -7.0114099999999988 0.00068334050000000012 0.0006614075000000002 0.13399150000000001 0.12699950000000002 -0.12716649999999999 -6.4132949999999989 -6.4887299999999994 -9.0957449999999991
decision_type=2 2 2 2 2 2 2 2 2 2 2 2 2 2
left_child=1 2 3 4 -1 7 8 -5 -6 10 -4 12 13 -12
right_child=-2 -3 9 5 6 -7 -8 -9 -10 -11 11 -13 -14 -15
leaf_value=-0.0077627382191950223 9.902548669753905e-05 0.00093397683637882415 -0.0025238004288032564 -0.014573438624857665 0.062239268006722831 -0.00061594245140344302 -0.00012214854575159852 -0.0050755457176505153 0.0063503681007644223 -0.0029763747480098159 -0.016690771898632883 -0.00074964110774088804 -0.0055700385537687039 0.011560063470368953
leaf_weight=460 163758 17174 6174 1562 164 4771 53 3112 29 6101 266 8176 1208 4625
leaf_count=460 163758 17174 6174 1562 164 4771 53 3112 29 6101 266 8176 1208 4625
internal_value=0 -0.000300997 -0.000878895 -0.00341675 0.00965165 -0.00439359 0.0422151 -0.00824964 0.0538415 9.14151e-05 0.0010067 0.00253365 0.00693506 0.0100236
internal_weight=0 53875 36701 10151 706 9445 246 4674 193 26550 20449 14275 6099 4891
internal_count=217633 53875 36701 10151 706 9445 246 4674 193 26550 20449 14275 6099 4891
shrinkage=0.15


Tree=76
num_leaves=15
num_cat=0
split_feature=23 3 34 19 33 13 33 13 13 13 21 1 21 1
split_gain=0.252865 0.367388 0.508339 0.407693 22.2039 22.8649 21.5919 20.312 15.3735 13.7112 13.546 29.8956 14.8727 26.9123
threshold=-6.3908299999999993 -5.9424999999999999 0.0071301150000000011 0.00031313300000000005 1.3050450000000002e-06 -2.3689349999999998e-06 1.7495550000000002e-06 -4.0504349999999993e-06 -6.8888199999999989e-06 -6.8888199999999989e-06 7.5460850000000006 6.4391350000000012 -7.2793899999999994 -6.4589849999999993
decision_type=2 2 2 2 2 2 2 2 2 2 2 2 2 2
left_child=1 3 -3 4 7 10 9 -1 -8 -5 12 -12 13 -6
right_child=-2 2 -4 6 5 -7 8 -9 -10 -11 11 -13 -14 -15
leaf_value=-0.0056458558949508989 0.00057924934762306152 -0.0010664702912648869 0.00057934241898933395 -0.0050554791515766443 0.037820473881414921 -0.0053974818818335367 0.0059705674779199471 0.0033868128322734848 7.6877179203317295e-05 4.332959125920012e-05 -0.0087471536915374529 0.045000597466775566 -0.001919136413215579 -0.0079020093874798587
leaf_weight=6690 15731 4830 33575 20094 633 25684 17587 34427 22957 28981 421 521 4968 534
leaf_count=6690 15731 4830 33575 20094 633 25684 17587 34427 22957 28981 421 521 4968 534
internal_value=0 -4.51317e-05 0.000372357 -0.000143199 -0.000404081 -0.00331735 7.18617e-05 0.00191714 0.00263342 -0.0020444 0.0042319 0.0209796 0.00166038 0.0168986
internal_weight=0 201902 38405 163497 73878 32761 89619 41117 40544 49075 7077 942 6135 1167
internal_count=217633 201902 38405 163497 73878 32761 89619 41117 40544 49075 7077 942 6135 1167
shrinkage=0.15


Tree=77
num_leaves=15
num_cat=0
split_feature=14 23 23 3 3 34 36 34 3 3 23 34 36 21
split_gain=0.350397 1.21411 2.15622 8.13282 6.79416 10.4433 6.68495 5.82301 4.96665 8.52829 22.1682 10.4795 4.60753 3.58504
threshold=0.00019135550000000002 -15.570249999999998 -8.2979299999999991 -6.6271099999999992 -8.3197699999999983 0.012866900000000002 0.00022686350000000003 0.032710650000000008 -8.3197699999999983 -6.9170499999999988 -6.9868449999999989 0.036792500000000006 -0.00028039949999999992 8.149930000000003
decision_type=2 2 2 2 2 2 2 2 2 2 2 2 2 2
left_child=1 -1 3 4 5 6 12 -6 -4 10 11 13 -3 -10
right_child=-2 2 8 -5 7 -7 -8 -9 9 -11 -12 -13 -14 -15
leaf_value=0.0013938865073669635 0.00012594092470130403 0.0038593811094760891 -0.011641867378463781 8.8689593287360962e-05 -0.013329632362338282 -0.00022276912430351352 -0.010667016198858618 -0.0041825216847844182 0.022800773540434117 -0.0005204983026867113 -0.0049996884779055133 -0.0031147454790796045 0.076830849756317376 0.0074838249786373448
leaf_weight=8432 151361 25 740 23133 2256 941 40 5119 1800 20560 2155 558 88 425
leaf_count=8432 151361 25 740 23133 2256 941 40 5119 1800 20560 2155 558 88 425
internal_value=0 -0.000287641 -0.000532777 -0.00136729 -0.00534428 0.00568674 0.0420321 -0.00698061 0.000472339 0.000823916 0.00642156 0.0152655 0.0606867 0.0198751
internal_weight=0 66272 57840 31602 8469 1094 153 7375 26238 25498 4938 2783 113 2225
internal_count=217633 66272 57840 31602 8469 1094 153 7375 26238 25498 4938 2783 113 2225
shrinkage=0.15


Tree=78
num_leaves=15
num_cat=0
split_feature=23 3 14 23 3 25 3 3 14 23 23 14 23 3
split_gain=0.279385 10.6307 8.87767 18.8623 8.67925 8.62106 8.39693 7.69592 7.65526 4.98963 4.13492 3.8804 6.23021 26.0798
threshold=-10.7143 -10.781849999999999 0.0032082450000000006 -15.369399999999997 -15.041949999999998 1.8759850000000002 -15.512049999999999 -10.662649999999998 0.0034191400000000006 -16.783199999999997 -7.1072649999999991 0.00018273250000000005 -8.1455849999999987 -8.1765499999999971
decision_type=2 2 2 2 2 2 2 2 2 2 2 2 2 2
left_child=1 2 3 4 9 6 -5 8 10 -1 -2 -9 13 -13
right_child=7 -3 -4 5 -6 -7 -8 11 -10 -11 -12 12 -14 -15
leaf_value=0.0021977537834041725 -0.0063196183880073831 -0.00093624603241044505 0.00048438888248327589 -0.0087963631788064555 -0.0064072842032058793 0.00046472819228451218 0.014736561913705596 -0.00051654279526943032 -0.00024043705475825433 0.031955148780604903 -0.0010519725451000987 0.0078260080601751537 2.5093133662347888e-05 -0.0022344001462806179
leaf_weight=303 10024 57298 16143 365 2849 1522 5222 40464 23913 218 5038 12803 30875 10596
leaf_count=303 10024 57298 16143 365 2849 1522 5222 40464 23913 218 5038 12803 30875 10596
internal_value=0 0.000214528 0.00269132 0.00609111 -0.00315199 0.0104728 0.0131992 -0.000134641 -0.00190885 0.014649 -0.00455767 0.000595263 0.00142417 0.00327025
internal_weight=0 83920 26622 10479 3370 7109 5587 133713 38975 521 15062 94738 54274 23399
internal_count=217633 83920 26622 10479 3370 7109 5587 133713 38975 521 15062 94738 54274 23399
shrinkage=0.15


Tree=79
num_leaves=15
num_cat=0
split_feature=34 5 21 1 7 1 15 35 12 32 13 20 29 23
split_gain=0.333171 0.548683 0.712142 3.29075 3.86264 3.99954 1.89825 1.6454 1.58001 2.15239 1.56455 2.44554 2.37087 1.51165
threshold=0.10825800000000001 2.2324050000000002e-05 6.5938950000000007 6.1041250000000007 5.6233450000000006e-05 11.797600000000001 9.0514050000000008e-08 0.00017118450000000001 0.00017659550000000002 -0.12845549999999997 1.5036500000000002e-05 2.1550400000000005 -0.0014132449999999998 -7.2526199999999994
decision_type=2 2 2 2 2 2 2 2 2 2 2 2 2 2
left_child=1 -1 -3 -4 5 6 7 8 9 -5 12 -12 -11 -14
right_child=-2 2 3 4 -6 -7 -8 -9 -10 10 11 -13 13 -15
leaf_value=-0.00031658469621227676 0.00024913700061824468 -8.5182670986403708e-07 -0.00041222573594312551 0.075269810110330584 0.0021315972432640103 0.0021029463327457572 -0.00050282215702281976 0.012077831693358071 -0.0020480745648875686 0.00041363511459323869 -0.014820503749818142 0.043033776388713911 0.06113686661650717 0.030072002156659783
leaf_weight=102873 77671 28632 5845 29 1804 336 64 115 26 29 35 31 80 63
leaf_count=102873 77671 28632 5845 29 1804 336 64 115 26 29 35 31 80 63
internal_value=0 -0.000138257 0.000356367 0.00156577 0.00599202 0.0146111 0.0235152 0.0272827 0.0332505 0.0366878 0.0319866 0.0123535 0.0395202 0.0474509
internal_weight=0 139962 37089 8457 2612 808 472 408 293 267 238 66 172 143
internal_count=217633 139962 37089 8457 2612 808 472 408 293 267 238 66 172 143
shrinkage=0.15


Tree=80
num_leaves=15
num_cat=0
split_feature=34 14 14 13 15 35 15 34 14 16 26 11 4 4
split_gain=0.267646 0.588464 0.781504 0.953245 0.772411 2.69043 2.1702 2.90095 1.20279 0.917726 0.83333 0.983079 0.703024 0.853248
threshold=0.70966450000000003 0.00028247300000000004 0.0048352200000000012 0.00022747250000000003 -3.9533899999999986e-06 -0.096497449999999985 -1.7185949999999998e-05 1.5836250000000003 0.00088157450000000005 -5.1592649999999991e-06 -0.0088494799999999981 9.7894750000000007e-05 -2.5355949999999994 1.6545300000000001
decision_type=2 2 2 2 2 2 2 2 2 2 2 2 2 2
left_child=-1 -2 4 12 5 6 -3 8 -8 -10 -9 -12 -4 -14
right_child=1 2 3 -5 -6 -7 7 10 9 -11 11 -13 13 -15
leaf_value=-6.3354673313438618e-05 0.0013754985124035219 0.00089662920284106135 -0.001594699467522028 -0.00065578444924330344 -0.0016053985816834411 -0.0024912329169957952 0.011109526656615675 0.033195905398440965 0.024620987183880061 0.062984753696420079 0.0022850864193517638 0.037410868437727916 0.0052251397233342234 0.00024215024892229115
leaf_weight=190063 9725 308 740 3952 7989 1125 22 29 20 47 173 20 2239 1181
leaf_count=190063 9725 308 740 3952 7989 1125 22 29 20 47 173 20 2239 1181
internal_value=0 0.000436757 -7.48301e-05 0.00101249 -0.000981062 0.00187893 0.00982148 0.0186602 0.0415406 0.0515329 0.00948747 0.00592506 0.00259735 0.00350441
internal_weight=0 27570 17845 8112 9733 1744 619 311 89 67 222 193 4160 3420
internal_count=217633 27570 17845 8112 9733 1744 619 311 89 67 222 193 4160 3420
shrinkage=0.15


Tree=81
num_leaves=15
num_cat=0
split_feature=7 21 1 1 13 3 13 3 13 22 28 3 33 19
split_gain=0.243899 0.710878 55.7082 27.9997 8.59483 14.1146 7.10289 11.2123 5.85336 5.79643 5.31067 5.20884 3.66391 8.22807
threshold=5.2015850000000008e-05 -3.5229999999999997 -3.4074399999999998 -3.4074399999999998 5.2899800000000005e-05 -6.2187599999999987 8.0484950000000009e-05 -6.2187599999999987 6.6831150000000008e-05 -0.33467499999999994 -0.010667849999999998 -5.9751649999999996 -1.7962349999999996e-05 5.8236700000000004e-05
decision_type=2 2 2 2 2 2 2 2 2 2 2 2 2 2
left_child=1 2 4 6 5 9 7 10 11 -1 -3 -4 13 -6
right_child=-2 3 8 -5 12 -7 -8 -9 -10 -11 -12 -13 -14 -15
leaf_value=0.011501537033615984 0.00022113771754484922 0.00059459464667220335 -0.0063271620212954436 0.0016286733277595285 0.041891303580254315 0.00042160762623375127 0.00040415540948144881 5.5540003805374459e-05 -0.0003517229585378872 -0.0054246189374335743 -0.0074683655994499214 -7.2778585202848121e-05 -0.0010301619212588398 0.0022345310327772489
leaf_weight=10935 74041 2045 17112 59810 150 3979 7514 7761 7539 475 18157 3632 3936 547
leaf_count=10935 74041 2045 17112 59810 150 3979 7514 7761 7539 475 18157 3632 3936 547
internal_value=0 -0.000114026 0.000354727 -0.000351657 0.00640902 0.00811425 -0.00369026 -0.00479048 -0.00393121 0.0107969 -0.00665217 -0.0052321 0.000744931 0.010769
internal_weight=0 143592 48305 95287 20022 15389 35477 27963 28283 11410 20202 20744 4633 697
internal_count=217633 143592 48305 95287 20022 15389 35477 27963 28283 11410 20202 20744 4633 697
shrinkage=0.15


Tree=82
num_leaves=15
num_cat=0
split_feature=23 3 3 16 3 23 13 29 0 30 4 16 4 38
split_gain=0.319714 0.421499 1.36437 1.34623 1.71175 3.30139 1.83938 1.48949 2.83985 1.37517 2.35324 1.70253 1.40018 2.81787
threshold=-6.4887299999999994 -5.7833549999999994 -6.4680349999999995 -4.9329799999999984e-07 -6.2498799999999992 -6.3165649999999989 2.0014650000000003e-05 0.0038348300000000004 -1.4295049999999998 0.00031963850000000003 0.14210450000000005 1.9948850000000003e-07 -0.079371349999999993 5.9945650000000008e-05
decision_type=2 2 2 2 2 2 2 2 2 2 2 2 2 2
left_child=-1 2 -2 -4 5 6 9 -7 -9 10 12 -11 13 -5
right_child=1 -3 3 4 -6 7 -8 8 -10 11 -12 -13 -14 -15
leaf_value=-5.7673049657740446e-05 0.00031927876596096131 -0.00096044019673096291 -0.0041594242887780684 -0.026458549039671198 0.0026062985081478436 -0.0036203146380103133 -0.0021387053524709438 0.040969700126711708 -0.015289039303421636 -0.020365702360868453 -0.011256743589183316 0.032425232085266285 0.045232299793707693 0.051336154273965144
leaf_weight=197735 14119 3353 370 20 1370 272 56 52 33 27 24 28 152 22
leaf_count=197735 14119 3353 370 20 1370 272 56 52 33 27 24 28 152 22
internal_value=0 0.000573122 0.000883913 0.00417001 0.00566898 0.0117854 0.022625 0.00179597 0.0191281 0.0277048 0.0330522 0.00650968 0.0385337 0.0142911
internal_weight=0 19898 16545 2426 2056 686 329 357 85 273 218 55 194 42
internal_count=217633 19898 16545 2426 2056 686 329 357 85 273 218 55 194 42
shrinkage=0.15


Tree=83
num_leaves=15
num_cat=0
split_feature=23 14 3 3 23 39 5 0 4 24 38 4 14 0
split_gain=0.252169 0.277617 0.462218 0.848579 2.72105 1.95333 1.56304 1.84825 0.934377 3.02685 2.4933 2.56928 1.07894 0.995392
threshold=-6.2906249999999995 0.00014886150000000003 -6.3035799999999993 -6.0020699999999989 -6.0063449999999987 8.3359950000000012e-05 1.5725450000000004e-05 9.5540300000000027 0.086015600000000011 0.080637500000000015 -3.1241049999999991e-05 0.061052400000000007 7.2224100000000012e-05 9.8368500000000019
decision_type=2 2 2 2 2 2 2 2 2 2 2 2 2 2
left_child=-1 2 -2 4 5 6 8 -8 10 -10 11 -4 13 -12
right_child=1 -3 3 -5 -6 -7 7 -9 9 -11 12 -13 -14 -15
leaf_value=-3.8210761930309422e-05 -0.0032810857974046653 0.0011526191899403869 -0.034439591748210097 -0.00083329065804106249 -0.01658866551714306 -0.016830522762801576 0.033178290626143705 -0.009141659551616093 -0.045751277108987166 0.027461077785119411 0.059362668842077249 0.031686960607767101 0.008644096143543719 0.018378229299560189
leaf_weight=206091 944 8193 39 1891 97 49 136 28 27 24 30 20 40 24
leaf_count=206091 944 8193 39 1891 97 49 136 28 27 24 30 20 40 24
internal_value=0 0.000682282 -0.000468353 0.000635688 0.00604004 0.0113038 0.0150499 0.0259529 0.00628479 -0.0112984 0.0121459 -0.0120238 0.0273162 0.0411474
internal_weight=0 11542 3349 2405 514 417 368 164 204 51 153 59 94 54
internal_count=217633 11542 3349 2405 514 417 368 164 204 51 153 59 94 54
shrinkage=0.15


Tree=84
num_leaves=15
num_cat=0
split_feature=28 8 12 28 22 2 22 3 14 3 4 4 3 16
split_gain=0.242897 12.8219 3.60681 18.9624 14.9952 8.02946 20.974 10.7543 6.48082 11.0324 5.02115 6.83851 11.0939 4.95926
threshold=0.011974350000000002 -3.3756999999999993e-06 1.9714300000000002e-05 0.0012446850000000004 0.24826800000000002 0.25774100000000005 2.8050300000000004 -6.1920449999999994 0.0029699900000000005 -6.0822949999999993 -1.2236799999999997 0.92173400000000016 -6.2187599999999987 -1.3562949999999999e-08
decision_type=2 2 2 2 2 2 2 2 2 2 2 2 2 2
left_child=2 -2 4 10 -1 8 -7 13 9 -6 -4 12 -12 -8
right_child=1 -3 3 -5 5 6 7 -9 -10 -11 11 -13 -14 -15
leaf_value=0.0018398073972056346 0.0030838090449033032 -0.0021547567941463093 0.00057828315359938914 0.0023134035981708344 -0.0066866680511489 -0.00092315041745851087 0.059875283980106109 0.0029650978923028387 0.00038109258776937969 0.00091075307779719462 -0.0062434953250700047 9.9369444190233264e-05 -6.5810039486374777e-05 0.00043022947670579015
leaf_weight=65115 19949 22224 9327 27781 13734 1641 257 148 9925 6261 21697 10175 9363 36
leaf_count=65115 19949 22224 9327 27781 13734 1641 257 148 9925 6261 21697 10175 9363 36
internal_value=0 0.00032323 -7.76906e-05 -0.000834891 0.000533133 -0.00212558 0.00688155 0.0359235 -0.00275234 -0.0043077 -0.0025647 -0.00327562 -0.00438124 0.0525715
internal_weight=0 42173 175460 78343 97117 32002 2082 441 29920 19995 50562 41235 31060 293
internal_count=217633 42173 175460 78343 97117 32002 2082 441 29920 19995 50562 41235 31060 293
shrinkage=0.15


Tree=85
num_leaves=15
num_cat=0
split_feature=23 34 19 33 3 3 25 3 3 19 33 13 13 33
split_gain=0.200628 0.231639 0.995061 16.2405 8.78009 8.6243 4.45731 2.99404 2.31585 2.08682 6.44164 4.87209 4.16713 4.11571
threshold=-6.0395599999999989 0.012110300000000003 7.5095600000000011e-09 -1.2766899999999998e-07 -6.0545599999999995 -9.6081599999999998 0.2862590000000001 -5.9118649999999997 -8.2790849999999967 4.6329000000000001e-06 4.8296750000000013e-07 -2.3689349999999998e-06 -3.0672399999999995e-05 1.0242850000000001e-06
decision_type=2 2 2 2 2 2 2 2 2 2 2 2 2 2
left_child=1 2 3 4 5 -1 -7 -5 -8 13 11 12 -11 -4
right_child=-2 -3 9 7 -6 6 8 -9 -10 10 -12 -13 -14 -15
leaf_value=-0.0043405658049689294 0.0010445629738230393 6.8786361329067403e-05 -5.9199665844803122e-05 -0.011636029696343022 -0.0015723083116119293 0.02631570498987423 -0.015680899365805089 -0.0013035351468730369 0.013186670512947996 0.00025841441404899333 0.0022005014073625132 0.00047846082714764307 -0.0064899024312922871 -0.0061283453286423532
leaf_weight=389 4060 161554 6629 1437 1067 1012 75 1125 376 3056 16541 9952 6310 4050
leaf_count=389 4060 161554 6629 1437 1067 1012 75 1125 376 3056 16541 9952 6310 4050
internal_value=0 -1.9857e-05 -0.000295154 0.0016165 0.00926601 0.0155103 0.0207885 -0.00709893 0.00838608 -0.000520299 2.7847e-05 -0.00183248 -0.00428802 -0.00236092
internal_weight=0 213573 52019 5481 2919 1852 1463 2562 451 46538 35859 19318 9366 10679
internal_count=217633 213573 52019 5481 2919 1852 1463 2562 451 46538 35859 19318 9366 10679
shrinkage=0.15


Tree=86
num_leaves=15
num_cat=0
split_feature=14 14 34 20 0 3 3 34 11 3 20 0 34 34
split_gain=0.198177 0.298078 0.906632 0.997346 23.9183 17.0673 6.29219 6.21217 3.75124 4.4055 4.18141 7.67224 5.13619 2.99777
threshold=0.04633265000000001 0.00018273250000000005 0.63652550000000019 -8.0805949999999971 -7.4213099999999992 -6.1920449999999994 -6.0288849999999989 0.042307100000000007 -1.1190949999999998e-05 -6.1920449999999994 -6.4313299999999991 -8.2175199999999986 0.030502050000000006 0.016438050000000006
decision_type=2 2 2 2 2 2 2 2 2 2 2 2 2 2
left_child=1 2 3 4 5 7 -6 -1 9 10 11 -5 -12 -13
right_child=-2 -3 -4 8 6 -7 -8 -9 -10 -11 12 13 -14 -15
leaf_value=0.030544937891614176 -0.00042687296270110825 0.00017793368844299585 0.0012034157982443994 -0.005268623024028485 -0.011921466585923511 0.0014487986298639154 -0.00049086860467739365 0.0023835812272094883 4.7318853072046546e-05 -0.00021849667641543347 -0.012633127558150404 0.058982609475303129 -0.0030287156970237161 0.013159771600501323
leaf_weight=999 21997 131080 8754 292 1951 1446 2437 214 37354 5909 2262 72 2808 58
leaf_count=999 21997 131080 8754 292 1951 1446 2437 214 37354 5909 2262 72 2808 58
internal_value=0 4.79969e-05 -0.000215838 -0.000438485 0.00122952 0.0124556 -0.00557316 0.0255767 -0.000679576 -0.00306116 -0.00611966 0.00822649 -0.00731376 0.0385386
internal_weight=0 195636 64556 55802 7047 2659 4388 1213 48755 11401 5492 422 5070 130
internal_count=217633 195636 64556 55802 7047 2659 4388 1213 48755 11401 5492 422 5070 130
shrinkage=0.15


Tree=87
num_leaves=15
num_cat=0
split_feature=23 19 33 3 3 30 3 3 9 20 21 3 30 3
split_gain=0.191996 0.368374 1.44391 1.65431 4.73886 4.55934 1.27446 2.95689 1.14745 5.41732 2.01054 0.876007 0.776427 0.762327
threshold=-6.4887299999999994 1.5867800000000003e-08 -1.0000000180025095e-35 -6.493739999999999 -5.9424999999999999 0.00041166350000000005 -7.0419349999999996 -5.8866849999999991 -3.0827849999999997e-06 -0.31545399999999996 -4.1775849999999997 -6.6541099999999984 0.00015761800000000002 -6.8865649999999992
decision_type=2 2 2 2 2 2 2 2 2 2 2 2 2 2
left_child=-1 2 3 13 5 8 -4 11 10 -10 -5 -8 -11 -2
right_child=1 -3 6 4 -6 -7 7 -9 9 12 -12 -13 -14 -15
leaf_value=-4.4692789269103265e-05 -0.0016486336015229051 0.00070029493756877594 0.0013525051899995991 0.05166063874241817 -0.0023193496548814933 -0.019584857915581847 -0.0083628681243910936 -0.0015262040494176416 -0.044605083088390528 0.039963049779180436 -0.0013194130919873715 -0.026101408058294414 0.014631214335952934 -0.016368527275570217
leaf_weight=197735 532 17190 457 83 528 52 91 493 24 96 20 201 38 93
leaf_count=197735 532 17190 457 83 528 52 91 493 24 96 20 201 38 93
internal_value=0 0.000444131 -0.00118196 0.00200613 0.00634998 0.0209743 -0.00494503 -0.00861124 0.029055 0.0210248 0.0413733 -0.0205733 0.0327794 -0.00383895
internal_weight=0 19898 2708 1466 841 313 1242 785 261 158 103 292 134 625
internal_count=217633 19898 2708 1466 841 313 1242 785 261 158 103 292 134 625
shrinkage=0.15


Tree=88
num_leaves=15
num_cat=0
split_feature=32 8 12 14 13 7 21 1 3 14 21 14 3 23
split_gain=0.17811 15.7566 9.23242 5.62528 7.93336 6.17463 10.3249 5.73854 5.55993 5.47816 4.53523 5.44143 5.45642 8.93789
threshold=-0.039230949999999994 -4.1754999999999992e-06 3.3627650000000007e-05 0.00015258600000000005 7.5104950000000017e-05 4.6451350000000011e-05 2.4713150000000002 3.2090750000000003 -6.7134699999999992 0.0082895900000000012 5.5135300000000012 0.00037299900000000005 -6.8084599999999993 -6.789509999999999
decision_type=2 2 2 2 2 2 2 2 2 2 2 2 2 2
left_child=1 3 -2 -1 5 6 7 -5 9 -3 -4 12 13 -12
right_child=2 8 10 4 -6 -7 -8 -9 -10 -11 11 -13 -14 -15
leaf_value=-0.00062073972071711807 0.00085508870124626326 -0.0044543726956651902 -0.0021012550801847497 0.018059868685086258 -0.00043319663027076505 0.0018538266520001043 0.009806477975146036 -0.0054999932231956849 0.0009286402594412815 -7.7976231991436279e-07 0.026059341107428826 -0.00093047470511944291 0.0017536761321694518 -0.0075799855064277912
leaf_weight=9144 88444 18795 49172 270 7277 6648 8958 1680 11544 9284 669 4296 1210 242
leaf_count=9144 88444 18795 49172 270 7277 6648 8958 1680 11544 9284 669 4296 1210 242
internal_value=0 0.00018983 -9.70019e-05 0.00255992 0.0037311 0.00545721 0.00765334 -0.00223786 -0.00184254 -0.00298184 -0.00161181 0.00213869 0.00835516 0.0171233
internal_weight=0 73600 144033 33977 24833 17556 10908 1950 39623 28079 55589 6417 2121 911
internal_count=217633 73600 144033 33977 24833 17556 10908 1950 39623 28079 55589 6417 2121 911
shrinkage=0.15


Tree=89
num_leaves=15
num_cat=0
split_feature=34 14 3 4 4 3 34 4 33 6 25 21 1 3
split_gain=0.194517 0.958903 1.86794 2.10108 2.74522 4.87513 1.99048 1.62738 1.42575 4.98196 1.39947 1.53907 3.40246 1.38153
threshold=0.012110300000000003 0.0014449400000000002 -9.0186749999999982 0.14988850000000004 -0.12716649999999999 -6.6541099999999984 0.0030026250000000005 0.3608320000000001 6.7253650000000001e-06 1.7302200000000003e-06 0.52044150000000011 11.528150000000002 10.651350000000003 -5.9424999999999999
decision_type=2 2 2 2 2 2 2 2 2 2 2 2 2 2
left_child=1 2 8 4 -4 6 -6 13 -1 -10 11 -8 -13 -5
right_child=-2 -3 3 7 5 -7 10 -9 9 -11 -12 12 -14 -15
leaf_value=-0.0032099121273579689 8.1339126772075112e-05 0.00051419558925055466 -0.0024436983151015575 -0.0085437274568243779 -0.0020387248336683605 -0.00056523726354544221 0.007608810170039359 -0.00025050668209465024 -0.013349395218516155 0.058960377230929825 -0.0015579697567085769 -0.012673879588588273 0.047413029009476304 -0.00070245493961920149
leaf_weight=6787 163758 22010 5344 1514 777 9471 4164 2275 53 36 479 182 24 759
leaf_count=6787 163758 22010 5344 1514 777 9471 4164 2275 53 36 479 182 24 759
internal_value=0 -0.000247238 -0.00077318 -0.000170746 0.000478035 0.00151226 0.0050096 -0.00308669 -0.00296257 0.0158995 0.00613902 0.00698269 -0.00567346 -0.00592537
internal_weight=0 53875 31865 24989 20441 15097 5626 4548 6876 89 4849 4370 206 2273
internal_count=217633 53875 31865 24989 20441 15097 5626 4548 6876 89 4849 4370 206 2273
shrinkage=0.15


Tree=90
num_leaves=15
num_cat=0
split_feature=23 14 22 2 3 2 3 6 20 9 3 3 29 21
split_gain=0.212859 0.454162 1.02147 6.52671 4.58517 1.23055 1.73143 1.21069 0.697311 2.18828 2.17132 1.68527 1.53373 1.10739
threshold=-6.5295149999999991 7.6990750000000005e-05 2.1918900000000003 2.2099550000000003 -5.6498199999999992 1.9965100000000002 -5.8104799999999992 3.0629350000000003e-06 9.0324500000000025 2.5545100000000004e-05 -5.753169999999999 -6.6541099999999984 -0.016689499999999996 6.4118950000000003
decision_type=2 2 2 2 2 2 2 2 2 2 2 2 2 2
left_child=-1 2 5 -4 7 8 -7 -5 -2 -10 11 -11 -13 -14
right_child=1 -3 3 4 -6 6 -8 -9 9 10 -12 12 13 -15
leaf_value=-4.9211837338076602e-05 -0.0022241300086969355 0.00074326519664731649 -0.0053865978385167785 0.024992852610408921 -0.0030840761672152441 -0.019259985402438489 -0.002304377211361812 0.06603874045727845 -0.0056906596941426208 -0.011820134810897378 -0.0014486822414292156 -0.0070393878397722303 0.042708356608862727 0.0075152584996540095
leaf_weight=196057 1683 18206 353 22 48 210 382 61 292 26 143 22 103 25
leaf_count=196057 1683 18206 353 22 48 210 382 61 292 26 143 22 103 25
internal_value=0 0.000447179 -0.00115239 0.00522459 0.0338181 -0.00222185 -0.00831904 0.0551591 -0.000648384 0.00369201 0.0122805 0.0234355 0.0295465 0.0358347
internal_weight=0 21576 3370 484 131 2886 592 83 2294 611 319 176 150 128
internal_count=217633 21576 3370 484 131 2886 592 83 2294 611 319 176 150 128
shrinkage=0.15


Tree=91
num_leaves=15
num_cat=0
split_feature=5 21 21 39 10 33 19 6 26 31 1 23 0 1
split_gain=0.195779 1.30479 2.56427 1.22466 1.62009 1.7547 3.34666 3.21477 1.30123 1.21059 0.992741 1.16305 0.58839 0.585999
threshold=7.2568900000000009e-06 3.6299650000000008 -4.7775199999999991 7.7252450000000016e-06 2.2589600000000001e-05 -1.0057549999999998e-06 9.6074000000000005e-06 -4.0280749999999992e-07 5.6216900000000007e-05 -0.028559899999999996 -4.3419649999999992 -10.860199999999997 5.8026400000000011 3.5694650000000006
decision_type=2 2 2 2 2 2 2 2 2 2 2 2 2 2
left_child=1 2 10 4 12 7 -7 8 -6 -8 11 -1 -4 -3
right_child=-2 13 3 -5 5 6 9 -9 -10 -11 -12 -13 -14 -15
leaf_value=0.043314781968510942 -1.5640875914449075e-05 -0.0055560263888212698 -0.0026326250514427042 0.0048005786912587792 0.082510062917676152 -0.0080191314898911507 0.070975357296410954 -0.010517957345000467 0.037899779549409304 0.023640814828198221 -0.0061042026988317438 0.00086261369795911892 0.024962559405581227 0.0039375753114333795
leaf_weight=20 215034 672 101 783 28 72 20 20 31 31 560 53 21 187
leaf_count=20 215034 672 101 783 28 72 20 20 31 31 560 53 21 187
internal_value=0 0.00129408 0.00365554 0.00800992 0.0157658 0.024009 0.0128048 0.0414534 0.0590708 0.0422034 -0.00395946 0.0124933 0.00211737 -0.00348932
internal_weight=0 2599 1740 1107 324 202 123 79 59 51 633 73 122 859
internal_count=217633 2599 1740 1107 324 202 123 79 59 51 633 73 122 859
shrinkage=0.15


Tree=92
num_leaves=15
num_cat=0
split_feature=14 23 23 14 7 23 14 34 4 4 29 23 5 12
split_gain=0.19167 0.797183 1.29445 2.4497 1.1117 1.00361 0.587852 1.43452 2.38209 3.69689 2.87407 2.40415 1.67785 2.29353
threshold=0.00019135550000000002 -15.570249999999998 -8.2979299999999991 7.5703150000000014e-05 5.7322200000000012e-05 -10.7143 9.9284450000000011e-05 0.0056110350000000012 0.10593100000000001 -0.089102199999999979 -0.0029861749999999993 -7.0815949999999992 2.5166550000000004e-05 -4.4112749999999992e-05
decision_type=2 2 2 2 2 2 2 2 2 2 2 2 2 2
left_child=1 -1 3 -3 5 -5 -4 8 9 -8 -11 12 13 -12
right_child=-2 2 6 4 -6 -7 7 -9 -10 10 11 -13 -14 -15
leaf_value=0.0011498155417655278 9.3145976775296609e-05 0.00033407607890152398 -0.00017666640661920927 -0.0017719303144915302 -0.00057070162740151861 -0.0046232266535832867 -0.006266343537896471 0.0025282242937411793 -0.0083828688271773664 -0.011601357924486405 0.046925136153127107 0.0039265800805965102 -0.0013883319196723348 0.016348893915992153
leaf_weight=8432 151361 14970 16531 5644 5519 5469 908 6657 808 178 71 759 78 248
leaf_count=8432 151361 14970 16531 5644 5519 5469 908 6657 808 178 71 759 78 248
internal_value=0 -0.000212739 -0.000411375 -0.00105796 -0.0023109 -0.00317513 0.000367401 0.00129395 -0.00140001 0.00111655 0.00614179 0.00887387 0.0183323 0.0231543
internal_weight=0 66272 57840 31602 16632 11113 26238 9707 3050 2242 1334 1156 397 319
internal_count=217633 66272 57840 31602 16632 11113 26238 9707 3050 2242 1334 1156 397 319
shrinkage=0.15


Tree=93
num_leaves=15
num_cat=0
split_feature=20 0 11 16 39 14 0 23 3 4 31 16 19 39
split_gain=0.177353 1.97171 1.36822 1.26464 1.3259 0.548238 0.260371 0.686071 0.346494 0.379415 0.299615 0.539963 1.30503 0.209122
threshold=-16.050999999999998 -8.8447699999999987 -2.8224349999999997e-05 -3.8224499999999993e-06 0.020406850000000001 0.00099878550000000025 -5.2293599999999989 -13.957949999999999 -8.3608649999999987 0.46547150000000009 0.21248250000000005 7.2521050000000008e-06 0.0017614200000000003 0.029330700000000005
decision_type=2 2 2 2 2 2 2 2 2 2 2 2 2 2
left_child=1 2 3 -1 -5 -6 7 -3 -9 -10 11 -8 -13 -4
right_child=-2 6 13 4 5 -7 10 8 9 -11 -12 12 -14 -15
leaf_value=0.0014098394366625982 -1.2159881134155795e-05 0.022784440569075987 0.013355191061938448 0.071504200155115022 0.0082048326655889733 0.04248013312234044 -0.00096919694815536625 -0.0040219250641322498 0.003018475355666629 0.025955510360872722 -0.0025471604407741447 0.04564429590079401 0.001576026599246284 0.00028441276162993745
leaf_weight=26 215892 37 42 21 21 21 204 140 86 20 968 21 54 80
leaf_count=26 215892 37 42 21 21 21 204 140 86 20 968 21 54 80
internal_value=0 0.00150788 0.0151009 0.029243 0.0407297 0.0253425 -0.000366718 0.00374083 0.000876543 0.00734622 -0.0012989 0.00303197 0.0139151 0.00478419
internal_weight=0 1741 211 89 63 42 1530 283 246 106 1247 279 75 122
internal_count=217633 1741 211 89 63 42 1530 283 246 106 1247 279 75 122
shrinkage=0.15


Tree=94
num_leaves=15
num_cat=0
split_feature=22 9 1 8 13 0 22 4 1 22 14 20 3 3
split_gain=0.170633 4.65316 4.40987 17.0949 5.78758 2.93023 1.9215 1.45657 1.30861 4.21879 2.40113 1.84684 5.63078 3.98082
threshold=-2.8863399999999997 -2.6277899999999998e-05 -2.9615999999999993 6.5219100000000015e-07 4.8190950000000003e-05 -12.511149999999999 -3.1172799999999996 0.7372645000000001 -1.8792649999999997 -2.9897199999999997 0.00022740750000000003 -8.5929649999999977 -8.4424149999999987 -9.0501149999999981
decision_type=2 2 2 2 2 2 2 2 2 2 2 2 2 2
left_child=1 2 -1 -4 5 -5 -7 8 9 -8 -11 13 -13 -10
right_child=-2 -3 3 4 -6 6 7 -9 11 10 -12 12 -14 -15
leaf_value=-0.004054338059234149 2.7149956155325689e-05 -0.0029326393315048742 -0.0012521544653523297 -0.0050953938705127003 0.00014351678371320685 -0.0040551397483795876 -0.011876712992842145 0.0051279086303631103 0.0021001593179433889 0.079712266001318186 0.0195335319910485 0.074928925288495943 0.00072076915052353538 0.057231283783004051
leaf_weight=882 208904 6085 1194 33 114 20 34 21 46 35 26 129 28 82
leaf_count=882 208904 6085 1194 33 114 20 34 21 46 35 26 129 28 82
internal_value=0 -0.000649758 0.00460415 0.00893831 0.0303598 0.0379472 0.041321 0.0435842 0.0457094 0.0304631 0.0540623 0.0507915 0.0616943 0.0374185
internal_weight=0 8729 2644 1762 568 454 421 401 380 95 61 285 157 128
internal_count=217633 8729 2644 1762 568 454 421 401 380 95 61 285 157 128
shrinkage=0.15


Tree=95
num_leaves=15
num_cat=0
split_feature=34 14 23 19 33 33 13 33 7 22 34 19 31 11
split_gain=0.165406 0.837779 3.18047 5.42041 14.7374 6.12879 3.63292 16.0054 5.83341 5.01411 3.87525 3.0628 2.63667 7.77404
threshold=0.012110300000000003 0.0016871300000000002 -13.010249999999997 2.8998550000000006e-06 2.3124300000000005e-06 -4.3624849999999993e-05 -1.7616899999999994e-05 7.6110150000000007e-06 3.9673450000000009e-05 2.5991050000000002 0.97781150000000017 2.4794150000000001e-06 -0.095369699999999988 2.7451650000000003e-05
decision_type=2 2 2 2 2 2 2 2 2 2 2 2 2 2
left_child=-1 -2 3 4 5 -3 7 -5 9 10 12 -4 13 -9
right_child=1 2 11 6 -6 -7 -8 8 -10 -11 -12 -13 -14 -15
leaf_value=-0.00022798800542017802 0.00035311442241917822 0.0039851022578026776 -0.0061867521504253035 -0.0059260429443086654 -0.0079893866279193756 0.02918425321724193 -0.00048974214815674386 -0.020430991513079359 0.0074372753849754353 -0.011297289830960195 0.0076322658325738788 -0.00077147355310225123 0.042226208338431791 0.043050716379657392
leaf_weight=53875 97946 322 2492 1734 658 667 16674 68 1269 81 159 41228 340 120
leaf_count=53875 97946 322 2492 1734 658 667 16674 68 1269 81 159 41228 340 120
internal_value=0 7.50061e-05 -0.000338894 0.00112803 0.00940624 0.0209799 0.000461155 0.00466568 0.0136819 0.0240002 0.0281619 -0.00108014 0.0343441 0.0200892
internal_weight=0 163758 65812 22092 1647 989 20445 3771 2037 768 687 43720 528 188
internal_count=217633 163758 65812 22092 1647 989 20445 3771 2037 768 687 43720 528 188
shrinkage=0.15


Tree=96
num_leaves=15
num_cat=0
split_feature=2 22 19 3 23 22 2 21 19 3 3 19 2 22
split_gain=0.27344 22.3852 4.39025 3.43235 2.06458 2.04591 1.82866 2.94086 1.30123 1.82325 1.219 2.35701 1.06895 5.10404
threshold=-2.8982399999999995 -2.8587899999999995 7.7858950000000025e-05 -6.7842149999999988 -6.8340949999999987 -2.8863399999999997 -2.8476049999999993 -1.7297299999999998 2.1691500000000004e-05 -6.2498799999999992 -6.4132949999999989 7.0604550000000007e-06 -2.9738899999999995 -2.9897199999999997
decision_type=2 2 2 2 2 2 2 2 2 2 2 2 2 2
left_child=1 2 3 12 -5 6 7 -2 9 -3 11 -8 -1 -14
right_child=5 8 -4 4 -6 -7 10 -9 -10 -11 -12 -13 13 -15
leaf_value=0.037056540172878308 0.04867249005692429 -0.0070384641489230227 -0.0028068076836312177 -0.0050716671772534031 0.039958416845183815 0.00012490243601096681 -0.008796952925421455 -0.0050524835419773042 -0.00051831305167885559 -9.8040303364161106e-05 0.00054788378045914825 -0.0019161493480441124 0.0060616246699778872 0.076709271067949503
leaf_weight=213 41 2826 79 63 36 202454 1487 52 2366 1219 2148 4540 33 76
leaf_count=213 41 2826 79 63 36 202454 1487 52 2366 1219 2148 4540 33 76
internal_value=0 -0.00092842 0.0296405 0.0357291 0.0113029 3.04492e-05 -0.00228238 0.0186327 -0.00331252 -0.0049469 -0.00252031 -0.0036138 0.0432391 0.0553205
internal_weight=0 6911 500 421 99 210722 8268 93 6411 4045 8175 6027 322 109
internal_count=217633 6911 500 421 99 210722 8268 93 6411 4045 8175 6027 322 109
shrinkage=0.15


Tree=97
num_leaves=15
num_cat=0
split_feature=14 20 0 3 34 23 3 11 34 3 34 20 0 23
split_gain=0.207779 0.704256 22.0217 17.3081 7.41872 8.01995 5.46279 3.22184 3.1948 3.04505 4.96281 8.07548 14.9582 2.50409
threshold=0.00019721000000000002 8.1756000000000011 7.9373400000000007 -6.3853549999999988 0.05360285 -6.4717399999999996 -6.1122599999999991 1.1575600000000001e-05 0.021387400000000004 -6.2498799999999992 0.043039550000000003 5.5978600000000007 8.0347600000000003 -8.8068099999999987
decision_type=2 2 2 2 2 2 2 2 2 2 2 2 2 2
left_child=1 7 6 4 5 -4 8 -1 -3 10 11 -9 13 -13
right_child=-2 2 3 -5 -6 -7 -8 9 -10 -11 -12 12 -14 -15
leaf_value=0.00022714527666179454 9.7889118346909513e-05 -0.014562937056058461 0.037137704486117903 0.0020478429396401251 0.003108116066525756 -0.001742850918963086 -0.00040228028794549593 -0.012249758696709254 -0.0036236992046678107 -0.00018079081643605053 -0.00084006369217925374 0.014827986510659929 -0.0094664079615978825 0.051710088423406374
leaf_weight=44183 150499 1388 810 1803 267 140 3182 2734 1059 7172 3787 59 411 139
leaf_count=44183 150499 1388 810 1803 267 140 3182 2734 1059 7172 3787 59 411 139
internal_value=0 -0.000219445 0.00104391 0.0113774 0.0251992 0.0314079 -0.00450007 -0.000406275 -0.00982871 -0.00236309 -0.00455825 -0.00877026 0.00685034 0.04072
internal_weight=0 67134 8649 3020 1217 950 5629 58485 2447 14302 7130 3343 609 198
internal_count=217633 67134 8649 3020 1217 950 5629 58485 2447 14302 7130 3343 609 198
shrinkage=0.15


Tree=98
num_leaves=15
num_cat=0
split_feature=23 34 5 18 18 33 6 4 37 4 4 38 4 30
split_gain=0.227684 0.259118 0.605185 0.581868 2.16049 2.0215 2.72218 1.90024 1.44101 1.20382 1.77237 3.11347 3.58868 1.0849
threshold=-6.5295149999999991 0.012110300000000003 2.3554100000000002e-05 -1.8630149999999998e-06 -2.8754449999999997e-05 5.3687500000000009e-06 2.3503850000000006e-06 -0.13878399999999999 -3.1446299999999992e-08 0.10878150000000002 0.46547150000000009 -9.3511899999999988e-05 0.16506100000000004 0.00018717800000000003
decision_type=2 2 2 2 2 2 2 2 2 2 2 2 2 2
left_child=1 2 3 4 -1 -6 -7 -8 -9 -5 11 12 13 -11
right_child=-2 -3 -4 9 5 6 7 8 -10 10 -12 -13 -14 -15
leaf_value=7.0428298368244225e-05 0.00046248836400631266 3.6428469839146522e-05 0.00063334408174074198 0.00099279389458687664 -0.0050075104163008095 -0.0049012607903153238 -0.0039911027828400782 0.016679767314344646 0.067705666273832316 0.010403632389934601 0.00037039618749761796 -0.005856502820386137 -0.0038669572512900581 0.029921516513702673
leaf_weight=6595 21576 156042 9793 9347 3939 98 22 20 33 359 5750 3362 619 78
leaf_count=6595 21576 156042 9793 9347 3939 98 22 20 33 359 5750 3362 619 78
internal_value=0 -5.08967e-05 -0.000391429 -0.000723491 -0.00161206 -0.00431051 0.0115593 0.0330677 0.0484506 -0.000235973 -0.00136552 -0.00362481 0.00348024 0.0138874
internal_weight=0 196057 40015 30222 10707 4112 173 75 53 19515 10168 4418 1056 437
internal_count=217633 196057 40015 30222 10707 4112 173 75 53 19515 10168 4418 1056 437
shrinkage=0.15


Tree=99
num_leaves=15
num_cat=0
split_feature=2 20 28 28 19 29 28 19 19 3 31 19 19 23
split_gain=0.188082 2.11306 2.48712 2.29775 2.60549 2.42801 2.10268 2.3386 2.06546 1.60277 0.981748 1.0037 1.88065 1.85592
threshold=-2.8982399999999995 -5.1526549999999993 -0.00011591999999999999 -0.0016614899999999996 7.4248700000000005e-07 0.010529250000000002 -0.0091142549999999982 1.0038850000000003e-06 9.1175600000000013e-09 -6.0288849999999989 0.62597650000000005 2.9382000000000002e-07 6.3072250000000013e-05 -10.618199999999998
decision_type=2 2 2 2 2 2 2 2 2 2 2 2 2 2
left_child=1 2 3 5 9 -1 10 8 -8 -5 -7 -12 13 -13
right_child=-2 -3 -4 4 -6 6 7 -9 -10 -11 11 12 -14 -15
leaf_value=-0.0053349292909600577 2.5253297262396078e-05 -0.0023376425921746652 -0.0024227704886088143 0.037899636916191012 -0.00096521275800114375 -0.0068678924839429912 0.0080214290921017447 0.0043066161925341484 0.056396821192243977 -0.0047631175527108683 -0.0022122832341251938 0.017103710517819438 -0.0029705080041674443 0.076930695315822958
leaf_weight=319 210722 5092 832 143 80 112 29 67 63 23 66 28 37 20
leaf_count=319 210722 5092 832 143 80 112 29 67 63 23 66 28 37 20
internal_value=0 -0.000769994 0.00361839 0.00871084 0.0212719 0.00454078 0.0120061 0.0256237 0.0411481 0.0319885 0.00377336 0.0116662 0.0224425 0.0420316
internal_weight=0 6911 1819 987 246 741 422 159 92 166 263 151 85 48
internal_count=217633 6911 1819 987 246 741 422 159 92 166 263 151 85 48
shrinkage=0.15


Tree=100
num_leaves=15
num_cat=0
split_feature=32 12 13 19 4 4 37 8 35 15 3 21 3 15
split_gain=0.163547 1.81838 1.45006 1.24191 1.37677 1.84531 2.19722 1.78556 2.06802 1.70768 1.70731 1.02456 0.884581 0.866931
threshold=-3.4807049999999995 0.00017045350000000002 0.00033872700000000009 1.2778600000000002e-05 -2.6848399999999994 1.7706300000000004 1.4757500000000002e-05 -9.7128299999999983e-06 -0.4524034999999999 5.5558300000000009e-07 -12.508949999999999 -7.1421249999999992 -9.5178949999999976 -3.5401049999999993e-06
decision_type=2 2 2 2 2 2 2 2 2 2 2 2 2 2
left_child=1 -1 3 -3 -5 6 7 8 -6 12 -11 -7 -8 -10
right_child=-2 2 -4 4 5 11 9 -9 13 10 -12 -13 -14 -15
leaf_value=-0.00040507937708436387 -2.0376276918602807e-05 -0.0098483055997731789 -0.0023598291098129004 -0.0029604402592629318 0.019477930628866151 0.036100717511144464 -0.0098602511419705798 0.010187963909993413 0.086122850541141813 0.065656079312819721 0.0076402996368706219 -0.00013076822118212778 0.024742885173129083 0.050536690532435598
leaf_weight=4367 212417 57 252 95 38 20 68 40 24 21 25 144 22 43
leaf_count=4367 212417 57 252 95 38 20 68 40 24 21 25 144 22 43
internal_value=0 0.000829806 0.00718168 0.0112093 0.013432 0.0169315 0.0243108 0.0371566 0.0474304 0.0106149 0.0341258 0.00428771 -0.00140171 0.063284
internal_weight=0 5216 849 597 540 445 281 145 105 136 46 164 90 67
internal_count=217633 5216 849 597 540 445 281 145 105 136 46 164 90 67
shrinkage=0.15


Tree=101
num_leaves=15
num_cat=0
split_feature=14 34 3 34 18 38 18 32 1 12 21 21 1 1
split_gain=0.18248 0.675537 0.538583 2.24067 1.80496 4.89753 1.91797 1.47209 13.3316 4.5511 16.4346 5.27319 6.72232 3.44343
threshold=0.00018273250000000005 0.33105250000000003 -6.0288849999999989 0.011583400000000002 6.9758600000000004e-07 -8.317094999999999e-05 2.6510050000000005e-06 -0.021550299999999998 5.588070000000001 2.9825400000000004e-05 5.4316850000000008 5.7525350000000008 5.3805850000000008 5.8892850000000001
decision_type=2 2 2 2 2 2 2 2 2 2 2 2 2 2
left_child=1 2 3 4 7 6 -6 8 -1 11 -11 13 -13 -9
right_child=-2 -3 -4 -5 5 -7 -8 9 -10 10 -12 12 -14 -15
leaf_value=-0.012843905779909343 8.9196883928748289e-05 0.00075489486673682195 -1.6169948362055421e-05 -0.0020392715176923808 0.019336571654234573 -0.010927766057798828 -0.0083040255303880161 0.0089558740721121695 0.014961638653373844 -0.013951679069506515 0.025300832049400038 -0.015402979687798369 0.03745316243092079 -0.015856385008451521
leaf_weight=990 153077 12998 28331 15416 212 770 77 3199 638 988 317 427 62 131
leaf_count=990 153077 12998 28331 15416 212 770 77 3199 638 988 317 427 62 131
internal_value=0 -0.000211506 -0.00045514 -0.000990572 0.00107917 -0.00467841 0.0119721 0.0019822 -0.00194714 0.00323064 -0.00441678 0.00584385 -0.00870138 0.00797978
internal_weight=0 64556 51558 23227 7811 1059 289 6752 1628 5124 1305 3819 489 3330
internal_count=217633 64556 51558 23227 7811 1059 289 6752 1628 5124 1305 3819 489 3330
shrinkage=0.15


Tree=102
num_leaves=15
num_cat=0
split_feature=23 3 16 36 10 14 16 16 34 25 3 3 3 15
split_gain=0.154484 0.210926 0.55749 1.274 0.675116 0.841071 0.644209 0.651735 1.26656 0.76275 1.08976 1.03724 0.521384 0.533431
threshold=-6.2663199999999994 -6.860879999999999 3.1357800000000004e-08 0.00029320500000000005 7.2784900000000008e-05 5.8772850000000004e-05 3.3214250000000008e-05 1.7912000000000001e-07 0.0090768600000000008 1.7714450000000002 -6.2187599999999987 -5.9118649999999997 -5.2703399999999991 -3.1918699999999993e-08
decision_type=2 2 2 2 2 2 2 2 2 2 2 2 2 2
left_child=-1 -2 -3 -4 5 -5 7 9 -9 10 -7 -12 13 -10
right_child=1 2 3 4 -6 6 -8 8 12 -11 11 -13 -14 -15
leaf_value=-2.8748720769992447e-05 0.0010415826024469221 -0.0020924997274236901 -0.0035925835858475843 -0.0018328797158226552 -0.0017269975581647096 -0.0079532691504101485 -0.0041434717463309191 -0.0014759631453541389 0.029745826169050162 -0.0070008219418081418 0.03917733033187687 -0.00026704134415922454 -0.00045501796331437716 0.016020141245974593
leaf_weight=206925 6985 1965 665 191 273 37 69 84 105 81 40 24 27 162
leaf_count=206925 6985 1965 665 191 273 37 69 84 105 81 40 24 27 162
internal_value=0 0.00055555 -0.000356332 0.00158426 0.00473395 0.00688497 0.0095322 0.0112172 0.014768 0.00384256 0.0125387 0.0243857 0.0194091 0.0214179
internal_weight=0 10708 3723 1758 1093 820 629 560 378 182 101 64 294 267
internal_count=217633 10708 3723 1758 1093 820 629 560 378 182 101 64 294 267
shrinkage=0.15


Tree=103
num_leaves=15
num_cat=0
split_feature=33 4 4 1 23 26 6 15 20 8 16 18 21 3
split_gain=0.134456 0.677812 0.778277 1.27401 1.45929 0.617401 0.922481 0.689038 0.552625 0.547283 0.520254 0.500382 0.464538 0.369325
threshold=-0.00058211249999999993 0.57692800000000011 2.9123050000000004 -5.2138099999999987 -15.809749999999998 -0.028182349999999998 6.1107950000000011e-08 5.0878500000000008e-06 3.2655200000000004 -1.1897099999999998e-05 1.3186150000000004e-06 3.9077700000000007e-05 -5.6552149999999992 -13.890949999999998
decision_type=2 2 2 2 2 2 2 2 2 2 2 2 2 2
left_child=1 11 3 12 10 -6 7 9 -8 -7 -5 -1 -3 -4
right_child=-2 2 13 4 5 6 8 -9 -10 -11 -12 -13 -14 -15
leaf_value=0.00012065793807053529 -1.3034905304870114e-05 0.014499624890491499 0.011305147870198677 0.015987713648064526 0.044320250708948482 0.061620183661580084 0.020041987164454027 0.010521087530235361 -0.014409260340034962 0.026529056522995233 -0.012221907521444862 -0.016050937216178597 -0.011478713171989943 -0.0020553168479371981
leaf_weight=1995 215005 21 57 24 33 20 22 21 20 20 38 44 59 254
leaf_count=1995 215005 21 57 24 33 20 22 21 20 20 38 44 59 254
internal_value=0 0.00106643 0.00554855 0.0113157 0.0177702 0.026465 0.0207443 0.0325234 0.00363663 0.0440746 -0.00130205 -0.000228312 -0.0046594 0.000393386
internal_weight=0 2628 589 278 198 136 103 61 42 40 62 2039 80 311
internal_count=217633 2628 589 278 198 136 103 61 42 40 62 2039 80 311
shrinkage=0.15


Tree=104
num_leaves=15
num_cat=0
split_feature=14 23 3 14 23 30 3 34 14 23 3 3 23 3
split_gain=0.142723 1.46993 8.7876 5.05458 6.15574 4.1577 2.77381 3.54629 3.84034 2.2053 8.53234 2.51593 3.52791 1.90752
threshold=0.0016871300000000002 -13.010249999999997 -13.239749999999999 0.0064171350000000009 -17.896049999999999 0.0075528750000000006 -13.076899999999998 0.026009600000000004 0.011296750000000001 -13.889449999999998 -14.260649999999998 -13.793399999999998 -14.139049999999997 -18.313249999999996
decision_type=2 2 2 2 2 2 2 2 2 2 2 2 2 2
left_child=-1 2 3 4 -2 9 7 -3 -9 11 -11 13 -13 -6
right_child=1 6 -4 -5 5 -7 -8 8 -10 10 -12 12 -14 -15
leaf_value=9.8924917271595801e-05 -0.0028080494237682826 -1.506314005036768e-05 -0.0015481568012539551 0.0014627764506832171 -0.016318328358465806 -0.0028381507307737291 0.00025456871453509076 -0.0062716178473566607 -0.00086974912352812063 -0.009259963851438251 0.029711442186354929 -0.0077821715196213599 0.057494004815816874 0.018545897973667905
leaf_weight=130850 821 12554 13200 5092 36 378 40286 6062 5789 335 203 165 21 1841
leaf_count=130850 821 12554 13200 5092 36 378 40286 6062 5789 335 203 165 21 1841
internal_value=0 -0.000149157 0.00090724 0.00455223 0.00869209 0.0118615 -0.000509917 -0.00177188 -0.0036329 0.0139978 0.00544486 0.0162282 -0.000412281 0.0178772
internal_weight=0 86783 22092 8892 3800 2979 64691 24405 11851 2601 538 2063 186 1877
internal_count=217633 86783 22092 8892 3800 2979 64691 24405 11851 2601 538 2063 186 1877
shrinkage=0.15


Tree=105
num_leaves=15
num_cat=0
split_feature=25 19 19 33 34 3 3 23 23 23 17 37 26 17
split_gain=0.141466 1.06189 2.05645 9.40862 5.90127 7.74811 8.14562 6.11972 6.09901 5.72125 3.6302 28.2511 12.4259 5.55946
threshold=0.61926450000000011 5.8048950000000003e-08 8.1791500000000028e-06 2.3124300000000005e-06 0.35765750000000002 -11.892349999999999 -6.4132949999999989 -12.363649999999998 -11.973149999999999 -6.5700849999999997 1.9592450000000002e-07 -1.8023299999999995e-08 -0.00010114249999999998 -4.5965099999999994e-08
decision_type=2 2 2 2 2 2 2 2 2 2 2 2 2 2
left_child=-1 -2 3 4 5 8 7 -7 -3 10 12 -12 -9 -14
right_child=1 2 -4 -5 -6 6 -8 9 -10 -11 11 -13 13 -15
leaf_value=-0.00010716673244152256 -0.00095478690687099226 0.026567870860905955 6.3514762462471868e-06 -0.002530945765951051 -7.3733927280999836e-05 -0.011259734681195784 0.0015649920864989353 -0.00093408634626994955 -0.0070113435359165964 0.0018176196255374575 -0.0026831654052441038 0.057516804718028322 0.037494253112414701 0.014606540081021323
leaf_weight=121906 16587 139 64856 5997 2979 177 1337 575 978 436 328 377 518 443
leaf_count=121906 16587 139 64856 5997 2979 177 1337 575 978 436 328 377 518 443
internal_value=0 0.000136474 0.000365192 0.0019945 0.00526939 0.00826811 0.0112267 0.0157529 -0.00283273 0.017539 0.0205977 0.0295089 0.0165076 0.0269435
internal_weight=0 95727 79140 14284 8287 5308 4191 2854 1117 2677 2241 705 1536 961
internal_count=217633 95727 79140 14284 8287 5308 4191 2854 1117 2677 2241 705 1536 961
shrinkage=0.15


Tree=106
num_leaves=15
num_cat=0
split_feature=30 12 32 32 14 4 24 4 34 16 3 14 27 33
split_gain=0.15622 0.429908 3.59537 1.40891 1.48006 1.43107 4.96514 8.94409 1.6317 3.68108 2.15046 2.66053 2.28947 1.54496
threshold=0.0031519250000000003 5.3968600000000004e-05 -0.7526839999999998 -0.5809264999999999 0.00064274150000000012 -0.30706199999999995 -0.43634399999999995 -1.5283549999999997 1.7104650000000003 8.048685000000002e-06 -5.9751649999999996 0.004267840000000001 6.3687200000000006 2.7699650000000002e-05
decision_type=2 2 2 2 2 2 2 2 2 2 2 2 2 2
left_child=-1 3 -3 4 -2 6 7 -5 10 -10 11 -9 -13 -11
right_child=1 2 -4 5 -6 -7 -8 8 9 13 -12 12 -14 -15
leaf_value=-5.7502421148129607e-05 0.00084948435358660332 0.0027837744421015781 -0.0025381239024579979 -0.00054297476129807026 -0.0028459421723941113 0.00077112934935187518 -0.0018900825246912173 0.035759009367503813 -0.00051975513718878995 0.0011598714779312205 1.2687976595771032e-05 0.032350289821624752 -0.0097402094929878204 0.041869432866286006
leaf_weight=180649 5628 4690 7305 919 4303 11731 1555 356 195 27 64 54 63 94
leaf_count=180649 5628 4690 7305 919 4303 11731 1555 356 195 27 64 54 63 94
internal_value=0 0.000280872 -0.000457282 0.000635193 -0.000751706 0.00154988 0.00429574 0.00972404 0.0207855 0.0122332 0.0258181 0.0293097 0.00968617 0.0327855
internal_weight=0 36984 11995 24989 9931 15058 3327 1772 853 316 537 473 117 121
internal_count=217633 36984 11995 24989 9931 15058 3327 1772 853 316 537 473 117 121
shrinkage=0.15


Tree=107
num_leaves=15
num_cat=0
split_feature=22 2 5 2 22 2 3 23 20 3 3 23 3 14
split_gain=0.150523 12.5457 2.42193 1.63229 3.40994 5.81861 1.43669 1.40424 2.28282 1.02469 0.968754 3.53258 0.854703 1.77604
threshold=-2.8863399999999997 -2.8476049999999993 1.3678100000000002e-05 -2.8697349999999995 -2.8252699999999993 -2.9212349999999998 -6.2498799999999992 -16.170749999999995 -6.9911799999999991 -11.042399999999999 -9.6081599999999998 -9.6230949999999975 -6.4132949999999989 0.0032082450000000006
decision_type=2 2 2 2 2 2 2 2 2 2 2 2 2 2
left_child=1 2 6 4 5 -2 7 -1 10 -10 11 -9 13 -3
right_child=3 12 -4 -5 -6 -7 -8 8 9 -11 -12 -13 -14 -15
leaf_value=-0.001864014568981593 -0.00051089513486966126 -0.0052834231899431755 0.010611263010115753 0.00010509919730837418 -0.0025803471182768425 0.073519883516322201 -0.0046870253578163096 0.056060322560369968 0.075994131735060352 0.036789169925032179 0.035395038453950936 -0.021526747494534638 0.00047851396518498604 -9.459850859902511e-05
leaf_weight=23 71 3382 258 201637 7160 36 24 23 40 24 131 31 2148 2645
leaf_count=23 71 3382 258 201637 7160 36 24 23 40 24 131 31 2148 2645
internal_value=0 -0.00061027 0.0212344 2.55e-05 -0.00218314 0.0243967 0.0304938 0.0335979 0.0368735 0.0612923 0.028426 0.0115196 -0.00209063 -0.00300626
internal_weight=0 8729 554 208904 7267 107 296 272 249 64 185 54 8175 6027
internal_count=217633 8729 554 208904 7267 107 296 272 249 64 185 54 8175 6027
shrinkage=0.15


Tree=108
num_leaves=15
num_cat=0
split_feature=7 21 1 1 14 3 14 14 3 3 34 32 14 12
split_gain=0.150131 0.730021 28.4504 13.9559 6.25563 10.5325 4.20332 4.00687 6.92994 3.345 3.1172 3.21898 9.73463 3.68917
threshold=5.2015850000000008e-05 -3.5229999999999997 -3.5519849999999997 -3.5519849999999997 0.0061666100000000003 -6.4680349999999995 0.0035426600000000004 0.0061666100000000003 -6.3281449999999984 -6.2768299999999995 0.63652550000000019 0.025082750000000004 0.00021428950000000003 -3.0825149999999994e-05
decision_type=2 2 2 2 2 2 2 2 2 2 2 2 2 2
left_child=1 2 4 7 5 10 9 8 -3 -4 11 12 13 -1
right_child=-2 3 6 -5 -6 -7 -8 -9 -10 -11 -12 -13 -14 -15
leaf_value=0.013651674380353295 0.00017349752011875866 -0.0053012976430902824 -0.0050806895026693916 0.0010429211553765099 -0.00028467975134266758 0.0004275007084033389 -0.00011297471504804597 0.00015786129980125869 -0.00010105435405726515 -0.00044271222662782702 0.0016100829824060336 0.011028637839125058 -0.0046034058593021473 0.04418056476019918
leaf_weight=354 74041 17943 14198 60607 4279 4858 9842 8241 8496 4643 1179 7788 1045 119
leaf_count=354 74041 17943 14198 60607 4279 4858 9842 8241 8496 4643 1179 7788 1045 119
internal_value=0 -8.94613e-05 0.000385562 -0.00033027 0.00478685 0.00620125 -0.00262535 -0.00273007 -0.00363023 -0.00393775 0.00887639 0.00979698 0.00347801 0.0213323
internal_weight=0 143592 48305 95287 19622 15343 28683 34680 26439 18841 10485 9306 1518 473
internal_count=217633 143592 48305 95287 19622 15343 28683 34680 26439 18841 10485 9306 1518 473
shrinkage=0.15


Tree=109
num_leaves=15
num_cat=0
split_feature=34 14 23 3 3 23 34 3 23 3 23 3 20 3
split_gain=0.165572 0.322012 0.836117 5.6696 6.93087 12.611 5.38147 3.38792 9.7871 6.65146 6.66136 6.49647 3.87556 4.12384
threshold=0.78160050000000014 0.00023943100000000005 -8.3677549999999972 -8.4424149999999987 -6.860879999999999 -6.8901449999999995 0.063411150000000013 -8.4424149999999987 -9.2917499999999986 -6.7134699999999992 -10.7143 -9.3441199999999984 7.2111900000000011 -9.292234999999998
decision_type=2 2 2 2 2 2 2 2 2 2 2 2 2 2
left_child=1 2 7 -4 5 6 -5 8 12 10 -9 -10 -1 -14
right_child=-2 -3 3 4 -6 -7 -8 9 11 -11 -12 -13 13 -15
leaf_value=-0.0031467151576672222 0.00035600743290210721 9.0526580339010213e-05 -0.0097279016573603889 0.012136072289682102 -0.00064428597618067728 -0.0033899833451052032 -0.0031399697629708365 -0.0012041851140433156 -0.013638253573891382 8.9274383618983625e-05 -0.0095573849514263131 0.031815034638446073 0.056261844923368318 -0.0026360011814783014
leaf_weight=1317 25896 127110 1217 3609 20403 2571 606 5152 86 25476 3684 399 53 54
leaf_count=1317 25896 127110 1217 3609 20403 2571 606 5152 86 25476 3684 399 53 54
internal_value=0 -4.80824e-05 -0.000320702 0.000288544 0.000736888 0.00488957 0.0099398 -0.000798498 0.00535182 -0.00114068 -0.00468689 0.0237553 -0.000916215 0.0265377
internal_weight=0 191737 64627 28406 27189 6786 4215 36221 1909 34312 8836 485 1424 107
internal_count=217633 191737 64627 28406 27189 6786 4215 36221 1909 34312 8836 485 1424 107
shrinkage=0.15


Tree=110
num_leaves=15
num_cat=0
split_feature=23 14 22 2 3 2 3 6 3 3 4 20 9 3
split_gain=0.214582 0.33328 0.72742 4.32899 3.09098 0.82844 1.17988 0.8177 0.791875 0.541348 0.507277 0.449158 1.31934 1.41411
threshold=-6.5295149999999991 7.6990750000000005e-05 2.1918900000000003 2.2099550000000003 -5.6498199999999992 1.9965100000000002 -5.9118649999999997 3.0629350000000003e-06 -6.6023349999999992 -5.8866849999999991 0.062855200000000014 9.0324500000000025 2.5545100000000004e-05 -5.753169999999999
decision_type=2 2 2 2 2 2 2 2 2 2 2 2 2 2
left_child=-1 2 5 9 7 11 8 -5 -7 -4 -9 -2 -13 -14
right_child=1 -3 3 4 -6 6 -8 10 -10 -11 -12 12 13 -15
leaf_value=-4.9410616404788339e-05 -0.0017973890929121376 0.00070262494666880118 -0.014453050809155182 0.020477688701992687 -0.0025514884278891258 -0.0032238910328284071 -0.0021512359371291178 0.042420714385807516 -0.023378811785483761 -0.00082240445652105262 0.07008108416428932 -0.0043346330169339274 0.018621751709838461 -0.0014601155911398063
leaf_weight=196057 1683 18206 87 22 48 67 398 35 127 266 26 292 176 143
leaf_count=196057 1683 18206 87 22 48 67 398 35 127 266 26 292 176 143
internal_value=0 0.000448985 -0.000921274 0.00446012 0.0277471 -0.00182377 -0.00682652 0.0452692 -0.0164181 -0.0041818 0.0542104 -0.000532732 0.00295077 0.00961954
internal_weight=0 21576 3370 484 131 2886 592 83 194 353 61 2294 611 319
internal_count=217633 21576 3370 484 131 2886 592 83 194 353 61 2294 611 319
shrinkage=0.15


Tree=111
num_leaves=15
num_cat=0
split_feature=5 21 21 39 33 6 6 33 7 33 26 1 33 19
split_gain=0.156404 0.739517 1.41821 0.878683 1.20752 2.89845 0.936753 0.750745 0.63192 0.973512 0.568043 0.551373 0.410594 0.383933
threshold=7.2568900000000009e-06 3.6299650000000008 -3.8797499999999996 7.9727550000000012e-06 -2.4013799999999994e-06 -4.0280749999999992e-07 2.8454900000000007e-07 9.3338250000000019e-07 3.2465250000000006e-05 6.027510000000001e-07 5.2797150000000007e-05 -4.3419649999999992 -2.1731449999999998e-06 0.00015282300000000004
decision_type=2 2 2 2 2 2 2 2 2 2 2 2 2 2
left_child=1 2 11 4 5 10 8 -8 -6 -10 -4 12 -1 -5
right_child=-2 -3 3 13 6 -7 7 -9 9 -11 -12 -13 -14 -15
leaf_value=0.020994666461184672 -1.397983703690816e-05 -0.0024444894150353791 0.073652650862932198 0.001149350610080596 -0.0050535655314718564 -0.0055848891841014841 0.0034003740015607271 0.033601505646441612 0.040609940841095524 -0.0051157431708733466 0.039087592790652388 -0.0036056087599954535 0.00070274774410982463 0.0085186258387434603
leaf_weight=37 215034 859 20 457 107 30 31 46 20 22 23 646 57 244
leaf_count=37 215034 859 20 457 107 30 31 46 20 22 23 646 57 244
internal_value=0 0.00115665 0.00293446 0.00661832 0.0134265 0.0301989 0.00800886 0.0214426 0.00106658 0.0166584 0.0551644 -0.00204374 0.00868999 0.00371441
internal_weight=0 2599 1740 1000 299 73 226 77 149 42 43 740 94 701
internal_count=217633 2599 1740 1000 299 73 226 77 149 42 43 740 94 701
shrinkage=0.15


Tree=112
num_leaves=15
num_cat=0
split_feature=32 8 12 3 13 3 13 21 1 3 21 1 16 16
split_gain=0.147119 8.9412 5.72817 4.30062 4.42748 3.53036 5.54031 3.57707 4.13758 4.9551 3.23593 9.45636 4.07265 3.99149
threshold=-0.031422399999999996 -2.3309349999999995e-06 3.4428800000000012e-05 -7.2547399999999991 9.8553700000000012e-05 -7.4742849999999992 9.8553700000000012e-05 9.5596900000000016 9.3170900000000021 -6.2498799999999992 9.5596900000000016 9.2129300000000018 -8.6475249999999982e-06 1.2394850000000002e-05
decision_type=2 2 2 2 2 2 2 2 2 2 2 2 2 2
left_child=1 5 -2 4 -3 6 10 -7 -9 -10 12 -12 -1 -14
right_child=2 3 -4 -5 -6 7 -8 8 9 -11 11 -13 13 -15
leaf_value=4.2446373481843366e-05 0.0006645350326221481 -0.003856849239455523 -0.0013251565833986001 0.00063515383475606728 0.00043566065328823171 -0.00098130268022670014 -0.00089660497516492446 -0.0017191996221800974 0.020666281090887591 0.0027920983567494189 -0.0033910563063444944 0.035670979317765403 0.007311621765451453 -0.0012503892988082351
leaf_weight=2862 85435 18014 52599 14877 7725 12947 6220 1098 616 805 2174 149 10729 1383
leaf_count=2862 85435 18014 52599 14877 7725 12947 6220 1098 616 805 2174 149 10729 1383
internal_value=0 0.000162406 -9.36535e-05 -0.00139508 -0.00256855 0.00178514 0.00294274 2.49231e-05 0.00519666 0.0105405 0.00432337 -0.000885571 0.00513147 0.00633397
internal_weight=0 79599 138034 40616 25739 38983 23517 15466 2519 1421 17297 2323 14974 12112
internal_count=217633 79599 138034 40616 25739 38983 23517 15466 2519 1421 17297 2323 14974 12112
shrinkage=0.15


Tree=113
num_leaves=15
num_cat=0
split_feature=23 34 14 3 23 3 23 18 4 3 4 23 3 23
split_gain=0.168434 0.264692 0.629626 1.65856 2.94873 4.73052 1.71047 1.06009 1.0593 1.83631 4.71454 1.92738 1.61706 1.48527
threshold=-6.4887299999999994 0.012110300000000003 0.0013588450000000002 -9.4771649999999976 -9.5416749999999979 -10.110599999999998 -7.1436399999999987 -2.3618449999999997e-06 -0.13878399999999999 -6.5460449999999986 0.14988850000000004 -6.6317949999999994 -6.6541099999999984 -9.5416749999999979
decision_type=2 2 2 2 2 2 2 2 2 2 2 2 2 2
left_child=1 2 3 4 5 -1 -6 -7 -5 10 11 13 -13 -10
right_child=-2 -3 -4 8 6 7 -8 -9 9 -11 -12 12 -14 -15
leaf_value=-0.0069334006001480625 0.00041598768507832473 4.7039562410209144e-05 0.00031380740649915111 -0.002493132598107026 -0.0069497512808408208 0.023933100525755435 -0.00056561593083470727 0.065512336951655314 -0.011672999291551019 -0.0012737354275274648 -0.0045304561592936273 -0.009949008566002707 0.014085820007633853 0.0053529175406409881
leaf_weight=74 19898 156634 17131 4007 2349 22 1579 37 118 8472 1882 346 77 5007
leaf_count=74 19898 156634 17131 4007 2349 22 1579 37 118 8472 1882 346 77 5007
internal_value=0 -4.18607e-05 -0.000380655 -0.000876978 -0.00363966 0.0183264 -0.00438342 0.0500082 -0.000313451 0.000235787 0.00195701 0.0041577 -0.00557387 0.00496091
internal_weight=0 197735 41101 23970 4061 133 3928 59 19909 15902 7430 5548 423 5125
internal_count=217633 197735 41101 23970 4061 133 3928 59 19909 15902 7430 5548 423 5125
shrinkage=0.15


Tree=114
num_leaves=15
num_cat=0
split_feature=14 23 3 23 3 3 23 39 3 3 23 23 3 20
split_gain=0.162298 0.750094 0.775062 0.647639 4.06642 4.20186 10.1392 5.17013 2.71855 5.00695 8.17508 5.16379 4.23939 3.04874
threshold=0.00023943100000000005 -16.434549999999998 -6.1661399999999995 -8.4609499999999986 -8.4424149999999987 -6.942054999999999 -7.0114099999999988 8.7614100000000012e-05 -6.6271099999999992 -8.4424149999999987 -9.2917499999999986 -10.428949999999999 -9.3834099999999996 7.6222700000000012
decision_type=2 2 2 2 2 2 2 2 2 2 2 2 2 2
left_child=1 2 -1 8 -5 6 7 -6 9 10 -3 -11 -12 -14
right_child=-2 3 -4 4 5 -7 -8 -9 -10 11 12 -13 13 -15
leaf_value=0.0030079746005468398 9.219734923692368e-05 -0.001247489504710528 -9.9080746727457544e-05 -0.0079714265308370828 0.011531335289349961 -0.00043634414785976466 -0.0030092550432431328 -0.0029381403814444061 0.00011332754417770436 -0.0013417234752183783 -0.015476423715462245 -0.0086027542044784088 0.021099987838922994 0.054406516289023994
leaf_weight=3203 144453 1395 4143 1322 3099 22560 2772 677 24242 5740 59 3577 314 77
leaf_count=3203 144453 1395 4143 1322 3099 22560 2772 677 24242 5740 59 3577 314 77
internal_value=0 -0.000181992 0.00125566 -0.00034241 0.000165057 0.000534592 0.00387978 0.0089371 -0.000778582 -0.00271566 0.00442349 -0.00412939 0.0220035 0.0276591
internal_weight=0 73180 7346 65834 30430 29108 6548 3776 35404 11162 1845 9317 450 391
internal_count=217633 73180 7346 65834 30430 29108 6548 3776 35404 11162 1845 9317 450 391
shrinkage=0.15


Tree=115
num_leaves=15
num_cat=0
split_feature=7 21 2 2 22 22 2 22 19 22 22 14 12 32
split_gain=0.188507 0.6413 14.3954 6.94874 5.5133 4.23239 7.38864 7.59929 5.18994 6.15689 4.60561 4.1707 5.85162 6.70771
threshold=5.2015850000000008e-05 -3.5229999999999997 -0.46616699999999994 -0.44199499999999997 -0.45400599999999997 -0.50150699999999981 -2.6044999999999994 -2.5595399999999997 7.7858950000000025e-05 -2.9625949999999994 -2.5595399999999997 0.0016871300000000002 -6.1600249999999983e-05 0.030340550000000004
decision_type=2 2 2 2 2 2 2 2 2 2 2 2 2 2
left_child=1 2 11 5 -5 6 7 8 9 -3 -8 12 13 -1
right_child=-2 3 -4 4 -6 -7 10 -9 -10 -11 -12 -13 -14 -15
leaf_value=-0.0021837924907618629 0.00019441123724572284 0.0074753640624146281 -0.0020667409706532731 -0.0026618161111658625 0.0014513699864957756 -0.0025077506899838786 -0.0043973141204127954 -0.0052422537212292661 -0.00057588186159775244 0.036824370459099989 0.003991467201764012 0.0005933669813747703 0.002346933262996757 0.011448278836372682
leaf_weight=1011 74041 258 25867 8741 45495 33732 3401 413 223 427 2597 8859 8439 4129
leaf_count=1011 74041 258 25867 8741 45495 33732 3401 413 223 427 2597 8859 8439 4129
internal_value=0 -0.000100245 0.000344978 -0.000325947 0.000788464 -0.00179829 0.00147148 0.0116269 0.0192998 0.0257703 -0.000765159 0.00312526 0.00477707 0.00876695
internal_weight=0 143592 48305 95287 54236 41051 7319 1321 908 685 5998 22438 13579 5140
internal_count=217633 143592 48305 95287 54236 41051 7319 1321 908 685 5998 22438 13579 5140
shrinkage=0.15


Tree=116
num_leaves=15
num_cat=0
split_feature=23 14 22 11 13 3 28 20 0 3 25 21 19 3
split_gain=0.198761 0.371388 0.684031 1.8279 2.38469 2.77768 0.892548 0.762191 2.33953 2.65937 2.09769 1.20533 3.15156 1.09813
threshold=-6.7159199999999997 7.5703150000000014e-05 2.0894700000000004 -5.3033549999999993e-06 -1.1091499999999998e-06 -5.7023449999999993 0.0052906950000000006 10.210350000000002 9.1590050000000023 -5.753169999999999 0.99658950000000013 0.18529350000000003 2.4339550000000004e-08 -5.9118649999999997
decision_type=2 2 2 2 2 2 2 2 2 2 2 2 2 2
left_child=-1 2 7 4 5 6 -4 13 -9 10 11 -10 -13 -2
right_child=1 -3 3 -5 -6 -7 -8 8 9 -11 -12 12 -14 -15
leaf_value=-5.6393913815777436e-05 -0.0073205045500112417 0.00059055140193446881 0.044865866077386518 -0.0032118622424785292 -0.0043205321050481874 -0.0023964070142969362 0.010449165062579724 -0.0042652549001652449 0.046066807329988295 -0.00290354306342458 -0.014413386330448297 0.035605117294992973 -0.029828435106372293 -0.00094852960817059964
leaf_weight=188465 858 24749 88 378 110 58 21 483 67 147 27 67 22 2093
leaf_count=188465 858 24749 88 378 110 58 21 483 67 147 27 67 22 2093
internal_value=0 0.000364381 -0.000902303 0.00357144 0.0128281 0.0241236 0.0382351 -0.00168081 0.00238585 0.0121206 0.0241892 0.0308705 0.0194305 -0.00280117
internal_weight=0 29168 4419 655 277 167 109 3764 813 330 183 156 89 2951
internal_count=217633 29168 4419 655 277 167 109 3764 813 330 183 156 89 2951
shrinkage=0.15


Tree=117
num_leaves=15
num_cat=0
split_feature=30 12 28 4 4 24 4 24 4 3 20 15 22 23
split_gain=0.16531 0.433932 1.81993 1.07814 5.39335 6.61844 2.15762 3.96141 7.07653 3.03035 2.14967 5.04725 4.52826 2.0119
threshold=0.0031519250000000003 5.3968600000000004e-05 0.058850500000000007 1.8837800000000002 0.41110300000000005 0.50967450000000014 -0.26752999999999993 0.23088500000000003 -2.0449499999999996 -7.8930599999999993 -1.7627449999999998 -1.2760799999999998e-06 1.4877800000000001 -9.2454099999999979
decision_type=2 2 2 2 2 2 2 2 2 2 2 2 2 2
left_child=-1 -2 -3 4 6 -6 7 8 -4 -10 11 -7 -13 -11
right_child=1 2 3 -5 5 10 -8 -9 9 13 -12 12 -14 -15
leaf_value=-5.9151676033976158e-05 0.00064490355937191983 -0.0019788867120406691 -0.0026363363233606035 -0.0025061639470616071 -0.0070507910477713067 0.061254373279464709 -0.003296283197889173 -0.0027874821638291789 0.032695327900138564 -0.01276073454735944 0.018037888726252501 0.065124615356326104 -0.021934657634758367 0.033185309128020889
leaf_weight=180649 24989 7130 386 1037 184 101 1619 837 317 65 226 20 41 32
leaf_count=180649 24989 7130 386 1037 184 101 1619 837 317 65 226 20 41 32
internal_value=0 0.000288927 -0.000452672 0.0017841 0.00294633 0.0163795 0.000586447 0.00442648 0.0119741 0.0255964 0.0274908 0.0406782 0.00660937 0.00239672
internal_weight=0 36984 11995 4865 3828 572 3256 1637 800 414 388 162 61 97
internal_count=217633 36984 11995 4865 3828 572 3256 1637 800 414 388 162 61 97
shrinkage=0.15


Tree=118
num_leaves=15
num_cat=0
split_feature=23 23 1 21 1 14 14 17 22 2 9 22 38 21
split_gain=0.15029 0.316075 0.918368 12.6006 12.0775 6.69826 7.8262 2.67648 2.57049 3.86254 2.94191 2.50004 2.4499 2.28008
threshold=-6.6921149999999994 -8.3320149999999984 -9.0747149999999976 -9.1109899999999975 -11.245799999999997 0.0010618150000000002 0.000110883 -1.8600549999999994e-08 -1.0853349999999997 -1.0844649999999998 1.0374600000000002e-05 -2.0263699999999996 0.00055839300000000013 -8.8025949999999984
decision_type=2 2 2 2 2 2 2 2 2 2 2 2 2 2
left_child=1 -1 3 4 -3 6 -6 12 9 11 -10 -9 -8 -4
right_child=-2 2 13 -5 5 -7 7 8 10 -11 -12 -13 -14 -15
leaf_value=7.526205117120635e-05 0.00032234851222647366 -0.0020891922437718175 -0.0027612335910088058 -0.0021915230308288966 0.002500805980859392 -0.0006129301186605854 -0.0049939097239352437 0.019406048480707865 -0.02124813924450427 -0.0058984247948974371 0.055935891052940855 0.0597391422437294 0.054964076434059629 -8.9615695929113357e-05
leaf_weight=134673 28310 602 8787 4979 144 167 46 39 25 25 20 305 23 39488
leaf_count=134673 28310 602 8787 4979 144 167 46 39 25 25 20 305 23 39488
internal_value=0 -4.82017e-05 -0.000352451 0.00133965 0.013934 0.0260825 0.0331928 0.0423432 0.0469018 0.0510293 0.0130559 0.0551665 0.0149921 -0.000575903
internal_weight=0 189323 54650 6375 1396 794 627 483 414 369 45 344 69 48275
internal_count=217633 189323 54650 6375 1396 794 627 483 414 369 45 344 69 48275
shrinkage=0.15


Tree=119
num_leaves=15
num_cat=0
split_feature=7 33 13 13 34 14 14 23 23 18 23 19 19 14
split_gain=0.163976 0.522034 22.3908 10.9416 9.85913 9.3864 8.15383 6.41525 4.7074 4.56501 4.50448 4.72196 3.55048 3.86977
threshold=5.2015850000000008e-05 4.9819250000000006e-06 -1.3772949999999998e-05 -1.6705399999999998e-05 0.090218400000000018 0.0016871300000000002 0.00015258600000000005 -13.010249999999997 -13.750649999999998 -2.1309099999999999e-05 -7.5620149999999997 0.00032532400000000004 4.5448750000000008e-05 0.00018273250000000005
decision_type=2 2 2 2 2 2 2 2 2 2 2 2 2 2
left_child=1 3 4 -1 5 6 -3 -7 -8 -10 11 -11 13 -4
right_child=-2 2 12 -5 -6 7 8 -9 9 10 -12 -13 -14 -15
leaf_value=-0.0041419765473849415 0.00018132068681692747 0.00099515947926727888 -0.00021184593002941012 0.0003569272462673412 0.0029954984987799471 0.022910993948197837 0.00048922682270457693 -0.006342207257249541 0.002832456605347733 0.010536749863288113 0.0031629216301007541 0.03333472812045199 0.00018704537422551155 -0.0046819744571863697
leaf_weight=14182 74041 510 7457 85447 5190 220 203 723 195 244 160 1260 17318 10483
leaf_count=14182 74041 510 7457 85447 5190 220 203 723 195 244 160 1260 17318 10483
internal_value=0 -9.34952e-05 0.000337056 -0.000283483 0.00714987 0.0132839 0.0179774 0.000482506 0.0221777 0.0245461 0.0270906 0.0296361 -0.00134499 -0.00282391
internal_weight=0 143592 43963 99629 8705 3515 2572 943 2062 1859 1664 1504 35258 17940
internal_count=217633 143592 43963 99629 8705 3515 2572 943 2062 1859 1664 1504 35258 17940
shrinkage=0.15


Tree=120
num_leaves=15
num_cat=0
split_feature=30 12 32 4 4 38 36 4 4 21 23 15 31 35
split_gain=0.174115 0.467025 2.82979 1.68134 3.21038 6.45911 3.12709 3.3439 9.46378 3.0381 2.06535 2.14519 8.17315 3.04387
threshold=0.0012252050000000003 7.6497400000000011e-05 -0.35905949999999992 1.8837800000000002 0.26861600000000002 -0.0038502599999999999 0.010676500000000002 -0.20288699999999996 -1.4177149999999996 -0.091024949999999979 -19.568199999999997 -2.1145799999999999e-07 -0.23573249999999998 -0.008979214999999997
decision_type=2 2 2 2 2 2 2 2 2 2 2 2 2 2
left_child=-1 -2 3 4 6 9 7 8 -3 -6 -10 13 -13 -12
right_child=1 2 -4 -5 5 -7 -8 -9 10 -11 11 12 -14 -15
leaf_value=-8.511205271409964e-05 0.00046074676355873945 -0.0013367231149755102 -0.0020087394188053167 -0.0023333795487617813 -0.0082360587621035132 -0.0058855794822079586 -0.0029033512130579695 -0.0034416444068673903 -0.01047767407358869 0.023501331928606192 0.033357980305108385 -0.010737362086018991 0.051648328380819987 0.0045664117910731352
leaf_weight=155183 45610 787 10322 1548 77 336 1930 645 38 572 152 63 189 181
leaf_count=155183 45610 787 10322 1548 77 336 1930 645 38 572 152 63 189 181
internal_value=0 0.000211496 -0.000463582 0.00198335 0.00332788 0.010996 0.00143251 0.00550462 0.00959706 0.0197359 0.0234091 0.0256103 0.0360519 0.0177085
internal_weight=0 62450 16840 6518 4970 985 3985 2055 1410 649 623 585 252 333
internal_count=217633 62450 16840 6518 4970 985 3985 2055 1410 649 623 585 252 333
shrinkage=0.15


Tree=121
num_leaves=15
num_cat=0
split_feature=20 0 25 17 11 4 7 17 13 22 19 3 21 14
split_gain=0.149547 3.35922 0.915457 0.721971 0.717929 1.13643 0.973395 0.832643 0.524541 0.730319 2.08794 0.240212 0.355056 0.195582
threshold=-12.935299999999998 -8.8447699999999987 29.334150000000005 -1.7532549999999998e-06 -1.9350749999999998e-05 1.0025000000000002 3.9998900000000008e-05 4.3645800000000003e-07 2.4836450000000005e-05 2.6194050000000004 0.00011380100000000002 -6.3281449999999984 -2.5163899999999999 0.00024663650000000006
decision_type=2 2 2 2 2 2 2 2 2 2 2 2 2 2
left_child=1 2 4 -4 5 6 -1 11 9 10 -8 -6 -13 -2
right_child=13 -3 3 -5 7 -7 8 -9 -10 -11 -12 12 -14 -15
leaf_value=0.059382568748498503 -0.00021544374531623649 -0.00080488762734816225 0.027680199505994093 -0.00068801625628999656 -0.011019342597732743 -0.0031951127767873306 0.048789934348315002 0.03104685538377042 0.00285411792810919 0.04886968633625656 -0.00629212491621729 0.023874592926003968 0.00035720442179249049 8.7125465156891551e-05
leaf_weight=22 72839 3008 24 127 22 27 30 31 20 30 32 20 52 141349
leaf_count=22 72839 3008 24 127 22 27 30 31 20 30 32 20 52 141349
internal_value=0 0.000980438 0.0132694 0.00382084 0.0182579 0.0248799 0.0305369 0.00972875 0.0248707 0.029657 0.0203605 0.00269831 0.00688981 -1.57694e-05
internal_weight=0 3445 437 151 286 161 134 125 112 92 62 94 72 214188
internal_count=217633 3445 437 151 286 161 134 125 112 92 62 94 72 214188
shrinkage=0.15


Tree=122
num_leaves=15
num_cat=0
split_feature=5 30 4 24 4 34 3 3 27 27 24 4 4 34
split_gain=0.149619 0.244785 0.51431 6.04157 8.06919 5.32221 3.08495 3.43908 8.54068 6.2873 2.23091 2.69755 6.01424 3.33443
threshold=3.8302250000000004e-05 0.0012252050000000003 -0.21023149999999999 -0.26792349999999993 -0.89191049999999994 1.0428250000000003 -6.3281449999999984 -12.831349999999999 1.2020100000000002 1.9548200000000002 -0.33083599999999996 0.19042400000000004 1.0025000000000002 0.63652550000000019
decision_type=2 2 2 2 2 2 2 2 2 2 2 2 2 2
left_child=1 -1 3 4 -3 6 7 9 -9 -6 -4 -12 13 -13
right_child=-2 2 10 -5 5 -7 -8 8 -10 -11 11 12 -14 -15
leaf_value=-0.00015231950525669387 0.00034289413731788666 -0.00013128542246330422 -0.0012422530716575265 -0.0020533993000620638 0.024799651980621416 0.00083201477096688414 2.9512441827994934e-05 -0.0072605592574560233 0.025538458224513907 -0.0068340428184649697 -0.00044735508177135431 0.011448934469778675 -0.00052306390444903784 0.0025536769082756912
leaf_weight=137245 25303 4741 18907 7704 243 1066 317 213 1107 338 11864 2116 4751 1718
leaf_count=137245 25303 4741 18907 7704 243 1066 317 213 1107 338 11864 2116 4751 1718
internal_value=0 -4.51113e-05 0.000221999 0.000947006 0.00382739 0.00954241 0.0137287 0.0160131 0.0202459 0.00639657 -6.77562e-05 0.00101818 0.00304346 0.00746301
internal_weight=0 192330 55085 15729 8025 3284 2218 1901 1320 581 39356 20449 8585 3834
internal_count=217633 192330 55085 15729 8025 3284 2218 1901 1320 581 39356 20449 8585 3834
shrinkage=0.15


Tree=123
num_leaves=15
num_cat=0
split_feature=34 19 14 13 23 3 22 0 20 0 0 4 4 31
split_gain=0.138736 0.28964 0.359565 0.609695 0.714894 1.03216 0.908871 1.11602 1.00329 2.67047 1.36142 1.29724 1.05963 1.03879
threshold=0.78160050000000014 9.8134050000000006e-08 0.0082895900000000012 0.00016332850000000003 -11.172049999999997 -12.278849999999998 2.5169000000000006 -3.1138999999999997 1.1592000000000002 1.8235000000000003 3.2363950000000004 -1.4177149999999996 1.9928500000000002 0.10697700000000002
decision_type=2 2 2 2 2 2 2 2 2 2 2 2 2 2
left_child=-1 -2 -3 4 5 6 8 -8 10 13 -4 -11 -13 -10
right_child=1 2 3 -5 -6 -7 7 -9 9 11 -12 12 -14 -15
leaf_value=-4.4013556960004789e-05 0.0013521806835972057 -0.00032370832297397295 0.017379860701505094 2.846476944750215e-05 -0.0013133440163298757 -0.00019976252839548828 0.023919088114053012 -0.015710639953374368 -0.011030333543991825 -0.00047422530756299487 -0.0086433584931963937 0.041596747991148257 0.0032789633926850826 0.020521352207288145
leaf_weight=191737 4994 14694 400 4249 558 528 21 67 180 43 51 62 22 27
leaf_count=191737 4994 14694 400 4249 558 528 21 67 180 43 51 62 22 27
internal_value=0 0.000325882 8.06735e-05 0.00103782 0.00322709 0.00503548 0.00820181 -0.00625355 0.00982228 0.0035909 0.0144371 0.0207145 0.0315611 -0.0069149
internal_weight=0 25896 20902 6208 1959 1401 873 88 785 334 451 127 84 207
internal_count=217633 25896 20902 6208 1959 1401 873 88 785 334 451 127 84 207
shrinkage=0.15


Tree=124
num_leaves=15
num_cat=0
split_feature=30 4 4 24 3 26 7 37 6 26 3 7 18 1
split_gain=0.135432 0.317981 0.964297 2.71202 1.91134 1.66765 1.37585 1.57348 2.15136 1.32614 0.853738 0.641354 0.50046 1.12213
threshold=0.023990800000000003 -0.81542249999999983 -2.6848399999999994 -0.82277699999999998 -7.6157749999999993 -0.0088494799999999981 3.3136750000000008e-05 2.3922400000000003e-05 -5.6589949999999994e-07 -0.0088494799999999981 -11.820049999999997 3.7936850000000009e-05 -1.4113149999999997e-05 -10.893749999999999
decision_type=2 2 2 2 2 2 2 2 2 2 2 2 2 2
left_child=-1 2 -2 4 5 11 -7 10 -9 -6 -8 -4 13 -3
right_child=1 12 3 -5 9 6 7 8 -10 -11 -12 -13 -14 -15
leaf_value=-2.4694472039470081e-05 -0.00038567728174323287 0.025997556210287646 -0.02038735589647496 -0.0031565557292397733 0.033463879676697693 0.053545451439938253 0.060169532976177484 0.044177763458962245 -0.0076797751189183645 -0.0064822298882972968 0.023772205045880301 0.016726697296835482 0.00055902112691857801 -0.0045914818616164229
leaf_weight=208550 1076 28 22 317 23 44 29 27 54 100 29 20 6571 743
leaf_count=208550 1076 28 22 317 23 44 29 27 54 100 29 20 6571 743
internal_value=0 0.000566997 0.00238957 0.00688005 0.0160226 0.0242418 0.0304284 0.0231108 0.00960607 0.000987368 0.0419709 -0.002714 0.000134812 -0.0034806
internal_weight=0 9083 1741 665 348 225 183 139 81 123 58 42 7342 771
internal_count=217633 9083 1741 665 348 225 183 139 81 123 58 42 7342 771
shrinkage=0.15


Tree=125
num_leaves=15
num_cat=0
split_feature=23 4 38 3 4 3 3 23 3 0 20 20 37 24
split_gain=0.147015 0.416277 1.99932 7.13157 5.33568 3.93267 2.19155 1.44351 1.79029 1.36557 4.14737 3.2306 1.20411 1.056
threshold=-6.8340949999999987 -0.11254849999999998 0.00013422600000000001 -7.1105099999999988 -0.68792049999999982 -6.1122599999999991 -7.0419349999999996 -6.2906249999999995 -6.4680349999999995 -6.821089999999999 -5.5815149999999987 -5.2467099999999993 8.6219650000000009e-07 -0.13395349999999998
decision_type=2 2 2 2 2 2 2 2 2 2 2 2 2 2
left_child=-1 2 6 -4 -5 7 -2 9 -9 11 -11 -6 -7 -3
right_child=1 13 3 4 5 12 -8 8 -10 10 -12 -13 -14 -15
leaf_value=-5.2513090528343086e-05 0.0012377200133169813 -0.0021270323883723495 -0.000398022355833284 -0.00060983652967918484 0.04967257480761459 0.0053967967232090488 -0.0042481944206866819 -0.0039783974054621576 0.038702732796082266 -0.0069746504612267016 0.059499204073183452 -0.015504304041054897 0.034162804950476411 0.0004404740269548078
leaf_weight=184211 6670 4565 2033 290 44 204 2172 41 48 25 136 28 39 17127
leaf_count=184211 6670 4565 2033 290 44 204 2172 41 48 25 136 28 39 17127
internal_value=0 0.000289435 0.00100933 0.0044359 0.0159299 0.0244193 -0.000109872 0.0352907 0.0190406 0.0414978 0.0491772 0.024326 0.0100136 -9.98481e-05
internal_weight=0 33422 11730 2888 855 565 8842 322 89 233 161 72 243 21692
internal_count=217633 33422 11730 2888 855 565 8842 322 89 233 161 72 243 21692
shrinkage=0.15


Tree=126
num_leaves=15
num_cat=0
split_feature=7 21 1 1 14 3 21 22 2 2 22 21 1 3
split_gain=0.134016 0.405322 13.2964 6.37495 3.66346 6.2456 6.31415 3.46161 10.6377 5.02592 4.48964 3.3434 4.28253 4.95239
threshold=5.5511750000000009e-05 -3.5229999999999997 -3.1376199999999996 -3.7212499999999995 0.0078268300000000016 -7.1105099999999988 -10.765649999999999 -0.54786299999999988 -0.55996749999999984 -0.5859764999999999 -0.33467499999999994 -10.551199999999998 -8.973889999999999 -5.9424999999999999
decision_type=2 2 2 2 2 2 2 2 2 2 2 2 2 2
left_child=1 2 4 -3 5 6 -1 9 -9 -8 -10 12 13 -7
right_child=-2 3 -4 -5 -6 11 7 8 10 -11 -12 -13 -14 -15
leaf_value=-0.0024660747361590564 0.00017942562172400888 -0.0018615695004042649 -0.0018074095186759839 0.00063058057024717993 -0.00072874565320166554 0.020406371328718944 0.0098268946925549275 -0.0073984891588758268 0.067390074130063024 -0.0093718665454844089 -0.012239586034723157 -0.00099262217581378093 -0.0064426384937063099 0.00014409342786649763
leaf_weight=1506 65482 35746 29472 65253 4490 635 7436 711 66 320 21 5626 395 474
leaf_count=1506 65482 35746 29472 65253 4490 635 7436 711 66 320 21 5626 395 474
internal_value=0 -7.72203e-05 0.000266798 -0.000251452 0.0030865 0.00408303 0.00649009 0.00806689 -0.00134037 0.00903478 0.0481691 0.000686818 0.00696909 0.011746
internal_weight=0 152151 51152 100999 21680 17190 10060 8554 798 7756 87 7130 1504 1109
internal_count=217633 152151 51152 100999 21680 17190 10060 8554 798 7756 87 7130 1504 1109
shrinkage=0.15


Tree=127
num_leaves=15
num_cat=0
split_feature=33 17 19 14 5 19 17 4 14 21 19 4 1 12
split_gain=0.137267 0.36849 0.387767 0.284333 0.334148 0.359457 0.346386 0.274027 0.381312 0.241429 0.482119 0.751427 0.275512 0.372143
threshold=-0.00058211249999999993 3.1090850000000007e-06 3.0659200000000006e-05 0.0010945700000000002 1.4194300000000002e-05 0.00030185050000000005 5.4117700000000011e-07 0.49798950000000003 0.00054376850000000009 -15.528799999999999 0.011340200000000002 1.1140750000000001 3.3844350000000003 0.00011505000000000002
decision_type=2 2 2 2 2 2 2 2 2 2 2 2 2 2
left_child=1 3 -3 7 5 6 -5 -1 -9 10 11 -4 13 -11
right_child=-2 2 9 4 -6 -7 -8 8 -10 12 -12 -13 -14 -15
leaf_value=0.00079693948486690952 -1.3170452283224627e-05 0.023033075467885834 0.00034146599223717084 -0.0076965639296641677 0.00039168766671818445 -0.00053881589829963888 -0.025200981766101905 0.00060668453243124527 0.025330983714200554 0.0026791442517671874 -0.0027246699089097767 0.03200120048949847 -0.0025477140560125769 0.016683939586073393
leaf_weight=1156 215005 23 31 124 368 127 32 32 25 386 43 37 196 48
leaf_count=1156 215005 23 31 124 368 127 32 32 25 386 43 37 196 48
internal_value=0 0.00107752 0.00385191 -5.96263e-05 -0.00258847 -0.00646373 -0.0112872 0.00129757 0.0114507 0.00325654 0.00970693 0.0175681 0.00212004 0.00422806
internal_weight=0 2628 764 1864 651 283 156 1213 57 741 111 68 630 434
internal_count=217633 2628 764 1864 651 283 156 1213 57 741 111 68 630 434
shrinkage=0.15


Tree=128
num_leaves=15
num_cat=0
split_feature=3 14 23 20 9 3 23 34 23 11 23 3 3 23
split_gain=0.164119 0.289045 1.05409 0.868522 16.5493 4.59371 5.57685 4.55185 3.84752 3.58124 2.81834 4.24056 5.18262 9.89386
threshold=-5.6195949999999995 0.00018273250000000005 -13.505549999999998 8.0730100000000018 2.4262050000000006e-05 -6.6541099999999984 -6.6509899999999993 0.05360285 -6.7383949999999997 1.1110650000000002e-05 -7.5620149999999997 -7.5830149999999987 -6.6271099999999992 -6.6317949999999994
decision_type=2 2 2 2 2 2 2 2 2 2 2 2 2 2
left_child=1 2 -1 9 -5 6 7 -6 -7 10 -4 -12 13 -13
right_child=-2 -3 3 4 5 8 -8 -9 -10 -11 11 12 -14 -15
leaf_value=0.0011177332959872259 0.00031809930779680727 4.1287016189894355e-05 -0.0014548663727484716 -0.0062717379594521665 0.02963883241997187 -0.0030575737125396242 -0.0055335420853062011 0.0026570996497321175 0.015278960752728856 -0.004020679677302596 -0.0095075376460076605 0.017152908079689621 0.00042184543511103331 -0.0050976202039413462
leaf_weight=7921 31253 148319 11556 2931 644 633 178 180 434 7168 603 1363 3779 671
leaf_count=7921 31253 148319 11556 2931 644 633 178 180 434 7168 603 1363 3779 671
internal_value=0 -5.33403e-05 -0.000422091 -0.000826767 0.000978775 0.01125 0.0185436 0.0237448 0.00440077 -0.00118587 -5.52202e-05 0.00246571 0.00370774 0.00981264
internal_weight=0 186380 38061 30140 5000 2069 1002 824 1067 25140 17972 6416 5813 2034
internal_count=217633 186380 38061 30140 5000 2069 1002 824 1067 25140 17972 6416 5813 2034
shrinkage=0.15


Tree=129
num_leaves=15
num_cat=0
split_feature=3 14 34 20 11 11 34 20 9 20 9 9 34 3
split_gain=0.155657 0.320811 1.11478 0.646617 17.4159 3.78087 3.38629 3.51602 4.71856 2.56802 11.2328 3.25606 7.38717 2.91454
threshold=-5.9424999999999999 0.00018273250000000005 0.63652550000000019 -6.7194299999999991 -7.6727249999999986e-06 -8.0973149999999989e-06 0.030502050000000006 -4.8346449999999992 -2.5829599999999997e-05 7.0991650000000011 2.1420400000000002e-05 2.0953800000000006e-05 0.0067646700000000013 -6.6541099999999984
decision_type=2 2 2 2 2 2 2 2 2 2 2 2 2 2
left_child=1 2 3 4 -1 6 7 8 -5 11 -11 12 -7 -12
right_child=-2 -3 -4 5 -6 9 -8 -9 -10 10 13 -13 -14 -15
leaf_value=0.010783643622199744 0.00026135777052751753 3.1191186176844734e-05 0.0018225020316747381 -0.0038933449597458362 -0.0074270085450681795 0.014603935359718254 -0.0010653233603031193 -0.0093120283807937628 0.034188430864632018 -0.0083144124984339141 0.01499602514316222 -0.0032075211829705181 -0.00066866823718068436 0.0039259614303987275
leaf_weight=2139 41496 145570 4026 281 2640 860 4042 2916 99 1121 1227 6110 4157 949
leaf_count=2139 41496 145570 4026 281 2640 860 4042 2916 99 1121 1227 6110 4157 949
internal_value=0 -6.15731e-05 -0.000503347 -0.000856154 0.000723773 -0.00120311 -0.0039751 -0.00754346 0.00602796 0.000207098 0.00388396 -0.000882378 0.00194932 0.0101681
internal_weight=0 176137 30567 26541 4779 21762 7338 3296 380 14424 3297 11127 5017 2176
internal_count=217633 176137 30567 26541 4779 21762 7338 3296 380 14424 3297 11127 5017 2176
shrinkage=0.15


Tree=130
num_leaves=15
num_cat=0
split_feature=23 3 23 3 14 3 14 23 3 3 23 30 23 4
split_gain=0.130103 0.269793 0.433833 7.90869 9.5833 6.64372 8.24914 20.9066 11.2762 10.3575 8.68038 6.05944 4.57153 3.97194
threshold=-6.551404999999999 -6.2768299999999995 -8.9494349999999994 -8.8213249999999999 0.00070374100000000013 -8.8578049999999973 0.0016290400000000002 -13.412199999999999 -13.437049999999997 -13.437049999999997 -14.669299999999998 0.0017391350000000004 -10.810799999999999 -0.32415349999999993
decision_type=2 2 2 2 2 2 2 2 2 2 2 2 2 2
left_child=1 2 5 4 -4 6 7 8 10 -9 -1 13 -7 -11
right_child=-2 -3 3 -5 -6 12 -8 9 -10 11 -12 -13 -14 -15
leaf_value=0.0029841169788473927 0.00034223171203886171 0.00027794707076023942 -0.0075387338090989776 0.0015645811741769448 -0.0008059696722664874 -0.00038882947950272853 -0.00023825203332578914 -0.0097556170452645207 -0.0047527313228299733 0.00020796446295228462 0.039275299459254238 0.0020438235832819507 -0.0040591499000495763 0.011359784874086534
leaf_weight=411 22419 46077 5754 24875 27446 24512 36249 744 6447 789 232 2533 11090 8055
leaf_count=411 22419 46077 5754 24875 27446 24512 36249 744 6447 789 232 2533 11090 8055
internal_value=0 -3.9303e-05 -0.00013732 -0.000457676 -0.00197285 6.69884e-05 0.00109353 0.00360645 -0.00286354 0.00739097 0.0160783 0.00851228 -0.00153213 0.0103649
internal_weight=0 195214 149137 58075 33200 91062 55460 19211 7090 12121 643 11377 35602 8844
internal_count=217633 195214 149137 58075 33200 91062 55460 19211 7090 12121 643 11377 35602 8844
shrinkage=0.15


Tree=131
num_leaves=15
num_cat=0
split_feature=23 19 12 12 20 9 0 18 33 13 23 19 6 19
split_gain=0.131072 0.384237 0.561568 0.370162 0.238866 0.788184 1.19739 0.319647 0.211255 0.632661 1.01777 0.338466 0.300557 0.475501
threshold=-17.199899999999996 6.4664700000000011e-07 -0.00029235149999999995 0.00034961500000000006 8.3930550000000022 2.8385650000000002e-05 5.009195000000001 -2.3753749999999996e-05 3.7937600000000008e-05 -8.7704349999999997e-05 -17.896049999999999 0.025866950000000003 -2.4052099999999996e-07 3.3787900000000009e-05
decision_type=2 2 2 2 2 2 2 2 2 2 2 2 2 2
left_child=1 2 -1 -4 8 -6 -7 -8 12 10 11 -10 13 -3
right_child=-2 4 3 -5 5 6 7 -9 9 -11 -12 -13 -14 -15
leaf_value=0.026099405876759973 -3.4241522086009034e-05 -0.0045418226763120871 0.0013999274768454436 0.019352740249954738 -0.00055875297581892201 0.0424065214150827 0.021043180361005435 0.00050860821224473927 -0.0067112046765396369 -0.0012674587701860262 0.03180484977834995 0.01365819456987083 0.00092405475795066642 0.00015555414116113191
leaf_weight=21 200302 648 4225 26 294 26 23 66 50 4229 34 29 5734 1926
leaf_count=21 200302 648 4225 26 294 26 23 66 50 4229 34 29 5734 1926
internal_value=0 0.000395744 0.00163061 0.00150973 -8.21711e-06 0.00355955 0.0140881 0.0058153 -0.00012357 -0.000971486 0.0101052 0.00076617 0.000319575 -0.001027
internal_weight=0 17331 4272 4251 13059 409 115 89 12650 4342 113 79 8308 2574
internal_count=217633 17331 4272 4251 13059 409 115 89 12650 4342 113 79 8308 2574
shrinkage=0.15


Tree=132
num_leaves=15
num_cat=0
split_feature=30 13 10 25 4 12 28 19 19 31 11 2 3 19
split_gain=0.126879 0.283442 0.530424 0.330967 0.423815 0.304598 0.841396 0.826881 1.29239 1.54759 4.29771 1.39248 1.4685 1.27907
threshold=0.0032644900000000005 -2.1985349999999994e-05 2.3467150000000005e-05 2.3678750000000006 0.26861600000000002 6.1294700000000021e-05 0.11859200000000002 1.7549500000000002e-06 0.0026085900000000005 0.68620200000000009 -2.0005449999999997e-05 1.9194400000000003 -8.3197699999999983 0.00013914700000000003
decision_type=2 2 2 2 2 2 2 2 2 2 2 2 2 2
left_child=-1 2 3 4 -2 -3 -7 -8 9 13 11 -11 -13 -9
right_child=1 5 -4 -5 -6 6 7 8 -10 10 -12 12 -14 -15
leaf_value=-5.1079121190708805e-05 -0.00025224483975716218 0.00073495102349487495 1.589323395544447e-05 -0.004388192960910706 0.024191531331161965 -0.0012789024710932839 -0.0031307457804525089 0.017012932770321787 -0.0010791102356222987 0.0093829884276013173 -0.0087636576718257801 0.069214587405216521 0.01718198571799566 0.004462514950573677
leaf_weight=181527 79 21861 4457 1046 20 6076 561 371 845 51 330 26 23 360
leaf_count=181527 79 21861 4457 1046 20 6076 561 371 845 51 330 26 23 360
internal_value=0 0.000256806 -0.000723904 -0.00360362 0.00468589 0.000436912 -0.000316929 0.00196003 0.00338372 0.00663186 -0.000508627 0.026733 0.0447911 0.0108322
internal_weight=0 36106 5602 1145 99 30504 8643 2567 2006 1161 430 100 49 731
internal_count=217633 36106 5602 1145 99 30504 8643 2567 2006 1161 430 100 49 731
shrinkage=0.15


Tree=133
num_leaves=15
num_cat=0
split_feature=7 33 19 17 3 18 34 34 6 3 23 19 23 23
split_gain=0.12801 0.594252 10.4456 4.11939 3.73222 3.15173 3.06599 2.7715 7.6941 5.15398 6.97023 5.65041 5.35633 5.73728
threshold=4.4571700000000006e-05 4.9819250000000006e-06 0.00013127750000000005 3.1430650000000002e-07 -7.1376749999999989 -1.4614499999999998e-06 0.10256300000000002 0.090218400000000018 1.5207800000000002e-06 -8.0001399999999983 -8.0775649999999981 0.0035607800000000004 -7.9262249999999996 -11.078849999999997
decision_type=2 2 2 2 2 2 2 2 2 2 2 2 2 2
left_child=1 3 4 -1 6 -5 -3 8 -4 11 -11 12 13 -10
right_child=-2 2 7 5 -6 -7 -8 -9 9 10 -12 -13 -14 -15
leaf_value=0.00054906385794111824 0.00012800068812425706 -0.0071491877940469658 0.00085428733024580836 -0.0037913026641641177 0.00026652876755977787 -0.00064665224305043313 -0.0018714751266433324 0.0014269479098107513 0.010344755368657843 -0.0038134463978918378 0.026842423542296708 0.0047838508478266206 -0.0070940141731885616 0.031643662142112311
leaf_weight=49495 97244 4218 4086 10264 8062 23798 5999 11239 448 861 207 792 140 780
leaf_count=49495 97244 4218 4086 10264 8062 23798 5999 11239 448 861 207 792 140 780
internal_value=0 -0.000103392 0.00039856 -0.000324653 -0.00214637 -0.00159424 -0.00405033 0.0029059 0.00517853 0.0106522 0.00212828 0.0148667 0.0207042 0.0238734
internal_weight=0 120389 36832 83557 18279 34062 10217 18553 7314 3228 1068 2160 1368 1228
internal_count=217633 120389 36832 83557 18279 34062 10217 18553 7314 3228 1068 2160 1368 1228
shrinkage=0.15


Tree=134
num_leaves=15
num_cat=0
split_feature=5 23 20 0 27 11 29 32 0 23 23 3 3 34
split_gain=0.143205 0.47742 0.709727 1.74758 0.863957 0.703347 2.74569 1.31795 0.55736 0.270992 0.269102 0.812939 1.64663 1.10728
threshold=7.2568900000000009e-06 -11.298099999999998 8.0730100000000018 7.4076200000000005 0.5092905000000002 -2.9945149999999999e-05 0.0026023700000000001 -0.031422399999999996 10.000450000000003 -7.162399999999999 -13.149599999999998 -10.912299999999998 -13.890949999999998 0.10256300000000002
decision_type=2 2 2 2 2 2 2 2 2 2 2 2 2 2
left_child=1 5 9 -4 8 6 -1 -8 -5 -3 -7 12 -12 -14
right_child=-2 2 3 4 -6 10 7 -9 -10 -11 11 -13 13 -15
leaf_value=-0.0098036091969363748 -1.3376962923738157e-05 -0.0031721454014512281 -0.00070869857455798648 0.053391606263816352 0.0074256166564048943 0.00019369438234060983 0.012354165135669367 0.05215453025291656 0.020655523207758299 0.0014938785172115643 -0.0068096165684983136 -0.0016893451259238645 0.042640600376762448 0.0013440108725002833
leaf_weight=61 215034 987 230 25 37 522 36 39 22 391 45 135 48 21
leaf_count=61 215034 987 230 25 37 522 36 39 22 391 45 135 48 21
internal_value=0 0.00110677 -0.000381703 0.00605401 0.0245709 0.00388351 0.0138291 0.0330504 0.0380683 -0.00184819 0.00212917 0.00618666 0.0155135 0.0300721
internal_weight=0 2599 1692 314 84 907 136 75 47 1378 771 249 114 69
internal_count=217633 2599 1692 314 84 907 136 75 47 1378 771 249 114 69
shrinkage=0.15


Tree=135
num_leaves=15
num_cat=0
split_feature=20 0 27 4 4 16 36 16 36 10 3 20 15 20
split_gain=0.118442 0.832514 0.713415 1.36426 0.457644 0.325727 0.174328 0.110134 0.825627 1.96293 1.02243 1.03617 1.19419 0.874366
threshold=-16.050999999999998 -8.8447699999999987 29.222250000000006 -0.11634449999999999 0.23858300000000002 8.2307000000000013e-07 0.0015314650000000003 -1.6649099999999996e-05 -0.43959349999999991 2.0590300000000002e-05 -10.912299999999998 -7.4491649999999989 1.4318300000000001e-05 -0.53812299999999991
decision_type=2 2 2 2 2 2 2 2 2 2 2 2 2 2
left_child=1 2 3 -1 6 -4 -5 8 9 10 11 -2 13 -13
right_child=7 -3 5 4 -6 -7 -8 -9 -10 -11 -12 12 -14 -15
leaf_value=0.05455556954839267 0.00057649425056297324 1.4154695232433618e-05 -0.0016679463808380187 -0.0071560594282345843 0.026915790223516523 0.018247175183268668 0.010741632709745317 -5.7871993045304857e-05 0.00013617777028819488 0.0010716769372800493 0.003295259241460134 0.077150112830568093 0.01284134511463344 0.03543291384924032
leaf_weight=20 20 1530 94 24 25 23 25 179882 35412 461 46 20 25 26
leaf_count=20 20 1530 94 24 25 23 25 179882 35412 461 46 20 25 26
internal_value=0 0.00123226 0.0100649 0.0197958 0.0104012 0.00224699 0.00197542 -9.93717e-06 0.000229513 0.0057566 0.0215212 0.0307343 0.0392295 0.0535708
internal_weight=0 1741 211 94 74 117 49 215892 36010 598 137 91 71 46
internal_count=217633 1741 211 94 74 117 49 215892 36010 598 137 91 71 46
shrinkage=0.15


Tree=136
num_leaves=15
num_cat=0
split_feature=23 14 30 16 10 3 20 3 30 21 1 32 26 17
split_gain=0.109891 0.346557 0.626804 1.09336 0.917075 1.65932 1.48557 1.3691 2.54778 1.25348 1.00197 2.84889 0.806482 0.762832
threshold=-6.7159199999999997 0.00035063800000000007 0.00022905850000000001 1.7912000000000001e-07 5.4930000000000011e-05 -6.8084599999999993 -10.270699999999998 -6.1920449999999994 0.0039801700000000008 -13.410549999999999 -2.1902699999999995 0.034294650000000003 4.2501700000000007e-05 1.4383650000000003e-07
decision_type=2 2 2 2 2 2 2 2 2 2 2 2 2 2
left_child=-1 2 -2 -4 5 -5 -7 8 10 -9 11 -8 -13 -12
right_child=1 -3 3 4 -6 6 7 9 -10 -11 13 12 -14 -15
leaf_value=-4.1932158126765131e-05 -0.001259610675760868 0.00070168150666581749 -0.00044014022486598867 -0.00025307866658415826 -0.00013676663331648587 -0.0066830406439424093 -0.022287936115753835 0.045291723651878002 -0.012638122930989733 0.0070149431802829804 0.030924905010033397 0.024431807588299981 0.062991730639567742 0.066984323581511324
leaf_weight=188465 7023 17218 3556 339 558 70 20 21 28 231 22 23 26 33
leaf_count=188465 7023 17218 3556 339 558 70 20 21 28 231 22 23 26 33
internal_value=0 0.000270939 -0.000349691 0.000947318 0.00454601 0.00776002 0.0134909 0.0169864 0.0282297 0.0102047 0.037458 0.0254197 0.0448922 0.0525606
internal_weight=0 29168 11950 4927 1371 813 474 404 152 252 124 69 49 55
internal_count=217633 29168 11950 4927 1371 813 474 404 152 252 124 69 49 55
shrinkage=0.15


Tree=137
num_leaves=15
num_cat=0
split_feature=5 21 21 28 32 8 21 21 8 34 8 23 38 26
split_gain=0.105489 0.386491 0.468182 0.347193 0.565778 0.469624 0.53097 0.565385 1.9739 1.20657 1.20382 0.821644 0.595918 0.541189
threshold=7.2568900000000009e-06 5.5878900000000007 -4.7775199999999991 0.0067037550000000013 -0.071102049999999986 -5.1320149999999995e-06 3.2239600000000004 0.43840700000000005 -1.4114499999999996e-06 0.060535650000000003 -1.0930799999999998e-06 -9.713144999999999 5.9945650000000008e-05 -8.2718549999999987e-05
decision_type=2 2 2 2 2 2 2 2 2 2 2 2 2 2
left_child=1 2 -1 4 -4 -6 7 10 9 11 -7 -9 -13 -8
right_child=-2 -3 3 -5 5 6 13 8 -10 -11 -12 12 -14 -15
leaf_value=-0.0014613933230868059 -1.1481038031081985e-05 -0.0024934841159783964 0.023333472442755011 -0.00053919017254130508 -0.0041775912458773788 -0.0065007700715197436 0.017833387894312512 0.061464693289250132 -0.00022208430472186162 -0.0020935827693028841 0.0090196075943822507 0.01073092496213655 0.045680117780076607 -0.0080620399218717543
leaf_weight=633 215034 572 36 362 131 158 22 25 102 20 390 23 21 104
leaf_count=633 215034 572 36 362 131 158 22 25 102 20 390 23 21 104
internal_value=0 0.000949909 0.0019216 0.00345778 0.00485982 0.0041921 0.00545965 0.0069942 0.0140219 0.0303465 0.00454475 0.0397494 0.0274112 -0.00354062
internal_weight=0 2599 2027 1394 1032 996 865 739 191 89 548 69 44 126
internal_count=217633 2599 2027 1394 1032 996 865 739 191 89 548 69 44 126
shrinkage=0.15


Tree=138
num_leaves=15
num_cat=0
split_feature=20 0 18 15 33 36 9 21 0 7 7 12 15 0
split_gain=0.10179 2.28947 1.28247 1.41895 1.38506 1.37238 0.290323 0.179532 0.405237 0.841046 0.628271 0.1465 0.131979 0.228727
threshold=15.858650000000003 9.5540300000000027 -1.73185e-06 5.1731200000000013e-07 -4.5842599999999994e-05 0.026455200000000002 7.8312900000000014e-05 -2.9957599999999993 5.3268800000000009 3.8832650000000008e-05 3.1933250000000005e-05 -9.9805249999999988e-05 2.5026700000000006e-05 5.4734500000000006
decision_type=2 2 2 2 2 2 2 2 2 2 2 2 2 2
left_child=-1 6 5 -4 -5 -3 7 8 11 10 -10 -2 -9 -14
right_child=1 2 3 4 -6 -7 -8 12 9 -11 -12 -13 13 -15
leaf_value=-8.977252613266338e-06 -0.0049855166126743658 0.06259108202811331 -0.0013466398504784465 0.055000269467476749 0.0020404689596034585 0.0098741764831356705 0.012940814432530553 -0.0031965670187481198 0.0077022916852729391 -0.0017715982220171758 0.045300298135844061 0.00085452626497030935 -0.00070594799053818387 0.016744893553186556
leaf_weight=215979 136 25 87 25 20 20 34 746 20 58 20 334 109 20
leaf_count=215979 136 25 87 25 20 20 34 746 20 58 20 334 109 20
internal_value=0 0.00117225 0.0172933 0.00983832 0.0314626 0.0391613 -0.000759662 -0.00108247 0.000994156 0.00976836 0.0265013 -0.000835358 -0.0024305 0.00199961
internal_weight=0 1654 177 132 45 45 1477 1443 568 98 40 470 875 129
internal_count=217633 1654 177 132 45 45 1477 1443 568 98 40 470 875 129
shrinkage=0.15


Tree=139
num_leaves=15
num_cat=0
split_feature=32 12 14 3 21 27 7 19 22 33 13 18 18 19
split_gain=0.0991886 3.60149 3.08715 3.85268 7.67963 4.91461 4.44579 4.16527 19.4404 9.47157 11.764 4.35963 5.56933 3.39229
threshold=-0.028607799999999999 4.1059100000000008e-05 0.0048352200000000012 -7.9619399999999994 8.6829300000000025 0.30035850000000003 3.4332050000000006e-05 1.8454150000000002e-07 1.6338900000000003 1.0242850000000001e-06 -1.9371999999999994e-06 5.5024100000000016e-06 -4.1156349999999994e-05 8.6333700000000013e-07
decision_type=2 2 2 2 2 2 2 2 2 2 2 2 2 2
left_child=1 -1 3 5 -5 7 -6 8 -3 13 11 12 -11 -9
right_child=-2 2 -4 4 6 -7 -8 9 -10 10 -12 -13 -14 -15
leaf_value=-0.0006493720648635368 -7.8892072784503159e-05 0.035789420531543256 -0.0005941187998594233 -0.0022518303400038378 0.02080933868912091 0.0025369059946671909 0.0043483980176065411 0.0162245523838314 -0.014706123641781232 0.0041270863071357113 -0.007804733604544218 -0.00029248062863440155 0.038715506253412663 -0.0082270179240137593
leaf_weight=50862 135433 520 11253 6814 482 8392 1577 151 256 133 325 116 493 826
leaf_count=50862 135433 520 11253 6814 482 8392 1577 151 256 133 325 116 493 826
internal_value=0 0.000129983 0.00139489 0.00250926 0.000173961 0.00435739 0.00820181 0.00977493 0.0191311 0.00622288 0.0159936 0.0264174 0.0313668 -0.00444791
internal_weight=0 82200 31338 20085 8873 11212 2059 2820 776 2044 1067 742 626 977
internal_count=217633 82200 31338 20085 8873 11212 2059 2820 776 2044 1067 742 626 977
shrinkage=0.15


Tree=140
num_leaves=15
num_cat=0
split_feature=7 21 1 1 3 23 13 23 33 13 22 2 3 22
split_gain=0.142662 0.516172 8.34828 3.49474 2.88802 13.9765 8.00397 7.37973 6.81516 6.91971 5.7774 9.30515 5.08173 4.51564
threshold=4.4571700000000006e-05 -3.5229999999999997 -4.0791099999999991 -3.8549749999999996 -7.3111649999999999 -7.3218799999999993 4.1092900000000008e-05 -7.3437899999999994 -1.6474599999999996e-05 2.2802050000000003e-05 -0.64565649999999986 -0.63008449999999983 -6.1920449999999994 -2.5818199999999996
decision_type=2 2 2 2 2 2 2 2 2 2 2 2 2 2
left_child=1 2 4 -3 5 6 8 -6 9 -1 13 -12 -9 -10
right_child=-2 3 -4 -5 7 -7 -8 12 10 -11 11 -13 -14 -15
leaf_value=-0.0085763269098998868 0.00013512788090452242 -0.0016768779641760238 -0.0013515632824366462 0.00040026733376029305 -0.003252275420206987 -0.0051355893214461027 0.00024187688845417655 0.015079428234316532 -0.0085994364180671124 0.027182600277209482 -0.0117006060576969 0.055121951110454065 0.00037418609552747594 0.017019763048159265
leaf_weight=612 97244 28108 25169 51832 3972 2376 1998 1056 162 152 356 54 1059 3483
leaf_count=612 97244 28108 25169 51832 3972 2376 1998 1056 162 152 356 54 1059 3483
internal_value=0 -0.000109149 0.00032749 -0.000330085 0.0030932 0.00477124 0.00822418 0.000558913 0.0115337 -0.00146199 0.0139822 -0.00289959 0.00771638 0.0158811
internal_weight=0 120389 40449 79940 15280 9193 6817 6087 4819 764 4055 410 2115 3645
internal_count=217633 120389 40449 79940 15280 9193 6817 6087 4819 764 4055 410 2115 3645
shrinkage=0.15


Tree=141
num_leaves=15
num_cat=0
split_feature=14 20 11 0 39 5 23 20 11 0 20 2 22 22
split_gain=0.147055 0.557213 2.00477 3.52564 1.74269 1.36538 0.772916 0.943023 1.3198 0.900435 0.961457 1.10173 3.45522 1.19422
threshold=6.9224250000000017e-05 10.210350000000002 1.3649300000000002e-05 11.559500000000002 6.3187500000000011e-05 1.8658800000000002e-05 -7.1806249999999991 -6.4313299999999991 -9.3170799999999979e-06 -12.275299999999998 -8.1735049999999969 2.5964800000000001 2.5687850000000005 2.6381550000000007
decision_type=2 2 2 2 2 2 2 2 2 2 2 2 2 2
left_child=1 6 -3 4 5 -4 -1 8 9 -8 11 13 -13 -11
right_child=-2 2 3 -5 -6 -7 7 -9 -10 10 -12 12 -14 -15
leaf_value=0.00055301649298631717 -4.6978733348746546e-05 0.00048351456543486575 0.048344387028960177 0.00089252220285243947 -0.0011079923418382631 0.0058227825947272183 5.298781400620291e-06 -0.0030037141721986661 -0.0015190210227455901 0.014739284598087172 -0.010530467464291418 -0.018452564973849804 0.047307827003533018 -0.012437087340209553
leaf_weight=20512 190045 1555 89 213 29 21 238 3332 1252 174 38 25 64 46
leaf_count=20512 190045 1555 89 213 29 21 238 3332 1252 174 38 25 64 46
internal_value=0 0.000323622 0.00279747 0.0130196 0.0316029 0.0402266 0.000139921 -0.00149936 0.00122929 0.00711114 0.0119849 0.0147538 0.0288358 0.00905695
internal_weight=0 27588 1907 352 139 110 25681 5169 1837 585 347 309 89 220
internal_count=217633 27588 1907 352 139 110 25681 5169 1837 585 347 309 89 220
shrinkage=0.15


Tree=142
num_leaves=15
num_cat=0
split_feature=3 23 39 14 19 33 23 3 3 28 33 14 13 18
split_gain=0.159491 0.408738 0.383838 0.754045 1.57461 31.5156 7.88209 10.9941 6.77685 4.9551 4.29581 7.90874 4.84394 4.31151
threshold=-6.3281449999999984 -6.8719549999999989 2.0422100000000002e-05 0.00016362750000000005 1.8454150000000002e-07 -3.3389649999999995e-07 -7.8072199999999992 -7.755139999999999 -7.755139999999999 0.0047670900000000007 1.0000000180025095e-35 0.0006072295000000001 -1.9371999999999994e-06 4.8783150000000006e-06
decision_type=2 2 2 2 2 2 2 2 2 2 2 2 2 2
left_child=1 2 3 -1 5 6 8 -8 -5 -9 11 -6 13 -12
right_child=-2 -3 -4 4 10 -7 7 9 -10 -11 12 -13 -14 -15
leaf_value=-0.0017845615796059618 0.00022509608532651337 0.00047115288288223891 6.295716167536102e-05 0.016271689107829591 -0.0076664803006479048 -0.0085851167867016902 -0.0095121656271744976 0.019149182249441163 -0.0089954369284029004 0.08096257243305445 0.0052999640616816874 -0.00069915484315168086 -0.00079971573419019106 -0.0020738914269018498
leaf_weight=8191 53435 26098 72149 2934 4476 3566 754 154 260 36 7217 20249 15744 2370
leaf_count=8191 53435 26098 72149 2934 4476 3566 754 154 260 36 7217 20249 15744 2370
internal_value=0 -7.32531e-05 -0.000176134 -0.000437695 -0.000246695 0.00174964 0.0106558 -0.00138617 0.0142149 0.0308612 -0.000553947 -0.00196046 0.000818917 0.00347707
internal_weight=0 164198 138100 65951 57760 7704 4138 944 3194 190 50056 24725 25331 9587
internal_count=217633 164198 138100 65951 57760 7704 4138 944 3194 190 50056 24725 25331 9587
shrinkage=0.15


Tree=143
num_leaves=15
num_cat=0
split_feature=16 36 10 10 16 3 34 3 34 22 2 15 23 3
split_gain=0.132493 0.786 1.56451 0.87306 1.55409 1.0586 1.02851 0.565463 0.562041 0.377413 3.47751 3.21821 2.04911 2.63398
threshold=-1.3219499999999998e-05 -0.43959349999999991 1.2120050000000001e-05 2.7865550000000006e-05 -5.1479099999999993e-05 -9.196419999999998 8.0500650000000018 -15.871649999999999 0.026009600000000004 2.6381550000000007 2.6393150000000003 2.8562700000000001e-06 -14.248749999999998 -13.519999999999998
decision_type=2 2 2 2 2 2 2 2 2 2 2 2 2 2
left_child=1 2 -1 4 7 6 -6 -4 -3 -10 -11 12 -12 -14
right_child=-2 8 3 -5 5 -7 -8 -9 9 10 11 -13 13 -15
leaf_value=0.042943871597526599 -5.3826551459516346e-05 0.0008845731269705796 0.024679760133807099 -0.00042474214123418942 0.058052740815328435 0.0001117709912994707 0.018079522484913468 -0.00060137506523067321 -0.00049145991101544079 -0.00059760661586261664 0.054145949459598337 -0.0013078704593661972 -0.015768371419690085 0.047627932909908223
leaf_weight=24 179637 14710 23 398 30 22 28 148 20727 1669 64 94 30 29
leaf_count=24 179637 14710 23 398 30 22 28 148 20727 1669 64 94 30 29
internal_value=0 0.00025448 0.00533507 0.0039443 0.0108721 0.0281283 0.0387553 0.00279901 0.000162868 -0.000306608 0.0017249 0.0195878 0.0355569 0.0153925
internal_weight=0 37996 673 649 251 80 58 171 37323 22613 1886 217 123 59
internal_count=217633 37996 673 649 251 80 58 171 37323 22613 1886 217 123 59
shrinkage=0.15


Tree=144
num_leaves=15
num_cat=0
split_feature=3 14 34 28 4 8 36 4 1 26 26 33 6 6
split_gain=0.127893 0.230531 1.20027 0.662775 1.42619 2.52426 1.8536 1.08273 1.79594 0.698633 0.664967 0.515207 12.5854 6.7009
threshold=-6.0288849999999989 0.00018273250000000005 0.11578200000000001 -0.012542949999999999 -0.13516149999999996 7.8166550000000011e-06 0.0026558950000000006 0.13793450000000004 -8.7516449999999981 0.00013653850000000002 -0.00025881349999999994 1.8499350000000002e-06 2.0360700000000003e-06 2.0360700000000003e-06
decision_type=2 2 2 2 2 2 2 2 2 2 2 2 2 2
left_child=1 2 3 4 5 -1 -7 -6 -9 -8 -10 13 -13 -5
right_child=-2 -3 -4 11 7 6 9 8 10 -11 -12 12 -14 -15
leaf_value=-0.0079404794163690836 0.00022826493663619335 1.919770910961477e-05 0.00094881038526623137 0.0012193149050359459 -0.0071520983597955267 -0.0065064326743595304 0.031483320313535866 0.043780981900636104 0.024574975285213439 0.067442115163430572 -0.0050217541535414805 -0.0053015412719690002 0.007836565190540155 -0.0064872426541614072
leaf_weight=87 44049 144768 9374 7231 1229 22 31 24 20 20 117 3936 2813 3912
leaf_count=87 44049 144768 9374 7231 1229 22 31 24 20 20 117 3936 2813 3912
internal_value=0 -5.79249e-05 -0.00044538 -0.00111759 -0.00409314 0.00931789 0.0298861 -0.00563686 0.0059298 0.0455848 -0.000701064 -0.000859816 0.000174454 -0.00148624
internal_weight=0 173584 28816 19442 1550 160 73 1390 161 51 137 17892 6749 11143
internal_count=217633 173584 28816 19442 1550 160 73 1390 161 51 137 17892 6749 11143
shrinkage=0.15


Tree=145
num_leaves=15
num_cat=0
split_feature=7 22 0 19 33 13 23 13 22 8 1 3 23 25
split_gain=0.115433 1.10221 2.5946 4.49896 2.41736 3.13078 3.30219 2.01278 1.53942 10.838 4.53738 3.15691 2.42208 2.21844
threshold=3.1390950000000001e-05 2.4928950000000003 -5.0228599999999988 0.00055222050000000003 5.2059550000000009e-06 1.5755450000000002e-05 -15.060899999999998 -2.3880199999999995e-05 0.71795400000000009 -7.3485499999999984e-06 3.8755250000000001 -6.3853549999999988 -6.4487099999999993 2.9170300000000005
decision_type=2 2 2 2 2 2 2 2 2 2 2 2 2 2
left_child=1 8 3 -3 -5 6 -6 -8 10 11 -1 12 13 -10
right_child=-2 2 -4 4 5 -7 7 -9 9 -11 -12 -13 -14 -15
leaf_value=0.00092637377361751562 5.7632483805553291e-05 -0.0026124852448510066 -0.0041104363135700088 0.0024232269052204248 -0.012572820686777545 -0.00088009505442252173 0.020187635908701589 0.062784323610108467 0.010563803938713884 -0.0023187811559819871 -0.0029156919385388024 -0.00039312765376648496 -0.0038980277249897229 0.0010325503551707217
leaf_weight=17636 170249 651 3842 122 22 56 35 87 3552 7743 11378 1260 350 650
leaf_count=17636 170249 651 3842 122 22 56 35 87 3552 7743 11378 1260 350 650
internal_value=0 -0.000207071 -0.00235815 0.00456097 0.0190638 0.0292146 0.0409181 0.050564 3.62377e-05 0.00135594 -0.000580313 0.00625157 0.00809083 0.00908943
internal_weight=0 47384 4815 973 322 200 144 122 42569 13555 29014 5812 4552 4202
internal_count=217633 47384 4815 973 322 200 144 122 42569 13555 29014 5812 4552 4202
shrinkage=0.15


Tree=146
num_leaves=15
num_cat=0
split_feature=3 23 39 13 4 4 38 4 3 23 4 38 4 23
split_gain=0.130826 0.32773 0.313739 0.557212 0.982176 1.76841 2.12205 1.84916 1.50669 2.18034 2.06949 1.73135 2.84289 0.995189
threshold=-6.3281449999999984 -6.8901449999999995 2.3937350000000006e-05 4.6609650000000012e-05 -0.21023149999999999 -0.96577349999999995 0.00035109250000000007 -0.32415349999999993 -6.8364449999999986 -8.8916699999999977 0.20409350000000004 0.0001077035 0.49798950000000003 -8.3320149999999984
decision_type=2 2 2 2 2 2 2 2 2 2 2 2 2 2
left_child=1 2 3 4 5 -1 -7 -8 10 -10 13 -12 -13 -6
right_child=-2 -3 -4 -5 8 6 7 -9 9 -11 11 12 -14 -15
leaf_value=0.00030480872946328546 0.00020386684447204506 0.00041421560080878814 6.6043875444220539e-05 0.00020320335105633409 0.0016892986790515651 -0.0050401176496466474 -0.0030405356339015936 0.0079766065926562112 0.00021403720315180295 -0.0068027654759517386 -0.00012233506905955771 -0.0091846263405572452 -0.00078951371266240548 -0.00047461719604330218
leaf_weight=4587 53435 26732 68967 23585 13149 4902 820 589 2154 1854 5611 1557 2176 7515
leaf_count=4587 53435 26732 68967 23585 13149 4902 820 589 2154 1854 5611 1557 2176 7515
internal_value=0 -6.63444e-05 -0.000159795 -0.000387178 -0.000697195 -0.00193646 -0.00356547 0.00156493 -0.000300162 -0.00303176 6.46819e-05 -0.00178776 -0.00429104 0.000902334
internal_weight=0 164198 137466 68499 44914 10898 6311 1409 34016 4008 30008 9344 3733 20664
internal_count=217633 164198 137466 68499 44914 10898 6311 1409 34016 4008 30008 9344 3733 20664
shrinkage=0.15


Tree=147
num_leaves=15
num_cat=0
split_feature=3 34 5 23 13 3 23 3 16 16 23 4 4 26
split_gain=0.110793 0.539585 0.506104 0.359143 0.356221 0.354735 0.377257 1.07071 0.650912 0.373083 0.769938 1.10665 1.17503 1.10582
threshold=-6.6023349999999992 0.0067646700000000013 1.9857350000000004e-05 -6.2906249999999995 6.9651600000000016e-05 -6.0545599999999995 -6.0063449999999987 -5.8349799999999989 1.3299800000000001e-07 1.3299800000000001e-07 -6.6921149999999994 0.10321350000000001 -0.079371349999999993 5.7210800000000005e-05
decision_type=2 2 2 2 2 2 2 2 2 2 2 2 2 2
left_child=3 2 5 -1 -5 9 -7 8 -8 10 -2 12 13 -12
right_child=1 -3 -4 4 -6 6 7 -9 -10 -11 11 -13 -14 -15
leaf_value=-0.00012045323615044 -0.0061036085775121552 0.00035641896813188434 0.00036762226775427146 0.0016063131677886663 -0.00053929340461304331 -0.0012775130179026033 0.044302750048650932 -0.002107992002975709 0.0078142512505027378 -0.0068421584212678696 -0.016493647141607653 -0.011212084925367375 0.0084426286977957558 0.0085221912235614247
leaf_weight=147682 599 52611 4114 5393 2571 3279 22 98 22 541 100 131 404 66
leaf_count=147682 599 52611 4114 5393 2571 3279 22 98 22 541 100 131 404 66
internal_value=0 0.000169591 -0.000878744 -6.75408e-05 0.000913652 -0.00185319 -0.000949715 0.00661965 0.0260585 -0.00353206 -0.00215456 0.00121988 0.00407706 -0.00654759
internal_weight=0 61987 9376 155646 7964 5262 3421 142 44 1841 1300 701 570 166
internal_count=217633 61987 9376 155646 7964 5262 3421 142 44 1841 1300 701 570 166
shrinkage=0.15


Tree=148
num_leaves=15
num_cat=0
split_feature=7 26 36 35 3 19 21 28 3 33 16 31 39 14
split_gain=0.103782 0.206853 0.269156 0.349437 0.557248 1.11013 0.800267 1.00225 0.554098 0.524521 0.22398 0.371106 0.333413 0.599881
threshold=1.8518350000000002e-05 -0.00013226649999999998 0.0013440100000000003 -0.0022154399999999995 -7.5458749999999988 0.00014627000000000002 -6.4898099999999994 0.010595900000000002 -12.278849999999998 4.2404300000000005e-06 -7.5536299999999985e-08 0.015478200000000001 9.1984350000000011e-07 0.00021428950000000003
decision_type=2 2 2 2 2 2 2 2 2 2 2 2 2 2
left_child=1 -1 10 -4 5 6 -5 8 -8 -7 -3 12 13 -12
right_child=-2 2 3 4 -6 9 7 -9 -10 -11 11 -13 -14 -15
leaf_value=-0.0018463925335992226 -1.1350035203279192e-05 0.0030563270150743933 -0.00066858843093055037 0.04557125781653807 -0.0022581596484087638 -0.0039521544030666801 0.021068720653167238 0.038399672385172119 -0.009659444248574154 0.022987360667902978 0.02950147798311753 -0.004043240906931189 0.00054802204957033048 -0.00039923836423743828
leaf_weight=485 215051 573 172 26 88 87 23 28 31 20 26 426 561 36
leaf_count=485 215051 573 172 26 88 87 23 28 31 20 26 426 561 36
internal_value=0 0.000945328 0.001591 0.00473132 0.00779661 0.0119121 0.0226406 0.0153699 0.00342848 0.00108327 0.000671369 -0.000631377 0.00170162 0.0121398
internal_weight=0 2582 2097 475 303 215 108 82 54 107 1622 1049 623 62
internal_count=217633 2582 2097 475 303 215 108 82 54 107 1622 1049 623 62
shrinkage=0.15


Tree=149
num_leaves=15
num_cat=0
split_feature=18 33 25 1 17 18 20 39 16 26 24 19 35 15
split_gain=0.0989055 0.374711 0.381502 0.587641 0.938761 1.33743 1.12423 0.757834 0.372687 0.213144 0.259498 1.35647 1.24877 2.27444
threshold=0.00022380850000000002 7.3721900000000005e-06 54.164200000000008 -5.5925699999999994 8.0262250000000016e-05 0.0047811550000000013 -6.2436999999999996 0.054589800000000008 2.1717400000000003e-05 0.019037100000000005 0.82179550000000012 0.00032532400000000004 -0.17054099999999997 -4.871584999999999e-06
decision_type=2 2 2 2 2 2 2 2 2 2 2 2 2 2
left_child=-1 2 9 -4 5 6 -5 -8 -9 10 -2 12 13 -12
right_child=1 -3 3 4 -6 -7 7 8 -10 -11 11 -13 -14 -15
leaf_value=-4.6706921484126678e-05 0.00037662179574364892 -0.00057566935695261146 -0.0054232063262369826 0.032023747361895137 -0.0019638832611309802 0.04411246379750082 0.022803906541428828 -0.020218403946438972 0.0049859946244396264 -0.0076024136509167386 0.037248353296044194 0.00020965428432149886 0.026021344488491398 -0.023069998464332175
leaf_weight=179366 27101 9899 81 34 98 32 22 33 22 74 22 712 98 39
leaf_count=179366 27101 9899 81 34 98 32 22 33 22 74 22 712 98 39
internal_value=0 0.000218926 0.000496199 0.00562993 0.00934488 0.0170949 0.00930611 -0.000725059 -0.0101366 0.000437258 0.000458527 0.003007 0.0155335 -0.00131584
internal_weight=0 38267 28368 322 241 143 111 77 55 28046 27972 871 159 61
internal_count=217633 38267 28368 322 241 143 111 77 55 28046 27972 871 159 61
shrinkage=0.15


Tree=150
num_leaves=15
num_cat=0
split_feature=23 3 23 3 21 1 22 21 12 1 14 33 22 18
split_gain=0.0963055 3.48567 1.94424 1.73462 1.49439 1.55419 1.52376 1.09968 3.74689 1.45561 1.41685 0.907471 1.21073 1.05986
threshold=-17.199899999999996 -16.724049999999995 -17.896049999999999 -10.501849999999999 -3.5985549999999997 -3.4741849999999999 -0.50150699999999981 3.0676450000000002 0.00015472350000000004 1.5967500000000003 0.024007400000000005 5.8000550000000005e-05 -2.0478899999999993 -0.00070453499999999995
decision_type=2 2 2 2 2 2 2 2 2 2 2 2 2 2
left_child=1 2 7 -3 -4 -6 -7 9 -9 11 -10 12 -1 -14
right_child=-2 3 4 -5 5 6 -8 8 10 -11 -12 -13 13 -15
leaf_value=-0.0077126099710432367 -2.9351049164153431e-05 -0.0025717170589736505 0.049081702813661345 0.00082337493193889518 -0.0058948304384923884 0.0013413579831088082 0.033885482185332175 -0.0090140349863309915 0.043482665866613382 -0.010391497986517917 0.0037435019233574467 -0.0068190615612184037 -0.0065048133509117171 0.022311513104832557
leaf_weight=57 200302 4776 36 11634 54 47 104 83 80 158 27 80 35 160
leaf_count=57 200302 4776 36 11634 54 47 104 83 80 158 27 80 35 160
internal_value=0 0.000339223 0.00931862 -0.00016474 0.0208952 0.0159454 0.0237559 0.00521573 0.0149028 0.00145954 0.033455 0.00709949 0.0115181 0.0171394
internal_weight=0 17331 921 16410 241 205 151 680 190 490 107 332 252 195
internal_count=217633 17331 921 16410 241 205 151 680 190 490 107 332 252 195
shrinkage=0.15


Tree=151
num_leaves=15
num_cat=0
split_feature=4 38 24 4 14 6 14 37 17 10 30 4 38 4
split_gain=0.103031 0.333928 0.305816 1.04162 1.52326 0.440912 0.222022 0.198838 0.289331 0.222551 0.183011 1.18719 1.61685 0.993296
threshold=-1.4177149999999996 0.00077750350000000009 -1.4457799999999998 -2.6848399999999994 0.022652900000000004 -5.9567299999999986e-07 0.0056714500000000006 5.4276050000000005e-08 -3.7572899999999997e-06 9.5245350000000008e-06 0.00047772550000000003 -0.21023149999999999 -0.00015066749999999998 -0.45233649999999997
decision_type=2 2 2 2 2 2 2 2 2 2 2 2 2 2
left_child=1 6 3 -3 5 -5 -1 -4 9 -9 11 12 13 -2
right_child=10 2 7 4 -6 -7 -8 8 -10 -11 -12 -13 -14 -15
leaf_value=0.0012092675385717425 -0.001570568309236539 -0.0010870282443306678 -7.6410344307112628e-05 0.019419108461267473 0.04283222854560749 -0.0036647789144458676 0.00023323645857952153 0.014965824323007837 -0.0038396955477693669 -0.0009088738800133269 0.00011406546507190427 2.5391464691521978e-05 -0.0004363004648980127 -0.0063289957665210944
leaf_weight=7440 1901 312 4893 29 33 52 17765 20 918 3061 86271 83299 9586 2053
leaf_count=7440 1901 312 4893 29 33 52 17765 20 918 3061 86271 83299 9586 2053
internal_value=0 0.000237692 -0.000529574 0.00339647 0.0156671 0.00459982 0.000521341 -0.000717663 -0.00150227 -0.000805825 -4.48137e-05 -0.000186354 -0.00148903 -0.00404124
internal_weight=0 34523 9318 426 114 81 25205 8892 3999 3081 183110 96839 13540 3954
internal_count=217633 34523 9318 426 114 81 25205 8892 3999 3081 183110 96839 13540 3954
shrinkage=0.15


Tree=152
num_leaves=15
num_cat=0
split_feature=1 21 1 28 17 14 34 3 23 23 3 3 18 3
split_gain=0.0879356 0.540281 1.88106 0.586845 0.245537 0.0973472 0.824678 1.4207 2.54088 2.15642 2.42521 1.04256 1.02712 1.31741
threshold=-12.647449999999997 -12.91935 -13.194799999999999 -0.00098170849999999971 4.663200000000001e-08 0.00038336100000000009 0.0056110350000000012 -7.9276599999999986 -6.8340949999999987 -8.0148199999999985 -8.4798949999999973 -8.9446899999999996 4.7048900000000005e-07 -6.8084599999999993
decision_type=2 2 2 2 2 2 2 2 2 2 2 2 2 2
left_child=1 2 4 -3 -1 6 7 8 9 10 -2 -11 13 -9
right_child=5 3 -4 -5 -6 -7 -8 12 -10 11 -12 -13 -14 -15
leaf_value=0.011294962008502938 -0.017655493923381942 -0.0012149483369420331 0.039876530330844359 0.001596104135880004 -0.0034663193017165565 6.3995454407025842e-05 3.4820425728034662e-05 0.0038105613038554201 -0.00029027312639244102 -0.0071357951669193728 0.048627898759312102 -0.018965848307563607 -0.0038276212861621528 -0.00099532051765048937
leaf_weight=35 23 3058 35 3684 92 128871 71621 1723 970 284 27 409 1771 5030
leaf_count=35 23 3058 35 3684 92 128871 71621 1723 970 284 27 409 1771 5030
internal_value=0 0.000526772 0.00908704 0.000321082 0.00060175 -1.72584e-05 -0.000145178 -0.0014045 -0.00534634 -0.0119471 0.0181375 -0.0141177 -0.00061234 0.00023088
internal_weight=0 6904 162 6742 127 210729 81858 10237 1713 743 50 693 8524 6753
internal_count=217633 6904 162 6742 127 210729 81858 10237 1713 743 50 693 8524 6753
shrinkage=0.15


Tree=153
num_leaves=15
num_cat=0
split_feature=4 24 4 24 4 4 24 4 4 3 24 4 3 3
split_gain=0.118494 15.2792 11.317 8.73179 9.40241 8.69323 13.6894 8.67516 8.43967 10.5365 7.39169 7.80786 7.76998 6.57266
threshold=-0.11254849999999998 -0.090774499999999994 -0.63345599999999991 -0.099396799999999993 0.0092838900000000012 -0.019882549999999995 1.0000000180025095e-35 -0.51881799999999989 0.92173400000000016 -6.4132949999999989 1.0000000180025095e-35 0.49798950000000003 -6.3035799999999993 -6.2498799999999992
decision_type=2 2 2 2 2 2 2 2 2 2 2 2 2 2
left_child=1 2 -1 4 -2 6 -5 -3 9 -6 -7 12 -12 -8
right_child=3 7 -4 5 8 10 13 -9 -10 -11 11 -13 -14 -15
leaf_value=3.683073415772169e-06 0.002077041541448259 -1.8746252214606953e-05 0.0053411976397860321 0.0089955314578638174 -0.0060889423761081689 -0.002748397501831056 -0.0066817744899235008 -0.0044309429933525497 0.00018959121535976818 -0.00029723728992699387 0.0055612526181931079 0.00027199429053122583 0.00057421555971858863 -0.00027614241199673469
leaf_weight=19863 13496 24661 16250 2186 18956 7149 7841 16896 17772 11269 21177 22925 10522 6670
leaf_count=19863 13496 24661 16250 2186 18956 7149 7841 16896 17772 11269 21177 22925 10522 6670
internal_value=0 0.000148579 0.00240544 -8.24511e-05 -0.00142082 0.00096636 -0.0020704 -0.00181263 -0.00240436 -0.00392958 0.00178718 0.00238079 0.00390588 -0.00373742
internal_weight=0 77670 36113 139963 61493 78470 16697 41557 47997 30225 61773 54624 31699 14511
internal_count=217633 77670 36113 139963 61493 78470 16697 41557 47997 30225 61773 54624 31699 14511
shrinkage=0.15


Tree=154
num_leaves=15
num_cat=0
split_feature=20 0 23 3 11 14 25 22 31 5 6 1 14 18
split_gain=0.0883444 3.53734 1.13461 1.2911 1.21179 1.42242 0.922724 1.44176 1.56504 1.42267 0.790805 0.813072 0.637284 0.561445
threshold=-11.7296 -9.4982149999999983 -8.4877049999999983 -5.5420199999999991 -6.021874999999999e-05 0.00022068200000000001 1.8209250000000001 -2.8036449999999995 0.029989000000000005 1.5574650000000005e-05 -2.4052099999999996e-07 -2.6537149999999996 5.4932250000000006e-05 -4.0500549999999989e-08
decision_type=2 2 2 2 2 2 2 2 2 2 2 2 2 2
left_child=1 2 -1 4 -4 6 7 10 12 13 11 -6 -9 -10
right_child=-2 -3 3 -5 5 -7 -8 8 9 -11 -12 -13 -14 -15
leaf_value=-0.00070696879712237569 -1.7279010238099802e-05 -0.00067715945515395737 0.002845630995358553 0.0031092834423764814 -0.0039656481482898409 0.050476030715314361 0.0049499257026652159 0.027673155885713639 0.078155561953783037 0.01843591132387519 -0.018261470108009235 0.034096895594016782 -0.0054909425533630632 0.046365606946405021
leaf_weight=170 210744 6119 92 194 23 36 78 32 25 25 20 28 22 25
leaf_count=170 210744 6119 92 194 23 36 78 32 25 25 20 28 22 25
internal_value=0 0.000528589 0.0101104 0.0131753 0.0179851 0.0224209 0.0187879 0.0241847 0.0336331 0.0476524 0.00701794 0.0169314 0.0141619 0.0622606
internal_weight=0 6889 770 600 406 314 278 200 129 75 71 51 54 50
internal_count=217633 6889 770 600 406 314 278 200 129 75 71 51 54 50
shrinkage=0.15


Tree=155
num_leaves=15
num_cat=0
split_feature=20 0 25 4 24 7 16 23 11 16 0 23 9 3
split_gain=0.0888582 0.493475 0.471132 0.948726 0.375687 0.265373 0.214494 0.131047 0.125513 0.195944 0.550231 0.112524 0.377095 0.107438
threshold=-16.050999999999998 -8.8447699999999987 29.334150000000005 -0.11634449999999999 -0.59705149999999985 5.9379850000000007e-05 1.8293450000000002e-06 -6.3743849999999993 -7.2710199999999987e-05 3.6571050000000005e-06 2.4748750000000004 -15.809749999999998 -3.1845949999999996e-05 -6.8865649999999992
decision_type=2 2 2 2 2 2 2 2 2 2 2 2 2 2
left_child=1 2 3 -1 -5 -6 -4 11 -9 13 -11 12 -3 -10
right_child=-2 7 6 4 5 -7 -8 8 9 10 -12 -13 -14 -15
leaf_value=0.044762024022638798 -8.6071360462169817e-06 0.019708869455812069 -0.0015762479813986971 -0.0061600842888260053 0.026171395785730474 0.0035003276807921272 0.014860597724856978 -0.0042368267147811943 0.0045287503733845826 0.032061512170184867 0.0011809287967185513 -0.0010932900439320585 -9.2748986495534214e-05 -0.0029596256195061586
leaf_weight=20 215892 26 95 27 26 21 22 46 128 20 37 1079 129 65
leaf_count=20 215892 26 95 27 26 21 22 46 128 20 37 1079 129 65
internal_value=0 0.00106732 0.00786763 0.0157753 0.00794109 0.0160418 0.00151444 0.000129504 0.00296397 0.00428892 0.0120162 -0.0005504 0.00322881 0.00200676
internal_weight=0 1741 211 94 74 47 117 1530 296 250 57 1234 155 193
internal_count=217633 1741 211 94 74 47 117 1530 296 250 57 1234 155 193
shrinkage=0.15


Tree=156
num_leaves=15
num_cat=0
split_feature=4 38 4 4 24 38 3 34 4 4 3 3 34 4
split_gain=0.084426 11.4366 6.83158 6.50918 6.41599 4.33584 4.64284 5.24679 4.16256 5.12422 6.74026 4.0586 3.70812 3.67693
threshold=-0.11254849999999998 -4.0597499999999992e-05 -0.96577349999999995 -0.63345599999999991 -0.11734399999999999 0.00018192250000000003 -6.3853549999999988 0.68351300000000015 1.0000000180025095e-35 1.0025000000000002 -6.9170499999999988 -6.6541099999999984 0.43971050000000006 0.019025200000000003
decision_type=2 2 2 2 2 2 2 2 2 2 2 2 2 2
left_child=1 2 -1 -3 8 -5 7 -7 -2 10 12 -4 -10 -6
right_child=4 3 11 5 13 6 -8 -9 9 -11 -12 -13 -14 -15
leaf_value=0.00021710975148192535 0.0011829355843720121 0.00013121430438562336 -0.0053043284277099843 9.8653765160309833e-05 -0.0010197423379795681 0.0081677543149607078 -4.6393244680042699e-06 -0.00089585752368198733 -0.0064854618290794809 0.00017095138474621346 -0.00058970857460139781 -0.00024032736328086552 -0.00094611968462376766 0.0013125965863628169
leaf_weight=18176 11840 22998 12961 4948 19941 9031 2937 1709 12272 15878 12457 4910 3493 64082
leaf_count=18176 11840 22998 12961 4948 19941 9031 2937 1709 12272 15878 12457 4910 3493 64082
internal_value=0 0.000125414 -0.00183048 0.00181929 -6.95964e-05 0.0039037 0.00528028 0.00672551 -0.00131427 -0.00198472 -0.00319752 -0.00391301 -0.00525813 0.000759068
internal_weight=0 77670 36047 41623 139963 18625 13677 10740 55940 44100 28222 17871 15765 84023
internal_count=217633 77670 36047 41623 139963 18625 13677 10740 55940 44100 28222 17871 15765 84023
shrinkage=0.15


Tree=157
num_leaves=15
num_cat=0
split_feature=23 19 12 11 33 12 13 10 33 17 33 6 19 13
split_gain=0.0860648 0.234648 0.343402 0.179855 0.211771 0.671619 0.259077 0.248237 0.215524 0.223341 0.158721 0.408293 0.440472 0.197733
threshold=-17.743599999999997 6.4664700000000011e-07 -0.00026899199999999996 0.00012596050000000003 8.2861700000000015e-07 0.00026803150000000007 4.2555350000000006e-05 5.2959700000000007e-05 -4.1483699999999997e-05 4.2817350000000011e-08 1.7169700000000003e-05 -8.1766949999999984e-08 6.8051000000000003e-05 -0.00011454099999999999
decision_type=2 2 2 2 2 2 2 2 2 2 2 2 2 2
left_child=1 2 -1 4 5 6 -4 8 9 -8 11 12 -3 -12
right_child=-2 10 3 -5 -6 -7 7 -9 -10 -11 13 -13 -14 -15
leaf_value=0.01894954883493483 -2.4601792723752899e-05 -0.0047027006088221452 0.00034033713051195949 0.014824363303540105 0.0023870600074872897 0.025477977971667828 0.0032713097171836124 0.00085544093364395724 -0.022734774218406525 -0.012543086893795892 0.0078365016294944818 0.0014339822813115828 0.00022928794332766219 -0.00076037957066631438
leaf_weight=25 203772 579 1471 22 1723 23 32 79 24 54 61 3817 1375 4576
leaf_count=25 203772 579 1471 22 1723 23 32 79 24 54 61 3817 1375 4576
internal_value=0 0.000361673 0.00143316 0.00130542 0.0012181 2.13487e-05 -0.000331364 -0.00555926 -0.0101662 -0.00665866 6.19209e-06 0.000531263 -0.00123214 -0.000647287
internal_weight=0 13861 3453 3428 3406 1683 1660 189 110 86 10408 5771 1954 4637
internal_count=217633 13861 3453 3428 3406 1683 1660 189 110 86 10408 5771 1954 4637
shrinkage=0.15


Tree=158
num_leaves=15
num_cat=0
split_feature=5 23 23 35 28 28 26 34 8 18 26 36 15 39
split_gain=0.0975371 0.24423 0.321244 0.291097 0.264141 0.73256 0.283266 0.60648 0.402947 0.281872 0.661175 0.330876 0.365134 0.241726
threshold=7.2568900000000009e-06 -10.067599999999999 -7.162399999999999 -0.096497449999999985 0.0067037550000000013 0.0062334500000000006 -9.6198899999999998e-05 0.087393000000000012 4.7201750000000009e-06 -0.000112673 6.525265000000001e-05 0.00034863150000000008 -1.0027199999999999e-06 7.5168850000000006e-06
decision_type=2 2 2 2 2 2 2 2 2 2 2 2 2 2
left_child=1 4 -3 -4 5 6 7 -1 -9 10 -8 12 -11 -14
right_child=-2 2 3 -5 -6 -7 9 8 -10 11 -12 -13 13 -15
leaf_value=0.026597690279231756 -1.1039855398267319e-05 -0.002100710657345049 0.019466963565950707 0.001832577217031468 -0.00089329077572626136 0.032356593164149669 -0.0026882749522113814 0.0001587866035898904 0.019733250677818431 0.022168293815047948 0.033588326426397544 -0.0027480486507748107 0.0076524357956252063 -0.0014075892713624348
leaf_weight=34 215034 910 22 494 356 20 26 112 30 24 20 285 125 141
leaf_count=34 215034 910 22 494 356 20 26 112 30 24 20 285 125 141
internal_value=0 0.000913407 -0.000405386 0.00258443 0.00251664 0.00400249 0.00329097 0.00860286 0.00429424 0.00178551 0.0130842 0.000881617 0.0044487 0.00284994
internal_weight=0 2599 1426 516 1173 817 797 176 142 621 46 575 290 266
internal_count=217633 2599 1426 516 1173 817 797 176 142 621 46 575 290 266
shrinkage=0.15


Tree=159
num_leaves=15
num_cat=0
split_feature=20 9 12 36 4 12 4 35 4 6 9 38 22 24
split_gain=0.0801664 0.815577 0.424087 0.47448 0.737004 2.50064 1.00914 1.43826 1.51536 0.213637 0.249377 0.171918 0.123448 0.103941
threshold=15.858650000000003 2.1420400000000002e-05 5.3968600000000004e-05 0.60859850000000015 -0.15814399999999998 -3.4961999999999988e-05 0.16506100000000004 0.026893100000000003 0.85613250000000007 5.6937550000000017e-07 4.2647250000000011e-05 -1.0483999999999998 1.8262050000000003 0.97666950000000008
decision_type=2 2 2 2 2 2 2 2 2 2 2 2 2 2
left_child=-1 12 3 4 5 -3 -6 -8 -9 10 -5 -4 -2 -11
right_child=1 2 11 9 6 -7 7 8 -10 13 -12 -13 -14 -15
leaf_value=-7.96685795000077e-06 -0.0016349594314030737 -0.0034590999370058334 0.011194778926184644 6.1505696794483808e-05 -0.0018542600450210125 0.052847671248794845 -0.0017537859686952385 0.063783763779792932 0.0078782421711366627 -0.010183692848505942 0.020951928205322476 -0.0028425832212591821 0.0060660649361849129 0.0018607303317237111
leaf_weight=215979 1060 35 23 36 114 36 37 24 20 38 20 134 49 28
leaf_count=215979 1060 35 23 36 114 36 37 24 20 38 20 134 49 28
internal_value=0 0.00104031 0.00579173 0.0084534 0.0120058 0.0250908 0.00724154 0.020043 0.0383722 0.000707975 0.00752237 -0.000786154 -0.0012947 -0.00507394
internal_weight=0 1654 545 388 266 71 195 81 44 122 56 157 1109 66
internal_count=217633 1654 545 388 266 71 195 81 44 122 56 157 1109 66
shrinkage=0.15


Tree=160
num_leaves=15
num_cat=0
split_feature=35 10 32 2 16 1 16 5 20 4 27 14 13 4
split_gain=0.0729331 0.260766 0.465446 0.763117 0.733019 1.06176 1.76941 0.263145 0.227076 0.36042 0.246047 0.734263 0.631922 0.859758
threshold=-0.038512399999999995 1.9722900000000004e-05 2.6080700000000001 -2.0349049999999997 5.8180250000000009e-06 -4.1998849999999992 7.6959350000000004e-05 1.0995750000000002e-05 -19.608449999999998 0.081163000000000013 7.8456400000000004 0.00042154700000000003 4.1092900000000008e-05 -0.3422659999999999
decision_type=2 2 2 2 2 2 2 2 2 2 2 2 2 2
left_child=1 2 -1 -4 -5 6 -6 8 9 -3 11 -10 13 -13
right_child=-2 7 3 4 5 -7 -8 -9 10 -11 -12 12 -14 -15
leaf_value=-0.0018601723107788081 -2.4190761384452387e-05 0.0015627358761412325 0.023736582734636615 -0.00093115989472967076 0.047917125677423816 -0.0018654939748687736 -0.0037423712667077778 0.00032877398908310137 3.226950251137424e-05 0.027184592335834167 0.00057544020153357377 0.035269392073193254 -0.00041369411328745698 0.0098878042690889404
leaf_weight=2504 201959 30 36 571 35 63 26 10517 426 21 1130 36 98 181
leaf_count=2504 201959 30 36 571 35 63 26 10517 426 21 1130 36 98 181
internal_value=0 0.000311697 -0.000888029 0.00244199 0.00133896 0.0117925 0.0258983 0.000623709 0.00223757 0.0121129 0.00196838 0.00409257 0.00958365 0.0140986
internal_weight=0 15674 3235 731 695 124 61 12439 1922 51 1871 741 315 217
internal_count=217633 15674 3235 731 695 124 61 12439 1922 51 1871 741 315 217
shrinkage=0.15


Tree=161
num_leaves=15
num_cat=0
split_feature=7 26 26 23 10 28 8 26 26 17 23 14 26 0
split_gain=0.0743358 0.147039 0.247965 0.32605 0.664939 0.225538 0.19582 0.167747 0.243912 0.279084 0.534344 0.50736 0.167237 0.158686
threshold=1.8518350000000002e-05 -0.00013226649999999998 -8.3715749999999992e-05 -11.906049999999999 9.1086300000000016e-06 -0.0085945199999999979 -8.3236449999999975e-06 -5.5073699999999994e-05 4.6792250000000006e-05 9.5243050000000011e-08 -7.2759249999999991 0.0020088800000000006 5.5347650000000009e-05 8.270245000000001
decision_type=2 2 2 2 2 2 2 2 2 2 2 2 2 2
left_child=1 13 3 4 -3 -6 -5 -4 9 -9 11 -11 -10 -1
right_child=-2 2 7 6 5 -7 -8 8 12 10 -12 -13 -14 -15
leaf_value=-0.0024939415325988304 -9.6058361720587179e-06 0.036678120557085747 -0.0019065732782707658 0.013258496207474249 -0.0069400085028194416 0.013065730723064916 0.00022632698857774332 0.00087739765885999079 -0.004372453504003628 0.042226084847934546 -0.00016001600397950303 0.009215933646985584 0.0013889419568752287 0.0062757730404113176
leaf_weight=433 215051 21 420 31 21 32 159 80 126 20 35 22 1130 52
leaf_count=433 215051 21 420 31 21 32 159 80 126 20 35 22 1130 52
internal_value=0 0.000800056 0.00134444 0.00564244 0.0140892 0.00513893 0.00235263 0.000725411 0.00150774 0.00708193 0.0135282 0.0249351 0.000810968 -0.00155368
internal_weight=0 2582 2097 264 74 53 190 1833 1413 157 77 42 1256 485
internal_count=217633 2582 2097 264 74 53 190 1833 1413 157 77 42 1256 485
shrinkage=0.15


Tree=162
num_leaves=15
num_cat=0
split_feature=5 20 0 21 26 21 19 23 11 22 20 33 30 30
split_gain=0.0640844 0.313689 0.982038 0.732007 0.92729 0.783995 0.625564 0.285533 0.396703 1.64013 0.623254 0.357278 0.257399 0.528103
threshold=7.2568900000000009e-06 7.0057400000000003 6.1430700000000007 -4.0801599999999993 0.00013263150000000003 2.2931300000000006 1.9006200000000004e-05 -11.298099999999998 -2.9945149999999999e-05 -1.9037449999999996 -4.472974999999999 3.0197100000000003e-05 0.00022584900000000003 0.00025927450000000005
decision_type=2 2 2 2 2 2 2 2 2 2 2 2 2 2
left_child=1 7 -3 -4 5 6 -5 8 9 -1 -11 -12 -10 -14
right_child=-2 2 3 4 -6 -7 -8 -9 12 10 11 -13 13 -15
leaf_value=0.039881180731519576 -8.9485923454567657e-06 -0.00075875512387506359 -0.0089324805317446583 0.024267694027036088 -0.0058385391012192346 0.0098029570206283386 0.056493224541697161 -0.0013824440902489618 -0.0088346972780559072 0.023584652361127414 -0.013096574906204991 0.0073224782218946315 0.018294813683460233 0.00052238087233948279
leaf_weight=31 215034 278 25 33 26 39 23 1311 58 21 51 31 40 632
leaf_count=31 215034 278 25 33 26 39 23 1311 58 21 51 31 40 632
internal_value=0 0.000740382 0.00447275 0.0144341 0.0192619 0.0261315 0.0375032 1.27846e-05 0.00212985 0.00963183 0.000527662 -0.00537718 0.000752774 0.00158026
internal_weight=0 2599 424 146 121 95 56 2175 864 134 103 82 730 672
internal_count=217633 2599 424 146 121 95 56 2175 864 134 103 82 730 672
shrinkage=0.15


Tree=163
num_leaves=15
num_cat=0
split_feature=29 0 14 13 14 13 0 29 29 11 32 13 32 2
split_gain=0.0729322 11.4928 2.13095 2.49193 2.10486 2.28535 2.06581 17.5736 10.5471 8.78262 5.92677 10.7876 6.20408 6.72065
threshold=0.019933650000000004 -1.0487249999999999 0.00018717200000000002 9.0003600000000014e-05 0.00012958450000000001 0.00010253600000000001 -2.9082999999999997 0.0014737500000000002 0.0018045750000000003 -4.1628899999999989e-06 -0.14305849999999995 3.3979700000000004e-06 0.12330000000000001 -1.3702499999999997
decision_type=2 2 2 2 2 2 2 2 2 2 2 2 2 2
left_child=6 4 -3 -4 -2 -6 7 -1 -8 10 11 -10 -12 -14
right_child=1 2 3 -5 5 -7 8 -9 9 -11 12 -13 13 -15
leaf_value=-0.0024776360075493579 0.00016129916827639559 0.00016647394940542783 -0.0050003203822288206 -0.00040347820851316087 0.0055106444909523945 0.00058255445879281114 0.0013281524538419898 0.0025204324179963285 0.039197960746073429 -0.0027337094521277501 -0.00030019619788539158 0.00025882844497133312 0.027139127668250874 0.00010843174687472449
leaf_weight=44197 3740 4983 8225 3917 8407 2830 79265 24660 281 31393 4535 372 420 408
leaf_count=44197 3740 4983 8225 3917 8407 2830 79265 24660 281 31393 4535 372 420 408
internal_value=0 0.000208752 -0.00244546 -0.00351738 0.00324363 0.00426952 -3.61199e-05 -0.00068766 0.000348397 -0.00172758 0.00352264 0.0170152 0.00187978 0.0138197
internal_weight=0 32102 17125 12142 14977 11237 185531 68857 116674 37409 6016 653 5363 828
internal_count=217633 32102 17125 12142 14977 11237 185531 68857 116674 37409 6016 653 5363 828
shrinkage=0.15


Tree=164
num_leaves=15
num_cat=0
split_feature=10 20 20 0 0 14 34 20 34 0 20 20 0 0
split_gain=0.0847842 5.5754 9.85797 2.37742 2.16154 2.21747 2.29583 2.09426 2.37818 2.03724 4.73153 3.36465 2.94433 1.83859
threshold=1.6275850000000004e-05 3.5535050000000004 -3.0760849999999995 -2.9082999999999997 -3.1981349999999993 0.010291600000000001 0.42331500000000005 -4.0797899999999991 0.09780800000000002 2.5568800000000005 2.4692150000000006 2.6985300000000003 2.0075800000000004 3.4931300000000003
decision_type=2 2 2 2 2 2 2 2 2 2 2 2 2 2
left_child=1 2 3 7 -4 6 9 -1 -9 10 -6 -11 -12 -3
right_child=-2 13 4 -5 5 -7 -8 8 -10 11 12 -13 -14 -15
leaf_value=0.0011988019334251978 3.6933196105702356e-05 -0.0038219266023311344 -0.0027056278418646847 -0.0028691870659064071 0.011295781215647355 0.00088555827201967148 0.0011493637704944166 0.030271840685548508 -0.0007564890702724369 -0.0032918109914782429 -0.005135692147789697 0.023005891532236391 0.027683454283567912 0.0037054997615164598
leaf_weight=950 188326 8817 816 8993 3901 1932 1365 132 96 666 644 131 68 796
leaf_count=950 188326 8817 816 8993 3901 1932 1365 132 96 666 644 131 68 796
internal_value=0 -0.000237332 0.00120813 -0.00203918 0.0046764 0.00536823 0.00664653 0.00429722 0.0172073 0.00803352 0.00924343 0.00103065 -0.00200128 -0.00319862
internal_weight=0 29307 19694 10171 9523 8707 6775 1178 228 5410 4613 797 712 9613
internal_count=217633 29307 19694 10171 9523 8707 6775 1178 228 5410 4613 797 712 9613
shrinkage=0.15


Tree=165
num_leaves=15
num_cat=0
split_feature=2 22 22 28 3 13 2 18 23 3 3 23 16 23
split_gain=0.0850708 15.7223 7.065 5.03019 4.26099 6.72062 4.10829 3.89604 2.93918 16.2539 6.62352 4.06075 3.73097 2.87183
threshold=1.1736800000000003 1.1933200000000002 1.1933200000000002 0.0021118650000000005 -6.4440149999999994 4.1092900000000008e-05 0.21101150000000005 -0.00015207299999999999 -14.850299999999999 -14.602749999999999 -14.949199999999999 -6.4354599999999991 1.3970100000000002e-05 -6.4717399999999996
decision_type=2 2 2 2 2 2 2 2 2 2 2 2 2 2
left_child=2 3 -1 -2 5 7 -4 -3 9 -9 -10 12 -12 -6
right_child=1 4 6 -5 13 -7 -8 8 10 -11 11 -13 -14 -15
leaf_value=0.00072794401183704275 -0.00085090882690960019 -0.0005675632528894831 -0.00074455204509062199 -0.0045435941910200676 -0.0018008801391205345 -0.00060025453629391936 -0.0041958601612632623 0.032876719329776337 -0.0054322587176011813 -0.0064268853190641651 0.01132100505267641 -0.002095492552423717 -0.0014161747293015376 0.0086706600448906226
leaf_weight=105663 34869 1680 33867 10893 4787 4566 10067 293 733 1233 7118 634 558 672
leaf_count=105663 34869 1680 33867 10893 4787 4566 10067 293 733 1233 7118 634 558 672
internal_value=0 -0.000139063 6.32451e-05 -0.0017299 0.00312932 0.00431142 -0.00153538 0.00614232 0.0072089 0.00111961 0.00823646 0.00944214 0.0103951 -0.000511839
internal_weight=0 68036 149597 45762 22274 16815 43934 12249 10569 1526 9043 8310 7676 5459
internal_count=217633 68036 149597 45762 22274 16815 43934 12249 10569 1526 9043 8310 7676 5459
shrinkage=0.15


Tree=166
num_leaves=15
num_cat=0
split_feature=11 31 31 11 11 11 31 0 3 20 14 3 3 23
split_gain=0.170402 15.8891 7.08507 8.79033 6.51778 6.0774 8.80299 6.0946 6.04603 5.85119 5.7823 5.14531 4.64757 8.71206
threshold=2.5658450000000005e-05 -0.034947149999999989 -0.026451249999999999 5.8978900000000009e-06 0.00015314200000000002 5.8978900000000009e-06 -0.0066746799999999997 5.4039500000000009 -6.8865649999999992 5.4455950000000009 0.0086666100000000017 -6.5186449999999985 -7.9276599999999986 -8.1113849999999985
decision_type=2 2 2 2 2 2 2 2 2 2 2 2 2 2
left_child=2 4 3 8 12 -4 7 9 10 -7 -1 -8 13 -2
right_child=1 -3 5 -5 -6 6 11 -9 -10 -11 -12 -13 -14 -15
leaf_value=-0.0050768031680454287 0.0091048914549761648 -0.0016491147176824494 0.0013438749720845241 0.0020204589798602205 3.6859671870593876e-05 0.020572318566561026 -0.0055374121870531848 0.00032462274150558648 -0.00010203751215209679 -0.0011062853488561287 -0.00053503930823641476 -0.00016035686013912904 0.0010504411771156813 -0.0010890631552497054
leaf_weight=20068 8348 39556 74469 13415 9063 862 8766 2049 17143 415 9198 7371 4473 2437
leaf_count=20068 8348 39556 74469 13415 9063 862 8766 2049 17143 415 9198 7371 4473 2437
internal_value=0 0.000205925 -8.55504e-05 -0.00136145 0.00322299 0.000727052 -0.00163302 0.00539368 -0.00233902 0.0135272 -0.00364937 -0.0030813 0.00511549 0.00680145
internal_weight=0 63877 153756 59824 24321 93932 19463 3326 46409 1277 29266 16137 15258 10785
internal_count=217633 63877 153756 59824 24321 93932 19463 3326 46409 1277 29266 16137 15258 10785
shrinkage=0.15


Tree=167
num_leaves=15
num_cat=0
split_feature=4 33 17 13 33 18 38 4 4 34 24 4 4 3
split_gain=0.154167 0.518703 0.444725 0.303255 0.2547 0.176723 7.31186 7.8652 6.44204 5.60818 5.23832 13.3761 12.4046 6.55861
threshold=-1.5283549999999997 5.2059550000000009e-06 -4.4852249999999999e-06 -1.5278699999999996e-06 1.4933200000000001e-06 7.6855900000000007e-07 -9.3511899999999988e-05 0.38724300000000006 0.46547150000000009 0.19264550000000003 0.080637500000000015 0.019025200000000003 0.019025200000000003 -6.2498799999999992
decision_type=2 2 2 2 2 2 2 2 2 2 2 2 2 2
left_child=1 3 -3 4 -1 10 7 9 -8 -7 11 -2 13 -12
right_child=5 2 -4 -5 -6 6 8 -9 -10 -11 12 -13 -14 -15
leaf_value=0.0023645286995808753 0.0023005020543502364 -4.7748879083061727e-05 -0.0023794034596136353 0.00042691912088011321 -0.00058572221813430045 0.0073818968534115053 -0.0036389977879717561 0.00015793331197192135 0.00021292370838692646 -0.00014062583300237833 -0.0041747407582863423 -0.0026116073740514003 0.0022814704539377748 0.0002180411520133851
leaf_weight=3537 40638 7842 2405 19074 809 7547 15155 20837 27488 3165 24705 17997 15358 11076
leaf_count=3537 40638 7842 2405 19074 809 7547 15155 20837 27488 3165 24705 17997 15358 11076
internal_value=0 0.000295115 -0.000594995 0.000684566 0.00181534 -5.4008e-05 0.000124822 0.00185606 -0.00115602 0.00515927 -0.000174872 0.000792815 -0.0012844 -0.00281496
internal_weight=0 33667 10247 23420 4346 183966 74192 31549 42643 10712 109774 58635 51139 35781
internal_count=217633 33667 10247 23420 4346 183966 74192 31549 42643 10712 109774 58635 51139 35781
shrinkage=0.15


Tree=168
num_leaves=15
num_cat=0
split_feature=11 29 31 3 11 11 23 3 14 21 3 23 23 14
split_gain=0.122714 11.502 5.23275 5.46506 4.7778 3.81463 3.05367 4.44831 3.00658 2.99556 3.62878 9.93799 5.69361 6.3964
threshold=2.5658450000000005e-05 -0.0025361449999999996 -0.042471599999999991 -8.8578049999999973 8.5182850000000004e-05 0.00010781500000000002 -7.1806249999999991 -7.3420999999999994 0.011296750000000001 6.226935000000001 -8.4798949999999973 -8.4265199999999982 -15.570249999999998 0.0017399150000000001
decision_type=2 2 2 2 2 2 2 2 2 2 2 2 2 2
left_child=2 4 3 8 9 6 7 -3 -1 10 11 12 -2 -14
right_child=1 5 -4 -5 -6 -7 -8 -9 -10 -11 -12 -13 13 -15
leaf_value=-0.0046312334290361358 0.0017763307247427086 -0.0057302522005263376 0.00054745110676345703 -0.00013429534849995008 0.00063981477120522972 3.1664757057443805e-06 0.00028230209276428156 0.00038043207890851806 -0.00054084528139892259 -0.00088580926335804012 0.0019771311242622806 -0.0017010697346623218 0.018364018266044353 0.0056971438873717195
leaf_weight=12876 1139 10476 102362 32624 14658 17698 4607 3602 5894 1905 4021 1868 2506 1397
leaf_count=12876 1139 10476 102362 32624 14658 17698 4607 3602 5894 1905 4021 1868 2506 1397
internal_value=0 0.000174751 -7.25992e-05 -0.00130756 0.00249021 -0.001575 -0.0030698 -0.00416677 -0.0033468 0.00460325 0.00555986 0.00764469 0.0111072 0.0138302
internal_weight=0 63877 153756 51394 27494 36383 18685 14078 18770 12836 10931 6910 5042 3903
internal_count=217633 63877 153756 51394 27494 36383 18685 14078 18770 12836 10931 6910 5042 3903
shrinkage=0.15


Tree=169
num_leaves=15
num_cat=0
split_feature=14 34 34 23 3 14 3 34 32 21 1 23 3 1
split_gain=0.169035 0.89644 0.619177 0.561041 3.09225 5.33367 2.19455 7.51579 3.36044 2.93934 3.60679 2.49251 4.77631 2.46751
threshold=0.00038336100000000009 0.008249755000000001 0.0056110350000000012 -9.0165099999999985 -9.0501149999999981 0.00018273250000000005 -9.0501149999999981 0.029848650000000001 -0.043051549999999994 -6.4898099999999994 -5.5925699999999994 -10.7143 -10.848199999999999 4.7255300000000009
decision_type=2 2 2 2 2 2 2 2 2 2 2 2 2 2
left_child=1 -1 -2 6 -5 -6 7 8 13 10 -10 12 -11 -3
right_child=2 3 -4 4 5 -7 -8 -9 9 11 -12 -13 -14 -15
leaf_value=-0.0011579142663268138 0.0010106044108671155 -0.017760752796405745 -1.0264522848653963e-05 -0.0063010428624078992 -0.00020612170786643235 0.0050713279513174888 -0.00051861469909787955 -0.00052383172908140917 0.048330154269933701 0.069968234321900774 -0.024056936394012834 0.031224762654592803 -0.0096476864822431126 0.029982049322941084
leaf_weight=16478 15131 93 114710 1368 18383 5628 42905 2307 21 21 59 408 88 33
leaf_count=16478 15131 93 114710 1368 18383 5628 42905 2307 21 21 59 408 88 33
internal_value=0 -0.000160766 0.000108702 6.96371e-05 0.000635662 0.00103087 -0.000243091 0.00365835 0.0170031 0.0217012 -0.00505533 0.0258415 0.00569116 -0.00525669
internal_weight=0 87792 129841 71314 25379 24011 45935 3030 723 597 80 517 109 126
internal_count=217633 87792 129841 71314 25379 24011 45935 3030 723 597 80 517 109 126
shrinkage=0.15


Tree=170
num_leaves=15
num_cat=0
split_feature=23 19 12 22 12 12 12 12 32 34 32 22 19 22
split_gain=0.149708 0.212406 0.192787 0.154792 0.724319 0.394295 0.220802 0.148142 0.755512 0.742385 0.792241 0.690923 2.56539 8.82177
threshold=-17.743599999999997 6.4664700000000011e-07 -0.00026899199999999996 1.1181450000000004 0.00025439800000000003 0.00025439800000000003 1.8479050000000004e-05 0.00015943000000000004 -2.4186349999999996 0.030502050000000006 -0.0089460299999999989 0.86801550000000016 1.7095050000000005e-05 1.6880500000000003
decision_type=2 2 2 2 2 2 2 2 2 2 2 2 2 2
left_child=1 2 -1 5 6 -4 -5 -2 -9 10 -10 -11 13 -13
right_child=7 -3 3 4 -6 -7 -8 8 9 11 -12 12 -14 -15
leaf_value=0.014620941576431505 -8.8938200930310891e-05 0.00013879383212985673 0.00093029079738610231 0.0042649048013011139 0.030487727892718142 -0.017644015592164719 -0.00014697315631416059 0.0043323817992266447 -0.00030661654427393517 -0.0011815866207874829 0.0019284777363991676 0.025383213731884513 -0.00036468586705873715 -0.0074395724626613435
leaf_weight=25 170507 10408 2342 588 21 26 451 993 6443 11820 7997 371 5275 366
leaf_count=25 170507 10408 2342 588 21 26 451 993 6443 11820 7997 371 5275 366
internal_value=0 0.000477008 0.00149645 0.00140073 0.00290728 0.00072635 0.00234984 -3.24471e-05 0.00025711 0.000131716 0.000931198 -0.00051569 0.000793508 0.00908316
internal_weight=0 13861 3453 3428 1060 2368 1039 203772 33265 32272 14440 17832 6012 737
internal_count=217633 13861 3453 3428 1060 2368 1039 203772 33265 32272 14440 17832 6012 737
shrinkage=0.15


Tree=171
num_leaves=15
num_cat=0
split_feature=35 15 15 8 32 28 4 24 2 17 3 22 22 3
split_gain=0.141861 8.37761 2.63075 2.80978 3.61125 3.33344 2.7548 5.70569 5.69951 4.68961 4.0425 3.72363 3.01506 2.42171
threshold=0.007377840000000001 1.1684500000000001e-07 1.8146050000000006e-05 8.1012250000000031e-06 0.56405550000000015 -0.016903749999999999 0.24753700000000003 0.29063000000000011 -1.3702499999999997 -8.6887199999999987e-08 -6.4680349999999995 -1.6404099999999997 -2.6828649999999992 -6.2768299999999995
decision_type=2 2 2 2 2 2 2 2 2 2 2 2 2 2
left_child=-1 -2 3 4 13 6 9 -8 -9 11 -10 12 -5 -3
right_child=1 2 -4 5 -6 -7 7 8 10 -11 -12 -13 -14 -15
leaf_value=-4.776737225551256e-05 -0.0016717650043476836 0.013491579949005834 0.00064485535739433315 -0.0012353713147678382 0.00010271660640144917 -0.001846583182904625 -0.0025405212442525462 -0.000279832462748063 0.070267967798281455 -0.0020561674992720124 -0.0023867484115596329 -0.0011135988566522315 0.041259668573595421 0.0019445073619961525
leaf_weight=188333 18214 2073 4281 49 883 1897 139 58 96 791 21 128 161 509
leaf_count=188333 18214 2073 4281 49 883 1897 139 58 96 791 21 128 161 509
internal_value=0 0.000307037 0.00355815 0.0053909 0.0083834 0.0022864 0.00771971 0.0201473 0.0381678 0.00426333 0.0572274 0.0190525 0.0313442 0.0112153
internal_weight=0 29300 11086 6805 3465 3340 1443 314 175 1129 117 338 210 2582
internal_count=217633 29300 11086 6805 3465 3340 1443 314 175 1129 117 338 210 2582
shrinkage=0.15


Tree=172
num_leaves=15
num_cat=0
split_feature=30 15 35 35 15 15 15 16 33 3 0 25 13 33
split_gain=0.128601 0.225037 4.55907 3.39059 1.4959 1.09547 2.57076 1.30407 1.76603 1.89532 1.38755 1.76555 1.33142 1.41944
threshold=0.0032644900000000005 5.9277300000000005e-08 0.0034404900000000005 -0.0042174899999999991 -2.1145799999999999e-07 -4.3890749999999994e-07 -2.6163199999999997e-05 2.7380500000000006e-07 -8.2696899999999974e-06 -7.6814349999999996 -4.5096249999999989 12.803600000000001 -5.7174249999999997e-06 1.1166800000000001e-05
decision_type=2 2 2 2 2 2 2 2 2 2 2 2 2 2
left_child=-1 3 -3 5 -5 6 -2 12 10 -10 11 -9 -8 -14
right_child=1 2 -4 4 -6 -7 7 8 9 -11 -12 -13 13 -15
leaf_value=-5.1424511782821655e-05 0.00021010138604697425 -0.0027840342762569794 0.0024727198261699289 -0.0029485145224031808 0.00069211730184980049 0.00084531938280902837 -0.00046563010095423431 -0.00026603242697413354 0.022717693601436544 0.0065943386991383487 -0.00095883726978705634 0.039815351327342798 0.011829805430616449 0.0020048444138607369
leaf_weight=181527 2468 7521 7330 5871 4475 5213 781 51 376 291 348 48 723 610
leaf_count=181527 2468 7521 7330 5871 4475 5213 781 51 376 291 348 48 723 610
internal_value=0 0.000258543 -0.000189461 0.000571565 -0.00137382 0.00241655 0.00385454 0.00664094 0.0107942 0.0156834 0.00349864 0.0191674 0.00445234 0.00733376
internal_weight=0 36106 14851 21255 10346 10909 5696 3228 1114 667 447 99 2114 1333
internal_count=217633 36106 14851 21255 10346 10909 5696 3228 1114 667 447 99 2114 1333
shrinkage=0.15


Tree=173
num_leaves=15
num_cat=0
split_feature=23 3 23 3 14 14 16 20 3 37 20 13 33 1
split_gain=0.118791 3.44702 2.17184 2.25131 2.42885 1.74336 1.47809 2.10602 1.15172 1.02537 1.00505 0.815236 0.800904 1.14866
threshold=-16.545699999999997 -16.413199999999996 -17.896049999999999 -18.313249999999996 0.024007400000000005 0.00068334050000000012 -6.111644999999998e-05 -3.9273699999999994 -6.2187599999999987 4.7493050000000005e-07 -3.4270099999999997 9.0003600000000014e-05 -4.1483699999999997e-05 -4.0791099999999991
decision_type=2 2 2 2 2 2 2 2 2 2 2 2 2 2
left_child=1 2 -1 -4 6 8 10 -8 -3 12 -5 -7 -9 -14
right_child=-2 5 3 4 -6 11 7 9 -10 -11 -12 -13 13 -15
leaf_value=0.0025578624035763743 -3.6828634778508369e-05 0.0026567179651945374 -0.0029791023823885808 0.027862043513450771 -0.0010948960231881033 -0.0027186527572097027 -0.0086780618402528854 0.017487274757586421 -0.00055857976878139089 0.019562610312323734 -0.015548400576226414 -5.6576430941608584e-07 0.068638740337508566 0.037489633518390936
leaf_weight=790 195988 5657 126 20 98 5770 29 30 4501 79 30 4358 34 123
leaf_count=790 195988 5657 126 20 98 5770 29 30 4501 79 30 4358 34 123
internal_value=0 0.000333471 0.00764693 0.0147126 0.0197445 -0.000156473 0.0256641 0.0297062 0.00123202 0.033891 0.00181578 -0.00154908 0.0399442 0.0442353
internal_weight=0 21645 1359 569 443 20286 345 295 10158 266 50 10128 187 157
internal_count=217633 21645 1359 569 443 20286 345 295 10158 266 50 10128 187 157
shrinkage=0.15


Tree=174
num_leaves=15
num_cat=0
split_feature=4 33 26 4 13 33 13 13 3 38 4 4 4 37
split_gain=0.13 0.3671 0.363843 0.717559 0.314031 0.191682 7.37586 4.89144 4.48468 4.48134 8.87537 7.88715 5.9854 4.97576
threshold=-1.2236799999999997 7.3721900000000005e-06 0.074756100000000006 -2.8332999999999999 2.5301900000000005e-06 3.8815300000000013e-06 -1.2014799999999997e-05 -1.2014799999999997e-05 -7.2547399999999991 0.0014144150000000002 -0.18357799999999999 -0.21023149999999999 0.85613250000000007 1.0000000180025095e-35
decision_type=2 2 2 2 2 2 2 2 2 2 2 2 2 2
left_child=1 -1 4 -4 -3 7 8 -2 9 11 13 -7 -13 -11
right_child=5 2 3 -5 -6 6 -8 -9 -10 10 -12 12 -14 -15
leaf_value=0.00054286437007742292 -0.0017920410687564756 -0.0023367715985480133 -0.0023686967430297623 0.032604312387676061 -0.0001787686261155909 -0.0043616011835776146 -0.00087100930231129834 0.00040051231554030336 -0.00051213489945963679 -0.016151991679573492 -0.0035625555556094432 0.011070637651991677 -0.0019073126212050659 0.015745487555289765
leaf_weight=26797 30796 1902 33 22 7500 1188 43957 89221 6072 124 3044 5050 950 977
leaf_count=26797 30796 1902 33 22 7500 1188 43957 89221 6072 124 3044 5050 950 977
internal_value=0 0.000259308 -0.000544166 0.0116205 -0.000615327 -5.18305e-05 0.000163825 -0.00016209 0.00277734 0.00453977 0.00061184 0.00680484 0.0090158 0.012153
internal_weight=0 36254 9457 55 9402 181379 61362 120017 17405 11333 4145 7188 6000 1101
internal_count=217633 36254 9457 55 9402 181379 61362 120017 17405 11333 4145 7188 6000 1101
shrinkage=0.15


Tree=175
num_leaves=15
num_cat=0
split_feature=30 4 3 23 23 3 4 3 23 12 3 23 23 3
split_gain=0.123873 0.15951 0.246503 0.318448 0.241258 0.216421 0.193578 0.269233 0.311967 0.266172 0.214895 13.2523 6.31888 8.42968
threshold=0.0032644900000000005 1.1140750000000001 -8.1415149999999983 -9.6230949999999975 -6.9868449999999989 -7.0077899999999991 -1.4177149999999996 -6.8865649999999992 -6.9496149999999988 0.0017211250000000002 -14.260649999999998 -14.248749999999998 -17.075499999999995 -17.304849999999998
decision_type=2 2 2 2 2 2 2 2 2 2 2 2 2 2
left_child=1 6 3 -3 -4 -6 7 -1 -9 10 11 12 -8 -14
right_child=-2 2 4 -5 5 -7 9 8 -10 -11 -12 -13 13 -15
leaf_value=4.3676009120275654e-05 0.000253745193593471 -0.00067883448729571117 0.0012238109068236028 0.00048561611407846436 0.00098935615474999563 -0.002058858864733352 0.00088091895969471439 0.0019530336537063354 -0.0013477980269048036 0.014976952375414278 -0.00026664770651589517 -0.0022401870971355941 -0.0097939547793873486 0.021226698339018621
leaf_weight=24610 36106 9563 8220 11810 1019 1079 994 3453 792 26 109398 9079 234 1250
leaf_count=24610 36106 9563 8220 11810 1019 1079 994 3453 792 26 109398 9079 234 1250
internal_value=0 -5.04703e-05 0.000255271 -3.53983e-05 0.000857373 -0.000578339 -0.000115136 0.000233971 0.00133719 -0.000198401 -0.000201663 0.000413478 0.0101361 0.0163353
internal_weight=0 181527 31691 21373 10318 2098 149836 28855 4245 120981 120955 11557 2478 1484
internal_count=217633 181527 31691 21373 10318 2098 149836 28855 4245 120981 120955 11557 2478 1484
shrinkage=0.15


Tree=176
num_leaves=15
num_cat=0
split_feature=20 9 13 3 12 22 22 22 12 12 2 22 3 23
split_gain=0.128565 1.95283 1.42433 1.94748 3.19127 2.80289 2.58425 2.46887 2.31705 2.19608 1.7422 1.36118 1.30093 1.32622
threshold=9.7253800000000012 3.2350000000000007e-05 2.2315950000000001e-05 -6.2187599999999987 -2.5973599999999995e-05 -0.41140649999999995 0.47068050000000006 -0.30508349999999995 -6.6440049999999984e-05 2.8882100000000003e-05 0.47245600000000004 -0.69316099999999981 -9.5178949999999976 -6.3908299999999993
decision_type=2 2 2 2 2 2 2 2 2 2 2 2 2 2
left_child=-1 -2 3 4 7 -6 9 8 -3 12 -8 -10 -7 -14
right_child=1 2 -4 -5 5 6 10 -9 11 -11 -12 -13 13 -15
leaf_value=-3.3199324919920388e-05 -0.00051802407110455937 -4.785275055125922e-06 -0.0003683787492731678 -0.00019069950307501815 -0.0069377595291810175 0.0035750450342415464 -0.010504370242018592 -0.0046172927558801296 -0.0045944891363868239 -0.0020985906312707809 0.035324439240376586 0.035875940074038222 0.030360159632629512 0.0052589122574987273
leaf_weight=200968 12626 138 1513 891 116 56 99 507 23 75 23 100 445 53
leaf_count=200968 12626 138 1513 891 116 56 99 507 23 75 23 100 445 53
internal_value=0 0.00040036 0.00327125 0.00545128 0.0085259 0.014763 0.018115 0.00148476 0.0133382 0.0219901 -0.00186451 0.0283083 0.0252513 0.0276887
internal_weight=0 16665 4039 2526 1635 867 751 768 261 629 122 123 554 498
internal_count=217633 16665 4039 2526 1635 867 751 768 261 629 122 123 554 498
shrinkage=0.15


Tree=177
num_leaves=15
num_cat=0
split_feature=25 3 23 14 23 23 19 19 33 3 30 23 33 4
split_gain=0.117776 0.462721 2.01737 2.33303 1.61725 1.11852 2.11883 3.65372 8.93078 6.90972 4.23586 4.10483 3.7731 3.64636
threshold=0.60160250000000015 -10.010399999999999 -10.108199999999998 0.0029699900000000005 -7.1280949999999992 -9.9618999999999982 4.2478050000000008e-08 7.0604550000000007e-06 9.3338250000000019e-07 -6.4132949999999989 0.0050404700000000009 -6.551404999999999 9.3338250000000019e-07 0.14210450000000005
decision_type=2 2 2 2 2 2 2 2 2 2 2 2 2 2
left_child=-1 2 -2 4 -4 -3 -7 8 9 10 11 13 -9 -8
right_child=1 5 3 -5 -6 6 7 12 -10 -11 -12 -13 -14 -15
leaf_value=-9.9348864624042229e-05 0.00093499645982870821 -0.00034902629801195561 -0.005194902424076467 -3.6231790441477652e-05 -0.00053352523412759239 -0.0013371739974395002 0.01455486581866005 -0.0011840018733388835 -0.0021401760324378958 0.0011838333821090462 -0.0011909778828881848 0.0017411490213526497 0.002720074729236533 0.029529463586434511
leaf_weight=120199 15582 27851 4574 11309 2642 7399 821 11851 2372 1271 302 291 10509 660
leaf_count=120199 15582 27851 4574 11309 2642 7399 821 11851 2372 1271 302 291 10509 660
internal_value=0 0.000122561 -0.000322857 -0.00138088 -0.00348823 0.000362457 0.000921019 0.00151611 0.00490015 0.00989257 0.0152295 0.018028 0.000650879 0.0212282
internal_weight=0 97434 34107 18525 7216 63327 35476 28077 5717 3345 2074 1772 22360 1481
internal_count=217633 97434 34107 18525 7216 63327 35476 28077 5717 3345 2074 1772 22360 1481
shrinkage=0.15


Tree=178
num_leaves=15
num_cat=0
split_feature=29 11 4 4 4 24 35 4 3 3 34 4 14 24
split_gain=0.107469 5.56635 1.64119 2.77952 1.98252 8.96659 3.58643 7.14216 2.41972 3.19365 1.89533 2.49995 2.28898 1.97381
threshold=0.023947200000000005 -1.7047349999999995e-05 -1.3153099999999998 1.5436950000000003 0.21982700000000002 0.2652790000000001 -0.0066424349999999995 -0.18992199999999995 -6.0822949999999993 -14.488399999999999 1.2883350000000002 0.85613250000000007 0.0021510100000000005 0.62847100000000011
decision_type=2 2 2 2 2 2 2 2 2 2 2 2 2 2
left_child=-1 2 -2 4 6 -6 -4 -8 9 -7 11 -11 -12 -13
right_child=1 -3 3 -5 5 8 7 -9 -10 10 12 13 -14 -15
leaf_value=-4.107760648998953e-05 -0.00054691458991061787 -0.001265525203298037 -0.00073224063470935961 -0.00033472495159524737 -0.0021748153341292005 0.0045776698315259717 0.017741886208395289 0.00069616174759680547 -0.0046253890343397469 0.039077816353594905 0.00044495888218721918 -0.0059234775319834754 0.03445738768617658 0.043451547177715426
leaf_weight=188939 2165 18626 1848 2257 697 163 987 1258 77 352 102 56 79 27
leaf_count=188939 2165 18626 1848 2257 697 163 987 1258 77 352 102 56 79 27
internal_value=0 0.00027048 0.00311212 0.0041145 0.00589309 0.0104562 0.0041617 0.00819021 0.0207411 0.0232485 0.0281889 0.033556 0.0152902 0.0101383
internal_weight=0 28694 10068 7903 5646 1553 4093 2245 856 779 616 435 181 83
internal_count=217633 28694 10068 7903 5646 1553 4093 2245 856 779 616 435 181 83
shrinkage=0.15


Tree=179
num_leaves=15
num_cat=0
split_feature=14 21 3 34 1 20 23 34 21 3 1 25 34 15
split_gain=0.126972 0.559754 1.38184 0.899933 1.22281 0.799466 0.589659 0.761507 0.574377 1.45756 1.65176 2.82594 1.74519 0.83338
threshold=8.584265e-05 -8.2799499999999977 -6.2498799999999992 0.027087100000000006 -8.6249899999999986 3.1787150000000004 -6.2663199999999994 0.0059465100000000012 8.4090650000000018 -6.2187599999999987 8.2570200000000025 0.25428600000000007 0.0092879550000000023 -1.9202999999999997e-08
decision_type=2 2 2 2 2 2 2 2 2 2 2 2 2 2
left_child=1 2 3 4 5 -1 7 -6 -3 10 12 -12 -10 -13
right_child=-2 8 -4 -5 6 -7 -8 -9 9 -11 11 13 -14 -15
leaf_value=-0.0039598605431178033 -5.1203815785059768e-05 0.00072401461993745883 -9.6188543084402734e-05 -0.00074522496846232873 -0.025749208079925996 0.033835084824822843 -0.0015055117132978409 -0.011137277957673051 -0.018441180663423727 0.00018300322626299659 0.040451796126684973 -0.014095252538875986 -0.0029288234969504293 0.019865590866122926
leaf_weight=34 181402 27628 3594 306 127 20 71 218 302 3441 42 72 355 21
leaf_count=34 181402 27628 3594 306 127 20 71 218 302 3441 42 72 355 21
internal_value=0 0.000256368 -0.00133562 -0.00707595 -0.0111977 0.0100383 -0.0139542 -0.0165162 0.000474722 -0.00115236 -0.00695413 0.00815774 -0.0100593 -0.00642667
internal_weight=0 36231 4370 776 470 54 416 345 31861 4233 792 135 657 93
internal_count=217633 36231 4370 776 470 54 416 345 31861 4233 792 135 657 93
shrinkage=0.15


Tree=180
num_leaves=15
num_cat=0
split_feature=23 14 14 20 9 0 12 19 5 21 12 10 16 14
split_gain=0.113167 0.524716 0.226431 0.197 0.755767 0.62617 0.27622 0.166625 0.150552 0.383353 0.874822 1.1682 0.695982 0.263557
threshold=-17.743599999999997 0.00064274150000000012 0.00018273250000000005 8.3930550000000022 3.2350000000000007e-05 5.009195000000001 -2.9766249999999996e-05 1.1970700000000004e-10 1.3427100000000001e-05 -3.9655799999999997 -0.00022387249999999999 1.3168550000000003e-05 1.4086250000000003e-08 0.0078268300000000016
decision_type=2 2 2 2 2 2 2 2 2 2 2 2 2 2
left_child=1 2 -1 7 -5 -6 -7 -3 9 10 11 12 -9 -11
right_child=-2 3 -4 4 5 6 -8 8 -10 13 -12 -13 -14 -15
leaf_value=0.00071106170565839709 -2.8210678047477681e-05 0.011170916160982515 0.0025473132059652243 -0.0011259699870652183 0.03664684606483206 0.019784007788985036 -0.0038664695640618445 0.011851999233476818 -0.00010293193220307392 -0.0037564170941445864 -0.0015564215874151086 0.0016577518673979543 0.046958512605892282 -0.00038607007403729465
leaf_weight=3971 203772 27 2439 200 24 20 25 24 4478 1292 374 84 27 876
leaf_count=3971 203772 27 2439 200 24 20 25 24 4478 1292 374 84 27 876
internal_value=0 0.000414728 0.00140975 -0.00044128 0.00354405 0.0170803 0.00664485 -0.000590549 -0.000634932 -0.00152485 0.00217972 0.0125302 0.0304378 -0.0023946
internal_weight=0 13861 6410 7451 269 69 45 7182 7155 2677 509 135 51 2168
internal_count=217633 13861 6410 7451 269 69 45 7182 7155 2677 509 135 51 2168
shrinkage=0.15


Tree=181
num_leaves=15
num_cat=0
split_feature=16 36 10 3 16 3 19 37 26 31 3 31 11 16
split_gain=0.0996851 0.456264 1.00344 0.575885 1.28833 0.698431 1.09703 0.545084 0.33152 0.328987 0.268474 0.175436 1.11758 0.892515
threshold=-1.3219499999999998e-05 -0.43959349999999991 1.2315000000000002e-05 -8.8578049999999973 -5.6238599999999994e-05 -14.087399999999997 0.00049070750000000001 1.2200700000000002e-05 0.00026654950000000005 -0.099177399999999985 -17.495099999999997 -4.7621299999999991 9.7894750000000007e-05 5.8919050000000006e-05
decision_type=2 2 2 2 2 2 2 2 2 2 2 2 2 2
left_child=1 2 -1 4 10 8 -7 -8 -6 -3 -4 12 -2 -14
right_child=11 9 3 -5 5 6 7 -9 -10 -11 -12 -13 13 -15
leaf_value=0.0324227209487516 -2.924164649968373e-05 -0.00066146616722359542 0.017427586017292922 -0.0032819012831193529 -0.010038590257648717 0.050066565095190085 -0.0036013565231215851 0.025960655585974261 0.016645007848273961 0.00039506252038681882 -0.00057463814545418324 -6.7670082762908812e-05 0.014923297394832641 0.0016456346348685848
leaf_weight=27 3071 8624 20 222 22 29 23 36 20 28699 274 176109 216 241
leaf_count=27 3071 8624 20 222 22 29 23 36 20 28699 274 176109 216 241
internal_value=0 0.000220736 0.00409163 0.00290751 0.0061482 0.0185826 0.0261782 0.0144365 0.00266789 0.000150937 0.000650003 -4.66891e-05 0.00100063 0.00792129
internal_weight=0 37996 673 646 424 130 88 59 42 37323 294 179637 3528 457
internal_count=217633 37996 673 646 424 130 88 59 42 37323 294 179637 3528 457
shrinkage=0.15


Tree=182
num_leaves=15
num_cat=0
split_feature=14 23 20 0 3 3 3 23 3 3 0 3 30 20
split_gain=0.0980345 0.377699 0.386514 1.57041 2.96795 2.51667 1.42839 1.31281 2.52963 1.30023 0.879212 3.08936 0.785553 0.723665
threshold=8.584265e-05 -7.1436399999999987 7.837320000000001 7.2016400000000003 -6.2498799999999992 -7.1376749999999989 -6.0020699999999989 -6.5922849999999995 -6.493739999999999 -6.6541099999999984 7.508115000000001 -5.9424999999999999 0.00031963850000000003 -6.7194299999999991
decision_type=2 2 2 2 2 2 2 2 2 2 2 2 2 2
left_child=1 -1 10 6 5 -5 -4 8 -7 -9 13 12 -12 -3
right_child=-2 2 3 4 -6 7 -8 9 -10 -11 11 -13 -14 -15
leaf_value=0.00048620197413621366 -4.4992220698997881e-05 0.0025764714679545001 -0.011354671824292967 -0.017896327502798116 -0.00081491689631802734 0.038558956259942573 0.00036696764287561239 -0.015677853538231416 -0.0088590330684617628 0.017912360486162689 -0.016177748644993384 0.00026430976959749891 -0.0055349918521719098 -0.0016271893850762005
leaf_weight=28080 181402 1510 310 43 625 138 953 33 31 121 418 1356 249 2364
leaf_count=28080 181402 1510 310 43 625 138 953 33 31 121 418 1356 249 2364
internal_value=0 0.000225268 -0.000673644 0.000997089 0.00546687 0.016194 -0.00251008 0.0207323 0.029861 0.0107145 -0.00131225 -0.00384682 -0.0122047 1.13052e-05
internal_weight=0 36231 8151 2254 991 366 1263 323 169 154 5897 2023 667 3874
internal_count=217633 36231 8151 2254 991 366 1263 323 169 154 5897 2023 667 3874
shrinkage=0.15


Tree=183
num_leaves=15
num_cat=0
split_feature=28 8 3 4 4 39 16 18 8 4 4 3 21 12
split_gain=0.100459 1.20142 1.73326 2.44614 3.96549 1.29146 1.56525 1.03581 1.02425 1.47912 2.02736 2.92576 1.54407 5.22219
threshold=0.0019208600000000001 -2.3309349999999995e-06 -6.0822949999999993 0.92173400000000016 -1.2236799999999997 0.0022391600000000005 2.5734150000000004e-06 3.9077700000000007e-05 -2.8574899999999999e-06 -1.1246349999999998 1.0025000000000002 -6.2498799999999992 1.5617800000000004 2.9825400000000004e-05
decision_type=2 2 2 2 2 2 2 2 2 2 2 2 2 2
left_child=8 -2 3 4 -3 -6 7 -7 9 -1 11 12 -11 -14
right_child=1 2 -4 -5 5 6 -8 -9 -10 10 -12 -13 13 -15
leaf_value=0.0011458058205039837 0.00065625318178965341 0.0013360435509175476 0.0013278032317222881 0.0013358921577904797 -0.0029998592473601125 0.0029238813668397215 -0.0069752410258287255 -0.0082949971581496862 0.00030192032294966333 -0.0027987205573961537 0.00099545832933947611 0.0004615989025352647 0.017155875169009491 -0.0021856774976060519
leaf_weight=9319 47067 8088 10289 8819 19071 2222 535 202 66965 21484 9663 11889 389 1631
leaf_count=9319 47067 8088 10289 8819 19071 2222 535 202 66965 21484 9663 11889 389 1631
internal_value=0 0.000114401 -0.000403687 -0.000861228 -0.00150458 -0.00254747 0.000368206 0.00198897 -9.07862e-05 -0.00057442 -0.000930217 -0.00145596 -0.00242592 0.00153901
internal_weight=0 96293 49226 38937 30118 22030 2959 2424 121340 54375 45056 35393 23504 2020
internal_count=217633 96293 49226 38937 30118 22030 2959 2424 121340 54375 45056 35393 23504 2020
shrinkage=0.15


Tree=184
num_leaves=15
num_cat=0
split_feature=23 18 17 14 24 19 4 13 24 14 16 10 15 0
split_gain=0.118718 0.364118 0.38292 0.262256 0.519497 0.395364 0.318804 0.302874 0.268807 1.43883 1.91234 1.19132 0.582419 0.377003
threshold=-6.551404999999999 -6.0195449999999993e-07 -2.4939049999999996e-05 0.00015258600000000005 -0.096185149999999983 1.3354200000000001e-08 -0.079371349999999993 6.9651600000000016e-05 0.26042050000000011 0.00052710300000000012 8.2307000000000013e-07 4.2008400000000003e-05 5.9804750000000007e-07 -7.6489999999999991
decision_type=2 2 2 2 2 2 2 2 2 2 2 2 2 2
left_child=-1 2 -2 4 5 -3 -6 8 -5 10 12 -12 -10 -11
right_child=1 3 -4 7 6 -7 -8 -9 9 13 11 -13 -14 -15
leaf_value=-3.7543881395494726e-05 -0.00072710357109245598 -0.00032574316967829586 0.0015616723215152528 0.0006294331956747456 -0.0046314493803553776 -0.0053339081954512273 0.00036525714976491094 -0.00090393225474215627 0.0028256460328861979 0.017888625443447381 0.058409695719767889 0.016042823447787669 0.028084502312476219 -0.0032779163030786998
leaf_weight=195214 2129 582 7230 4461 314 908 3379 2766 192 20 28 32 23 355
leaf_count=195214 2129 582 7230 4461 314 908 3379 2766 192 20 28 32 23 355
internal_value=0 0.000326914 0.00104102 -0.000184824 -0.00101348 -0.0033777 -5.95914e-05 0.000360422 0.00104467 0.00389449 0.0121357 0.035814 0.00552776 -0.00214903
internal_weight=0 22419 9359 13060 5183 1490 3693 7877 5111 650 275 60 215 375
internal_count=217633 22419 9359 13060 5183 1490 3693 7877 5111 650 275 60 215 375
shrinkage=0.15


Tree=185
num_leaves=15
num_cat=0
split_feature=23 3 3 23 19 36 13 10 37 35 3 23 37 0
split_gain=0.0857735 0.680735 0.734877 0.78436 0.761926 0.60935 0.46563 0.33009 0.287471 0.277676 0.274505 0.773799 0.884959 0.876254
threshold=-6.551404999999999 -6.9170499999999988 -6.572074999999999 -6.2663199999999994 1.1012150000000001e-08 -0.0043675249999999997 0.00010253600000000001 3.7079900000000004e-05 -7.6051899999999996e-07 -0.00079403349999999982 -6.2498799999999992 -6.3575049999999989 3.2244200000000008e-07 11.124200000000002
decision_type=2 2 2 2 2 2 2 2 2 2 2 2 2 2
left_child=-1 6 3 4 -3 -6 -2 -7 -5 -9 11 12 13 -4
right_child=1 2 10 8 5 7 -8 9 -10 -11 -12 -13 -14 -15
leaf_value=-3.1912299017477264e-05 0.0014203030112395923 -0.021274762764183244 0.0095816569488626491 0.014323784226294736 0.019674290869734247 -0.010888373764287952 -0.00047271454758325565 0.0087587650338383869 -0.0010533892468693501 -0.0052936365915576015 -0.00072471776051102009 -0.0015080016140617352 -0.021170993063312309 -0.0078878804822452367
leaf_weight=195214 10425 86 466 29 20 244 4063 38 482 189 5538 738 26 75
leaf_count=195214 10425 86 466 29 20 244 4063 38 482 189 5538 738 26 75
internal_value=0 0.000277877 -0.000839275 -0.0044604 -0.00825056 -0.00596933 0.000889427 -0.00705823 -0.000180712 -0.00294125 -0.000263536 0.00169357 0.0058607 0.00715982
internal_weight=0 22419 7931 1088 577 491 14488 471 511 227 6843 1305 567 541
internal_count=217633 22419 7931 1088 577 491 14488 471 511 227 6843 1305 567 541
shrinkage=0.15


Tree=186
num_leaves=15
num_cat=0
split_feature=6 33 33 19 3 34 23 19 3 34 14 23 23 23
split_gain=0.0824972 8.17272 6.45367 2.62831 4.32296 4.2139 3.10509 2.31724 3.79508 4.88906 2.81984 2.92543 2.75973 3.65504
threshold=-4.0280749999999992e-07 -4.7009049999999996e-07 -1.2766899999999998e-07 1.1641400000000003e-06 -6.493739999999999 0.082065000000000013 -6.5700849999999997 3.4781700000000004e-06 -6.4132949999999989 0.12226950000000002 0.0006614075000000002 -9.8328599999999984 -10.670499999999999 -6.4487099999999993
decision_type=2 2 2 2 2 2 2 2 2 2 2 2 2 2
left_child=1 3 -2 4 5 6 -1 8 9 10 12 -12 -3 -14
right_child=2 7 -4 -5 -6 -7 -8 -9 -10 -11 11 -13 13 -15
leaf_value=0.0067735277429698615 -0.0012161301697048358 -0.0017194199437665285 0.00099294208618409298 0.00023743071666998018 0.00010083090037890668 0.00088957586698013165 -0.0011073252585438119 -6.9008759596322352e-05 5.1209005588929651e-06 1.1442978509378943e-05 -0.0084020050485192326 0.00097710692634302479 -0.0099861645100444481 0.00039907807343170801
leaf_weight=9128 58061 1764 61036 21987 10822 6309 1283 20767 11096 5748 1071 2483 5184 894
leaf_count=9128 58061 1764 61036 21987 10822 6309 1283 20767 11096 5748 1071 2483 5184 894
internal_value=0 0.000101532 -8.40031e-05 0.0014604 0.0024367 0.00394859 0.00580233 -0.00127181 -0.00215632 -0.00355525 -0.00535424 -0.00184929 -0.00694269 -0.00845862
internal_weight=0 98536 119097 49529 27542 16720 10411 49007 28240 17144 11396 3554 7842 6078
internal_count=217633 98536 119097 49529 27542 16720 10411 49007 28240 17144 11396 3554 7842 6078
shrinkage=0.15


Tree=187
num_leaves=15
num_cat=0
split_feature=23 14 30 4 24 4 4 24 24 18 12 28 24 10
split_gain=0.0808659 0.481253 0.6913 1.53487 6.18087 2.48802 1.60558 4.97518 1.43646 1.68473 1.10208 3.51396 1.02299 1.24494
threshold=-7.3218799999999993 0.00035063800000000007 0.00025484250000000003 0.13793450000000004 0.14643550000000002 0.3608320000000001 -0.11254849999999998 -0.096185149999999983 0.39503000000000005 7.9309250000000023e-06 5.3968600000000004e-05 0.015345750000000002 -0.37535499999999994 5.4384100000000007e-05
decision_type=2 2 2 2 2 2 2 2 2 2 2 2 2 2
left_child=-1 2 -2 6 -5 8 7 12 10 -10 -6 -12 -4 -14
right_child=1 -3 3 4 5 -7 -8 -9 9 -11 11 -13 13 -15
leaf_value=-5.1880235047029411e-05 -0.001071343639886864 0.0005379231876265323 0.0029200745788172545 -0.0052216297285159387 0.020199966050989816 -0.0027540067119202027 -0.0015030941977100132 -0.0049759395317274377 0.0012261635230482249 0.045694415186616509 -0.00047114383976440877 0.073609745590125814 0.017881531399116052 0.0035417593465324661
leaf_weight=164631 13046 31272 254 688 384 153 5477 803 149 22 25 34 509 186
leaf_count=164631 13046 31272 254 688 384 153 5477 803 149 22 25 34 509 186
internal_value=0 0.000161147 -0.000381079 0.000655909 0.00510094 0.0143603 -0.000238755 0.00371375 0.0186249 0.00694723 0.0231326 0.0422195 0.0110666 0.0140438
internal_weight=0 53002 21730 8684 1455 767 7229 1752 614 171 443 59 949 695
internal_count=217633 53002 21730 8684 1455 767 7229 1752 614 171 443 59 949 695
shrinkage=0.15


Tree=188
num_leaves=15
num_cat=0
split_feature=23 3 23 3 39 33 19 29 31 11 39 11 18 0
split_gain=0.0828787 0.717953 1.0053 0.968932 0.849787 0.841033 1.01487 1.21975 1.23528 1.26794 0.919027 0.864043 0.822846 0.61434
threshold=-17.743599999999997 -17.304849999999998 -17.896049999999999 -12.418249999999999 0.00095358200000000002 4.3468250000000009e-05 0.0035607800000000004 0.0099036800000000032 -0.43700099999999992 6.6899800000000013e-05 0.00018690550000000002 -2.0005449999999997e-05 -4.5671949999999996e-05 0.44621550000000004
decision_type=2 2 2 2 2 2 2 2 2 2 2 2 2 2
left_child=1 2 5 4 -3 6 7 8 9 -1 12 -9 -10 -14
right_child=-2 3 -4 -5 -6 -7 -8 11 10 -11 -12 -13 13 -15
leaf_value=-0.022096011482386126 -2.4142117377174265e-05 -0.0046199014948954589 0.029936513298889619 0.00074108771099732815 0.0012820481777290685 -0.0061378910055565131 -0.0022910124348275896 0.014625741698546335 -0.001648303572437726 0.027734241038560866 0.048676091462702437 -0.024160343506602136 0.01737176206719596 0.046989430945653186
leaf_weight=27 203772 1584 36 10898 840 135 141 24 28 20 34 28 40 26
leaf_count=27 203772 1584 36 10898 840 135 141 24 28 20 34 28 40 26
internal_value=0 0.000354916 0.00572192 0.00013777 -0.00257467 0.00398887 0.00770385 0.0139121 0.0199058 -0.000891649 0.0275424 -0.00625907 0.0198983 0.0290393
internal_weight=0 13861 539 13322 2424 503 368 227 175 47 128 52 94 66
internal_count=217633 13861 539 13322 2424 503 368 227 175 47 128 52 94 66
shrinkage=0.15


Tree=189
num_leaves=15
num_cat=0
split_feature=14 21 5 34 21 23 13 22 17 0 17 22 14 14
split_gain=0.08807 0.266081 0.357799 0.4675 0.272412 0.214796 0.243191 0.204235 0.668661 1.0243 0.958631 0.819145 0.986493 0.494995
threshold=9.1523500000000006e-05 -8.2799499999999977 9.816795000000002e-06 0.010841250000000002 8.4090650000000018 -6.8719549999999989 -1.5810849999999994e-05 1.8895150000000001 7.9852550000000013e-07 -7.8712899999999992 -2.5904249999999994e-06 2.2761200000000001 0.00020237850000000003 0.00016362750000000005
decision_type=2 2 2 2 2 2 2 2 2 2 2 2 2 2
left_child=1 2 3 -1 -3 -2 7 13 9 10 -9 12 -11 -7
right_child=5 4 -4 -5 -6 6 -8 8 -10 11 -12 -13 -14 -15
leaf_value=-0.0086724848312833645 -0.0001158629993639479 0.00051677967309962701 -0.00030526832253569572 -0.0007818112592830527 -0.00073211930818529568 -0.0028446785145786165 0.00010100481253727386 0.003436485869211278 0.00068348936267236568 0.036822489124130116 0.044944137481657119 -0.0019095155858494099 0.0050590875897217882 0.0013673776529210056
leaf_weight=284 150439 29566 4007 417 4532 731 22150 21 760 33 31 151 66 4445
leaf_count=284 150439 29566 4007 417 4532 731 22150 21 760 33 31 151 66 4445
internal_value=0 0.000204838 -0.000852211 -0.0039786 0.000350787 -4.44504e-05 0.000333993 0.00116129 0.00305611 0.00902695 0.0281814 0.00504282 0.0156469 0.000772514
internal_weight=0 38806 4708 701 34098 178827 28388 6238 1062 302 52 250 99 5176
internal_count=217633 38806 4708 701 34098 178827 28388 6238 1062 302 52 250 99 5176
shrinkage=0.15


Tree=190
num_leaves=15
num_cat=0
split_feature=5 20 0 22 33 20 6 0 20 14 24 18 20 23
split_gain=0.0855038 0.209475 0.383035 0.376112 0.576704 0.671854 0.573666 0.162557 0.385695 0.849193 0.225859 0.296744 0.224963 0.277261
threshold=7.2568900000000009e-06 7.2111900000000011 6.1430700000000007 0.37417250000000007 1.1210100000000002e-06 9.8638550000000009 -1.3711099999999999e-07 4.8666000000000009 4.9104300000000007 0.00045556800000000005 -0.38812099999999994 -2.5183799999999993e-06 4.0390700000000006 -11.234149999999998
decision_type=2 2 2 2 2 2 2 2 2 2 2 2 2 2
left_child=1 7 -3 4 5 -4 -6 10 -9 -10 11 -1 13 -12
right_child=-2 2 3 -5 6 -7 -8 8 9 -11 12 -13 -14 -15
leaf_value=-0.013291928694637205 -1.0336440365320693e-05 0.00066739528172862132 0.047349857751396482 -0.0025315564331862871 -0.012646203886717557 0.01306071380386129 0.02143712574848905 -0.0028183880277357419 -0.0014364835653395858 0.025311050756293273 0.0061712076902569789 0.00034468454927076076 -0.0025588110347732965 0.0010038623373179788
leaf_weight=52 215034 266 20 37 25 36 20 689 96 37 371 116 203 631
leaf_count=52 215034 266 20 37 25 36 20 689 96 37 371 116 203 631
internal_value=0 0.000855208 0.00399413 0.0104065 0.0151462 0.0253068 0.00250194 0.000277475 -0.00139083 0.00600456 0.00127627 -0.00387617 0.00199462 0.00291712
internal_weight=0 2599 404 138 101 56 45 2195 822 133 1373 168 1205 1002
internal_count=217633 2599 404 138 101 56 45 2195 822 133 1373 168 1205 1002
shrinkage=0.15


Tree=191
num_leaves=15
num_cat=0
split_feature=5 20 0 3 23 3 3 0 25 14 14 23 32 23
split_gain=0.0768091 0.731301 6.32642 2.62025 2.39773 3.11121 1.96581 1.29787 1.45986 2.98522 1.65993 1.41202 1.25921 1.21175
threshold=1.0554350000000002e-05 7.0057400000000003 5.8791150000000014 -6.4440149999999994 -7.162399999999999 -7.1376749999999989 -7.0757599999999989 6.5563600000000006 1.3255600000000001 0.00043225750000000003 0.00085365250000000016 -11.298099999999998 -0.35905949999999992 -6.4487099999999993
decision_type=2 2 2 2 2 2 2 2 2 2 2 2 2 2
left_child=1 -1 -3 4 6 -6 7 11 10 -10 -9 -4 -11 -7
right_child=-2 2 3 -5 5 13 -8 8 9 12 -12 -13 -14 -15
leaf_value=-9.996772749268686e-05 -4.202612000693298e-05 -0.0014040678735577706 0.038345973709162887 0.00013062639181666064 -0.0049586152344728305 0.028001857133864685 5.0086290686030999e-05 0.029609125855092722 0.00053116982127539812 0.011360016514663585 -0.00039446101316412829 -0.0030756333411824542 0.058541583134127509 -0.0015385151449923535
leaf_weight=32974 178035 4640 23 570 321 122 137 423 150 20 46 95 35 42
leaf_count=32974 178035 4640 23 570 321 122 137 423 150 20 46 95 35 42
internal_value=0 0.000188952 0.00162718 0.0087164 0.0121774 0.00362865 0.0166405 0.0195103 0.022051 0.0114919 0.0266663 0.00499807 0.0413846 0.0204366
internal_weight=0 39598 6624 1984 1414 485 929 792 674 205 469 118 55 164
internal_count=217633 39598 6624 1984 1414 485 929 792 674 205 469 118 55 164
shrinkage=0.15


Tree=192
num_leaves=15
num_cat=0
split_feature=20 9 13 17 19 17 19 9 9 16 16 29 19 16
split_gain=0.0746817 0.306692 0.377403 0.553767 0.619806 1.27949 0.323675 0.128708 0.183029 0.275698 0.0919331 0.207343 0.120822 0.107831
threshold=15.858650000000003 4.1356400000000009e-05 3.8072300000000012e-05 6.9477550000000009e-06 0.00034012450000000003 5.4117700000000011e-07 4.2206300000000004e-07 3.9046450000000003e-05 3.5459650000000012e-05 1.1018000000000001e-07 5.6579350000000019e-07 -0.026386799999999998 0.0025007950000000005 3.1296850000000004e-07
decision_type=2 2 2 2 2 2 2 2 2 2 2 2 2 2
left_child=-1 7 3 4 5 6 -3 8 10 -10 13 -12 -13 -2
right_child=1 2 -4 -5 -6 -7 -8 -9 9 -11 11 12 -14 -15
leaf_value=-7.6894993103233684e-06 0.00050902856947302214 -0.0038211652267542062 -0.0044945118857929438 0.029577859414992136 -0.0065398698660398 0.045967934866036689 0.015646941310577939 -0.0085717601830617995 -0.0047950446069340352 0.016944906082020938 -0.0031265572488273045 0.016532757886452597 4.492355394177139e-05 0.008771345372047476
leaf_weight=215979 901 46 59 26 57 21 33 37 21 35 341 20 20 37
leaf_count=215979 901 46 59 26 57 21 33 37 21 35 341 20 20 37
internal_value=0 0.00100409 0.00593792 0.00930139 0.0059435 0.013059 0.00431108 0.000158493 0.000393417 0.00879242 3.6825e-05 -0.00192809 0.00828884 0.000834941
internal_weight=0 1654 242 183 157 100 79 1412 1375 56 1319 381 40 938
internal_count=217633 1654 242 183 157 100 79 1412 1375 56 1319 381 40 938
shrinkage=0.15


Tree=193
num_leaves=15
num_cat=0
split_feature=28 8 3 23 14 23 23 3 4 4 3 14 39 4
split_gain=0.0683812 0.756846 1.5585 2.61209 2.61443 3.86578 2.45573 3.42176 1.68163 1.56302 1.4355 1.24507 1.03225 0.830047
threshold=0.0019208600000000001 6.5219100000000015e-07 -6.749814999999999 -6.789509999999999 0.0036607600000000003 -15.570249999999998 -6.7383949999999997 -5.8866849999999991 0.92173400000000016 -1.2236799999999997 -14.949199999999999 0.00045556800000000005 0.0010549800000000003 1.0025000000000002
decision_type=2 2 2 2 2 2 2 2 2 2 2 2 2 2
left_child=-1 13 3 4 5 10 -4 11 9 -7 -3 -8 -11 -2
right_child=1 2 6 -5 -6 8 7 -9 -10 12 -12 -13 -14 -15
leaf_value=-7.4901863417269979e-05 0.0007753772598948945 -0.013375358080375007 0.0017295094450232977 0.0023967448381786043 0.00020981114059610874 0.0016436378504691683 -0.016044660926609826 0.0010643305548067035 0.0019140501197051608 -0.0054067296483404914 0.0034364364724236312 -0.0028573991299662084 -0.0014314281242662056 -0.00085038372641861116
leaf_weight=121340 41522 120 12396 4564 11763 922 517 1158 1070 9373 2396 234 1743 8515
leaf_count=121340 41522 120 12396 4564 11763 922 517 1158 1070 9373 2396 234 1743 8515
internal_value=0 9.43848e-05 -0.000342996 -0.000925585 -0.00147925 -0.0027509 0.00095825 -0.00404988 -0.00378462 -0.00429115 0.0026346 -0.0119357 -0.0047834 0.000498715
internal_weight=0 96293 46256 31951 27387 15624 14305 1909 13108 12038 2516 751 11116 50037
internal_count=217633 96293 46256 31951 27387 15624 14305 1909 13108 12038 2516 751 11116 50037
shrinkage=0.15


Tree=194
num_leaves=15
num_cat=0
split_feature=7 39 3 23 10 22 8 4 34 33 6 23 27 26
split_gain=0.0698622 0.126542 0.217482 0.236954 0.134094 0.211408 0.416466 0.513022 0.506558 0.202287 0.337931 0.627767 0.133341 0.224309
threshold=1.8518350000000002e-05 9.9805500000000026e-07 -8.0805899999999991 -7.0353699999999995 1.6442100000000003e-05 -0.73297299999999987 9.3205450000000014e-06 1.5436950000000003 0.048668800000000005 -5.9352199999999992e-06 -3.3575149999999996e-07 -11.700949999999999 0.24293000000000001 -0.00013226649999999998
decision_type=2 2 2 2 2 2 2 2 2 2 2 2 2 2
left_child=1 2 -1 -4 12 6 -6 8 -8 10 11 -7 -3 -14
right_child=-2 4 3 -5 5 9 7 -9 -10 -11 -12 -13 13 -15
leaf_value=0.00031888418921238655 -9.3123099622943161e-06 -0.0025453326203660255 0.024981498167690006 0.0056067891044741759 0.0006569612544756997 -0.0022114272266414692 0.041138961159491116 -0.0047377952856809957 0.011508508381666616 -0.0016898307522846586 -0.0012921230618667321 0.033230841956506281 -0.0025615739775474156 0.0016629608772411187
leaf_weight=102 215051 399 20 49 106 22 21 21 34 268 60 23 384 1073
leaf_count=102 215051 399 20 49 106 22 21 21 34 268 60 23 384 1073
internal_value=0 0.000775609 0.00471865 0.0112226 0.000495949 0.00254164 0.0067327 0.0152068 0.022822 0.000496665 0.00607743 0.0159035 -0.000115773 0.000549563
internal_weight=0 2582 171 69 2411 555 182 76 55 373 105 45 1856 1457
internal_count=217633 2582 171 69 2411 555 182 76 55 373 105 45 1856 1457
shrinkage=0.15


Tree=195
num_leaves=15
num_cat=0
split_feature=5 21 1 12 39 21 1 12 1 1 19 20 33 11
split_gain=0.0739946 0.576342 3.4694 1.5516 0.906068 0.797579 3.33029 1.34019 1.19026 0.872301 0.82813 4.20351 2.0283 0.99438
threshold=1.0554350000000002e-05 -6.706739999999999 -6.829019999999999 5.1306750000000005e-05 0.0052482900000000009 6.6820600000000008 6.609325000000001 5.3835400000000005e-06 6.609325000000001 -7.0143299999999993 1.2778600000000002e-05 -0.53812299999999991 2.0093250000000005e-06 -7.2806149999999985e-07
decision_type=2 2 2 2 2 2 2 2 2 2 2 2 2 2
left_child=1 2 -1 4 -4 8 7 -7 9 -3 11 -8 -12 -13
right_child=-2 5 3 -5 -6 6 10 -9 -10 -11 12 13 -14 -15
leaf_value=0.0075464391775198767 -4.1248954818390933e-05 -0.0014915457057347772 -0.0046947354365025557 0.0016698922140942003 0.0018850512159179001 -0.00034866163596256966 -0.0063367249601971451 -0.0048245178348404289 -0.002076187479628221 0.0015110902340160126 -0.0056723175295419108 -0.005273430169261701 0.014548648631915476 0.026058048095525685
leaf_weight=909 178035 2436 3775 1542 538 3627 174 2573 2816 20469 261 25 195 258
leaf_count=909 178035 2436 3775 1542 538 3627 174 2573 2816 20469 261 25 195 258
internal_value=0 0.000185458 -0.00107537 -0.00241392 -0.00387398 0.000445195 -0.000960638 -0.00220614 0.000833971 0.00119175 0.00749733 0.01201 0.00297481 0.0232902
internal_weight=0 39598 6764 5855 4313 32834 7113 6200 25721 22905 913 457 456 283
internal_count=217633 39598 6764 5855 4313 32834 7113 6200 25721 22905 913 457 456 283
shrinkage=0.15


Tree=196
num_leaves=15
num_cat=0
split_feature=31 11 0 3 11 23 3 14 23 3 11 20 11 23
split_gain=0.0686003 12.4313 8.55637 3.51505 4.41619 3.32827 2.64775 4.22939 2.53869 2.49084 4.07873 3.70322 4.55138 3.51742
threshold=-0.019640099999999997 4.160220000000001e-06 1.4045800000000002 -6.8364449999999986 -8.9669799999999986e-05 -6.6921149999999994 -6.2498799999999992 0.0052402850000000008 -16.783199999999997 -6.6271099999999992 0.00011291700000000002 1.9046550000000002 1.4492750000000001e-05 -6.7383949999999997
decision_type=2 2 2 2 2 2 2 2 2 2 2 2 2 2
left_child=1 3 -2 4 -1 8 7 -3 -6 10 11 13 -13 -4
right_child=2 6 9 -5 5 -7 -8 -9 -10 -11 -12 12 -14 -15
leaf_value=-0.00053462411600405948 0.0011514334684689163 0.0034830581284634207 -0.0048247634379712757 -2.2281185376826776e-05 -2.1558185939459643e-05 0.001745329098773887 -0.00062829057584495266 5.5378830366927152e-05 -0.0055328377398580278 0.00015714430081777562 -0.00010849678944125274 0.014176897227974092 -0.001261811328775696 0.0010892194906207994
leaf_weight=12715 71086 23259 16968 17087 2156 1931 8705 12427 14720 16749 14657 546 2016 2611
leaf_count=12715 71086 23259 16968 17087 2156 1931 8705 12427 14720 16749 14657 546 2016 2611
internal_value=0 -9.74915e-05 7.27473e-05 -0.00175478 -0.00269391 -0.00415375 0.00171727 0.00228943 -0.00482874 -0.00135926 -0.00204946 -0.00333435 0.00202841 -0.00403609
internal_weight=0 93000 124633 48609 31522 18807 44391 35686 16876 53547 36798 22141 2562 19579
internal_count=217633 93000 124633 48609 31522 18807 44391 35686 16876 53547 36798 22141 2562 19579
shrinkage=0.15


Tree=197
num_leaves=15
num_cat=0
split_feature=29 11 0 3 11 3 14 29 0 30 23 3 22 2
split_gain=0.063635 10.0402 8.20466 2.64565 3.87173 2.34989 3.58827 2.29122 12.7906 5.21535 2.47722 6.94225 2.21523 5.70725
threshold=-0.0012149099999999998 3.0128700000000004e-06 0.63130900000000012 -6.4440149999999994 -6.4919299999999987e-05 -6.4440149999999994 0.0034191400000000006 -0.00024544349999999993 0.08305520000000001 0.00014008450000000002 -14.569749999999997 -14.385199999999999 -2.8863399999999997 -2.8476049999999993
decision_type=2 2 2 2 2 2 2 2 2 2 2 2 2 2
left_child=1 3 5 4 -1 6 7 8 -2 -10 11 -9 13 -12
right_child=2 -3 -4 -5 -6 -7 -8 10 9 -11 12 -13 -14 -15
leaf_value=-0.00056817298214649947 -0.0060643052335213454 0.0014306790913007907 -0.0012896120801969139 0.00013708420755941772 -0.0036409666595367432 -0.00033796281932060824 0.00019926203716665424 0.019342709745720756 -0.00090434883696664315 0.066451005774110339 0.016394099195632266 -0.0021642291023889664 0.0043125948034858363 -0.0054852797428826764
leaf_weight=17135 1570 50079 53273 15013 19989 15718 18995 372 38 81 332 3662 19979 1397
leaf_count=17135 1570 50079 53273 15013 19989 15718 18995 372 38 81 332 3662 19979 1397
internal_value=0 -8.61891e-05 7.63311e-05 -0.00154318 -0.00222268 0.00124729 0.00178399 0.00288136 -0.00247057 0.0449426 0.00323251 -0.000180942 0.00386683 -0.00128403
internal_weight=0 102216 115417 52137 37124 62144 46426 27431 1689 119 25742 4034 21708 1729
internal_count=217633 102216 115417 52137 37124 62144 46426 27431 1689 119 25742 4034 21708 1729
shrinkage=0.15


Tree=198
num_leaves=15
num_cat=0
split_feature=2 22 22 2 22 19 0 21 0 23 33 22 19 3
split_gain=0.0849656 3.65901 1.90984 1.40264 3.97881 1.63276 1.3476 1.08329 1.01516 1.26295 1.25983 0.897406 0.754212 0.839006
threshold=-2.8697349999999995 -2.8252699999999993 -1.6187749999999999 -2.9738899999999995 -2.9897199999999997 0.00052909500000000015 -10.580349999999997 -1.6499499999999998 -7.8712899999999992 -10.016399999999999 -1.9189149999999997e-06 -2.9897199999999997 2.1691500000000004e-05 -6.5186449999999985
decision_type=2 2 2 2 2 2 2 2 2 2 2 2 2 2
left_child=1 3 12 7 -5 6 -6 -1 10 11 -9 -10 13 -3
right_child=-2 2 -4 4 5 -7 -8 8 9 -11 -12 -13 -14 -15
leaf_value=-0.0070601165430815857 1.8036450579422567e-05 -0.012243879197329 -0.00021953643801869994 -0.007323800301598786 0.012564748172283273 -0.005373876876926616 0.045441368366902747 -0.0098552038084632754 0.054675396692393158 -0.0074836277053691447 0.017372734941425733 0.016297471508956871 -0.0019609982749017579 -0.0022972539565216722
leaf_weight=121 209861 599 5739 87 37 23 116 78 29 20 75 26 542 280
leaf_count=121 209861 599 5739 87 37 23 116 78 29 20 75 26 542 280
internal_value=0 -0.000487024 -0.00143856 0.0106453 0.0189176 0.0318892 0.0374908 0.00441153 0.0104996 0.0247953 0.00349182 0.0365331 -0.00636184 -0.00907544
internal_weight=0 7772 7160 612 263 176 153 349 228 75 153 55 1421 879
internal_count=217633 7772 7160 612 263 176 153 349 228 75 153 55 1421 879
shrinkage=0.15


Tree=199
num_leaves=15
num_cat=0
split_feature=5 20 0 0 14 23 0 11 34 1 22 34 0 14
split_gain=0.0855002 0.508594 7.14362 3.01729 2.52332 4.83699 3.05833 2.63477 2.70256 1.83718 2.29421 1.47031 1.59269 1.3862
threshold=1.0554350000000002e-05 5.0965200000000008 4.4992300000000016 5.009195000000001 0.00017734350000000003 -9.713144999999999 7.9373400000000007 3.0275450000000005e-05 0.012341700000000002 4.5227450000000013 0.71795400000000009 0.015787600000000002 10.777050000000001 0.0086666100000000017
decision_type=2 2 2 2 2 2 2 2 2 2 2 2 2 2
left_child=1 3 -3 -1 11 6 9 8 -7 10 13 12 -4 -6
right_child=-2 2 4 -5 5 7 -8 -9 -10 -11 -12 -13 -14 -15
leaf_value=0.00082055130438895771 -4.4340055274662755e-05 -0.0018342559867525231 0.012825139757872073 -0.0025870111176186021 0.030954068254266262 -0.00099963249879843558 -0.0070522588397313769 -0.001566542357441335 0.021399446805721267 -0.00047537665419180745 -0.010044219042417049 -0.0013530347685676283 -0.0011451660608757508 -0.0039613078322468529
leaf_weight=21174 178035 6652 466 8077 488 199 82 694 310 63 36 1027 303 27
leaf_count=21174 178035 6652 466 8077 488 199 82 694 310 63 36 1027 303 27
internal_value=0 0.000199356 0.00110322 -0.00012037 0.00639147 0.0102035 0.0201563 0.00444532 0.0126422 0.02379 0.0265645 0.00236078 0.00732058 0.0291236
internal_weight=0 39598 10347 29251 3695 1899 696 1203 509 614 551 1796 769 515
internal_count=217633 39598 10347 29251 3695 1899 696 1203 509 614 551 1796 769 515
shrinkage=0.15


Tree=200
num_leaves=15
num_cat=0
split_feature=15 35 19 36 3 23 23 3 30 15 35 15 15 19
split_gain=0.0650282 5.53795 3.17382 8.82407 5.29403 3.61907 3.02266 2.86851 2.49312 2.56562 2.40855 6.853 3.58468 3.13333
threshold=2.8393450000000005e-07 0.0009352220000000002 2.4128850000000005e-05 0.00029320500000000005 -6.9170499999999988 -6.789509999999999 -16.434549999999998 -16.875299999999999 0.00043040000000000005 1.1005450000000001e-05 0.00025164450000000009 -1.2475049999999999e-08 2.5422500000000005e-08 6.8051000000000003e-05
decision_type=2 2 2 2 2 2 2 2 2 2 2 2 2 2
left_child=10 8 3 -3 5 6 7 -5 -2 -10 12 13 -1 -12
right_child=1 2 -4 4 -6 -7 -8 -9 9 -11 11 -13 -14 -15
leaf_value=0.0010438940236340215 -0.00017225902876969425 -0.0022086742948255484 0.0010508002320547079 0.048766090929508212 0.0025946342433408277 -0.0038820662924614409 0.024433762577260567 -0.0065811396909203485 -0.0042732973455231844 -0.00068756852438173926 -0.0033094409149451351 0.0017883903733340136 -0.0013505281126618151 -0.00068552597318573413
leaf_weight=69832 29466 1665 17531 25 758 145 970 134 8656 9328 16550 18100 17617 26856
leaf_count=69832 29466 1665 17531 25 758 145 970 134 8656 9328 16550 18100 17617 26856
internal_value=0 -0.000120753 0.00189307 0.00588705 0.0125206 0.0184263 0.0212914 0.00212126 -0.00102169 -0.00241344 5.56751e-05 -0.000663543 0.000561527 -0.00168598
internal_weight=0 68678 21228 3697 2032 1274 1129 159 47450 17984 148955 61506 87449 43406
internal_count=217633 68678 21228 3697 2032 1274 1129 159 47450 17984 148955 61506 87449 43406
shrinkage=0.15


Tree=201
num_leaves=15
num_cat=0
split_feature=35 15 15 15 23 11 0 31 26 24 26 17 11 38
split_gain=0.0750321 2.94437 1.04643 2.05519 1.23506 2.22566 1.85506 3.99138 2.33935 1.79662 1.24227 1.52007 1.30827 3.05556
threshold=-0.038512399999999995 2.1137100000000002e-07 -5.5362349999999989e-07 -2.1304699999999996e-05 -12.104349999999998 -0.00012009049999999999 7.2016400000000003 -0.63583249999999991 0.00091209800000000018 0.55006150000000009 0.0021032350000000006 5.943890000000001e-06 -2.8224349999999997e-05 -0.0071731349999999998
decision_type=2 2 2 2 2 2 2 2 2 2 2 2 2 2
left_child=1 2 3 -1 5 9 10 8 -8 -5 11 12 13 -6
right_child=-2 -3 -4 4 6 -7 7 -9 -10 -11 -12 -13 -14 -15
leaf_value=0.00016208948908112903 -2.4536393664924948e-05 -0.0026424042468692482 0.00038662074474780391 -0.0065704835335385391 0.03386421974575049 0.00061693658538498452 0.0032998432875431783 -0.002020859556089299 0.045460862348071958 0.04554707697915665 -7.0407340037356188e-05 -0.0011501225509011862 0.0077354510838447913 -0.0013144714746579349
leaf_weight=2307 201959 5104 5782 22 168 974 39 107 123 46 405 197 317 83
leaf_count=2307 201959 5104 5782 22 168 974 39 107 123 46 405 197 317 83
internal_value=0 0.000316151 0.00174477 0.00338487 0.00638162 0.00244867 0.00922952 0.0204615 0.035311 0.0286855 0.00664713 0.0102035 0.0141412 0.0222314
internal_weight=0 15674 10570 4788 2481 1042 1439 269 162 68 1170 765 568 251
internal_count=217633 15674 10570 4788 2481 1042 1439 269 162 68 1170 765 568 251
shrinkage=0.15


Tree=202
num_leaves=15
num_cat=0
split_feature=2 22 22 3 23 23 19 23 3 19 22 2 3 21
split_gain=0.0717819 2.43144 1.44817 1.01837 3.71994 2.19569 1.67973 1.11444 0.757156 0.948659 0.721862 0.727372 0.765579 0.669681
threshold=-2.8697349999999995 -2.8252699999999993 -1.4705199999999998 -9.812249999999997 -9.7541349999999998 -10.067599999999999 0.00034012450000000003 -16.170749999999995 -6.7842149999999988 4.5448750000000008e-05 -2.9625949999999994 -2.9945099999999996 -7.8930599999999993 -0.75947199999999992
decision_type=2 2 2 2 2 2 2 2 2 2 2 2 2 2
left_child=1 3 13 4 6 -5 7 -1 9 10 11 12 -7 -3
right_child=-2 2 -4 5 -6 8 -8 -9 -10 -11 -12 -13 -14 -15
leaf_value=0.0079478192478418357 1.6578180553308825e-05 -0.005903788806931461 -9.6459396699752304e-05 -0.014176171632425393 -0.011579429187187202 0.0093056728265115182 -0.0093109475481989133 0.043187036854880199 -1.6127842978951949e-05 -0.0095476811098503967 0.035377061159278335 -0.0035509024281054737 0.040382894056458625 0.0097644417820674789
leaf_weight=25 209861 1498 5598 108 71 42 21 105 94 27 52 36 31 64
leaf_count=25 209861 1498 5598 108 71 42 21 105 94 27 52 36 31 64
internal_value=0 -0.000447647 -0.00122331 0.00862715 0.0167372 0.00401065 0.0300517 0.0364103 0.0109758 0.0164718 0.0208353 0.0138979 0.0225028 -0.00526181
internal_weight=0 7772 7160 612 222 390 151 130 282 188 161 109 73 1562
internal_count=217633 7772 7160 612 222 390 151 130 282 188 161 109 73 1562
shrinkage=0.15


Tree=203
num_leaves=15
num_cat=0
split_feature=23 3 31 11 23 0 3 31 0 11 3 26 39 22
split_gain=0.0698413 0.439989 0.765199 1.11161 1.06722 0.904547 0.74104 0.722202 1.21702 1.18079 0.700677 0.692812 0.614967 0.510392
threshold=-17.743599999999997 -17.304849999999998 0.18765600000000002 -8.5217949999999993e-05 -17.896049999999999 -0.5738764999999999 -12.418249999999999 -0.22301549999999995 1.4045800000000002 0.00015314200000000002 -18.015749999999997 -6.5012099999999987e-05 0.00095358200000000002 -0.20827799999999999
decision_type=2 2 2 2 2 2 2 2 2 2 2 2 2 2
left_child=1 2 3 -1 7 -4 12 8 -5 10 11 -9 -3 -10
right_child=-2 6 5 4 -6 -7 -8 9 13 -11 -12 -13 -14 -15
leaf_value=-0.0077574579039128948 -2.2162057186990073e-05 -0.003956145992342017 0.0087070894968443707 -0.010896741955904673 0.045933059826493268 -0.013635353186583281 0.00068343493271947968 0.055008184583857651 -0.00046577547298511487 -0.012533320328628177 0.005626047410381336 0.023195072629058094 0.0010645765981423339 0.029572539265625111
leaf_weight=77 203772 1584 72 73 20 94 10898 20 20 25 36 67 840 35
leaf_count=77 203772 1584 72 73 20 94 10898 20 20 25 36 67 840 35
internal_value=0 0.000325807 0.00452732 0.00829768 0.0124742 -0.00394466 0.000155816 0.0100496 0.00179892 0.0171854 0.0232258 0.0305084 -0.00221629 0.0186495
internal_weight=0 13861 539 373 296 166 13322 276 128 148 123 87 2424 55
internal_count=217633 13861 539 373 296 166 13322 276 128 148 123 87 2424 55
shrinkage=0.15


Tree=204
num_leaves=15
num_cat=0
split_feature=19 33 34 3 6 33 3 3 30 6 23 23 23 33
split_gain=0.0591988 5.84674 3.03735 3.26668 2.47315 6.17546 2.68712 2.38216 3.39905 2.97196 2.18909 2.07569 2.03474 1.95289
threshold=3.3531450000000002e-07 -4.7009049999999996e-07 0.072606550000000006 -6.2768299999999995 6.1107950000000011e-08 1.0242850000000001e-06 -10.662649999999998 -6.4680349999999995 0.0006190735000000001 -5.5575449999999991e-08 -10.580249999999998 -10.016399999999999 -6.3743849999999993 3.6796100000000005e-07
decision_type=2 2 2 2 2 2 2 2 2 2 2 2 2 2
left_child=1 7 3 4 6 -6 11 8 9 -1 -8 -3 -12 -2
right_child=13 2 -4 -5 5 -7 10 -9 -10 -11 12 -13 -14 -15
leaf_value=0.0051325136718657878 -0.00054968011871475524 -0.0088698280593564657 0.00046032701385470223 -8.5489098028354715e-05 0.045090900357955918 -0.0053140791403091534 -0.00063367229150654476 -1.3517551043309698e-05 0.00011803727030635311 -0.01023790732452865 -0.0091231739654478138 0.0014474876320667088 -0.00019379607462587334 0.0004799232407457147
leaf_weight=9228 84347 568 10613 5814 78 183 1100 10703 6067 292 4555 1928 657 81500
leaf_count=9228 84347 568 10613 5814 78 183 1100 10703 6067 292 4555 1928 657 81500
internal_value=0 0.000140002 -0.00147846 -0.00286099 -0.00464033 0.00974948 -0.00506673 0.00170958 0.00289276 0.00466107 -0.00671426 -0.000900363 -0.00799758 -4.37157e-05
internal_weight=0 51786 25496 14883 9069 261 8808 26290 15587 9520 6312 2496 5212 165847
internal_count=217633 51786 25496 14883 9069 261 8808 26290 15587 9520 6312 2496 5212 165847
shrinkage=0.15


Tree=205
num_leaves=15
num_cat=0
split_feature=33 13 30 3 2 22 25 0 23 3 23 21 6 12
split_gain=0.0793187 0.850538 2.41595 4.5547 2.01782 2.07837 1.80645 1.42247 0.783376 0.865533 1.22172 1.23318 0.727713 0.716292
threshold=3.0197100000000003e-05 -5.8507799999999996e-05 0.00100376 -14.087399999999997 -0.63008449999999983 -0.59692849999999986 0.22580650000000002 2.9426650000000003 -13.412199999999999 -13.980049999999999 -17.603099999999994 5.4316850000000008 -1.6065799999999998e-07 0.00022451800000000002
decision_type=2 2 2 2 2 2 2 2 2 2 2 2 2 2
left_child=-1 2 3 4 7 -6 -7 -2 9 10 -4 13 -3 -12
right_child=1 12 8 -5 5 6 -8 -9 -10 -11 11 -13 -14 -15
leaf_value=3.3267354029326747e-05 0.033628350737340308 0.00039024661740071488 -0.0034348762038374139 -0.0044666082166908636 -0.022528220570114044 0.0083858073555165887 0.054055609764825353 0.079744899852408305 -0.0043241660951313342 -0.0016647744076430148 0.029221269951466358 -0.015816200724137679 -0.0012440104633050361 0.0045009188074618574
leaf_weight=191754 34 11959 93 140 21 40 38 27 493 292 107 21 12579 35
leaf_count=191754 34 11959 93 140 21 40 38 27 493 292 107 21 12579 35
internal_value=0 -0.000246499 0.00343199 0.015292 0.0325808 0.0193581 0.0306352 0.0540406 1.41175e-05 0.00391699 0.0102837 0.0181108 -0.000447528 0.0231282
internal_weight=0 25879 1341 300 160 99 78 61 1041 548 256 163 24538 142
internal_count=217633 25879 1341 300 160 99 78 61 1041 548 256 163 24538 142
shrinkage=0.15


Tree=206
num_leaves=15
num_cat=0
split_feature=29 9 9 3 14 3 11 3 14 34 7 20 16 29
split_gain=0.0597341 6.87106 5.50775 2.03911 3.18121 1.89898 2.97484 1.85483 2.68749 2.17034 2.14644 1.77537 1.71504 1.77103
threshold=-0.0012149099999999998 2.7889200000000007e-06 4.1662750000000002e-06 -6.572074999999999 0.0052402850000000008 -6.6541099999999984 0.00015314200000000002 -6.2498799999999992 0.0034191400000000006 0.4780195000000001 4.9763350000000009e-05 9.8638550000000009 -7.7223649999999984e-06 -0.00056885699999999998
decision_type=2 2 2 2 2 2 2 2 2 2 2 2 2 2
left_child=1 7 -2 4 12 6 -3 8 9 10 11 -1 -4 -14
right_child=2 5 3 -5 -6 -7 -8 -9 -10 -11 -12 -13 13 -15
leaf_value=-0.0053301495789959113 0.0010147210773893457 0.0026041094751173507 0.0013236171276144459 0.00039893163009187071 0.00015918367834125605 -0.00027027285373296144 -0.00042190844704003674 0.00030500108733728465 -0.00035466515133361252 0.00031153192508090731 -0.0010662222587945794 -0.00048277187124414161 0.0028675397261462552 -0.0034449592039784427
leaf_weight=11146 63267 25708 2138 15143 13581 14905 10214 12241 16503 3974 5519 2006 1052 20236
leaf_count=11146 63267 25708 2138 15143 13581 14905 10214 12241 16503 3974 5519 2006 1052 20236
internal_value=0 -8.35056e-05 7.39545e-05 -0.00106736 -0.00166735 0.0011531 0.0017437 -0.00130659 -0.00181051 -0.00287148 -0.00354897 -0.00459081 -0.00272627 -0.00313301
internal_weight=0 102216 115417 52150 37007 50827 35922 51389 39148 22645 18671 13152 23426 21288
internal_count=217633 102216 115417 52150 37007 50827 35922 51389 39148 22645 18671 13152 23426 21288
shrinkage=0.15


Tree=207
num_leaves=15
num_cat=0
split_feature=33 13 30 3 16 35 25 17 23 10 22 1 12 23
split_gain=0.0676976 0.604999 1.72913 3.26502 1.33665 1.26046 1.77743 0.880211 0.563738 0.671544 1.86399 2.5966 1.11706 0.591089
threshold=3.0197100000000003e-05 -5.8507799999999996e-05 0.00100376 -14.087399999999997 -1.6649099999999996e-05 -0.00093154099999999981 0.34272350000000001 6.0539600000000006e-05 -13.412199999999999 3.9260100000000007e-05 -0.66738199999999981 -3.0565249999999993 -0.00017765449999999997 -16.042949999999994
decision_type=2 2 2 2 2 2 2 2 2 2 2 2 2 2
left_child=-1 2 3 4 -2 6 -6 -7 9 10 11 -4 -12 -14
right_child=1 -3 8 -5 5 7 -8 -9 -10 -11 12 -13 13 -15
leaf_value=3.0733850538211799e-05 -0.0015930160823888306 -0.00039727349380057087 0.050625772259967484 -0.0038207264113381302 -0.01826642716769129 0.052680730327630224 0.042743464728648012 0.017485901340842245 -0.0036970278938270444 -0.00097384434078280299 -0.015219879580124209 -0.012029576042286036 0.00033600428234785792 0.024973428595023085
leaf_weight=191754 29 24538 46 140 21 67 22 21 493 330 61 22 50 39
leaf_count=191754 29 24538 46 140 21 67 22 21 493 330 61 22 50 39
internal_value=0 -0.000227727 0.00287469 0.0129082 0.0275461 0.0339967 0.0129479 0.044282 -1.68273e-05 0.00329401 0.00975452 0.0303549 0.000415675 0.0111322
internal_weight=0 25879 1341 300 160 131 43 88 1041 548 218 68 150 89
internal_count=217633 25879 1341 300 160 131 43 88 1041 548 218 68 150 89
shrinkage=0.15


Tree=208
num_leaves=15
num_cat=0
split_feature=29 11 4 4 14 4 4 4 35 35 4 26 1 23
split_gain=0.0665332 2.16574 1.16129 2.07063 0.996691 0.964095 1.1472 0.964081 5.36558 2.62859 4.3025 2.11557 2.89034 1.97066
threshold=0.019933650000000004 -2.1263299999999997e-05 -1.3153099999999998 1.5436950000000003 0.00027515900000000003 -2.0449499999999996 1.6545300000000001 0.21114250000000004 -0.0051024699999999987 -0.0054261899999999983 -0.18357799999999999 0.00014330150000000001 -6.1608199999999984 -15.479399999999998
decision_type=2 2 2 2 2 2 2 2 2 2 2 2 2 2
left_child=-1 2 -2 7 -3 -6 -7 9 13 -4 11 12 -11 -9
right_child=1 4 3 -5 5 6 -8 8 -10 10 -12 -13 -14 -15
leaf_value=-3.4498943319549082e-05 -0.00088811219100858431 0.00045048138637116865 -0.0011549711741517723 -0.00072974162975286661 0.0011967968804272226 -0.0032274162599518152 0.00053302286141383888 2.0031070095453278e-05 -0.0024403004169949523 0.039110252752557008 0.00012117924665726911 0.017508494572206573 -0.006091323368443171 0.018010678960102694
leaf_weight=185531 2426 9988 1721 2482 2260 7026 2466 166 700 38 1068 781 196 784
leaf_count=185531 2426 9988 1721 2482 2260 7026 2466 166 700 38 1068 781 196 784
internal_value=0 0.000199384 0.00198397 0.00286195 -0.000651206 -0.00158753 -0.00225046 0.00449645 0.00752454 0.003183 0.00676709 0.01376 0.0012491 0.014867
internal_weight=0 32102 10362 7936 21740 11752 9492 5454 1650 3804 2083 1015 234 950
internal_count=217633 32102 10362 7936 21740 11752 9492 5454 1650 3804 2083 1015 234 950
shrinkage=0.15


Tree=209
num_leaves=15
num_cat=0
split_feature=19 33 34 3 3 3 30 23 22 2 2 33 23 14
split_gain=0.0662507 4.16796 2.63664 2.45133 2.53574 1.9613 2.36219 2.09671 1.95619 4.06132 3.74835 1.46848 1.42268 1.45902
threshold=3.3531450000000002e-07 2.4838450000000008e-07 0.043039550000000003 -6.1381299999999994 -10.010399999999999 -6.5460449999999986 0.00089861750000000005 -6.6317949999999994 -2.8863399999999997 -2.8697349999999995 -2.8476049999999993 4.8296750000000013e-07 -9.2917499999999986 0.00019721000000000002
decision_type=2 2 2 2 2 2 2 2 2 2 2 2 2 2
left_child=1 5 3 4 -3 6 7 8 10 -10 -1 -2 13 -6
right_child=11 2 -4 -5 12 -7 -8 -9 9 -11 -12 -13 -14 -15
leaf_value=0.015713825240932604 -0.0004815570824987636 -0.00052538671896031747 0.00020419047035075716 -5.7643384081686577e-05 0.0017430471124924229 -7.4500397222337876e-05 -0.00026981931151489464 -0.0016991729185084493 -0.0073577577346895847 0.0059257356627813902 -0.0088541018362745232 0.00041141484951805554 -0.0080474409839213171 -0.0084412129220810522
leaf_weight=185 84999 2341 12703 4235 797 11593 4857 1414 552 8377 571 80848 3636 525
leaf_count=185 84999 2341 12703 4235 797 11593 4857 1414 552 8377 571 80848 3636 525
internal_value=0 0.000148106 -0.00128659 -0.00292847 -0.00459417 0.00141032 0.00248913 0.00369647 0.00448423 0.00510454 -0.00284211 -4.62463e-05 -0.00651531 -0.00230138
internal_weight=0 51786 24237 11534 7299 27549 15956 11099 9685 8929 756 165847 4958 1322
internal_count=217633 51786 24237 11534 7299 27549 15956 11099 9685 8929 756 165847 4958 1322
shrinkage=0.15


Tree=210
num_leaves=15
num_cat=0
split_feature=33 19 19 3 13 10 23 21 2 21 12 11 23 12
split_gain=0.0830339 0.44068 0.700968 0.99729 0.642523 1.17703 2.43116 2.03978 4.3586 1.57689 3.2456 0.880165 1.58885 0.737305
threshold=3.0197100000000003e-05 4.2206300000000004e-07 0.0023004300000000004 -9.5587649999999993 -3.292609999999999e-05 3.2833100000000009e-05 -13.010249999999997 -3.5985549999999997 -0.53906949999999998 2.2931300000000006 7.4266700000000005e-05 5.181150000000001e-05 -16.434549999999998 -0.00021519049999999996
decision_type=2 2 2 2 2 2 2 2 2 2 2 2 2 2
left_child=-1 -2 3 -3 5 6 7 8 13 11 -11 -9 -13 -4
right_child=1 2 4 -5 -6 -7 -8 9 -10 10 -12 12 -14 -15
leaf_value=3.4037546606065877e-05 0.00087130630809444847 -0.0033688068891187537 0.030668775429512605 -0.00042167892231698839 -0.00025163711744562774 -0.00044803843117904304 -0.0041862727714188667 -0.0092849378216717585 -0.012105249583800421 -0.011998645738289081 0.031045228299662105 -0.0089301444669465779 0.03294158937458537 0.054126186595347361
leaf_weight=191754 6026 3624 64 8998 5358 1024 285 133 47 58 123 44 38 57
leaf_count=191754 6026 3624 64 8998 5358 1024 285 133 47 58 123 44 38 57
internal_value=0 -0.000252206 -0.000593227 -0.00126785 0.000584358 0.00297585 0.00710549 0.0128114 0.026661 0.00693586 0.0172522 -0.00174904 0.0104738 0.041719
internal_weight=0 25879 19853 12622 7231 1873 849 564 168 396 181 215 82 121
internal_count=217633 25879 19853 12622 7231 1873 849 564 168 396 181 215 82 121
shrinkage=0.15


Tree=211
num_leaves=15
num_cat=0
split_feature=27 12 32 19 29 21 10 13 22 9 22 15 20 16
split_gain=0.0667684 0.318386 1.07603 2.48805 5.82963 3.06781 3.85755 2.0888 5.66998 5.71598 5.8315 3.05402 3.12445 2.23222
threshold=0.59074950000000015 7.8630800000000013e-05 -0.051405849999999996 6.4664700000000011e-07 0.00058380900000000013 2.8817050000000006 3.7312300000000012e-05 -3.6029199999999995e-06 1.6050450000000003 -2.4582649999999997e-05 2.4928950000000003 3.8287600000000005e-07 -4.3202599999999993 2.7652050000000001e-06
decision_type=2 2 2 2 2 2 2 2 2 2 2 2 2 2
left_child=1 -1 3 4 5 -3 -7 8 -5 -10 11 12 -11 -14
right_child=-2 2 -4 7 -6 6 -8 -9 9 10 -12 -13 13 -15
leaf_value=-0.00021897333877948902 9.3007564713529627e-05 -0.011353653291178703 -9.4586605414898856e-05 -0.0041285155012431417 -0.0070354751803484578 0.030292143820767507 2.470652893181949e-05 -0.0012802460303421458 0.00036705264666738011 -0.0033298497934204836 -0.01804541229242598 -0.0028792120512285877 0.041904230967902384 -0.0037307659663313709
leaf_weight=89393 96590 68 25507 829 310 373 127 3453 454 45 67 58 333 26
leaf_count=89393 96590 68 25507 829 310 373 127 3453 454 45 67 58 333 26
internal_value=0 -7.42183e-05 0.000334631 0.00211683 0.00950918 0.0185388 0.0226042 0.000884073 0.00500846 0.012714 0.0233105 0.0293079 0.0339289 0.0385992
internal_weight=0 121043 31650 6143 878 568 500 5265 1812 983 529 462 404 359
internal_count=217633 121043 31650 6143 878 568 500 5265 1812 983 529 462 404 359
shrinkage=0.15


Tree=212
num_leaves=15
num_cat=0
split_feature=22 2 2 3 11 23 3 3 23 2 22 22 34 6
split_gain=0.066014 13.8503 5.96392 4.73307 10.1729 7.90831 7.5725 4.70813 3.8216 3.28982 5.66237 2.42496 2.34018 2.19045
threshold=2.1073400000000002 2.1084950000000005 1.4836100000000003 -6.4132949999999989 -6.4919299999999987e-05 -12.603149999999998 -12.348199999999997 -12.831349999999999 -15.369399999999997 2.1084950000000005 1.5383100000000003 3.1180850000000002 0.063411150000000013 -8.1766949999999984e-08
decision_type=2 2 2 2 2 2 2 2 2 2 2 2 2 2
left_child=9 2 -2 4 12 6 8 -7 -6 -1 -11 -9 -3 -14
right_child=1 3 -4 -5 5 7 -8 11 -10 10 -12 -13 13 -15
leaf_value=0.00023176509035124215 -0.00040477575204593617 -0.0023586575852175481 -0.0070091419082028376 -0.00078821333572031565 -0.0056165611398007178 -0.014636815703561295 -0.00878265291264212 0.023437800610708142 0.054410321071743963 -0.00079571348398602517 -0.0077048284760543378 -0.016462444577898298 0.00032520454396067663 0.013057965081500873
leaf_weight=155611 24659 1254 3515 1499 35 80 431 1647 75 24581 2994 35 591 626
leaf_count=155611 24659 1254 3515 1499 35 80 431 1647 75 24581 2994 35 591 626
internal_value=0 0.00019051 -0.00122874 0.0065648 0.00887359 0.0160459 0.000182756 0.0209165 0.0353109 -3.58242e-05 -0.00154588 0.0226075 0.00218888 0.00687468
internal_weight=0 34447 28174 6273 4774 2303 541 1762 110 183186 27575 1682 2471 1217
internal_count=217633 34447 28174 6273 4774 2303 541 1762 110 183186 27575 1682 2471 1217
shrinkage=0.15


Tree=213
num_leaves=15
num_cat=0
split_feature=22 2 11 3 33 22 2 2 11 33 34 22 14 34
split_gain=0.0622135 4.02364 2.5946 4.78739 4.31883 2.61807 30.0236 25.9501 3.59302 4.63729 2.42194 2.13106 2.0758 1.83224
threshold=1.5746600000000002 1.5773200000000003 -5.1252949999999995e-05 -6.6541099999999984 2.2511800000000004e-05 2.3818600000000001 2.3859450000000004 2.3859450000000004 -2.8224349999999997e-05 7.0810000000000013e-06 0.0025067000000000002 3.0909850000000003 0.0016871300000000002 0.15558450000000004
decision_type=2 2 2 2 2 2 2 2 2 2 2 2 2 2
left_child=-1 -2 -3 4 5 7 -7 8 9 -4 -10 13 -11 -8
right_child=1 2 3 -5 -6 6 11 -9 10 12 -12 -13 -14 -15
leaf_value=-4.5679476115919477e-05 -0.00065348994555765707 -0.00013604104854335702 -0.0038030459332457733 -0.00032537032338242653 -0.0016095683846921824 -0.013771477347587194 0.028508600494413075 -0.016374860524951376 -0.0090922924002285951 0.048009894405667844 0.027132278876082574 -0.0040424897591583428 0.010962449279170306 0.003003146211647064
leaf_weight=164324 38869 5912 233 3482 1059 938 777 522 43 74 1213 55 63 69
leaf_count=164324 38869 5912 233 3482 1059 938 777 522 43 74 1213 55 63 69
internal_value=0 0.000140806 0.00227886 0.00395298 0.00690526 0.00916691 0.00501273 0.0127235 0.022065 0.00907367 0.0258921 0.0245683 0.0309735 0.0264284
internal_weight=0 53309 14440 8528 5046 3987 1839 2148 1626 370 1256 901 137 846
internal_count=217633 53309 14440 8528 5046 3987 1839 2148 1626 370 1256 901 137 846
shrinkage=0.15


Tree=214
num_leaves=15
num_cat=0
split_feature=23 14 14 13 7 20 9 1 13 31 22 22 1 7
split_gain=0.0866856 0.32509 0.230018 0.143473 0.192589 0.252789 0.383844 0.230714 0.216978 0.225143 0.214466 0.466939 0.856368 0.975593
threshold=-17.743599999999997 0.0011649500000000003 8.584265e-05 9.0003600000000014e-05 3.5613200000000007e-05 8.3930550000000022 3.2350000000000007e-05 -3.7755899999999998 -6.782749999999998e-05 -0.37467199999999995 -2.0082049999999998 -1.4969799999999998 -4.9060199999999989 2.6525600000000002e-05
decision_type=2 2 2 2 2 2 2 2 2 2 2 2 2 2
left_child=1 2 -1 4 7 -6 -7 10 -9 -10 -3 12 -12 -14
right_child=-2 3 -4 -5 5 6 -8 8 9 -11 11 -13 13 -15
leaf_value=-0.00023966845510584728 -2.4690361036034672e-05 -0.0081639914725883493 0.0015786032991349523 0.00030913853033025978 -0.00053466559381367101 -0.000882797607305661 0.022639292281948858 -0.018049816408194603 -0.0082792623355152969 -0.0021946766392519587 -0.012583015391137452 -0.0009557166267028552 0.049216358838602897 0.0039181590105568905
leaf_weight=2233 203772 64 5236 3104 2021 37 27 25 187 510 20 354 20 23
leaf_count=2233 203772 64 5236 3104 2021 37 27 25 187 510 20 354 20 23
internal_value=0 0.000362976 0.001035 -0.000422275 -0.00111276 -0.000240749 0.00904058 -0.0026241 -0.0043196 -0.00382713 -7.9074e-05 0.00116178 0.0130601 0.0249871
internal_weight=0 13861 7469 6392 3288 2085 64 1203 722 697 481 417 63 43
internal_count=217633 13861 7469 6392 3288 2085 64 1203 722 697 481 417 63 43
shrinkage=0.15


Tree=215
num_leaves=15
num_cat=0
split_feature=31 11 14 19 4 4 23 13 2 11 23 0 0 34
split_gain=0.0783266 1.67075 1.0461 1.05593 0.736482 1.33737 0.894124 0.836369 0.860215 0.975254 1.48999 1.65984 1.55649 1.03609
threshold=0.29777100000000006 -2.5478749999999997e-05 0.00054376850000000009 0.00020665250000000002 -2.0449499999999996 1.5436950000000003 -17.487949999999994 -5.144389999999999e-05 -2.9487299999999999 -8.9669799999999986e-05 -10.364449999999998 -7.6489999999999991 -6.1586299999999996 0.24604000000000004
decision_type=2 2 2 2 2 2 2 2 2 2 2 2 2 2
left_child=-1 4 -3 -4 -2 6 -6 -8 -9 10 11 -10 -12 -13
right_child=1 2 3 -5 5 -7 7 8 9 -11 12 13 -14 -15
leaf_value=-3.3790966248469603e-05 -0.00073322863722094782 0.00045843126150950825 -0.0041864084981275201 -0.00059974921967317961 -0.00090250923033773393 -0.00043391335013353763 -0.0021263883370689161 -0.0016600748584748525 -0.0069486229085928891 0.005098896759289648 0.019570812203552727 0.046133297962528144 -0.0041461190172268816 0.01826878579991276
leaf_weight=190738 1725 10385 2777 5514 657 2034 330 318 56 2441 90 33 202 333
leaf_count=190738 1725 10385 2777 5514 657 2034 330 318 56 2441 90 33 202 333
internal_value=0 0.000239644 -0.000544649 -0.00180107 0.00202179 0.0027536 0.00420728 0.00509004 0.00577574 0.00652521 0.0114015 0.0171014 0.00316389 0.0207812
internal_weight=0 26895 18676 8291 8219 6494 4460 3803 3473 3155 714 422 292 366
internal_count=217633 26895 18676 8291 8219 6494 4460 3803 3473 3155 714 422 292 366
shrinkage=0.15


Tree=216
num_leaves=15
num_cat=0
split_feature=18 33 13 37 4 25 29 21 13 14 13 24 4 24
split_gain=0.0762806 0.229343 0.322494 0.290505 0.392555 0.268685 0.199608 0.191734 0.478479 0.175509 0.272836 0.152195 0.435023 1.24334
threshold=0.00022380850000000002 6.027510000000001e-07 -3.1817149999999993e-06 9.5974100000000018e-07 1.6545300000000001 19.327100000000005 -0.29014749999999995 -15.528799999999999 8.0484950000000009e-05 0.026764650000000004 0.00056167200000000015 0.16540050000000003 0.79323650000000001 0.35887100000000005
decision_type=2 2 2 2 2 2 2 2 2 2 2 2 2 2
left_child=-1 2 3 6 5 -5 -2 8 -4 -10 -11 -3 13 -13
right_child=1 11 7 4 -6 -7 -8 -9 9 10 -12 12 -14 -15
leaf_value=-4.1018349145668478e-05 0.016787324001250617 4.8040142543025453e-05 0.024794831709936262 -0.020956897975778894 0.00040159159322152022 0.00018470273353159429 0.0024354450762407724 0.00026295666894411907 -0.0085439256492203901 0.019487704834734488 -0.0022580618241644355 -0.0042112622180138712 -0.0012002006432939299 0.031049762410111724
leaf_weight=179366 22 13837 25 38 212 21 2451 17268 28 21 34 60 4214 36
leaf_count=179366 22 13837 25 38 212 21 2451 17268 28 21 34 60 4214 36
internal_value=0 0.000192262 0.000541009 0.00205221 -0.00261013 -0.0134319 0.00256312 0.000302362 0.00660286 0.00112335 0.00604487 -0.000194401 -0.000972745 0.00901162
internal_weight=0 38267 20120 2744 271 59 2473 17376 108 83 55 18147 4310 96
internal_count=217633 38267 20120 2744 271 59 2473 17376 108 83 55 18147 4310 96
shrinkage=0.15


Tree=217
num_leaves=15
num_cat=0
split_feature=2 22 28 19 3 19 22 3 22 2 33 9 34 6
split_gain=0.086931 3.1278 2.52301 5.0738 3.11196 2.15892 26.0784 7.49931 3.67009 2.94436 3.55042 4.61036 2.4126 2.13726
threshold=1.1736800000000003 1.1415700000000002 0.0021118650000000005 1.1283150000000002e-05 -6.2187599999999987 9.6074000000000005e-06 1.7323450000000002 -6.0020699999999989 1.7323450000000002 1.7604800000000003 1.6792800000000003e-06 7.7866400000000002e-07 0.78160050000000014 4.4390200000000005e-07
decision_type=2 2 2 2 2 2 2 2 2 2 2 2 2 2
left_child=-1 2 -2 4 -4 6 7 12 9 10 -7 -12 -3 -10
right_child=1 5 3 -5 -6 8 -8 -9 13 -11 11 -13 -14 -15
leaf_value=6.3932858728609743e-05 -0.00025259187388428718 0.026261258126201056 -0.014861696099190379 -0.0013885672077232388 -0.0019767566964661231 0.00013031607855130373 -0.0052730651622839566 -0.00045025681600037367 -0.00065007336804296571 -0.0046125886057568144 0.048400532386811641 0.0012900661656771047 0.0017751882403120231 0.0032751194943319464
leaf_weight=149597 34869 1189 1147 8536 667 781 2487 347 4833 4082 87 101 98 8812
leaf_count=149597 34869 1189 1147 8536 667 781 2487 347 4833 4082 87 101 98 8812
internal_value=0 -0.000140575 -0.000863029 -0.00291958 -0.010124 0.00129119 0.00439899 0.0191202 0.000606166 -0.00284808 0.00458506 0.0230912 0.0243967 0.00188483
internal_weight=0 68036 45219 10350 1814 22817 4121 1634 18696 5051 969 188 1287 13645
internal_count=217633 68036 45219 10350 1814 22817 4121 1634 18696 5051 969 188 1287 13645
shrinkage=0.15


Tree=218
num_leaves=15
num_cat=0
split_feature=6 33 33 13 3 30 18 4 33 14 3 33 33 30
split_gain=0.104059 2.35651 2.03676 1.59359 3.14576 2.79639 2.23638 2.6122 1.64821 1.81989 1.25999 1.86107 1.28447 1.21678
threshold=1.8610000000000003e-07 1.0000000180025095e-35 1.3458700000000004e-07 5.7140750000000009e-06 -6.2498799999999992 0.0017770600000000002 -2.3753749999999996e-05 0.49798950000000003 -2.0893199999999995e-05 0.00062385550000000004 -10.848199999999999 -8.0543949999999983e-06 -8.5104649999999985e-06 0.0024130000000000006
decision_type=2 2 2 2 2 2 2 2 2 2 2 2 2 2
left_child=2 3 -1 4 5 6 -2 8 9 -8 11 -10 -12 -3
right_child=1 13 -4 -5 -6 -7 7 -9 10 -11 12 -13 -14 -15
leaf_value=0.00070433876976467105 0.0001021071456633238 0.00095104195297109929 -0.00055643406446204493 0.00037885357032063519 0.00062546691710513574 0.00053134862748920964 0.0024530625273299508 0.0016186139729896353 -0.009070925408962139 -0.0083503604139916893 -0.0031230086332766686 -0.00046536645395503864 -0.0076600350360977679 -0.00088532939659533212
leaf_weight=59903 3348 42013 55580 16196 11209 5404 1229 1536 788 491 1829 2002 6042 10063
leaf_count=59903 3348 42013 55580 16196 11209 5404 1229 1536 788 491 1829 2002 6042 10063
internal_value=0 -0.000110283 9.75503e-05 -0.000844999 -0.00143008 -0.00244648 -0.00337855 -0.00421589 -0.00493972 -0.000630938 -0.00563488 -0.0028959 -0.00660576 0.000596187
internal_weight=0 102150 115483 50074 33878 22669 17265 13917 12381 1720 10661 2790 7871 52076
internal_count=217633 102150 115483 50074 33878 22669 17265 13917 12381 1720 10661 2790 7871 52076
shrinkage=0.15


Tree=219
num_leaves=15
num_cat=0
split_feature=6 22 12 28 11 3 13 23 3 15 34 18 37 3
split_gain=0.0751825 1.2936 1.89726 1.30732 5.06358 3.32657 5.32946 3.05834 3.05709 2.22078 2.23265 2.25647 2.57983 2.11502
threshold=1.8610000000000003e-07 -1.5441099999999996 2.0701100000000001e-05 -0.00021948899999999999 7.4354550000000015e-07 -6.0822949999999993 2.0952450000000005e-06 -17.075499999999995 -16.875299999999999 -1.0003699999999999e-05 0.61610000000000009 6.3858800000000013e-05 -9.5293849999999991e-07 -17.068099999999998
decision_type=2 2 2 2 2 2 2 2 2 2 2 2 2 2
left_child=-1 2 -2 4 -3 6 7 8 -6 -9 11 13 -13 -11
right_child=1 3 -4 -5 5 -7 -8 9 -10 10 -12 12 -14 -15
leaf_value=8.2917747579921693e-05 -0.0022118244832661448 -0.0011726557854507026 0.00044447893630810434 -0.00023273285572851155 0.031794060431420801 -0.001564738639141601 -0.0003526121433236916 -0.0047774279381179816 -0.0069454712721556209 -0.010933954367273136 -0.00033498827144452738 0.045924900196816609 -0.0060383194445180885 0.010173632531537314
leaf_weight=115483 13746 12146 10806 51424 50 2849 3838 318 550 109 641 23 329 5321
leaf_count=115483 13746 12146 10806 51424 50 2849 3838 318 550 109 641 23 329 5321
internal_value=0 -9.37405e-05 -0.00104271 0.000206514 0.0010695 0.00301085 0.00417696 0.00654509 -0.00371718 0.00745851 0.00806431 0.00899546 -0.002643 0.00974993
internal_weight=0 102150 24552 77598 26174 14028 11179 7341 600 6741 6423 5782 352 5430
internal_count=217633 102150 24552 77598 26174 14028 11179 7341 600 6741 6423 5782 352 5430
shrinkage=0.15


Tree=220
num_leaves=15
num_cat=0
split_feature=23 3 14 3 33 19 17 29 15 31 26 18 17 33
split_gain=0.0968398 0.277748 0.864127 0.205803 0.431844 0.560059 0.453991 0.812738 0.628654 0.64217 0.587505 0.561389 0.479505 0.45135
threshold=-17.743599999999997 -6.0822949999999993 0.0006614075000000002 -17.304849999999998 3.7937600000000008e-05 0.0014480250000000001 8.7191600000000017e-06 0.012281500000000002 -2.5777549999999996e-08 -0.43700099999999992 8.7755250000000007e-05 -3.6458549999999993e-05 9.2200700000000016e-08 1.1166800000000001e-05
decision_type=2 2 2 2 2 2 2 2 2 2 2 2 2 2
left_child=1 2 -1 4 6 -6 7 8 10 -10 12 -11 -4 -8
right_child=-2 -3 3 -5 5 -7 13 -9 9 11 -12 -13 -14 -15
leaf_value=0.0025641550386291201 -2.6096411816869247e-05 -0.00089995781587994558 0.0045670641028361086 -0.00047339254121258711 -0.014561312990686432 0.0035466936515623948 -0.0082005935905138296 -0.006395754715633869 -0.011753518326440825 -0.00068268179679044372 0.042654938153922552 0.023504645775072278 0.033088046791298051 0.012468564705076544
leaf_weight=3788 203772 2978 36 6556 66 92 85 61 32 38 25 50 21 33
leaf_count=3788 203772 2978 36 6556 66 92 85 61 32 38 25 50 21 33
internal_value=0 0.000383646 0.000734889 -0.000241751 0.00257576 -0.00401741 0.00530994 0.00877823 0.0133605 0.00644315 0.0234834 0.0130601 0.0150748 -0.00242024
internal_weight=0 13861 10883 7095 539 158 381 263 202 120 82 88 57 118
internal_count=217633 13861 10883 7095 539 158 381 263 202 120 82 88 57 118
shrinkage=0.15


Tree=221
num_leaves=15
num_cat=0
split_feature=34 3 19 23 23 34 13 23 3 3 29 13 2 12
split_gain=0.0799358 0.218325 0.416286 0.225857 0.195372 0.267284 0.277421 0.191391 0.214829 0.173021 0.139355 0.177832 0.894103 0.146046
threshold=0.68351300000000015 -6.0545599999999995 9.8134050000000006e-08 -12.363649999999998 -8.732154999999997 8.0500650000000018 1.2836100000000002e-05 -6.9313999999999991 -7.0757599999999989 -7.0077899999999991 0.047482600000000007 4.521010000000001e-05 -2.3232449999999996 -0.00011532249999999999
decision_type=2 2 2 2 2 2 2 2 2 2 2 2 2 2
left_child=-1 2 3 10 -3 -6 -7 9 -9 -5 13 -12 -13 -2
right_child=1 4 -4 7 5 6 -8 8 -10 -11 11 12 -14 -15
leaf_value=-3.5212655235752762e-05 -0.003298707377697769 -0.00094054893388459578 0.00017341503691659677 -0.0015688319568742776 0.00082375055610965154 0.0031162884513539595 0.025775783408316783 0.0082507347576514199 -0.0038230844977078958 0.0024478640068960715 0.003741040928444646 0.036057869361146633 0.00064263987598747426 0.0024302398550198698
leaf_weight=189240 109 5023 19017 772 854 31 20 126 45 351 740 23 53 1229
leaf_count=189240 109 5023 19017 772 854 31 20 126 45 351 740 23 53 1229
internal_value=0 0.000234693 0.00044836 0.00196479 -0.000575029 0.00145371 0.0120024 0.000398467 0.00507341 -0.000313391 0.00290574 0.00445069 0.0113604 0.00196353
internal_weight=0 28393 22465 3448 5928 905 51 1294 171 1123 2154 816 76 1338
internal_count=217633 28393 22465 3448 5928 905 51 1294 171 1123 2154 816 76 1338
shrinkage=0.15


Tree=222
num_leaves=15
num_cat=0
split_feature=8 27 3 36 21 7 20 27 3 23 3 23 23 13
split_gain=0.0781011 0.117026 0.128251 0.200725 0.109705 0.496005 0.228369 0.0995835 0.275011 0.874881 0.950478 4.14461 2.96891 1.98281
threshold=-3.3579299999999992e-05 0.30710450000000006 -13.697799999999999 0.00017859100000000003 13.390900000000002 6.1340800000000021e-05 -9.4357099999999985 0.5092905000000002 -10.010399999999999 -10.016399999999999 -14.087399999999997 -13.750649999999998 -13.750649999999998 8.3693450000000004e-05
decision_type=2 2 2 2 2 2 2 2 2 2 2 2 2 2
left_child=1 2 3 -1 -3 -6 -7 -2 9 10 12 -12 -9 -13
right_child=7 4 -4 -5 5 6 -8 8 -10 -11 11 13 -14 -15
leaf_value=0.00039274141502877074 -0.00012158571804846343 -6.0331386868486196e-05 0.00094705267705611895 0.020219134974031473 0.022447542590089142 0.012464062394186232 -0.0029885013369905966 0.0021356205622493261 0.0002760584635628065 -0.00092639689669178475 -0.0018242375241883603 0.0058525857481486893 -0.0044711056594401296 -0.00021968812633801099
leaf_weight=27 106788 7097 3920 20 27 27 106 3288 63213 19494 4896 4161 2863 1706
leaf_count=27 106788 7097 3920 20 27 27 106 3288 63213 19494 4896 4161 2863 1706
internal_value=0 0.000385343 0.00104044 0.0088295 2.72372e-05 0.00391145 0.000148485 -2.0954e-05 8.69174e-05 -0.000241477 0.000547919 0.00139797 -0.000939498 0.0040869
internal_weight=0 11224 3967 47 7257 160 133 206409 99621 36408 16914 10763 6151 5867
internal_count=217633 11224 3967 47 7257 160 133 206409 99621 36408 16914 10763 6151 5867
shrinkage=0.15


Tree=223
num_leaves=15
num_cat=0
split_feature=18 23 8 4 3 23 23 30 22 29 9 15 16 11
split_gain=0.0865539 0.135251 0.193233 0.149698 0.16468 0.637019 0.794482 0.599913 0.545987 0.869614 2.04145 0.657761 0.582591 0.646681
threshold=0.00022380850000000002 -6.0395599999999989 1.0676100000000003e-05 -1.5283549999999997 -17.729749999999996 -9.5416749999999979 -17.297799999999995 0.017708500000000005 -2.2408699999999997 -0.0061838599999999994 5.5016300000000012e-06 7.0051050000000008e-07 2.9115650000000008e-07 -2.0005449999999997e-05
decision_type=2 2 2 2 2 2 2 2 2 2 2 2 2 2
left_child=1 3 -3 -1 5 6 7 8 -5 10 -10 12 13 -11
right_child=-2 2 -4 4 -6 -7 -8 -9 9 11 -12 -13 -14 -15
leaf_value=0.00022606497386116331 0.00020480005612000607 0.0016593403770698895 -0.00083078276494518029 -0.014099435079842805 -0.00010800397403127822 0.0013821159521667378 -0.0060488724052161378 -0.016369644738733768 -0.023225069522029823 0.026191181959485277 0.020301135284402833 -0.0042585110799832774 0.039047128489861881 0.00088761134895982887
leaf_weight=33063 38267 2314 1006 30 140790 997 884 33 54 47 44 33 27 44
leaf_count=33063 38267 2314 1006 30 140790 997 884 33 54 47 44 33 27 44
internal_value=0 -4.36933e-05 0.000904803 -6.15807e-05 -0.000128095 -0.00141794 -0.0037521 0.00275544 0.00501755 0.0073208 -0.00368269 0.0144621 0.0196976 0.0139565
internal_weight=0 179366 3320 176046 142983 2193 1196 312 279 249 98 151 118 91
internal_count=217633 179366 3320 176046 142983 2193 1196 312 279 249 98 151 118 91
shrinkage=0.15


Tree=224
num_leaves=15
num_cat=0
split_feature=14 30 23 7 7 26 8 6 33 23 14 4 18 36
split_gain=0.0669491 0.296386 0.338189 0.306506 0.233955 0.251861 0.232502 0.175314 0.616254 0.491129 0.686087 0.584551 0.394914 0.310461
threshold=7.8716300000000004e-05 0.00010288300000000001 -6.0751199999999992 2.8568150000000002e-05 5.4398700000000005e-05 9.6682850000000012e-05 -1.6634549999999998e-05 3.1482450000000008e-06 1.4107600000000003e-06 -7.1806249999999991 4.5548950000000011e-05 -0.068773549999999989 -5.1309499999999994e-08 -0.00015397549999999997
decision_type=2 2 2 2 2 2 2 2 2 2 2 2 2 2
left_child=1 2 4 -4 5 7 -5 -1 -9 -10 -11 -12 13 -13
right_child=-2 -3 3 6 -6 -7 -8 8 9 10 11 12 -14 -15
leaf_value=-0.0028647224062115341 -3.5039248610496855e-05 0.00036829019152104047 0.016652030594414099 0.012825713334374692 0.00033219283425419072 -0.016283224623683572 -0.0007102292243001538 -0.0037264441054244879 -0.0023843709456680181 -0.0022442043375432569 8.4952203126574327e-06 0.010148282109626702 0.0031828724201080727 0.03133932206779718
leaf_weight=1702 184845 28677 40 36 1298 28 138 494 148 82 42 21 22 60
leaf_count=1702 184845 28677 40 36 1298 28 138 494 148 82 42 21 22 60
internal_value=0 0.000197537 -0.000993585 0.00481213 -0.0013124 -0.00213375 0.00209031 -0.00197965 -0.00024617 0.00433851 0.00872171 0.0149231 0.0210048 0.0258453
internal_weight=0 32788 4111 214 3897 2599 174 2571 869 375 227 145 103 81
internal_count=217633 32788 4111 214 3897 2599 174 2571 869 375 227 145 103 81
shrinkage=0.15


Tree=225
num_leaves=15
num_cat=0
split_feature=18 33 4 37 13 36 12 13 37 4 0 36 4 25
split_gain=0.0663684 0.138841 0.196902 0.360304 0.181179 0.212085 0.342959 0.177828 0.226491 0.332195 0.234826 0.220467 0.332689 0.205602
threshold=0.00022380850000000002 7.3721900000000005e-06 0.67000000000000015 -6.4388999999999992e-07 -2.3689349999999998e-06 0.34984250000000006 0.00012235900000000003 4.7605950000000003e-06 9.5974100000000018e-07 1.6545300000000001 3.6530250000000004 -0.11869199999999998 2.7640900000000004 54.164200000000008
decision_type=2 2 2 2 2 2 2 2 2 2 2 2 2 2
left_child=-1 7 3 -3 5 -4 -7 8 11 10 -10 12 -2 -9
right_child=1 2 4 -5 -6 6 -8 13 9 -11 -12 -13 -14 -15
leaf_value=-3.8260586106981501e-05 0.026399156466359274 0.023913352098315955 -0.0024214787944808326 0.0013551753860982982 -0.00010856015138113747 -0.0030772091446643959 0.01753519040057654 0.00013905449988686991 -0.016947794835924956 4.6038267237434725e-05 0.0021777477016439659 0.00139386310835794 0.0012516822198261346 0.0042133436499093378
leaf_weight=179366 20 21 1288 66 8450 42 32 23677 52 229 20 4059 29 282
leaf_count=179366 20 21 1288 66 8450 42 32 23677 52 229 20 4059 29 282
internal_value=0 0.000179336 -0.000304343 0.00680025 -0.000367337 -0.00197282 0.00583626 0.000348116 0.00122358 -0.00274813 -0.0116351 0.0015146 0.011516 0.000187009
internal_weight=0 38267 9899 87 9812 1362 74 28368 4409 301 72 4108 49 23959
internal_count=217633 38267 9899 87 9812 1362 74 28368 4409 301 72 4108 49 23959
shrinkage=0.15


Tree=226
num_leaves=15
num_cat=0
split_feature=20 0 5 14 22 2 2 23 14 11 23 0 34 23
split_gain=0.062197 1.88947 1.52139 1.15979 1.10425 8.63803 2.81389 1.61226 1.02166 0.873703 0.762924 0.763476 1.97953 0.661724
threshold=-9.7539799999999968 -8.8447699999999987 1.6990800000000003e-05 5.0930000000000009e-05 2.7283200000000005 2.7053050000000005 2.7325550000000005 -7.1436399999999987 0.00045556800000000005 -7.0053649999999991e-06 -8.5490249999999985 -7.5330149999999998 0.20298200000000002 -8.770274999999998
decision_type=2 2 2 2 2 2 2 2 2 2 2 2 2 2
left_child=1 2 3 -1 6 -6 13 -7 9 10 11 12 -3 -5
right_child=-2 8 -4 4 5 7 -8 -9 -10 -11 -12 -13 -14 -15
leaf_value=0.0013253417378239517 -2.2304836590866933e-05 0.046702407621261141 -0.00021229940808968018 -0.00096500403504416515 -0.0085625325166412431 0.066208014003932475 -0.012066251152819649 0.032099470990942791 0.00063822858287113169 -0.0010489956682375806 -0.0079872474689414129 -0.0040917240966889803 -0.0048909248304963423 0.015266838881412862
leaf_weight=420 202004 27 938 66 126 55 130 72 8368 4004 833 153 44 393
leaf_count=420 202004 27 938 66 126 55 130 72 8368 4004 833 153 44 393
internal_value=0 0.000288289 0.00436309 0.00776381 0.0109754 0.0192637 0.00741522 0.0468709 -0.000379263 -0.00206161 -0.00589749 0.0018738 0.0147291 0.0129328
internal_weight=0 15629 2200 1262 842 253 589 127 13429 5061 1057 224 71 459
internal_count=217633 15629 2200 1262 842 253 589 127 13429 5061 1057 224 71 459
shrinkage=0.15


Tree=227
num_leaves=15
num_cat=0
split_feature=38 17 18 22 35 7 18 8 11 29 1 25 11 1
split_gain=0.0605911 0.220822 0.252109 0.65035 0.26344 0.363093 0.262899 0.318894 0.360368 0.290898 0.794872 0.498815 0.385526 0.656433
threshold=0.089395300000000025 4.7377400000000004e-07 -0.0007942559999999998 2.1073400000000002 -1.5833449999999998 4.521670000000001e-05 -4.3947199999999993e-06 -9.4732199999999991e-06 -0.00014050199999999998 -0.13556649999999998 -7.0907149999999985 26.434800000000003 6.4657950000000013e-05 -3.3198799999999999
decision_type=2 2 2 2 2 2 2 2 2 2 2 2 2 2
left_child=-1 -2 3 4 -3 -6 7 -4 -9 10 -10 12 -12 -14
right_child=1 2 6 -5 5 -7 -8 8 9 -11 11 -13 13 -15
leaf_value=-1.6543044261547993e-05 0.0010340921881580342 -0.014578960057614103 -0.0077682408797325195 0.025165502346935684 0.018353661698071438 -0.00058788472450478884 -5.9907311004482869e-05 0.015696093913478155 0.021353939629625528 -0.0052248181527019284 -0.0020170101194905681 -0.0088515614095070454 0.036194638218730688 0.00034057720978226925
leaf_weight=208523 5096 21 234 30 29 106 2995 27 39 303 69 114 20 27
leaf_count=208523 5096 21 234 30 29 106 2995 27 39 303 69 114 20 27
internal_value=0 0.000378661 -0.000453445 0.0049395 0.00104989 0.00348104 -0.000715485 -0.00307257 -0.00123821 -0.00203755 0.00155257 -0.00180506 0.00511995 0.0155976
internal_weight=0 9110 4014 186 156 135 3828 833 599 572 269 230 116 47
internal_count=217633 9110 4014 186 156 135 3828 833 599 572 269 230 116 47
shrinkage=0.15


Tree=228
num_leaves=15
num_cat=0
split_feature=23 3 3 23 14 14 23 34 3 3 23 23 3 3
split_gain=0.0618635 0.529579 1.65839 4.44152 2.33735 1.64585 3.96798 1.84031 1.4606 1.39779 2.65889 1.88546 5.61863 3.31756
threshold=-7.3218799999999993 -6.6541099999999984 -7.3420999999999994 -6.789509999999999 0.00070374100000000013 0.00034297200000000004 -6.9496149999999988 0.025459200000000005 -7.5458749999999988 -6.8364449999999986 -6.9313999999999991 -7.1436399999999987 -7.0077899999999991 -7.1376749999999989
decision_type=2 2 2 2 2 2 2 2 2 2 2 2 2 2
left_child=-1 2 5 4 9 6 7 -2 -9 11 -11 12 -4 -13
right_child=1 -3 3 -5 -6 -7 -8 8 -10 10 -12 13 -14 -15
leaf_value=-4.5377063874346956e-05 -0.01304578197107787 -0.00057535060008455808 0.02994603696836429 -0.0011446644861080688 -0.00085477115584469668 0.00048716970039226716 0.00019089935134159841 -0.0052469859295610983 0.018450831216744033 -0.0051363528782556655 0.018014204446334649 -0.0045411756497303968 -0.0056862378129503566 0.014308834613300859
leaf_weight=164631 947 16148 351 2899 588 26779 3313 295 73 318 172 305 139 675
leaf_count=164631 947 16148 351 2899 588 26779 3313 295 73 318 172 305 139 675
internal_value=0 0.000140947 0.000454801 0.00287097 0.00743978 3.57583e-05 -0.00257624 -0.00954776 -0.00054606 0.00992814 0.00298997 0.0122409 0.0198381 0.00844225
internal_weight=0 53002 36854 5447 2548 31407 4628 1315 368 1960 490 1470 490 980
internal_count=217633 53002 36854 5447 2548 31407 4628 1315 368 1960 490 1470 490 980
shrinkage=0.15


Tree=229
num_leaves=15
num_cat=0
split_feature=7 35 35 37 10 26 24 26 13 39 37 27 24 20
split_gain=0.0583472 0.120548 0.161407 0.575199 0.124368 0.115585 0.134244 0.280401 0.305374 0.319348 0.223335 0.274538 0.521104 0.174515
threshold=1.8518350000000002e-05 0.048600050000000006 0.017883000000000003 -1.5480999999999998e-06 1.4113800000000002e-05 0.00016793800000000002 -0.18946849999999998 6.8017800000000011e-05 -7.3465499999999991e-06 1.7989500000000005e-05 -2.7697449999999994e-07 0.47329000000000004 -0.34095399999999992 2.8588350000000005
decision_type=2 2 2 2 2 2 2 2 2 2 2 2 2 2
left_child=1 2 5 -4 -5 6 7 13 -9 -10 11 -11 -13 -1
right_child=-2 -3 3 4 -6 -7 -8 8 9 10 -12 12 -14 -15
leaf_value=-0.0073197787477280382 -8.5103262665836115e-06 -0.0033192720856653991 0.028940639431987488 -0.0042561687391505319 0.0083964727347283132 -0.0021762451203248129 0.00055731935472650329 0.021305736201715521 0.02026642472516799 -0.003473303415064168 -0.0018176764224630756 -0.0008521033362485468 0.028942837315948312 0.0052010214101755993
leaf_weight=67 215051 157 21 44 29 273 1705 28 26 28 111 25 28 40
leaf_count=67 215051 157 21 44 29 273 1705 28 26 28 111 25 28 40
internal_value=0 0.000708813 0.0009696 0.00706361 0.000770223 0.000723853 0.00110856 0.00377106 0.00655923 0.00466518 0.00255251 0.00854129 0.0148886 -0.00263911
internal_weight=0 2582 2425 94 73 2331 2058 353 246 218 192 81 53 107
internal_count=217633 2582 2425 94 73 2331 2058 353 246 218 192 81 53 107
shrinkage=0.15


Tree=230
num_leaves=15
num_cat=0
split_feature=8 32 21 35 34 4 23 35 5 30 16 22 4 6
split_gain=0.0618841 0.137399 0.111811 0.22806 0.0913161 0.166841 0.0796353 0.0754604 0.14539 0.344669 0.287365 0.481374 0.513518 0.219408
threshold=-4.3026899999999993e-05 -0.11234649999999999 14.019350000000001 0.012436350000000002 0.029268250000000003 -0.094637399999999997 -6.4159099999999993 -0.038512399999999995 8.1383150000000024e-06 0.0052944750000000007 -3.5728349999999993e-08 0.56816350000000015 -0.056370599999999993 -2.1479449999999997e-07
decision_type=2 2 2 2 2 2 2 2 2 2 2 2 2 2
left_child=1 2 4 -4 5 -1 -3 8 9 10 -2 12 -12 -11
right_child=7 6 3 -5 -6 -7 -8 -9 -10 13 11 -13 -14 -15
leaf_value=0.015942842227595976 0.0010537321428082099 0.00085661827285653898 -0.0013455922323583553 0.017754590499680489 -0.0011969710891707127 -0.00076809130511786103 -0.0010045259672861379 -4.1323026059036098e-05 0.00020974063133625799 0.0039644242488910885 0.04000654577976092 0.00074066277884412559 0.0089767855184618387 -0.0023494024587502288
leaf_weight=20 57 6245 39 22 1683 41 564 193991 14395 239 24 32 24 257
leaf_count=20 57 6245 39 22 1683 41 564 193991 14395 239 24 32 24 257
internal_value=0 0.000394011 -0.000769537 0.005543 -0.000990331 0.0047109 0.000702457 -1.62378e-05 0.000307578 0.00253249 0.00919244 0.0149913 0.0244917 0.000692945
internal_weight=0 8614 1805 61 1744 61 6809 209019 15028 633 137 80 48 496
internal_count=217633 8614 1805 61 1744 61 6809 209019 15028 633 137 80 48 496
shrinkage=0.15


Tree=231
num_leaves=15
num_cat=0
split_feature=23 3 3 14 26 8 12 4 22 15 3 35 35 30
split_gain=0.061549 0.277541 0.348331 0.338549 0.295948 0.268499 0.346532 0.493329 0.272565 0.38195 0.2635 0.551907 0.532364 0.358879
threshold=-17.896049999999999 -12.418249999999999 -6.1920449999999994 0.0013588450000000002 0.00049199200000000002 -7.7981199999999988e-06 -0.00012913199999999998 -0.16343149999999998 -0.78142399999999979 5.9277300000000005e-08 -18.639349999999997 0.0087045100000000021 -0.00071134949999999985 0.0012661550000000004
decision_type=2 2 2 2 2 2 2 2 2 2 2 2 2 2
left_child=1 4 3 -3 10 -6 8 -8 9 -7 11 12 -1 -14
right_child=-2 2 -4 -5 5 6 7 -9 -10 -11 -12 -13 13 -15
leaf_value=-0.0016255155972211123 -2.0106711706014655e-05 0.0020947794398779749 -0.00068500746796523802 6.3894416745840711e-06 -0.0039525343628715251 -0.0032959788269363343 0.027064354433678092 0.0047236751736386027 -0.0034699733827121397 0.026019320099148899 -0.0019334946802472331 -0.018266941853798926 0.010410772494988786 0.034919635432306674
leaf_weight=58 204632 4275 2983 2953 83 20 35 61 92 20 2340 20 41 20
leaf_count=58 204632 4275 2983 2953 83 20 35 61 92 20 2340 20 41 20
internal_value=0 0.000316474 0.000678746 0.00124157 -0.00100939 0.0033523 0.00601152 0.0128687 0.00102446 0.0113617 -0.00155658 0.0047886 0.00866348 0.0184465
internal_weight=0 13001 10211 7228 2790 311 228 96 132 40 2479 139 119 61
internal_count=217633 13001 10211 7228 2790 311 228 96 132 40 2479 139 119 61
shrinkage=0.15


Tree=232
num_leaves=15
num_cat=0
split_feature=14 34 23 3 3 38 3 35 3 15 3 2 20 22
split_gain=0.0581533 0.232105 0.384518 0.688607 0.968603 0.277064 0.33881 0.256493 1.39616 0.243021 0.799992 0.701517 0.717297 0.643278
threshold=7.6990750000000005e-05 0.008249755000000001 -5.9629699999999994 -5.7023449999999993 -5.9751649999999996 -0.00015066749999999998 -5.8866849999999991 0.00035127250000000003 -7.0757599999999989 -9.647814999999997e-09 -6.0020699999999989 -0.17404899999999998 8.7622100000000014 -0.11653899999999999
decision_type=2 2 2 2 2 2 2 2 2 2 2 2 2 2
left_child=1 2 5 4 -4 6 -1 -7 -9 -10 11 13 -13 -11
right_child=-2 -3 3 -5 -6 7 -8 8 9 10 -12 12 -14 -15
leaf_value=-0.027097696750424803 -3.2151850390143541e-05 0.00038165281775825148 -0.0033627843700482375 -0.0022432460545902498 0.038937231841906582 -0.0011129962778278582 -0.00090436312771635121 0.034718516202909604 -0.0025074937546457929 0.01484550296178592 -0.0012163887543739326 0.0070278534311980292 0.040811818701613149 -0.016858157084789126
leaf_weight=20 185703 25924 21 65 29 5092 25 28 320 36 289 26 31 24
leaf_count=20 185703 25924 21 65 29 5092 25 28 320 36 289 26 31 24
internal_value=0 0.000186993 -0.000653226 0.00793696 0.0211712 -0.000820917 -0.0125458 -0.000730664 0.00185135 0.000583745 0.00302019 0.0134849 0.0254016 0.00216404
internal_weight=0 31930 6006 115 50 5891 45 5846 754 726 406 117 57 60
internal_count=217633 31930 6006 115 50 5891 45 5846 754 726 406 117 57 60
shrinkage=0.15


Tree=233
num_leaves=15
num_cat=0
split_feature=23 3 14 23 3 3 34 3 20 11 20 11 23 34
split_gain=0.0613115 1.40705 3.7782 11.7755 7.73338 5.37613 3.76836 3.2075 3.08519 3.49143 2.28444 2.79674 2.27696 2.00969
threshold=-11.298099999999998 -11.392199999999997 0.0016871300000000002 -13.750649999999998 -13.793399999999998 -13.793399999999998 0.19264550000000003 -9.1461449999999989 3.8385900000000004 3.2238500000000007e-05 -3.8589749999999996 -3.3037949999999994e-05 -16.783199999999997 0.24027450000000003
decision_type=2 2 2 2 2 2 2 2 2 2 2 2 2 2
left_child=1 2 3 5 -5 8 -6 -3 10 -10 11 -1 -7 -11
right_child=-2 7 -4 4 6 12 -8 -9 9 13 -12 -13 -14 -15
leaf_value=0.040276061590217675 5.7398135732055866e-05 -0.0027014060197587193 -8.6921337289298206e-05 -0.0142367157501344 0.020652322997417812 -0.0001550346853745894 0.0054397401926251079 9.9353892265602043e-05 -0.0072300096787512305 0.074167210065088293 -0.0041966238109814704 -0.0091926234355196364 -0.01083818467264467 0.022528966057247347
leaf_weight=72 143203 11795 16567 207 1301 808 510 41821 30 43 198 40 1010 28
leaf_count=72 143203 11795 16567 207 1301 808 510 41821 30 43 198 40 1010 28
internal_value=0 -0.000110434 0.000936313 0.00492782 0.0132289 -0.00258748 0.0163683 -0.000516786 0.0129059 0.0356743 0.00548787 0.0226087 -0.00609012 0.0538028
internal_weight=0 74430 20814 4247 2018 2229 1811 53616 411 101 310 112 1818 71
internal_count=217633 74430 20814 4247 2018 2229 1811 53616 411 101 310 112 1818 71
shrinkage=0.15


Tree=234
num_leaves=15
num_cat=0
split_feature=4 33 13 13 23 4 38 14 8 28 21 0 21 14
split_gain=0.0734532 0.453752 0.365277 0.180006 0.102938 0.203583 0.231894 1.40215 0.840052 1.33805 0.913298 0.812712 0.568605 0.476902
threshold=-1.5283549999999997 3.6796100000000005e-07 -1.5278699999999996e-06 -1.5278699999999996e-06 -6.551404999999999 -0.086434449999999982 0.00013970400000000002 0.00016732750000000003 -2.3309349999999995e-06 0.0049008350000000001 1.3748850000000001 10.152250000000002 -12.647699999999999 0.00027515900000000003
decision_type=2 2 2 2 2 2 2 2 2 2 2 2 2 2
left_child=1 2 -1 -3 -2 6 13 8 9 -8 12 -9 -10 -6
right_child=4 3 -4 -5 5 -7 7 11 10 -11 -12 -13 -14 -15
leaf_value=0.0021673775831690906 -7.5325161264372964e-05 -0.001403204192085686 0.00040622912440927013 -0.0001256064683057799 -0.0016204380146269588 -1.1458017832972587e-05 -0.0051262236036649931 -0.0014069904585062682 0.039417155467526756 0.024498301034389519 -0.0065931613626514351 0.023735348585760218 0.017239676402247738 0.0017630280488909449
leaf_weight=3262 164996 3054 14119 13232 1467 13692 127 809 32 47 31 30 139 2596
leaf_count=3262 164996 3054 14119 13232 1467 13692 127 809 32 47 31 30 139 2596
internal_value=0 0.000203705 0.000736755 -0.000365185 -3.72793e-05 0.000293633 0.00108509 0.00290327 0.0105151 0.0028758 0.0170954 -0.00050798 0.0213898 0.000541383
internal_weight=0 33667 17381 16286 183966 18970 5278 1215 376 174 202 839 171 4063
internal_count=217633 33667 17381 16286 183966 18970 5278 1215 376 174 202 839 171 4063
shrinkage=0.15


Tree=235
num_leaves=15
num_cat=0
split_feature=18 38 28 3 10 7 14 4 23 39 34 3 33 10
split_gain=0.0771112 0.128514 0.277861 1.16148 0.683735 0.648543 0.209232 0.42718 3.15587 1.29444 1.32651 1.13412 0.916535 0.777183
threshold=0.00012152750000000001 -0.0006104219999999999 -0.67010049999999988 -15.871649999999999 2.8032150000000006e-05 3.5029600000000008e-05 0.0044395100000000015 0.92173400000000016 -12.223399999999998 8.3359950000000012e-05 4.6183500000000004 -17.304849999999998 -3.1267899999999992e-05 2.0590300000000002e-05
decision_type=2 2 2 2 2 2 2 2 2 2 2 2 2 2
left_child=-1 2 3 -2 5 -5 -4 8 9 -8 11 -11 -10 -13
right_child=1 -3 6 4 -6 -7 7 -9 12 10 -12 13 -14 -15
leaf_value=-4.3475049312052156e-05 0.03877742525988391 0.00034626633491543633 -0.0013579178701322253 0.031136797170172658 -0.0075059358592790715 0.00085237354079897452 0.00011902439995198049 -0.00020675931942170276 -0.026381393956055616 0.0002312856711327068 -0.01466535860672593 0.042024887137889086 -0.0037081263637281318 0.01946072743664826
leaf_weight=175924 21 30164 3218 26 88 41 91 7652 53 31 20 77 165 62
leaf_count=175924 21 30164 3218 26 88 41 91 7652 53 31 20 77 165 62
internal_value=0 0.000183373 -0.000242224 0.0056722 0.00118698 0.0126045 -0.000333783 7.05433e-05 0.00432289 0.0148298 0.0218755 0.0261744 -0.00922043 0.0319603
internal_weight=0 41709 11545 176 155 67 11369 8151 499 281 190 170 218 139
internal_count=217633 41709 11545 176 155 67 11369 8151 499 281 190 170 218 139
shrinkage=0.15


Tree=236
num_leaves=15
num_cat=0
split_feature=23 3 23 3 20 4 18 0 22 1 35 3 20 29
split_gain=0.0730362 0.469882 0.864313 0.901533 0.819071 0.761912 1.00708 0.904374 1.06755 1.00486 0.846772 0.751503 0.704063 1.15248
threshold=-16.783199999999997 -16.559399999999997 -17.896049999999999 -17.729749999999996 -4.3202599999999993 -1.0433649999999999 0.0012447750000000003 -2.9082999999999997 -1.1864199999999998 -1.4802299999999999 0.00051747000000000013 -11.971799999999998 1.1592000000000002 0.0033411900000000004
decision_type=2 2 2 2 2 2 2 2 2 2 2 2 2 2
left_child=1 2 -1 12 -5 -6 7 -7 -9 -10 -11 -3 13 -4
right_child=-2 11 3 4 5 6 -8 8 9 10 -12 -13 -14 -15
leaf_value=0.0001026291076225712 -2.7573566421308493e-05 -0.0018415271566907592 0.030382440477599932 -0.009200838947435841 -0.0053296150195011344 0.0026380115986934728 -0.0028574235022871667 0.05882551720779803 0.00058001763083868549 0.018659252848695306 0.052936891514447429 0.00055906242740962878 -0.010882916165643674 -0.0018732504301523375
leaf_weight=734 197724 3641 36 28 27 28 31 27 27 34 31 15113 71 81
leaf_count=734 197724 3641 36 28 27 28 31 27 27 34 31 15113 71 81
internal_value=0 0.000273844 0.00321026 0.0086283 0.0148634 0.0181502 0.0217118 0.026893 0.0326001 0.0249035 0.035007 9.29994e-05 0.000900785 0.00805158
internal_weight=0 19909 1155 421 233 205 178 147 119 92 65 18754 188 117
internal_count=217633 19909 1155 421 233 205 178 147 119 92 65 18754 188 117
shrinkage=0.15


Tree=237
num_leaves=15
num_cat=0
split_feature=26 9 18 20 15 34 0 3 15 23 3 19 21 29
split_gain=0.0614868 0.244278 1.20682 2.57371 4.44745 2.26181 2.01507 2.83446 1.12019 1.01652 0.87375 0.798581 0.926026 0.35812
threshold=-0.00038688449999999994 3.2350000000000007e-05 1.7089400000000003e-06 4.6422100000000013 1.1005450000000001e-05 0.66201150000000009 6.728695000000001 -6.1661399999999995 3.5999250000000005e-06 -6.7383949999999997 -15.402299999999999 0.00049070750000000001 0.69646600000000014 -0.037801999999999995
decision_type=2 2 2 2 2 2 2 2 2 2 2 2 2 2
left_child=1 -1 -3 13 5 6 -5 9 -7 11 -6 12 -8 -4
right_child=-2 2 3 4 10 8 7 -9 -10 -11 -12 -13 -14 -15
leaf_value=-3.2789765006492887e-05 -2.5433735129607651e-05 -0.000424640934954012 0.0043744248751722298 0.0065807853271630974 0.02244268881419403 -0.0026801229741977295 0.03310881563063179 0.008199641030990858 0.033752090832988163 0.033604004180345398 -0.0032114219406272548 0.089219047752423924 0.075835798144340508 -0.0021953447908612555
leaf_weight=15554 197532 3133 270 37 34 64 21 33 27 26 246 26 25 605
leaf_count=15554 197532 3133 270 37 34 64 21 33 27 26 246 26 25 605
internal_value=0 0.000249937 0.00121706 0.00485459 0.0130083 0.0271754 0.037492 0.0462227 0.00812943 0.0590263 -9.62799e-05 0.0682066 0.05633 -0.000168102
internal_weight=0 20101 4547 1414 539 259 168 131 91 98 280 72 46 875
internal_count=217633 20101 4547 1414 539 259 168 131 91 98 280 72 46 875
shrinkage=0.15


Tree=238
num_leaves=15
num_cat=0
split_feature=4 33 13 13 38 4 4 38 3 23 23 24 31 0
split_gain=0.0637285 0.328138 0.2645 0.130759 0.0958704 1.1963 1.27518 2.43259 2.03864 2.29111 2.04829 1.91767 1.17296 5.71208
threshold=-1.5283549999999997 3.6796100000000005e-07 -1.5278699999999996e-06 -2.3689349999999998e-06 0.0040003800000000004 -0.27873999999999993 -0.68792049999999982 0.075036400000000017 -6.7134699999999992 -6.9496149999999988 -17.896049999999999 -0.739367 0.56088500000000008 -3.1138999999999997
decision_type=2 2 2 2 2 2 2 2 2 2 2 2 2 2
left_child=1 2 -1 -3 -2 6 11 8 10 -10 -8 -6 -12 -14
right_child=4 3 -4 -5 5 -7 7 -9 9 -11 12 -13 13 -15
leaf_value=0.0018604252531518146 -8.1102132908392283e-05 -0.0011837656928579987 0.0003617836648246926 -9.0997637917088182e-05 0.0062639456519780305 -0.00016510483353884134 -0.0039355386799931405 -0.0033919176171186972 -0.0069961157182333407 0.033558686843940186 0.0150959803051001 -0.0047708692651656755 0.025657319609837775 -0.01872670128779096
leaf_weight=3262 155450 3026 14119 13260 562 24677 196 593 300 35 933 959 132 129
leaf_count=3262 155450 3026 14119 13260 562 24677 196 593 300 35 933 959 132 129
internal_value=0 0.000189741 0.000643043 -0.000294038 -3.4724e-05 0.000218099 0.00268132 0.00489582 0.00774488 -0.00275905 0.0102764 -0.000693574 0.0126094 0.00372039
internal_weight=0 33667 17381 16286 183966 28516 3839 2318 1725 335 1390 1521 1194 261
internal_count=217633 33667 17381 16286 183966 28516 3839 2318 1725 335 1390 1521 1194 261
shrinkage=0.15


Tree=239
num_leaves=15
num_cat=0
split_feature=18 3 38 24 5 17 37 9 9 3 18 22 11 31
split_gain=0.0698 0.0984829 0.233715 0.177923 0.753191 0.914505 0.813137 0.599516 0.362481 0.362219 0.581347 1.32928 1.2142 2.20827
threshold=0.00022380850000000002 -6.9170499999999988 -0.032525949999999991 0.65903300000000009 1.0554350000000002e-05 1.2105300000000002e-05 6.278440000000001e-06 -8.5596999999999985e-07 1.7091500000000004e-05 -11.392199999999997 0.0018206300000000004 1.6050450000000003 0.00011291700000000002 -1.9861099999999998
decision_type=2 2 2 2 2 2 2 2 2 2 2 2 2 2
left_child=-1 3 -3 -2 5 6 7 -5 -7 10 11 12 13 -6
right_child=1 2 -4 4 9 8 -8 -9 -10 -11 -12 -13 -14 -15
leaf_value=-3.9237256133628098e-05 7.4031557740753999e-06 -0.0033045943794824217 0.0010895380446507856 0.050445472391752094 -0.023949856584129684 -0.00018508027538928216 0.0036113208532333376 0.01636982150375843 0.021529160783902625 -0.0014928159082928808 0.0004826543899389777 -0.013356204836496284 0.037744938909732309 0.023339865496382117
leaf_weight=179366 31560 290 4474 26 33 128 30 21 20 971 560 42 44 68
leaf_count=179366 31560 290 4474 26 33 128 30 21 20 971 560 42 44 68
internal_value=0 0.000183914 0.000822053 9.31728e-05 0.00148632 0.00964703 0.022905 0.0352202 0.00274928 0.000417546 0.00290076 0.0101422 0.0169486 0.00788877
internal_weight=0 38267 4764 33503 1943 225 77 47 148 1718 747 187 145 101
internal_count=217633 38267 4764 33503 1943 225 77 47 148 1718 747 187 145 101
shrinkage=0.15


Tree=240
num_leaves=15
num_cat=0
split_feature=23 3 14 21 1 1 13 15 3 23 3 20 9 21
split_gain=0.0741278 0.177769 0.427959 0.127263 0.495344 0.721823 0.501933 0.421072 0.151574 0.354582 0.165167 0.308771 1.17392 0.621141
threshold=-17.743599999999997 -6.1122599999999991 0.0006072295000000001 -8.4323949999999979 -2.5391249999999994 -5.5925699999999994 0.00013960900000000004 2.6043850000000002e-06 -19.110799999999998 -19.099349999999998 -12.914449999999997 5.0965200000000008 3.2350000000000007e-05 1.0000000180025095e-35
decision_type=2 2 2 2 2 2 2 2 2 2 2 2 2 2
left_child=1 2 -1 4 5 -4 7 -7 9 -5 11 -10 -13 -14
right_child=-2 -3 3 8 -6 6 -8 -9 10 -11 -12 12 13 -15
leaf_value=0.0019513461867760617 -2.2832027527302274e-05 -0.00068018766928070904 -0.0040609534201476805 0.017676583099562455 -0.00206300184147399 0.016767724583856759 0.0020996387508189812 0.045968258296488783 -0.0017201509497121248 -0.0041502559975593939 0.00030959790381193523 -0.0024210518386184013 0.0070239659273423826 0.039506945479661222
leaf_weight=3617 203772 3029 44 34 167 25 22 20 2278 33 4390 149 26 27
leaf_count=3617 203772 3029 44 34 167 25 22 20 2278 33 4390 149 26 27
internal_value=0 0.000335656 0.000619721 -4.78451e-05 0.00309909 0.0108655 0.0206679 0.0297457 -0.000173958 0.00692605 -0.000243202 -0.00122175 0.00439888 0.0235719
internal_weight=0 13861 10832 7215 278 111 67 45 6937 67 6870 2480 202 53
internal_count=217633 13861 10832 7215 278 111 67 45 6937 67 6870 2480 202 53
shrinkage=0.15


Tree=241
num_leaves=15
num_cat=0
split_feature=14 23 15 35 5 37 18 5 26 4 4 24 14 25
split_gain=0.0612372 0.155392 0.282238 0.509909 0.924921 0.95314 0.366735 0.290117 0.237042 1.71794 1.0325 1.39926 0.63762 0.603465
threshold=9.1523500000000006e-05 -7.1436399999999987 -1.1448849999999999e-07 -0.0003451739999999999 1.1786700000000002e-05 -4.8398199999999999e-08 -2.0120049999999995e-06 2.0445300000000002e-05 5.5839050000000002e-05 0.0092838900000000012 -0.0098646799999999989 1.0000000180025095e-35 5.746225000000001e-05 0.85768600000000006
decision_type=2 2 2 2 2 2 2 2 2 2 2 2 2 2
left_child=1 -1 3 4 5 -3 -6 8 10 13 -4 12 -12 -10
right_child=-2 2 7 -5 6 -7 -8 -9 9 -11 11 -13 -14 -15
leaf_value=0.00033289253195489858 -3.7065475907908003e-05 0.040319292569024993 -0.0048732824570041711 -0.0003560970272641523 0.018046859580408636 0.0052553492661162804 0.0011431007104180468 0.00088037676874600575 0.0064705006924469198 -0.0046078309392043994 -0.0021200581910742664 0.0026325874713747782 -0.013489768064891904 -0.00063033246623370284
leaf_weight=30045 178827 33 1578 864 32 37 296 1877 738 997 263 1430 192 424
leaf_count=30045 178827 33 1578 864 32 37 296 1877 738 997 263 1430 192 424
internal_value=0 0.000170806 -0.000385053 0.00169031 0.00613277 0.0217855 0.00279225 -0.000734314 -0.00127341 -3.98513e-05 -0.00204246 0.000327315 -0.00691783 0.00387949
internal_weight=0 38806 8761 1262 398 70 328 7499 5622 2159 3463 1885 455 1162
internal_count=217633 38806 8761 1262 398 70 328 7499 5622 2159 3463 1885 455 1162
shrinkage=0.15


Tree=242
num_leaves=15
num_cat=0
split_feature=31 11 11 3 23 11 23 3 14 23 3 7 20 0
split_gain=0.0602445 2.8385 2.32399 1.39825 2.8871 2.9882 1.79186 2.654 1.88613 1.73944 2.88276 1.38697 1.52821 1.37286
threshold=-0.012733049999999997 4.160220000000001e-06 4.6417550000000013e-06 -6.9170499999999988 -7.1436399999999987 -0.00011516099999999998 -15.570249999999998 -14.260649999999998 0.0032082450000000006 -6.9868449999999989 -6.1122599999999991 3.3136750000000008e-05 8.9183100000000017 9.2978050000000021
decision_type=2 2 2 2 2 2 2 2 2 2 2 2 2 2
left_child=1 3 -2 4 5 -1 7 -7 -8 -5 -11 12 -3 -14
right_child=2 11 -4 9 -6 6 8 -9 -10 10 -12 -13 13 -15
leaf_value=4.6027577754540327e-07 0.0006653320751581728 0.0030343125390282716 -0.00067585893409352052 0.00081022958287600862 0.0014673412214607985 -0.011644051185598631 -0.0048990337964838109 0.0015749966421503639 -0.00060429930664337018 -0.0098079437765948799 4.9516443379409899e-05 0.00029057659384042591 -0.002455518122153316 0.0097734726282504101
leaf_weight=9654 65777 9310 52090 15861 6244 390 11210 2761 2895 979 2098 36028 2107 229
leaf_count=9654 65777 9310 52090 15861 6244 390 11210 2761 2895 979 2098 36028 2107 229
internal_value=0 -8.57813e-05 7.26077e-05 -0.000851201 -0.00143855 -0.00211281 -0.0032951 -6.1128e-05 -0.00401756 0.000177049 -0.0030868 0.00075057 0.0021736 -0.0012567
internal_weight=0 99766 117867 52092 33154 26910 17256 3151 14105 18938 3077 47674 11646 2336
internal_count=217633 99766 117867 52092 33154 26910 17256 3151 14105 18938 3077 47674 11646 2336
shrinkage=0.15


Tree=243
num_leaves=15
num_cat=0
split_feature=23 3 14 23 3 3 28 3 23 34 27 32 1 3
split_gain=0.0673588 1.05673 2.76835 8.86969 5.48843 4.16067 2.99356 2.60019 2.58079 2.31524 2.13433 1.79188 1.98427 1.75968
threshold=-11.298099999999998 -11.334249999999999 0.0016871300000000002 -13.750649999999998 -13.793399999999998 -13.607149999999999 0.028828300000000005 -10.010399999999999 -14.669299999999998 0.56482550000000009 1.3647950000000002 0.29633800000000005 -2.6537149999999996 -14.818499999999998
decision_type=2 2 2 2 2 2 2 2 2 2 2 2 2 2
left_child=1 2 3 5 -5 8 11 -3 -1 -7 13 -6 -13 -10
right_child=-2 7 -4 4 6 9 -8 -9 10 -11 -12 12 -14 -15
leaf_value=0.003276983829671426 6.0162224409286039e-05 -0.0032888007941314175 -9.589999470321747e-05 -0.011921644101760423 0.017852679360885998 -0.0098475131936870842 -0.0033762806554966068 -8.1917400367116882e-05 -0.0047016779333353045 0.0011966900696074746 -0.016338252096569961 0.020766205548601788 -0.0081270434251428693 0.04429672436114955
leaf_weight=359 143203 6475 16728 207 1442 1113 203 46852 20 693 21 89 134 94
leaf_count=359 143203 6475 16728 207 1442 1113 203 46852 20 693 21 89 134 94
internal_value=0 -0.000115752 0.000782712 0.00414212 0.0112528 -0.00227295 0.0138208 -0.000471299 0.00992549 -0.00560962 0.0276056 0.0159176 0.00340434 0.0357005
internal_weight=0 74430 21103 4375 2075 2300 1868 53327 494 1806 135 1665 223 114
internal_count=217633 74430 21103 4375 2075 2300 1868 53327 494 1806 135 1665 223 114
shrinkage=0.15


Tree=244
num_leaves=15
num_cat=0
split_feature=31 11 3 23 23 23 3 11 4 15 4 35 35 15
split_gain=0.0656597 0.881179 0.57978 0.573774 0.560522 0.833583 0.635833 0.532385 0.480494 0.879922 0.756275 2.84549 1.79 2.08828
threshold=0.29777100000000006 -2.7337399999999997e-05 -10.609449999999997 -12.425899999999999 -10.810799999999999 -16.545699999999997 -16.413199999999996 0.00024476000000000006 -1.3153099999999998 -7.0429099999999998e-06 0.21982700000000002 -0.0082714899999999977 -0.0070021949999999993 3.2989300000000008e-07
decision_type=2 2 2 2 2 2 2 2 2 2 2 2 2 2
left_child=-1 8 4 -4 5 6 -3 -7 -2 -10 12 -12 -11 -14
right_child=1 2 3 -5 -6 7 -8 -9 9 10 11 -13 13 -15
leaf_value=-3.0938243332486303e-05 -0.00046771459589844695 -0.0092786491443810088 0.0011370125322737771 -0.00076547528233248427 0.00012708842298016963 -0.0068848963994555404 0.0019089582257350388 -0.00096882157249322841 0.00013109892077312467 -0.0020611328523620449 0.015112632153784809 -0.0021396940237408003 0.00077475033167724095 0.012324194856619937
leaf_weight=190738 2010 133 6744 7571 1941 1218 813 476 2592 1100 494 381 779 643
leaf_count=190738 2010 133 6744 7571 1941 1218 813 476 2592 1100 494 381 779 643
internal_value=0 0.000219412 -0.000339213 0.000130814 -0.00180798 -0.0032307 0.000336071 -0.00522253 0.00153905 0.00221255 0.00380075 0.00760048 0.00248245 0.00599718
internal_weight=0 26895 18896 14315 4581 2640 946 1694 7999 5989 3397 875 2522 1422
internal_count=217633 26895 18896 14315 4581 2640 946 1694 7999 5989 3397 875 2522 1422
shrinkage=0.15


Tree=245
num_leaves=15
num_cat=0
split_feature=12 21 21 22 19 22 2 19 34 3 3 25 38 15
split_gain=0.0670383 0.363032 0.220602 0.295433 1.62637 4.78284 1.45427 1.1946 1.07167 0.940529 1.14344 0.988138 1.27533 1.461
threshold=0.00018373550000000001 -6.0969499999999988 7.0074550000000011 0.86801550000000016 4.1466950000000005e-05 1.7569500000000002 0.81660350000000015 3.0659200000000006e-05 0.033530350000000007 -18.313249999999996 -10.912299999999998 2.4573400000000003 -0.0030026649999999994 2.2631050000000003e-07
decision_type=2 2 2 2 2 2 2 2 2 2 2 2 2 2
left_child=-1 -2 3 7 5 6 -5 8 -3 -8 11 12 -11 -14
right_child=1 2 -4 4 -6 -7 9 -9 -10 10 -12 -13 13 -15
leaf_value=-3.470111024966765e-05 0.0012194867081527293 0.0016709107273180466 -0.00090972910474499845 -0.015327637485461308 0.00011649833985223985 -0.0024931651661731567 0.003238951555512687 0.0002095989019856624 -0.007776463339937238 0.056135496019580677 -0.0045100468061864372 0.0070504068647726219 0.032570348135665811 -0.0079261171975699447
leaf_weight=185418 6315 401 5322 24 6142 490 47 12360 828 43 25 39 156 23
leaf_count=185418 6315 401 5322 24 6142 490 47 12360 828 43 25 39 156 23
internal_value=0 0.000199727 -4.89131e-05 0.000173716 0.000966227 0.00712802 0.0203336 -0.000233883 -0.00469396 0.0229037 0.0261354 0.0290708 0.0329392 0.0273669
internal_weight=0 32215 25900 20578 6989 847 357 13589 1229 333 286 261 222 179
internal_count=217633 32215 25900 20578 6989 847 357 13589 1229 333 286 261 222 179
shrinkage=0.15


Tree=246
num_leaves=15
num_cat=0
split_feature=4 33 13 26 4 18 38 4 33 20 9 9 23 3
split_gain=0.0628992 0.269639 0.223966 0.206297 0.43017 0.130167 1.66713 0.622693 2.65248 1.73513 1.41056 0.891315 0.829327 2.31742
threshold=-1.2236799999999997 3.6796100000000005e-07 1.1899350000000002e-06 0.074756100000000006 -2.8332999999999999 -1.4113149999999997e-05 -0.00032418199999999995 0.04726410000000001 1.8042700000000003e-05 2.5523700000000002 2.8849300000000005e-05 2.7133900000000005e-05 -10.618199999999998 -10.010399999999999
decision_type=2 2 2 2 2 2 2 2 2 2 2 2 2 2
left_child=1 2 -1 -3 -5 6 7 12 -9 11 -11 -10 13 -2
right_child=5 3 -4 4 -6 -7 -8 8 9 10 -12 -13 -14 -15
leaf_value=0.0016275108071905917 -0.0072417732027086163 -0.00027082618888285516 0.00032024629580342754 -0.0019011522085003723 0.025177317682590166 1.1547282715977695e-05 0.00051201954212034477 -0.0039592549747045173 0.020998642896302044 0.011244377660332249 0.061728218147023159 -0.015448613691394431 -0.00070905424777529375 0.0002568917407203307
leaf_weight=3668 2198 17493 15038 33 22 159060 15199 307 36 20 33 26 2896 1604
leaf_count=3668 2198 17493 15038 33 22 159060 15199 307 36 20 33 26 2896 1604
internal_value=0 0.000180371 0.000576584 -0.000241988 0.00893024 -3.60525e-05 -0.00037528 -0.00226939 0.00331923 0.0227496 0.0426777 0.00571431 -0.0026215 -0.00407821
internal_weight=0 36254 18706 17548 55 181379 22319 7120 422 115 53 62 6698 3802
internal_count=217633 36254 18706 17548 55 181379 22319 7120 422 115 53 62 6698 3802
shrinkage=0.15


Tree=247
num_leaves=15
num_cat=0
split_feature=31 11 7 14 19 33 0 0 20 20 14 25 22 2
split_gain=0.0565954 0.630156 0.444182 0.428914 0.647427 0.457907 0.415894 0.408658 0.657329 0.654538 0.700368 0.79051 1.13691 1.57618
threshold=0.29777100000000006 -2.5478749999999997e-05 3.8055500000000009e-05 0.00054376850000000009 0.00023529050000000001 1.9383450000000008e-06 1.0413800000000002 -2.5255249999999996 -2.4468249999999996 -3.0760849999999995 0.0044395100000000015 3.3813650000000006 -2.8587899999999995 -2.8476049999999993
decision_type=2 2 2 2 2 2 2 2 2 2 2 2 2 2
left_child=-1 2 7 6 5 -5 -3 9 -9 10 11 12 -2 -14
right_child=1 3 -4 4 -6 -7 -8 8 -10 -11 -12 -13 13 -15
leaf_value=-2.8723452183430706e-05 -0.0027267681154751638 -0.00067037156802871554 0.0005351939885832696 -0.0047548434229537058 -0.00012084115022125555 -0.00095664945578662866 0.0012351804062844336 -0.0048229575107982857 0.0093148218797725023 -0.00030043056099181894 0.001515608298735626 0.0039275032929546464 -0.010814713804886977 0.020167507088693096
leaf_weight=190738 87 4746 5558 1470 5432 1389 5639 312 97 657 646 513 42 307
leaf_count=190738 87 4746 5558 1470 5432 1389 5639 312 97 657 646 513 42 307
internal_value=0 0.000203705 0.0012982 -0.000277962 -0.00108248 -0.00290955 0.000364333 0.00289187 -0.00146999 0.00368405 0.00532531 0.00791864 0.0126146 0.016439
internal_weight=0 26895 8219 18676 8291 2859 10385 2661 409 2252 1595 949 436 349
internal_count=217633 26895 8219 18676 8291 2859 10385 2661 409 2252 1595 949 436 349
shrinkage=0.15


Tree=248
num_leaves=15
num_cat=0
split_feature=4 33 13 25 3 36 4 37 13 26 4 10 23 3
split_gain=0.057524 0.194172 0.391845 0.142372 0.749388 0.269192 0.576517 0.142061 0.127611 0.119774 0.959825 2.8352 2.65778 4.02206
threshold=1.5436950000000003 6.027510000000001e-07 -8.8161699999999983e-06 67.50160000000001 -14.949199999999999 1.9835850000000002 3.2156650000000004 3.6249250000000003e-06 -2.3689349999999998e-06 -0.00015504449999999997 0.12285950000000001 2.4118650000000003e-05 -10.428949999999999 -10.344549999999998
decision_type=2 2 2 2 2 2 2 2 2 2 2 2 2 2
left_child=9 2 7 -4 -5 6 -6 -2 -3 10 -1 -12 13 -13
right_child=1 8 3 4 5 -7 -8 -9 -10 -11 11 12 -14 -15
leaf_value=-0.00022735513583963641 0.0024331395645033086 -0.0011289406435152482 0.00017491798870816237 0.031801638999022538 0.023439170499332248 -0.0055982209745215608 -0.002672946542756668 -0.0024082804835416026 -9.2915031463578732e-06 -8.746923994352406e-05 -0.0021523534587166888 0.0090313732420479621 0.0072238778987333057 -0.005559284212158502
leaf_weight=23009 2573 2743 15322 20 30 74 52 144 13880 152794 2595 668 2560 1169
leaf_count=23009 2573 2743 15322 20 30 74 52 144 13880 152794 2595 668 2560 1169
internal_value=0 0.000176648 0.000514945 0.000223644 0.0044656 0.000960984 0.00688027 0.00217655 -0.000194047 -3.36665e-05 0.000240349 0.00177945 0.0040999 -0.000253591
internal_weight=0 34838 18215 15498 176 156 82 2717 16623 182795 30001 6992 4397 1837
internal_count=217633 34838 18215 15498 176 156 82 2717 16623 182795 30001 6992 4397 1837
shrinkage=0.15


Tree=249
num_leaves=15
num_cat=0
split_feature=2 21 33 32 29 2 3 12 30 32 33 0 33 8
split_gain=0.0592862 0.662282 1.2371 0.81071 0.869278 1.56713 1.47548 1.97369 1.27327 0.873126 1.42812 1.65581 0.618973 0.590218
threshold=-2.7973349999999995 -3.4381649999999992 -1.4746649999999997e-06 0.0074303950000000002 0.0034526400000000003 -2.8982399999999995 -7.1932899999999984 -0.00010624399999999998 0.00033866400000000008 0.045298850000000009 -2.0893199999999995e-05 -5.9541749999999984 -2.3967349999999997e-05 2.9092100000000003e-06
decision_type=2 2 2 2 2 2 2 2 2 2 2 2 2 2
left_child=1 2 -1 -3 -5 -6 7 12 -9 -10 11 -11 13 -7
right_child=-2 3 -4 4 5 6 -8 8 9 10 -12 -13 -14 -15
leaf_value=-0.0052979740096198184 1.7512822396161514e-05 -0.0004485848717886361 0.00044667529516060294 -0.00040903554302538044 0.0018343856947473276 -0.0030877326935296878 -0.0020952143067895601 0.047772015414425523 -0.0072194356870438365 -0.011109129234307234 0.049786629031101856 0.043442414528025046 -0.010648550516965439 0.033353886684053577
leaf_weight=1494 207262 5190 1937 788 622 20 89 58 21 31 36 21 44 20
leaf_count=1494 207262 5190 1937 788 622 20 89 58 21 31 36 21 44 20
internal_value=0 -0.00034999 -0.00205478 0.000492827 0.00328479 0.00631049 0.0144991 0.0203832 0.0298167 0.0202626 0.0268208 0.0109213 0.00162841 0.0151331
internal_weight=0 10371 3431 6940 1750 962 340 251 167 109 88 52 84 40
internal_count=217633 10371 3431 6940 1750 962 340 251 167 109 88 52 84 40
shrinkage=0.15


Tree=250
num_leaves=15
num_cat=0
split_feature=4 24 4 3 25 7 19 37 24 3 8 3 33 17
split_gain=0.0596088 0.196667 0.720181 1.17361 0.660799 0.727876 0.830321 0.932422 0.269473 0.326742 0.182441 0.169598 0.157486 0.188406
threshold=-1.1246349999999998 -1.2607149999999996 -2.6848399999999994 -8.7004049999999982 92.722700000000017 5.6911100000000005e-05 0.002698045 3.3197100000000008e-05 -0.33083599999999996 -19.110799999999998 1.3765300000000002e-05 -7.4072199999999988 4.1313050000000001e-06 7.9852550000000013e-07
decision_type=2 2 2 2 2 2 2 2 2 2 2 2 2 2
left_child=1 2 -1 4 5 6 7 -4 9 -3 -5 12 -10 -14
right_child=-2 8 3 10 -6 -7 -8 -9 11 -11 -12 -13 13 -15
leaf_value=-0.00082646677461323183 -3.5592312236592736e-05 0.015508743849285463 0.036754211831305707 -0.0077919839463561399 -0.0041569928031252772 -0.0011161547952464649 0.053704875835683195 -0.00074668521724211478 0.00033324474411922778 -0.0010408401053564351 0.0083204774560207227 0.00093387940192486945 -0.0001294821470518112 -0.0021236858609332879
leaf_weight=418 180524 27 35 64 23 21 24 26 17937 4585 21 7019 5592 1317
leaf_count=418 180524 27 35 64 23 21 24 26 17937 4585 21 7019 5592 1317
internal_value=0 0.000173146 0.00279657 0.00987333 0.0188903 0.0238911 0.0300694 0.0207702 0.000127692 -0.000943954 -0.00381126 0.000282798 9.88671e-05 -0.000509619
internal_weight=0 37109 632 214 129 106 85 61 36477 4612 85 31865 24846 6909
internal_count=217633 37109 632 214 129 106 85 61 36477 4612 85 31865 24846 6909
shrinkage=0.15


Tree=251
num_leaves=15
num_cat=0
split_feature=23 3 14 31 11 0 3 35 34 14 28 31 29 23
split_gain=0.0559343 0.161389 0.314994 0.153957 0.363703 0.340694 0.145882 0.379158 0.369973 0.132493 0.137598 0.131528 0.116729 0.116092
threshold=-17.896049999999999 -6.2498799999999992 0.0016871300000000002 0.11416950000000002 6.3651650000000014e-06 -1.6909749999999997 -19.110799999999998 0.007377840000000001 0.68351300000000015 0.018913150000000004 -1.7331449999999997 -0.018836699999999994 -0.0014132449999999998 -18.898199999999996
decision_type=2 2 2 2 2 2 2 2 2 2 2 2 2 2
left_child=1 2 3 4 11 -5 7 8 -4 13 -11 -1 -6 -8
right_child=-2 -3 6 5 12 -7 9 -9 -10 10 -12 -13 -14 -15
leaf_value=0.0028164861535944258 -1.916767841037702e-05 -0.00064782635138199219 0.0026571244531725016 0.00015223619914393399 -0.0017421020077462432 0.0042929867823408782 -0.0018198306535102608 -0.010547747563105076 0.0295742142945528 0.011899816546792863 0.00047814688052125756 -0.0012873708664912231 0.0022020246715301387 4.3176411925733393e-05
leaf_weight=1397 204632 3075 27 769 1055 1068 1585 20 20 24 2126 201 201 1433
leaf_count=1397 204632 3075 27 769 1055 1068 1585 20 20 24 2126 201 201 1433
internal_value=0 0.000301694 0.000595848 0.0014885 0.000799075 0.0025596 -0.000204041 0.00675032 0.0141112 -0.0002942 0.000605645 0.00230029 -0.00111092 -0.000935242
internal_weight=0 13001 9926 4691 2854 1837 5235 67 47 5168 2150 1598 1256 3018
internal_count=217633 13001 9926 4691 2854 1837 5235 67 47 5168 2150 1598 1256 3018
shrinkage=0.15


Tree=252
num_leaves=15
num_cat=0
split_feature=6 33 23 3 3 13 23 27 4 4 33 13 23 23
split_gain=0.0559289 1.06066 1.45873 2.26059 2.72431 3.27614 3.3239 3.28334 2.35403 2.54301 2.00443 8.55232 1.77436 1.72648
threshold=1.0246000000000001e-06 1.0242850000000001e-06 -12.877249999999998 -12.740499999999999 -6.860879999999999 -5.7174249999999997e-06 -6.9496149999999988 5.0963000000000003 -0.54682199999999992 0.49798950000000003 2.3124300000000005e-06 -1.2595899999999997e-05 -8.6943549999999981 -6.9496149999999988
decision_type=2 2 2 2 2 2 2 2 2 2 2 2 2 2
left_child=-1 -2 -3 -4 5 6 7 8 -5 10 11 -10 -13 -6
right_child=1 2 3 4 13 -7 -8 -9 9 -11 -12 12 -14 -15
leaf_value=5.835929077597833e-05 -0.00061618363068663971 -0.0010570536641122978 -0.0023914950234052742 -0.0035723481709842766 -0.0014161125300235428 -0.00017958077446199742 -0.0013608557741541577 -0.002432275949117344 -0.010575304076375488 -0.0027582161475056123 0.0098095764210978237 0.0019799886427459899 0.036602976136283445 0.0031304647938660813
leaf_weight=136961 42372 10263 3756 429 7699 4982 1708 915 438 463 4980 44 137 2486
leaf_count=136961 42372 10263 3756 429 7699 4982 1708 915 438 463 4980 44 137 2486
internal_value=0 -9.90796e-05 0.000473002 0.00103308 0.00156283 0.0029134 0.00460412 0.00597979 0.00716559 0.0079255 0.00880897 0.000758876 0.0281863 -0.000306364
internal_weight=0 80672 38300 28037 24281 14096 9114 7406 6491 6062 5599 619 181 10185
internal_count=217633 80672 38300 28037 24281 14096 9114 7406 6491 6062 5599 619 181 10185
shrinkage=0.15


Tree=253
num_leaves=15
num_cat=0
split_feature=34 3 14 19 22 1 1 3 14 10 33 9 19 28
split_gain=0.0756673 0.180185 0.359139 0.16094 0.218681 0.588727 1.20266 0.174208 0.167354 0.18368 0.581237 0.297749 0.21977 0.193546
threshold=0.68351300000000015 -6.0545599999999995 0.00028247300000000004 9.8134050000000006e-08 -2.3743599999999998 -3.7755899999999998 -0.89553799999999983 -18.015749999999997 0.0082895900000000012 1.0503100000000003e-05 -6.6400499999999982e-05 -8.5596999999999985e-07 0.00026624450000000002 -0.14368899999999998
decision_type=2 2 2 2 2 2 2 2 2 2 2 2 2 2
left_child=-1 2 -2 4 5 -4 -7 -6 -5 10 12 -12 -10 -13
right_child=1 -3 3 8 7 6 -8 -9 9 -11 11 13 -14 -15
leaf_value=-3.4259581340137635e-05 0.0015466809426271577 -0.00050726243693008052 -0.0063236323380946348 -0.00043358048009363952 0.014189698238095098 0.040557054994213908 0.0041653212974779308 0.00071048744830869755 -0.018199132103472949 0.00042541321511830888 0.023550377585657718 0.017172509652234359 0.00083397084706050991 -0.00088368238528560399
leaf_weight=189240 4977 5928 52 9451 22 27 84 1113 21 6586 37 22 39 34
leaf_count=189240 4977 5928 52 9451 22 27 84 1113 21 6586 37 22 39 34
internal_value=0 0.000228341 0.00042245 0.000102499 0.00170959 0.00684723 0.0130174 0.000971758 -2.63459e-05 0.000544773 0.00568273 0.0131088 -0.00582762 0.00620982
internal_weight=0 28393 22465 17488 1298 163 111 1135 16190 6739 153 93 60 56
internal_count=217633 28393 22465 17488 1298 163 111 1135 16190 6739 153 93 60 56
shrinkage=0.15


Tree=254
num_leaves=15
num_cat=0
split_feature=12 22 13 16 31 13 32 23 3 1 23 22 22 23
split_gain=0.0733996 0.447436 1.14007 0.716743 0.583751 0.98309 2.73055 2.72487 3.977 3.73173 9.014 4.66667 4.118 3.90767
threshold=0.00012553750000000004 2.4622600000000006 1.614735e-05 -1.4816449999999998e-05 -0.070373749999999985 1.6938500000000004e-05 -0.050070999999999997 -9.355299999999998 -9.292234999999998 5.6576700000000004 -13.889449999999998 1.4079700000000002 2.2495850000000002 -13.010249999999997
decision_type=2 2 2 2 2 2 2 2 2 2 2 2 2 2
left_child=-1 4 3 -3 -2 6 7 8 9 13 -11 -12 -13 -6
right_child=1 2 -4 -5 5 -7 -8 -9 -10 10 11 12 -14 -15
leaf_value=-4.290959543902278e-05 -0.0005208732374355964 -0.00025013614437636913 0.00026277207497388792 -0.0076842852108911308 0.018410783884236285 0.00014529678296489035 0.00045530711279589102 -0.0008625198905571344 -0.0032526975749667896 -0.011907055643099409 -0.0095400664527269616 0.060697245911366979 -0.0081361341755837192 -0.0042353555835479006
leaf_weight=175138 12004 453 3224 820 428 18293 5635 690 345 88 31 176 22 286
leaf_count=175138 12004 453 3224 820 428 18293 5635 690 345 88 31 176 22 286
internal_value=0 0.000176847 -0.00123799 -0.00503883 0.00034429 0.000743822 0.00216556 0.00683027 0.0106878 0.0153527 0.0288964 0.0445763 0.0530491 0.00933964
internal_weight=0 42495 4497 1273 37998 25994 7701 2066 1376 1031 317 229 198 714
internal_count=217633 42495 4497 1273 37998 25994 7701 2066 1376 1031 317 229 198 714
shrinkage=0.15


Tree=255
num_leaves=15
num_cat=0
split_feature=13 33 14 34 3 18 17 38 18 18 37 33 17 26
split_gain=0.0796348 2.02461 1.95047 7.06974 8.34555 2.80475 3.07546 2.77831 6.91328 3.15738 3.24331 2.68908 1.9585 2.31775
threshold=1.9207900000000006e-05 -4.9776299999999991e-06 0.0010287300000000003 0.060535650000000003 -7.8930599999999993 -1.2604899999999999e-05 3.888365000000001e-07 -0.00032418199999999995 5.6944000000000004e-08 2.6510050000000005e-06 1.0000000180025095e-35 -6.9753249999999992e-06 1.2482750000000002e-07 -8.5824299999999977e-05
decision_type=2 2 2 2 2 2 2 2 2 2 2 2 2 2
left_child=-1 2 3 4 5 -2 7 8 -7 -9 -11 12 -10 -14
right_child=1 -3 -4 -5 -6 6 -8 9 11 10 -12 -13 13 -15
leaf_value=-7.896432721221106e-05 -0.002488081236186514 -0.00037657742457202674 0.00040398506246896819 -0.00015849983119639206 0.00062344314529732983 -0.016242184897088341 -0.0017909057555426198 0.030177900797264911 0.022805905440790492 -0.018456954267873828 0.042162256973699248 -0.00099355953174050556 0.075210658223070992 0.015270162560045718
leaf_weight=123841 146 63543 22443 5071 1304 132 137 713 88 63 29 55 47 21
leaf_count=123841 146 63543 22443 5071 1304 132 137 713 88 63 29 55 47 21
internal_value=0 0.000104263 0.00111435 0.00315671 0.00930347 0.0172132 0.0194516 0.0219866 0.0106819 0.0268034 0.000651275 0.0275253 0.0375801 0.0566996
internal_weight=0 93792 30249 7806 2735 1431 1285 1148 343 805 92 211 156 68
internal_count=217633 93792 30249 7806 2735 1431 1285 1148 343 805 92 211 156 68
shrinkage=0.15


Tree=256
num_leaves=15
num_cat=0
split_feature=4 24 23 4 11 29 23 29 11 21 12 34 1 21
split_gain=0.0958766 0.145162 0.143973 0.229696 0.295028 7.22294 2.04177 1.94211 1.95761 2.20151 6.27051 2.92581 2.52563 2.45883
threshold=1.5436950000000003 0.33377850000000003 -6.551404999999999 -1.5283549999999997 -2.5478749999999997e-05 0.0027912500000000008 -8.9824849999999987 0.0030668750000000006 -1.1687099999999999e-05 -4.5469049999999989 -3.1927299999999995e-05 0.29730450000000003 -9.6446499999999986 5.041430000000001
decision_type=2 2 2 2 2 2 2 2 2 2 2 2 2 2
left_child=2 -2 3 -1 5 -5 -7 -6 9 10 11 12 -9 -11
right_child=1 -3 -4 4 7 6 -8 8 -10 13 -12 -13 -14 -15
leaf_value=0.00028487093393459855 0.00034941697241574815 -0.00054444967478703074 0.00034890878470024905 -0.0027259099681216782 0.00044299188123143667 0.0035797925431697497 -0.00055189610975570178 -0.0021170446893152345 -0.0013509655280477067 -0.0019853548242243246 -0.00086521814692245918 -0.00019017745663135632 0.029265064624226171 0.0054680196896715735
leaf_weight=30218 30108 4730 18869 15692 65781 7872 4089 68 33474 3853 1013 142 381 1343
leaf_count=30218 30108 4730 18869 15692 65781 7872 4089 68 33474 3853 1013 142 381 1343
internal_value=0 0.000228056 -4.3464e-05 -8.86288e-05 -0.00017304 -0.000609393 0.00216733 -5.92639e-05 -0.000879617 0.00144067 0.00629835 0.018577 0.0245123 -5.88956e-05
internal_weight=0 34838 182795 163926 133708 27653 11961 106055 40274 6800 1604 591 449 5196
internal_count=217633 34838 182795 163926 133708 27653 11961 106055 40274 6800 1604 591 449 5196
shrinkage=0.15


Tree=257
num_leaves=15
num_cat=0
split_feature=14 34 23 3 24 13 35 3 7 2 30 15 3 2
split_gain=0.0797677 0.190296 0.260224 0.535158 0.197556 0.299635 0.188698 0.949181 0.207661 0.191036 0.171459 0.16758 0.560916 0.565666
threshold=7.6990750000000005e-05 0.008249755000000001 -5.9629699999999994 -5.8349799999999989 0.12923450000000003 2.5301900000000005e-06 0.00035127250000000003 -7.0757599999999989 5.658280000000001e-05 -2.7973349999999995 7.0762100000000018e-05 -1.2475049999999999e-08 -6.0288849999999989 -0.058861999999999991
decision_type=2 2 2 2 2 2 2 2 2 2 2 2 2 2
left_child=1 2 4 10 6 -6 8 -8 9 -1 -4 -9 13 -13
right_child=-2 -3 3 -5 5 -7 7 11 -10 -11 -12 12 -14 -15
leaf_value=-0.0066866707520882923 -3.7655835605401155e-05 0.00039526188150755916 0.030357098467648027 -0.00094785422919085242 -0.020215047717697571 0.00083621626272361021 0.028729301027487962 -0.0020669667568158317 0.00052578919705323216 -0.0013174689895703064 0.010715748287038878 0.0016925734368851409 -0.00082335441500390515 0.023067418009472582
leaf_weight=156 185703 25924 20 75 29 32 28 308 1555 3371 20 60 300 52
leaf_count=156 185703 25924 20 75 29 32 28 308 1555 3371 20 60 300 52
internal_value=0 0.000219004 -0.000541786 0.00652494 -0.000679738 -0.00917176 -0.000590885 0.00163349 -0.000918281 -0.00155495 0.0205364 0.000579761 0.00255838 0.0116166
internal_weight=0 31930 6006 115 5891 61 5830 748 5082 3527 40 720 412 112
internal_count=217633 31930 6006 115 5891 61 5830 748 5082 3527 40 720 412 112
shrinkage=0.15


Tree=258
num_leaves=15
num_cat=0
split_feature=18 35 15 23 4 3 14 23 4 5 36 4 24 15
split_gain=0.0824184 0.155111 1.37375 0.850755 1.4288 2.71191 2.25669 1.33412 1.32668 0.968906 0.955348 0.807756 1.14702 0.577537
threshold=0.00012152750000000001 -0.038512399999999995 -5.5362349999999989e-07 -12.104349999999998 -1.4177149999999996 -12.278849999999998 0.00064274150000000012 -8.770274999999998 -0.27873999999999993 1.7351050000000004e-05 1.2326750000000002 0.21114250000000004 0.44112700000000005 5.5558300000000009e-07
decision_type=2 2 2 2 2 2 2 2 2 2 2 2 2 2
left_child=1 2 3 -1 -5 -6 7 -7 9 -9 -8 -10 -13 -4
right_child=-2 -3 13 4 5 6 10 8 11 -11 -12 12 -14 -15
leaf_value=0.00024544358276318187 0.00018957833184069092 -8.4042226418126889e-05 0.00033155983779120158 0.0001562032806621389 -0.0041105871817058845 -0.0039630364882376808 0.022976929104152562 0.04751557270453001 -0.0037562536534610641 0.011338172110939218 -0.0078980904356967582 -7.0768152363598352e-05 0.034613061446423933 -0.0022191259447107378
leaf_weight=1322 41709 163339 6522 749 281 190 373 36 92 31 24 45 41 2879
leaf_count=1322 41709 163339 6522 749 281 190 373 36 92 31 24 45 41 2879
internal_value=0 -4.49462e-05 0.000462475 0.00315536 0.00522138 0.00863002 0.012933 0.00546998 0.0127854 0.0307768 0.0211104 0.00601335 0.0164645 -0.000449572
internal_weight=0 175924 12585 3184 1862 1113 832 435 245 67 397 178 86 9401
internal_count=217633 175924 12585 3184 1862 1113 832 435 245 67 397 178 86 9401
shrinkage=0.15


Tree=259
num_leaves=15
num_cat=0
split_feature=4 24 4 7 1 8 28 12 38 0 18 24 4 32
split_gain=0.0784583 0.15101 0.752783 0.833354 0.884096 0.820218 1.3135 0.877942 1.03472 0.603272 0.475798 0.236792 0.238371 0.449984
threshold=-1.1246349999999998 -1.0622799999999997 -2.5355949999999994 7.0671000000000015e-05 6.1041250000000007 -8.6227899999999991e-06 0.13736000000000001 4.2886850000000008e-05 1.0406600000000001 -1.6909749999999997 -0.0020571649999999997 -0.33083599999999996 -2.2825899999999995 3.6943000000000006
decision_type=2 2 2 2 2 2 2 2 2 2 2 2 2 2
left_child=1 2 -1 4 5 -4 7 8 9 -7 -8 12 -3 -14
right_child=-2 11 3 -5 -6 6 10 -9 -10 -11 -12 -13 13 -15
leaf_value=-0.00077785182567239979 -4.0833859985480262e-05 -0.00028112540677700408 0.035904691956545179 -0.010544423892596652 -0.0076382595493436544 0.02485886361915618 0.0093911957863453532 -0.0039455276600125688 0.009605163533706218 0.059810630075633524 -0.017397218063540224 0.00029141097599442284 -0.0034761013578856544 0.01548633480701467
leaf_weight=640 180524 3318 38 44 43 20 26 23 34 25 35 31865 969 29
leaf_count=640 180524 3318 38 44 43 20 26 23 34 25 35 31865 969 29
internal_value=0 0.000198644 0.00208803 0.00845666 0.0118831 0.0160593 0.0114328 0.0218458 0.0293547 0.0442765 -0.00597921 0.000150184 -0.000892496 -0.00292509
internal_weight=0 37109 928 288 244 201 163 102 79 45 61 36181 4316 998
internal_count=217633 37109 928 288 244 201 163 102 79 45 61 36181 4316 998
shrinkage=0.15


Tree=260
num_leaves=15
num_cat=0
split_feature=14 23 3 3 36 3 17 14 17 23 14 23 3 14
split_gain=0.0699804 0.152876 0.400822 0.606175 1.51643 1.58737 1.22261 1.9364 3.0799 1.13459 2.53755 1.08427 2.43779 1.6178
threshold=9.5139850000000004e-05 -7.3218799999999993 -10.550799999999997 -7.5458749999999988 -0.0026028249999999996 -6.4440149999999994 1.3666150000000002e-06 0.00017188600000000003 -3.7572899999999997e-06 -6.9680999999999989 0.00037299900000000005 -7.0557349999999994 -7.0077899999999991 0.00033210400000000006
decision_type=2 2 2 2 2 2 2 2 2 2 2 2 2 2
left_child=-1 -2 -3 9 5 6 7 -5 -9 10 -4 12 13 -6
right_child=1 2 3 4 11 -7 -8 8 -10 -11 -12 -13 -14 -15
leaf_value=0.00017782295543904714 -0.00011902491167844559 0.00080517184519351384 -0.0093014903112908914 0.0030208007367985806 0.015950148531043762 -0.00071158014731149131 -0.00066197779211857354 -0.0016795833030548899 0.031725524034228625 -2.9486958505203432e-05 -0.00057436811958990288 -0.00063085699030073731 -0.00032970115616369429 0.00094660342899857133
leaf_weight=40523 134583 15833 1055 207 439 491 166 88 211 10521 2590 9176 1494 256
leaf_count=40523 134583 15833 1055 207 439 491 166 88 211 10521 2590 9176 1494 256
internal_value=0 -4.06861e-05 0.000207229 -0.000147429 0.000612663 0.00577155 0.0105085 0.0141731 0.0218939 -0.000819633 -0.00310033 8.47451e-05 0.00308446 0.0104237
internal_weight=0 177110 42527 26694 12528 1163 672 506 299 14166 3645 11365 2189 695
internal_count=217633 177110 42527 26694 12528 1163 672 506 299 14166 3645 11365 2189 695
shrinkage=0.15


Tree=261
num_leaves=15
num_cat=0
split_feature=23 14 7 21 7 12 13 5 12 13 29 14 10 21
split_gain=0.0736153 0.15445 0.176278 0.47463 0.486521 0.5281 0.430301 0.323311 0.317006 0.855579 0.295021 0.376604 0.223444 0.189058
threshold=-16.783199999999997 0.0014906400000000003 3.5613200000000007e-05 -3.9655799999999997 2.2704000000000001e-05 -0.00011808099999999998 6.9651600000000016e-05 7.4644400000000012e-06 -0.00024089699999999998 1.1238550000000003e-05 0.0019079550000000002 0.030070050000000004 8.362345000000001e-06 4.6107400000000007
decision_type=2 2 2 2 2 2 2 2 2 2 2 2 2 2
left_child=1 -1 3 4 5 -3 12 -8 9 -6 -11 -12 -5 -14
right_child=-2 2 -4 6 8 -7 7 -9 -10 10 11 -13 13 -15
leaf_value=0.00063970722440160937 -2.7682678445464349e-05 0.036047876128577627 0.00023681306207239117 -0.01445834871486548 0.029547667960005422 0.0023697787842882627 0.018992591713322324 -0.00028450855654064207 -0.00095323762120260141 -0.0072024050772152076 0.024773162789060731 -0.0039876378843993207 -0.0046391461974385336 0.00082390841892732722
leaf_weight=11297 197724 20 6060 46 31 22 20 923 321 49 20 21 910 169
leaf_count=11297 197724 20 6060 46 31 22 20 923 321 49 20 21 910 169
internal_value=0 0.000274927 -0.000203581 -0.00124935 0.0029791 0.018407 -0.00223898 0.000124338 0.00151311 0.00805606 0.000653389 0.010042 -0.00421997 -0.00378349
internal_weight=0 19909 8612 2552 484 42 2068 943 442 121 90 41 1125 1079
internal_count=217633 19909 8612 2552 484 42 2068 943 442 121 90 41 1125 1079
shrinkage=0.15


Tree=262
num_leaves=15
num_cat=0
split_feature=18 23 3 29 24 4 23 3 3 3 33 23 13 37
split_gain=0.0722816 0.131199 0.121171 0.157221 0.111086 3.3144 3.98411 7.74031 4.86327 4.31441 3.43721 2.71008 2.41521 5.14941
threshold=0.00012152750000000001 -6.2458949999999991 -6.3281449999999984 -0.018510599999999999 0.20400400000000005 0.15990500000000005 -12.363649999999998 -12.195349999999999 -6.6271099999999992 -12.664549999999998 -3.5620349999999992e-05 -7.0815949999999992 2.8930600000000004e-05 2.4295200000000004e-07
decision_type=2 2 2 2 2 2 2 2 2 2 2 2 2 2
left_child=4 -2 -3 -4 -1 -6 9 -8 10 -7 -9 -10 -12 -14
right_child=1 2 3 -5 5 6 7 8 11 -11 12 -13 13 -15
leaf_value=-0.00010821869200002995 0.00023554563894593618 -0.00070735412194239964 -0.01583840646736252 -0.0028797765667715448 -0.00041914486522516222 0.0083450539156315652 -0.0074360812282242067 0.0022575721712524998 -0.0029762494602965164 -0.0046912409617547949 0.019555373725375594 0.013932884768352057 -0.010784592757950439 0.036762853560025156
leaf_weight=134521 39816 1756 26 111 34661 792 744 449 806 2049 1367 290 172 73
leaf_count=134521 39816 1756 26 111 34661 792 744 449 806 2049 1367 290 172 73
internal_value=0 0.000177538 -0.00104256 -0.00533908 -4.20916e-05 0.00017276 0.00321577 0.00632756 0.0095712 -0.00105705 0.0138644 0.00149788 0.0170974 0.00338261
internal_weight=0 41709 1893 137 175924 41403 6742 3901 3157 2841 2061 1096 1612 245
internal_count=217633 41709 1893 137 175924 41403 6742 3901 3157 2841 2061 1096 1612 245
shrinkage=0.15


Tree=263
num_leaves=15
num_cat=0
split_feature=4 3 23 14 3 23 21 1 0 31 20 4 7 2
split_gain=0.0841338 0.123521 0.190645 0.416665 0.505679 0.869005 0.790127 2.55654 0.965283 3.40405 1.87955 0.831027 0.734379 0.687633
threshold=-1.2236799999999997 -5.8564649999999991 -16.783199999999997 0.00068334050000000012 -16.559399999999997 -18.575849999999999 -3.5229999999999997 -3.3198799999999999 2.6455750000000005 -0.10149299999999999 1.9046550000000002 0.14547050000000003 3.9998900000000008e-05 1.7604800000000003
decision_type=2 2 2 2 2 2 2 2 2 2 2 2 2 2
left_child=-1 2 3 -2 5 -5 7 12 10 11 13 -10 -7 -8
right_child=1 -3 -4 4 -6 6 8 -9 9 -11 -12 -13 -14 -15
leaf_value=0.00020860741708461018 0.0013970285853472592 0.00020161691893766227 -0.00015922106908244327 -0.0025391180559655637 -0.00078531483406935369 0.024348735556122846 0.0028202133581254067 -0.013720708135578378 0.059244320831365049 -0.019817040236118962 -0.016535439180846039 0.022970472406595947 0.056947122048586603 0.020717794871978605
leaf_weight=36254 5752 37293 130993 385 6400 48 188 37 27 34 104 30 23 65
leaf_count=36254 5752 37293 130993 385 6400 48 188 37 27 34 104 30 23 65
internal_value=0 -4.16964e-05 -0.000104672 0.000441082 -0.000307944 0.00293879 0.00673194 0.0182487 0.00395559 0.0177465 0.000440255 0.0401528 0.0349088 0.00741841
internal_weight=0 181379 144086 13093 7341 941 556 108 448 91 357 57 71 253
internal_count=217633 181379 144086 13093 7341 941 556 108 448 91 357 57 71 253
shrinkage=0.15


Tree=264
num_leaves=15
num_cat=0
split_feature=34 3 14 23 34 13 23 3 23 3 3 3 20 11
split_gain=0.0713535 0.145543 0.237541 0.539563 0.367833 0.48729 0.350502 2.09945 4.90626 4.07612 3.64338 2.395 4.44725 3.21668
threshold=0.68351300000000015 -5.9118649999999997 0.00038336100000000009 -14.139049999999997 0.0056110350000000012 9.4443350000000015e-05 -9.0165099999999985 -9.0186749999999982 -10.364449999999998 -7.5830149999999987 -10.389699999999999 -10.288849999999998 6.2529500000000011 2.7451650000000003e-05
decision_type=2 2 2 2 2 2 2 2 2 2 2 2 2 2
left_child=1 2 3 -1 5 -4 7 8 11 -9 -10 12 -5 -14
right_child=-2 -3 4 6 -6 -7 -8 9 10 -11 -12 -13 13 -15
leaf_value=0.00095058582903162676 0.00022173666017561081 0.00024143791257405818 0.0013836743726248287 -0.0015205121668986977 -8.4377799025680305e-05 -0.00041844185198128942 -0.00022644446871017412 -0.0058039788339014076 -0.010780906480701017 -0.0001064911053018711 0.015612943236888987 -0.0077683113264762783 -0.0055220129222355099 0.064214404510415116
leaf_weight=5929 28393 35300 9248 255 93868 5317 24120 4039 139 9402 767 788 22 46
leaf_count=5929 28393 35300 9248 255 93868 5317 24120 4039 139 9402 767 788 22 46
internal_value=0 -3.32687e-05 -9.62617e-05 -0.000383886 2.44482e-05 0.000725806 -0.000583798 -0.0011414 0.00337124 -0.00181858 0.0115636 -0.00330943 0.00756857 0.0416526
internal_weight=0 189240 153940 45507 108433 14565 39578 15458 2017 13441 906 1111 323 68
internal_count=217633 189240 153940 45507 108433 14565 39578 15458 2017 13441 906 1111 323 68
shrinkage=0.15


Tree=265
num_leaves=15
num_cat=0
split_feature=13 23 22 19 11 23 22 34 3 19 34 35 4 23
split_gain=0.0717165 0.200633 0.158203 0.468703 2.3581 4.44436 4.42961 3.13923 1.58747 1.54347 1.19505 0.869087 0.851632 0.746686
threshold=5.4641750000000013e-05 -6.4159099999999993 -1.9803299999999997 6.3072250000000013e-05 -4.4583899999999992e-05 -12.666499999999997 -2.8252699999999993 0.63652550000000019 -12.664549999999998 1.1283150000000002e-05 0.26856750000000007 -0.052612949999999999 -0.15814399999999998 -16.670499999999997
decision_type=2 2 2 2 2 2 2 2 2 2 2 2 2 2
left_child=-1 2 3 4 5 6 12 9 -7 13 -10 -9 -2 -8
right_child=1 -3 -4 -5 -6 8 7 11 10 -11 -12 -13 -14 -15
leaf_value=-5.2300661647456812e-05 0.01128834935836494 -0.00082799818134824538 9.7945441639157033e-05 0.00034928958251812388 -0.0019843626028192333 -0.0089124357572787603 0.02818542325070926 0.031030228044837713 0.0030867551421073988 0.015369162742241187 0.036594921676442023 -0.0074290989539944202 -0.027720185056986178 0.059298533356224647
leaf_weight=158981 20 4437 44037 8788 801 211 21 20 81 29 34 39 34 100
leaf_count=158981 20 4437 44037 8788 801 211 21 20 81 29 34 39 34 100
internal_value=0 0.000141765 0.000221131 0.000754118 0.00331357 0.0105184 0.0250251 0.0349202 -0.00118488 0.0464497 0.0129935 0.00560796 -0.0132726 0.0538987
internal_weight=0 58652 54215 10178 1390 589 263 209 326 150 115 59 54 121
internal_count=217633 58652 54215 10178 1390 589 263 209 326 150 115 59 54 121
shrinkage=0.15


Tree=266
num_leaves=15
num_cat=0
split_feature=18 18 38 34 3 28 1 11 35 23 1 21 16 21
split_gain=0.0685651 0.136866 1.99534 2.26309 1.27477 1.61483 11.2149 1.97789 1.71686 1.25978 1.12258 3.98636 2.14526 2.10984
threshold=0.00012152750000000001 6.9782350000000003e-06 -0.00084270449999999995 0.43971050000000006 -6.6828699999999985 -0.036001249999999992 -4.9060199999999989 2.5981950000000005e-06 -0.0044832899999999992 -6.7637699999999983 -5.1384799999999986 -5.1423849999999991 -3.2336299999999994e-06 4.6107400000000007
decision_type=2 2 2 2 2 2 2 2 2 2 2 2 2 2
left_child=1 -1 3 4 5 6 7 8 -3 10 11 12 -7 -12
right_child=-2 2 -4 -5 -6 9 -8 -9 -10 -11 13 -13 -14 -15
leaf_value=1.0988209002567941e-06 0.00017291318703995632 0.052099840596995566 -0.0014914661942326461 -0.0027455107491722976 -0.00093099155747994441 -0.012559057133538382 -0.010405834297541461 0.073941688902456962 0.0015283509613136235 -0.0090935888146152239 0.0045443976572672714 -0.0088465947829941133 0.043267400897407937 0.017602354879771475
leaf_weight=159753 41709 44 11671 1413 739 21 147 51 23 137 1184 318 59 364
leaf_count=159753 41709 44 11671 1413 739 21 147 51 23 137 1184 318 59 364
internal_value=0 -4.09952e-05 -0.000456841 0.00222652 0.00450234 0.00621241 0.0172412 0.0516828 0.0347395 0.00480932 0.0057881 -0.00131704 0.028613 0.00761487
internal_weight=0 175924 16171 4500 3087 2348 265 118 67 2083 1946 398 80 1548
internal_count=217633 175924 16171 4500 3087 2348 265 118 67 2083 1946 398 80 1548
shrinkage=0.15


Tree=267
num_leaves=15
num_cat=0
split_feature=22 0 1 19 19 1 12 1 19 1 33 21 14 34
split_gain=0.0689667 0.443539 0.329429 0.426052 0.545222 0.192089 0.184832 0.173847 0.195504 0.14416 0.132571 0.0943759 0.0925993 0.137023
threshold=-3.0375749999999995 -5.4797899999999986 -1.1908549999999998 1.5158200000000003e-06 1.7928950000000002e-08 -3.1376199999999996 -2.2635649999999997e-05 -0.98331399999999991 2.7347200000000005e-05 1.0000000180025095e-35 -2.4853599999999999e-05 4.5333550000000011 0.00031542200000000004 0.047578050000000004
decision_type=2 2 2 2 2 2 2 2 2 2 2 2 2 2
left_child=1 2 5 4 -4 -1 -7 8 -3 -5 -11 -9 13 -12
right_child=-2 7 3 9 -6 6 -8 11 -10 10 12 -13 -14 -15
leaf_value=-0.0034112729543911645 -1.0745182394129363e-05 -0.0030739927557239459 -0.00075676823034882541 -0.01368788854801096 0.027055406204328454 -0.0065768636754152485 -0.020133487179621379 0.0026660926297838758 0.0014372250638493302 0.010963248241958873 -0.0065688665041307099 0.011174644741695373 0.0012886516319947315 0.00086744721283321267
leaf_weight=309 214165 283 35 20 29 72 33 1316 915 21 126 30 179 100
leaf_count=309 214165 283 35 20 29 72 33 1316 915 21 126 30 179 100
internal_value=0 0.000663565 -0.00215119 0.00040064 0.0118456 -0.00529474 -0.0108375 0.0016859 0.000371553 -0.00124169 -0.000657361 0.00285573 -0.00125991 -0.00327846
internal_weight=0 3468 924 510 64 414 105 2544 1198 446 426 1346 405 226
internal_count=217633 3468 924 510 64 414 105 2544 1198 446 426 1346 405 226
shrinkage=0.15


Tree=268
num_leaves=15
num_cat=0
split_feature=22 1 3 13 0 22 33 33 6 13 0 1 21 3
split_gain=0.0664118 1.42935 0.707953 1.06969 1.66304 6.80404 0.955162 1.36132 0.759518 0.637298 3.82107 1.95078 1.8513 1.73638
threshold=2.1073400000000002 6.609325000000001 -7.3792049999999989 8.8270500000000005e-06 -4.9512199999999984 2.3537500000000002 4.0129950000000009e-06 6.8841200000000013e-06 3.1721050000000003e-07 4.7605950000000003e-06 -3.1138999999999997 4.1352450000000003 7.5460850000000006 -6.572074999999999
decision_type=2 2 2 2 2 2 2 2 2 2 2 2 2 2
left_child=-1 9 3 4 5 6 -3 -8 -6 10 12 -12 13 -2
right_child=1 2 -4 -5 8 -7 7 -9 -10 -11 11 -13 -14 -15
leaf_value=-3.5931983005135833e-05 0.0080072498238469517 0.016667209658771751 -0.00059606337392132487 -0.0010202972285946754 -0.0052368498800452181 -0.014138058441660731 0.079753319084644322 0.028592351515015418 -0.014064117706926647 7.4465380793791166e-05 0.00015739989827212689 -0.0099309638750729266 -0.0047062459438107903 -0.00035095792711858882
leaf_weight=183186 2863 20 4494 1414 399 138 25 22 487 16150 6905 460 375 695
leaf_count=183186 2863 20 4494 1414 399 138 25 22 487 16150 6905 460 375 695
internal_value=0 0.000191083 -0.00172239 -0.00374302 -0.00727183 0.0049032 0.0441225 0.0558056 -0.0100889 0.000679001 0.00154316 -0.000472695 0.00531808 0.0063746
internal_weight=0 34447 6999 2505 1091 205 67 47 886 27448 11298 7365 3933 3558
internal_count=217633 34447 6999 2505 1091 205 67 47 886 27448 11298 7365 3933 3558
shrinkage=0.15


Tree=269
num_leaves=15
num_cat=0
split_feature=8 32 21 21 10 3 11 16 4 14 21 39 17 38
split_gain=0.0733849 0.163693 0.215933 0.161955 0.641985 0.696963 1.05466 1.00395 1.18257 0.870442 0.502382 0.830223 0.537017 0.178862
threshold=-3.0250499999999994e-05 -0.19859999999999997 18.392150000000004 7.8897200000000014 6.3688100000000011e-05 -5.9751649999999996 -2.4699949999999997e-05 3.5912700000000004e-07 -0.15814399999999998 0.00022740750000000003 12.474600000000001 1.1779350000000003e-06 1.4879650000000004e-07 -3.5981499999999994e-05
decision_type=2 2 2 2 2 2 2 2 2 2 2 2 2 2
left_child=1 2 -1 -3 5 6 -5 8 -8 10 11 -10 -13 -9
right_child=-2 3 -4 4 -6 -7 7 13 9 -11 -12 12 -14 -15
leaf_value=-0.0011129515423183441 -2.1921771308677266e-05 0.00036319777189823213 0.011310003761718689 -0.0065569739024425163 -9.478856369596965e-05 -0.0025410323154807343 -0.0019241299886866847 0.0072625869868788865 0.036859314166009426 0.047929484124068875 0.04114190375631941 -0.010773022033067214 0.021656253090914103 -0.010193176487103172
leaf_weight=1942 204669 9713 32 59 881 117 37 25 25 37 21 27 20 28
leaf_count=1942 204669 9713 32 59 881 117 37 25 25 37 21 27 20 28
internal_value=0 0.00034609 -0.000911566 0.000571987 0.00216006 0.00717654 0.0112516 0.0160276 0.021736 0.0284701 0.0207281 0.0147741 0.00302667 -0.00195933
internal_weight=0 12964 1974 10990 1277 396 279 220 167 130 93 72 47 53
internal_count=217633 12964 1974 10990 1277 396 279 220 167 130 93 72 47 53
shrinkage=0.15


Tree=270
num_leaves=15
num_cat=0
split_feature=3 23 3 23 14 3 35 35 13 36 16 19 36 19
split_gain=0.0691176 0.28668 0.364612 0.459683 1.15432 0.944539 0.53845 0.438241 0.927106 1.25119 1.36 1.03796 0.826968 1.33839
threshold=-6.6023349999999992 -7.0114099999999988 -5.8866849999999991 -6.7159199999999997 0.00018273250000000005 -6.2498799999999992 -0.0018541949999999997 0.00020514250000000004 8.4862800000000007e-06 0.00014855700000000003 -1.0982549999999999e-07 1.9006200000000004e-05 -0.00025224499999999995 3.7476600000000006e-05
decision_type=2 2 2 2 2 2 2 2 2 2 2 2 2 2
left_child=-1 -2 3 4 5 6 -3 -5 12 -10 -11 -12 13 -9
right_child=1 2 -4 7 -6 -7 -8 8 9 10 11 -13 -14 -15
leaf_value=-5.3346328994845548e-05 0.00029429342031939495 -0.0016755043159247618 0.00013786906787681478 0.00046620227032708372 0.0021859397649549904 -0.0021184394072181019 -0.015370314274286869 -0.020660816223050157 -0.010621755792939681 -0.0095597449643361025 0.015831661861069473 -0.0042369730517608471 -0.01049302011881475 0.0093236736760140149
leaf_weight=155646 49706 81 7497 2416 427 375 319 45 143 99 226 78 444 131
leaf_count=155646 49706 81 7497 2416 427 375 319 45 143 99 226 78 444 131
internal_value=0 0.00013395 -0.000515024 -0.00153817 -0.00407643 -0.00752679 -0.0125971 -0.000686417 -0.00307469 0.0014325 0.00570982 0.0106825 -0.00704393 0.00165718
internal_weight=0 61987 12281 4784 1202 775 400 3582 1166 546 403 304 620 176
internal_count=217633 61987 12281 4784 1202 775 400 3582 1166 546 403 304 620 176
shrinkage=0.15


Tree=271
num_leaves=15
num_cat=0
split_feature=12 21 23 21 14 3 1 22 29 19 19 3 23 13
split_gain=0.0679621 0.361147 0.553955 0.799229 1.7251 1.96907 2.35768 1.3123 1.57977 1.7723 1.53527 1.12353 2.08274 0.959709
threshold=0.00015943000000000004 6.8347600000000011 -9.6230949999999975 4.5333550000000011 0.0061666100000000003 -10.05805 4.594100000000001 1.0583650000000002 0.0023162900000000004 0.0013393000000000001 0.0008696480000000001 -11.820049999999997 -11.623899999999997 5.4641750000000013e-05
decision_type=2 2 2 2 2 2 2 2 2 2 2 2 2 2
left_child=-1 2 3 13 5 6 -5 -8 9 11 -10 -9 -13 -2
right_child=1 -3 -4 4 -6 -7 7 8 10 -11 -12 12 -14 -15
leaf_value=-3.7088398851685296e-05 -0.0023369481688405073 -0.00086118490156338913 0.0011213976991137518 -0.00027823916431377407 -0.00076632465045046354 -0.0014085273421530263 -0.0022452594555663662 0.045412022345699375 -0.0066219900895986466 -0.0050250209748483035 0.025825113701489818 -0.015375981194665655 0.049180425818928557 0.00029261845102033764
leaf_weight=182002 4818 6101 13357 201 1551 353 52 120 61 25 71 22 23 8876
leaf_count=182002 4818 6101 13357 201 1551 353 52 120 61 25 71 22 23 8876
internal_value=0 0.000189446 0.00040651 -0.000183903 0.00229442 0.00740996 0.0128238 0.0198652 0.0234358 0.0321931 0.0108306 0.0378322 0.0176195 -0.00063255
internal_weight=0 35631 29530 16173 2479 928 575 374 322 190 132 165 45 13694
internal_count=217633 35631 29530 16173 2479 928 575 374 322 190 132 165 45 13694
shrinkage=0.15


Tree=272
num_leaves=15
num_cat=0
split_feature=34 11 29 14 23 16 0 3 23 4 4 34 14 21
split_gain=0.0723871 0.203899 0.249637 0.578608 0.557215 0.771397 0.480787 0.590401 0.629786 0.659177 0.753829 0.662895 0.869954 0.629735
threshold=0.43971050000000006 -2.2158349999999994e-05 0.047482600000000007 0.00074095750000000005 -8.2722599999999975 2.7380500000000006e-07 -2.3471649999999995 -8.9780899999999981 -7.6939949999999993 3.3313850000000005 -3.6388949999999993 2.1534700000000004 0.0050209550000000006 -8.9484099999999973
decision_type=2 2 2 2 2 2 2 2 2 2 2 2 2 2
left_child=-1 2 -2 4 -4 -6 7 8 9 10 -5 13 -13 -12
right_child=1 -3 3 6 5 -7 -8 -9 -10 -11 11 12 -14 -15
leaf_value=-3.9596231821575457e-05 -0.0008689910437757151 0.00042246867552226048 -0.0039466287656727828 -0.001491041710935132 0.00063650985420099461 0.026289936110697455 -0.0021915953235190919 -0.00093597831160047021 -0.0045033080169620612 -0.0020067506527877573 -0.014374698791652917 -0.00081813278903840661 0.011425108003044375 0.012061922942837913
leaf_weight=179936 7297 26036 908 241 150 32 622 809 180 266 21 335 214 586
leaf_count=179936 7297 26036 908 241 150 32 622 809 180 266 21 335 214 586
internal_value=0 0.000189001 -0.00033227 0.000565174 -0.00242824 0.005147 0.00156176 0.00244207 0.0039249 0.00483715 0.00614028 0.00773124 0.00395428 0.0111473
internal_weight=0 37697 11661 4364 1090 182 3274 2652 1843 1663 1397 1156 549 607
internal_count=217633 37697 11661 4364 1090 182 3274 2652 1843 1663 1397 1156 549 607
shrinkage=0.15


Tree=273
num_leaves=15
num_cat=0
split_feature=4 20 2 2 22 16 17 35 17 18 23 11 31 34
split_gain=0.0662333 0.113098 0.117317 0.387893 0.934334 0.126264 0.120906 0.810217 0.133179 0.100794 0.212358 0.2266 3.72476 2.39046
threshold=-1.2236799999999997 15.858650000000003 -0.71717999999999982 -0.55996749999999984 -0.20827799999999999 3.0099100000000005e-06 -4.2368999999999995e-07 -0.12126899999999999 -3.1235699999999993e-08 0.00010488150000000002 -6.3575049999999989 -3.3878749999999995e-05 0.045697650000000006 0.021914400000000004
decision_type=2 2 2 2 2 2 2 2 2 2 2 2 2 2
left_child=-1 9 5 4 -4 -3 7 -5 -8 10 11 12 13 -2
right_child=1 2 3 6 -6 -7 8 -9 -10 -11 -12 -13 -14 -15
leaf_value=0.00018508990377437214 0.00015562574287472634 0.00020386212989748526 0.038726507007543529 0.029817735782216914 -0.0065746792580466716 -0.0085816932620946303 -0.0078988461484134718 -0.0047311091313271651 0.0015774434112484021 0.00015548076837519479 0.00060150002627182243 -7.7668938191857592e-05 0.0021669768569207346 -0.0042041362458487648
leaf_weight=36254 5050 461 21 24 20 40 35 42 716 42222 8847 110784 6681 6436
leaf_count=36254 5050 461 21 24 20 40 35 42 716 42222 8847 110784 6681 6436
internal_value=0 -3.69957e-05 0.00132626 0.00239123 0.0166284 -0.000497579 0.00167676 0.00783211 0.00113581 -4.72872e-05 -0.000109416 -0.00015819 -0.000649218 -0.0022873
internal_weight=0 181379 1359 858 41 501 817 66 751 180020 137798 128951 18167 11486
internal_count=217633 181379 1359 858 41 501 817 66 751 180020 137798 128951 18167 11486
shrinkage=0.15


Tree=274
num_leaves=15
num_cat=0
split_feature=31 11 4 4 20 23 3 9 22 2 22 22 2 22
split_gain=0.0591204 1.41713 1.25149 2.38795 1.22258 1.27813 1.29388 1.28483 4.38405 3.71438 2.41046 2.69161 2.61724 2.30561
threshold=-0.15543199999999999 2.3517950000000001e-05 1.1140750000000001 -1.4177149999999996 -0.53812299999999991 -18.039999999999996 -6.4132949999999989 2.0953800000000006e-05 -0.83303549999999993 -0.81985099999999989 -1.1338649999999999 0.96020400000000017 0.88385100000000005 0.77552150000000009
decision_type=2 2 2 2 2 2 2 2 2 2 2 2 2 2
left_child=1 -1 3 -3 -5 -6 7 8 9 -7 -9 -12 -13 -10
right_child=-2 2 -4 4 5 6 -8 10 13 -11 11 12 -14 -15
leaf_value=-0.00045067499035571137 -3.7033957711705292e-05 -0.0010480497558602922 -0.0010449374618139091 -0.0032486947667160885 -0.0014007590373172881 0.037838539991863679 -0.00092821426082941689 -0.010444516927568252 -0.0076525175749893514 -0.0067805942014274477 0.0097331875910955188 -0.010985593097778362 0.042042708963803625 0.010128517574314516
leaf_weight=27055 177748 3139 3318 483 703 122 635 158 621 64 3107 234 23 223
leaf_count=27055 177748 3139 3318 483 703 122 635 158 621 64 3107 234 23 223
internal_value=0 0.000165042 0.00146342 0.0023384 0.00400638 0.00460132 0.00541479 0.00629963 0.0016396 0.0224857 0.00766245 0.00851289 -0.00623987 -0.00295445
internal_weight=0 39885 12830 9512 6373 5890 5187 4552 1030 186 3522 3364 257 844
internal_count=217633 39885 12830 9512 6373 5890 5187 4552 1030 186 3522 3364 257 844
shrinkage=0.15


Tree=275
num_leaves=15
num_cat=0
split_feature=3 23 23 3 23 14 23 3 3 34 39 0 14 23
split_gain=0.0758184 0.309071 0.255902 0.560075 2.48233 1.87747 1.01554 3.1041 1.30677 1.79305 0.760413 0.738607 0.587113 3.01647
threshold=-6.6023349999999992 -6.3165649999999989 -7.2957849999999995 -7.3111649999999999 -10.016399999999999 0.00051341800000000008 -7.4322149999999985 -7.0757599999999989 -6.9170499999999988 0.010117100000000002 0.00010073550000000001 9.8368500000000019 0.00030621600000000005 -9.0957449999999991
decision_type=2 2 2 2 2 2 2 2 2 2 2 2 2 2
left_child=2 -2 3 12 -5 6 8 11 9 -6 -11 -8 13 -1
right_child=1 -3 -4 4 5 -7 7 -9 -10 10 -12 -13 -14 -15
leaf_value=-0.00073796339994639112 0.00022624707225581982 -0.0011648914376384792 0.00029007785601004694 0.00060264980759137346 -0.017311457318242979 0.0002820357298403419 0.025458032363471952 -0.0091168491375900867 -0.0030019133694508334 -0.0085482689651505163 -0.001364335809101954 -0.0058573055220767856 -0.00018120164692232295 0.0038529411510889052
leaf_weight=9271 58157 3830 36750 8759 419 2130 111 197 1789 1025 490 20 89751 4934
leaf_count=9271 58157 3830 36750 8759 419 2130 111 197 1789 1025 490 20 89751 4934
internal_value=0 0.000140293 -5.58724e-05 -0.000162803 -0.00102158 -0.00332325 -0.0052189 0.00278255 -0.00592383 -0.00862668 -0.00622475 0.0206771 -3.93847e-05 0.000856653
internal_weight=0 61987 155646 118896 14940 6181 4051 328 3723 1934 1515 131 103956 14205
internal_count=217633 61987 155646 118896 14940 6181 4051 328 3723 1934 1515 131 103956 14205
shrinkage=0.15


Tree=276
num_leaves=15
num_cat=0
split_feature=23 14 34 28 14 23 14 23 28 1 34 1 32 2
split_gain=0.0674614 0.101837 0.200122 0.343401 0.212688 0.167346 0.327851 0.468054 0.485061 2.36525 1.77557 0.994576 3.02628 2.03813
threshold=-17.896049999999999 0.00010876350000000002 0.044056800000000007 -0.024907849999999995 8.9811050000000015e-05 -9.9145799999999991 0.00019721000000000002 -8.6253599999999988 0.0047670900000000007 4.2597300000000011 0.031381750000000007 1.8441800000000004 0.012643000000000001 -0.1546215
decision_type=2 2 2 2 2 2 2 2 2 2 2 2 2 2
left_child=-1 2 3 4 -2 -3 7 -7 11 -10 -11 12 13 -9
right_child=1 5 -4 -5 -6 6 -8 8 9 10 -12 -13 -14 -15
leaf_value=0.0003313256491454294 -0.0038002808426983335 -0.00025622726134142971 0.00052425411663509257 -6.2908511020546437e-05 -0.015904545938023009 -0.0023876611187245238 0.00016170025089306853 -0.0065409715596205882 -0.0024973303004293384 0.011551467920869869 -0.00015116994153743235 -0.0028843984121512526 0.0041409322286576613 0.0098418604009195242
leaf_weight=13001 201 67352 20430 22373 39 2764 81954 1332 1457 678 512 3001 2343 196
leaf_count=13001 201 67352 20430 22373 39 2764 81954 1332 1457 678 512 3001 2343 196
internal_value=0 -2.10503e-05 0.000183977 -0.00012345 -0.00576722 -7.56641e-05 5.33859e-05 -0.000669303 -0.00017035 0.00155492 0.00651638 -0.000834902 0.000753974 -0.00443951
internal_weight=0 204632 43043 22613 240 161589 94237 12283 9519 2647 1190 6872 3871 1528
internal_count=217633 204632 43043 22613 240 161589 94237 12283 9519 2647 1190 6872 3871 1528
shrinkage=0.15


Tree=277
num_leaves=15
num_cat=0
split_feature=4 4 23 3 3 25 23 18 18 15 19 14 25 23
split_gain=0.0664922 0.0930114 0.173549 0.308913 0.454278 0.608423 0.550648 0.422532 0.396863 0.392004 0.342872 0.316439 0.546006 0.460155
threshold=-1.4177149999999996 1.5436950000000003 -6.551404999999999 -6.942054999999999 -6.572074999999999 3.0220900000000004 -6.2906249999999995 -8.6838149999999993e-07 -3.1628799999999997e-06 -7.8360099999999987e-08 8.7823200000000017e-05 0.00018273250000000005 1.2240550000000001 -6.2906249999999995
decision_type=2 2 2 2 2 2 2 2 2 2 2 2 2 2
left_child=-1 2 -2 11 5 6 7 8 -5 -9 -7 13 -13 -4
right_child=1 -3 3 4 -6 10 -8 9 -10 -11 -12 12 -14 -15
leaf_value=0.00019094842318504739 -0.00014291685623600534 0.00018454875301914287 6.667281085180382e-05 -0.0087912578692731381 0.00010620622767551365 -0.0017649304704608875 -0.0011852880644980374 -0.002621155006307808 0.010348613947952308 -0.016357277179792473 0.011787985481742697 0.0015022660896662982 -0.001321760319505859 0.0060967748452489968
leaf_weight=34523 132948 34838 528 65 6074 91 335 62 39 190 78 5022 2222 618
leaf_count=34523 132948 34838 528 65 6074 91 335 62 39 190 78 5022 2222 618
internal_value=0 -3.60008e-05 -8.78212e-05 0.000390178 -0.000350642 -0.00357726 -0.00555036 -0.00965795 -0.00161381 -0.0129778 0.00449026 0.00100244 0.000636034 0.00331851
internal_weight=0 183110 148272 15324 6934 860 691 356 104 252 169 8390 7244 1146
internal_count=217633 183110 148272 15324 6934 860 691 356 104 252 169 8390 7244 1146
shrinkage=0.15


Tree=278
num_leaves=15
num_cat=0
split_feature=8 32 34 7 21 10 18 34 3 22 13 33 34 18
split_gain=0.0611914 0.127077 0.107669 0.754906 0.100687 0.0944995 0.0984736 0.0860146 0.117574 0.081972 0.0790688 1.14665 1.53482 1.98608
threshold=-3.3579299999999992e-05 -0.10883 0.031995550000000005 6.4068100000000018e-05 18.392150000000004 5.198605000000001e-05 9.0773400000000014e-06 0.084651750000000012 -6.4680349999999995 1.6880500000000003 -2.1361299999999998e-05 6.5089500000000006e-06 0.13950200000000001 -4.1156349999999994e-05
decision_type=2 2 2 2 2 2 2 2 2 2 2 2 2 2
left_child=1 2 3 -1 5 6 7 8 -4 -8 11 -2 13 -13
right_child=10 -3 4 -5 -6 -7 9 -9 -10 -11 -12 12 -14 -15
leaf_value=0.030333588631474413 -0.00084067005271456152 0.00060591315908477814 -0.016424332975193152 -0.001820617793978099 0.0088241381752595764 -0.00054574291102608323 0.0073569417731050631 -0.0031566174477303281 -0.002797160966396664 -0.0032979426016523077 2.0572393977858735e-05 -0.0022137820514158421 -0.00059772423020269165 0.0051541936778302499
leaf_weight=20 21660 8801 29 92 24 1956 32 209 28 33 175286 1112 5182 3169
leaf_count=20 21660 8801 29 92 24 1956 32 209 28 33 175286 1112 5182 3169
internal_value=0 0.000341086 -0.000620837 0.0039212 -0.000840962 -0.000942388 -0.00328631 -0.00456526 -0.00973028 0.00194754 -1.85474e-05 -0.000238872 0.00113859 0.00324034
internal_weight=0 11224 2423 112 2311 2287 331 266 57 65 206409 31123 9463 4281
internal_count=217633 11224 2423 112 2311 2287 331 266 57 65 206409 31123 9463 4281
shrinkage=0.15


Tree=279
num_leaves=15
num_cat=0
split_feature=34 3 23 3 23 3 20 14 23 5 14 10 20 3
split_gain=0.0653214 0.143025 0.298421 0.285614 0.731583 0.594129 0.660168 0.64149 0.453854 0.384503 0.948447 0.673847 0.994255 0.685182
threshold=0.43971050000000006 -6.4440149999999994 -6.9868449999999989 -6.0288849999999989 -6.551404999999999 -6.2768299999999995 12.570150000000002 0.00026086750000000003 -6.2906249999999995 2.0953350000000002e-05 9.1523500000000006e-05 4.5221600000000008e-05 6.7373500000000011 -6.2187599999999987
decision_type=2 2 2 2 2 2 2 2 2 2 2 2 2 2
left_child=1 -1 -3 4 5 6 7 -4 9 -6 -11 12 13 -12
right_child=-2 2 3 -5 8 -7 -8 -9 -10 10 11 -13 -14 -15
leaf_value=-0.00011704510144588578 0.00017954045086882527 0.00038900973213729843 -0.014960375101411533 -6.7051807002113808e-05 0.00059472443983445188 -0.0020092609124677595 0.016416679997928438 -0.0017260758905473924 -0.0024195727087402336 0.036098066635895522 0.036935715624866514 -0.0029531141231066275 -0.013274215941783041 0.0041334719739413977
leaf_weight=133012 37697 36555 268 7767 584 578 21 119 812 24 38 114 21 23
leaf_count=133012 37697 36555 268 7767 584 578 21 119 812 24 38 114 21 23
internal_value=0 -3.76141e-05 0.000187543 -0.00052271 -0.00188286 -0.00510283 -0.00948538 -0.0108909 8.18027e-05 0.00260807 0.00795258 0.00450619 0.0148764 0.0245677
internal_weight=0 179936 46924 10369 2602 986 408 387 1616 804 220 196 82 61
internal_count=217633 179936 46924 10369 2602 986 408 387 1616 804 220 196 82 61
shrinkage=0.15


Tree=280
num_leaves=15
num_cat=0
split_feature=4 33 13 21 12 2 32 4 13 26 32 13 32 0
split_gain=0.0619779 0.108884 0.189738 0.100384 0.522475 0.376711 0.274252 0.675415 0.173174 0.156418 0.109379 0.104721 0.103026 0.120561
threshold=-1.5283549999999997 1.3458700000000004e-07 -2.3689349999999998e-06 -0.43199149999999992 1.9714300000000002e-05 1.6013750000000002 -4.4063499999999989 -2.6848399999999994 -3.1817149999999993e-06 0.074756100000000006 -0.098691049999999989 6.9651600000000016e-05 -0.63404999999999989 -2.9082999999999997
decision_type=2 2 2 2 2 2 2 2 2 2 2 2 2 2
left_child=1 2 -1 4 8 9 7 -7 -3 -5 11 -8 -6 -14
right_child=-2 3 -4 5 12 6 10 -9 -10 -11 -12 -13 13 -15
leaf_value=0.0014990398266989545 -3.4243690243620186e-05 -0.0036789233942666677 0.00021409081623436689 0.00078504358568912396 -0.004722356968137319 -0.003529035897988181 -0.0053314047943702784 0.029340834110255606 -0.0011699443041561139 0.013751898133861167 -0.00097856172023738012 -0.0016929340073388909 0.0020641574827348595 0.00029264779917444357
leaf_weight=3174 183966 752 13948 6421 75 39 326 22 3499 21 1133 392 1305 2560
leaf_count=3174 183966 752 13948 6421 75 39 326 22 3499 21 1133 392 1305 2560
internal_value=0 0.000187117 0.000452289 -8.73023e-05 -0.000460439 0.000278554 -0.00157035 0.00832567 -0.00161378 0.000827314 -0.00189648 -0.00334494 0.000783941 0.00089079
internal_weight=0 33667 17122 16545 8191 8354 1912 61 4251 6442 1851 718 3940 3865
internal_count=217633 33667 17122 16545 8191 8354 1912 61 4251 6442 1851 718 3940 3865
shrinkage=0.15


Tree=281
num_leaves=15
num_cat=0
split_feature=2 21 28 20 5 3 28 16 31 18 15 15 3 23
split_gain=0.0514439 1.22629 2.81116 3.83661 3.15498 1.76509 1.6154 1.5472 1.47925 1.07354 0.823785 1.16025 1.43566 0.948724
threshold=2.7325550000000005 3.4860600000000006 0.00014218450000000004 -5.0832949999999988 1.3007300000000002e-05 -6.5186449999999985 0.0081630400000000016 -3.8224499999999993e-06 0.0049114750000000011 -5.6742149999999992e-06 -1.3919949999999997e-05 1.1005450000000001e-05 -7.1105099999999988 -6.8340949999999987
decision_type=2 2 2 2 2 2 2 2 2 2 2 2 2 2
left_child=-1 2 -2 4 5 6 7 -4 -3 -8 -6 12 -12 -14
right_child=1 8 3 -5 10 -7 9 -9 -10 -11 11 -13 13 -15
leaf_value=1.8115306449853343e-05 -0.00098294673762410649 0.00024836581990137516 0.010750110184184092 0.00012719491895791339 -0.0046490391420911685 0.001843720057308126 0.033517666917759925 0.037859044310127231 -0.005371397735426952 -0.00025567192448458319 0.023728574324041785 -0.0054443944430058759 -0.0047356781300884306 0.031113093425519763
leaf_weight=204985 6004 2257 61 1430 160 85 30 212 1977 72 142 100 98 20
leaf_count=204985 6004 2257 61 1430 160 85 30 212 1977 72 142 100 98 20
internal_value=0 -0.000293593 0.000754139 0.00508172 0.0123113 0.0213602 0.025784 0.0318017 -0.00237569 0.00967766 0.00430642 0.00828662 0.0135678 0.00134038
internal_weight=0 12648 8414 2410 980 460 375 273 4234 102 520 360 260 118
internal_count=217633 12648 8414 2410 980 460 375 273 4234 102 520 360 260 118
shrinkage=0.15


Tree=282
num_leaves=15
num_cat=0
split_feature=4 23 3 3 14 3 23 14 4 24 24 3 18 34
split_gain=0.0550946 0.108954 0.168101 0.144811 0.155541 0.120731 0.195599 0.124639 0.105247 6.33885 2.36698 2.04009 2.24921 3.12701
threshold=1.5436950000000003 -6.551404999999999 -6.9170499999999988 -6.6541099999999984 0.0029699900000000005 -6.0545599999999995 -6.9680999999999989 0.00029851800000000006 0.083762600000000006 0.076297150000000022 0.076297150000000022 -6.0545599999999995 3.3180850000000009e-05 0.31672950000000005
decision_type=2 2 2 2 2 2 2 2 2 2 2 2 2 2
left_child=8 2 -2 4 -3 6 -4 -8 10 11 -1 12 13 -10
right_child=1 3 5 -5 -6 -7 7 -9 9 -11 -12 -13 -14 -15
leaf_value=0.00064963823100378914 0.00011692879698121827 0.0020025824828080723 0.0021324796278683021 -0.0032880593787989942 -0.00076053959252379529 0.00022459245041435631 -0.013439537855711848 -0.00145280453470008 -0.0046414985497651527 0.0014889913158475107 -0.0006325302751985023 0.00059380794267581665 -0.00014916013357575041 0.0007168964630934945
leaf_weight=68099 26636 557 2430 404 2589 2027 22 173 11666 25529 61790 6210 6399 3102
leaf_count=68099 26636 557 2430 404 2589 2027 22 173 11666 25529 61790 6210 6399 3102
internal_value=0 0.000172878 0.000262231 -0.000614641 -0.000271328 0.00109419 0.00176568 -0.00280515 -3.29479e-05 -0.000211288 3.96929e-05 -0.00179679 -0.00249815 -0.00351597
internal_weight=0 34838 31288 3550 3146 4652 2625 195 182795 52906 129889 27377 21167 14768
internal_count=217633 34838 31288 3550 3146 4652 2625 195 182795 52906 129889 27377 21167 14768
shrinkage=0.15


Tree=283
num_leaves=15
num_cat=0
split_feature=22 9 19 11 37 35 9 19 9 37 17 37 18 13
split_gain=0.0567362 0.334917 0.14248 0.233933 0.195642 0.103038 0.150216 0.0620293 0.0687677 0.0743633 0.0546217 1.29918 3.47532 2.95127
threshold=-3.0952799999999994 -9.7436699999999992e-06 2.2068700000000004e-08 -1.5565849999999996e-05 -5.4757149999999993e-08 -0.0023268 -5.596479999999999e-05 0.0026085900000000005 -3.591789999999999e-05 -3.8525249999999996e-08 1.65204e-07 5.2154650000000009e-09 6.6807150000000012e-08 8.4862800000000007e-06
decision_type=2 2 2 2 2 2 2 2 2 2 2 2 2 2
left_child=1 2 3 4 -1 6 -4 8 9 -7 11 -2 -13 -14
right_child=10 -3 5 -5 -6 7 -8 -9 -10 -11 -12 12 13 -15
leaf_value=-0.0063124021976753795 0.00052079079602580639 0.0026680879598952058 0.011179894215820241 0.00058630252380680763 -0.023522790134681958 -0.0037154439751996989 0.00019310115980953837 0.00090021034713280484 -0.00069268999774251396 -0.012616553375031798 -7.5881078119436146e-05 -0.0014845192030279802 -0.00067223982518492792 0.0041891130132693634
leaf_weight=42 59015 986 36 60 23 136 126 137 158 25 117527 28093 5924 5345
leaf_count=42 59015 986 36 60 23 136 126 137 158 25 117527 28093 5924 5345
internal_value=0 0.000855838 -0.00154911 -0.00616774 -0.0124022 -0.000614925 0.00263461 -0.00176936 -0.00291586 -0.0050976 -6.85371e-06 7.56105e-05 -0.000591843 0.00163355
internal_weight=0 1729 743 125 65 618 162 456 319 161 215904 98377 39362 11269
internal_count=217633 1729 743 125 65 618 162 456 319 161 215904 98377 39362 11269
shrinkage=0.15


Tree=284
num_leaves=15
num_cat=0
split_feature=4 24 36 10 17 19 19 10 21 4 3 33 25 3
split_gain=0.0706364 0.139716 0.129404 0.48089 0.805616 0.364183 0.195345 0.276449 0.174204 0.403939 0.0896422 0.0876688 0.0875726 0.212624
threshold=-1.1246349999999998 0.086797500000000014 0.27672400000000003 1.6442100000000003e-05 -2.2351049999999997e-05 0.00011964300000000002 0.00031313300000000005 4.6019550000000012e-05 4.7592950000000007 -3.3062649999999993 -8.3608649999999987 -1.2766899999999998e-07 1.8209250000000001 -12.195349999999999
decision_type=2 2 2 2 2 2 2 2 2 2 2 2 2 2
left_child=1 2 12 4 -4 -5 7 -7 -8 -10 11 -3 -1 -14
right_child=-2 10 3 5 -6 6 8 -9 9 -11 -12 -13 13 -15
leaf_value=7.9246319634392284e-06 -3.8744960653811457e-05 0.00062079784261433245 0.00085077974051403417 0.015415276794561318 0.034061127059329815 -0.019599288036422673 -0.00066055732357608908 0.0027795604687012002 0.00049794886112471831 0.02545269835885847 0.00098105715619218941 -0.00022547853238870797 0.00097413459747742407 -0.0015066652447346292
leaf_weight=15604 180524 6393 42 35 27 27 413 23 54 20 5832 4839 1090 2710
leaf_count=15604 180524 6393 42 35 27 27 413 23 54 20 5832 4839 1090 2710
internal_value=0 0.000188482 -8.00599e-05 0.00201685 0.0138461 0.00058989 -0.000376383 -0.00930502 0.000540314 0.00724248 0.000503938 0.000256203 -0.00014933 -0.000795067
internal_weight=0 37109 20045 641 69 572 537 50 487 74 17064 11232 19404 3800
internal_count=217633 37109 20045 641 69 572 537 50 487 74 17064 11232 19404 3800
shrinkage=0.15


Tree=285
num_leaves=15
num_cat=0
split_feature=4 38 4 38 4 38 24 14 14 23 4 14 38 4
split_gain=0.0557287 3.60907 3.21921 3.3139 3.1647 2.81257 2.77821 2.25621 2.0184 2.00377 1.993 2.18645 2.14059 2.45699
threshold=-0.06056559999999999 2.7182450000000003e-05 -0.38312399999999996 0.0045479550000000011 -0.38312399999999996 -0.0056186199999999987 -0.079346599999999975 9.5139850000000004e-05 9.7364850000000017e-05 -6.6317949999999994 0.46547150000000009 0.00011358100000000001 0.006464295000000001 0.019025200000000003
decision_type=2 2 2 2 2 2 2 2 2 2 2 2 2 2
left_child=1 4 -3 8 -1 -6 10 -7 -4 -9 11 -2 13 -13
right_child=6 2 3 -5 5 7 -8 9 -10 -11 -12 12 -14 -15
leaf_value=0.00032617994979758185 -0.0001712594911184562 -0.00016826067931766816 0.00062898833220138047 -0.00057791681696362255 0.0007245298579738542 -0.00029663937570102906 0.0006250291516398974 -0.0050212674582095678 0.00443452721756811 9.6148437302785958e-05 0.00027768126094081057 0.0012113482807788044 5.699136743734508e-05 -0.0042453163740203788
leaf_weight=25294 15557 24806 4241 6436 5859 4712 63034 10204 12034 2071 23133 2172 5292 12788
leaf_count=25294 15557 24806 4241 6436 5859 4712 63034 10204 12034 2071 23133 2172 5292 12788
internal_value=0 8.57131e-05 0.0010131 0.00230343 -0.000829668 -0.00210937 -6.72186e-05 -0.00308681 0.00344287 -0.00415787 -0.000807525 -0.00150858 -0.00253587 -0.00345308
internal_weight=0 95657 47517 22711 48140 22846 121976 16987 16275 12275 58942 35809 20252 14960
internal_count=217633 95657 47517 22711 48140 22846 121976 16987 16275 12275 58942 35809 20252 14960
shrinkage=0.15


Tree=286
num_leaves=15
num_cat=0
split_feature=10 20 20 0 0 0 20 14 0 33 13 13 33 3
split_gain=0.0598981 1.46125 2.88901 1.88208 1.8749 1.77268 1.86835 1.6989 2.37151 1.3789 5.04186 3.12279 2.39945 2.68301
threshold=2.0057950000000003e-05 3.9041150000000004 -3.4919999999999995 4.4992300000000016 -3.5147349999999995 -3.5147349999999995 -6.2436999999999996 0.0048352200000000012 4.1687100000000008 -8.8274299999999983e-06 1.8790800000000007e-05 1.6938500000000004e-05 2.3350150000000005e-05 -7.6814349999999996
decision_type=2 2 2 2 2 2 2 2 2 2 2 2 2 2
left_child=1 2 5 -3 -4 6 -1 8 9 10 -6 12 13 -11
right_child=-2 3 4 -5 7 -7 -8 -9 -10 11 -12 -13 -14 -15
leaf_value=-0.00097592772319785579 -4.2030167753546998e-05 -0.0015327474210639254 -0.0023432349767948117 0.0050127788451219766 -0.0026434034269668073 -0.0013941045491325061 0.0080695085557992412 0.00038097920808916849 -0.0025844048037391367 0.011674550848578545 0.01333233648448973 -0.0014628657815230974 0.0012934730921276129 0.0039886920925054394
leaf_weight=1080 169329 14083 1958 1063 1757 13616 980 5230 1194 2690 595 1161 1249 1648
leaf_count=1080 169329 14083 1958 1063 1757 13616 980 5230 1194 2690 595 1161 1249 1648
internal_value=0 0.000147336 0.000704929 -0.00107336 0.00203078 -0.000773667 0.00332724 0.00258246 0.00370095 0.00452564 0.00139808 0.00561575 0.00708671 0.0087547
internal_weight=0 48304 33158 15146 17482 15676 2060 15524 10294 9100 2352 6748 5587 4338
internal_count=217633 48304 33158 15146 17482 15676 2060 15524 10294 9100 2352 6748 5587 4338
shrinkage=0.15


Tree=287
num_leaves=15
num_cat=0
split_feature=20 0 0 0 20 14 4 4 14 23 23 20 22 29
split_gain=0.0780555 3.87263 2.13242 2.04808 4.25977 3.67174 2.19546 2.58247 2.16252 4.82148 4.04162 2.15367 2.07857 1.99431
threshold=3.8385900000000004 4.0166200000000005 3.8361500000000004 9.6988100000000017 10.36265 0.0032082450000000006 0.67000000000000015 -0.68792049999999982 0.00017734350000000003 -8.4609499999999986 -7.5179349999999987 10.210350000000002 -1.1071899999999999 1.0000000180025095e-35
decision_type=2 2 2 2 2 2 2 2 2 2 2 2 2 2
left_child=2 -2 -1 4 5 6 7 -3 9 -9 12 -5 -10 -4
right_child=1 3 13 11 -6 -7 -8 8 10 -11 -12 -13 -14 -15
leaf_value=0.00033880013397511333 -0.00068676207021904515 -0.0017624228879090328 -0.0023998409368093392 -0.002010502196311346 -0.0024838379625887145 -0.00019284850383976884 -0.0022319988341767522 -0.0015768039355051932 -0.0068473423466306879 0.009650465215886677 0.00041278497841700895 0.0042423072759097524 0.011071082029027656 -0.00026723768853939355
leaf_weight=98051 46217 956 13842 5351 3224 4270 866 1896 151 1576 1148 1613 4121 34351
leaf_count=98051 46217 956 13842 5351 3224 4270 866 1896 151 1576 1148 1613 4121 34351
internal_value=0 0.000128574 -6.27635e-05 0.00162557 0.00246234 0.00352657 0.00500892 0.00564566 0.00644212 0.00351944 0.00831436 -0.000562228 0.0104377 -0.000879764
internal_weight=0 71389 146244 25172 18208 14984 10714 9848 8892 3472 5420 6964 4272 48193
internal_count=217633 71389 146244 25172 18208 14984 10714 9848 8892 3472 5420 6964 4272 48193
shrinkage=0.15


Tree=288
num_leaves=15
num_cat=0
split_feature=4 38 14 5 33 39 4 14 19 31 14 26 23 31
split_gain=0.0907467 0.0811978 0.142692 0.137803 0.3012 0.114011 0.395477 0.662811 0.417071 0.326117 0.291507 0.761949 0.600077 0.346795
threshold=-1.1246349999999998 0.00036813200000000002 0.0050209550000000006 7.5896450000000008e-06 3.1208300000000004e-05 0.020406850000000001 -2.2825899999999995 0.022652900000000004 9.7524750000000008e-05 -13.003849999999998 0.0094046000000000025 0.011675600000000003 -10.319049999999999 1.2537150000000004
decision_type=2 2 2 2 2 2 2 2 2 2 2 2 2 2
left_child=1 2 -1 4 -3 -5 -7 8 -8 -10 11 13 -12 -11
right_child=-2 3 -4 5 -6 6 7 -9 9 10 12 -13 -14 -15
leaf_value=0.00091528722008365603 -4.3915360256213115e-05 -0.00070494222790130597 0.00013326354252970375 -0.00027969736250344981 0.021051405617477443 -0.00034205041607896283 0.019442684002100457 0.02506882195436471 -0.013672448509605601 0.011858098748976968 0.007819773767657941 0.033734502107836302 -0.023158949660137294 -0.0084141260621925958
leaf_weight=7506 180524 41 17465 11074 22 748 31 37 30 37 34 21 24 39
leaf_count=7506 180524 41 17465 11074 22 748 31 37 30 37 34 21 24 39
internal_value=0 0.000213635 0.000368331 -0.000104615 0.00689251 -0.000141122 0.00139193 0.00651849 0.00334088 0.000642742 0.00341342 0.00844354 -0.00499901 0.00145525
internal_weight=0 37109 24971 12138 63 12075 1001 253 216 185 155 97 58 76
internal_count=217633 37109 24971 12138 63 12075 1001 253 216 185 155 97 58 76
shrinkage=0.15


Tree=289
num_leaves=15
num_cat=0
split_feature=4 21 16 12 28 36 4 28 24 4 11 36 24 16
split_gain=0.0687958 0.0801618 0.700195 0.258053 0.220198 0.52492 1.55862 0.189042 0.317257 0.822507 0.149836 0.120228 0.0876139 0.0968921
threshold=-1.4177149999999996 -2.8596399999999997 -4.2510049999999991e-06 1.7246900000000003e-05 0.0020348000000000002 0.14581350000000001 -2.5355949999999994 0.0013842950000000002 -1.4457799999999998 -2.6848399999999994 -0.00035091199999999994 -0.0026028249999999996 -0.35208349999999994 2.6513900000000004e-05
decision_type=2 2 2 2 2 2 2 2 2 2 2 2 2 2
left_child=1 2 -1 4 5 -3 10 -5 9 -9 -7 -10 13 -4
right_child=-2 3 12 7 -6 6 -8 8 11 -11 -12 -13 -14 -15
leaf_value=0.0010298274984610783 -3.6619134924359374e-05 -0.00046049534061875201 -0.0069246269257906964 0.0008617722277678763 0.0013279418275062638 0.011929186942434172 0.037405274266546419 -0.0033057411749905438 -0.001858773528304138 0.027491226892379927 -0.0024390170624377628 -0.00036178056053196798 -0.00096591991204418343 -0.0020040677612740863
leaf_weight=6310 183110 3469 102 2892 7604 20 33 50 1519 32 89 5879 5756 768
leaf_count=6310 183110 3469 102 2892 7604 20 33 50 1519 32 89 5879 5756 768
internal_value=0 0.000194228 -0.00010104 0.000371167 0.000869915 -9.45924e-05 0.00884426 -0.000168117 -0.000566304 0.00871259 0.000197351 -0.000669152 -0.00117798 -0.00258096
internal_weight=0 34523 12936 21587 11215 3611 142 10372 7480 82 109 7398 6626 870
internal_count=217633 34523 12936 21587 11215 3611 142 10372 7480 82 109 7398 6626 870
shrinkage=0.15


Tree=290
num_leaves=15
num_cat=0
split_feature=20 0 3 11 11 7 22 1 14 3 34 14 2 8
split_gain=0.059991 1.00211 2.17536 1.29531 1.23727 0.982639 0.835914 1.83314 0.81792 1.36143 1.0216 1.01251 0.797418 0.840054
threshold=9.7253800000000012 9.1590050000000023 -6.3853549999999988 5.181150000000001e-05 -9.3170799999999979e-06 7.2250850000000013e-05 0.47068050000000006 5.2110150000000006 0.00059260700000000009 -6.1661399999999995 0.028647800000000005 0.00016362750000000005 0.47245600000000004 9.0733750000000019e-06
decision_type=2 2 2 2 2 2 2 2 2 2 2 2 2 2
left_child=-1 4 3 5 -2 6 12 -8 9 10 11 -6 13 -3
right_child=1 2 -4 -5 8 -7 7 -9 -10 -11 -12 -13 -14 -15
leaf_value=-2.2678338955772171e-05 0.0013468341774461041 0.015775370302824894 -0.00080052406844414103 -0.0010825573216080603 -0.013998753650597445 0.0260279705398716 -0.019080484920583073 0.03288682284099715 -4.0673105537953439e-05 0.00041248993788280206 -0.0015107176197965376 -0.0051421966981134853 -0.014341556510422378 -0.00080388113714345707
leaf_weight=200968 6543 426 1263 228 442 96 56 21 4299 1474 863 847 25 82
leaf_count=200968 6543 426 1263 228 442 96 56 21 4299 1474 863 847 25 82
internal_value=0 0.000273485 0.00325843 0.00874714 -0.000179786 0.0119216 0.00970158 -0.00490758 -0.00144019 -0.00309946 -0.00550494 -0.00817912 0.0118121 0.0130992
internal_weight=0 16665 2197 934 14468 706 610 77 7925 3626 2152 1289 533 508
internal_count=217633 16665 2197 934 14468 706 610 77 7925 3626 2152 1289 533 508
shrinkage=0.15


Tree=291
num_leaves=15
num_cat=0
split_feature=3 23 3 23 14 30 15 14 36 16 16 36 36 15
split_gain=0.057375 0.414115 2.19909 5.42145 3.38811 1.79717 1.61677 1.83832 3.0335 7.56673 4.69721 7.53343 2.12779 2.1014
threshold=-8.1765499999999971 -8.2043399999999984 -7.2233449999999992 -7.2526199999999994 0.0011649500000000003 0.0034343600000000005 -1.1680849999999999e-06 0.00017734350000000003 -0.00068597299999999988 1.0000000180025095e-35 -6.487584999999999e-08 0.00018760400000000002 -0.00028039949999999992 1.1163500000000001e-06
decision_type=2 2 2 2 2 2 2 2 2 2 2 2 2 2
left_child=-1 -2 3 4 5 6 -3 -8 9 -9 12 -12 -10 -13
right_child=1 2 -4 -5 -6 -7 7 8 10 -11 11 13 -14 -15
leaf_value=-7.3694399699950847e-05 -0.00015432274312021576 -0.001668839132346745 -0.00015706604383871527 -0.00057315372145876997 -0.00018065145416679333 -0.001624783541257201 0.0076305469913899695 0.04324090242493208 0.02088663871254539 -0.0065012334503841635 -0.0012574919973964234 0.039465415888592939 -0.0098818882226548357 0.0022595334128709507
leaf_weight=113613 64387 210 30325 5441 1120 287 1080 231 64 98 222 275 241 39
leaf_count=113613 64387 210 30325 5441 1120 287 1080 231 64 98 222 275 241 39
internal_value=0 8.04907e-05 0.000461964 0.00247873 0.00677284 0.0096079 0.0109184 0.0120932 0.0162126 0.0284241 0.0114354 0.0198917 -0.00342554 0.0348443
internal_weight=0 104020 39633 9308 3867 2747 2460 2250 1170 329 841 536 305 314
internal_count=217633 104020 39633 9308 3867 2747 2460 2250 1170 329 841 536 305 314
shrinkage=0.15


Tree=292
num_leaves=15
num_cat=0
split_feature=3 23 3 23 3 14 10 20 9 9 20 20 9 11
split_gain=0.0716815 0.252331 0.354527 1.75646 1.1493 1.33922 1.06571 1.23222 3.58559 1.86474 1.37065 1.14134 1.87154 1.2913
threshold=-6.6023349999999992 -7.2957849999999995 -7.3420999999999994 -6.789509999999999 -6.7134699999999992 0.00070374100000000013 4.4502150000000006e-05 8.9183100000000017 2.7541700000000004e-05 3.0168650000000001e-05 6.1742150000000011 8.6135100000000016 4.3278050000000005e-05 1.5881600000000004e-05
decision_type=2 2 2 2 2 2 2 2 2 2 2 2 2 2
left_child=1 -1 -3 4 5 6 7 9 -9 -4 -11 13 -13 -8
right_child=-2 2 3 -5 -6 -7 11 8 -10 10 -12 12 -14 -15
leaf_value=-0.0001605091285860968 0.00013641156740610714 8.667194376951215e-05 0.014908962220596518 -0.00097449866770739748 -0.0037003829252565471 -0.0011226138704541154 0.0043493647503983299 -0.013966116176623921 0.024931176144829283 -0.015654979051493972 0.022783401821340834 -0.01142912184074521 0.023473198553671994 -0.013444712329822773
leaf_weight=118896 61987 30909 833 3234 353 526 247 146 84 82 28 50 112 146
leaf_count=118896 61987 30909 833 3234 353 526 247 146 84 82 28 50 112 146
internal_value=0 -5.43268e-05 0.000289201 0.00136093 0.00425805 0.00550442 0.00752168 0.010084 0.000239851 0.012485 -0.00587066 0.00210614 0.0127009 -0.00226116
internal_weight=0 155646 36750 5841 2607 2254 1728 1173 230 943 110 555 162 393
internal_count=217633 155646 36750 5841 2607 2254 1728 1173 230 943 110 555 162 393
shrinkage=0.15


Tree=293
num_leaves=15
num_cat=0
split_feature=4 33 13 27 4 14 38 17 33 4 23 19 33 22
split_gain=0.0722814 0.11319 0.320112 0.130442 0.381164 0.88648 0.102449 0.160933 0.239513 0.100713 0.15977 0.189589 2.26554 2.42579
threshold=1.5436950000000003 2.4838450000000008e-07 -9.1282599999999975e-06 67.650400000000005 2.9123050000000004 0.025446700000000003 -0.011478049999999998 2.55652e-05 0.00037874450000000009 -1.4177149999999996 -6.551404999999999 0.0016320550000000001 9.148070000000001e-06 -1.1864199999999998
decision_type=2 2 2 2 2 2 2 2 2 2 2 2 2 2
left_child=9 2 -2 -4 5 -5 7 -3 -9 -1 11 -11 -13 -14
right_child=1 6 3 4 -6 -7 -8 8 -10 10 -12 12 13 -15
leaf_value=0.00019300324066860846 0.0019869420961214504 -0.0042570318579027112 0.00014991712904676829 -0.00045209253512439317 -0.00034391329220397889 0.03980453731652233 1.7956448324748886e-05 -0.00090504742374115823 0.011162853374396665 -7.7716687667960755e-05 0.00036716769931076257 -0.0017744417016286808 -0.0077728697152304148 0.0032810215445575482
leaf_weight=34523 2640 329 14979 32 120 20 15956 723 39 116797 15324 11391 499 4261
leaf_count=34523 2640 329 14979 32 120 20 15956 723 39 116797 15324 11391 499 4261
internal_value=0 0.000198015 0.000462677 0.00019708 0.00430438 0.0150312 -7.81984e-05 -0.00148447 -0.000287399 -3.77387e-05 -9.14636e-05 -0.000144327 -0.000626023 0.00212222
internal_weight=0 34838 17791 15151 172 52 17047 1091 762 182795 148272 132948 16151 4760
internal_count=217633 34838 17791 15151 172 52 17047 1091 762 182795 148272 132948 16151 4760
shrinkage=0.15


Tree=294
num_leaves=15
num_cat=0
split_feature=23 3 14 19 14 9 20 3 21 12 5 29 28 24
split_gain=0.0615183 0.140348 0.282884 0.232379 0.200967 0.324102 1.04369 0.219547 0.296874 0.370951 0.247398 0.224615 0.191402 0.172488
threshold=-17.896049999999999 -6.2498799999999992 0.0034191400000000006 0.061939000000000008 0.0075547300000000008 5.1584800000000008e-05 4.2630900000000009 -12.278849999999998 -4.256924999999999 -0.00026899199999999996 9.6016850000000005e-06 -0.040432349999999992 -0.0038396199999999998 -0.49656149999999993
decision_type=2 2 2 2 2 2 2 2 2 2 2 2 2 2
left_child=1 2 3 -1 5 7 -7 8 9 -4 -11 -10 -5 -13
right_child=-2 -3 4 12 -6 6 -8 -9 11 10 -12 13 -14 -15
leaf_value=0.0013704728378265533 -2.0101700266709216e-05 -0.00056906731794484041 0.014879005826743584 -0.019476154510101134 0.00025817967475223253 -0.0034533055172947312 0.035758694878313686 -0.000261238468473814 -0.014777492062876263 0.010745953085424843 -0.0085586986062141587 0.0031336654104739048 0.00054447461817679662 -0.0063982886925071205
leaf_weight=5614 204632 3075 35 22 3215 56 21 417 64 20 59 49 21 333
leaf_count=5614 204632 3075 35 22 3215 56 21 417 64 20 59 49 21 333
internal_value=0 0.000316395 0.000590704 0.00128633 -0.000331099 -0.00212857 0.00724088 -0.002867 -0.00480736 0.00202387 -0.00367145 -0.00655345 -0.00969864 -0.0051756
internal_weight=0 13001 9926 5657 4269 1054 77 977 560 114 79 446 43 382
internal_count=217633 13001 9926 5657 4269 1054 77 977 560 114 79 446 43 382
shrinkage=0.15


Tree=295
num_leaves=15
num_cat=0
split_feature=14 34 3 3 32 14 23 23 14 29 31 20 0 10
split_gain=0.0598585 0.160057 0.272668 0.209214 0.344192 0.718578 0.263086 0.440652 0.394788 0.398537 0.339288 0.579883 0.935657 0.734007
threshold=0.0027514900000000005 0.025459200000000005 -15.512049999999999 -17.495099999999997 6.0037800000000008 0.043654400000000003 -17.297799999999995 -11.472849999999999 0.0094046000000000025 -0.11932899999999998 0.18765600000000002 0.53709300000000015 1.0000000180025095e-35 4.683900000000001e-05
decision_type=2 2 2 2 2 2 2 2 2 2 2 2 2 2
left_child=-1 2 -2 4 6 -6 10 8 -8 -10 11 13 -13 -3
right_child=1 3 -4 -5 5 -7 7 -9 9 -11 -12 12 -14 -15
leaf_value=-5.6435674555736549e-05 0.0013297851601099975 0.01609644012911661 0.00015885800309574423 2.4920489928223128e-05 -0.0010423402904115361 0.028967736408750305 -0.007336895511640143 -0.00022669138045990444 -0.022290971732997735 -0.001329367818297995 -0.0045398772754184583 -0.012178821521724495 0.0074340586652952585 -0.01260027495372924
leaf_weight=143684 5584 122 22523 42623 58 26 510 1364 21 724 145 94 131 24
leaf_count=143684 5584 122 22523 42623 58 26 510 1364 21 724 145 94 131 24
internal_value=0 0.000109655 0.000391485 -6.31424e-05 -0.00122919 0.00824649 -0.00148308 -0.00209301 -0.00412143 -0.00192023 0.00161265 0.00401728 -0.000759767 0.0113792
internal_weight=0 73949 28107 45842 3219 84 3135 2619 1255 745 516 371 225 146
internal_count=217633 73949 28107 45842 3219 84 3135 2619 1255 745 516 371 225 146
shrinkage=0.15


Tree=296
num_leaves=15
num_cat=0
split_feature=3 34 4 3 14 4 3 5 21 1 4 24 26 4
split_gain=0.0647432 0.182165 0.302197 0.610012 0.605735 0.537254 1.14961 0.696266 0.76504 0.768169 0.653732 1.46514 0.677615 1.71825
threshold=-6.8865649999999992 0.0031989700000000002 0.086015600000000011 -5.9751649999999996 0.00028996100000000009 -0.08417284999999998 -5.9751649999999996 2.3105000000000003e-05 -8.9484099999999973 7.0860800000000008 0.065355050000000012 1.0000000180025095e-35 -6.1646299999999979e-05 -0.0098646799999999989
decision_type=2 2 2 2 2 2 2 2 2 2 2 2 2 2
left_child=-1 2 5 4 -4 -2 7 10 -9 -10 12 -12 13 -7
right_child=1 -3 3 -5 -6 6 -8 8 9 -11 11 -13 -14 -15
leaf_value=-5.6668108206578158e-05 -0.0026766670273858533 0.00017380460326983199 -0.011496482777157715 0.00035737526125333076 -0.00079526854858251179 -0.030958770705140467 -0.0016487291188681294 0.037930563783213016 -0.011304259923286734 0.022378481828715078 -0.030460829291647919 0.0081922487220971989 0.010152559834984587 0.012574307332911035
leaf_weight=147073 1036 66984 280 545 207 34 899 31 25 39 36 57 336 51
leaf_count=147073 1036 66984 280 545 207 34 899 31 25 39 36 57 336 51
internal_value=0 0.000118117 -0.000924994 -0.00308999 -0.00694792 -4.67425e-05 0.00176002 0.00679199 0.0185895 0.00922116 0.00461152 -0.00677023 0.00712578 -0.00483892
internal_weight=0 70560 3576 1032 487 2544 1508 609 95 64 514 93 421 85
internal_count=217633 70560 3576 1032 487 2544 1508 609 95 64 514 93 421 85
shrinkage=0.15


Tree=297
num_leaves=15
num_cat=0
split_feature=31 11 3 23 14 23 4 4 34 23 3 23 3 3
split_gain=0.0597436 0.874659 0.952535 1.18258 0.993629 0.990248 0.819469 1.67093 0.889449 0.848514 1.5243 1.10323 6.28274 5.21054
threshold=-0.15543199999999999 3.0275450000000005e-05 -10.446599999999998 -10.209099999999998 0.021235350000000004 -17.743599999999997 1.3212600000000003 -1.4177149999999996 3.5771350000000006 -17.075499999999995 -16.413199999999996 -9.1777649999999991 -9.3834099999999996 -8.9446899999999996
decision_type=2 2 2 2 2 2 2 2 2 2 2 2 2 2
left_child=1 2 3 4 5 -1 7 -3 9 10 -9 13 -13 -11
right_child=-2 6 -4 -5 -6 -7 -8 8 -10 11 -12 12 -14 -15
leaf_value=1.463894837438052e-05 -3.7228638980239492e-05 -0.00075235341209481485 0.0002223345958552633 0.00052586615812638758 0.00036492658699208201 -0.006325757823544065 -0.00080183848198165026 0.014882206096883926 -0.0016812870169712951 0.010860953521661864 -0.0040980886289000438 -0.006363063947316297 0.013017372704756211 -0.0052039770649056983
leaf_weight=728 177748 3061 21221 2941 1148 2322 3134 116 623 1931 531 874 661 594
leaf_count=728 177748 3061 21221 2941 1148 2322 3134 116 623 1931 531 874 661 594
internal_value=0 0.00016591 -0.000281879 -0.00178068 -0.00339657 -0.00481238 0.0012678 0.0020408 0.0036449 0.00434985 -0.00069513 0.00515382 0.00198252 0.00708172
internal_weight=0 39885 28360 7139 4198 3050 11525 8391 5330 4707 647 4060 1535 2525
internal_count=217633 39885 28360 7139 4198 3050 11525 8391 5330 4707 647 4060 1535 2525
shrinkage=0.15


Tree=298
num_leaves=15
num_cat=0
split_feature=12 21 23 21 13 22 19 22 19 20 11 1 22 0
split_gain=0.0608017 0.280742 0.331684 0.617222 1.3048 1.39591 1.59782 2.68057 0.839242 0.823892 1.17969 1.1056 0.974009 2.53573
threshold=0.00015943000000000004 7.0074550000000011 -10.156499999999999 4.5333550000000011 5.4641750000000013e-05 1.1016150000000002 4.1466950000000005e-05 1.6604000000000003 1.2778600000000002e-05 -0.41020399999999996 -0.00012009049999999999 6.609325000000001 1.84284 -1.7898499999999997
decision_type=2 2 2 2 2 2 2 2 2 2 2 2 2 2
left_child=-1 2 3 8 5 -5 7 -7 -2 10 -8 12 -12 -14
right_child=1 -3 -4 4 -6 6 9 -9 -10 -11 11 -13 13 -15
leaf_value=-3.5080250240095467e-05 -0.0042199727941660417 -0.00077110007934442398 0.00086661294550761209 -0.0041200107777488891 -0.00089025834876342135 0.033266881819730414 -0.0028486145790055637 -0.0025057557457579581 -0.00014369714263207472 -0.0029536387949949199 0.039211435922972701 -0.0016608444183993224 0.029058227330096997 -0.01455138897736712
leaf_weight=182002 1264 5847 14883 226 1386 133 122 73 11260 188 49 65 90 45
leaf_count=182002 1264 5847 14883 226 1386 133 122 73 11260 188 49 65 90 45
internal_value=0 0.000179189 0.000365743 -0.000134521 0.00208144 0.00623761 0.00929751 0.0205902 -0.0005551 0.00513599 0.00923532 0.015156 0.0210967 0.0145217
internal_weight=0 35631 29784 14901 2377 991 765 206 12524 559 371 249 184 135
internal_count=217633 35631 29784 14901 2377 991 765 206 12524 559 371 249 184 135
shrinkage=0.15


Tree=299
num_leaves=15
num_cat=0
split_feature=23 3 14 3 23 24 5 35 0 6 33 18 4 33
split_gain=0.0603771 0.132483 0.340614 0.18763 0.432069 0.55448 0.701823 0.396351 0.499379 0.486751 0.453075 0.50939 0.619011 0.551442
threshold=-16.783199999999997 -6.0822949999999993 0.00068334050000000012 -16.559399999999997 -18.575849999999999 0.73599100000000017 1.9410550000000003e-05 -0.0016969599999999997 2.6455750000000005 1.4773500000000001e-06 5.8000550000000005e-05 -0.00060569649999999992 0.79323650000000001 -4.8404199999999993e-05
decision_type=2 2 2 2 2 2 2 2 2 2 2 2 2 2
left_child=1 2 -1 4 5 -4 -7 8 9 -6 11 -9 13 -13
right_child=-2 -3 3 -5 7 6 -8 10 -10 -11 -12 12 -14 -15
leaf_value=0.0014015102506478058 -2.5070328465568362e-05 -0.00049575791311483547 -0.0037821006193147146 -0.00029413232920616863 -0.0082206293317966372 0.0010819243666316781 0.034425847900420192 -0.002666416153078899 0.014042473743812969 0.014091105382361161 -0.0067246318615027971 -0.0068958034431561826 -0.0010278633464197325 0.016536986515046086
leaf_weight=5497 197724 4232 412 9025 143 49 20 78 39 26 51 25 77 235
leaf_count=5497 197724 4232 412 9025 143 49 20 78 39 26 51 25 77 235
internal_value=0 0.000248983 0.000450026 -6.37572e-05 0.00173636 -0.00169791 0.0107468 0.00418723 -0.00125733 -0.00478805 0.00661741 0.00825704 0.0107853 0.0142838
internal_weight=0 19909 15677 10180 1155 481 69 674 208 169 466 415 337 260
internal_count=217633 19909 15677 10180 1155 481 69 674 208 169 466 415 337 260
shrinkage=0.15


Tree=300
num_leaves=15
num_cat=0
split_feature=4 28 12 12 21 4 15 36 13 33 13 4 37 0
split_gain=0.0593394 0.119152 0.73644 0.625205 0.151823 0.327451 0.5572 0.178092 0.0963939 0.0945053 0.107542 0.340834 0.123367 0.0916796
threshold=1.5436950000000003 0.0020348000000000002 2.5800150000000004e-05 9.962515000000001e-06 -6.0095599999999996 3.3313850000000005 -1.5458549999999994e-05 0.0052611850000000007 6.9651600000000016e-05 0.00022867500000000004 0.00012123800000000001 1.9928500000000002 -3.6008749999999996e-06 3.5762150000000008
decision_type=2 2 2 2 2 2 2 2 2 2 2 2 2 2
left_child=-1 2 -2 -3 5 6 -5 -6 -4 10 12 -12 13 -9
right_child=1 3 8 4 7 -7 -8 9 -10 -11 11 -13 -14 -15
leaf_value=-3.4193597907414046e-05 -0.00093861897590311798 0.0014241548446744092 0.0016540752857295222 -0.0011045438334060069 -0.0002316160234734041 -0.0022205463047827254 0.033489011863712219 -0.013413112523623419 0.00059223256376322343 0.0073596761911176138 0.014194306097417739 -0.0018640328041334977 -0.0031033389316728693 -0.0013616704812739043
leaf_weight=182795 10305 7864 2715 22 5959 55 20 49 6599 23 31 731 445 20
leaf_count=182795 10305 7864 2715 22 5959 55 20 49 6599 23 31 731 445 20
internal_value=0 0.000179414 -6.49121e-05 0.000494377 -0.000499745 0.00539536 0.0153686 -0.00057853 0.000901756 -0.00216996 -0.00234173 -0.00121074 -0.00401841 -0.00991994
internal_weight=0 34838 19619 15219 7355 97 42 7258 9314 1299 1276 762 514 69
internal_count=217633 34838 19619 15219 7355 97 42 7258 9314 1299 1276 762 514 69
shrinkage=0.15


Tree=301
num_leaves=15
num_cat=0
split_feature=3 23 3 0 21 22 0 20 10 17 10 12 11 20
split_gain=0.0581549 0.250525 0.205559 0.434835 0.417651 0.3971 0.367602 0.318447 0.388397 0.217837 0.379547 0.262777 0.248896 1.20422
threshold=-6.6023349999999992 -6.3165649999999989 -5.8866849999999991 12.154700000000002 -5.4119349999999988 0.20022150000000002 -12.025299999999998 -12.193649999999998 5.5454300000000002e-05 -3.1235699999999993e-08 1.2545400000000002e-05 8.292345000000001e-05 -1.0087699999999998e-05 -8.4074199999999983
decision_type=2 2 2 2 2 2 2 2 2 2 2 2 2 2
left_child=-1 -2 3 6 -5 -6 -3 8 -8 -9 -11 12 -12 -14
right_child=1 2 -4 4 5 -7 7 9 -10 10 11 -13 13 -15
leaf_value=-4.8933183839047379e-05 0.00020025500801448248 -0.011759356083124516 -0.00015886080034543986 -0.02799241284115447 0.0095946699366322719 -0.014297396063144938 -0.014938713967452534 -0.004711469254019808 0.0087262387177906922 -0.014325213515947229 0.0067374683170190871 -0.0084234204747536696 -0.015280811441698459 0.002701234017100965
leaf_weight=155646 58157 78 2306 27 24 45 71 231 20 38 172 63 96 659
leaf_count=155646 58157 78 2306 27 24 45 71 231 20 38 172 63 96 659
internal_value=0 0.000122869 -0.00105221 -0.00240397 -0.0121761 -0.00598711 -0.00174701 -0.00116852 -0.00973763 -0.000549153 0.000386154 0.000950833 0.00158792 0.000414775
internal_weight=0 61987 3830 1524 96 69 1428 1350 91 1259 1028 990 927 755
internal_count=217633 61987 3830 1524 96 69 1428 1350 91 1259 1028 990 927 755
shrinkage=0.15


Tree=302
num_leaves=15
num_cat=0
split_feature=18 20 0 3 39 18 33 18 15 0 24 0 0 0
split_gain=0.0612024 0.0842071 0.778706 0.869582 1.22828 0.564863 0.146795 0.328898 0.135733 0.398215 1.34897 0.200695 0.216521 0.190129
threshold=-0.00015207299999999999 13.471950000000001 11.124200000000002 -6.0288849999999989 0.00044504700000000001 -1.4614499999999998e-06 -1.2622299999999997e-06 1.4868950000000003e-07 -1.7099749999999999e-06 5.4734500000000006 -0.49656149999999993 10.919150000000002 10.429750000000002 3.5762150000000008
decision_type=2 2 2 2 2 2 2 2 2 2 2 2 2 2
left_child=-1 -2 8 4 -4 -5 7 -7 9 -3 -11 12 13 -10
right_child=1 2 3 5 -6 6 -8 -9 11 10 -12 -13 -14 -15
leaf_value=0.00016430936417039568 -5.1282787241336682e-05 0.00096542637646071213 0.054391777275928428 0.025820270229384979 0.0082523899070699423 -0.0045824680217940892 -0.0054956451425525422 0.017689900455969527 0.00061731648534890811 0.044658703347668055 -0.0086070963186616802 -0.014704489783616735 0.011940139635771629 -0.0024668902438741576
leaf_weight=41322 173674 394 21 22 34 35 61 26 1242 20 23 22 32 705
leaf_count=41322 173674 394 21 22 34 35 61 26 1242 20 23 22 32 705
internal_value=0 -3.85092e-05 0.000802766 0.00982498 0.0258692 0.00369696 -0.000292486 0.00491067 6.63347e-05 0.0024613 0.0161677 -0.000456704 -0.000298315 -0.000499461
internal_weight=0 176311 2637 199 55 144 122 61 2438 437 43 2001 1979 1947
internal_count=217633 176311 2637 199 55 144 122 61 2438 437 43 2001 1979 1947
shrinkage=0.15


Tree=303
num_leaves=15
num_cat=0
split_feature=4 33 13 4 1 22 3 22 2 22 33 20 34 2
split_gain=0.0505384 0.0772094 0.122791 0.073789 0.120095 1.7674 2.84525 5.57512 7.18309 7.46452 2.99451 2.57835 2.55493 2.46969
threshold=-1.5283549999999997 -2.0867999999999997e-06 -5.3045099999999988e-06 1.4356200000000003 -4.141049999999999 -0.57336749999999992 -7.2547399999999991 -2.4496249999999997 -2.4290249999999998 -2.7300499999999999 -2.0893199999999995e-05 -9.3203249999999986 0.0050649250000000005 -1.4789899999999998
decision_type=2 2 2 2 2 2 2 2 2 2 2 2 2 2
left_child=1 2 -1 4 5 6 7 8 9 -2 -11 -12 -9 -10
right_child=3 -3 -4 -5 -6 -7 -8 12 13 10 11 -13 -14 -15
leaf_value=0.0013626450828451006 -0.012482896615728061 -2.6282086656069002e-05 0.00022543745944382862 0.00016275149614008224 -0.00017545836500986448 -0.00066055382411900419 -0.00048909649990132851 -0.0034210814534086352 -0.010797589049968352 -0.00020546649233438074 0.0037870594812557099 0.062885396140485009 0.0057054821018901799 -0.00070888871739120576
leaf_weight=2614 91 19362 11691 35678 97150 29045 11670 763 1163 30 20 98 7229 1029
leaf_count=2614 91 19362 11691 35678 97150 29045 11670 763 1163 30 20 98 7229 1029
internal_value=0 0.000168969 0.000433243 -3.09224e-05 -7.75202e-05 0.000108539 0.00111964 0.00292085 -0.00336925 0.0213239 0.0421104 0.0528687 0.00483416 -0.00606161
internal_weight=0 33667 14305 183966 148288 51138 22093 10423 2431 239 148 118 7992 2192
internal_count=217633 33667 14305 183966 148288 51138 22093 10423 2431 239 148 118 7992 2192
shrinkage=0.15


Tree=304
num_leaves=15
num_cat=0
split_feature=3 20 0 20 13 3 11 24 11 38 18 15 17 28
split_gain=0.0850725 0.166841 1.77297 1.13713 1.26406 1.18764 0.834927 0.71339 0.622785 0.658783 2.15805 0.440659 0.39703 0.465227
threshold=-6.8865649999999992 9.8638550000000009 9.4310500000000008 11.260050000000001 1.614735e-05 -7.4471299999999987 -2.6952949999999995e-06 0.41772450000000005 3.0275450000000005e-05 4.4098550000000001e-05 -2.2201049999999995e-07 3.4125350000000009e-08 4.663200000000001e-08 0.0034175050000000008
decision_type=2 2 2 2 2 2 2 2 2 2 2 2 2 2
left_child=1 -1 6 4 5 11 -3 12 9 10 -7 -4 -5 -14
right_child=-2 2 3 7 -6 8 -8 -9 -10 -11 -12 -13 13 -15
leaf_value=-0.00010937044774645727 0.00013539749062540043 0.0014870618571439294 0.029634160781279204 0.013865434332846609 -0.0041172097169000273 -0.021115323505364356 -0.0012397924768083081 0.022344272000315996 -0.0054925715033378869 0.040936356022953986 0.041856182634830479 0.055261327645096642 -0.00016482362973046794 -0.020829701272305101
leaf_weight=136523 70560 4978 36 34 46 24 5130 35 27 25 25 26 134 30
leaf_count=136523 70560 4978 36 34 46 24 5130 35 27 25 25 26 134 30
internal_value=0 -6.49585e-05 0.000509757 0.00980877 0.017842 0.0240391 0.000103132 0.00260299 0.0140074 0.0211222 0.011013 0.040381 -0.000886629 -0.00394498
internal_weight=0 147073 10550 442 209 163 10108 233 101 74 49 62 198 164
internal_count=217633 147073 10550 442 209 163 10108 233 101 74 49 62 198 164
shrinkage=0.15


Tree=305
num_leaves=15
num_cat=0
split_feature=22 2 1 32 32 29 12 20 3 23 33 8 33 28
split_gain=0.0678255 0.389942 0.649309 0.363171 0.584849 0.365122 0.177395 0.459911 0.410014 0.400112 0.198002 0.187907 0.165955 0.091237
threshold=-3.0104949999999993 -1.8924299999999998 -0.79546799999999995 0.0074303950000000002 0.032912150000000008 0.0053825800000000005 -4.1124599999999996e-05 -8.2830599999999972 -6.9692649999999992 -8.0775649999999981 -3.3389649999999995e-07 4.1546100000000007e-06 2.2511800000000004e-05 -0.0030361699999999995
decision_type=2 2 2 2 2 2 2 2 2 2 2 2 2 2
left_child=1 2 6 5 -5 -4 12 8 9 -8 -11 -9 13 -1
right_child=-2 -3 3 4 -6 -7 7 11 -10 10 -12 -13 -14 -15
leaf_value=-0.0064219878307792688 -1.1936460079437341e-05 0.0013311486531098298 0.014574649566784502 0.03488120401650667 0.00046727313834708182 -0.013744314187871557 -0.03553645833581686 0.013560152522820447 -0.0048197547017865446 -0.0021196909410798031 -0.021802068844629936 -0.0021975548352687231 0.0089420531303039744 -0.0015553800959504621
leaf_weight=108 213299 3404 20 25 20 21 25 21 85 23 23 90 30 439
leaf_count=108 213299 3404 20 25 20 21 25 21 85 23 23 90 30 439
internal_value=0 0.000587456 -0.00213462 0.0102818 0.0195861 6.98145e-05 -0.0033998 -0.00659666 -0.011848 -0.0202621 -0.0119609 0.000783633 -0.00192049 -0.00251625
internal_weight=0 4334 930 86 45 41 844 267 156 71 46 111 577 547
internal_count=217633 4334 930 86 45 41 844 267 156 71 46 111 577 547
shrinkage=0.15


Tree=306
num_leaves=15
num_cat=0
split_feature=3 23 3 23 14 34 3 23 3 23 22 13 15 17
split_gain=0.0623781 0.194371 0.276879 2.02433 1.50631 0.982492 0.893622 1.37082 3.40459 0.904346 0.637441 0.610063 0.373467 0.316053
threshold=-6.6023349999999992 -7.2957849999999995 -7.3111649999999999 -9.0957449999999991 0.00022068200000000001 0.022790300000000003 -6.860879999999999 -7.4878699999999991 -7.1641399999999988 -8.2315849999999973 1.8895150000000001 5.7140750000000009e-06 1.9371650000000003e-07 8.2058200000000017e-08
decision_type=2 2 2 2 2 2 2 2 2 2 2 2 2 2
left_child=1 2 -1 -4 5 6 7 9 10 -5 11 -9 -11 -10
right_child=-2 -3 3 4 -6 -7 -8 8 13 12 -12 -13 -14 -15
leaf_value=-5.7095107250881808e-05 0.00012725170205995533 0.00025082549819286986 0.0003922762061342511 -0.0087744427812279507 -0.00060138699279909693 -0.0025142243208703678 -0.003801029811543833 0.016101573110790923 -0.0055380904152989383 -0.022204893762187566 -0.0001147093517439706 0.046419558195131168 -0.008654195861567536 -0.025341956622221249
leaf_weight=103956 61987 36750 10475 284 2180 977 498 32 25 300 21 28 54 66
leaf_count=103956 61987 36750 10475 284 2180 977 498 32 25 300 21 28 54 66
internal_value=0 -5.06788e-05 -0.000143872 -0.000747685 -0.00342206 -0.00611312 -0.00880129 -0.0118755 9.11439e-06 -0.0150795 0.0223776 0.03025 -0.0201378 -0.0199013
internal_weight=0 155646 118896 14940 4465 2285 1308 810 172 638 81 60 354 91
internal_count=217633 155646 118896 14940 4465 2285 1308 810 172 638 81 60 354 91
shrinkage=0.15


Tree=307
num_leaves=15
num_cat=0
split_feature=7 32 12 36 16 25 16 30 31 16 32 12 17 36
split_gain=0.0583518 0.164609 0.182079 0.156663 0.545025 0.561145 0.544293 0.638615 0.25396 0.239505 0.286126 0.699572 0.206021 0.472134
threshold=2.1244100000000002e-05 -0.83958549999999987 0.00011505000000000002 0.0013440100000000003 8.0942150000000013e-08 1.0523650000000002 6.4739650000000005e-07 0.00058566250000000009 -0.068189049999999987 1.4107900000000004e-07 -0.10883 6.7451950000000014e-05 1.4793650000000002e-05 -0.0017052799999999998
decision_type=2 2 2 2 2 2 2 2 2 2 2 2 2 2
left_child=1 2 -1 8 -5 6 7 -6 12 10 11 -10 -3 -14
right_child=-2 3 -4 4 5 -7 -8 -9 9 -11 -12 -13 13 -15
leaf_value=-0.0018453201156356453 -1.1033637344815412e-05 -0.0032358170040242842 -0.01605495996773243 -0.00029606680507563115 0.036787401589773304 0.0020501716083377425 0.0063635760657263975 0.006616118841338902 0.002246873819352074 -0.001190159344217393 0.0013860491578689931 0.026507593170390465 0.024595476779504678 -0.0055797622840015847
leaf_weight=261 213328 575 22 633 38 224 93 27 104 786 1458 36 20 28
leaf_count=261 213328 575 22 633 38 224 93 27 104 786 1458 36 20 28
internal_value=0 0.000546756 -0.00294996 0.000792795 0.00240414 0.00687855 0.0137239 0.0242547 0.000248894 0.000953583 0.00200801 0.00848534 -0.0024477 0.00699325
internal_weight=0 4305 283 4022 1015 382 158 65 3007 2384 1598 140 623 48
internal_count=217633 4305 283 4022 1015 382 158 65 3007 2384 1598 140 623 48
shrinkage=0.15


Tree=308
num_leaves=15
num_cat=0
split_feature=22 2 8 20 1 0 11 3 2 3 11 3 23 3
split_gain=0.0558231 0.216185 0.095811 0.105062 0.101837 0.0917917 0.0685569 0.0844468 0.065592 0.0618413 0.0554661 0.0542518 0.24823 0.22815
threshold=-3.0952799999999994 -2.4792649999999994 1.5639350000000001e-06 -6.8164749999999996 -1.7729049999999997 -9.4982149999999983 -8.1991599999999983e-05 -6.1381299999999994 2.8862200000000002 -6.3575099999999987 3.3798550000000003e-06 -6.8865649999999992 -6.6317949999999994 -6.6023349999999992
decision_type=2 2 2 2 2 2 2 2 2 2 2 2 2 2
left_child=1 2 -1 4 6 9 -4 -8 10 -3 -7 -2 -13 -14
right_child=11 5 3 -5 -6 8 7 -9 -10 -11 -12 12 13 -15
leaf_value=0.0029900533357010172 -5.8883152904479305e-05 -0.0075970500897567126 0.00073656460593026288 0.00059648975507019361 -0.016079370937614631 0.0005249206153071826 -0.012570797150807552 -0.0010550549839694135 0.0081031706768347547 -0.00015261234969059573 0.002444615051267265 0.00021041232023970787 -0.0026748099450714584 -0.00035396485227232131
leaf_weight=38 145898 38 28 47 26 595 38 23 36 74 786 60981 1083 7942
leaf_count=38 145898 38 28 47 26 595 38 23 36 74 786 60981 1083 7942
internal_value=0 0.000848924 -0.0037887 -0.00537877 -0.00782084 0.00145554 -0.00540823 -0.0082288 0.00178229 -0.0026784 0.00161752 -6.79834e-06 0.000101751 -0.000632466
internal_weight=0 1729 200 162 115 1529 89 61 1417 112 1381 215904 70006 9025
internal_count=217633 1729 200 162 115 1529 89 61 1417 112 1381 215904 70006 9025
shrinkage=0.15


Tree=309
num_leaves=15
num_cat=0
split_feature=20 0 11 7 11 14 2 22 25 22 34 14 22 35
split_gain=0.050747 0.76093 0.955104 0.868094 0.65391 0.910756 0.556152 1.3484 0.8988 0.809734 0.711766 0.600952 0.440723 0.406283
threshold=-9.7539799999999968 -8.8447699999999987 8.5222450000000026e-06 6.577650000000001e-05 -1.3164299999999997e-05 0.00068334050000000012 -2.8982399999999995 -2.8863399999999997 23.183300000000006 -2.8863399999999997 0.0028742850000000003 7.0631650000000013e-05 -2.8036449999999995 -0.003974474999999999
decision_type=2 2 2 2 2 2 2 2 2 2 2 2 2 2
left_child=1 3 -3 4 5 6 9 -8 10 -1 -9 -12 -13 -11
right_child=-2 2 -4 -5 -6 -7 7 8 -10 13 11 12 -14 -15
leaf_value=0.01391214189639162 -2.0147422624358807e-05 -0.001367072785267725 0.0011660597293908694 -0.0011422865571771835 0.00027442860704385649 -0.00047573700254633158 -0.0052171281026837041 0.00080926579642383496 -0.0030802559398580343 0.0078875935623727855 0.0099638594094498181 0.04322309944292773 0.021535841783257608 -0.015438984715313252
leaf_weight=67 202004 7047 6382 788 440 254 86 51 54 24 104 23 253 56
leaf_count=67 202004 7047 6382 788 440 254 86 51 54 24 104 23 253 56
internal_value=0 0.000260404 -0.000163227 0.00284629 0.0050722 0.00724403 0.00997498 0.0120932 0.0151626 0.00174716 0.0174483 0.0196814 0.0233431 -0.00844101
internal_weight=0 15629 13429 2200 1412 972 718 571 485 147 431 380 276 80
internal_count=217633 15629 13429 2200 1412 972 718 571 485 147 431 380 276 80
shrinkage=0.15


Tree=310
num_leaves=15
num_cat=0
split_feature=10 22 2 22 22 2 2 14 1 23 23 23 3 2
split_gain=0.0548723 1.01449 3.06115 6.95323 2.78314 8.23742 4.78488 2.82544 4.80042 10.9707 3.38726 3.0355 3.79097 2.55
threshold=2.0057950000000003e-05 -2.0263699999999996 -2.0349049999999997 -2.2993349999999997 -1.1864199999999998 -1.2072549999999997 -2.0349049999999997 0.0067067750000000008 -10.060549999999997 -7.5179349999999987 -7.644499999999999 -15.570249999999998 -15.166249999999998 -1.4789899999999998
decision_type=2 2 2 2 2 2 2 2 2 2 2 2 2 2
left_child=1 2 3 -1 5 6 -3 8 10 11 -8 12 -10 -4
right_child=-2 4 13 -5 -6 -7 7 -9 9 -11 -12 -13 -14 -15
leaf_value=-0.0026086175514368655 -4.0228263198543115e-05 -0.0094102908797096766 -0.0069105964829212375 0.035629532646235244 -0.00011963858715215671 -0.0016999337030073139 -0.0047950653077758918 0.0026171461565335399 0.036963033350184561 -0.0082844339208220062 0.014527988343769194 0.028630053468520763 -0.010062481829380783 -0.00054514235896455966
leaf_weight=319 169329 299 1888 161 33359 3656 441 760 60 273 380 936 108 5664
leaf_count=319 169329 299 1888 161 33359 3656 441 760 60 273 380 936 108 5664
internal_value=0 0.00014102 -0.00139824 0.0102171 0.000448016 0.00318726 0.00867316 0.0105011 0.0132271 0.0186399 0.00414861 0.0252978 0.00673235 -0.00213651
internal_weight=0 48304 8032 480 40272 6913 3257 2958 2198 1377 821 1104 168 7552
internal_count=217633 48304 8032 480 40272 6913 3257 2958 2198 1377 821 1104 168 7552
shrinkage=0.15


Tree=311
num_leaves=15
num_cat=0
split_feature=21 8 14 3 23 16 34 16 2 23 3 2 22 2
split_gain=0.0672122 1.05539 1.34105 2.98865 5.64396 2.44579 3.48936 3.94574 2.201 1.40037 2.00802 0.85705 0.846325 7.7235
threshold=-5.6552149999999992 1.3589650000000001e-05 0.0021510100000000005 -7.0419349999999996 -7.0815949999999992 3.6571050000000005e-06 0.14278350000000004 -2.5005099999999995e-06 -2.5518049999999994 -7.0815949999999992 -5.9751649999999996 0.16486150000000002 -0.96010649999999986 -0.96344399999999986
decision_type=2 2 2 2 2 2 2 2 2 2 2 2 2 2
left_child=1 11 3 4 5 6 7 -3 -9 -5 -11 -1 -10 -14
right_child=-2 2 -4 9 -6 -7 -8 8 12 10 -12 -13 13 -15
leaf_value=-0.0013881808154796726 4.4259351086527849e-05 -0.0043829733824353031 -0.0015878141163867584 -0.0020939625206155962 -0.0050470962269168829 -0.0012506314130595955 0.00094870576100495338 -0.013096365251618882 0.022040597150932418 0.0091228622144729245 -0.0013346760214393081 7.2195535048681707e-05 -0.015022323250719852 0.052925417851656671
leaf_weight=15432 169773 187 2895 3020 784 377 476 46 973 744 929 21836 101 60
leaf_count=15432 169773 187 2895 3020 784 377 476 46 973 744 929 21836 101 60
internal_value=0 -0.000157 0.00116427 0.00219938 0.00589377 0.00975758 0.0120094 0.0158608 0.0190689 -0.00016541 0.0033159 -0.00053252 0.0203737 0.0102998
internal_weight=0 47860 10592 7697 3004 2220 1843 1367 1180 4693 1673 37268 1134 161
internal_count=217633 47860 10592 7697 3004 2220 1843 1367 1180 4693 1673 37268 1134 161
shrinkage=0.15


Tree=312
num_leaves=15
num_cat=0
split_feature=14 23 23 14 7 21 8 8 14 23 23 23 14 2
split_gain=0.0832457 0.169567 0.193136 0.254668 0.313074 0.370971 5.45882 1.46759 1.42668 1.99981 1.11284 1.54158 4.42648 1.85319
threshold=0.0027514900000000005 -6.3165649999999989 -16.933649999999997 0.00010876350000000002 5.0336000000000007e-05 7.0074550000000011 -1.2060599999999999e-05 -1.1620099999999999e-05 0.00085365250000000016 -9.6697249999999979 -11.078849999999997 -7.6156999999999995 0.00020775150000000003 0.81660350000000015
decision_type=2 2 2 2 2 2 2 2 2 2 2 2 2 2
left_child=1 2 -1 -4 5 7 8 -5 10 -10 -7 12 -12 -14
right_child=-2 -3 3 4 -6 6 -8 -9 9 -11 11 -13 13 -15
leaf_value=0.00046261847448187521 0.00012931465931733199 0.00059615096680675254 0.00015432690807035577 -0.0023581161506816086 9.0098477754751535e-05 -0.0047494859567534424 -0.0016856255277892299 -0.00026224999125547737 0.019337337278209264 -0.0052484093786971733 -0.0021900140139657124 0.0050662170870997185 -0.015703793693783469 0.023175786523729463
leaf_weight=12203 73949 8192 38940 9478 28971 130 7262 36338 92 390 260 834 29 565
leaf_count=12203 73949 8192 38940 9478 28971 130 7262 36338 92 390 260 834 29 565
internal_value=0 -6.65536e-05 -0.000106621 -0.000162964 -0.000309443 -0.000518463 0.000331357 -0.000695824 0.00669976 -0.000555694 0.00862338 0.00965328 0.0141329 0.0212776
internal_weight=0 143684 135492 123289 84349 55378 9562 45816 2300 482 1818 1688 854 594
internal_count=217633 143684 135492 123289 84349 55378 9562 45816 2300 482 1818 1688 854 594
shrinkage=0.15


Tree=313
num_leaves=15
num_cat=0
split_feature=34 16 36 19 36 16 17 3 0 26 0 37 14 4
split_gain=0.0621771 0.152258 0.357326 0.52576 0.249396 0.35533 0.358756 0.252263 0.248396 0.491684 0.715174 1.31613 0.23867 0.544022
threshold=1.1817050000000002 -1.6260199999999997e-06 0.082357500000000014 0.00019856900000000003 -0.010862299999999998 4.4267150000000007e-07 2.3557150000000002e-05 -7.5830149999999987 3.6530250000000004 -0.00049287749999999992 4.8666000000000009 4.3166350000000011e-06 0.0012017500000000003 -2.2825899999999995
decision_type=2 2 2 2 2 2 2 2 2 2 2 2 2 2
left_child=-1 2 -2 -4 5 -3 12 -6 -8 10 11 -10 -7 -14
right_child=1 4 3 -5 7 6 8 -9 9 -11 -12 -13 13 -15
leaf_value=-2.5494696708075553e-05 0.0005137239649616774 0.00080781427651115448 -0.0065700570588695661 -0.00071642998660288195 0.0018349203198681973 -0.00062605809195574985 -0.0011111791181683062 0.00015074530840664355 0.050168003825470806 -8.189529267675329e-05 0.0023069916721142362 0.00320357498953697 0.00010822276796027353 -0.0063060513585693053
leaf_weight=197648 3331 3654 445 1540 4358 1022 368 3700 25 201 75 29 498 739
leaf_count=197648 3331 3654 445 1540 4358 1022 368 3700 25 201 75 29 498 739
internal_value=0 0.000252138 -0.000435621 -0.0020287 0.00050138 -0.000181455 -0.00140391 0.0010616 0.00156841 0.00455657 0.0117839 0.0249464 -0.00232231 -0.00372375
internal_weight=0 19985 5316 1985 14669 6611 2957 8058 698 330 129 54 2259 1237
internal_count=217633 19985 5316 1985 14669 6611 2957 8058 698 330 129 54 2259 1237
shrinkage=0.15


Tree=314
num_leaves=15
num_cat=0
split_feature=22 2 2 3 23 22 10 19 3 21 8 37 2 21
split_gain=0.0577878 0.321663 0.584936 0.30209 0.93658 0.550697 0.30304 0.281861 0.266625 0.258586 0.241164 0.23808 0.261816 0.345913
threshold=-2.9897199999999997 -1.8924299999999998 -2.9945099999999996 -9.812249999999997 -10.067599999999999 -3.0665099999999996 6.8446450000000006e-05 7.0604550000000007e-06 -6.1661399999999995 -8.8025949999999984 1.5639350000000001e-06 -2.0307199999999998e-07 -2.4792649999999994 -2.1194799999999998
decision_type=2 2 2 2 2 2 2 2 2 2 2 2 2 2
left_child=1 2 3 5 -5 -1 10 8 11 -9 -6 -4 13 -13
right_child=-2 -3 7 4 6 -7 -8 9 -10 -11 -12 12 -14 -15
leaf_value=-0.0010972916830464133 -1.2099054805575738e-05 0.0011171961044593513 -0.00090644069139009589 -0.026268573477864265 0.0055675114677952867 0.03185205642879009 -0.0034601262013893574 0.01566519106272608 -0.00083386370194049738 -0.0010529758499629228 0.023441055832981048 -0.0024628056571733706 -0.0049707042109772186 -0.01866679104092905
leaf_weight=21 212428 4068 88 21 35 25 32 22 194 387 33 41 131 107
leaf_count=21 212428 4068 88 21 35 25 32 22 194 387 33 41 131 107
internal_value=0 0.00049379 -0.00173665 0.00646295 0.00252937 0.01681 0.00857694 -0.00314834 -0.00533159 -0.00015371 0.0142414 -0.00770913 -0.00985478 -0.0141778
internal_weight=0 5205 1137 167 121 46 100 970 561 409 68 367 279 148
internal_count=217633 5205 1137 167 121 46 100 970 561 409 68 367 279 148
shrinkage=0.15


Tree=315
num_leaves=15
num_cat=0
split_feature=14 34 13 13 33 10 22 0 24 18 9 26 2 18
split_gain=0.0612213 0.128812 0.421889 0.303146 0.262429 0.335071 0.280534 0.607943 0.255347 0.241086 0.421189 0.649893 0.287228 0.275733
threshold=0.0027514900000000005 0.025459200000000005 9.0003600000000014e-05 9.4443350000000015e-05 -7.2512599999999987e-05 4.3443250000000008e-05 -2.6299349999999992 -4.1883099999999986 0.82179550000000012 2.8293550000000005e-07 3.1088050000000008e-05 -0.00073592699999999983 -2.4290249999999998 -7.5263849999999979e-05
decision_type=2 2 2 2 2 2 2 2 2 2 2 2 2 2
left_child=-1 2 -2 4 5 9 7 -7 -8 13 12 -12 -11 -3
right_child=1 3 -4 -5 -6 6 8 -9 -10 10 11 -13 -14 -15
leaf_value=-5.7074490426339197e-05 0.001104341782623679 -0.0032923152480584276 -9.2282340901589247e-05 0.00026779110365896062 -0.00034925366164547923 0.031328327042449797 -0.0046266181447142118 -0.0043525710485317346 0.0042483697568129102 -0.023927084775310834 0.027999371638638876 -0.0097821424424182624 -0.0063928826017664985 0.0042651904017828642
leaf_weight=143684 10711 497 17396 27718 16617 21 137 22 156 22 20 21 472 139
leaf_count=143684 10711 497 17396 27718 16617 21 137 22 156 22 20 21 472 139
internal_value=0 0.000110897 0.000363727 -4.41205e-05 -0.000521143 -0.00241649 0.00175904 0.013073 9.86314e-05 -0.0036146 -0.00596126 0.00864786 -0.00717376 -0.0016406
internal_weight=0 73949 28107 45842 18124 1507 336 43 293 1171 535 41 494 636
internal_count=217633 73949 28107 45842 18124 1507 336 43 293 1171 535 41 494 636
shrinkage=0.15


Tree=316
num_leaves=15
num_cat=0
split_feature=34 10 3 32 15 35 8 14 35 10 6 25 17 6
split_gain=0.0571878 0.139426 0.214206 0.207323 0.483723 0.282347 0.559177 0.547306 0.874523 1.32568 0.874654 0.332351 0.268459 0.472925
threshold=0.43971050000000006 2.0392150000000004e-05 -19.110799999999998 1.4951300000000003 1.0000000180025095e-35 0.06742575000000002 5.5812000000000009e-06 0.00064274150000000012 -0.17054099999999997 1.3370150000000001e-05 -1.3711099999999999e-07 6.1968050000000012 8.3224350000000009e-07 3.1117950000000005e-08
decision_type=2 2 2 2 2 2 2 2 2 2 2 2 2 2
left_child=-1 3 -3 -2 5 6 -5 -8 12 -10 11 -11 -9 -14
right_child=1 2 -4 4 -6 -7 7 8 9 10 -12 -13 13 -15
leaf_value=-3.5194507925941909e-05 0.00025737746235824521 0.012088116869034075 -3.8692219691372368e-06 0.0028146305131426662 -0.00030691393998251573 0.00080603162017040962 -0.0026298281974638537 -0.00047608324610662941 0.053241076830050187 -0.010210889808833598 0.034724740700892591 0.015731544565642252 0.0309424285161575 0.00011917370720766484
leaf_weight=179936 6419 33 28957 507 1120 397 51 67 27 25 29 20 21 24
leaf_count=179936 6419 33 28957 507 1120 397 51 67 27 25 29 20 21 24
internal_value=0 0.000167991 9.89537e-06 0.000694371 0.00192036 0.0040561 0.00572962 0.0113277 0.0146697 0.0247909 0.0144105 0.00131908 0.00554244 0.0145034
internal_weight=0 37697 28990 8707 2288 1168 771 264 213 101 74 45 112 45
internal_count=217633 37697 28990 8707 2288 1168 771 264 213 101 74 45 112 45
shrinkage=0.15


Tree=317
num_leaves=15
num_cat=0
split_feature=28 1 23 3 12 19 22 22 1 3 2 22 13 23
split_gain=0.0571684 0.479691 0.873872 0.500201 0.37959 0.625297 5.34083 1.85416 2.29644 2.07765 1.89359 1.77906 1.98247 1.51401
threshold=-0.0054257099999999994 8.748050000000001 -8.0775649999999981 -5.8866849999999991 -4.8176099999999994e-05 1.7095050000000005e-05 -1.44722 -2.7551599999999996 -2.3991149999999997 -6.2187599999999987 -2.7033249999999995 -1.4705199999999998 -2.7910349999999995e-06 -16.434549999999998
decision_type=2 2 2 2 2 2 2 2 2 2 2 2 2 2
left_child=1 4 -3 -4 5 6 7 10 9 13 -1 -7 -13 -9
right_child=-2 2 3 -5 -6 11 -8 8 -10 -11 -12 12 -14 -15
leaf_value=0.022278354522220944 5.116413560843495e-05 0.0019235140730006427 -0.0035153516878073257 0.00095980681820868712 -0.00058402172948415917 -0.0017684778065370497 -0.0036993442955027896 -0.001225004436529744 -0.011003373977100156 -0.0010390438801123807 -0.0093796932129390654 0.0038251720926457877 -0.00078813154328325646 0.0097794602862795992
leaf_weight=49 150829 5903 1270 1008 34573 8870 2720 317 171 622 321 3784 4698 2498
leaf_count=49 150829 5903 1270 1008 34573 8870 2720 317 171 622 321 3784 4698 2498
internal_value=0 -0.000115518 0.000960456 -0.00153512 -0.000265673 0.000191969 0.00142303 0.00492551 0.00596256 0.00680666 -0.00518714 -0.000283229 0.00126996 0.00854024
internal_weight=0 66804 8181 2278 58623 24050 6698 3978 3608 3437 370 17352 8482 2815
internal_count=217633 66804 8181 2278 58623 24050 6698 3978 3608 3437 370 17352 8482 2815
shrinkage=0.15


Tree=318
num_leaves=15
num_cat=0
split_feature=13 33 19 30 23 3 3 23 33 3 3 23 23 23
split_gain=0.0645551 0.779734 2.21511 2.76915 1.61848 1.84575 2.69287 2.6085 2.23432 4.48403 2.16854 1.87314 1.67889 1.00808
threshold=3.9015150000000009e-05 -1.2997349999999997e-05 4.6329000000000001e-06 0.0011718350000000002 -16.933649999999997 -16.266399999999997 -10.729049999999999 -16.042949999999994 -1.9711349999999996e-05 -12.914449999999997 -11.820049999999997 -10.268599999999998 -15.928399999999998 -12.940099999999997
decision_type=2 2 2 2 2 2 2 2 2 2 2 2 2 2
left_child=-1 2 3 4 -2 7 8 -6 10 13 12 -8 -7 -10
right_child=1 -3 -4 -5 5 6 11 -9 9 -11 -12 -13 -14 -15
leaf_value=-5.5099628031621854e-05 -0.0010452849326776975 -0.00013423356630839993 0.00031951479348363911 0.00088642088624254209 0.03677956964820623 0.0091444356925785529 -0.0028634912525277206 -0.02120762327213015 0.010437903420201369 0.038532181063459979 -0.011017491290872186 0.043732002295887057 0.042808231089496981 -0.019036943888615654
leaf_weight=149587 176 54310 11627 1203 24 40 165 64 42 81 23 22 200 69
leaf_count=149587 176 54310 11627 1203 24 40 165 64 42 81 23 22 200 69
internal_value=0 0.000121127 0.00113078 0.00560333 0.0118665 0.0149795 0.017772 -0.00539293 0.0239999 0.0116977 0.0329811 0.00261833 0.0371976 -0.0078843
internal_weight=0 68046 13736 2109 906 730 642 88 455 192 263 187 240 111
internal_count=217633 68046 13736 2109 906 730 642 88 455 192 263 187 240 111
shrinkage=0.15


Tree=319
num_leaves=15
num_cat=0
split_feature=4 4 23 3 3 23 20 11 14 3 6 35 23 9
split_gain=0.0693504 0.103956 0.196719 0.471703 0.281563 0.276918 0.320605 0.89886 0.381931 0.26333 0.390997 0.407692 0.532989 0.454313
threshold=-1.1246349999999998 0.61528200000000022 -6.4887299999999994 -6.9170499999999988 -6.8865649999999992 -16.783199999999997 8.3080450000000017 7.2693200000000004e-05 0.00068334050000000012 -6.493739999999999 -1.2088199999999999e-05 -0.00068608499999999991 -6.2906249999999995 1.1605300000000002e-05
decision_type=2 2 2 2 2 2 2 2 2 2 2 2 2 2
left_child=-1 2 4 -4 5 6 8 -8 -2 10 -5 -12 13 -13
right_child=1 -3 3 9 -6 -7 7 -9 -10 -11 11 12 -14 -15
leaf_value=0.00018675891795911641 0.0014779180033334871 0.00016159482588020685 0.0013172369424214337 -0.021487015572900416 0.00010768298413667313 -0.00044840826561062428 0.0030406070840246304 0.035743945875271618 -0.00074907594411427567 -0.00011763168805608562 0.0044683201736094615 -0.0041215815087289123 -0.00024147047287052762 -0.01638352220590085
leaf_weight=37109 3452 44173 6733 25 51468 65207 190 21 3479 4979 155 173 357 112
leaf_count=37109 3452 44173 6733 25 51468 65207 190 21 3479 4979 155 173 357 112
internal_value=0 -3.83907e-05 -0.000103179 0.0004631 -0.000160503 -0.000351287 0.000535435 0.00629544 0.000360083 -0.000528265 -0.00301555 -0.00243614 -0.0041031 -0.00894031
internal_weight=0 180524 136351 12534 123817 72349 7142 211 6931 5801 822 797 642 285
internal_count=217633 180524 136351 12534 123817 72349 7142 211 6931 5801 822 797 642 285
shrinkage=0.15


Tree=320
num_leaves=15
num_cat=0
split_feature=20 0 0 20 19 22 3 22 2 2 22 14 1 12
split_gain=0.055395 2.11786 1.77903 4.41494 4.23183 10.117 3.69491 3.76652 5.91549 3.49321 2.44144 3.95564 2.28181 1.70606
threshold=-5.0832949999999988 -4.5746249999999984 -8.9809199999999993 -9.0247549999999972 1.7549500000000002e-06 -1.9309999999999998 -6.2187599999999987 -2.8587899999999995 -2.8476049999999993 -2.8223399999999992 2.0019550000000002 0.00070374100000000013 10.829750000000002 9.962515000000001e-06
decision_type=2 2 2 2 2 2 2 2 2 2 2 2 2 2
left_child=1 2 -1 -4 5 6 7 9 -9 -5 -6 12 13 -12
right_child=-2 -3 3 4 10 -7 -8 8 -10 -11 11 -13 -14 -15
leaf_value=-0.0004577383260910486 -4.3339226130148643e-05 -0.00051077185513707067 -0.001441642034267384 0.026134029678959291 -0.00069006867590132271 -0.0023980323155690731 4.8273694901686761e-05 -0.0076443875826702548 0.034054697489254819 -0.012574017182406453 -0.00097608086775625655 0.00056857918692319301 -0.0036833183212908339 0.017438594685508214
leaf_weight=6437 163884 36658 3751 102 2455 748 173 87 637 108 130 1416 171 876
leaf_count=6437 163884 36658 3751 102 2455 748 173 87 637 108 130 1416 171 876
internal_value=0 0.000132144 0.00151112 0.00270067 0.00495155 0.0110782 0.0201841 0.0239138 0.0290439 0.00622703 0.00270017 0.00590998 0.012336 0.015059
internal_weight=0 53749 17091 10654 6903 1855 1107 934 724 210 5048 2593 1177 1006
internal_count=217633 53749 17091 10654 6903 1855 1107 934 724 210 5048 2593 1177 1006
shrinkage=0.15


Tree=321
num_leaves=15
num_cat=0
split_feature=20 0 3 23 11 2 22 34 22 22 23 11 3 35
split_gain=0.10974 0.62564 1.22176 1.8463 2.0179 2.10718 3.40498 2.54974 1.35496 1.02826 1.01846 0.825989 0.810168 0.761633
threshold=-8.9078399999999984 -8.4604899999999983 -6.6023349999999992 -6.6111549999999992 -6.2747399999999975e-05 -2.8476049999999993 -2.8587899999999995 0.36901150000000005 -2.8252699999999993 3.0909850000000003 -6.6111549999999992 5.8978900000000009e-06 -5.9751649999999996 0.0059663500000000013
decision_type=2 2 2 2 2 2 2 2 2 2 2 2 2 2
left_child=1 2 3 4 -1 8 -7 9 -6 13 -4 -3 -12 -8
right_child=-2 11 10 -5 5 6 7 -9 -10 -11 12 -13 -14 -15
leaf_value=-0.0015874625076793126 -3.4656566571625981e-05 -0.0010693642912654431 -0.0023789795947733944 -0.0069246587728051716 0.011146580565705775 -0.010558718283977617 0.027647243394037183 -0.0014216710560140198 -0.012009560242128958 -0.0033293386180461809 0.011950721295768435 0.00098329916685005697 0.00022330087527154175 0.0501511512324214
leaf_weight=324 196799 8642 1347 214 124 81 309 80 105 22 235 9009 304 38
leaf_count=324 196799 8642 1347 214 124 81 309 80 105 22 235 9009 304 38
internal_value=0 0.000327368 0.00226305 0.00580683 0.00832257 0.0125529 0.0177481 0.0228547 0.000529136 0.0281179 -0.00017401 -2.1693e-05 0.00533637 0.0301116
internal_weight=0 20834 3183 1297 1083 759 530 449 229 369 1886 17651 539 347
internal_count=217633 20834 3183 1297 1083 759 530 449 229 369 1886 17651 539 347
shrinkage=0.15


Tree=322
num_leaves=15
num_cat=0
split_feature=14 31 3 31 11 34 5 23 3 3 0 31 33 12
split_gain=0.0880737 0.137467 0.20777 0.26753 1.28427 1.74975 1.89886 1.61745 3.3006 1.98128 1.58087 1.44379 1.19499 1.18054
threshold=0.0027514900000000005 0.5921550000000001 -5.9118649999999997 -0.078505049999999979 2.2669950000000005e-05 0.19264550000000003 1.8778950000000004e-05 -7.588404999999999 -7.7871049999999995 -7.4471299999999987 2.4748750000000004 -0.16112599999999996 3.0197100000000003e-05 -9.7114149999999989e-05
decision_type=2 2 2 2 2 2 2 2 2 2 2 2 2 2
left_child=1 2 3 4 -1 6 7 9 -9 10 -6 -10 -12 -14
right_child=-2 -3 -4 -5 5 -7 -8 8 11 -11 12 -13 13 -15
leaf_value=-0.00049343834934351496 0.00013301177109600789 0.00041566053542598902 0.00019492002378742994 -0.00038588790529429923 -0.017227059742435814 -0.00055788660314264559 -0.00044401627358974828 -0.0069235463105372392 0.030912075355894904 -0.0045878824406644673 0.011650226311572687 0.0010966158140006648 0.02533927600015886 -0.012102558693926161
leaf_weight=19165 73949 12087 35880 68624 47 3780 1463 455 89 239 1679 62 24 90
leaf_count=19165 73949 12087 35880 68624 47 3780 1463 455 89 239 1679 62 24 90
internal_value=0 -6.84564e-05 -0.000112922 -0.000228318 0.000170792 0.00177649 0.00390377 0.00627278 -0.000546285 0.00826045 0.00992933 0.01867 0.0106412 -0.00422007
internal_weight=0 143684 131597 95717 27093 7928 4148 2685 606 2079 1840 151 1793 114
internal_count=217633 143684 131597 95717 27093 7928 4148 2685 606 2079 1840 151 1793 114
shrinkage=0.15


Tree=323
num_leaves=15
num_cat=0
split_feature=20 0 3 23 22 2 14 34 23 23 4 6 33 21
split_gain=0.0803558 0.452457 0.895737 1.33251 0.970102 1.74994 1.94168 2.1826 0.789188 0.779699 0.77954 0.649734 4.20324 2.08891
threshold=-8.9078399999999984 -8.4604899999999983 -6.6023349999999992 -6.6111549999999992 -2.8863399999999997 -2.8697349999999995 0.0009636855000000001 0.54444350000000019 -6.1069649999999989 -9.1777649999999991 0.30999400000000005 2.0360700000000003e-06 3.6796100000000005e-07 2.7095700000000007
decision_type=2 2 2 2 2 2 2 2 2 2 2 2 2 2
left_child=1 2 3 4 -1 -6 7 9 -4 -7 11 13 -13 -11
right_child=-2 -3 8 -5 5 6 -8 -9 -10 10 -12 12 -14 -15
leaf_value=-0.0010335852684292771 -2.9655993382707181e-05 -1.671114782127484e-05 -0.00091670061996826238 -0.0058553304506195692 -0.0042507458577959118 -0.0050350335529814891 -0.00039954349478157994 -0.00440949831958633 0.012289395660951009 0.039466900306414011 -0.0016051291907206177 -0.025622270034777152 0.031059146852931006 -0.0045589546705114429
leaf_weight=253 196799 17651 1778 214 165 22 178 82 108 148 25 37 144 29
leaf_count=253 196799 17651 1778 214 165 22 178 82 108 148 25 37 144 29
internal_value=0 0.000280132 0.00192625 0.00496058 0.0070978 0.0095764 0.0130072 0.0179074 -0.000160466 0.0224259 0.0240033 0.0257916 0.0194723 0.0322536
internal_weight=0 20834 3183 1297 1083 830 665 487 1886 405 383 358 181 177
internal_count=217633 20834 3183 1297 1083 830 665 487 1886 405 383 358 181 177
shrinkage=0.15


Tree=324
num_leaves=15
num_cat=0
split_feature=18 4 33 13 3 33 17 39 3 3 33 18 37 4
split_gain=0.0767693 0.122669 0.201607 0.985184 1.92157 1.72161 0.752757 0.93241 0.822265 1.2811 0.734861 0.935702 5.68448 10.4824
threshold=-4.5671949999999996e-05 0.61528200000000022 1.9383450000000008e-06 -9.1282599999999975e-06 -6.4440149999999994 -4.8404199999999993e-05 9.5243050000000011e-08 9.8118250000000016e-06 -13.239749999999999 -6.749814999999999 2.8900250000000005e-05 -6.9132449999999989e-07 -1.6991049999999996e-08 -0.0098646799999999989
decision_type=2 2 2 2 2 2 2 2 2 2 2 2 2 2
left_child=-1 2 3 4 5 -2 7 8 -4 -10 11 12 -8 -14
right_child=1 -3 6 -5 -6 -7 10 -9 9 -11 -12 -13 13 -15
leaf_value=0.00016501211602178005 0.0020529154617607236 0.00016740349076375838 0.00287340509215659 0.00010555828268961523 0.00067633983384661586 -0.0027120483217130979 -0.0015908331709873565 8.7823323233690291e-05 -0.0048055382035043269 -0.00018924951020690285 -0.00059605492448259469 0.00031345210818441453 0.010318953841655607 -0.0096463867339232033
leaf_weight=49119 1959 43936 647 48113 8931 13214 4082 12013 3083 2410 9634 16690 3069 733
leaf_count=49119 1959 43936 647 48113 8931 13214 4082 12013 3083 2410 9634 16690 3069 733
internal_value=0 -4.80983e-05 -0.000124101 -0.000286584 -0.00106932 -0.00209684 9.99973e-05 -0.000680739 -0.00218444 -0.00278019 0.000514307 0.000949614 0.00229633 0.00646977
internal_weight=0 168514 124578 72217 24104 15173 52361 18153 6140 5493 34208 24574 7884 3802
internal_count=217633 168514 124578 72217 24104 15173 52361 18153 6140 5493 34208 24574 7884 3802
shrinkage=0.15


Tree=325
num_leaves=15
num_cat=0
split_feature=10 20 22 2 22 2 10 2 22 22 2 2 13 1
split_gain=0.0803331 0.712492 1.19884 1.96157 3.82439 1.82609 1.19332 1.1696 1.33818 1.15951 3.88342 3.10297 1.64379 2.41682
threshold=2.0057950000000003e-05 5.1570950000000009 -2.0263699999999996 -2.0832449999999993 -2.2993349999999997 -1.3893749999999998 1.5213000000000002e-05 -2.2717399999999994 -2.4287549999999993 -1.0302249999999997 -1.0844649999999998 -2.0349049999999997 7.7996750000000015e-05 -9.9301699999999986
decision_type=2 2 2 2 2 2 2 2 2 2 2 2 2 2
left_child=1 2 3 4 7 -5 -6 8 -1 10 11 -4 13 -13
right_child=-2 -3 9 5 6 -7 -8 -9 -10 -11 -12 12 -14 -15
leaf_value=0.0026819538476047454 -4.8674560612169787e-05 -0.00083720253125509872 -0.0079333791456890311 -0.0051459166439329082 0.061157628428190947 -0.00010272064487212097 0.023875637504864825 -0.0084557805913489971 0.047133198366500435 0.00037259248919711146 -0.00085601310577060558 0.0027012947130944714 0.00024244857791524225 0.011827744430194239
leaf_weight=64 169329 11896 334 2327 24 5283 99 166 20 20734 3829 993 629 1906
leaf_count=64 169329 11896 334 2327 24 5283 99 166 20 20734 3829 993 629 1906
internal_value=0 0.000170628 0.000499928 -0.00112428 0.0094963 -0.00164484 0.0311502 -0.0011574 0.0132656 0.000956077 0.00252908 0.00588525 0.00719347 0.00870164
internal_weight=0 48304 36408 7983 373 7610 123 250 84 28425 7691 3862 3528 2899
internal_count=217633 48304 36408 7983 373 7610 123 250 84 28425 7691 3862 3528 2899
shrinkage=0.15


Tree=326
num_leaves=15
num_cat=0
split_feature=22 2 22 2 19 3 23 23 2 6 33 23 37 18
split_gain=0.0905161 4.72672 4.54674 7.00936 4.70871 5.41102 2.68964 1.861 1.61245 1.19907 2.15352 2.09081 0.985347 2.81447
threshold=-2.6066699999999998 -2.6044999999999994 -2.8863399999999997 -2.8697349999999995 0.00016655050000000002 -6.860879999999999 -6.6111549999999992 -6.6509899999999993 -1.7835899999999998 -8.9691249999999997e-07 -1.4283949999999999e-05 -14.669299999999998 -3.5328549999999994e-08 6.6807150000000012e-08
decision_type=2 2 2 2 2 2 2 2 2 2 2 2 2 2
left_child=1 2 -1 -4 5 6 9 -7 -3 11 -11 -5 -13 -14
right_child=-2 8 3 4 -6 7 -8 -9 -10 10 -12 12 13 -15
leaf_value=-0.00042748693191656224 -2.9310805431501065e-05 -0.0040714055004932234 -0.0022688958309189304 0.00025798759656026955 -0.0014326927670769278 -0.0051801599847715136 -0.012892565443845731 0.029691777987446745 0.00010498526059799358 0.045940907136537132 -0.0047789010760043897 0.058097480780158473 -0.0097975974303803268 0.051824631638548994
leaf_weight=928 199333 2447 382 20 139 106 21 51 13869 48 31 156 21 81
leaf_count=928 199333 2447 382 20 139 106 21 51 13869 48 31 156 21 81
internal_value=0 0.000319268 0.00723251 0.013964 0.0231643 0.0295549 0.0392769 0.00614767 -0.000521371 0.0423457 0.0260382 0.0469799 0.0506018 0.0391377
internal_weight=0 18300 1984 1056 674 535 378 157 16316 357 79 278 258 102
internal_count=217633 18300 1984 1056 674 535 378 157 16316 357 79 278 258 102
shrinkage=0.15


Tree=327
num_leaves=15
num_cat=0
split_feature=22 9 2 19 32 26 3 8 37 23 8 16 37 1
split_gain=0.11317 0.226862 0.206483 0.266675 0.251127 0.384745 0.315238 0.211392 0.275368 0.197522 0.157616 0.155965 0.129736 0.121833
threshold=-2.9897199999999997 -2.3605699999999997e-05 -2.9945099999999996 5.3757900000000004e-06 0.0074303950000000002 8.3479000000000005e-05 -9.4771649999999976 8.1012250000000031e-06 -2.0307199999999998e-07 -8.770274999999998 6.6503000000000005e-06 -1.5695049999999997e-07 -2.0707799999999996e-06 -1.6711899999999997
decision_type=2 2 2 2 2 2 2 2 2 2 2 2 2 2
left_child=1 2 4 7 5 -1 -6 8 -4 -8 11 -10 -5 -13
right_child=-2 -3 3 12 6 -7 9 -9 10 -11 -12 13 -14 -15
leaf_value=0.0044416286400519311 -1.69316419713264e-05 0.0013858166120264113 0.0034338130761170757 0.01163301145923989 0.021796998895344234 -0.020039270832203328 -0.0066991023157382959 -0.0021434253161891109 0.0021081522479653356 0.010361013352765536 -0.022268904652045077 -0.0077712654737600436 -0.00026863936170163071 -0.021747324016431101
leaf_weight=52 212428 3488 30 21 31 20 26 289 20 37 29 36 1103 23
leaf_count=52 212428 3488 30 21 31 20 26 289 20 37 29 36 1103 23
internal_value=0 0.000691019 -0.000720427 -0.00125857 0.00430763 -0.00235862 0.0094137 -0.00444971 -0.00927953 0.00332033 -0.012811 -0.00933913 -4.62776e-05 -0.0132196
internal_weight=0 5205 1717 1551 166 72 94 427 138 63 108 79 1124 59
internal_count=217633 5205 1717 1551 166 72 94 427 138 63 108 79 1124 59
shrinkage=0.15


Tree=328
num_leaves=15
num_cat=0
split_feature=20 9 3 14 23 34 4 4 23 3 3 23 3 23
split_gain=0.086328 0.928318 1.11233 2.70659 4.72823 2.89671 2.72671 2.92202 1.49189 8.43832 3.64221 1.32286 1.37497 1.47817
threshold=3.8385900000000004 1.7091500000000004e-05 -7.3111649999999999 0.0014906400000000003 -7.3218799999999993 0.14278350000000004 0.38724300000000006 -0.42388399999999993 -13.243199999999998 -13.158849999999999 -13.158849999999999 -7.4878699999999991 -6.3853549999999988 -6.4487099999999993
decision_type=2 2 2 2 2 2 2 2 2 2 2 2 2 2
left_child=-1 -2 3 4 5 6 7 -3 9 -9 -10 -4 13 -13
right_child=1 2 11 -5 -6 -7 -8 8 10 -11 -12 12 -14 -15
leaf_value=-6.600569630489348e-05 -0.00028493686142707194 -0.0044057706748486082 -0.0015752691113634892 -0.00019633165342141883 -0.0027349585698001667 0.00067861512125452566 -0.0064435487558457951 0.0481627638197758 -0.010437167295972358 -0.012345548370643326 0.012822904965894085 0.0079139210510756602 -0.0004228236051548588 -0.0030389446876213102
leaf_weight=146244 44525 322 6976 8550 1906 1662 268 66 160 242 2841 1184 2325 362
leaf_count=146244 44525 322 6976 8550 1906 1662 268 66 160 242 2841 1184 2325 362
internal_value=0 0.000135216 0.000831587 0.00162589 0.00371241 0.0059222 0.00815735 0.00923503 0.0105624 0.000620519 0.0115828 -0.000341307 0.00188244 0.00534928
internal_weight=0 71389 26864 16017 7467 5561 3899 3631 3309 308 3001 10847 3871 1546
internal_count=217633 71389 26864 16017 7467 5561 3899 3631 3309 308 3001 10847 3871 1546
shrinkage=0.15


Tree=329
num_leaves=15
num_cat=0
split_feature=4 26 18 21 4 23 14 33 19 23 19 33 23 14
split_gain=0.0922807 0.144788 0.152867 0.571174 0.141106 0.235914 0.278789 0.367608 1.863 1.34508 1.21963 1.3742 1.1877 0.907159
threshold=-0.58682149999999988 -4.1290149999999996e-05 -0.00028490899999999991 -19.847999999999995 0.61528200000000022 -6.4887299999999994 9.5139850000000004e-05 1.8499350000000002e-06 9.6074000000000005e-06 -16.933649999999997 7.0604550000000007e-06 3.0197100000000003e-05 -15.060899999999998 0.0031052900000000006
decision_type=2 2 2 2 2 2 2 2 2 2 2 2 2 2
left_child=1 2 -1 -4 5 6 -2 8 -8 -10 12 -12 13 -9
right_child=4 -3 3 -5 -6 -7 7 10 9 -11 11 -13 -14 -15
leaf_value=0.00029218941914241396 0.00015531120989089169 -7.3403081710215147e-05 0.023955549335572868 0.0012038512726039023 0.0001822900505001322 0.00050755189595852067 0.00020423085175866009 0.0022997106693487205 0.0023290848745847999 -0.0021119325653898382 0.0016980274530258128 -0.0012376756349139816 -0.0014530589865773252 -0.007373836854747377
leaf_weight=18026 35946 22398 25 3587 44173 11923 25985 3214 1678 17943 12994 4956 14551 234
leaf_count=18026 35946 22398 25 3587 44173 11923 25985 3214 1678 17943 12994 4956 14551 234
internal_value=0 0.000193933 0.000470659 0.00136132 -4.91946e-05 -0.000128201 -0.000192712 -0.000346106 -0.000628848 -0.00173213 1.25895e-05 0.000887479 -0.000859918 0.00164321
internal_weight=0 44036 21638 3612 173597 129424 117501 81555 45606 19621 35949 17950 17999 3448
internal_count=217633 44036 21638 3612 173597 129424 117501 81555 45606 19621 35949 17950 17999 3448
shrinkage=0.15


Tree=330
num_leaves=15
num_cat=0
split_feature=10 21 1 23 3 14 34 3 22 4 22 2 32 3
split_gain=0.0884611 0.615916 1.42761 2.57851 9.86448 3.96516 3.53311 3.02172 2.41556 1.92279 1.88844 1.60409 1.52807 1.33817
threshold=2.0057950000000003e-05 5.9390900000000011 5.9649500000000009 -8.2722599999999975 -8.1133949999999988 0.0015296250000000004 0.14700000000000005 -8.2790849999999967 1.0583650000000002 -0.21023149999999999 2.2761200000000001 1.0998250000000003 -0.2481515 -6.572074999999999
decision_type=2 2 2 2 2 2 2 2 2 2 2 2 2 2
left_child=1 -1 -3 4 5 6 8 -5 -4 -8 11 -10 -7 -9
right_child=-2 2 3 7 -6 12 9 13 10 -11 -12 -13 -14 -15
leaf_value=-0.00010548076660387103 -5.1077653757256974e-05 -7.6364133816759041e-05 0.0017543847284590204 -0.0073051421278269675 -0.005486734318886851 0.01673009805558236 0.044059313920495856 0.0092357174635560417 0.00099707537144422525 -0.0045931966642254133 -0.0094799784338101753 0.040258858919643405 -0.0046458786122135012 -0.00034225366367180533
leaf_weight=37673 169329 6955 54 776 682 132 22 664 25 108 20 369 175 649
leaf_count=37673 169329 6955 54 776 682 132 22 664 25 108 20 369 175 649
internal_value=0 0.000179052 0.00118735 0.0035783 0.00813624 0.0184024 0.0255164 0.000115655 0.0315931 0.00364031 0.0354851 0.0377676 0.0045451 0.00450144
internal_weight=0 48304 10631 3676 1587 905 598 2089 468 130 414 394 307 1313
internal_count=217633 48304 10631 3676 1587 905 598 2089 468 130 414 394 307 1313
shrinkage=0.15


Tree=331
num_leaves=15
num_cat=0
split_feature=22 9 19 5 14 21 29 6 3 23 13 33 3 33
split_gain=0.0912857 0.166069 0.123846 0.174519 0.258189 0.209921 0.217067 0.104698 0.0848726 0.396964 0.401401 0.417656 1.6591 2.05877
threshold=-2.9897199999999997 -2.3605699999999997e-05 1.5867800000000003e-08 1.7445300000000004e-05 5.8772850000000004e-05 -1.6499499999999998 0.0074828000000000004 -9.0952099999999996e-06 -6.8865649999999992 -7.2957849999999995 -1.5008599999999999e-05 -3.3389649999999995e-07 -7.1932899999999984 2.1078850000000004e-06
decision_type=2 2 2 2 2 2 2 2 2 2 2 2 2 2
left_child=1 2 3 4 -1 -6 -7 -5 9 -2 11 -11 -13 -14
right_child=8 -3 -4 7 5 6 -8 -9 -10 10 -12 12 13 -15
leaf_value=0.0006146490132981744 -0.00021857343919168322 0.0012150789503208928 -5.986459488672569e-05 -0.0011704964988563337 -0.024009526103896939 0.00074396648463637876 -0.015510042236067084 0.010989649181387253 0.00012171590612981747 0.002474708675935286 8.8478021470539867e-05 -0.00054122893715697468 -0.0067218220371207029 0.021735488729304663
leaf_weight=67 110035 3488 1466 66 23 36 38 21 68847 3686 25881 3725 87 167
leaf_count=67 110035 3488 1466 66 23 36 38 21 68847 3686 25881 3725 87 167
internal_value=0 0.00062062 -0.000586994 -0.00366576 -0.00654656 -0.011493 -0.00760269 0.00176471 -1.52067e-05 -8.0861e-05 0.000370853 0.0013243 0.000258595 0.0119883
internal_weight=0 5205 1717 251 164 97 74 87 212428 143581 33546 7665 3979 254
internal_count=217633 5205 1717 251 164 97 74 87 212428 143581 33546 7665 3979 254
shrinkage=0.15


Tree=332
num_leaves=15
num_cat=0
split_feature=12 21 34 13 22 22 10 19 33 2 22 33 30 13
split_gain=0.0980552 0.299957 0.391944 0.53676 0.427665 0.956994 1.21865 1.11111 1.07495 2.10927 2.97228 2.28626 1.19214 1.05445
threshold=0.00012553750000000004 8.5628800000000016 0.030502050000000006 9.0003600000000014e-05 2.4928950000000003 0.84427900000000011 2.7515600000000001e-05 1.5064750000000002e-05 -2.7857349999999998e-06 0.83980550000000009 0.20022150000000002 -1.7962349999999996e-05 0.0028914900000000005 0.000115686
decision_type=2 2 2 2 2 2 2 2 2 2 2 2 2 2
left_child=-1 2 3 -2 5 7 13 8 9 10 -4 12 -12 -7
right_child=1 -3 4 -5 -6 6 -8 -9 -10 -11 11 -13 -14 -15
leaf_value=-4.9595576255670903e-05 0.0018713925510714475 -0.0009310104100340368 -0.0094940413475061419 2.9410182621957546e-05 -0.0018963099652534736 0.0060869174604953015 -0.00033688191299421693 8.8936188141214946e-05 0.00021620565100732538 -0.010096852283430709 0.042444218039619605 -0.012229480386965653 0.0011691700201481581 -0.0003004434360918329
leaf_weight=175138 7239 4661 149 7003 2475 1900 2754 13515 926 908 74 33 20 838
leaf_count=175138 7239 4661 149 7003 2475 1900 2754 13515 926 908 74 33 20 838
internal_value=0 0.000204402 0.000344281 0.000965663 -3.08351e-05 0.000187806 0.00189104 -0.00041086 -0.00361216 -0.00660631 0.00487707 0.0217377 0.0336623 0.00413198
internal_weight=0 42495 37834 14242 23592 21117 5492 15625 2110 1184 276 127 94 2738
internal_count=217633 42495 37834 14242 23592 21117 5492 15625 2110 1184 276 127 94 2738
shrinkage=0.15


Tree=333
num_leaves=15
num_cat=0
split_feature=13 23 23 3 36 14 3 39 14 23 35 16 6 36
split_gain=0.0973036 0.161741 0.144174 0.687765 0.399022 0.507913 0.319103 0.263054 0.246449 0.821637 0.346485 0.634853 1.51176 3.65519
threshold=9.0003600000000014e-05 -6.6921149999999994 -6.8340949999999987 -7.2547399999999991 0.0030568650000000006 0.00018273250000000005 -6.9170499999999988 0.0010549800000000003 0.0020088800000000006 -8.4265199999999982 0.0036480450000000004 6.5080400000000006e-08 -4.3381849999999996e-07 0.00030346550000000006
decision_type=2 2 2 2 2 2 2 2 2 2 2 2 2 2
left_child=2 -2 6 4 -4 -6 7 8 10 -10 -1 -12 13 -13
right_child=1 -3 3 -5 5 -7 -8 -9 9 -11 11 12 -14 -15
leaf_value=-0.00074144152244558247 0.00029922008694278722 -0.00053258694460579499 0.001393495918443319 -0.00054679730482823667 0.0062361472979634231 -0.0011922871287376817 0.00017286895564590544 0.00029635719165055715 -0.00057503829636456174 0.001319992301315938 -0.0008603375892137574 -0.003012037068553471 -0.0010109907113205082 0.013259480354557535
leaf_weight=43801 40711 6040 11161 12318 225 2603 55070 14603 17287 7331 3684 561 1542 696
leaf_count=43801 40711 6040 11161 12318 225 2603 55070 14603 17287 7331 3684 561 1542 696
internal_value=0 0.000191755 -5.24615e-05 0.000270535 0.000990236 -0.00060127 -0.000111234 -0.000286035 -0.000399579 -1.07167e-05 -0.000589958 0.000433505 0.00213644 0.00599749
internal_weight=0 46751 170882 26307 13989 2828 144575 89505 74902 24618 50284 6483 2799 1257
internal_count=217633 46751 170882 26307 13989 2828 144575 89505 74902 24618 50284 6483 2799 1257
shrinkage=0.15


Tree=334
num_leaves=15
num_cat=0
split_feature=13 33 19 25 23 9 23 21 2 15 18 28 20 9
split_gain=0.0703018 0.134581 0.526708 0.854463 0.542359 0.863462 0.654284 0.716608 0.983905 0.590141 0.336319 0.171187 0.123418 1.19224
threshold=9.0003600000000014e-05 -2.7939149999999998e-05 7.7858950000000025e-05 0.19068450000000003 -12.363649999999998 4.1916200000000004e-05 -17.487949999999994 4.1380100000000004 -2.2006199999999994 -1.2760799999999998e-06 8.4657650000000006e-07 0.0049008350000000001 4.0390700000000006 1.7612300000000004e-05
decision_type=2 2 2 2 2 2 2 2 2 2 2 2 2 2
left_child=12 2 3 -2 5 6 9 8 -8 -5 -6 -11 -1 -14
right_child=1 -3 -4 4 10 -7 7 -9 -10 11 -12 -13 13 -15
leaf_value=-0.00013134643760053503 0.036839056585449725 6.4619020768205392e-05 0.00049818877869673209 0.023321965825161894 0.0037877730375839745 -0.011662264377477445 0.049420148751960366 0.00013394517591223119 0.01327116209625577 -0.018048208368709309 -0.013522098071205064 0.0015775630006373831 -0.00041010246511667794 0.0010398063293274122
leaf_weight=116791 20 40674 5768 20 56 35 32 24 36 20 46 20 33467 20624
leaf_count=116791 20 40674 5768 20 56 35 32 24 36 20 46 20 33467 20624
internal_value=0 0.000162991 0.000821409 0.00685485 0.00477982 0.00957898 0.0144701 0.0224176 0.0302824 0.00228377 -0.00401864 -0.00823532 -4.45923e-05 0.000142724
internal_weight=0 46751 6077 309 289 187 152 92 68 60 102 40 170882 54091
internal_count=217633 46751 6077 309 289 187 152 92 68 60 102 40 170882 54091
shrinkage=0.15


Tree=335
num_leaves=15
num_cat=0
split_feature=10 20 0 20 31 20 0 0 14 0 23 20 20 0
split_gain=0.0780245 0.442263 0.997232 1.6297 1.48431 0.948653 0.86197 0.800933 0.818643 1.71971 2.46871 1.4452 1.41221 3.03922
threshold=2.0057950000000003e-05 3.4026550000000007 3.5762150000000008 6.3263500000000006 -0.095369699999999988 -3.8589749999999996 0.53031600000000012 -3.7136199999999993 0.0025946600000000004 2.6455750000000005 -14.139049999999997 2.2507550000000003 2.2507550000000003 2.0963400000000001
decision_type=2 2 2 2 2 2 2 2 2 2 2 2 2 2
left_child=1 5 6 4 -4 -1 -3 -7 9 10 -9 -11 -12 -14
right_child=-2 2 3 -5 -6 7 -8 8 -10 11 12 -13 13 -15
leaf_value=-0.00039127000596365404 -4.7970071717721934e-05 -2.9405960120740626e-05 0.0010529182000708656 -0.0013417585087034797 0.012799637128441663 -0.0019910768652929307 -0.0024419417840348934 -0.00099397781566313713 0.00032292399326268648 -0.0028353637963546372 0.0065395940338335862 0.0070161467669406464 -0.0040201900359770042 0.030819074487719204
leaf_weight=14660 169329 9192 470 1096 499 1558 5227 1808 6698 1853 4155 409 617 62
leaf_count=14660 169329 9192 470 1096 499 1558 5227 1808 6698 1853 4155 409 617 62
internal_value=0 0.000168158 -0.000462449 0.0026205 0.00710205 0.000494838 -0.000903969 0.00125185 0.00157569 0.00251807 0.0037346 -0.00105408 0.00550317 -0.000838991
internal_weight=0 48304 16484 2065 969 31820 14419 17160 15602 8904 6642 2262 4834 679
internal_count=217633 48304 16484 2065 969 31820 14419 17160 15602 8904 6642 2262 4834 679
shrinkage=0.15


Tree=336
num_leaves=15
num_cat=0
split_feature=34 3 23 3 23 3 20 14 21 19 14 23 23 23
split_gain=0.0838522 0.159219 0.30849 0.366654 0.35492 0.456449 0.406823 0.450578 0.335272 1.0688 0.307067 0.793468 0.822085 0.443535
threshold=0.43971050000000006 -6.4440149999999994 -6.9680999999999989 -6.0288849999999989 -6.551404999999999 -6.2768299999999995 12.570150000000002 0.00026086750000000003 -13.410549999999999 4.0426100000000008e-06 0.00038336100000000009 -13.335099999999999 -6.2906249999999995 -11.298099999999998
decision_type=2 2 2 2 2 2 2 2 2 2 2 2 2 2
left_child=1 10 -3 4 5 6 7 -4 9 -6 11 -1 -13 -12
right_child=-2 2 3 -5 8 -7 -8 -9 -10 -11 13 12 -14 -15
leaf_value=0.0012362599955101593 0.00020341907968134817 0.00039752450297416423 -0.012902584947936025 -1.3574581542784078e-05 0.033286978326737882 -0.0016335034281287309 0.012519397350260987 -0.0015442666675188719 -0.0011213769551592346 -0.010574617839418352 -0.00050383947282347499 -0.0010378327778298689 0.0022619404724365786 0.00020173486533330183
leaf_weight=4925 37697 36733 258 7627 25 557 20 113 1566 25 27786 26524 1815 71962
leaf_count=4925 37697 36733 258 7627 25 557 20 113 1566 25 27786 26524 1815 71962
internal_value=0 -4.26168e-05 0.000194946 -0.000535241 -0.00208702 -0.00439118 -0.00831964 -0.00944304 -0.000735314 0.0113562 -0.000126424 -0.000521088 -0.000826495 5.18868e-06
internal_weight=0 179936 46924 10191 2564 948 391 371 1616 50 133012 33264 28339 99748
internal_count=217633 179936 46924 10191 2564 948 391 371 1616 50 133012 33264 28339 99748
shrinkage=0.15


Tree=337
num_leaves=15
num_cat=0
split_feature=20 1 13 3 14 34 12 19 23 3 19 29 26 3
split_gain=0.0742957 0.175463 0.177702 0.178492 0.195534 0.215963 0.129056 0.262393 0.146283 0.200366 0.387024 0.137166 0.111798 0.155941
threshold=-11.474149999999998 7.932595000000001 -1.2595899999999997e-05 -6.0288849999999989 0.00015258600000000005 0.031381750000000007 -2.4799899999999996e-05 0.0008696480000000001 -6.1631349999999996 -6.1661399999999995 0.00018117000000000003 -0.24648199999999998 -0.00066092149999999992 -6.6271099999999992
decision_type=2 2 2 2 2 2 2 2 2 2 2 2 2 2
left_child=1 6 3 4 5 -3 -1 8 12 11 -11 -10 -8 -14
right_child=-2 2 -4 -5 -6 -7 7 -9 9 10 -12 -13 13 -15
leaf_value=8.5173743978453692e-05 -1.6862586659333491e-05 -0.025144261375276578 -0.00030744096360065464 -0.00039287305422884485 -0.0042580622855095457 -0.0045790557470172643 -0.00026642418802148903 -0.00021010403511719953 0.014398669738771526 0.0027712179862040406 0.026055710505822609 0.0013118512305045156 0.0038886857080954111 0.00063058018089051573
leaf_weight=3280 209864 27 918 107 82 20 369 1343 21 36 29 127 881 529
leaf_count=3280 209864 27 918 107 82 20 369 1343 21 36 29 127 881 529
internal_value=0 0.000455509 -0.00125122 -0.00492235 -0.00867936 -0.0163931 0.000753251 0.00141031 0.00250279 0.00621764 0.0131597 0.00316876 0.00205801 0.00266632
internal_weight=0 7769 1154 236 129 47 6615 3335 1992 213 65 148 1779 1410
internal_count=217633 7769 1154 236 129 47 6615 3335 1992 213 65 148 1779 1410
shrinkage=0.15


Tree=338
num_leaves=15
num_cat=0
split_feature=20 8 6 22 7 13 33 33 23 14 7 21 11 14
split_gain=0.0716273 0.484411 0.507392 3.4616 1.46606 2.29284 2.38329 2.06057 1.65886 1.42376 1.41675 1.82554 1.30386 1.2173
threshold=3.8385900000000004 9.3205450000000014e-06 2.9964400000000005e-06 -0.43781749999999992 0.00013396800000000002 -2.3880199999999995e-05 4.8236750000000009e-06 2.5416850000000004e-05 -9.061029999999997 0.00015935200000000003 4.1990000000000003e-05 -6.3049749999999998 7.8390250000000004e-05 5.368120000000001e-05
decision_type=2 2 2 2 2 2 2 2 2 2 2 2 2 2
left_child=-1 -2 -3 4 5 6 -4 9 -7 -8 11 13 -11 -10
right_child=1 2 3 -5 -6 8 7 -9 10 12 -12 -13 -14 -15
leaf_value=-6.0123567205396909e-05 0.00039721121251550076 -0.00086721247666192653 0.00028730266110693674 -0.0017751219037525771 -0.0021507819539401032 -0.003175228856272869 -0.0018407159748416492 0.0054976237255047909 -0.0031230125032239947 0.038027697322824634 0.0024173750825803113 -0.0034402838923668832 0.0010170041001401841 0.025554851683984067
leaf_weight=146244 47851 16970 155 4348 449 461 28 111 39 199 437 89 24 228
leaf_count=146244 47851 16970 155 4348 449 461 28 111 39 199 437 89 24 228
internal_value=0 0.000123166 -0.000433947 0.000685498 0.00550477 0.00744567 0.0158514 0.0225155 0.00398017 0.0300414 0.00813987 0.0151644 0.0340445 0.021366
internal_weight=0 71389 23538 6568 2220 1771 517 362 1254 251 793 356 223 267
internal_count=217633 71389 23538 6568 2220 1771 517 362 1254 251 793 356 223 267
shrinkage=0.15


Tree=339
num_leaves=15
num_cat=0
split_feature=21 1 12 14 1 21 23 21 10 23 14 14 22 2
split_gain=0.0882397 1.71839 2.524 1.18904 1.9012 4.17524 2.48363 2.34405 1.46889 2.11845 4.44533 3.4069 2.41939 6.36475
threshold=-5.6552149999999992 -5.6723049999999988 1.4612150000000002e-05 0.0016871300000000002 -10.060549999999997 -10.765649999999999 -12.666499999999997 -10.551199999999998 3.1700300000000012e-05 -7.5620149999999997 0.00016362750000000005 0.00016362750000000005 -2.2095749999999996 -2.2006199999999994
decision_type=2 2 2 2 2 2 2 2 2 2 2 2 2 2
left_child=1 3 -3 4 7 -6 -7 -1 9 11 -11 -8 13 -13
right_child=-2 2 -4 -5 5 6 8 -9 -10 10 -12 12 -14 -15
leaf_value=0.0046682036047755449 5.0712241782533968e-05 -0.0023963891562456471 0.00025600246870817369 -0.0011530181515039305 -0.0033888766589628169 -0.0051552125162115858 -0.002104227854275859 -0.0030764167844856004 0.003735032780701605 0.019202616237881893 -0.0057393350010594389 0.050843421618552195 0.017473362296472644 -0.019889509617220528
leaf_weight=1322 169773 12945 21445 3434 1417 416 307 2626 1801 241 483 38 1269 116
leaf_count=1322 169773 12945 21445 3434 1417 416 307 2626 1801 241 483 38 1269 116
internal_value=0 -0.000179891 -0.000742404 0.00125625 0.00208063 0.00374318 0.00590677 -0.000483107 0.00698827 0.00937583 0.00256317 0.0122269 0.0153187 -0.00243593
internal_weight=0 47860 34390 13470 10036 6088 4671 3948 4255 2454 724 1730 1423 154
internal_count=217633 47860 34390 13470 10036 6088 4671 3948 4255 2454 724 1730 1423 154
shrinkage=0.15


Tree=340
num_leaves=15
num_cat=0
split_feature=14 34 18 26 19 24 28 11 29 1 0 14 12 34
split_gain=0.0998173 0.144479 0.265567 0.6397 0.340876 0.338048 0.231128 0.45095 1.06108 2.62296 1.06655 1.06674 1.23024 1.80964
threshold=0.0027514900000000005 0.58850850000000021 6.0757700000000008e-06 3.3150200000000013e-05 0.0011548350000000001 1.3581150000000002 -0.0054257099999999994 1.5356700000000005e-05 -0.017445149999999996 -1.3586749999999999 2.5568800000000005 0.00012403000000000004 -6.6440049999999984e-05 0.18784850000000003
decision_type=2 2 2 2 2 2 2 2 2 2 2 2 2 2
left_child=1 6 -3 4 -4 -5 7 -1 9 10 -9 -12 -13 -14
right_child=-2 2 3 5 -6 -7 -8 8 -10 -11 11 12 13 -15
leaf_value=-0.00011916987974903237 0.000141602148491378 0.00053387377352284531 -0.0040173831374357019 0.0016041156561196885 0.0012281745110314141 -0.0095133844656402292 -8.679547318835894e-06 -0.015192053621550173 -0.0020965141788738882 -0.0036686240313672197 -0.0031557605398786466 0.0057355069770391029 0.027342043665335759 0.0039897004495908668
leaf_weight=23808 73949 17202 1369 1600 350 64 89588 44 7842 943 142 419 190 123
leaf_count=23808 73949 17202 1369 1600 350 64 89588 44 7842 943 142 419 190 123
internal_value=0 -7.28775e-05 0.000294947 -0.000919955 -0.00294935 0.00117652 -0.000134386 -0.00047045 -0.00133238 0.0018876 0.00759513 0.00874231 0.0110504 0.0181652
internal_weight=0 143684 20585 3383 1719 1664 123099 33511 9703 1861 918 874 732 313
internal_count=217633 143684 20585 3383 1719 1664 123099 33511 9703 1861 918 874 732 313
shrinkage=0.15


Tree=341
num_leaves=15
num_cat=0
split_feature=15 35 15 11 24 1 8 15 28 23 12 3 3 14
split_gain=0.0810849 0.66614 0.677497 1.0932 1.64704 0.783427 0.941863 0.962972 0.67502 0.739526 0.67671 0.638633 1.06665 1.06625
threshold=5.0878500000000008e-06 0.16987200000000005 7.9928200000000012e-05 0.00021782650000000005 0.82179550000000012 5.6576700000000004 9.0733750000000019e-06 2.7215850000000005e-05 -0.67010049999999988 -13.149599999999998 8.5235750000000018e-05 -7.1932899999999984 -12.664549999999998 0.0021510100000000005
decision_type=2 2 2 2 2 2 2 2 2 2 2 2 2 2
left_child=-1 -2 3 5 -5 6 7 8 -3 10 -10 12 -11 -14
right_child=1 2 -4 4 -6 -7 -8 -9 9 11 -12 -13 13 -15
leaf_value=-4.4418436481845487e-05 7.1722104822647811e-05 -0.0014630896002265877 -0.00052600103957745992 -0.0019942955605478747 0.047960788919590408 -0.0035333629078126605 0.00019564252977012753 0.0026984689489628921 0.0014200204071433593 0.010804569959873334 0.033719567625084892 0.0051230140111874793 0.018731507481689648 0.059495229822849584
leaf_weight=176170 39950 33 621 27 33 205 258 149 54 29 20 20 22 42
leaf_count=176170 39950 33 621 27 33 205 258 149 54 29 20 20 22 42
internal_value=0 0.000188727 0.00327819 0.00592662 0.025481 0.00451645 0.00714836 0.0120096 0.0183158 0.0218062 0.0101496 0.0294397 0.0346691 0.0454827
internal_weight=0 41463 1513 892 60 832 627 369 220 187 74 113 93 64
internal_count=217633 41463 1513 892 60 832 627 369 220 187 74 113 93 64
shrinkage=0.15


Tree=342
num_leaves=15
num_cat=0
split_feature=22 2 22 2 3 6 23 2 23 3 3 23 15 4
split_gain=0.0764402 4.91879 3.18862 5.86477 4.09831 5.80317 2.66905 2.27551 1.94211 3.73141 3.55564 1.42633 1.40379 1.45876
threshold=-2.2993349999999997 -2.2717399999999994 -2.8587899999999995 -2.8476049999999993 -6.3035799999999993 -4.0280749999999992e-07 -16.545699999999997 -1.5033299999999998 -6.8719549999999989 -6.9692649999999992 -6.8865649999999992 -7.1280949999999992 -9.0345749999999981e-06 -1.3153099999999998
decision_type=2 2 2 2 2 2 2 2 2 2 2 2 2 2
left_child=1 2 -1 -4 5 6 -5 -3 9 12 -10 -11 -8 -14
right_child=-2 7 3 4 -6 -7 8 -9 10 11 -12 -13 13 -15
leaf_value=-0.00079110278002815883 -3.4647887908791944e-05 -0.0040926640008816031 -0.0038541339648858522 -0.0049072127356859186 -0.00041100053553514299 0.0024299340776796222 -0.0051654414387788472 -1.4024916374450834e-05 -0.011656354538596739 -0.011332281295186545 0.037030653138127589 0.033510346758412198 -0.0053746945127316464 0.030728198556646019
leaf_weight=1548 188933 3621 756 84 511 570 27 20514 90 79 54 20 26 800
leaf_count=1548 188933 3621 756 84 511 570 27 20514 90 79 54 20 26 800
internal_value=0 0.000228088 0.00474335 0.00758303 0.0114072 0.0148581 0.0208616 -0.000625948 0.0228366 0.0252923 0.00660127 -0.00227316 0.0284916 0.0295918
internal_weight=0 28700 4565 3017 2261 1750 1180 24135 1096 952 144 99 853 826
internal_count=217633 28700 4565 3017 2261 1750 1180 24135 1096 952 144 99 853 826
shrinkage=0.15


Tree=343
num_leaves=15
num_cat=0
split_feature=22 9 2 2 22 20 0 22 20 6 19 11 24 15
split_gain=0.0947898 0.138069 0.247972 0.327472 0.506414 0.466299 0.738309 0.38152 0.28477 0.281404 0.278446 0.268011 0.251448 0.474866
threshold=-2.9378149999999996 -2.0949449999999996e-05 -2.9212349999999998 -3.0230999999999995 -2.9897199999999997 -8.1735049999999969 -8.9809199999999993 -3.0104949999999993 -5.5815149999999987 -1.8930799999999998e-06 5.3757900000000004e-06 -4.9299749999999995e-05 0.13253550000000003 -1.9202999999999997e-08
decision_type=2 2 2 2 2 2 2 2 2 2 2 2 2 2
left_child=1 2 3 4 12 7 -7 -5 -8 -9 11 -4 13 -1
right_child=-2 -3 10 5 -6 6 8 9 -10 -11 -12 -13 -14 -15
leaf_value=-0.02294966614266741 -1.7983907131555653e-05 0.0010364141506758187 -0.011299542609950825 -0.0089618530974970492 -0.02086124425628581 -0.004719516793349093 0.033535107308000855 0.019003162623848765 0.012810684113691632 -0.0027883508475497363 3.3877941496468902e-05 -0.0024041560012822605 0.011145056049960354 0.0033884186525273119
leaf_weight=20 210680 4513 92 49 26 28 35 30 26 24 1554 444 45 67
leaf_count=20 210680 4513 92 49 26 28 35 30 26 24 1554 444 45 67
internal_value=0 0.000544923 -0.000364134 0.00333106 -0.0017268 0.00749325 0.0154456 0.000621783 0.0247017 0.00931805 -0.000982946 -0.00393098 0.00204211 -0.00266631
internal_weight=0 6953 2440 350 158 192 89 103 61 54 2090 536 132 87
internal_count=217633 6953 2440 350 158 192 89 103 61 54 2090 536 132 87
shrinkage=0.15


Tree=344
num_leaves=15
num_cat=0
split_feature=18 4 14 33 13 34 13 23 23 14 14 23 33 13
split_gain=0.0883716 0.137284 0.187795 0.734154 2.08224 1.78871 1.2089 1.62842 1.36687 1.29409 1.09233 4.35083 2.14097 3.19685
threshold=-4.5671949999999996e-05 0.61528200000000022 0.00018273250000000005 -2.7034349999999997e-06 8.0655500000000011e-06 0.34214600000000006 1.34378e-05 -7.2957849999999995 -15.809749999999998 0.0012804550000000002 0.0010287300000000003 -11.405099999999999 -5.2269199999999996e-06 2.3330950000000004e-05
decision_type=2 2 2 2 2 2 2 2 2 2 2 2 2 2
left_child=-1 2 -2 4 5 -4 -5 8 -8 -10 11 -6 -13 -14
right_child=1 -3 3 6 10 -7 7 -9 9 -11 -12 12 13 -15
leaf_value=0.00017704283828475265 4.9832180180045553e-05 0.00017637296883946427 -0.0033921307728214424 0.00076852372910383364 -0.0031154962951027093 0.00080950247342542042 0.0020914633907089283 0.0014282465661394031 -0.0040584651632061576 5.0651636175593804e-06 -0.0014837086391006826 0.0063679236916099145 0.0057225685063859453 -0.0080026559857531033
leaf_weight=49119 63081 43936 9143 23097 2890 3037 1509 4338 5767 2540 4296 3334 858 688
leaf_count=49119 63081 43936 9143 23097 2890 3037 1509 4338 5767 2540 4296 3334 858 688
internal_value=0 -5.1605e-05 -0.000132008 -0.000318532 -0.000960934 -0.00234448 9.95958e-05 -0.000991985 -0.00206156 -0.00281597 0.000435687 0.00149691 0.00422844 -0.000385423
internal_weight=0 168514 124578 61497 24246 12180 37251 14154 9816 8307 12066 7770 4880 1546
internal_count=217633 168514 124578 61497 24246 12180 37251 14154 9816 8307 12066 7770 4880 1546
shrinkage=0.15


Tree=345
num_leaves=15
num_cat=0
split_feature=22 2 2 21 2 13 21 13 17 20 23 9 5 1
split_gain=0.0757806 0.0859143 0.234391 0.338161 0.372321 0.201441 0.198012 0.220051 0.294725 0.232319 0.176216 0.162343 0.121557 0.118679
threshold=-2.9897199999999997 -2.9945099999999996 -2.7724249999999997 -2.1194799999999998 -2.9212349999999998 9.1408700000000022e-06 -2.2686149999999996 3.8126000000000001e-06 6.9908850000000011e-07 -10.433449999999999 -9.3210949999999979 -5.2094699999999994e-05 1.7742850000000002e-05 -1.3586749999999999
decision_type=2 2 2 2 2 2 2 2 2 2 2 2 2 2
left_child=1 6 3 4 -3 -5 -1 9 10 -8 -9 -12 13 -7
right_child=-2 2 -4 5 -6 12 7 8 -10 -11 11 -13 -14 -15
leaf_value=-0.0097063182986208366 -1.3855183510598744e-05 0.020643932504437704 0.00067417537139128258 -0.020356836143891204 -0.006650954017161646 -0.0053899844112108367 0.0075715072328291291 0.020943188404019635 -0.0059254298833283509 -0.01501771726179868 0.016630301358444347 -0.0016111985175445191 0.00068185692173702752 -0.017266247816383837
leaf_weight=21 212428 23 4816 23 22 78 21 39 22 20 21 23 51 25
leaf_count=21 212428 23 4816 23 22 78 21 39 22 20 21 23 51 25
internal_value=0 0.000565462 0.000454508 -0.00431089 0.00729977 -0.00726275 0.00391268 0.00587158 0.00951051 -0.00344763 0.013602 0.00709497 -0.00530714 -0.00827257
internal_weight=0 5205 5038 222 45 177 167 146 105 41 83 44 154 103
internal_count=217633 5205 5038 222 45 177 167 146 105 41 83 44 154 103
shrinkage=0.15


Tree=346
num_leaves=15
num_cat=0
split_feature=1 21 21 0 25 0 1 16 26 20 0 13 23 11
split_gain=0.0743968 0.814376 0.807683 0.656828 0.918742 1.24026 1.11353 1.10644 1.78209 0.748116 2.05095 1.14478 0.601499 0.378949
threshold=-11.074449999999999 -12.050999999999998 -2.8596399999999997 -4.2354849999999997 1.8759850000000002 4.646065000000001 -14.127399999999998 6.4739650000000005e-07 -0.0028680649999999999 -1.6129449999999999 -0.76624199999999998 4.7605950000000003e-06 -6.3165649999999989 3.8269500000000007e-06
decision_type=2 2 2 2 2 2 2 2 2 2 2 2 2 2
left_child=1 3 -3 -1 5 6 -5 -6 -9 10 -8 13 -4 -11
right_child=-2 2 12 4 7 -7 9 8 -10 11 -12 -13 -14 -15
leaf_value=-0.0044027477420066768 -2.28160840510071e-05 -0.0014951063249778066 0.0012459142731456145 -0.0044146723133356618 -0.0052415487489030077 -0.0050906575412165882 0.032427277969306008 0.048705996572971345 -0.0073838914099794159 0.043166184575296938 -0.028108442049706351 -0.0013250431482447311 -0.0045755670737071341 0.02077764746394347
leaf_weight=115 203837 4662 8121 36 161 59 34 25 26 75 20 20 420 22
leaf_count=115 203837 4662 8121 36 161 59 34 25 26 75 20 20 420 22
internal_value=0 0.000337109 9.28687e-05 0.00577507 0.00822371 0.0140946 0.0195628 0.00085745 0.0201112 0.0246107 0.0100066 0.031351 0.000959645 0.0380884
internal_weight=0 13796 13203 593 478 266 207 212 51 171 54 117 8541 97
internal_count=217633 13796 13203 593 478 266 207 212 51 171 54 117 8541 97
shrinkage=0.15


Tree=347
num_leaves=15
num_cat=0
split_feature=4 4 3 33 13 34 14 14 23 23 3 23 23 22
split_gain=0.069824 0.100362 0.15402 0.202765 0.45939 0.96472 0.813325 0.695861 2.84333 2.34646 0.755065 3.76978 3.22012 1.10833
threshold=-1.2236799999999997 1.5436950000000003 -5.9118649999999997 1.0242850000000001e-06 -4.0504349999999993e-06 0.68351300000000015 0.0035426600000000004 0.0013170050000000002 -10.7143 -13.335099999999999 -6.8084599999999993 -6.9680999999999989 -6.9680999999999989 1.6604000000000003
decision_type=2 2 2 2 2 2 2 2 2 2 2 2 2 2
left_child=-1 2 3 4 5 7 -7 9 -9 -2 12 -12 -11 -13
right_child=1 -3 -4 -5 -6 6 -8 8 -10 10 11 13 -14 -15
leaf_value=0.00019004083791331511 0.0027037878690882636 0.0001908564384093224 0.00017217576706396592 3.8846118775652237e-05 -3.8027240036485562e-05 0.0026162045821499749 -0.0060293146718804029 -0.0049929722553601974 0.0024218672742387908 -0.0049666464377868145 0.002597696823216547 -0.011152451079317232 0.0013730458611938255 0.0045471894726431808
leaf_weight=36254 2211 34838 37007 50509 36179 2451 272 1668 3848 6792 2285 748 2454 117
leaf_count=36254 2211 34838 37007 50509 36179 2451 272 1668 3848 6792 2285 748 2454 117
internal_value=0 -3.79853e-05 -9.23891e-05 -0.000181775 -0.000370565 -0.000897172 0.00175261 -0.00125573 0.000179671 -0.00179778 -0.0026007 -0.000595008 -0.00328402 -0.00902892
internal_weight=0 181379 146541 109534 59025 22846 2723 20123 5516 14607 12396 3150 9246 865
internal_count=217633 181379 146541 109534 59025 22846 2723 20123 5516 14607 12396 3150 9246 865
shrinkage=0.15


Tree=348
num_leaves=15
num_cat=0
split_feature=22 2 22 2 3 12 23 33 8 3 23 23 23 2
split_gain=0.0671077 3.01035 2.58211 4.1415 1.81071 2.77818 1.66067 1.49253 1.35192 1.19895 2.73026 1.50498 1.15216 1.0414
threshold=-2.6066699999999998 -2.6044999999999994 -2.8863399999999997 -2.8982399999999995 -6.860879999999999 -8.8813899999999987e-05 -6.6317949999999994 -2.1909249999999997e-05 4.4268700000000004e-06 -10.160749999999998 -10.067599999999999 -10.618199999999998 -6.6509899999999993 -1.9874349999999998
decision_type=2 2 2 2 2 2 2 2 2 2 2 2 2 2
left_child=1 2 -1 -4 5 7 9 8 -5 11 -11 -7 -6 -3
right_child=-2 13 3 4 12 6 -8 -9 -10 10 -12 -13 -14 -15
leaf_value=1.946276482801201e-05 -2.5237779435922467e-05 -0.003763462498131533 -0.0036742314277324411 0.0031617417685421453 -0.0043370325351133939 0.053925961651839313 -0.01057832610253668 -0.0015644341831679896 0.043529391886622762 -0.0063476010366897793 0.034323122042973164 0.0081933155469596387 0.021461480375575392 3.0493180678119602e-05
leaf_weight=928 199333 1834 311 35 123 85 22 139 40 47 177 20 57 14482
leaf_count=928 199333 1834 311 35 123 85 22 139 40 47 177 20 57 14482
internal_value=0 0.000274903 0.00579199 0.0108648 0.0169341 0.0211081 0.0293211 0.00763729 0.0246912 0.0319891 0.0257895 0.045215 0.0038325 -0.000395966
internal_weight=0 18300 1984 1056 745 565 351 214 75 329 224 105 180 16316
internal_count=217633 18300 1984 1056 745 565 351 214 75 329 224 105 180 16316
shrinkage=0.15


Tree=349
num_leaves=15
num_cat=0
split_feature=22 0 26 3 2 23 34 14 2 19 23 22 11 3
split_gain=0.0728613 0.0841498 0.22526 0.34624 0.197324 0.801292 0.330183 0.236975 0.191874 0.213867 0.194509 0.166285 0.1304 0.107497
threshold=-2.9378149999999996 -7.8712899999999992 0.0041053400000000007 -6.3575099999999987 -2.9212349999999998 -9.713144999999999 0.34214600000000006 0.0007810015000000002 -2.3232449999999996 1.7095050000000005e-05 -7.8687849999999999 -3.0952799999999994 -3.2017399999999996e-05 -9.4320199999999996
decision_type=2 2 2 2 2 2 2 2 2 2 2 2 2 2
left_child=1 2 13 -4 5 6 7 -3 9 10 11 -6 -13 -1
right_child=-2 4 3 -5 8 -7 -8 -9 -10 -11 -12 12 -14 -15
leaf_value=-0.011261149998070956 -1.5767101004950379e-05 0.031897873065434394 0.02442304915515706 -0.0020559415491297841 0.0012733513044870712 -0.01111354362935974 -0.00041139889508485795 0.012887688553382759 0.00079924805343059232 0.00077696692520922827 0.00081632413613774322 -0.01643826308495858 -0.0026597506902180613 -0.00089848164188810269
leaf_weight=23 210680 25 20 25 22 39 23 36 5343 171 51 68 20 1087
leaf_count=23 210680 25 20 25 22 39 23 36 5343 171 51 68 20 1087
internal_value=0 0.000477752 -0.000691423 0.0097125 0.00071066 0.00665458 0.0149041 0.0206787 0.000581831 -0.00291714 -0.00684069 -0.0103908 -0.0133068 -0.0011132
internal_weight=0 6953 1155 45 5798 123 84 61 5675 332 161 110 88 1110
internal_count=217633 6953 1155 45 5798 123 84 61 5675 332 161 110 88 1110
shrinkage=0.15


Tree=350
num_leaves=15
num_cat=0
split_feature=10 32 21 1 23 3 14 3 23 20 2 20 11 29
split_gain=0.0694754 0.400738 0.516983 0.727421 1.70472 6.83182 2.67674 2.31243 2.07339 1.85849 2.8664 1.44147 1.20874 4.19935
threshold=2.0057950000000003e-05 0.37832850000000001 5.4316850000000008 5.588070000000001 -8.3320149999999984 -8.3197699999999983 0.0020088800000000006 -8.3197699999999983 -13.08405 4.1186650000000009 1.2211700000000001 -5.5085599999999983 8.9648700000000025e-06 -0.00076300999999999984
decision_type=2 2 2 2 2 2 2 2 2 2 2 2 2 2
left_child=1 2 -1 -4 5 6 8 -6 -5 11 -11 -10 -13 -14
right_child=-2 -3 3 4 7 -7 -8 -9 9 10 -12 12 13 -15
leaf_value=-0.00031043217308439938 -4.5265793529658793e-05 0.0013734580357919915 -5.7851631536161378e-05 -0.00424355309201652 -0.0058735058199520544 -0.0045442201504412106 0.0030029925893582826 0.0036282402308140749 -0.0046054939093301073 0.045318105200735419 -0.012682071843580023 0.031275955937448925 0.035250709318047892 -0.01788521525288363
leaf_weight=31372 169329 5424 7198 79 979 831 366 1401 35 26 73 378 88 54
leaf_count=31372 169329 5424 7198 79 979 831 366 1401 35 26 73 378 88 54
internal_value=0 0.000158679 5.01808e-06 0.000864968 0.00240614 0.00571889 0.0134793 -0.000280251 0.0187103 0.021483 0.0025503 0.0248601 0.0268434 0.0150441
internal_weight=0 48304 42880 11508 4310 1930 1099 2380 733 654 99 555 520 142
internal_count=217633 48304 42880 11508 4310 1930 1099 2380 733 654 99 555 520 142
shrinkage=0.15


Tree=351
num_leaves=15
num_cat=0
split_feature=16 22 2 23 3 16 3 21 2 2 20 22 16 38
split_gain=0.0753093 0.469651 2.20151 2.17605 4.103 3.72333 2.4733 2.01111 5.10297 3.33587 3.49123 2.23618 1.55602 1.34966
threshold=-7.9444249999999987e-07 2.2761200000000001 2.2801750000000003 -8.2043399999999984 -8.2790849999999967 -3.8224499999999993e-06 -8.2790849999999967 3.3103350000000007 2.7053050000000005 2.6863250000000005 -5.0832949999999988 2.6194050000000004 -3.8224499999999993e-06 5.9945650000000008e-05
decision_type=2 2 2 2 2 2 2 2 2 2 2 2 2 2
left_child=1 -1 -3 4 5 -4 -5 9 -9 11 -11 -7 -8 -14
right_child=-2 2 3 6 -6 7 12 8 -10 10 -12 -13 13 -15
leaf_value=-2.7856958982855195e-05 -5.7329319289690247e-05 -0.00026330228280693291 0.0058804502984245261 -0.0090563232169481572 -0.0060723096977595373 0.029898606531322001 -0.0034467998620592148 0.048047794749633076 -0.0069713099839111021 0.037341487591967301 -0.011927287752041592 -0.02236353713470245 0.0049757204484776598 0.033247285064078515
leaf_weight=55510 153033 6689 851 431 368 25 122 148 51 141 42 70 75 77
leaf_count=55510 153033 6689 851 431 368 25 122 148 51 141 42 70 75 77
internal_value=0 0.000135809 0.00113527 0.00503159 0.00794305 0.0118268 -0.00197243 0.0224356 0.0339474 0.014195 0.0260339 -0.00861034 0.00917048 0.0192975
internal_weight=0 64600 9090 2401 1696 1328 705 477 199 278 183 95 274 152
internal_count=217633 64600 9090 2401 1696 1328 705 477 199 278 183 95 274 152
shrinkage=0.15


Tree=352
num_leaves=15
num_cat=0
split_feature=12 21 32 19 22 19 22 2 2 14 14 12 4 21
split_gain=0.0748593 0.450925 0.43902 0.513952 1.39329 1.25718 1.97904 2.76976 1.79911 0.739127 1.10023 0.497717 0.442803 0.436577
threshold=-0.00012133299999999999 6.146065000000001 0.71146950000000009 0.00014627000000000002 -1.3625199999999997 2.4794150000000001e-06 -1.9309999999999998 -1.9354599999999997 -1.9124349999999997 0.0031052900000000006 0.0072867150000000009 -0.0002804119999999999 -0.38312399999999996 -7.3778749999999986
decision_type=2 2 2 2 2 2 2 2 2 2 2 2 2 2
left_child=1 2 13 4 5 -4 8 -8 11 12 -11 -7 -9 -1
right_child=-2 -3 3 -5 -6 6 7 9 -10 10 -12 -13 -14 -15
leaf_value=-0.0014346549582912851 -4.4811646128639357e-05 0.0011179232583655564 0.00041561980764822076 0.0005102534777838303 -0.0038533341852315219 0.034166069961009689 -0.006281399981190379 0.042657985420437 -0.014961675728441896 0.068615372957927828 0.025807411313607271 0.010633579988140039 0.014568834453945911 1.5561630864372825e-05
leaf_weight=5663 172798 9061 222 2625 279 26 39 23 67 35 22 91 28 26654
leaf_count=5663 172798 9061 222 2625 279 26 39 23 67 35 22 91 28 26654
internal_value=0 0.000172708 -6.67004e-05 0.00153993 0.0047886 0.00914864 0.0150058 0.0279822 0.00463881 0.0403552 0.052093 0.015863 0.0272365 -0.000238564
internal_weight=0 44835 35774 3457 832 553 331 147 184 108 57 117 51 32317
internal_count=217633 44835 35774 3457 832 553 331 147 184 108 57 117 51 32317
shrinkage=0.15


Tree=353
num_leaves=15
num_cat=0
split_feature=22 4 4 24 19 27 4 1 22 17 14 14 23 23
split_gain=0.0676538 0.0689386 0.0928447 0.179742 0.239852 0.177244 0.510005 1.03782 0.601429 0.210341 0.13938 0.123736 0.512943 0.346367
threshold=-3.0952799999999994 -1.3153099999999998 1.3212600000000003 0.33377850000000003 0.00013127750000000005 67.650400000000005 3.3313850000000005 -1.2762649999999998 1.9821000000000002 2.9541550000000002e-05 0.0034191400000000006 0.00012958450000000001 -7.1436399999999987 -9.7541349999999998
decision_type=2 2 2 2 2 2 2 2 2 2 2 2 2 2
left_child=-1 -2 11 10 -5 -6 7 9 -9 -7 -4 13 -13 -3
right_child=1 2 3 4 5 6 -8 8 -10 -11 -12 12 -14 -15
leaf_value=0.00093456161920818699 0.00018479655312895433 0.00051778918799567377 0.00087750998931729091 -0.0062441595472721798 -0.00067739515497723148 -0.016235442991767608 -0.0029214574246306242 0.013511463606675319 0.046292744125948949 0.0045283020696724238 0.00012808605681569223 -0.00037961205483439634 0.00049328100452001125 -0.00026539187754897139
leaf_weight=1729 35128 23179 7275 168 4520 21 118 34 20 23 24019 74251 19029 28119
leaf_count=1729 35128 23179 7275 168 4520 21 118 34 20 23 24019 74251 19029 28119
internal_value=0 -7.48415e-06 -4.48477e-05 0.000169989 -0.000674373 -0.000476796 0.00372092 0.0117189 0.0256527 -0.00538167 0.000302307 -9.86364e-05 -0.000201543 8.84885e-05
internal_weight=0 215904 180776 36198 4904 4736 216 98 54 44 31294 144578 93280 51298
internal_count=217633 215904 180776 36198 4904 4736 216 98 54 44 31294 144578 93280 51298
shrinkage=0.15


Tree=354
num_leaves=15
num_cat=0
split_feature=3 23 3 32 1 1 22 14 14 32 33 17 3 14
split_gain=0.0696701 0.295937 0.241929 0.299528 3.18183 2.23704 0.936531 0.899244 0.6825 0.870882 0.826509 0.634562 0.626475 0.590392
threshold=-6.8865649999999992 -6.6317949999999994 -5.8866849999999991 -0.011831249999999998 5.0210050000000015 2.6605050000000001 0.42875200000000008 0.00030621600000000005 0.00013246500000000004 -0.083369849999999981 -8.8274299999999983e-06 8.1566050000000012e-06 -6.6828699999999985 0.00028247300000000004
decision_type=2 2 2 2 2 2 2 2 2 2 2 2 2 2
left_child=-1 -2 3 4 13 -5 -6 -7 10 11 -8 -10 -12 -3
right_child=1 2 -4 5 6 7 8 -9 9 -11 12 -13 -14 -15
leaf_value=-5.8784774682941322e-05 0.00024051025437615039 -0.0085683317575484304 6.0008149083859006e-05 0.00075129988646214076 -0.013068328231006404 -0.012213499682777273 -0.0072439682038966564 -0.0016023047469673635 0.014609308124583956 -0.0042262368382275754 -0.0061954020535839455 -0.010520724100853033 0.014698051093581715 -0.00092895381089404283
leaf_weight=147073 61490 658 4759 1553 53 572 50 262 139 197 35 27 417 348
leaf_count=147073 61490 658 4759 1553 53 572 50 262 139 197 35 27 417 348
internal_value=0 0.000122529 -0.000677323 -0.00149128 -9.86196e-05 -0.00261381 0.00628703 -0.00888001 0.00747297 0.00251809 0.0110559 0.0105219 0.0130802 -0.00592568
internal_weight=0 70560 9070 4311 1924 2387 918 834 865 363 502 166 452 1006
internal_count=217633 70560 9070 4311 1924 2387 918 834 865 363 502 166 452 1006
shrinkage=0.15


Tree=355
num_leaves=15
num_cat=0
split_feature=20 0 0 0 20 14 34 4 4 11 0 20 23 23
split_gain=0.0827948 0.927696 1.69143 1.38076 3.87676 2.79021 1.52459 1.81824 1.91874 1.55569 1.56869 4.96481 1.80344 1.44464
threshold=3.8385900000000004 4.0166200000000005 0.53031600000000012 8.1548950000000016 8.0730100000000018 0.0032082450000000006 0.58850850000000021 -0.54682199999999992 0.38724300000000006 7.6619750000000021e-06 7.3090500000000009 6.9272550000000015 -10.484749999999998 -9.4348649999999985
decision_type=2 2 2 2 2 2 2 2 2 2 2 2 2 2
left_child=-1 2 -2 4 5 6 7 -3 9 -9 -11 -12 -13 -6
right_child=1 3 -4 -5 13 -7 -8 8 -10 10 11 12 -14 -15
leaf_value=-6.4640866040280604e-05 0.00022227840245302754 -0.0020574648956921114 -0.0019508575057762016 -0.00044362499346127553 0.0039381486634910735 -0.00021318878841790736 -0.0014984806064112914 0.0020117732368674216 -0.00090519905823949795 0.01071710202590734 -0.0058152148486956172 -0.015760618283630994 0.029177506255614129 -0.0025302226844889255
leaf_weight=146244 35819 544 10398 10542 942 2873 645 783 602 3172 455 23 159 4432
leaf_count=146244 35819 544 10398 10542 942 2873 645 783 602 3172 455 23 159 4432
internal_value=0 0.00013242 -0.000266638 0.000865111 0.00180815 0.0036687 0.00541594 0.00619318 0.00705732 0.00810119 0.00935297 0.00256014 0.0234985 -0.00139639
internal_weight=0 71389 46217 25172 14630 9256 6383 5738 5194 4592 3809 637 182 5374
internal_count=217633 71389 46217 25172 14630 9256 6383 5738 5194 4592 3809 637 182 5374
shrinkage=0.15


Tree=356
num_leaves=15
num_cat=0
split_feature=16 25 22 1 13 33 4 13 23 3 3 23 3 24
split_gain=0.0767115 0.196557 0.187294 0.741042 0.900683 1.30456 1.07382 1.56305 1.43191 2.28018 1.34927 1.3857 1.53855 1.00266
threshold=-2.2582199999999995e-06 92.722700000000017 2.5991050000000002 3.8755250000000001 1.5755450000000002e-05 3.6458700000000006e-06 0.3608320000000001 -5.8507799999999996e-05 -14.669299999999998 -14.385199999999999 -14.385199999999999 -8.2722599999999975 -8.4424149999999987 0.12051250000000001
decision_type=2 2 2 2 2 2 2 2 2 2 2 2 2 2
left_child=1 2 -1 4 5 -4 7 -7 9 -9 -10 12 13 -12
right_child=-2 -3 3 -5 -6 6 -8 8 10 -11 11 -13 -14 -15
leaf_value=9.019814965526582e-05 -5.0840645270185315e-05 -0.0034338036879953747 -0.0012003753896339178 -0.0016364061877407706 0.00033309085334616822 -0.006219443051120291 0.0026450778405480817 0.031799123622477055 -0.0071420106909101831 -0.015258312249497974 0.026756501943786062 -0.0051151142973685634 -0.0017437922346289268 0.048760241646069423
leaf_weight=48343 164138 341 441 1544 1972 77 362 36 32 65 153 30 32 67
leaf_count=48343 164138 341 441 1544 1972 77 362 36 32 65 153 30 32 67
internal_value=0 0.000155994 0.000179023 0.00107158 0.00235138 0.0054248 0.008846 0.0134085 0.0170503 0.00151464 0.0220474 0.0253597 0.0289876 0.0334576
internal_weight=0 53495 53154 4811 3267 1295 854 492 415 101 314 282 252 220
internal_count=217633 53495 53154 4811 3267 1295 854 492 415 101 314 282 252 220
shrinkage=0.15


Tree=357
num_leaves=15
num_cat=0
split_feature=14 15 27 14 34 14 34 3 3 39 4 8 15 4
split_gain=0.0836483 0.12964 0.142366 0.141366 0.537518 0.521499 0.381461 0.744527 0.475643 0.346025 0.430801 0.432252 0.314519 0.33479
threshold=0.0027514900000000005 -1.7185949999999998e-05 0.83807700000000007 0.00018273250000000005 0.0054681550000000006 0.00052710300000000012 0.044056800000000007 -6.3035799999999993 -6.2498799999999992 3.6777500000000005e-05 0.15990500000000005 1.7420450000000004e-05 -5.8207499999999994e-08 -0.10054099999999999
decision_type=2 2 2 2 2 2 2 2 2 2 2 2 2 2
left_child=1 2 -1 6 5 -5 7 9 -8 -3 11 12 -11 -14
right_child=-2 3 -4 4 -6 -7 8 -9 -10 10 -12 -13 13 -15
leaf_value=0.0011205494823228945 0.00012962698265331552 -0.0011103269982756544 -0.00035075375722770966 -0.0004687607389359178 -0.00038293072628934 0.0019779355928681835 0.0012000634617633673 0.00025278646054028935 -1.614108975861967e-06 -0.014347804560447517 0.011672650236037693 -0.023444323626546453 0.0083046949104982563 -0.0061989872959260376
leaf_weight=4117 73949 11529 2310 3451 65039 4537 11550 20148 20682 69 28 35 48 141
leaf_count=4117 73949 11529 2310 3451 65039 4537 11550 20148 20682 69 28 35 48 141
internal_value=0 -6.67144e-05 0.000591732 -9.75458e-05 -0.000240312 0.000920906 6.47732e-05 -0.000302112 0.000428994 -0.00124558 -0.00610326 -0.00780199 -0.00567996 -0.00251551
internal_weight=0 143684 6427 137257 73027 7988 64230 31998 32232 11850 321 293 258 189
internal_count=217633 143684 6427 137257 73027 7988 64230 31998 32232 11850 321 293 258 189
shrinkage=0.15


Tree=358
num_leaves=15
num_cat=0
split_feature=10 33 2 28 25 5 19 1 31 28 26 12 32 31
split_gain=0.0842819 0.30202 0.556575 0.924454 1.16059 1.37154 1.04911 1.34063 1.12613 0.656376 1.07654 0.64097 0.621692 0.93829
threshold=2.0057950000000003e-05 -3.2742699999999997e-06 -1.8227849999999999 -0.0032314449999999999 0.35910500000000006 8.5380350000000027e-06 4.0426100000000008e-06 -9.6446499999999986 0.057183800000000007 -0.0065241549999999994 5.3788250000000005e-05 -8.8813899999999987e-05 0.31033450000000001 0.10697700000000002
decision_type=2 2 2 2 2 2 2 2 2 2 2 2 2 2
left_child=1 2 3 4 5 -1 7 -7 9 -9 11 -11 -6 -14
right_child=-2 -3 -4 -5 12 6 -8 8 -10 10 -12 -13 13 -15
leaf_value=0.039463620087078127 -4.9856528154680281e-05 0.00045988725946225195 -0.00065335263478367024 -0.00088912219514702029 -0.0018090176887199049 -0.0066283256062888542 -0.0046257665278839032 0.057575795967131846 0.00077889069707453012 0.022582341586662964 -0.0013447022531181572 0.05968528278172016 -0.012561478070668219 0.0092282341022785069
leaf_weight=39 169329 30614 15273 1315 426 42 82 20 32 22 21 20 51 347
leaf_count=39 169329 30614 15273 1315 426 42 82 20 32 22 21 20 51 347
internal_value=0 0.000174771 -0.000318645 0.00179637 0.00500092 0.0133816 0.00912559 0.0163078 0.0246845 0.0339011 0.0263854 0.0402504 0.00217345 0.00643609
internal_weight=0 48304 17690 2417 1102 278 239 157 115 83 63 42 824 398
internal_count=217633 48304 17690 2417 1102 278 239 157 115 83 63 42 824 398
shrinkage=0.15


Tree=359
num_leaves=15
num_cat=0
split_feature=20 5 0 3 22 2 23 3 3 10 12 22 13 37
split_gain=0.0913805 0.416179 0.324016 0.929469 0.817103 1.24767 0.940041 3.30278 1.91345 0.882195 0.694752 1.05215 0.505323 0.467111
threshold=9.4321850000000023 1.2453900000000001e-05 9.0369550000000007 -6.1920449999999994 -0.43781749999999992 -0.41453399999999996 -7.3218799999999993 -7.1641399999999988 -7.3792049999999989 4.1416400000000005e-05 2.1843750000000002e-05 0.45105400000000001 1.1238550000000003e-05 3.5571950000000006e-08
decision_type=2 2 2 2 2 2 2 2 2 2 2 2 2 2
left_child=-1 2 -2 4 5 -4 7 9 -8 -6 11 12 13 -10
right_child=1 -3 3 -5 6 -7 8 -9 10 -11 -12 -13 -14 -15
leaf_value=-2.952766886543974e-05 0.00089603014625766974 -0.00016097136779198625 0.024002308930669514 -0.0022784036014021998 0.025906787010982434 -0.019200266987955159 -0.021243389796179075 -0.0062564978969995005 0.016252053962447322 0.055073339699634481 0.029949247460546238 -0.02244997399393469 -0.010627289226844864 -0.0080968911177478724
leaf_weight=199245 4852 12645 21 332 70 53 52 71 156 35 35 24 22 20
leaf_count=199245 4852 12645 21 332 70 53 52 71 156 35 35 24 22 20
internal_value=0 0.00031995 0.00137885 0.00400806 0.00774171 -0.00694008 0.00998182 0.018732 0.0049979 0.035629 0.0103074 0.00721073 0.010806 0.0134851
internal_weight=0 18388 5743 891 559 74 485 176 309 105 257 222 198 176
internal_count=217633 18388 5743 891 559 74 485 176 309 105 257 222 198 176
shrinkage=0.15


Tree=360
num_leaves=15
num_cat=0
split_feature=20 2 22 19 22 23 22 14 14 23 1 22 8 19
split_gain=0.0667875 0.240465 2.56689 1.53159 0.64529 0.574957 0.519146 0.458059 0.424793 0.647002 0.796283 1.13797 0.748628 0.650111
threshold=-8.9078399999999984 2.6644600000000005 2.6381550000000007 0.0026085900000000005 3.1180850000000002 -8.9824849999999987 2.9399650000000004 0.00033210400000000006 5.368120000000001e-05 -7.4322149999999985 2.7855300000000005 2.8311450000000002 -4.8822449999999994e-06 0.00015282300000000004
decision_type=2 2 2 2 2 2 2 2 2 2 2 2 2 2
left_child=1 -1 7 4 8 6 -5 -3 -4 10 -10 -12 -11 -14
right_child=-2 2 3 5 -6 -7 -8 -9 9 12 11 -13 13 -15
leaf_value=0.00010781329963128004 -2.7036551900180264e-05 -0.0067863231556251425 0.0060459651853122945 0.032706480962515341 -0.011690913695201742 -0.0042152440935810326 -0.00068489680071996348 -0.00014262948561394597 0.033521430766446356 0.02127342665348244 0.026383063443846857 -0.017625303970417006 0.018601974663324652 -0.0094355592251118576
leaf_weight=19222 196799 401 79 20 20 186 22 559 98 89 39 20 30 49
leaf_count=19222 196799 401 79 20 20 186 22 559 98 89 39 20 30 49
internal_value=0 0.000255389 0.00201512 0.00927826 0.0146094 -0.000635849 0.0152158 -0.00291776 0.0159114 0.0183095 0.0252327 0.011465 0.0118396 0.00121161
internal_weight=0 20834 1612 652 424 228 42 960 404 325 157 59 168 79
internal_count=217633 20834 1612 652 424 228 42 960 404 325 157 59 168 79
shrinkage=0.15


Tree=361
num_leaves=15
num_cat=0
split_feature=4 26 18 20 23 31 0 33 26 19 11 11 31 38
split_gain=0.0703071 0.149761 0.177258 0.499684 0.264532 0.647225 1.5976 0.462082 0.361667 0.266649 0.238858 0.237004 0.611736 0.5188
threshold=-0.48541799999999996 -4.8031449999999999e-05 -9.7093149999999984e-05 13.471950000000001 -9.713144999999999 -0.55387799999999987 3.4050350000000003 2.1621100000000005e-05 0.00010885100000000002 0.0015759450000000003 -8.9669799999999986e-05 -2.3866199999999995e-05 0.5921550000000001 0.0032364300000000006
decision_type=2 2 2 2 2 2 2 2 2 2 2 2 2 2
left_child=1 -1 -3 4 8 6 -6 -8 -4 10 -10 12 -7 -13
right_child=-2 2 3 -5 5 11 7 -9 9 -11 -12 13 -14 -15
leaf_value=0.00044115622670105279 -4.4527104863957018e-05 2.7658631077295373e-05 -0.00096090656804741963 0.016882105088288055 -0.012017366602188249 8.5357363452203571e-05 0.016108087613247335 0.045861058763187863 0.0099005192611366522 -0.023824676543008537 -0.0069315869266377015 -0.0014913239068702316 0.022550493376329542 -0.016087529933356562
leaf_weight=22542 170992 22039 517 33 34 300 24 23 20 20 368 631 30 60
leaf_count=22542 170992 22039 517 33 34 300 24 23 20 20 368 631 30 60
internal_value=0 0.000163242 -9.67163e-05 -0.00142735 -0.00172543 -0.000155487 0.0127507 0.0306681 -0.00359578 -0.00693458 -0.00606395 -0.00117939 0.00212764 -0.00275872
internal_weight=0 46641 24099 2060 2027 1102 81 47 925 408 388 1021 330 691
internal_count=217633 46641 24099 2060 2027 1102 81 47 925 408 388 1021 330 691
shrinkage=0.15


Tree=362
num_leaves=15
num_cat=0
split_feature=3 23 23 13 14 23 23 34 14 20 23 11 3 20
split_gain=0.0782831 0.232946 0.231526 0.30821 0.268964 0.640918 0.345908 0.30564 0.513513 1.18891 1.3837 1.70672 1.2346 0.998423
threshold=-6.9170499999999988 -6.6317949999999994 -6.6695199999999994 6.2271550000000012e-05 0.0020844450000000003 -16.783199999999997 -8.1455849999999987 0.029268250000000003 0.00010223650000000001 8.9183100000000017 -7.1072649999999991 1.2352450000000002e-05 -7.1105099999999988 -7.8335649999999992
decision_type=2 2 2 2 2 2 2 2 2 2 2 2 2 2
left_child=2 -2 4 -4 5 -1 -6 8 9 13 11 -11 -12 -7
right_child=1 -3 3 -5 6 7 -8 -9 -10 10 12 -13 -14 -15
leaf_value=0.0010946989417573597 0.00023258245315003768 -0.00057773366288403822 0.00089861826412913188 -0.0004184095741354703 -0.00012395774618627757 0.0014726535174424567 0.00066165004946018601 -0.00022521176405429686 -0.00076981226818462884 -0.011806008647280661 -0.026757460278863814 0.022808896728112538 0.010626362296087401 -0.0093635658652109939
leaf_weight=6177 62271 9156 11620 6095 48963 265 16985 33407 21763 44 46 118 35 688
leaf_count=6177 62271 9156 11620 6095 48963 265 16985 33407 21763 44 46 118 35 688
internal_value=0 0.000128711 -6.28799e-05 0.000445483 -0.000132968 -0.000355818 7.83766e-05 -0.000514776 -0.000936114 -0.00396222 0.00540356 0.0134073 -0.010604 -0.00635035
internal_weight=0 71427 146206 17715 128491 62543 65948 56366 22959 1196 243 162 81 953
internal_count=217633 71427 146206 17715 128491 62543 65948 56366 22959 1196 243 162 81 953
shrinkage=0.15


Tree=363
num_leaves=15
num_cat=0
split_feature=22 2 0 6 22 2 2 33 23 19 2 20 19 3
split_gain=0.0649651 3.11943 2.12867 3.50386 4.5314 4.13592 3.30766 2.04328 2.11233 1.85542 1.61764 1.23119 1.20978 1.73858
threshold=-2.2993349999999997 -2.2717399999999994 -9.1235349999999986 -1.1507099999999999e-06 -2.7774649999999994 -2.7973349999999995 -2.7973349999999995 -2.5510999999999996e-06 -15.809749999999998 7.0604550000000007e-06 -1.5232149999999998 -9.9085449999999984 2.4128850000000005e-05 -6.3035799999999993
decision_type=2 2 2 2 2 2 2 2 2 2 2 2 2 2
left_child=1 2 -1 4 6 -6 11 8 -7 -10 12 -4 13 -3
right_child=-2 10 3 -5 5 7 -8 -9 9 -11 -12 -13 -14 -15
leaf_value=-0.0003501037620681809 -3.1941547088671476e-05 -0.008909757622128275 -0.007130951705895474 0.0012008829971512159 -0.010708841431632933 -0.0004933839219619854 -0.0076938349104536102 -0.0067150635655987287 0.029044152187034735 -0.0013110745731475097 3.599301193000251e-05 0.024981066257169005 -0.00011331480024417184 0.00028193137980094283
leaf_weight=1725 188933 1360 34 1458 98 71 349 52 601 49 20634 128 1439 702
leaf_count=1725 188933 1360 34 1458 98 71 349 52 601 49 20634 128 1439 702
internal_value=0 0.000210272 0.00380603 0.00633045 0.0117421 0.018321 0.000528328 0.0220014 0.0240725 0.0267558 -0.000469846 0.0182415 -0.00345113 -0.00578048
internal_weight=0 28700 4565 2840 1382 871 511 773 721 650 24135 162 3501 2062
internal_count=217633 28700 4565 2840 1382 871 511 773 721 650 24135 162 3501 2062
shrinkage=0.15


Tree=364
num_leaves=15
num_cat=0
split_feature=10 22 22 2 2 2 22 23 3 3 13 33 2 23
split_gain=0.083546 0.293759 1.03212 2.13319 2.60219 1.72332 3.27091 1.57703 5.03967 3.93674 3.36575 2.42742 1.56339 1.51482
threshold=2.0057950000000003e-05 -0.92432499999999995 -1.9309999999999998 -1.9354599999999997 -0.91636799999999985 -1.9354599999999997 -2.2993349999999997 -7.780594999999999 -7.6814349999999996 -7.8541999999999996 2.8118800000000003e-05 -1.2066749999999999e-05 -1.7330299999999996 -16.434549999999998
decision_type=2 2 2 2 2 2 2 2 2 2 2 2 2 2
left_child=1 2 5 -4 7 6 -1 8 10 -9 13 12 -12 -5
right_child=-2 -3 3 4 -6 -7 -8 9 -10 -11 11 -13 -14 -15
leaf_value=-0.0017238306911348258 -4.963839392389417e-05 -9.7575923504001786e-05 -0.0073600677986925961 0.0026403353018160428 -0.0002270379828688587 -0.0011192654198625672 0.017344589313475791 -0.0068530986894729225 -0.0045785891090354509 0.010590162766295779 0.042002213617064514 -0.0025993139172860538 0.0057518531173843517 0.017204950505737372
leaf_weight=498 169329 31386 523 186 3791 8006 341 663 603 519 49 500 59 1180
leaf_count=498 169329 31386 523 186 3791 8006 341 663 603 519 49 500 59 1180
internal_value=0 0.000174007 0.000677842 0.00190419 0.00254594 -0.00044147 0.00602627 0.00534253 0.00742331 0.000805998 0.0110895 0.00180561 0.0221988 0.0152218
internal_weight=0 48304 16918 8073 7550 8845 839 3759 2577 1182 1974 608 108 1366
internal_count=217633 48304 16918 8073 7550 8845 839 3759 2577 1182 1974 608 108 1366
shrinkage=0.15


Tree=365
num_leaves=15
num_cat=0
split_feature=22 0 23 6 28 20 0 31 3 11 31 0 31 13
split_gain=0.0966048 0.111362 0.098202 0.32559 0.287849 0.0971834 0.685953 1.51001 0.811695 1.25869 0.8141 0.760416 10.3088 2.86452
threshold=-2.8036449999999995 -10.580349999999997 -6.7383949999999997 -1.4092199999999999e-06 -0.0024188749999999996 3.7617250000000007 3.8361500000000004 -0.01025215 -8.1133949999999988 0.00015997800000000005 -0.43700099999999992 0.26776650000000007 -0.0011012049999999998 6.4421150000000009e-05
decision_type=2 2 2 2 2 2 2 2 2 2 2 2 2 2
left_child=1 2 -1 4 -4 6 11 8 9 10 -8 -2 13 -13
right_child=5 -3 3 -5 -6 -7 7 -9 -10 -11 -12 12 -14 -15
leaf_value=-0.0018929523267627389 -0.00010039193966961563 0.00055673557444659331 0.024033912002447654 -0.0063822590747883582 0.002255576909131681 0.00011697092888983225 -0.0010776517521363812 -7.8309457346900868e-05 -0.00092670595331358757 -0.00063818306649020523 -0.0068753134086175635 0.0075727481256942135 -0.0014322672676672194 0.00084072044653323984
leaf_weight=711 69103 10535 22 46 36 72128 718 33240 5988 2035 2261 4965 13852 1993
leaf_count=711 69103 10535 22 46 36 72128 718 33240 5988 2035 2261 4965 13852 1993
internal_value=0 0.000426051 -0.00126322 0.00304195 0.0105163 -2.3442e-05 -9.89345e-05 -0.000582471 -0.00210568 -0.00351367 -0.00547796 0.000138991 0.000933901 0.00564447
internal_weight=0 11350 815 104 58 206283 134155 44242 11002 5014 2979 89913 20810 6958
internal_count=217633 11350 815 104 58 206283 134155 44242 11002 5014 2979 89913 20810 6958
shrinkage=0.15


Tree=366
num_leaves=15
num_cat=0
split_feature=4 4 3 24 3 14 23 23 4 35 11 11 35 19
split_gain=0.0810015 0.107701 0.153053 0.24522 0.542475 0.802944 1.62816 1.14505 0.699233 0.659265 0.57347 0.494608 0.417176 0.411578
threshold=1.5436950000000003 -0.48541799999999996 -6.0288849999999989 0.53053000000000006 -15.166249999999998 0.0082895900000000012 -11.078849999999997 -15.809749999999998 1.2260050000000002 -0.082776699999999995 0.00013807150000000001 -5.3029349999999994e-05 -0.36007499999999998 0.00031313300000000005
decision_type=2 2 2 2 2 2 2 2 2 2 2 2 2 2
left_child=1 -1 3 -3 11 8 7 -7 10 -9 -6 -5 -10 -8
right_child=-2 2 -4 4 5 6 13 9 12 -11 -12 -13 -14 -15
leaf_value=0.00015677054665751632 0.00020961920097568651 -0.00027383799171459497 0.00014810170624870046 -0.0089115442673234711 0.00092167983782207442 -0.002589108680840582 -0.022940641224546279 0.021216065582373867 0.0070568001998419106 0.055774999968707557 0.019166499473011266 -0.00054172384302041284 -0.016175652706591659 0.0061042860948613709
leaf_weight=46641 34838 90769 38034 236 6371 20 23 23 22 27 39 486 83 21
leaf_count=46641 34838 90769 38034 236 6371 20 23 23 22 27 39 486 83 21
internal_value=0 -3.99503e-05 -0.000107339 -0.000206355 0.000626915 0.00105217 0.0135322 0.0277445 0.000833797 0.0398779 0.00103269 -0.00327757 -0.0113079 -0.00907829
internal_weight=0 182795 136154 98120 7351 6629 114 70 6515 50 6410 722 105 44
internal_count=217633 182795 136154 98120 7351 6629 114 70 6515 50 6410 722 105 44
shrinkage=0.15


Tree=367
num_leaves=15
num_cat=0
split_feature=22 2 22 2 19 0 33 23 23 19 11 33 33 0
split_gain=0.0755473 1.90593 1.6024 2.82641 2.40095 2.40306 2.2235 2.16098 0.931545 0.758137 1.43566 0.919876 0.651622 2.92645
threshold=-2.5339749999999994 -2.5276899999999993 -2.8863399999999997 -2.8982399999999995 0.00015928200000000004 -9.2573999999999987 -2.8707599999999999e-06 -7.8949349999999994 -17.743599999999997 1.9006200000000004e-05 -1.5009749999999998e-05 -2.9545649999999993e-06 -7.4438449999999987e-06 -6.821089999999999
decision_type=2 2 2 2 2 2 2 2 2 2 2 2 2 2
left_child=1 2 -1 -4 5 7 8 -5 -7 10 11 -3 -10 -14
right_child=-2 9 3 4 -6 6 -8 -9 12 -11 -12 -13 13 -15
leaf_value=-0.00036334039907413162 -2.879008424573076e-05 -0.012025002309852234 -0.0036013910919875623 -0.0069247651539361948 -0.0021441473378684185 -0.0041254564208666909 -0.0081239320007152858 0.016539790909155271 0.031390143486880163 0.00039361420035865618 -0.00081208531233163922 -0.00040661347553726625 0.031922408867288719 -0.014621482438815291
leaf_weight=1036 196753 456 390 165 234 23 50 190 264 12612 5077 231 110 42
leaf_count=1036 196753 456 390 165 234 23 50 190 264 12612 5077 231 110 42
internal_value=0 0.00027129 0.00415358 0.00734127 0.0113001 0.0150276 0.0218472 0.00563373 0.0252608 -0.000257729 -0.00168291 -0.00811838 0.0268855 0.0190616
internal_weight=0 20880 2504 1468 1078 844 489 355 439 18376 5764 687 416 152
internal_count=217633 20880 2504 1468 1078 844 489 355 439 18376 5764 687 416 152
shrinkage=0.15


Tree=368
num_leaves=15
num_cat=0
split_feature=22 2 22 2 22 21 16 2 26 18 2 2 33 19
split_gain=0.0811138 0.13291 0.48655 0.308696 0.488453 0.298057 0.295778 0.54301 0.332656 0.414308 0.282122 0.271167 0.459765 0.178184
threshold=-2.8863399999999997 -3.0230999999999995 -2.9897199999999997 -2.8697349999999995 -2.9897199999999997 -2.1194799999999998 1.9948850000000003e-07 -2.9738899999999995 -8.9705449999999987e-05 4.8792050000000007e-08 -2.9945099999999996 -2.2973549999999996 2.2511800000000004e-05 1.7095050000000005e-05
decision_type=2 2 2 2 2 2 2 2 2 2 2 2 2 2
left_child=1 2 -1 4 5 -3 7 -6 -9 -10 -7 12 13 -5
right_child=-2 3 -4 11 6 10 -8 8 9 -11 -12 -13 -14 -15
leaf_value=0.001116999355409379 -1.8719113299222429e-05 0.01176837604514069 -0.016518342189465327 -0.0047348965482794381 -0.00028320731304120272 0.0081502002844166376 -0.00071299076438523245 0.033300356669051033 0.024132433050711239 -0.0021366611218333921 -0.0083511702094643189 0.00064636099386344631 0.01517702603966675 -0.0002369427264348337
leaf_weight=132 208904 33 48 481 40 31 39 31 35 22 94 7373 33 337
leaf_count=132 208904 33 48 481 40 31 39 31 35 22 94 7373 33 337
internal_value=0 0.000447989 -0.00358576 0.00053292 0.0050671 -0.000911376 0.0107234 0.0142079 0.0207948 0.0139935 -0.00425883 0.000353736 -0.00218154 -0.00288183
internal_weight=0 8729 180 8549 325 158 167 128 88 57 125 8224 851 818
internal_count=217633 8729 180 8549 325 158 167 128 88 57 125 8224 851 818
shrinkage=0.15


Tree=369
num_leaves=15
num_cat=0
split_feature=22 22 12 2 31 16 15 0 18 28 2 33 22 2
split_gain=0.0627355 0.0723432 0.455343 1.09471 1.78147 2.7119 1.25019 1.5069 0.660294 0.524652 0.457406 0.392791 0.341073 10.9698
threshold=-2.9378149999999996 -0.52681499999999992 2.7862550000000003e-05 -0.48940749999999994 -0.012733049999999997 3.1296850000000004e-07 -2.2565499999999996e-06 10.429750000000002 3.9077700000000007e-05 -0.083375999999999992 0.25774100000000005 4.0129950000000009e-06 -1.0853349999999997 -1.0844649999999998
decision_type=2 2 2 2 2 2 2 2 2 2 2 2 2 2
left_child=-1 2 3 12 5 -5 -7 8 9 -8 11 -11 -2 -14
right_child=1 -3 -4 4 -6 6 7 -9 -10 10 -12 -13 13 -15
leaf_value=0.00044331364652626024 -0.00026237265410128396 5.6179253621333115e-05 0.00030353893062363323 -0.0011044475993771423 -0.0002325205573388218 -0.0022847619256306916 -0.008914969823012403 -0.0040987334736923 -0.0063353590968861073 -0.010278677105796649 -0.00062733229777742433 -0.022145797869435945 -0.0024731020946509629 0.0093132686242540803
leaf_weight=6953 28395 127764 33467 2847 7588 506 140 446 161 74 28 413 6390 2461
leaf_count=6953 28395 127764 33467 2847 7588 506 140 446 161 74 28 413 6390 2461
internal_value=0 -1.46305e-05 -0.00012374 -0.000412922 -0.00164593 -0.00396988 -0.00858406 -0.0111098 -0.0149418 -0.0170572 -0.0192707 -0.0203426 -8.947e-06 0.000804071
internal_weight=0 210680 82916 49449 12203 4615 1768 1262 816 655 515 487 37246 8851
internal_count=217633 210680 82916 49449 12203 4615 1768 1262 816 655 515 487 37246 8851
shrinkage=0.15


Tree=370
num_leaves=15
num_cat=0
split_feature=3 23 3 3 23 14 25 21 1 1 1 21 21 7
split_gain=0.0629155 0.240728 0.350753 0.313372 1.77756 0.970264 0.93688 0.811843 7.65817 3.74513 1.22048 4.62642 2.37321 0.709506
threshold=-6.9170499999999988 -7.2957849999999995 -10.05805 -7.3420999999999994 -6.9868449999999989 0.00038336100000000009 3.0220900000000004 6.041335000000001 5.0210050000000015 5.7343200000000012 -5.9246899999999991 -5.6552149999999992 -6.0969499999999988 3.0434000000000004e-05
decision_type=2 2 2 2 2 2 2 2 2 2 2 2 2 2
left_child=1 -1 -3 -4 5 6 7 9 -9 10 11 13 -12 -5
right_child=-2 2 3 4 -6 -7 -8 8 -10 -11 12 -13 -14 -15
leaf_value=-0.00016253067360915679 0.00011538757580689216 0.00076558038712374894 -0.00051132814928174053 0.025736715454001757 -0.0011313362559999874 -0.001340830951601083 -0.0071227568732437621 -0.022354742606671956 0.040951383060328368 -0.022156830861342028 -0.025368274240640969 -0.020169012382087344 0.015132698770081977 0.050573207833445988
leaf_weight=112103 71427 17340 13569 43 2262 250 68 65 127 77 41 38 158 65
leaf_count=112103 71427 17340 13569 43 2262 250 68 65 127 77 41 38 158 65
internal_value=0 -5.63711e-05 0.000292596 -0.00019667 0.00114009 0.00665292 0.00958318 0.0114333 0.0195196 0.00775428 0.0144301 0.024846 0.00678828 0.0406846
internal_weight=0 146206 34103 16763 3194 932 682 614 192 422 345 146 199 108
internal_count=217633 146206 34103 16763 3194 932 682 614 192 422 345 146 199 108
shrinkage=0.15


Tree=371
num_leaves=15
num_cat=0
split_feature=13 7 27 10 20 11 23 0 0 32 13 14 30 11
split_gain=0.0579826 0.125128 0.175327 0.129871 0.650201 0.801948 2.22182 2.15955 1.96119 1.36372 2.36299 1.95877 2.43075 1.30146
threshold=8.3693450000000004e-05 4.4571700000000006e-05 0.32524700000000006 2.7174550000000002e-05 5.1570950000000009 2.5658450000000005e-05 -9.2454099999999979 8.4991750000000028 4.561020000000001 -0.11234649999999999 3.4251500000000009e-05 0.0010618150000000002 0.0023321250000000004 4.3390300000000004e-05
decision_type=2 2 2 2 2 2 2 2 2 2 2 2 2 2
left_child=1 3 -3 -1 -5 -6 7 8 -7 10 -10 12 13 -11
right_child=-2 2 -4 4 5 6 -8 -9 9 11 -12 -13 -14 -15
leaf_value=-1.989026483601622e-05 0.00014464947424881598 0.00039897076347022959 -7.5995486349886857e-05 -0.00077046732135651946 -0.00013582660007209303 -0.01040249702438493 -0.00084102464587007227 -0.0074615250505104822 -0.010856312491330402 0.020151060243274586 0.026825544595184121 0.006461393096044034 -0.0067588801339939783 0.039365079136498803
leaf_weight=59427 48466 28201 46026 26008 7041 85 1424 165 113 183 56 247 51 140
leaf_count=59427 48466 28201 46026 26008 7041 85 1424 165 113 183 56 247 51 140
internal_value=0 -4.14418e-05 0.000104458 -0.000155511 -0.000382456 0.000679237 0.00300832 0.00827896 0.0112472 0.0135766 0.00162998 0.0168277 0.0236739 0.0284791
internal_weight=0 169167 74227 94940 35513 9505 2464 1040 875 790 169 621 374 323
internal_count=217633 169167 74227 94940 35513 9505 2464 1040 875 790 169 621 374 323
shrinkage=0.15


Tree=372
num_leaves=15
num_cat=0
split_feature=3 23 23 3 13 3 23 16 16 0 20 20 30 23
split_gain=0.0611209 0.373473 0.777755 2.99928 1.46372 1.23303 6.89198 2.68996 3.14045 1.97407 4.38522 3.83271 2.05083 1.56946
threshold=-8.4006749999999979 -10.580249999999998 -8.5490249999999985 -7.2233449999999992 3.5094600000000008e-05 -7.5114599999999987 -7.5399549999999991 4.3222900000000011e-06 -6.2497099999999986e-06 -8.9809199999999993 -9.3203249999999986 -8.5929649999999977 0.004154075000000001 -7.0815949999999992
decision_type=2 2 2 2 2 2 2 2 2 2 2 2 2 2
left_child=-1 -2 3 4 -3 6 7 8 -4 11 -11 -10 -12 -8
right_child=1 2 5 -5 -6 -7 13 -9 9 10 12 -13 -14 -15
leaf_value=-7.9760221755887845e-05 0.00042788677181347553 -0.0055074473542056643 -0.00059318268736067677 0.00019058133997253615 -0.00019907291369499605 -0.00018607765267248874 -0.0055635130651594646 -0.0011288228732397143 0.022908489867555105 -0.0092117322269481255 0.017421090557195325 -0.011005910816026509 -0.0023273776770679432 4.4868451617185344e-05
leaf_weight=108450 42327 3851 592 15003 1678 37127 1540 730 116 172 1564 212 128 4143
leaf_count=108450 42327 3851 592 15003 1678 37127 1540 730 116 172 1564 212 128 4143
internal_value=0 7.92248e-05 -0.000141516 -0.000909991 -0.00389641 0.000199093 0.00175397 0.00697587 0.00910102 0.0117192 0.0136074 0.000988206 0.0159271 -0.00147491
internal_weight=0 109183 66856 20532 5529 46324 9197 3514 2784 2192 1864 328 1692 5683
internal_count=217633 109183 66856 20532 5529 46324 9197 3514 2784 2192 1864 328 1692 5683
shrinkage=0.15


Tree=373
num_leaves=15
num_cat=0
split_feature=4 38 19 37 2 14 37 4 3 6 12 5 3 23
split_gain=0.064766 0.208785 0.204004 0.872037 0.49589 0.344189 0.329971 3.54977 1.33864 0.968204 0.604298 0.492891 0.584294 0.414489
threshold=0.46547150000000009 -0.00042742999999999996 0.00013127750000000005 -1.0998699999999999e-06 1.5532300000000003 0.0013170050000000002 -2.0707799999999996e-06 1.1140750000000001 -8.1765499999999971 4.7807800000000005e-07 4.7377000000000011e-05 1.9284800000000006e-05 -13.697799999999999 -11.172049999999997
decision_type=2 2 2 2 2 2 2 2 2 2 2 2 2 2
left_child=-1 2 3 4 5 -2 7 8 9 11 -11 12 -4 -10
right_child=1 -3 6 -5 -6 -7 -8 -9 13 10 -12 -13 -14 -15
leaf_value=-4.3269542469690738e-05 -0.0047684150568602481 0.00036284523761885172 -0.0067202914020289542 -0.00045280471716512818 0.0096479465026641266 -0.015021494041361352 -0.00033272244100311237 -0.00085715553672051619 -0.01622293285894557 0.062880367688834662 0.030795097344421915 0.037647199376740235 0.026407585993409158 0.014315576325170696
leaf_weight=170077 130 33062 23 2129 30 170 10787 1085 20 25 28 22 25 20
leaf_count=170077 130 33062 23 2129 30 170 10787 1085 20 25 28 22 25 20
internal_value=0 0.000154747 -0.000319942 -0.00156492 -0.00873973 -0.0105785 -6.55675e-05 0.00224357 0.0228834 0.0306352 0.0459297 0.0190552 0.0105338 -0.000953678
internal_weight=0 47556 14494 2459 330 300 12035 1248 163 123 53 70 48 40
internal_count=217633 47556 14494 2459 330 300 12035 1248 163 123 53 70 48 40
shrinkage=0.15


Tree=374
num_leaves=15
num_cat=0
split_feature=2 31 21 22 14 3 20 22 12 23 3 22 14 20
split_gain=0.0652535 0.598926 0.249088 0.977338 0.30203 0.440789 0.351195 0.493332 0.607319 0.347564 0.608115 0.223486 0.294327 0.219753
threshold=-2.8982399999999995 0.01286635 -1.6499499999999998 2.9399650000000004 0.0054376550000000004 -7.8930599999999993 -9.4357099999999985 -2.9160599999999994 -2.4799899999999996e-05 -9.061029999999997 -10.609449999999997 -2.9160599999999994 7.0631650000000013e-05 -9.5917099999999973
decision_type=2 2 2 2 2 2 2 2 2 2 2 2 2 2
left_child=1 -1 3 4 5 6 -3 8 -8 10 -9 12 -7 -13
right_child=-2 2 -4 -5 -6 11 7 9 -10 -11 -12 13 -14 -15
leaf_value=0.0017251573012066021 -1.487463213437337e-05 -0.017680810821597091 4.131638700577558e-05 0.028670167832487176 0.0011928461667544302 -0.0050024652226756394 0.028353974036872384 -0.019650075914695558 -0.00738606442818823 -0.0025175300953525653 -0.0039762262671011617 -0.010439266565795564 0.015941745232945927 -0.0010416496143626887
leaf_weight=3778 210722 67 1840 22 274 26 20 108 23 167 115 66 36 369
leaf_count=3778 210722 67 1840 22 274 26 20 108 23 167 115 66 36 369
internal_value=0 0.00045354 -0.00107987 -0.00267537 -0.00321794 -0.00443013 -0.00757463 -0.00601086 0.00923721 -0.00769206 -0.0115671 -0.00126664 0.00715869 -0.00246749
internal_weight=0 6911 3133 1293 1271 997 500 433 43 390 223 497 62 435
internal_count=217633 6911 3133 1293 1271 997 500 433 43 390 223 497 62 435
shrinkage=0.15


Tree=375
num_leaves=15
num_cat=0
split_feature=20 11 2 22 0 3 11 34 22 2 11 34 21 16
split_gain=0.0686052 0.238014 0.253959 1.43557 1.26169 0.975749 1.08691 0.739495 0.620861 0.7169 0.583277 1.47268 0.529152 0.821679
threshold=-8.9078399999999984 1.0705000000000002e-05 2.6199850000000002 2.6194050000000004 -7.3110149999999985 -5.753169999999999 -6.021874999999999e-05 0.15042300000000003 2.5991050000000002 2.1576850000000003 -3.3878749999999995e-05 0.047578050000000004 0.26237100000000008 -1.3824149999999997e-06
decision_type=2 2 2 2 2 2 2 2 2 2 2 2 2 2
left_child=1 2 8 -4 5 6 7 -5 -1 -10 11 -8 -12 -14
right_child=-2 -3 3 4 -6 -7 10 -9 9 -11 12 -13 13 -15
leaf_value=0.00041082603987168119 -2.7401994063625544e-05 0.00089006058971017557 -0.0021197703117119332 -0.0059887504587286941 -0.0037778062442401874 -0.0049620018923074482 0.0099880550996333892 0.017533458963523364 -0.0011349473573960508 -0.0070626578621557383 -0.0030345271904176721 0.051982112634269627 0.044090852564708752 0.013614442135523737
leaf_weight=7048 196799 8170 1045 95 201 83 42 44 3271 534 36 34 22 209
leaf_count=7048 196799 8170 1045 95 201 83 42 44 3271 534 36 34 22 209
internal_value=0 0.000258841 -0.000148382 0.001496 0.00642875 0.0100598 0.0126465 0.00145713 -0.000422774 -0.00196685 0.0171809 0.0287749 0.0138808 0.016517
internal_weight=0 20834 12664 1811 766 565 482 139 10853 3805 343 76 267 231
internal_count=217633 20834 12664 1811 766 565 482 139 10853 3805 343 76 267 231
shrinkage=0.15


Tree=376
num_leaves=15
num_cat=0
split_feature=4 26 14 28 8 16 22 0 18 24 29 4 22 18
split_gain=0.0595848 0.115532 0.17634 0.458347 1.42003 1.18244 1.2079 0.89112 0.153024 0.154933 0.132568 0.173521 0.188445 0.131263
threshold=-0.48541799999999996 -4.8031449999999999e-05 0.0026669950000000006 -0.25901299999999999 7.6917800000000018e-06 2.3988650000000003e-05 -2.1362749999999995 2.0963400000000001 -0.00032932599999999996 -0.55446799999999985 -1.2159399999999998 -2.5355949999999994 -0.52681499999999992 -9.7093149999999984e-05
decision_type=2 2 2 2 2 2 2 2 2 2 2 2 2 2
left_child=1 2 3 4 8 6 -6 -8 -1 -10 11 -4 -13 -3
right_child=-2 13 10 -5 5 -7 7 -9 9 -11 -12 12 -14 -15
leaf_value=0.0022541570898413606 -4.0991387725634667e-05 2.8982415289504579e-05 -0.00055342567435858012 0.0008075088772518576 0.0029386412688340484 2.4505034421703647e-05 0.066623500374186295 0.025305547847528941 -0.014114025247101557 0.00068801170832907344 0.00016590084625049713 -0.02283119805069873 -0.0040339877502992751 -0.0012230978643683291
leaf_weight=56 170992 22039 91 6343 22 42 23 24 41 26 15824 20 30 2060
leaf_count=56 170992 22039 91 6343 22 42 23 24 41 26 15824 20 30 2060
internal_value=0 0.00015028 0.000394377 0.00104802 0.00756752 0.019868 0.0319467 0.045525 -0.00353296 -0.00836995 0.000125099 -0.00445394 -0.0115529 -7.80463e-05
internal_weight=0 46641 22542 6577 234 111 69 47 123 67 15965 141 50 24099
internal_count=217633 46641 22542 6577 234 111 69 47 123 67 15965 141 50 24099
shrinkage=0.15


Tree=377
num_leaves=15
num_cat=0
split_feature=7 27 32 12 1 36 36 26 32 1 4 32 9 33
split_gain=0.0575722 0.140465 0.109243 0.153357 0.135653 0.0977366 0.163801 0.132684 0.212824 0.365088 0.494322 0.141916 0.198843 0.321769
threshold=2.1244100000000002e-05 0.12950200000000003 -0.83958549999999987 4.7377000000000011e-05 5.2110150000000006 0.0012928750000000002 0.00070780750000000014 0.00016048550000000001 -0.11234649999999999 3.6457350000000006 -0.066839799999999991 -0.022328699999999996 -1.0637549999999999e-05 3.8815300000000013e-06
decision_type=2 2 2 2 2 2 2 2 2 2 2 2 2 2
left_child=1 -1 3 -3 -5 6 7 8 9 -4 -11 12 13 -10
right_child=-2 2 5 4 -6 -7 -8 -9 11 10 -12 -13 -14 -15
leaf_value=0.012233997542036535 -1.0959679308835264e-05 -0.00023293301458323591 -0.00038641795928219368 -0.017159228526055812 -0.0037136501371395959 0.0019416831890159735 -0.0032917418210278962 -0.0026884856790686347 -0.0013399634067821819 0.025180071409558878 0.00226244762869707 0.001236686159828033 -0.0023777886841049142 0.022274869196262443
leaf_weight=23 213328 206 98 25 52 1029 268 251 37 40 45 1681 530 20
leaf_count=23 213328 206 98 25 52 1029 268 251 37 40 45 1681 530 20
internal_value=0 0.000543091 0.000480295 -0.00236776 -0.0080791 0.000681845 0.000245356 0.000596186 0.00093256 0.00585325 0.0130472 0.00053552 -0.00147242 0.00694594
internal_weight=0 4305 4282 283 77 3999 2970 2702 2451 183 85 2268 587 57
internal_count=217633 4305 4282 283 77 3999 2970 2702 2451 183 85 2268 587 57
shrinkage=0.15


Tree=378
num_leaves=15
num_cat=0
split_feature=4 24 14 4 35 25 1 36 27 4 2 14 25 3
split_gain=0.0555307 0.138997 0.245595 0.37822 0.352902 0.665937 0.248351 0.525667 0.196642 0.514418 1.34051 0.130906 0.110637 0.108765
threshold=1.1140750000000001 0.33377850000000003 0.0078268300000000016 1.6545300000000001 -0.36007499999999998 33.058550000000004 4.4581600000000003 0.069721200000000011 67.650400000000005 2.9123050000000004 -0.53906949999999998 0.0048352200000000012 5.5892250000000008 -10.110599999999998
decision_type=2 2 2 2 2 2 2 2 2 2 2 2 2 2
left_child=-1 11 3 4 5 -3 13 12 -4 10 -10 -2 -8 -6
right_child=1 2 8 -5 6 -7 7 -9 9 -11 -12 -13 -14 -15
leaf_value=-3.4970350510012371e-05 0.00074484524429123367 -0.01148036068973496 -4.8912106744667422e-05 -0.00084291375206964022 0.0025244101243359703 0.025023512288250706 -0.0038881808261586621 -0.033993875559257425 -0.01019362350925803 -0.00091999514494091263 0.036397301625799044 8.6763183410713709e-05 -0.016150963503867386 -0.0065104943266083839
leaf_weight=179415 9585 23 3199 1469 35 22 49 23 24 105 33 23417 25 209
leaf_count=179415 9585 23 3199 1469 35 22 49 23 24 105 33 23417 25 209
internal_value=0 0.000164169 -0.000555381 -0.00194084 -0.00611923 0.00636598 -0.00776684 -0.0141872 0.000209281 0.00530781 0.0167801 0.000277895 -0.00803101 -0.0052145
internal_weight=0 38218 5216 1855 386 45 341 97 3361 162 57 33002 74 244
internal_count=217633 38218 5216 1855 386 45 341 97 3361 162 57 33002 74 244
shrinkage=0.15


Tree=379
num_leaves=15
num_cat=0
split_feature=20 11 0 3 16 14 3 34 23 14 23 11 28 23
split_gain=0.0543767 0.355216 0.429936 0.782322 0.596536 0.532332 1.17512 0.880896 0.819647 0.601231 0.662889 0.552369 0.468323 0.57203
threshold=9.4321850000000023 -1.8741599999999997e-05 8.8935650000000006 -6.2187599999999987 6.5260250000000008e-06 0.0004987975000000001 -6.2187599999999987 0.028647800000000005 -6.2458949999999991 0.00017734350000000003 -7.1280949999999992 1.4851450000000002e-05 -0.060039149999999993 -7.3665249999999993
decision_type=2 2 2 2 2 2 2 2 2 2 2 2 2 2
left_child=-1 -2 5 4 12 6 7 8 9 11 -11 -3 -4 -14
right_child=1 2 3 -5 -6 -7 -8 -9 -10 10 -12 -13 13 -15
leaf_value=-2.2777641076503368e-05 0.0012118638686442621 -0.0094118480189031486 -0.007396043592316639 -0.0011631141467169366 -0.0041580570453907109 0.00040004854128793159 0.00073320697940418441 -0.00053321280715306837 0.0028002525714189426 -0.01024815220422776 -0.0010038878851908429 -0.023651169391814619 0.010832537718045708 0.0035679818566906503
leaf_weight=199245 5851 549 62 1257 173 5187 2213 1005 197 288 443 69 367 727
leaf_count=199245 5851 549 62 1257 173 5187 2213 1005 197 288 443 69 367 727
internal_value=0 0.000246809 -0.00020358 0.00151954 0.00405686 -0.000651373 -0.00179615 -0.00399038 -0.00623776 -0.00755762 -0.00464595 -0.0110017 0.00528625 0.00600499
internal_weight=0 18388 12537 2586 1329 9951 4764 2551 1546 1349 731 618 1156 1094
internal_count=217633 18388 12537 2586 1329 9951 4764 2551 1546 1349 731 618 1156 1094
shrinkage=0.15


Tree=380
num_leaves=15
num_cat=0
split_feature=3 34 3 23 14 3 23 23 14 4 23 20 0 5
split_gain=0.0535949 0.320291 0.335744 0.584276 2.61523 2.51093 2.19291 1.44888 2.70062 1.22118 1.13019 0.864771 0.95924 0.874244
threshold=-8.1765499999999971 0.013102600000000001 -11.455299999999998 -8.2979299999999991 0.00037299900000000005 -9.4771649999999976 -9.5416749999999979 -7.2957849999999995 0.0005728895000000001 -0.14766849999999998 -9.5021749999999994 -8.4074199999999983 -7.9798249999999991 1.5725450000000004e-05
decision_type=2 2 2 2 2 2 2 2 2 2 2 2 2 2
left_child=1 2 -1 4 5 10 -7 8 -5 -8 -4 -11 -13 -14
right_child=-2 -3 3 7 -6 6 9 -9 -10 11 -12 12 13 -15
leaf_value=0.00089468513692716664 7.7793997007398602e-05 -0.00021900844682191381 0.014587041893257545 -0.0088351434627559431 -0.00087260785666704076 -0.015065115032273089 -0.0089579430583398793 0.00048688704489862353 -0.00022651195542885969 5.9939212306349906e-05 -0.014805934810647159 -0.004400437477637421 0.017926803002682148 0.032788879308481546
leaf_weight=13794 104020 84514 39 1222 2222 55 40 8589 2492 53 120 33 316 124
leaf_count=13794 104020 84514 39 1222 2222 55 40 8589 2492 53 120 33 316 124
internal_value=0 -7.12254e-05 0.00035799 -0.00012572 0.0017505 0.009223 0.0135294 -0.000583528 -0.00305897 0.016308 -0.00759634 0.0182294 0.0202653 0.0221152
internal_weight=0 113613 29099 15305 3002 780 621 12303 3714 566 159 526 473 440
internal_count=217633 113613 29099 15305 3002 780 621 12303 3714 566 159 526 473 440
shrinkage=0.15


Tree=381
num_leaves=15
num_cat=0
split_feature=20 0 23 3 5 7 15 36 17 4 15 15 11 14
split_gain=0.0532877 0.318274 0.553028 0.487923 0.59705 0.220789 0.16933 0.127961 0.111799 0.127248 0.121936 0.173745 0.275571 0.117978
threshold=-12.935299999999998 -11.535049999999998 -6.9868449999999989 -5.1381949999999987 1.1105950000000002e-05 5.9379850000000007e-05 -6.5679299999999979e-08 -0.099237049999999979 6.063115000000001e-08 0.43714250000000004 -4.871584999999999e-06 -1.0003699999999999e-05 -5.3029349999999994e-05 0.00011889250000000002
decision_type=2 2 2 2 2 2 2 2 2 2 2 2 2 2
left_child=1 2 7 4 -4 -6 8 -1 9 -3 11 -10 -13 -12
right_child=-2 6 3 -5 5 -7 -8 -9 10 -11 13 12 -14 -15
leaf_value=0.0077437070503947325 -9.413245499956655e-06 0.00013147524264218747 0.0019754578994417731 -0.0048477612355782183 0.043885484446655028 0.022109491663815619 0.0011379638263528755 -0.0046541679232883432 -0.0011040626459336916 0.009554087947752643 0.00056313814566237856 0.021822830485180019 -0.0030776519043138246 -0.0048169041715302278
leaf_weight=26 214188 410 22 20 20 22 1949 67 325 35 120 20 20 389
leaf_count=26 214188 410 22 20 20 22 1949 67 325 35 120 20 20 389
internal_value=0 0.000585255 0.0067804 0.0156027 0.0219934 0.032479 0.000249716 -0.0011881 -0.00106279 0.00087258 -0.00204819 4.40636e-05 0.00937259 -0.00354852
internal_weight=0 3445 177 84 64 42 3268 93 1319 445 874 365 40 509
internal_count=217633 3445 177 84 64 42 3268 93 1319 445 874 365 40 509
shrinkage=0.15


Tree=382
num_leaves=15
num_cat=0
split_feature=5 12 21 23 21 23 24 26 2 18 21 23 23 26
split_gain=0.0503817 0.160948 0.117226 0.157084 0.155318 0.422258 0.205251 0.279972 0.235293 0.25458 0.150312 0.142764 0.142515 0.12957
threshold=6.9938750000000009e-06 7.0100100000000005e-06 5.1128250000000008 -8.1455849999999987 0.93795100000000009 -8.6253599999999988 0.31915200000000005 -7.2117199999999988e-05 2.6393150000000003 -2.0120049999999995e-06 -4.5469049999999989 -7.2957849999999995 -9.1777649999999991 7.1934300000000014e-05
decision_type=2 2 2 2 2 2 2 2 2 2 2 2 2 2
left_child=1 -1 4 12 10 6 7 -6 9 -9 -3 -7 -4 -11
right_child=-2 2 3 -5 5 11 -8 8 -10 13 -12 -13 -14 -15
leaf_value=0.0020593350647473397 -6.4660353672499599e-06 0.0013343308322723037 -0.0039643011869830999 0.00045627177751931473 0.026181925275886895 -0.01635274047637358 -0.0058042862352026114 0.025186354748439041 -0.0049734266728462114 -0.0011946797403025215 -0.0049252381324913592 -0.00032231631036847827 -0.015635960857616739 0.012866111700423061
leaf_weight=989 215900 181 68 94 20 25 22 21 28 29 165 25 36 30
leaf_count=989 215900 181 68 94 20 25 22 21 28 29 165 25 36 30
internal_value=0 0.00080555 -0.000861109 -0.00398777 0.000272734 0.00360031 0.0075796 0.00987995 0.00686107 0.0110031 -0.00165072 -0.00833753 -0.00800449 0.00595488
internal_weight=0 1733 744 198 546 200 150 128 108 80 346 50 104 59
internal_count=217633 1733 744 198 546 200 150 128 108 80 346 50 104 59
shrinkage=0.15


Tree=383
num_leaves=15
num_cat=0
split_feature=22 5 2 17 2 31 32 3 23 11 14 22 22 39
split_gain=0.0520446 0.0724149 0.109984 0.062141 0.0553788 0.399762 0.155468 0.21717 0.2584 0.227315 0.406656 0.151666 0.571784 0.243848
threshold=-3.0952799999999994 8.2372650000000025e-06 -2.9738899999999995 4.3645800000000003e-07 -2.9487299999999999 0.011982300000000003 0.22670350000000003 -8.4798949999999973 -15.928399999999998 -0.00012615999999999997 0.0012378850000000002 -2.9160599999999994 -2.8587899999999995 6.5954050000000008e-06
decision_type=2 2 2 2 2 2 2 2 2 2 2 2 2 2
left_child=1 3 -3 -1 5 -2 11 8 -8 -10 -11 13 -13 -7
right_child=4 2 -4 -5 -6 6 7 -9 9 10 -12 12 -14 -15
leaf_value=0.0091789954578936368 0.0016840192369200172 -0.0072468825529750361 0.00081393478188293382 -0.00026646453235298391 -1.8415987964035772e-05 -0.0025809009640943262 0.0046765370508505691 -0.0005299590597183328 -0.0033767149773805197 -0.0078921798517804526 -0.030239751356254729 -0.019919986109432231 -0.00054508773091501025 0.0068312211248203374
leaf_weight=42 2809 39 1623 25 210774 105 31 212 59 53 28 35 1647 151
leaf_count=42 2809 39 1623 25 210774 105 31 212 59 53 28 35 1647 151
internal_value=0 0.00081969 0.000624782 0.00565457 -6.56423e-06 0.000480384 -0.000976322 -0.00373787 -0.00771492 -0.0104587 -0.0156173 -0.000430567 -0.000948251 0.00297078
internal_weight=0 1729 1662 67 215904 5130 2321 383 171 140 81 1938 1682 256
internal_count=217633 1729 1662 67 215904 5130 2321 383 171 140 81 1938 1682 256
shrinkage=0.15


Tree=384
num_leaves=15
num_cat=0
split_feature=22 1 12 0 13 1 21 22 0 23 23 1 14 33
split_gain=0.0516689 0.692689 2.58648 1.60359 1.4997 1.18346 1.23689 1.18735 1.00959 2.92847 1.79117 1.14081 0.71407 0.589357
threshold=2.9399650000000004 2.1301600000000005 1.0000000180025095e-35 -4.3652699999999998 -6.4222549999999989e-06 1.4939200000000004 2.1817450000000007 3.1180850000000002 -7.9798249999999991 -9.713144999999999 -9.8328599999999984 0.62580550000000013 0.0014449400000000002 1.0209450000000003e-05
decision_type=2 2 2 2 2 2 2 2 2 2 2 2 2 2
left_child=-1 2 -2 5 -3 7 -7 8 10 11 -4 -10 -13 -14
right_child=1 4 3 -5 -6 6 -8 -9 9 -11 -12 12 13 -15
leaf_value=-1.3668069838096473e-05 -4.4340772744372856e-05 -0.0062349882919157697 -0.011313633746079479 0.0013439510867723932 0.00093659397916559615 -0.005621520364250252 0.035703409714624289 -0.015218505778466351 0.069099006727337833 -0.0012691196290446291 0.024612666799700544 0.048970894301310179 0.0024203265155665577 0.03883535003755241
leaf_weight=210279 3605 964 45 301 2054 88 20 20 30 45 102 40 20 20
leaf_count=210279 3605 964 45 301 2054 88 20 20 30 45 102 40 20 20
internal_value=0 0.000390822 0.00160537 0.00974107 -0.00135413 0.0156191 0.00203124 0.0201765 0.0225205 0.0309665 0.0136148 0.0441538 0.0347994 0.0206278
internal_weight=0 7354 4336 731 3018 430 108 322 302 155 147 110 80 40
internal_count=217633 7354 4336 731 3018 430 108 322 302 155 147 110 80 40
shrinkage=0.15


Tree=385
num_leaves=15
num_cat=0
split_feature=2 33 0 14 21 28 21 20 33 0 23 23 11 17
split_gain=0.0539067 0.384322 0.362668 0.389178 0.374634 0.288496 1.31567 1.24402 0.71983 0.677707 2.62527 0.759696 0.813621 0.709769
threshold=2.9632800000000006 1.0506350000000001e-05 -6.7199149999999994 0.0035426600000000004 0.35508750000000006 0.00014218450000000004 1.6400400000000002 -3.6376949999999995 1.9383450000000008e-06 -7.6489999999999991 -10.108199999999998 -10.484749999999998 -4.9299749999999995e-05 5.3536800000000004e-06
decision_type=2 2 2 2 2 2 2 2 2 2 2 2 2 2
left_child=-1 5 -3 4 -4 -2 7 9 -8 11 13 -7 -13 -11
right_child=1 2 3 -5 -6 6 8 -9 -10 10 -12 12 -14 -15
leaf_value=1.1493359526997271e-05 -0.0011849510138038312 -0.0010725147735563259 -0.0062239157564995288 -0.0016008369258535026 -0.0198380084708333 -0.0094074996090577241 0.0014443138716657674 0.00072869126776728573 -0.0054052650819581141 0.061062913964832981 -0.0074171632694990629 -0.006838645268670427 0.023801082423485168 0.027796871365151472
leaf_weight=212594 1796 757 118 169 74 35 1174 232 489 31 33 26 78 27
leaf_count=212594 1796 757 118 169 74 35 1174 232 489 31 33 26 78 27
internal_value=0 -0.000484902 -0.00293817 -0.00685035 -0.011471 0.000214601 0.00139747 0.00847873 -0.000569784 0.0162962 0.0263593 0.00970804 0.0161412 0.045577
internal_weight=0 5039 1118 361 192 3921 2125 462 1663 230 91 139 104 58
internal_count=217633 5039 1118 361 192 3921 2125 462 1663 230 91 139 104 58
shrinkage=0.15


Tree=386
num_leaves=15
num_cat=0
split_feature=22 1 21 8 0 22 0 33 23 4 23 17 1 1
split_gain=0.0475426 0.318076 0.620639 0.488547 2.06615 2.3335 1.35971 2.41181 1.6116 1.60754 1.67275 1.71215 1.56025 1.70635
threshold=-2.2993349999999997 -7.4840449999999992 -3.1875049999999994 5.1498050000000006e-06 -3.8051849999999994 -2.7774649999999994 -8.2175199999999986 -5.2269199999999996e-06 -7.7545149999999987 1.4356200000000003 -16.296649999999996 -7.5387949999999985e-06 -6.6432349999999998 -2.1002499999999995
decision_type=2 2 2 2 2 2 2 2 2 2 2 2 2 2
left_child=1 2 -1 -3 5 -5 8 9 -7 10 -8 -12 -13 -14
right_child=-2 3 -4 4 -6 6 7 -9 -10 -11 11 12 13 -15
leaf_value=-0.0026616519361363027 -2.732481364735696e-05 -6.2826215324633623e-05 0.00070529847101641612 -0.00087710969466187581 -0.0004112561410200358 -0.0038569668999447644 -0.0037584212465165837 -0.0012588287370249866 0.011792285555215391 -0.0025416953303387265 -0.0025183592173449979 -0.0023817714618231474 0.027895168582361823 -0.0073643952400412995
leaf_weight=2376 188933 16079 2558 1026 5001 359 71 253 252 97 65 49 481 33
leaf_count=2376 188933 16079 2558 1026 5001 359 71 253 252 97 65 49 481 33
internal_value=0 0.00017988 -0.000916079 0.000407409 0.00139101 0.0047466 0.00822246 0.0114988 0.00259739 0.0155537 0.0180648 0.0205321 0.0231933 0.0256314
internal_weight=0 28700 4934 23766 7687 2686 1660 1049 611 796 699 628 563 514
internal_count=217633 28700 4934 23766 7687 2686 1660 1049 611 796 699 628 563 514
shrinkage=0.15


Tree=387
num_leaves=15
num_cat=0
split_feature=4 12 21 23 30 19 17 30 32 14 4 1 8 27
split_gain=0.0526275 0.0690281 0.285951 0.404633 0.451505 0.367889 0.35716 0.294143 0.405557 1.05661 0.793758 0.868367 1.56314 0.923113
threshold=-2.0449499999999996 0.00012553750000000004 8.5628800000000016 -11.762749999999999 0.011010900000000002 5.8236700000000004e-05 7.320290000000001e-06 0.00028759000000000006 -0.051405849999999996 0.0022144250000000003 0.29391050000000002 8.2570200000000025 -1.8929149999999998e-05 0.22510250000000001
decision_type=2 2 2 2 2 2 2 2 2 2 2 2 2 2
left_child=-1 -2 7 4 -4 -6 -7 8 9 10 11 12 -3 -14
right_child=1 2 3 -5 5 6 -8 -9 -10 -11 -12 -13 13 -15
leaf_value=0.00018370511561335468 -6.9707747886276402e-05 0.044224180393468808 0.021557001570951851 -0.0014906739281138044 -0.013442565275666615 0.016840736528891804 -0.0012573451952371448 -2.9625314177222749e-05 0.00072672586577510136 0.00048187426360750483 -0.0017292343023127027 -0.0033117712313576382 0.0214609200030501 -0.012553080151197859
leaf_weight=30216 156973 51 34 3222 27 42 59 17373 8966 490 62 34 58 26
leaf_count=30216 156973 51 34 3222 27 42 59 17373 8966 490 62 34 58 26
internal_value=0 -2.96176e-05 0.000177092 -0.00112288 0.00619208 0.00211077 0.00626859 0.000339661 0.00100195 0.00442454 0.0127878 0.0181135 0.0235095 0.0109328
internal_weight=0 187417 30444 3384 162 128 101 27060 9687 721 231 169 135 84
internal_count=217633 187417 30444 3384 162 128 101 27060 9687 721 231 169 135 84
shrinkage=0.15


Tree=388
num_leaves=15
num_cat=0
split_feature=3 34 3 14 28 1 14 19 22 22 6 3 14 34
split_gain=0.0590693 0.277767 0.502945 0.638788 0.544573 3.1778 1.34885 1.00532 2.85256 0.64054 0.601974 0.350474 0.237996 0.230423
threshold=-8.1415149999999983 0.031995550000000005 -6.1381299999999994 0.00062385550000000004 0.014705400000000002 7.6494800000000014 0.00010876350000000002 7.4248700000000005e-07 1.6050450000000003 1.5131300000000001 1.9291400000000006e-06 -6.2498799999999992 0.0005728895000000001 0.013102600000000001
decision_type=2 2 2 2 2 2 2 2 2 2 2 2 2 2
left_child=13 2 3 4 -2 -6 -7 9 -9 -8 -10 12 -3 -1
right_child=1 11 -4 -5 5 6 7 8 10 -11 -12 -13 -14 -15
leaf_value=0.00028849539408784921 -0.0013165601198473463 0.00098937200677629358 0.00035725171373783196 0.00046423346661048158 -0.0059561492835900759 -0.0072799404497228314 0.055162861155612128 -0.023864924535155294 0.021027323266025629 0.021511961751384659 0.054623477067798375 -6.9655634184744917e-05 0.00010136467435546477 -0.000199069314781715
leaf_weight=29319 16299 18551 20071 7817 265 31 35 26 24 20 24 29290 10712 85149
leaf_count=29319 16299 18551 20071 7817 265 31 35 26 24 20 24 29290 10712 85149
internal_value=0 8.23163e-05 -0.000199661 -0.000655136 -0.00117834 0.00412238 0.020815 0.0275664 0.0161504 0.0429262 0.0378254 0.000297157 0.000664308 -7.4188e-05
internal_weight=0 103165 44612 24541 16724 425 160 129 74 55 48 58553 29263 114468
internal_count=217633 103165 44612 24541 16724 425 160 129 74 55 48 58553 29263 114468
shrinkage=0.15


Tree=389
num_leaves=15
num_cat=0
split_feature=10 20 0 22 22 13 2 22 2 23 3 3 11 33
split_gain=0.0558613 0.235938 0.773666 2.0388 2.86523 2.68326 2.05081 1.70362 1.8366 1.14079 1.82804 1.22882 1.09421 1.61065
threshold=2.0057950000000003e-05 2.6186150000000006 3.0359800000000003 -0.75455849999999991 0.77552150000000009 -3.6029199999999995e-06 0.77022550000000012 1.2234400000000003 1.1736800000000003 -6.789509999999999 -6.7134699999999992 -6.7134699999999992 6.7356200000000009e-06 2.8439950000000003e-06
decision_type=2 2 2 2 2 2 2 2 2 2 2 2 2 2
left_child=1 -1 -3 5 -5 12 -6 8 9 10 -8 -11 -4 -14
right_child=-2 2 3 4 6 -7 7 -9 -10 11 -12 -13 13 -15
leaf_value=0.00040295445376177958 -4.058917779842062e-05 -0.0007299264546512292 0.0056568537030636011 -0.0031457398323812441 -0.00051987838979349131 -0.00019022843393863047 0.03958328727056977 -0.0034479036276752594 -0.0017301544150600942 -0.013141883874361935 -0.0077086962726233251 0.032144476029162219 -0.0077859406674941701 0.028875939124196334
leaf_weight=29849 169329 15186 104 1889 324 350 148 80 61 28 21 26 31 207
leaf_count=29849 169329 15186 104 1889 324 350 148 80 61 28 21 26 31 207
internal_value=0 0.000142285 -0.000279321 0.00181395 -0.000127236 0.0090429 0.00816049 0.015887 0.0213334 0.0276423 0.0337068 0.00866266 0.018492 0.0241007
internal_weight=0 48304 18455 3269 2577 692 688 364 284 223 169 54 342 238
internal_count=217633 48304 18455 3269 2577 692 688 364 284 223 169 54 342 238
shrinkage=0.15


Tree=390
num_leaves=15
num_cat=0
split_feature=20 0 0 0 20 4 4 20 34 11 21 13 23 1
split_gain=0.0545279 0.394018 1.40317 0.916389 1.64866 1.5038 1.96985 0.702642 0.64667 0.653726 1.06545 0.677793 0.60622 0.850103
threshold=3.6989550000000002 3.4931300000000003 0.53031600000000012 9.1590050000000023 9.3032900000000023 0.92173400000000016 -0.81542249999999983 9.1661150000000013 0.74623100000000009 7.6619750000000021e-06 9.5596900000000016 1.1238550000000003e-05 -6.907004999999999 7.932595000000001
decision_type=2 2 2 2 2 2 2 2 2 2 2 2 2 2
left_child=-1 2 -2 4 5 6 -3 -5 9 10 -8 -12 -11 -14
right_child=1 3 -4 7 -6 -7 8 -9 -10 12 11 -13 13 -15
leaf_value=-5.3388876284501942e-05 0.00024539309793390388 -0.00087670180772451154 -0.0018524146265556157 -0.0016788668111915727 -0.0013008279694501858 -0.001302421602869099 -0.00030722549314101419 0.0012897393603848574 -0.00046301987759409392 0.0052505247676618867 0.00070781924018361187 0.024742475138836283 -0.0007708047379239299 0.011260850095120846
leaf_weight=144547 36702 2725 8917 5762 4731 2646 1179 2605 759 5985 44 66 807 158
leaf_count=144547 36702 2725 8917 5762 4731 2646 1179 2605 759 5985 44 66 807 158
internal_value=0 0.000105591 -0.000164659 0.000554439 0.00112789 0.00192754 0.00265658 -0.000754615 0.00372661 0.00411257 0.00101003 0.0151286 0.004688 0.00119914
internal_weight=0 73086 45619 27467 19100 14369 11723 8367 8998 8239 1289 110 6950 965
internal_count=217633 73086 45619 27467 19100 14369 11723 8367 8998 8239 1289 110 6950 965
shrinkage=0.15


Tree=391
num_leaves=15
num_cat=0
split_feature=4 20 5 0 20 23 0 23 23 11 14 23 22 18
split_gain=0.0719605 0.135807 0.300902 0.273865 0.484187 0.491688 0.39364 0.525941 0.666739 1.82122 0.802506 0.766145 0.631833 0.473322
threshold=1.1140750000000001 9.4321850000000023 1.2453900000000001e-05 11.960450000000002 12.994100000000001 -6.6921149999999994 9.0369550000000007 -8.6943549999999981 -7.4042949999999985 2.0466550000000005e-05 0.00039548800000000005 -7.6733199999999995 0.13242800000000002 1.7089400000000003e-06
decision_type=2 2 2 2 2 2 2 2 2 2 2 2 2 2
left_child=1 -1 3 6 -5 -6 -3 -8 9 11 12 -9 -11 -10
right_child=-2 2 -4 4 5 -7 7 8 13 10 -12 -13 -14 -15
leaf_value=-7.9537621943476518e-05 0.00018688362548209309 0.0010498869358859196 -9.2198126934889317e-05 -0.0075537855534608686 -0.0052982297284282082 0.020404359985034468 -0.007919549375808509 -0.0084777863249958802 0.0016588567219394583 0.058443425675587996 0.0081356048304587602 0.018953291682798103 0.023535904912278059 0.020966831168099758
leaf_weight=164198 38218 4333 10010 182 34 33 63 63 364 28 20 36 20 31
leaf_count=164198 38218 4333 10010 182 34 33 63 63 364 28 20 36 20 31
internal_value=0 -3.98089e-05 0.000388881 0.00131371 -0.0035405 0.00736125 0.0015575 0.00507668 0.00653356 0.0144794 0.0333801 0.00149715 0.0438986 0.00317417
internal_weight=0 179415 15217 5207 249 67 4958 625 562 167 68 99 48 395
internal_count=217633 179415 15217 5207 249 67 4958 625 562 167 68 99 48 395
shrinkage=0.15


Tree=392
num_leaves=15
num_cat=0
split_feature=4 36 12 4 24 25 16 16 38 3 3 7 11 3
split_gain=0.0659412 0.102525 0.350523 0.415638 0.41691 0.234917 0.598832 0.334903 0.602254 1.13884 1.01419 0.846359 0.317316 0.19513
threshold=-0.48541799999999996 -0.17109449999999995 7.8630800000000013e-05 -1.8911349999999996 -0.82277699999999998 7.3159950000000009 -2.9572449999999995e-05 -4.743849999999999e-05 0.054584600000000004 -8.515839999999999 -14.701899999999998 3.1390950000000001e-05 -4.7443449999999997e-05 -7.0757599999999989
decision_type=2 2 2 2 2 2 2 2 2 2 2 2 2 2
left_child=1 2 3 -1 13 6 -4 -7 -9 10 -10 -12 -13 -5
right_child=-2 -3 5 4 -6 7 -8 8 9 -11 11 12 -14 -15
leaf_value=-0.0006145256152084277 -4.3122441654289642e-05 0.00019628266145604379 0.0025452846452137649 -0.017665269132798447 -0.0018028616650496167 -0.00015200077719108193 -0.027729789065155531 -0.0035638234437983694 -0.0029007677231793817 -0.0080651320706238028 0.0089514225196035101 0.033383341860026117 0.060103396475315089 -0.0060977060498450609
leaf_weight=478 170992 45305 49 92 130 329 21 67 23 36 20 20 20 51
leaf_count=478 170992 45305 49 92 130 329 21 67 23 36 20 20 20 51
internal_value=0 0.000158093 -0.00113697 -0.00328136 -0.00795077 0.00161591 -0.00653724 0.00272411 0.00781142 0.014216 0.0238801 0.0341461 0.0467434 -0.0135398
internal_weight=0 46641 1336 751 273 585 70 515 186 119 83 60 40 143
internal_count=217633 46641 1336 751 273 585 70 515 186 119 83 60 40 143
shrinkage=0.15


Tree=393
num_leaves=15
num_cat=0
split_feature=3 23 3 31 32 2 4 38 4 38 15 25 4 14
split_gain=0.0677682 0.241549 0.234922 0.228193 0.291777 1.17955 0.934714 1.7772 1.21638 1.09432 1.42462 0.588296 0.610843 0.393666
threshold=-6.9170499999999988 -6.6317949999999994 -5.753169999999999 -1.9861099999999998 -0.059170299999999995 0.47245600000000004 0.10878150000000002 -0.00016979349999999999 1.4356200000000003 -0.00017570749999999997 -7.8360099999999987e-08 1.8759850000000002 0.21982700000000002 0.00010402550000000002
decision_type=2 2 2 2 2 2 2 2 2 2 2 2 2 2
left_child=-1 -2 3 -3 5 -5 9 8 11 -7 -11 -8 -13 -12
right_child=1 2 -4 4 -6 6 7 -9 -10 10 13 12 -14 -15
leaf_value=-5.8504662460447129e-05 0.00022552730601704297 -0.00812361055383614 0.0002190553988656926 -0.0042738673395506339 -0.0017227779570872725 -0.0048510964952796845 0.042834200643701477 -0.01853415211138781 -0.0062621886536864376 0.040397794450382205 -0.010966071099974214 -9.9100370931884515e-05 0.028586697921950795 0.013764245437258588
leaf_weight=146206 62271 108 4237 450 3883 205 40 30 29 32 30 23 61 28
leaf_count=146206 62271 108 4237 450 3883 205 40 30 29 32 30 23 61 28
internal_value=0 0.000119755 -0.000599615 -0.00130478 -0.00115171 0.0012378 0.00642661 0.0148484 0.0213939 0.00120228 0.0149905 0.0278619 0.0207323 0.000972702
internal_weight=0 71427 9156 4919 4811 928 478 183 153 295 90 124 84 58
internal_count=217633 71427 9156 4919 4811 928 478 183 153 295 90 124 84 58
shrinkage=0.15


Tree=394
num_leaves=15
num_cat=0
split_feature=12 21 23 3 10 15 20 13 5 23 5 22 20 3
split_gain=0.0623017 0.41035 0.307147 0.467221 0.898623 0.823949 0.735627 0.360582 0.41522 0.356653 0.277094 0.178032 0.870123 1.8752
threshold=-0.00021519049999999996 -6.4081649999999994 -12.666499999999997 -17.068099999999998 2.0392150000000004e-05 -2.0636699999999994e-06 1.0658000000000003 8.0484950000000009e-05 1.6708900000000002e-05 -8.2722599999999975 1.36124e-05 -0.85638299999999978 -2.3621699999999994 -12.348199999999997
decision_type=2 2 2 2 2 2 2 2 2 2 2 2 2 2
left_child=1 2 3 -1 5 -5 10 8 9 -4 -7 12 -3 -14
right_child=-2 11 7 4 -6 6 -8 -9 -10 -11 -12 -13 13 -15
leaf_value=-0.016429689380367141 -3.2189689427228895e-05 -0.00017188876962680484 -0.010461950422645897 -0.0013748090964956926 -0.00021197802633361168 0.026600926496653951 0.0067491021712258875 -0.00035423501312965166 -0.0012918170204179479 -0.0032114428755475001 0.051271106726489955 0.00023292642391237059 0.0081697873290964337 -0.00061360947872433978
leaf_weight=26 187474 3917 250 39 273 21 27 3434 1176 392 20 18391 1042 1151
leaf_count=26 187474 3917 250 39 273 21 27 3434 1176 392 20 18391 1042 1151
internal_value=0 0.000200097 -0.000951288 0.00302366 0.00435468 0.0160061 0.0259745 -0.00125857 -0.00296675 -0.00603485 0.0386352 0.000465986 0.00116749 0.00355981
internal_weight=0 30159 5658 406 380 107 68 5252 1818 642 41 24501 6110 2193
internal_count=217633 30159 5658 406 380 107 68 5252 1818 642 41 24501 6110 2193
shrinkage=0.15


Tree=395
num_leaves=15
num_cat=0
split_feature=1 32 21 3 23 12 33 23 3 9 20 22 22 0
split_gain=0.0589967 0.695833 1.16891 1.97082 2.1921 1.13759 1.94985 1.07551 1.08257 1.01306 3.43013 1.50976 1.32941 1.68118
threshold=-9.7969349999999995 -0.014984399999999997 -9.6841449999999991 -6.3281449999999984 -6.2906249999999995 -0.00011532249999999999 3.0210100000000007e-06 -6.4717399999999996 -6.0020699999999989 8.9385600000000017e-06 2.2507550000000003 -1.2895399999999999 -2.0263699999999996 -4.6429399999999994
decision_type=2 2 2 2 2 2 2 2 2 2 2 2 2 2
left_child=1 -1 3 4 5 -3 9 -5 -9 11 -11 12 13 -7
right_child=-2 2 -4 7 -6 6 -8 8 -10 10 -12 -13 -14 -15
leaf_value=0.0012314980629785524 -2.5331094603368666e-05 0.001138154765521412 -0.0012025977812559791 -0.0039976565864718186 -0.016786746390204391 0.03345275835267135 -0.004084041695728736 0.016339822299778459 -0.00019840084133584455 -0.026420584874826351 0.030286942977857376 -0.014505741059441458 0.030438915363778893 -0.024662403512047602
leaf_weight=9012 196917 185 9704 835 69 21 99 136 258 42 56 22 253 24
leaf_count=9012 196917 185 9704 835 69 21 99 136 258 42 56 22 253 24
internal_value=0 0.000240786 -0.000522055 0.00277994 0.00872489 0.0112324 0.0148445 -0.000949565 0.00551022 0.0193276 0.00598372 0.0234142 0.0262136 0.00245801
internal_weight=0 20716 11704 2000 771 702 517 1229 394 418 98 320 298 45
internal_count=217633 20716 11704 2000 771 702 517 1229 394 418 98 320 298 45
shrinkage=0.15


Tree=396
num_leaves=15
num_cat=0
split_feature=1 21 1 30 28 29 14 30 7 3 33 13 33 3
split_gain=0.060438 0.176833 0.505271 0.12492 0.118952 0.0892069 0.0724854 0.165389 0.328756 0.195178 0.205253 2.73417 2.32505 1.40196
threshold=-12.647449999999997 -13.410549999999999 -13.194799999999999 0.12582950000000004 -0.0021246849999999999 0.0047093700000000009 0.0020088800000000006 0.0021249300000000001 4.4571700000000006e-05 -6.0288849999999989 1.3078300000000001e-05 -3.292609999999999e-05 3.0197100000000003e-05 -13.793399999999998
decision_type=2 2 2 2 2 2 2 2 2 2 2 2 2 2
left_child=1 2 3 5 -3 -1 7 8 9 10 -2 12 13 -12
right_child=6 4 -4 -5 -6 -7 -8 -9 -10 -11 11 -13 -14 -15
leaf_value=-0.0051296040111612285 -0.00066041007762718935 -0.00040989387770333399 0.023775168900777185 0.010881058771602427 0.00086458722627538232 0.0063626760342490986 9.5651769965797605e-05 0.00024680523071792681 0.00013473371263090535 0.00016204692393623511 0.00071904949515803971 -0.00059145076083240401 -0.005977156327905752 0.025767778535270059
leaf_weight=55 40816 2826 28 22 3952 21 82243 26800 44329 10901 66 5253 110 211
leaf_count=55 40816 2826 28 22 3952 21 82243 26800 44329 10901 66 5253 110 211
internal_value=0 0.000436713 0.00600457 0.000927258 0.000333209 -0.00195411 -1.43078e-05 -8.46921e-05 -0.00017206 -0.00040917 -0.000543207 0.000304979 0.0124728 0.0197995
internal_weight=0 6904 126 98 6778 76 210729 128486 101686 57357 46456 5640 387 277
internal_count=217633 6904 126 98 6778 76 210729 128486 101686 57357 46456 5640 387 277
shrinkage=0.15


Tree=397
num_leaves=15
num_cat=0
split_feature=22 2 2 22 19 3 22 21 1 12 6 2 21 5
split_gain=0.056609 0.488042 0.999519 1.33929 0.834696 0.766971 0.522314 0.403302 0.379055 0.323917 0.459982 0.298398 0.345554 0.484132
threshold=-2.8036449999999995 -2.8223399999999992 -2.9738899999999995 -2.9897199999999997 3.3787900000000009e-05 -6.2187599999999987 -2.8863399999999997 -2.0112699999999992 -1.3586749999999999 -2.1384149999999998e-05 -8.9691249999999997e-07 -2.2973549999999996 -4.8424999999999994 2.0445300000000002e-05
decision_type=2 2 2 2 2 2 2 2 2 2 2 2 2 2
left_child=1 2 -1 -4 5 6 7 -5 -9 10 -8 12 13 -3
right_child=-2 11 3 4 -6 -7 9 8 -10 -11 -12 -13 -14 -15
leaf_value=-0.0018955117327880554 -1.7944767719593704e-05 0.021564561265122687 -0.0034084473477685724 0.023615063508041201 -0.00089430016177218571 -0.0047357981494444952 0.046636728329682041 -0.0036438823358288831 0.021847475775783616 0.017247041106095602 0.019760335864418228 0.00031341368745203352 -0.003087235737628881 -0.0064908152336720379
leaf_weight=365 206283 31 139 60 63 28 38 35 21 29 23 9548 945 25
leaf_count=365 206283 31 139 60 63 28 38 35 21 29 23 9548 945 25
internal_value=0 0.000326141 0.00389567 0.0087438 0.0144312 0.0185573 0.0217234 0.0150704 0.00591538 0.0302983 0.036503 5.51016e-05 -0.0024088 0.00903984
internal_weight=0 11350 801 436 297 234 206 116 56 90 61 10549 1001 56
internal_count=217633 11350 801 436 297 234 206 116 56 90 61 10549 1001 56
shrinkage=0.15


Tree=398
num_leaves=15
num_cat=0
split_feature=10 21 1 23 3 18 3 37 15 1 23 23 16 32
split_gain=0.058731 0.197995 0.461795 1.52842 5.7422 1.93504 1.77696 1.73952 2.11389 1.9822 2.77123 2.53764 1.57821 1.36316
threshold=2.0392150000000004e-05 5.4316850000000008 5.5255250000000009 -8.5214449999999982 -8.4798949999999973 -6.7200249999999984e-05 -8.515839999999999 8.5454350000000004e-08 4.3573100000000008e-08 6.3451000000000013 -11.973149999999999 -11.352549999999999 5.2623050000000008e-06 -0.092645599999999981
decision_type=2 2 2 2 2 2 2 2 2 2 2 2 2 2
left_child=1 -1 -3 4 5 -4 -5 9 -9 11 -11 -7 13 -12
right_child=-2 2 3 6 -6 7 -8 8 -10 10 12 -13 -14 -15
leaf_value=-2.6421469646311241e-05 -4.2568847819487903e-05 -5.5451359972143729e-05 -0.00088274960681009572 -0.0051730317737041483 -0.0042364617922553242 0.026330181254956567 0.0027171145183191351 -0.0015995992915356402 0.030194799644469868 -0.0075870143255836889 0.043198208346609146 -0.0080643131130967629 -0.0011667325485819567 0.024209019509021584
leaf_weight=37869 167611 7527 209 1083 853 86 1578 218 60 51 154 110 34 190
leaf_count=37869 167611 7527 209 1083 853 86 1578 218 60 51 154 110 34 190
internal_value=0 0.000142637 0.000669428 0.00184889 0.00502175 0.0121236 -0.000494095 0.0151339 0.0052625 0.0195247 0.0252346 0.00702715 0.0296629 0.03271
internal_weight=0 50022 12153 4626 1965 1112 2661 903 278 625 429 196 378 344
internal_count=217633 50022 12153 4626 1965 1112 2661 903 278 625 429 196 378 344
shrinkage=0.15


Tree=399
num_leaves=15
num_cat=0
split_feature=20 6 1 28 21 0 9 3 22 12 1 3 2 22
split_gain=0.0588971 0.265019 0.259174 0.290669 0.352045 1.40089 0.410469 0.321068 0.466029 0.467534 0.259048 0.283286 0.4171 0.242483
threshold=9.4321850000000023 -6.0952749999999998e-06 -7.2803799999999992 0.0010969400000000002 -9.3854649999999982 8.3884950000000007 1.8092150000000003e-05 -6.0020699999999989 -0.64565649999999986 -3.9317649999999994e-05 7.187450000000001 -6.1661399999999995 0.77022550000000012 0.35411200000000004
decision_type=2 2 2 2 2 2 2 2 2 2 2 2 2 2
left_child=-1 10 3 4 5 -3 -6 8 -8 -10 13 12 -12 -2
right_child=1 2 -4 -5 6 -7 7 -9 9 -11 11 -13 -14 -15
leaf_value=-2.3705505386389355e-05 -0.0014826913229558088 -0.0015136667580941514 0.00073768573076015732 0.0010548925391460461 -0.0012688336006782849 0.038925361388448994 0.0076849047392606737 -0.0029863760738747559 -0.00972830840189212 -0.028396800606278701 -0.028897359701804813 -0.0012380662180513839 -0.0061984372084813973 0.0025701330872163982
leaf_weight=199245 1202 119 13448 1079 1108 23 25 225 123 40 20 313 204 459
leaf_count=199245 1202 119 13448 1079 1108 23 25 225 123 40 20 313 204 459
internal_value=0 0.000256863 0.000466686 -0.000862417 -0.00210642 0.00503632 -0.00277326 -0.00680936 -0.0113847 -0.0143095 -0.00128865 -0.00415259 -0.00822513 -0.000362736
internal_weight=0 18388 16190 2742 1663 142 1521 413 188 163 2198 537 224 1661
internal_count=217633 18388 16190 2742 1663 142 1521 413 188 163 2198 537 224 1661
shrinkage=0.15


Tree=400
num_leaves=15
num_cat=0
split_feature=3 23 23 3 19 13 33 3 23 23 3 13 3 4
split_gain=0.0580803 0.333201 0.429882 2.43245 1.73576 1.05501 0.950693 1.78408 3.57435 0.864886 7.35844 3.24466 2.09519 1.6906
threshold=-8.4006749999999979 -7.1436399999999987 -8.5490249999999985 -10.729049999999999 5.6558950000000006e-07 1.0000000180025095e-35 -1.0903599999999997e-06 -8.5842749999999981 -8.2315849999999973 -9.9618999999999982 -9.9601599999999983 5.6532750000000005e-05 -8.5842749999999981 -1.0433649999999999
decision_type=2 2 2 2 2 2 2 2 2 2 2 2 2 2
left_child=1 2 9 -4 6 -6 7 -5 -9 -1 -11 12 13 -12
right_child=-2 -3 3 4 5 -7 -8 8 -10 10 11 -13 -14 -15
leaf_value=-0.00033423573169241868 7.7229046993508316e-05 0.00044353382408324405 0.00052314458307272695 -0.013747260964322399 -0.0039752778943170164 -0.00010900447484983327 -0.0037213732570467823 0.040720357750217574 -0.013268122479452618 -0.0013152935791137103 -0.00095144604535971522 -0.0008130355402182365 -0.0013604941284408889 0.010054637767950132
leaf_weight=49527 109183 21994 12400 686 2683 3891 910 43 77 10875 349 1374 508 3133
leaf_count=49527 109183 21994 12400 686 2683 3891 910 43 77 10875 349 1374 508 3133
internal_value=0 -7.7751e-05 -0.000210363 -0.000806697 -0.00279584 -0.00168692 -0.00704414 -0.0107956 0.00607775 -2.27569e-05 0.000927216 0.00547369 0.0076386 0.0089515
internal_weight=0 108450 86456 20690 8290 6574 1716 806 120 65766 16239 5364 3990 3482
internal_count=217633 108450 86456 20690 8290 6574 1716 806 120 65766 16239 5364 3990 3482
shrinkage=0.15


Tree=401
num_leaves=15
num_cat=0
split_feature=14 3 23 23 23 3 3 23 23 20 0 0 23 3
split_gain=0.0629059 0.155696 1.23312 3.70904 3.15623 5.10175 2.97345 3.11524 2.64161 1.76491 3.50386 3.11388 1.24672 1.45684
threshold=0.0020088800000000006 -11.101149999999999 -11.124149999999998 -8.3964149999999993 -13.412199999999999 -13.437049999999997 -13.239749999999999 -15.570249999999998 -15.265799999999997 3.2655200000000004 2.7480800000000003 4.0166200000000005 -12.940099999999997 -13.793399999999998
decision_type=2 2 2 2 2 2 2 2 2 2 2 2 2 2
left_child=1 2 4 -4 6 12 8 -8 -1 11 -11 -10 13 -6
right_child=-2 -3 3 -5 5 -7 7 -9 9 10 -12 -13 -14 -15
leaf_value=-0.0021060216139639882 0.00010322159960442616 -6.0885761883287445e-06 -0.0053592906647936664 0.00084763039091544307 -0.010628242014302357 0.0081797575586289254 -0.00027365238531784988 -0.011493980189163255 0.014349596689786075 -0.015724585963074456 0.04024631424262276 -0.019474476615029674 -0.013785488846155054 0.026081978439503661
leaf_weight=610 82490 120130 3599 5441 56 2124 1343 951 285 33 106 78 344 43
leaf_count=610 82490 120130 3599 5441 56 2124 1343 951 285 33 106 78 344 43
internal_value=0 -6.30055e-05 -0.000518439 -0.00162347 0.00115399 0.0051258 -0.00183944 -0.00492515 0.00452621 0.0125853 0.0269583 0.00708161 -0.00951662 0.0053166
internal_weight=0 135143 15013 9040 5973 2567 3406 2294 1112 502 139 363 443 99
internal_count=217633 135143 15013 9040 5973 2567 3406 2294 1112 502 139 363 443 99
shrinkage=0.15


Tree=402
num_leaves=15
num_cat=0
split_feature=20 0 0 20 4 18 34 3 2 22 22 33 2 22
split_gain=0.0559768 0.530828 1.03149 1.57659 1.51254 2.32658 1.91 1.56369 1.2301 5.24788 4.28262 2.17227 1.88502 5.26549
threshold=-3.0760849999999995 -8.3489949999999968 -3.4076699999999995 -8.4874749999999981 0.32538350000000005 -8.5415049999999984e-05 0.12901250000000003 -5.8866849999999991 2.6644600000000005 2.6381550000000007 2.6381550000000007 3.6458700000000006e-06 -2.5827499999999994 -2.5818199999999996
decision_type=2 2 2 2 2 2 2 2 2 2 2 2 2 2
left_child=1 -1 3 -3 5 -5 7 8 10 11 12 -10 -7 -14
right_child=-2 2 -4 4 -6 6 -8 -9 9 -11 -12 -13 13 -15
leaf_value=-0.0008853202049427611 -5.6253691566458923e-05 -0.0009891306827708717 -0.00010340436974108049 -0.00069800342963265009 -0.00069171122476229679 0.0024344538682318589 0.00052225966151865427 -0.00051815203719805575 -0.0016055149065924538 0.020849470858198198 -0.0074331731817397703 -0.025998275437000087 -0.0048845894594875539 0.013989970278209923
leaf_weight=10553 140698 5187 48184 2707 3263 655 1977 708 236 187 364 126 386 2402
leaf_count=10553 140698 5187 48184 2707 3263 655 1977 708 236 187 364 126 386 2402
internal_value=0 0.000102876 0.000259974 0.00122211 0.00210365 0.00303936 0.00447624 0.00601988 0.00708253 0.000444748 0.00803976 -0.0100958 0.00967558 0.0113768
internal_weight=0 76935 66382 18198 13011 9748 7041 5064 4356 549 3807 362 3443 2788
internal_count=217633 76935 66382 18198 13011 9748 7041 5064 4356 549 3807 362 3443 2788
shrinkage=0.15


Tree=403
num_leaves=15
num_cat=0
split_feature=20 3 3 0 23 11 17 2 32 9 1 21 4 9
split_gain=0.0851364 0.198666 0.233407 0.299404 0.368817 0.427809 0.37329 0.359392 0.292949 0.277814 0.303101 0.518986 0.269356 0.249596
threshold=-8.9078399999999984 -10.110599999999998 -5.9118649999999997 -8.0951199999999996 -9.355299999999998 1.0230700000000002e-05 -3.1235699999999993e-08 2.6863250000000005 2.6080700000000001 -6.4906249999999982e-05 4.8660050000000004 1.4596200000000004 0.43714250000000004 -4.1546249999999995e-05
decision_type=2 2 2 2 2 2 2 2 2 2 2 2 2 2
left_child=1 -1 3 9 7 6 8 -5 -6 10 -3 -12 -8 -11
right_child=-2 2 -4 4 5 -7 12 -9 -10 13 11 -13 -14 -15
leaf_value=0.00093957980118884146 -3.0525410151006267e-05 -0.0032159243791094203 0.00092514684633162388 0.0011383479546284757 -8.7053486363329095e-05 -6.4265533151792621e-05 -0.0041819703395745275 0.0186407673276133 0.018308058024267666 0.0043260953239895846 -0.0042474810649911236 0.025133331843244379 -0.00043345497528520595 0.00057126564523027128
leaf_weight=6999 196799 455 3999 1182 748 3122 2012 27 20 659 31 24 549 1007
leaf_count=6999 196799 455 3999 1182 748 3122 2012 27 20 659 31 24 549 1007
internal_value=0 0.000288345 -4.11094e-05 -0.000433958 -0.000875046 -0.00132564 -0.00250857 0.00152922 0.000391986 0.00111877 -0.00194454 0.00857324 -0.0033784 0.00205652
internal_weight=0 20834 13835 9836 7660 6451 3329 1209 768 2176 510 55 2561 1666
internal_count=217633 20834 13835 9836 7660 6451 3329 1209 768 2176 510 55 2561 1666
shrinkage=0.15


Tree=404
num_leaves=15
num_cat=0
split_feature=15 35 15 1 1 4 18 0 24 26 4 0 33 38
split_gain=0.069377 0.393797 0.436496 0.648018 0.456274 0.473687 1.0036 0.601088 1.48614 0.764189 1.00234 1.0921 0.740484 0.657438
threshold=5.0878500000000008e-06 0.16987200000000005 0.00013207700000000003 5.6576700000000004 -5.5925699999999994 2.6382950000000007 0.0035803450000000004 4.4992300000000016 0.82179550000000012 0.00091209800000000018 -2.0449499999999996 -0.37806699999999999 -0.00058211249999999993 1.0406600000000001
decision_type=2 2 2 2 2 2 2 2 2 2 2 2 2 2
left_child=-1 -2 3 4 -3 6 7 9 -9 -6 -11 13 -10 -12
right_child=1 2 -4 -5 5 -7 -8 8 12 10 11 -13 -14 -15
leaf_value=-4.1086678153953761e-05 8.4609270747533065e-05 0.00050069463483364885 -0.0014033282428751615 -0.0027654355445578247 -0.00075493429853969152 -0.00061809052011652826 0.040226609302044379 9.0360207403656582e-05 0.012008466805412394 0.0002890581676183501 0.045715882639945825 -0.003697487168012784 0.045635090536642359 0.013572926015000451
leaf_weight=176170 39950 232 444 235 191 109 24 56 23 72 41 23 41 22
leaf_count=176170 39950 232 444 235 191 109 24 56 23 72 41 23 41 22
internal_value=0 0.000174571 0.00254997 0.00419193 0.00615234 0.00833039 0.0103089 0.00877788 0.0179358 0.00562903 0.0133464 0.0242781 0.0335505 0.0344914
internal_weight=0 41463 1513 1069 834 602 493 469 120 349 158 86 64 63
internal_count=217633 41463 1513 1069 834 602 493 469 120 349 158 86 64 63
shrinkage=0.15


Tree=405
num_leaves=15
num_cat=0
split_feature=4 4 20 9 3 20 15 22 22 9 1 37 16 26
split_gain=0.0676384 0.0934748 0.1734 0.301955 0.715282 0.472703 1.31357 0.555018 0.40679 0.391949 0.362558 0.405182 0.89881 1.02275
threshold=-2.0449499999999996 1.1140750000000001 9.0324500000000025 5.0394750000000011e-05 -6.0020699999999989 9.3032900000000023 -9.6530399999999987e-08 0.22705150000000004 -0.69316099999999981 6.5019350000000011e-06 7.187450000000001 -7.9581249999999997e-08 9.4242300000000011e-09 -0.00010114249999999998
decision_type=2 2 2 2 2 2 2 2 2 2 2 2 2 2
left_child=-1 2 -2 9 5 6 -5 -8 -7 -4 11 12 -10 -14
right_child=1 -3 3 4 -6 8 7 -9 10 -11 -12 -13 13 -15
leaf_value=0.00020826265235416867 -0.00013996141815232786 0.00017572983673923913 0.00084726931059343009 0.047303166051807982 -0.0012085248148779174 -0.012213928523388776 0.018197920690111526 -0.01379046429697748 0.035077178920994719 -0.00084961677576583957 -0.014680477318220905 0.003667783193002839 0.018465922668436368 -0.0098836898622103042
leaf_weight=30216 134840 38218 7574 22 723 33 26 23 31 5142 21 647 67 50
leaf_count=30216 134840 38218 7574 22 723 33 26 23 31 5142 21 647 67 50
internal_value=0 -3.35768e-05 -8.71916e-05 0.00040835 0.00232197 0.00509648 0.016854 0.00318296 0.00411323 0.000161095 0.00477352 0.0052874 0.0123677 0.0063507
internal_weight=0 187417 149199 14359 1643 920 71 49 849 12716 816 795 148 117
internal_count=217633 187417 149199 14359 1643 920 71 49 849 12716 816 795 148 117
shrinkage=0.15


Tree=406
num_leaves=15
num_cat=0
split_feature=22 11 6 34 19 22 6 20 14 35 22 11 11 23
split_gain=0.0682942 0.0791939 0.0886294 0.122348 0.0921987 0.183401 0.290562 0.104322 0.158763 0.152245 0.134052 0.0997576 0.0808277 0.0724627
threshold=-2.8863399999999997 -1.8165949999999995e-05 -2.7940049999999998e-06 18.825800000000005 5.3757900000000004e-06 -2.9378149999999996 -5.2486899999999995e-06 -9.7539799999999968 0.0006614075000000002 -0.00041537299999999997 -2.9897199999999997 -2.6387649999999998e-05 -3.7257599999999994e-05 -8.1455849999999987
decision_type=2 2 2 2 2 2 2 2 2 2 2 2 2 2
left_child=1 2 4 13 5 7 -7 9 10 -1 -9 12 -11 -4
right_child=-2 -3 3 -5 -6 6 -8 8 -10 11 -12 -13 -14 -15
leaf_value=-0.015446934653804279 -1.717629948732821e-05 0.00074275788280013934 -0.0004826723113091233 0.011349048164927147 -0.00016936410156807963 -0.00054642299102852115 -0.021254237745738317 1.5842545195482671e-05 -0.009028645980187917 -0.0039314744345444654 0.011612001443791086 -0.0099526814277686015 0.0093926468677818769 0.001260543396924631
leaf_weight=26 208904 5672 1574 22 361 30 31 75 29 21 32 22 20 814
leaf_count=26 208904 5672 1574 22 361 30 31 75 29 21 32 22 20 814
internal_value=0 0.000411066 -0.000204359 0.000214122 -0.00176315 -0.00377489 -0.0110701 -0.00179709 0.000815746 -0.00578975 0.00348385 -0.00180424 0.0025681 0.000111539
internal_weight=0 8729 3057 2410 647 286 61 225 136 89 107 63 41 2388
internal_count=217633 8729 3057 2410 647 286 61 225 136 89 107 63 41 2388
shrinkage=0.15


Tree=407
num_leaves=15
num_cat=0
split_feature=3 23 3 28 12 1 23 16 4 3 23 21 23 1
split_gain=0.0659846 0.249456 0.330026 0.324542 2.79672 1.24058 0.750321 0.90557 0.827278 1.03768 3.70705 1.23209 1.17031 1.06969
threshold=-6.9170499999999988 -7.2759249999999991 -5.9118649999999997 0.0020348000000000002 2.1843750000000002e-05 1.4939200000000004 -7.0353699999999995 -3.8224499999999993e-06 0.92173400000000016 -6.572074999999999 -6.5700849999999997 4.8976950000000015 -6.7383949999999997 5.588070000000001
decision_type=2 2 2 2 2 2 2 2 2 2 2 2 2 2
left_child=-1 -2 3 5 -5 -3 -6 -8 9 10 11 -9 -11 -13
right_child=1 2 -4 4 6 -7 7 8 -10 12 -12 13 -14 -15
leaf_value=-5.7729608761339748e-05 0.00027952433075192798 0.00011460577126556973 0.00022999921486693551 -0.0041211124141579515 -0.0037834141956050536 -0.0048621136524926627 -0.0041962374901018812 -0.0038684923867029798 -0.00367048034784194 -0.0064429944342266959 -0.0036569055559061343 -0.0035524503851775079 0.00802597324803829 0.032822629239682953
leaf_weight=146206 53651 2807 9565 1796 223 1883 188 28 147 159 157 20 602 201
leaf_count=146206 53651 2807 9565 1796 223 1883 188 28 147 159 157 20 602 201
internal_value=0 0.000118168 -0.000368831 -0.00106641 2.19752e-05 -0.00188351 0.00433559 0.00554101 0.00693416 0.00826996 0.0143937 0.025775 0.00500289 0.0295308
internal_weight=0 71427 17776 8211 3521 4690 1725 1502 1314 1167 406 249 761 221
internal_count=217633 71427 17776 8211 3521 4690 1725 1502 1314 1167 406 249 761 221
shrinkage=0.15


Tree=408
num_leaves=15
num_cat=0
split_feature=20 14 3 0 34 2 22 22 34 4 0 20 11 34
split_gain=0.064746 0.168288 0.345831 0.518609 0.678366 0.541094 1.91389 0.898148 0.609693 0.568053 0.431486 0.619544 0.419028 0.363004
threshold=-8.9078399999999984 0.00039548800000000005 -6.2498799999999992 -8.8447699999999987 0.029268250000000003 -2.6304499999999993 -2.6579249999999996 -2.6066699999999998 0.084651750000000012 0.24753700000000003 -10.766699999999998 -10.831399999999999 1.0230700000000002e-05 0.045740950000000009
decision_type=2 2 2 2 2 2 2 2 2 2 2 2 2 2
left_child=1 2 3 5 12 7 -7 -1 9 10 11 -8 -5 -9
right_child=-2 -3 -4 4 -6 6 8 13 -10 -11 -12 -13 -14 -15
leaf_value=0.0038261654321811263 -2.6620136435961984e-05 0.00061308130876635083 0.00070891934205394433 -0.0057311944878110877 0.00044304287146080553 -0.010752150009265231 0.013243475288914328 -0.015243146009590034 -0.00042475542674462002 -0.0091805090407433444 0.018232284443828659 -0.016757579653390815 -0.0013586882997857306 -0.0017517368155421462
leaf_weight=247 196799 12116 4289 1135 1431 133 59 114 99 24 220 21 872 74
leaf_count=247 196799 12116 4289 1135 1431 133 59 114 99 24 220 21 872 74
internal_value=0 0.000251455 -0.000251122 -0.00118082 -0.00205227 0.00184244 0.0049427 -0.00212019 0.00987748 0.0130254 0.0148019 0.0053682 -0.00383143 -0.0099327
internal_weight=0 20834 8718 4429 3438 991 556 435 423 324 300 80 2007 188
internal_count=217633 20834 8718 4429 3438 991 556 435 423 324 300 80 2007 188
shrinkage=0.15


Tree=409
num_leaves=15
num_cat=0
split_feature=16 36 19 16 15 15 33 36 19 35 33 3 13 9
split_gain=0.0565466 0.685726 1.05904 0.297253 0.377483 0.36176 0.324185 0.286205 1.41576 1.78338 1.51646 1.95962 0.984923 0.911808
threshold=-2.2582199999999995e-06 0.0064979950000000003 0.00019856900000000003 -5.1479099999999993e-05 -6.5062949999999993e-07 2.0193000000000005e-05 4.3599350000000003e-06 -0.0088232299999999996 1.7095050000000005e-05 0.0059663500000000013 -2.7939149999999998e-05 -6.7134699999999992 5.0947250000000009e-05 -9.2818899999999976e-06
decision_type=2 2 2 2 2 2 2 2 2 2 2 2 2 2
left_child=1 7 -3 -4 -5 6 -6 8 9 10 12 13 -1 -12
right_child=-2 2 3 4 5 -7 -8 -9 -10 -11 11 -13 -14 -15
leaf_value=-0.0013226192006115594 -4.3649987023345822e-05 -0.004657432827424415 0.00051544142702384624 0.00038253196692579272 -0.0025447629113018351 -0.00041294554646330279 -0.0088863604152332742 0.00020172448644122047 0.00056383462026340339 -0.0032603769210465434 0.0093736013592741283 -0.0027274507407770107 0.022907869483460672 0.037126013205071522
leaf_weight=154 164138 1562 3891 1125 380 528 347 39042 6001 207 34 51 50 123
leaf_count=154 164138 1562 3891 1125 380 528 347 39042 6001 207 34 51 50 123
internal_value=0 0.000133931 -0.00116272 -0.000292247 -0.00161272 -0.00340128 -0.00557163 0.000356362 0.00126835 0.00809841 0.0138054 0.0228178 0.00461623 0.0311159
internal_weight=0 53495 7833 6271 2380 1255 727 45662 6620 619 412 208 204 157
internal_count=217633 53495 7833 6271 2380 1255 727 45662 6620 619 412 208 204 157
shrinkage=0.15


Tree=410
num_leaves=15
num_cat=0
split_feature=23 3 3 23 3 29 11 11 11 29 20 20 25 12
split_gain=0.0596044 0.484755 1.16074 1.1098 1.28239 1.14675 3.12084 2.47776 2.03081 1.9288 1.57625 1.32381 1.19146 1.23847
threshold=-14.948949999999998 -14.818499999999998 -11.892349999999999 -17.075499999999995 -17.304849999999998 0.0059674700000000016 -3.4928399999999996e-05 -2.7337399999999997e-05 0.00015314200000000002 0.0027912500000000008 -2.6024949999999998 3.9712400000000003 3.5002700000000004 0.00017045350000000002
decision_type=2 2 2 2 2 2 2 2 2 2 2 2 2 2
left_child=1 3 -3 -1 -5 6 9 -7 10 -6 -8 -10 13 -12
right_child=-2 2 -4 4 5 7 8 -9 11 -11 12 -13 -14 -15
leaf_value=-0.00061519441889790812 -3.3671822317065803e-05 -0.0022788655206333755 0.00036360733550529244 -0.0028433720605975598 -0.0087409609091637086 0.0097530135836342083 -0.016671264436180618 -0.011262289020684364 -0.0044933923495480204 0.018737286540621425 0.033527706360665002 0.019922914180362846 -0.0045517953755655795 0.014489928612300869
leaf_weight=2123 183813 4385 25436 426 246 298 22 219 139 75 228 78 29 116
leaf_count=2123 183813 4385 25436 426 246 298 22 219 139 75 228 78 29 116
internal_value=0 0.000183008 -2.49525e-05 0.00173379 0.00439205 0.00651777 0.00965788 0.00085098 0.0159408 -0.00232081 0.0223453 0.00428298 0.0246465 0.027108
internal_weight=0 33820 29821 3999 1876 1450 933 517 612 321 395 217 373 344
internal_count=217633 33820 29821 3999 1876 1450 933 517 612 321 395 217 373 344
shrinkage=0.15


Tree=411
num_leaves=15
num_cat=0
split_feature=34 3 32 12 23 33 4 17 23 34 23 21 2 33
split_gain=0.0619881 0.202145 0.289445 0.521786 0.245719 0.34329 0.450088 0.355183 0.332031 0.297763 0.357972 0.38508 0.480931 0.320515
threshold=0.18398 -16.875299999999999 3.6943000000000006 -0.00065264199999999983 -16.296649999999996 5.2483250000000003e-05 -0.29098649999999998 7.320290000000001e-06 -12.7784 0.20298200000000002 -17.075499999999995 -3.6636499999999996 -1.4789899999999998 1.7169700000000003e-05
decision_type=2 2 2 2 2 2 2 2 2 2 2 2 2 2
left_child=-1 2 4 -4 5 9 7 -7 -6 -2 -11 -12 -13 -14
right_child=1 -3 3 -5 8 6 -8 -9 -10 10 11 12 13 -15
leaf_value=-4.9734049935395827e-05 -0.011903265265176412 0.00018411029614720908 0.020370255916605927 0.00051992846462834514 -0.0059464358712222791 -0.0045668172139866165 -0.011830589703417249 0.016002231037709862 -0.0011133793760420387 0.0011170757696798523 -0.005116864883573726 0.036285883474010912 0.00019329412196598508 0.024124124488444067
leaf_weight=157027 33 58237 37 153 518 51 105 30 836 507 25 20 34 20
leaf_count=157027 33 58237 37 153 518 51 105 30 836 507 25 20 34 20
internal_value=0 0.000128858 -0.0012294 0.00438552 -0.001719 0.000321633 -0.00534975 0.00305135 -0.00296236 0.00197246 0.00272807 0.0109783 0.0164158 0.00905656
internal_weight=0 60606 2369 190 2179 825 186 81 1354 639 606 99 74 54
internal_count=217633 60606 2369 190 2179 825 186 81 1354 639 606 99 74 54
shrinkage=0.15


Tree=412
num_leaves=15
num_cat=0
split_feature=16 36 16 32 1 4 1 4 4 1 10 23 10 18
split_gain=0.0574612 0.182933 0.224597 0.138887 0.532864 1.47826 0.470023 0.628147 0.182965 0.153853 0.152192 0.134747 0.134117 0.103168
threshold=1.2394850000000002e-05 -0.17109449999999995 4.4488800000000007e-05 3.6943000000000006 -3.3198799999999999 -1.3153099999999998 -4.4029649999999991 -3.6388949999999993 -1.8911349999999996 -2.0013049999999994 3.099335000000001e-05 -6.2458949999999991 3.1340300000000009e-05 -0.0017353349999999997
decision_type=2 2 2 2 2 2 2 2 2 2 2 2 2 2
left_child=-1 2 12 11 5 6 8 -8 -5 13 -7 -3 -2 -6
right_child=1 3 -4 4 9 10 7 -9 -10 -11 -12 -13 -14 -15
leaf_value=-3.601763554077704e-05 -0.010117002529977014 0.00024543203333894631 -0.00052076464888485574 -0.0045396954774080834 -0.0025339670912217114 0.023446058481931684 -7.0354126153453702e-05 0.032646699899645602 0.010550067627004214 -0.00024826533751911483 0.039879973520510245 -0.0011150243272222311 -0.0030563186564433954 -0.017769738317656446
leaf_weight=178626 94 35633 795 130 20 32 31 23 21 300 21 1717 170 20
leaf_count=178626 94 35633 795 130 20 32 31 23 21 300 21 1717 170 20
internal_value=0 0.000164937 -0.00177958 0.000219202 0.0024871 0.00762728 0.00185407 0.0138647 -0.00244112 -0.00141339 0.0299576 0.000182891 -0.00557035 -0.0101519
internal_weight=0 39007 1059 37948 598 258 205 54 151 340 53 37350 264 40
internal_count=217633 39007 1059 37948 598 258 205 54 151 340 53 37350 264 40
shrinkage=0.15


Tree=413
num_leaves=15
num_cat=0
split_feature=22 13 33 1 8 22 19 0 12 23 12 22 1 20
split_gain=0.0562691 0.0944544 0.298662 0.166668 0.549624 0.825636 1.2082 0.736716 1.22253 0.962822 0.773927 1.52463 0.693966 0.772398
threshold=-2.6066699999999998 -9.7459899999999988e-06 1.3458700000000004e-07 -4.4029649999999991 2.9092100000000003e-06 -2.8863399999999997 2.8998550000000006e-06 -9.6502149999999975 -8.1569449999999982e-05 -7.8949349999999994 -3.2982549999999995e-05 -2.7300499999999999 -3.5519849999999997 -6.8164749999999996
decision_type=2 2 2 2 2 2 2 2 2 2 2 2 2 2
left_child=1 2 -1 -3 -5 -6 7 -7 12 10 -10 -12 -9 -14
right_child=-2 3 -4 4 5 6 -8 8 9 -11 11 -13 13 -15
leaf_value=0.0011824304902703744 -2.3109988894753877e-05 -0.00073840590228361374 -0.0029710355705612076 -0.00024710136234379289 -0.00066175788429445603 0.0013928951088777951 0.0010371690714584911 -0.015664648975808857 0.030562576153751114 -3.8821622729301454e-05 0.026296962360095866 -0.018640996674861528 -0.011846228946524207 0.021743722732157206
leaf_weight=4439 199333 4188 427 7030 1024 139 685 38 139 46 53 25 24 43
leaf_count=4439 199333 4188 427 7030 1024 139 685 38 139 46 53 25 24 43
internal_value=0 0.000251726 0.000817957 4.66285e-05 0.000402212 0.00246208 0.00514565 0.0106966 0.0142107 0.0196735 0.0238521 0.0118938 0.000527752 0.0097115
internal_weight=0 18300 4866 13434 9246 2216 1192 507 368 263 217 78 105 67
internal_count=217633 18300 4866 13434 9246 2216 1192 507 368 263 217 78 105 67
shrinkage=0.15


Tree=414
num_leaves=15
num_cat=0
split_feature=22 10 3 19 1 23 3 23 33 13 3 21 14 15
split_gain=0.0581968 0.0750606 0.0641121 0.114134 0.183472 0.0896493 0.0798735 0.0741666 0.0740789 0.0608063 0.103773 0.0738683 0.0907054 0.0603426
threshold=-2.8863399999999997 2.1909450000000004e-05 -13.158849999999999 1.8454150000000002e-07 -0.98331399999999991 -18.153449999999996 -14.602749999999999 -11.472849999999999 -5.8983399999999995e-05 -1.2595899999999997e-05 -6.3281449999999984 2.8817050000000006 0.00043225750000000003 -1.2643349999999998e-05
decision_type=2 2 2 2 2 2 2 2 2 2 2 2 2 2
left_child=1 -1 3 4 -3 -5 -6 9 -7 10 11 12 -4 -2
right_child=13 2 7 5 6 8 -8 -9 -10 -11 -12 -13 -14 -15
leaf_value=0.0011383678328243283 0.0001667805340030937 -0.015059679712761532 0.0062814057049656504 0.0064925302106600535 0.0049017950478527274 -0.0077260496717987247 -0.0067464889761490324 -7.3417340521129935e-05 -0.00054999441841340456 0.00056312764332711865 -0.00075273925833782324 0.011967801494756713 0.0011786472296493277 -5.1441212988185198e-05
leaf_weight=2195 34066 33 136 39 27 34 26 3834 674 1369 153 24 185 174838
leaf_count=2195 34066 33 136 39 27 34 26 3834 674 1369 153 24 185 174838
internal_value=0 0.000379463 0.00012452 -0.00110469 -0.00627941 -0.000508933 -0.000812457 0.000304125 -0.000894607 0.00107943 0.00249875 0.00394072 0.00334056 -1.58558e-05
internal_weight=0 8729 6534 833 86 747 53 5701 708 1867 498 345 321 208904
internal_count=217633 8729 6534 833 86 747 53 5701 708 1867 498 345 321 208904
shrinkage=0.15


Tree=415
num_leaves=15
num_cat=0
split_feature=3 23 14 14 23 31 11 20 8 21 19 19 13 33
split_gain=0.0586985 0.199046 0.439833 0.287742 0.877706 0.367701 1.60078 1.63594 1.50442 1.39675 1.90333 1.93906 1.1708 3.65498
threshold=-6.8865649999999992 -6.6317949999999994 0.0026669950000000006 0.0013170050000000002 -15.265799999999997 -0.076611599999999988 2.3517950000000001e-05 3.8385900000000004 -1.0903499999999998e-05 3.5574300000000005 5.8048950000000003e-08 4.0426100000000008e-06 -2.1361299999999998e-05 6.0655000000000006e-06
decision_type=2 2 2 2 2 2 2 2 2 2 2 2 2 2
left_child=1 3 -3 4 -1 6 -6 -8 9 -9 -11 -12 13 -10
right_child=-2 2 -4 -5 5 -7 7 8 12 10 11 -13 -14 -15
leaf_value=0.001043798948900885 0.00011246815104715331 0.0011809545487647104 -0.00035820440305910534 7.2283256672445057e-05 -0.0010836148192662006 -0.00087494947608330307 -0.0032984865772355131 -0.0075803798670638469 -0.0082474879360233903 -0.015123594270430897 0.031379609227960195 -0.0048868067349152012 0.0088894322459050941 0.013210739513114236
leaf_weight=8267 70560 8599 8124 75906 7793 34907 773 380 395 57 86 54 1406 326
leaf_count=8267 70560 8599 8124 75906 7793 34907 773 380 395 57 86 54 1406 326
internal_value=0 -5.39579e-05 0.000433234 -0.000116461 -0.00037961 -0.00063444 0.000110498 0.00278686 0.0045265 -0.0022666 0.00798332 0.0173911 0.00636929 0.00145485
internal_weight=0 147073 16723 130350 54444 46177 11270 3477 2704 577 197 140 2127 721
internal_count=217633 147073 16723 130350 54444 46177 11270 3477 2704 577 197 140 2127 721
shrinkage=0.15


Tree=416
num_leaves=15
num_cat=0
split_feature=10 28 20 20 14 14 23 11 34 9 20 31 23 3
split_gain=0.0603258 0.206866 0.211263 0.256387 0.365705 0.573926 0.29798 0.296367 1.05382 0.284261 1.40708 1.06518 1.02954 0.886211
threshold=2.0057950000000003e-05 -0.020444849999999997 9.8638550000000009 2.6985300000000003 0.00013246500000000004 0.0027514900000000005 -17.075499999999995 6.7356200000000009e-06 0.008249755000000001 1.5296750000000006e-05 6.4175900000000006 -0.099177399999999985 -8.3320149999999984 -8.2790849999999967
decision_type=2 2 2 2 2 2 2 2 2 2 2 2 2 2
left_child=1 -1 3 -3 7 6 -6 -5 -9 -8 11 -11 13 -13
right_child=-2 2 -4 4 5 -7 9 8 -10 10 -12 12 -14 -15
leaf_value=0.000886715177051931 -4.2179982043338681e-05 0.00020489632272526856 0.0012715685214134216 0.00079956795988178609 0.0018425866312691897 0.00017175387331360415 -0.0026915361342362918 0.038166161977939983 0.001194162471376064 -0.003517262426737164 -0.0083234905944109053 0.026045070301585815 -0.0012784476383997459 -0.0045241051910964482
leaf_weight=7247 169329 25178 2815 1974 421 5261 4715 22 82 140 231 119 73 26
leaf_count=7247 169329 25178 2815 1974 421 5261 4715 22 82 140 231 119 73 26
internal_value=0 0.000147861 1.74457e-05 -7.48705e-05 -0.00061406 -0.000959221 -0.00199853 0.00121074 0.00901516 -0.00230342 0.000803509 0.00669272 0.0132496 0.0205637
internal_weight=0 48304 41057 38242 13064 10986 5725 2078 104 5304 589 358 218 145
internal_count=217633 48304 41057 38242 13064 10986 5725 2078 104 5304 589 358 218 145
shrinkage=0.15


Tree=417
num_leaves=15
num_cat=0
split_feature=3 34 3 27 7 21 12 4 18 21 3 3 24 3
split_gain=0.0556124 0.332997 0.263818 0.239871 0.305483 0.279643 0.988174 1.05574 1.70487 1.62883 1.6736 1.1422 1.01487 0.711738
threshold=-8.4006749999999979 0.020418450000000005 -10.501849999999999 0.25716850000000008 3.8198000000000009e-05 -2.4394949999999995 -9.3922149999999983e-05 -0.21821949999999998 1.9944500000000002e-05 -6.1725999999999992 -11.739649999999997 -11.510049999999998 -0.18704399999999996 -16.724049999999995
decision_type=2 2 2 2 2 2 2 2 2 2 2 2 2 2
left_child=1 2 -1 4 5 6 7 -3 9 11 12 -9 -11 -14
right_child=-2 3 -4 -5 -6 -7 -8 8 -10 10 -12 -13 13 -15
leaf_value=0.00060539975574035296 7.5570467060481975e-05 -0.0039790210526315399 -0.00022094979515413409 -0.00014008022957733184 -0.00014438522846569883 -0.0024393781401506639 -0.0025979118264474596 0.019181777793914081 -0.0032223529949777386 -0.0071977513046779977 -0.014773375703953207 0.066634477887834817 -0.0022000160094143616 0.024140694270015885
leaf_weight=22798 109183 245 14050 59380 6314 3710 1446 25 190 36 49 21 27 159
leaf_count=22798 109183 245 14050 59380 6314 3710 1446 25 190 36 49 21 27 159
internal_value=0 -7.60812e-05 0.000290316 -0.000264637 -0.000869793 -0.00164505 -0.000304306 0.00410601 0.00801297 0.0147471 0.0103172 0.040845 0.0158552 0.020317
internal_weight=0 108450 36848 71602 12222 5908 2198 752 507 317 271 46 222 186
internal_count=217633 108450 36848 71602 12222 5908 2198 752 507 317 271 46 222 186
shrinkage=0.15


Tree=418
num_leaves=15
num_cat=0
split_feature=2 22 22 1 30 24 13 24 16 15 39 15 6 3
split_gain=0.0605628 0.303348 0.112101 0.208293 0.239899 0.300154 0.250948 0.28996 0.216176 0.384706 0.231396 0.249624 0.206277 0.231907
threshold=-2.9487299999999999 -1.4705199999999998 -2.9378149999999996 -0.42050749999999992 0.00024150500000000001 -0.12375899999999999 5.2677500000000014e-06 0.097975300000000015 -3.2336299999999994e-06 -6.5062949999999993e-07 4.6565300000000006e-05 3.2989300000000008e-07 8.7258800000000016e-08 -6.1920449999999994
decision_type=2 2 2 2 2 2 2 2 2 2 2 2 2 2
left_child=1 2 3 4 5 -1 -7 -8 -6 -10 -11 -12 13 -4
right_child=-2 -3 12 -5 8 6 7 -9 9 10 11 -13 -14 -15
leaf_value=-0.019130794375880875 -1.2360526301372192e-05 0.0012174817853931273 -0.0051923637526091289 -0.01146993714177774 -0.0085878004700961439 0.012077034436099764 0.0036673312098719178 -0.019649496562778947 0.023635780692307488 0.0095444734511113006 -0.0091369997689684547 0.010814716339310897 0.00081033091626600345 0.00065158526932442994
leaf_weight=22 212449 3746 528 27 22 28 30 20 27 79 43 21 376 215
leaf_count=22 212449 3746 528 27 22 28 30 20 27 79 43 21 376 215
internal_value=0 0.000506555 -0.00134541 0.00113507 0.0023006 -0.00365691 0.000707525 -0.0056594 0.00540347 0.0072141 0.00411351 -0.00259034 -0.00205254 -0.00350132
internal_weight=0 5184 1438 319 292 100 78 50 192 170 143 64 1119 743
internal_count=217633 5184 1438 319 292 100 78 50 192 170 143 64 1119 743
shrinkage=0.15


Tree=419
num_leaves=15
num_cat=0
split_feature=22 2 12 2 28 0 38 16 36 19 19 35 33 18
split_gain=0.0547398 0.21085 0.130629 0.068114 0.0759046 0.132293 0.0552172 0.0512057 0.521477 0.727958 0.361839 0.84973 1.194 0.947717
threshold=3.1180850000000002 2.5749400000000002 1.8479050000000004e-05 -1.4789899999999998 0.00057104700000000009 -7.5330149999999998 0.00040970350000000009 -2.2582199999999995e-06 0.0011937450000000002 7.2837050000000025e-05 3.0659200000000006e-05 -0.0066424349999999995 1.8042700000000003e-05 -2.6206899999999998e-05
decision_type=2 2 2 2 2 2 2 2 2 2 2 2 2 2
left_child=7 3 -3 4 -2 -6 -4 8 10 -10 11 12 -1 -14
right_child=1 2 6 -5 5 -7 -8 -9 9 -11 -12 -13 13 -15
leaf_value=0.0052728174236224166 -0.0014256037091824206 -0.016443479309091343 0.00085752023223903959 0.0030752762484016634 0.014456794325960799 -0.0025893660295488578 -0.0082433466894144651 -4.6160581110827581e-05 -0.0032872378214958203 -0.00021653831382684657 0.0002572464931427857 0.00092549803200283167 0.055264825969934463 0.010618484505128277
leaf_weight=471 180 20 40 488 20 21 24 163544 2010 12792 34483 3497 20 23
leaf_count=471 180 20 40 488 20 21 24 163544 2010 12792 34483 3497 20 23
internal_value=0 0.00124398 -0.00586201 0.00208587 -9.88664e-05 0.00572583 -0.0025553 -4.54933e-06 0.000123139 -0.000633516 0.000414094 0.00176252 0.00745723 0.0313842
internal_weight=0 793 84 709 221 41 64 216840 53296 14802 38494 4011 514 43
internal_count=217633 793 84 709 221 41 64 216840 53296 14802 38494 4011 514 43
shrinkage=0.15


Tree=420
num_leaves=15
num_cat=0
split_feature=7 25 24 3 19 6 32 8 30 32 36 36 33 2
split_gain=0.0501925 0.101385 0.266448 0.194148 0.09885 0.0817937 0.0809338 0.134934 0.163747 0.116209 0.0842425 0.169141 0.110254 0.150951
threshold=2.1244100000000002e-05 0.15742650000000002 0.09574870000000002 -10.973149999999999 1.8279600000000002e-09 -1.0412699999999999e-06 -0.83958549999999987 -5.9987099999999988e-06 0.017708500000000005 -2.1047449999999994 0.0013440100000000003 0.0010220450000000003 -6.7695049999999997e-06 -2.2533199999999995
decision_type=2 2 2 2 2 2 2 2 2 2 2 2 2 2
left_child=1 2 5 -4 -3 -1 7 8 9 -6 11 12 13 -8
right_child=-2 4 3 -5 6 -7 10 -9 -10 -11 -12 -13 -14 -15
leaf_value=0.0077357177139894132 -1.0233183256368381e-05 -0.0021503301518993267 0.024896726546649005 0.0053978458787443942 -0.018638215481070801 -0.0012108150163840036 0.0076163585594622414 0.0007251873040721485 0.0027930309926159679 -0.0057214651497945719 0.0019675653956157222 -0.0060773429696746465 0.0010858935708114136 -0.0019340832596279746
leaf_weight=29 213328 327 20 27 25 111 40 154 30 42 942 90 1929 539
leaf_count=29 213328 327 20 27 25 111 40 154 30 42 942 90 1929 539
internal_value=0 0.00050709 0.00392306 0.0136952 0.00035197 0.000642395 0.000567811 -0.00203501 -0.00641718 -0.0105411 0.000752361 0.000311744 0.000541018 -0.00127429
internal_weight=0 4305 187 47 4118 140 3791 251 97 67 3540 2598 2508 579
internal_count=217633 4305 187 47 4118 140 3791 251 97 67 3540 2598 2508 579
shrinkage=0.15


Tree=421
num_leaves=15
num_cat=0
split_feature=22 19 14 33 38 2 19 2 31 21 22 19 19 22
split_gain=0.0486021 0.104074 0.0921614 0.0623807 0.0533527 0.150907 0.0503101 0.0498967 0.28222 0.156594 0.344521 0.252365 0.378522 0.274939
threshold=-3.0952799999999994 6.1393400000000009e-06 0.00013542600000000004 -1.0903599999999997e-06 -0.014255849999999999 2.0180400000000005 4.9230750000000014e-07 -2.8982399999999995 0.018260400000000003 -0.95562549999999991 3.0909850000000003 5.8236700000000004e-05 1.8454150000000002e-07 -2.9160599999999994
decision_type=2 2 2 2 2 2 2 2 2 2 2 2 2 2
left_child=1 2 -1 6 5 -3 -4 8 -2 10 11 12 13 -10
right_child=7 4 3 -5 -6 -7 -8 -9 9 -11 -12 -13 -14 -15
leaf_value=0.00015656835973052865 0.001215255218651579 -0.00014842859787964508 0.0030842003462620434 0.0053125341259297144 -0.0003020716443780127 0.014995520440279506 -0.0042900329653639347 -1.9391575097938815e-05 0.0054815356638889924 0.00031097404107401745 0.016718248449284476 0.00095187173710974083 -0.0071710140306265654 -0.0027460839543763018
leaf_weight=235 3956 57 68 242 1077 20 30 209059 115 1523 22 400 384 445
leaf_count=235 3956 57 68 242 1077 20 30 209059 115 1523 22 400 384 445
internal_value=0 0.000792117 0.00244079 0.00401958 -2.93598e-05 0.00378506 0.000826782 -6.34342e-06 0.000392171 -0.000734904 -0.00190099 -0.00220577 -0.00354375 -0.00105648
internal_weight=0 1729 575 340 1154 77 98 215904 6845 2889 1366 1344 944 560
internal_count=217633 1729 575 340 1154 77 98 215904 6845 2889 1366 1344 944 560
shrinkage=0.15


Tree=422
num_leaves=15
num_cat=0
split_feature=2 22 22 19 0 2 22 19 1 22 2 21 22 2
split_gain=0.0510649 1.66882 4.30215 1.88759 2.16038 1.37395 7.9185 2.7103 3.33075 2.14451 1.34145 1.25563 0.932402 1.76198
threshold=-2.2973549999999996 -2.2993349999999997 -1.5441099999999996 2.1691500000000004e-05 -10.087149999999999 -2.5827499999999994 -2.5595399999999997 4.9052500000000005e-05 -7.4840449999999992 -2.5818199999999996 -2.8476049999999993 -7.7286599999999988 -2.8587899999999995 -2.8476049999999993
decision_type=2 2 2 2 2 2 2 2 2 2 2 2 2 2
left_child=1 5 3 4 -3 9 -7 8 -8 12 -6 -10 -1 -14
right_child=-2 2 -4 -5 10 6 7 -9 11 -11 -12 -13 13 -15
leaf_value=-0.00012787129102001914 2.7761638808437453e-05 -0.0024244680600670828 9.8253153735666961e-05 -0.001175615625432192 -0.0047270873144477695 -0.0027762539858662491 0.004777466151128412 0.00023177075257771685 0.0088818298513069754 -0.0062955747476102575 -0.015964242238428066 0.035739991280449926 -0.0018381182675842535 0.010758369419561207
leaf_weight=1084 189909 733 20192 1172 333 912 139 133 45 759 847 302 396 677
leaf_count=1084 189909 733 20192 1172 333 912 139 133 45 759 847 302 396 677
internal_value=0 -0.000190167 -0.000698838 -0.00591598 -0.00882016 0.00247238 0.00611111 0.0192053 0.0243976 0.000561923 -0.0127931 0.0322569 0.00297492 0.00610953
internal_weight=0 27724 23277 3085 1913 4447 1531 619 486 2916 1180 347 2157 1073
internal_count=217633 27724 23277 3085 1913 4447 1531 619 486 2916 1180 347 2157 1073
shrinkage=0.15


Tree=423
num_leaves=15
num_cat=0
split_feature=2 31 34 19 2 21 33 20 19 1 20 3 3 21
split_gain=0.0514932 0.171543 0.131588 0.290143 0.118525 0.525621 0.78892 0.614691 0.72465 0.780345 0.762003 0.712587 0.67976 0.487638
threshold=-2.8982399999999995 0.040792100000000005 0.011350350000000002 1.5867800000000003e-08 -2.5276899999999993 -4.996459999999999 -1.2622299999999997e-06 -10.433449999999999 2.1691500000000004e-05 -3.9739049999999998 -8.1735049999999969 -7.0077899999999991 -6.3035799999999993 -5.4706949999999992
decision_type=2 2 2 2 2 2 2 2 2 2 2 2 2 2
left_child=1 -1 3 -3 5 6 7 -2 9 10 11 -9 13 -12
right_child=4 2 -4 -5 -6 -7 -8 8 -10 -11 12 -13 -14 -15
leaf_value=0.00093931935714078091 0.0068827435871976284 -0.018309091806877405 -0.00040911659370461331 -0.00043142875836110761 1.5663201065578763e-05 0.00010602540110747609 3.5284941552426808e-05 0.024174669017329026 -0.0010204601596085481 -0.012956693924154673 -0.018283782729912938 -0.0034488409332822057 -0.0020481829277389351 0.0069151361624244598
leaf_weight=4561 98 30 2256 64 197696 9704 1808 38 531 398 127 47 255 20
leaf_count=4561 98 30 2256 64 197696 9704 1808 38 531 398 127 47 255 20
internal_value=0 0.000402892 -0.000638235 -0.00613707 -1.32135e-05 -0.000451477 -0.00208001 -0.00460608 -0.00540121 -0.00802966 -0.00400304 0.00890049 -0.0067314 -0.0148554
internal_weight=0 6911 2350 94 210722 13026 3322 1514 1416 885 487 85 402 147
internal_count=217633 6911 2350 94 210722 13026 3322 1514 1416 885 487 85 402 147
shrinkage=0.15


Tree=424
num_leaves=15
num_cat=0
split_feature=3 23 3 14 3 14 23 14 19 36 35 16 4 20
split_gain=0.0435969 0.270012 0.633458 0.701247 0.42875 0.848948 0.77382 1.57831 1.29287 2.28645 2.45211 1.07945 0.781465 0.663084
threshold=-8.1765499999999971 -10.428949999999999 -6.2498799999999992 0.00019721000000000002 -6.2187599999999987 0.00025343850000000004 -8.3320149999999984 0.00083241650000000016 1.1641400000000003e-06 -0.0028012699999999994 0.0010722850000000003 -2.0108849999999999e-07 -0.14766849999999998 -2.8622799999999997
decision_type=2 2 2 2 2 2 2 2 2 2 2 2 2 2
left_child=-1 2 3 -2 5 -3 7 -7 9 10 11 12 -8 -11
right_child=1 4 -4 -5 -6 6 8 -9 -10 13 -12 -13 -14 -15
leaf_value=-6.423934961457986e-05 0.0019560857772565315 -0.0012231958910082464 -0.00022072271416836693 0.00019697605458143331 0.00028697451911804126 -0.0046734444962140556 0.072663211480349946 0.00071590808806691706 0.00059236897868316187 -0.0022459356061475307 -0.01191694677076561 0.012782499353140693 0.037070410373354595 0.0075120864959899334
leaf_weight=113613 8923 17296 20713 11897 29624 1868 23 3539 9395 258 27 23 35 399
leaf_count=113613 8923 17296 20713 11897 29624 1868 23 3539 9395 258 27 23 35 399
internal_value=0 7.01637e-05 0.000366594 0.000950892 -0.000126864 -0.000499913 0.000303703 -0.001146 0.00107521 0.00700501 0.0272311 0.0402804 0.0511848 0.00368017
internal_weight=0 104020 41533 20820 62487 32863 15567 5407 10160 765 108 81 58 657
internal_count=217633 104020 41533 20820 62487 32863 15567 5407 10160 765 108 81 58 657
shrinkage=0.15


Tree=425
num_leaves=15
num_cat=0
split_feature=36 16 16 14 34 10 16 16 30 15 31 15 31 20
split_gain=0.0451824 1.38735 0.697867 0.62612 0.427873 0.421939 0.495375 0.703998 1.0687 1.31468 1.11513 0.762204 0.721923 0.688062
threshold=-0.017866999999999997 1.9948850000000003e-07 4.4488800000000007e-05 0.00042154700000000003 1.2883350000000002 2.0392150000000004e-05 -7.9444249999999987e-07 -7.7223649999999984e-06 0.0038030050000000004 -6.0102349999999985e-07 0.41431750000000006 5.5558300000000009e-07 -0.26560599999999995 0.53709300000000015
decision_type=2 2 2 2 2 2 2 2 2 2 2 2 2 2
left_child=1 5 3 -3 -5 6 7 -1 9 13 12 -10 -11 -9
right_child=-2 2 -4 4 -6 -7 -8 8 11 10 -12 -13 -14 -15
leaf_value=0.0014135244617621918 2.1227504137882057e-05 -0.00094409513228765288 0.00011001279958886126 -0.0062013794112350867 -0.0023352923368925808 0.00024811701060915495 0.00054122036455945231 0.013128778059035539 0.0013120506643597744 0.0098177201651896435 -0.0012830912504859012 0.020321944003662794 0.03834167819295544 -0.022487815647669461
leaf_weight=763 198486 1917 2519 1474 1144 9110 1629 26 346 26 29 55 86 23
leaf_count=763 198486 1917 2519 1474 1144 9110 1629 26 346 26 29 55 86 23
internal_value=0 -0.000220053 -0.00189185 -0.0030038 -0.004512 0.000755127 0.00230352 0.00442375 0.00831005 0.0175767 0.0249322 0.00391939 0.03172 -0.00358921
internal_weight=0 19147 7054 4535 2618 12093 2983 1354 591 190 141 401 112 49
internal_count=217633 19147 7054 4535 2618 12093 2983 1354 591 190 141 401 112 49
shrinkage=0.15


Tree=426
num_leaves=15
num_cat=0
split_feature=16 36 16 10 32 1 18 4 30 20 12 1 10 23
split_gain=0.042524 0.270635 0.529398 0.268664 0.230859 0.638044 1.55413 0.680709 0.857897 0.559353 0.67277 0.294495 0.440811 0.142215
threshold=7.2521050000000008e-06 -0.0088232299999999996 2.6513900000000004e-05 2.7515600000000001e-05 2.6080700000000001 -3.3198799999999999 -9.7093149999999984e-05 -1.6509149999999997 0.019550550000000003 -5.8330499999999992 -0.00020925599999999998 -4.4029649999999991 3.0649050000000008e-05 -6.2906249999999995
decision_type=2 2 2 2 2 2 2 2 2 2 2 2 2 2
left_child=-1 2 3 -2 13 6 7 11 -9 -10 -11 -6 -13 -3
right_child=1 4 -4 -5 5 -7 -8 8 9 10 -12 12 -14 -15
leaf_value=-3.3025018004816445e-05 -0.0071138332317035331 0.00028561800628082494 -5.8014404586305922e-05 -0.0021739268706082488 -0.0029590636157509459 -0.00083162489774542953 0.042141291413766643 0.036282288804650301 0.02381558058410883 -0.021213549445383253 0.016036790013313294 0.022121461095521225 -0.0035926730912979104 -0.00095423871063345458
leaf_weight=174374 363 35293 3774 780 170 481 27 30 25 24 20 30 30 2212
leaf_count=174374 363 35293 3774 780 170 481 27 30 25 24 20 30 30 2212
internal_value=0 0.000133122 -0.000914568 -0.00374277 0.000267478 0.0027313 0.00754524 0.00470605 0.0151057 0.00589855 -0.00428158 0.000229664 0.00926439 0.000212493
internal_weight=0 43259 4917 1143 38342 837 356 329 99 69 44 230 60 37505
internal_count=217633 43259 4917 1143 38342 837 356 329 99 69 44 230 60 37505
shrinkage=0.15


Tree=427
num_leaves=15
num_cat=0
split_feature=37 15 12 35 15 1 22 22 11 10 22 23 0 24
split_gain=0.0436676 0.127571 0.712931 0.722217 1.51059 1.00143 1.93369 1.36853 1.11834 0.632433 0.669929 1.59292 0.730343 0.553162
threshold=3.8063150000000008e-07 7.0051050000000008e-07 1.3207250000000003e-05 0.013590750000000002 1.1005450000000001e-05 3.9519050000000004 0.40504800000000007 2.5417150000000004 5.5643800000000004e-05 5.6727900000000003e-05 1.9654450000000001 -10.484749999999998 3.6530250000000004 -0.82277699999999998
decision_type=2 2 2 2 2 2 2 2 2 2 2 2 2 2
left_child=-1 -2 -3 -4 5 13 -7 8 9 10 12 -12 -8 -5
right_child=1 2 3 4 -6 6 7 -9 -10 -11 11 -13 -14 -15
leaf_value=-2.9529523234724439e-05 0.00032990954026280008 -0.0014014589939011681 -0.00031158598110832828 0.0039097693522593801 -2.4811214662553249e-05 -0.013360127264180906 0.002336411688643506 -0.008710756736812186 0.036703444469938097 -0.0063457257720935887 0.0042407037939743274 0.05580141344824089 0.024466914631426334 0.025490940963865907
leaf_weight=182402 25444 5656 2625 35 912 91 102 64 47 38 28 26 50 113
leaf_count=182402 25444 5656 2625 35 912 91 102 64 47 38 28 26 50 113
internal_value=0 0.000152884 -0.000307344 0.00119067 0.00380916 0.00969565 0.00614776 0.0111484 0.015516 0.0114348 0.0147147 0.0290662 0.00961618 0.0203873
internal_weight=0 35231 9787 4131 1506 594 446 355 291 244 206 54 152 148
internal_count=217633 35231 9787 4131 1506 594 446 355 291 244 206 54 152 148
shrinkage=0.15


Tree=428
num_leaves=15
num_cat=0
split_feature=28 15 35 12 12 15 19 3 21 23 34 4 3 15
split_gain=0.0496992 0.423931 0.447202 1.05175 0.88286 1.35926 1.17302 1.05234 1.13513 0.792283 1.04995 0.995171 1.1879 0.792309
threshold=0.040885500000000012 -1.9202999999999997e-08 0.0013016950000000001 1.9714300000000002e-05 3.6299300000000007e-05 2.5026700000000006e-05 2.0603900000000001e-07 -6.860879999999999 14.019350000000001 -6.6317949999999994 1.0428250000000003 -0.96577349999999995 -14.488399999999999 7.9174550000000015e-08
decision_type=2 2 2 2 2 2 2 2 2 2 2 2 2 2
left_child=-1 -2 3 -3 -4 6 -6 9 -9 10 11 -8 -13 -14
right_child=1 2 4 -5 5 -7 7 8 -10 -11 -12 12 13 -15
leaf_value=2.3343731005051643e-05 -0.00092397414529256231 0.00087397569878573255 0.00011681620685449085 -0.0036832663464262594 -0.0022298548751241965 -0.0012082929408998436 -0.0013725100321990843 -0.0015512257292552281 0.030482781952949671 -0.0070391704323880654 0.0080330959498981971 -0.00097556444151060916 0.00035751895629800853 0.031691841270910077
leaf_weight=196765 10014 3624 3871 1662 219 644 38 224 28 39 253 35 20 197
leaf_count=196765 10014 3624 3871 1662 219 644 38 224 28 39 253 35 20 197
internal_value=0 -0.000220109 0.000429284 -0.000558892 0.00136741 0.00422013 0.00754007 0.0101056 0.00200811 0.0136117 0.0150949 0.0212557 0.0246679 0.0288039
internal_weight=0 20868 10854 5286 5568 1697 1053 834 252 582 543 290 252 217
internal_count=217633 20868 10854 5286 5568 1697 1053 834 252 582 543 290 252 217
shrinkage=0.15


Tree=429
num_leaves=15
num_cat=0
split_feature=4 38 25 4 8 3 32 26 4 16 4 4 17 30
split_gain=0.0430022 0.109043 0.0710514 0.263516 0.905533 1.11873 0.255626 0.125594 0.176865 0.114802 0.106564 0.0993157 0.0803301 0.0787292
threshold=1.1140750000000001 0.00014901450000000003 54.164200000000008 2.9123050000000004 6.8380000000000004e-06 -8.4798949999999973 -7.1290899999999988 0.011675600000000003 1.9928500000000002 4.8771350000000009e-05 4.1732300000000011 1.9928500000000002 0.00010929200000000002 0.0043234350000000013
decision_type=2 2 2 2 2 2 2 2 2 2 2 2 2 2
left_child=-1 2 7 4 5 6 -4 13 -9 10 -5 -6 -11 -2
right_child=1 -3 3 9 11 -7 -8 8 -10 12 -12 -13 -14 -15
leaf_value=-3.077364177424134e-05 2.2939711394694013e-05 0.00045229604041287951 0.021198258007114584 0.0089226080851992316 -0.015575638281181454 -0.003929740566627515 0.043814710956876689 -0.018127814931795001 -0.0021333711873739959 -0.010649806995737693 -0.0012011223570443689 -0.0013941588113084435 -0.001349050610406266 -0.00089809308389933223
leaf_weight=179415 20046 15435 22 34 25 32 23 20 70 37 75 20 48 2331
leaf_count=179415 20046 15435 22 34 25 32 23 20 70 37 75 20 48 2331
internal_value=0 0.000144467 -6.40801e-05 0.0021695 0.00763176 0.017511 0.0327578 -9.54955e-05 -0.00568769 -0.00126553 0.00195674 -0.00927276 -0.00539762 -7.30038e-05
internal_weight=0 38218 22783 316 122 77 45 22467 90 194 109 45 85 22377
internal_count=217633 38218 22783 316 122 77 45 22467 90 194 109 45 85 22377
shrinkage=0.15


Tree=430
num_leaves=15
num_cat=0
split_feature=5 23 32 3 9 12 12 21 28 25 25 21 5 23
split_gain=0.0421297 0.168925 0.14643 0.140087 0.115334 0.0973007 0.166239 0.18773 0.195335 0.283254 0.321115 0.210325 0.203249 0.1927
threshold=7.2568900000000009e-06 -7.162399999999999 0.087421300000000021 -10.344549999999998 3.4031000000000007e-05 1.3207250000000003e-05 2.4870250000000005e-05 6.6820600000000008 0.0030982450000000008 0.77751300000000001 0.49976500000000007 3.2239600000000004 6.9938750000000009e-06 -10.530399999999998
decision_type=2 2 2 2 2 2 2 2 2 2 2 2 2 2
left_child=1 5 4 -4 -3 -1 -7 8 13 10 12 -11 -10 -8
right_child=-2 2 3 -5 -6 6 7 -9 9 11 -12 -13 -14 -15
leaf_value=0.00066427548924282603 -7.2555906696968112e-06 0.0015178615800170291 0.0020578523023868909 0.015936589307966643 0.012654193734388999 -0.0050847045809913494 -0.0062980248465795401 -0.0077665777526849042 0.00013570307703709907 0.0065878109344088562 0.027767392873065545 -0.011477812466709394 0.017535845757178637 0.0027853377942977072
leaf_weight=1465 215034 428 30 36 22 204 99 58 44 29 20 29 23 112
leaf_count=1465 215034 428 30 36 22 204 99 58 44 29 20 29 23 112
internal_value=0 0.000600307 0.00303002 0.00962807 0.0020623 -1.57997e-06 -0.00158002 0.00014692 0.0014362 0.00567471 0.0110879 -0.002445 0.00610889 -0.00147652
internal_weight=0 2599 516 66 450 2083 618 414 356 145 87 58 67 211
internal_count=217633 2599 516 66 450 2083 618 414 356 145 87 58 67 211
shrinkage=0.15


Tree=431
num_leaves=15
num_cat=0
split_feature=4 33 17 26 30 3 2 22 12 21 22 22 4 2
split_gain=0.0423841 0.112746 0.128809 0.0735364 0.207561 0.0678838 0.088576 0.179127 0.0597965 0.235602 0.231516 0.756974 1.19429 1.41047
threshold=-1.2236799999999997 -2.6230199999999994e-06 -5.3149449999999995e-06 0.074756100000000006 0.17338700000000004 -6.0288849999999989 -2.4290249999999998 -2.5339749999999994 0.00012553750000000004 8.5628800000000016 2.4622600000000006 0.86801550000000016 0.67000000000000015 0.71681100000000009
decision_type=2 2 2 2 2 2 2 2 2 2 2 2 2 2
left_child=1 2 -1 -3 -5 6 7 -4 -2 10 11 -10 13 -13
right_child=8 3 5 4 -6 -7 -8 -9 9 -11 -12 12 -14 -15
leaf_value=0.0002114685354066068 -6.6675051984627236e-05 -8.0481902049181828e-05 0.016154936749864224 0.01265314752158969 -0.0063137623749623473 -0.0008683541412291717 0.0012498311354319715 0.0027482237548064193 2.6454395610660053e-05 -0.0010522126722796103 -0.00093626200254151863 -0.0094890594907682448 -0.00020520683047089731 0.0054359315764217573
leaf_weight=10728 153016 21799 26 34 21 314 3169 163 17451 3152 2905 152 2431 2272
leaf_count=10728 153016 21799 26 34 21 314 3169 163 17451 3152 2905 152 2431 2272
internal_value=0 0.000148063 0.000473936 -6.66609e-05 0.00541124 0.00124075 0.00143797 0.00459253 -2.95948e-05 0.00017045 0.000323313 0.000487353 0.00214403 0.00450004
internal_weight=0 36254 14400 21854 55 3672 3358 189 181379 28363 25211 22306 4855 2424
internal_count=217633 36254 14400 21854 55 3672 3358 189 181379 28363 25211 22306 4855 2424
shrinkage=0.15


Tree=432
num_leaves=15
num_cat=0
split_feature=4 33 13 19 26 4 16 13 33 12 38 34 18 10
split_gain=0.042161 0.0899085 0.229511 0.107691 0.0782065 0.132294 0.0831403 0.0692486 0.16124 0.0941851 0.0862006 0.0771286 0.102459 0.0663639
threshold=1.1140750000000001 -2.0038149999999996e-06 4.2943850000000006e-06 2.7347200000000005e-05 -0.00033969749999999992 1.8837800000000002 1.5814050000000002e-05 -1.6267099999999995e-05 1.8499350000000002e-06 0.00069404300000000009 -0.3976754999999999 0.012110300000000003 0.0018206300000000004 1.8315400000000001e-05
decision_type=2 2 2 2 2 2 2 2 2 2 2 2 2 2
left_child=-1 2 3 -2 5 6 -5 8 -3 10 -10 12 -9 -4
right_child=1 7 13 4 -6 -7 -8 11 9 -11 -12 -13 -14 -15
leaf_value=-3.047115230070687e-05 0.012075964082826181 0.0011914064174309558 0.00096566459273196765 -0.0027497083248454149 0.0018398001748023284 0.0007815121298011549 -0.014229964251651175 0.00064249163301979871 -0.0092162595619811327 0.0068382185001316809 -0.0013732809016076212 0.00024728993317654665 -0.00079851791742209445 1.2149737901597556e-05
leaf_weight=179415 22 736 1916 40 2507 303 22 1515 32 31 2149 13292 4155 11498
leaf_count=179415 22 736 1916 40 2507 303 22 1515 32 31 2149 13292 4155 11498
internal_value=0 0.000143047 0.00040972 0.00162122 0.00154113 -0.000510272 -0.00682335 -5.54418e-05 -0.000731764 -0.00137166 -0.00148835 4.97052e-05 -0.000413486 0.000148346
internal_weight=0 38218 16308 2894 2872 365 62 21910 2948 2212 2181 18962 5670 13414
internal_count=217633 38218 16308 2894 2872 365 62 21910 2948 2212 2181 18962 5670 13414
shrinkage=0.15


Tree=433
num_leaves=15
num_cat=0
split_feature=20 9 3 14 23 2 21 0 23 0 11 23 3 26
split_gain=0.0466145 0.14681 0.172074 0.316856 0.153534 0.149779 0.206541 0.283083 0.450572 0.426834 0.567629 0.580604 1.69463 0.586806
threshold=-8.9078399999999984 -1.2787399999999997e-05 -9.3834099999999996 0.0078268300000000016 -9.061029999999997 2.6199850000000002 -0.16778899999999997 -7.4213099999999992 -10.756049999999997 -11.535049999999998 -7.5258799999999992e-05 -6.907004999999999 -6.9692649999999992 -7.495194999999998e-05
decision_type=2 2 2 2 2 2 2 2 2 2 2 2 2 2
left_child=1 5 3 4 -3 -1 -7 9 -9 -8 -11 13 -13 -12
right_child=-2 2 -4 -5 -6 6 7 8 -10 10 11 12 -14 -15
leaf_value=-0.00058259512183934004 -2.2587299392850043e-05 -0.00011596798801366923 6.7369039501787717e-05 -0.00013711020481685249 0.0027404378138766827 -0.0008309829194935609 -0.001415122294860634 0.01468231395997196 -0.0036963028414332298 -0.0012369920219869677 0.0069080560535699723 -0.020287298792081469 0.019384332815185187 0.021830257757184359
leaf_weight=6811 196799 514 7075 2234 2402 804 222 34 256 147 126 47 50 112
leaf_count=6811 196799 514 7075 2234 2402 804 222 34 256 147 126 47 50 112
internal_value=0 0.000213361 0.000547506 0.00120711 0.00223694 -0.000261133 0.000956595 0.00240248 -0.00154157 0.00402716 0.00653378 0.00994363 0.000161996 0.0139303
internal_weight=0 20834 12225 5150 2916 8609 1798 994 290 704 482 335 97 238
internal_count=217633 20834 12225 5150 2916 8609 1798 994 290 704 482 335 97 238
shrinkage=0.15


Tree=434
num_leaves=15
num_cat=0
split_feature=2 28 28 2 8 31 12 32 8 16 5 36 28 18
split_gain=0.0447706 0.3436 0.211513 0.531486 0.506413 0.21856 0.982753 2.36327 2.99129 1.42838 0.856594 0.705668 0.64678 0.894845
threshold=-1.1787299999999998 0.0020348000000000002 0.0042911100000000008 -0.51414149999999992 7.9805950000000008e-06 -0.51318599999999992 -3.2084349999999995e-06 0.35728400000000005 5.1498050000000006e-06 6.935915000000001e-07 9.5453100000000006e-06 0.0013440100000000003 -0.016903749999999999 -6.1948499999999997e-06
decision_type=2 2 2 2 2 2 2 2 2 2 2 2 2 2
left_child=1 -1 3 -2 -4 6 7 8 9 11 -11 -5 13 -10
right_child=2 -3 4 5 -6 -7 -8 -9 12 10 -12 -13 -14 -15
leaf_value=-0.00018724208264023643 -0.00071950217938759528 0.00048947170213320932 -0.00051527686012008166 0.03412361318603091 0.00070707276386476722 0.00016609440951746476 0.00028664741521358103 0.00082811201667863069 0.040469012756048785 0.026565393484197553 0.064585166027391103 -0.00092803800143883566 -0.0034058169431791982 0.0028056060810922644
leaf_weight=39811 15574 29312 41936 28 9321 75439 5279 689 22 20 40 24 98 40
leaf_count=39811 15574 29312 41936 28 9321 75439 5279 689 22 20 40 24 98 40
internal_value=0 9.97222e-05 -4.64151e-05 8.35442e-05 -0.000292995 0.000236664 0.00108982 0.00550182 0.0173407 0.036142 0.0519119 0.0179459 0.00417983 0.01617
internal_weight=0 69123 148510 97253 51257 81679 6240 961 272 112 60 52 160 62
internal_count=217633 69123 148510 97253 51257 81679 6240 961 272 112 60 52 160 62
shrinkage=0.15


Tree=435
num_leaves=15
num_cat=0
split_feature=22 9 2 15 22 1 0 0 31 6 1 11 0 22
split_gain=0.0409591 0.176887 0.11552 0.0580491 0.0432253 0.732291 0.314523 0.532793 1.6394 1.01626 0.77269 0.935314 0.647353 3.74899
threshold=3.1180850000000002 -2.9410299999999995e-05 2.9632800000000006 -2.1304699999999996e-05 1.1181450000000004 -3.7755899999999998 9.5540300000000027 4.2981800000000012 -0.011094149999999999 -2.7225449999999993e-07 9.9796450000000014 0.00013208350000000002 -2.0658999999999996 1.8015500000000002
decision_type=2 2 2 2 2 2 2 2 2 2 2 2 2 2
left_child=4 2 3 -2 -1 -6 7 12 9 10 11 -9 -7 -14
right_child=1 -3 -4 -5 5 6 -8 8 -10 -11 -12 -13 13 -15
leaf_value=4.1330175443104684e-05 0.0041843874006934293 0.0024119084345357593 -0.013519068636232987 -0.0027442090938198348 0.00056715187787420129 -0.00079146115082241047 0.00071554015637368025 -0.013948592095322562 -0.00070904871836455793 -0.0015408897201627187 -0.00030411480289920331 -0.00076900277513471484 0.0042466140276798871 -0.0016235441889744357
leaf_weight=148844 33 585 20 155 23829 19197 4557 597 8540 685 179 152 4034 6226
leaf_count=148844 33 585 20 155 23829 19197 4557 597 8540 685 179 152 4034 6226
internal_value=0 0.00107606 -0.002681 -0.00152802 -3.93524e-06 -0.000103022 -0.000464594 -0.000600365 -0.00153742 -0.00592321 -0.00915801 -0.011274 -0.000277388 0.000684469
internal_weight=0 793 208 188 216840 67996 44167 39610 10153 1613 928 749 29457 10260
internal_count=217633 793 208 188 216840 67996 44167 39610 10153 1613 928 749 29457 10260
shrinkage=0.15


Tree=436
num_leaves=15
num_cat=0
split_feature=22 2 2 13 0 22 2 2 11 23 20 11 23 23
split_gain=0.0610632 0.416148 2.52241 1.41491 0.985887 3.28116 10.2419 4.509 4.12541 1.88451 1.84072 1.59744 2.57254 1.37697
threshold=2.1073400000000002 1.39368 2.1084950000000005 -2.7910349999999995e-06 -7.7555099999999992 2.4928950000000003 2.4739300000000006 2.4739300000000006 -0.00012615999999999997 -9.1777649999999991 -7.7075349999999991 -5.1252949999999995e-05 -13.505549999999998 -9.713144999999999
decision_type=2 2 2 2 2 2 2 2 2 2 2 2 2 2
left_child=-1 -2 3 -3 9 6 8 -7 -6 -4 13 -12 -13 -9
right_child=1 2 4 -5 5 7 -8 10 -10 -11 11 12 -14 -15
leaf_value=-3.4454667786234017e-05 0.00052366326911667215 -0.0066966384600093704 -0.0046104801984081338 -0.0010350402016247537 0.0011760002582047767 -0.0086692460127212618 -0.0082100292066669862 0.012235701726353337 0.026617876564423864 0.002993815160794559 0.0058551457650697983 -0.0090560059619205508 0.031129322987857786 -0.0063138874381134837
leaf_weight=183186 24150 1785 1441 2239 193 890 467 119 558 1493 544 47 151 370
leaf_count=183186 24150 1785 1441 2239 193 890 467 119 558 1493 544 47 151 370
internal_value=0 0.000183227 -0.000615214 -0.00354646 0.00126512 0.00302786 0.00923289 -0.000535419 0.0200796 -0.000740946 0.00534525 0.010054 0.0215904 -0.00179977
internal_weight=0 34447 10297 4024 6273 3339 1218 2121 751 2934 1231 742 198 489
internal_count=217633 34447 10297 4024 6273 3339 1218 2121 751 2934 1231 742 198 489
shrinkage=0.15


Tree=437
num_leaves=15
num_cat=0
split_feature=22 2 0 2 28 14 33 6 0 38 19 17 25 30
split_gain=0.0513617 2.80119 0.93662 0.911548 0.594191 0.648002 0.548608 0.452345 0.494806 0.388842 0.388571 0.331051 0.532662 0.424494
threshold=2.9399650000000004 2.9408750000000006 -7.9798249999999991 2.2580750000000003 0.0010969400000000002 0.00074095750000000005 1.7169700000000003e-05 7.8850250000000012e-07 -10.941299999999998 -0.00094785699999999987 0.004329035000000001 1.1262200000000001e-07 0.64898000000000011 0.0011210150000000002
decision_type=2 2 2 2 2 2 2 2 2 2 2 2 2 2
left_child=-1 3 11 -2 5 -4 9 -5 -9 -6 -11 -3 -13 -14
right_child=1 2 4 7 6 -7 -8 8 -10 10 -12 12 13 -15
leaf_value=-1.362737568750238e-05 0.00029525864675499094 -0.0076300043152348895 0.028298075368918943 -9.0875843582987982e-05 0.042726250756955277 -0.0026381313594846197 0.0052062328462488946 -0.00065956456588927334 -0.010831995468653696 0.035362544389441607 0.0073115790076553819 0.0030771040106734545 0.033235997139026634 0.0086954522688340932
leaf_weight=210279 6183 33 25 261 44 39 20 154 357 25 20 129 29 35
leaf_count=210279 6183 33 25 261 44 39 20 154 357 25 20 129 29 35
internal_value=0 0.000389659 0.0126122 -0.000311536 0.0209187 0.00944632 0.0276548 -0.00517139 -0.00776633 0.0326994 0.0228954 0.00625372 0.00862762 0.0198154
internal_weight=0 7354 399 6955 173 64 109 772 511 89 45 226 193 64
internal_count=217633 7354 399 6955 173 64 109 772 511 89 45 226 193 64
shrinkage=0.15


Tree=438
num_leaves=15
num_cat=0
split_feature=2 31 2 22 22 19 0 22 2 1 19 23 2 22
split_gain=0.0436134 0.123279 0.0930101 1.95234 2.83547 1.24261 1.27843 0.959342 6.80682 1.90906 2.43297 1.42202 1.21098 1.02596
threshold=-2.8982399999999995 0.018260400000000003 -2.2973549999999996 -2.3274699999999995 -1.5224299999999997 2.1691500000000004e-05 -9.9367599999999978 -2.5595399999999997 -2.5827499999999994 -7.5812149999999994 4.9052500000000005e-05 -16.783199999999997 -2.5518049999999994 -2.8587899999999995
decision_type=2 2 2 2 2 2 2 2 2 2 2 2 2 2
left_child=1 -1 3 7 5 6 -5 12 -9 -10 11 -11 13 -2
right_child=2 -3 -4 4 -6 -7 -8 8 9 10 -12 -13 -14 -15
leaf_value=0.00091832596471995681 -0.00076407612846233596 -0.00036223202144591485 2.0830449291991393e-05 -0.0026603690788862067 -0.00015551440201934966 -0.0013081419842988844 -0.011467698776449289 -0.0083942574772587052 0.0027299962161729733 -0.0099548572325147688 0.00093623138197775307 0.031328657771290652 -0.0032271043608586942 0.0072122185094649809
leaf_weight=3956 614 2955 189909 594 15018 956 987 380 144 20 90 306 817 887
leaf_count=3956 614 2955 189909 594 15018 956 987 380 144 20 90 306 817 887
internal_value=0 0.000370786 -1.21606e-05 -0.000313188 -0.000939047 -0.00557724 -0.00815868 0.00305911 0.0071011 0.0176158 0.0227686 0.0287959 0.00142 0.00394943
internal_weight=0 6911 210722 20813 17555 2537 1581 3258 940 560 416 326 2318 1501
internal_count=217633 6911 210722 20813 17555 2537 1581 3258 940 560 416 326 2318 1501
shrinkage=0.15


Tree=439
num_leaves=15
num_cat=0
split_feature=3 34 13 23 3 25 23 23 3 3 23 23 25 15
split_gain=0.0493607 0.284432 0.357107 0.28659 0.34689 0.287029 0.316673 0.54817 3.63588 1.39647 1.73948 1.44023 1.29695 1.21168
threshold=-8.4006749999999979 0.020418450000000005 0.00013960900000000004 -17.896049999999999 -15.512049999999999 0.27484350000000007 -8.6253599999999988 -10.067599999999999 -10.05805 -8.8578049999999973 -8.9494349999999994 -8.8916699999999977 1.3255600000000001 -3.7566899999999995e-07
decision_type=2 2 2 2 2 2 2 2 2 2 2 2 2 2
left_child=1 -1 3 4 -3 -5 7 -7 -9 11 -11 -10 13 -12
right_child=-2 2 -4 5 -6 6 -8 8 9 10 12 -13 -14 -15
leaf_value=0.00026694961259562445 7.1196200138804944e-05 -0.0019936796385238435 0.0003227179133657682 -0.0013586521936769624 0.0012599763655690563 -0.00050388076340752281 -0.0010679120326551469 -0.0015386289531354375 0.0093392734754806552 -0.0040642942502990614 -0.0094214832113357246 -0.0031211432632926514 0.0004974047971440346 0.031660098615351934
leaf_weight=36848 109183 906 18446 8264 3959 21658 11120 4610 1601 582 20 240 112 84
leaf_count=36848 109183 906 18446 8264 3959 21658 11120 4610 1601 582 20 240 112 84
internal_value=0 -7.16774e-05 -0.000245942 -0.000443277 0.000654054 -0.000553826 -0.000387661 -0.00012598 0.00100308 0.00544313 0.000202141 0.00771488 0.0116978 0.0237598
internal_weight=0 108450 71602 53156 4865 48291 40027 28907 7249 2639 798 1841 216 104
internal_count=217633 108450 71602 53156 4865 48291 40027 28907 7249 2639 798 1841 216 104
shrinkage=0.15


Tree=440
num_leaves=15
num_cat=0
split_feature=12 32 23 3 14 23 3 14 23 3 14 23 20 31
split_gain=0.0455825 0.130507 0.76045 1.51475 1.27929 1.06354 0.634478 0.820101 0.607522 0.599054 1.45249 5.21349 1.74988 2.45125
threshold=9.1870050000000003e-05 -0.0078262299999999983 -10.268599999999998 -10.848199999999999 0.0064171350000000009 -17.743599999999997 -11.673299999999999 0.013066200000000002 -9.2917499999999986 -9.3834099999999996 0.00088157450000000005 -11.623899999999997 -4.8346449999999992 -0.10149299999999999
decision_type=2 2 2 2 2 2 2 2 2 2 2 2 2 2
left_child=-1 8 3 4 5 -3 7 -4 9 10 11 -2 -13 -14
right_child=1 2 6 -5 -6 -7 -8 -9 -10 -11 -12 12 13 -15
leaf_value=-3.8433546375564342e-05 -0.0054335920653728635 0.002762839029774694 0.0037859408108978339 0.0011393285717262289 -0.00047052300768383386 -0.0064699002708388719 0.00022169503011025538 0.0004029322073964294 -0.00092239096130296847 -0.00081564383280424409 0.00076332480785083127 -0.0023706625878381041 -0.0016515235360711814 0.035615492124144235
leaf_weight=165696 302 329 3375 5655 3296 1913 9001 3087 11564 4717 8403 52 50 193
leaf_count=165696 302 329 3375 5655 3296 1913 9001 3087 11564 4717 8403 52 50 193
internal_value=0 0.000122616 0.000354179 -0.0005875 -0.00235081 -0.00511505 0.00103582 0.00216982 -0.000121542 0.000553607 0.00127125 0.00842043 0.0226032 0.0279474
internal_weight=0 51937 26656 11193 5538 2242 15463 6462 25281 13717 9000 597 295 243
internal_count=217633 51937 26656 11193 5538 2242 15463 6462 25281 13717 9000 597 295 243
shrinkage=0.15


Tree=441
num_leaves=15
num_cat=0
split_feature=34 15 35 15 23 8 35 15 15 25 14 4 4 20
split_gain=0.0503748 0.160249 0.764926 1.05606 0.70842 0.436115 0.396823 0.440285 0.570893 0.675377 0.426031 0.367012 1.43991 1.59456
threshold=0.18398 7.0051050000000008e-07 0.0013016950000000001 2.5026700000000006e-05 -15.140049999999997 1.4535400000000001e-05 -0.008979214999999997 -4.3890749999999994e-07 -1.8996749999999994e-05 0.68814950000000008 0.00040792350000000004 0.30999400000000005 0.92173400000000016 1.2595350000000003
decision_type=2 2 2 2 2 2 2 2 2 2 2 2 2 2
left_child=-1 6 3 4 -3 -6 -2 8 -8 -10 -11 -4 13 -13
right_child=1 2 11 -5 5 -7 7 -9 9 10 -12 12 -14 -15
leaf_value=-4.4833863253951926e-05 0.00084649162429059112 -0.00054088078492644783 -0.00013260701887592291 0.00037651302083072823 -0.0056128821165153595 -0.00092534587409772156 0.00025956210805893232 0.00042108463995604411 0.0009025543955496234 -0.00048749941955436414 -0.0038269787022370302 0.00022294637439576015 0.00020137156437662109 0.013147085070996392
leaf_weight=157027 16550 1630 4708 4256 1964 578 5667 16018 1458 1215 2938 397 2759 468
leaf_count=157027 16550 1630 4708 4256 1964 578 5667 16018 1458 1215 2938 397 2759 468
internal_value=0 0.000116162 -0.000278349 -0.00128592 -0.00298183 -0.00454703 0.000266963 -8.44145e-05 -0.000802369 -0.0018749 -0.00284998 0.000740832 0.00187553 0.00721543
internal_weight=0 60606 16760 8428 4172 2542 43846 27296 11278 5611 4153 8332 3624 865
internal_count=217633 60606 16760 8428 4172 2542 43846 27296 11278 5611 4153 8332 3624 865
shrinkage=0.15


Tree=442
num_leaves=15
num_cat=0
split_feature=22 1 13 3 6 0 22 21 1 20 21 4 1 21
split_gain=0.0490432 0.472303 0.776966 0.661904 0.414708 0.713504 2.7152 0.580977 0.461187 0.450157 0.297122 0.264153 0.24684 1.80821
threshold=2.2761200000000001 6.1801950000000003 9.8894900000000018e-06 -7.4742849999999992 2.8454900000000007e-07 -5.545164999999999 2.4928950000000003 1.8239400000000001 7.0860800000000008 -9.5917099999999973 4.2065800000000015 -0.25678549999999994 8.147965000000001 5.6760050000000009
decision_type=2 2 2 2 2 2 2 2 2 2 2 2 2 2
left_child=-1 -2 3 4 -3 6 8 -7 -6 -9 -8 -11 13 -5
right_child=1 2 -4 12 5 7 10 9 -10 11 -12 -13 -14 -15
leaf_value=-2.8092019485000207e-05 0.00050203546995038998 -0.0019525968328372135 0.00077304560363766241 -0.0038418829877373234 0.041073970965527257 -0.0032343728161408161 -0.0096418777331385413 -0.0038089643109730153 0.012631425917472528 -0.0055460876475033147 -0.029648302363373499 -0.01906293265677219 -0.0018349671190631398 0.018210422526437627
leaf_weight=188322 22807 412 3096 307 29 159 61 73 23 38 23 226 1942 115
leaf_count=188322 22807 412 3096 307 29 159 61 73 23 38 23 226 1942 115
internal_value=0 0.00018049 -0.000947045 -0.00250966 -0.00565533 -0.00806913 0.0015559 -0.0107083 0.0284936 -0.0142345 -0.0151198 -0.0171173 -0.00112046 0.00216763
internal_weight=0 29311 6504 3408 1044 632 136 496 52 337 84 264 2364 422
internal_count=217633 29311 6504 3408 1044 632 136 496 52 337 84 264 2364 422
shrinkage=0.15


Tree=443
num_leaves=15
num_cat=0
split_feature=22 2 21 22 21 21 6 2 22 1 23 8 0 23
split_gain=0.0483206 0.0795417 0.287963 0.161141 0.22836 0.185922 0.182405 0.137542 0.287307 0.33111 0.220161 0.236005 0.247543 0.187482
threshold=-2.8863399999999997 -3.0230999999999995 -2.5163899999999999 -3.0104949999999993 -0.84929049999999984 1.0000000180025095e-35 -7.5924149999999995e-07 -2.8697349999999995 -2.9625949999999994 -1.0953499999999996 -8.2722599999999975 6.2479250000000008e-06 -8.8447699999999987 -11.762749999999999
decision_type=2 2 2 2 2 2 2 2 2 2 2 2 2 2
left_child=1 2 -1 5 -5 6 -4 8 9 10 -3 12 -12 -10
right_child=-2 7 3 4 -6 -7 -8 -9 13 -11 11 -13 -14 -15
leaf_value=-0.017056695677133069 -1.4447865742205903e-05 -0.0072055093147997363 -0.00026921367726141684 -0.016235827040509319 0.0039359069176261195 -0.0074857063798440832 0.014526913741704176 0.00029186616249288319 -0.00051110934728058053 0.012492609076434747 0.020397117274114862 -0.0095929827913641911 -0.0019030201373555298 0.01291682931899639
leaf_weight=27 208904 102 38 28 23 27 37 8224 32 39 24 20 21 87
leaf_count=27 208904 102 38 28 23 27 37 8224 32 39 24 20 21 87
internal_value=0 0.000345769 -0.00277476 -0.000254416 -0.00713877 0.00318776 0.00703021 0.000411472 0.00343805 4.83376e-05 -0.00285781 0.00396473 0.00999039 0.00930596
internal_weight=0 8729 180 153 51 102 75 8549 325 206 167 65 45 119
internal_count=217633 8729 180 153 51 102 75 8549 325 206 167 65 45 119
shrinkage=0.15


Tree=444
num_leaves=15
num_cat=0
split_feature=31 9 14 23 3 11 14 34 21 8 13 13 23 2
split_gain=0.0421381 0.165714 0.256993 0.200646 0.54984 0.297766 0.58029 0.526352 0.768997 1.14481 0.526558 0.409329 0.384072 0.500205
threshold=0.14747150000000003 -3.7350599999999994e-05 0.00054376850000000009 -12.425899999999999 -6.2498799999999992 -2.1263299999999997e-05 0.00018273250000000005 0.19741050000000002 2.8817050000000006 -6.6141399999999985e-06 -2.3306099999999997e-05 -1.0738799999999998e-05 -7.0114099999999988 -1.9124349999999997
decision_type=2 2 2 2 2 2 2 2 2 2 2 2 2 2
left_child=-1 -2 3 4 -3 7 -7 8 11 10 -10 -5 -8 -14
right_child=1 2 -4 5 -6 6 12 -9 9 -11 -12 -13 13 -15
leaf_value=-3.114618112763429e-05 -0.00051255688390860706 0.0027071489777959865 -7.4820343592955105e-05 -0.0073446489173615449 -0.00017145559898154483 0.00092675764148662223 -0.0029238885602266532 -0.001866626338607548 0.019998082127713132 0.0045936203846294018 0.053626972879283127 0.0078693480948358128 0.023287327311118135 0.00091222095390958841
leaf_weight=177997 7174 3352 18840 63 2692 4928 1803 201 20 54 22 108 24 355
leaf_count=177997 7174 3352 18840 63 2692 4928 1803 201 20 54 22 108 24 355
internal_value=0 0.000139871 0.000284056 0.000780401 0.00142502 0.000266273 2.50387e-05 0.00393119 0.00829583 0.0190397 0.0376132 0.00226419 -0.00201147 0.00232911
internal_weight=0 39636 32462 13622 6044 7578 7110 468 267 96 42 171 2182 379
internal_count=217633 39636 32462 13622 6044 7578 7110 468 267 96 42 171 2182 379
shrinkage=0.15


Tree=445
num_leaves=15
num_cat=0
split_feature=4 35 0 4 29 3 4 29 1 20 12 29 9 26
split_gain=0.0484472 0.11978 0.395986 1.27507 0.661734 0.278012 0.244519 0.753243 1.3867 0.61498 0.847672 0.515811 0.440281 0.278498
threshold=-0.48541799999999996 0.034394250000000008 -2.3471649999999995 -1.5283549999999997 0.061314450000000006 -7.3792049999999989 -1.3153099999999998 0.14111800000000002 3.6457350000000006 -1.2709449999999998 -0.00014518449999999995 0.20869500000000005 -3.8942849999999993e-05 0.0025920500000000007
decision_type=2 2 2 2 2 2 2 2 2 2 2 2 2 2
left_child=1 -1 6 -4 -5 -6 -3 -8 9 10 -9 -12 -13 -14
right_child=-2 2 3 4 5 -7 7 8 -10 -11 11 12 13 -15
leaf_value=0.00020397693692065179 -3.696232859786916e-05 -3.8853959654071563e-05 0.0003416967154488962 -0.0028914418082858903 -0.015769048583198626 -0.0056644418832441914 -0.0015671369628010628 -0.010821455005556344 -0.012722552161929862 0.039623546987771985 0.03776482438875569 0.027809148514643309 0.01607593078399077 -0.0086566449267723201
leaf_weight=43141 170992 1018 1470 300 213 86 225 25 42 25 27 28 20 21
leaf_count=43141 170992 1018 1470 300 213 86 225 25 42 25 27 28 20 21
internal_value=0 0.000135509 -0.00070843 -0.00203533 -0.00786875 -0.0128627 0.00121005 0.00428846 0.0112965 0.0182061 0.013781 0.0201879 0.0133099 0.00340803
internal_weight=0 46641 3500 2069 599 299 1431 413 188 146 121 96 69 41
internal_count=217633 46641 3500 2069 599 299 1431 413 188 146 121 96 69 41
shrinkage=0.15


Tree=446
num_leaves=15
num_cat=0
split_feature=12 32 23 3 14 23 3 7 25 23 3 14 23 34
split_gain=0.0445653 0.0939405 0.561609 1.19876 1.01246 0.766069 0.496639 0.496395 0.453857 0.44119 0.423533 1.07435 0.454431 0.444594
threshold=9.1870050000000003e-05 -0.0078262299999999983 -10.530399999999998 -11.279499999999997 0.0064171350000000009 -17.896049999999999 -16.724049999999995 3.2585650000000012e-05 3.7622250000000004 -9.061029999999997 -9.0501149999999981 0.0013588450000000002 -7.8072199999999992 0.087393000000000012
decision_type=2 2 2 2 2 2 2 2 2 2 2 2 2 2
left_child=-1 9 3 4 5 6 -3 -4 -7 -2 11 12 13 -11
right_child=1 2 7 -5 -6 8 -8 -9 -10 10 -12 -13 -14 -15
leaf_value=-3.8002305425111729e-05 0.00046289387151725347 -0.015998145308474012 0.0026097182634797003 0.00093917350980611352 -0.00050381769642542887 -0.0071437036241800969 0.0047883520826529488 0.00047652828234194343 -0.00027110709709150419 -0.013904223957943031 0.00047155847294913343 -0.00073124504127176752 -0.0038404632666141775 -0.0011107511117610025
leaf_weight=165696 14307 29 3030 5792 2969 1421 239 12921 255 240 3829 6121 702 82
leaf_count=165696 14307 29 3030 5792 2969 1421 239 12921 255 240 3829 6121 702 82
internal_value=0 0.00012124 0.000317702 -0.000522747 -0.00224622 -0.00490734 0.00253907 0.000881742 -0.00609805 -8.59077e-05 -0.00080139 -0.00148356 -0.00598057 -0.0106463
internal_weight=0 51937 26656 10705 4913 1944 268 15951 1676 25281 10974 7145 1024 322
internal_count=217633 51937 26656 10705 4913 1944 268 15951 1676 25281 10974 7145 1024 322
shrinkage=0.15


Tree=447
num_leaves=15
num_cat=0
split_feature=20 0 23 16 0 36 19 21 19 0 23 0 36 16
split_gain=0.0407027 0.202018 0.340135 0.429653 0.139647 0.0821375 0.07502 0.132682 0.129365 0.103856 0.105303 0.0794502 0.152154 0.355647
threshold=-12.935299999999998 -11.535049999999998 -6.9868449999999989 -9.1681949999999977e-08 -12.853499999999999 -0.099237049999999979 8.6333700000000013e-07 -15.528799999999999 2.0603900000000001e-07 -9.4982149999999983 -6.7637699999999983 -9.9367599999999978 0.00093453200000000018 -2.7072299999999996e-08
decision_type=2 2 2 2 2 2 2 2 2 2 2 2 2 2
left_child=1 2 5 4 -4 -1 7 8 -3 10 -9 12 -8 -14
right_child=-2 6 3 -5 -6 -7 11 9 -10 -11 -12 -13 13 -15
leaf_value=0.0063539230176292427 -8.2269237421071191e-06 0.0028769877308604916 -0.0050693379884646471 0.025375343926305718 0.010836133854981096 -0.0035790505391098608 -0.0033442796138115224 -0.00069085554203538347 0.018255377900786695 0.0014696620859640022 -0.013865341128548607 -0.00036704158772646279 -6.1218993178044915e-05 0.023347479750847687
leaf_weight=26 214188 32 23 34 27 67 40 43 20 744 20 2306 40 23
leaf_count=26 214188 32 23 34 27 67 40 43 20 744 20 2306 40 23
internal_value=0 0.000511497 0.00544716 0.012366 0.00351962 -0.00080209 0.000244174 0.00144771 0.00879175 0.000974492 -0.00487323 -0.000184984 0.00389099 0.00848481
internal_weight=0 3445 177 84 50 93 3268 859 52 807 63 2409 103 63
internal_count=217633 3445 177 84 50 93 3268 859 52 807 63 2409 103 63
shrinkage=0.15


Tree=448
num_leaves=15
num_cat=0
split_feature=22 2 28 2 6 5 28 2 2 12 0 1 12 2
split_gain=0.0383392 0.374014 0.320607 0.286995 0.25356 0.165261 0.18704 0.164647 0.186158 0.149366 0.136328 0.0913376 0.0566601 0.0566055
threshold=3.0676500000000004 3.0578500000000006 0.00029183350000000003 2.5749400000000002 3.8136750000000007e-07 2.8110650000000002e-05 0.00095515100000000011 -3.0483799999999994 -1.6619399999999998 9.7651800000000019e-05 -8.4604899999999983 2.6605050000000001 -1.9060849999999999e-05 3.0333000000000006
decision_type=2 2 2 2 2 2 2 2 2 2 2 2 2 2
left_child=13 3 -3 7 9 6 11 -2 12 -5 -8 -6 -9 -1
right_child=1 2 -4 4 5 -7 10 8 -10 -11 -12 -13 -14 -15
leaf_value=1.5689311484689365e-06 0.012709986141579485 0.0030083267294685355 0.028269569958792998 0.013916371213272214 -0.011697254919537856 0.0040243975951203279 -0.010624524751619902 -0.0012144800762655898 0.0015336812571331276 -0.0021729724677169468 -0.027392848146264439 -0.0016863061697222292 -0.0067678200461280848 -0.00072666601381476601
leaf_weight=212803 26 26 20 20 37 21 24 508 1571 37 20 46 45 2429
leaf_count=212803 26 26 20 20 37 21 24 508 1571 37 20 46 45 2429
internal_value=0 0.000596084 0.0139915 0.000334433 -0.00502817 -0.00830204 -0.0103403 0.000845751 0.00070052 0.00347241 -0.0182465 -0.00614902 -0.00166638 -6.64956e-06
internal_weight=0 2401 46 2355 205 148 127 2150 2124 57 44 83 553 215232
internal_count=217633 2401 46 2355 205 148 127 2150 2124 57 44 83 553 215232
shrinkage=0.15


Tree=449
num_leaves=15
num_cat=0
split_feature=3 23 23 23 3 4 4 21 1 1 7 20 36 14
split_gain=0.0398183 0.444227 0.844551 0.806563 1.00417 0.667318 0.819378 0.688333 2.281 1.58135 0.814673 0.531992 0.502786 0.493895
threshold=-15.739199999999999 -9.9618999999999982 -15.694899999999999 -17.487949999999994 -17.304849999999998 -1.6509149999999997 2.7640900000000004 -3.8797499999999996 -2.6537149999999996 -4.3419649999999992 3.0966000000000008e-05 -4.5622399999999983 0.026455200000000002 0.013716500000000001
decision_type=2 2 2 2 2 2 2 2 2 2 2 2 2 2
left_child=1 2 3 -1 -5 -6 7 8 10 -9 -7 -11 -13 -4
right_child=-2 -3 13 4 5 6 -8 9 -10 11 -12 12 -14 -15
leaf_value=-0.00082610297340381068 -1.7214811354507005e-05 0.0010185319138122351 -0.0031626971312192476 -0.001294082921606332 -0.0025909955004109566 0.020444649178534748 -0.0033726984595898279 -0.021519455815326761 -0.013084488560395712 -0.0048511632047045757 0.051367905988108094 0.016918838299462721 -0.0045530801225039689 -2.0638286857494275e-07
leaf_weight=1283 203018 7740 2628 384 105 36 82 33 28 34 41 269 27 1925
leaf_count=1283 203018 7740 2628 384 105 36 82 33 28 34 41 269 27 1925
internal_value=0 0.000239132 -0.00063833 0.00168968 0.00479628 0.00836681 0.0104588 0.0128822 0.0235783 0.0097883 0.0369103 0.0129191 0.0149603 -0.0018256
internal_weight=0 14615 6875 2322 1039 655 550 468 105 363 77 330 296 4553
internal_count=217633 14615 6875 2322 1039 655 550 468 105 363 77 330 296 4553
shrinkage=0.15


Tree=450
num_leaves=15
num_cat=0
split_feature=9 22 22 12 22 19 3 0 37 33 22 1 19 3
split_gain=0.0400971 0.237829 0.231032 1.21859 1.12794 1.11982 0.876906 0.759538 0.718745 0.590819 0.457879 3.3133 2.71959 1.9108
threshold=8.0374850000000012e-06 2.4622600000000006 1.3299150000000002 2.1843750000000002e-05 1.6880500000000003 3.7476600000000006e-05 -6.1381299999999994 1.6034400000000002 -4.9992949999999994e-08 -1.8260499999999999e-06 0.50896400000000008 3.8755250000000001 1.1641400000000003e-06 -6.493739999999999
decision_type=2 2 2 2 2 2 2 2 2 2 2 2 2 2
left_child=-1 2 10 -4 5 6 7 8 -5 -9 -2 12 -12 -13
right_child=1 -3 3 4 -6 -7 -8 9 -10 -11 11 13 -14 -15
leaf_value=5.6584602044630341e-05 -0.00022300818125101861 0.00062542930842876987 0.00054558830149467597 -0.010754238981753587 -0.00080259195124358234 -0.00089922821879861059 -0.0017078289803374109 -0.015138649920166787 0.028535295430232178 -0.0075549298057240701 -0.0087041926223419552 0.0056011964127071602 -0.0001451584928285463 -0.00062954030599084003
leaf_weight=122792 55582 9826 8684 20 5099 996 417 403 22 542 947 3628 7081 1594
leaf_count=122792 55582 9826 8684 20 5099 996 417 403 22 542 947 3628 7081 1594
internal_value=0 -7.32609e-05 -0.000154015 -0.000663986 -0.0020647 -0.00474615 -0.00747516 -0.00991181 0.00982599 -0.010789 -3.41168e-05 0.000758258 -0.0011548 0.00369928
internal_weight=0 94841 85015 16183 7499 2400 1404 987 42 945 68832 13250 8028 5222
internal_count=217633 94841 85015 16183 7499 2400 1404 987 42 945 68832 13250 8028 5222
shrinkage=0.15


Tree=451
num_leaves=15
num_cat=0
split_feature=3 39 21 10 39 19 13 19 22 2 22 22 2 32
split_gain=0.0474311 0.163292 0.227337 0.249723 0.15681 0.392784 0.15888 0.359279 0.340313 0.247042 0.230528 0.228025 0.21805 0.204674
threshold=-6.4440149999999994 0.00082647400000000011 -15.528799999999999 3.4320600000000005e-05 0.0010549800000000003 4.2206300000000004e-07 1.9207900000000006e-05 0.00030185050000000005 1.4252250000000002 1.4407450000000004 1.8895150000000001 2.0894700000000004 0.9054445000000001 -0.024261549999999996
decision_type=2 2 2 2 2 2 2 2 2 2 2 2 2 2
left_child=4 2 3 -2 -1 -6 -7 8 13 11 -11 12 -10 -8
right_child=1 -3 -4 -5 5 6 7 -9 9 10 -12 -13 -14 -15
leaf_value=-0.00010469914590116892 0.023362169828033075 -0.00045209441939497171 0.00022082786258372287 0.0012479074933152232 0.0015679993942118195 0.00046511632676964244 0.0011823276974783292 0.00017783675086580932 -0.0064802675986412031 0.018345262316870503 -0.0039058356884528289 -0.0031920896578726279 -0.017233536628029671 -0.0018364865468886524
leaf_weight=136117 20 9436 47367 27 4532 9569 756 7521 198 20 22 470 54 1524
leaf_count=136117 20 9436 47367 27 4532 9569 756 7521 198 20 22 470 54 1524
internal_value=0 0.000117765 0.000231174 0.0106582 -4.16395e-05 0.000306349 2.23618e-05 -0.000378653 -0.00175361 -0.00449347 0.00668993 -0.00514403 -0.00878454 -0.000835511
internal_weight=0 56850 47414 47 160783 24666 20134 10565 3044 764 42 722 252 2280
internal_count=217633 56850 47414 47 160783 24666 20134 10565 3044 764 42 722 252 2280
shrinkage=0.15


Tree=452
num_leaves=15
num_cat=0
split_feature=3 23 23 23 14 36 16 34 10 22 15 20 7 19
split_gain=0.0373491 0.259518 0.366297 0.269047 0.463327 0.249027 1.04265 0.791959 0.487886 0.467699 0.390401 0.389378 0.367658 0.355982
threshold=-16.559399999999997 -10.670499999999999 -15.928399999999998 -13.750649999999998 0.0075547300000000008 -0.0056427899999999991 -1.4724949999999996e-07 0.52150600000000014 1.2738000000000001e-05 2.1918900000000003 2.2558900000000002e-05 -1.7627449999999998 2.5523800000000005e-05 0.00010256800000000002
decision_type=2 2 2 2 2 2 2 2 2 2 2 2 2 2
left_child=1 2 5 4 -4 6 7 -1 -7 10 11 -9 -8 -13
right_child=-2 -3 3 -5 -6 8 12 9 -10 -11 -12 13 -14 -15
leaf_value=0.038562640889912195 -1.3248740826387886e-05 0.00095275770085135214 -0.0084123937838501955 -0.00063176043042417079 -0.0011570260916333632 -0.00524224116593793 0.013745276350528001 0.02817048953997122 0.0020030490594000229 -0.011511845771350305 -0.0063536148734948993 0.021086182542411343 -0.0062059049086172074 0.0011046358598445719
leaf_weight=23 208170 5538 321 1638 517 283 24 37 801 22 22 35 155 47
leaf_count=23 208170 5538 321 1638 517 283 24 37 801 22 22 35 155 47
internal_value=0 0.00029145 -0.000641626 -0.00175016 -0.00393623 0.00125259 0.00464141 0.0125061 0.00011152 0.00882946 0.0120033 0.015397 -0.00353089 0.00963334
internal_weight=0 9463 3925 2476 838 1449 365 186 1084 163 141 119 179 82
internal_count=217633 9463 3925 2476 838 1449 365 186 1084 163 141 119 179 82
shrinkage=0.15


Tree=453
num_leaves=15
num_cat=0
split_feature=3 24 4 34 3 30 3 10 10 4 4 19 22 10
split_gain=0.0356432 0.124113 0.259693 0.130212 0.221178 0.240483 0.581134 0.238403 0.151162 0.257662 0.605116 0.251759 0.248648 0.201751
threshold=-6.4440149999999994 0.86178750000000004 0.25797000000000009 0.0031989700000000002 -6.1661399999999995 7.0762100000000018e-05 -6.2498799999999992 2.8610900000000004e-05 2.9520050000000002e-05 -0.062709849999999984 0.042276400000000013 0.00010773500000000001 1.1181450000000004 1.8498100000000002e-05
decision_type=2 2 2 2 2 2 2 2 2 2 2 2 2 2
left_child=-1 3 -3 4 5 8 7 -7 9 11 -11 -2 13 -12
right_child=1 2 -4 -5 -6 6 -8 -9 -10 10 12 -13 -14 -15
leaf_value=-3.6096271352501837e-05 -0.017786866544450344 -0.00035648198057449022 -0.0052275822753358623 0.00019799821990033707 -0.00024878569190257713 -0.014400059904966673 -0.033540132916532454 0.0070098429098725311 -0.0046423387456533691 0.026337931700982153 -0.018927731121657417 0.0045983488380443305 0.0098523059799786542 0.00039586820977649865
leaf_weight=160783 26 1699 288 52049 2337 22 20 25 258 24 20 20 31 31
leaf_count=160783 26 1699 288 52049 2337 22 20 25 258 24 20 20 31 31
internal_value=0 0.000102087 -0.00106251 0.000144266 -0.000849586 -0.00379313 -0.0121247 -0.00301181 -0.00243162 0.00132077 0.00538914 -0.00805416 -0.00074221 -0.00718201
internal_weight=0 56850 1987 54863 2814 477 67 47 410 152 106 46 82 51
internal_count=217633 56850 1987 54863 2814 477 67 47 410 152 106 46 82 51
shrinkage=0.15


Tree=454
num_leaves=15
num_cat=0
split_feature=34 15 35 35 3 15 11 20 0 23 28 23 33 16
split_gain=0.0332161 0.120406 0.584634 0.449377 0.524886 0.505488 0.780486 1.15484 0.805256 1.85181 1.40769 1.04195 0.934265 1.33895
threshold=0.18398 5.9277300000000005e-08 0.00044025400000000006 -0.0027471449999999999 -7.3111649999999999 -2.1304699999999996e-05 4.490750000000001e-05 3.6989550000000002 5.3268800000000009 -13.505549999999998 0.084788200000000008 -8.732154999999997 -9.0968849999999982e-06 -4.5891699999999995e-07
decision_type=2 2 2 2 2 2 2 2 2 2 2 2 2 2
left_child=-1 3 -3 4 5 -2 -7 -8 12 -10 11 -11 13 -9
right_child=1 2 -4 -5 -6 6 7 8 9 10 -12 -13 -14 -15
leaf_value=-3.6406068091360367e-05 2.5747542828404404e-05 -0.00089234996717383632 0.00055856959400639612 -0.00022619286424119649 -0.00019701717089344595 0.0015627219473578187 0.0021392071478176684 0.041384617237867238 -0.0045911866974266656 0.045114649688520546 -0.0028919476210527745 0.015086521159929152 -0.0014304945457687219 0.0015514028154050951
leaf_weight=157027 3353 12346 12652 19019 6592 5549 680 34 54 78 27 39 140 43
leaf_count=157027 3353 12346 12652 19019 6592 5549 680 34 54 78 27 39 140 43
internal_value=0 9.43262e-05 -0.00015801 0.000271475 0.000842042 0.00152719 0.00228492 0.00594474 0.0121803 0.0190975 0.0279808 0.0351053 0.00586875 0.0191401
internal_weight=0 60606 24998 35608 16589 9997 6644 1095 415 198 144 117 217 77
internal_count=217633 60606 24998 35608 16589 9997 6644 1095 415 198 144 117 217 77
shrinkage=0.15


Tree=455
num_leaves=15
num_cat=0
split_feature=32 1 12 22 2 19 19 23 16 1 36 24 1 4
split_gain=0.0365926 0.398787 0.271685 0.330321 0.335524 0.438994 0.433589 0.309983 0.31149 1.23978 0.658228 0.515905 0.719741 0.463509
threshold=-0.28622449999999994 -5.354544999999999 9.4804350000000007e-05 0.55088050000000011 0.59053450000000007 0.00034012450000000003 5.8236700000000004e-05 -8.4265199999999982 5.6579350000000019e-07 9.2129300000000018 0.022400650000000005 0.57845200000000008 11.601600000000003 -0.21023149999999999
decision_type=2 2 2 2 2 2 2 2 2 2 2 2 2 2
left_child=1 -1 7 4 6 -6 -4 -3 13 -10 -11 12 -12 -9
right_child=-2 2 3 -5 5 -7 -8 8 9 10 11 -13 -14 -15
leaf_value=0.00080287665788763424 2.314771554527233e-05 -0.0013282767109770452 0.022630162482149899 0.00065420374790165858 -0.0089661978352462736 -0.0011085891113221716 -1.1707139714189906e-06 0.004827890061365042 0.00087659182097772268 0.00074312737051513973 0.055092453316825885 0.0078352346050087358 0.016184832010476383 -0.0014752066041920184
leaf_weight=7087 190633 9825 25 5955 238 488 80 303 942 30 23 20 20 1964
leaf_count=7087 190633 9825 25 5955 238 488 80 303 942 30 23 20 20 1964
internal_value=0 -0.000163434 -0.000507342 0.000263262 -0.00253825 -0.0036845 0.00538724 -0.000905706 0.00035164 0.0025078 0.0190303 0.0277385 0.0369959 -0.000632755
internal_weight=0 27000 19913 6786 831 726 105 13127 3302 1035 93 63 43 2267
internal_count=217633 27000 19913 6786 831 726 105 13127 3302 1035 93 63 43 2267
shrinkage=0.15


Tree=456
num_leaves=15
num_cat=0
split_feature=2 20 22 3 1 23 18 13 22 10 34 5 13 19
split_gain=0.0378753 0.174955 0.228742 0.558851 0.520118 0.42799 0.235131 0.349451 0.195827 0.360802 0.200804 0.143054 0.146108 0.134723
threshold=-2.8476049999999993 -7.9667699999999995 -2.8036449999999995 -9.9127699999999983 -1.5816049999999997 -8.6604299999999981 1.9944500000000002e-05 3.4251500000000009e-05 -1.6187749999999999 2.7865550000000006e-05 0.12226950000000002 6.5625250000000012e-06 7.7441400000000021e-06 0.00024499400000000006
decision_type=2 2 2 2 2 2 2 2 2 2 2 2 2 2
left_child=1 11 3 4 -3 -5 -6 -8 9 10 -4 -1 -13 -11
right_child=-2 2 8 5 6 -7 7 -9 -10 13 -12 12 -14 -15
leaf_value=0.010642671168104492 -1.2717106363109332e-05 0.027316879836673084 -0.0057312270277179783 -0.0049494351208987418 0.010948551376350224 0.01802531466819346 -0.015458378531848607 0.0099239567178301506 0.00077613758665691552 -0.0017640724521644649 -0.0255615466972813 -0.0041266407048327642 -0.00050537485319973358 0.0017030970074828971
leaf_weight=22 209001 33 27 139 89 21 23 26 5778 889 20 354 859 352
leaf_count=22 209001 33 27 139 89 21 23 26 5778 889 20 354 859 352
internal_value=0 0.000307911 0.000583844 0.00443782 0.0103998 -0.001934 0.00635436 -0.0019902 0.000403309 -0.00126921 -0.0141697 -0.00134478 -0.0015622 -0.000780637
internal_weight=0 8632 7397 331 171 160 138 49 7066 1288 47 1235 1213 1241
internal_count=217633 8632 7397 331 171 160 138 49 7066 1288 47 1235 1213 1241
shrinkage=0.15


Tree=457
num_leaves=15
num_cat=0
split_feature=14 34 7 32 3 11 23 20 11 23 11 11 3 0
split_gain=0.0351595 0.202338 0.192896 0.194154 0.222399 0.148646 0.119307 0.0912263 0.561682 0.207219 0.155375 0.148989 0.158382 0.124343
threshold=6.7528100000000015e-05 0.0048231700000000008 5.4033050000000006e-05 0.029364900000000003 -5.4935999999999989 -1.7047349999999995e-05 -16.670499999999997 9.8638550000000009 1.3649300000000002e-05 -6.6111549999999992 1.1575600000000001e-05 1.3255300000000002e-05 -6.1920449999999994 10.429750000000002
decision_type=2 2 2 2 2 2 2 2 2 2 2 2 2 2
left_child=1 2 3 5 -5 -1 -3 11 10 -10 -9 -7 13 -13
right_child=-2 6 -4 4 -6 7 -8 8 9 -11 -12 12 -14 -15
leaf_value=-0.010626814241674387 -2.2562144251578579e-05 -0.00067884516101261012 0.00073425743997649012 -0.022466911082632247 -0.0017881057849153874 -0.0015207729455827244 0.00041419409919323533 -0.0002873703804715629 0.028231471180915832 0.0066387905599549412 -0.011437096906593069 -0.0018853114163539428 -0.0009964455576846375 -0.015962652610323858
leaf_weight=41 190899 2509 898 22 25 1307 21505 232 20 20 32 20 55 48
leaf_count=41 190899 2509 898 22 25 1307 21505 232 20 20 32 20 55 48
internal_value=0 0.000161109 -0.00106505 -0.00195186 -0.0114675 -0.0016999 0.000299993 -0.00148882 0.000870882 0.0174351 -0.00163885 -0.00199047 -0.00698145 -0.0118223
internal_weight=0 26734 2720 1822 47 1775 24014 1734 304 40 264 1430 123 68
internal_count=217633 26734 2720 1822 47 1775 24014 1734 304 40 264 1430 123 68
shrinkage=0.15


Tree=458
num_leaves=15
num_cat=0
split_feature=5 28 37 37 19 7 32 22 6 21 34 4 37 6
split_gain=0.03517 0.0703986 0.111011 0.235483 0.162053 0.0962469 0.0765081 0.124012 0.0717259 0.0711124 0.245773 0.109494 0.0741479 0.0706572
threshold=6.9938750000000009e-06 -0.0055929999999999999 7.5771800000000014e-07 3.4348600000000006e-07 0.0011985000000000001 2.0288750000000001e-05 0.023186050000000003 -2.8036449999999995 1.3958400000000003e-06 -3.2639049999999998 0.28095700000000007 0.15990500000000005 -2.7016799999999995e-08 -1.7287849999999999e-06
decision_type=2 2 2 2 2 2 2 2 2 2 2 2 2 2
left_child=1 2 3 9 5 -4 13 -8 -9 11 -11 -1 -13 -3
right_child=-2 6 4 -5 -6 -7 7 8 -10 10 -12 12 -14 -15
leaf_value=0.0027466596727262023 -5.4024138184814401e-06 -0.0030398663053150614 -0.0042791825530002821 0.015413306760670178 -0.013644683899890098 0.0046994965786608623 -0.011811009901154241 0.0003404680102277303 -0.0091504408728464368 0.016272653298801742 -0.0013641286419897368 -0.0089578715976261127 0.0024912746032350695 0.00095852022491305111
leaf_weight=204 215900 111 48 34 21 61 29 122 21 32 40 35 20 955
leaf_count=204 215900 111 48 34 21 61 29 122 21 32 40 35 20 955
internal_value=0 0.000673042 0.00218497 0.00352556 -0.001579 0.000745583 6.85139e-05 -0.0028671 -0.0010533 0.00230447 0.00647444 0.00114525 -0.00479455 0.000542178
internal_weight=0 1733 495 365 130 109 1238 172 143 331 72 259 55 1066
internal_count=217633 1733 495 365 130 109 1238 172 143 331 72 259 55 1066
shrinkage=0.15


Tree=459
num_leaves=15
num_cat=0
split_feature=15 35 3 15 37 10 36 36 15 28 9 39 15 11
split_gain=0.0336198 0.192009 0.337031 0.524379 0.548312 0.454026 0.502919 0.478467 0.345526 0.677281 0.229123 0.170961 0.265404 0.207633
threshold=5.696315000000001e-06 0.14023400000000003 -11.455299999999998 0.00013207700000000003 -6.3301599999999984e-05 3.7079900000000004e-05 0.020248750000000003 -0.17109449999999995 7.9583250000000014e-06 -0.055867649999999991 4.0050800000000006e-05 0.0047808350000000015 4.9895200000000003e-05 -0.00011516099999999998
decision_type=2 2 2 2 2 2 2 2 2 2 2 2 2 2
left_child=-1 11 3 4 -3 -6 7 -7 9 -4 -8 -2 13 -13
right_child=1 2 8 -5 5 6 10 -9 -10 -11 -12 12 -14 -15
leaf_value=-2.8234206768180832e-05 0.00013615575165846109 0.028494475559434955 0.025975647684059695 -0.001503743303226091 0.0029242876285157987 0.011225979988971216 0.018456136775203049 0.042509869246912947 -0.00067840983700053316 -0.0027403937292287341 -0.0014711135211778249 -0.0082093252090151957 0.00024706859893110678 -0.002111521342395502
leaf_weight=177031 36637 27 33 206 253 22 20 22 956 42 37 146 1300 901
leaf_count=177031 36637 27 33 206 253 22 20 22 956 42 37 146 1300 901
internal_value=0 0.000123106 0.00172426 0.00459336 0.00788996 0.00631843 0.0148206 0.0268679 9.07275e-05 0.00989466 0.0055209 5.66511e-05 -0.00118443 -0.00296184
internal_weight=0 40602 1618 587 381 354 101 44 1031 75 57 38984 2347 1047
internal_count=217633 40602 1618 587 381 354 101 44 1031 75 57 38984 2347 1047
shrinkage=0.15


Tree=460
num_leaves=15
num_cat=0
split_feature=22 6 14 5 12 12 2 37 21 0 2 29 0 20
split_gain=0.0338132 0.0559874 0.0724686 0.0686487 0.0524845 0.0596376 0.05155 0.0851185 0.05632 0.0406483 0.034129 0.0908638 0.0986102 0.138078
threshold=-3.0952799999999994 6.1107950000000011e-08 0.0090203400000000017 8.1383150000000024e-06 -5.8883399999999993e-05 -4.8176099999999994e-05 -2.7973349999999995 -5.4757149999999993e-08 -0.59612299999999985 4.561020000000001 -2.9487299999999999 0.0095951050000000013 -6.1586299999999996 -5.6544449999999999
decision_type=2 2 2 2 2 2 2 2 2 2 2 2 2 2
left_child=1 2 3 -1 -3 -6 7 8 -5 -8 11 -2 -13 -14
right_child=10 4 -4 6 5 -7 9 -9 -10 -11 -12 12 13 -15
leaf_value=0.0092071692689205519 0.00071632145434010624 0.001565841171564287 -0.0011720775191361599 0.007157529857729307 -0.0090482664065348207 -0.0007138144126050904 0.0031713349049276997 -0.0094693469177202696 -0.0035755984823812137 0.00055435255078681333 -1.4595083106466013e-05 -0.0001678425687165351 0.00098325991796777601 -0.0071333504095748177
leaf_weight=30 3980 259 182 22 20 566 406 23 22 199 210774 954 79 117
leaf_count=30 3980 259 182 22 20 566 406 23 22 199 210774 954 79 117
internal_value=0 0.000660701 0.00149523 0.00218675 -0.000212345 -0.000998267 0.00187334 -0.00207451 0.00179097 0.00231054 -5.29101e-06 0.000376981 -0.000797432 -0.00386186
internal_weight=0 1729 884 702 845 586 672 67 44 605 215904 5130 1150 196
internal_count=217633 1729 884 702 845 586 672 67 44 605 215904 5130 1150 196
shrinkage=0.15


Tree=461
num_leaves=15
num_cat=0
split_feature=34 3 23 3 23 4 26 4 13 9 3 33 3 14
split_gain=0.0345119 0.115487 0.206268 0.599576 0.416514 0.244189 0.409231 0.468619 0.291946 0.254723 0.229566 0.228431 0.273387 0.203758
threshold=0.18398 -16.266399999999997 -16.042949999999994 -16.413199999999996 -13.606149999999998 -0.23643249999999996 -5.3154599999999994e-05 -0.1239135 -5.8507799999999996e-05 1.6662500000000002e-05 -17.304849999999998 2.4362700000000003e-05 -17.495099999999997 0.0078268300000000016
decision_type=2 2 2 2 2 2 2 2 2 2 2 2 2 2
left_child=1 2 3 5 13 -1 8 -8 -7 10 -9 12 -10 -4
right_child=-2 -3 4 -5 -6 6 7 9 11 -11 -12 -13 -14 -15
leaf_value=-0.0032154777721748709 9.6148540609309206e-05 -6.6586791658391621e-05 -0.0071470206672056358 0.021783156308198444 0.00065993195423626942 0.027729632477608644 0.018382229463642704 -0.0093104841453168774 0.0027245893429998038 -0.016395725814436445 0.0082676926950391912 -0.0040391854271292684 0.023685778590152039 -0.0012096213603272714
leaf_weight=130 60606 149193 223 38 6907 21 23 32 28 32 35 25 28 312
leaf_count=130 60606 149193 223 38 6907 21 23 32 28 32 35 25 28 312
internal_value=0 -3.71094e-05 0.000524267 0.00387791 0.000347617 0.00195588 0.00495712 -0.000905231 0.011969 -0.00538616 -0.000127854 0.00788285 0.0132052 -0.00368446
internal_weight=0 157027 7834 392 7442 354 224 122 102 99 67 81 56 535
internal_count=217633 157027 7834 392 7442 354 224 122 102 99 67 81 56 535
shrinkage=0.15


Tree=462
num_leaves=15
num_cat=0
split_feature=27 11 13 14 16 19 16 19 16 16 10 5 36 16
split_gain=0.0338768 0.0855707 0.145985 0.100452 0.101817 0.301995 0.214238 0.154338 0.0819609 0.146404 0.0897689 0.103454 0.0744298 0.278242
threshold=92.277850000000015 -0.00035091199999999994 0.00035714950000000008 0.0014449400000000002 6.5260250000000008e-06 0.00017300500000000003 3.3113700000000002e-06 0.00077699300000000013 -0.00012965099999999997 -3.4981299999999996e-06 1.3168550000000003e-05 9.5453100000000006e-06 0.60859850000000015 3.3113700000000002e-06
decision_type=2 2 2 2 2 2 2 2 2 2 2 2 2 2
left_child=12 2 -2 4 6 -6 -3 -7 -5 -10 -11 -12 -1 -14
right_child=1 3 -4 8 5 7 -8 -9 9 10 11 -13 13 -15
leaf_value=-5.0150889644104932e-06 0.011936287267235456 8.7020309553313514e-05 -0.00098851014935301927 0.0017931108155184922 0.021073540443576348 -0.0099910131318293599 -0.012242418226378502 0.0082154677878861545 -0.0075278678343307856 -0.0086989228251843232 0.0078151431915882436 -0.0017132379776668178 -7.8291948641750724e-05 0.0034057847142462557
leaf_weight=213269 32 811 51 86 20 22 33 20 131 37 28 304 2106 683
leaf_count=213269 32 811 51 86 20 22 33 20 131 37 28 304 2106 683
internal_value=0 -0.000693146 0.00399454 -0.000953922 3.59289e-05 0.00590287 -0.000395055 -0.00132126 -0.00248431 -0.00322002 -0.00169068 -0.00090964 5.05283e-06 0.000774926
internal_weight=0 1575 83 1492 906 62 844 42 586 500 369 332 216058 2789
internal_count=217633 1575 83 1492 906 62 844 42 586 500 369 332 216058 2789
shrinkage=0.15


Tree=463
num_leaves=15
num_cat=0
split_feature=3 23 3 3 1 21 1 21 21 1 21 21 16 17
split_gain=0.0330586 0.26799 0.247138 0.328971 0.46527 0.403381 0.323437 2.88552 0.411482 0.348611 2.77469 1.03598 0.499902 0.499276
threshold=-6.6023349999999992 -6.3165649999999989 -5.8866849999999991 -6.2768299999999995 -10.684749999999998 -10.353899999999998 12.309050000000001 11.881850000000002 12.832950000000002 -8.6249899999999986 -7.4937049999999994 -8.0551499999999994 -3.1379349999999994e-07 6.0555850000000007e-09
decision_type=2 2 2 2 2 2 2 2 2 2 2 2 2 2
left_child=-1 -2 3 4 5 -3 8 -8 9 10 13 12 -11 -5
right_child=1 2 -4 6 -6 -7 7 -9 -10 11 -12 -13 -14 -15
leaf_value=-3.6893695228148977e-05 0.00017267651923990443 -0.023911874033510683 -0.00014316911191371141 -0.0092483396292664111 0.0020448878444709719 -0.0025491194084032156 -0.018497907266786427 0.036303972795202928 -0.016594366050346501 -0.0021892524069037542 -0.020395117949010454 -0.0027556446680641329 -0.023590338434951261 0.01618370507891417
leaf_weight=155646 58157 30 2306 20 487 59 52 37 66 33 90 422 96 132
leaf_count=155646 58157 30 2306 20 487 59 52 37 66 33 90 422 96 132
internal_value=0 9.26381e-05 -0.00112271 -0.00260488 0.000222406 -0.00975005 -0.00432273 0.0042849 -0.00521456 -0.00426744 0.000478189 -0.00635172 -0.0181156 0.0128374
internal_weight=0 61987 3830 1524 576 89 948 89 859 793 242 551 129 152
internal_count=217633 61987 3830 1524 576 89 948 89 859 793 242 551 129 152
shrinkage=0.15


Tree=464
num_leaves=15
num_cat=0
split_feature=7 27 9 28 14 12 23 13 27 24 7 26 21 8
split_gain=0.0302931 0.0759836 0.141163 0.145709 0.113569 0.166041 0.129086 0.0763891 0.0817734 0.0795457 0.0739958 0.0722898 0.146581 0.326609
threshold=2.1244100000000002e-05 0.15047600000000003 1.1995900000000003e-05 -0.0045370499999999991 0.00029851800000000006 0.00012553750000000004 -9.2454099999999979 -4.0504349999999993e-06 0.13834450000000001 0.086797500000000014 1.3854350000000002e-05 5.7744300000000009e-05 -8.4323949999999979 1.0911400000000002e-05
decision_type=2 2 2 2 2 2 2 2 2 2 2 2 2 2
left_child=1 2 3 -1 6 7 -5 8 -6 -9 -8 -3 13 -13
right_child=-2 11 -4 4 5 -7 10 9 -10 -11 -12 12 -14 -15
leaf_value=0.013964987660001498 -7.9499295603897618e-06 -0.00035236322152485078 0.012400127299915766 -0.00085894425357637804 0.008687270286359957 0.0088092670089099552 0.017429246950778177 -0.002983377927645321 -0.0042591643884130146 -0.011918185354161616 0.005391451612942748 0.0027361195961175862 0.00045619384533083932 0.02300094338483177
leaf_weight=20 213328 2231 30 43 21 30 20 81 23 31 27 170 1558 20
leaf_count=20 213328 2231 30 43 21 30 20 81 23 31 27 170 1558 20
internal_value=0 0.000393947 0.00259557 0.00160186 0.000705986 -0.00141058 0.00508022 -0.00337593 0.00191982 -0.0054564 0.0105139 0.000213568 0.000935875 0.00486926
internal_weight=0 4305 326 296 276 186 90 156 44 112 47 3979 1748 190
internal_count=217633 4305 326 296 276 186 90 156 44 112 47 3979 1748 190
shrinkage=0.15


Tree=465
num_leaves=15
num_cat=0
split_feature=4 26 24 16 19 37 24 14 30 34 32 1 34 32
split_gain=0.030585 0.108247 0.130292 0.121365 0.105419 0.484551 0.2156 0.245233 0.163895 0.396315 0.245368 0.592092 0.22512 0.151977
threshold=0.61528200000000022 4.5446500000000006e-05 2.2465350000000002 -1.3219499999999998e-05 5.4017350000000006e-05 -7.6051899999999996e-07 0.39503000000000005 0.0015296250000000004 0.011010900000000002 1.1817050000000002 -0.67870449999999993 3.7283150000000007 2.3649150000000003 -0.41342199999999996
decision_type=2 2 2 2 2 2 2 2 2 2 2 2 2 2
left_child=-1 4 -3 -4 5 6 -2 -8 10 -10 11 -7 -11 -12
right_child=1 2 3 -5 -6 8 7 -9 9 12 13 -13 -14 -15
leaf_value=-2.8376706903974505e-05 -0.0007286318658289555 0.00036517504248832273 0.0010940129913381367 -0.014110283871802191 -2.7472092081752692e-05 -0.0068186816193961672 -0.0050817067112604326 -0.018789567914652815 -0.022961840719290194 0.0081958980672061435 -0.0093049876391887668 0.028394004720559508 -0.0067661818914984901 -3.3028081521389048e-05
leaf_weight=173460 51 21870 21 27 20547 21 55 63 24 35 41 22 64 1332
leaf_count=173460 51 21870 21 27 20547 21 55 63 24 35 41 22 64 1332
internal_value=0 0.000111431 0.000348042 -0.0074584 -0.000121597 -0.00125391 -0.00887809 -0.0124003 -0.00041669 -0.00566881 3.95324e-05 0.0111971 -0.00147656 -0.000309904
internal_weight=0 44173 21918 48 22255 1708 169 118 1539 123 1416 43 99 1373
internal_count=217633 44173 21918 48 22255 1708 169 118 1539 123 1416 43 99 1373
shrinkage=0.15


Tree=466
num_leaves=15
num_cat=0
split_feature=19 3 23 23 23 3 13 2 22 22 4 27 18 32
split_gain=0.0295661 0.042381 0.773872 2.10711 1.40187 4.41536 1.49883 1.24139 2.62102 1.73487 1.49635 1.40997 1.92697 1.55134
threshold=0.070112250000000015 -13.239749999999999 -13.010249999999997 -9.9145799999999991 -15.570249999999998 -15.512049999999999 9.8553700000000012e-05 -2.6817999999999995 -2.6579249999999996 -2.6579249999999996 0.67000000000000015 1.8023950000000004 -0.00032932599999999996 0.10882500000000002
decision_type=2 2 2 2 2 2 2 2 2 2 2 2 2 2
left_child=1 2 4 -4 -1 -6 7 9 -9 -7 11 12 -10 -14
right_child=-2 -3 3 -5 5 6 -8 8 10 -11 -12 -13 13 -15
leaf_value=-0.0003961381306634064 -0.00026257658019648899 -1.6608774341920121e-05 -0.0026506958931803112 0.00060784602900128607 -0.0027601831505289364 0.018892032005824146 0.00068355139796272225 -0.011645481844567944 -0.0041649408479018969 -0.015565185996592845 0.00041976119882574883 0.0040637998937456763 0.015004574039143938 0.028870821946320381
leaf_weight=4624 9239 177446 6169 16165 1568 50 564 111 95 96 211 262 798 235
leaf_count=4624 9239 177446 6169 16165 1568 50 564 111 95 96 211 262 798 235
internal_value=0 1.16411e-05 0.000173617 -0.000292214 0.0013814 0.00344139 0.00745629 0.00951217 0.0106444 -0.00376477 0.0121898 0.0139765 0.0162789 0.018159
internal_weight=0 208394 30948 22334 8614 3990 2422 1858 1712 146 1601 1390 1128 1033
internal_count=217633 208394 30948 22334 8614 3990 2422 1858 1712 146 1601 1390 1128 1033
shrinkage=0.15


Tree=467
num_leaves=15
num_cat=0
split_feature=34 7 11 7 29 11 24 29 13 37 27 26 17 8
split_gain=0.0320141 0.111055 0.14898 0.340138 0.23448 0.189549 0.393481 0.590435 0.169713 0.192791 0.140764 0.13715 0.159132 0.134065
threshold=1.1817050000000002 3.2861500000000011e-05 -6.4919299999999987e-05 2.6525600000000002e-05 0.24089200000000002 -4.4583899999999992e-05 0.86178750000000004 0.078891300000000011 -1.5810849999999994e-05 0.00019757500000000005 6.3687200000000006 -0.00033969749999999992 5.1709450000000016e-07 6.0213500000000004e-06
decision_type=2 2 2 2 2 2 2 2 2 2 2 2 2 2
left_child=-1 2 3 4 10 6 11 -8 -5 -10 -2 -4 13 -13
right_child=1 -3 5 8 -6 -7 7 -9 9 -11 -12 12 -14 -15
leaf_value=-1.8293868753194575e-05 -0.01275594897010235 -2.8313658852349493e-05 -0.007396573135296681 0.01116977139841765 -0.020283045999390344 0.00083545816075444846 0.0010354693455155938 0.028395786186946288 -0.0015195158305895673 0.012688424787484109 0.00076696756444763123 0.018897268871660346 -0.0020637637476765497 0.0021416050889952617
leaf_weight=197648 29 14802 35 30 31 4500 36 35 327 23 43 21 51 22
leaf_count=197648 29 14802 35 30 31 4500 36 35 327 23 43 21 51 22
internal_value=0 0.000180923 0.000778477 -0.00173017 -0.0093759 0.00103628 0.00555478 0.0145229 0.000342224 -0.000585851 -0.00467976 0.000618806 0.00360326 0.0103246
internal_weight=0 19985 5183 483 103 4700 200 71 380 350 72 129 94 43
internal_count=217633 19985 5183 483 103 4700 200 71 380 350 72 129 94 43
shrinkage=0.15


Tree=468
num_leaves=15
num_cat=0
split_feature=3 24 9 22 2 23 23 23 3 20 14 12 22 22
split_gain=0.036818 0.188088 0.295003 0.459852 0.616995 0.239561 0.460673 0.579101 0.715393 0.476525 0.568297 0.765058 2.63036 0.616062
threshold=-15.739199999999999 1.2344650000000004 5.1584800000000008e-05 -1.1581899999999998 -1.2072549999999997 -10.670499999999999 -15.570249999999998 -17.487949999999994 -17.304849999999998 -4.5622399999999983 0.043654400000000003 -0.00032485249999999994 -0.45400599999999997 -1.1581899999999998
decision_type=2 2 2 2 2 2 2 2 2 2 2 2 2 2
left_child=1 5 3 4 -3 6 7 -1 -9 -10 11 12 -11 -13
right_child=-2 2 -4 -5 -6 -7 -8 8 9 10 -12 13 -14 -15
leaf_value=-0.0011468134185509914 -1.6553541696116801e-05 0.03114693908361145 0.021491411941990789 -0.001995621873546675 0.00064157182350754738 0.00067367710811620427 -0.0016255131653212685 -0.0015572924465274696 -0.0057032387812908448 0.044682449315275465 -0.0016833554809385658 -0.0016911925583639564 -0.012949969090238612 0.010988234328183221
leaf_weight=1217 203018 26 21 138 35 8491 3613 384 65 49 116 119 28 313
leaf_count=1217 203018 26 21 138 35 8491 3613 384 65 49 116 119 28 313
internal_value=0 0.000229946 0.00458272 0.00279839 0.0136439 0.000163423 -0.000570414 0.00109352 0.00363215 0.00652018 0.00779142 0.0099507 0.0237252 0.00749552
internal_weight=0 14615 220 199 61 14395 5904 2291 1074 690 625 509 77 432
internal_count=217633 14615 220 199 61 14395 5904 2291 1074 690 625 509 77 432
shrinkage=0.15


Tree=469
num_leaves=15
num_cat=0
split_feature=4 38 18 25 19 33 28 12 4 26 12 18 32 23
split_gain=0.0335965 0.123479 0.129889 0.166862 0.134022 0.176536 0.107658 0.153896 0.628654 0.610986 1.31131 0.547543 0.563019 0.916256
threshold=-0.48541799999999996 -3.3935949999999991e-05 -0.00060569649999999992 3.6413250000000006 5.8236700000000004e-05 1.1541700000000002e-05 0.028828300000000005 0.00010329600000000001 -1.3153099999999998 0.0025920500000000007 1.6112050000000004e-05 -0.00022632149999999996 -0.49850399999999995 -13.08405
decision_type=2 2 2 2 2 2 2 2 2 2 2 2 2 2
left_child=1 2 -1 -4 5 -5 -3 8 -8 -10 -11 -9 13 -13
right_child=-2 6 3 4 -6 -7 7 11 9 10 -12 12 -14 -15
leaf_value=0.00012059678833637178 -3.0780237671021e-05 -9.3366675279945009e-06 0.0012185454855223202 -0.0042197236636930431 0.0005361723016764937 0.0035269155385860896 -4.9101942873154264e-05 -0.00074156578337816086 -0.0095205327086371142 -0.0099660161367501124 0.025645398047115457 -0.0054878995465797139 -0.011916968476725742 0.027462374319068412
leaf_weight=15060 170992 21843 5938 362 694 81 1115 987 359 60 38 29 20 55
leaf_count=15060 170992 21843 5938 362 694 81 1115 987 359 60 38 29 20 55
internal_value=0 0.000112844 0.000369648 0.000899783 -0.000764957 -0.0028033 -0.000119113 -0.00101954 -0.0019695 -0.00665494 0.00384249 0.000349236 0.0107014 0.0160867
internal_weight=0 46641 22135 7075 1137 443 24506 2663 1572 457 98 1091 104 84
internal_count=217633 46641 22135 7075 1137 443 24506 2663 1572 457 98 1091 104 84
shrinkage=0.15


Tree=470
num_leaves=15
num_cat=0
split_feature=4 26 18 38 10 1 32 38 12 37 4 9 12 15
split_gain=0.0338896 0.0801883 0.0996991 0.4489 0.882644 0.764527 0.222348 0.194822 0.270471 0.0953031 0.390499 0.464162 0.317221 0.202379
threshold=0.61528200000000022 4.5446500000000006e-05 0.00034490750000000004 -0.025815449999999997 3.2651150000000007e-05 5.2820750000000007 -2.1047449999999994 -0.0030026649999999994 4.7377000000000011e-05 3.6249250000000003e-06 1.1140750000000001 -2.9822299999999997e-05 0.00029028150000000004 6.3330950000000009e-06
decision_type=2 2 2 2 2 2 2 2 2 2 2 2 2 2
left_child=-1 9 3 4 5 -3 -6 8 -5 -2 11 -11 13 -13
right_child=1 2 -4 7 6 -7 -8 -9 -10 10 -12 12 -14 -15
leaf_value=-2.9870388156882182e-05 -3.4589623056686438e-06 0.0052176915508295807 0.00016585111915751465 0.0015648619437482782 -0.0079754575370595999 0.044040489748120304 0.009201250348705798 0.00085955899620006088 -0.016738928936641004 0.0078488479200481947 -0.00017981358231689118 -0.016136710840025142 0.0076830074004828929 -0.0050891319118244087
leaf_weight=173460 20875 21 17747 39 39 25 30 3983 34 39 1156 108 20 57
leaf_count=173460 20875 21 17747 39 39 25 30 3983 34 39 1156 108 20 57
internal_value=0 0.000117296 0.000320945 0.000980846 0.0102224 0.026317 -0.000507324 0.000718819 -0.00696019 -8.32689e-05 -0.00129054 -0.00702268 -0.0101578 -0.0123203
internal_weight=0 44173 21918 4171 115 46 69 4056 73 22255 1380 224 185 165
internal_count=217633 44173 21918 4171 115 46 69 4056 73 22255 1380 224 185 165
shrinkage=0.15


Tree=471
num_leaves=15
num_cat=0
split_feature=31 8 19 19 3 23 14 20 21 14 37 12 11 7
split_gain=0.0346784 0.145615 0.338611 0.324909 0.215336 0.227065 0.297017 0.173263 0.165291 0.313054 0.150798 0.235518 0.187603 0.209282
threshold=0.14747150000000003 5.8282650000000015e-06 4.6876450000000007e-08 0.00047125900000000008 -8.6591799999999974 -17.603099999999994 0.0056714500000000006 -7.0998299999999999 18.392150000000004 0.00013542600000000004 3.2244200000000008e-07 -0.00011808099999999998 -2.7337399999999997e-05 2.7467950000000002e-05
decision_type=2 2 2 2 2 2 2 2 2 2 2 2 2 2
left_child=-1 2 -2 4 5 6 -4 -7 -6 -10 11 -9 13 -12
right_child=1 -3 3 -5 8 7 -8 10 9 -11 12 -13 -14 -15
leaf_value=-2.8255107894668294e-05 0.0012083772085632355 0.00046659506046005888 0.0030214266358114476 0.00021615826781901278 -0.00054301585321559279 -0.00084251993356764183 -0.0057486435967787023 0.010842144687194378 0.020372125058929668 -0.0041173765941968435 -0.022827107595208951 -0.0026271234695748004 -0.0037568165753911406 -0.0073559520920218127
leaf_weight=177997 3654 16542 376 10234 5878 934 113 30 24 23 23 1108 561 136
leaf_count=177997 3654 16542 376 10234 5878 934 113 30 24 23 23 1108 561 136
internal_value=0 0.000126888 -0.000116441 -0.000365458 -0.00101202 -0.00198691 0.000994805 -0.00250914 -0.000472171 0.0083879 -0.00334693 -0.00227205 -0.00504584 -0.00959392
internal_weight=0 39636 23094 19440 9206 3281 489 2792 5925 47 1858 1138 720 159
internal_count=217633 39636 23094 19440 9206 3281 489 2792 5925 47 1858 1138 720 159
shrinkage=0.15


Tree=472
num_leaves=15
num_cat=0
split_feature=3 37 17 17 23 17 16 6 23 23 23 14 2 23
split_gain=0.0340156 0.140243 0.232055 0.331199 0.324163 0.280317 0.271156 0.212034 0.178037 0.620059 0.194559 0.185071 0.435135 0.191605
threshold=-16.559399999999997 -4.0691899999999991e-07 -6.5767799999999986e-08 2.2042900000000004e-06 -13.606149999999998 7.0296950000000015e-08 -3.3711749999999992e-07 -3.1083249999999988e-08 -16.670499999999997 -16.783199999999997 -12.940099999999997 0.0031052900000000006 -0.29067049999999994 -18.575849999999999
decision_type=2 2 2 2 2 2 2 2 2 2 2 2 2 2
left_child=1 2 -1 4 5 7 -7 -4 9 11 -10 12 -3 -13
right_child=-2 8 3 -5 -6 6 -8 -9 10 -11 -12 13 -14 -15
leaf_value=0.0019469511933505876 -1.2643676799949298e-05 -0.023266606451943516 -0.0067448977720645908 -0.0002628899309982907 -0.00040601470389126061 -0.0054275700993197725 -0.019002094709624846 0.0091609074108419015 -0.0016862067051311728 0.025081407904508524 0.00062566349018591371 -0.00054965680051282111 0.0055227595484919016 0.0046752513124041417
leaf_weight=451 208170 21 88 812 170 56 81 24 946 27 6103 264 27 393
leaf_count=451 208170 21 88 812 170 56 81 24 946 27 6103 264 27 393
internal_value=0 0.000278139 -0.000963863 -0.00203029 -0.00545543 -0.00890282 -0.0134534 -0.00333651 0.00054662 0.00277319 0.000315403 0.00191884 -0.00707259 0.00257574
internal_weight=0 9463 1682 1231 419 249 137 112 7781 732 7049 705 48 657
internal_count=217633 9463 1682 1231 419 249 137 112 7781 732 7049 705 48 657
shrinkage=0.15


Tree=473
num_leaves=15
num_cat=0
split_feature=12 28 1 23 14 3 23 23 9 14 23 3 14 14
split_gain=0.0328604 0.273344 0.270891 0.682183 0.567879 0.749061 0.559547 0.431857 0.29245 0.236623 0.19052 1.08687 0.432796 0.408943
threshold=-3.0825149999999994e-05 0.0020348000000000002 -3.7755899999999998 -9.7994249999999976 0.011296750000000001 -9.9601599999999983 -18.039999999999996 -10.860199999999997 -3.7350599999999994e-05 0.00068334050000000012 -13.957949999999999 -13.158849999999999 0.031566150000000008 0.0015765250000000003
decision_type=2 2 2 2 2 2 2 2 2 2 2 2 2 2
left_child=1 -1 10 4 5 6 -4 8 -8 -9 11 12 -3 -12
right_child=-2 2 3 -5 -6 -7 7 9 -10 -11 13 -13 -14 -15
leaf_value=-0.00029403063773119199 4.8744164116032761e-05 -0.0066893210287592162 0.0015820202304378834 0.00078047811991836281 0.00036949668955044287 0.00080404561727252094 -0.0034846328939023038 -0.014266087395813445 -0.0088980748300277242 -7.6894936234111802e-05 -0.00028657208043876212 0.0019879632569132131 0.00051604321898949569 0.0009718758934572861
leaf_weight=51686 128066 495 247 4271 1464 692 304 29 859 300 13494 5221 302 10203
leaf_count=51686 128066 495 247 4271 1464 692 304 29 859 300 13494 5221 302 10203
internal_value=0 -6.96961e-05 0.000236393 -0.000528782 -0.00196443 -0.00336997 -0.00503094 -0.00612571 -0.00748304 -0.00132761 0.000446671 0.00120036 -0.00395906 0.000255266
internal_weight=0 89567 37881 8166 3895 2431 1739 1492 1163 329 29715 6018 797 23697
internal_count=217633 89567 37881 8166 3895 2431 1739 1492 1163 329 29715 6018 797 23697
shrinkage=0.15


Tree=474
num_leaves=15
num_cat=0
split_feature=22 2 22 33 13 7 2 22 22 6 3 23 3 17
split_gain=0.0372324 0.528198 2.17917 1.72585 1.36906 1.52001 0.751765 6.92979 4.92294 2.24301 3.05743 1.88687 1.86676 1.10393
threshold=1.1181450000000004 2.0646800000000005 2.0667800000000005 9.3338250000000019e-07 -9.1282599999999975e-06 4.2201450000000009e-05 2.6199850000000002 2.6194050000000004 2.6194050000000004 7.8850250000000012e-07 -6.3281449999999984 -14.361299999999998 -14.602749999999999 -1.8189749999999997e-07
decision_type=2 2 2 2 2 2 2 2 2 2 2 2 2 2
left_child=-1 -2 3 -3 5 -5 7 9 -8 -4 11 12 -11 -13
right_child=1 2 6 4 -6 -7 8 -9 -10 10 -12 13 -14 -15
leaf_value=4.2177727114810466e-05 0.00010017153186357309 -0.00078332932770780797 -0.00013365822456171453 -0.014681864748107556 -0.0014673904290935919 -0.0050523265999943929 -0.0078743655163808629 -0.0053311098731704358 0.0039025174578439835 0.027974741873040328 -0.00026086276060368621 -0.008436541637139661 -0.0095219845871539841 0.01871777494565699
leaf_weight=148844 56751 2764 557 623 849 904 1345 1544 1966 40 396 35 118 897
leaf_count=148844 56751 2764 557 623 849 904 1345 1544 1966 40 396 35 118 897
internal_value=0 -9.12632e-05 -0.000993748 -0.00333172 -0.00629626 -0.00898108 0.000748377 0.00225285 -0.000881508 0.00798444 0.0110274 0.0151284 -2.91424e-05 0.017698
internal_weight=0 68789 12038 5140 2376 1527 6898 3587 3311 2043 1486 1090 158 932
internal_count=217633 68789 12038 5140 2376 1527 6898 3587 3311 2043 1486 1090 158 932
shrinkage=0.15


Tree=475
num_leaves=15
num_cat=0
split_feature=9 22 22 8 10 0 22 14 33 19 3 0 21 1
split_gain=0.0363785 0.192242 0.194854 0.804687 0.419892 0.616604 1.33721 3.32269 0.763097 0.454625 0.589077 0.416401 0.361378 3.89267
threshold=5.5016300000000012e-06 2.2191300000000003 1.3782650000000001 -6.2252749999999994e-06 4.1107000000000005e-05 1.6034400000000002 1.5131300000000001 0.00070374100000000013 -3.3389649999999995e-07 4.9052500000000005e-05 -6.572074999999999 4.4321300000000008 5.041430000000001 4.8660050000000004
decision_type=2 2 2 2 2 2 2 2 2 2 2 2 2 2
left_child=-1 2 12 4 5 6 7 -4 9 10 11 -7 -2 -14
right_child=1 -3 3 -5 -6 8 -8 -9 -10 -11 -12 -13 13 -15
leaf_value=5.6114392701537174e-05 -0.00019815279359200263 0.00045546099297692956 0.066781541802313021 0.00028325376586771459 -0.00041415731016318253 -0.019335002704390841 -0.002638929189307956 0.0031078495685388555 -0.0026430345155182889 -0.0016351650478993011 -0.002869680798491907 -0.0090957591218049794 -0.0012958442539407636 0.0045971752389841287
leaf_weight=118457 61574 13662 23 7643 1947 172 385 93 1991 165 152 186 7341 3842
leaf_count=118457 61574 13662 23 7643 1947 172 385 93 1991 165 152 186 7341 3842
internal_value=0 -6.70237e-05 -0.000150498 -0.00069124 -0.00214764 -0.00321335 0.00161481 0.0157328 -0.00412067 -0.00847915 -0.0106934 -0.0140152 -5.56854e-05 0.000728745
internal_weight=0 99176 85514 12757 5114 3167 501 116 2666 675 510 358 72757 11183
internal_count=217633 99176 85514 12757 5114 3167 501 116 2666 675 510 358 72757 11183
shrinkage=0.15


Tree=476
num_leaves=15
num_cat=0
split_feature=22 2 21 20 5 5 14 5 2 22 12 0 1 20
split_gain=0.0346959 0.0560233 0.212013 0.130832 0.225149 0.207127 0.18842 0.120661 0.0734652 0.187667 0.195158 0.204181 0.192873 0.160086
threshold=-2.8863399999999997 -3.0230999999999995 -2.5163899999999999 -10.270699999999998 9.8782150000000025e-06 1.3356200000000001e-05 0.00020775150000000003 1.7263400000000005e-05 -2.8697349999999995 -2.9625949999999994 -3.0825149999999994e-05 -10.402699999999998 -1.0953499999999996 -6.2436999999999996
decision_type=2 2 2 2 2 2 2 2 2 2 2 2 2 2
left_child=1 2 -1 6 -5 -6 -4 -7 9 12 13 -12 -3 -11
right_child=-2 8 3 4 5 7 -8 -9 -10 10 11 -13 -14 -15
leaf_value=-0.014580495308877693 -1.2242689156469153e-05 -0.0023975259472846411 0.012591715991209854 -0.017216620181820221 0.012225949943936228 -0.011862391243792242 -0.0054794973810203375 0.0023186115315183995 0.0002607221977123979 -0.0091584410194469525 0.0015855068784171285 0.018215785092552717 0.0093182325864640553 0.0083540276275016374
leaf_weight=27 208904 167 34 21 23 27 21 27 8224 23 26 46 39 24
leaf_count=27 208904 167 34 21 23 27 21 27 8224 23 26 46 39 24
internal_value=0 0.000292994 -0.00232588 -0.000163303 -0.00344933 0.000305387 0.0056918 -0.00477189 0.000348135 0.00256008 0.00730254 0.0122104 -0.000179494 -0.000215904
internal_weight=0 8729 180 153 98 77 55 54 8549 325 119 72 206 47
internal_count=217633 8729 180 153 98 77 55 54 8549 325 119 72 206 47
shrinkage=0.15


Tree=477
num_leaves=15
num_cat=0
split_feature=19 23 3 23 27 22 2 3 32 1 1 22 21 3
split_gain=0.0404689 0.313147 0.29586 0.394012 0.459109 0.459617 0.767276 0.643646 0.568817 4.69158 1.42395 2.79207 2.01246 1.58538
threshold=1.5867800000000003e-08 -10.209099999999998 -6.1920449999999994 -6.1917699999999991 0.23011750000000003 1.4721750000000002 1.4567850000000002 -9.9127699999999983 -0.014984399999999997 5.588070000000001 -7.3873799999999994 -1.4969799999999998 -6.7947599999999992 -7.9276599999999986
decision_type=2 2 2 2 2 2 2 2 2 2 2 2 2 2
left_child=1 -1 3 4 5 8 7 -7 9 -3 11 12 13 -10
right_child=-2 2 -4 -5 -6 6 -8 -9 10 -11 -12 -13 -14 -15
leaf_value=0.000418189169640776 2.5101844764918939e-05 -0.0074230765819907583 0.00011827557213310141 0.0027190782337089946 -0.0021018062427870516 0.0034406703922972809 0.021297476068139077 -0.0078825511470607193 0.051043699745028072 0.02243685935248314 -0.0025597118562132801 -0.0095291102770715935 -0.011227872222661972 0.017744530490207893
leaf_weight=11954 189147 265 7366 554 6145 159 27 390 46 214 1108 114 37 107
leaf_count=11954 189147 265 7366 554 6145 159 27 390 46 214 1108 114 37 107
internal_value=0 -0.000166676 -0.000589582 -0.00115843 -0.00140787 0.000320649 -0.00338906 -0.00460315 0.00145063 0.00591727 -6.46145e-05 0.00902936 0.0201644 0.027756
internal_weight=0 28486 16532 9166 8612 2467 576 549 1891 479 1412 304 190 153
internal_count=217633 28486 16532 9166 8612 2467 576 549 1891 479 1412 304 190 153
shrinkage=0.15


Tree=478
num_leaves=15
num_cat=0
split_feature=3 28 36 2 23 2 4 17 12 5 26 25 31 25
split_gain=0.0320431 0.113274 0.251139 0.136538 0.14065 0.133577 0.113131 0.124045 0.110553 0.21586 0.324457 0.160905 0.140399 0.163508
threshold=-16.559399999999997 0.054531500000000004 -0.97705349999999991 2.2580750000000003 -9.9618999999999982 2.0646800000000005 -1.2236799999999997 -7.5387949999999985e-06 0.00030298100000000007 1.5725450000000004e-05 8.7755250000000007e-05 2.3011200000000005 -1.4968849999999998 3.7622250000000004
decision_type=2 2 2 2 2 2 2 2 2 2 2 2 2 2
left_child=1 2 -1 5 -5 6 7 -3 11 12 -11 -8 -10 -14
right_child=-2 3 -4 4 -6 -7 8 -9 9 10 -12 -13 13 -15
leaf_value=0.012591267320768613 -1.2271607430902945e-05 -0.00026714713274206866 0.00037026550267059915 -0.014659166074767093 0.00073315042113377294 0.0098511183016235012 -0.01223378399781023 0.0096526019422946349 -0.019250341178849339 -0.0073418470016622444 0.016968148670691463 4.2378812553960057e-06 -0.014706754051011933 -0.001686808680406102
leaf_weight=38 208170 104 8662 34 22 25 26 39 24 30 21 344 34 60
leaf_count=38 208170 104 8662 34 22 25 26 39 24 30 21 344 34 60
internal_value=0 0.000269955 0.000423645 -0.00148247 -0.00861218 -0.000917744 -0.0013125 0.00243824 -0.00230759 -0.00548622 0.00266815 -0.000855731 -0.00901056 -0.00639615
internal_weight=0 9463 8700 763 56 707 682 143 539 169 51 370 118 94
internal_count=217633 9463 8700 763 56 707 682 143 539 169 51 370 118 94
shrinkage=0.15


Tree=479
num_leaves=15
num_cat=0
split_feature=34 3 23 3 5 20 9 16 13 24 4 23 12 34
split_gain=0.0304552 0.11839 0.197141 0.264746 0.183122 0.358778 0.667104 0.579104 0.267043 0.266349 0.696345 0.591731 0.445043 0.335055
threshold=0.25525800000000004 -6.4440149999999994 -6.9680999999999989 -6.0288849999999989 2.0445300000000002e-05 12.994100000000001 2.7541700000000004e-05 1.6911350000000003e-07 2.4836450000000005e-05 0.13253550000000003 0.025946100000000003 -6.4717399999999996 4.2025950000000011e-05 0.0099048150000000026
decision_type=2 2 2 2 2 2 2 2 2 2 2 2 2 2
left_child=1 -1 -3 4 5 8 -7 -8 9 -4 11 -11 13 -12
right_child=-2 2 3 -5 -6 6 7 -9 -10 10 12 -13 -14 -15
leaf_value=-0.00010642147888652229 0.00010108564604714209 0.00035605766037127395 -0.0048832352508426432 4.4312707045978283e-05 0.00022249565136515018 -0.0062265832594636337 0.036898125409656625 0.0032057460397481919 0.0019390025316648747 0.0010030919500817377 0.018544262006051009 -0.017870236267181632 0.025370851825573481 0.00011812844406813382
leaf_weight=122883 51264 33489 1132 7484 753 46 22 24 209 83 27 68 24 125
leaf_count=122883 51264 33489 1132 7484 753 46 22 24 209 83 27 68 24 125
internal_value=0 -3.1148e-05 0.00018156 -0.000402989 -0.0017351 -0.00257264 0.00654645 0.0193195 -0.00307562 -0.00379395 -2.31127e-05 -0.00749616 0.00638842 0.00339119
internal_weight=0 166369 43486 9997 2513 1760 92 46 1668 1459 327 151 176 152
internal_count=217633 166369 43486 9997 2513 1760 92 46 1668 1459 327 151 176 152
shrinkage=0.15


Tree=480
num_leaves=15
num_cat=0
split_feature=6 33 33 34 7 3 19 3 19 23 23 3 1 3
split_gain=0.0319632 0.241776 0.177935 0.50463 0.807147 0.606365 0.864255 0.46093 0.98897 0.67581 0.636177 0.64042 0.581733 0.412333
threshold=-3.9840749999999988e-06 7.0810000000000013e-06 -2.2298499999999995e-06 0.015787600000000002 3.7936850000000009e-05 -6.1122599999999991 1.4470650000000001e-07 -6.4440149999999994 1.2994000000000004e-07 -6.4717399999999996 -9.6230949999999975 -9.4771649999999976 10.481450000000002 -8.9017749999999989
decision_type=2 2 2 2 2 2 2 2 2 2 2 2 2 2
left_child=1 2 3 4 5 6 -1 8 9 10 13 -12 -13 -4
right_child=-2 -3 7 -5 -6 -7 -8 -9 -10 -11 11 12 -14 -15
leaf_value=0.013313668445172077 2.6881355217590743e-05 0.00051100829877276648 -0.0091462090070342159 -0.00045776202571583155 0.00060390547841699435 -0.0015853859095164187 -0.0041065018141216566 0.00027441909359170484 -0.00033106496135556503 0.0016205973089438283 -6.1070084942885946e-05 -0.0086098761868495764 0.0093416834050523371 0.0029586803708536598
leaf_weight=322 178582 10052 81 12950 3066 141 80 5381 4751 385 277 1233 42 290
leaf_count=322 178582 10052 81 12950 3066 141 80 5381 4751 385 277 1233 42 290
internal_value=0 -0.00012293 -0.000342673 -2.06234e-05 0.00154794 0.00687835 0.00984697 -0.000771357 -0.00156854 -0.00411587 -0.00526436 -0.00659829 -0.00801853 0.000315834
internal_weight=0 39051 28999 16559 3609 543 402 12440 7059 2308 1923 1552 1275 371
internal_count=217633 39051 28999 16559 3609 543 402 12440 7059 2308 1923 1552 1275 371
shrinkage=0.15


Tree=481
num_leaves=15
num_cat=0
split_feature=2 22 2 22 6 37 0 22 19 13 21 23 0 2
split_gain=0.0314917 0.205757 0.469615 0.58856 0.48459 0.401117 0.376724 0.343474 0.437864 0.397087 0.588528 0.311569 0.457268 0.236533
threshold=-2.8223399999999992 -2.8036449999999995 -2.9738899999999995 -2.9625949999999994 -2.7225449999999993e-07 -2.6571799999999997e-07 -12.025299999999998 -1.9037449999999996 2.1691500000000004e-05 1.1550350000000002e-05 -0.84929049999999984 -7.7292499999999995 -10.087149999999999 -2.8476049999999993
decision_type=2 2 2 2 2 2 2 2 2 2 2 2 2 2
left_child=1 2 -1 -4 6 -6 -5 8 9 -3 11 12 -11 -8
right_child=-2 7 3 4 5 -7 13 -9 -10 10 -12 -13 -14 -15
leaf_value=-0.0014020017421268538 -1.2195784164792849e-05 -0.00077777442264629249 -0.00096999080690837128 -0.002116716889473277 0.015717222310062919 -0.0090890211011190498 0.014027603048515238 0.00044337863509709565 0.001235440255124917 -0.0014849368166178465 0.015687702197338577 -0.0019683536586853731 -0.01511252538865555 0.028508317770977169
leaf_weight=365 208125 352 171 28 22 44 140 7444 497 75 23 104 212 31
leaf_count=365 208125 352 171 28 22 44 140 7444 497 75 23 104 212 31
internal_value=0 0.000266959 0.00256756 0.00589071 0.0103178 -0.000820273 0.0140118 5.53153e-05 -0.00223189 -0.00448158 -0.00763072 -0.00900239 -0.0115513 0.0166528
internal_weight=0 9508 801 436 265 66 199 8707 1263 766 414 391 287 171
internal_count=217633 9508 801 436 265 66 199 8707 1263 766 414 391 287 171
shrinkage=0.15


Tree=482
num_leaves=15
num_cat=0
split_feature=22 5 1 33 1 4 7 12 1 20 11 19 32 0
split_gain=0.0317029 0.0451973 0.0320371 0.0555511 0.0779587 0.0992993 0.0515011 0.038747 0.0568619 0.0498115 0.124009 0.0568622 0.117826 0.212148
threshold=-2.9897199999999997 6.5625250000000012e-06 -3.9739049999999998 1.2079200000000002e-06 -4.6859799999999998 0.044873850000000007 3.3404350000000012e-05 2.0701100000000001e-05 0.62580550000000013 -3.9273699999999994 -5.3029349999999994e-05 6.1153600000000011e-09 0.005285085000000001 -6.238694999999999
decision_type=2 2 2 2 2 2 2 2 2 2 2 2 2 2
left_child=1 -1 3 -3 5 6 -5 9 -9 11 -11 12 -4 -14
right_child=-2 2 7 4 -6 -7 -8 8 -10 10 -12 -13 13 -15
leaf_value=0.0073105454162162332 -8.9615379603691439e-06 0.0011915306684077516 0.0014346898887785807 -0.010689165412012726 0.0056116679197481464 0.001381524612881264 -0.003420728976081591 0.006813571505969571 0.00034543238164369501 0.012889101753743099 -0.00062724629658207837 -0.00051157828466205678 -0.019073791179573162 -0.0016214703250235678
leaf_weight=21 212428 1504 51 31 31 83 75 31 2260 21 56 974 25 42
leaf_count=21 212428 1504 51 31 31 83 75 31 2260 21 56 974 25 42
internal_value=0 0.000365741 0.000337608 0.000865877 -0.00136041 -0.00250398 -0.0055464 7.43898e-05 0.000432954 -0.000628323 0.00305903 -0.000888328 -0.00399811 -0.00813353
internal_weight=0 5205 5184 1724 220 189 106 3460 2291 1169 77 1092 118 67
internal_count=217633 5205 5184 1724 220 189 106 3460 2291 1169 77 1092 118 67
shrinkage=0.15


Tree=483
num_leaves=15
num_cat=0
split_feature=2 2 22 22 6 3 2 22 2 3 6 21 2 22
split_gain=0.0289369 0.0574252 1.18288 2.08071 0.799594 1.11626 0.643999 0.623843 2.10383 0.911634 1.17942 0.908367 0.878997 0.863484
threshold=-2.9212349999999998 -2.2973549999999996 -2.2993349999999997 -1.5733149999999998 -2.1479449999999997e-07 -6.3575099999999987 -2.6044999999999994 -2.7551599999999996 -2.7531699999999995 -6.1122599999999991 -1.8658949999999999e-07 -1.3760299999999999 -2.7287999999999997 -2.8863399999999997
decision_type=2 2 2 2 2 2 2 2 2 2 2 2 2 2
left_child=-1 2 7 4 5 6 -4 12 11 10 -10 -9 13 -2
right_child=1 -3 3 -5 -6 -7 -8 8 9 -11 -12 -13 -14 -15
leaf_value=0.0003237880027174178 -0.00085388448745104162 1.7166755548007857e-05 -0.0061384753135770133 -0.00010989014097253957 -0.0007692821247547915 -0.0015050090737484284 -0.013646780466044551 -0.0077078698810909988 0.01116035185129044 -0.00055454401033513804 0.00064111963012076622 0.017565526304284242 -0.0030358939906470592 0.010320963961385762
leaf_weight=6038 337 189909 537 15868 725 580 493 373 915 322 325 35 887 289
leaf_count=6038 337 189909 537 15868 725 580 493 373 915 322 325 35 887 289
internal_value=0 -9.2395e-06 -0.000240485 -0.000725078 -0.00490572 -0.0067684 -0.00973226 0.00229212 0.00405141 0.00655667 0.0084033 -0.00553981 1.42865e-06 0.00430511
internal_weight=0 211595 21686 18203 2335 1610 1030 3483 1970 1562 1240 408 1513 626
internal_count=217633 211595 21686 18203 2335 1610 1030 3483 1970 1562 1240 408 1513 626
shrinkage=0.15


Tree=484
num_leaves=15
num_cat=0
split_feature=9 22 22 12 19 0 22 8 19 3 23 23 3 3
split_gain=0.0285355 0.168195 0.299644 0.716771 1.57829 0.705847 2.14992 4.76717 2.31582 2.06385 1.84988 1.56975 2.51533 2.30522
threshold=5.5016300000000012e-06 0.86801550000000016 1.3782650000000001 3.0902900000000005e-05 1.5064750000000002e-05 -2.7237549999999993 1.8895150000000001 -8.8754949999999979e-06 0.0006432495000000001 -6.4132949999999989 -6.4487099999999993 -14.569749999999997 -14.170649999999997 -13.239749999999999
decision_type=2 2 2 2 2 2 2 2 2 2 2 2 2 2
left_child=1 -1 3 -3 -5 -4 7 8 9 10 11 13 -13 -7
right_child=-2 2 5 4 -6 6 -8 -9 -10 -11 -12 12 -14 -15
leaf_value=0.00018525031114455758 -5.9360615043572157e-05 0.00011861646819332165 -0.00042806223201476682 -0.010466449552780808 -0.0013478723790397691 0.029248701026081105 -0.00048004813774014607 -0.0012767952663701712 -0.00025414361581512477 0.00076305807975703859 -0.0063279657637229482 -0.010213609124184586 0.022754544654076309 -0.010765362421277487
leaf_weight=75204 99176 5756 23563 492 3237 50 6786 1769 385 248 77 56 742 92
leaf_count=75204 99176 5756 23563 492 3237 50 6786 1769 385 248 77 56 742 92
internal_value=0 4.96986e-05 -0.000185985 -0.000930922 -0.00255097 2.32582e-05 0.00106534 0.00413262 0.00993216 0.0130323 0.0160243 0.0178552 0.020441 0.0033241
internal_weight=0 118457 43253 9485 3729 33768 10205 3419 1650 1265 1017 940 798 142
internal_count=217633 118457 43253 9485 3729 33768 10205 3419 1650 1265 1017 940 798 142
shrinkage=0.15


Tree=485
num_leaves=15
num_cat=0
split_feature=22 2 9 6 13 3 12 21 2 2 11 1 13 36
split_gain=0.0297138 0.0928176 0.168793 0.130458 0.108031 0.0994968 0.109115 0.0800613 0.492617 0.117436 0.0524604 0.0334007 0.0373533 0.032618
threshold=3.0909850000000003 2.5749400000000002 -6.7204749999999987e-05 1.0025950000000002e-05 -3.1817149999999993e-06 -7.4742849999999992 2.5800150000000004e-05 -2.3406999999999996 -2.5276899999999993 -1.7330299999999996 -2.3866199999999995e-05 -10.362799999999998 3.166850000000001e-05 9.5653350000000022e-06
decision_type=2 2 2 2 2 2 2 2 2 2 2 2 2 2
left_child=-1 7 3 -3 5 6 -4 8 -2 11 -10 -9 -13 -6
right_child=1 2 4 -5 13 -7 -8 9 10 -11 -12 12 -14 -15
leaf_value=-4.7638728516625578e-06 0.026176874939119441 0.014343045129462551 -0.020797116149749072 -0.0027896761143347245 -0.0031269364507170395 -0.001035049760293287 -0.0070451141105663459 0.0017404367949466735 -0.0043069498359199635 0.0014618748952625637 0.0025355262803592876 -0.0041734705462658887 -0.00065899378468477448 0.0050002729747211563
leaf_weight=216037 20 20 21 20 25 26 34 49 31 922 135 144 129 20
leaf_count=216037 20 20 21 20 25 26 34 49 31 922 135 144 129 20
internal_value=0 0.000644845 -0.00271256 0.00577668 -0.00540756 -0.00868129 -0.0122959 0.00103459 0.00393719 0.000600595 0.00125771 -0.00186555 -0.00251278 0.000485157
internal_weight=0 1596 166 40 126 81 55 1430 186 1244 166 322 273 45
internal_count=217633 1596 166 40 126 81 55 1430 186 1244 166 322 273 45
shrinkage=0.15


Tree=486
num_leaves=15
num_cat=0
split_feature=3 23 23 3 14 1 39 11 29 31 23 14 2 22
split_gain=0.0285259 0.479605 1.02202 3.11125 1.97792 1.38532 1.06932 0.963994 4.0492 2.58562 0.948149 1.30088 0.847485 0.731942
threshold=-14.260649999999998 -14.248749999999998 -15.570249999999998 -15.512049999999999 0.0072867150000000009 -4.9916099999999988 0.00054711350000000007 -2.2915949999999995e-05 0.0026023700000000001 0.042070900000000008 -10.7143 0.0034191400000000006 -2.8476049999999993 -2.2408699999999997
decision_type=2 2 2 2 2 2 2 2 2 2 2 2 2 2
left_child=1 2 -1 -4 5 -5 7 9 -9 -7 11 -3 -11 -14
right_child=-2 10 3 4 -6 6 -8 8 -10 12 -12 -13 13 -15
leaf_value=9.0954126468369302e-05 -1.9938532694010841e-05 -0.0066671746295037578 -0.0012562658182027498 0.045161649820051698 0.00083933894593312601 -0.016625426247572669 0.00094703146118579591 0.039531501153668831 -0.017268341019128761 -0.0046176072297384957 0.00040447774159128077 -0.00074178984398757272 0.01187236628894295 0.038926786738669582
leaf_weight=3980 191781 1049 901 38 235 52 92 131 36 20 15159 4061 35 63
leaf_count=3980 191781 1049 901 38 235 52 92 131 36 20 15159 4061 35 63
internal_value=0 0.000147912 0.00137894 0.00457681 0.0120634 0.0177115 0.01528 0.0191929 0.0272872 0.0112414 -0.000191169 -0.00195818 0.0235218 0.0292645
internal_weight=0 25852 5583 1603 702 467 429 337 167 170 20269 5110 118 98
internal_count=217633 25852 5583 1603 702 467 429 337 167 170 20269 5110 118 98
shrinkage=0.15


Tree=487
num_leaves=15
num_cat=0
split_feature=3 26 24 4 4 32 26 23 3 4 4 21 23 30
split_gain=0.0326484 0.101049 0.127574 0.572387 1.04539 0.132606 0.571531 0.123525 0.204599 0.188453 0.202777 0.201985 0.160689 0.521015
threshold=-15.512049999999999 -0.028182349999999998 1.2344650000000004 0.79323650000000001 4.6865200000000007 -22.304899999999996 0.00091209800000000018 -18.759599999999995 -19.110799999999998 0.57692800000000011 -0.094637399999999997 4.6857300000000004 -15.570249999999998 0.00031235150000000005
decision_type=2 2 2 2 2 2 2 2 2 2 2 2 2 2
left_child=1 -1 5 -4 -5 6 -3 8 -7 10 11 -10 13 -9
right_child=-2 2 3 4 -6 7 -8 12 9 -11 -12 -13 -14 -15
leaf_value=-0.0044124346823356869 -1.6557717262112711e-05 -0.0100419990636874 -0.0008496391935937501 0.03199878563676533 -0.0081977233901852735 0.0086079824268101499 0.024629016764684701 0.019938728547148298 -0.0032978079765121414 0.0016424017394543451 -0.008874291153369995 0.0101533912200726 6.3470897797760655e-05 0.0012018207031149804
leaf_weight=106 201284 20 163 37 24 39 23 34 244 167 144 28 13454 1866
leaf_count=106 201284 20 163 37 24 39 23 34 244 167 144 28 13454 1866
internal_value=0 0.000203854 0.000233979 0.00378892 0.0161838 0.000184269 0.00850296 0.000161879 -0.00191041 -0.00261404 -0.00432276 -0.00191313 0.000245829 0.00153711
internal_weight=0 16349 16243 224 61 16019 43 15976 622 583 416 272 15354 1900
internal_count=217633 16349 16243 224 61 16019 43 15976 622 583 416 272 15354 1900
shrinkage=0.15


Tree=488
num_leaves=15
num_cat=0
split_feature=26 18 9 35 17 13 36 3 15 13 33 37 18 5
split_gain=0.0292663 0.150161 0.516978 0.716762 0.915219 1.42918 1.93671 1.24441 1.30976 0.98332 0.505206 0.454785 0.483121 0.374214
threshold=-0.00038688449999999994 4.7048900000000005e-07 2.9750050000000005e-05 0.0019468600000000001 2.2125050000000004e-07 2.0014650000000003e-05 0.0031889550000000007 -5.9751649999999996 8.5779800000000008e-05 1.4757950000000002e-05 2.5416850000000004e-05 -1.2525249999999998e-07 1.1450250000000003e-05 1.6288650000000002e-05
decision_type=2 2 2 2 2 2 2 2 2 2 2 2 2 2
left_child=1 -1 -3 -4 -5 6 7 8 10 -8 11 12 -6 -7
right_child=-2 2 3 4 5 13 9 -9 -10 -11 -12 -13 -14 -15
leaf_value=0.00048553890807812765 -1.7546990114925941e-05 -0.0010767283963903835 -0.0015267589031734575 -0.0043523868625751317 0.037779271083750891 0.0086257944756856688 -0.0036845956409092035 -0.0039406909061654007 -0.00071406678595979298 0.028233351270965712 0.023673687522010559 0.029619960963685549 0.067653419777494048 -0.00039266460167709734
leaf_weight=12696 197532 5597 796 209 21 143 111 24 21 27 29 23 29 375
leaf_count=12696 197532 5597 796 209 21 143 111 24 21 27 29 23 29 375
internal_value=0 0.000172434 -0.00036439 0.00184078 0.00448956 0.00679089 0.0153223 0.027303 0.0333993 0.00256022 0.0404226 0.0470763 0.0551063 0.00209699
internal_weight=0 20101 7405 1808 1012 803 285 147 123 138 102 73 50 518
internal_count=217633 20101 7405 1808 1012 803 285 147 123 138 102 73 50 518
shrinkage=0.15


Tree=489
num_leaves=15
num_cat=0
split_feature=35 15 19 3 3 0 34 15 11 6 12 22 15 29
split_gain=0.0284814 0.375414 0.379485 0.323106 0.226223 0.224772 0.581692 0.180022 0.327827 0.217556 0.286679 0.873043 0.47209 0.705292
threshold=-0.045729899999999997 5.5558300000000009e-07 0.00094200300000000007 -7.3111649999999999 -7.8229449999999989 9.0369550000000007 0.42331500000000005 -4.6097549999999994e-05 0.00027479250000000006 -1.0412699999999999e-06 -0.00011532249999999999 -0.83303549999999993 -2.5777549999999996e-08 0.078891300000000011
decision_type=2 2 2 2 2 2 2 2 2 2 2 2 2 2
left_child=1 3 4 5 -3 7 -7 -1 9 10 11 12 13 -9
right_child=-2 2 -4 -5 -6 6 -8 8 -10 -11 -12 -13 -14 -15
leaf_value=-0.00026422992135829044 -1.466372380224127e-05 -0.004579769721284919 0.00015779289780958099 -0.00028715996344611655 -0.0010506511570133295 0.026953811638264193 0.002934801680959013 0.050191552807310857 0.01880986118176952 0.00082143033908992568 0.0021282084540133355 0.0012610364602832389 0.0064859620062634347 0.014349684090120718
leaf_weight=1399 202822 807 2452 4577 828 27 142 21 25 2950 1353 165 35 30
leaf_count=1399 202822 807 2452 4577 828 27 142 21 25 2950 1353 165 35 30
internal_value=0 0.000200805 -0.00102249 0.000667011 -0.00279255 0.00137748 0.00677216 0.00122497 0.00167996 0.00158592 0.00299193 0.00764778 0.0199014 0.0291081
internal_weight=0 14811 4087 10724 1635 6147 169 5978 4579 4554 1604 251 86 51
internal_count=217633 14811 4087 10724 1635 6147 169 5978 4579 4554 1604 251 86 51
shrinkage=0.15


Tree=490
num_leaves=15
num_cat=0
split_feature=18 38 38 4 34 3 3 23 23 12 28 22 2 12
split_gain=0.03013 0.227822 0.286048 1.49263 1.51449 0.814956 0.846364 2.60905 2.46534 1.37383 4.08436 1.4227 4.468 2.84411
threshold=1.1777600000000004e-06 -0.014255849999999999 -0.00024543399999999994 0.24753700000000003 0.077630600000000008 -6.1920449999999994 -12.278849999999998 -12.298949999999998 -12.425899999999999 -8.8813899999999987e-05 -0.004389259999999999 -0.14219899999999999 -0.20064749999999995 -3.7106949999999992e-05
decision_type=2 2 2 2 2 2 2 2 2 2 2 2 2 2
left_child=-1 -2 3 4 5 6 8 -8 -3 10 -9 13 -13 -11
right_child=1 2 -4 -5 -6 -7 7 9 -10 11 -12 12 -14 -15
leaf_value=-3.8736819792581438e-05 -0.00074834847514137711 0.019579060041712077 -3.1893386737849374e-05 -2.3733079097578213e-05 -0.00028177970096757599 -0.0013147332453053359 -0.0076487748670057811 0.048701843855323619 -0.005345849056037251 0.018254436272517553 -0.006153786591536258 -0.0074298655664872216 0.021416548777157863 -0.0051516047492192333
leaf_weight=146879 6751 122 45825 14410 1543 309 190 74 333 186 52 161 484 314
leaf_count=146879 6751 122 45825 14410 1543 309 190 74 333 186 52 161 484 314
internal_value=0 8.04142e-05 0.000167832 0.000671319 0.00332941 0.00583372 0.00698657 0.00874592 0.00133731 0.0111967 0.026063 0.00956081 0.0142161 0.00355544
internal_weight=0 70754 64003 18178 3768 2225 1916 1461 455 1271 126 1145 645 500
internal_count=217633 70754 64003 18178 3768 2225 1916 1461 455 1271 126 1145 645 500
shrinkage=0.15


Tree=491
num_leaves=15
num_cat=0
split_feature=4 23 3 14 23 18 3 30 3 4 33 13 0 38
split_gain=0.0386902 0.0769622 0.230636 0.386908 0.292745 0.202729 0.188456 0.161648 0.320912 0.282066 0.405085 0.223433 0.213378 0.201445
threshold=0.61528200000000022 -6.6111549999999992 -6.942054999999999 0.00018273250000000005 -6.3908299999999993 -0.0015195849999999997 -7.1376749999999989 0.00051077900000000016 -7.0757599999999989 0.26861600000000002 -4.9776299999999991e-06 1.1238550000000003e-05 0.16629750000000001 -0.0092590449999999987
decision_type=2 2 2 2 2 2 2 2 2 2 2 2 2 2
left_child=1 -1 3 4 6 -5 -3 -7 9 13 11 -11 -13 -9
right_child=-2 2 -4 5 -6 7 -8 8 -10 10 -12 12 -14 -15
leaf_value=-6.7935147540072342e-05 0.0001253287782533716 0.0016118087742142961 -0.00037382222249989177 -0.00074962890879856571 0.0048067535042798188 0.0011673873111084625 -0.0059295017351095958 0.0029649503354100552 0.014788995146039768 -0.0062883924134974432 -0.00029889445787860359 -0.011341445393918547 -0.032319806838640941 -0.00079710049611586022
leaf_weight=153510 44173 376 8066 2723 828 5728 93 410 31 51 137 24 20 1463
leaf_count=153510 44173 376 8066 2723 828 5728 93 410 31 51 137 24 20 1463
internal_value=0 -3.1916e-05 0.000245242 0.000665418 0.00311071 0.000365849 0.00011641 0.000752095 -0.000361572 -0.000584692 -0.00551831 -0.0130453 -0.0208771 2.6413e-05
internal_weight=0 173460 19950 11884 1297 10587 469 7864 2136 2105 232 95 44 1873
internal_count=217633 173460 19950 11884 1297 10587 469 7864 2136 2105 232 95 44 1873
shrinkage=0.15


Tree=492
num_leaves=15
num_cat=0
split_feature=14 30 5 39 35 18 14 7 26 23 33 13 0 0
split_gain=0.0347289 0.112154 0.165353 0.163832 0.128043 0.230279 0.148817 0.105082 0.0969688 0.0906904 0.089688 0.105645 0.0893439 0.241166
threshold=6.7528100000000015e-05 0.00010288300000000001 8.8751800000000013e-06 1.2880000000000002e-06 0.00017118450000000001 -1.8613849999999999e-08 5.0930000000000009e-05 5.0336000000000007e-05 4.6792250000000006e-05 -6.0751199999999992 1.7495550000000002e-06 -6.4222549999999989e-06 8.270245000000001 11.755300000000002
decision_type=2 2 2 2 2 2 2 2 2 2 2 2 2 2
left_child=1 2 4 -3 6 -6 -1 -5 -8 -4 -9 -12 -11 -14
right_child=-2 3 9 7 5 -7 8 10 -10 12 11 -13 13 -15
leaf_value=-0.00014948525763310599 -2.2423549008435327e-05 0.013846024131198646 -0.00050421391203980738 0.000513532924532964 -0.017334748072048219 -0.0015041099644308401 -0.0025905476262172065 0.00027991943424484175 -0.015189307058296565 0.00042991796371389128 -0.0017064150524858373 -8.8023508468431036e-05 0.019384258773425245 7.7574043904393399e-05
leaf_weight=191 190899 20 2821 14482 39 44 27 5002 28 103 1429 2487 24 37
leaf_count=191 190899 20 2821 14482 39 44 27 5002 28 103 1429 2487 24 37
internal_value=0 0.000160119 -0.000656622 0.000275691 -0.00384812 -0.0089426 -0.00212926 0.000264092 -0.00900446 -0.000304862 -0.000140976 -0.000678596 0.00312423 0.00767365
internal_weight=0 26734 3314 23420 329 83 246 23400 55 2985 8918 3916 164 61
internal_count=217633 26734 3314 23420 329 83 246 23400 55 2985 8918 3916 164 61
shrinkage=0.15


Tree=493
num_leaves=15
num_cat=0
split_feature=7 34 18 16 22 24 5 17 24 23 3 1 28 28
split_gain=0.0364114 0.183779 0.217474 0.199063 0.326306 0.563877 0.23968 0.161324 0.322222 0.131677 0.213431 0.117151 0.326679 0.291537
threshold=3.1390950000000001e-05 1.8465900000000002 -2.6206899999999998e-05 4.7861450000000004e-06 -0.57336749999999992 0.97666950000000008 9.7584900000000025e-06 1.0893100000000001e-07 -0.55446799999999985 -14.669299999999998 -13.076899999999998 -4.9060199999999989 -0.013260849999999999 -0.055867649999999991
decision_type=2 2 2 2 2 2 2 2 2 2 2 2 2 2
left_child=1 -1 7 11 -5 6 -6 -3 9 -9 -11 13 -13 -4
right_child=-2 2 3 4 5 -7 -8 8 -10 10 -12 12 -14 -15
leaf_value=-0.00019622377250709525 3.2368387420029006e-05 -9.7119714205144844e-05 -0.0030601166302596911 -0.0022521436963738365 0.017183774372097105 0.028432537870685337 -0.0029274368601181779 -0.019533470442847294 0.001129427757060311 0.0022034300984814762 -0.018054153384979475 0.0040925456199314226 -0.00013389474275108892 0.0023289641520357098
leaf_weight=44152 170249 372 419 55 20 32 40 34 77 25 22 818 828 490
leaf_count=44152 170249 372 419 55 20 32 40 34 77 25 22 818 828 490
internal_value=0 -0.000116298 0.000975553 0.0015205 0.0068881 0.0123524 0.0037763 -0.00180265 -0.00581821 -0.0124228 -0.00727884 0.00121168 0.00196649 -0.000155112
internal_weight=0 47384 3232 2702 147 92 60 530 158 81 47 2555 1646 909
internal_count=217633 47384 3232 2702 147 92 60 530 158 81 47 2555 1646 909
shrinkage=0.15


Tree=494
num_leaves=15
num_cat=0
split_feature=3 23 3 39 21 4 3 23 36 23 25 7 14 0
split_gain=0.032146 0.166023 0.235445 0.201084 0.182551 0.768687 0.178507 0.270945 0.52481 0.493893 0.996206 1.19176 0.790944 0.689559
threshold=-6.9170499999999988 -7.2759249999999991 -6.1920449999999994 1.3620250000000001e-05 14.999250000000002 0.20409350000000004 -6.6541099999999984 -6.9496149999999988 0.00093453200000000018 -6.7637699999999983 0.66666500000000017 2.8243700000000005e-05 0.00013542600000000004 -9.9367599999999978
decision_type=2 2 2 2 2 2 2 2 2 2 2 2 2 2
left_child=-1 3 6 -2 -4 -6 7 8 -3 10 11 -9 -12 -13
right_child=1 2 4 -5 5 -7 -8 9 -10 -11 12 13 -14 -15
leaf_value=-4.0294040659580043e-05 0.00058053028743640345 -0.0054799053580422072 1.6980462740916155e-05 -1.6033879620431683e-05 0.00018063118012523585 0.031236391666937958 -0.0016750254238482841 0.034178145361934288 0.005768668219530238 -0.00056171586062715327 -0.016121549376133661 -0.010173351907842727 0.0049397333785600487 0.011180817903208037
leaf_weight=146206 20698 408 11616 32953 97 22 3922 43 121 1174 67 43 100 163
leaf_count=146206 20698 408 11616 32953 97 22 3922 43 121 1174 67 43 100 163
internal_value=0 8.2479e-05 -0.000314819 0.000214114 7.68613e-05 0.00592203 -0.00107568 3.363e-05 -0.00290698 0.00101198 0.00545315 0.0114646 -0.00351 0.00672339
internal_weight=0 71427 17776 53651 11735 119 6041 2119 529 1590 416 249 167 206
internal_count=217633 71427 17776 53651 11735 119 6041 2119 529 1590 416 249 167 206
shrinkage=0.15


Tree=495
num_leaves=15
num_cat=0
split_feature=4 26 19 37 14 24 20 16 32 11 10 26 4 23
split_gain=0.0331378 0.10252 0.228635 0.584939 0.393192 0.669725 0.804884 0.615766 0.937045 0.415254 0.354817 0.313422 0.259564 0.711577
threshold=-0.48541799999999996 0.00014330150000000001 0.00069570250000000014 2.2628900000000005e-07 0.0028655100000000004 -0.739367 -3.2374499999999995 -3.8224499999999993e-06 -3.4807049999999995 -6.2747399999999975e-05 4.4183300000000008e-05 0.03129645000000001 -1.0433649999999999 -10.965549999999999
decision_type=2 2 2 2 2 2 2 2 2 2 2 2 2 2
left_child=1 -1 3 4 -3 6 9 8 -8 -6 -5 -12 -7 -14
right_child=-2 2 -4 10 5 12 7 -9 -10 -11 11 -13 13 -15
leaf_value=0.00021488991742869135 -3.0569406013613543e-05 -0.0017150919079054552 0.00018942678990911956 -0.006313985554096983 0.011114462921395897 -0.0015700740355109953 0.035673738686767008 0.037655106603051533 -0.0053639295090350406 -0.01908614394487813 -0.0017807382203913716 0.014506651020954074 0.01684213462789115 -0.0014596151840911868
leaf_weight=38427 170992 992 5484 679 20 377 21 32 31 21 319 29 74 135
leaf_count=38427 170992 992 5484 679 20 377 21 32 31 21 319 29 74 135
internal_value=0 0.000112071 -0.000368937 -0.00149057 0.000214499 0.0029067 0.0128745 0.0212837 0.011209 -0.00435414 -0.00431797 -0.000423456 0.000780464 0.00502043
internal_weight=0 46641 8214 2730 1703 711 125 84 52 41 1027 348 586 209
internal_count=217633 46641 8214 2730 1703 711 125 84 52 41 1027 348 586 209
shrinkage=0.15


Tree=496
num_leaves=15
num_cat=0
split_feature=31 0 20 14 11 34 0 0 17 32 20 1 34 14
split_gain=0.0343729 0.139003 0.300839 0.305972 0.384393 0.441641 0.537832 0.580569 0.904504 1.29696 0.797279 0.630654 0.596309 0.6746
threshold=0.14747150000000003 -6.0528599999999999 -5.9130249999999984 0.00019135550000000002 -7.2710199999999987e-05 0.49826300000000007 -9.801264999999999 -7.6489999999999991 9.9555800000000016e-07 -0.066485149999999979 -7.0998299999999999 3.2090750000000003 0.13209800000000002 0.00044448550000000006
decision_type=2 2 2 2 2 2 2 2 2 2 2 2 2 2
left_child=-1 2 3 -2 -5 6 -6 8 -8 -10 -9 -11 13 -12
right_child=1 -3 -4 4 5 -7 7 10 9 11 12 -13 -14 -15
leaf_value=-2.8130391349914179e-05 -0.00081618980528959514 0.00027791207404900538 -0.0011615143214608124 -0.0001270516292192672 -0.0032645938424483859 -0.00079453984594886709 0.0062469186596037568 -0.00058616419886181376 0.042600044421851634 0.023083633406915598 0.0096157135376975355 -0.011129414207971422 0.00065467090726914728 0.044125550005584956
leaf_weight=177997 1838 30697 5029 1074 116 305 154 243 47 27 26 22 33 25
leaf_count=177997 1838 30697 5029 1074 116 305 154 243 47 27 26 22 33 25
internal_value=0 0.000126328 -0.000394221 0.000592663 0.00184241 0.00396185 0.00605521 0.00792886 0.0133706 0.0247981 0.00376854 0.00772267 0.0163661 0.0265323
internal_weight=0 39636 8939 3910 2072 998 693 577 250 96 327 49 84 51
internal_count=217633 39636 8939 3910 2072 998 693 577 250 96 327 49 84 51
shrinkage=0.15


Tree=497
num_leaves=15
num_cat=0
split_feature=2 22 2 22 19 23 18 3 6 22 21 19 0 2
split_gain=0.0342787 0.124279 0.29119 0.372852 0.384608 0.437426 0.359707 0.275687 0.303698 0.225843 0.468974 0.316663 0.309572 0.307548
threshold=-2.8223399999999992 -2.8036449999999995 -2.9738899999999995 -2.9897199999999997 0.00022564950000000003 -16.042949999999994 -4.1156349999999994e-05 -6.2187599999999987 -7.5924149999999995e-07 -2.4287549999999993 -0.16778899999999997 1.9006200000000004e-05 -12.511149999999999 -2.9212349999999998
decision_type=2 2 2 2 2 2 2 2 2 2 2 2 2 2
left_child=1 2 -1 -4 5 -5 -7 8 -8 10 11 12 -3 -14
right_child=-2 9 3 4 -6 6 7 -9 -10 -11 -12 -13 13 -15
leaf_value=-0.0010592914532992848 -1.2724000653573563e-05 0.0017174949005711823 -0.0017286298088201744 -0.010762004012108913 -0.0050895437136447676 0.030567442758807115 0.015014301892055349 -0.0048068203880684453 -0.00017950875256713983 0.00031066841642509401 0.015702817924039693 0.0010128074004506272 -0.0048664706748166612 -0.015555546834564189
leaf_weight=365 208125 75 139 21 45 21 148 25 37 8166 29 187 147 103
leaf_count=365 208125 75 139 21 45 21 148 25 37 8166 29 187 147 103
internal_value=0 0.000278522 0.0020665 0.00468328 0.00768414 0.00996515 0.0118494 0.00997764 0.0119755 0.000114036 -0.00285398 -0.00390505 -0.00673471 -0.00927037
internal_weight=0 9508 801 436 297 252 231 210 185 8707 541 512 325 250
internal_count=217633 9508 801 436 297 252 231 210 185 8707 541 512 325 250
shrinkage=0.15


Tree=498
num_leaves=15
num_cat=0
split_feature=34 3 14 23 23 20 0 23 38 18 0 20 20 23
split_gain=0.0327893 0.109114 0.250363 0.769097 0.962255 0.561931 5.33023 2.81326 1.2541 1.2312 1.20494 3.55911 2.80887 2.11788
threshold=0.25525800000000004 -6.8865649999999992 0.00038336100000000009 -6.3908299999999993 -11.906049999999999 5.4455950000000009 5.2449200000000014 -6.9868449999999989 0.0017433550000000003 -5.2324399999999995e-06 8.7439000000000018 9.3032900000000023 8.6135100000000016 -8.8068099999999987
decision_type=2 2 2 2 2 2 2 2 2 2 2 2 2 2
left_child=1 2 3 4 -1 -6 -7 8 10 -10 11 -8 -12 -13
right_child=-2 -3 -4 -5 5 6 7 -9 9 -11 12 13 -14 -15
leaf_value=0.001168795493358861 0.00010488772052545739 0.00014273326094391535 -6.0078723583443356e-09 0.0023885225558019051 -0.0018604471973064007 -0.0041375762616061088 0.016222790279623665 -0.0058686883969876489 0.025094817713316942 -0.0097177463334019391 -0.0078391519525381967 0.025304203724954278 0.011866772342611926 -0.01210315249414028
leaf_weight=4484 51264 54076 88345 1853 12151 3087 882 417 27 149 273 42 403 180
leaf_count=4484 51264 54076 88345 1853 12151 3087 882 417 27 149 273 42 403 180
internal_value=0 -3.23195e-05 -0.000116618 -0.000546805 -0.000792976 -0.00129247 -2.84605e-05 0.00531703 0.00770171 -0.00437718 0.00889603 0.0119499 0.00390861 -0.00502609
internal_weight=0 166369 112293 23948 22095 17611 5460 2373 1956 176 1780 1104 676 222
internal_count=217633 166369 112293 23948 22095 17611 5460 2373 1956 176 1780 1104 676 222
shrinkage=0.15


Tree=499
num_leaves=15
num_cat=0
split_feature=9 20 20 22 9 22 12 13 2 2 22 2 23 3
split_gain=0.0512762 0.185508 0.16413 0.19224 0.436782 1.9453 3.36913 3.28847 2.06252 1.85795 5.18538 1.86324 1.57261 3.69247
threshold=5.5016300000000012e-06 -8.0805949999999971 8.1756000000000011 -1.3864299999999996 -2.1801549999999998e-05 -2.0263699999999996 -4.5131699999999993e-05 2.8930600000000004e-05 -2.0630899999999994 -2.0099249999999995 -2.2679949999999995 -2.2973549999999996 -14.054349999999998 -13.519999999999998
decision_type=2 2 2 2 2 2 2 2 2 2 2 2 2 2
left_child=2 -2 3 4 -1 9 7 8 -7 10 -6 -12 13 -10
right_child=1 -3 -4 -5 5 6 -8 -9 12 -11 11 -13 -14 -15
leaf_value=-0.00016798844526623669 0.00047626851592001555 -0.00015528874703104616 0.0005452363328943365 -0.00013804067785632958 -0.0013954292646706373 -0.016546692205884027 -0.00047707124789041102 0.00073767650883477124 0.027736128563161142 -0.0013016091247183103 -0.01531210737773038 0.02685568484555002 0.014437503848389925 -0.010317316556612135
leaf_weight=19157 11890 87286 14190 70965 673 58 2918 1158 84 7511 26 253 1283 181
leaf_count=19157 11890 87286 14190 70965 673 58 2918 1158 84 7511 26 253 1283 181
internal_value=0 -7.95727e-05 6.66208e-05 1.48462e-06 0.000298807 0.000931001 0.00307782 0.00683077 0.0112242 -0.000510355 0.00573241 0.0229261 0.0122647 0.00174491
internal_weight=0 99176 118457 104267 33302 14145 5682 2764 1606 8463 952 279 1548 265
internal_count=217633 99176 118457 104267 33302 14145 5682 2764 1606 8463 952 279 1548 265
shrinkage=0.15


Tree=500
num_leaves=15
num_cat=0
split_feature=9 22 9 22 19 2 3 36 1 2 22 2 2 7
split_gain=0.0413627 0.246805 0.677364 2.57846 3.34018 5.00552 3.43221 1.44829 1.36978 1.30444 3.54695 1.49424 1.40235 1.28236
threshold=-8.5596999999999985e-07 -1.5733149999999998 -2.1801549999999998e-05 -2.0263699999999996 4.6329000000000001e-06 -2.0349049999999997 -6.2498799999999992 0.069721200000000011 -4.0334449999999995 -2.0349049999999997 -2.2679949999999995 -2.2533199999999995 -1.5873099999999998 4.4778700000000005e-05
decision_type=2 2 2 2 2 2 2 2 2 2 2 2 2 2
left_child=1 2 -1 9 5 -5 7 8 13 10 -4 -12 -11 -7
right_child=-2 -3 3 4 -6 6 -8 -9 -10 12 11 -13 -14 -15
leaf_value=-0.00010553635868491891 -6.398627053095691e-05 -6.5552205596866001e-05 -0.0010467803809915495 -0.012858742908075718 0.00086432837190268327 0.020658745850655278 6.8551813740093607e-05 -0.0053893240737927367 0.00093399328373682986 -0.0039712853660744223 -0.0024930317250366966 0.026049041469348593 0.00085872603511771026 0.042728818686535726
leaf_weight=17121 111183 79681 600 175 1845 668 283 51 72 2253 52 200 3384 65
leaf_count=17121 111183 79681 600 175 1845 668 283 51 72 2253 52 200 3384 65
internal_value=0 6.68312e-05 0.000460886 0.00146604 0.00498057 0.0107602 0.0143891 0.0191236 0.0206766 -0.000244918 0.00522547 0.0201594 -0.00107174 0.0226158
internal_weight=0 106450 26769 9648 3159 1314 1139 856 805 6489 852 252 5637 733
internal_count=217633 106450 26769 9648 3159 1314 1139 856 805 6489 852 252 5637 733
shrinkage=0.15


Tree=501
num_leaves=15
num_cat=0
split_feature=12 28 21 6 33 13 9 33 17 32 3 21 19 0
split_gain=0.0474115 0.380566 0.231211 0.297278 0.479226 0.601111 0.496812 0.43686 0.430908 0.560321 0.538063 0.52635 0.91113 0.509697
threshold=-3.0825149999999994e-05 0.0020348000000000002 3.1386350000000003 -1.6783849999999999e-06 5.3687500000000009e-06 -9.1282599999999975e-06 1.9048800000000003e-05 2.2566150000000003e-06 2.1993100000000001e-05 -0.028607799999999999 -10.781849999999999 2.1817450000000007 0.0041639800000000003 -4.9512199999999984
decision_type=2 2 2 2 2 2 2 2 2 2 2 2 2 2
left_child=1 -1 3 7 -5 8 -7 -2 10 13 11 -6 -13 -10
right_child=2 -3 -4 4 5 6 -8 -9 9 -11 -12 12 -14 -15
leaf_value=-0.00034841864784590574 -0.00071123082374293571 0.00027745014883613113 -0.00020580480176225275 0.00071003658237034438 -0.005349757727681979 0.0013427814724737783 -0.00072791702265954418 0.00054200440774654802 -0.0017858802795341364 -0.00054010859364206224 -0.0010281814312329851 -0.0075668854784453283 0.022685342588062797 0.014379005136271807
leaf_weight=51686 15514 37881 47077 37673 1180 6087 4560 10490 66 479 4719 48 42 131
leaf_count=51686 15514 37881 47077 37673 1180 6087 4560 10490 66 479 4719 48 42 131
internal_value=0 -8.3717e-05 5.85501e-05 0.000212213 0.000409846 -0.000243406 0.000455923 -0.000205676 -0.00136055 0.00222939 -0.00176576 -0.00450641 0.00655082 0.00896336
internal_weight=0 89567 128066 80989 54985 17312 10647 26004 6665 676 5989 1270 90 197
internal_count=217633 89567 128066 80989 54985 17312 10647 26004 6665 676 5989 1270 90 197
shrinkage=0.15


Tree=502
num_leaves=15
num_cat=0
split_feature=22 7 37 17 9 34 31 27 16 16 36 10 8 15
split_gain=0.0504134 0.0515926 0.174574 0.17795 0.180781 0.296837 0.417452 0.517688 0.437355 0.245224 0.553606 0.501734 0.497623 0.224738
threshold=-2.9378149999999996 3.1390950000000001e-05 5.9581800000000005e-07 -1.8600549999999994e-08 1.2484000000000003e-05 0.20985100000000004 -0.16112599999999996 5.8323100000000005 1.2402350000000004e-07 5.2623050000000008e-06 0.0055718750000000013 2.7339550000000005e-05 3.1580350000000004e-06 3.0487750000000005e-07
decision_type=2 2 2 2 2 2 2 2 2 2 2 2 2 2
left_child=-1 2 -2 -4 13 6 7 8 -6 -7 -11 12 -12 -5
right_child=1 -3 3 4 5 9 -8 -9 -10 10 11 -13 -14 -15
leaf_value=0.00039739956651594456 -0.00026907895610624085 2.6090896671075531e-05 -0.0011598256656423099 0.00079152017829645343 0.0098571550870676424 0.00088428273593375525 0.00047571277964251888 -0.0043418929539620872 0.036172152077197095 -0.0034706706711836351 0.041128903974458807 -0.00075708654396043249 0.012176494983107071 -0.0031808049561948145
leaf_weight=6953 39757 164726 1083 3382 27 1084 71 20 30 61 22 29 34 354
leaf_count=6953 39757 164726 1083 3382 27 1084 71 20 30 61 22 29 34 354
internal_value=0 -1.31152e-05 -0.000153653 0.000586865 0.000956765 0.00242524 0.00877193 0.0164217 0.0237072 0.00166157 0.00743267 0.0152574 0.0235507 0.000415127
internal_weight=0 210680 45954 6197 5114 1378 148 77 57 1230 146 85 56 3736
internal_count=217633 210680 45954 6197 5114 1378 148 77 57 1230 146 85 56 3736
shrinkage=0.15


Tree=503
num_leaves=15
num_cat=0
split_feature=19 33 3 11 22 20 33 13 13 30 3 33 13 37
split_gain=0.0375998 0.460967 0.211888 0.171459 0.259445 0.183799 0.167556 0.242501 0.473532 0.621705 1.14815 0.810056 1.11274 0.699957
threshold=8.6333700000000013e-07 1.5838450000000004e-05 -6.2768299999999995 2.8502500000000004e-05 -1.2895399999999999 3.8385900000000004 1.4686200000000002e-05 5.2677500000000014e-06 -3.1748149999999992e-05 0.00093503900000000003 -9.9127699999999983 1.8042700000000003e-05 -2.3880199999999995e-05 2.1323650000000003e-07
decision_type=2 2 2 2 2 2 2 2 2 2 2 2 2 2
left_child=1 -1 3 -3 -5 -6 -2 8 -8 10 11 12 -10 -14
right_child=6 2 -4 4 5 -7 7 -9 9 -11 -12 -13 13 -15
leaf_value=-0.00029480967379171864 0.00011141682488750133 0.0017441033719651034 -5.8251462260410162e-05 0.0064466154841933791 0.00012568669203369404 -0.0045705008228358714 0.00052948111480428711 0.00015704698722594955 0.018921634435592184 -0.00051387405862580028 -0.0014130534920949892 -0.010866210476312213 -0.013370275225794389 0.012587621147113462
leaf_weight=48014 129774 5026 3705 112 666 261 4869 14598 53 7475 2378 576 95 31
leaf_count=48014 129774 5026 3705 112 666 261 4869 14598 53 7475 2378 576 95 31
internal_value=0 -0.000103699 0.000835504 0.00138148 -0.00037264 -0.00119654 3.74861e-05 -0.000281526 -0.00069519 -0.00125731 -0.00303105 -0.00812722 0.000686518 -0.00698381
internal_weight=0 57784 9770 6065 1039 927 159849 30075 15477 10608 3133 755 179 126
internal_count=217633 57784 9770 6065 1039 927 159849 30075 15477 10608 3133 755 179 126
shrinkage=0.15


Tree=504
num_leaves=15
num_cat=0
split_feature=14 33 6 3 39 14 1 32 7 19 21 1 19 3
split_gain=0.0407532 0.32702 0.573876 0.598858 0.161133 0.392332 0.211105 0.41116 0.357197 0.305865 0.253681 0.343131 0.341811 1.24898
threshold=0.00018273250000000005 -8.2696899999999974e-06 -2.5298449999999997e-06 -6.493739999999999 1.3749050000000003e-06 0.0054376550000000004 -4.9916099999999988 0.01039575 3.0537650000000007e-05 2.3510950000000003e-09 4.8976950000000015 2.4444950000000003 1.1012150000000001e-08 -8.7372249999999987
decision_type=2 2 2 2 2 2 2 2 2 2 2 2 2 2
left_child=1 2 -1 -4 5 6 7 -2 -9 -10 -8 -12 13 -13
right_child=4 -3 3 -5 -6 -7 10 8 9 -11 11 12 -14 -15
leaf_value=-0.00042642182826120248 0.0012491023411347903 -8.9358573015736674e-05 0.0032191686778419736 0.00062919255172012455 -9.588861830843184e-05 -0.00050884876167846846 0.0021464347150732532 -0.007090502672934566 0.01310016003147158 -0.0014408859396249094 0.0022393176952359029 -0.0052439542108186294 -0.0017398298800258372 0.025166380741842548
leaf_weight=6121 1889 49113 2929 6393 136442 6519 4326 275 34 762 1204 80 1497 49
leaf_count=6121 1889 49113 2929 6393 136442 6519 4326 275 34 762 1204 80 1497 49
internal_value=0 9.99532e-05 0.000702017 0.00144297 -4.21525e-05 0.000398597 0.000983377 -8.20553e-05 -0.00242991 -0.000819786 0.00142408 0.000319876 -0.00110141 0.00630726
internal_weight=0 64556 15443 9322 153077 16635 10116 2960 1071 796 7156 2830 1626 129
internal_count=217633 64556 15443 9322 153077 16635 10116 2960 1071 796 7156 2830 1626 129
shrinkage=0.15


Tree=505
num_leaves=15
num_cat=0
split_feature=4 23 33 5 36 32 15 4 0 14 5 33 23 3
split_gain=0.0354809 0.0763955 0.104458 0.0982666 0.0785911 0.0782227 0.105321 0.138186 0.104826 0.0773782 0.0828454 0.0903612 0.0716796 0.158266
threshold=0.61528200000000022 -6.5700849999999997 -0.0025000549999999997 1.0770600000000002e-05 -0.14060949999999997 -10.048129999999999 -2.1304699999999996e-05 2.9123050000000004 4.4321300000000008 0.00034297200000000004 1.5125850000000002e-05 2.2566150000000003e-06 -9.2917499999999986 -6.2187599999999987
decision_type=2 2 2 2 2 2 2 2 2 2 2 2 2 2
left_child=-1 2 3 -2 -5 6 -6 -8 -7 10 11 -4 13 -12
right_child=1 -3 9 4 5 8 7 -9 -10 -11 12 -13 -14 -15
leaf_value=-3.0563624106303169e-05 0.0064403961924836039 -0.00045487697317629281 0.013546164600877092 -0.011355073074309984 0.0022680559018309313 -0.0037965917962591287 -0.017668577222726665 -0.0015158288310472428 0.0098891627331613562 0.00015695864944150089 0.0038310931363650757 0.0010311311549028486 -0.00013640126320045676 0.00014495349539698287
leaf_weight=173460 20 4653 25 32 22 34 26 22 20 37469 469 27 760 594
leaf_count=173460 20 4653 25 32 22 34 26 22 20 37469 469 27 760 594
internal_value=0 0.000120018 0.000187705 -0.00345846 -0.00472755 -0.00301722 -0.0063262 -0.0102652 0.00127221 0.000204016 0.00114438 0.00704797 0.000975985 0.00177129
internal_weight=0 44173 39520 176 156 124 70 48 54 39344 1875 52 1823 1063
internal_count=217633 44173 39520 176 156 124 70 48 54 39344 1875 52 1823 1063
shrinkage=0.15


Tree=506
num_leaves=15
num_cat=0
split_feature=3 23 3 3 1 21 21 36 23 1 1 21 21 17
split_gain=0.0363648 0.167959 0.216332 0.261751 0.320942 2.22568 0.328629 0.333785 0.315174 0.285318 0.260533 1.52328 0.256204 0.228579
threshold=-6.4440149999999994 -6.2906249999999995 -5.8349799999999989 -6.2768299999999995 12.309050000000001 12.162300000000002 12.832950000000002 0.00076545550000000013 -6.0751199999999992 -10.684749999999998 -12.450199999999999 -12.91935 -13.890549999999999 6.7891750000000016e-08
decision_type=2 2 2 2 2 2 2 2 2 2 2 2 2 2
left_child=-1 -2 3 9 6 8 10 -8 -6 -3 11 -5 -12 -14
right_child=1 2 -4 4 5 -7 7 -9 -10 -11 12 -13 13 -15
leaf_value=-3.6459854074369615e-05 0.00016755052895784178 -0.0089339791284814684 2.6525212906894891e-05 0.031391813141968226 -0.021852710187279929 0.034164238065325959 -0.026536531154877217 -0.0063084723951760679 7.0785169926239184e-05 0.00361754176545309 -0.018238538465109363 -0.013760148361834579 -0.0081860658105672793 -0.0022129491183138406
leaf_weight=160783 53508 49 2055 29 36 36 29 50 25 242 29 40 199 523
leaf_count=160783 53508 49 2055 29 36 36 29 50 25 242 29 40 199 523
internal_value=0 0.000103116 -0.000928537 -0.00245352 -0.0036098 0.00458747 -0.00449426 -0.013734 -0.0128677 0.00150406 -0.0036041 0.00521676 -0.00441454 -0.00385928
internal_weight=0 56850 3342 1287 996 97 899 79 61 291 820 69 751 722
internal_count=217633 56850 3342 1287 996 97 899 79 61 291 820 69 751 722
shrinkage=0.15


Tree=507
num_leaves=15
num_cat=0
split_feature=22 19 9 8 33 9 11 3 33 2 36 18 4 4
split_gain=0.0347268 0.0547034 0.0800823 0.397806 0.0949127 0.0915021 0.0816543 0.0787809 0.0727243 0.0840304 0.139396 0.116595 0.0829467 0.150991
threshold=-2.9897199999999997 2.0955950000000004e-06 -5.2094699999999994e-05 3.4012300000000006e-06 -2.3300049999999997e-07 -3.5355399999999997e-05 -1.3164299999999997e-05 -7.4072199999999988 1.3458700000000004e-07 -2.2973549999999996 0.0021210450000000007 -1.3959549999999996e-07 -1.1246349999999998 -0.18992199999999995
decision_type=2 2 2 2 2 2 2 2 2 2 2 2 2 2
left_child=1 2 3 -1 -4 7 -7 -6 -3 10 -10 12 -11 -14
right_child=-2 8 4 -5 5 6 -8 -9 9 11 -12 -13 13 -15
leaf_value=0.024082376640290021 -9.3791974681809699e-06 0.00038946557427255721 -5.8202572325938469e-05 0.0015249647461767954 -0.01077045110607287 0.0087513500155248693 0.0024903868756539589 0.0019765319699217797 -0.0010327781959351215 -0.00089150455162910339 0.01387672100099735 0.00040333723188979722 -0.010713361948073725 -0.0023549107458694057
leaf_weight=20 212428 2963 968 146 20 55 317 24 43 140 21 284 80 124
leaf_count=20 212428 2963 968 146 20 55 317 24 43 140 21 284 80 124
internal_value=0 0.000382787 0.00112952 0.00424273 0.000756116 0.00265097 0.00341607 -0.00381755 6.61142e-05 -0.00131841 0.0038594 -0.00184608 -0.00370316 -0.00563273
internal_weight=0 5205 1550 166 1384 416 372 44 3655 692 64 628 344 204
internal_count=217633 5205 1550 166 1384 416 372 44 3655 692 64 628 344 204
shrinkage=0.15


Tree=508
num_leaves=15
num_cat=0
split_feature=4 24 18 37 13 12 21 18 12 6 4 23 4 18
split_gain=0.0342017 0.0861774 0.0927745 0.130368 0.131567 0.0875064 0.0758289 0.879788 0.143783 0.24417 0.16014 0.112555 0.247556 0.147257
threshold=-0.45233649999999997 0.080637500000000015 -0.00060569649999999992 9.4364900000000012e-06 2.5532150000000006e-05 0.0005900425000000001 -19.847999999999995 -9.7093149999999984e-05 -0.00011213399999999999 -3.0440899999999998e-07 -2.0449499999999996 -23.590149999999998 -1.3153099999999998 -0.0063933299999999992
decision_type=2 2 2 2 2 2 2 2 2 2 2 2 2 2
left_child=1 6 -3 5 -5 -4 7 8 9 -1 -10 12 13 -8
right_child=-2 2 3 4 -6 -7 11 -9 10 -11 -12 -13 -14 -15
leaf_value=-0.0071261897594667974 -3.142752731777731e-05 0.00011150269235325593 0.00085771818693261808 0.0001863841659119439 -0.0062572943267100367 0.0094134106527134342 -0.0075411688695357247 0.029531694859360868 -0.0012596007937995285 0.013268912123138372 -0.017264842545740646 -7.919411531474888e-05 -0.017400189716782834 0.0085822933520865365
leaf_weight=25 170115 14912 7085 185 116 27 26 24 39 28 22 24977 27 25
leaf_count=25 170115 14912 7085 185 116 27 26 24 39 28 22 24977 27 25
internal_value=0 0.000112511 0.000327098 0.000760789 -0.00229689 0.000890199 -7.76472e-05 0.00342887 -0.00206646 0.00364858 -0.00703198 -9.69607e-05 -0.00578613 0.000362489
internal_weight=0 47518 22325 7413 301 7112 25193 138 114 53 61 25055 78 51
internal_count=217633 47518 22325 7413 301 7112 25193 138 114 53 61 25055 78 51
shrinkage=0.15


Tree=509
num_leaves=15
num_cat=0
split_feature=12 28 22 13 31 6 8 7 21 1 22 2 11 34
split_gain=0.0332464 0.275853 0.285972 0.322685 0.495805 0.298815 0.326729 0.315346 0.290505 1.3798 1.11406 5.33791 2.80022 1.83237
threshold=-3.0825149999999994e-05 0.0020348000000000002 -0.16518399999999997 -1.9968549999999997e-05 -0.043810499999999995 5.0696000000000003e-07 9.6770100000000014e-06 5.1023000000000009e-05 -3.5985549999999997 -4.0791099999999991 -0.59692849999999986 -0.55996749999999984 0.00021782650000000005 0.017523300000000002
decision_type=2 2 2 2 2 2 2 2 2 2 2 2 2 2
left_child=1 2 8 4 5 -4 7 -7 -1 -10 -11 -12 13 -13
right_child=-2 -3 3 -5 -6 6 -8 -9 9 10 11 12 -14 -15
leaf_value=-0.0004067608182165512 4.9029627996111183e-05 0.00023738624508908896 -0.00012490804255010259 -0.00064352867331289761 -0.00073071233368388034 -0.018012814801348961 -0.005684873360830049 0.001430759229697287 -0.00052458893719003249 0.0011502408925321878 -0.002361345543424492 -0.0022269185521005793 0.001626307538969774 0.029543165854409796
leaf_weight=30131 128066 37881 149 6245 907 102 414 23 9802 2739 653 47 162 312
leaf_count=30131 128066 37881 149 6245 907 102 414 23 9802 2739 653 47 162 312
internal_value=0 -7.01043e-05 -0.000295466 -0.00112986 -0.00303405 -0.00607056 -0.00771417 -0.0144352 -0.000146269 0.000426015 0.00280726 0.00667317 0.0179967 0.0253839
internal_weight=0 89567 51686 7840 1595 688 539 125 43846 13715 3913 1174 521 359
internal_count=217633 89567 51686 7840 1595 688 539 125 43846 13715 3913 1174 521 359
shrinkage=0.15


Tree=510
num_leaves=15
num_cat=0
split_feature=9 22 29 9 13 22 20 9 22 3 29 9 13 3
split_gain=0.0327325 0.226559 0.238189 1.0595 0.796724 0.796271 0.939761 1.34329 0.844399 0.836884 0.703636 3.35576 1.79408 1.66223
threshold=-8.5596999999999985e-07 2.4622600000000006 0.00017142400000000002 9.8603650000000006e-06 2.4836450000000005e-05 -2.2095749999999996 0.62171450000000006 1.0000000180025095e-35 1.8015500000000002 -6.0822949999999993 -0.0012149099999999998 7.5602950000000016e-06 6.5277150000000004e-06 -7.3792049999999989
decision_type=2 2 2 2 2 2 2 2 2 2 2 2 2 2
left_child=-1 2 10 4 5 -4 8 -8 9 -7 -2 12 13 -12
right_child=1 -3 3 -5 -6 6 7 -9 -10 -11 11 -13 -14 -15
leaf_value=5.9451750338559335e-05 -9.9060527717683208e-05 0.00057178449426645371 -0.00072312837920448885 -5.3365428324327471e-05 0.00015300226052467774 -0.0096605235186976533 0.033709318903199725 -2.9967074633286509e-05 -0.0025444375182098224 -0.00093341974878477724 0.021856798089151693 -9.9084992926114785e-05 0.0013996616030623945 0.0061130053924407903
leaf_weight=106450 53957 11556 1823 33253 2424 1191 31 185 1226 312 330 4248 369 278
leaf_count=106450 53957 11556 1823 33253 2424 1191 31 185 1226 312 330 4248 369 278
internal_value=0 -5.69209e-05 -0.000129846 -0.000410407 -0.00206123 -0.00318691 -0.00471204 0.00481225 -0.00546588 -0.00784891 6.1889e-05 0.00172397 0.0096506 0.0146582
internal_weight=0 111183 99627 40445 7192 4768 2945 216 2729 1503 59182 5225 977 608
internal_count=217633 111183 99627 40445 7192 4768 2945 216 2729 1503 59182 5225 977 608
shrinkage=0.15


Tree=511
num_leaves=15
num_cat=0
split_feature=4 24 19 31 11 22 32 1 29 11 36 5 25 22
split_gain=0.0299472 0.111674 0.206499 0.330353 0.58993 0.617585 0.413589 0.520744 0.343999 0.77286 0.795172 0.481724 0.330056 0.284932
threshold=0.46547150000000009 0.21349650000000003 4.9052500000000005e-05 0.62597650000000005 -4.9299749999999995e-05 -2.2679949999999995 -2.9812749999999997 1.7084700000000002 -0.023203199999999997 3.6769950000000005e-05 0.012352350000000002 1.5946200000000003e-05 5.5892250000000008 1.0097150000000001
decision_type=2 2 2 2 2 2 2 2 2 2 2 2 2 2
left_child=-1 -2 3 6 5 -5 7 -3 9 -8 -11 -12 -10 -9
right_child=1 2 -4 4 -6 -7 8 13 12 10 11 -13 -14 -15
leaf_value=-2.9422989862816613e-05 0.00023073548749539784 -0.0098286923145808804 -7.2670968316747308e-05 0.017887446354851254 -0.011877462067824909 -0.0090002922390704041 -0.010968350613590675 0.029670812755823135 -0.00046824793785070099 -0.0090321764642982902 0.02786783367945728 0.0024270019117359288 0.015381512977452778 0.0072428391100122381
leaf_weight=170077 36634 21 9590 37 172 40 218 25 637 58 33 34 31 26
leaf_count=170077 36634 21 9590 37 172 40 218 25 637 58 33 34 31 26
internal_value=0 0.000105227 -0.000315747 -0.00206582 -0.00699237 0.00391979 -0.000933126 0.0100511 -0.00171539 -0.00557671 0.00382632 0.0149576 0.000267295 0.0182369
internal_weight=0 47556 10922 1332 249 77 1083 72 1011 343 125 67 668 51
internal_count=217633 47556 10922 1332 249 77 1083 72 1011 343 125 67 668 51
shrinkage=0.15


Tree=512
num_leaves=15
num_cat=0
split_feature=14 34 3 29 20 0 23 29 19 36 3 28 2 21
split_gain=0.0327943 0.167832 0.298728 0.584448 0.704362 0.731254 0.573305 0.573147 0.471899 0.419983 0.510008 0.555476 0.589767 0.707113
threshold=0.000110883 0.008249755000000001 -6.860879999999999 -0.0034048249999999998 10.068200000000003 6.0567350000000006 -7.2957849999999995 -0.0058295449999999993 2.4339550000000004e-08 0.00019811300000000001 -7.2233449999999992 -0.0021246849999999999 0.21101150000000005 -0.52034099999999983
decision_type=2 2 2 2 2 2 2 2 2 2 2 2 2 2
left_child=1 2 3 4 5 -1 9 -6 -9 10 11 -5 13 -13
right_child=-2 -3 -4 6 7 -7 -8 8 -10 -11 -12 12 -14 -15
leaf_value=-0.0071974538890644908 -3.037195002629379e-05 0.00024997109589064306 -0.00015569721387933891 -0.019204651039739649 -0.018103902089373708 0.023122349023331133 -0.0016968939639601948 -0.010691941043155059 0.014846632196908681 -0.019133180136268493 -0.016777086095923245 0.0090395008340816603 0.015264327880084657 -0.022509658730198296
leaf_weight=25 171085 37663 7831 31 39 63 560 27 41 80 72 33 52 31
leaf_count=25 171085 37663 7831 31 39 63 560 27 41 80 72 33 52 31
internal_value=0 0.000111631 -0.000474786 -0.00284555 0.00456794 0.0145088 -0.00452848 -0.00360769 0.00470632 -0.00983177 -0.006434 -0.00136799 0.0033987 -0.00624212
internal_weight=0 46548 8885 1054 195 88 859 107 68 299 219 147 116 64
internal_count=217633 46548 8885 1054 195 88 859 107 68 299 219 147 116 64
shrinkage=0.15


Tree=513
num_leaves=15
num_cat=0
split_feature=4 35 0 4 20 3 23 4 33 36 3 5 30 17
split_gain=0.0292222 0.112111 0.216374 0.750219 0.435467 0.25109 0.187056 0.157379 0.467158 0.434787 0.541982 0.325783 0.389539 0.482269
threshold=-0.48541799999999996 0.044157750000000009 -2.3471649999999995 -1.5283549999999997 0.62171450000000006 -11.892349999999999 -9.1777649999999991 -1.3153099999999998 4.5690900000000007e-05 -0.30938449999999995 -5.9751649999999996 1.5879750000000003e-05 0.0087794500000000011 -1.4772749999999998e-06
decision_type=2 2 2 2 2 2 2 2 2 2 2 2 2 2
left_child=1 -1 7 -4 5 -5 -7 -3 -9 -10 11 12 -11 -14
right_child=-2 2 3 4 -6 6 -8 8 9 10 -12 -13 13 -15
leaf_value=0.00016752008305497557 -2.8706592602838362e-05 -0.00034968005381478786 0.0001227743047890818 -0.017059698195637039 -0.0019979091385320044 -0.0035120285537877036 -0.013115153598706596 -0.0017550700227144972 -0.0048615436923971243 0.026335386561113408 -0.007373620801605283 0.025078486978983211 0.017167073698947204 -0.01577385249780491
leaf_weight=43520 170992 915 1297 92 247 110 78 199 41 20 25 57 20 20
leaf_count=43520 170992 915 1297 92 247 110 78 199 41 20 25 57 20 20
internal_value=0 0.000105242 -0.000763177 -0.00181636 -0.00658877 -0.0106386 -0.0074963 0.000717938 0.00327519 0.00874526 0.012674 0.0169577 0.00924287 0.000696611
internal_weight=0 46641 3121 1824 527 280 188 1297 382 183 142 117 60 40
internal_count=217633 46641 3121 1824 527 280 188 1297 382 183 142 117 60 40
shrinkage=0.15


Tree=514
num_leaves=15
num_cat=0
split_feature=2 33 21 22 19 22 2 22 8 3 23 33 21 8
split_gain=0.0281858 0.106264 0.0957043 0.243783 0.100763 0.0936682 0.282917 0.338355 0.311088 0.37263 0.348804 0.328699 0.227159 0.19845
threshold=-2.8223399999999992 1.9383450000000008e-06 -3.7462599999999999 2.5991050000000002 3.9025550000000007e-10 -2.8036449999999995 -3.0230999999999995 -2.9160599999999994 2.9092100000000003e-06 -8.6591799999999974 -9.2454099999999979 -6.9753249999999992e-06 -2.5163899999999999 1.8151200000000001e-06
decision_type=2 2 2 2 2 2 2 2 2 2 2 2 2 2
left_child=1 5 3 4 -3 6 12 -8 13 11 -11 -10 -1 -9
right_child=-2 2 -4 -5 -6 -7 7 8 9 10 -12 -13 -14 -15
leaf_value=-0.013805127530174916 -1.1537902261227352e-05 0.010226925224997102 0.00031968171295242528 0.01832005908960127 0.0014325611728217525 -0.00041040596717941557 0.00029665186064033931 0.0071853724569082263 0.028127617940942685 -0.0092805251285123323 0.01124923894269159 0.0065675780674470064 -0.00097676085782415385 -0.011714607574045658
leaf_weight=38 208125 30 2591 20 1282 4831 342 25 41 27 60 26 170 25
leaf_count=38 208125 30 2591 20 1282 4831 342 25 41 27 60 26 170 25
internal_value=0 0.000252558 0.000850892 0.0018842 0.00163365 -0.000167721 0.0013872 0.00318057 0.00801539 0.011353 0.00487793 0.019761 -0.0033204 -0.00226462
internal_weight=0 9508 3923 1332 1312 5585 754 546 204 154 87 67 208 50
internal_count=217633 9508 3923 1332 1312 5585 754 546 204 154 87 67 208 50
shrinkage=0.15


Tree=515
num_leaves=15
num_cat=0
split_feature=5 12 21 28 20 0 10 20 24 0 1 23 10 17
split_gain=0.0280314 0.0656097 0.0780653 0.0980379 0.114168 0.247627 0.407551 0.0943303 0.132064 0.122039 0.185347 0.108812 0.142487 0.0695621
threshold=6.9938750000000009e-06 7.0100100000000005e-06 6.146065000000001 0.0026790250000000002 5.0093250000000014 4.1687100000000008 2.5324350000000004e-05 1.9878300000000002 0.41772450000000005 4.1687100000000008 -4.141049999999999 -17.487949999999994 8.362345000000001e-06 3.0761150000000001e-08
decision_type=2 2 2 2 2 2 2 2 2 2 2 2 2 2
left_child=1 2 3 4 7 -6 -7 8 11 10 -9 -1 -13 -14
right_child=-2 -3 -4 -5 5 6 -8 9 -10 -11 -12 12 13 -15
leaf_value=-0.0086102209118608802 -4.8230761932567145e-06 -0.00046324664049279818 0.0040905223575940066 -0.0020843238614514387 0.00089988406015460471 0.030288615035824473 0.0038347464587882552 -0.01125704842619598 0.01033662920612294 -0.012470505482956973 0.0072643226186741103 0.011936607046160274 -0.0053801314703688565 0.0013694662657727811
leaf_weight=27 215900 744 195 205 113 20 38 20 34 27 31 26 41 212
leaf_count=27 215900 744 195 205 113 20 38 20 34 27 31 26 41 212
internal_value=0 0.000600866 0.00140137 0.000740939 0.00172426 0.00498935 0.0129568 0.000388546 0.00146783 -0.00431603 1.03986e-06 0.000482409 0.00136234 0.000275658
internal_weight=0 1733 989 794 589 171 58 418 340 78 51 306 279 253
internal_count=217633 1733 989 794 589 171 58 418 340 78 51 306 279 253
shrinkage=0.15


Tree=516
num_leaves=15
num_cat=0
split_feature=20 0 0 20 11 23 3 3 3 23 23 23 18 39
split_gain=0.0270409 0.346619 0.574814 1.1464 1.7354 1.61569 2.40629 2.19082 2.1997 2.3161 1.64337 1.51472 1.1067 1.24029
threshold=-2.1740799999999996 -7.4213099999999992 -1.9769949999999998 -7.3314749999999984 -5.1252949999999995e-05 -11.172049999999997 -11.279499999999997 -11.101149999999999 -6.8364449999999986 -7.0114099999999988 -6.789509999999999 -14.248749999999998 6.3858800000000013e-05 0.0011333450000000002
decision_type=2 2 2 2 2 2 2 2 2 2 2 2 2 2
left_child=1 -1 3 -3 -5 6 11 -7 9 12 -10 -6 13 -9
right_child=-2 2 -4 4 5 7 -8 8 10 -11 -12 -13 -14 -15
leaf_value=-0.00059807023552419035 -4.2870446389517413e-05 -0.00062987556778850643 -8.7199785094889832e-05 -1.0583288094011303e-06 -0.00068931025566987161 -0.0041081267135327218 -0.0014862777180778459 0.013433764932775974 -0.0013814953938007005 -0.0012693057123643776 0.010019870885936632 0.01585178775690561 -0.0017776161792983783 -1.2678376498276038e-05
leaf_weight=14707 131309 7903 49010 7435 199 513 2399 1676 1051 401 390 333 137 170
leaf_count=14707 131309 7903 49010 7435 199 513 2399 1676 1051 401 390 333 137 170
internal_value=0 6.5211e-05 0.00020142 0.000827122 0.00161022 0.00325829 0.000537664 0.0050965 0.00633101 0.00912765 0.00170423 0.00966442 0.0112301 0.0121955
internal_weight=0 86324 71617 22607 14704 7269 2931 4338 3825 2384 1441 532 1983 1846
internal_count=217633 86324 71617 22607 14704 7269 2931 4338 3825 2384 1441 532 1983 1846
shrinkage=0.15


Tree=517
num_leaves=15
num_cat=0
split_feature=3 23 3 23 3 14 37 14 23 3 28 22 1 19
split_gain=0.038489 0.193405 0.472575 1.56179 2.23545 1.4872 0.908191 0.668855 2.90734 0.824881 1.0203 0.649851 0.990122 0.680965
threshold=-6.9170499999999988 -7.588404999999999 -7.5458749999999988 -7.1072649999999991 -7.0757599999999989 0.00044448550000000006 5.0585050000000011e-07 0.00030621600000000005 -7.1072649999999991 -8.9446899999999996 0.0047670900000000007 -2.4496249999999997 1.3814250000000003 2.4339550000000004e-08
decision_type=2 2 2 2 2 2 2 2 2 2 2 2 2 2
left_child=1 -1 7 4 5 6 11 8 9 -3 -11 12 -4 -13
right_child=-2 2 3 -5 -6 -7 -8 -9 -10 10 -12 13 -14 -15
leaf_value=-0.00015074503572932055 9.0250288105967277e-05 -0.00068586033537099047 0.011826767760222076 -0.0002281031552075236 -0.0049737112481788642 0.00014537970615987889 -0.010394339676089917 0.00026991266930397794 0.00074452818366912412 -0.013525077709430205 -0.0020217262066488874 0.006357191820731984 -0.020117502571905359 0.016042706221563896
leaf_weight=105779 71427 253 61 3614 377 382 42 31070 2876 640 238 222 34 618
leaf_count=105779 71427 253 61 3614 377 382 42 31070 2876 640 238 222 34 618
internal_value=0 -4.40906e-05 0.000234975 0.00154816 0.00524597 0.00808102 0.0111838 3.46867e-05 -0.00178924 -0.00823231 -0.0104069 0.0121531 0.000394082 0.013483
internal_weight=0 146206 40427 5350 1736 1359 977 35077 4007 1131 878 935 95 840
internal_count=217633 146206 40427 5350 1736 1359 977 35077 4007 1131 878 935 95 840
shrinkage=0.15


Tree=518
num_leaves=15
num_cat=0
split_feature=34 19 10 22 22 1 23 1 1 29 8 11 33 26
split_gain=0.0392128 0.101174 0.22872 0.419155 1.43178 1.88168 1.14377 2.32863 1.61043 1.34336 1.19474 0.9237 0.757798 0.729541
threshold=0.25525800000000004 8.6333700000000013e-07 1.6275850000000004e-05 -1.9803299999999997 -1.4969799999999998 -5.5255399999999995 -7.780594999999999 -9.9301699999999986 -9.3417349999999981 0.0010972950000000001 1.1298650000000002e-05 -3.4894799999999992e-06 -1.2635699999999998e-05 6.1092550000000015e-05
decision_type=2 2 2 2 2 2 2 2 2 2 2 2 2 2
left_child=1 2 3 -1 5 6 7 -5 13 11 -11 -9 -7 -8
right_child=-2 -3 -4 4 -6 12 8 9 -10 10 -12 -13 -14 -15
leaf_value=-0.003641094760409914 0.00011470247893507393 3.5486828381811265e-05 -8.3411492762699139e-05 -0.0074034247288687367 -0.0013809254665093048 0.018401709916758012 0.0063995488874107886 0.020613247901201247 -0.021286923061548307 0.032822361544651138 -0.00032948550391704478 0.056299760960478416 -0.0056828374467303476 0.034964441910138706
leaf_weight=1147 51264 121734 37742 54 5048 33 103 25 44 51 47 47 269 25
leaf_count=1147 51264 121734 37742 54 5048 33 103 25 44 51 47 47 269 25
internal_value=0 -3.53438e-05 -0.000228522 -0.00102306 -0.000500454 0.0058672 0.0126685 0.0197325 0.00346884 0.0283522 0.016923 0.0439086 -0.00305108 0.0119786
internal_weight=0 166369 44635 6893 5746 698 396 224 172 170 98 72 302 128
internal_count=217633 166369 44635 6893 5746 698 396 224 172 170 98 72 302 128
shrinkage=0.15


Tree=519
num_leaves=15
num_cat=0
split_feature=22 13 0 33 2 3 38 16 13 4 24 5 5 2
split_gain=0.0403299 0.0629028 0.0706139 0.10381 0.258222 0.0829774 0.156265 0.175009 0.137735 0.137993 0.122518 0.118672 0.158769 0.223691
threshold=-2.8863399999999997 4.521010000000001e-05 -7.4213099999999992 2.4679550000000006e-06 -2.7287999999999997 -6.3281449999999984 -0.0017860949999999999 1.4086250000000003e-08 3.8126000000000001e-06 0.14547050000000003 0.22470950000000003 9.6507650000000018e-06 9.073885000000002e-06 -2.9487299999999999
decision_type=2 2 2 2 2 2 2 2 2 2 2 2 2 2
left_child=1 2 3 5 -5 6 7 8 -1 -10 11 12 13 -8
right_child=-2 -3 -4 4 -6 -7 10 -9 9 -11 -12 -13 -14 -15
leaf_value=0.00094907552537613731 -1.3199304304337827e-05 -0.00030677572050740251 0.00084482117006248335 0.0151239104103297 -0.0011269542694208213 0.00054399050666968554 0.0062026238901931458 -0.0079054583322991107 0.0040350003438236722 0.021444530587177723 -0.014229961138750824 -0.0012655927568067191 -0.014814505685825605 -0.0092493946654150991
leaf_weight=53 208904 2574 4811 33 66 585 35 26 21 20 21 394 37 53
leaf_count=53 208904 2574 4811 33 66 585 35 26 21 20 21 394 37 53
internal_value=0 0.000315888 0.000576284 -0.000384975 0.00429 -0.00075672 -0.00190962 0.00298654 0.00599922 0.0125275 -0.00299766 -0.00254317 -0.0065701 -0.00310371
internal_weight=0 8729 6155 1344 99 1245 660 120 94 41 540 519 125 88
internal_count=217633 8729 6155 1344 99 1245 660 120 94 41 540 519 125 88
shrinkage=0.15


Tree=520
num_leaves=15
num_cat=0
split_feature=20 10 14 2 10 11 19 35 38 13 16 18 39 33
split_gain=0.0334908 0.157662 0.13843 0.118265 0.113714 0.118956 0.108567 0.113982 0.185143 0.159719 0.171415 0.164139 0.103643 0.10173
threshold=-8.4074199999999983 1.6592800000000005e-05 0.00052710300000000012 -2.7531699999999995 2.6821450000000004e-05 -6.2747399999999975e-05 3.0659200000000006e-05 0.024191700000000003 0.68923950000000012 5.6532750000000005e-05 4.7861450000000004e-06 -8.7140049999999986e-06 0.025783800000000003 -4.0472449999999997e-06
decision_type=2 2 2 2 2 2 2 2 2 2 2 2 2 2
left_child=1 2 -1 4 5 -3 13 8 12 10 11 -9 -8 -4
right_child=-2 3 6 -5 -6 -7 7 9 -10 -11 -12 -13 -14 -15
leaf_value=-0.00032223191368068685 -2.0887872860750423e-05 -0.001356849619021107 -0.00034599788433913471 0.00011241978828599035 -0.001480738905853979 0.014807249621953815 0.0014738578215615838 -0.013509772605586634 0.012937657336794561 0.0015678575922555122 -0.019061355690272258 0.0023930078164130465 -0.0056322701457247604 0.0039088651072310149
leaf_weight=1035 193278 21 155 19485 1473 20 1218 23 31 99 21 40 48 686
leaf_count=1035 193278 21 155 19485 1473 20 1218 23 31 99 21 40 48 686
internal_value=0 0.000165763 0.00112042 1.31922e-05 -0.00126386 0.00652808 0.00176375 0.000990407 0.00148487 -0.00251407 -0.00732492 -0.00341277 0.00120443 0.00312468
internal_weight=0 24355 3356 20999 1514 41 2321 1480 1297 183 84 63 1266 841
internal_count=217633 24355 3356 20999 1514 41 2321 1480 1297 183 84 63 1266 841
shrinkage=0.15


Tree=521
num_leaves=15
num_cat=0
split_feature=4 38 19 26 0 17 8 35 2 28 7 0 36 19
split_gain=0.0337676 0.079323 0.163985 0.299423 0.539858 0.484843 0.446962 0.631476 0.416588 0.964313 0.832082 0.355814 0.310591 0.300271
threshold=0.46547150000000009 -0.0010404549999999998 0.00013127750000000005 -0.00054938149999999989 5.4039500000000009 1.6384450000000002e-06 -5.9987099999999988e-06 0.026893100000000003 1.0714450000000002 0.020032950000000004 3.8198000000000009e-05 2.7480800000000003 0.0098258200000000007 3.0659200000000006e-05
decision_type=2 2 2 2 2 2 2 2 2 2 2 2 2 2
left_child=-1 2 3 4 5 11 -6 -8 12 -10 13 -2 -5 -11
right_child=1 -3 -4 8 6 -7 7 -9 9 10 -12 -13 -14 -15
leaf_value=-3.1243442565759389e-05 -0.011467409065880929 0.00022011622689686278 2.6540325252105373e-05 -0.00055281096459474917 -0.0041283530345136094 -0.003841021151785784 -0.0063432634982746091 0.024735805366990941 -0.0024648299462458607 0.019374813646098353 0.0026505878326338783 -0.031887243635719639 -0.0068454982834562734 0.041390201855683699
leaf_weight=170077 96 36220 9373 909 83 236 24 38 197 46 71 24 219 20
leaf_count=170077 96 36220 9373 909 83 236 24 38 197 46 71 24 219 20
internal_value=0 0.000111738 -0.000234546 -0.00148119 -0.00464586 -0.00778833 0.00306944 0.0127052 -0.000396719 0.00425648 0.0139214 -0.0155514 -0.00177453 0.0260461
internal_weight=0 47556 11336 1963 501 356 145 62 1462 334 137 120 1128 66
internal_count=217633 47556 11336 1963 501 356 145 62 1462 334 137 120 1128 66
shrinkage=0.15


Tree=522
num_leaves=15
num_cat=0
split_feature=14 33 6 3 13 33 33 3 34 34 3 17 2 22
split_gain=0.0367649 0.244366 0.418397 0.482741 0.149007 0.33057 0.520109 1.00443 0.564948 0.476863 0.723021 0.856364 0.537867 1.45662
threshold=0.00018273250000000005 -8.2696899999999974e-06 -2.5298449999999997e-06 -6.8084599999999993 1.0268350000000001e-05 4.3599350000000003e-06 -2.0038149999999996e-06 -6.3035799999999993 0.016847400000000002 0.0099048150000000026 -6.493739999999999 1.5442900000000004e-07 -2.4013349999999996 -2.4007899999999993
decision_type=2 2 2 2 2 2 2 2 2 2 2 2 2 2
left_child=1 2 -1 -4 -3 6 9 8 -8 10 11 12 13 -6
right_child=-2 4 3 -5 5 -7 7 -9 -10 -11 -12 -13 -14 -15
leaf_value=-0.00034814262027261047 -4.0036745402856654e-05 -0.00024934516960450383 0.0031832970208769411 0.00064597493190100255 0.018852491715111799 0.0011222547159049879 -0.0057603531282891095 0.00025467235089185003 0.00027880192671191729 -0.00025747886621698486 0.00038705859946722046 -0.0053109158706886447 0.012411484500763599 -0.011778966996680539
leaf_weight=6121 153077 33230 2212 7110 62 6586 1309 3346 475 2616 922 106 381 80
leaf_count=6121 153077 33230 2212 7110 62 6586 1309 3346 475 2616 922 106 381 80
internal_value=0 9.49363e-05 0.000615383 0.00124805 -6.87119e-05 0.000309204 -0.000266761 -0.00127792 -0.00415239 0.00097808 0.00306204 0.00698308 0.00947479 0.00159533
internal_weight=0 64556 15443 9322 49113 15883 9297 5130 1784 4167 1551 629 523 142
internal_count=217633 64556 15443 9322 49113 15883 9297 5130 1784 4167 1551 629 523 142
shrinkage=0.15


Tree=523
num_leaves=15
num_cat=0
split_feature=2 33 4 32 29 3 29 18 38 12 9 33 18 17
split_gain=0.034797 0.0453783 0.0637242 0.103326 0.0757557 0.0587386 0.0779015 0.111624 0.0704392 0.120536 0.0563364 0.0884589 0.195743 0.246523
threshold=-2.8982399999999995 2.2566150000000003e-06 -0.40425149999999993 2.2285250000000003 0.20869500000000005 -6.2768299999999995 0.0028797400000000004 8.8556600000000012e-05 0.0026102300000000003 -8.752684999999999e-06 -4.5196699999999994e-05 -7.6668749999999993e-06 2.3555150000000004e-06 5.0548200000000008e-06
decision_type=2 2 2 2 2 2 2 2 2 2 2 2 2 2
left_child=1 10 3 4 -3 6 7 -4 -8 -10 -1 12 -12 -14
right_child=-2 2 5 -5 -6 -7 8 -9 9 -11 11 -13 13 -15
leaf_value=0.00051539519937749919 -1.0862135183722539e-05 -0.00031305037235449456 0.0036397705814764088 -0.00805003934572022 0.0084520716878140108 -0.00012390150945093022 -0.00077303119640680811 5.4861368259610437e-05 0.00084445809960568652 0.010156020314361041 0.00021785610523375403 0.00028567499308056622 -0.0076662413229724039 0.00087188477872503017
leaf_weight=2295 210722 627 647 38 23 541 403 280 158 39 452 1078 211 119
leaf_count=2295 210722 627 647 38 23 541 403 280 158 39 452 1078 211 119
internal_value=0 0.000331195 0.00080314 -0.000447364 -2.8999e-06 0.00121917 0.001695 0.00255695 0.000363296 0.00268786 1.81559e-05 -0.000595373 -0.00180991 -0.00458734
internal_weight=0 6911 2756 688 650 2068 1527 927 600 197 4155 1860 782 330
internal_count=217633 6911 2756 688 650 2068 1527 927 600 197 4155 1860 782 330
shrinkage=0.15


Tree=524
num_leaves=15
num_cat=0
split_feature=3 34 19 14 34 14 4 28 28 1 4 25 14 1
split_gain=0.0329525 0.129114 0.246111 0.20423 0.442145 0.415846 0.392506 0.365153 0.315076 2.53027 1.01365 0.779745 1.1416 0.383141
threshold=-6.9170499999999988 0.43971050000000006 1.1269300000000002e-07 0.00045556800000000005 0.072606550000000006 0.00021428950000000003 0.21982700000000002 -0.083375999999999992 0.020032950000000004 6.8904150000000008 -0.14309299999999997 1.5541450000000003 0.00023412000000000001 7.2775700000000008
decision_type=2 2 2 2 2 2 2 2 2 2 2 2 2 2
left_child=1 3 -3 4 8 -6 -7 -8 13 -10 -11 12 -12 -1
right_child=-2 2 -4 -5 5 6 7 -9 9 10 11 -13 -14 -15
leaf_value=-0.00062322733463962923 8.350735699629449e-05 0.0014483376224199774 8.206583159319896e-05 3.7849752125793414e-06 0.0015970013973011031 -0.0010612996959726575 0.01951851142120772 0.0022518183365673721 -0.0025956651316650977 0.043973530637804001 0.0037981345318257808 0.0019137595824351341 0.051592732042722085 -0.0023339825089665877
leaf_weight=16223 71427 3431 21910 92037 3897 3912 29 554 479 32 22 58 23 3599
leaf_count=16223 71427 3431 21910 92037 3897 3912 29 554 479 32 22 58 23 3599
internal_value=0 -4.07964e-05 0.00026705 -0.000105341 -0.000453738 0.000462971 -0.000520191 0.00311071 -0.000830182 0.00251632 0.0206544 0.0134096 0.0282265 -0.000933842
internal_weight=0 146206 25341 120865 28828 8392 4495 583 20436 614 135 103 45 19822
internal_count=217633 146206 25341 120865 28828 8392 4495 583 20436 614 135 103 45 19822
shrinkage=0.15


Tree=525
num_leaves=15
num_cat=0
split_feature=12 22 22 2 21 23 2 6 33 3 21 2 22 3
split_gain=0.0300513 0.225883 0.232787 0.526268 1.27529 1.77491 0.876581 0.561376 0.45506 0.398634 0.243646 0.581763 3.60173 2.46053
threshold=-3.0825149999999994e-05 0.30570200000000008 -0.20827799999999999 -0.24278899999999998 -0.95562549999999991 -9.7994249999999976 -0.98252549999999983 8.7258800000000016e-08 1.3050450000000002e-06 -8.4424149999999987 -3.5985549999999997 -0.5859764999999999 -0.59692849999999986 -8.9017749999999989
decision_type=2 2 2 2 2 2 2 2 2 2 2 2 2 2
left_child=1 2 10 6 5 -5 -4 -8 -9 -10 -1 -12 -13 -14
right_child=-2 -3 3 4 -6 -7 7 8 9 -11 11 12 13 -15
leaf_value=-0.00038212336771880972 4.661416397042287e-05 0.00020279645535814877 -0.00035070221030386313 0.045435583643376118 -0.0013417057787856572 -0.0020398271739181569 -0.00045762719878841103 -0.0041913757261696346 -0.015885222604417722 -0.0057731290015862876 -6.3362896587874458e-07 -0.0017501225950699408 0.019678416911323094 -0.0012926596955986417
leaf_weight=30028 128066 39293 5192 37 165 34 566 755 172 179 11382 1195 381 188
leaf_count=30028 128066 39293 5192 37 165 34 566 755 172 179 11382 1195 381 188
internal_value=0 -6.66506e-05 -0.000277244 -0.00107319 0.00589144 0.0227009 -0.00131265 -0.00429973 -0.00626595 -0.0107283 -0.000146351 0.000392199 0.0029269 0.0127495
internal_weight=0 89567 50274 7100 236 71 6864 1672 1106 351 43174 13146 1764 569
internal_count=217633 89567 50274 7100 236 71 6864 1672 1106 351 43174 13146 1764 569
shrinkage=0.15


Tree=526
num_leaves=15
num_cat=0
split_feature=32 2 3 21 19 33 27 19 17 35 19 36 33 13
split_gain=0.0366739 0.353835 0.352349 0.37169 0.331654 0.423438 0.332985 0.330774 0.269654 1.87105 3.63687 2.46302 2.85511 2.80083
threshold=-0.068734249999999983 -0.53906949999999998 -10.389699999999999 8.4090650000000018 0.00022564950000000003 3.4422350000000002e-06 0.82098300000000013 2.4794150000000001e-06 -6.6467399999999989e-09 -0.0014664949999999997 9.6074000000000005e-06 -0.0012506349999999997 -2.7939149999999998e-05 5.2899800000000005e-05
decision_type=2 2 2 2 2 2 2 2 2 2 2 2 2 2
left_child=1 2 3 4 5 6 7 -1 9 10 11 12 13 -3
right_child=-2 8 -4 -5 -6 -7 -8 -9 -10 -11 -12 -13 -14 -15
leaf_value=-0.010172642011761457 3.7183108139900361e-05 -0.011888403670995362 0.00075032741214446164 0.0015784944485323228 -0.00017711863063438107 -0.00017704587910368383 -0.0022961324934903655 -0.0021048609311993321 -0.00063611373458151562 -0.0014674763761809255 9.4243110228963963e-05 0.001438762171254129 0.024548263148749392 0.043976789921522146
leaf_weight=323 159479 105 15865 1560 3877 999 733 177 26642 4890 2245 326 387 25
leaf_count=323 159479 105 15865 1560 3877 999 733 177 26642 4890 2245 326 387 25
internal_value=0 -0.000101969 0.000346794 -0.000488003 -0.00101571 -0.00247234 -0.00433203 -0.00731665 -0.00040703 0.00035798 0.00324868 0.0116493 0.0180877 -0.0011451
internal_weight=0 58154 23534 7669 6109 2232 1233 500 34620 7978 3088 843 517 130
internal_count=217633 58154 23534 7669 6109 2232 1233 500 34620 7978 3088 843 517 130
shrinkage=0.15


Tree=527
num_leaves=15
num_cat=0
split_feature=12 28 1 34 15 15 22 2 34 22 13 22 3 33
split_gain=0.0320742 0.17309 0.181778 0.347095 0.3326 0.379294 0.172475 0.504505 1.32714 0.688594 0.490435 0.692226 0.33028 0.350364
threshold=-3.0825149999999994e-05 0.0020348000000000002 -3.5519849999999997 0.036792500000000006 -2.6163199999999997e-05 6.0585500000000005e-05 -0.25965299999999997 -0.24278899999999998 0.14700000000000005 -0.11653899999999999 -1.3482999999999998e-05 0.057390050000000005 -6.1381299999999994 2.0093250000000005e-06
decision_type=2 2 2 2 2 2 2 2 2 2 2 2 2 2
left_child=1 6 -3 -4 -5 -6 -1 10 -9 -10 11 12 13 -8
right_child=-2 2 3 4 5 -7 7 8 9 -11 -12 -13 -14 -15
leaf_value=-0.00011981412407816403 4.8157479996547249e-05 0.00033400233395691986 0.00073743921626040726 0.00076822043510376109 -0.0033181970378636416 0.00029991594750338856 -0.0041539715129497714 -0.00012404321347275982 0.036358653609859175 0.0050021027886452008 -0.00039691642436663551 -0.00051469687793051207 -0.00067302105582464058 -0.010405705582719386
leaf_weight=42480 128066 30673 2978 1175 2112 943 410 230 40 26 6688 1195 220 397
leaf_count=42480 128066 30673 2978 1175 2112 943 410 230 40 26 6688 1195 220 397
internal_value=0 -6.88572e-05 0.000174715 -0.000503116 -0.00137649 -0.00220138 -0.000247373 -0.000835979 0.00525632 0.0240061 -0.00103837 -0.00296909 -0.00582498 -0.00722948
internal_weight=0 89567 37881 7208 4230 3055 51686 9206 296 66 8910 2222 1027 807
internal_count=217633 89567 37881 7208 4230 3055 51686 9206 296 66 8910 2222 1027 807
shrinkage=0.15


Tree=528
num_leaves=15
num_cat=0
split_feature=22 10 13 34 13 2 3 19 33 8 21 2 2 23
split_gain=0.0313775 0.057527 0.045573 0.075142 0.186134 0.18769 0.0412717 0.0860374 0.1816 0.118498 0.0736826 0.0529996 0.0562525 0.0627424
threshold=-2.8863399999999997 2.1909450000000004e-05 3.8072300000000012e-05 0.43971050000000006 8.3693450000000004e-05 -1.5676099999999999 -13.158849999999999 1.8454150000000002e-07 -2.7857349999999998e-06 4.1546100000000007e-06 4.5333550000000011 -3.0230999999999995 -2.8982399999999995 -14.248749999999998
decision_type=2 2 2 2 2 2 2 2 2 2 2 2 2 2
left_child=1 2 -1 -4 5 -5 7 8 9 -3 11 -9 -13 -14
right_child=-2 6 3 4 -6 -7 -8 10 -10 -11 -12 12 13 -15
leaf_value=0.0013970188946437864 -1.1642525348071763e-05 -0.0049035782692953946 0.00075338412737515422 -0.020611223490129265 0.00040511159789725887 -0.00099729395172159585 0.00019954575117201378 -0.0070889851163217698 0.0035304284396261206 -0.01920426972078117 0.0075923930521676081 0.0058127550100306822 -0.0034705270318127449 5.0805125689325734e-05
leaf_weight=1523 208904 32 525 23 103 21 5701 28 32 22 25 31 146 517
leaf_count=1523 208904 32 525 23 103 21 5701 28 32 22 25 31 146 517
internal_value=0 0.000278631 0.000943012 -8.59347e-05 -0.0030835 -0.01125 5.54421e-05 -0.000930794 -0.00542366 -0.0107298 -0.000413544 -0.000690757 -0.000432616 -0.000724632
internal_weight=0 8729 2195 672 147 44 6534 833 86 54 747 722 694 663
internal_count=217633 8729 2195 672 147 44 6534 833 86 54 747 722 694 663
shrinkage=0.15


Tree=529
num_leaves=15
num_cat=0
split_feature=4 24 0 4 26 3 4 8 20 0 24 18 23 23
split_gain=0.031773 0.0882626 0.164387 0.232304 0.263919 0.327008 0.187777 0.601547 0.400334 0.440515 0.52008 0.514193 0.735826 0.484394
threshold=-0.48541799999999996 -0.35208349999999994 -9.6502149999999975 -1.1246349999999998 0.011675600000000003 -6.860879999999999 -0.68792049999999982 2.6956850000000006e-05 -4.3984049999999995 -3.8051849999999994 -0.43634399999999995 -9.7093149999999984e-05 -9.7994249999999976 -15.060899999999998
decision_type=2 2 2 2 2 2 2 2 2 2 2 2 2 2
left_child=1 2 3 -1 5 -5 -4 8 -8 -10 13 12 -12 -11
right_child=-2 -3 6 4 -6 -7 7 -9 9 10 11 -13 -14 -15
leaf_value=-0.00093628278144024073 -2.9933265313786626e-05 0.00019270691191194158 -0.00050371355574363214 -0.026222449773922563 0.0059068737218954731 -0.0066917871051813439 -0.004896257057982056 0.024133289650651726 -0.0062229292481433508 -0.0012626532525090233 0.019529786388474434 -0.017393229601549209 -0.016387962682970932 0.013333936913481201
leaf_weight=240 170992 40150 5509 28 21 62 171 27 82 70 33 37 21 190
leaf_count=240 170992 40150 5509 28 21 62 171 27 82 70 33 37 21 190
internal_value=0 0.000109739 -0.000403456 -0.00356064 -0.00923491 -0.012768 -0.000222972 0.00222806 0.00124885 0.00367568 0.00598817 -0.00377158 0.00556177 0.00940409
internal_weight=0 46641 6491 351 111 90 6140 631 604 433 351 91 54 260
internal_count=217633 46641 6491 351 111 90 6140 631 604 433 351 91 54 260
shrinkage=0.15


Tree=530
num_leaves=15
num_cat=0
split_feature=3 23 12 22 23 23 22 19 6 35 32 35 15 23
split_gain=0.0294336 0.126849 0.23727 0.695924 0.780349 0.943993 1.00215 0.808718 0.432763 0.320125 0.229066 0.256301 0.273463 0.408376
threshold=-15.512049999999999 -11.700949999999999 -0.00032485249999999994 -0.96010649999999986 -15.694899999999999 -17.743599999999997 -2.3274699999999995 0.0082253950000000017 -1.1368099999999998e-07 0.011549600000000002 -5.5741899999999989 0.00056077100000000016 2.0938650000000004e-08 -14.948949999999998
decision_type=2 2 2 2 2 2 2 2 2 2 2 2 2 2
left_child=1 2 3 4 5 -1 -7 8 -8 -6 -4 -12 -13 -14
right_child=-2 -3 10 -5 9 6 7 -9 -10 -11 11 12 13 -15
leaf_value=0.0023332614419268793 -1.5721412001891033e-05 0.00050134319636133194 0.0057027835837001667 -0.0011799919012632511 -0.0021581421428377846 -0.00057826782909354993 0.051789599443496814 0.0064071504673920568 0.027167622023262082 0.011324768230406334 -0.0021625651135739957 -0.0015337029328058934 0.0047533205688864008 -0.0017959554437826832
leaf_weight=120 201284 10598 114 924 227 35 29 25 36 48 2326 978 529 360
leaf_count=120 201284 10598 114 924 227 35 29 25 36 48 2326 978 529 360
internal_value=0 0.000193557 -0.000373634 0.00129033 0.00567991 0.0118362 0.020959 0.0293346 0.0381528 0.000195239 -0.000931509 -0.00111188 0.000197108 0.0021012
internal_weight=0 16349 5751 1444 520 245 125 90 65 275 4307 4193 1867 889
internal_count=217633 16349 5751 1444 520 245 125 90 65 275 4307 4193 1867 889
shrinkage=0.15


Tree=531
num_leaves=15
num_cat=0
split_feature=28 15 15 11 2 22 4 31 22 35 12 16 34 24
split_gain=0.0289209 0.215388 0.255721 0.243699 0.227811 0.28633 0.220525 0.304675 0.199106 0.197045 0.714965 0.923431 0.845577 0.496851
threshold=0.040885500000000012 -1.9202999999999997e-08 1.2007900000000004e-06 3.3308000000000007e-05 0.93116200000000016 1.5746600000000002 0.28148150000000011 -0.28107049999999995 1.3299150000000002 0.00071552800000000011 3.6299300000000007e-05 2.5734150000000004e-06 0.45951800000000004 0.3509790000000001
decision_type=2 2 2 2 2 2 2 2 2 2 2 2 2 2
left_child=-1 -2 3 9 6 -6 8 -8 -5 -3 -11 12 13 -12
right_child=1 2 -4 4 5 -7 7 -9 -10 10 11 -13 -14 -15
leaf_value=1.7807439828436947e-05 -0.00066961729649681588 0.0003327170545798412 -0.00047027515211248074 -0.0065324102814139961 -0.025237842010600225 -0.00075069652891463856 0.022453836783533916 -0.0034150008960360926 0.00046763763924658028 0.0010814718014566275 0.021208321711277345 0.029698812815611462 -0.00065617656607303487 0.0056428185935353033
leaf_weight=196765 10014 2543 5157 154 21 22 20 21 225 2243 88 39 224 97
leaf_count=196765 10014 2543 5157 154 21 22 20 21 225 2243 88 39 224 97
internal_value=0 -0.000167907 0.000294976 0.000987691 -0.00231084 -0.0127095 -0.00124622 0.00920394 -0.00237671 0.00127948 0.00217417 0.00764499 0.00554206 0.0130469
internal_weight=0 20868 10854 5697 463 43 420 41 379 5234 2691 448 409 185
internal_count=217633 20868 10854 5697 463 43 420 41 379 5234 2691 448 409 185
shrinkage=0.15


Tree=532
num_leaves=15
num_cat=0
split_feature=4 23 3 14 3 10 20 3 13 8 22 1 20 0
split_gain=0.0290873 0.0779988 0.157534 0.319485 0.217205 0.152542 0.161748 0.359046 0.408864 0.268457 0.352811 0.33915 0.273865 1.14347
threshold=0.46547150000000009 -6.6111549999999992 -6.9170499999999988 0.00018273250000000005 -7.2547399999999991 2.4265750000000001e-05 7.0991650000000011 -6.1122599999999991 1.057155e-05 1.8473650000000006e-05 -1.3110299999999997 -12.252349999999998 -0.85388249999999988 -1.51406
decision_type=2 2 2 2 2 2 2 2 2 2 2 2 2 2
left_child=1 -1 3 4 -3 6 9 8 -8 12 11 -11 -4 -14
right_child=-2 2 5 -5 -6 -7 7 -9 -10 10 -12 -13 13 -15
leaf_value=-6.562898531107446e-05 0.00010370526361794302 0.0041556423862618664 -0.0027509039835488329 0.00031994596214070421 0.00013007057047683914 0.00011070458034308826 -0.013028509006631996 5.670410714628815e-05 -7.8756468347012149e-05 0.003785631912095206 -0.0031267137048832539 0.030743935270168415 -0.0090154891161957698 0.0063647503566275094
leaf_weight=150505 47556 883 854 10341 458 5956 143 260 89 21 35 21 157 354
leaf_count=150505 47556 883 854 10341 458 5956 143 260 89 21 35 21 157 354
internal_value=0 -2.89975e-05 0.000252692 0.000602428 0.00278076 -0.000265131 -0.00142256 -0.00377102 -0.00806072 -0.000621287 0.00799592 0.0172648 -0.00110739 0.00163931
internal_weight=0 170077 19572 11682 1341 7890 1934 492 232 1442 77 42 1365 511
internal_count=217633 170077 19572 11682 1341 7890 1934 492 232 1442 77 42 1365 511
shrinkage=0.15


Tree=533
num_leaves=15
num_cat=0
split_feature=12 21 2 22 22 2 3 14 3 23 23 23 3 3
split_gain=0.0283244 0.190279 0.431597 0.929872 3.27101 4.80937 2.72245 2.56668 1.38543 4.95916 4.24726 1.51896 1.8695 1.72635
threshold=-3.0825149999999994e-05 -3.5229999999999997 0.23346150000000002 0.24826800000000002 -0.30508349999999995 -0.26835899999999996 -6.3853549999999988 0.0040955450000000008 -10.781849999999999 -10.618199999999998 -11.078849999999997 -7.2759249999999991 -7.1932899999999984 -7.1105099999999988
decision_type=2 2 2 2 2 2 2 2 2 2 2 2 2 2
left_child=-1 -2 3 4 -3 -6 7 8 9 -7 -10 13 -13 -12
right_child=1 2 -4 -5 5 6 -8 -9 10 -11 11 12 -14 -15
leaf_value=-6.4707081084747805e-05 0.00030954623123820058 -0.00081915006352459459 -0.00025188975938179051 -0.00021832256268004843 -0.0012018529969672577 0.042394784764661117 0.00013362812705963734 0.0003289178640172794 -0.007275894109864579 -0.0028824015436517188 0.031005242572485402 -0.0076662207432122691 0.024133262056857348 -0.0072986139000618244
leaf_weight=89567 41453 3677 68754 11610 1125 175 340 205 146 79 304 74 95 29
leaf_count=89567 41453 3677 68754 11610 1125 175 340 205 146 79 304 74 95 29
internal_value=0 4.52549e-05 -8.12349e-05 0.000575756 0.00205107 0.00615442 0.0118737 0.0154795 0.0189228 0.0283125 0.0152423 0.0217914 0.0102092 0.0276695
internal_weight=0 128066 86613 17859 6249 2572 1447 1107 902 254 648 502 169 333
internal_count=217633 128066 86613 17859 6249 2572 1447 1107 902 254 648 502 169 333
shrinkage=0.15


Tree=534
num_leaves=15
num_cat=0
split_feature=9 29 20 0 20 19 33 20 0 0 24 23 15 29
split_gain=0.0413609 0.189903 0.326414 0.486854 1.70802 1.39857 4.08809 2.04612 5.05774 4.88912 1.7176 1.57785 1.52462 1.39491
threshold=1.5765000000000006e-05 0.0018045750000000003 2.5523700000000002 7.508115000000001 7.5299350000000009 1.1641400000000003e-06 -1.4746649999999997e-06 5.3893600000000008 5.3268800000000009 5.3268800000000009 0.20087700000000003 -13.149599999999998 -1.7311499999999999e-08 -0.020204849999999996
decision_type=2 2 2 2 2 2 2 2 2 2 2 2 2 2
left_child=-1 2 -2 4 5 6 7 8 13 11 -11 -9 -12 -4
right_child=1 -3 3 -5 -6 -7 -8 9 -10 10 12 -13 -14 -15
leaf_value=4.996181852935367e-05 -0.00087198195239537228 0.0001883813436849669 -0.0033277844904660014 -0.00067170334664348535 -0.0014578054036463489 0.00068203281846397883 -0.0025648406544709033 0.026210230868922449 -0.008217667857697078 0.028743492990261767 -0.018261430505663156 -0.0070678491047129208 0.022056250674102235 0.017789840262200252
leaf_weight=137416 14487 33297 84 14259 6465 9008 1082 38 392 379 36 205 51 434
leaf_count=137416 14487 33297 84 14259 6465 9008 1082 38 392 379 36 205 51 434
internal_value=0 -8.55873e-05 -0.00028001 -1.55917e-05 0.000499182 0.00157971 0.00457353 0.0093442 0.00463729 0.0153855 0.0243803 -0.00186387 0.00537307 0.0143654
internal_weight=0 80217 46920 32433 18174 11709 2701 1619 910 709 466 243 87 518
internal_count=217633 80217 46920 32433 18174 11709 2701 1619 910 709 466 243 87 518
shrinkage=0.15


Tree=535
num_leaves=15
num_cat=0
split_feature=3 23 14 14 23 8 21 3 23 23 19 22 13 22
split_gain=0.0452011 0.159264 0.280602 0.218728 0.670027 0.37818 2.81191 1.8954 1.99844 1.90076 1.65727 1.79132 1.85516 1.42667
threshold=-6.9170499999999988 -7.3218799999999993 0.011296750000000001 0.0020844450000000003 -16.170749999999995 1.8886500000000006e-05 -6.3049749999999998 -8.2133949999999984 -8.1455849999999987 -8.3320149999999984 0.00045277650000000001 -1.1581899999999998 1.4757950000000002e-05 -1.6404099999999997
decision_type=2 2 2 2 2 2 2 2 2 2 2 2 2 2
left_child=1 3 -3 4 -1 -6 7 8 10 -9 11 12 13 -7
right_child=-2 2 -4 -5 5 6 -8 9 -10 -11 -12 -13 -14 -15
leaf_value=0.00096651023948506401 9.7803537904676678e-05 0.00050610315426341838 -0.00043371648550464826 6.9019890941353785e-05 -0.00069416549017560763 0.02064263472672213 -0.0012101930214741057 -0.0070808257431375435 -0.0057255985277991457 0.012776135369993837 0.0076177037979505251 -0.0043892850179690869 0.02147163821791764 0.065958630117691222
leaf_weight=7482 71427 24598 10076 57373 42624 22 3205 246 78 194 128 30 96 54
leaf_count=7482 71427 24598 10076 57373 42624 22 3205 246 78 194 128 30 96 54
internal_value=0 -4.77806e-05 0.000232999 -0.000135072 -0.000351275 -0.000562507 0.000822105 0.00850314 0.0158676 0.00167429 0.0209714 0.0294332 0.0353324 0.0528408
internal_weight=0 146206 34674 111532 54159 46677 4053 848 408 440 330 202 172 76
internal_count=217633 146206 34674 111532 54159 46677 4053 848 408 440 330 202 172 76
shrinkage=0.15


Tree=536
num_leaves=15
num_cat=0
split_feature=4 24 19 37 3 23 10 33 3 14 26 10 3 7
split_gain=0.0342357 0.0679092 0.176455 0.28593 0.616984 0.606496 0.630617 0.591544 0.523925 0.44549 0.667366 0.960862 0.399522 0.39722
threshold=-0.58682149999999988 -0.35208349999999994 0.00031313300000000005 5.7136200000000007e-08 -11.042399999999999 -11.906049999999999 2.1566150000000004e-05 4.1914650000000004e-05 -12.664549999999998 0.0039324400000000006 -0.0088494799999999981 3.3208150000000002e-05 -7.6471249999999991 4.3178150000000009e-05
decision_type=2 2 2 2 2 2 2 2 2 2 2 2 2 2
left_child=1 2 3 4 5 6 -1 -6 -7 10 11 -5 -9 -8
right_child=-2 -3 -4 9 7 8 13 12 -10 -11 -12 -13 -14 -15
leaf_value=0.0014488207055255769 -2.9964123091346435e-05 0.00019266182982438296 9.4762357091283692e-05 0.035866957716643812 -0.0039866321221999545 -0.015086108168715757 0.040790846624544692 0.028535020160912111 0.012873714733868837 -0.0095597981132722852 -0.0033448854704988908 -0.0039503991475794463 -5.1744742615317755e-05 0.015976502997008091
leaf_weight=50 173597 37958 4678 25 447 38 21 22 25 218 455 30 22 47
leaf_count=50 173597 37958 4678 25 447 38 21 22 25 218 455 30 22 47
internal_value=0 0.000118123 -0.00034738 -0.00182477 0.000406433 0.00789235 0.0142368 -0.00235314 -0.00399094 -0.00388434 -0.00145835 0.0141484 0.0142416 0.0236398
internal_weight=0 44036 6078 1400 672 181 118 491 63 728 510 55 44 68
internal_count=217633 44036 6078 1400 672 181 118 491 63 728 510 55 44 68
shrinkage=0.15


Tree=537
num_leaves=15
num_cat=0
split_feature=3 23 10 3 21 22 20 21 20 16 11 22 11 10
split_gain=0.0363497 0.117091 0.149102 0.14474 0.348388 0.238979 0.278718 0.371809 0.332976 0.391166 0.176841 0.294969 0.231244 0.172983
threshold=-6.6023349999999992 -6.3165649999999989 2.5126000000000003e-05 -6.1920449999999994 -11.751949999999999 1.8642900000000002 8.6135100000000016 11.881850000000002 -4.7693649999999996 -1.7584599999999997e-08 -7.0053649999999991e-06 1.7837150000000002 -1.2716849999999998e-05 1.8869050000000005e-05
decision_type=2 2 2 2 2 2 2 2 2 2 2 2 2 2
left_child=-1 -2 3 4 -3 6 7 8 -6 -10 11 12 -5 -9
right_child=1 2 -4 10 5 -7 -8 13 9 -11 -12 -13 -14 -15
leaf_value=-3.8686621423039439e-05 0.00015004564752374308 -0.01694362641283078 -0.00017395223139605754 -0.0014612303889842461 -0.0058658067714018013 -0.015018775871722028 -0.010884276553744797 -0.016070717744529246 -1.4289870953441342e-05 0.025655069774674143 -0.0003545974768868339 0.0067069579715557078 -0.020614268486108787 0.0026453584001865237
leaf_weight=155646 58157 48 2894 23 23 30 43 25 22 34 608 23 37 20
leaf_count=155646 58157 48 2894 23 23 30 43 25 22 34 608 23 37 20
internal_value=0 9.714e-05 -0.000706211 -0.00235189 -0.00548448 -0.0026924 -0.000478085 0.00313051 0.00932968 0.0155707 -0.0012412 -0.00773586 -0.0132723 -0.00775246
internal_weight=0 61987 3830 936 245 197 167 124 79 56 691 83 60 45
internal_count=217633 61987 3830 936 245 197 167 124 79 56 691 83 60 45
shrinkage=0.15


Tree=538
num_leaves=15
num_cat=0
split_feature=37 17 4 19 33 4 19 26 30 2 38 3 23 10
split_gain=0.0338737 0.285877 0.537067 0.516966 0.401397 0.44421 0.577847 1.06015 0.874006 0.56579 0.928827 0.477146 1.28882 0.825153
threshold=3.8063150000000008e-07 -6.6467399999999989e-09 -0.18992199999999995 0.00032532400000000004 0.00029135400000000002 -1.2236799999999997 0.00077699300000000013 0.00013653850000000002 0.0015019250000000001 -0.8442694999999999 0.0040003800000000004 -12.195349999999999 -12.104349999999998 3.2089450000000008e-05
decision_type=2 2 2 2 2 2 2 2 2 2 2 2 2 2
left_child=-1 3 4 -2 5 -3 -7 9 -9 10 -8 12 -10 -13
right_child=1 2 -4 -5 -6 6 7 8 11 -11 -12 13 -14 -15
leaf_value=-2.6008059672829455e-05 -0.0019289288095594094 0.00022735687562726694 0.000117508556731612 0.00041561731470618441 -0.002401819217288147 0.0012943555472547102 0.0049493722331928032 0.040515271809114059 0.015509986897145167 5.4025598186198009e-05 0.03650127635695613 0.027076694315266128 -0.0079957895005213931 0.0076251762819237673
leaf_weight=182402 3785 1064 23198 4799 391 931 109 23 124 488 26 84 91 118
leaf_count=182402 3785 1064 23198 4799 391 931 109 23 124 488 26 84 91 118
internal_value=0 0.000134652 0.000377167 -0.000618179 0.00212363 0.00270226 0.00402287 0.00641257 0.0120493 0.00243159 0.011026 0.0104792 0.00556103 0.0157139
internal_weight=0 35231 26647 8584 3449 3058 1994 1063 440 623 135 417 215 202
internal_count=217633 35231 26647 8584 3449 3058 1994 1063 440 623 135 417 215 202
shrinkage=0.15


Tree=539
num_leaves=15
num_cat=0
split_feature=4 38 4 3 29 13 37 12 14 11 4 3 4 15
split_gain=0.0323321 0.165732 0.273966 0.295388 0.277536 0.265435 0.517067 0.262235 0.265027 0.244565 0.242153 0.236122 0.325904 0.563231
threshold=0.21114250000000004 -0.11222949999999998 0.79323650000000001 -14.949199999999999 0.70185150000000018 5.0947250000000009e-05 5.3020450000000008e-06 0.00019074900000000001 0.0027514900000000005 -3.1095399999999994e-05 0.85613250000000007 -9.9601599999999983 3.3313850000000005 -1.7185949999999998e-05
decision_type=2 2 2 2 2 2 2 2 2 2 2 2 2 2
left_child=-1 2 3 -2 5 7 -7 8 -5 -6 -4 12 13 -12
right_child=1 -3 10 4 9 6 -8 -9 -10 -11 11 -13 -14 -15
leaf_value=-3.6140614856916693e-05 -0.011017039117123028 0.00014153161556002995 0.012105516507290304 -0.001956823301052439 -0.022810982464347034 -0.0086058673947783451 0.022300013752076131 0.013125542027410118 -0.015909065303805453 -0.0050632404112799 -0.0038909658575682219 -0.0022307826405055867 -0.0011794093431958391 0.0090653592530219665
leaf_weight=156486 103 58827 36 427 25 21 29 24 33 58 111 761 456 236
leaf_count=156486 103 58827 36 427 25 21 29 24 33 58 111 761 456 236
internal_value=0 9.24902e-05 -0.00115103 -0.00358093 -0.00233957 -0.00108534 0.00931954 -0.00216023 -0.00295775 -0.0104089 -5.75688e-05 -0.000337538 0.00145668 0.00492083
internal_weight=0 61147 2320 720 617 534 50 484 460 83 1600 1564 803 347
internal_count=217633 61147 2320 720 617 534 50 484 460 83 1600 1564 803 347
shrinkage=0.15


Tree=540
num_leaves=15
num_cat=0
split_feature=20 9 0 14 23 20 15 35 0 20 23 15 15 24
split_gain=0.0335026 0.201133 0.167756 0.420903 0.321554 0.435877 0.648561 0.370503 0.361343 0.321912 0.658647 0.294184 0.288235 1.03664
threshold=9.4321850000000023 2.0423650000000006e-05 8.8935650000000006 0.0004987975000000001 -9.4348649999999985 19.256550000000001 2.2631050000000003e-07 0.056536350000000006 11.960450000000002 13.471950000000001 -6.6111549999999992 5.0878500000000008e-06 -1.8360349999999999e-07 -0.1845395
decision_type=2 2 2 2 2 2 2 2 2 2 2 2 2 2
left_child=-1 -2 3 -3 -4 8 7 -7 11 -10 -11 12 13 -6
right_child=1 2 4 -5 5 6 -8 -9 9 10 -12 -13 -14 -15
leaf_value=-1.7878933526568175e-05 0.00055777214528671419 -0.0034006264263301209 -0.0051383688859167921 -3.8993760751398079e-05 0.012040416125251929 0.018838337659170583 0.035428297977196051 -0.00713942419621162 -0.0034907393117779035 -0.0044871393908073919 0.021492945612644199 -0.0041646480989672961 0.0039712633292466057 -0.0048252732797883884
leaf_weight=199245 11952 1228 212 2639 109 21 20 30 607 54 37 164 984 331
leaf_count=199245 11952 1228 212 2639 109 21 20 30 607 54 37 164 984 331
internal_value=0 0.000193729 -0.000482319 -0.00110651 0.000457248 0.000960545 0.012535 0.0035573 0.000601057 -0.00224347 0.00607619 0.00185136 0.00254422 -0.000647182
internal_weight=0 18388 6436 3867 2569 2357 71 51 2286 698 91 1588 1424 440
internal_count=217633 18388 6436 3867 2569 2357 71 51 2286 698 91 1588 1424 440
shrinkage=0.15


Tree=541
num_leaves=15
num_cat=0
split_feature=2 22 6 0 9 11 6 32 23 39 39 10 10 26
split_gain=0.0336375 0.0680995 0.192947 0.249406 0.244153 0.197956 0.212401 0.194849 0.249088 0.214899 0.304863 0.215794 0.19985 0.172325
threshold=-2.8223399999999992 -2.8036449999999995 -1.8930799999999998e-06 -7.9798249999999991 -3.7350599999999994e-05 -1.9350749999999998e-05 -1.6783849999999999e-06 0.043922150000000007 -14.850299999999999 1.5359250000000004e-05 4.9233650000000011e-06 3.099335000000001e-05 3.3857950000000003e-05 0.00016793800000000002
decision_type=2 2 2 2 2 2 2 2 2 2 2 2 2 2
left_child=1 2 3 13 5 6 -4 9 -9 10 -6 -11 -10 -1
right_child=-2 -3 4 -5 7 -7 -8 8 12 11 -12 -13 -14 -15
leaf_value=0.0011312431710993533 -1.2604426065558983e-05 0.00015414521202258559 -0.015591012189954356 0.017142303770577367 -0.0019926465494791044 -0.017181395675288511 -0.00057270735519878444 -0.0042636161004858354 0.021685478308548528 -0.019004900828336498 0.01517809651069049 0.00068855616940005171 0.0035388958635104986 0.011497840400164326
leaf_weight=182 208125 8707 23 33 60 20 269 21 36 21 38 31 22 45
leaf_count=182 208125 8707 23 33 60 20 269 21 36 21 38 31 22 45
internal_value=0 0.000275904 0.00159944 0.00495763 -1.44756e-05 -0.00274449 -0.00175566 0.00370501 0.00973414 0.000529675 0.0046654 -0.00726457 0.0148023 0.0031863
internal_weight=0 9508 801 260 541 312 292 229 79 150 98 52 58 227
internal_count=217633 9508 801 260 541 312 292 229 79 150 98 52 58 227
shrinkage=0.15


Tree=542
num_leaves=15
num_cat=0
split_feature=3 39 19 17 24 23 14 23 3 33 17 19 23 33
split_gain=0.0336272 0.110212 0.211643 0.234569 0.329213 0.163494 0.215586 0.314219 0.226047 0.160981 0.208796 0.129991 0.261127 0.235007
threshold=-6.6023349999999992 0.0018207950000000003 2.0955950000000004e-06 7.6153150000000006e-07 0.60591150000000005 -12.363649999999998 0.00071923400000000013 -6.907004999999999 -9.4771649999999976 9.148070000000001e-06 -3.1235699999999993e-08 2.0955950000000004e-06 -6.3165649999999989 1.1210100000000002e-06
decision_type=2 2 2 2 2 2 2 2 2 2 2 2 2 2
left_child=1 11 3 5 -5 -3 7 -7 9 -8 -11 12 -1 -14
right_child=-2 2 -4 4 -6 6 8 -9 -10 10 -12 -13 13 -15
leaf_value=-0.00044758308509024002 9.3431351436744296e-05 0.002356310666488315 3.1483265401961445e-05 0.0015754455547060139 -0.021244617132470011 -0.0014193456271669454 -0.00015666544363689404 0.0043467779935044493 0.017203191680955174 -0.001996055401041699 0.0061919634091003786 -2.8778917884145268e-06 3.0776442236549204e-05 0.003588119420333046
leaf_weight=30832 61987 1956 15279 33 25 1333 364 253 23 92 294 103414 1057 691
leaf_count=30832 61987 1956 15279 33 25 1333 364 253 23 92 294 103414 1057 691
internal_value=0 -3.72096e-05 0.000294832 0.00121496 -0.00826079 0.00134233 0.000501566 -0.000499529 0.00255556 0.00210637 0.00424041 -8.51918e-05 -0.000346469 0.00143703
internal_weight=0 155646 19652 4373 58 4315 2359 1586 773 750 386 135994 32580 1748
internal_count=217633 155646 19652 4373 58 4315 2359 1586 773 750 386 135994 32580 1748
shrinkage=0.15


Tree=543
num_leaves=15
num_cat=0
split_feature=4 20 0 14 23 3 34 24 31 20 18 23 22 26
split_gain=0.0286392 0.0613186 0.0869646 0.057537 0.229594 0.18983 0.171469 0.126368 0.0950749 0.113894 0.0767392 0.101916 0.0657164 0.0654254
threshold=-0.58682149999999988 19.256550000000001 7.8304750000000007 0.00054376850000000009 -8.8916699999999977 -6.0545599999999995 0.010117100000000002 -0.20396599999999998 -3.3520599999999994 -12.935299999999998 -5.8725749999999996e-05 -8.3320149999999984 -0.61801149999999982 6.9824000000000015e-05
decision_type=2 2 2 2 2 2 2 2 2 2 2 2 2 2
left_child=1 3 -3 4 5 7 -6 -1 -8 -10 -5 12 -12 -14
right_child=-2 2 -4 10 6 -7 8 -9 9 -11 11 -13 13 -15
leaf_value=0.00060121924627295922 -2.7405796587979013e-05 -0.0015013414599057537 -0.012075444515794514 7.9002937978695461e-05 0.0010052176137412801 -0.00017555257243718393 0.0080183172749821088 0.0038860359838519074 -0.011848902613356974 -0.0021055011665590093 -0.0017030421980760162 0.0021694649223578518 -0.0053857897472750797 -0.017373376922914758
leaf_weight=378 173597 140 20 40294 714 714 20 870 28 751 27 39 21 20
leaf_count=378 173597 140 20 40294 714 714 20 870 28 751 27 39 21 20
internal_value=0 0.000108038 -0.0028231 0.000118727 0.00070442 0.00177511 -0.000684011 0.00289112 -0.00219353 -0.00245571 6.83498e-05 -0.00394338 -0.00744928 -0.0112334
internal_weight=0 44036 160 43876 3475 1962 1513 1248 799 779 40401 107 68 41
internal_count=217633 44036 160 43876 3475 1962 1513 1248 799 779 40401 107 68 41
shrinkage=0.15


Tree=544
num_leaves=15
num_cat=0
split_feature=22 9 5 26 24 18 20 22 14 0 0 31 20 6
split_gain=0.0282683 0.0748306 0.0665329 0.0455739 0.0337645 0.0351607 0.030351 0.0283247 0.0467962 0.0420936 0.0337295 0.232769 0.296428 0.465579
threshold=3.1180850000000002 -2.9410299999999995e-05 1.7536450000000004e-05 -0.00010809249999999998 0.10440050000000002 -3.3638499999999992e-07 -5.9130249999999984 -2.9897199999999997 0.0056714500000000006 11.755300000000002 11.559500000000002 -0.018836699999999994 12.994100000000001 -6.0952749999999998e-06
decision_type=2 2 2 2 2 2 2 2 2 2 2 2 2 2
left_child=7 2 3 -2 5 -5 -4 8 9 -1 -9 12 -12 -14
right_child=1 -3 6 4 -6 -7 -8 10 -10 -11 11 -13 13 -15
leaf_value=0.0007462447715528615 -0.0095015454222448174 0.0017628027717989589 -0.00013236218925427508 -0.0083262811260423272 0.0027905733224802783 -0.00089998203393406575 0.0062668383129805853 -2.5538138241158319e-05 -0.00040123863437778191 -0.0012710628873938699 -0.00077859435885293637 0.00088842082135252246 -0.0089231521616304887 0.0083377982539573816
leaf_weight=3562 27 585 81 26 21 32 21 201011 1394 249 4600 5805 44 175
leaf_count=3562 27 585 81 26 21 32 21 201011 1394 249 4600 5805 44 175
internal_value=0 0.000893946 -0.00154971 -0.00418134 -0.00236305 -0.00422901 0.00118512 -3.26923e-06 0.000342421 0.00061444 -1.17712e-05 0.000248705 -0.0005219 0.00486984
internal_weight=0 793 208 106 79 58 102 216840 5205 3811 211635 10624 4819 219
internal_count=217633 793 208 106 79 58 102 216840 5205 3811 211635 10624 4819 219
shrinkage=0.15


Tree=545
num_leaves=15
num_cat=0
split_feature=19 3 36 5 18 25 9 21 14 34 9 30 14 30
split_gain=0.0279785 0.0442485 0.098488 0.188895 0.34359 0.187633 0.230888 0.141088 0.138479 0.1146 0.181493 0.175454 0.16298 0.239313
threshold=0.070112250000000015 -15.512049999999999 -0.43959349999999991 1.6990800000000003e-05 0.0023771500000000002 33.058550000000004 5.5016300000000012e-06 3.0676450000000002 0.0056714500000000006 0.071278700000000014 0.000115495 0.00031235150000000005 0.0054376550000000004 0.0045686050000000008
decision_type=2 2 2 2 2 2 2 2 2 2 2 2 2 2
left_child=1 2 3 4 5 6 7 -1 -5 -4 11 -11 13 -13
right_child=-2 -3 9 8 -6 -7 -8 -9 -10 10 -12 12 -14 -15
leaf_value=0.021239607344815059 -0.00025542956497317891 -7.0036004665087432e-06 0.00061149030660217173 0.0074404781418187273 0.023637169180570211 -0.0032404149633033998 -0.0016756113774714654 0.0048631544920499431 -0.0069146332247732468 0.013369759859883092 0.013996093081659637 -0.0025207906792714093 0.00016625416194023432 0.0013572858501598578
leaf_weight=29 9239 194704 7456 21 22 56 33 20 54 21 20 1392 4084 482
leaf_count=29 9239 194704 7456 21 22 56 33 20 54 21 20 1392 4084 482
internal_value=0 1.13243e-05 0.00027199 0.0033163 0.00622794 0.00345256 0.00802337 0.0145553 -0.0028952 0.000218819 -0.000269222 -0.00031694 -0.000365181 -0.00152333
internal_weight=0 208394 13690 235 160 138 82 49 75 13455 5999 5979 5958 1874
internal_count=217633 208394 13690 235 160 138 82 49 75 13455 5999 5979 5958 1874
shrinkage=0.15


Tree=546
num_leaves=15
num_cat=0
split_feature=2 20 7 26 33 22 15 2 14 33 5 13 22 0
split_gain=0.0273799 0.0543575 0.139534 0.0774256 0.119627 0.196287 0.0962376 0.0788524 0.0743253 0.184488 0.226894 0.140799 0.118656 0.110074
threshold=-2.8982399999999995 -7.9667699999999995 2.6525600000000002e-05 -0.0013240249999999997 -8.2696899999999974e-06 -2.7043749999999993 -5.5362349999999989e-07 -2.9738899999999995 0.00040792350000000004 -1.0854199999999999e-05 1.5642500000000001e-05 6.6831150000000008e-05 -2.8587899999999995 -10.580349999999997
decision_type=2 2 2 2 2 2 2 2 2 2 2 2 2 2
left_child=1 2 -1 6 5 -5 -4 -8 13 10 11 -10 -12 -3
right_child=-2 8 3 4 -6 -7 7 -9 9 -11 12 -13 -14 -15
leaf_value=0.011668259068974294 -9.635186219939073e-06 0.00025927142611823569 0.011897478661161255 -0.018257511060801333 -0.0008396760189290683 -0.0021679316409587293 -0.0044809165581468462 0.0063768956519197669 -0.0065597145433724316 0.00059700272128445882 0.011683625747391489 0.00030392417583546681 -0.00018407322659637311 0.0022250559350377648
leaf_weight=20 210722 1585 22 24 806 59 34 27 266 2519 20 90 363 1076
leaf_count=20 210722 1585 22 24 806 59 34 27 266 2519 20 90 363 1076
internal_value=0 0.000293785 -0.000733803 -0.000988989 -0.00139805 -0.00682034 0.0033924 0.000325 0.000466004 -1.4373e-05 -0.00209835 -0.00482452 0.00043565 0.00105415
internal_weight=0 6911 992 972 889 83 83 61 5919 3258 739 356 383 2661
internal_count=217633 6911 992 972 889 83 83 61 5919 3258 739 356 383 2661
shrinkage=0.15


Tree=547
num_leaves=15
num_cat=0
split_feature=4 38 4 14 25 4 13 37 29 15 0 4 20 7
split_gain=0.0262435 0.129126 0.200223 0.218047 0.250136 0.351582 0.242817 0.370081 0.230747 0.283857 0.190106 0.27153 0.184793 0.199018
threshold=0.21114250000000004 -0.11222949999999998 0.79323650000000001 0.0031052900000000006 12.803600000000001 0.43714250000000004 5.0947250000000009e-05 9.4364900000000012e-06 -0.34874949999999993 2.8562700000000001e-06 6.1430700000000007 0.85613250000000007 4.1186650000000009 3.4200500000000006e-05
decision_type=2 2 2 2 2 2 2 2 2 2 2 2 2 2
left_child=-1 2 3 6 5 -5 8 -8 9 -2 11 -4 13 -10
right_child=1 -3 10 4 -6 -7 7 -9 12 -11 -12 -13 -14 -15
leaf_value=-3.2560389377009802e-05 -0.00026887195048262724 0.0001266157066180581 0.015263081111853741 -0.014039564406913186 -0.013603885175793298 0.0086038281054546424 -0.0042077087260701728 0.023334088841719284 0.0022448782102602524 0.018671047448047567 -0.0037576717239103758 0.00033442706587491288 -0.010442000193862629 -0.0057284144667863728
leaf_weight=156486 117 58827 28 27 84 36 23 21 113 21 264 1308 91 187
leaf_count=156486 117 58827 28 27 84 36 23 21 113 21 264 1308 91 187
internal_value=0 8.33278e-05 -0.0010143 -0.0030916 -0.00824528 -0.00110048 -0.00176944 0.00893724 -0.00265998 0.00261329 -7.95178e-05 0.000647303 -0.00452114 -0.00272514
internal_weight=0 61147 2320 720 147 63 573 44 529 138 1600 1336 391 300
internal_count=217633 61147 2320 720 147 63 573 44 529 138 1600 1336 391 300
shrinkage=0.15


Tree=548
num_leaves=15
num_cat=0
split_feature=14 23 23 5 14 20 36 18 21 0 9 35 16 20
split_gain=0.0268096 0.129006 0.187451 0.170839 0.246101 0.312536 0.292804 0.544922 0.548882 0.376954 0.231556 0.559959 0.494495 0.462067
threshold=0.000110883 -17.743599999999997 -8.5214449999999982 2.0164250000000003e-05 4.8137750000000008e-05 8.0730100000000018 0.00017859100000000003 -1.0730149999999997e-06 -3.5985549999999997 9.8368500000000019 5.2619150000000009e-05 -0.0013138599999999998 5.6579350000000019e-07 10.210350000000002
decision_type=2 2 2 2 2 2 2 2 2 2 2 2 2 2
left_child=1 -1 -3 4 -4 -6 10 8 9 -8 12 -12 -7 -13
right_child=-2 2 3 -5 5 6 7 -9 -10 -11 11 13 -14 -15
leaf_value=-0.00087089745457238823 -2.7461154944334019e-05 0.00044483961215113592 0.00034083840788474924 0.00047195923630079218 -0.0015245048170541078 -0.00089126019831970533 0.012790576988663814 0.0012041342557291839 0.0044129778508393332 0.040673698995960871 -0.016470274687542214 -0.0044597758275861116 -0.016603607428260145 0.015669647726831559
leaf_weight=2883 171085 24122 5075 6180 6174 1096 24 711 76 20 23 38 47 79
leaf_count=2883 171085 24122 5075 6180 6174 1096 24 711 76 20 23 38 47 79
internal_value=0 0.000100932 0.000165098 -0.000180189 -0.000481789 -0.000985509 0.000588646 0.00278216 0.012132 0.0254647 -0.000832094 0.00492582 -0.00153735 0.00913189
internal_weight=0 46548 43665 19543 13363 8288 2114 831 120 44 1283 140 1143 117
internal_count=217633 46548 43665 19543 13363 8288 2114 831 120 44 1283 140 1143 117
shrinkage=0.15


Tree=549
num_leaves=15
num_cat=0
split_feature=20 2 7 33 5 37 23 19 20 33 14 16 5 2
split_gain=0.0274589 0.0960264 0.0913339 0.293834 0.12467 0.0939375 0.139828 0.143094 0.0910022 0.19253 0.086992 0.100579 0.0862631 0.0952906
threshold=-8.4074199999999983 -2.7531699999999995 3.3002700000000008e-05 -4.1483699999999997e-05 7.7149050000000017e-06 -3.2409649999999999e-09 -8.4265199999999982 8.8794400000000016e-08 -8.9078399999999984 -4.5791449999999988e-06 0.00021428950000000003 -1.2413499999999997e-07 1.3427100000000001e-05 3.0578500000000006
decision_type=2 2 2 2 2 2 2 2 2 2 2 2 2 2
left_child=1 2 3 -1 -4 6 7 -5 -6 -10 11 -11 13 -3
right_child=-2 12 4 5 8 -7 -8 -9 9 10 -12 -13 -14 -15
leaf_value=0.019032345648156479 -1.8913552964445456e-05 0.0006474813202548168 -0.0098784175683529329 0.00037087715085363013 -0.0007759521870981871 -0.0053330687170885282 -0.00050102378021271775 0.018099264763960881 -0.015245054859382609 -0.00051311415048654787 0.00093670323858762599 -0.015210583575535563 -4.7825530989089295e-06 -0.0039199223483592505
leaf_weight=20 193278 8736 39 20 1071 55 141 21 31 22 79 20 13996 104
leaf_count=20 193278 8736 39 20 1071 55 141 21 31 22 79 20 13996 104
internal_value=0 0.000150095 -0.00100475 0.00157271 -0.00152964 9.93206e-05 0.00174098 0.00945127 -0.0012634 -0.00469801 -0.00199587 -0.00751191 0.000226913 0.000593747
internal_weight=0 24355 1519 257 1262 237 182 41 1223 152 121 42 22836 8840
internal_count=217633 24355 1519 257 1262 237 182 41 1223 152 121 42 22836 8840
shrinkage=0.15


Tree=550
num_leaves=15
num_cat=0
split_feature=19 33 3 3 23 23 3 3 3 23 33 34 3 33
split_gain=0.025916 0.292987 0.177984 0.231982 0.215053 0.238295 0.516453 0.258345 0.163462 0.454412 0.945304 0.913199 2.09559 1.76203
threshold=1.5867800000000003e-08 6.2812850000000001e-06 -6.0020699999999989 -8.4006749999999979 -7.9565749999999991 -12.603149999999998 -13.437049999999997 -11.971799999999998 -9.5587649999999993 -9.7994249999999976 -2.0038149999999996e-06 0.034418900000000009 -11.673299999999999 -3.6648949999999995e-06
decision_type=2 2 2 2 2 2 2 2 2 2 2 2 2 2
left_child=1 8 3 4 5 7 -7 -3 9 11 -11 12 -1 -14
right_child=-2 2 -4 -5 -6 6 -8 -9 -10 10 -12 -13 13 -15
leaf_value=-0.0046712310073625763 2.0087618018800045e-05 -0.0028277065554696704 -0.00019368655186483992 0.0021635663904097675 0.0043863728421167274 0.0050021786538643701 -0.0047739196945819472 0.0027739075851389338 -0.0006135707564602792 -0.0044964304600664676 0.0019740421907096187 0.00068087057344387667 0.031359229223883671 -0.0031120228397838292
leaf_weight=122 189147 269 3198 2657 217 155 564 595 17339 919 1136 1153 115 47
leaf_count=122 189147 269 3198 2657 217 155 564 595 17339 919 1136 1153 115 47
internal_value=0 -0.000133382 0.000660183 0.00127285 -4.19379e-05 -0.000648977 -0.00266642 0.00102989 -0.000425002 0.000511309 -0.000919566 0.00255755 0.0101766 0.0213583
internal_weight=0 28486 7655 4457 1800 1583 719 864 20831 3492 2055 1437 284 162
internal_count=217633 28486 7655 4457 1800 1583 719 864 20831 3492 2055 1437 284 162
shrinkage=0.15


Tree=551
num_leaves=15
num_cat=0
split_feature=3 34 3 14 33 19 19 33 33 18 28 2 2 3
split_gain=0.0285649 0.123318 0.337379 0.292864 0.326518 2.00639 1.64308 1.00495 0.847551 0.824497 0.802557 4.50738 2.07641 1.3753
threshold=-8.4006749999999979 0.019958900000000005 -6.3035799999999993 0.0006072295000000001 1.3458700000000004e-07 9.8134050000000006e-08 8.0753900000000004e-08 -6.1289549999999995e-06 5.2059550000000009e-06 -5.2324399999999995e-06 0.0026132400000000006 0.45084750000000007 0.45084750000000007 -7.4471299999999987
decision_type=2 2 2 2 2 2 2 2 2 2 2 2 2 2
left_child=-1 2 3 4 5 7 -6 -2 9 -8 12 -12 -9 -13
right_child=1 -3 -4 -5 6 -7 8 10 -10 -11 11 13 -14 -15
leaf_value=-5.4526532662501461e-05 -0.0087459542415514908 0.0001711362084827673 0.0003097882090489732 0.00020355990860275412 -0.0039488712007539201 -0.0039199121927912329 -0.0026245990002651668 0.0035778776376325103 -0.0039498112730978569 0.003094253652230464 -0.005994726602409543 0.026898420435454564 -0.0076732614386299958 0.009921366371190064
leaf_weight=108450 208 70970 17977 6976 1892 3938 686 1237 599 3276 405 158 526 335
leaf_count=108450 208 70970 17977 6976 1892 3938 686 1237 599 3276 405 158 526 335
internal_value=0 5.41605e-05 -0.000163089 -0.000583178 -0.000997076 -0.00172181 -0.00023259 0.00129532 0.001309 0.00210406 0.00208021 0.00573023 0.000221043 0.0153623
internal_weight=0 109183 38213 20236 13260 6807 6453 2869 4561 3962 2661 898 1763 493
internal_count=217633 109183 38213 20236 13260 6807 6453 2869 4561 3962 2661 898 1763 493
shrinkage=0.15


Tree=552
num_leaves=15
num_cat=0
split_feature=9 31 22 13 2 1 7 14 30 22 12 2 22 12
split_gain=0.0278484 0.125484 0.516528 1.96211 2.65619 1.40654 1.39526 0.816159 0.757163 0.495745 1.06442 1.68141 1.42388 1.06046
threshold=1.3370050000000001e-05 -0.012733049999999997 -1.1864199999999998 -9.7459899999999988e-06 -1.1564299999999998 -9.3417349999999981 3.9822050000000009e-05 0.00011889250000000002 0.00055082150000000012 1.1415700000000002 1.4612150000000002e-05 1.1228550000000002 1.2723550000000003 0.00030298100000000007
decision_type=2 2 2 2 2 2 2 2 2 2 2 2 2 2
left_child=-1 2 3 4 5 -2 7 -6 -7 -4 -11 -12 13 -13
right_child=1 -3 9 -5 6 8 -8 -9 -10 10 11 12 -14 -15
leaf_value=4.2768148413833612e-05 5.3714138158357924e-05 0.00010681099976474132 8.7902142546176942e-05 0.00049300852616918035 -0.0047478373048542031 0.05103986506909132 -0.0056432453314258528 -0.021531896757705209 0.015124954911880194 0.0008553837153389629 -0.0063600211219022196 0.026820979963888655 -0.0038690898988757256 0.00017605658116129537
leaf_weight=133084 74 44313 33155 2347 87 25 683 260 28 1762 1513 89 159 54
leaf_count=133084 74 44313 33155 2347 87 25 683 260 28 1762 1513 89 159 54
internal_value=0 -6.7319e-05 -0.000259093 -0.00199918 -0.00705464 0.0134132 -0.00957834 -0.0173238 0.032066 -9.30998e-05 -0.0017708 -0.00432029 0.00589864 0.0167593
internal_weight=0 84549 40236 3504 1157 127 1030 347 53 36732 3577 1815 302 143
internal_count=217633 84549 40236 3504 1157 127 1030 347 53 36732 3577 1815 302 143
shrinkage=0.15


Tree=553
num_leaves=15
num_cat=0
split_feature=12 28 21 12 7 2 11 29 28 3 18 13 21 17
split_gain=0.025861 0.162794 0.142797 0.450552 0.355967 0.323323 0.288369 0.511359 0.320542 0.35461 0.318676 0.2884 0.286025 0.873011
threshold=-4.2234949999999994e-05 0.0020348000000000002 -3.5229999999999997 2.1843750000000002e-05 5.0699350000000001e-05 0.25774100000000005 2.4121100000000005e-05 -0.00013308399999999997 -0.0022219249999999996 -8.9017749999999989 1.3202350000000002e-05 1.0000000180025095e-35 -4.6242149999999986 9.9555800000000016e-07
decision_type=2 2 2 2 2 2 2 2 2 2 2 2 2 2
left_child=1 -1 3 6 -5 -4 -2 8 9 11 -10 -8 -11 -14
right_child=2 -3 5 4 -6 -7 7 -9 10 12 -12 -13 13 -15
leaf_value=-0.00025102251899441043 -0.00012818009137638563 0.00018158205236177842 0.00040025250901087352 0.00095458447818404528 -0.00010180760120338136 -0.00023482528510498154 -0.010926473940152 0.00028285148088151943 -1.5742414185437015e-05 -0.0039382259805496901 0.020896076095414173 -0.0036025569377260845 -0.009501916068207503 0.015349750607730009
leaf_weight=46191 11080 33963 24527 19933 11215 68166 280 1245 91 581 20 213 59 69
leaf_count=46191 11080 33963 24527 19933 11215 68166 280 1245 91 581 20 213 59 69
internal_value=0 -6.77185e-05 3.94817e-05 0.000259412 0.000574225 -6.67807e-05 -0.000459594 -0.00189512 -0.00396029 -0.0046725 0.00375215 -0.00776219 -0.0025241 0.00389469
internal_weight=0 80154 137479 44786 31148 92693 13638 2558 1313 1202 111 493 709 128
internal_count=217633 80154 137479 44786 31148 92693 13638 2558 1313 1202 111 493 709 128
shrinkage=0.15


Tree=554
num_leaves=15
num_cat=0
split_feature=4 14 25 20 0 3 34 2 22 3 3 20 0 21
split_gain=0.0264847 0.0558459 0.0867267 0.0735031 0.113093 0.135726 0.13284 0.0701979 0.0624641 0.0921952 0.0602852 0.0540114 0.114969 0.0534913
threshold=-0.58682149999999988 0.00038336100000000009 0.21734900000000004 6.4175900000000006 8.8935650000000006 -6.1661399999999995 0.036077450000000004 -0.8442694999999999 -2.8036449999999995 -6.5186449999999985 -6.0288849999999989 19.256550000000001 7.1032850000000005 -12.647699999999999
decision_type=2 2 2 2 2 2 2 2 2 2 2 2 2 2
left_child=1 2 10 7 -5 6 -6 8 9 -4 -1 -3 -13 -10
right_child=-2 11 3 4 5 -7 -8 -9 13 -11 -12 12 -14 -15
leaf_value=0.0039665746425377839 -2.6354791733914068e-05 7.3480489779523072e-05 -0.013441054694121702 0.00020422148540853908 -0.018116682475166661 -0.0010045813049405945 -0.0027316500564389255 0.0016119094431889388 0.0072186813435771244 0.00010530543804634362 0.00060592330497634178 -0.00097645677221386664 -0.012282931274967268 -0.00033497116486085331
leaf_weight=290 173597 41456 20 277 28 70 23 954 22 26 205 129 24 512
leaf_count=290 173597 41456 20 277 28 70 23 954 22 26 205 129 24 512
internal_value=0 0.000103895 0.00080332 0.00034945 -0.00146695 -0.00529269 -0.0111783 0.00082072 -0.000480651 -0.00578442 0.00257479 6.30982e-05 -0.00275002 -2.3772e-05
internal_weight=0 44036 2427 1932 398 121 51 1534 580 46 495 41609 153 534
internal_count=217633 44036 2427 1932 398 121 51 1534 580 46 495 41609 153 534
shrinkage=0.15


Tree=555
num_leaves=15
num_cat=0
split_feature=22 1 26 4 12 13 33 34 1 23 7 23 4 16
split_gain=0.0248253 0.0745716 0.0654215 0.141608 0.0610281 0.0539992 0.0561042 0.0475415 0.0637879 0.0632065 0.0702767 0.0596747 0.0475039 0.108094
threshold=-2.8863399999999997 -4.5348499999999996 0.00021799350000000002 0.0092838900000000012 3.3627650000000007e-05 5.4641750000000013e-05 -0.00028142099999999996 0.015787600000000002 5.1369100000000012 -11.124149999999998 4.3578750000000007e-05 -17.297799999999995 -1.6509149999999997 1.3186150000000004e-06
decision_type=2 2 2 2 2 2 2 2 2 2 2 2 2 2
left_child=1 2 -1 12 -3 6 -6 -8 9 10 11 -9 -4 -14
right_child=-2 4 3 -5 5 -7 7 8 -10 -11 -12 -13 13 -15
leaf_value=0.0012747028736689078 -1.0355822252522165e-05 -0.00057452820588362854 0.00020414556073502623 0.001956539008687661 0.0087204315571580079 -0.00046379812883002913 0.0018792341056787336 0.0022531273949425667 0.00096070241809970928 0.00058608139404176928 -0.00027177872327683873 -0.0066800010754652145 -0.0017805586493482427 -0.0093141607189040979
leaf_weight=2149 208904 2700 77 255 20 1124 600 20 1095 258 128 106 134 63
leaf_count=2149 208904 2700 77 255 20 1124 600 20 1095 258 128 106 134 63
internal_value=0 0.000247837 0.000906866 -0.00058743 -4.38297e-05 0.00038377 0.00081155 0.000739879 0.000314482 -0.00106757 -0.00274726 -0.00526204 -0.00295499 -0.00418978
internal_weight=0 8729 2678 529 6051 3351 2227 2207 1607 512 254 126 274 197
internal_count=217633 8729 2678 529 6051 3351 2227 2207 1607 512 254 126 274 197
shrinkage=0.15


Tree=556
num_leaves=15
num_cat=0
split_feature=19 33 30 28 12 11 14 14 33 23 14 23 23 23
split_gain=0.0235792 0.212335 0.113543 0.125148 0.124664 0.115342 0.111976 0.198908 0.343497 0.167216 0.180077 0.161472 0.134844 0.12588
threshold=1.5867800000000003e-08 4.9819250000000006e-06 0.0013021900000000002 -0.041117799999999989 -3.2982549999999995e-05 -0.00012009049999999999 0.00027515900000000003 0.0012378850000000002 2.2511800000000004e-05 -13.957949999999999 0.0028655100000000004 -8.4609499999999986 -16.783199999999997 -13.660649999999999
decision_type=2 2 2 2 2 2 2 2 2 2 2 2 2 2
left_child=1 2 3 4 -1 -4 12 8 11 10 -9 13 -3 -8
right_child=-2 6 5 -5 -6 -7 7 9 -10 -11 -12 -13 -14 -15
leaf_value=-0.016145710266984838 1.9160622033984877e-05 -0.00081927838037572083 -0.010763529614944544 -0.00054521401714842897 -0.001570553072134874 0.00038251151781924206 -0.00061747569451108583 0.00093880651266056486 0.0009714987139676323 0.0042747886559763495 -0.012244678043850486 0.001243332196730148 0.0010475103960944528 -0.0065971776156610162
leaf_weight=23 189147 1024 21 16046 31 3974 100 94 570 278 31 101 5812 381
leaf_count=23 189147 1024 21 16046 31 3974 100 94 570 278 31 101 5812 381
internal_value=0 -0.000127226 -0.000391862 -0.000569475 -0.00777849 0.000323922 0.000506531 -0.000642371 -0.00164578 0.00222594 -0.0023307 -0.0042091 0.000767874 -0.005354
internal_weight=0 28486 20095 16100 54 3995 8391 1555 1152 403 125 582 6836 481
internal_count=217633 28486 20095 16100 54 3995 8391 1555 1152 403 125 582 6836 481
shrinkage=0.15


Tree=557
num_leaves=15
num_cat=0
split_feature=7 20 0 25 6 33 34 32 32 4 17 37 36 15
split_gain=0.0236768 0.066593 0.214315 0.0976683 0.0966683 0.145574 0.477792 0.39759 0.482763 0.148456 0.137739 0.0865384 0.109991 0.193908
threshold=2.1244100000000002e-05 7.837320000000001 7.7268700000000008 0.63826400000000005 9.351245000000002e-07 2.4679550000000006e-06 0.038258850000000004 0.037555500000000012 -0.036694149999999988 0.030729050000000004 3.1090850000000007e-06 7.5771800000000014e-07 0.0084696100000000007 -3.9092099999999989e-08
decision_type=2 2 2 2 2 2 2 2 2 2 2 2 2 2
left_child=1 4 -3 -4 11 -6 7 8 -7 -10 -8 12 -1 -14
right_child=-2 2 3 -5 5 6 10 -9 9 -11 -12 -13 13 -15
leaf_value=-0.00026059472463421988 -7.0283460652847952e-06 0.001049408480643276 0.019824528819881379 0.0051779745296309044 -0.00019237024436837859 0.021907127785289048 -0.0025779903308066955 0.029752443554310084 0.0054522252797173203 -0.010888280397065584 0.0088012849370113985 -0.0023742194650278581 0.008514798316932486 0.00026248801926231468
leaf_weight=2461 213328 509 20 21 350 32 137 23 29 22 29 369 92 211
leaf_count=2461 213328 509 20 21 350 32 137 23 29 22 29 369 92 211
internal_value=0 0.000348279 0.00188978 0.0123226 0.000122494 0.00183059 0.00443367 0.012301 0.00746507 -0.00159662 -0.000590045 -0.000216618 7.14265e-05 0.00276814
internal_weight=0 4305 550 41 3755 622 272 106 83 51 166 3133 2764 303
internal_count=217633 4305 550 41 3755 622 272 106 83 51 166 3133 2764 303
shrinkage=0.15


Tree=558
num_leaves=15
num_cat=0
split_feature=2 19 25 22 20 19 35 0 0 19 12 25 21 35
split_gain=0.02378 0.0534321 0.109342 0.0905989 0.20808 0.192746 0.290027 0.160552 0.176684 0.158663 0.249403 0.132239 0.0906466 0.0835695
threshold=-2.8697349999999995 1.1269300000000002e-07 0.5363070000000002 -2.8587899999999995 -6.8164749999999996 2.7237000000000004e-08 0.0011094650000000002 -12.853499999999999 -8.0951199999999996 3.0008350000000006e-09 -1.1496199999999998e-05 0.23220000000000002 -1.3760299999999999 0.0030676250000000005
decision_type=2 2 2 2 2 2 2 2 2 2 2 2 2 2
left_child=1 2 3 5 7 6 9 -5 12 11 -11 -1 -9 -3
right_child=-2 13 -4 4 -6 -7 -8 8 -10 10 -12 -13 -14 -15
leaf_value=0.0035954924329416826 -9.541909863035411e-06 0.0002517399410538303 0.0017056609126905489 0.0012343425910482134 0.00028710533414009326 0.012734604251533242 -0.013748986410120357 -0.016746700058380762 0.00049639015418031943 0.0055652917953781201 -0.014408623217605054 0.018156176488137925 -0.0075898392777889959 -0.0013424842403160714
leaf_weight=36 209861 3761 1426 72 1252 37 26 36 46 39 22 23 75 921
leaf_count=36 209861 3761 1426 72 1252 37 26 36 46 39 22 23 75 921
internal_value=0 0.000257652 0.000741783 -8.42329e-05 -0.0004733 0.00306444 0.000613786 -0.00463062 -0.00732029 0.00372572 -0.00163842 0.00927169 -0.0105596 -6.18612e-05
internal_weight=0 7772 3090 1664 1481 183 146 229 157 120 61 59 111 4682
internal_count=217633 7772 3090 1664 1481 183 146 229 157 120 61 59 111 4682
shrinkage=0.15


Tree=559
num_leaves=15
num_cat=0
split_feature=12 21 22 23 14 21 3 1 23 3 23 23 16 10
split_gain=0.0227151 0.118904 0.217493 0.41537 0.492435 1.8643 3.37622 2.34916 2.74802 0.848546 3.31866 2.53021 0.879138 0.819608
threshold=0.00010329600000000001 -3.5229999999999997 0.7990735000000001 -9.3974499999999974 0.0016290400000000002 4.973135000000001 -9.4320199999999996 4.943715000000001 -13.243199999999998 -11.101149999999999 -10.756049999999997 -11.172049999999997 8.7181200000000016e-08 2.9146500000000003e-05
decision_type=2 2 2 2 2 2 2 2 2 2 2 2 2 2
left_child=-1 -2 -3 4 5 -4 7 -7 -9 10 12 -11 -10 -13
right_child=1 2 3 -5 -6 6 -8 8 9 11 -12 13 -14 -15
leaf_value=-2.5951018737918853e-05 0.00042714426747943066 -0.00050859164147703997 -0.0011954581540792148 -0.00047338976875675802 0.00038605510390876668 -0.0077952291290365296 -0.0015754978815637418 -0.0065096287488852116 0.037539397473143325 0.00012209614173376134 -0.020361674625354893 0.050687652457873898 0.011129927685734156 0.027870953861415255
leaf_weight=169131 15878 14417 1110 8752 7377 78 456 71 92 42 39 91 41 58
leaf_count=169131 15878 14417 1110 8752 7377 78 456 71 92 42 39 91 41 58
internal_value=0 9.04936e-05 -7.33532e-05 0.000271285 0.000960592 0.00300023 0.00781139 0.0161716 0.020479 0.0257578 0.0181154 0.0326399 0.0293981 0.041806
internal_weight=0 48502 32624 18207 9455 2078 968 512 434 363 172 191 133 149
internal_count=217633 48502 32624 18207 9455 2078 968 512 434 363 172 191 133 149
shrinkage=0.15


Tree=560
num_leaves=15
num_cat=0
split_feature=20 5 13 22 8 3 0 34 3 26 33 0 38 12
split_gain=0.0252611 0.201411 0.249628 0.242417 1.17822 0.14661 0.129531 0.167625 0.233521 0.136073 0.129384 0.485364 0.152283 0.115416
threshold=9.0324500000000025 1.2453900000000001e-05 -1.2595899999999997e-05 -0.57336749999999992 8.3956450000000029e-06 -7.3792049999999989 11.960450000000002 0.0054681550000000006 -6.1381299999999994 -5.9418849999999991e-05 2.1078850000000004e-06 7.2016400000000003 -0.00014207099999999999 -2.2635649999999997e-05
decision_type=2 2 2 2 2 2 2 2 2 2 2 2 2 2
left_child=-1 2 3 4 -2 10 -4 9 -9 -8 -5 12 -12 -7
right_child=1 -3 6 5 -6 13 7 8 -10 -11 11 -13 -14 -15
leaf_value=-1.6663779704851966e-05 0.00014637245738854151 -0.00015719251849051724 0.00058805873904881978 0.0038590637548806474 0.031217366939802701 -0.0074970654737814488 -0.019791030941996721 0.011067649823235114 -0.00280472995013805 -0.0047584608430042861 -0.013065051630352778 0.021921507018269039 -0.00094796920560373445 0.00096138010273169074
leaf_weight=196717 99 14377 5094 654 38 58 20 32 186 42 27 20 172 97
leaf_count=196717 99 14377 5094 654 38 58 20 32 186 42 27 20 172 97
internal_value=0 0.000156724 0.000846919 0.00283745 0.0087646 0.00204754 0.000415404 -0.00272568 -0.000768417 -0.00960768 0.00280235 -0.000353319 -0.002592 -0.00220372
internal_weight=0 20916 6539 1165 137 1028 5374 280 218 62 873 219 199 155
internal_count=217633 20916 6539 1165 137 1028 5374 280 218 62 873 219 199 155
shrinkage=0.15


Tree=561
num_leaves=15
num_cat=0
split_feature=15 35 15 34 5 27 5 6 21 6 28 33 15 1
split_gain=0.0238788 0.216813 0.302025 0.780603 0.734545 0.441495 0.440092 0.236478 0.358009 0.511884 0.221387 0.218432 0.217144 0.216032
threshold=-2.5264549999999993e-06 -0.14027249999999997 -1.5458549999999994e-05 1.2883350000000002 1.2187250000000003e-05 29.222250000000006 1.7177400000000003e-05 -1.8658949999999999e-07 8.149930000000003 -5.0446749999999995e-07 -0.083375999999999992 -7.2512599999999987e-05 -1.2643349999999998e-05 -3.7755899999999998
decision_type=2 2 2 2 2 2 2 2 2 2 2 2 2 2
left_child=1 2 -1 4 11 6 -6 8 9 13 -8 -4 -9 -5
right_child=-2 -3 3 7 5 -7 10 12 -10 -11 -12 -13 -14 -15
leaf_value=0.00035215864894100498 -2.6310799155373676e-05 2.5694030814850968e-05 -0.013857116657600272 0.0050975936922504628 0.0023411946201563946 0.03711236468063564 0.013223695331253111 0.0077635058995061124 0.019756692672030219 0.018147652012828204 0.034592168051312912 0.006825318021259995 -0.0025308982918412714 -0.0089848683686700251
leaf_weight=1406 169971 45594 20 43 35 27 20 55 34 35 24 27 285 57
leaf_count=1406 169971 45594 20 43 35 27 20 55 34 35 24 27 285 57
internal_value=0 9.38289e-05 0.00159602 0.00423783 0.0136327 0.0205534 0.014894 0.00141383 0.00599973 0.00253501 0.0248792 -0.00197572 -0.000865627 -0.00292941
internal_weight=0 47662 2068 662 153 106 79 509 169 135 44 47 340 100
internal_count=217633 47662 2068 662 153 106 79 509 169 135 44 47 340 100
shrinkage=0.15


Tree=562
num_leaves=15
num_cat=0
split_feature=25 36 33 18 10 8 19 19 21 15 8 33 19 21
split_gain=0.0234887 0.0416338 0.0682528 0.141729 0.0656514 0.126093 0.0836897 0.15204 0.134934 0.129447 0.123802 0.226875 0.16187 0.17785
threshold=92.722700000000017 0.60859850000000015 0.0031288150000000005 -5.6742149999999992e-06 3.6454950000000006e-05 -2.4728349999999998e-05 0.00039220150000000002 0.00011964300000000002 3.9907100000000004 2.8562700000000001e-06 1.6268500000000005e-05 0.00015643550000000002 0.00055222050000000003 -3.3402249999999998
decision_type=2 2 2 2 2 2 2 2 2 2 2 2 2 2
left_child=1 2 -1 -4 5 -3 7 9 -9 -7 12 -12 13 -8
right_child=-2 4 3 -5 -6 6 10 8 -10 -11 11 -13 -14 -15
leaf_value=-5.016915834387846e-06 -0.00057716957768068474 0.011374883861733704 0.01373527643334819 0.00029262942560308146 -0.0002586758771626068 0.00059242730443918542 0.019663031680671416 -0.0069863825653777205 0.0022730139672953206 0.010060954631497974 0.00020404954766490844 0.021835742695257065 0.0010714365056449853 0.0010091541777871064
leaf_weight=213184 1575 27 25 60 1198 730 23 111 52 34 24 20 547 23
leaf_count=213184 1575 27 25 60 1198 730 23 111 52 34 24 20 547 23
internal_value=0 4.2074e-06 -3.3225e-06 0.00424635 0.000580003 0.00121152 0.00103606 0.000126486 -0.00403246 0.0010138 0.00235973 0.0100366 0.00179011 0.0103361
internal_weight=0 216058 213269 85 2789 1591 1564 927 163 764 637 44 593 46
internal_count=217633 216058 213269 85 2789 1591 1564 927 163 764 637 44 593 46
shrinkage=0.15


Tree=563
num_leaves=15
num_cat=0
split_feature=22 2 2 3 28 16 22 2 2 25 3 21 19 3
split_gain=0.0234368 0.268629 0.206891 0.217326 0.205475 0.119699 0.282907 0.0848813 0.0806701 0.0770744 0.0437457 0.0383045 0.0314286 0.0338405
threshold=3.0676500000000004 3.0578500000000006 2.5964800000000001 -13.980049999999999 0.00029183350000000003 -4.2370699999999994e-07 3.0909850000000003 -3.0483799999999994 -1.3702499999999997 0.59057700000000002 -8.3608649999999987 -6.4898099999999994 7.2538700000000022e-08 -6.3035799999999993
decision_type=2 2 2 2 2 2 2 2 2 2 2 2 2 2
left_child=-1 2 7 -4 -3 6 -5 -2 11 -8 -11 -9 13 -10
right_child=1 4 3 5 -6 -7 9 8 12 10 -12 -13 -14 -15
leaf_value=-5.1990148875543246e-06 0.0091821097231541693 0.0030258124980788964 0.0082769534507511136 -0.02356308716163039 0.023248918200843037 -0.0015138075255725363 0.00014254297172609605 0.0056648519297596064 0.0044965673064267754 -0.014298348208623272 -0.004496088072191924 -0.00099955846475651713 0.00090269068867406324 0.00058434104326546992
leaf_weight=215232 26 26 26 25 20 66 34 20 122 21 20 652 1259 84
leaf_count=215232 26 26 26 25 20 66 34 20 122 21 20 652 1259 84
internal_value=0 0.000466053 0.000244308 -0.00447463 0.0118185 -0.00647186 -0.00974418 0.000663187 0.000559541 -0.00513787 -0.00951676 -0.000801213 0.00118372 0.00290129
internal_weight=0 2401 2355 192 46 166 100 2163 2137 75 41 672 1465 206
internal_count=217633 2401 2355 192 46 166 100 2163 2137 75 41 672 1465 206
shrinkage=0.15


Tree=564
num_leaves=15
num_cat=0
split_feature=10 33 13 13 22 21 16 7 15 24 4 32 19 33
split_gain=0.0236692 0.0864675 0.192229 0.158279 0.180149 0.218081 0.303613 0.582603 0.878519 0.944201 1.07099 1.02478 0.199117 0.290839
threshold=6.1212250000000014e-05 1.7495550000000002e-06 4.2943850000000006e-06 1.0000000180025095e-35 -0.69316099999999981 2.7095700000000007 1.9598050000000002e-06 7.7189600000000011e-05 -7.0429099999999998e-06 0.13072750000000002 -0.041887649999999992 0.041350700000000011 0.054680650000000004 3.0197100000000003e-05
decision_type=2 2 2 2 2 2 2 2 2 2 2 2 2 2
left_child=-1 2 -2 4 -3 6 -6 8 -8 10 11 -10 -7 -14
right_child=1 3 -4 -5 5 12 7 -9 9 -11 -12 -13 13 -15
leaf_value=-2.3103742555383076e-05 0.00080654797804536357 -0.0018536670511948871 -8.4662938683804375e-05 0.00023929850928963372 -0.00031764808550191161 -0.00084870747536371788 -0.0012430910499201023 0.00084867219609053354 0.0018645897994495251 0.039060962051250189 -0.011308913324955937 0.047648155943236563 -0.0025879978988926334 -0.018072952796403016
leaf_weight=178661 9584 2110 12611 9766 1644 2361 84 559 22 36 32 22 104 37
leaf_count=178661 9584 2110 12611 9766 1644 2361 84 559 22 36 32 22 104 37
internal_value=0 0.000105915 0.00030017 -0.000151072 -0.00069484 -0.000195937 0.000825913 0.003316 0.0103529 0.0190499 0.00957099 0.0247564 -0.00117572 -0.00665143
internal_weight=0 38972 22195 16777 7011 4901 2399 755 196 112 76 44 2502 141
internal_count=217633 38972 22195 16777 7011 4901 2399 755 196 112 76 44 2502 141
shrinkage=0.15


Tree=565
num_leaves=15
num_cat=0
split_feature=16 33 13 6 21 13 1 1 5 4 21 33 33 8
split_gain=0.0238331 0.0834202 0.329324 0.215981 0.325951 0.67612 0.767759 0.762172 0.421538 0.364495 0.557028 0.349786 0.431836 0.399141
threshold=-2.2582199999999995e-06 3.6796100000000005e-07 -7.3465499999999991e-06 2.5326700000000007e-07 5.3537200000000009 -9.4245499999999994e-06 4.943715000000001 0.9808285000000001 2.6253150000000005e-05 -0.40425149999999993 6.8989050000000001 2.8439950000000003e-06 6.2699700000000012e-05 -8.8754949999999979e-06
decision_type=2 2 2 2 2 2 2 2 2 2 2 2 2 2
left_child=1 2 -1 -3 -5 6 7 -6 11 -8 -11 -9 -13 -14
right_child=-2 3 -4 4 5 -7 9 8 -10 10 -12 12 13 -15
leaf_value=0.0011320091459068901 -2.833814332842166e-05 0.00031602790358018781 -4.3860012286630071e-05 -0.00013754844436142258 -8.0907233600808256e-05 -0.00026577518730057972 -0.003304332699090909 -0.0051646850791241218 -0.00072471678900506542 0.023836841286143419 0.0014281740735268926 -0.017121319180924296 -0.016338351221797477 0.011364344995119608
leaf_weight=7308 164138 13368 20095 9853 216 1867 143 110 81 35 87 285 22 25
leaf_count=7308 164138 13368 20095 9853 216 1867 143 110 81 35 87 285 22 25
internal_value=0 8.69496e-05 0.000269728 -0.000105013 -0.000547363 -0.00195381 -0.00509281 -0.00757673 -0.0106725 0.00183404 0.00785689 -0.0124955 -0.0149244 -0.00160287
internal_weight=0 53495 27403 26092 12724 2871 1004 739 523 265 122 442 332 47
internal_count=217633 53495 27403 26092 12724 2871 1004 739 523 265 122 442 332 47
shrinkage=0.15


Tree=566
num_leaves=15
num_cat=0
split_feature=5 2 21 21 17 20 17 28 34 1 34 17 22 20
split_gain=0.0237087 0.0776373 0.280636 0.374021 0.42288 1.09412 0.569625 0.662513 1.08639 0.501375 0.577605 0.34325 0.325039 0.344735
threshold=8.942730000000002e-06 -0.29067049999999994 -6.4898099999999994 -2.9957599999999993 5.657635000000001e-07 1.0658000000000003 6.2656400000000009e-06 -0.0034260149999999997 0.20298200000000002 -5.4394549999999997 0.052176300000000009 2.2042900000000004e-06 -0.88145999999999991 6.0948100000000007
decision_type=2 2 2 2 2 2 2 2 2 2 2 2 2 2
left_child=1 2 -1 4 -4 -6 7 8 9 -7 -11 -9 -8 -14
right_child=-2 -3 3 -5 5 6 12 11 -10 10 -12 -13 13 -15
leaf_value=-0.0015083899606562186 -1.4101498132635156e-05 -9.9483660295722432e-05 0.0011158485830536898 0.00033608210681987399 -0.0005771745502962521 0.054531862204021307 -0.0095428728315365037 0.014784195028137062 0.0029702713258400863 0.012564646560067852 0.04087486929013668 -0.010062660293359924 0.021584302666763373 -0.0029148398039978928
leaf_weight=1205 201302 9616 795 4222 239 20 29 29 37 31 34 22 28 24
leaf_count=1205 201302 9616 795 4222 239 20 29 29 37 31 34 22 28 24
internal_value=0 0.00017382 0.000565197 0.00101868 0.00325618 0.00670764 0.0135622 0.0184228 0.0244245 0.0337634 0.0273731 0.00406594 0.003181 0.010277
internal_weight=0 16331 6715 5510 1288 493 254 173 122 85 65 51 81 52
internal_count=217633 16331 6715 5510 1288 493 254 173 122 85 65 51 81 52
shrinkage=0.15


Tree=567
num_leaves=15
num_cat=0
split_feature=37 14 19 34 13 5 19 13 16 16 21 2 9 11
split_gain=0.0224486 0.0634255 0.135572 0.246695 0.115359 0.137973 0.287241 0.153856 0.257854 0.133749 0.158078 0.277839 0.151782 0.292137
threshold=-1.1844749999999999e-05 0.0014906400000000003 0.0023004300000000004 1.5836250000000003 9.4443350000000015e-05 1.1325000000000003e-05 0.00066943500000000013 0.00011098700000000001 -9.5177599999999978e-06 -1.6260199999999997e-06 8.149930000000003 1.7839050000000001 2.7133900000000005e-05 4.8156500000000006e-05
decision_type=2 2 2 2 2 2 2 2 2 2 2 2 2 2
left_child=1 2 -1 -4 9 6 -6 8 -7 12 -11 -12 13 -3
right_child=-2 4 3 -5 5 7 -8 -9 -10 10 11 -13 -14 -15
leaf_value=-0.000159798440235305 6.1635429550443206e-06 -0.0056486926520908374 0.017274995472481739 0.0015334561871100049 -0.01914297288749367 0.022230300803203137 -0.0008335049571208086 0.00042307570120010191 -0.00042425698565449029 -0.0020388953489199643 -5.6214024637786976e-05 0.020640032510273156 -0.01374979390388226 0.0087432037699948749
leaf_weight=1846 214128 223 28 112 24 20 98 598 26 381 54 20 38 37
leaf_count=1846 214128 223 28 112 24 20 98 598 26 381 54 20 38 37
internal_value=0 -0.000376544 0.0001815 0.00468176 -0.00110615 0.000189895 -0.00443537 0.00106611 0.00942555 -0.00242458 -0.000806712 0.00553737 -0.00489481 -0.00360062
internal_weight=0 3505 1986 140 1519 766 122 644 46 753 455 74 298 260
internal_count=217633 3505 1986 140 1519 766 122 644 46 753 455 74 298 260
shrinkage=0.15


Tree=568
num_leaves=15
num_cat=0
split_feature=12 15 35 16 16 36 12 22 30 15 13 12 6 0
split_gain=0.0215978 0.0240999 0.168162 0.20311 0.482549 0.566153 0.531998 0.520631 0.41401 0.600087 0.362967 0.295692 0.258025 0.199437
threshold=-0.0023842849999999994 -2.5264549999999993e-06 -0.14027249999999997 3.6814400000000004e-05 -3.8224499999999993e-06 -0.17109449999999995 -0.00014518449999999995 -0.64565649999999986 0.016363950000000006 -1.2643349999999998e-05 1.8790800000000007e-05 -6.6440049999999984e-05 6.0096700000000009e-07 5.009195000000001
decision_type=2 2 2 2 2 2 2 2 2 2 2 2 2 2
left_child=-1 2 3 4 -2 -6 -7 13 9 -9 11 -10 -11 -8
right_child=1 -3 -4 -5 5 6 7 8 10 12 -12 -13 -14 -15
leaf_value=-0.00043303277889844089 0.00048491050187139792 -2.1162621364273624e-05 4.0125266888993564e-05 -0.00084682885389796806 -0.0037145551169766007 0.02862020780228014 0.0025375670223729686 0.0012740641075652092 0.016586825067431411 0.040029893702139024 0.015662575507012663 -0.002924297913456993 0.019798181780513274 -0.013098355009951148
leaf_weight=2561 940 168718 44344 608 98 29 50 29 22 23 60 85 37 29
leaf_count=2561 940 168718 44344 608 98 29 50 29 22 23 60 85 37 29
internal_value=0 5.1564e-06 0.000100952 0.00144288 0.00243586 0.00640531 0.00912989 0.00744267 0.0107276 0.0189907 0.00632395 0.00108733 0.0275537 -0.0032022
internal_weight=0 215072 46354 2010 1402 462 364 335 256 89 167 107 60 79
internal_count=217633 215072 46354 2010 1402 462 364 335 256 89 167 107 60 79
shrinkage=0.15


Tree=569
num_leaves=15
num_cat=0
split_feature=3 23 3 14 23 23 3 14 30 3 23 14 34 0
split_gain=0.0221037 0.179826 0.455629 0.429397 0.328231 0.250753 1.52881 1.56008 0.743823 0.726383 6.7716 3.24752 2.19254 0.98697
threshold=-8.4006749999999979 -10.428949999999999 -6.2498799999999992 0.00027515900000000003 -17.896049999999999 -8.5490249999999985 -7.2823399999999987 0.0006614075000000002 0.0010977650000000003 -7.8541999999999996 -7.8351449999999998 0.0006614075000000002 0.19264550000000003 -7.9798249999999991
decision_type=2 2 2 2 2 2 2 2 2 2 2 2 2 2
left_child=-1 2 3 4 -2 6 7 8 -3 10 11 12 13 -7
right_child=1 5 -4 -5 -6 9 -8 -9 -10 -11 -12 -13 -14 -15
leaf_value=-4.7964958766753961e-05 -0.00054312438809215246 -0.0067379223966442447 -0.00022565939917546673 9.5073274165645227e-05 0.0017285806756459166 0.0072136367947425728 0.00021524951128865078 0.00013965016441822337 -0.0011179216274503736 -0.00013870786856838967 -0.0015656990626430258 0.00077407693875759115 -0.007258183582009959 0.019803096677206349
leaf_weight=108450 1677 1999 20713 11420 9758 173 14394 2177 721 40793 3992 540 89 737
leaf_count=108450 1677 1999 20713 11420 9758 173 14394 2177 721 40793 3992 540 89 737
internal_value=0 4.76429e-05 0.000283886 0.000745675 0.00139542 -0.000109221 -0.000563621 -0.00285299 -0.00524821 8.00079e-05 0.00169311 0.0101461 0.0152121 0.0174097
internal_weight=0 109183 43568 22855 11435 65615 19291 4897 2720 46324 5531 1539 999 910
internal_count=217633 109183 43568 22855 11435 65615 19291 4897 2720 46324 5531 1539 999 910
shrinkage=0.15


Tree=570
num_leaves=15
num_cat=0
split_feature=39 14 14 4 3 23 3 8 3 3 24 0 35 37
split_gain=0.0252526 0.125666 0.185572 0.1569 0.197749 0.200826 0.335587 0.175003 0.237495 0.227683 0.345928 0.215801 0.275366 0.206495
threshold=7.8311850000000005e-07 0.0052402850000000008 0.00020775150000000003 -0.070547549999999987 -5.8564649999999991 -6.2906249999999995 -6.2768299999999995 1.6508800000000004e-05 -7.2823399999999987 -6.1661399999999995 -0.072506899999999985 0.89142450000000018 9.2021950000000004e-05 -8.4064199999999992e-09
decision_type=2 2 2 2 2 2 2 2 2 2 2 2 2 2
left_child=1 2 3 4 5 7 -7 8 -1 10 -10 12 -12 -13
right_child=-2 -3 -4 -5 -6 6 -8 -9 9 -11 11 13 -14 -15
leaf_value=-0.00050416149642489147 -1.1466612244878554e-05 -0.0006279159360495205 0.0012304091044060311 0.00037872804689007645 0.00045604262724225833 0.0054302641115170367 -0.011550237408706121 0.0030571656760002949 -0.0040014197267009876 -0.0011207251242482134 -0.018427185582861837 -0.015595611784859405 0.0019908805533423615 -0.035172831995243375
leaf_weight=103 207198 2819 4098 2513 459 104 35 48 80 62 42 27 23 22
leaf_count=103 207198 2819 4098 2513 459 104 35 48 80 62 42 27 23 22
internal_value=0 0.000227682 0.000544374 -0.000254765 -0.00183881 -0.003768 0.0011546 -0.00544919 -0.00658653 -0.00903373 -0.0115626 -0.0168687 -0.0112023 -0.0243854
internal_weight=0 10435 7616 3518 1005 546 139 407 359 256 194 114 65 49
internal_count=217633 10435 7616 3518 1005 546 139 407 359 256 194 114 65 49
shrinkage=0.15


Tree=571
num_leaves=15
num_cat=0
split_feature=4 37 6 4 4 24 23 28 26 10 0 20 20 9
split_gain=0.0244976 0.110366 0.594824 1.00812 0.690938 0.497472 0.827768 0.671375 0.649083 1.2456 0.756075 1.18563 0.910853 1.29989
threshold=0.21114250000000004 3.3426850000000004e-08 -6.6249699999999982e-07 0.46547150000000009 0.34245300000000006 0.22059200000000004 -13.149599999999998 0.13736000000000001 -0.00013226649999999998 4.0048900000000009e-05 5.0909800000000009 4.5614350000000004 3.3517700000000006 -2.0059999999999998e-05
decision_type=2 2 2 2 2 2 2 2 2 2 2 2 2 2
left_child=-1 -2 4 -4 5 -3 -7 8 10 -10 12 -12 13 -8
right_child=1 2 3 -5 -6 6 7 -9 9 -11 11 -13 -14 -15
leaf_value=-3.1458678771954031e-05 0.00022638379268221341 0.0016369687630950226 -0.0033942649621718627 -0.00014324001460016728 0.00015166184468200583 -0.0016666941949591526 0.023883688008010554 -0.0054151120241613167 0.033969581613450178 -0.0076829833128223453 -0.0085435118199751262 0.031163867913710418 -0.01371336414589195 -0.010657285363245486
leaf_weight=156486 40123 939 2738 9928 6878 161 66 48 70 21 23 64 49 39
leaf_count=156486 40123 939 2738 9928 6878 161 66 48 70 21 23 64 49 39
internal_value=0 8.05083e-05 -0.000197886 -0.000846012 0.000784306 0.00372439 0.00734748 0.0111666 0.013564 0.0243575 0.00948847 0.0206665 0.0031736 0.0110542
internal_weight=0 61147 21024 12666 8358 1480 541 380 332 91 241 87 154 105
internal_count=217633 61147 21024 12666 8358 1480 541 380 332 91 241 87 154 105
shrinkage=0.15


Tree=572
num_leaves=15
num_cat=0
split_feature=4 14 3 34 14 20 27 24 13 14 20 18 0 24
split_gain=0.0264397 0.064032 0.105032 0.0914111 0.0548274 0.114138 0.0670245 0.0523132 0.198052 0.440805 0.0476062 0.158807 0.161055 2.02488
threshold=-1.2236799999999997 0.0033273500000000002 -6.0545599999999995 0.012110300000000003 0.00020775150000000003 8.9183100000000017 0.25430700000000001 -2.2351899999999998 0.00021455900000000002 0.017106350000000003 9.4321850000000023 -1.4614499999999998e-06 7.508115000000001 -0.10307799999999999
decision_type=2 2 2 2 2 2 2 2 2 2 2 2 2 2
left_child=1 2 4 -3 5 6 -1 8 9 -5 -2 12 -12 -14
right_child=10 3 -4 7 -6 -7 -8 -9 -10 -11 11 -13 13 -15
leaf_value=0.0060208069905153625 -4.6655097267931326e-05 -0.00047509545902512832 -0.00061179961781974675 -0.00042741863726405424 0.00061688748208804504 -0.0056295974107342765 0.0017392479177620378 0.00014260852420939265 -0.0025060654587668678 0.027637071793433277 0.00063809646647013335 -4.9458226973658787e-05 0.01273496916541522 -0.0044676310716232886
leaf_weight=126 166132 6753 1644 34 6749 36 237 20594 61 20 3195 11430 280 342
leaf_count=126 166132 6753 1644 34 6749 36 237 20594 61 20 3195 11430 280 342
internal_value=0 0.000116942 0.00046926 4.14753e-06 0.000717898 0.00242646 0.00322541 0.000160424 0.00335078 0.00996684 -2.33744e-05 0.000230293 0.00106801 0.0032763
internal_weight=0 36254 8792 27462 7148 399 363 20709 115 54 181379 15247 3817 622
internal_count=217633 36254 8792 27462 7148 399 363 20709 115 54 181379 15247 3817 622
shrinkage=0.15


Tree=573
num_leaves=15
num_cat=0
split_feature=9 20 3 13 23 20 3 23 13 31 23 3 31 23
split_gain=0.0247523 0.117827 0.160234 0.238991 0.136893 0.103565 0.100229 0.191675 0.144365 0.0909807 0.0896327 0.179747 0.424292 0.962244
threshold=8.0374850000000012e-06 8.1756000000000011 -10.550799999999997 6.9651600000000016e-05 -10.364449999999998 -6.9911799999999991 -10.662649999999998 -10.156499999999999 0.000115686 -13.003849999999998 -8.3320149999999984 -11.101149999999999 -0.037385749999999988 -11.124149999999998
decision_type=2 2 2 2 2 2 2 2 2 2 2 2 2 2
left_child=1 10 3 4 -3 6 7 -2 -9 -8 11 12 -1 -14
right_child=5 2 -4 -5 -6 -7 9 8 -10 -11 -12 -13 13 -15
leaf_value=-0.0011526631219699326 -0.0013476347511213967 -0.0011974829930427387 0.00010228452039296567 -0.0001636890443279035 0.0023575834379597738 -0.00012438685398062462 -0.0043365723232065131 0.002011615574117674 -3.1826908640009842e-05 0.00010152876005738906 -0.00020116298667909328 0.000241361194713159 0.001315325405816261 -0.0012762261777107993
leaf_weight=7864 702 269 9956 1852 2592 80254 105 2449 1140 10191 36453 50535 7753 5518
leaf_count=7864 702 269 9956 1852 2592 80254 105 2449 1140 10191 36453 50535 7753 5518
internal_value=0 4.44579e-05 0.000443379 0.00116393 0.00202333 -5.75603e-05 0.000310102 0.000919162 0.00136254 5.62684e-05 -9.66351e-06 8.77375e-05 -0.000279586 0.000237774
internal_weight=0 122792 14669 4713 2861 94841 14587 4291 3589 10296 108123 71670 21135 13271
internal_count=217633 122792 14669 4713 2861 94841 14587 4291 3589 10296 108123 71670 21135 13271
shrinkage=0.15


Tree=574
num_leaves=15
num_cat=0
split_feature=14 33 13 19 23 23 15 22 3 11 0 3 3 0
split_gain=0.0249621 0.117045 0.20082 0.159719 0.20645 0.120393 0.204352 0.377148 0.765481 0.578275 0.145415 0.209051 0.466778 0.116201
threshold=0.000110883 -2.9545649999999993e-06 -3.1817149999999993e-06 1.1970700000000004e-10 -9.6230949999999975 -6.1069649999999989 -3.1918699999999993e-08 1.6050450000000003 -5.7023449999999993 -1.5246999999999998e-06 1.0000000180025095e-35 -6.3281449999999984 -5.753169999999999 12.402900000000001
decision_type=2 2 2 2 2 2 2 2 2 2 2 2 2 2
left_child=1 2 -1 4 -4 -3 7 10 9 -9 11 -7 -13 -12
right_child=-2 5 3 -5 -6 6 -8 8 -10 -11 13 12 -14 -15
leaf_value=0.00098737117214852755 -2.6498074496159437e-05 -0.00014365834846585181 0.0001235564776127123 -8.5575821278355009e-05 0.020230735901277511 0.0099564508460462092 -0.00013931968092165502 0.034902152011400664 -0.00038253917722852102 0.0032444149765069596 0.007242668101738672 -0.021933837062013999 0.00056884025445469888 -0.0024105187630853973
leaf_weight=7551 171085 28224 27 9694 20 25 642 37 61 20 100 28 80 39
leaf_count=7551 171085 28224 27 9694 20 25 642 37 61 20 100 28 80 39
internal_value=0 9.73924e-05 0.000406779 -4.32832e-05 0.0086798 -8.54729e-05 0.00150583 0.004214 0.011296 0.0237942 0.00114165 -0.00240398 -0.00526519 0.00453422
internal_weight=0 46548 17292 9741 47 29256 1032 390 118 57 272 133 108 139
internal_count=217633 46548 17292 9741 47 29256 1032 390 118 57 272 133 108 139
shrinkage=0.15


Tree=575
num_leaves=15
num_cat=0
split_feature=4 38 13 21 8 13 13 7 14 13 21 12 12 16
split_gain=0.0255741 0.10069 0.160271 0.193609 0.554112 0.602403 0.246946 0.184859 0.264314 0.230458 0.219615 0.396813 0.181869 0.166587
threshold=0.21114250000000004 -0.11222949999999998 5.0947250000000009e-05 -8.8025949999999984 5.3795750000000009e-06 1.4087000000000001e-05 4.8190950000000003e-05 6.5266650000000013e-05 0.013066200000000002 -6.3752099999999989e-05 2.0101650000000002 0.00020606500000000004 -0.00015437249999999999 9.9440800000000022e-06
decision_type=2 2 2 2 2 2 2 2 2 2 2 2 2 2
left_child=-1 2 3 4 -2 -6 7 8 9 -5 12 -12 -11 -14
right_child=1 -3 -4 6 5 -7 -8 -9 -10 10 11 -13 13 -15
leaf_value=-3.2142416099816039e-05 -0.0051900210422418233 0.00012048363250370207 0.00036619673174728207 0.010598214480948324 0.0012798108435659245 0.032512520751333797 -0.017855819177930242 0.00093329664577092774 -0.015381119421842258 -0.014801785320488977 -0.0022320609346242353 0.016821193617458142 -0.0032731199244232772 -0.012604502147159484
leaf_weight=156486 75 58827 1154 27 33 24 24 266 41 46 276 27 276 51
leaf_count=156486 75 58827 1154 27 33 24 24 266 41 46 276 27 276 51
internal_value=0 8.22581e-05 -0.000887005 -0.00212731 0.00328244 0.0144304 -0.00281792 -0.00246058 -0.00367398 -0.00299121 -0.00353398 -0.000534246 -0.00597076 -0.00472847
internal_weight=0 61147 2320 1166 132 57 1034 1010 744 703 676 303 373 327
internal_count=217633 61147 2320 1166 132 57 1034 1010 744 703 676 303 373 327
shrinkage=0.15


Tree=576
num_leaves=15
num_cat=0
split_feature=4 33 17 34 18 4 35 0 28 1 26 18 18 24
split_gain=0.0252932 0.0584021 0.0750631 0.0484287 0.30069 0.291821 0.22173 0.273058 0.20836 0.163268 0.159998 0.282732 0.125158 0.244072
threshold=-1.2236799999999997 -2.9545649999999993e-06 -5.3149449999999995e-06 0.0054681550000000006 -3.4751349999999995e-06 -0.089102199999999979 -0.00017729399999999996 3.4931300000000003 -0.0033222799999999995 -7.1857399999999991 5.9446350000000004e-05 -1.0730149999999997e-06 -4.7987299999999999e-06 -0.49656149999999993
decision_type=2 2 2 2 2 2 2 2 2 2 2 2 2 2
left_child=1 2 -1 4 -2 6 7 -6 -9 -10 -11 -12 13 -5
right_child=3 -3 -4 12 5 -7 -8 8 9 10 11 -13 -14 -15
leaf_value=0.0001524163254417089 0.0013612953495334183 -3.4811914535441377e-05 0.00095489402575050565 -0.0016077080613635193 -0.0019291131132978391 0.0001397684961702422 -0.002769128361228515 0.018571956496199835 -0.0050432136825111227 0.0014023375746552347 0.0027994115324690939 0.023449556814291728 1.1412458569165908e-05 -0.0001843962956131312
leaf_weight=10271 4001 22461 3522 3026 313 15056 1435 23 40 80 35 26 131318 26026
leaf_count=10271 4001 22461 3522 3026 313 15056 1435 23 40 80 35 26 131318 26026
internal_value=0 0.000114379 0.000357327 -2.2862e-05 0.000191283 -8.39532e-05 -0.00180954 0.000853905 0.00512393 0.00341506 0.00581457 0.0116011 -5.09158e-05 -0.000332646
internal_weight=0 36254 13793 181379 21009 17008 1952 517 204 181 141 61 160370 29052
internal_count=217633 36254 13793 181379 21009 17008 1952 517 204 181 141 61 160370 29052
shrinkage=0.15


Tree=577
num_leaves=15
num_cat=0
split_feature=3 37 17 4 34 25 17 17 25 4 35 25 24 1
split_gain=0.0244283 0.0810077 0.265368 0.284198 0.237042 0.279616 0.209459 0.217284 0.482768 0.352296 0.346891 0.293418 0.25142 0.24465
threshold=-15.512049999999999 -3.1603149999999994e-07 -6.5767799999999986e-08 0.53343300000000016 0.15558450000000004 1.5957600000000003 6.0555850000000007e-09 1.9846050000000004e-06 0.46489000000000008 0.019025200000000003 -0.00082107549999999995 0.49081050000000004 0.238681 -3.9125799999999997
decision_type=2 2 2 2 2 2 2 2 2 2 2 2 2 2
left_child=1 2 -1 4 -4 6 -6 8 10 -9 -8 12 -11 -10
right_child=-2 -3 3 -5 5 -7 7 9 13 11 -12 -13 -14 -15
leaf_value=0.0017074989682489678 -1.4322412745272985e-05 0.00034663093516110074 1.9765155989244692e-05 0.00075974768274281114 0.0039328316441522198 -0.0015523783702809108 -0.038135179019300261 -0.0092679050824091089 -0.016650372195396234 -8.4155232512525153e-05 -0.014548794199350944 -0.0049513627420108407 0.022861685819754545 -0.0014577982818208997
leaf_weight=912 201284 12974 526 942 39 528 20 145 33 21 47 54 22 86
leaf_count=912 201284 12974 526 942 39 528 20 145 33 21 47 54 22 86
internal_value=0 0.000176333 -0.000478316 -0.00128768 -0.00255571 -0.00391722 -0.00659096 -0.00754991 -0.011405 -0.0045869 -0.0215895 0.00241048 0.0116556 -0.00567086
internal_weight=0 16349 3375 2463 1521 995 467 428 186 242 67 97 43 119
internal_count=217633 16349 3375 2463 1521 995 467 428 186 242 67 97 43 119
shrinkage=0.15


Tree=578
num_leaves=15
num_cat=0
split_feature=34 3 14 15 17 35 18 0 24 5 33 31 33 6
split_gain=0.0228979 0.0937355 0.178986 0.148836 0.166466 0.2475 0.257915 0.253313 0.414594 0.218029 0.233598 0.408413 0.137221 0.496886
threshold=0.43971050000000006 -7.5114599999999987 0.0039324400000000006 2.1137100000000002e-07 5.943890000000001e-06 0.32650700000000005 1.7497200000000002e-05 4.4321300000000008 0.97666950000000008 9.4871050000000014e-06 -2.0893199999999995e-05 -0.63583249999999991 -6.1289549999999995e-06 -3.3575149999999996e-07
decision_type=2 2 2 2 2 2 2 2 2 2 2 2 2 2
left_child=-1 2 3 -2 5 12 -7 -8 -9 10 -6 -12 13 -5
right_child=1 -3 -4 4 9 6 7 8 -10 -11 11 -13 -14 -15
leaf_value=-2.227005425125457e-05 0.0010640436798991465 -0.00018273301662827994 -0.00015369023518140037 -0.0037471571924919517 0.00097208788007814085 0.00077688012748763381 -0.00073600617761258034 0.0006035686840980567 0.027352918247561319 0.00081279426531535696 0.0289378928351216 0.0023312203198050459 -0.0022402768751361569 0.0025211880259500305
leaf_weight=179936 8079 15120 10485 478 53 265 30 22 32 1055 25 27 1323 703
leaf_count=179936 8079 15120 10485 478 53 265 30 22 32 1055 25 27 1323 703
internal_value=0 0.0001063 0.000299867 0.000693148 -5.35406e-05 -0.000669564 0.00307268 0.0103154 0.016455 0.00146156 0.0079801 0.0151229 -0.00119115 -1.5873e-05
internal_weight=0 37697 22577 12092 4013 2853 349 84 54 1160 105 52 2504 1181
internal_count=217633 37697 22577 12092 4013 2853 349 84 54 1160 105 52 2504 1181
shrinkage=0.15


Tree=579
num_leaves=15
num_cat=0
split_feature=14 33 19 19 3 19 33 33 21 3 37 33 11 37
split_gain=0.0244053 0.0832446 0.150475 0.113502 0.118735 0.0773596 0.212714 0.234164 0.503859 0.478087 0.492624 0.528644 0.380797 0.387544
threshold=0.000110883 -2.9545649999999993e-06 6.3072250000000013e-05 1.1970700000000004e-10 -6.860879999999999 0.00037907750000000008 3.2130100000000007e-06 1.1210100000000002e-06 7.7619950000000015 -6.2768299999999995 -9.2679549999999976e-08 2.9236500000000008e-06 2.4927000000000004e-05 -7.5376299999999989e-08
decision_type=2 2 2 2 2 2 2 2 2 2 2 2 2 2
left_child=1 2 3 4 -1 -3 7 -7 9 10 -9 12 13 -12
right_child=-2 5 -4 -5 -6 6 -8 8 -10 -11 11 -13 -14 -15
leaf_value=0.016134396832203492 -2.6200833354452038e-05 3.4173181240538188e-05 0.00093626293624928989 -1.2720264891360823e-05 0.00088570381598805799 -0.00096948868409097431 -0.0017538689450464252 -0.0049046453959308558 -0.0054182444639497718 -8.7564731503373395e-05 0.026483960755701575 0.033072956969313644 0.027523132595841 0.0049814218624630261
leaf_weight=20 171085 25606 6375 10870 27 966 1983 50 140 259 21 23 23 185
leaf_count=20 171085 25606 6375 10870 27 966 1983 50 140 259 21 23 23 185
internal_value=0 9.62999e-05 0.000357218 1.90833e-05 0.00737451 -5.79177e-05 -0.000703966 0.000544958 0.00263191 0.00464086 0.00869604 0.0113946 0.00921729 0.00717343
internal_weight=0 46548 17292 10917 47 29256 3650 1667 701 561 302 252 229 206
internal_count=217633 46548 17292 10917 47 29256 3650 1667 701 561 302 252 229 206
shrinkage=0.15


Tree=580
num_leaves=15
num_cat=0
split_feature=17 37 19 14 21 38 22 1 26 26 35 14 4 22
split_gain=0.0253788 0.0729367 0.2347 0.341941 0.195453 0.135403 0.123343 0.30441 0.437896 0.126466 0.122074 0.170835 0.169641 0.162454
threshold=-9.510894999999998e-07 1.4190350000000002e-06 0.00035361150000000005 0.0039324400000000006 18.392150000000004 0.022707950000000005 -1.2658949999999998 -8.1814349999999987 -0.0018968649999999997 -0.0036721749999999993 -0.63058299999999989 0.00090841950000000011 -1.2236799999999997 -0.047750999999999995
decision_type=2 2 2 2 2 2 2 2 2 2 2 2 2 2
left_child=1 -1 3 4 6 -5 7 8 -3 -9 13 -12 -13 -8
right_child=-2 2 -4 5 -6 -7 10 9 -10 -11 11 12 -14 -15
leaf_value=0.00017382812513098037 -2.3944513379618422e-05 0.021672921384285605 0.00022237128707486842 -0.0039484142821112813 0.011596362631514368 -0.010435377847441191 -0.0034142278983113903 -0.010212156686611707 -0.0040263540648503788 0.00041968503412474897 -0.00051573471802559927 0.00032240777624604062 -0.0097026689620097785 0.012014643152360805
leaf_weight=35539 178605 35 2512 165 28 129 34 32 26 118 195 53 134 28
leaf_count=35539 178605 35 2512 165 28 129 34 32 26 118 195 53 134 28
internal_value=0 0.000109578 -0.000544875 -0.00251757 -0.000676447 -0.00679474 -0.00120109 0.00178484 0.0107191 -0.00184844 -0.00262007 -0.00362209 -0.00686134 0.00355365
internal_weight=0 39028 3489 977 683 294 655 211 61 150 444 382 187 62
internal_count=217633 39028 3489 977 683 294 655 211 61 150 444 382 187 62
shrinkage=0.15


Tree=581
num_leaves=15
num_cat=0
split_feature=3 34 14 3 29 13 2 5 0 29 2 29 16 29
split_gain=0.0215039 0.0925728 0.155842 0.150953 0.187822 0.277156 0.435549 0.151292 0.132684 0.192855 0.129078 0.123298 0.189167 0.120262
threshold=-6.4440149999999994 0.66201150000000009 0.0016290400000000002 -10.729049999999999 0.061314450000000006 3.9987100000000009e-05 -2.3732299999999995 2.4661350000000004e-05 2.0075800000000004 -0.0013178199999999997 2.9891800000000006 -0.00013308399999999997 8.0942150000000013e-08 -0.5944839999999999
decision_type=2 2 2 2 2 2 2 2 2 2 2 2 2 2
left_child=1 -1 3 4 7 10 -7 8 11 13 -6 -3 -13 -10
right_child=-2 2 -4 -5 5 6 -8 -9 9 -11 -12 12 -14 -15
leaf_value=-7.2794756091276212e-05 7.9294373855014251e-05 0.0030246614246487815 -0.00010784526119239534 0.00040774447710505341 0.0022972382002840958 0.029922279319725929 0.0056413441603260306 0.013689528596587478 0.0021203529607018014 0.0040173761826199396 0.014254433498717843 -0.0042261984241451682 0.0095996025691015858 -0.0041008736444187229
leaf_weight=139250 56850 525 11720 7845 621 22 68 20 89 122 21 127 27 326
leaf_count=139250 56850 525 11720 7845 621 22 68 20 89 122 21 127 27 326
internal_value=0 -2.80371e-05 0.000261403 0.000702408 0.00187702 0.00378119 0.0115767 0.000749309 0.000536477 -0.00122543 0.00268836 0.00192991 -0.00180219 -0.00276668
internal_weight=0 160783 21533 9813 1968 732 90 1236 1216 537 642 679 154 415
internal_count=217633 160783 21533 9813 1968 732 90 1236 1216 537 642 679 154 415
shrinkage=0.15


Tree=582
num_leaves=15
num_cat=0
split_feature=13 33 19 34 3 3 23 8 32 17 3 22 4 37
split_gain=0.023183 0.23253 0.733359 1.05244 1.35727 1.23201 0.980477 0.658271 1.42202 0.581957 0.492777 0.462477 0.331814 0.63046
threshold=4.2555350000000006e-05 -1.7962349999999996e-05 4.6329000000000001e-06 0.14278350000000004 -11.583899999999998 -15.402299999999999 -14.762349999999998 -7.3485499999999984e-06 0.078601650000000009 2.6660450000000003e-08 -13.349749999999998 0.61814750000000018 -0.3422659999999999 -4.4973849999999996e-07
decision_type=2 2 2 2 2 2 2 2 2 2 2 2 2 2
left_child=-1 2 3 4 5 6 9 11 10 -2 -9 -7 13 -5
right_child=1 -3 -4 12 -6 7 -8 8 -10 -11 -12 -13 -14 -15
leaf_value=-3.2118890353752903e-05 -0.0047037328006294754 -5.3008955344092163e-05 0.00021580761463347843 0.027668301272206007 -0.0027824341736928104 0.01800102879758924 -0.018291480006246273 0.012247175280936062 0.037922451064683671 0.025526804624027327 -0.016384117624589373 0.04571459712460637 0.00091404803566873488 -0.0036281052847958301
leaf_weight=152146 23 54396 9578 30 116 20 32 38 43 38 21 42 1082 28
leaf_count=152146 23 54396 9578 30 116 20 32 38 43 38 21 42 1082 28
internal_value=0 7.46218e-05 0.000700589 0.00376948 0.0106857 0.0167647 0.00297318 0.0245855 0.0171764 0.0141284 0.00205638 0.0367747 0.00150655 0.0125597
internal_weight=0 65487 11091 1513 373 257 93 164 102 61 59 62 1140 58
internal_count=217633 65487 11091 1513 373 257 93 164 102 61 59 62 1140 58
shrinkage=0.15


Tree=583
num_leaves=15
num_cat=0
split_feature=37 3 18 13 17 23 33 3 10 5 36 11 34 17
split_gain=0.0233746 0.0781941 0.127099 0.164412 0.172497 0.127144 0.148773 0.0820804 0.1021 0.125913 0.126138 0.318909 0.621588 0.372001
threshold=-1.1844749999999999e-05 -16.266399999999997 -5.8725749999999996e-05 0.00013960900000000004 -2.2187899999999997e-07 -16.296649999999996 1.0000000180025095e-35 -8.9780899999999981 1.3571200000000001e-05 1.7097650000000004e-05 -0.43959349999999991 2.8502500000000004e-05 4.6183500000000004 2.55652e-05
decision_type=2 2 2 2 2 2 2 2 2 2 2 2 2 2
left_child=1 2 3 4 -1 -4 -7 8 -3 10 11 -10 -13 -14
right_child=-2 7 5 -5 -6 6 -8 -9 9 -11 -12 12 13 -15
leaf_value=-0.024215602646581826 6.289385221425551e-06 -0.0031373855582273792 -0.0072288242511843372 0.0015409996078233235 -0.0055258651537005788 -0.0039871704648234635 0.0098943148433279834 -0.00085994503967782383 -5.2436242798508963e-05 -0.00093030885022604714 0.00096777743100981168 0.029354263150744374 -0.0016240629421580316 0.021032347112470064
leaf_weight=20 214128 144 38 24 25 32 38 1917 130 452 570 30 63 22
leaf_count=20 214128 144 38 24 25 32 38 1917 130 452 570 30 63 22
internal_value=0 -0.000384232 -0.00345636 -0.00848514 -0.0138324 -0.000243526 0.00354849 -0.000220841 0.000647453 0.00107762 0.00219121 0.00503758 0.0107915 0.00423995
internal_weight=0 3505 177 69 45 108 70 3328 1411 1267 815 245 115 85
internal_count=217633 3505 177 69 45 108 70 3328 1411 1267 815 245 115 85
shrinkage=0.15


Tree=584
num_leaves=15
num_cat=0
split_feature=3 23 14 20 0 23 23 11 22 22 23 3 20 23
split_gain=0.022224 0.0753338 0.315923 0.253145 1.01775 2.52907 0.732384 0.575127 0.693286 0.734607 0.460538 0.426679 0.398354 0.432041
threshold=-15.512049999999999 -11.124149999999998 0.0054376550000000004 2.4692150000000006 2.6455750000000005 -14.948949999999998 -14.850299999999999 7.2693200000000004e-05 -0.61801149999999982 0.59409500000000015 -17.075499999999995 -16.559399999999997 3.5535050000000004 -17.603099999999994
decision_type=2 2 2 2 2 2 2 2 2 2 2 2 2 2
left_child=1 2 3 -1 6 7 12 -6 -9 10 11 -10 -5 -14
right_child=-2 -3 -4 4 5 -7 -8 8 9 -11 -12 -13 13 -15
leaf_value=-0.003048085957678606 -1.3660945739218817e-05 0.00042402585129203108 0.00048224340274018157 -0.0018386531632131663 0.038105998317209573 -0.011044208841269358 0.0014638437073052383 -0.0078877354609883481 0.022995058551896364 -0.0068318549628284845 0.032574108885280013 -0.0034087726513722114 -0.0043996514573823222 -0.023126509451405861
leaf_weight=1290 201284 10022 4332 64 26 111 215 27 40 22 58 21 43 78
leaf_count=1290 201284 10022 4332 64 26 111 215 27 40 22 58 21 43 78
internal_value=0 0.000168189 -0.000237057 -0.00179897 0.00048666 0.00701343 -0.00449 0.0173454 0.0141324 0.018349 0.0230043 0.0139052 -0.0114093 -0.0164715
internal_weight=0 16349 6327 1995 705 305 400 194 168 141 119 61 185 121
internal_count=217633 16349 6327 1995 705 305 400 194 168 141 119 61 185 121
shrinkage=0.15


Tree=585
num_leaves=15
num_cat=0
split_feature=2 20 22 23 0 11 23 5 26 14 14 1 11 3
split_gain=0.022405 0.0585079 0.0985356 0.224966 0.250852 0.413684 0.265089 0.224745 0.22225 0.143094 0.112936 0.107344 0.103429 0.0962649
threshold=-2.8223399999999992 -7.5821849999999991 -2.8036449999999995 -16.170749999999995 -7.9798249999999991 -8.1991599999999983e-05 -9.6697249999999979 1.0770600000000002e-05 7.0450000000000018e-05 0.00038336100000000009 0.0025176500000000002 -1.5816049999999997 -0.00012615999999999997 -6.1122599999999991
decision_type=2 2 2 2 2 2 2 2 2 2 2 2 2 2
left_child=1 -1 3 7 6 8 13 -3 12 -7 -10 -11 -6 -5
right_child=-2 2 -4 4 5 9 -8 -9 10 11 -12 -13 -14 -15
leaf_value=-0.00064005767068106361 -1.0286881067960424e-05 -0.018388173489365726 0.00027344114133967079 -0.0070933328522933964 0.0010784095905897817 0.0065647178861711697 0.014324694667117331 0.00085857352756267026 0.017710700284390309 0.028869724468044609 0.0019609006616519765 0.015039724965130776 -0.012560741154646331 0.0030159443429100415
leaf_weight=1484 208125 20 7677 67 29 21 22 43 21 23 20 28 22 31
leaf_count=1484 208125 20 7677 67 29 21 22 43 21 23 20 28 22 31
internal_value=0 0.000225174 0.000385195 0.00285762 0.00465648 0.00846985 -0.000555131 -0.0052515 0.00180522 0.0169858 0.0100279 0.0212768 -0.00480515 -0.0038955
internal_weight=0 9508 8024 347 284 164 120 63 92 72 41 51 51 98
internal_count=217633 9508 8024 347 284 164 120 63 92 72 41 51 51 98
shrinkage=0.15


Tree=586
num_leaves=15
num_cat=0
split_feature=22 2 22 13 19 5 22 21 17 32 23 12 22 2
split_gain=0.0216656 0.194833 2.98464 0.623726 0.67873 0.852921 0.566803 0.649246 0.493948 0.790071 0.67357 0.903815 0.728168 2.17181
threshold=1.7837150000000002 2.6199850000000002 2.6194050000000004 3.0847550000000002e-05 0.00042217450000000005 1.7832900000000003e-05 2.3537500000000002 2.8817050000000006 1.2505500000000002e-06 -0.018025899999999994 -15.140049999999997 6.5907450000000009e-05 2.6634450000000007 2.7053050000000005
decision_type=2 2 2 2 2 2 2 2 2 2 2 2 2 2
left_child=-1 -2 3 4 -3 6 -6 -8 -4 10 -10 12 13 -12
right_child=1 2 8 -5 5 -7 7 -9 9 -11 11 -13 -14 -15
leaf_value=-2.4655747823690827e-05 0.00018639238264562565 -0.0012602344541744516 7.3795483974285122e-07 0.00042675543584231522 -0.0086438897209801958 -0.0036470801841747549 -0.0032859747223556043 -0.022958754023363927 -0.00033722001366362335 -0.00017306303949222115 0.038452864850738212 0.0016000873214026164 0.015870455851631285 -0.020177596101844258
leaf_weight=171176 42359 480 667 416 462 570 50 154 186 437 21 207 404 44
leaf_count=171176 42359 480 667 416 462 570 50 154 186 437 21 207 404 44
internal_value=0 9.08468e-05 -0.00089676 -0.00478407 -0.0060473 -0.00790636 -0.0115517 -0.018137 0.00331878 0.0050225 0.00765644 0.00985588 0.0134997 -0.00123545
internal_weight=0 46457 4098 2132 1716 1236 666 204 1966 1299 862 676 469 65
internal_count=217633 46457 4098 2132 1716 1236 666 204 1966 1299 862 676 469 65
shrinkage=0.15


Tree=587
num_leaves=15
num_cat=0
split_feature=16 36 19 23 14 16 33 4 19 16 10 36 19 35
split_gain=0.0223886 0.164723 0.366087 0.232257 0.283193 0.191798 0.173953 0.168808 0.15286 0.184462 0.227951 0.146876 0.455412 0.6921
threshold=-2.2582199999999995e-06 0.0030568650000000006 5.8236700000000004e-05 -13.889449999999998 0.0075547300000000008 -7.5046349999999997e-05 -1.6474599999999996e-05 0.28148150000000011 0.0032834800000000005 -1.0656299999999998e-05 2.7018200000000002e-05 -0.0088232299999999996 8.1791500000000028e-06 0.0013016950000000001
decision_type=2 2 2 2 2 2 2 2 2 2 2 2 2 2
left_child=1 5 3 4 -3 -1 7 -5 9 -4 -11 12 13 -7
right_child=-2 2 8 6 -6 11 -8 -9 -10 10 -12 -13 -14 -15
leaf_value=-0.00014702510456195334 -2.7465921556669235e-05 0.0015421255933780679 -0.00022396295388866946 -0.0036805395626614162 -0.01532541712222155 0.010508895743837258 -0.0027978451079721084 -0.01134408901786519 0.00047025212329894391 -0.0058650186813775807 -0.0010042566088255276 0.00033029336661882314 0.00074425523201371291 -0.001446591680748194
leaf_weight=18788 164138 335 3310 134 24 276 666 125 4743 318 684 20479 3433 180
leaf_count=18788 164138 335 3310 134 24 276 666 125 4743 318 684 20479 3433 180
internal_value=0 8.42733e-05 -0.000453493 -0.00282381 0.00041449 0.000213107 -0.00408061 -0.00737916 -0.000117383 -0.000763753 -0.00254689 0.000490774 0.00133584 0.00578962
internal_weight=0 53495 10339 1284 359 43156 925 259 9055 4312 1002 24368 3889 456
internal_count=217633 53495 10339 1284 359 43156 925 259 9055 4312 1002 24368 3889 456
shrinkage=0.15


Tree=588
num_leaves=15
num_cat=0
split_feature=36 16 16 11 31 3 34 13 28 8 11 3 26 10
split_gain=0.0280959 0.696124 0.675257 0.790962 1.08705 1.21224 1.50537 1.33735 0.960232 1.2446 1.15752 0.762251 0.707508 0.636775
threshold=-0.011860649999999999 -5.3596399999999999e-07 -7.7223649999999984e-06 -1.5009749999999998e-05 0.29777100000000006 -6.4440149999999994 0.49826300000000007 1.0887900000000003e-05 -0.036001249999999992 -7.9315499999999986e-06 5.0612550000000012e-06 -10.344549999999998 0.00042040750000000004 2.7339550000000005e-05
decision_type=2 2 2 2 2 2 2 2 2 2 2 2 2 2
left_child=1 2 -1 -4 5 6 7 8 10 -10 -5 -9 13 -13
right_child=-2 -3 3 4 -6 -7 -8 11 9 -11 -12 12 -14 -15
leaf_value=-0.00015121028801887 1.8349100002776066e-05 -0.00075714776250624142 0.00055671733803525428 0.014254347886890173 -0.00026363929256712648 -0.00017720356363391392 0.0049845292495929909 -0.0014001930114264085 0.041098360448247856 -0.0026312869105822754 0.056613991718660002 0.020669481109362092 0.034815279944159554 -0.0088168250772958767
leaf_weight=4614 195027 14896 1712 21 494 257 328 67 27 32 47 45 40 26
leaf_count=4614 195027 14896 1712 21 494 257 328 67 27 32 47 45 40 26
internal_value=0 -0.000158302 0.00099869 0.0027124 0.00537896 0.00851093 0.0120383 0.0196241 0.0313831 0.0173806 0.0435323 0.0112342 0.0188604 0.00987168
internal_weight=0 22606 7710 3096 1384 890 633 305 127 59 68 178 111 71
internal_count=217633 22606 7710 3096 1384 890 633 305 127 59 68 178 111 71
shrinkage=0.15


Tree=589
num_leaves=15
num_cat=0
split_feature=14 34 3 33 6 2 6 33 6 20 25 34 37 4
split_gain=0.0265908 0.127083 0.315925 0.455727 3.93994 0.85077 0.722599 0.703175 0.385779 0.533751 0.436914 0.365952 0.358341 0.847308
threshold=0.00018273250000000005 0.008249755000000001 -6.860879999999999 2.7338450000000002e-06 2.4805150000000004e-06 2.5964800000000001 3.2236600000000003e-06 -2.8707599999999999e-06 7.351105000000001e-06 -8.1735049999999969 0.20324850000000003 0.0078442450000000014 -4.6735749999999989e-08 -0.0098646799999999989
decision_type=2 2 2 2 2 2 2 2 2 2 2 2 2 2
left_child=1 2 3 6 -5 8 11 -8 9 -6 -10 -1 -11 -14
right_child=-2 -3 -4 4 5 -7 7 -9 10 12 -12 -13 13 -15
leaf_value=-0.00068448361376502237 -3.404925850343422e-05 0.00018336210345379453 6.0540358189423563e-05 -0.011270089426960136 -0.0038798187277279792 -0.0042557511132480085 -0.019524755362117809 -0.0049865243383546082 0.016657442479793512 0.034839122239500281 0.04628392402082681 -0.011456661713718614 0.029122346388892485 0.0010104753480603297
leaf_weight=1726 153077 52155 9574 233 24 38 89 471 21 30 24 74 52 45
leaf_count=1726 153077 52155 9574 233 24 38 89 471 21 30 24 74 52 45
internal_value=0 8.07386e-05 -0.000350866 -0.00174415 0.00253718 0.0162854 -0.00259134 -0.00729706 0.0202679 0.016635 0.0324582 -0.00112734 0.0205119 0.0160808
internal_weight=0 64556 12401 2827 467 234 2360 560 196 151 45 1800 127 97
internal_count=217633 64556 12401 2827 467 234 2360 560 196 151 45 1800 127 97
shrinkage=0.15


Tree=590
num_leaves=15
num_cat=0
split_feature=16 35 16 36 12 10 5 3 9 5 22 25 33 23
split_gain=0.024594 0.0814138 0.158304 0.111388 0.132288 0.103861 0.120774 0.101036 0.173651 0.175074 0.0918887 0.0877374 0.0716327 0.0894855
threshold=1.2394850000000002e-05 0.21961350000000004 2.1717400000000003e-05 0.89709600000000012 -9.7114149999999989e-05 1.69678e-05 1.0667650000000001e-05 -15.994799999999998 4.9348300000000003e-05 1.8902650000000004e-05 0.64615500000000015 116.60050000000003 -1.6549599999999998e-06 -11.906049999999999
decision_type=2 2 2 2 2 2 2 2 2 2 2 2 2 2
left_child=-1 12 3 4 -3 -4 -7 8 9 -8 -6 -9 -2 -14
right_child=1 2 5 -5 10 6 7 11 -10 -11 -12 -13 13 -15
leaf_value=-2.356366714196555e-05 0.00037816591588901212 -0.016044805162320177 -0.0048138180086945278 0.00090098906309178434 -0.0088485881995158978 0.011266816093120724 0.0097478064589465591 -0.0010116602174936879 0.016657132402698543 -0.0083860142837511361 0.003275344542502849 0.0065564336415263828 0.00044385281751820949 -0.00023563804476677149
leaf_weight=178626 16716 35 112 38 39 21 23 809 21 25 22 36 6156 14954
leaf_count=178626 16716 35 112 38 39 21 23 809 21 25 22 36 6156 14954
internal_value=0 0.000107906 -0.00111851 -0.0059729 -0.00869381 -0.000497227 1.98402e-05 -0.00023857 0.00528042 0.000303108 -0.00447602 -0.000689233 0.000146197 -3.74881e-05
internal_weight=0 39007 1181 134 96 1047 935 914 69 48 61 845 37826 21110
internal_count=217633 39007 1181 134 96 1047 935 914 69 48 61 845 37826 21110
shrinkage=0.15


Tree=591
num_leaves=15
num_cat=0
split_feature=37 17 4 19 19 4 33 13 4 19 0 20 24 13
split_gain=0.0246153 0.724963 1.50995 1.38029 1.08667 0.947763 0.824927 1.79256 0.807036 0.8693 0.79943 0.79487 0.685835 0.627634
threshold=-1.9201449999999998e-07 1.0000000180025095e-35 -0.11634449999999999 5.4017350000000006e-05 2.7347200000000005e-05 0.11543250000000001 -2.7939149999999998e-05 5.2899800000000005e-05 -1.4177149999999996 0.00035361150000000005 3.1378850000000003 1.9878300000000002 -0.18704399999999996 1.34378e-05
decision_type=2 2 2 2 2 2 2 2 2 2 2 2 2 2
left_child=1 4 8 5 6 -4 7 -1 -3 -10 11 -9 -8 -7
right_child=-2 2 3 -5 -6 13 12 10 9 -11 -12 -13 -14 -15
leaf_value=-0.0051827184932304402 2.9875522248201635e-05 0.00040528077415715445 -0.00014645349240856206 0.00086811424197499789 -2.7138975891688799e-05 -0.00027204591116848826 0.006189093619743272 0.016394102737434545 -0.0012590437063512668 -0.0049655531759331189 0.032226994222238368 -0.011569557704996051 0.0019950566520843408 -0.0036759541150070732
leaf_weight=614 161123 1848 9796 19245 9947 1789 1514 66 2717 2991 38 35 2086 3824
leaf_count=614 161123 1848 9796 19245 9947 1789 1514 66 2717 2991 38 35 2086 3824
internal_value=0 -8.5182e-05 -0.000397896 2.10268e-05 0.00083787 -0.00103694 0.00281449 -0.00170051 -0.00231919 -0.00320126 0.0136813 0.00670373 0.00375888 -0.00259105
internal_weight=0 56510 42210 34654 14300 15409 4353 753 7556 5708 139 101 3600 5613
internal_count=217633 56510 42210 34654 14300 15409 4353 753 7556 5708 139 101 3600 5613
shrinkage=0.15


Tree=592
num_leaves=15
num_cat=0
split_feature=34 28 7 16 19 12 16 12 4 14 13 12 20 4
split_gain=0.0224899 0.0728352 0.0774952 0.0676316 0.176699 0.111651 0.125674 0.201162 0.117106 0.0941068 0.0914075 0.0811726 0.0781413 0.0709857
threshold=0.43971050000000006 0.15316750000000004 2.3759100000000004e-05 -2.7253799999999992e-06 3.7476600000000006e-05 1.7246900000000003e-05 3.3113700000000002e-06 0.00016438800000000004 0.21982700000000002 0.00010402550000000002 0.000115686 9.1870050000000003e-05 3.4026550000000007 -0.19656399999999996
decision_type=2 2 2 2 2 2 2 2 2 2 2 2 2 2
left_child=1 -1 -3 4 -4 8 9 -8 13 -7 -9 12 -11 -5
right_child=-2 2 3 5 -6 6 7 10 -10 11 -12 -13 -14 -15
leaf_value=-1.5963027539409578e-05 0.00010534851667270033 0.005705715360636532 0.013986531724222005 -0.0024925895967206606 -0.0010002007663730749 -0.0019285469357889855 0.0093459502703720516 -0.013580778986215592 -0.010232299868948757 -0.0089928048327792345 -0.00027517180869136398 -0.005130414430887493 -0.019504923758302956 0.0025501877462953747
leaf_weight=179202 37697 32 20 112 154 51 31 21 26 41 26 51 26 143
leaf_count=179202 37697 32 20 112 154 51 31 21 26 41 26 51 26 143
internal_value=0 -2.20708e-05 -0.00151324 -0.00184231 0.000722412 -0.0026875 -0.00501403 -3.36714e-05 -0.000642466 -0.00731266 -0.00622023 -0.0096397 -0.0130721 0.000335321
internal_weight=0 179936 734 702 174 528 247 78 281 169 47 118 67 255
internal_count=217633 179936 734 702 174 528 247 78 281 169 47 118 67 255
shrinkage=0.15


Tree=593
num_leaves=15
num_cat=0
split_feature=9 20 14 23 3 3 23 3 3 23 20 3 23 23
split_gain=0.0228231 0.107782 0.160304 0.3036 0.531885 0.369035 0.72046 0.597815 0.297425 0.284762 0.268307 0.300124 1.37727 0.67207
threshold=8.0374850000000012e-06 5.531130000000001 0.00099878550000000025 -10.530399999999998 -10.344549999999998 -6.2498799999999992 -6.3408649999999991 -10.550799999999997 -6.2498799999999992 -13.750649999999998 10.068200000000003 -7.0419349999999996 -7.1072649999999991 -7.1280949999999992
decision_type=2 2 2 2 2 2 2 2 2 2 2 2 2 2
left_child=1 -1 3 4 9 6 7 -5 -6 -3 11 13 -13 -9
right_child=-2 2 -4 5 8 -7 -8 10 -10 -11 -12 12 -14 -15
leaf_value=-3.4123065679323063e-05 -5.5271749139130083e-05 0.0027280362724677373 0.00067050111175510874 0.0023927423580643588 0.0032259745400849541 0.0006059087963697084 0.0032858785259547428 -0.0050903261040226161 0.00016474048760177986 -0.0082322661726825733 -0.00061692809375097203 0.0021043856354475668 -0.011017087631465416 0.00073888252147311518
leaf_weight=94546 94841 74 13605 718 1589 4774 743 2017 1297 191 1621 815 231 571
leaf_count=94546 94841 74 13605 718 1589 4774 743 2017 1297 191 1621 815 231 571
internal_value=0 4.26903e-05 0.000299803 -4.4665e-05 0.00125968 -0.000402367 -0.00111909 -0.00166704 0.00185022 -0.00517165 -0.00222173 -0.00293758 -0.000793378 -0.00380421
internal_weight=0 122792 28246 14641 3151 11490 6716 5973 2886 265 5255 3634 1046 2588
internal_count=217633 122792 28246 14641 3151 11490 6716 5973 2886 265 5255 3634 1046 2588
shrinkage=0.15


Tree=594
num_leaves=15
num_cat=0
split_feature=22 6 2 32 8 12 12 22 19 1 13 15 35 4
split_gain=0.0239987 0.189628 0.344549 0.304846 0.347039 0.452208 0.492855 0.313841 0.417425 0.249152 0.403085 0.237821 0.731604 0.605233
threshold=1.7837150000000002 1.8610000000000003e-07 1.2211700000000001 -4.4063499999999989 -1.4745399999999998e-05 0.00013315750000000002 0.00045484500000000005 2.4622600000000006 0.00028840800000000003 11.797600000000001 8.0655500000000011e-06 -8.9826899999999982e-08 0.0018651800000000001 -0.091932049999999987
decision_type=2 2 2 2 2 2 2 2 2 2 2 2 2 2
left_child=-1 2 -2 4 -4 -6 -7 8 9 10 -5 12 -3 -14
right_child=1 11 3 7 5 6 -8 -9 -10 -11 -12 -13 13 -15
leaf_value=-2.5949391917612782e-05 0.00070841196341441914 0.0010401022365246089 -0.0016811702632417217 -0.010328497628109796 -0.0011706689838320017 0.02204171424420328 -0.0015539897543411436 0.00023407652515082715 -0.00054351403810637801 -0.00096007907076041605 -0.0030432133442827381 -0.00065503113687879588 0.0008144248712229523 -0.0041348169033352013
leaf_weight=171176 18267 7570 127 284 62 69 28 2884 1671 330 429 12462 968 1306
leaf_count=171176 18267 7570 127 284 62 69 28 2884 1671 330 429 12462 968 1306
internal_value=0 9.56134e-05 0.00038686 -0.000611407 0.0041653 0.00883513 0.0152306 -0.000855447 -0.00201322 -0.00436784 -0.00594507 -0.000219723 0.000331356 -0.00202802
internal_weight=0 46457 24151 5884 286 159 97 5598 2714 1043 713 22306 9844 2274
internal_count=217633 46457 24151 5884 286 159 97 5598 2714 1043 713 22306 9844 2274
shrinkage=0.15


Tree=595
num_leaves=15
num_cat=0
split_feature=12 22 20 13 0 22 2 3 15 16 33 33 6 36
split_gain=0.0223207 0.137025 0.16521 0.369673 1.1234 1.44261 0.850945 1.08637 1.10175 1.23923 1.96405 0.795446 0.973757 0.683168
threshold=-4.2234949999999994e-05 0.24826800000000002 6.1742150000000011 1.2836100000000002e-05 5.6189700000000009 -0.41140649999999995 -0.39492999999999995 -6.5186449999999985 -2.0636699999999994e-06 -4.5891699999999995e-07 2.6581300000000008e-06 2.0093250000000005e-06 6.3156650000000015e-07 -0.0016305149999999997
decision_type=2 2 2 2 2 2 2 2 2 2 2 2 2 2
left_child=1 2 -1 4 11 6 7 8 -6 13 -11 -4 -13 -10
right_child=-2 -3 3 -5 5 -7 -8 -9 9 10 -12 12 -14 -15
leaf_value=-8.2140381967532944e-05 3.6679826345640026e-05 0.00015516651106147906 -0.00045977542133716871 -1.4764095827010438e-06 -0.0040502316901872221 -0.003162788280094724 -0.005908194960153745 0.00039576760291065266 0.023612262946553528 -0.01451183332329882 0.027841665429437942 -0.001965054573636093 -0.0091374196910770072 -0.0090979938343105672
leaf_weight=34235 137479 35840 1120 5855 65 703 106 222 20 28 205 839 865 51
leaf_count=34235 137479 35840 1120 5855 65 703 106 222 20 28 205 839 865 51
internal_value=0 -6.29127e-05 -0.000239289 -0.000773072 -0.0018426 0.00163167 0.00646741 0.00868706 0.0136753 0.0174653 0.022752 -0.00356498 -0.00560596 0.000116163
internal_weight=0 80154 44314 10079 4224 1400 697 591 369 304 233 2824 1704 71
internal_count=217633 80154 44314 10079 4224 1400 697 591 369 304 233 2824 1704 71
shrinkage=0.15


Tree=596
num_leaves=15
num_cat=0
split_feature=13 33 33 7 23 7 34 24 23 23 14 33 13 33
split_gain=0.0252014 0.423732 0.508301 1.23138 1.26425 0.582066 1.11992 0.782933 0.808453 0.891459 1.38658 1.01799 0.813731 0.640118
threshold=-3.292609999999999e-05 1.5906100000000001e-06 1.7169700000000003e-05 4.0308800000000003e-05 -13.243199999999998 3.9822050000000009e-05 0.17356000000000002 0.23552650000000003 -11.762749999999999 -14.248749999999998 0.0015296250000000004 2.2511800000000004e-05 -5.3645549999999997e-05 2.1621100000000005e-05
decision_type=2 2 2 2 2 2 2 2 2 2 2 2 2 2
left_child=1 -1 3 4 -3 6 7 8 9 12 -11 -12 -4 -8
right_child=-2 2 5 -5 -6 -7 13 -9 -10 10 11 -13 -14 -15
leaf_value=0.0007475149710189057 -1.7286749009842932e-05 -0.021247100733619715 0.015605804105491741 -0.00028170396559729278 -0.004110372375862207 -0.00035629735625518686 -0.019507349074286012 0.030217454148223622 -0.014276621172162279 0.038749462265695908 -0.0063602222682675345 0.029234714329178475 -0.0057498790672980251 0.0012674345110201986
leaf_weight=12193 195240 105 69 4510 1250 3216 35 40 33 52 48 29 96 717
leaf_count=12193 195240 105 69 4510 1250 3216 35 40 33 52 48 29 96 717
internal_value=0 0.00015072 -0.000562685 -0.00147304 -0.00543831 0.000668976 0.00361561 0.0104084 0.00798523 0.010484 0.0198255 0.00704566 0.00318068 0.000300523
internal_weight=0 22393 10200 5865 1355 4335 1119 367 327 294 129 77 165 752
internal_count=217633 22393 10200 5865 1355 4335 1119 367 327 294 129 77 165 752
shrinkage=0.15


Tree=597
num_leaves=15
num_cat=0
split_feature=37 17 4 19 3 33 7 4 33 6 4 4 4 26
split_gain=0.0235036 0.539896 1.1586 1.12733 1.23193 0.780635 0.687154 0.657307 0.675062 0.575527 0.482778 0.940774 0.931281 1.24756
threshold=-1.9201449999999998e-07 3.8911000000000003e-08 -0.10996449999999998 5.4017350000000006e-05 -8.4424149999999987 -3.7928249999999996e-06 4.8339650000000011e-05 -0.035014599999999993 -4.1483699999999997e-05 -5.0446749999999995e-07 -0.0098646799999999989 0.92173400000000016 0.13399150000000001 -0.00010809249999999998
decision_type=2 2 2 2 2 2 2 2 2 2 2 2 2 2
left_child=1 -1 6 4 5 7 -3 -4 -9 -10 -5 12 -12 -14
right_child=-2 2 3 10 -6 -7 -8 8 9 -11 11 -13 13 -15
leaf_value=0.00061850893326818412 2.9193104998211141e-05 -0.0035613369139749266 0.0024313222357468223 -0.0010739255887485383 -9.778659191776391e-05 -0.0011921463562475437 -0.00061292891214911004 -0.001253297844922865 -0.0097595557641551572 -0.0026530223433605159 0.00059101316238948092 1.5081977947624818e-05 0.0078791447847244463 0.0020331008832954467
leaf_weight=17172 161123 3642 219 2836 9078 2085 3476 452 1007 344 3585 8921 1233 2460
leaf_count=17172 161123 3642 219 2836 9078 2085 3476 452 1007 344 3585 8921 1233 2460
internal_value=0 -8.32363e-05 -0.000389565 -6.94556e-06 -0.00107303 -0.00322868 -0.00212151 -0.00532866 -0.00627122 -0.00795005 0.000731499 0.00104758 0.00231316 0.00398495
internal_weight=0 56510 39338 32220 13185 4107 7118 2022 1803 1351 19035 16199 7278 3693
internal_count=217633 56510 39338 32220 13185 4107 7118 2022 1803 1351 19035 16199 7278 3693
shrinkage=0.15


Tree=598
num_leaves=15
num_cat=0
split_feature=19 14 5 37 13 14 23 37 34 23 14 37 35 37
split_gain=0.0225632 0.0479159 0.0533961 0.0332767 0.0515186 0.0337115 0.146583 0.0713759 0.0325872 0.0301959 0.0616366 0.207882 0.277066 0.287155
threshold=0.061939000000000008 0.0011247700000000002 2.3777800000000005e-05 -2.7623449999999997e-05 0.00046762350000000003 0.0020088800000000006 -10.965549999999999 -1.6385349999999999e-07 0.008249755000000001 -10.268599999999998 0.0069509900000000006 6.7182050000000011e-07 0.048600050000000006 4.4354400000000007e-07
decision_type=2 2 2 2 2 2 2 2 2 2 2 2 2 2
left_child=-1 2 -2 4 -3 6 7 -5 -7 10 11 12 13 -10
right_child=1 3 -4 5 -6 8 -8 -9 9 -11 -12 -13 -14 -15
leaf_value=1.0643757501796376e-05 0.009920294807207854 -0.0099051986611448217 0.00038005593126978386 -0.016019413741222316 -0.0010362721618418747 -0.0007782460929731239 0.0015082068005788393 -0.0034985527256503699 -0.0022528623274102283 0.00023110342533367022 -0.00011978387706624378 -0.0072033209944143894 0.016986607213038952 0.012547259013808798
leaf_weight=207553 22 20 33 21 56 1747 66 20 377 3974 3567 125 20 32
leaf_count=207553 22 20 33 21 56 1747 66 20 377 3974 3567 125 20 32
internal_value=0 -0.000219161 0.00419615 -0.000243385 -0.0033702 -0.000219499 -0.00286764 -0.00991168 -0.000190709 -6.39115e-05 -0.000348403 -0.0018204 -0.000251946 -0.00109491
internal_weight=0 10080 55 10025 76 9949 107 41 9842 8095 4121 554 429 409
internal_count=217633 10080 55 10025 76 9949 107 41 9842 8095 4121 554 429 409
shrinkage=0.15


Tree=599
num_leaves=15
num_cat=0
split_feature=23 14 14 19 13 21 20 12 21 7 7 21 3 26
split_gain=0.0222867 0.238015 0.271582 0.176198 0.11103 0.196369 0.196121 0.416393 0.118023 0.131193 0.110651 0.127797 0.133306 0.107274
threshold=-17.896049999999999 0.00018273250000000005 0.004267840000000001 0.099864150000000013 9.0003600000000014e-05 4.6857300000000004 -1.2709449999999998 0.00012870650000000001 3.6938550000000006 4.4778700000000005e-05 4.9763350000000009e-05 -7.7286599999999988 -12.740499999999999 0.0033291050000000006
decision_type=2 2 2 2 2 2 2 2 2 2 2 2 2 2
left_child=1 -1 3 10 5 8 7 -7 13 -10 11 12 -3 -4
right_child=-2 2 4 -5 -6 6 -8 -9 9 -11 -12 -13 -14 -15
leaf_value=-0.00082121831116420765 -1.2099108530077593e-05 0.014925110730109735 -0.0013416661260370873 -0.0076301598636319438 0.00021273075036980528 -0.00026601200888128301 -0.0015879593506644043 0.022759519367245958 -0.010495361132576363 -0.0010849902284644484 0.00043358929958504662 0.0017230328248814301 0.003774479452102018 -0.01149325672595296
leaf_weight=3731 204632 32 971 49 2826 43 79 30 75 60 1734 3249 98 24
leaf_count=3731 204632 32 971 49 2826 43 79 30 75 60 1734 3249 98 24
internal_value=0 0.000190436 0.000597608 0.00132189 -0.000312505 -0.00147032 0.00359144 0.00919654 -0.00215119 -0.00631297 0.00140768 0.00190756 0.00651925 -0.00158653
internal_weight=0 13001 9270 5162 4108 1282 152 73 1130 135 5113 3379 130 995
internal_count=217633 13001 9270 5162 4108 1282 152 73 1130 135 5113 3379 130 995
shrinkage=0.15


Tree=600
num_leaves=15
num_cat=0
split_feature=14 23 3 23 3 3 14 3 22 23 21 16 36 30
split_gain=0.0239172 0.230929 0.747364 0.927568 0.634184 0.592945 0.394772 0.320501 0.291929 0.435331 1.06504 0.769881 0.561629 0.485267
threshold=0.00018273250000000005 -8.9494349999999994 -6.2187599999999987 -6.2906249999999995 -6.1920449999999994 -6.2768299999999995 6.7528100000000015e-05 -8.2133949999999984 -0.73297299999999987 -8.2043399999999984 6.146065000000001 7.0679000000000007e-08 9.5653350000000022e-06 0.00045491450000000006
decision_type=2 2 2 2 2 2 2 2 2 2 2 2 2 2
left_child=1 4 3 7 -1 -5 -7 8 -3 10 11 13 -13 -10
right_child=-2 2 -4 5 -6 6 -8 -9 9 -11 -12 12 -14 -15
leaf_value=0.0011724645433496151 -3.2292209873532353e-05 -0.0025234378390929413 0.00038309466520493465 0.0033999660375364595 -0.00015963587202302157 0.0056590989076842858 -0.016181610954226926 -0.0018383588517830486 0.014851273866319703 0.00034558087239751643 -0.0083600540803569663 0.01271029218332842 0.043065225781174374 -0.012667594785203358
leaf_weight=12927 153077 304 18213 1261 21276 27 60 9944 46 368 53 24 32 21
leaf_count=12927 153077 304 18213 1261 21276 27 60 9944 46 368 53 24 32 21
internal_value=0 7.65722e-05 -0.000224585 -0.00113626 0.000343831 0.00257363 -0.00940346 -0.00159965 0.00119957 0.00328008 0.00941585 0.0170754 0.030056 0.00622596
internal_weight=0 64556 30353 12140 34203 1348 87 10792 848 544 176 123 56 67
internal_count=217633 64556 30353 12140 34203 1348 87 10792 848 544 176 123 56 67
shrinkage=0.15


Tree=601
num_leaves=15
num_cat=0
split_feature=23 5 13 38 14 33 25 36 18 14 20 0 19 29
split_gain=0.0262951 0.167469 0.164726 0.14777 0.136515 0.157692 0.233098 0.153462 0.309677 0.24656 0.165966 0.328962 0.164516 0.267801
threshold=-7.7292499999999995 1.1153450000000002e-05 -8.4581549999999983e-06 0.0022165350000000004 9.9284450000000011e-05 1.9383450000000008e-06 0.51387300000000014 -0.00040807449999999992 -6.0195449999999993e-07 8.584265e-05 12.994100000000001 11.310300000000002 2.8281250000000005e-10 -0.0015173299999999997
decision_type=2 2 2 2 2 2 2 2 2 2 2 2 2 2
left_child=-1 2 3 -2 5 7 -7 8 -4 -10 12 -12 13 -9
right_child=1 -3 4 -5 -6 6 -8 10 9 -11 11 -13 -14 -15
leaf_value=-3.4351904203036904e-05 0.0016232481415204962 -4.8848506311345752e-05 0.010882280589166014 -0.0016635434988915318 0.00051058111890960826 -0.0060979417534266821 -0.00043246153543031936 0.022153507189359514 -0.0028670644557028677 -0.016259534250545715 -0.00063860599932792986 0.022454386224727268 -3.43240702748386e-05 0.0011438698042184113
leaf_weight=151758 3663 51210 33 336 8225 273 407 20 266 35 35 23 1306 43
leaf_count=151758 3663 51210 33 336 8225 273 407 20 266 35 35 23 1306 43
internal_value=0 7.91374e-05 0.000526063 0.00134709 0.000218236 -0.000766829 -0.00270699 -1.76483e-05 -0.002912 -0.00442433 0.000659796 0.00851896 0.000326829 0.0078136
internal_weight=0 65875 14665 3999 10666 2441 680 1761 334 301 1427 58 1369 63
internal_count=217633 65875 14665 3999 10666 2441 680 1761 334 301 1427 58 1369 63
shrinkage=0.15


Tree=602
num_leaves=15
num_cat=0
split_feature=24 4 6 14 7 5 14 14 0 19 14 14 14 6
split_gain=0.0237993 0.0889496 0.121915 0.174578 0.307501 0.131171 0.218436 0.115803 0.0892135 0.0593699 0.0788623 0.0431471 0.0425967 0.0340201
threshold=2.2465350000000002 0.0092838900000000012 3.5368000000000003e-07 0.0069509900000000006 3.9343900000000008e-05 1.2123950000000001e-05 0.00099878550000000025 0.0035426600000000004 0.44621550000000004 0.0028322050000000004 0.00068334050000000012 0.0064171350000000009 0.00027515900000000003 -1.3161399999999996e-06
decision_type=2 2 2 2 2 2 2 2 2 2 2 2 2 2
left_child=-1 11 3 7 -5 6 -4 -3 -6 10 -7 12 -2 -14
right_child=1 2 5 4 8 9 -8 -9 -10 -11 -12 -13 13 -15
leaf_value=2.974919620903426e-06 -0.00023148187110237167 -0.0012366339407134757 -0.0014554176429685739 0.020789560097777708 0.0050217535554950773 -0.0010763446388205476 -0.022614939035037935 -0.013004292207981712 -0.0083037520783545912 0.0021484874031254247 -0.01011569249900416 -0.0019591847825462796 -0.00051442350055654778 0.0046514082801504394
leaf_weight=216853 139 130 21 22 26 49 23 22 20 36 39 98 38 117
leaf_count=216853 139 130 21 22 26 49 23 22 20 36 39 98 38 117
internal_value=0 -0.000827077 -0.00243714 -0.000113618 0.00620384 -0.00547985 -0.0125161 -0.00293985 -0.000771945 -0.00298312 -0.00508242 0.000766558 0.00167514 0.00338495
internal_weight=0 780 388 220 68 168 44 152 46 124 88 392 294 155
internal_count=217633 780 388 220 68 168 44 152 46 124 88 392 294 155
shrinkage=0.15


Tree=603
num_leaves=15
num_cat=0
split_feature=3 19 36 22 3 37 38 37 25 4 26 15 39 16
split_gain=0.0218693 0.0730464 0.0947459 0.321348 0.256465 0.139729 0.130825 0.224329 0.271802 0.261385 0.131637 0.12424 0.115831 0.105958
threshold=-15.512049999999999 0.0095827350000000019 -0.60180299999999987 -1.3625199999999997 -16.131449999999997 -1.1844749999999999e-05 0.064970300000000009 -3.2169549999999997e-06 13.825900000000003 0.17221800000000004 -0.028182349999999998 -2.8024399999999995e-08 0.004313710000000001 -3.4981299999999996e-06
decision_type=2 2 2 2 2 2 2 2 2 2 2 2 2 2
left_child=1 2 3 -1 11 13 10 8 9 -8 -7 -5 -9 -4
right_child=-2 -3 5 4 -6 6 7 12 -10 -11 -12 -13 -14 -15
leaf_value=0.020536466777000734 -1.3551492747017391e-05 -0.0002325133680107188 -0.011414856927994816 -0.0098815315767698097 0.015288374159453352 -0.010338264007049684 0.028428118326701224 0.01122979842312634 -0.0026096618522635918 0.0055129720979104086 0.00034966763749570375 0.0020219883412751862 0.00056562083069002249 -0.0017263963341031705
leaf_weight=23 201284 6321 37 34 22 26 24 25 22 21 9391 47 275 81
leaf_count=23 201284 6321 37 34 22 26 24 25 22 21 9391 47 275 81
internal_value=0 0.000166842 0.00041857 0.00450591 0.000926268 0.000366559 0.00042844 0.00320688 0.0110542 0.0177344 0.000320159 -0.00297455 0.0014543 -0.0047643
internal_weight=0 16349 10028 126 103 9902 9784 367 67 45 9417 81 300 118
internal_count=217633 16349 10028 126 103 9902 9784 367 67 45 9417 81 300 118
shrinkage=0.15


Tree=604
num_leaves=15
num_cat=0
split_feature=36 16 19 3 34 15 23 3 10 39 14 16 17 17
split_gain=0.0206997 0.511946 0.307406 0.378948 0.4542 0.346733 0.208741 0.312597 0.197507 0.237374 0.3758 1.10836 0.370985 0.389304
threshold=-0.011860649999999999 7.0679000000000007e-08 0.0034436350000000004 -7.9276599999999986 1.3777350000000002 9.9346350000000022e-06 -8.3320149999999984 -6.2768299999999995 2.0924900000000004e-05 0.00028039450000000006 0.0036607600000000003 -7.415494999999999e-07 1.6384450000000002e-06 -1.4580249999999998e-07
decision_type=2 2 2 2 2 2 2 2 2 2 2 2 2 2
left_child=1 8 3 4 5 -3 -5 -8 9 10 11 12 13 -1
right_child=-2 2 -4 6 -6 -7 7 -9 -10 -11 -12 -13 -14 -15
leaf_value=0.010528596921231719 1.5749811618166498e-05 -0.0049320095353546575 0.00042713764871281904 6.8950071954634127e-05 -0.00033358927781404772 0.0002577606979113105 -0.0060237408578577012 6.6881906286435667e-05 0.00013426698638845599 0.0010239561463021346 -0.0021758854018882725 0.00093302821190103277 0.0042813785099001089 0.03426311739967787
leaf_weight=23 195027 1680 2632 3122 1177 350 347 418 9503 3000 114 170 22 48
leaf_count=23 195027 1680 2632 3122 1177 350 347 418 9503 3000 114 170 22 48
internal_value=0 -0.000135877 -0.00095733 -0.00147099 -0.00267795 -0.00403722 -0.000475179 -0.00269579 0.000484422 0.00146977 0.00501735 0.00813533 0.0213008 0.0265745
internal_weight=0 22606 9726 7094 3207 2030 3887 765 12880 3377 377 263 93 71
internal_count=217633 22606 9726 7094 3207 2030 3887 765 12880 3377 377 263 93 71
shrinkage=0.15


Tree=605
num_leaves=15
num_cat=0
split_feature=16 36 16 4 1 21 21 22 4 1 22 19 36 22
split_gain=0.0219929 0.890435 1.03165 0.771148 0.940041 1.18363 1.57021 3.28864 1.28727 1.47774 1.23117 0.691021 0.668101 0.820469
threshold=6.935915000000001e-07 -0.00036289649999999993 8.048685000000002e-06 -0.10700099999999999 -1.4802299999999999 -6.579159999999999 -2.9333349999999991 -1.2390999999999999 1.0000000180025095e-35 -4.141049999999999 -0.71545849999999989 2.4128850000000005e-05 0.0016041500000000002 -1.3864299999999996
decision_type=2 2 2 2 2 2 2 2 2 2 2 2 2 2
left_child=-1 2 3 -2 5 -5 7 -7 -9 -10 -11 12 -3 -14
right_child=1 11 -4 4 -6 6 -8 8 9 10 -12 -13 13 -15
leaf_value=-3.158804965016142e-05 -0.0035783314440709451 0.00055228100146896672 7.8815867003740201e-05 -0.0066075371112188979 -0.0021917482219963448 -0.0031042693003624929 0.00075557480657572826 0.0017748706166942913 0.0455535763507494 -0.0036876198747572862 0.03133088150382813 0.00021831142040301029 0.0071956134347763477 0.0018671337972513641
leaf_weight=151256 3775 3870 15380 281 3244 178 936 45 78 37 58 35462 944 2089
leaf_count=151256 3775 3870 15380 281 3244 178 936 45 78 37 58 35462 944 2089
internal_value=0 7.1981e-05 -0.000657767 -0.00197017 -0.000720258 0.00223914 0.00410545 0.0120233 0.0243752 0.0302539 0.0176921 0.000485594 0.00185867 0.00352559
internal_weight=0 66377 24012 8632 4857 1613 1332 396 218 173 95 42365 6903 3033
internal_count=217633 66377 24012 8632 4857 1613 1332 396 218 173 95 42365 6903 3033
shrinkage=0.15


Tree=606
num_leaves=15
num_cat=0
split_feature=37 10 39 14 3 11 29 20 37 10 28 28 19 22
split_gain=0.022893 0.0821173 0.13076 0.230069 0.406567 0.282087 0.715532 0.68082 0.264885 0.304659 0.184501 0.10541 0.0994597 0.165999
threshold=-1.9201449999999998e-07 1.69678e-05 1.9981150000000004e-05 0.0036607600000000003 -7.5458749999999988 -1.2138349999999997e-05 0.0030668750000000006 0.27425600000000006 -3.7431549999999991e-07 1.4646750000000002e-05 -0.0113046 -0.0113046 6.4664700000000011e-07 1.9821000000000002
decision_type=2 2 2 2 2 2 2 2 2 2 2 2 2 2
left_child=1 2 3 4 5 6 7 -1 -8 -10 -7 -6 -4 -14
right_child=-2 -3 12 -5 11 10 8 -9 9 -11 -12 -13 13 -15
leaf_value=0.027452682207513134 2.8811355934769708e-05 -5.6382491951118951e-06 -0.0011353842498856483 0.00065585268847604826 -0.0097158265591133393 -0.019349840685026719 -0.020203097898047414 -0.0026174637532979735 0.0052134179079439489 -0.014783205399289727 -0.0067637433498250023 0.0012057321042501666 0.00051293659877862821 -0.0017712936552306421
leaf_weight=32 161123 47929 1972 571 21 28 30 36 40 30 409 374 4174 864
leaf_count=32 161123 47929 1972 571 21 28 30 36 40 30 409 374 4174 864
internal_value=0 -8.21478e-05 -0.00050949 -0.00174638 -0.00311805 -0.00556192 -0.000338067 0.0115332 -0.00841052 -0.00335656 -0.00757018 0.000625092 -0.000232294 0.000121199
internal_weight=0 56510 8581 1571 1000 605 168 68 100 70 437 395 7010 5038
internal_count=217633 56510 8581 1571 1000 605 168 68 100 70 437 395 7010 5038
shrinkage=0.15


Tree=607
num_leaves=15
num_cat=0
split_feature=12 32 37 32 32 32 1 7 14 3 21 39 16 36
split_gain=0.0233227 0.0388704 0.0255693 0.0362839 0.0264173 0.0229975 0.262072 0.184842 0.283469 0.181936 0.196624 0.234608 0.13986 0.761254
threshold=-0.0010298699999999998 -0.033324299999999994 -1.6329399999999996e-05 11.810900000000002 0.8450120000000001 -0.068734249999999983 -3.9125799999999997 5.2015850000000008e-05 0.00037299900000000005 -6.3853549999999988 6.6820600000000008 0.00047679200000000003 -7.5536299999999985e-08 -0.0010911799999999998
decision_type=2 2 2 2 2 2 2 2 2 2 2 2 2 2
left_child=1 -1 -3 4 -4 6 7 8 9 10 -2 -12 13 -8
right_child=5 2 3 -5 -6 -7 12 -9 -10 -11 11 -13 -14 -15
leaf_value=0.00020063304234851819 0.0032654590301186693 -0.0049019459089322476 -0.00043214050720541446 0.0041696133757992554 -0.0017273035736142608 3.8822699139064339e-05 0.0010267488443303893 -0.00032303330839851448 5.4361561533599191e-05 0.00068214915632850922 -0.00096748398198403553 0.0041818784856414741 -0.00056233792093438799 -0.00095637943655072259
leaf_weight=2515 1831 30 3977 37 389 154445 8538 5601 6803 3060 655 286 20576 8890
leaf_count=2515 1831 30 3977 37 389 154445 8538 5601 6803 3060 655 286 20576 8890
internal_value=0 -0.000270399 -0.000537633 -0.000507896 -0.000547536 8.91727e-06 -7.32083e-05 0.000394234 0.000712194 0.00147955 0.0023598 0.000597572 -0.000297508 1.51577e-05
internal_weight=0 6948 4433 4403 4366 210685 56240 18236 12635 5832 2772 941 38004 17428
internal_count=217633 6948 4433 4403 4366 210685 56240 18236 12635 5832 2772 941 38004 17428
shrinkage=0.15


Tree=608
num_leaves=15
num_cat=0
split_feature=7 21 21 1 3 39 2 31 16 8 9 1 30 32
split_gain=0.0215246 0.0488666 0.153629 0.267184 0.392616 0.328154 0.0945031 0.0878872 0.0757041 0.12131 0.0876992 0.0740279 0.0985413 0.149129
threshold=2.1244100000000002e-05 8.9308700000000023 7.2885650000000011 6.4391350000000012 -8.0001399999999983 3.8029950000000008e-06 1.8690500000000003 0.0067786250000000008 4.9656800000000002e-08 -9.5807099999999986e-06 -4.3876499999999994e-06 5.5255250000000009 0.00028759000000000006 0.068455450000000015
decision_type=2 2 2 2 2 2 2 2 2 2 2 2 2 2
left_child=1 2 11 -4 5 -5 8 -8 10 -10 -3 12 13 -1
right_child=-2 6 3 4 -6 -7 7 -9 9 -11 -12 -13 -14 -15
leaf_value=0.0015504349599421649 -6.7013027149439318e-06 0.003960456763577115 0.00095762266615658236 0.0072874177910853179 -0.0010617657448165117 0.033835215820793317 -0.00084266960483019883 -0.011044481010398349 0.011913360807011485 0.00054122472096267821 -0.0037029051495924897 -0.00073683490965741408 1.1093063521666162e-05 0.010511028153996448
leaf_weight=832 213328 42 177 20 31 22 38 38 24 175 168 1140 1554 44
leaf_count=832 213328 42 177 20 31 22 38 38 24 175 168 1140 1554 44
internal_value=0 0.000332073 0.000512147 0.00410683 0.0117426 0.0211934 -0.00108624 -0.00594358 -0.000183653 0.00191274 -0.00217023 0.000260418 0.000728266 0.00200051
internal_weight=0 4305 3820 250 73 42 485 76 409 199 210 3570 2430 876
internal_count=217633 4305 3820 250 73 42 485 76 409 199 210 3570 2430 876
shrinkage=0.15


Tree=609
num_leaves=15
num_cat=0
split_feature=16 36 16 3 19 4 33 31 39 38 11 24 39 23
split_gain=0.0209013 0.656791 0.709322 0.397531 0.557491 0.668733 0.773129 0.496564 0.568403 1.57942 0.649472 0.810461 0.915189 0.495292
threshold=6.935915000000001e-07 -0.0019450599999999998 1.8103350000000003e-05 -6.3575099999999987 0.0011985000000000001 -0.10700099999999999 6.2812850000000001e-06 -0.12430199999999998 7.500450000000001e-05 -0.0013601549999999998 5.7926300000000008e-05 0.53053000000000006 0.0047808350000000015 -16.434549999999998
decision_type=2 2 2 2 2 2 2 2 2 2 2 2 2 2
left_child=-1 2 3 4 13 6 -6 8 9 -7 -10 -12 -13 -2
right_child=1 -3 -4 -5 5 7 -8 -9 10 -11 11 12 -14 -15
leaf_value=-3.0794110068971079e-05 2.4172620041813149e-05 0.00031053405058638681 0.00011398853191373671 5.5198973177147018e-05 -6.3595063790492274e-05 0.042466169498220553 -0.0095589018437357044 -0.0010117458603465886 -0.0020863545022922606 -0.0017678697046773907 0.0038990552141496496 0.051572279086103665 0.0067376119364260896 -0.005174680411178508
leaf_weight=151256 511 52701 7571 1507 441 32 343 716 227 42 110 20 21 2135
leaf_count=151256 511 52701 7571 1507 441 32 343 716 227 42 110 20 21 2135
internal_value=0 7.01718e-05 -0.000856074 -0.00205908 -0.00275203 -0.000829028 -0.00421779 0.00144562 0.00533827 0.0173604 0.00298473 0.0106082 0.0286082 -0.00417067
internal_weight=0 66377 13676 6105 4598 1952 784 1168 452 74 378 151 41 2646
internal_count=217633 66377 13676 6105 4598 1952 784 1168 452 74 378 151 41 2646
shrinkage=0.15


Tree=610
num_leaves=15
num_cat=0
split_feature=5 22 22 13 29 2 33 19 20 25 18 8 5 21
split_gain=0.0213655 0.125949 0.106066 0.114411 0.14205 0.112308 0.126464 0.123759 0.164463 0.115142 0.130035 0.181905 0.100633 0.16068
threshold=7.2568900000000009e-06 -2.5059149999999994 2.4928950000000003 -6.8888199999999989e-06 0.0085113750000000033 -1.6105999999999996 -1.1248749999999998e-05 1.1591100000000004e-09 7.7422400000000007 0.20501700000000003 -1.7267249999999996e-05 -6.2252749999999994e-06 6.5625250000000012e-06 -1.3760299999999999
decision_type=2 2 2 2 2 2 2 2 2 2 2 2 2 2
left_child=1 12 5 4 -4 -3 9 8 -8 -7 -11 -12 13 -1
right_child=-2 2 3 -5 -6 6 7 -9 -10 10 11 -13 -14 -15
leaf_value=-0.0034873562157574471 -5.1669576906288172e-06 0.0032046887391516065 -0.016346095522865652 -0.00039313376355268759 -0.001541950976586252 -0.0098262493343913519 -0.00060636713994123668 0.0016763956056226553 -0.015692940551421737 -0.0094820526051383556 0.011790083450291098 -0.0012336681358142353 -0.0047625380088076258 0.009926375181748881
leaf_weight=54 215034 468 25 242 35 38 72 1147 21 36 27 227 175 32
leaf_count=54 215034 468 25 242 35 38 72 1147 21 36 27 227 175 32
internal_value=0 0.0004275 0.000776385 -0.00184688 -0.00771034 0.0011655 0.000556858 0.00124969 -0.00401301 -0.00206238 -0.00104505 0.000150746 -0.00269777 0.0015038
internal_weight=0 2599 2338 302 60 2036 1568 1240 93 328 290 254 261 86
internal_count=217633 2599 2338 302 60 2036 1568 1240 93 328 290 254 261 86
shrinkage=0.15


Tree=611
num_leaves=15
num_cat=0
split_feature=12 21 7 12 12 11 33 23 7 14 17 21 11 20
split_gain=0.0247419 0.131803 0.286062 0.271607 0.237561 0.230522 0.525562 0.254694 0.229159 0.218798 0.294792 0.2477 0.322143 0.47855
threshold=-3.0825149999999994e-05 -3.5229999999999997 5.2015850000000008e-05 2.1843750000000002e-05 1.7246900000000003e-05 2.2669950000000005e-05 2.5602950000000004e-06 -14.455649999999997 5.2015850000000008e-05 0.0019372750000000002 8.6975200000000007e-07 -4.0801599999999993 3.1225300000000007e-05 5.6934000000000013
decision_type=2 2 2 2 2 2 2 2 2 2 2 2 2 2
left_child=-1 2 3 5 -3 -2 -7 -8 -6 10 -9 12 13 -12
right_child=1 4 -4 -5 8 6 7 9 -10 -11 11 -13 -14 -15
leaf_value=-6.0476719314388173e-05 0.00013350205644528293 0.00040575702021655453 -0.00029378331749591177 0.00081832521463127961 -0.0003905955097836357 0.00042823320283950889 0.0017556476170284441 -0.0043233541307650157 0.00019447965528967401 -0.00079704892627529937 -0.010267949282715561 0.001531047037463974 -0.011351760785250957 -0.042688640845673427
leaf_weight=89567 5862 18993 13858 20501 44972 734 82 151 22648 89 20 22 113 21
leaf_count=89567 5862 18993 13858 20501 44972 734 82 151 22648 89 20 22 113 21
internal_value=0 4.22963e-05 0.00026226 0.000541501 -6.29783e-05 -0.000258497 -0.00212367 -0.00588491 -0.000194636 -0.00739099 -0.00918567 -0.0133573 -0.0154842 -0.0268737
internal_weight=0 128066 41453 27595 86613 7094 1232 498 67620 416 327 176 154 41
internal_count=217633 128066 41453 27595 86613 7094 1232 498 67620 416 327 176 154 41
shrinkage=0.15


Tree=612
num_leaves=15
num_cat=0
split_feature=22 2 22 13 7 2 22 22 6 1 21 15 21 23
split_gain=0.0246958 0.153804 2.23574 0.716124 1.18712 0.57708 6.34012 2.15746 1.35888 1.45315 1.28337 0.796062 0.897956 0.825169
threshold=1.7837150000000002 2.3859450000000004 2.3537500000000002 -1.5427449999999997e-05 3.7801750000000004e-05 2.6199850000000002 2.6194050000000004 2.5991050000000002 -4.0280749999999992e-07 7.187450000000001 7.8897200000000014 1.9371650000000003e-07 2.2931300000000006 -7.1072649999999991
decision_type=2 2 2 2 2 2 2 2 2 2 2 2 2 2
left_child=-1 -2 3 4 -3 6 8 -7 -4 10 11 12 -10 -14
right_child=1 2 5 -5 -6 7 -8 -9 9 -11 -12 -13 13 -15
leaf_value=-2.6323562887348574e-05 0.00020082721521060738 -0.01800007782355548 -0.0021689247846799048 -0.0019915506110055152 -0.0048779313360436108 -0.0076526831530165321 -0.0056890301972550572 0.0026833310098481888 0.0066204426686454097 0.0045206758052763057 -0.011700920591829344 0.0058787866542415407 0.037125371377487899 0.012768619053846074
leaf_weight=171176 40583 194 71 1169 774 585 619 2035 32 101 20 34 203 37
leaf_count=171176 40583 194 71 1169 774 585 619 2035 32 101 20 34 203 37
internal_value=0 9.69921e-05 -0.000620396 -0.00449025 -0.00750778 0.00159257 0.00444735 0.000375481 0.0170466 0.0202417 0.0251123 0.0275184 0.0302233 0.0333704
internal_weight=0 46457 5874 2137 968 3737 1117 2620 498 427 326 306 272 240
internal_count=217633 46457 5874 2137 968 3737 1117 2620 498 427 326 306 272 240
shrinkage=0.15


Tree=613
num_leaves=15
num_cat=0
split_feature=21 1 3 34 17 35 14 17 10 15 1 2 20 3
split_gain=0.0227542 0.978296 0.696769 0.956823 0.663412 0.393467 0.414399 0.257483 0.0915394 0.129519 0.190718 0.116579 0.103976 0.0995466
threshold=13.390900000000002 11.401950000000001 -5.8104799999999992 0.61610000000000009 9.2200700000000016e-08 0.012436350000000002 7.2224100000000012e-05 3.8911000000000003e-08 1.8498100000000002e-05 4.0606900000000009e-08 8.0447900000000025 1.0998250000000003 -3.2374499999999995 -6.6828699999999985
decision_type=2 2 2 2 2 2 2 2 2 2 2 2 2 2
left_child=-1 8 3 4 7 -4 -7 -3 9 11 -11 -2 -13 -10
right_child=1 2 5 -5 -6 6 -8 -9 13 10 -12 12 -14 -15
leaf_value=-5.9690078906251005e-06 -0.0013552764858697785 0.028124456657096741 -0.0033717630207258311 -0.0010316432749580902 0.010219949312270797 -0.0012336840466429877 0.027910610621936779 0.051395752459116602 0.0006483336879900232 -0.00067064393585457326 0.014417845072291258 -0.0022010107335518115 -0.010148487332638899 -0.0014698555870121734
leaf_weight=214386 184 20 88 36 26 21 23 23 1772 184 21 62 92 695
leaf_count=214386 184 20 88 36 26 21 23 23 1772 184 21 62 92 695
internal_value=0 0.000394109 0.00967296 0.0187921 0.0291349 0.0024191 0.0140008 0.0405719 -0.000336485 -0.00209967 0.000875006 -0.00390383 -0.00694885 5.16002e-05
internal_weight=0 3247 237 105 69 132 44 43 3010 543 205 338 154 2467
internal_count=217633 3247 237 105 69 132 44 43 3010 543 205 338 154 2467
shrinkage=0.15


Tree=614
num_leaves=15
num_cat=0
split_feature=17 37 19 18 3 37 33 37 18 19 3 13 14 33
split_gain=0.0206398 0.872479 0.884682 1.82561 1.11102 1.13597 0.869816 0.63675 0.883207 1.57701 1.03107 0.624738 0.696937 0.617172
threshold=7.4813700000000008e-08 -1.8023299999999995e-08 9.6074000000000005e-06 1.7119700000000004e-08 -6.4440149999999994 9.5974100000000018e-07 -3.2742699999999997e-06 -1.4118249999999998e-08 -1.0012199999999997e-06 5.3757900000000004e-06 -7.2823399999999987 -1.1411099999999998e-05 0.00013246500000000004 -3.1267899999999992e-05
decision_type=2 2 2 2 2 2 2 2 2 2 2 2 2 2
left_child=1 -1 3 4 5 6 -3 -2 -9 10 13 12 -11 -10
right_child=7 2 -4 -5 -6 -7 -8 8 9 11 -12 -13 -14 -15
leaf_value=0.00039904014409766753 -0.00026185717042240546 -0.006336796797840231 9.3852872596143368e-05 0.0010060176069211766 -0.0001054134889361029 -9.0257963379390869e-05 -0.0028415456660538974 0.001335582522666116 -0.00065982460558595935 -0.00022598237205840652 0.00031808776630141592 -9.1095612461859719e-05 -0.0027353357831345218 0.0035432220153376799
leaf_weight=42795 74696 2638 19471 5070 3442 1936 4079 16315 934 4837 8866 22458 5133 4963
leaf_count=42795 74696 2638 19471 5070 3442 1936 4079 16315 934 4837 8866 22458 5133 4963
internal_value=0 -6.09317e-05 -0.000598231 -0.00138329 -0.00238485 -0.00329156 -0.00421425 3.50202e-05 0.000384209 5.5297e-05 0.00134044 -0.00052977 -0.00151791 0.00287752
internal_weight=0 79431 36636 17165 12095 8653 6717 138202 63506 47191 14763 32428 9970 5897
internal_count=217633 79431 36636 17165 12095 8653 6717 138202 63506 47191 14763 32428 9970 5897
shrinkage=0.15


Tree=615
num_leaves=15
num_cat=0
split_feature=10 33 11 21 8 32 22 1 33 30 3 22 11 0
split_gain=0.0207776 0.33095 0.262436 0.440145 0.589061 0.432807 1.07845 1.23945 0.522577 0.405825 0.477848 0.47038 0.315337 0.210489
threshold=1.2315000000000002e-05 -5.572309999999999e-06 -8.9188699999999982e-06 -3.1875049999999994 9.0733750000000019e-06 0.087421300000000021 -2.0263699999999996 -4.4029649999999991 -1.5035749999999997e-05 0.0063656200000000007 -8.0001399999999983 -1.9309999999999998 3.9376600000000001e-07 -2.5255249999999996
decision_type=2 2 2 2 2 2 2 2 2 2 2 2 2 2
left_child=1 2 5 4 -4 -1 13 8 -8 10 11 12 -6 -7
right_child=-2 -3 3 -5 9 6 7 -9 -10 -11 -12 -13 -14 -15
leaf_value=-0.0012553005669676111 -1.0800672313691298e-05 0.00072847933457801902 -0.0016461616971620513 -0.00047320057260673466 -0.024428366795837063 0.010194112013818488 0.042979984848785235 0.0029477292721944771 0.013786896705542775 0.00069505818158318775 -0.0033680377678473108 -0.029853362507186829 -0.0064539380169506841 -0.0041927039090078324
leaf_weight=588 206423 7882 494 1647 32 27 37 74 22 61 76 50 70 150
leaf_count=588 206423 7882 494 1647 32 27 37 74 22 61 76 50 70 150
internal_value=0 0.000198886 -0.0010554 -0.00186514 -0.00479301 0.00113577 0.00567109 0.0158775 0.0320944 -0.0101721 -0.0130795 -0.0179352 -0.012093 -0.0019981
internal_weight=0 11210 3328 2430 783 898 310 133 59 289 228 152 102 177
internal_count=217633 11210 3328 2430 783 898 310 133 59 289 228 152 102 177
shrinkage=0.15


Tree=616
num_leaves=15
num_cat=0
split_feature=13 33 33 22 2 2 22 6 3 22 33 11 23 3
split_gain=0.0222913 0.232809 0.209819 0.233287 0.401873 0.753305 5.00339 2.05127 2.06993 1.62047 1.12666 1.83628 1.52456 1.80787
threshold=1.2495850000000002e-05 4.6440650000000002e-06 1.8499350000000002e-06 -1.8106149999999999 -1.8039399999999997 -2.2973549999999996 -2.3274699999999995 -6.3270999999999985e-07 -6.1920449999999994 -2.2993349999999997 -3.1731849999999998e-06 -9.7072599999999983e-06 -15.369399999999997 -14.087399999999997
decision_type=2 2 2 2 2 2 2 2 2 2 2 2 2 2
left_child=1 -1 3 4 5 9 -7 8 10 -2 12 -12 13 -8
right_child=2 -3 -4 -5 -6 6 7 -9 -10 -11 11 -13 -14 -15
leaf_value=0.00020070747859887313 0.0016376792622021562 -0.00027172099944421102 0.00019833999234501092 -0.00043213929071031623 -0.00032213703459044667 -0.0026800256005818025 0.032975159851568084 0.0013669526276206961 -0.0013834181145583101 -0.0041527544041812395 -0.0079983352251522446 0.031016773652089265 0.020875833408654836 -0.012123057132453791
leaf_weight=72889 3464 34616 45714 41755 14195 1817 28 546 192 1585 95 38 629 70
leaf_count=72889 3464 34616 45714 41755 14195 1817 28 546 192 1585 95 38 629 70
internal_value=0 4.85882e-05 -4.74309e-05 -0.000221852 0.000165656 0.000983734 0.0027044 0.00882674 0.0126984 -0.000180074 0.0158423 0.00314884 0.0181645 0.000762148
internal_weight=0 107505 110128 64414 22659 8464 3415 1598 1052 5049 860 133 727 98
internal_count=217633 107505 110128 64414 22659 8464 3415 1598 1052 5049 860 133 727 98
shrinkage=0.15


Tree=617
num_leaves=15
num_cat=0
split_feature=12 28 10 20 22 19 7 22 9 19 3 22 22 9
split_gain=0.0248387 0.163892 0.129898 0.247042 0.458941 0.112264 0.109845 0.176842 0.330702 0.677696 0.717135 0.823298 0.522341 1.61166
threshold=-3.0825149999999994e-05 0.0021118650000000005 1.7322800000000006e-05 3.9041150000000004 1.9821000000000002 0.00013914700000000003 3.1663450000000009e-05 -1.9550899999999998 -1.4992599999999998e-05 3.0659200000000006e-05 -6.493739999999999 -2.5818199999999996 -2.3274699999999995 -2.8952599999999994e-05
decision_type=2 2 2 2 2 2 2 2 2 2 2 2 2 2
left_child=1 6 3 4 -3 -6 -1 8 12 10 11 -10 -8 -14
right_child=-2 2 -4 -5 5 -7 7 -9 9 -11 -12 -13 13 -15
leaf_value=-0.00063334667688341761 4.2378987334186319e-05 -0.0012801774701642332 4.6765318853421101e-05 0.0021119023637519666 0.0025828372058694146 0.00045393291221271253 0.00022729173251449959 -0.00033315818282220059 -0.0015976270774240684 0.00021625336541368398 0.000487404952611376 -0.013627973333474182 -1.6519711932889112e-05 0.0092919599647117816
leaf_weight=11892 128066 2412 30712 2126 1323 963 4126 27063 245 6187 418 268 1185 647
leaf_count=11892 128066 2412 30712 2126 1323 963 4126 27063 245 6187 418 268 1185 647
internal_value=0 -6.05949e-05 0.000178298 0.000770274 0.000163142 0.00168602 -0.000232936 -0.000114307 0.000338644 -0.000351506 -0.00412458 -0.00788249 0.00116316 0.00327092
internal_weight=0 89567 37536 6824 4698 2286 52031 40139 13076 7118 931 513 5958 1832
internal_count=217633 89567 37536 6824 4698 2286 52031 40139 13076 7118 931 513 5958 1832
shrinkage=0.15


Tree=618
num_leaves=15
num_cat=0
split_feature=19 35 3 39 34 22 1 8 15 33 5 34 3 34
split_gain=0.0247147 0.108368 0.123856 0.159492 0.405037 0.219346 0.838688 0.375025 0.234733 0.185353 0.238337 0.303945 0.21721 0.354266
threshold=1.1591100000000004e-09 0.0014474350000000002 -6.9170499999999988 2.6954450000000007e-06 0.0126493 -1.5733149999999998 -8.0946249999999988 1.7103750000000004e-05 3.1455100000000005e-08 2.1078850000000004e-06 1.0282900000000001e-05 0.075779600000000016 -9.0501149999999981 0.034418900000000009
decision_type=2 2 2 2 2 2 2 2 2 2 2 2 2 2
left_child=1 2 3 4 5 6 -1 -8 -7 10 -5 12 13 -12
right_child=-2 -3 -4 9 -6 8 7 -9 -10 -11 11 -13 -14 -15
leaf_value=0.023801413787385591 9.7386658326748949e-06 0.00073164760639076658 0.00013355333809290137 -4.381409717576676e-05 0.016263939697777719 -0.00053293303985132425 -0.0026029714300583868 0.018624063394963742 -0.0091430918679667756 -0.00026503300671643277 -0.00048629461306035315 -0.00089978038010445039 -0.01004374923814343 -0.011269875369651022
leaf_weight=39 209844 1874 2854 399 35 543 173 21 82 885 209 335 238 102
leaf_count=39 209844 1874 2854 399 35 543 173 21 82 885 209 335 238 102
internal_value=0 -0.00026237 -0.000577296 -0.00124007 0.000446997 -0.000198217 0.00372981 -0.0003052 -0.00166259 -0.00193498 -0.00308689 -0.00446041 -0.00663311 -0.00402303
internal_weight=0 7789 5915 3061 893 858 233 194 625 2168 1283 884 549 311
internal_count=217633 7789 5915 3061 893 858 233 194 625 2168 1283 884 549 311
shrinkage=0.15


Tree=619
num_leaves=15
num_cat=0
split_feature=4 24 37 4 32 8 21 21 10 12 7 32 8 9
split_gain=0.0204111 0.0829542 0.0869019 0.358008 0.39387 0.749728 0.704466 0.292535 0.245876 0.294973 0.498022 0.427266 0.56499 0.247743
threshold=0.43714250000000004 -0.07045934999999999 1.4190350000000002e-06 1.1140750000000001 -2.4186349999999996 -1.0310199999999998e-05 2.7095700000000007 -10.940449999999998 2.1909450000000004e-05 -5.3110099999999991e-05 3.8198000000000009e-05 -0.83958549999999987 -6.407459999999999e-06 3.9046450000000003e-05
decision_type=2 2 2 2 2 2 2 2 2 2 2 2 2 2
left_child=-1 -2 -3 4 5 6 -4 -6 -9 10 -10 12 -11 -13
right_child=1 2 3 -5 7 -7 -8 8 9 11 -12 13 -14 -15
leaf_value=-2.4568704126237174e-05 0.00028187436620979409 -1.9404817405528595e-05 -0.0071997579373419274 7.2326846675232296e-05 0.0080548829897972088 -0.0064296818896325235 0.027580149600429361 -0.013083517429830315 0.022151947686714784 0.01862155370414257 -0.0044691058474199963 -0.017599541785239124 -0.013599068264011294 -0.00011525884594606316
leaf_weight=169226 24250 21895 20 1713 28 87 38 131 21 25 64 88 24 23
leaf_count=169226 24250 21895 20 1713 28 87 38 131 21 25 64 88 24 23
internal_value=0 8.58897e-05 -0.000110849 -0.000995986 -0.00432936 0.00237702 0.0155871 -0.00673635 -0.00783782 -0.00503298 0.00210786 -0.00882656 0.00284002 -0.0139767
internal_weight=0 48407 24157 2262 549 145 58 404 376 245 85 160 49 111
internal_count=217633 48407 24157 2262 549 145 58 404 376 245 85 160 49 111
shrinkage=0.15


Tree=620
num_leaves=15
num_cat=0
split_feature=38 13 22 2 18 11 5 22 18 12 22 13 0 22
split_gain=0.0232076 0.201109 0.240208 0.667129 1.53935 0.757318 0.776136 0.601567 0.459637 0.421132 0.290929 0.277179 0.180044 0.249745
threshold=0.00022251950000000002 -1.41669e-05 2.7556600000000002 2.7813900000000005 -1.73185e-06 -1.3562099999999998e-05 1.2783250000000002e-05 2.9819500000000003 -5.6742149999999992e-06 4.6139300000000007e-05 2.9399650000000004 -2.3880199999999995e-05 2.2970950000000006 -1.1338649999999999
decision_type=2 2 2 2 2 2 2 2 2 2 2 2 2 2
left_child=-1 2 12 5 7 6 8 9 10 -5 -4 -6 -2 -14
right_child=1 -3 3 4 11 -7 -8 -9 -10 -11 -12 -13 13 -15
leaf_value=3.7365264803603997e-05 7.8683455714689975e-05 6.2746568693585779e-05 -0.03991020888668196 0.041588955357670786 -0.0048282820880413049 -0.00062888348205360385 -0.005036853246396111 -0.001047571012750268 -0.0096913852617144577 0.016649425217810158 -0.0182731618380381 -0.028519785154276178 -0.0021357621087698614 -0.0003012301789549086
leaf_weight=137577 9152 62292 29 25 25 579 275 25 50 39 27 20 2503 5015
leaf_count=137577 9152 62292 29 25 25 579 275 25 50 39 27 20 2503 5015
internal_value=0 -6.42126e-05 -0.000509413 -0.00266256 0.00725194 -0.00404646 -0.00924009 0.0186838 -0.0201447 0.0263914 -0.0294781 -0.0153578 -0.000368109 -0.000912009
internal_weight=0 80056 17764 1094 134 960 381 89 106 64 56 45 16670 7518
internal_count=217633 80056 17764 1094 134 960 381 89 106 64 56 45 16670 7518
shrinkage=0.15


Tree=621
num_leaves=15
num_cat=0
split_feature=13 33 22 2 21 2 3 9 22 22 0 4 0 7
split_gain=0.0267169 0.171413 0.183308 0.558768 0.678058 1.15448 1.05805 1.34064 1.04408 1.01678 2.33377 0.718563 0.676 0.361104
threshold=1.2495850000000002e-05 2.5602950000000004e-06 -1.7647699999999997 -1.0620999999999998 -3.4381649999999992 -1.7602299999999997 -6.0822949999999993 2.7889200000000007e-06 -2.1604749999999995 -1.9550899999999998 -3.7136199999999993 -0.091932049999999987 -3.4076699999999995 2.0288750000000001e-05
decision_type=2 2 2 2 2 2 2 2 2 2 2 2 2 2
left_child=1 2 3 4 5 9 7 8 -7 12 -11 -12 13 -1
right_child=-2 -3 -4 -5 -6 6 -8 -9 -10 10 11 -13 -14 -15
leaf_value=0.014140777982986318 -5.1926333326305736e-05 -0.00017901729530669323 0.00038580821190531764 0.00028790193346215688 0.00066675248495840671 -0.0075904995057295734 0.00055133972849148445 -0.0041261426806239922 -0.022213918252331155 -0.00039270751897296335 0.048200340926580661 0.019523153584238818 -0.011678888567883742 -0.00069284048267316718
leaf_weight=39 110128 42950 43135 16127 2027 255 576 1077 193 209 28 66 129 694
leaf_count=39 110128 42950 43135 16127 2027 255 576 1077 193 209 28 66 129 694
internal_value=0 5.31933e-05 0.000207689 -0.000151004 -0.00148829 -0.00282578 -0.00492582 -0.00699457 -0.0138903 0.000961497 0.00843585 0.0280653 -0.0016658 9.63971e-05
internal_weight=0 107505 64555 21420 5293 3266 2101 1525 448 1165 303 94 862 733
internal_count=217633 107505 64555 21420 5293 3266 2101 1525 448 1165 303 94 862 733
shrinkage=0.15


Tree=622
num_leaves=15
num_cat=0
split_feature=16 36 16 15 39 3 35 22 25 15 35 3 33 0
split_gain=0.0213274 0.549327 0.578402 0.479267 0.734176 1.02801 0.811203 0.611744 0.658535 1.05457 1.4033 1.2114 1.3813 1.05539
threshold=6.935915000000001e-07 9.5141850000000008e-05 4.7861450000000004e-06 8.4221350000000012e-07 1.1649650000000003e-05 -6.4440149999999994 0.013590750000000002 2.0894700000000004 0.62943300000000002 1.1036250000000002e-07 0.0013016950000000001 -12.831349999999999 1.5838450000000004e-05 -4.9512199999999984
decision_type=2 2 2 2 2 2 2 2 2 2 2 2 2 2
left_child=-1 -2 3 4 -3 6 7 8 -6 10 11 -10 13 -13
right_child=1 2 -4 -5 5 -7 -8 -9 9 -11 -12 12 -14 -15
leaf_value=-3.11064382384709e-05 -0.00036354945027902068 0.00025009360944868467 9.162141686317871e-05 0.00011496796218670557 0.0037131923221102509 5.1480791131958598e-05 -0.00051433100905395521 0.001031567860687853 0.0001594282337464392 0.0046469033995834609 0.0018454693696806526 -0.0012084590562153608 0.012180777496572008 0.03355402346684138
leaf_weight=151256 32965 2472 23412 3754 594 1247 443 371 72 487 161 22 193 184
leaf_count=151256 32965 2472 23412 3754 594 1247 443 371 72 487 161 22 193 184
internal_value=0 7.08835e-05 0.000499504 0.00145444 0.0022595 0.00357567 0.00531475 0.00655385 0.00774987 0.00989266 0.0139349 0.0180674 0.0212989 0.0298415
internal_weight=0 66377 33412 10000 6246 3774 2527 2084 1713 1119 632 471 399 206
internal_count=217633 66377 33412 10000 6246 3774 2527 2084 1713 1119 632 471 399 206
shrinkage=0.15


Tree=623
num_leaves=15
num_cat=0
split_feature=3 23 23 3 14 21 1 2 21 12 12 21 8 31
split_gain=0.0234558 0.183992 0.855628 1.77746 1.56499 1.00326 8.85244 4.11376 1.79101 2.91032 1.93675 1.26739 1.01137 0.924446
threshold=-13.239749999999999 -13.335099999999999 -15.570249999999998 -15.512049999999999 0.0069509900000000006 -3.3402249999999998 -3.3198799999999999 -0.63008449999999983 1.0827550000000004 3.8183400000000004e-05 4.2025950000000011e-05 -1.5699599999999998 1.6073850000000002e-05 -0.19213449999999996
decision_type=2 2 2 2 2 2 2 2 2 2 2 2 2 2
left_child=1 2 -1 -4 5 6 12 11 9 13 -10 -7 -5 -9
right_child=-2 -3 3 4 -6 7 -8 8 10 -11 -12 -13 -14 -15
leaf_value=-0.00056296001285572282 -2.1681059695115104e-05 -9.0414355636969816e-05 -0.0014072569558614618 0.029186089106814698 0.00013078418275103612 0.0092718588599523932 -0.012185527669337009 0.044570345306835533 -0.0052830669502284197 -0.011037733505553643 0.023356822909132071 -0.012590187869006153 0.055981188137574411 0.013190104843044198
leaf_weight=5235 182296 26191 1633 191 882 77 162 28 63 147 339 265 38 86
leaf_count=5235 182296 26191 1633 191 882 77 162 28 63 147 339 265 38 86
internal_value=0 0.000111848 0.000691058 0.0023696 0.00507707 0.00820215 0.014649 0.00569397 0.0125866 0.002911 0.0188685 -0.00766803 0.0336324 0.0208975
internal_weight=0 35337 9146 3911 2278 1396 391 1005 663 261 402 342 229 114
internal_count=217633 35337 9146 3911 2278 1396 391 1005 663 261 402 342 229 114
shrinkage=0.15


Tree=624
num_leaves=15
num_cat=0
split_feature=3 19 33 13 10 33 1 10 28 30 25 37 28 35
split_gain=0.0353145 0.0653859 0.092897 0.149914 0.231075 0.24175 0.264178 0.3968 0.36315 0.211635 0.161368 0.556601 0.814557 0.441314
threshold=-15.512049999999999 0.0095827350000000019 8.2700400000000015e-06 -2.5460999999999996e-05 1.7969350000000004e-05 9.3409800000000015e-05 -3.4074399999999998 5.198605000000001e-05 -0.071012149999999982 0.0017770600000000002 0.50646200000000008 3.8063150000000008e-07 -0.0074424499999999989 0.0009352220000000002
decision_type=2 2 2 2 2 2 2 2 2 2 2 2 2 2
left_child=1 -1 -3 4 9 10 -7 8 -8 -4 11 13 -13 -6
right_child=-2 2 3 -5 5 6 7 -9 -10 -11 -12 12 -14 -15
leaf_value=0.00045017647817729073 -1.7220527723903331e-05 0.00018366411901244001 -0.022619974525878207 0.00027244045552815089 -0.0081229203430914568 -0.010685882047982886 0.0057711310974599859 -0.00037467598025007944 0.032656240196374711 -0.0020005721774526007 -0.005355097570281942 -0.0093370608186391594 0.027924846003721044 0.0053961895578713334
leaf_weight=10028 201284 4616 24 866 165 24 26 72 20 21 351 22 33 81
leaf_count=10028 201284 4616 24 866 165 24 26 72 20 21 351 22 33 81
internal_value=0 0.000212014 -0.000165821 -0.00111199 -0.00254098 -0.00194835 0.00366012 0.00657795 0.0174603 -0.0129976 -0.00316982 -0.000621548 0.0130201 -0.00367151
internal_weight=0 16349 6321 1705 839 794 142 118 46 45 652 301 55 246
internal_count=217633 16349 6321 1705 839 794 142 118 46 45 652 301 55 246
shrinkage=0.15


Tree=625
num_leaves=15
num_cat=0
split_feature=23 14 14 29 0 9 19 21 17 19 29 21 26 19
split_gain=0.0258618 0.183053 0.265538 0.144844 0.345139 0.273398 0.1815 0.178303 0.453059 0.14898 0.13532 0.128976 0.108276 0.131211
threshold=-17.075499999999995 0.00018273250000000005 0.0039324400000000006 0.0061332050000000009 -2.7237549999999993 -1.3228999999999998e-05 0.020458000000000004 -7.7286599999999988 4.8153850000000012e-06 0.040119500000000009 0.00017142400000000002 -0.84929049999999984 0.00070205250000000016 0.0021222300000000006
decision_type=2 2 2 2 2 2 2 2 2 2 2 2 2 2
left_child=1 -1 3 4 10 6 12 8 -6 -9 -3 -11 13 -5
right_child=-2 2 -4 5 7 -7 -8 9 -10 11 -12 -13 -14 -15
leaf_value=-0.00058420641303338417 -1.5615362336040477e-05 0.0027477472347289746 -0.00027554128609179947 9.909836755423384e-05 -0.0001680734279943863 0.00311676342952878 0.010682914695436399 -0.00057799537665613747 0.024784574765627357 -0.017502089543268085 -0.0013151020354154614 -0.0012597094967283986 0.005486682347306187 -0.0044896269608023639
leaf_weight=5167 199444 1466 5880 800 64 1700 35 2562 22 22 211 22 68 170
leaf_count=5167 199444 1466 5880 800 64 1700 35 2562 22 22 211 22 68 170
internal_value=0 0.000171224 0.000470971 0.00108557 0.000547409 0.00193348 5.87498e-05 -0.000504859 0.00621516 -0.000726625 0.00223656 -0.0093809 -0.000299483 -0.000705111
internal_weight=0 18189 13022 7142 4369 2773 1073 2692 86 2606 1677 44 1038 970
internal_count=217633 18189 13022 7142 4369 2773 1073 2692 86 2606 1677 44 1038 970
shrinkage=0.15


Tree=626
num_leaves=15
num_cat=0
split_feature=4 23 25 38 4 34 23 23 11 31 7 12 22 28
split_gain=0.0231779 0.0770749 0.0776755 0.069963 0.211169 0.702517 0.233619 0.28392 0.397519 1.03789 0.449388 0.282624 1.02146 0.561908
threshold=0.43714250000000004 -6.5068949999999992 116.60050000000003 0.00022251950000000002 0.11543250000000001 0.20985100000000004 -16.170749999999995 -7.7545149999999987 4.058710000000001e-05 -0.038902199999999991 4.0836600000000008e-05 6.5907450000000009e-05 0.56816350000000015 -0.0058702999999999993
decision_type=2 2 2 2 2 2 2 2 2 2 2 2 2 2
left_child=3 2 -2 -1 -5 6 -6 8 10 -10 11 13 -13 -8
right_child=1 -3 -4 4 5 -7 7 -9 9 -11 -12 12 -14 -15
leaf_value=4.7333109018588782e-05 0.00016307759182471575 -0.00049610841554228991 -0.0036116929975389387 -2.7455628938997305e-05 0.0019116341785190981 0.00085271174564701118 -0.0062007755652451618 -0.00015248050417968748 -0.013089080326478065 -0.00097675548943336292 3.080612785119294e-05 -0.00053553600055407824 -0.013329119147089062 -0.00065035105535711372
leaf_weight=107039 43734 4550 123 51592 383 3854 587 1570 268 392 1606 322 249 1364
leaf_count=107039 43734 4550 123 51592 383 3854 587 1570 268 392 1606 322 249 1364
internal_value=0 9.15261e-05 0.000152491 -2.6181e-05 -0.000152717 -0.000762671 -0.00168623 -0.00190296 -0.00247695 -0.00589509 -0.00193044 -0.00317935 -0.00611452 -0.00232031
internal_weight=0 48407 43857 169226 62187 10595 6741 6358 4788 660 4128 2522 571 1951
internal_count=217633 48407 43857 169226 62187 10595 6741 6358 4788 660 4128 2522 571 1951
shrinkage=0.15


Tree=627
num_leaves=15
num_cat=0
split_feature=3 31 20 22 4 6 14 23 35 30 36 7 30 33
split_gain=0.0270608 0.0571472 0.149632 0.166851 0.248818 0.205963 0.140671 0.341647 0.302598 0.21201 0.165962 0.217121 0.177889 0.125503
threshold=-15.512049999999999 0.047456150000000009 3.4831650000000005 2.0019550000000002 -1.5283549999999997 -4.0280749999999992e-07 0.0031052900000000006 -13.08405 0.017883000000000003 0.00032855650000000004 0.0031889550000000007 2.5305850000000004e-05 0.00046107300000000005 -1.9711349999999996e-05
decision_type=2 2 2 2 2 2 2 2 2 2 2 2 2 2
left_child=1 -1 6 4 -4 -6 7 8 9 -3 11 -11 -13 -14
right_child=-2 2 3 -5 5 -7 -8 -9 -10 10 -12 12 13 -15
leaf_value=-4.0190782950197383e-06 -1.5074415013251683e-05 -0.020132809991402358 0.023534707462282051 -0.0021203062599958029 0.01771481530580786 -0.00034848264637118092 0.00073332316400197912 0.0016354498701192605 0.0086439858785726954 0.0098083741687746209 -0.015285555262137979 0.0059281002680238865 -0.015391939944986785 -0.0041641679265012497
leaf_weight=11220 201284 29 21 43 20 49 4497 274 27 22 36 21 42 48
leaf_count=11220 201284 29 21 43 20 49 4497 274 27 22 36 21 42 48
internal_value=0 0.000185592 0.000600377 0.00556599 0.00923833 0.00488726 0.000468186 -0.00192124 -0.00625249 -0.00828383 -0.00625058 -0.00380502 -0.00650317 -0.00940379
internal_weight=0 16349 5129 133 90 69 4996 499 225 198 169 133 111 90
internal_count=217633 16349 5129 133 90 69 4996 499 225 198 169 133 111 90
shrinkage=0.15


Tree=628
num_leaves=15
num_cat=0
split_feature=36 15 19 33 3 30 19 35 15 3 34 35 9 8
split_gain=0.0200334 0.159683 1.88875 1.53961 2.40799 1.27405 0.849639 0.994528 1.07975 1.41642 1.27144 0.661442 0.870686 0.779791
threshold=0.00047676150000000003 -3.0041299999999994e-08 4.6329000000000001e-06 -1.5638149999999997e-06 -6.4680349999999995 0.0019471500000000001 6.1393400000000009e-06 0.00036684450000000008 4.9438450000000007e-08 -6.5460449999999986 0.26111200000000007 0.00084203300000000017 2.7541700000000004e-05 -2.0593599999999995e-05
decision_type=2 2 2 2 2 2 2 2 2 2 2 2 2 2
left_child=-1 2 3 4 5 -2 7 -3 -9 10 11 12 -10 -13
right_child=1 6 -4 -5 -6 -7 -8 8 9 -11 -12 13 -14 -15
leaf_value=3.5315705717438226e-05 -0.0094449182573169369 -0.00011123593533698709 0.00033729729138114926 -0.00029539125307221221 -0.0001001446388616456 -0.0023800077752151381 -0.00035721757677975531 0.0004218306069013285 0.0062970053922038003 0.00035419061115196269 0.0014018944224103301 0.029368506958606932 -0.01432624655579658 0.0094813102153749971
leaf_weight=135836 1733 8437 27739 4984 1925 859 28562 3689 240 1476 804 46 57 1246
leaf_count=135836 1733 8437 27739 4984 1925 859 28562 3689 240 1476 804 46 57 1246
internal_value=0 -5.86469e-05 -0.000287894 -0.0021132 -0.00411894 -0.00710358 0.000132954 0.00100825 0.00225792 0.0040086 0.00626263 0.00872206 0.00233901 0.0101894
internal_weight=0 81797 37240 9501 4517 2592 44557 15995 7558 3869 2393 1589 297 1292
internal_count=217633 81797 37240 9501 4517 2592 44557 15995 7558 3869 2393 1589 297 1292
shrinkage=0.15


Tree=629
num_leaves=15
num_cat=0
split_feature=3 14 32 14 23 14 31 36 0 20 0 23 23 9
split_gain=0.0201513 0.0598901 0.125633 0.342797 0.130787 0.204895 0.18038 0.243948 0.212044 0.168096 0.643293 1.66411 0.546091 0.428322
threshold=-15.512049999999999 0.035036700000000011 -5.5741899999999989 0.017106350000000003 -11.124149999999998 0.0054376550000000004 -0.43700099999999992 0.21912450000000003 4.4321300000000008 2.4692150000000006 2.6455750000000005 -14.948949999999998 -14.850299999999999 3.1088050000000008e-05
decision_type=2 2 2 2 2 2 2 2 2 2 2 2 2 2
left_child=1 2 3 -1 5 9 8 -8 -7 -4 12 13 -11 -12
right_child=-2 -3 4 -5 -6 6 7 -9 -10 10 11 -13 -14 -15
leaf_value=0.001696964087575811 -1.3008322637463737e-05 -0.00027156733433875439 -0.0025279800820653428 0.020987248107849153 0.00070443067736285355 -0.0034324527785477674 0.0013049227555709066 -0.010982895402215748 0.012461684461450205 -0.0097568197848109817 0.026947463139270742 -0.0089656716333765141 0.0014760525219770539 0.010181825475107568
leaf_weight=152 201284 5013 1258 24 6737 339 2076 37 20 178 45 111 215 144
leaf_count=152 201284 5013 1258 24 6737 339 2076 37 20 178 45 111 215 144
internal_value=0 0.000160155 0.00035107 0.00432746 0.00028836 -0.000345387 0.000561604 0.00108976 -0.00254699 -0.00149458 0.000381337 0.0056121 -0.00361161 0.0141736
internal_weight=0 16349 11336 176 11160 4423 2472 2113 359 1951 693 300 393 189
internal_count=217633 16349 11336 176 11160 4423 2472 2113 359 1951 693 300 393 189
shrinkage=0.15


Tree=630
num_leaves=15
num_cat=0
split_feature=2 20 11 22 13 20 10 7 22 11 22 0 22 34
split_gain=0.020422 0.059308 0.0747175 0.151087 0.151342 0.353892 0.20272 0.206644 0.201799 0.112757 0.16462 0.106546 0.140379 0.0942004
threshold=-2.8223399999999992 -7.5821849999999991 -4.7443449999999997e-05 -2.8252699999999993 7.2925650000000004e-06 -9.5917099999999973 3.8082950000000011e-05 4.5024050000000005e-05 -2.8863399999999997 -3.3037949999999994e-05 -3.0104949999999993 -12.853499999999999 -2.4287549999999993 0.11081350000000001
decision_type=2 2 2 2 2 2 2 2 2 2 2 2 2 2
left_child=1 2 -1 4 5 6 -4 -8 9 -6 -11 -5 13 -13
right_child=-2 -3 3 11 8 -7 7 -9 -10 10 -12 12 -14 -15
leaf_value=0.00039395517618023656 -9.8211178417925066e-06 0.00037608978474779563 0.010840742006257642 0.00040020751741741103 -0.0037583861318416893 -0.01998927004804665 -0.016408982186112551 0.0021160325991721558 0.015598755862522701 -0.0052103414166984807 0.010931483456145294 -0.012787057950806159 -0.0029298116764927495 -0.0016174364551577879
leaf_weight=752 208125 8024 32 126 50 22 20 42 29 21 44 65 258 23
leaf_count=752 208125 8024 32 126 50 22 20 42 29 21 44 65 258 23
internal_value=0 0.000214979 -0.000656149 -0.00173494 0.00116864 -0.0028635 0.00114465 -0.00385978 0.00441675 0.00159695 0.00571643 -0.00333438 -0.00469437 -0.00986773
internal_weight=0 9508 1484 732 260 116 94 62 144 115 65 472 346 88
internal_count=217633 9508 1484 732 260 116 94 62 144 115 65 472 346 88
shrinkage=0.15


Tree=631
num_leaves=15
num_cat=0
split_feature=22 19 2 8 8 24 12 2 7 30 2 25 2 25
split_gain=0.0189557 0.0570448 0.0666531 0.130779 0.140466 0.137883 0.066739 0.0676072 0.09078 0.137254 0.0492902 0.229112 0.041679 0.0384196
threshold=-2.9897199999999997 2.0955950000000004e-06 -2.9945099999999996 3.1580350000000004e-06 1.8151200000000001e-06 -0.11734399999999999 -4.5131699999999993e-05 -2.6044999999999994 5.2375150000000003e-05 0.00022584900000000003 3.0333000000000006 1.2871200000000003 -3.0230999999999995 3.7622250000000004
decision_type=2 2 2 2 2 2 2 2 2 2 2 2 2 2
left_child=1 2 3 4 5 -1 -4 8 9 -8 12 -12 -3 -14
right_child=-2 10 6 -5 -6 -7 7 -9 -10 -11 11 -13 13 -15
leaf_value=-0.0053822306338518573 -6.9295158019639992e-06 -0.0055067871959181497 0.0025196483494422254 -0.0039047720807502627 0.014891836595009353 0.0092236749510365458 -0.015239077911246568 0.00065786427232045295 0.0015043031255742394 -0.0022152153606554352 -0.0017164541794490828 0.017010035601976725 0.00013500443970596428 -0.0012616009694809722
leaf_weight=26 212428 32 360 32 34 33 25 906 67 67 49 21 3034 519
leaf_count=26 212428 32 360 32 34 33 25 906 67 67 49 21 3034 519
internal_value=0 0.000282809 0.00104536 0.0043665 0.00721253 0.00278717 0.000754028 0.000157199 -0.00269565 -0.00575431 -4.05691e-05 0.00390149 -0.000117541 -6.90029e-05
internal_weight=0 5205 1550 125 93 59 1425 1065 159 92 3655 70 3585 3553
internal_count=217633 5205 1550 125 93 59 1425 1065 159 92 3655 70 3585 3553
shrinkage=0.15


Tree=632
num_leaves=15
num_cat=0
split_feature=15 33 20 9 4 3 23 20 16 24 20 4 0 11
split_gain=0.0174232 0.0670209 0.0719336 0.19614 0.199838 0.386534 0.508031 0.271614 0.197669 0.112443 0.0934881 0.304292 1.63165 1.12375
threshold=5.696315000000001e-06 -1.1664049999999997e-06 5.3893600000000008 1.7612300000000004e-05 0.21982700000000002 -13.004499999999998 -9.9145799999999991 7.6222700000000012 1.9803850000000002e-05 0.73599100000000017 3.8385900000000004 0.67000000000000015 3.8361500000000004 9.7894750000000007e-05
decision_type=2 2 2 2 2 2 2 2 2 2 2 2 2 2
left_child=-1 -2 10 -4 5 7 -7 8 -5 -6 -3 12 -12 -14
right_child=1 2 3 4 9 6 -8 -9 -10 -11 11 -13 13 -15
leaf_value=-2.0325547265348804e-05 0.00029751973927555694 -5.772340950469263e-05 0.00019707440819668461 -0.024653966612337777 -0.001351477219742283 0.023714975104958281 -0.0065822026375826678 -0.0041602819970446743 -0.008581702051345598 0.0082242335496370556 0.00070137181308254531 -0.001021386963009049 0.044600738784778986 0.010512833046082611
leaf_weight=177031 18668 15095 3016 36 1891 20 33 81 33 28 800 797 31 73
leaf_count=177031 18668 15095 3016 36 1891 20 33 81 33 28 800 797 31 73
internal_value=0 8.86225e-05 -8.91696e-05 -0.000580308 -0.0016852 -0.00616076 0.00485069 -0.0100515 -0.0169672 -0.00121176 6.10727e-05 0.00111529 0.00299907 0.0206737
internal_weight=0 40602 21934 5138 2122 203 53 150 69 1919 16796 1701 904 104
internal_count=217633 40602 21934 5138 2122 203 53 150 69 1919 16796 1701 904 104
shrinkage=0.15


Tree=633
num_leaves=15
num_cat=0
split_feature=0 29 29 33 34 1 34 3 3 33 8 22 37 34
split_gain=0.0173047 0.13405 0.073631 0.0507005 0.114346 0.0683964 0.0526699 0.123543 0.0440968 0.215241 0.0456152 0.135321 0.224071 0.0864015
threshold=11.559500000000002 -0.0024564149999999996 0.0055169800000000003 1.9383450000000008e-06 0.0033198800000000003 1.0837000000000001 0.010117100000000002 -5.9751649999999996 -6.3853549999999988 -1.1664049999999997e-06 5.5812000000000009e-06 -0.38996849999999994 -2.1185049999999997e-08 0.0054681550000000006
decision_type=2 2 2 2 2 2 2 2 2 2 2 2 2 2
left_child=-1 3 -3 8 -5 6 7 -6 9 -2 13 12 -12 -10
right_child=1 2 -4 4 5 -7 -8 -9 10 -11 11 -13 -14 -15
leaf_value=-9.7281701297573337e-06 -0.00029864012125609352 0.0011634590849829317 0.00013348762169965538 -0.01224734420509776 -0.012066097903464522 0.00014634796839147496 -0.0012755367076217419 -0.0011770478221235312 -0.0046559632433117431 0.014931418567609329 -0.00096004784931070521 0.00028733041521284444 0.01960864661854099 -0.0003045394742812596
leaf_weight=206699 106 3065 3184 20 35 895 1130 71 111 26 26 875 22 1368
leaf_count=206699 106 3065 3184 20 35 895 1130 71 111 26 26 875 22 1368
internal_value=0 0.000183904 0.000638666 -0.000422673 -0.000958255 -0.000852304 -0.00157544 -0.00477249 3.19582e-05 0.00270122 -0.000114729 0.000712723 0.00846727 -0.000631117
internal_weight=0 10934 6249 4685 2151 2131 1236 106 2534 132 2402 923 48 1479
internal_count=217633 10934 6249 4685 2151 2131 1236 106 2534 132 2402 923 48 1479
shrinkage=0.15


Tree=634
num_leaves=15
num_cat=0
split_feature=14 23 3 23 3 1 33 19 13 23 3 3 23 39
split_gain=0.0173123 0.220337 0.591031 0.813927 0.547056 0.371542 0.285253 1.38668 1.13522 1.25128 1.92228 1.18481 1.06032 1.00662
threshold=0.00018273250000000005 -9.2080749999999991 -6.2498799999999992 -6.2906249999999995 -6.2498799999999992 -11.658299999999999 9.3338250000000019e-07 1.5064750000000002e-05 -7.7280699999999977e-06 -7.588404999999999 -7.5114599999999987 -7.5458749999999988 -8.2315849999999973 0.00017843950000000003
decision_type=2 2 2 2 2 2 2 2 2 2 2 2 2 2
left_child=1 4 3 6 -1 -5 7 -3 9 10 -8 -11 -9 -13
right_child=-2 2 -4 5 -6 -7 8 12 -10 11 -12 13 -14 -15
leaf_value=0.0011628716887548251 -2.7473827135023691e-05 -0.00027773372319454088 0.00029936081252023835 -0.011342841849961717 -0.00012035443771243569 0.002999455028132991 0.0069827119396844257 0.00062143843261825381 -0.0025605932554891835 -0.0060327432285418713 -0.0078025920641981161 0.0088147289366557816 -0.0065051789335695536 -0.0064984458616688954
leaf_weight=11665 153077 3816 19622 42 20810 1255 315 619 2731 179 532 914 1948 108
leaf_count=11665 153077 3816 19622 42 20810 1255 315 619 2731 179 532 914 1948 108
internal_value=0 6.51467e-05 -0.000213669 -0.00102165 0.00034058 0.00253502 -0.00143493 -0.00209106 -0.000558576 0.00211111 -0.00230393 0.00522479 -0.00478668 0.00719651
internal_weight=0 64556 32081 12459 32475 1297 11162 6383 4779 2048 847 1201 2567 1022
internal_count=217633 64556 32081 12459 32475 1297 11162 6383 4779 2048 847 1201 2567 1022
shrinkage=0.15


Tree=635
num_leaves=15
num_cat=0
split_feature=4 24 23 18 10 1 38 23 10 38 15 35 4 23
split_gain=0.0175352 0.0677379 0.0750276 0.0680567 0.101955 0.0888549 0.0788363 0.0847735 0.063256 0.0525174 0.274494 0.362062 0.899414 0.514693
threshold=0.43714250000000004 -0.07045934999999999 -23.590149999999998 0.00081348900000000014 8.362345000000001e-06 -4.5944149999999988 0.00055839300000000013 -17.743599999999997 4.8747850000000005e-05 0.00022251950000000002 1.3672000000000005e-07 0.0009689395000000001 -1.4177149999999996 -8.9494349999999994
decision_type=2 2 2 2 2 2 2 2 2 2 2 2 2 2
left_child=9 3 -3 4 5 -2 -6 8 -8 -1 -11 12 -12 -14
right_child=1 2 -4 -5 6 -7 7 -9 -10 10 11 -13 13 -15
leaf_value=4.0920265259885903e-05 0.014599115185306539 -0.0045468078275820627 -8.2464152029000529e-05 6.5332705098208014e-05 0.0010833089632804104 0.0025499445082823508 0.0030984944994681368 -4.5150949291534343e-05 -5.3802621203177762e-05 8.2883125326459008e-05 0.00079600391715904109 0.00018259413664853199 -0.0012762648902274517 -0.0039620042712620275
leaf_weight=107039 21 85 24072 15348 3613 40 362 4629 237 42400 3742 8031 5793 2221
leaf_count=107039 21 85 24072 15348 3613 40 362 4629 237 42400 3742 8031 5793 2221
internal_value=0 7.96093e-05 -9.81726e-05 0.000256709 0.000586663 0.00669802 0.000544497 0.000172131 0.00185126 -2.27722e-05 -0.000132402 -0.000593721 -0.00112405 -0.00202059
internal_weight=0 48407 24157 24250 8902 61 8841 5228 599 169226 62187 19787 11756 8014
internal_count=217633 48407 24157 24250 8902 61 8841 5228 599 169226 62187 19787 11756 8014
shrinkage=0.15


Tree=636
num_leaves=15
num_cat=0
split_feature=19 12 22 33 35 33 27 14 3 34 34 35 33 21
split_gain=0.0210592 0.0821734 0.202275 0.0723254 0.103432 0.185707 0.286738 0.29829 0.465345 0.682748 1.29808 0.560587 0.555894 0.432206
threshold=2.3510950000000003e-09 0.00025439800000000003 1.1181450000000004 2.8439950000000003e-06 -0.00023110499999999998 2.4838450000000008e-07 0.27809050000000007 0.00029851800000000006 -11.739649999999997 0.0056110350000000012 0.027087100000000006 0.00077247550000000018 -6.3288649999999989e-06 -5.8485049999999994
decision_type=2 2 2 2 2 2 2 2 2 2 2 2 2 2
left_child=1 3 -3 4 -1 6 7 -6 11 -10 12 -9 -11 -14
right_child=-2 2 -4 -5 5 -7 -8 8 9 10 -12 -13 13 -15
leaf_value=-0.0011880731842074418 1.1316971735679295e-05 -0.00038959117866951322 0.017679675682447851 0.00026684553875030433 0.00091773980208875641 -0.0020004054749726153 -0.00065519844123770291 -0.003261857311232969 -0.0046637637753424071 0.051558014674228617 -0.0056646297193682672 0.017947407613641449 0.039048955868929626 0.010581687146332114
leaf_weight=2988 205542 46 20 4355 1181 896 2288 141 38 20 33 35 20 30
leaf_count=2988 205542 46 20 4355 1181 896 2288 141 38 20 33 35 20 30
internal_value=0 -0.000192384 0.00508594 -0.000221354 -0.000498553 -5.85081e-05 0.000401064 0.00201437 0.00609991 0.0125208 0.0188607 0.000955894 0.0304227 0.0219686
internal_weight=0 12091 66 12025 7670 4682 3786 1498 317 141 103 176 70 50
internal_count=217633 12091 66 12025 7670 4682 3786 1498 317 141 103 176 70 50
shrinkage=0.15


Tree=637
num_leaves=15
num_cat=0
split_feature=13 20 20 19 23 11 3 1 21 28 1 0 29 1
split_gain=0.0195998 0.12165 0.229523 0.504711 0.300751 0.397371 0.371192 0.281231 0.416056 0.30647 0.75555 0.693186 0.382105 0.377683
threshold=1.2495850000000002e-05 -1.4508449999999999 2.2507550000000003 2.0955950000000004e-06 -12.104349999999998 6.9744250000000019e-05 -5.9751649999999996 -8.295614999999998 -10.174899999999997 0.0026132400000000006 -3.0565249999999993 2.2970950000000006 0.00017142400000000002 6.4391350000000012
decision_type=2 2 2 2 2 2 2 2 2 2 2 2 2 2
left_child=-1 -2 3 4 5 -3 7 8 -6 10 -9 13 -13 -11
right_child=1 2 -4 -5 6 -7 -8 9 -10 11 -12 12 -14 -15
leaf_value=4.5560570387612648e-05 0.00013586999007580259 -0.00015944238973971924 -2.6816317877300845e-06 -5.8180256879255831e-05 -0.022029392144014667 -0.0094104542546486897 3.5018659516449397e-05 -0.0063439812508491759 -0.0054207183247300516 -0.0021678251580470919 0.0015240039102321309 -0.011003705491170608 -0.0028599155974026011 0.013290732214227318
leaf_weight=107505 47703 2515 44912 11467 43 109 852 437 161 554 739 408 190 38
leaf_count=107505 47703 2515 44912 11467 43 109 852 437 161 554 739 408 190 38
internal_value=0 -4.44754e-05 -0.000182289 -0.000642891 -0.00175187 -0.000543726 -0.00267828 -0.00357778 -0.00892157 -0.00311703 -0.00139973 -0.00481414 -0.00841621 -0.00117555
internal_weight=0 110128 62425 17513 6046 2624 3422 2570 204 2366 1176 1190 598 592
internal_count=217633 110128 62425 17513 6046 2624 3422 2570 204 2366 1176 1190 598 592
shrinkage=0.15


Tree=638
num_leaves=15
num_cat=0
split_feature=23 3 3 23 3 23 4 4 29 11 11 25 4 18
split_gain=0.0196548 0.188316 0.244298 1.24869 1.03905 1.62518 1.22033 0.915144 1.07811 4.04864 3.28856 1.14705 0.869134 1.80108
threshold=-7.7292499999999995 -10.05805 -7.7871049999999995 -7.1280949999999992 -7.2547399999999991 -7.3437899999999994 -0.24573149999999996 0.25797000000000009 0.00083012400000000012 -1.9975949999999994e-06 -3.0675949999999993e-06 2.2251250000000002 -0.3422659999999999 4.8783150000000006e-06
decision_type=2 2 2 2 2 2 2 2 2 2 2 2 2 2
left_child=-1 -2 3 12 5 6 -4 8 10 -10 -8 -12 -3 -14
right_child=1 2 4 -5 -6 -7 7 -9 9 -11 11 -13 13 -15
leaf_value=-2.969938224488211e-05 0.00042716250013322008 0.0005558557914114796 -0.0028877964919956866 0.00032327442127436958 -0.00023596527699000895 0.00068585226003808214 -0.012133537170302588 0.00068414974494522779 0.017394306986683754 -0.019603003029929355 0.030442818970074503 -0.0047702523616506998 -0.0073714674785483039 -1.6614839974569172e-05
leaf_weight=151758 21952 1261 202 9555 25665 3393 60 179 234 93 219 23 1699 1340
leaf_count=151758 21952 1261 202 9555 25665 3393 60 179 234 93 219 23 1699 1340
internal_value=0 6.84193e-05 -0.000110875 -0.000632015 0.000129261 0.00225816 0.00754016 0.0101472 0.0128401 0.00687214 0.0193022 0.0270961 -0.00275476 -0.00412846
internal_weight=0 65875 43923 13855 30068 4403 1010 808 629 327 302 242 4300 3039
internal_count=217633 65875 43923 13855 30068 4403 1010 808 629 327 302 242 4300 3039
shrinkage=0.15


Tree=639
num_leaves=15
num_cat=0
split_feature=14 23 23 23 14 23 14 5 21 1 1 16 18 34
split_gain=0.0197975 0.152229 0.214555 0.115642 0.168007 0.159422 0.261364 0.312799 0.300351 2.50642 1.85771 1.44879 2.17092 1.62508
threshold=0.00018273250000000005 -8.9494349999999994 -16.670499999999997 -17.896049999999999 0.0050209550000000006 -7.8351449999999998 0.0036607600000000003 1.5574650000000005e-05 -6.1725999999999992 -5.6723049999999988 -9.6446499999999986 -2.5005099999999995e-06 -2.8754449999999997e-05 0.13570050000000003
decision_type=2 2 2 2 2 2 2 2 2 2 2 2 2 2
left_child=1 2 -1 4 -2 6 7 -5 9 10 -9 -12 -13 -14
right_child=3 -3 -4 5 -6 -7 -8 8 -10 -11 11 12 13 -15
leaf_value=-0.00053559987411022983 0.0010266429277786683 -0.0001748476983318113 0.00045830866062295157 -0.0007239582761209639 -0.00026752452960038118 0.00016219410484561114 0.00010905380564559943 -0.0021548709951016449 -0.00022841078125166483 -0.001522843815409395 -0.00083620352052592303 -0.00029787657670540558 0.022509902119789885 0.0036852758308323643
leaf_weight=5907 5384 30353 28296 29229 3886 47559 41726 407 21267 2643 219 202 418 137
leaf_count=5907 5384 30353 28296 29229 3886 47559 41726 407 21267 2643 219 202 418 137
internal_value=0 6.9666e-05 0.000286657 -2.93797e-05 0.000484126 -6.2481e-05 -0.0001735 -0.000389739 -3.5108e-06 0.0011845 0.00635842 0.00990853 0.013017 0.0178631
internal_weight=0 64556 34203 153077 9270 143807 96248 54522 25293 4026 1383 976 757 555
internal_count=217633 64556 34203 153077 9270 143807 96248 54522 25293 4026 1383 976 757 555
shrinkage=0.15


Tree=640
num_leaves=15
num_cat=0
split_feature=12 34 37 9 31 20 9 20 21 2 20 2 1 21
split_gain=0.0205772 0.0333631 0.0335487 0.0221563 0.0450258 0.0443299 0.0266509 0.0463403 0.054076 0.0236491 0.0233758 0.0239837 0.0220326 0.0213399
threshold=-0.0010298699999999998 0.010841250000000002 -1.6329399999999996e-05 -0.00015489999999999997 0.020254700000000004 -16.050999999999998 -0.00019122799999999997 -8.7615399999999983 -0.34030149999999992 2.7053050000000005 -8.0805949999999971 3.0578500000000006 -4.9916099999999988 1.0000000180025095e-35
decision_type=2 2 2 2 2 2 2 2 2 2 2 2 2 2
left_child=1 -1 12 4 9 -6 10 8 -8 -2 11 -7 -3 -4
right_child=3 2 13 -5 5 6 7 -9 -10 -11 -12 -13 -14 -15
leaf_value=-0.00087330440037556765 0.00043126056036287322 -0.00051414773144544497 -0.00033937269390194334 1.3588169056239336e-06 0.0056889749647650329 -0.0012417662237793248 0.0097348673097763412 5.975649871831672e-05 0.00015050872719327274 0.0014092716463469459 -0.00021750038174571843 -0.0057984465797614702 -0.0055628338117413674 0.00026026417294605837
leaf_weight=1527 1687 37 2626 206390 28 362 27 206 26 830 1101 28 41 2717
leaf_count=1527 1687 37 2626 206390 28 362 27 206 26 830 1101 28 41 2717
internal_value=0 -0.000253985 -7.95341e-05 8.37597e-06 0.000345575 -0.000232277 -0.000327017 0.00107747 0.00503311 0.000753767 -0.000570988 -0.00156891 -0.00316794 -3.44479e-05
internal_weight=0 6948 5421 210685 4295 1778 1750 259 53 2517 1491 390 78 5343
internal_count=217633 6948 5421 210685 4295 1778 1750 259 53 2517 1491 390 78 5343
shrinkage=0.15


Tree=641
num_leaves=15
num_cat=0
split_feature=29 0 23 3 11 11 23 3 20 5 15 20 7 20
split_gain=0.0186831 0.274451 0.187439 0.956459 1.17395 0.728944 0.874231 1.5111 0.742052 0.638573 0.529614 0.542645 0.500308 0.481633
threshold=-0.0043203549999999988 -2.8116399999999993 -13.957949999999999 -13.890949999999998 2.9344900000000001e-05 0.00023119000000000001 -16.545699999999997 -16.266399999999997 0.4699020000000001 1.6288650000000002e-05 3.2778200000000004e-05 3.6148850000000006 2.6900950000000005e-05 5.0965200000000008
decision_type=2 2 2 2 2 2 2 2 2 2 2 2 2 2
left_child=1 -1 3 4 -3 6 13 10 -9 12 11 -8 -10 -6
right_child=-2 2 -4 -5 5 -7 7 8 9 -11 -12 -13 -14 -15
leaf_value=0.00043903246502684028 -3.1842480050458645e-05 -0.0027611736448513256 1.1200246880105121e-05 -0.0013522067006642104 -0.00019437276348446538 -7.9772446259983646e-05 0.0034182569238583784 -0.0058122903079492975 0.028551202224356663 0.03252697633882147 0.020776158351717252 -0.016357879785452192 0.012193450335283107 0.011228743346547273
leaf_weight=27373 142716 741 36028 9295 371 504 74 30 53 62 21 54 204 107
leaf_count=27373 142716 741 36028 9295 371 504 74 30 53 62 21 54 204 107
internal_value=0 6.06595e-05 -0.000157185 -0.000683981 0.00211258 0.00455275 0.00694495 0.0113432 0.0167421 0.0188632 -0.00130252 -0.0049248 0.0155668 0.00236268
internal_weight=0 74917 47544 11516 2221 1480 976 498 349 319 149 128 257 478
internal_count=217633 74917 47544 11516 2221 1480 976 498 349 319 149 128 257 478
shrinkage=0.15


Tree=642
num_leaves=15
num_cat=0
split_feature=23 14 14 7 33 3 18 29 11 0 6 13 25 3
split_gain=0.0195278 0.115011 0.19804 0.13306 0.148695 0.275476 0.279611 0.119249 0.194006 0.185865 0.0911663 0.0908303 0.0726945 0.105644
threshold=-16.783199999999997 0.00018273250000000005 0.0025176500000000002 4.4385900000000005e-05 0.00022867500000000004 -12.740499999999999 -7.8519049999999971e-06 0.0062745300000000013 -2.2158349999999994e-05 -4.1883099999999986 1.1377400000000002e-06 -5.8849649999999986e-07 1.7714450000000002 -12.740499999999999
decision_type=2 2 2 2 2 2 2 2 2 2 2 2 2 2
left_child=1 -1 3 4 7 6 -6 9 12 -3 11 -7 13 -9
right_child=-2 2 -4 -5 5 10 -8 8 -10 -11 -12 -13 -14 -15
leaf_value=-0.00042972755615460796 -1.4257724252704573e-05 0.002726990078724457 -0.00016928808319756418 0.00016490292379183326 0.028777005309239032 0.014037405007984489 0.0058800310254446221 -0.0067388044254118075 0.0033659650773043351 -0.00024761847653463051 -0.0023727496369678716 0.0030404316971450723 0.0026194905742448634 -7.7437630170607005e-05
leaf_weight=5670 197724 663 7392 2840 20 20 30 74 1079 1646 59 109 113 194
leaf_count=5670 197724 663 7392 2840 20 20 30 74 1079 1646 59 109 113 194
internal_value=0 0.000141599 0.000369102 0.000950347 0.00150704 0.00514329 0.0150388 0.00127742 0.00233848 0.000606503 0.0025115 0.00474539 -0.00057137 -0.00191677
internal_weight=0 19909 14239 6847 4007 238 50 3769 1460 2309 188 129 381 268
internal_count=217633 19909 14239 6847 4007 238 50 3769 1460 2309 188 129 381 268
shrinkage=0.15


Tree=643
num_leaves=15
num_cat=0
split_feature=12 28 23 3 7 14 23 3 14 14 23 30 14 3
split_gain=0.0196875 0.144538 0.10501 0.167409 0.151451 0.113716 0.103815 1.77105 1.21928 0.962145 0.563633 0.673194 0.502932 0.461484
threshold=-4.2234949999999994e-05 0.0020348000000000002 -17.743599999999997 -16.724049999999995 4.0151500000000003e-05 0.035036700000000011 -9.7994249999999976 -10.446599999999998 0.0031052900000000006 0.0005574960000000001 -10.7143 0.0036837650000000007 0.0075547300000000008 -10.05805
decision_type=2 2 2 2 2 2 2 2 2 2 2 2 2 2
left_child=1 -1 3 5 -5 -3 7 8 10 -8 11 -4 13 -11
right_child=-2 2 6 4 -6 -7 9 -9 -10 12 -12 -13 -14 -15
leaf_value=-0.0002318056476541342 3.4448324348277626e-05 -0.0072421049796534565 -0.0084127037667094673 0.0028323796505548382 0.00039201148520642706 0.0022620105887264279 -0.0013704123624619171 0.0011852703666697946 -0.00070756331278379488 0.0030105815904344362 -0.00014257546542557472 -0.00058495837150823401 3.6056393765783097e-05 0.00049486869996818149
leaf_weight=46191 137479 87 1162 976 1383 42 5223 8208 3642 3850 362 314 5855 2859
leaf_count=46191 137479 87 1162 976 1383 42 5223 8208 3642 3850 362 314 5855 2859
internal_value=0 -5.90853e-05 0.000175821 0.00111395 0.00140168 -0.00414774 0.000101665 -0.000208876 -0.00229704 0.000340643 -0.0054466 -0.00674745 0.00105195 0.00193853
internal_weight=0 80154 33963 2488 2359 129 31475 13688 5480 17787 1838 1476 12564 6709
internal_count=217633 80154 33963 2488 2359 129 31475 13688 5480 17787 1838 1476 12564 6709
shrinkage=0.15


Tree=644
num_leaves=15
num_cat=0
split_feature=14 3 21 27 33 33 3 34 6 4 26 33 33 27
split_gain=0.0191128 0.102622 0.1283 0.122929 0.117273 0.110131 0.154278 0.3794 0.195952 0.327069 0.467994 0.583119 0.279936 0.213255
threshold=0.00018273250000000005 -8.2133949999999984 11.078550000000002 0.13359000000000001 2.0093250000000005e-06 -3.5237899999999998e-06 -6.9692649999999992 0.013987000000000001 2.1294400000000006e-06 -0.12716649999999999 0.00010885100000000002 2.0592650000000003e-05 -1.1664049999999997e-06 0.42340700000000003
decision_type=2 2 2 2 2 2 2 2 2 2 2 2 2 2
left_child=1 2 3 4 -1 -3 7 -7 12 10 -10 -12 -9 -14
right_child=-2 5 -4 -5 -6 6 -8 8 9 -11 11 -13 13 -15
leaf_value=0.00097695779346395283 -2.8867170756541448e-05 0.000305993719139962 0.0068236535907421694 0.00069627339430330839 0.017220858014188704 -0.0021518173328679692 1.5206872571828546e-05 -0.00482037265490426 -0.0010949946115847283 -0.0019136467990952337 0.032326655700388882 -0.0014659740698334644 0.0036811168638307551 0.00048166079934206234
leaf_weight=20 153077 21856 85 1899 20 2673 34236 171 76 1292 27 20 682 1499
leaf_count=20 153077 21856 85 1899 20 2673 34236 171 76 1292 27 20 682 1499
internal_value=0 6.84506e-05 0.00111966 0.000869613 0.00909891 3.44257e-05 -0.000111493 -0.000785048 0.000184788 -0.00121 0.00618114 0.0179468 0.00102391 0.00148213
internal_weight=0 64556 2024 1939 40 62532 40676 6440 3767 1415 123 47 2352 2181
internal_count=217633 64556 2024 1939 40 62532 40676 6440 3767 1415 123 47 2352 2181
shrinkage=0.15


Tree=645
num_leaves=15
num_cat=0
split_feature=28 15 17 3 4 17 23 35 16 17 36 11 22 20
split_gain=0.0191232 0.148798 0.174027 0.241948 0.238255 0.168136 0.129229 0.127918 0.454061 0.66938 0.571877 0.561543 0.710393 0.382624
threshold=0.040885500000000012 -1.9202999999999997e-08 -1.1483649999999998e-07 -18.639349999999997 0.095678400000000011 -1.0104099999999999e-05 -6.1917699999999991 0.0019468600000000001 6.935915000000001e-07 5.6114450000000008e-06 0.011532100000000002 1.8102500000000002e-05 1.1016150000000002 1.3240600000000002
decision_type=2 2 2 2 2 2 2 2 2 2 2 2 2 2
left_child=-1 -2 3 -3 -4 -5 7 -6 -9 10 -10 12 -12 -13
right_child=1 2 4 5 6 -7 -8 8 9 -11 11 13 -14 -15
leaf_value=1.4480248198393153e-05 -0.00055353959230558102 0.015091323314533967 0.001262440105179266 6.4443146375036515e-05 -0.0010036244616505679 -0.0025753799106246378 -0.0036642577869136651 -0.0014571652511991119 0.00018610536337493813 -0.00038746057577554894 0.0056607630662620064 -0.0053829138868189018 0.042959360654155412 0.011921555969664561
leaf_weight=196765 10014 21 4769 1246 1779 962 244 965 135 490 20 35 27 161
leaf_count=196765 10014 21 4769 1246 1779 962 244 965 135 490 20 35 27 161
internal_value=0 -0.000136535 0.000248198 -0.000933289 0.000553535 -0.0010857 -0.00032322 -9.75242e-05 0.000781882 0.00327115 0.00801379 0.0123625 0.0270876 0.00883147
internal_weight=0 20868 10854 2229 8625 2208 3856 3612 1833 868 378 243 47 196
internal_count=217633 20868 10854 2229 8625 2208 3856 3612 1833 868 378 243 47 196
shrinkage=0.15


Tree=646
num_leaves=15
num_cat=0
split_feature=19 27 14 3 34 37 4 23 14 23 36 14 31 5
split_gain=0.0171053 0.123663 0.142804 0.222141 0.233769 0.207711 0.254983 0.243889 0.242565 0.462378 0.17265 0.20094 0.184295 0.158006
threshold=8.4127500000000008e-10 0.17007200000000003 0.00015935200000000003 -9.2460099999999983 0.029848650000000001 -3.8525249999999996e-08 -0.041887649999999992 -6.9680999999999989 0.00025343850000000004 -8.1113849999999985 0.00062724800000000006 0.00023412000000000001 0.0087615500000000016 2.7724350000000002e-05
decision_type=2 2 2 2 2 2 2 2 2 2 2 2 2 2
left_child=1 -1 -3 -4 5 7 -7 10 13 -10 11 -5 -13 -8
right_child=-2 2 3 4 -6 6 8 -9 9 -11 -12 12 -14 -15
leaf_value=0.00144461791402996 7.1393651369292658e-06 0.00016486863456557512 -0.00045574589696269159 -0.0036867866865717444 -0.001402672195240997 -0.018165930407121778 -0.0019234217781698903 0.0035374573746230452 0.024348685243499601 -0.0044784133127259628 -0.027074676943011581 -0.026983140137046575 -0.0076648450945504005 -0.017611781875602899
leaf_weight=838 211536 2985 1605 39 399 22 52 20 21 31 20 25 20 20
leaf_count=838 211536 2985 1605 39 399 22 52 20 21 31 20 25 20 20
internal_value=0 -0.000247701 -0.000517365 -0.00141291 -0.00370924 -0.00711784 -0.00328365 -0.0116323 -0.000643242 0.0071633 -0.0145496 -0.0115674 -0.0183972 -0.0062813
internal_weight=0 6097 5259 2274 669 270 146 124 124 52 104 84 45 72
internal_count=217633 6097 5259 2274 669 270 146 124 124 52 104 84 45 72
shrinkage=0.15


Tree=647
num_leaves=15
num_cat=0
split_feature=27 11 13 3 3 37 5 6 4 4 4 18 13 13
split_gain=0.0168389 0.0557973 0.107086 0.0493668 0.0825579 0.0823867 0.0739006 0.0618613 0.0600491 0.0449136 0.0801931 0.18256 0.099965 0.135929
threshold=92.277850000000015 -0.00035091199999999994 0.00035714950000000008 -12.831349999999999 -12.508949999999999 1.2200700000000002e-05 8.1383150000000024e-06 -1.8658949999999999e-07 -0.63345599999999991 0.15990500000000005 1.1140750000000001 0.00010488150000000002 7.5104950000000017e-05 3.0847550000000002e-05
decision_type=2 2 2 2 2 2 2 2 2 2 2 2 2 2
left_child=-1 2 -2 5 -5 7 -6 -3 -7 -8 11 -11 13 -12
right_child=1 3 -4 4 6 8 9 -9 -10 10 12 -13 -14 -15
leaf_value=3.5623849793353499e-06 0.010098501647098601 -0.0018912147896896513 -0.00097120249034453397 0.008389648163574747 0.0061087184166771719 -0.0058838500762655541 -0.000111095664059799 -0.012581197570222588 0.0003072093233485964 -0.0025144243747520756 -0.00046070416781546198 -0.017093118306239257 -0.0031276980410965688 0.012230481925299888
leaf_weight=216058 32 21 51 24 37 47 848 29 141 121 59 23 114 28
leaf_count=216058 32 21 51 24 37 47 848 29 141 121 59 23 114 28
internal_value=0 -0.000488687 0.00329664 -0.000699264 -0.000323371 -0.00267981 -0.000493381 -0.0080914 -0.00124056 -0.000698141 -0.00214108 -0.00484297 -0.000205401 0.00362382
internal_weight=0 1575 83 1492 1254 238 1230 50 188 1193 345 144 201 87
internal_count=217633 1575 83 1492 1254 238 1230 50 188 1193 345 144 201 87
shrinkage=0.15


Tree=648
num_leaves=15
num_cat=0
split_feature=22 2 1 8 25 21 2 2 2 24 19 5 37 17
split_gain=0.0161024 0.051662 0.118957 0.0596476 0.0479922 0.0450015 0.264843 0.0542544 0.0298672 0.0275335 0.0277976 0.0244349 0.0223797 0.0180996
threshold=3.0909850000000003 2.5964800000000001 0.9044525000000001 -4.4186599999999995e-06 3.2458550000000002 -2.3406999999999996 -2.5276899999999993 -2.1781349999999997 -1.5033299999999998 0.17595900000000003 0.00019063950000000002 1.0995750000000002e-05 -7.9581249999999997e-08 1.6384450000000002e-06
decision_type=2 2 2 2 2 2 2 2 2 2 2 2 2 2
left_child=-1 5 -3 4 -4 6 -2 9 -8 -7 12 -10 -11 -13
right_child=1 2 3 -5 -6 7 8 -9 11 10 -12 13 -14 -15
leaf_value=-3.5069281330741799e-06 0.019238546944689006 0.0060671865387121214 -0.00075038325800499928 -0.011080575553173927 -0.0082039338617155757 -0.00065406423434492161 -0.0030664511935108089 0.00086858229174566486 0.0064208443792860793 -0.0030030313390307125 0.00015983539746230235 0.0022855382304914191 -0.0099359640999616434 -0.0018972362132362005
leaf_weight=216037 20 32 77 23 26 142 33 1046 23 20 20 79 22 33
leaf_count=216037 20 32 77 23 26 142 33 1046 23 20 20 79 22 33
internal_value=0 0.000474703 -0.00209991 -0.00417409 -0.00263186 0.000757588 0.00292131 0.000432164 0.000978781 -0.00180555 -0.00444282 0.00196762 -0.00663457 0.00105311
internal_weight=0 1596 158 126 103 1438 188 1250 168 204 62 135 42 112
internal_count=217633 1596 158 126 103 1438 188 1250 168 204 62 135 42 112
shrinkage=0.15


Tree=649
num_leaves=15
num_cat=0
split_feature=13 33 25 4 18 4 24 6 23 36 3 14 5 23
split_gain=0.015618 0.210769 0.192587 0.358496 0.370736 0.681206 0.433898 0.485786 0.39331 0.422754 0.260981 0.472455 0.35312 0.257525
threshold=4.7605950000000003e-06 2.5602950000000004e-06 0.17417250000000004 -0.094637399999999997 -6.4223749999999994e-07 0.090141900000000011 0.09433900000000002 2.1889100000000006e-06 -13.412199999999999 -0.00032155499999999995 -10.609449999999997 0.00013542600000000004 1.1207000000000001e-05 -10.428949999999999
decision_type=2 2 2 2 2 2 2 2 2 2 2 2 2 2
left_child=1 -1 3 -3 5 8 -7 -8 -5 -10 13 -12 -13 -11
right_child=-2 2 -4 4 -6 6 7 -9 9 10 11 12 -14 -15
leaf_value=0.00023765419673263218 -3.3560325364118999e-05 -0.0038598507529012515 -0.00013253781723815446 -6.0496529224518766e-05 -0.0013856928625223782 -0.013388473822103281 -0.0074954611131913904 0.021649247948715294 0.028649924131916901 0.014217933607287703 -0.00014639178166712204 0.0048243446434340018 0.02785025922918415 -0.006908332626649959
leaf_weight=53311 128205 917 33383 98 1403 70 31 22 28 20 39 22 47 37
leaf_count=53311 128205 917 33383 98 1403 70 31 22 28 20 39 22 47 37
internal_value=0 4.81125e-05 -0.000231663 -0.00144202 -0.000221788 0.00372256 -0.00563633 0.00460234 0.00767838 0.011608 0.00871599 0.0130499 0.0205087 0.000504392
internal_weight=0 89428 36117 2734 1817 414 123 53 291 193 165 108 69 57
internal_count=217633 89428 36117 2734 1817 414 123 53 291 193 165 108 69 57
shrinkage=0.15


Tree=650
num_leaves=15
num_cat=0
split_feature=18 38 14 23 37 6 4 12 14 13 4 38 23 1
split_gain=0.0161713 0.1559 0.188246 0.197737 0.204011 1.2511 0.905553 1.48677 0.930332 0.648001 0.763298 0.565014 0.577226 0.531982
threshold=1.1777600000000004e-06 -0.0065744399999999991 0.0067067750000000008 -14.455649999999997 -1.9762749999999996e-07 -3.0440899999999998e-07 0.85613250000000007 -0.00018440399999999996 0.00037299900000000005 1.1238550000000003e-05 0.34245300000000006 -0.010515899999999998 -12.7784 -6.9237799999999989
decision_type=2 2 2 2 2 2 2 2 2 2 2 2 2 2
left_child=-1 2 3 -2 5 -5 7 -7 -9 10 -10 12 -12 -14
right_child=1 -3 -4 4 -6 6 -8 8 9 -11 11 -13 13 -15
leaf_value=-2.8378994661282035e-05 -0.0023445022537245965 0.00014424359930948592 0.00033453493883283048 -0.0038920093069596492 -0.0013351653822899386 0.038990631919039197 -0.001871903723809404 -0.0027258445123152343 0.0035829738388760105 -0.0054614366342624031 -0.0023816003528391492 0.041877731097781139 -0.001206874105555471 0.025548108754789127
leaf_weight=146879 1828 61693 3526 660 2247 34 284 162 101 45 29 23 20 102
leaf_count=146879 1828 61693 3526 660 2247 34 284 162 101 45 29 23 20 102
internal_value=0 5.89123e-05 -0.000522077 -0.00106777 -0.000438188 0.000942298 0.0049306 0.00867462 0.00653614 0.011225 0.0139555 0.0199764 0.0166404 0.021162
internal_weight=0 70754 9061 5535 3707 1460 800 516 482 320 275 174 151 122
internal_count=217633 70754 9061 5535 3707 1460 800 516 482 320 275 174 151 122
shrinkage=0.15


Tree=651
num_leaves=15
num_cat=0
split_feature=34 12 28 14 3 3 19 23 22 23 3 19 3 22
split_gain=0.021827 0.0728978 0.12846 0.512752 0.306662 0.284543 0.342495 0.60172 0.863329 0.611949 0.85224 0.799482 0.737601 0.644363
threshold=0.25525800000000004 3.6299300000000007e-05 0.0063778750000000007 0.00062385550000000004 -6.2498799999999992 -11.583899999999998 0.0011548350000000001 -10.108199999999998 2.0667800000000005 -17.075499999999995 -17.068099999999998 6.4664700000000011e-07 -14.818499999999998 0.55088050000000011
decision_type=2 2 2 2 2 2 2 2 2 2 2 2 2 2
left_child=-1 -2 3 4 -3 6 7 8 9 12 -11 -12 -4 -13
right_child=1 2 5 -5 -6 -7 -8 -9 -10 10 11 13 -14 -15
leaf_value=-2.6369139843731597e-05 -5.5432577577947452e-05 0.0032118171076921296 0.0094192432864441834 -0.00010391701872226216 0.00042455698532451011 -0.0006721810925766164 -0.00023223636724890176 -0.0026741925470158494 -0.0022341934224900952 -0.006022840377409011 0.0035566296534878866 0.0052772453190950081 -0.007020611120255621 0.023725720712642992
leaf_weight=166369 31616 2212 139 6772 1484 6227 1741 308 263 53 105 56 110 178
leaf_count=166369 31616 2212 139 6772 1484 6227 1741 308 263 53 105 56 110 178
internal_value=0 8.55768e-05 0.000312478 0.000671652 0.00209269 -9.70906e-05 0.0011156 0.00305174 0.0050026 0.00797184 0.0116657 0.0144311 0.00215666 0.0193107
internal_weight=0 51264 19648 10468 3696 9180 2953 1212 904 641 392 339 249 234
internal_count=217633 51264 19648 10468 3696 9180 2953 1212 904 641 392 339 249 234
shrinkage=0.15


Tree=652
num_leaves=15
num_cat=0
split_feature=21 1 23 5 3 17 15 22 20 10 8 20 3 22
split_gain=0.0177609 0.664565 0.503161 0.771109 0.579102 0.445216 0.436353 0.327096 0.0792285 0.0606892 0.107343 0.155753 0.177187 0.10709
threshold=13.390900000000002 11.401950000000001 -7.162399999999999 4.5927850000000008e-05 -5.8104799999999992 1.2092100000000003e-07 -2.8024399999999995e-08 1.5383100000000003 -12.47265 1.8498100000000002e-05 -1.0770049999999999e-05 0.62171450000000006 -8.4006749999999979 1.3562350000000001
decision_type=2 2 2 2 2 2 2 2 2 2 2 2 2 2
left_child=-1 9 8 4 6 -6 7 -4 -3 10 11 12 -2 -13
right_child=1 2 3 -5 5 -7 -8 -9 -10 -11 -12 13 -14 -15
leaf_value=-5.2735674202385979e-06 -0.0067983886418217076 0.0072056803845316599 0.022532522959290476 -0.0087088732755389708 -0.0039323669376740734 0.0244299975677859 0.0090710248821415009 0.047319041971117255 -0.0035525075843445423 6.2028669166044607e-05 -0.00059037434660408523 -0.0063396229501010782 0.0092897122900467352 -0.020607201820967022
leaf_weight=214386 43 20 23 29 33 20 20 25 67 2467 427 29 24 20
leaf_count=214386 43 20 23 29 33 20 20 25 67 2467 427 29 24 20
internal_value=0 0.000348192 0.00799584 0.0132595 0.0185246 0.00677041 0.0276859 0.0354422 -0.00107936 -0.000253965 -0.00168961 -0.00573595 -0.00103549 -0.0121631
internal_weight=0 3247 237 150 121 53 68 48 87 3010 543 116 67 49
internal_count=217633 3247 237 150 121 53 68 48 87 3010 543 116 67 49
shrinkage=0.15


Tree=653
num_leaves=15
num_cat=0
split_feature=34 18 24 18 3 2 34 39 19 22 23 13 34 10
split_gain=0.0161921 0.0559733 0.242235 0.383389 0.240302 0.256813 0.376159 0.22915 0.405242 0.39056 0.581197 0.195884 0.200395 0.166013
threshold=0.25525800000000004 -8.7140049999999986e-06 -0.35208349999999994 -2.8754449999999997e-05 -10.912299999999998 -0.94252799999999992 0.97781150000000017 0.0012724150000000003 8.6333700000000013e-07 -0.92432499999999995 -15.369399999999997 3.7169250000000007e-05 0.29730450000000003 8.362345000000001e-06
decision_type=2 2 2 2 2 2 2 2 2 2 2 2 2 2
left_child=-1 2 3 13 5 6 -5 8 -7 -10 -11 12 -6 -2
right_child=1 -3 -4 4 11 7 -8 -9 9 10 -12 -13 -14 -15
leaf_value=-2.2711757884041755e-05 -0.013343666047281162 0.00017576320213709068 0.00038212583192276319 -0.01399691064317137 0.0066450509221547029 -0.012309820661321282 0.0017873980057298796 -0.001344189995698452 -0.0050908324480587906 0.002744813514618727 0.030909864122376722 -0.016945480363022895 -0.005382839596131817 -0.00028908561839803467
leaf_weight=166369 22 36001 8275 70 33 20 66 226 24 32 34 31 561 5869
leaf_count=166369 22 36001 8275 70 33 20 66 226 24 32 34 31 561 5869
internal_value=0 7.37073e-05 -0.000167013 -0.000817288 -0.00339198 -0.000837308 -0.00633688 0.00138871 0.00700357 0.0112954 0.0172541 -0.00532127 -0.00471462 -0.000337838
internal_weight=0 51264 15263 6988 1097 472 136 336 110 90 66 625 594 5891
internal_count=217633 51264 15263 6988 1097 472 136 336 110 90 66 625 594 5891
shrinkage=0.15


Tree=654
num_leaves=15
num_cat=0
split_feature=10 34 20 4 26 4 4 22 5 22 11 22 7 21
split_gain=0.0159499 0.0468732 0.0490293 0.238974 0.0478439 0.0620234 0.196022 0.0474647 0.108224 0.257096 1.18397 0.541886 0.696305 0.774817
threshold=6.1212250000000014e-05 6.2113650000000016 19.256550000000001 0.15498250000000002 0.0041053400000000007 -0.18992199999999995 -1.6509149999999997 -0.36388649999999995 1.9025600000000003e-05 0.33068600000000009 3.3308000000000007e-05 -0.16518399999999997 6.4638650000000019e-05 0.69646600000000014
decision_type=2 2 2 2 2 2 2 2 2 2 2 2 2 2
left_child=-1 2 7 -4 -3 6 -6 -2 9 10 -9 -12 -13 -14
right_child=1 4 3 -5 5 -7 -8 8 -10 -11 11 12 13 -15
leaf_value=-1.8965698700556375e-05 -8.1694001016807916e-05 -0.00024673236629306494 -0.0020974687479403133 0.017824055059463717 -0.0016015607614463078 -0.0011387304828109667 -0.017746969374180164 0.00064256972442859627 0.00011237598991023831 0.00036632182812054622 0.0017132088511348945 0.0084258975155535147 0.05212442609998915 0.014202043616255235
leaf_weight=178661 16717 728 42 20 64 220 23 551 17924 2556 38 40 27 22
leaf_count=178661 16717 728 42 20 64 220 23 551 17924 2556 38 40 27 22
internal_value=0 8.69453e-05 0.000114117 0.00432883 -0.000909007 -0.00247948 -0.00586989 0.000107218 0.000256477 0.00105514 0.00365191 0.0167082 0.0231106 0.0350981
internal_weight=0 38972 37937 62 1035 307 87 37875 21158 3234 678 127 89 49
internal_count=217633 38972 37937 62 1035 307 87 37875 21158 3234 678 127 89 49
shrinkage=0.15


Tree=655
num_leaves=15
num_cat=0
split_feature=1 21 3 26 23 34 23 3 13 20 20 14 21 17
split_gain=0.0161284 0.252075 0.456846 0.760041 0.685691 0.445365 0.341635 0.410878 0.484311 0.794039 0.704326 0.43893 0.23403 0.197397
threshold=-11.074449999999999 -12.050999999999998 -6.3035799999999993 -6.2146499999999992e-05 -6.4717399999999996 0.011583400000000002 -6.4717399999999996 -5.3638799999999991 -1.9371999999999994e-06 2.7610150000000004 0.27425600000000006 9.5139850000000004e-05 -7.3778749999999986 -4.2368999999999995e-07
decision_type=2 2 2 2 2 2 2 2 2 2 2 2 2 2
left_child=1 2 3 -1 5 -5 13 8 9 -8 11 -10 -3 -4
right_child=-2 12 6 4 -6 -7 7 -9 10 -11 -12 -13 -14 -15
leaf_value=-0.0058515747705362295 -1.062328956983355e-05 -0.0016593236969044461 0.0085956862335273571 0.042166678551584479 0.001615267014933814 0.013269294435158372 0.0055348905688151718 -0.0032363893409684016 -0.0021263180629767734 0.042579537075336862 -0.018461164009204365 0.022670453859245755 0.0002584141003993504 -0.0041753588265529681
leaf_weight=38 203837 1634 31 30 29 20 30 79 29 23 24 36 11569 224
leaf_count=38 203837 1634 31 30 29 20 30 79 29 23 24 36 11569 224
internal_value=0 0.00015696 0.0031824 0.0115801 0.0199649 0.0306077 0.00111826 0.00543487 0.010259 0.0216109 0.00349893 0.0116073 2.10753e-05 -0.0026228
internal_weight=0 13796 593 117 79 50 476 221 142 53 89 65 13203 255
internal_count=217633 13796 593 117 79 50 476 221 142 53 89 65 13203 255
shrinkage=0.15


Tree=656
num_leaves=15
num_cat=0
split_feature=33 6 2 22 22 3 0 22 2 3 2 22 1 34
split_gain=0.0163729 0.211767 0.158804 1.05642 1.16054 1.31942 1.00724 0.812804 1.84509 1.22258 0.851121 3.23254 2.76827 1.79321
threshold=1.9383450000000008e-06 3.1721050000000003e-07 2.3859450000000004 2.4063700000000003 1.6338900000000003 -7.2547399999999991 -9.801264999999999 2.3818600000000001 1.8243800000000003 -6.5186449999999985 1.7193250000000002 1.7323450000000002 10.829750000000002 0.26856750000000007
decision_type=2 2 2 2 2 2 2 2 2 2 2 2 2 2
left_child=-1 -2 7 4 -4 -6 -5 10 -9 -10 -3 -12 13 -13
right_child=1 2 3 6 5 -7 -8 8 9 -11 11 12 -14 -15
leaf_value=-3.5107015359838185e-05 0.00026058238097094271 -0.00010129040722477419 -0.00046580656537636013 -0.0021155856477985666 -0.0092114103207115699 -0.00084616675935538345 0.0045540833078719202 -0.00043631067597440951 -0.01084582456361308 -0.00075174639860302003 -0.00068844080600509948 0.012588029610417476 -0.0034236084288026673 -0.0012883483107278754
leaf_weight=125936 49090 22290 3841 825 879 820 1332 6058 709 436 3526 1197 440 254
leaf_count=125936 49090 22290 3841 825 879 820 1332 6058 709 436 3526 1197 440 254
internal_value=0 4.82157e-05 -0.000196464 -0.000813196 -0.00190972 -0.00517404 0.0020031 -6.04865e-05 -0.00148003 -0.00700214 0.000308552 0.00199498 0.00699854 0.0101589
internal_weight=0 91697 42607 7697 5540 1699 2157 34910 7203 1145 27707 5417 1891 1451
internal_count=217633 91697 42607 7697 5540 1699 2157 34910 7203 1145 27707 5417 1891 1451
shrinkage=0.15


Tree=657
num_leaves=15
num_cat=0
split_feature=3 20 0 34 20 11 28 20 11 21 4 4 23 14
split_gain=0.0179223 0.113253 0.350127 0.0553245 0.0453245 0.101279 0.0295663 0.0267623 0.0609909 0.026468 0.0263144 0.0283285 0.0238779 0.0824255
threshold=-5.1596199999999994 19.256550000000001 10.152250000000002 0.012110300000000003 -19.608449999999998 -3.174779999999999e-07 -1.7331449999999997 14.358700000000001 1.3255300000000002e-05 18.392150000000004 -0.13878399999999999 0.12699950000000002 -16.783199999999997 0.00019135550000000002
decision_type=2 2 2 2 2 2 2 2 2 2 2 2 2 2
left_child=12 3 -3 10 5 -5 -6 9 -9 -8 -2 -12 13 -1
right_child=1 2 -4 4 6 -7 7 8 -10 -11 11 -13 -14 -15
leaf_value=-0.00040502328632282907 0.0015396049646655321 -0.001204073368849508 0.022336906464520977 0.012780941283563151 0.0041786610043444044 -0.00053211429731163655 -5.8686776426973706e-05 -0.00061571581739604719 -0.0094663668755939328 0.004132569360273705 0.00023995327704877137 0.0013359733752111747 -2.8490703036590766e-05 0.00033141999221877964
leaf_weight=4533 585 44 21 20 37 36 11662 86 22 34 2758 657 183217 13921
leaf_count=4533 585 44 21 20 37 36 11662 86 22 34 2758 657 183217 13921
internal_value=0 0.000153004 0.00640147 0.000127455 -3.48017e-05 0.00422255 -5.49362e-05 -6.82065e-05 -0.00241863 -4.65029e-05 0.000610049 0.000450813 -1.21101e-05 0.000150522
internal_weight=0 15962 65 15897 11897 56 11841 11804 108 11696 4000 3415 201671 18454
internal_count=217633 15962 65 15897 11897 56 11841 11804 108 11696 4000 3415 201671 18454
shrinkage=0.15


Tree=658
num_leaves=15
num_cat=0
split_feature=37 17 19 4 4 24 4 19 26 1 22 33 22 2
split_gain=0.0155471 0.217178 0.565412 0.482891 0.466867 0.681107 0.747152 0.582981 0.910583 1.75434 2.00462 0.717215 0.622258 2.29781
threshold=1.7610800000000003e-07 -6.6467399999999989e-09 9.6074000000000005e-06 -0.15273349999999999 -0.89191049999999994 -0.82277699999999998 -0.7518554999999999 0.00094200300000000007 7.115370000000001e-05 -4.8475849999999987 -0.47921199999999992 0.00018864850000000001 -0.50150699999999981 -0.53906949999999998
decision_type=2 2 2 2 2 2 2 2 2 2 2 2 2 2
left_child=-1 2 -2 4 -3 6 -6 11 -9 10 -10 -7 13 -11
right_child=1 3 -4 -5 5 7 -8 8 9 12 -12 -13 -14 -15
leaf_value=-2.1086065746404412e-05 -0.0023955194281671966 -0.00030540379545200834 9.232617671460032e-05 2.6335524849844169e-05 0.024155520461499689 0.0011149968289452087 -0.0049470315425142516 0.0018797999910864982 0.05182501705130562 0.022634803487554839 -0.0047146008902927859 0.024513219711370764 0.010622301382909772 -0.011056634712505585
leaf_weight=170476 2688 1920 8734 30365 21 1687 362 690 43 69 21 30 393 134
leaf_count=170476 2688 1920 8734 30365 21 1687 362 690 43 69 21 30 393 134
internal_value=0 7.62277e-05 -0.000493152 0.000258219 0.00156942 0.0026128 -0.00335133 0.00335758 0.00568986 0.0096731 0.033273 0.00152382 0.00713889 0.000395135
internal_weight=0 47157 11422 35735 5370 3450 383 3067 1350 660 64 1717 596 203
internal_count=217633 47157 11422 35735 5370 3450 383 3067 1350 660 64 1717 596 203
shrinkage=0.15


Tree=659
num_leaves=15
num_cat=0
split_feature=33 15 22 13 10 25 13 3 6 11 11 2 6 21
split_gain=0.0155424 0.0840473 0.149437 0.273469 0.355803 0.596 0.338053 0.161043 0.135413 0.156776 0.143446 0.189859 0.175385 0.144796
threshold=5.2483250000000003e-05 -3.5308899999999996e-09 -0.66738199999999981 -5.8507799999999996e-05 4.2239600000000008e-05 5.1298050000000002 3.8126000000000001e-06 -6.0545599999999995 6.1107950000000011e-08 7.2693200000000004e-05 5.3877900000000008e-05 -0.71717999999999982 1.4354600000000002e-06 -5.2804599999999988
decision_type=2 2 2 2 2 2 2 2 2 2 2 2 2 2
left_child=-1 -2 3 4 5 -3 7 8 -5 10 11 12 -10 -12
right_child=1 2 -4 6 -6 -7 -8 -9 9 -11 13 -13 -14 -15
leaf_value=-1.1199073617965999e-05 0.00049068175106624172 0.02715959446299273 0.00030697938482896994 -0.00062300729552910463 -0.00041055694715451505 -0.0037137317842280025 -6.9792879152290096e-05 -0.00065425398633397807 -0.0034447157435069419 -0.014454926512553356 0.012715529616252752 -0.0026897267371798635 -0.011254409662496041 -0.0049191348371095955
leaf_weight=201876 7861 34 4908 153 99 24 1731 329 103 42 20 257 174 22
leaf_count=201876 7861 34 4908 153 99 24 1731 329 103 42 20 257 174 22
internal_value=0 0.000143481 -0.000202181 -0.00103851 0.00505511 0.0143844 -0.00137645 -0.00343265 -0.00461825 -0.00560736 -0.00496223 -0.00562609 -0.00835044 0.00347832
internal_weight=0 15757 7896 2988 157 58 2831 1100 771 618 576 534 277 42
internal_count=217633 15757 7896 2988 157 58 2831 1100 771 618 576 534 277 42
shrinkage=0.15


Tree=660
num_leaves=15
num_cat=0
split_feature=22 9 5 21 3 19 28 2 3 19 24 19 21 2
split_gain=0.0160001 0.0484924 0.0805724 0.0801954 0.0889959 0.217516 0.100354 0.0648361 0.0853895 0.176532 0.0631248 0.0635747 0.110868 0.239502
threshold=-2.9160599999999994 -3.8942849999999993e-05 9.6507650000000018e-06 -1.6499499999999998 -8.244114999999999 2.9382000000000002e-07 -0.052625149999999996 -2.9212349999999998 -6.3853549999999988 0.00077699300000000013 0.82179550000000012 1.8454150000000002e-07 -0.59612299999999985 -2.8982399999999995
decision_type=2 2 2 2 2 2 2 2 2 2 2 2 2 2
left_child=1 2 -1 4 5 -4 -6 -8 9 -9 11 12 13 -5
right_child=-2 -3 3 10 6 -7 7 8 -10 -11 -12 -13 -14 -15
leaf_value=-0.0073018529828494556 -7.8680788689800435e-06 0.00038676663598127429 -0.015026181109715252 0.014920629552997102 0.0089327129477169368 -0.0019992946442220398 0.0038743951927593095 -0.013240469940210459 4.155058749607373e-06 0.0006040639551640704 0.0073123144429450013 -0.00052019588331394411 -0.00035952557251596055 -0.00069027164117869695
leaf_weight=39 209782 6413 36 41 24 145 47 40 140 43 29 675 131 48
leaf_count=39 209782 6413 36 41 24 145 47 40 140 43 29 675 131 48
internal_value=0 0.000210238 -0.000577019 -0.00038955 -0.00197352 -0.00459028 -0.000362519 -0.00118876 -0.00225588 -0.006068 0.000424718 0.000201545 0.00241598 0.00650127
internal_weight=0 7851 1438 1399 475 181 294 270 223 83 924 895 220 89
internal_count=217633 7851 1438 1399 475 181 294 270 223 83 924 895 220 89
shrinkage=0.15


Tree=661
num_leaves=15
num_cat=0
split_feature=10 27 1 21 19 20 35 16 19 20 4 26 29 1
split_gain=0.0155393 0.0689671 0.0662567 0.101992 0.171536 0.329362 0.137176 0.300352 0.620002 1.36457 0.310751 0.597007 0.0750262 0.31978
threshold=4.5646050000000007e-05 0.19391650000000002 1.5967500000000003 1.4596200000000004 6.9776300000000011e-10 3.5535050000000004 -0.00019210499999999998 1.3299800000000001e-07 8.6333700000000013e-07 4.6422100000000013 0.019025200000000003 -5.810804999999999e-05 -0.004064589999999999 3.1026300000000004
decision_type=2 2 2 2 2 2 2 2 2 2 2 2 2 2
left_child=-1 2 -2 -4 5 -5 7 8 9 -6 -10 -12 13 -8
right_child=1 -3 3 4 6 -7 12 -9 10 -11 11 -13 -14 -15
leaf_value=-2.6051125011362714e-05 0.00010008311126762143 -1.2566701633701091e-05 0.00014892420599352558 -0.0016317542713791639 0.0012015819249261931 0.024964875153964384 0.021520972366652132 -0.0005745248145947548 -0.00045727164727428054 0.037882370468175323 0.027696768845365521 0.0015547885090021081 0.00031726611286911252 0.0002037599560265478
leaf_weight=153000 7280 52567 2473 22 55 20 20 291 224 39 29 61 1476 76
leaf_count=153000 7280 52567 2473 22 55 20 20 291 224 39 29 61 1476 76
internal_value=0 6.16685e-05 0.000385083 0.000818598 0.0015346 0.0110333 0.00135893 0.0031072 0.00573313 0.0164202 0.00253382 0.00997832 0.000581546 0.00464485
internal_weight=0 64633 12066 4786 2313 42 2271 699 408 94 314 90 1572 96
internal_count=217633 64633 12066 4786 2313 42 2271 699 408 94 314 90 1572 96
shrinkage=0.15


Tree=662
num_leaves=15
num_cat=0
split_feature=5 23 3 31 3 14 14 14 19 23 35 21 17 12
split_gain=0.0154323 0.0975171 0.189832 0.208499 0.199318 0.230118 0.176675 0.112939 0.107773 0.10575 0.133536 0.161964 0.161509 0.0975382
threshold=8.942730000000002e-06 -7.2957849999999995 -6.6271099999999992 -0.081079049999999986 -6.5186449999999985 6.7528100000000015e-05 7.0631650000000013e-05 0.00064274150000000012 1.1970700000000004e-10 -6.4159099999999993 0.00011638400000000002 -4.015274999999999 2.9103950000000003e-07 1.3207250000000003e-05
decision_type=2 2 2 2 2 2 2 2 2 2 2 2 2 2
left_child=1 13 7 6 5 -5 -4 8 -3 -6 11 -11 -12 -1
right_child=-2 2 3 4 9 -7 -8 -9 -10 10 12 -13 -14 -15
leaf_value=0.00027836673869394824 -1.1376974606849793e-05 0.012040543888695536 0.00063716731108275548 -0.0040241459062179694 -0.00023182495755619517 -0.023500150756444783 0.012875628133770078 0.00046083027942009385 0.0021059876150542048 -0.0095876896432233287 -0.0048417447686645299 0.0026071541271686211 -0.02157232203288004 -0.00057683923849369658
leaf_weight=7545 201302 25 101 39 350 21 36 1641 1427 38 37 69 20 4982
leaf_count=7545 201302 25 101 39 350 21 36 1641 1427 38 37 69 20 4982
internal_value=0 0.000140237 0.000805401 -0.00140469 -0.0026596 -0.0108407 0.00385311 0.00131344 0.00227704 -0.00170461 -0.00484774 -0.00172372 -0.0107121 -6.17495e-05
internal_weight=0 16331 3804 711 574 60 137 3093 1452 514 164 107 57 12527
internal_count=217633 16331 3804 711 574 60 137 3093 1452 514 164 107 57 12527
shrinkage=0.15


Tree=663
num_leaves=15
num_cat=0
split_feature=3 23 14 14 30 23 14 3 35 1 21 6 33 23
split_gain=0.0145796 0.104964 0.309695 0.207734 0.263931 0.188235 2.7093 0.833643 0.376007 0.214526 1.10285 0.273483 0.430164 0.198757
threshold=-8.1765499999999971 -7.3218799999999993 0.00019135550000000002 0.004267840000000001 0.00050264600000000015 -8.2043399999999984 0.0006072295000000001 -10.010399999999999 0.022046900000000005 -5.8410299999999991 -8.2799499999999977 8.165010000000003e-06 2.6581300000000008e-06 -9.0957449999999991
decision_type=2 2 2 2 2 2 2 2 2 2 2 2 2 2
left_child=1 5 -3 4 -4 13 7 -7 9 10 -9 -11 -13 -1
right_child=-2 2 3 -5 -6 6 -8 8 -10 11 -12 12 -14 -15
leaf_value=-0.00013088704332945653 4.0574814728382152e-05 0.0037236723918917642 0.00096641953930150291 -0.00028963857405901457 -0.00052699295010869864 -0.00023269962460628185 0.0003934912410511396 -0.02507315210479481 0.0011765661015467161 -0.0058042624076461548 -0.0062327685302588009 -0.0044871417309848526 -0.03064957634330942 0.00053858022447335276
leaf_weight=61808 104020 557 9764 12554 3661 608 10854 88 130 1293 340 31 26 11899
leaf_count=61808 104020 557 9764 12554 3661 608 10854 88 130 1293 340 31 26 11899
internal_value=0 -3.71489e-05 0.000224026 0.000148993 0.000559166 -0.00011674 -0.000634559 -0.00506956 -0.00661086 -0.00718025 -0.0101065 -0.00625252 -0.0164209 -2.28106e-05
internal_weight=0 113613 26536 25979 13425 87077 13370 2516 1908 1778 428 1350 57 73707
internal_count=217633 113613 26536 25979 13425 87077 13370 2516 1908 1778 428 1350 57 73707
shrinkage=0.15


Tree=664
num_leaves=15
num_cat=0
split_feature=34 8 21 4 4 38 26 28 3 4 28 38 4 28
split_gain=0.0166585 0.0642191 0.181072 0.105208 0.168741 0.442215 0.173816 0.13464 0.106479 0.266797 0.143849 0.129055 0.249616 0.230271
threshold=0.25525800000000004 -1.0526099999999999e-05 0.097500650000000008 0.25797000000000009 1.4356200000000003 -0.0065744399999999991 0.03129645000000001 0.42198050000000004 -6.1122599999999991 -0.16343149999999998 -0.019330349999999996 0.006464295000000001 -1.4177149999999996 0.27249850000000003
decision_type=2 2 2 2 2 2 2 2 2 2 2 2 2 2
left_child=-1 2 3 8 5 7 -6 -5 9 11 -11 -2 -13 -14
right_child=1 -3 -4 4 6 -7 -8 -9 -10 10 -12 12 13 -15
leaf_value=-2.3036508989274974e-05 0.0015711264815409501 -3.0695217246939788e-05 -0.00020383654124910426 -0.0059094659909132421 0.0005734348528411852 0.0013750346074281666 0.011774685360160219 -0.01872766239568591 0.00028223934870760662 0.003853451723340489 0.0010954591067757066 0.0011347268989697493 -0.0051441833059822327 0.0092705930531438857
leaf_weight=166369 935 36760 7038 236 1202 334 32 20 1956 1232 650 516 326 27
leaf_count=166369 935 36760 7038 236 1202 334 32 20 1956 1232 650 516 326 27
internal_value=0 7.47613e-05 0.000342038 0.000856619 -0.000133699 -0.00222021 0.000863905 -0.00691089 0.00117678 0.00165147 0.0029009 0.000348018 -0.000967985 -0.00404164
internal_weight=0 51264 14504 7466 1824 590 1234 256 5642 3686 1882 1804 869 353
internal_count=217633 51264 14504 7466 1824 590 1234 256 5642 3686 1882 1804 869 353
shrinkage=0.15


Tree=665
num_leaves=15
num_cat=0
split_feature=19 33 3 14 34 14 23 23 11 20 23 3 6 23
split_gain=0.0177958 0.0864414 0.0886986 0.163154 0.147397 0.129113 0.246404 0.248084 0.156197 0.18087 0.108516 0.210772 0.107108 0.0980655
threshold=1.5867800000000003e-08 4.9819250000000006e-06 -6.0288849999999989 0.00022740750000000003 0.42331500000000005 0.0012017500000000003 -13.750649999999998 -8.3964149999999993 2.3517950000000001e-05 3.8385900000000004 -14.139049999999997 -15.871649999999999 -4.1758099999999998e-06 -9.0165099999999985
decision_type=2 2 2 2 2 2 2 2 2 2 2 2 2 2
left_child=1 -1 3 4 13 6 -5 8 -8 -10 11 -7 -11 -3
right_child=-2 2 -4 5 -6 10 7 -9 9 12 -12 -13 -14 -15
leaf_value=-0.00027937721772690571 1.66457764682726e-05 0.002638416540475965 -0.00027817603233541011 0.0014859934812309044 -0.00024738965918218934 -0.0130313985579615 -0.0027472972270046621 0.0017538687796131685 -0.0043863470198817235 -0.0086568875681428663 0.0034498283904827688 0.0016152040739055543 -0.02145564141350665 0.00030929677373558876
leaf_weight=20095 189147 1612 3532 519 886 29 496 218 107 31 296 93 28 544
leaf_count=20095 189147 1612 3532 519 886 29 496 218 107 31 296 93 28 544
internal_value=0 -0.000110528 0.000293837 0.000709632 0.00138139 -0.000415021 -0.00110618 -0.00263497 -0.00408024 -0.00806302 0.00189821 -0.00186637 -0.0147309 0.00205074
internal_weight=0 28486 8391 4859 3042 1817 1399 880 662 166 418 122 59 2156
internal_count=217633 28486 8391 4859 3042 1817 1399 880 662 166 418 122 59 2156
shrinkage=0.15


Tree=666
num_leaves=15
num_cat=0
split_feature=0 20 20 25 3 37 10 6 20 34 0 20 18 20
split_gain=0.0149015 0.124645 0.142435 0.400896 0.303349 0.241385 0.147981 0.185199 0.226327 0.071042 0.0442806 0.336766 0.26202 0.131072
threshold=11.559500000000002 6.9272550000000015 13.471950000000001 6.1968050000000012 -6.0020699999999989 4.6045400000000001e-08 3.7312300000000012e-05 -5.8873849999999995e-06 19.256550000000001 0.011875250000000002 11.960450000000002 10.878150000000002 -7.2267849999999994e-08 11.056200000000002
decision_type=2 2 2 2 2 2 2 2 2 2 2 2 2 2
left_child=-1 9 10 4 -4 -6 -5 -8 -9 -2 11 -3 -13 -12
right_child=1 2 3 6 5 -7 7 8 -10 -11 13 12 -14 -15
leaf_value=-9.0274281780156486e-06 0.0012189489675792982 -0.0026241749385148565 0.027127237744363288 -0.012349238814427876 -0.0046906537015456709 0.016602171511065376 -0.009239656361751258 -0.0027142573439050467 0.016206843737047165 0.00018773176908193836 -0.00095309378995393941 0.016673502178055907 -0.0010959492128511722 -0.0044830219532237554
leaf_weight=206699 1909 220 21 26 25 23 29 33 25 7070 1181 43 33 296
leaf_count=206699 1909 220 21 26 25 23 29 33 25 7070 1181 43 33 296
internal_value=0 0.000170657 -0.000914719 0.00308146 0.0120907 0.00551216 -0.00241973 0.000547708 0.00544139 0.000406976 -0.00132493 0.00034958 0.00895782 -0.00166051
internal_weight=0 10934 1955 182 69 48 113 87 58 8979 1773 296 76 1477
internal_count=217633 10934 1955 182 69 48 113 87 58 8979 1773 296 76 1477
shrinkage=0.15


Tree=667
num_leaves=15
num_cat=0
split_feature=12 34 32 32 0 13 13 22 32 4 33 13 14 25
split_gain=0.0147316 0.0538411 0.0259327 0.0285639 0.0666109 0.0319275 0.0237505 0.156422 0.0221425 0.0179844 0.0657568 0.0609635 0.038742 0.0425534
threshold=0.0010208900000000002 0.012110300000000003 -22.304899999999996 -2.4186349999999996 4.0166200000000005 0.00014651200000000004 -1.5008599999999999e-05 1.7323450000000002 -0.0089460299999999989 2.6382950000000007 -2.7857349999999998e-06 2.0522500000000002e-05 0.0022836250000000005 0.43236550000000001
decision_type=2 2 2 2 2 2 2 2 2 2 2 2 2 2
left_child=9 8 -3 4 5 -4 7 -5 -2 -1 11 -11 13 -12
right_child=1 2 3 6 -6 -7 -8 -9 -10 10 12 -13 -14 -15
leaf_value=-8.6857021701499161e-06 -0.00032009653322673427 0.0044154299908404941 -0.0080900440640423611 -0.00068952380801214151 0.0054031339075290815 -0.0020657297707715205 6.4667589722924605e-06 0.0115791035615257 -0.0014536385092360541 0.001153152823592735 0.00098714220269697736 0.00023376179024716125 -0.00019127683537489349 -0.00014287018883999371
leaf_weight=187038 666 30 23 106 25 142 4767 30 928 2103 1476 7106 11669 1524
leaf_count=187038 666 30 23 106 25 142 4767 30 928 2103 1476 7106 11669 1524
internal_value=0 -0.000218686 1.82017e-05 -7.69992e-06 -0.00181224 -0.00290548 6.22294e-05 0.00201679 -0.000980026 6.96445e-06 0.000129553 0.000443717 -6.76748e-05 0.000413096
internal_weight=0 6717 5123 5093 190 165 4903 136 1594 210916 23878 9209 14669 3000
internal_count=217633 6717 5123 5093 190 165 4903 136 1594 210916 23878 9209 14669 3000
shrinkage=0.15


Tree=668
num_leaves=15
num_cat=0
split_feature=1 21 27 4 21 23 10 4 23 1 6 26 6 19
split_gain=0.0144329 0.0752788 0.299349 0.123009 0.0747803 0.0756227 0.0671166 0.0731969 0.0372193 0.0571575 0.0588317 0.0309047 0.0351706 0.0275361
threshold=-12.647449999999997 -13.410549999999999 0.58283300000000005 -0.14309299999999997 -9.9910249999999987 -9.5021749999999994 1.9878000000000005e-05 -0.10054099999999999 -6.1631349999999996 -13.194799999999999 -9.7029549999999982e-07 -8.0691299999999984e-05 -9.2955299999999983e-07 2.1691500000000004e-05
decision_type=2 2 2 2 2 2 2 2 2 2 2 2 2 2
left_child=1 2 -1 -4 6 -6 7 -3 13 -10 -11 12 -8 -7
right_child=-2 4 3 -5 5 8 11 -9 9 10 -12 -13 -14 -15
leaf_value=0.017524416126564444 -6.9918723295285645e-06 -0.01269715377764607 0.010114282888493366 -0.0028371398254409554 -0.00022257459793296699 0.0012883096185043158 0.0075855927148950281 -0.003065856414959062 0.00016059496138371866 -0.00018384027893521957 -0.011165042320752274 -0.0013923090051088814 -0.00025969037342292721 0.00029970665569110461
leaf_weight=28 210729 22 21 77 3340 1874 20 92 165 21 23 227 36 958
leaf_count=28 210729 22 21 77 3340 1874 20 92 165 21 23 227 36 958
internal_value=0 0.000213411 0.00384622 -6.1835e-05 0.000145879 0.000270154 -0.00185161 -0.00492453 0.000811329 -0.00112038 -0.00592401 -0.00061375 0.0025422 0.000953888
internal_weight=0 6904 126 98 6778 6381 397 114 3041 209 44 283 56 2832
internal_count=217633 6904 126 98 6778 6381 397 114 3041 209 44 283 56 2832
shrinkage=0.15


Tree=669
num_leaves=15
num_cat=0
split_feature=22 2 8 37 2 11 3 14 34 2 28 22 17 15
split_gain=0.0143652 0.544881 0.427148 0.477608 0.299844 0.220665 0.218485 0.190515 0.191775 0.184036 0.13696 0.130268 0.115149 0.0999444
threshold=3.0254700000000003 3.0126750000000002 -2.0980549999999997e-06 -1.1557849999999998e-07 2.5964800000000001 -0.00012009049999999999 -6.1920449999999994 0.00052710300000000012 0.16786050000000002 3.0578500000000006 0.00070742850000000003 3.0676500000000004 9.2459250000000025e-06 -2.3708699999999995e-05
decision_type=2 2 2 2 2 2 2 2 2 2 2 2 2 2
left_child=-1 4 9 -4 -2 13 7 8 -7 10 -3 -5 -9 -6
right_child=1 2 3 11 5 6 -8 12 -10 -11 -12 -13 -14 -15
leaf_value=-5.3174177718901786e-06 0.00029055310861780131 -0.0027229550321036101 0.030856892358391515 0.01583587123733014 -0.0038944630406990226 -0.023696232172263014 -0.0010854707440012136 0.0036962070479057726 -0.0065834168008143974 -0.011319685415946879 0.014212675316126218 0.001384698044785182 -0.012207150871732403 0.0055542473738569246
leaf_weight=213567 3647 22 31 25 53 41 60 20 23 22 21 32 21 48
leaf_count=213567 3647 22 31 25 53 41 60 20 23 22 21 32 21 48
internal_value=0 0.000279298 0.00906078 0.0158724 -6.40618e-05 -0.00492602 -0.00830617 -0.0124323 -0.0175463 -0.000161106 0.00554793 0.00772293 -0.00444942 0.000596013
internal_weight=0 4066 153 88 3913 266 165 105 64 65 43 57 41 101
internal_count=217633 4066 153 88 3913 266 165 105 64 65 43 57 41 101
shrinkage=0.15


Tree=670
num_leaves=15
num_cat=0
split_feature=22 2 13 17 33 18 10 18 6 13 36 9 1 19
split_gain=0.0150266 0.0968429 0.0252777 0.0334626 0.0299956 0.0631252 0.0268678 0.0250688 0.0208822 0.0178763 0.0486453 0.0240369 0.0158316 0.0138045
threshold=3.1180850000000002 2.9161550000000003 1.2178900000000001e-05 -2.2187899999999997e-07 7.250400000000002e-07 -7.9834699999999997e-07 4.3203550000000004e-05 -2.1803199999999994e-06 1.0901450000000003e-06 2.7430950000000002e-05 9.5653350000000022e-06 -5.0131499999999999e-05 5.5255250000000009 2.3510950000000003e-09
decision_type=2 2 2 2 2 2 2 2 2 2 2 2 2 2
left_child=13 2 3 -2 6 -6 7 8 -5 10 12 -11 -4 -1
right_child=1 -3 9 4 5 -7 -8 -9 -10 11 -12 -13 -14 -15
leaf_value=-0.00015846307378896091 0.0067601926197249701 -0.0078564060482613999 -0.00098234642720154415 0.0028926938568474723 -0.0041978545463379384 0.0025312137797200564 -0.00040945015504733484 0.0020323700738136183 0.0084620882755023722 0.0057764703022985479 -0.0076226966865563187 0.00038578304053691964 0.0038437016274474444 6.7938250087844721e-06
leaf_weight=12042 29 29 65 28 55 73 52 98 33 20 23 268 20 204798
leaf_count=12042 29 29 65 28 55 73 52 98 33 20 23 268 20 204798
internal_value=0 0.000651766 0.00097472 0.00186975 0.00145139 -0.000360183 0.00255036 0.00351834 0.00590564 0.000142977 -0.00150278 0.000760136 0.000153194 -2.38356e-06
internal_weight=0 793 764 368 339 128 211 159 61 396 108 288 85 216840
internal_count=217633 793 764 368 339 128 211 159 61 396 108 288 85 216840
shrinkage=0.15


Tree=671
num_leaves=15
num_cat=0
split_feature=34 3 16 7 19 32 1 1 23 24 3 17 21 9
split_gain=0.0135202 0.0578729 0.113838 0.0981824 0.143116 0.191409 0.407434 0.546811 0.36903 0.570297 0.310875 0.254502 0.268304 0.435567
threshold=0.43971050000000006 -7.5114599999999987 -1.6260199999999997e-06 4.4778700000000005e-05 0.0031588650000000003 0.92545150000000009 -4.2723299999999993 -4.9060199999999989 -12.223399999999998 0.65903300000000009 -12.348199999999997 1.0455500000000003e-06 6.041335000000001 -9.2818899999999976e-06
decision_type=2 2 2 2 2 2 2 2 2 2 2 2 2 2
left_child=-1 2 3 4 5 11 7 8 10 -10 -7 12 -2 -14
right_child=1 -3 -4 -5 -6 6 -8 -9 9 -11 -12 -13 13 -15
leaf_value=-1.7112564816764107e-05 -0.0025201979522211137 -0.00014542607840910125 0.00047228847527705286 0.00031928976542013949 0.00011786446912273235 0.011113258983407702 -0.002418653266438905 0.020769767764804149 1.8073021637974305e-05 0.024814262354630044 -0.0097302562072518802 -0.0051517422618481456 0.02349655731054752 0.0013183789388096937
leaf_weight=179936 539 15120 15037 3634 2010 21 401 43 60 32 69 559 23 149
leaf_count=179936 539 15120 15037 3634 2010 21 401 43 60 32 69 559 23 149
internal_value=0 8.1682e-05 0.000233778 -0.000241882 -0.000763976 -0.00169884 0.000447846 0.00555658 0.00196226 0.00864283 -0.00486677 -0.00275697 -0.00087416 0.00428407
internal_weight=0 37697 22577 7540 3906 1896 626 225 182 92 90 1270 711 172
internal_count=217633 37697 22577 7540 3906 1896 626 225 182 92 90 1270 711 172
shrinkage=0.15


Tree=672
num_leaves=15
num_cat=0
split_feature=3 21 2 30 20 17 18 4 20 0 20 34 33 23
split_gain=0.0139368 0.0800507 0.242903 0.0350387 0.0322595 0.170223 0.0255754 0.0309861 0.0214538 0.0380266 0.0194324 0.0593538 0.030309 0.0189343
threshold=-5.1596199999999994 18.392150000000004 0.54726450000000015 0.00011609500000000002 19.256550000000001 9.9555800000000016e-07 7.6855900000000007e-07 -0.11634449999999999 15.858650000000003 4.2981800000000012 -19.608449999999998 4.1501900000000012 0.0031288150000000005 -23.590149999999998
decision_type=2 2 2 2 2 2 2 2 2 2 2 2 2 2
left_child=13 3 -3 6 8 -6 7 -2 10 -10 11 -5 -12 -1
right_child=1 2 -4 4 5 -7 -8 -9 9 -11 12 -13 -14 -15
leaf_value=-0.00073897550580556985 0.001593615294652066 -0.0030525356064117657 0.016466583423943328 0.0090113121953826134 -0.0029120428516762331 0.014264363551878236 0.0018672616577175404 0.00015271794633659128 0.00022525760127351649 -0.0081640106253325941 -2.3012546707720485e-06 -0.0016214162447593279 0.0055698570118693164 -7.7784767797359284e-06
leaf_weight=800 422 32 26 21 34 21 331 1644 31 20 13331 27 22 200871
leaf_count=800 422 32 26 21 34 21 331 1644 31 20 13331 27 22 200871
internal_value=0 0.000134924 0.00569741 0.000114638 2.08457e-05 0.00364622 0.000643153 0.000447035 6.02296e-06 -0.00306465 1.7709e-05 0.0030304 6.87927e-06 -1.0679e-05
internal_weight=0 15962 58 15904 13507 55 2397 2066 13452 51 13401 48 13353 201671
internal_count=217633 15962 58 15904 13507 55 2397 2066 13452 51 13401 48 13353 201671
shrinkage=0.15


Tree=673
num_leaves=15
num_cat=0
split_feature=3 19 33 33 13 25 20 3 21 33 22 10 33 25
split_gain=0.013329 0.0680151 0.166437 0.176316 0.339372 0.356684 0.279182 0.223973 0.195828 0.149708 0.0853588 0.215945 0.0927595 0.174642
threshold=-16.559399999999997 4.9230750000000014e-07 1.4107600000000003e-06 -2.6211299999999998e-05 4.2555350000000006e-05 4.5053550000000007 -4.0797899999999991 -17.729749999999996 -0.95562549999999991 -1.7962349999999996e-05 -1.2658949999999998 1.2738000000000001e-05 3.3399000000000003e-05 0.61926450000000011
decision_type=2 2 2 2 2 2 2 2 2 2 2 2 2 2
left_child=1 2 3 4 5 -1 -6 -8 -9 -5 11 -4 -12 -14
right_child=-2 -3 10 9 6 -7 7 8 -10 -11 12 -13 13 -15
leaf_value=-0.020380713984327895 -7.9146844936524366e-06 3.5257401559746905e-05 -0.013355700091712854 -0.01121896244518991 -0.0054562956338486401 0.0072970648971386245 0.0039207990534902946 0.0086846744708600453 0.028427346820871419 -0.00099157698050588859 0.0056045866627786288 0.0063520536659654745 -0.010857557292911225 0.0045653758730897498
leaf_weight=22 208170 8455 22 35 24 20 35 20 26 403 295 29 24 53
leaf_count=22 208170 8455 22 35 24 20 35 20 26 403 295 29 24 53
internal_value=0 0.00017411 0.00133879 -0.000300209 0.00419488 -0.00720082 0.00875316 0.0129634 0.0198436 -0.00180883 0.00360549 -0.00214933 0.00439445 -0.000241772
internal_weight=0 9463 1008 585 147 42 105 81 46 438 423 51 372 77
internal_count=217633 9463 1008 585 147 42 105 81 46 438 423 51 372 77
shrinkage=0.15


Tree=674
num_leaves=15
num_cat=0
split_feature=10 33 30 22 31 23 13 14 23 22 2 26 4 4
split_gain=0.0133248 0.207619 0.18115 0.186714 0.512922 0.618778 0.747605 1.26013 0.869111 0.571204 0.803571 0.454376 1.42194 0.824101
threshold=1.2120050000000001e-05 -7.2168499999999994e-06 0.00020358650000000002 1.9437700000000002 -0.058761649999999992 -8.5214449999999982 1.5036500000000002e-05 0.00045556800000000005 -9.355299999999998 -1.6187749999999999 -1.5873099999999998 -4.1290149999999996e-05 0.019025200000000003 -0.019882549999999995
decision_type=2 2 2 2 2 2 2 2 2 2 2 2 2 2
left_child=1 -1 -3 4 -4 6 7 8 -6 10 -9 12 -11 -13
right_child=-2 2 3 -5 5 -7 -8 9 -10 11 -12 13 -14 -15
leaf_value=-0.00095318968120331089 -8.2928296276864461e-06 -0.00038912073290901767 -2.5968335050057918e-05 -0.00040370421000071848 -0.0055657721157561504 0.00033244809224090583 0.00014804064474329575 0.027525790518319066 0.021903699515537629 -0.0075202818658416624 -0.0056403474850006971 0.030094908772651769 0.02076921820277268 0.0086040128179145255
leaf_weight=2741 207285 2802 1840 1304 158 728 310 22 31 61 65 105 116 65
leaf_count=2741 207285 2802 1840 1304 158 728 310 22 31 61 65 105 116 65
internal_value=0 0.000166117 0.000569432 0.00112841 0.00169906 0.00360999 0.00616739 0.00916258 -0.0010602 0.0136144 0.00274649 0.0163392 0.0110197 0.0218778
internal_weight=0 10348 7607 4805 3501 1661 933 623 189 434 87 347 177 170
internal_count=217633 10348 7607 4805 3501 1661 933 623 189 434 87 347 177 170
shrinkage=0.15


Tree=675
num_leaves=15
num_cat=0
split_feature=29 9 11 31 9 20 14 10 20 9 14 23 3 23
split_gain=0.0136684 0.192304 0.118407 0.242778 0.743899 0.69241 0.603172 0.41431 0.686295 0.658734 0.844161 1.67961 1.37552 1.72221
threshold=-0.0043203549999999988 -2.3129099999999998e-05 -3.4894799999999992e-06 0.0037424000000000003 -1.4992599999999998e-05 2.2507550000000003 0.0064171350000000009 2.1566150000000004e-05 -3.4919999999999995 -1.4567849999999998e-05 0.0023568750000000005 -14.361299999999998 -7.4471299999999987 -7.9565749999999991
decision_type=2 2 2 2 2 2 2 2 2 2 2 2 2 2
left_child=1 -1 3 4 -2 6 -6 8 -5 -10 11 -11 13 -13
right_child=2 -3 -4 7 5 -7 -8 -9 9 10 -12 12 -14 -15
leaf_value=0.00042555253138602296 -0.00013262677169002357 -0.00010267837978238524 0.00010144287296648408 -6.0537423311059925e-05 -0.0073157207158894063 -0.00082495712817356375 -0.0013313286345192959 -0.00023964035593202054 -0.00058702366734208686 -0.0033924877557450872 0.0010186848706957956 0.015927942965838434 -7.0875493153619193e-05 -0.00055105505328675787
leaf_weight=21921 13707 52996 75631 7426 942 2295 634 38105 1182 316 1391 624 278 185
leaf_count=21921 13707 52996 75631 7426 942 2295 634 38105 1182 316 1391 624 278 185
internal_value=0 5.1884e-05 -2.72359e-05 -0.000172307 -0.000651193 -0.00248741 -0.00490829 -2.27354e-06 0.000790996 0.00238141 0.00363721 0.00623333 0.00903164 0.0121596
internal_weight=0 74917 142716 67085 17578 3871 1576 49507 11402 3976 2794 1403 1087 809
internal_count=217633 74917 142716 67085 17578 3871 1576 49507 11402 3976 2794 1403 1087 809
shrinkage=0.15


Tree=676
num_leaves=15
num_cat=0
split_feature=22 1 21 12 2 7 23 19 13 1 22 13 0 0
split_gain=0.013899 0.0729645 0.0676124 0.0607103 0.0826195 0.050594 0.0441465 0.0972958 0.444578 0.169706 0.294087 0.257943 0.182044 0.169409
threshold=-2.8863399999999997 -4.5348499999999996 -3.5985549999999997 2.0701100000000001e-05 3.0333000000000006 4.398050000000001e-05 -9.6697249999999979 9.6074000000000005e-06 5.0947250000000009e-05 -1.7729049999999997 -2.9897199999999997 2.6806800000000002e-05 -7.9798249999999991 -6.821089999999999
decision_type=2 2 2 2 2 2 2 2 2 2 2 2 2 2
left_child=1 2 -1 6 -5 -4 7 8 9 10 -3 12 -11 -14
right_child=-2 3 5 4 -6 -7 -8 -9 -10 11 -12 -13 13 -15
leaf_value=-0.0018085111735984612 -7.748725116654344e-06 0.0012234954501036553 0.0016644090232080955 0.0002115551267524002 0.00943066041376865 0.00030155620904231983 -0.00010111922750681331 -0.00033493562439477988 -0.01789470717527105 -0.010451408155801657 -0.014433990831087115 0.014517652928932673 0.012176582025019273 -0.00098619812779106959
leaf_weight=201 208904 55 1364 3758 22 1113 1218 669 42 38 53 27 26 143
leaf_count=201 208904 55 1364 3758 22 1113 1218 669 42 38 53 27 26 143
internal_value=0 0.000185444 0.000837332 -0.000103063 0.000265211 0.00105203 -0.000716043 -0.00142732 -0.00333047 -0.00154188 -0.00646027 0.000728154 -0.00107048 0.00103884
internal_weight=0 8729 2678 6051 3780 2477 2271 1053 384 342 108 234 207 169
internal_count=217633 8729 2678 6051 3780 2477 2271 1053 384 342 108 234 207 169
shrinkage=0.15


Tree=677
num_leaves=15
num_cat=0
split_feature=12 23 5 14 23 8 29 11 19 14 0 6 37 18
split_gain=0.0128445 0.0138346 0.117067 0.116554 0.13726 0.196989 0.127381 0.177728 0.122639 0.122209 0.146489 0.127237 0.272433 0.0992862
threshold=-0.0023842849999999994 -7.8351449999999998 1.0554350000000002e-05 9.9284450000000011e-05 -6.1298999999999984 -8.9841999999999978e-06 0.0068817350000000008 1.6444850000000002e-05 1.1970700000000004e-10 0.000110883 8.270245000000001 2.8599100000000006e-06 2.8894100000000003e-08 -7.2267849999999994e-08
decision_type=2 2 2 2 2 2 2 2 2 2 2 2 2 2
left_child=-1 -2 3 4 8 -6 -5 9 -3 -8 11 -11 -13 -7
right_child=1 2 -4 6 5 13 7 -9 -10 10 -12 12 -14 -15
leaf_value=-0.00033394445024967264 -2.2016479022290384e-05 0.01103555611014599 -3.2417718439820796e-05 0.0010151036936073921 0.014589035788005026 0.0045101929214360391 -0.009071159109732 0.0014700519754232623 -0.00075451937841550633 -0.0012851140865978924 -0.013909555358477519 -0.003582771194167435 0.019905010988004502 -0.0016840438266578865
leaf_weight=2561 146625 20 56090 7487 29 119 46 741 2661 1075 20 25 20 114
leaf_count=2561 146625 20 56090 7487 29 119 46 741 2661 1075 20 25 20 114
internal_value=0 3.97649e-06 5.96578e-05 0.0004776 -0.000346331 0.00293059 0.000735177 -0.000352425 -0.000666567 -0.00149109 -0.00118523 -0.000958006 0.00685624 0.00147954
internal_weight=0 215072 68447 12357 2943 262 9414 1927 2681 1186 1140 1120 45 233
internal_count=217633 215072 68447 12357 2943 262 9414 1927 2681 1186 1140 1120 45 233
shrinkage=0.15


Tree=678
num_leaves=15
num_cat=0
split_feature=3 23 3 14 23 14 23 3 14 34 21 3 3 23
split_gain=0.0184314 0.0951615 0.210329 0.17222 0.239985 0.154551 0.147385 0.962451 1.04762 0.73845 0.396581 0.762911 0.394583 0.85327
threshold=-8.1765499999999971 -10.016399999999999 -6.1920449999999994 0.00054376850000000009 -17.896049999999999 0.0011649500000000003 -8.2043399999999984 -7.1641399999999988 0.00043225750000000003 0.0090768600000000008 9.8416500000000013 -7.9619399999999994 -7.3111649999999999 -7.4042949999999985
decision_type=2 2 2 2 2 2 2 2 2 2 2 2 2 2
left_child=-1 2 3 4 -2 -5 7 8 9 -3 -11 -12 13 -8
right_child=1 6 -4 5 -6 -7 12 -9 -10 10 11 -13 -14 -15
leaf_value=-4.1768887211700669e-05 -0.00068669305091971359 -0.012052165272473939 -0.00012576700232234502 -0.001250821670298298 0.0010800472301465594 0.00031867782223099267 0.0030679271807928649 0.00019132327497785841 7.9050273261990872e-05 -0.0038836544785312349 0.027888143121023088 -0.0020888575363642303 -0.00015593352157244563 -0.00011467714581609389
leaf_weight=113613 2005 250 21585 1788 12608 6707 2927 14768 2330 2248 26 72 31328 5378
leaf_count=113613 2005 250 21585 1788 12608 6707 2927 14768 2330 2248 26 72 31328 5378
internal_value=0 4.56209e-05 0.00021092 0.000525416 0.000837639 -1.16653e-05 -7.89042e-05 -0.000414296 -0.00222993 -0.00430231 -0.00347645 0.00586422 8.77552e-05 0.00100699
internal_weight=0 104020 44693 23108 14613 8495 59327 19694 4926 2596 2346 98 39633 8305
internal_count=217633 104020 44693 23108 14613 8495 59327 19694 4926 2596 2346 98 39633 8305
shrinkage=0.15


Tree=679
num_leaves=15
num_cat=0
split_feature=3 23 3 0 23 35 15 37 1 29 15 22 15 4
split_gain=0.0166307 0.171247 0.194007 0.157098 0.218663 0.147755 0.712146 0.355361 0.378033 0.355827 0.378739 0.253409 0.340945 0.23969
threshold=-6.4440149999999994 -6.3165649999999989 -5.8104799999999992 12.402900000000001 -6.1917699999999991 -0.000266047 -3.0041299999999994e-08 -2.7016799999999995e-08 -5.1384799999999986 0.016337600000000004 -4.3890749999999994e-07 1.6880500000000003 2.9583450000000003e-09 0.065355050000000012
decision_type=2 2 2 2 2 2 2 2 2 2 2 2 2 2
left_child=-1 -2 3 5 -5 6 7 9 -9 10 -3 12 -8 -7
right_child=1 2 -4 4 -6 13 11 8 -10 -11 -12 -13 -14 -15
leaf_value=-2.4656368345183679e-05 0.00013717247862590819 0.0022852906021289528 -3.1449130670239037e-05 0.0030808253501163562 -0.014126920713008277 -0.0010451151222825371 0.014931182149903971 0.015402815133333206 -0.0062115589514246151 -0.00028645694643879928 0.024489738265297743 -0.012363412137558498 -0.0051663788822116415 -0.0059747937070576225
leaf_weight=160783 53275 25 2142 24 54 571 23 25 67 36 56 80 109 363
leaf_count=160783 53275 25 2142 24 54 571 23 25 67 36 56 80 109 363
internal_value=0 6.97331e-05 -0.000935256 -0.00228623 -0.00883223 -0.00190942 0.000423634 0.00663704 -0.000338088 0.0121218 0.0176365 -0.00570184 -0.00166453 -0.00296104
internal_weight=0 56850 3575 1433 78 1355 421 209 92 117 81 212 132 934
internal_count=217633 56850 3575 1433 78 1355 421 209 92 117 81 212 132 934
shrinkage=0.15


Tree=680
num_leaves=15
num_cat=0
split_feature=20 11 14 3 23 35 29 23 3 13 15 12 11 13
split_gain=0.013829 0.117597 0.0968225 0.204254 0.0770542 0.0964424 0.074537 0.0744892 0.188012 0.315648 0.371345 0.29797 0.242515 0.173335
threshold=-8.1735049999999969 -8.0973149999999989e-06 0.0050209550000000006 -10.010399999999999 -9.713144999999999 0.95208850000000012 0.29393350000000007 -12.603149999999998 -12.195349999999999 1.5388300000000003e-05 -6.5062949999999993e-07 0.00018373550000000001 -7.2710199999999987e-05 6.0257150000000006e-05
decision_type=2 2 2 2 2 2 2 2 2 2 2 2 2 2
left_child=1 7 3 4 6 -6 -3 8 9 10 11 -1 13 -11
right_child=-2 2 -4 -5 5 -7 -8 -9 -10 12 -12 -13 -14 -15
leaf_value=0.013862452976671713 -1.3961036703288479e-05 -0.0020663665246127704 -0.00028561799653831958 0.00026563090557015011 0.0020505653856348711 0.010762486806448451 0.0025852626128937115 -0.00036279746060192627 -0.00033460569292813601 -0.014201923157088457 0.027564716230379416 -0.009088981440945644 0.012490801735989878 0.00042060892960044409
leaf_weight=35 191523 204 3689 8744 2025 29 125 10573 512 24 25 20 29 76
leaf_count=35 191523 204 3689 8744 2025 29 125 10573 512 24 25 20 29 76
internal_value=0 0.000102407 0.000380343 0.000601133 0.0018322 0.00217357 -0.00029903 -0.000262201 0.00121298 0.0050042 0.0124066 0.00551648 0.000413592 -0.0030888
internal_weight=0 26110 14816 11127 2383 2054 329 11294 721 209 80 55 129 100
internal_count=217633 26110 14816 11127 2383 2054 329 11294 721 209 80 55 129 100
shrinkage=0.15


Tree=681
num_leaves=15
num_cat=0
split_feature=24 4 6 14 4 5 14 14 26 14 3 14 14 4
split_gain=0.0134265 0.0444936 0.0864063 0.124434 0.236347 0.0921876 0.138692 0.0715036 0.068282 0.0376117 0.0551145 0.0303912 0.0275539 0.0265662
threshold=2.2465350000000002 0.0092838900000000012 3.5368000000000003e-07 0.0069509900000000006 3.2156650000000004 1.2123950000000001e-05 0.00099878550000000025 0.0026669950000000006 -0.0015752549999999998 0.0064171350000000009 -8.4006749999999979 0.0072867150000000009 0.00027515900000000003 -2.1668549999999995
decision_type=2 2 2 2 2 2 2 2 2 2 2 2 2 2
left_child=-1 11 3 7 -5 6 -4 -3 9 10 -7 12 -2 -13
right_child=1 2 5 4 -6 8 -8 -9 -10 -11 -12 13 -14 -15
leaf_value=2.2344713177431744e-06 -0.0002800305426939853 -0.00067788237822242082 -0.0014067928040666241 0.014636993291787803 -0.0030571556092971667 0.0081524138409544578 -0.018267271013262316 -0.0091900463057552565 -0.0081967402686132108 -0.0047378012655826746 -0.0012225639009387991 -0.00049289769455208442 0.0026197900011428808 -0.0065289313937163173
leaf_weight=216853 139 125 21 33 35 21 23 27 32 28 43 75 157 21
leaf_count=216853 139 125 21 33 35 21 23 27 32 28 43 75 157 21
internal_value=0 -0.00062122 -0.00175995 0.000196154 0.00552971 -0.00432151 -0.0102202 -0.00218991 -0.00222842 -0.000152478 0.0018536 0.000505887 0.00125805 -0.00181328
internal_weight=0 780 388 220 68 168 44 152 124 92 64 392 296 96
internal_count=217633 780 388 220 68 168 44 152 124 92 64 392 296 96
shrinkage=0.15


Tree=682
num_leaves=15
num_cat=0
split_feature=2 19 35 28 35 1 16 36 16 32 36 22 5 5
split_gain=0.0144857 0.0519463 0.144482 0.0507174 0.0547353 0.0838607 0.066112 0.132671 0.13745 0.0482867 0.0458273 0.0439335 0.0677 0.0595265
threshold=-2.8223399999999992 1.8030650000000002e-10 -0.0005749319999999999 -0.14368899999999998 -0.14027249999999997 -0.51210199999999995 4.4267150000000007e-07 0.10225450000000001 3.3113700000000002e-06 1.9381800000000002 -0.14060949999999997 2.3818600000000001 1.2239100000000001e-05 1.2676150000000001e-05
decision_type=2 2 2 2 2 2 2 2 2 2 2 2 2 2
left_child=1 2 -1 4 -3 6 9 -8 -9 -6 -11 -5 -13 -14
right_child=-2 3 -4 11 5 -7 7 8 -10 10 -12 12 13 -15
leaf_value=0.015018256067996843 -8.2714426616682893e-06 0.00046012879959803565 -0.00025303378769540755 0.00035234385850970313 -0.0072161064295642062 0.0057333782934026953 0.0018045978247360124 -0.021548428977839647 -0.0052670913871094979 -0.0036248351181347969 0.0021903266213954458 -0.0022535792467011824 0.0064325484799734444 -9.2280077051671783e-05
leaf_weight=20 208125 196 46 7903 32 23 23 20 28 60 62 388 33 674
leaf_count=20 208125 196 46 7903 32 23 23 20 28 60 62 388 33 674
internal_value=0 0.000181057 0.00437463 0.000151744 -0.00141327 -0.00289387 -0.00377576 -0.00756255 -0.012051 -0.0020299 -0.000669589 0.000228969 -0.000661472 0.000212273
internal_weight=0 9508 66 9442 444 248 225 71 48 154 122 8998 1095 707
internal_count=217633 9508 66 9442 444 248 225 71 48 154 122 8998 1095 707
shrinkage=0.15


Tree=683
num_leaves=15
num_cat=0
split_feature=38 15 29 4 11 21 32 16 35 1 30 33 3 17
split_gain=0.0131598 0.172125 0.352145 0.397249 0.765849 0.837036 1.07698 1.85499 1.8465 1.62227 1.09185 0.918669 0.993154 0.945168
threshold=0.00082416650000000015 -1.2475049999999999e-08 -0.0076020049999999994 -1.4177149999999996 4.8156500000000006e-05 6.3134300000000012 0.054942500000000012 2.5734150000000004e-06 -0.022200349999999997 -0.98331399999999991 0.0045686050000000008 -3.3101199999999994e-05 -13.239749999999999 -3.1052299999999995e-06
decision_type=2 2 2 2 2 2 2 2 2 2 2 2 2 2
left_child=-1 2 3 -2 -5 6 9 -8 10 -6 -9 12 -11 -13
right_child=1 -3 -4 4 5 -7 7 8 -10 11 -12 13 -14 -15
leaf_value=2.2148213487926825e-05 -0.0011113336755423679 -0.00031504879011476529 -0.00025454299258519488 0.00077818113912824481 -0.0083041530552093578 -0.0060294588215867861 -0.0062673285858735996 0.055136814191937451 -0.0042539915463267412 0.017721521624109962 0.018250293864940221 3.3985376266125388e-05 -0.012910765880951658 0.025809916932628435
leaf_weight=159959 2005 29457 16155 9107 70 128 256 25 68 55 65 38 42 203
leaf_count=159959 2005 29457 16155 9107 70 128 256 25 68 55 65 38 42 203
internal_value=0 -6.14281e-05 0.000203338 0.000816592 0.00120095 0.00525374 0.00701074 0.00162073 0.0144014 0.01248 0.0284965 0.0167844 0.00445806 0.0217457
internal_weight=0 57674 28217 12062 10057 950 822 414 158 408 90 338 97 241
internal_count=217633 57674 28217 12062 10057 950 822 414 158 408 90 338 97 241
shrinkage=0.15


Tree=684
num_leaves=15
num_cat=0
split_feature=16 33 19 35 36 6 28 12 16 10 25 5 29 12
split_gain=0.0146768 0.0526235 0.0628731 0.0737263 0.0766159 0.317506 0.0578173 0.203839 0.389379 0.187714 0.0659958 0.178454 0.174368 0.102171
threshold=-5.7037449999999999e-06 -1.3360349999999997e-06 3.0659200000000006e-05 0.017883000000000003 -0.016044349999999995 -7.2568249999999983e-07 -0.67010049999999988 -0.00011213399999999999 -3.2619399999999988e-05 2.1909450000000004e-05 23.183300000000006 1.0386350000000001e-05 -0.15447899999999995 -0.00011532249999999999
decision_type=2 2 2 2 2 2 2 2 2 2 2 2 2 2
left_child=1 6 3 4 5 -3 7 8 9 -1 -8 12 -12 -13
right_child=-2 2 -4 -5 -6 -7 10 -9 -10 -11 11 13 -14 -15
leaf_value=0.014007502023596317 -1.9848066273087404e-05 -0.0043093926989240571 -0.00012641760793709913 -0.0027577207071897295 0.0010702101156110336 0.02039844096341932 0.00027918535750970033 -0.0015916102328473356 0.024996451765258349 -0.0037179569689636456 -0.0026569548371480779 -0.0030808511833671517 -0.02073841408942826 0.0010674538776157018
leaf_weight=20 172776 25 23344 109 1087 22 19470 103 23 41 30 218 20 345
leaf_count=20 172776 25 23344 109 1087 22 19470 103 23 41 30 218 20 345
internal_value=0 7.64489e-05 -7.10674e-05 0.000968429 0.00132659 0.00725598 0.000255383 0.00288073 0.00836467 0.00209367 0.000230937 -0.00130152 -0.00988954 -0.000538817
internal_weight=0 44857 24587 1243 1134 47 20270 187 84 61 20083 613 50 563
internal_count=217633 44857 24587 1243 1134 47 20270 187 84 61 20083 613 50 563
shrinkage=0.15


Tree=685
num_leaves=15
num_cat=0
split_feature=3 23 3 23 14 39 35 15 14 15 19 38 20 22
split_gain=0.0145025 0.140485 0.233344 0.238871 0.411923 0.283301 0.270979 0.906052 0.400291 0.357105 0.376602 0.424008 0.409695 0.497122
threshold=-6.6828699999999985 -6.9868449999999989 -6.1381299999999994 -6.7637699999999983 0.00018717200000000002 1.6007950000000003e-06 0.0009352220000000002 -1.7311499999999999e-08 0.0005574960000000001 9.6722700000000022e-08 1.5158200000000003e-06 0.00020288500000000003 8.0730100000000018 -0.45400599999999997
decision_type=2 2 2 2 2 2 2 2 2 2 2 2 2 2
left_child=-1 -2 3 4 5 -3 9 8 -8 -5 -11 12 -12 -14
right_child=1 2 -4 6 -6 -7 7 -9 -10 10 11 -13 13 -15
leaf_value=-2.5139882154375123e-05 0.00016898240187962978 -0.011428874566500663 3.0422580587062145e-05 0.0010512896418692136 0.00085567340612873637 -0.0038428748663782114 -0.01560774612875512 0.00060664703247706811 -1.7340028330645694e-05 -0.011377285727772126 -0.0025978507718312405 -0.011892731054453178 0.021883176084501379 0.0013182885752155862
leaf_weight=153098 51873 161 8899 1754 290 355 152 387 49 104 311 75 38 87
leaf_count=153098 51873 161 8899 1754 290 355 152 387 49 104 311 75 38 87
internal_value=0 5.964e-05 -0.000388308 -0.00137855 -0.00366765 -0.00620982 -0.000754604 -0.00363683 -0.0118071 -3.92192e-05 -0.00314939 -0.00147482 0.000317248 0.00757001
internal_weight=0 64535 12662 3763 806 516 2957 588 201 2369 615 511 436 125
internal_count=217633 64535 12662 3763 806 516 2957 588 201 2369 615 511 436 125
shrinkage=0.15


Tree=686
num_leaves=15
num_cat=0
split_feature=23 5 7 14 12 21 36 16 16 28 12 21 21 1
split_gain=0.0175781 0.0888842 0.120958 0.157877 0.149222 0.452642 0.186761 0.644208 0.555529 0.348183 0.424937 0.574759 0.327736 0.451965
threshold=-7.7292499999999995 1.1325000000000003e-05 3.0676700000000004e-05 0.00034297200000000004 5.3968600000000004e-05 11.325600000000001 0.00015892250000000002 -1.3562949999999999e-08 -8.3476249999999976e-09 -0.0029440049999999995 -3.4961999999999988e-05 -9.3854649999999982 10.697700000000001 10.151550000000002
decision_type=2 2 2 2 2 2 2 2 2 2 2 2 2 2
left_child=-1 -2 3 4 6 -6 8 -8 9 10 11 -3 -11 -14
right_child=1 2 -4 -5 5 -7 7 -9 -10 12 -12 -13 13 -15
leaf_value=-2.8086622583216042e-05 0.00037967994449252857 0.022023440134944394 4.6825825891604583e-05 0.00031411098395026918 -0.0023244298076486513 -0.021018439315444351 -0.003887288360893052 0.0026691055955994397 -0.0050873094791637858 -0.0033655897405736753 0.00029614351083934496 -0.0046771680295933033 -0.0056187816734812003 0.014259294426301493
leaf_weight=151758 15435 60 45269 2025 204 34 549 874 763 403 127 26 44 62
leaf_count=151758 15435 60 45269 2025 204 34 549 874 763 403 127 26 44 62
internal_value=0 6.47039e-05 -3.1681e-05 -0.000718961 -0.00138392 -0.004995 -0.00108838 0.000139618 -0.00226511 0.000717351 0.00580944 0.0139512 -0.00141352 0.00600802
internal_weight=0 65875 50440 5171 3146 238 2908 1423 1485 722 213 86 509 106
internal_count=217633 65875 50440 5171 3146 238 2908 1423 1485 722 213 86 509 106
shrinkage=0.15


Tree=687
num_leaves=15
num_cat=0
split_feature=23 14 14 13 12 12 22 20 3 23 28 16 5 15
split_gain=0.0141652 0.0707993 0.15068 0.102999 0.126385 0.146288 0.255351 0.444313 0.487133 0.267736 0.110006 0.107064 0.109329 0.230762
threshold=-17.075499999999995 0.00019135550000000002 0.0039324400000000006 9.0003600000000014e-05 0.00042841300000000005 -0.00034307199999999993 -0.78142399999999979 -1.2709449999999998 -16.413199999999996 -18.039999999999996 0.054531500000000004 0.00023763150000000004 8.6293650000000017e-06 2.3100500000000006e-08
decision_type=2 2 2 2 2 2 2 2 2 2 2 2 2 2
left_child=1 -1 -3 4 5 6 7 -4 9 -9 -6 12 13 -7
right_child=-2 2 3 -5 10 11 -8 8 -10 -11 -12 -13 -14 -15
leaf_value=-0.00033398360504143231 -1.155671949583486e-05 0.00078724719543999582 -0.0043709131838866218 0.00020528061784814045 0.00069746486945521384 0.0079144618294846539 -0.0019770436497817457 0.01295702174705054 0.00040056336864193034 0.035362487552421433 0.0095178580720204145 0.0082714574245203818 -0.0029820253975196042 -0.0047743629959768443
leaf_weight=5313 199444 6996 58 3895 227 65 253 28 41 21 37 21 1170 64
leaf_count=5313 199444 6996 58 3895 227 65 253 28 41 21 37 21 1170 64
internal_value=0 0.00012672 0.00031682 -0.000242893 -0.00112231 -0.00159109 0.000918022 0.00586702 0.0124648 0.0225594 0.00193366 -0.00235332 -0.00252509 0.00161923
internal_weight=0 18189 12876 5880 1985 1721 401 148 90 49 264 1320 1299 129
internal_count=217633 18189 12876 5880 1985 1721 401 148 90 49 264 1320 1299 129
shrinkage=0.15


Tree=688
num_leaves=15
num_cat=0
split_feature=3 23 34 14 3 3 23 3 4 38 4 5 3 23
split_gain=0.014659 0.0974658 0.294546 0.447387 0.533068 1.25783 0.945322 1.55235 0.877297 2.0579 1.26586 1.14226 0.779092 1.01017
threshold=-8.4006749999999979 -11.298099999999998 0.18784850000000003 0.0054376550000000004 -11.279499999999997 -10.110599999999998 -14.762349999999998 -14.602749999999999 -0.22682949999999999 0.00030320800000000007 0.34245300000000006 1.9284800000000006e-05 -14.488399999999999 -15.928399999999998
decision_type=2 2 2 2 2 2 2 2 2 2 2 2 2 2
left_child=1 2 3 4 6 -6 12 -8 9 -9 11 -10 13 -1
right_child=-2 -3 -4 -5 5 -7 7 8 10 -11 -12 -13 -14 -15
leaf_value=-0.0050286446533074868 3.8798770041610693e-05 6.5373735318864499e-05 0.00016078328780022637 0.00020657168008985025 -0.0058126796256872089 -0.00079390597437075338 -0.0043818873501870218 -0.010666775171760803 0.0046707659706014277 0.0063195667590547457 -0.0044196985563780657 0.018459995065777734 -0.0064894944210890657 0.0065976979533686995
leaf_weight=362 109183 70451 20130 7500 1648 3531 895 317 1679 325 322 147 829 314
leaf_count=362 109183 70451 20130 7500 1648 3531 895 317 1679 325 322 147 829 314
internal_value=0 -3.9061e-05 -0.000232685 -0.00067594 -0.00131427 -0.00239092 -0.000239901 0.00105384 0.00279756 -0.00206777 0.00425172 0.00578085 -0.00340763 0.000371757
internal_weight=0 108450 37999 17869 10369 5179 5190 3685 2790 642 2148 1826 1505 676
internal_count=217633 108450 37999 17869 10369 5179 5190 3685 2790 642 2148 1826 1505 676
shrinkage=0.15


Tree=689
num_leaves=15
num_cat=0
split_feature=3 23 23 14 3 23 25 19 32 30 14 23 3 14
split_gain=0.0183235 0.211259 0.352286 1.46257 0.953507 1.70253 0.790195 0.599314 0.56527 0.5291 0.526107 0.483981 2.24044 1.09524
threshold=-11.279499999999997 -9.355299999999998 -11.549549999999998 0.0017399150000000001 -11.510049999999998 -11.078849999999997 0.47161650000000005 0.0018887850000000002 0.13212600000000002 0.0026269000000000002 0.0007810015000000002 -13.412199999999999 -13.437049999999997 0.0039324400000000006
decision_type=2 2 2 2 2 2 2 2 2 2 2 2 2 2
left_child=1 2 11 4 9 6 7 -6 -7 10 -4 -1 13 -13
right_child=-2 -3 3 -5 5 8 -8 -9 -10 -11 -12 12 -14 -15
leaf_value=-0.00049197131554613448 2.6139372907071465e-05 0.00022995802588353183 -0.012587234383514952 -0.00013832900076072695 0.033889028360938718 -0.0083325015408051203 -0.0018238590550026855 0.0037772155366837977 0.012257598625728859 -5.9593912213423712e-05 -0.0056640934419135104 -0.0056326281607101064 0.0039883206846054115 0.00018925139129210482
leaf_weight=13883 159944 27340 314 7805 58 180 32 20 36 283 1157 1038 3116 2427
leaf_count=13883 159944 27340 314 7805 58 180 32 20 36 283 1157 1038 3116 2427
internal_value=0 -7.2472e-05 -0.000344917 -0.00108023 -0.00461464 0.00283487 0.0180249 0.0261681 -0.00490082 -0.00599921 -0.00714191 1.02724e-05 0.00106978 -0.00155479
internal_weight=0 57689 30349 9885 2080 326 110 78 216 1754 1471 20464 6581 3465
internal_count=217633 57689 30349 9885 2080 326 110 78 216 1754 1471 20464 6581 3465
shrinkage=0.15


Tree=690
num_leaves=15
num_cat=0
split_feature=23 3 14 31 0 21 14 0 31 3 31 3 10 25
split_gain=0.0173048 0.0729758 0.1766 0.080632 0.217541 0.147524 0.237295 0.145519 0.116525 0.127454 0.115785 0.135405 0.0756304 0.0749693
threshold=-16.783199999999997 -7.2823399999999987 0.0025176500000000002 0.10329400000000001 0.53031600000000012 -7.1421249999999992 0.0011247700000000002 -4.1883099999999986 -0.017889749999999999 -15.739199999999999 -0.0040610549999999992 -13.004499999999998 9.9318600000000012e-06 44.892500000000005
decision_type=2 2 2 2 2 2 2 2 2 2 2 2 2 2
left_child=1 2 3 4 10 6 -6 13 9 -7 -1 -12 -11 -5
right_child=-2 -3 -4 7 5 8 -8 -9 -10 12 11 -13 -14 -15
leaf_value=0.002054166796359017 -1.3421710006269773e-05 -0.00024064684489416864 -0.00017602399156480553 -0.0004107500113589487 0.00043034088193962813 0.0079999994276271705 0.019877438256517051 0.0024633168048840024 0.0019666223530393268 0.0068040597277855422 -0.011859568826352748 -0.00025842716909495981 -0.0018700573628212987 0.0073720575537099013
leaf_weight=1649 197724 7386 6644 701 48 31 20 1564 256 23 26 175 1357 29
leaf_count=1649 197724 7386 6644 701 48 31 20 1564 256 23 26 175 1357 29
internal_value=0 0.000133296 0.000353846 0.000952665 0.000508294 -0.000698279 0.00615008 0.00164711 -0.000977636 -0.00151182 0.00163986 -0.00175907 -0.00172549 -0.00010157
internal_weight=0 19909 12523 5879 3585 1735 68 2294 1667 1411 1850 201 1380 730
internal_count=217633 19909 12523 5879 3585 1735 68 2294 1667 1411 1850 201 1380 730
shrinkage=0.15


Tree=691
num_leaves=15
num_cat=0
split_feature=3 31 11 37 6 2 6 21 16 18 36 19 28 11
split_gain=0.0145736 0.0613946 0.200996 0.0616981 0.176629 0.158486 0.121224 0.116736 0.101019 0.0955365 0.105229 0.0870965 0.0821182 0.14258
threshold=-15.512049999999999 -28.391649999999995 9.318670000000002e-05 -6.6903649999999996e-06 -4.0280749999999992e-07 2.2099550000000003 -1.8324899999999998e-06 -3.7979249999999998 6.935915000000001e-07 6.1781150000000015e-07 -0.11869199999999998 0.00035361150000000005 0.15316750000000004 2.1913150000000006e-05
decision_type=2 2 2 2 2 2 2 2 2 2 2 2 2 2
left_child=1 2 -1 4 6 7 -3 8 -6 10 -9 -12 13 -8
right_child=-2 3 -4 -5 5 -7 12 9 -10 -11 11 -13 -14 -15
leaf_value=-0.0012133361918677109 -1.1062511043033641e-05 -0.0027021429603857022 0.017203503902710509 0.00016336987567749527 -0.00074917119143166292 -0.015765726193785665 0.0022020533148731504 -0.0044142022532852069 -0.013408298168104847 -0.0059026796814578121 0.013470959573585009 0.0017719886098833135 0.0011039572981202841 0.019681447172271351
leaf_weight=40 201284 56 20 15914 23 24 21 38 37 54 21 45 35 21
leaf_count=40 201284 56 20 15914 23 24 21 38 37 54 21 45 35 21
internal_value=0 0.000136198 0.00492561 0.000118557 -0.0017832 -0.00419657 0.00260806 -0.0029229 -0.00855563 -0.000783891 0.00187394 0.00549439 0.00647003 0.0109418
internal_weight=0 16349 60 16289 375 242 133 218 60 158 104 66 77 42
internal_count=217633 16349 60 16289 375 242 133 218 60 158 104 66 77 42
shrinkage=0.15


Tree=692
num_leaves=15
num_cat=0
split_feature=3 23 23 14 3 23 32 19 4 14 20 0 26 26
split_gain=0.0155262 0.157385 0.346563 0.979542 0.931474 1.06542 0.727116 0.695123 0.618909 0.488301 0.59872 1.02182 0.569218 0.420939
threshold=-11.279499999999997 -9.7994249999999976 -11.549549999999998 0.0031052900000000006 -11.510049999999998 -11.078849999999997 0.13212600000000002 0.0018887850000000002 0.12699950000000002 0.0012804550000000002 5.1570950000000009 1.1355750000000002 -0.00045940449999999996 -5.6898049999999993e-05
decision_type=2 2 2 2 2 2 2 2 2 2 2 2 2 2
left_child=1 2 -1 4 9 7 -7 8 13 10 12 -12 -4 -6
right_child=-2 -3 3 -5 5 6 -8 -9 -10 -11 11 -13 -14 -15
leaf_value=-9.5679045252467336e-07 2.406160675469073e-05 0.0001741128046131419 0.010449396634274829 7.0092485950977055e-05 0.010382999635767191 -0.0072399963036014012 0.016914309973157394 -0.0016182687556620958 -0.0012468535825610159 -0.0028746481481473534 -0.0032987615740721057 -0.023964609557419626 -0.0063555413742550863 0.036206335428037813
leaf_weight=20464 159944 29663 49 4897 20 160 34 41 20 1467 102 114 609 49
leaf_count=20464 159944 29663 49 4897 20 160 34 41 20 1467 102 114 609 49
internal_value=0 -6.67113e-05 -0.000321602 -0.00118932 -0.00350352 0.00403448 -0.00300677 0.0145422 0.0219869 -0.0045468 -0.00735348 -0.0142057 -0.00510411 0.0287213
internal_weight=0 57689 28026 7562 2665 324 194 130 89 2341 874 216 658 69
internal_count=217633 57689 28026 7562 2665 324 194 130 89 2341 874 216 658 69
shrinkage=0.15


Tree=693
num_leaves=15
num_cat=0
split_feature=35 15 15 15 3 0 4 11 22 31 22 0 23 23
split_gain=0.014717 0.910005 0.548363 0.531052 0.720605 0.913466 1.62475 0.919437 1.03474 1.54475 0.820527 1.04316 0.729664 1.21534
threshold=0.00044025400000000006 -3.0041299999999994e-08 -3.1918699999999993e-08 -1.5458549999999994e-05 -6.3281449999999984 2.9426650000000003 1.0000000180025095e-35 -1.4473899999999999e-05 1.9654450000000001 0.33192000000000005 2.0667800000000005 -3.1981349999999993 -14.139049999999997 -8.8482399999999988
decision_type=2 2 2 2 2 2 2 2 2 2 2 2 2 2
left_child=2 3 -1 -2 5 6 7 8 -5 10 -10 12 -12 -14
right_child=1 -3 -4 4 -6 -7 -8 -9 9 -11 11 -13 13 -15
leaf_value=0.00029726826971793375 0.00027988563534044026 0.00050171758717017223 -0.00030673770099566539 0.0016578389648420481 0.00025790592981238296 -0.0033389514071163551 -0.0021302677706845369 -0.00053832859581067036 0.036182306110105644 -0.0033534817558743438 -0.0013940973562421278 -0.0053222348077476703 0.02521360329569905 0.0044163545257776462
leaf_weight=62389 12612 44981 73854 1369 7801 4406 7431 2194 34 162 50 66 189 95
leaf_count=62389 12612 44981 73854 1369 7801 4406 7431 2194 34 162 50 66 189 95
internal_value=0 5.04673e-05 -3.01486e-05 -0.000507024 -0.000924072 -0.0015005 -0.000801609 0.00157234 0.00392899 0.00914578 0.0138114 0.0119099 0.015315 0.0182568
internal_weight=0 81390 136243 36409 23797 15996 11590 4159 1965 596 434 400 334 284
internal_count=217633 81390 136243 36409 23797 15996 11590 4159 1965 596 434 400 334 284
shrinkage=0.15


Tree=694
num_leaves=15
num_cat=0
split_feature=11 34 2 21 22 33 3 19 19 21 22 34 3 37
split_gain=0.0156339 0.0210793 0.0175046 0.0496234 0.131808 0.0912201 0.218232 0.102513 0.102389 0.0672479 0.0704877 0.107788 0.132828 0.135715
threshold=-0.00084584499999999991 0.012110300000000003 -2.8223399999999992 -5.7462299999999988 2.4316000000000004 -3.1267899999999992e-05 -11.279499999999997 5.6558950000000006e-07 5.8236700000000004e-05 4.4087050000000003 -2.8036449999999995 0.011583400000000002 -7.8229449999999989 -7.364874999999998e-08
decision_type=2 2 2 2 2 2 2 2 2 2 2 2 2 2
left_child=1 -1 3 4 5 6 -2 -8 -9 10 11 12 13 -5
right_child=2 -3 -4 9 -6 -7 7 8 -10 -11 -12 -13 -14 -15
leaf_value=-0.00087142049893338899 -0.01297292495825483 -9.5898283809500053e-05 -3.3325910303784687e-06 0.0016503187908361164 0.012705442216247319 0.0010618973777888248 0.004849336503709843 -0.012126687754855744 0.00093234150163230617 0.00065060054360840101 -0.00057179470759580891 0.001997425558897546 0.0012873874626832434 -0.011805612973785172
leaf_weight=1039 36 3272 204265 26 21 1747 58 22 35 2522 3861 580 101 48
leaf_count=1039 36 3272 204265 26 21 1747 58 22 35 2522 3861 580 101 48
internal_value=0 -0.000282808 5.71524e-06 0.000209773 0.000886936 0.000756173 -0.00278092 0.00040962 -0.00410799 2.7723e-05 -0.000312593 0.00101294 -0.00224991 -0.00707785
internal_weight=0 4311 213322 9057 1919 1898 151 115 57 7138 4616 755 175 74
internal_count=217633 4311 213322 9057 1919 1898 151 115 57 7138 4616 755 175 74
shrinkage=0.15


Tree=695
num_leaves=15
num_cat=0
split_feature=25 10 14 26 20 4 33 7 21 10 34 33 31 9
split_gain=0.0144596 0.0600823 0.0722339 0.120408 0.145082 0.169533 0.0832542 0.0705961 0.0924346 0.0882557 0.0862292 0.137551 0.074333 0.131489
threshold=0.15505200000000005 1.1875600000000002e-05 0.0012017500000000003 -5.2319999999999994e-05 2.6186150000000006 0.073733200000000013 -1.4283949999999999e-05 2.8568150000000002e-05 10.697700000000001 1.6092900000000006e-05 0.043039550000000003 -9.4167599999999983e-06 -0.0092690149999999985 5.9719750000000005e-06
decision_type=2 2 2 2 2 2 2 2 2 2 2 2 2 2
left_child=1 2 3 -1 5 -5 -4 8 9 -3 11 -11 13 -13
right_child=-2 7 6 4 -6 -7 -8 -9 -10 10 -12 12 -14 -15
leaf_value=0.0051938242576645933 -7.0249837600457009e-06 -0.00065445911061128991 -0.0086661606286229046 -0.0057122359977008512 -0.0004335494637460925 -0.023214093207498079 0.0011715865636411447 0.0001307209169212436 0.0089786990222794853 0.015142872316368003 -0.0009069527582059063 0.0015010809046349899 0.0011839137671089148 0.011935522027339844
leaf_weight=22 210678 304 22 33 41 20 161 5895 37 23 110 61 177 49
leaf_count=22 210678 304 22 33 41 20 161 5895 37 23 110 61 177 49
internal_value=0 0.000212798 -0.00186731 -0.00479566 -0.00713363 -0.0123167 -1.10934e-05 0.00030624 0.00166588 0.00129216 0.00270114 0.00398144 0.00308697 0.00614915
internal_weight=0 6955 299 116 94 53 183 6656 761 724 420 310 287 110
internal_count=217633 6955 299 116 94 53 183 6656 761 724 420 310 287 110
shrinkage=0.15


Tree=696
num_leaves=15
num_cat=0
split_feature=19 3 38 18 16 27 33 18 13 35 4 19 35 16
split_gain=0.013684 0.0296768 0.0943036 0.350301 0.129483 0.153219 0.115094 0.110636 0.238634 0.107725 0.106842 0.135155 0.0880904 0.0777431
threshold=0.049530600000000008 -16.559399999999997 -0.3976754999999999 0.0031617800000000008 1.1210250000000002e-06 23.146300000000004 -9.3333449999999986e-05 7.9309250000000023e-06 6.4421150000000009e-05 0.010555050000000002 -0.54682199999999992 0.00021551950000000002 0.010555050000000002 2.4186550000000002e-07
decision_type=2 2 2 2 2 2 2 2 2 2 2 2 2 2
left_child=1 2 3 4 5 -1 7 10 9 -9 11 -4 -10 -12
right_child=-2 -3 6 -5 -6 -7 -8 8 12 -11 13 -13 -14 -15
leaf_value=0.015693472798448054 -0.00015724629474832109 -2.1777458042703437e-06 -0.014199165045283735 0.021114515372470995 -0.0060174502932932228 -0.00060209834191482514 0.00033929728008001513 -0.0080081957287620742 -0.0074926797766238446 -0.023576799491420386 -1.1418587316504934e-05 -0.00017390829855755256 0.0045291026819541001 0.010334242562664887
leaf_weight=20 11778 198224 22 23 40 37 7271 20 24 20 44 52 32 26
leaf_count=20 11778 198224 22 23 40 37 7271 20 24 20 44 52 32 26
internal_value=0 8.99685e-06 0.00029927 0.00447106 0.000524678 0.00511565 0.000232619 -0.00299929 -0.00694368 -0.0157925 -0.000369701 -0.00434358 -0.00062309 0.00383126
internal_weight=0 205855 7631 120 97 57 7511 240 96 40 144 74 56 70
internal_count=217633 205855 7631 120 97 57 7511 240 96 40 144 74 56 70
shrinkage=0.15


Tree=697
num_leaves=15
num_cat=0
split_feature=15 35 15 3 0 20 0 4 30 0 33 19 13 35
split_gain=0.0133121 0.434986 0.642956 0.516594 0.683834 1.26907 1.52117 1.06503 1.05561 1.0246 1.09091 2.20148 1.76737 0.755422
threshold=-2.1145799999999999e-07 -0.0019370849999999996 -7.0429099999999998e-06 -6.0822949999999993 2.0075800000000004 5.7696600000000009 4.7206650000000012 0.09288165000000001 0.0017770600000000002 9.2978050000000021 -4.0472449999999997e-06 4.0426100000000008e-06 2.1422200000000003e-05 -0.022200349999999997
decision_type=2 2 2 2 2 2 2 2 2 2 2 2 2 2
left_child=1 2 -1 4 7 -6 -7 -4 9 10 11 -8 -12 -10
right_child=-2 -3 3 -5 5 6 8 -9 13 -11 12 -13 -14 -15
leaf_value=-0.00024255002169069415 2.6275139681923802e-05 -0.00025706662382948489 -0.00189965560321446 -0.0007683405656022694 0.002033282940816207 -0.003868661657861594 0.055891898861628465 0.0029387058101521782 0.010794734225126173 0.0038625887410990815 0.030655025761831094 0.0011820475692334383 -0.021356072536270535 -0.017256970464950429
leaf_weight=9290 144931 55446 1598 1651 1300 128 59 2848 216 49 49 23 21 24
leaf_count=9290 144931 55446 1598 1651 1300 128 59 2848 216 49 49 23 21 24
internal_value=0 -5.23793e-05 0.00060531 0.00159409 0.00221173 0.00461919 0.0105272 0.00119968 0.0147056 0.0227248 0.0288054 0.0405465 0.0150517 0.00798956
internal_weight=0 72702 17256 7966 6315 1869 569 4446 441 201 152 82 70 240
internal_count=217633 72702 17256 7966 6315 1869 569 4446 441 201 152 82 70 240
shrinkage=0.15


Tree=698
num_leaves=15
num_cat=0
split_feature=26 4 0 3 29 30 4 4 32 39 12 30 18 24
split_gain=0.0154389 0.176499 0.52197 0.299886 0.455597 0.795303 1.21044 1.31521 0.735674 0.644082 0.527762 0.507643 1.09581 0.832355
threshold=0.00024026250000000002 -0.019882549999999995 5.3268800000000009 -6.3035799999999993 -0.019334399999999998 0.0028047900000000006 -0.7518554999999999 -0.17035599999999998 -0.38573699999999994 3.6777500000000005e-05 -1.2854649999999999e-05 0.0021835250000000004 -3.6458549999999993e-05 -0.38812099999999994
decision_type=2 2 2 2 2 2 2 2 2 2 2 2 2 2
left_child=-1 2 -2 4 5 6 -4 8 -8 -9 -11 12 -10 -14
right_child=1 -3 3 -5 -6 -7 7 9 11 10 -12 -13 13 -15
leaf_value=1.4955037030159572e-05 -0.0010751050635924423 0.00026834273142041276 -0.0021015463063417737 -0.00089613669443258518 -0.00015682548679702972 0.00091515568362433256 -0.0017024512734049215 0.027429019517730923 -0.00079479194246232507 0.010324920337370713 -0.010218106418024569 0.044254191964864728 0.0055694017857313158 0.036879619478592453
leaf_weight=190886 9546 13734 157 1158 1095 726 26 20 36 48 68 27 25 81
leaf_count=190886 9546 13734 157 1158 1095 726 26 20 36 48 68 27 25 81
internal_value=0 -0.00010673 -0.000502584 0.00107379 0.00206174 0.00406283 0.00874564 0.0138907 0.021787 0.00256872 -0.00171754 0.0254008 0.021816 0.0294951
internal_weight=0 26747 13013 3467 2309 1214 488 331 195 136 116 169 142 106
internal_count=217633 26747 13013 3467 2309 1214 488 331 195 136 116 169 142 106
shrinkage=0.15


Tree=699
num_leaves=15
num_cat=0
split_feature=35 5 4 9 9 4 34 3 13 22 20 2 22 22
split_gain=0.019516 0.148532 0.11936 2.2878 1.1114 0.786682 0.560391 0.572459 0.444342 0.947949 0.430015 1.00745 0.694863 0.558477
threshold=0.00044025400000000006 1.5056900000000001e-05 -0.075053899999999993 1.0000000180025095e-35 3.5495300000000002e-07 -0.54682199999999992 0.35765750000000002 -6.5186449999999985 -3.1817149999999993e-06 -1.6187749999999999 -4.5622399999999983 2.1358050000000008 2.0667800000000005 2.1317500000000007
decision_type=2 2 2 2 2 2 2 2 2 2 2 2 2 2
left_child=-1 2 3 8 -4 -5 7 -7 9 -2 11 12 -11 -12
right_child=1 -3 4 5 -6 6 -8 -9 -10 10 13 -13 -14 -15
leaf_value=-3.4717878284017013e-05 -0.0022992792058633155 -0.00013591805702099511 -0.00056950832880728493 -5.9976447161731725e-05 0.001522043339522845 -0.0050665462340052239 -0.00030411448223267049 -0.00032566409409905622 0.0009634196622017706 0.017086901700195785 0.0045513018524825062 0.012177531381317502 -0.011097166235709598 -0.0048118139249507409
leaf_weight=136243 531 42459 11286 3193 11583 2749 1188 724 5643 26 1376 391 81 160
leaf_count=136243 531 42459 11286 3193 11583 2749 1188 724 5643 26 1376 391 81 160
internal_value=0 5.81161e-05 0.000269734 -4.36648e-05 0.000489849 -0.00187376 -0.00311629 -0.00407824 0.0017075 0.00334448 0.00481785 0.0086482 -0.0042487 0.00357598
internal_weight=0 81390 38931 16062 22869 7854 4661 3473 8208 2565 2034 498 107 1536
internal_count=217633 81390 38931 16062 22869 7854 4661 3473 8208 2565 2034 498 107 1536
shrinkage=0.15


Tree=700
num_leaves=15
num_cat=0
split_feature=1 21 21 1 0 22 22 1 0 22 23 4 4 14
split_gain=0.0149325 0.264595 0.441639 0.43704 0.381989 0.923907 0.558971 0.453523 0.567584 0.695233 0.636633 0.670749 0.732198 1.24267
threshold=-9.7969349999999995 -3.5985549999999997 -9.6841449999999991 -11.245799999999997 -3.9661499999999994 -1.8841749999999997 -1.8841749999999997 -12.047649999999999 7.6190450000000007 -0.96010649999999986 -6.5068949999999992 -0.58682149999999988 0.61528200000000022 0.00016732750000000003
decision_type=2 2 2 2 2 2 2 2 2 2 2 2 2 2
left_child=1 2 4 -4 5 -1 -6 -8 9 10 11 -9 13 -13
right_child=-2 -3 3 -5 6 -7 7 8 -10 -11 -12 12 -14 -15
leaf_value=0.0070544911823634277 -1.2744014692497206e-05 0.00051136321003585799 -0.00028423304708379883 -0.0031489584891354005 -0.0035001271924111461 -0.006634078526685982 0.00042488449464731637 -0.0021657655799044145 -0.0049222972631708887 -0.0061631077580386771 0.00059438977281704708 0.0083344146657756638 -0.0034963847709811734 0.026765572527204014
leaf_weight=162 196917 13541 3171 1926 294 352 533 62 91 72 138 173 44 157
leaf_count=162 196917 13541 3171 1926 294 352 533 62 91 72 138 173 44 157
internal_value=0 0.000121139 -0.000615311 -0.00136672 0.00122779 -0.00231978 0.00239368 0.00375807 0.00616863 0.00773098 0.00947379 0.0122842 0.0146797 0.0171032
internal_weight=0 20716 7175 5097 2078 514 1564 1270 737 646 574 436 374 330
internal_count=217633 20716 7175 5097 2078 514 1564 1270 737 646 574 436 374 330
shrinkage=0.15


Tree=701
num_leaves=15
num_cat=0
split_feature=35 15 19 36 16 34 3 23 20 0 0 2 23 3
split_gain=0.0148194 0.502036 0.538556 1.06562 1.23122 0.923588 0.905253 0.866154 0.976613 6.20442 1.6357 0.879979 0.796203 2.62185
threshold=0.00044025400000000006 1.8511550000000003e-08 5.3757900000000004e-06 0.00026806050000000004 5.5163850000000009e-08 0.38058200000000003 -6.4440149999999994 -6.551404999999999 6.0010550000000009 5.4734500000000006 6.9015100000000009 -2.8697349999999995 -9.0957449999999991 -9.0501149999999981
decision_type=2 2 2 2 2 2 2 2 2 2 2 2 2 2
left_child=-1 -2 3 -3 -5 6 7 8 10 -10 11 -6 -11 -14
right_child=1 2 -4 4 5 -7 -8 -9 9 12 -12 -13 13 -15
leaf_value=-3.0253325833572481e-05 -0.00030701647055007028 -0.00016484043654876469 8.3601200459491713e-05 0.00019868290048891238 -0.0074505398619373366 0.000256518865736763 0.00092950515497919545 -0.0017716070083238613 -0.0038720472041997266 0.046933844020733466 -0.0063367492015379903 0.01004885107708417 -0.023470708709210156 0.035023015916347502
leaf_weight=136243 42353 5563 27761 2437 69 810 583 195 198 65 184 1027 20 125
leaf_count=136243 42353 5563 27761 2437 69 810 583 195 198 65 184 1027 20 125
internal_value=0 5.06426e-05 0.000438683 0.00131288 0.0027518 0.00465105 0.00609451 0.00769366 0.0087871 0.0151777 0.00675009 0.00894716 0.0331389 0.0269549
internal_weight=0 81390 39037 11276 5713 3276 2466 1883 1688 408 1280 1096 210 145
internal_count=217633 81390 39037 11276 5713 3276 2466 1883 1688 408 1280 1096 210 145
shrinkage=0.15


Tree=702
num_leaves=15
num_cat=0
split_feature=18 26 10 4 37 17 33 38 5 15 23 17 10 13
split_gain=0.0188913 0.10776 0.299426 0.544863 0.241068 0.516227 0.580067 0.267623 0.192377 0.192077 0.196958 0.208235 0.228868 0.405399
threshold=-4.1156349999999994e-05 0.00024026250000000002 2.7865550000000006e-05 -1.0433649999999999 -2.2746949999999997e-06 -8.1272599999999984e-07 -5.5345899999999995e-05 0.0022165350000000004 1.6288650000000002e-05 3.5999250000000005e-06 -13.412199999999999 -6.4199449999999991e-07 2.0057950000000003e-05 -3.3923949999999992e-05
decision_type=2 2 2 2 2 2 2 2 2 2 2 2 2 2
left_child=1 -1 3 -3 5 6 -5 -6 9 10 -9 -12 -13 -14
right_child=-2 2 -4 4 7 -7 -8 8 -10 -11 11 12 13 -15
leaf_value=0.00016460894140381133 -2.4131598871687246e-05 -0.00013477177737379817 0.00031735251176847869 -0.0025511887960687194 -0.0015444938335744866 -0.0062909347148729679 0.026065553713124245 -0.00043464902441233528 -0.015511815893908286 -0.016182977347952231 -0.013518061429249427 -0.0088966131548892796 -0.014930535344174132 0.011118449969217181
leaf_weight=43681 167647 1559 3884 34 207 103 30 112 66 44 96 109 20 41
leaf_count=43681 167647 1559 3884 34 207 103 30 112 66 44 96 109 20 41
internal_value=0 8.09345e-05 -0.000498762 -0.00180805 -0.00483432 0.000282994 0.0108629 -0.00606394 -0.00798101 -0.0068032 -0.00571137 -0.00793315 -0.00477932 0.0025778
internal_weight=0 49986 6305 2421 862 167 64 695 488 422 378 266 170 61
internal_count=217633 49986 6305 2421 862 167 64 695 488 422 378 266 170 61
shrinkage=0.15


Tree=703
num_leaves=15
num_cat=0
split_feature=16 36 36 19 33 15 19 4 4 33 12 29 32 32
split_gain=0.0184165 1.88249 1.77968 1.16008 1.95751 1.56974 0.930264 0.845232 1.15879 2.0145 0.904488 1.08873 1.50919 2.76895
threshold=2.6798300000000006e-08 2.0954300000000004e-05 7.0939900000000015e-05 2.1691500000000004e-05 -3.3389649999999995e-07 -1.9202999999999997e-08 0.00069570250000000014 1.0000000180025095e-35 -0.54682199999999992 -1.2766899999999998e-07 -6.9742849999999984e-06 -0.0014132449999999998 0.0041927100000000014 0.22670350000000003
decision_type=2 2 2 2 2 2 2 2 2 2 2 2 2 2
left_child=2 3 6 4 5 -2 -1 8 -5 -10 11 12 -9 -14
right_child=1 -3 -4 7 -6 -7 -8 10 9 -11 -12 -13 13 -15
leaf_value=0.0010867026614586855 -0.00038393852170088037 0.0005601933888071918 -0.00056090585621203855 2.5662198494867281e-05 -0.00012938369026656001 -0.0049044809046554245 -0.0001655076427363056 0.000392350720721248 0.0001403755507334058 -0.0051332668789612528 -0.00016708654748436017 -8.5174094155019889e-05 0.011983623075675697 -0.0027738383587266476
leaf_weight=36422 2552 54783 55889 10354 8117 5355 21071 1153 3222 3298 11704 2319 992 402
leaf_count=36422 2552 54783 55889 10354 8117 5355 21071 1153 3222 3298 11704 2319 992 402
internal_value=0 -4.55056e-05 4.18409e-05 -0.000716283 -0.0017657 -0.00344547 0.000627772 -0.000213478 -0.000960739 -0.00252718 0.000547493 0.00226624 0.00440717 0.00772788
internal_weight=0 104251 113382 49468 16024 7907 57493 33444 16874 6520 16570 4866 2547 1394
internal_count=217633 104251 113382 49468 16024 7907 57493 33444 16874 6520 16570 4866 2547 1394
shrinkage=0.15


Tree=704
num_leaves=15
num_cat=0
split_feature=16 37 4 18 9 38 32 2 9 1 22 20 24 22
split_gain=0.0245238 0.0466734 0.0736998 0.118653 0.256102 0.333147 0.296968 0.539474 0.566653 0.118747 0.604342 0.114694 0.139537 0.111861
threshold=-5.7037449999999999e-06 -1.2638549999999999e-06 -2.1668549999999995 -3.2435349999999988e-05 1.8532900000000003e-06 -0.010515899999999998 -1.1923199999999998 0.69230350000000007 2.0004800000000005e-05 1.2886650000000002 2.4063700000000003 -0.74568749999999995 -0.55446799999999985 -1.1864199999999998
decision_type=2 2 2 2 2 2 2 2 2 2 2 2 2 2
left_child=1 2 -1 4 5 -4 7 -6 -9 13 -11 -8 -13 -5
right_child=-2 -3 3 9 6 -7 11 8 -10 10 -12 12 -14 -15
leaf_value=0.00059395983987167635 -2.5656446423927271e-05 0.00014328410462302284 -0.00032464923520203758 0.001086328811571389 -0.010936903400346637 -0.0097875138132731878 0.0013505415152342589 0.0024210619643175355 0.030595575485795994 -6.5104815172594335e-05 0.026691237356201533 -0.015744097244977537 -0.0025372319730296213 -0.0015349981132283333
leaf_weight=1092 172776 41364 155 545 25 182 70 36 29 139 22 27 54 1117
leaf_count=1092 172776 41364 155 545 25 182 70 36 29 139 22 27 54 1117
internal_value=0 9.88211e-05 -0.000427709 -0.000892374 -0.00276506 -0.00543516 0.000968648 0.00778897 0.0149912 -0.000298621 0.00359104 -0.00309645 -0.00693952 -0.000675417
internal_weight=0 44857 3493 2401 578 337 241 90 65 1823 161 151 81 1662
internal_count=217633 44857 3493 2401 578 337 241 90 65 1823 161 151 81 1662
shrinkage=0.15


Tree=705
num_leaves=15
num_cat=0
split_feature=16 29 10 2 13 10 29 14 5 17 16 13 5 15
split_gain=0.0182048 0.0637466 0.185828 0.353101 0.18839 0.27394 0.178222 0.104071 0.100477 0.143774 0.0986543 0.0965903 0.0945734 0.0943138
threshold=-2.2582199999999995e-06 0.10967200000000001 2.3283650000000002e-05 -2.2973549999999996 -1.0738799999999998e-05 2.1255050000000006e-05 0.15949650000000001 0.0017399150000000001 1.3307250000000002e-05 6.6299800000000012e-06 -3.8224499999999993e-06 -2.3306099999999997e-05 1.4395950000000001e-05 -1.8773999999999998e-06
decision_type=2 2 2 2 2 2 2 2 2 2 2 2 2 2
left_child=1 -1 3 -3 5 6 -5 8 9 -4 -9 -8 -10 -11
right_child=-2 2 7 4 -6 -7 11 10 12 13 -12 -13 -14 -15
leaf_value=0.00011516567261397421 -2.4766995937031853e-05 -0.021738769579678772 -0.013192952976945938 -0.015541255786748868 -0.0010475638501981216 -0.020205594837697672 0.0039527425491542086 0.00068512009329504964 0.0083946918861474845 -0.0062319012123459409 0.0087509495033217324 -0.0082442394898472621 -0.0010285518725002248 0.0059766835038317359
leaf_weight=50599 164138 21 37 21 666 29 48 1356 25 35 35 21 578 24
leaf_count=50599 164138 21 37 21 666 29 48 1356 25 35 35 21 578 24
internal_value=0 7.59922e-05 -0.000608447 -0.00254332 -0.00202981 -0.00752711 -0.00344182 0.00013773 -0.00135544 -0.00586266 0.000888071 0.000240618 -0.00063787 -0.0012657
internal_weight=0 53495 2896 806 785 119 90 2090 699 96 1391 69 603 59
internal_count=217633 53495 2896 806 785 119 90 2090 699 96 1391 69 603 59
shrinkage=0.15


Tree=706
num_leaves=15
num_cat=0
split_feature=34 38 13 10 34 33 18 17 18 37 19 23 7 17
split_gain=0.0181414 0.0617285 0.135806 0.131538 0.240711 0.125778 0.238297 0.545305 0.651636 0.659982 0.907951 0.80144 0.285562 0.462736
threshold=0.10256300000000002 0.00082416650000000015 -1.1411099999999998e-05 1.1101600000000001e-05 0.077630600000000008 -7.0584149999999996e-07 -3.4751349999999995e-06 2.7704400000000004e-06 -1.9113899999999997e-05 7.3478250000000011e-08 0.00084082100000000017 -8.8068099999999987 4.8077700000000009e-05 8.3224350000000009e-07
decision_type=2 2 2 2 2 2 2 2 2 2 2 2 2 2
left_child=1 -1 3 4 -3 -5 7 8 -7 -10 11 -11 13 -8
right_child=-2 2 -4 5 -6 6 12 -9 9 10 -12 -13 -14 -15
leaf_value=4.6877962745741859e-06 5.7159044868171278e-05 -0.0010333574635001857 -5.2210114241942779e-05 -0.00020632529325150285 0.019391574310138823 -0.0060107244643844626 -0.0015928294809373726 -0.0018677750571565099 -0.00087769779668822178 -0.0066755504180036947 0.046709218350323767 0.026121054922451117 -0.00088343912672469668 -0.0091643091669963237
leaf_weight=121283 79371 37 12642 1891 20 62 386 774 53 30 22 38 681 343
leaf_count=121283 79371 37 12642 1891 20 62 386 774 53 30 22 38 681 343
internal_value=0 -3.28129e-05 -0.000300684 -0.00102497 0.00613329 -0.0011203 -0.00184375 -4.58676e-05 0.00683294 0.0124015 0.0202215 0.011652 -0.00309207 -0.00515527
internal_weight=0 138262 16979 4337 57 4280 2389 979 205 143 90 68 1410 729
internal_count=217633 138262 16979 4337 57 4280 2389 979 205 143 90 68 1410 729
shrinkage=0.15


Tree=707
num_leaves=15
num_cat=0
split_feature=31 0 34 3 14 11 22 2 2 0 14 10 35 3
split_gain=0.0170354 0.102057 0.185479 0.252833 0.279002 0.32436 0.394524 0.481137 0.314298 0.254738 0.339065 0.234788 0.145259 0.130576
threshold=0.35662150000000009 -6.0528599999999999 0.19741050000000002 -7.1376749999999989 0.0014906400000000003 -3.2017399999999996e-05 2.7556600000000002 2.7053050000000005 2.7053050000000005 -7.8712899999999992 0.00015258600000000005 5.6045500000000011e-05 -0.012171449999999999 -7.0077899999999991
decision_type=2 2 2 2 2 2 2 2 2 2 2 2 2 2
left_child=-1 2 3 4 5 6 8 -8 11 10 -7 -2 -13 -5
right_child=1 -3 -4 13 -6 9 7 -9 -10 -11 -12 12 -14 -15
leaf_value=-1.4897327834089794e-05 0.020017372191933967 0.00028330286298275316 -0.00080682532559385467 -0.012133769812168214 -0.0015804909892809201 -0.0019388341626992249 0.0073451346385159655 0.038748650390492835 -0.0086581420679779156 -0.0074137087321698505 0.021209464711137115 0.011672737642220455 -0.0056361528206616638 -0.00024698402819845399
leaf_weight=193278 37 18894 4692 22 115 35 21 23 23 46 24 24 20 379
leaf_count=193278 37 18894 4692 22 115 35 21 23 23 46 24 24 20 379
internal_value=0 0.000118223 -0.00045292 0.00170641 0.00454559 0.00733017 0.011854 0.0237606 0.00681662 0.000953689 0.00747742 0.0112107 0.00380506 -0.000899127
internal_weight=0 24355 5461 769 368 253 148 44 104 105 59 81 44 401
internal_count=217633 24355 5461 769 368 253 148 44 104 105 59 81 44 401
shrinkage=0.15


Tree=708
num_leaves=15
num_cat=0
split_feature=23 3 3 23 27 14 23 3 1 28 19 34 14 37
split_gain=0.0163311 0.153754 0.229406 0.630012 0.56081 0.64267 0.261093 0.655164 0.4968 0.563834 0.273213 0.223347 0.332761 0.190743
threshold=-15.140049999999997 -11.892349999999999 -14.949199999999999 -17.487949999999994 2.7706550000000005 0.011296750000000001 -15.479399999999998 -15.871649999999999 -2.1902699999999995 -0.0030361699999999995 0.0038123050000000006 0.080256200000000014 0.0069509900000000006 3.6076000000000006e-07
decision_type=2 2 2 2 2 2 2 2 2 2 2 2 2 2
left_child=1 2 6 -4 5 -5 11 -8 -9 -10 -11 12 -1 -13
right_child=-2 -3 3 4 -6 -7 7 8 9 10 -12 13 -14 -15
leaf_value=0.017291677037137559 -1.7083917497499889e-05 0.00028711144346592245 0.00069688433734306152 -0.0065324844160453976 0.0017472257825327114 -0.00076538103331240512 -0.001645733469542543 0.026207434593067902 -0.0098077720947443488 0.026194409268080362 0.0041986017442468436 -0.0010271440638247114 -0.0042600836093899686 0.0013217837703093105
leaf_weight=40 185557 24141 2028 1050 456 742 157 42 31 27 24 2062 27 1249
leaf_count=40 185557 24141 2028 1050 456 742 157 42 31 27 24 2062 27 1249
internal_value=0 9.88291e-05 -0.000473991 -0.00122007 -0.00294942 -0.00414454 0.000397892 0.00479113 0.012941 0.00614603 0.0158434 3.24398e-05 0.00860664 -0.000141064
internal_weight=0 32076 7935 4276 2248 1792 3659 281 124 82 51 3378 67 3311
internal_count=217633 32076 7935 4276 2248 1792 3659 281 124 82 51 3378 67 3311
shrinkage=0.15


Tree=709
num_leaves=15
num_cat=0
split_feature=4 24 38 4 34 11 31 31 0 34 18 18 34 34
split_gain=0.0166016 0.246894 0.242867 0.973741 1.01837 0.687936 6.89923 2.42719 2.36929 0.927575 2.12434 2.0321 1.46152 0.973952
threshold=-0.06056559999999999 -0.35208349999999994 4.4098550000000001e-05 -0.22682949999999999 0.050927300000000002 7.6619750000000021e-06 -0.011094149999999999 -0.015857449999999999 11.124200000000002 0.016847400000000002 -2.7380799999999995e-06 -1.8630149999999998e-06 0.026516200000000004 0.015787600000000002
decision_type=2 2 2 2 2 2 2 2 2 2 2 2 2 2
left_child=1 -1 -3 -4 5 7 8 -5 9 10 -7 -11 -13 -12
right_child=-2 2 3 4 -6 6 -8 -9 -10 11 13 12 -14 -15
leaf_value=-0.00056452260374582886 -3.6688110197920435e-05 -6.5947416153152761e-05 -0.00019127295691725866 -0.0029457244836347861 -0.00046716717002384493 -0.0013063830783077999 -0.0029891517701638574 0.0037530494295859541 -0.0014489998947943379 0.02420102061285211 0.016936120603444831 0.01958295562404341 -0.0035176768268465023 -0.010072044956905302
leaf_weight=12866 121976 50062 20046 1898 4070 260 1600 3392 299 392 491 112 137 32
leaf_count=12866 121976 50062 20046 1898 4070 260 1600 3392 299 392 491 112 137 32
internal_value=0 4.67825e-05 0.000141781 0.000459521 0.00148813 0.00241209 0.0041035 0.0013496 0.0106898 0.0132387 0.0097748 0.0174698 0.00687297 0.0152836
internal_weight=0 95657 82791 32729 12683 8613 3323 5290 1723 1424 783 641 249 523
internal_count=217633 95657 82791 32729 12683 8613 3323 5290 1723 1424 783 641 249 523
shrinkage=0.15


Tree=710
num_leaves=15
num_cat=0
split_feature=34 14 3 23 23 23 3 3 23 25 7 14 3 6
split_gain=0.021856 0.0827391 0.205529 0.276435 0.27896 0.152187 0.135723 0.138373 0.171106 0.1531 0.15166 0.13021 0.126743 0.117658
threshold=0.10256300000000002 0.00028247300000000004 -7.1641399999999988 -10.917699999999998 -7.1072649999999991 -17.896049999999999 -8.515839999999999 -9.6081599999999998 -8.5884699999999992 3.8987050000000001 3.0676700000000004e-05 0.00015935200000000003 -7.1932899999999984 4.160015000000001e-06
decision_type=2 2 2 2 2 2 2 2 2 2 2 2 2 2
left_child=-1 2 3 5 6 -2 7 9 10 -5 -9 12 -8 -10
right_child=1 -3 -4 4 -6 -7 11 8 13 -11 -12 -13 -14 -15
leaf_value=-3.6015826840458006e-05 0.00014392996515899049 -4.9530943785952773e-05 4.7797770730908203e-05 0.010880342162480312 0.0030385640225228236 0.0022111167364360579 0.00071725345615393076 -0.00056307184569595842 -0.002681180262734415 -0.0024833184990829095 -0.010086551058080468 -0.0019138777919844277 0.012079806955349024 0.0097456613886879491
leaf_weight=138262 1063 51627 21331 28 424 3255 557 50 120 62 152 659 23 20
leaf_count=138262 1063 51627 21331 28 424 3255 557 50 120 62 152 659 23 20
internal_value=0 6.27385e-05 0.000271653 0.00101625 -0.000397615 0.00170222 -0.00126951 -0.00355892 -0.00493608 0.00167426 -0.00772925 -0.000471267 0.00116784 -0.000905917
internal_weight=0 79371 27744 6413 2095 4318 1671 432 342 90 202 1239 580 140
internal_count=217633 79371 27744 6413 2095 4318 1671 432 342 90 202 1239 580 140
shrinkage=0.15


Tree=711
num_leaves=15
num_cat=0
split_feature=4 38 4 34 23 21 19 4 3 23 23 24 23 34
split_gain=0.0224941 0.117062 0.209613 0.188265 0.166155 0.11144 0.604079 0.119718 0.189123 1.15203 1.04345 0.670934 0.552384 0.500449
threshold=-0.30706199999999995 -3.3935949999999991e-05 -1.5283549999999997 0.034418900000000009 -18.153449999999996 18.392150000000004 5.8236700000000004e-05 -1.5283549999999997 -12.117249999999997 -12.162849999999999 -11.352549999999999 -0.30906099999999997 -18.039999999999996 0.078832000000000013
decision_type=2 2 2 2 2 2 2 2 2 2 2 2 2 2
left_child=1 2 -1 -4 -5 7 -7 -3 9 12 -10 -11 -9 -12
right_child=-2 5 3 4 -6 6 -8 8 10 11 13 -13 -14 -15
leaf_value=-1.0505977704452709e-05 -2.7539794459308339e-05 9.5258566527517378e-05 0.0016950544218435088 0.0029845266875931117 6.9353196479829895e-05 0.025640054973337101 -0.0015329435016150155 -0.0026110271816529953 -0.0037130619017327992 -0.006601145651715129 -0.00071193187459182091 -0.00024751651014031316 0.0058043473570041195 0.0026548667836214668
leaf_weight=16058 164111 17548 3807 482 5038 24 79 216 2184 478 3579 1718 936 1375
leaf_count=16058 164111 17548 3807 482 5038 24 79 216 2184 478 3579 1718 936 1375
internal_value=0 8.44435e-05 0.000317995 0.000883566 0.000323903 -0.000126265 0.00479863 -0.00014436 -0.000545354 0.000384799 -0.000981632 -0.0016305 0.00422646 0.000222535
internal_weight=0 53522 25385 9327 5520 28137 103 28034 10486 3348 7138 2196 1152 4954
internal_count=217633 53522 25385 9327 5520 28137 103 28034 10486 3348 7138 2196 1152 4954
shrinkage=0.15


Tree=712
num_leaves=15
num_cat=0
split_feature=16 29 10 9 37 16 37 11 16 10 25 1 35 28
split_gain=0.0212221 0.0487385 0.142522 0.221638 0.321631 0.241692 0.273754 0.127038 0.168339 0.335051 0.41697 0.225826 0.119891 0.246449
threshold=-2.2582199999999995e-06 0.10967200000000001 2.4118650000000003e-05 -1.9561949999999997e-05 1.8248550000000003e-05 -1.4816449999999998e-05 9.0597550000000005e-07 -7.2710199999999987e-05 -2.0525299999999998e-05 3.8545700000000006e-05 7.8320250000000007 1.9292050000000003 -0.17054099999999997 0.17278200000000002
decision_type=2 2 2 2 2 2 2 2 2 2 2 2 2 2
left_child=1 -1 3 4 5 -3 -7 8 -4 10 -10 -12 13 -11
right_child=-2 2 7 -5 -6 6 -8 -9 9 12 11 -13 -14 -15
leaf_value=0.00011630155220772576 -2.6740828395676625e-05 -0.003045479072413097 0.00025704113976040297 -0.0011695992973265656 0.0055987879342865197 -0.0074097081755753608 -0.028828720504353783 -0.00087774131966641804 0.029446356312948174 0.015813674065118122 -0.00061891913159512152 0.016690971905232541 -0.002837164089308522 -0.0044671741702096857
leaf_weight=50599 164138 36 649 748 29 25 29 1139 23 28 43 28 93 26
leaf_count=50599 164138 36 649 748 29 25 29 1139 23 28 43 28 93 26
internal_value=0 8.20485e-05 -0.000516421 -0.00212619 -0.00813906 -0.0125657 -0.0189125 0.00017144 0.00151416 0.0048995 0.0118936 0.00620752 0.000427075 0.00604882
internal_weight=0 53495 2896 867 119 90 54 2029 890 241 94 71 147 54
internal_count=217633 53495 2896 867 119 90 54 2029 890 241 94 71 147 54
shrinkage=0.15


Tree=713
num_leaves=15
num_cat=0
split_feature=0 20 20 39 3 13 14 11 3 39 3 21 23 23
split_gain=0.0178986 0.0934288 0.0956567 0.22471 0.505139 0.189975 0.0916442 0.22008 0.0554017 0.0514543 0.050894 0.184008 0.360515 0.0902139
threshold=11.559500000000002 6.7373500000000011 12.994100000000001 2.7380300000000003e-05 -5.7268599999999994 -1.5427449999999997e-05 8.7942550000000017e-05 3.5688200000000008e-05 -5.6195949999999995 2.3611650000000005e-06 -5.9424999999999999 -6.706739999999999 -6.6695199999999994 -6.6695199999999994
decision_type=2 2 2 2 2 2 2 2 2 2 2 2 2 2
left_child=-1 9 10 4 -4 -5 8 -8 -7 -2 11 12 -3 -13
right_child=1 2 3 5 -6 6 7 -9 -10 -11 -12 13 -14 -15
leaf_value=-9.8936927777310811e-06 0.0012087776977639637 0.00068314698587998684 0.020717492873173846 0.009914880041633883 -0.0064161528605976717 -0.012216915790369966 0.011100784681704161 -0.0071089250814111438 -0.0037244980655097085 0.00023624503814974351 -0.00063951930961439615 -0.0025796859734251846 -0.023896799541078508 0.00281291954840223
leaf_weight=206699 1465 29 38 31 26 25 28 32 56 7442 1336 311 25 90
leaf_count=206699 1465 29 38 31 26 25 28 32 56 7442 1336 311 25 90
internal_value=0 0.000187033 -0.000732106 0.00210656 0.00969445 -0.000716844 -0.00305432 0.00138894 -0.00634561 0.000396205 -0.00110616 -0.00247633 -0.0106965 -0.00136938
internal_weight=0 10934 2027 236 64 172 141 60 81 8907 1791 455 54 401
internal_count=217633 10934 2027 236 64 172 141 60 81 8907 1791 455 54 401
shrinkage=0.15


Tree=714
num_leaves=15
num_cat=0
split_feature=34 14 3 23 23 23 14 3 17 23 23 6 11 9
split_gain=0.0183894 0.0620751 0.153179 0.170948 0.206328 0.168466 0.153965 0.13016 0.110463 0.0999464 0.0950316 0.118394 0.0981704 0.101508
threshold=0.10256300000000002 0.00028247300000000004 -6.860879999999999 -10.860199999999997 -6.789509999999999 -17.896049999999999 0.00017188600000000003 -8.619629999999999 5.0548200000000008e-06 -8.3320149999999984 -8.4609499999999986 4.066745000000001e-06 -2.9945149999999999e-05 6.4587800000000012e-05
decision_type=2 2 2 2 2 2 2 2 2 2 2 2 2 2
left_child=-1 2 3 5 6 -2 7 9 -8 -5 -9 12 -12 -14
right_child=1 -3 -4 4 -6 -7 8 10 -10 -11 11 -13 13 -15
leaf_value=-3.3036376766908932e-05 -0.00020022586236262245 -3.9696090148962589e-05 1.0283048873375197e-05 -0.0096267421575434199 0.0029043743890489015 0.0017322250365840845 -0.0023534754316689509 0.0019465616693559082 0.0051566874865270418 0.0013666010089218616 0.0090755096232492671 -0.0056747350599281442 -0.0010860711593474997 0.0099688012531260022
leaf_weight=138262 1342 51627 19548 49 409 4166 1048 682 46 30 27 92 285 20
leaf_count=138262 1342 51627 19548 49 409 4166 1048 682 46 30 27 92 285 20
internal_value=0 5.75484e-05 0.000238504 0.000782827 -0.000197803 0.00126139 -0.000754534 0.000430086 -0.00203769 -0.00545205 0.000850239 -0.000913187 0.000406279 -0.000361161
internal_weight=0 79371 27744 8196 2688 5508 2279 1185 1094 79 1106 424 332 305
internal_count=217633 79371 27744 8196 2688 5508 2279 1185 1094 79 1106 424 332 305
shrinkage=0.15


Tree=715
num_leaves=15
num_cat=0
split_feature=4 38 4 4 21 8 3 23 23 24 0 29 29 3
split_gain=0.0172371 0.0870074 0.212707 0.162509 0.251563 0.720997 0.201989 0.935947 0.579779 0.556269 0.803023 1.00003 0.99415 0.848049
threshold=-0.30706199999999995 8.4904950000000011e-05 -1.6509149999999997 -1.5283549999999997 18.392150000000004 -3.9270999999999992e-06 -12.195349999999999 -12.162849999999999 -11.352549999999999 -0.26190999999999992 -3.9661499999999994 0.038039200000000009 0.038039200000000009 -6.5460449999999986
decision_type=2 2 2 2 2 2 2 2 2 2 2 2 2 2
left_child=1 2 -1 -3 6 -6 7 -5 -8 10 11 -10 13 -12
right_child=-2 3 -4 4 5 -7 8 -9 9 -11 12 -13 -14 -15
leaf_value=-7.124990948260672e-05 -2.4107830571085288e-05 0.00016402789062729389 0.0007515301131416467 0.0036580233220665768 0.031545178312808272 -0.0078058668978469954 -0.0031351839406377558 -0.0019123323020748333 -0.0084091217390328023 -0.0015807673782281511 0.0098936642072949312 0.0045368683170075811 -0.0036839780960112303 -0.0021636904128042389
leaf_weight=18464 164111 14731 11456 1141 20 22 2198 1675 297 2258 600 245 247 168
leaf_count=18464 164111 14731 11456 1141 20 22 2198 1675 297 2258 600 245 247 168
internal_value=0 7.39203e-05 0.000243782 -0.000141412 -0.00064862 0.0109327 -0.000703713 0.00034469 -0.0011947 -7.66955e-05 0.00210455 -0.00255715 0.00459385 0.00725612
internal_weight=0 53522 29920 23602 8871 42 8829 2816 6013 3815 1557 542 1015 768
internal_count=217633 53522 29920 23602 8871 42 8829 2816 6013 3815 1557 542 1015 768
shrinkage=0.15


Tree=716
num_leaves=15
num_cat=0
split_feature=3 23 3 35 15 1 21 15 34 5 29 11 4 7
split_gain=0.0213567 0.137227 0.243272 0.195686 1.16284 0.422791 0.782322 0.608393 0.641093 0.41108 0.425261 0.667729 0.581382 0.398084
threshold=-6.6828699999999985 -6.9868449999999989 -6.1920449999999994 -0.0003451739999999999 2.0938650000000004e-08 9.5703250000000022 10.323650000000002 -2.7863449999999992e-06 0.24027450000000003 9.5453100000000006e-06 -0.0068302999999999992 9.8314350000000029e-06 0.069797850000000008 3.5849900000000004e-05
decision_type=2 2 2 2 2 2 2 2 2 2 2 2 2 2
left_child=-1 -2 3 4 5 7 -7 -3 9 13 11 -11 -12 -9
right_child=1 2 -4 -5 -6 6 -8 8 -10 10 12 -13 -14 -15
leaf_value=-3.0507664608406054e-05 0.00018044147489597033 -0.0023229175347556259 2.720659078803463e-05 -0.0021823595747241728 -0.005865341041026385 -0.0077205814188707061 0.017743007015836025 0.013952741279612263 -0.0082142325903987509 0.0031535901600198654 0.001382656913911513 0.034155600916387308 0.021070454063401346 -0.010497012270006335
leaf_weight=153098 51873 112 9272 2414 401 121 35 31 36 22 68 54 67 29
leaf_count=153098 51873 112 9272 2414 401 121 35 31 36 22 68 54 67 29
internal_value=0 7.23741e-05 -0.000370351 -0.00145771 0.000334609 0.0046584 -0.0020076 0.00714025 0.0105926 0.0130909 0.0162063 0.0251813 0.0111536 0.00213536
internal_weight=0 64535 12662 3390 976 575 156 419 307 271 211 76 135 60
internal_count=217633 64535 12662 3390 976 575 156 419 307 271 211 76 135 60
shrinkage=0.15


Tree=717
num_leaves=15
num_cat=0
split_feature=17 33 18 38 7 4 4 21 4 5 9 6 14 21
split_gain=0.0189336 0.13084 0.15169 0.299876 0.224488 0.215679 0.281038 0.135933 0.438863 0.391571 0.555366 0.495533 0.295269 0.509714
threshold=3.1090850000000007e-06 2.4838450000000008e-07 -7.8519049999999971e-06 0.00055839300000000013 4.722975000000001e-05 -1.1246349999999998 0.019025200000000003 5.3537200000000009 0.29391050000000002 1.7742850000000002e-05 -1.9561949999999997e-05 1.3958400000000003e-06 0.00068334050000000012 -6.0969499999999988
decision_type=2 2 2 2 2 2 2 2 2 2 2 2 2 2
left_child=-1 2 3 4 -2 -5 -7 12 9 10 11 -9 13 -3
right_child=1 7 -4 5 -6 6 -8 8 -10 -11 -12 -13 -14 -15
leaf_value=-2.7648843224697227e-05 0.0024759078361036922 -0.0016982932830902095 9.2308170884209816e-05 0.00096392597450257415 0.00061257290257700156 -0.003481922615177469 0.0025684052147638744 -0.0014149535483834609 0.00017156772818463495 -0.00042675110971902847 -0.001817360209341831 -0.011921779377123652 -0.00021907687445503262 0.0021943509519158134
leaf_weight=156510 2461 1017 22830 874 3558 832 218 152 4311 1222 796 301 19592 2959
leaf_count=156510 2461 1017 22830 874 3558 832 218 152 4311 1222 796 301 19592 2959
internal_value=0 7.07969e-05 0.000288745 0.000853351 0.00137444 -0.000776807 -0.00222576 -0.000150189 -0.000741965 -0.00233575 -0.00420348 -0.00839631 2.01021e-05 0.00119867
internal_weight=0 61123 30773 7943 6019 1924 1050 30350 6782 2471 1249 453 23568 3976
internal_count=217633 61123 30773 7943 6019 1924 1050 30350 6782 2471 1249 453 23568 3976
shrinkage=0.15


Tree=718
num_leaves=15
num_cat=0
split_feature=16 31 16 20 2 3 0 16 0 13 13 32 4 10
split_gain=0.0173536 0.0413822 0.0675867 0.155502 0.284878 0.13611 0.159801 0.245476 0.445421 0.209474 0.34153 0.159285 0.132325 0.131922
threshold=-2.2582199999999995e-06 0.73536850000000009 5.8180250000000009e-06 7.4241650000000012 1.5532300000000003 -7.4072199999999988 -0.37806699999999999 1.6983350000000002e-06 -8.0951199999999996 6.9651600000000016e-05 4.9502400000000009e-05 -1.3157599999999998 0.29391050000000002 1.7475250000000005e-05
decision_type=2 2 2 2 2 2 2 2 2 2 2 2 2 2
left_child=-1 -2 5 -4 -5 6 7 -3 -9 10 11 -10 -8 -13
right_child=1 2 3 4 -6 -7 12 8 9 -11 -12 13 -14 -15
leaf_value=7.4194554580794429e-05 -4.5311903202564864e-05 -0.00045048920088994063 -0.00048807386328033529 0.001200147690103352 0.021119861840270461 -9.6976198750985167e-05 0.0023785460431618322 0.02649106231285259 0.0095229111934223998 -0.010500915963506406 0.022564118776270854 -0.012060152475764465 -0.001544031947851181 0.0017573878870846458
leaf_weight=53495 152161 1721 3320 70 21 4517 1935 20 39 23 21 22 215 53
leaf_count=53495 152161 1721 3320 70 21 4517 1935 20 39 23 21 22 215 53
internal_value=0 -2.41811e-05 0.000244274 -0.000320398 0.005797 0.000469127 0.00110066 9.79813e-05 0.00540089 0.00273125 0.00498562 0.00174747 0.00198629 -0.00229576
internal_weight=0 164138 11977 3411 91 8566 4049 1899 178 158 135 114 2150 75
internal_count=217633 164138 11977 3411 91 8566 4049 1899 178 158 135 114 2150 75
shrinkage=0.15


Tree=719
num_leaves=15
num_cat=0
split_feature=3 24 4 0 3 16 26 29 34 3 5 22 39 27
split_gain=0.0176072 0.0620405 0.0941325 0.106681 0.157551 0.0903853 0.0759556 0.0610275 0.0543873 0.102116 0.133246 0.170195 0.223374 0.138776
threshold=-6.6828699999999985 0.82179550000000012 0.24753700000000003 8.0347600000000003 -6.1661399999999995 5.2623050000000008e-06 0.03129645000000001 -0.0013178199999999997 0.0033198800000000003 -6.572074999999999 2.1601150000000006e-05 -0.81178699999999993 6.4646500000000006e-07 0.16714300000000001
decision_type=2 2 2 2 2 2 2 2 2 2 2 2 2 2
left_child=-1 8 -3 6 -5 7 -4 -6 9 10 11 12 -2 -13
right_child=1 2 3 4 5 -7 -8 -9 -10 -11 -12 13 -14 -15
leaf_value=-2.7700480303538142e-05 -0.024604626470086672 -0.00027935862531652383 -0.0019181935732306625 -0.014379070042139994 -0.0095976516274580096 0.0059759987340657966 0.0073005504382308573 4.9471117090433833e-05 0.00012959311129914793 -0.00028121314035128256 0.0026198100685229839 0.0016587809856226216 -0.0038805536851286887 -0.01026595987872604
leaf_weight=153098 22 2107 234 39 36 20 22 25 58528 3328 53 62 25 34
leaf_count=153098 22 2107 234 39 36 20 22 25 58528 3328 53 62 25 34
internal_value=0 6.57145e-05 -0.000669511 -0.00285582 -0.00654619 -0.0027748 -0.00112596 -0.00564391 9.51345e-05 -0.000477168 -0.00380441 -0.00618541 -0.0135812 -0.00256456
internal_weight=0 64535 2483 376 120 81 256 61 62052 3524 196 143 47 96
internal_count=217633 64535 2483 376 120 81 256 61 62052 3524 196 143 47 96
shrinkage=0.15


Tree=720
num_leaves=15
num_cat=0
split_feature=4 32 1 2 13 38 3 32 36 21 4 26 33 19
split_gain=0.0171609 0.0498677 0.0512397 0.0457873 0.0695798 0.0686357 0.0793172 0.0448759 0.0444729 0.0617982 0.242107 0.0496057 0.0388699 0.262282
threshold=2.6382950000000007 -0.033324299999999994 0.9808285000000001 1.0000000180025095e-35 8.3693450000000004e-05 -0.022653099999999995 -16.724049999999995 0.064333900000000013 0.0026558950000000006 -6.0095599999999996 5.147825000000001 0.019037100000000005 -2.7034349999999997e-06 3.3787900000000009e-05
decision_type=2 2 2 2 2 2 2 2 2 2 2 2 2 2
left_child=12 2 -2 5 -5 6 -3 -6 -4 10 -10 -11 13 -1
right_child=1 3 8 4 7 -7 -8 -9 9 11 -12 -13 -14 -15
leaf_value=-0.00042163628868256876 0.00070097857273923765 0.0063292349777184422 0.00031010828384684801 0.00084997642216500435 -0.00044297977157127532 -0.0001730720088268632 -0.0023231815383991362 0.00039181930163695512 0.015299828580828033 -0.0007763272136999315 -0.0055925592224901682 -0.0063527525770729655 3.8359545951951213e-05 0.0001464061343399392
leaf_weight=32352 5258 25 3204 2626 3318 8338 513 2572 24 1199 26 37 116067 42074
leaf_count=32352 5258 25 3204 2626 3318 8338 513 2572 24 1199 26 37 116067 42074
internal_value=0 0.000111592 0.000383182 -4.06305e-05 0.000207843 -0.000279026 -0.00192112 -7.84461e-05 1.10263e-05 -0.00073412 0.00443579 -0.000943259 -1.58988e-05 -0.000100514
internal_weight=0 27140 9748 17392 8516 8876 538 5890 4490 1286 50 1236 190493 74426
internal_count=217633 27140 9748 17392 8516 8876 538 5890 4490 1286 50 1236 190493 74426
shrinkage=0.15


Tree=721
num_leaves=15
num_cat=0
split_feature=2 28 22 13 22 3 13 22 1 23 23 23 1 3
split_gain=0.0177556 0.202226 0.341075 1.85895 1.0834 1.08367 1.0765 8.04773 2.04787 2.72736 1.81448 1.20595 2.08074 1.7726
threshold=-1.0844649999999998 0.0020348000000000002 -1.0853349999999997 -2.7910349999999995e-06 -0.16518399999999997 -6.5460449999999986 -2.3689349999999998e-06 -1.5224299999999997 -10.500049999999998 -7.0557349999999994 -7.2759249999999991 -16.042949999999994 -4.5348499999999996 -14.949199999999999
decision_type=2 2 2 2 2 2 2 2 2 2 2 2 2 2
left_child=1 2 6 4 5 -4 7 -1 10 11 -9 13 -13 -10
right_child=-2 -3 3 -5 -6 -7 -8 8 9 -11 -12 12 -14 -15
leaf_value=-0.0020788049430155585 -3.0292496405021964e-05 0.0003521940879269832 -0.0094105705246557547 -1.9739050180013446e-05 -0.00019339901725334756 -0.001054662957574927 -0.0002364988786334956 -0.0039392530569882806 0.023813842334930085 -0.0058177570008930545 0.015526122524644723 0.02514974339852849 -0.0094621855632535043 -0.013467211647551844
leaf_weight=2782 145099 30794 1103 14301 868 511 20907 260 60 105 184 562 42 55
leaf_count=2782 145099 30794 1103 14301 868 511 20907 260 60 105 184 562 42 55
internal_value=0 6.05979e-05 -0.000154529 -0.000677409 -0.00446683 -0.00676505 0.000197095 0.0024354 0.0123396 0.0167646 0.00412748 0.0200624 0.022743 0.00598377
internal_weight=0 72534 41740 16783 2482 1614 24957 4050 1268 824 444 719 604 115
internal_count=217633 72534 41740 16783 2482 1614 24957 4050 1268 824 444 719 604 115
shrinkage=0.15


Tree=722
num_leaves=15
num_cat=0
split_feature=22 0 0 1 21 14 1 34 1 22 13 21 34 3
split_gain=0.0265335 0.131748 0.174937 0.498986 1.85983 1.06701 1.07272 0.920819 0.654141 0.564183 0.538054 0.556016 0.474996 0.464549
threshold=-2.1362749999999995 -8.9809199999999993 -4.6429399999999994 -4.3419649999999992 -6.3049749999999998 0.00051341800000000008 -9.4904649999999986 0.14278350000000004 -6.2579299999999991 -2.4287549999999993 2.2315950000000001e-05 -7.9193399999999992 0.071278700000000014 -8.9780899999999981
decision_type=2 2 2 2 2 2 2 2 2 2 2 2 2 2
left_child=1 -1 3 4 5 6 -3 8 9 -8 -11 -12 -7 -6
right_child=-2 2 -4 -5 13 12 7 -9 -10 10 11 -13 -14 -15
leaf_value=-0.00069070478972599054 -2.2498197775478144e-05 0.0021959795527905467 3.9234744731651359e-05 4.3566858919720242e-05 0.0049313509569242665 -0.0057243191653855536 0.005581624138202252 -0.00095162319610952518 0.0063621666592856242 0.024699403952969157 0.02846050906669477 0.057833687884026555 0.010488127104168677 -0.0012956623769839733
leaf_weight=3964 183731 97 23473 4481 355 99 21 37 36 92 29 29 69 1120
leaf_count=3964 183731 97 23473 4481 355 99 21 37 36 92 29 29 69 1120
internal_value=0 0.000121928 0.000229527 0.000920435 0.0029009 0.0107189 0.0155394 0.0208439 0.0247398 0.0286087 0.0318325 0.0431471 0.000934364 0.000203043
internal_weight=0 33902 29938 6465 1984 509 341 244 207 171 150 58 168 1475
internal_count=217633 33902 29938 6465 1984 509 341 244 207 171 150 58 168 1475
shrinkage=0.15


Tree=723
num_leaves=15
num_cat=0
split_feature=22 10 13 3 23 19 12 34 34 23 19 26 14 3
split_gain=0.0241795 0.0933003 0.0930607 0.06763 0.153488 0.300866 0.153179 0.174796 0.10803 0.0895537 0.0881861 0.0866765 0.0834188 0.125773
threshold=-2.5339749999999994 2.0057950000000003e-05 -8.8161699999999983e-06 -8.548074999999999 -9.1480199999999989 1.5064750000000002e-05 -0.00012133299999999999 0.11922750000000001 0.036792500000000006 -7.1072649999999991 2.8998550000000006e-06 -0.0015752549999999998 0.00017734350000000003 -6.0545599999999995
decision_type=2 2 2 2 2 2 2 2 2 2 2 2 2 2
left_child=1 2 -1 4 5 6 8 10 -4 -5 -8 -7 13 -11
right_child=-2 -3 3 9 -6 11 7 -9 -10 12 -12 -13 -14 -15
leaf_value=0.0021450950645972703 -1.6287586982820682e-05 -1.0241805466243149e-05 0.0012554315140005199 0.0018918094487940973 0.0012225374696540189 -0.007921820716350338 -0.0072671898673457658 0.00084356215403411691 -0.010820997360278851 -0.0086179279398493226 0.0016223471495322884 0.0010776718079738002 0.0016707832939558149 0.00052107294648825087
leaf_weight=882 196753 16485 20 1048 1057 25 154 171 100 64 30 654 118 72
leaf_count=882 196753 16485 20 1048 1057 25 154 171 100 64 30 654 118 72
internal_value=0 0.000153479 0.000767569 0.000421718 -8.3331e-05 -0.00127943 -0.0041752 -0.00260909 -0.00880826 0.00127937 -0.00581781 0.000746321 -0.00124755 -0.00377963
internal_weight=0 20880 4395 3513 2211 1154 475 355 120 1302 184 679 254 136
internal_count=217633 20880 4395 3513 2211 1154 475 355 120 1302 184 679 254 136
shrinkage=0.15


Tree=724
num_leaves=15
num_cat=0
split_feature=3 23 3 12 32 19 33 28 0 15 38 4 18 38
split_gain=0.0195381 0.113596 0.113004 0.116473 0.574914 0.593885 0.550229 0.386217 0.206299 0.224591 0.172964 0.414494 0.343093 0.649439
threshold=-6.6828699999999985 -6.4354599999999991 -5.6498199999999992 -4.7157849999999994e-05 0.043922150000000007 1.5158200000000003e-06 -7.0584149999999996e-07 -0.0081473749999999984 1.8235000000000003 7.0104900000000013e-08 -0.00014207099999999999 -0.05802319999999999 2.7333700000000002e-08 1.0000000180025095e-35
decision_type=2 2 2 2 2 2 2 2 2 2 2 2 2 2
left_child=-1 -2 3 4 -3 6 -6 -5 -7 -10 11 -9 -12 -14
right_child=1 2 -4 7 5 8 -8 10 9 -11 12 -13 13 -15
leaf_value=-2.9179842904541205e-05 0.00013056357779881033 -0.0019353845389247593 0.00014366930321023022 -0.0059201876161398045 0.040972148653651987 -0.005024053720468752 0.0073894504331173776 -0.004268553861286219 0.018843308012359419 -6.0845348202893803e-05 0.00028453538268584773 0.0044171261002143216 -5.7903799750932076e-05 -0.010044681219448971
leaf_weight=153098 58936 466 2614 402 21 45 23 188 26 31 827 361 334 261
leaf_count=153098 58936 466 2614 402 21 45 23 188 26 31 827 361 334 261
internal_value=0 6.92241e-05 -0.000576446 -0.00120706 0.000637975 0.00885157 0.0234176 -0.0016829 0.00256821 0.0085621 -0.000818669 0.00144279 -0.00169177 -0.00443866
internal_weight=0 64535 5599 2985 612 146 44 2373 102 57 1971 549 1422 595
internal_count=217633 64535 5599 2985 612 146 44 2373 102 57 1971 549 1422 595
shrinkage=0.15


Tree=725
num_leaves=15
num_cat=0
split_feature=22 5 26 8 12 1 22 23 11 0 14 11 23 14
split_gain=0.0179172 0.0697186 0.0926447 0.0647407 0.125004 0.119486 0.30383 0.354575 1.11065 0.918994 0.762342 0.455386 0.443251 0.291174
threshold=-2.5339749999999994 7.2568900000000009e-06 -0.00031256899999999995 2.9092100000000003e-06 2.9825400000000004e-05 -3.6508499999999997 -2.8863399999999997 -10.364449999999998 -2.9945149999999999e-05 -6.7199149999999994 0.0078268300000000016 -6.021874999999999e-05 -11.298099999999998 0.0005728895000000001
decision_type=2 2 2 2 2 2 2 2 2 2 2 2 2 2
left_child=1 2 -1 4 -3 -5 -7 8 9 12 11 -11 -8 -9
right_child=-2 3 -4 5 -6 6 7 13 -10 10 -12 -13 -14 -15
leaf_value=0.0059686072636395693 -1.4020662822233531e-05 -0.001001551026294227 -0.0033258417828058791 0.00014602582849913151 0.00019518823065377619 -0.00061798030958545793 -0.0070917752454093159 0.0038794353815313691 -0.00021159766565836472 0.017156550507120765 -0.0012391714676232366 0.034717071149498221 0.017975020282236593 -0.0022505861928391602
leaf_weight=27 196753 2582 227 7467 8203 1002 65 314 368 127 40 45 21 392
leaf_count=27 196753 2582 227 7467 8203 1002 65 314 368 127 40 45 21 392
internal_value=0 0.000132117 -0.00233785 0.000162534 -9.1319e-05 0.000440737 0.0013677 0.00281789 0.00530064 0.0121077 0.0174131 0.0217509 -0.000970814 0.000475797
internal_weight=0 20880 254 20626 10785 9841 2374 1372 666 298 212 172 86 706
internal_count=217633 20880 254 20626 10785 9841 2374 1372 666 298 212 172 86 706
shrinkage=0.15


Tree=726
num_leaves=15
num_cat=0
split_feature=39 14 3 21 12 3 4 3 14 23 21 7 31 20
split_gain=0.0180474 0.0659182 0.0909134 0.111373 0.270267 0.392904 0.49853 0.135334 0.210689 0.278207 0.130323 0.103778 0.0776456 0.0746969
threshold=5.5047500000000012e-07 0.0023568750000000005 -6.749814999999999 8.9308700000000023 3.1820550000000008e-05 -5.8564649999999991 -0.053905349999999991 -6.3035799999999993 6.435020000000002e-05 -6.3165649999999989 11.733250000000002 3.1241300000000009e-05 -0.0021043799999999999 -4.2474399999999992
decision_type=2 2 2 2 2 2 2 2 2 2 2 2 2 2
left_child=1 2 -1 7 11 6 -6 8 12 13 -8 -5 -4 -10
right_child=-2 -3 3 4 5 -7 10 -9 9 -11 -12 -13 -14 -15
leaf_value=0.0017461817166073356 -5.4716739742883532e-06 -0.00052627338241637163 0.0099678965878080231 -0.0094958007610643855 -0.0019049089437391123 -0.0019757434135826771 0.033939372242561404 -0.00015163360470630343 -0.020716605823522864 0.0014667982826582515 0.017020608354359864 0.00023844446256378698 -0.0029457208269741382 -0.010575655546034051
leaf_weight=1162 214196 1253 22 29 23 50 21 564 26 39 20 164 20 44
leaf_count=1162 214196 1253 22 29 23 50 21 564 26 39 20 164 20 44
internal_value=0 0.000340998 0.000838567 -0.000193378 0.0021963 0.00798718 0.0157707 -0.00121944 -0.00520779 -0.00868583 0.0256863 -0.00122421 0.00381855 -0.0143423
internal_weight=0 3437 2184 1022 307 114 64 715 151 109 41 193 42 70
internal_count=217633 3437 2184 1022 307 114 64 715 151 109 41 193 42 70
shrinkage=0.15


Tree=727
num_leaves=15
num_cat=0
split_feature=22 1 21 11 19 22 16 31 1 1 2 23 8 1
split_gain=0.0171619 0.0503769 0.0496199 0.0420853 0.096427 0.228964 0.263963 0.149685 0.177529 0.205001 0.14865 0.315334 0.188094 0.129158
threshold=-2.8863399999999997 -6.1608199999999984 -4.6242149999999986 -3.4928399999999996e-05 7.0604550000000007e-06 -3.0104949999999993 7.6151300000000008e-07 2.3083350000000005 -0.79546799999999995 -1.5816049999999997 -2.8476049999999993 -9.1480199999999989 2.4258350000000005e-06 -1.6711899999999997
decision_type=2 2 2 2 2 2 2 2 2 2 2 2 2 2
left_child=1 2 -1 4 5 7 10 8 9 -3 12 -12 -7 -14
right_child=-2 3 -4 -5 -6 6 -8 -9 -10 -11 11 -13 13 -15
leaf_value=-0.0025888945352542147 -8.610344493589927e-06 0.0039109440293208118 0.0010354691497791758 0.00025914562589295521 -4.4743457274676588e-05 -0.011659056363310405 -0.021024008295701248 -0.010861577862524428 0.012520903883748415 -0.009850240678695792 -0.016507838913705199 0.0020559735746870241 -0.0054998477920889851 0.0064893479346327726
leaf_weight=89 208904 93 1887 4694 1652 27 23 20 34 33 50 35 30 62
leaf_count=89 208904 93 1887 4694 1652 27 23 20 34 33 50 35 30 62
internal_value=0 0.000206064 0.000872226 1.11383e-05 -0.000554256 -0.00262235 -0.00579046 0.00137299 0.00290232 0.000306824 -0.00407296 -0.00886392 -0.000650844 0.00257983
internal_weight=0 8729 1976 6753 2059 407 227 180 160 126 204 85 119 92
internal_count=217633 8729 1976 6753 2059 407 227 180 160 126 204 85 119 92
shrinkage=0.15


Tree=728
num_leaves=15
num_cat=0
split_feature=4 14 25 3 39 14 33 23 37 31 23 14 3 23
split_gain=0.0163677 0.0399488 0.0645266 0.06104 0.0597719 0.0531985 0.0372786 0.0337977 0.101529 0.0366421 0.0331296 0.0982129 0.0363561 0.0416633
threshold=2.6382950000000007 0.0034191400000000006 0.70037450000000012 -6.0288849999999989 3.1190500000000007e-06 0.00029851800000000006 -1.1618749999999998e-05 -8.3320149999999984 1.8263050000000002e-08 0.016414450000000004 -10.156499999999999 0.00059260700000000009 -10.010399999999999 -7.6156999999999995
decision_type=2 2 2 2 2 2 2 2 2 2 2 2 2 2
left_child=-1 2 3 5 -3 7 -7 -2 9 -9 -4 -12 -13 -14
right_child=1 4 10 -5 -6 6 -8 8 -10 -11 11 12 13 -15
leaf_value=-1.5527041657293746e-05 0.0040564034590062472 -0.00044854537578676391 0.00049162920288362282 -0.001016566415242339 0.00015020269310095323 0.0023219743174575647 0.00066579559891627135 0.0049377279655800519 -0.0083135912258347332 -0.0020427779746292479 -0.0023273498372182815 0.0019588258114217913 -0.0013593565810524678 0.0010081881653180174
leaf_weight=190493 206 4870 1069 348 16332 349 2470 64 22 23 490 226 354 317
leaf_count=190493 206 4870 1069 348 16332 349 2470 64 22 23 490 226 354 317
internal_value=0 0.000108983 0.000452863 0.000868142 1.26731e-05 0.00107742 0.000870835 0.00292619 0.000790199 0.00309231 -0.000135901 -0.000619555 0.000313353 -0.000240859
internal_weight=0 27140 5938 3482 21202 3134 2819 315 109 87 2456 1387 897 671
internal_count=217633 27140 5938 3482 21202 3134 2819 315 109 87 2456 1387 897 671
shrinkage=0.15


Tree=729
num_leaves=15
num_cat=0
split_feature=3 23 13 34 3 23 3 13 23 3 19 33 33 13
split_gain=0.0165656 0.0938602 0.164868 0.10596 0.205438 0.450968 1.13723 0.710621 0.681915 5.87157 2.33361 5.81177 3.29931 4.19397
threshold=-6.9170499999999988 -7.3218799999999993 6.9651600000000016e-05 0.10256300000000002 -10.344549999999998 -11.762749999999999 -11.739649999999997 6.6831150000000008e-05 -10.364449999999998 -11.739649999999997 7.4248700000000005e-07 9.3338250000000019e-07 2.0093250000000005e-06 -1.5278699999999996e-06
decision_type=2 2 2 2 2 2 2 2 2 2 2 2 2 2
left_child=1 3 -3 4 5 6 -1 -8 9 -7 11 -11 -12 -14
right_child=-2 2 -4 -5 -6 8 7 -9 -10 10 12 -13 13 -15
leaf_value=8.8533784751887009e-05 5.9208443355488904e-05 0.00041116911603741326 -0.00028981885440819508 6.8426293617901136e-05 -0.00048968968248603066 -0.0018458771817951114 -0.0065782186852205819 0.00010177898239824213 -5.9632398129534509e-05 0.027974626079851714 -0.0022695763125073452 -0.010769710677693813 0.023035190451209601 -0.00043248449733792005
leaf_weight=5038 71427 23567 11107 49267 32150 3292 1124 526 18357 341 624 117 391 305
leaf_count=5038 71427 23567 11107 49267 32150 3292 1124 526 18357 341 624 117 391 305
internal_value=0 -2.89255e-05 0.000186624 -9.59374e-05 -0.00022599 5.55298e-05 -0.00103085 -0.00444872 0.000365673 0.00190558 0.00885148 0.0180771 0.00565048 0.0127512
internal_weight=0 146206 34674 111532 62265 30115 6688 1650 23427 5070 1778 458 1320 696
internal_count=217633 146206 34674 111532 62265 30115 6688 1650 23427 5070 1778 458 1320 696
shrinkage=0.15


Tree=730
num_leaves=15
num_cat=0
split_feature=18 26 19 11 4 28 31 17 8 30 37 4 0 34
split_gain=0.0228139 0.0692533 0.192919 0.164633 0.176125 0.168959 0.357057 0.577263 0.353924 0.226924 0.139617 0.550632 0.631022 0.758413
threshold=-4.1156349999999994e-05 0.00024026250000000002 0.00066943500000000013 8.5182850000000004e-05 -1.5283549999999997 -0.0069005349999999984 -0.55387799999999987 -6.2569149999999995e-06 -1.0410999999999997e-05 0.01364215 8.6219650000000009e-07 -1.8911349999999996 5.3268800000000009 0.86925150000000018
decision_type=2 2 2 2 2 2 2 2 2 2 2 2 2 2
left_child=1 -1 3 4 -3 -5 7 9 -9 -7 -4 -12 -13 -14
right_child=-2 2 10 5 -6 6 -8 8 -10 -11 11 12 13 -15
leaf_value=0.00015601957440999906 -2.6518852769261594e-05 0.00015239388035378178 -0.00046611502399488309 -0.0025167277268587892 -0.0031841258605185673 -0.011667858800443355 -0.0013989233976327488 0.0046765742791467346 0.029563648327408976 0.0097686075730598516 -0.00030881218834212548 0.0034562869826975698 0.041464437831841089 0.0078526678397875822
leaf_weight=43681 167647 507 2615 160 1195 25 129 20 36 20 1193 338 23 44
leaf_count=43681 167647 507 2615 160 1195 25 129 20 36 20 1193 338 23 44
internal_value=0 8.8941e-05 -0.000375779 -0.00155325 -0.00219023 0.00122657 0.0038306 0.0105099 0.0206754 -0.00214054 0.000208906 0.00131352 0.00609241 0.019391
internal_weight=0 49986 6305 2092 1702 390 230 101 56 45 4213 1598 405 67
internal_count=217633 49986 6305 2092 1702 390 230 101 56 45 4213 1598 405 67
shrinkage=0.15


Tree=731
num_leaves=15
num_cat=0
split_feature=4 3 14 33 34 35 4 27 13 24 6 3 19 27
split_gain=0.0210278 0.087077 0.0741602 0.0762032 0.0700933 0.0661272 0.118955 0.11519 0.0479241 0.081509 0.0548194 0.0436035 0.0968929 0.0500204
threshold=1.1140750000000001 -5.9118649999999997 0.0031052900000000006 1.4933200000000001e-06 0.012110300000000003 0.019767150000000004 1.4356200000000003 38.008700000000012 1.1550350000000002e-05 0.55006150000000009 -8.1766949999999984e-08 -10.609449999999997 0.00015282300000000004 1.1518350000000002
decision_type=2 2 2 2 2 2 2 2 2 2 2 2 2 2
left_child=-1 2 3 5 -4 7 -7 11 9 -5 -11 12 -2 -13
right_child=1 -3 4 8 -6 6 -8 -9 -10 10 -12 13 -14 -15
leaf_value=-2.1519392746047769e-05 0.012433076212817633 -0.00077600864875117465 -0.00035780479315790885 -0.00023894196337514165 0.00018624547999704241 -0.0093181940021791632 -1.589426893157284e-05 0.01179818908036079 0.0007252414947664669 -0.0093378962577647853 -0.0016546226177524658 0.0012922071062495743 0.0021126930342020666 -0.0001399868230243704
leaf_weight=179415 22 2388 7055 1693 21769 35 266 23 1325 37 48 2565 294 698
leaf_count=179415 22 2388 7055 1693 21769 35 266 23 1325 37 48 2565 294 698
internal_value=0 0.000101023 0.000159476 0.000597195 5.3083e-05 0.00103829 -0.00109756 0.00121677 4.23758e-05 -0.000466509 -0.00499911 0.00114877 0.0028312 0.000985841
internal_weight=0 38218 35830 7006 28824 3903 301 3602 3103 1778 85 3579 316 3263
internal_count=217633 38218 35830 7006 28824 3903 301 3602 3103 1778 85 3579 316 3263
shrinkage=0.15


Tree=732
num_leaves=15
num_cat=0
split_feature=6 37 4 24 13 34 5 26 5 13 3 34 23 23
split_gain=0.0172943 0.0942539 0.381263 0.337832 0.313282 0.651376 1.16487 1.58324 0.412168 0.256863 0.390196 0.470126 0.307283 0.271892
threshold=1.1377400000000002e-06 1.7610800000000003e-07 0.0092838900000000012 -0.49656149999999993 -2.0346849999999996e-05 0.074107200000000012 1.2729800000000003e-05 4.6792250000000006e-05 1.0995750000000002e-05 -1.6267099999999995e-05 -10.446599999999998 0.43971050000000006 -11.700949999999999 -10.756049999999997
decision_type=2 2 2 2 2 2 2 2 2 2 2 2 2 2
left_child=-1 -2 3 -3 5 6 7 -5 -9 10 11 13 -12 -4
right_child=1 2 9 4 -6 -7 -8 8 -10 -11 12 -13 -14 -15
leaf_value=3.1637152367025296e-05 -0.00014209138117767875 -0.00089559795170595258 -0.010519962884975165 -0.0021242214091163236 0.00073080528598094482 0.0018256880820502008 0.0035630927626880294 0.027896573840090155 0.053731267218245192 0.00015979086915938968 0.0011825057759666992 -0.00042637797592291342 -0.0024523321882798997 -0.0029237767299627303
leaf_weight=139526 61515 1753 279 34 4562 1878 240 33 24 5144 1119 372 983 171
leaf_count=139526 61515 1753 279 34 4562 1878 240 33 24 5144 1119 372 983 171
internal_value=0 -5.65148e-05 0.000260761 0.000960306 0.0014408 0.00290706 0.00904247 0.0234936 0.0387743 -0.000478322 -0.00160091 -0.00437183 -0.000517326 -0.00763341
internal_weight=0 78107 16592 8524 6771 2209 331 91 57 8068 2924 822 2102 450
internal_count=217633 78107 16592 8524 6771 2209 331 91 57 8068 2924 822 2102 450
shrinkage=0.15


Tree=733
num_leaves=15
num_cat=0
split_feature=3 23 8 21 3 4 38 26 3 28 1 8 3 23
split_gain=0.0171086 0.0810476 0.135333 0.149729 0.413248 0.512269 0.342228 0.135983 0.113493 0.160314 0.525851 0.508955 0.484965 0.466625
threshold=-6.6828699999999985 -6.4354599999999991 2.3764450000000006e-05 -7.6127649999999987 -6.0020699999999989 -0.089102199999999979 -2.3581699999999995e-05 -0.00025881349999999994 -5.8866849999999991 0.0020348000000000002 7.187450000000001 -4.8822449999999994e-06 -6.3853549999999988 -6.3575049999999989
decision_type=2 2 2 2 2 2 2 2 2 2 2 2 2 2
left_child=-1 -2 8 4 5 -4 -7 -6 9 10 -3 -11 13 -12
right_child=1 2 3 -5 7 6 -8 -9 -10 11 12 -13 -14 -15
leaf_value=-2.7305448035139127e-05 0.00011658919062251436 -0.00089840706329890902 -0.00098374527431308078 -0.00020658700259050617 0.010277200157805862 0.035447341653153948 0.011459491725690895 -0.0010810422847554527 -0.00013195504199488978 0.0026242856679713875 -0.018373022676678372 -0.0043596006094247311 -0.012548826558155601 0.0054071840131300411
leaf_weight=153098 58936 852 39 598 27 23 32 195 2554 581 24 394 198 82
leaf_count=153098 58936 852 39 598 27 23 32 195 2554 581 24 394 198 82
internal_value=0 6.47774e-05 -0.000480602 0.00118902 0.00383009 0.0121662 0.0214908 0.000300366 -0.000806331 -0.00161457 -0.00280941 -0.000197921 -0.00816523 2.29863e-05
internal_weight=0 64535 5599 914 316 94 55 222 4685 2131 1156 975 304 106
internal_count=217633 64535 5599 914 316 94 55 222 4685 2131 1156 975 304 106
shrinkage=0.15


Tree=734
num_leaves=15
num_cat=0
split_feature=18 10 26 24 1 4 34 28 36 16 10 20 24 5
split_gain=0.0176534 0.0558437 0.124014 0.261429 0.316818 0.77006 0.453731 0.188028 0.32478 0.26117 0.193026 0.171758 0.169903 0.185934
threshold=-4.1156349999999994e-05 1.8869050000000005e-05 0.00029688250000000006 -0.42479649999999997 -5.9246899999999991 -0.89191049999999994 0.78160050000000014 0.084788200000000008 -0.14060949999999997 -1.4816449999999998e-05 1.3571200000000001e-05 -2.8622799999999997 -1.1375449999999998 1.0178050000000002e-05
decision_type=2 2 2 2 2 2 2 2 2 2 2 2 2 2
left_child=1 2 3 4 5 11 -7 10 9 -9 -6 -1 13 -4
right_child=-2 -3 12 -5 7 6 -8 8 -10 -11 -12 -13 -14 -15
leaf_value=0.0079900187391710158 -2.3327558096097394e-05 1.9618690460313592e-06 -0.0034785779461842291 0.00039361054956253081 0.0045869213746021218 0.039304586008074689 0.010430196103698107 0.010792730919395884 0.018142864011583458 -0.0097078587543741185 -0.0039543491986315247 -0.0067668303694309925 -0.001989070430833368 0.0076976029184352025
leaf_weight=36 167647 40591 53 7944 101 25 24 27 38 29 145 35 847 91
leaf_count=36 167647 40591 53 7944 101 25 24 27 38 29 145 35 847 91
internal_value=0 7.82378e-05 0.000407787 0.000594929 0.00407162 0.0106978 0.025162 0.00173295 0.00743941 0.000176354 -0.000447567 0.000715516 -0.00117924 0.00358415
internal_weight=0 49986 9395 8404 460 120 49 340 94 56 246 71 991 144
internal_count=217633 49986 9395 8404 460 120 49 340 94 56 246 71 991 144
shrinkage=0.15


Tree=735
num_leaves=15
num_cat=0
split_feature=18 24 5 26 10 14 29 7 16 17 4 3 7 26
split_gain=0.0189676 0.149098 0.127911 0.160898 0.441934 0.705873 0.421574 0.339344 0.188116 0.166449 0.144446 0.223221 0.215982 0.316151
threshold=1.1777600000000004e-06 0.32589550000000006 2.0596750000000002e-05 0.00018988400000000003 3.6454950000000006e-05 0.0013588450000000002 -0.016689499999999996 6.6432500000000012e-05 -4.2954799999999991e-05 1.8205100000000003e-06 1.6545300000000001 -17.495099999999997 3.7936850000000009e-05 -0.00054938149999999989
decision_type=2 2 2 2 2 2 2 2 2 2 2 2 2 2
left_child=-1 -2 10 9 5 6 -5 -7 -9 -4 11 -3 13 -13
right_child=1 2 3 4 -6 7 -8 8 -10 -11 -12 12 -14 -15
leaf_value=-3.0734798015413706e-05 0.00015314488302450155 -0.0073668846519689794 -0.0017670739318458165 0.0079480463124127695 -8.4656079933305008e-06 -0.0078553826487305651 0.03424718857204425 0.00094748782386886886 0.021520776289980857 0.0006821591511226142 5.6262262320100027e-05 -0.002466892653343026 -0.0025501289876003357 0.00094736626061937617
leaf_weight=146879 60559 135 940 24 358 44 32 20 20 1859 2571 975 1586 1631
leaf_count=146879 60559 135 940 24 358 44 32 20 20 1859 2571 975 1586 1631
internal_value=0 6.38027e-05 -0.000466896 0.000301621 0.00278587 0.00993137 0.0229761 0.00123486 0.0112341 -0.000140377 -0.00083422 -0.00136332 -0.00116998 -0.000330033
internal_weight=0 70754 10195 3297 498 140 56 84 40 2799 6898 4327 4192 2606
internal_count=217633 70754 10195 3297 498 140 56 84 40 2799 6898 4327 4192 2606
shrinkage=0.15


Tree=736
num_leaves=15
num_cat=0
split_feature=2 21 22 21 19 7 8 32 22 13 31 19 23 10
split_gain=0.0164447 0.0616646 0.216465 0.0890646 0.0601597 0.057742 0.0539644 0.0632819 0.0907476 0.0647361 0.125052 0.222807 0.0462086 0.0552572
threshold=-2.8697349999999995 -3.5229999999999997 2.7790800000000004 2.4713150000000002 1.8030650000000002e-10 5.6233450000000006e-05 6.8380000000000004e-06 0.37832850000000001 -2.8863399999999997 1.1238550000000003e-05 0.41431750000000006 7.7858950000000025e-05 -11.078849999999997 8.0227750000000015e-05
decision_type=2 2 2 2 2 2 2 2 2 2 2 2 2 2
left_child=1 2 6 5 -5 -3 7 8 -1 -9 -11 -12 -8 -14
right_child=-2 3 -4 4 -6 -7 12 9 -10 10 11 -13 13 -15
leaf_value=0.010618554765824227 -7.9349184295517292e-06 -0.0013294276621905125 0.015991647145710886 0.0076555658691526895 0.00040804119046767168 0.00022716427729832384 0.0014927106015902075 0.0018199956912678494 0.0013248422908165923 1.3805745359966802e-05 -0.015263446528268488 0.0007756943628010049 -0.004977330858485637 -0.000535995601138792
leaf_weight=24 209861 1492 21 26 2909 837 136 164 1574 206 38 40 89 216
leaf_count=24 209861 1492 21 26 2909 837 136 164 1574 206 38 40 89 216
internal_value=0 0.00021426 0.000826381 -7.73809e-05 0.000472244 -0.000770017 0.000698327 0.00102272 0.00146442 -0.000552812 -0.00192303 -0.00703825 -0.000806687 -0.00183199
internal_weight=0 7772 2508 5264 2935 2329 2487 2046 1598 448 284 78 441 305
internal_count=217633 7772 2508 5264 2935 2329 2487 2046 1598 448 284 78 441 305
shrinkage=0.15


Tree=737
num_leaves=15
num_cat=0
split_feature=3 23 23 3 14 22 1 22 22 1 22 30 1 22
split_gain=0.0156723 0.123829 0.430398 0.920313 0.836407 0.739908 0.758913 6.15681 1.02316 1.42917 1.80839 0.933832 0.767659 2.87281
threshold=-13.239749999999999 -15.570249999999998 -13.335099999999999 -15.512049999999999 0.0069509900000000006 -2.5595399999999997 -4.6859799999999998 -0.98294349999999986 -1.0598999999999996 -2.7644099999999994 -2.0787749999999998 0.01364215 1.0000000180025095e-35 -0.047750999999999995
decision_type=2 2 2 2 2 2 2 2 2 2 2 2 2 2
left_child=1 -1 3 -3 5 -5 7 -7 9 10 -8 12 13 -10
right_child=-2 2 -4 4 -6 6 8 -9 11 -11 -12 -13 -14 -15
leaf_value=-0.00058190154072885797 -1.7722338716524617e-05 -0.0010413800972995061 -1.0654677771662946e-05 -0.0043130931898323049 8.4674924556522798e-06 0.038155934997858146 0.030843646255720582 -0.01370680987589446 0.017954813842042967 -0.013096465607898554 -0.016294521670788525 -0.011086079075361008 0.012734501051299717 -0.012165198054280039
leaf_weight=5235 182296 1633 26191 143 882 117 47 92 143 136 30 55 491 142
leaf_count=5235 182296 1633 26191 143 882 117 47 92 143 136 30 55 491 142
internal_value=0 9.14257e-05 0.000208523 0.0016763 0.00362449 0.00590912 0.00707574 0.0153264 0.00542403 -0.00385119 0.0124781 0.00780143 0.0091401 0.00294765
internal_weight=0 35337 30102 3911 2278 1396 1253 209 1044 213 77 831 776 285
internal_count=217633 35337 30102 3911 2278 1396 1253 209 1044 213 77 831 776 285
shrinkage=0.15


Tree=738
num_leaves=15
num_cat=0
split_feature=3 31 35 20 16 5 23 0 23 14 19 35 5 33
split_gain=0.0232695 0.0648269 0.114157 0.0992485 0.219097 0.178207 0.0812936 0.259059 0.199763 0.247393 0.192637 0.25785 0.383892 0.44092
threshold=-15.512049999999999 0.047456150000000009 -4.4936649999999991 3.4831650000000005 2.9537550000000003e-05 1.1840400000000001e-05 -17.075499999999995 -0.94951099999999988 -17.896049999999999 0.0072867150000000009 0.0030404650000000004 -0.00037356249999999993 1.3239750000000001e-05 2.6478350000000004e-05
decision_type=2 2 2 2 2 2 2 2 2 2 2 2 2 2
left_child=1 2 -1 -3 5 -5 7 8 -4 -10 11 -9 -13 -14
right_child=-2 3 6 4 -6 -7 -8 10 9 -11 -12 12 13 -15
leaf_value=0.0089165298581065141 -1.3978590558873521e-05 0.00050621820908157054 -0.002562122825685896 0.008722008150798502 0.014845367619085923 -0.0042923587838545087 7.0263132008480944e-05 -0.0015397646738254886 -0.019547660627811238 -0.003523558254686498 -0.0027135522173848347 0.00074565676599168439 0.020942256702958625 -0.0031722516650916073
leaf_weight=32 201284 4996 216 40 35 58 10202 193 41 46 285 122 59 24
leaf_count=32 201284 4996 216 40 35 58 10202 193 41 46 285 122 59 24
internal_value=0 0.0001721 -2.98494e-05 0.000613877 0.00465798 0.00101963 -5.54379e-05 -0.00135605 -0.00500646 -0.0110751 0.000263385 0.00239511 0.00609965 0.0139694
internal_weight=0 16349 11220 5129 133 98 11188 986 303 87 683 398 205 83
internal_count=217633 16349 11220 5129 133 98 11188 986 303 87 683 398 205 83
shrinkage=0.15


Tree=739
num_leaves=15
num_cat=0
split_feature=20 11 11 31 24 7 11 21 36 0 6 21 20 2
split_gain=0.0184695 0.109951 0.0837883 0.101603 0.15035 0.0615689 0.0780467 0.232655 0.215727 0.126246 0.199005 1.07693 0.381077 0.353966
threshold=-8.1735049999999969 -8.0973149999999989e-06 0.00011291700000000002 -8.8280199999999969 -0.95916349999999995 5.8217750000000007e-05 -1.1190949999999998e-05 -8.0551499999999994 0.00089991500000000015 -7.4213099999999992 3.6987650000000006e-06 2.7095700000000007 -8.9078399999999984 2.6644600000000005
decision_type=2 2 2 2 2 2 2 2 2 2 2 2 2 2
left_child=1 5 -3 4 -4 6 9 8 -8 10 -1 -12 13 -13
right_child=-2 2 3 -5 -6 -7 7 -9 -10 -11 11 12 -14 -15
leaf_value=0.00046784371140739872 -1.6134282707098744e-05 0.00058547974073299206 -0.0005135155983831889 -0.00036283581821099483 0.014455753180887907 -0.00076718500176904713 0.019031600174291629 -0.0022135101381351961 -0.00027729052351787686 -0.00029462393539979255 -0.0027917095968956265 0.0030043109688891231 0.026723489895140607 0.020554947131597324
leaf_weight=2005 191523 11316 36 3438 26 3406 23 685 30 4792 203 70 39 41
leaf_count=2005 191523 11316 36 3438 26 3406 23 685 30 4792 203 70 39 41
internal_value=0 0.000118349 0.000387097 -0.000254305 0.00576392 -0.000234207 -4.06997e-06 -0.00147269 0.00810204 0.000147516 0.00104605 0.00433018 0.0139685 0.00948698
internal_weight=0 26110 14816 3500 62 11294 7888 738 53 7150 2358 353 150 111
internal_count=217633 26110 14816 3500 62 11294 7888 738 53 7150 2358 353 150 111
shrinkage=0.15


Tree=740
num_leaves=15
num_cat=0
split_feature=11 20 20 0 23 3 14 0 0 20 34 7 0 20
split_gain=0.0198937 0.279156 0.156579 0.187137 0.184538 0.22525 0.173989 0.166642 0.188051 0.469349 0.51538 0.285235 0.282182 1.203
threshold=-2.9945149999999999e-05 1.9046550000000002 1.3925150000000002 7.0070700000000006 -10.209099999999998 -6.1661399999999995 0.00045556800000000005 -6.7199149999999994 1.3088200000000001 3.6989550000000002 0.036077450000000004 3.6834450000000004e-05 6.4667950000000003 6.3263500000000006
decision_type=2 2 2 2 2 2 2 2 2 2 2 2 2 2
left_child=1 -1 3 -2 5 6 -5 -4 9 10 11 -9 13 -10
right_child=2 -3 7 4 -6 -7 -8 8 12 -11 -12 -13 -14 -15
leaf_value=-0.00020008436743713194 -1.760733471942968e-05 0.00046476918570758014 0.00038865640246383453 0.0023370120034747637 9.7477177087338149e-05 0.0001214478245030029 0.0006448697893655862 -0.0061130091004577645 0.0011206113386114343 -0.00024605835448916909 -0.00087581360959819356 -0.0019082294142197633 -0.0005261530964882253 -0.0010228939672199862
leaf_weight=34379 65900 24220 9639 3141 11828 3971 2421 851 14131 12749 2867 633 20800 10103
leaf_count=34379 65900 24220 9639 3141 11828 3971 2421 851 14131 12749 2867 633 20800 10103
internal_value=0 7.47113e-05 -2.75288e-05 0.000107456 0.000493283 0.000984376 0.00160046 -0.000191642 -0.000281665 -0.000705148 -0.00205034 -0.00431946 -0.000120863 0.000226998
internal_weight=0 58599 159034 87261 21361 9533 5562 71773 62134 17100 4351 1484 45034 24234
internal_count=217633 58599 159034 87261 21361 9533 5562 71773 62134 17100 4351 1484 45034 24234
shrinkage=0.15


Tree=741
num_leaves=15
num_cat=0
split_feature=3 19 33 23 37 25 23 23 23 8 13 5 21 36
split_gain=0.0178795 0.0579634 0.406973 0.669928 0.257202 0.291443 0.222219 0.159018 0.398688 0.30605 0.299796 0.272412 0.406861 0.543001
threshold=-15.512049999999999 2.8998550000000006e-06 -1.2766899999999998e-07 -15.369399999999997 7.0494250000000013e-07 1.3625700000000001 -17.603099999999994 -15.570249999999998 -12.223399999999998 1.1684500000000001e-05 0.00010253600000000001 1.1557400000000001e-05 -1.8377149999999998 -0.00084366149999999984
decision_type=2 2 2 2 2 2 2 2 2 2 2 2 2 2
left_child=1 2 4 6 7 -6 -4 9 -9 10 11 -1 -13 -14
right_child=-2 -3 3 -5 5 -7 -8 8 -10 -11 -12 12 13 -15
leaf_value=-0.0033545627394654196 -1.2253150362883741e-05 2.3598000611929276e-05 -0.00086549628880127835 0.0041388726458867079 0.01589357890076756 0.0011964681941121953 -0.011227236617333427 -0.0088035370072072003 -0.001121723214073383 0.016396808285000068 -0.017293610051274298 -0.010582804216233933 -0.0014686630264780409 0.023060988541692494
leaf_weight=123 201284 13590 103 1100 39 137 85 186 832 28 21 23 37 45
leaf_count=123 201284 13590 103 1100 39 137 85 186 832 28 21 23 37 45
internal_value=0 0.000150857 0.000777697 0.00272461 -0.000927011 0.00445321 -0.00555033 -0.00165822 -0.00252528 0.00152828 -0.000143685 0.00143591 0.00704761 0.0119927
internal_weight=0 16349 2759 1288 1471 176 188 1295 1018 277 249 228 105 82
internal_count=217633 16349 2759 1288 1471 176 188 1295 1018 277 249 228 105 82
shrinkage=0.15


Tree=742
num_leaves=15
num_cat=0
split_feature=3 21 1 23 3 21 23 11 24 30 13 19 3 12
split_gain=0.0185084 0.0724422 0.168744 0.29432 0.503565 0.622408 0.614749 0.756134 0.606398 0.521392 0.49593 0.530491 0.35597 0.392996
threshold=-6.6828699999999985 -4.1775849999999997 -7.5812149999999994 -6.7159199999999997 -6.1122599999999991 -8.1782399999999971 -6.2136699999999996 1.8102500000000002e-05 -0.25718149999999995 9.1463700000000024e-05 -1.2282549999999998e-05 5.4017350000000006e-05 -6.1381299999999994 -8.1569449999999982e-05
decision_type=2 2 2 2 2 2 2 2 2 2 2 2 2 2
left_child=-1 2 3 12 5 6 7 8 -5 -10 -11 -12 13 -2
right_child=1 -3 -4 4 -6 -7 -8 -9 9 10 11 -13 -14 -15
leaf_value=-2.8400515201865842e-05 0.00045154020108445882 -3.7154550354955541e-05 0.00062573200924997431 -0.010938435718417168 -0.00037914127252192272 -0.0062207744462151509 -0.002085232449878406 -0.012217392497728321 0.0076094651033513641 0.040673484373837707 0.022839487348131737 -0.0021200311683060137 -0.00014794595461477616 -0.0051695069531507432
leaf_weight=153098 444 45047 12864 20 942 82 98 27 95 26 95 24 4014 757
leaf_count=153098 444 45047 12864 20 942 82 98 27 95 26 95 24 4014 757
internal_value=0 6.73753e-05 0.000308999 -0.000306107 0.00161748 0.00564494 0.00817218 0.0116747 0.0141558 0.016247 0.0219061 0.0178056 -0.000825827 -0.00309145
internal_weight=0 64535 19488 6624 1409 467 385 287 260 240 145 119 5215 1201
internal_count=217633 64535 19488 6624 1409 467 385 287 260 240 145 119 5215 1201
shrinkage=0.15


Tree=743
num_leaves=15
num_cat=0
split_feature=1 21 21 3 3 23 19 23 12 27 30 30 29 29
split_gain=0.0217029 0.185921 0.183803 0.609675 0.514689 2.20821 1.02636 0.805583 0.492181 0.416738 0.382073 0.365835 0.422323 0.414334
threshold=-9.7969349999999995 -3.5985549999999997 -9.6841449999999991 -6.3575099999999987 -6.942054999999999 -6.8719549999999989 0.00015928200000000004 -8.6604299999999981 -9.9805249999999988e-05 1.7486900000000003 0.0016833400000000002 0.00011279150000000002 -0.0039842949999999988 0.0030668750000000006
decision_type=2 2 2 2 2 2 2 2 2 2 2 2 2 2
left_child=1 2 4 8 5 6 7 -1 -4 -10 -11 -9 -13 -14
right_child=-2 -3 3 -5 -6 -7 -8 11 9 10 -12 12 13 -15
leaf_value=-0.0083226400851604647 -1.5363815472035525e-05 0.00047314740658545485 -0.00029741986709826991 0.00016476489235803533 -0.00039003060858020921 -0.011558986003611885 -0.0015378278696270835 0.013015969960750747 -0.007229253500819573 0.016104105155100114 -0.0022649693842953173 0.0088193881458469795 0.038075570034904076 0.013514986792579292
leaf_weight=21 196917 13541 684 3475 1703 115 74 56 739 30 169 21 68 20
leaf_count=21 196917 13541 684 3475 1703 115 74 56 739 30 169 21 68 20
internal_value=0 0.000146042 -0.000471288 -0.000956043 0.000717738 0.00574848 0.0134037 0.0193482 -0.00335728 -0.00558857 0.000504238 0.0228699 0.0279325 0.0324936
internal_weight=0 20716 7175 5097 2078 375 260 186 1622 938 199 165 109 88
internal_count=217633 20716 7175 5097 2078 375 260 186 1622 938 199 165 109 88
shrinkage=0.15


Tree=744
num_leaves=15
num_cat=0
split_feature=18 32 16 4 23 22 19 20 19 16 10 1 4 35
split_gain=0.0184139 0.0576871 0.169029 0.290489 0.512843 0.689781 0.399805 0.575827 0.229113 0.218727 0.448451 0.280075 0.298015 0.421421
threshold=-4.1156349999999994e-05 -1.1923199999999998 -1.3219499999999998e-05 -1.2236799999999997 -18.402399999999997 1.84284 0.00015928200000000004 6.1742150000000011 0.0025007950000000005 -7.7223649999999984e-06 2.4621100000000004e-05 5.2110150000000006 -0.45233649999999997 -0.0016969599999999997
decision_type=2 2 2 2 2 2 2 2 2 2 2 2 2 2
left_child=1 2 3 -1 -5 6 7 -6 -7 10 -4 -11 13 -13
right_child=-2 -3 9 4 5 8 -8 -9 -10 11 -12 12 -14 -15
leaf_value=-0.0001714972818857885 -2.3824751683944555e-05 0.00011829756703351491 -0.021632869985114666 -0.015697162512224166 0.026023271866142748 0.011502718701112 -0.0090666184352324684 -0.0078310827515088027 0.031387767810520016 -0.0015747230097971797 0.00051421842508716511 0.02678669713075376 -0.0081475828739348798 0.0011536312897899939
leaf_weight=844 167647 47301 36 20 26 22 41 20 32 1518 48 27 20 31
leaf_count=844 167647 47301 36 20 26 22 41 20 32 1518 48 27 20 31
internal_value=0 7.99053e-05 -0.000596441 0.000942322 0.00678122 0.00996965 0.00170405 0.011304 0.0232865 -0.00151695 -0.00897739 -0.0011243 0.00764169 0.0130863
internal_weight=0 49986 2685 1005 161 141 87 46 54 1680 84 1596 78 58
internal_count=217633 49986 2685 1005 161 141 87 46 54 1680 84 1596 78 58
shrinkage=0.15


Tree=745
num_leaves=15
num_cat=0
split_feature=18 38 14 25 4 18 36 30 3 17 5 3 23 8
split_gain=0.0186036 0.121439 0.125493 0.159647 0.171569 0.151824 0.279713 0.123611 0.704757 0.242878 0.773357 0.190549 0.278413 0.221899
threshold=1.1777600000000004e-06 -0.0061287349999999989 0.0058968150000000006 0.84102950000000021 1.2260050000000002 1.3202350000000002e-05 0.0084696100000000007 0.0018378750000000003 -9.9601599999999983 1.4383650000000003e-07 1.1624200000000001e-05 -13.793399999999998 -13.957949999999999 4.4268700000000004e-06
decision_type=2 2 2 2 2 2 2 2 2 2 2 2 2 2
left_child=-1 2 3 4 5 -2 -7 8 9 -5 -11 12 13 -9
right_child=1 -3 -4 7 -6 6 -8 11 -10 10 -12 -13 -14 -15
leaf_value=-3.0438514934098785e-05 -0.0021143628385458615 0.00013992316884996162 0.00022153234565227975 0.0014698194307756836 0.0010473411968739718 -0.0053667975979870258 -0.020337966413769341 -0.0035175942306992624 -0.0030121059856877551 0.038078822532238869 0.0048483562406909184 -0.00054244384787159475 -0.007217760410893316 0.0083046973668889877
leaf_weight=146879 177 61393 3819 29 136 142 35 93 183 26 40 4386 237 58
leaf_count=146879 177 61393 3819 29 136 142 35 93 183 26 40 4386 237 58
internal_value=0 6.31876e-05 -0.000440073 -0.000895986 -0.00348106 -0.00522078 -0.0083272 -0.000645257 0.00242947 0.0129117 0.0179391 -0.000824305 -0.0040105 0.00102342
internal_weight=0 70754 9361 5542 490 354 177 5052 278 95 66 4774 388 151
internal_count=217633 70754 9361 5542 490 354 177 5052 278 95 66 4774 388 151
shrinkage=0.15


Tree=746
num_leaves=15
num_cat=0
split_feature=30 5 37 16 19 39 27 13 37 27 3 12 12 27
split_gain=0.019127 0.0615293 0.0850059 0.117028 0.0901942 0.0901093 0.117469 0.374016 0.0865273 0.0795653 0.139321 0.0709264 0.133311 0.161391
threshold=0.0021249300000000001 8.2372650000000025e-06 9.0597550000000005e-07 1.0561000000000001e-06 3.7476600000000006e-05 0.0011333450000000002 7.8456400000000004 2.4836450000000005e-05 6.3807200000000005e-07 4.0884300000000016 -9.4771649999999976 0.00019074900000000001 6.5907450000000009e-05 4.873870000000001
decision_type=2 2 2 2 2 2 2 2 2 2 2 2 2 2
left_child=-1 2 8 5 -5 -4 7 -7 11 10 -10 12 -2 -14
right_child=1 -3 3 4 -6 6 -8 -9 9 -11 -12 -13 13 -15
leaf_value=-2.3107006154853161e-05 0.0012562169768543451 4.9101276153743518e-05 -0.0029301830844353878 -0.011164497334374895 -0.0020961366715304135 0.0012711778574336057 -2.2641703194081359e-05 0.017976564338204222 0.019229039550356732 -0.00031623758170878452 0.0019309429041459226 -0.0027353669519049242 0.013989399063812438 0.0013974603246517327
leaf_weight=171363 807 44300 134 31 121 163 440 37 22 21 20 82 43 49
leaf_count=171363 807 44300 134 31 121 163 440 37 22 21 20 82 43 49
internal_value=0 8.55778e-05 0.000905837 -0.000140393 -0.0039456 0.000606884 0.00134746 0.00436167 0.00183382 0.00722249 0.0109919 0.00148775 0.00187296 0.00728282
internal_weight=0 46270 1970 926 152 774 640 200 1044 63 42 981 899 92
internal_count=217633 46270 1970 926 152 774 640 200 1044 63 42 981 899 92
shrinkage=0.15


Tree=747
num_leaves=15
num_cat=0
split_feature=22 10 14 14 38 17 17 7 36 35 4 4 38 24
split_gain=0.0163441 0.044843 0.0575348 0.0610888 0.0586081 0.0440665 0.0800703 0.04106 0.0642393 0.0311388 0.185099 0.065869 0.0978585 0.0862551
threshold=-2.8863399999999997 2.8978300000000003e-05 0.0023568750000000005 7.6990750000000005e-05 -0.015849049999999996 3.3979550000000005e-07 1.29202e-05 3.1390950000000001e-05 0.0004423095 0.0017247200000000001 0.0092838900000000012 -0.056370599999999993 -6.0115999999999992e-05 -0.10307799999999999
decision_type=2 2 2 2 2 2 2 2 2 2 2 2 2 2
left_child=1 2 3 -1 5 -4 -7 8 -3 11 -11 13 -13 -5
right_child=-2 7 4 9 -6 6 -8 -9 -10 10 -12 12 -14 -15
leaf_value=-0.00060889435851277081 -8.4026844539958849e-06 -0.00073372811166336758 0.00026958151271252935 -0.00029888617197772671 0.00017395679432620137 -0.011739048787296331 -0.0014402858057931042 -1.1505813340630271e-05 -0.0081907665041840768 -0.0022803339833040019 0.0032856218705445907 -0.00075494604226018693 0.0030474433776784904 0.004216048074905724
leaf_weight=375 208904 101 46 124 1376 29 41 5034 35 263 275 351 269 410
leaf_count=375 208904 101 46 124 1376 29 41 5034 35 263 275 351 269 410
internal_value=0 0.000201095 0.000610862 0.00112326 -9.90073e-05 -0.00333693 -0.00570692 -8.09872e-05 -0.00265282 0.00150716 0.000564718 0.00194653 0.0008948 0.00316764
internal_weight=0 8729 3559 2067 1492 116 70 5170 136 1692 538 1154 620 534
internal_count=217633 8729 3559 2067 1492 116 70 5170 136 1692 538 1154 620 534
shrinkage=0.15


Tree=748
num_leaves=15
num_cat=0
split_feature=1 21 23 3 3 14 3 23 37 12 23 3 21 2
split_gain=0.0170709 0.133849 0.165553 0.313872 0.306416 0.303245 0.315937 0.340938 0.175632 0.157336 0.150807 0.507611 0.13714 0.29687
threshold=-9.7969349999999995 -3.5985549999999997 -7.1436399999999987 -5.9424999999999999 -6.1661399999999995 0.00059260700000000009 -7.0757599999999989 -6.8145799999999985 1.8263050000000002e-08 -0.00011808099999999998 -8.2043399999999984 -6.9692649999999992 -10.940449999999998 -1.9124349999999997
decision_type=2 2 2 2 2 2 2 2 2 2 2 2 2 2
left_child=1 12 4 5 9 6 7 -4 -8 -3 -11 -12 13 -1
right_child=-2 2 3 -5 -6 -7 8 -9 -10 10 11 -13 -14 -15
leaf_value=-0.0030618497932505305 -1.3626009275445036e-05 0.00041299464957212474 -0.0084309920558333605 0.00079989486523604784 5.432644720268231e-05 0.00093000227873362557 -0.0075338232570788402 0.0054493138453520756 -0.0013835588630172425 0.0028978763531618233 -0.0071866689761104913 0.0033899100413937139 -0.00071529347445711084 0.0021471626318989084
leaf_weight=320 196917 1405 58 1424 6935 376 430 127 138 2185 152 311 5788 1067
leaf_count=320 196917 1405 58 1424 6935 376 430 127 138 2185 152 311 5788 1067
internal_value=0 0.000129523 0.000407066 -0.000681034 0.00065988 -0.00254892 -0.00428607 0.00109765 -0.00603957 0.00169603 0.00237679 -8.23146e-05 -0.00039427 0.000945372
internal_weight=0 20716 13541 2553 10988 1129 753 185 568 4053 2648 463 7175 1387
internal_count=217633 20716 13541 2553 10988 1129 753 185 568 4053 2648 463 7175 1387
shrinkage=0.15


Tree=749
num_leaves=15
num_cat=0
split_feature=39 5 10 0 35 26 4 34 13 7 34 13 3 3
split_gain=0.0175214 0.0646019 0.111342 0.0547425 0.0652755 0.0632901 0.0816292 0.101122 0.0495452 0.0435923 0.122925 0.105699 0.0883979 0.125081
threshold=8.2054950000000012e-07 1.0615700000000002e-05 1.13795e-05 -9.6502149999999975 0.00022604300000000002 -5.6898049999999993e-05 -0.044672799999999992 0.0027577100000000005 6.0257150000000006e-05 2.4290550000000001e-05 0.0027577100000000005 1.0000000180025095e-35 -7.7871049999999995 -6.1661399999999995
decision_type=2 2 2 2 2 2 2 2 2 2 2 2 2 2
left_child=1 3 -3 4 5 6 -1 -8 -5 10 11 -4 -12 -14
right_child=-2 2 9 8 -6 -7 7 -9 -10 -11 12 -13 13 -15
leaf_value=-0.010540018217741616 -9.9620594402732013e-06 -0.0096101143384455818 0.0055259759154234244 0.0015597447446714561 -0.0086084238253533833 0.00139371173013933 0.0072259089425973462 -0.0067178780157119032 -0.00041617321117051428 8.4384807608503724e-05 -0.00014146007050294427 -0.0033776393002137245 -0.018611922004492951 -0.0025501787547545975
leaf_weight=27 206329 27 55 1550 24 150 22 25 350 8939 25 66 24 20
leaf_count=27 206329 27 55 1550 24 150 22 25 350 8939 25 66 24 20
internal_value=0 0.000181835 8.14995e-06 0.000922179 -0.0011738 -0.000377235 -0.00396699 -0.000190999 0.00119576 3.6597e-05 -0.00221169 0.000669459 -0.00726415 -0.0113111
internal_weight=0 11304 9156 2148 248 224 74 47 1900 9129 190 121 69 44
internal_count=217633 11304 9156 2148 248 224 74 47 1900 9129 190 121 69 44
shrinkage=0.15


Tree=750
num_leaves=15
num_cat=0
split_feature=18 35 4 38 11 34 20 4 9 9 4 4 23 3
split_gain=0.0167206 0.0452053 0.112941 0.0645615 0.0742282 0.0629805 0.0613173 0.160618 0.216185 0.20624 0.359235 0.997113 0.596484 0.689407
threshold=-4.1156349999999994e-05 0.012436350000000002 -0.42388399999999993 0.045174050000000007 -2.3866199999999995e-05 0.39195350000000001 -1.5458849999999997 1.0000000180025095e-35 2.0953800000000006e-05 2.2322650000000002e-05 0.15990500000000005 1.1140750000000001 -13.889449999999998 -14.488399999999999
decision_type=2 2 2 2 2 2 2 2 2 2 2 2 2 2
left_child=-1 -2 3 5 -5 -3 -4 8 -8 -9 -11 12 13 -12
right_child=1 2 6 4 -6 -7 7 9 -10 10 11 -13 -14 -15
leaf_value=7.6142767672914498e-05 -5.0167980998396078e-05 -0.0054748565481964216 0.00054651356769158459 -0.01443608575001625 -0.0035138437718809914 0.00047007171192373602 0.0016578122898571216 -0.001029439169196519 -0.0008561192045554272 -0.0018818986810001945 0.021236804092768579 -0.001485315432633301 0.0087526672086997853 -0.0065375223561498002
leaf_weight=49986 149108 61 8167 21 42 117 2315 4429 1153 771 24 792 523 124
leaf_count=49986 149108 61 8167 21 42 117 2315 4429 1153 771 24 792 523 124
internal_value=0 -2.27029e-05 0.000198197 -0.00302783 -0.00715459 -0.00156724 0.000240687 -5.85276e-06 0.00082201 -0.000436744 0.0007383 0.00211914 0.00637358 -0.00203358
internal_weight=0 167647 18539 241 63 178 18298 10131 3468 6663 2234 1463 671 148
internal_count=217633 167647 18539 241 63 178 18298 10131 3468 6663 2234 1463 671 148
shrinkage=0.15


Tree=751
num_leaves=15
num_cat=0
split_feature=4 3 14 26 22 24 4 31 3 26 33 3 34 20
split_gain=0.0172131 0.0660574 0.0597491 0.0672665 0.182847 0.107358 0.259692 0.16481 0.128633 0.11567 0.0658909 0.0577815 0.0435133 0.0426829
threshold=1.1140750000000001 -5.9118649999999997 0.0048352200000000012 -0.028182349999999998 0.17753500000000003 0.47421050000000003 1.5436950000000003 0.9146470000000001 -7.2233449999999992 -0.0010097049999999998 -1.3360349999999997e-06 -13.437049999999997 0.012866900000000002 13.471950000000001
decision_type=2 2 2 2 2 2 2 2 2 2 2 2 2 2
left_child=-1 2 3 4 -2 10 7 8 -7 -9 -5 -8 -4 -3
right_child=1 13 12 5 -6 6 11 9 -10 -11 -12 -13 -14 -15
leaf_value=-1.9469887467290468e-05 -0.00020430242040437525 -0.00058459057032994046 -0.00029578900810534265 0.0010866958357802297 0.016422161322341047 -0.021804910758510231 0.0069505579210817816 -0.0087055367005702388 -0.0076278586134624973 0.0055843885783106095 0.00022993145262944332 -0.0004031373302643878 0.00014198864210293848 -0.0052484242090334492
leaf_weight=179415 46 2343 6876 3532 22 24 25 26 36 25 4717 627 19874 45
leaf_count=179415 46 2343 6876 3532 22 24 25 26 36 25 4717 627 19874 45
internal_value=0 9.14017e-05 0.000142313 0.000474783 0.00517485 0.000439318 -0.00126299 -0.00796986 -0.0132987 -0.00170067 0.000596775 -0.00012117 2.94593e-05 -0.000672477
internal_weight=0 38218 35830 9080 68 9012 763 111 60 51 8249 652 26750 2388
internal_count=217633 38218 35830 9080 68 9012 763 111 60 51 8249 652 26750 2388
shrinkage=0.15


Tree=752
num_leaves=15
num_cat=0
split_feature=3 23 3 23 3 18 4 12 38 36 16 0 32 12
split_gain=0.0177853 0.0890533 0.19796 0.548557 1.09595 0.454357 0.498099 0.475394 0.42384 0.509009 1.07704 0.604008 0.421828 3.98248
threshold=-6.9170499999999988 -7.588404999999999 -7.5458749999999988 -7.0815949999999992 -7.0077899999999991 -1.5641449999999996e-05 0.7372645000000001 8.9546750000000011e-05 0.0042175100000000016 -0.0030020249999999997 -8.6382099999999991e-08 -4.879249999999999 0.020307000000000002 -1.0129549999999999e-05
decision_type=2 2 2 2 2 2 2 2 2 2 2 2 2 2
left_child=1 -1 -3 4 5 -4 7 8 9 10 11 -7 -11 -14
right_child=-2 2 3 -5 -6 6 -8 -9 -10 12 -12 -13 13 -15
leaf_value=-0.00010234334403158746 6.1349512593434805e-05 2.9761284104210137e-05 -0.0010971783551320068 -8.1760861849987539e-05 -0.006100895040687465 0.014910427437544883 -0.00099588332896893492 0.026303242726550838 -0.0068406426346080155 0.0042209476588290435 -0.0068916179826888054 0.049319619359448549 0.023042872419867376 -0.015550783589674995
leaf_weight=105779 71427 35077 263 3529 250 22 208 28 51 670 23 24 195 87
leaf_count=105779 71427 35077 263 3529 250 22 208 28 51 670 23 24 195 87
internal_value=0 -2.99715e-05 0.000159393 0.00100931 0.00312376 0.00459172 0.00573558 0.00700844 0.00650447 0.00717108 0.0196115 0.032863 0.00626941 0.0111363
internal_weight=0 146206 40427 5350 1821 1571 1308 1100 1072 1021 69 46 952 282
internal_count=217633 146206 40427 5350 1821 1571 1308 1100 1072 1021 69 46 952 282
shrinkage=0.15


Tree=753
num_leaves=15
num_cat=0
split_feature=11 20 22 8 20 16 29 3 23 23 4 16 16 9
split_gain=0.0185322 0.209378 0.138899 0.319353 0.106898 0.174126 0.211729 0.274716 0.361804 0.62257 0.334244 0.171102 0.153498 0.122021
threshold=-2.9945149999999999e-05 1.9046550000000002 -2.3274699999999995 5.8282650000000015e-06 1.3925150000000002 8.048685000000002e-06 -0.15447899999999995 -11.392199999999997 -14.762349999999998 -10.156499999999999 0.15990500000000005 2.1717400000000003e-05 4.8771350000000009e-05 2.7133900000000005e-05
decision_type=2 2 2 2 2 2 2 2 2 2 2 2 2 2
left_child=1 -1 3 -3 5 -2 7 8 -7 10 -10 -9 -11 -6
right_child=4 2 -4 -5 13 6 -8 11 9 12 -12 -13 -14 -15
leaf_value=-0.00016587683889306785 -6.2109306904304548e-06 -0.0014251218938443344 0.00038835054317965244 0.016957201692433019 -9.3552638737385379e-06 -0.0081812968329177237 0.0004873783778900173 0.0099821462966869345 0.014609607800957746 0.014496787478565237 0.042033116980455816 -0.0012565927068130627 -0.0018136122826773143 -0.00041248657676407372
leaf_weight=34379 73629 50 24133 37 44566 20 13323 38 20 20 20 154 37 27207
leaf_count=34379 73629 50 24133 37 44566 20 13323 38 20 20 20 154 37 27207
internal_value=0 7.21095e-05 0.000409918 0.00639265 -2.65701e-05 8.49624e-05 0.000577407 0.00445912 0.0101886 0.0139762 0.0283214 0.000967741 0.00390934 -0.00016217
internal_weight=0 58599 24220 87 159034 87261 13632 309 117 97 40 192 57 71773
internal_count=217633 58599 24220 87 159034 87261 13632 309 117 97 40 192 57 71773
shrinkage=0.15


Tree=754
num_leaves=15
num_cat=0
split_feature=0 20 20 23 26 12 3 34 0 4 23 3 21 34
split_gain=0.0205425 0.0538812 0.0916672 0.236458 0.321066 0.255236 0.111187 0.0582479 0.0559596 0.126399 0.196814 0.06639 0.10931 0.0978592
threshold=11.559500000000002 8.1756000000000011 13.471950000000001 -7.3437899999999994 0.00079075450000000013 1.0000000180025095e-35 -4.996999999999999 0.011875250000000002 11.755300000000002 0.067269900000000007 -6.6111549999999992 -5.6715199999999983 -6.706739999999999 0.026009600000000004
decision_type=2 2 2 2 2 2 2 2 2 2 2 2 2 2
left_child=-1 7 8 6 5 -5 -4 -2 9 10 -3 12 13 -10
right_child=1 2 3 4 -6 -7 -8 -9 11 -11 -12 -13 -14 -15
leaf_value=-1.0599267710738204e-05 0.0010382782860495566 -6.0481885585057377e-07 -0.0059118792815270882 0.026778697603731416 -0.0037122519287549945 0.006025123230647295 0.0053191768884322038 0.00013477723419001735 -0.016788907743909436 -0.0058023483643410145 0.016035273587868479 -0.00056834462391787855 -0.0021224367671265386 -0.0024423585820477459
leaf_weight=206699 2045 51 68 24 32 30 28 7470 23 32 26 718 367 20
leaf_count=206699 2045 51 68 24 32 30 28 7470 23 32 26 718 367 20
internal_value=0 0.000200371 -0.00066188 0.00248121 0.00819361 0.0152489 -0.00263615 0.000328961 -0.00112432 0.0021212 0.00541411 -0.00143794 -0.0029608 -0.0101161
internal_weight=0 10934 1419 182 86 54 96 9515 1237 109 77 1128 410 43
internal_count=217633 10934 1419 182 86 54 96 9515 1237 109 77 1128 410 43
shrinkage=0.15


Tree=755
num_leaves=15
num_cat=0
split_feature=16 21 8 4 5 33 10 11 9 33 31 1 22 22
split_gain=0.0165909 0.0503371 0.2182 0.132067 0.3361 0.554098 0.448851 0.254848 0.145909 0.170953 0.205641 0.132634 0.130191 0.124992
threshold=-2.2582199999999995e-06 5.3537200000000009 -4.1754999999999992e-06 -0.30706199999999995 3.3291150000000007e-05 4.1313050000000001e-06 1.7969350000000004e-05 -9.9065149999999984e-05 -2.2312549999999997e-05 1.0506350000000001e-05 0.089957200000000015 3.3844350000000003 1.2457400000000003 2.1317500000000007
decision_type=2 2 2 2 2 2 2 2 2 2 2 2 2 2
left_child=1 -1 3 -3 5 12 -7 -8 9 11 -11 -9 -5 -6
right_child=-2 2 -4 4 13 6 7 8 -10 10 -12 -13 -14 -15
leaf_value=0.00015426723265267507 -2.364369167552221e-05 -0.00046053681816072786 0.00043424069383751778 0.00096659172525849837 0.00036361110233498875 0.010058685645344668 -0.0029897381475893778 -0.012214791176957077 -0.026029230903701059 0.0047028729509886189 -0.013267416133098058 -0.023540470180542845 -0.0032642255631814255 0.0075486384146973822
leaf_weight=40667 164138 5132 6392 296 312 24 60 60 21 23 38 38 366 66
leaf_count=40667 164138 5132 6392 296 312 24 60 60 21 23 38 38 366 66
internal_value=0 7.25456e-05 -0.000186526 -0.000803049 -0.00215103 -0.00368964 -0.00950004 -0.0114559 -0.014278 -0.0127259 -0.00649173 -0.0166064 -0.0013725 0.00161814
internal_weight=0 53495 12828 6436 1304 926 264 240 180 159 61 98 662 378
internal_count=217633 53495 12828 6436 1304 926 264 240 180 159 61 98 662 378
shrinkage=0.15


Tree=756
num_leaves=15
num_cat=0
split_feature=21 8 5 13 3 23 3 10 3 25 10 20 13 22
split_gain=0.0167373 0.453003 0.598386 0.312418 0.327443 0.370415 0.943106 0.693579 0.625539 0.464859 0.371899 0.539002 0.898884 0.366334
threshold=-9.8496499999999987 7.0032600000000009e-06 1.8310350000000003e-05 8.0484950000000009e-05 -8.3608649999999987 -7.5620149999999997 -7.6471249999999991 1.8869050000000005e-05 -7.2823399999999987 1.6490850000000001 1.4847900000000002e-05 7.2111900000000011 -1.0432299999999998e-05 -1.1338649999999999
decision_type=2 2 2 2 2 2 2 2 2 2 2 2 2 2
left_child=1 -1 3 4 -3 6 7 9 -7 -6 13 -12 -13 -10
right_child=-2 2 -4 -5 5 8 -8 -9 10 -11 11 12 -14 -15
leaf_value=0.00052062080694859905 1.1958108906895705e-05 -0.0047310862394579637 0.00056105841404690063 0.00037598700390532012 0.042732388433068987 -0.0098271303970960157 -0.0014200961573764691 0.0039231187529426802 0.007285772943869233 0.012173132611704725 -0.0036562144942897112 0.032044791629036458 -0.0050055860949642537 -0.012587668653577565
leaf_weight=9650 201021 1321 2937 811 24 246 439 61 160 21 858 26 34 24
leaf_count=9650 201021 1321 2937 811 24 246 439 61 160 21 858 26 34 24
internal_value=0 -0.000144704 -0.00106691 -0.00225482 -0.00291866 -0.00165389 0.00164606 0.0143446 -0.00298807 0.0284714 -0.00146138 -0.00269505 0.0110496 0.00469358
internal_weight=0 16612 6962 4025 3214 1893 545 106 1348 45 1102 918 60 184
internal_count=217633 16612 6962 4025 3214 1893 545 106 1348 45 1102 918 60 184
shrinkage=0.15


Tree=757
num_leaves=15
num_cat=0
split_feature=25 11 17 11 11 14 13 10 13 38 1 1 20 38
split_gain=0.0159645 0.0403482 0.0421783 0.0799936 0.0577218 0.0624506 0.128505 0.0706227 0.0665066 0.104771 0.063142 0.0437086 0.0858581 0.108994
threshold=92.722700000000017 -0.00065124649999999992 1.2010350000000001e-06 -0.00035091199999999994 -0.00037878049999999996 0.037315700000000007 0.00042007800000000005 2.2409100000000005e-05 -2.1985349999999994e-05 -0.27625499999999997 -7.9861949999999995 8.6167600000000011 -3.0760849999999995 -0.21262149999999999
decision_type=2 2 2 2 2 2 2 2 2 2 2 2 2 2
left_child=-1 -2 3 -3 -4 7 -7 8 -6 -10 -9 12 13 -12
right_child=1 2 4 -5 5 6 -8 10 9 -11 11 -13 -14 -15
leaf_value=3.4686527279733362e-06 0.0043526286766121447 0.0093615533964475604 -0.009592102093447465 -0.0002198611850087055 -0.00074846062927969633 0.012975400337018073 -0.0015782772603161839 0.0072643011796753856 -0.015044658566455774 -0.0030728619188793295 0.0065062584805034808 0.0051742695656555168 -0.004729665066704249 -0.0021352982783739223
leaf_weight=216058 38 20 20 994 44 20 43 20 29 38 47 21 132 109
leaf_count=216058 38 20 20 994 44 20 43 20 29 38 47 21 132 109
internal_value=0 -0.000475829 -0.000595205 -3.08786e-05 -0.00168933 -0.0013751 0.00304194 -0.00200754 -0.00527924 -0.00825468 -0.000903719 -0.00143239 -0.00191413 0.000468248
internal_weight=0 1575 1537 1014 523 503 63 440 111 67 329 309 288 156
internal_count=217633 1575 1537 1014 523 503 63 440 111 67 329 309 288 156
shrinkage=0.15


Tree=758
num_leaves=15
num_cat=0
split_feature=0 20 39 0 14 9 20 0 20 18 3 21 20 14
split_gain=0.0146517 0.039841 0.267713 0.119987 0.10282 0.18296 0.0726638 0.0709892 0.179659 0.100219 0.0744391 0.0909269 0.0891386 0.0722367
threshold=11.559500000000002 14.358700000000001 0.0012724150000000003 12.154700000000002 7.8716300000000004e-05 7.1572800000000014e-05 8.6135100000000016 11.960450000000002 10.878150000000002 -7.2267849999999994e-08 -5.6715199999999983 -4.8424999999999994 12.994100000000001 8.3846350000000021e-05
decision_type=2 2 2 2 2 2 2 2 2 2 2 2 2 2
left_child=-1 6 -3 -4 -5 -6 -2 8 -8 -10 11 -9 13 -13
right_child=1 2 3 4 5 -7 7 10 9 -11 -12 12 -14 -15
leaf_value=-8.9514522523676011e-06 0.00026841335029730338 0.014260953964035518 -0.010902417128884486 -0.0036591052900933263 0.016679350489617457 -0.0033670601790072394 -0.002164164887648029 -0.011607131268829106 0.011310903728898579 0.00092236864780912775 -0.00069629781247980123 -0.0057888260505062636 0.0046559149566746784 0.00013422731264219455
leaf_weight=206699 9686 34 22 42 21 20 124 29 48 37 629 141 32 69
leaf_count=206699 9686 34 22 42 21 20 124 29 48 37 629 141 32 69
internal_value=0 0.00016922 0.00269253 -0.00105343 0.00155714 0.00690061 0.000136729 -0.0010134 0.00147701 0.00678884 -0.00159172 -0.00367004 -0.0027189 -0.00384268
internal_weight=0 10934 139 105 83 41 10795 1109 209 85 900 271 242 210
internal_count=217633 10934 139 105 83 41 10795 1109 209 85 900 271 242 210
shrinkage=0.15


Tree=759
num_leaves=15
num_cat=0
split_feature=12 21 7 12 28 19 34 22 16 1 32 6 19 11
split_gain=0.0141366 0.215957 0.289269 0.222417 0.189084 0.29035 0.190941 0.17172 0.470022 0.472161 0.355159 0.332011 0.362843 0.206512
threshold=-4.2234949999999994e-05 -3.5229999999999997 5.2015850000000008e-05 2.1843750000000002e-05 -0.0047538699999999995 3.3815650000000004e-09 0.012110300000000003 -0.43781749999999992 4.1385500000000005e-07 -4.4708149999999991 0.0074303950000000002 1.0246000000000001e-06 0.0018157800000000001 2.4121100000000005e-05
decision_type=2 2 2 2 2 2 2 2 2 2 2 2 2 2
left_child=4 2 3 7 5 -1 -7 13 -9 -10 -11 -12 -13 -2
right_child=1 -3 -4 -5 -6 6 -8 8 9 10 11 12 -14 -15
leaf_value=-0.0027299184160277947 9.3833051276826787e-05 -0.00010148759456547091 -0.00024713118726194672 0.00084480975693342042 0.00011571129978268502 -0.0015999137912585005 -0.00014587579694756952 0.00017676460766037508 -0.0092274449458345769 0.0029756405328876002 0.004192285343964138 0.03503128897930894 0.010447855424982579 -0.0019421679609288494
leaf_weight=1125 7628 92693 14649 20501 52810 2220 23999 542 25 47 23 35 22 1314
leaf_count=1125 7628 92693 14649 20501 52810 2220 23999 542 25 47 23 35 22 1314
internal_value=0 2.91908e-05 0.000299654 0.000565436 -5.00677e-05 -0.00037024 -0.000268991 -2.8944e-05 0.00224401 0.00961539 0.0133246 0.0194046 0.0255429 -0.000205351
internal_weight=0 137479 44786 30137 80154 27344 26219 9636 694 152 127 80 57 8942
internal_count=217633 137479 44786 30137 80154 27344 26219 9636 694 152 127 80 57 8942
shrinkage=0.15


Tree=760
num_leaves=15
num_cat=0
split_feature=34 28 8 1 21 18 18 26 17 18 21 5 17 18
split_gain=0.0147858 0.0467195 0.0463956 0.108928 0.0769928 0.0609337 0.126674 0.0981462 0.0796607 0.0571662 0.0459895 0.0646837 0.0430403 0.0817578
threshold=0.43971050000000006 0.15316750000000004 -1.3919799999999998e-05 8.2570200000000025 11.325600000000001 1.7089400000000003e-06 0.00052574350000000013 6.0565200000000008e-05 6.696680000000002e-07 -2.8754449999999997e-05 7.8897200000000014 2.1275350000000003e-05 1.0000000180025095e-35 -4.1156349999999994e-05
decision_type=2 2 2 2 2 2 2 2 2 2 2 2 2 2
left_child=1 -1 4 5 9 12 7 -7 -9 -3 11 -11 13 -4
right_child=-2 2 3 -5 -6 6 -8 8 -10 10 -12 -13 -14 -15
leaf_value=-1.3003905087237924e-05 8.5419531771997222e-05 0.0043729770061327142 -0.00023468645761585199 0.0071821424580871514 -0.011492072997877941 0.00035280230804346496 0.00050244115310337737 -0.0048855292727239428 -0.016063571287031665 -0.010435154424339997 0.0012754079018122866 -0.001883788278701104 0.0012085203630372036 -0.0092228462369630809
leaf_weight=179202 37697 25 106 38 23 24 87 26 32 34 32 48 230 29
leaf_count=179202 37697 25 106 38 23 24 87 26 32 34 32 48 230 29
internal_value=0 -1.78956e-05 -0.00121217 -0.000577512 -0.00345307 -0.0011297 -0.00348449 -0.00771452 -0.0110527 -0.00212287 -0.0035474 -0.00542948 -3.93962e-05 -0.00216548
internal_weight=0 179936 734 572 162 534 169 82 58 139 114 82 365 135
internal_count=217633 179936 734 572 162 534 169 82 58 139 114 82 365 135
shrinkage=0.15


Tree=761
num_leaves=15
num_cat=0
split_feature=2 21 22 22 34 29 10 34 22 11 19 21 22 22
split_gain=0.0148565 0.0437588 0.243991 0.0720703 0.177266 0.0872435 0.0892277 0.0963161 0.0863282 0.0776152 0.0712636 0.0587706 0.0828065 0.106403
threshold=-2.8223399999999992 -3.5985549999999997 2.9399650000000004 -2.8863399999999997 0.42331500000000005 0.055268800000000007 3.1340300000000009e-05 0.90570150000000005 -2.7043749999999993 -6.9877999999999984e-05 5.8236700000000004e-05 2.5334250000000007 -2.8036449999999995 -2.5595399999999997
decision_type=2 2 2 2 2 2 2 2 2 2 2 2 2 2
left_child=1 2 3 4 -1 8 -7 10 9 -5 -8 12 -3 -14
right_child=-2 11 -4 5 -6 6 7 -9 -10 -11 -12 -13 13 -15
leaf_value=0.016850685621611773 -8.3766425948211439e-06 0.00087342692151937509 0.01676479527460677 0.00028838584839832034 -0.0031204848701599981 -0.010834823430587467 -0.010855540083205349 0.0013147792404717101 0.00077878506695958896 -0.011417196258902548 2.1190013048117574e-05 0.0003723502992765878 -0.004642019389220548 -0.00069281234706159941
leaf_weight=20 208125 709 21 26 20 26 33 105 2746 25 23 3549 166 2039
leaf_count=20 208125 709 21 26 20 26 33 105 2746 25 23 3549 166 2039
internal_value=0 0.00018336 0.000652177 0.000540283 0.0068651 0.0004555 -0.00268128 -0.00136456 0.000665217 -0.00544964 -0.00638831 -3.75195e-05 -0.000536706 -0.000990122
internal_weight=0 9508 3045 3024 40 2984 187 161 2797 51 56 6463 2914 2205
internal_count=217633 9508 3045 3024 40 2984 187 161 2797 51 56 6463 2914 2205
shrinkage=0.15


Tree=762
num_leaves=15
num_cat=0
split_feature=3 23 14 3 23 21 3 39 23 1 21 21 17 30
split_gain=0.0134287 0.0812976 0.249637 0.188667 0.317404 0.39909 0.394814 0.626488 0.57072 0.690087 4.09137 1.52556 0.577275 0.534227
threshold=-6.6828699999999985 -7.0353699999999995 0.0014449400000000002 -7.2547399999999991 -6.3575049999999989 -12.332599999999998 -7.0077899999999991 1.2709650000000003e-05 -6.7637699999999983 9.4331900000000015 9.5596900000000016 9.7178200000000015 -6.6467399999999989e-09 0.00066656050000000013
decision_type=2 2 2 2 2 2 2 2 2 2 2 2 2 2
left_child=1 -1 3 -3 5 -5 7 -7 9 11 -11 12 -8 -14
right_child=-2 2 -4 4 -6 6 8 -9 -10 10 -12 -13 13 -15
leaf_value=-7.6810794748090382e-05 5.738964037219863e-05 0.00099837540647210806 -0.00019157890142097056 -0.010753200518288672 0.0021540507136118183 -0.0071028855649040669 -0.012709909092365322 0.0027617196965594453 -0.0026676726299294756 -0.017066648050501308 0.038708525960013937 -0.018160346835870048 0.009243482022218653 -0.0054983894352856749
leaf_weight=124294 64535 10041 16021 98 780 444 38 215 587 53 67 76 317 67
leaf_count=124294 64535 10041 16021 98 780 444 38 215 587 53 67 76 317 67
internal_value=0 -2.41913e-05 0.00020287 0.000697236 -0.000405515 -0.00142308 -0.000932547 -0.00388454 0.000681862 0.00386338 0.0140745 0.00140287 0.0049261 0.00667133
internal_weight=0 153098 28804 12783 2742 1962 1864 659 1205 618 120 498 422 384
internal_count=217633 153098 28804 12783 2742 1962 1864 659 1205 618 120 498 422 384
shrinkage=0.15


Tree=763
num_leaves=15
num_cat=0
split_feature=4 35 4 34 7 15 24 5 4 20 30 23 0 4
split_gain=0.0157143 0.0684818 0.0816846 0.145132 0.14839 0.115328 0.0925903 0.114803 0.087532 0.175095 0.084145 0.0830202 0.0792542 0.171154
threshold=-0.30706199999999995 0.079759400000000022 -0.58682149999999988 0.97781150000000017 8.5628950000000013e-05 1.4407700000000001e-06 -0.739367 1.4265900000000002e-05 -0.63345599999999991 -5.0832949999999988 0.030440600000000005 -12.729499999999998 -2.9082999999999997 -1.2236799999999997
decision_type=2 2 2 2 2 2 2 2 2 2 2 2 2 2
left_child=1 -1 8 6 5 -5 7 -4 12 -10 11 -7 -3 -14
right_child=-2 2 3 4 -6 10 -8 -9 9 -11 -12 -13 13 -15
leaf_value=0.00011006006808840229 -2.3018289668830662e-05 0.00072908245664531817 -0.020158364756831099 -0.0001381798561897912 0.011785936759915783 -0.009554549751503924 -0.003926444205781616 -0.0046530355000868441 -0.003643795042298734 0.01574835710767233 -0.01374354917229189 0.0037833830674311938 -0.00031392717316527794 -0.004684804006798291
leaf_weight=50773 164111 856 21 275 20 21 102 22 20 22 26 21 1096 247
leaf_count=50773 164111 856 21 275 20 21 102 22 20 22 26 21 1096 247
internal_value=0 7.05795e-05 -0.000658612 -0.00237598 -0.000773574 -0.00150591 -0.00638752 -0.0122254 -0.000269312 0.006514 -0.00703716 -0.00288558 -0.00039887 -0.0011178
internal_weight=0 53522 2749 508 363 343 145 43 2241 42 68 42 2199 1343
internal_count=217633 53522 2749 508 363 343 145 43 2241 42 68 42 2199 1343
shrinkage=0.15


Tree=764
num_leaves=15
num_cat=0
split_feature=3 23 23 23 13 33 5 12 22 19 21 1 1 23
split_gain=0.0153561 0.0534336 0.0682516 0.155433 0.193555 0.449507 0.288628 0.126386 0.653926 0.683761 0.356498 0.785416 0.401711 0.382659
threshold=-15.512049999999999 -6.551404999999999 -13.606149999999998 -14.361299999999998 -4.9573549999999992e-05 1.530055e-05 1.8425950000000003e-05 -0.00032485249999999994 -0.69316099999999981 6.1393400000000009e-06 -0.25576949999999993 -1.3586749999999999 -1.3586749999999999 -17.297799999999995
decision_type=2 2 2 2 2 2 2 2 2 2 2 2 2 2
left_child=1 2 3 7 5 -5 -7 8 9 -1 12 -12 13 -9
right_child=-2 -3 -4 4 -6 6 -8 10 -10 -11 11 -13 -14 -15
leaf_value=0.027755120258417823 -1.135559269809941e-05 -0.00068096725204530551 0.00043003634301172895 0.00095024914107852962 -0.0011478120708347044 -0.027184130036227046 -0.0063652932150128835 -0.0039206415973823379 -0.002074763100332987 0.0044698781390941989 -0.0067268777091165988 0.0029500123348949556 -0.0038532450189412361 0.0055287979825931997
leaf_weight=31 201284 1609 10632 64 481 31 29 159 455 335 227 1119 932 245
leaf_count=31 201284 1609 10632 64 481 31 29 159 455 335 227 1119 932 245
internal_value=0 0.000139807 0.000229401 -0.000289866 -0.00251005 -0.00779424 -0.0171217 9.35805e-05 0.00172205 0.00644213 -0.000404917 0.00131803 -0.00214076 0.00180984
internal_weight=0 16349 14740 4108 605 124 60 3503 821 366 2682 1346 1336 404
internal_count=217633 16349 14740 4108 605 124 60 3503 821 366 2682 1346 1336 404
shrinkage=0.15


Tree=765
num_leaves=15
num_cat=0
split_feature=34 3 14 3 35 36 34 5 21 12 9 36 11 20
split_gain=0.0150613 0.0496441 0.180089 0.133563 0.175393 0.172324 0.0903832 0.125061 0.253419 0.284123 0.103582 0.145059 0.126452 0.186095
threshold=0.43971050000000006 -8.9780899999999981 0.0016290400000000002 -14.701899999999998 -0.024434799999999996 -0.0048763099999999992 0.82288800000000017 8.0250450000000017e-06 1.0000000180025095e-35 3.0902900000000005e-05 5.9089600000000011e-05 -0.0066166099999999993 6.0151100000000008e-05 2.8588350000000005
decision_type=2 2 2 2 2 2 2 2 2 2 2 2 2 2
left_child=-1 2 3 4 -2 -6 7 8 -5 -10 12 -12 -9 -14
right_child=1 -3 -4 6 5 -7 -8 10 9 -11 11 -13 13 -15
leaf_value=-1.8061547989565246e-05 -0.0013670591130458358 -6.7609004871626427e-05 -5.0014791408105281e-05 -0.0011992080909180912 0.023197845462709664 0.005650680679419191 0.001367010168049528 -0.00020008890389522539 0.0026703422954169045 0.023500565348121411 0.014420475062448531 0.00042655160883441567 -0.0011527016119136282 -0.013310902483395433
leaf_weight=179936 36 20960 11569 80 20 34 3355 1379 34 26 25 50 87 42
leaf_count=179936 36 20960 11569 80 20 34 3355 1379 34 26 25 50 87 42
internal_value=0 8.62117e-05 0.000278844 0.00101502 0.00674295 0.0121496 0.000913502 3.04374e-05 0.00432764 0.0116968 -0.000349606 0.00509119 -0.000620203 -0.00511119
internal_weight=0 37697 16737 5168 90 54 5078 1723 140 60 1583 75 1508 129
internal_count=217633 37697 16737 5168 90 54 5078 1723 140 60 1583 75 1508 129
shrinkage=0.15


Tree=766
num_leaves=15
num_cat=0
split_feature=1 28 7 1 32 3 30 7 26 24 36 26 16 13
split_gain=0.0144807 0.0885443 0.0990186 0.0956045 0.152276 0.0774299 0.177384 0.0610427 0.128958 0.0607508 0.212322 0.197956 0.885941 0.294949
threshold=-10.060549999999997 -0.0026100249999999998 4.7456750000000006e-05 -12.450199999999999 0.016745500000000003 -7.5458749999999988 0.00064147250000000009 5.1023000000000009e-05 -0.013856449999999998 0.20400400000000005 -0.0023809299999999994 -4.1290149999999996e-05 -1.3064849999999995e-07 1.4757950000000002e-05
decision_type=2 2 2 2 2 2 2 2 2 2 2 2 2 2
left_child=1 3 -3 -1 -5 6 -6 9 -9 10 -7 -11 13 -13
right_child=-2 2 -4 4 5 7 -8 8 -10 11 -12 12 -14 -15
leaf_value=0.00038188773871587333 -1.1958088432798669e-05 0.00075485229542416644 -0.00017143825799456676 -0.01083292087106119 -0.012917354242752784 -0.015011537049897014 0.0020792128494109157 0.011693758100789802 0.00011734867735610735 -0.0006606788506102522 -0.0011174912018960873 0.031290998780501206 -0.0061959564418618265 0.0074408507079351694
leaf_weight=3183 198658 6799 4201 33 36 25 35 22 1366 725 2444 28 58 20
leaf_count=3183 198658 6799 4201 33 36 25 35 22 1366 725 2444 28 58 20
internal_value=0 0.000125195 0.000401094 -0.000255355 -0.000678633 -0.00060822 -0.00552468 -0.00053376 0.000300836 -0.000884797 -0.00125818 0.000224558 0.00627924 0.0213534
internal_weight=0 18975 11000 7975 4792 4759 71 4688 1388 3300 2469 831 106 48
internal_count=217633 18975 11000 7975 4792 4759 71 4688 1388 3300 2469 831 106 48
shrinkage=0.15


Tree=767
num_leaves=15
num_cat=0
split_feature=23 14 14 7 3 20 29 21 17 8 16 31 9 20
split_gain=0.0144885 0.0850574 0.146352 0.120521 0.132916 0.225921 0.199756 0.114322 0.168232 0.0895748 0.082312 0.0753394 0.128315 0.136487
threshold=-16.783199999999997 0.00019721000000000002 0.0031052900000000006 4.6451350000000011e-05 -15.512049999999999 4.2630900000000009 0.014671650000000001 -7.1421249999999992 4.8153850000000012e-06 6.8380000000000004e-06 2.4186550000000002e-07 0.10976650000000002 2.7889200000000007e-06 -0.20577849999999995
decision_type=2 2 2 2 2 2 2 2 2 2 2 2 2 2
left_child=1 -1 3 7 5 6 -5 8 9 10 -3 12 13 -9
right_child=-2 2 -4 4 -6 -7 -8 11 -10 -11 -12 -13 -14 -15
leaf_value=-0.00035526425440714817 -1.2281052706784751e-05 0.0034725572448223827 -0.00016667429886874251 -0.017509085568599401 0.00020187463935681532 0.0072194068160440243 0.0010973165673203765 -0.0017741757672093969 0.018288270486518741 -0.0020344081743577016 0.014795841099112294 0.0019411944690269512 -0.00047456796536232958 0.0023296212464596578
leaf_weight=5909 197724 52 6927 37 2652 21 20 218 20 43 20 1664 1211 1115
leaf_count=5909 197724 52 6927 37 2652 21 20 218 20 43 20 1664 1211 1115
internal_value=0 0.000121968 0.000323394 0.000803346 2.2377e-05 -0.00608054 -0.0109805 0.00129426 0.00559093 0.0033827 0.00661791 0.00115642 0.000643104 0.00165848
internal_weight=0 19909 14000 7073 2730 78 57 4343 135 115 72 4208 2544 1333
internal_count=217633 19909 14000 7073 2730 78 57 4343 135 115 72 4208 2544 1333
shrinkage=0.15


Tree=768
num_leaves=15
num_cat=0
split_feature=32 1 7 1 28 8 13 21 1 23 14 22 11 1
split_gain=0.0148366 0.229303 0.181913 0.127314 0.280525 0.18669 0.30913 0.359548 0.75984 0.590771 0.824428 0.515957 1.55491 0.493582
threshold=-0.068734249999999983 -3.5519849999999997 5.2015850000000008e-05 -3.4741849999999999 0.0020348000000000002 2.2619000000000005e-05 5.8330650000000004e-05 -9.6841449999999991 -8.295614999999998 -7.3437899999999994 0.00017734350000000003 -0.98294349999999986 7.2143400000000008e-06 -10.500049999999998
decision_type=2 2 2 2 2 2 2 2 2 2 2 2 2 2
left_child=1 2 -1 4 5 6 7 8 9 10 -2 13 -13 -11
right_child=3 -3 -4 -5 -6 -7 -8 -9 -10 11 -12 12 -14 -15
leaf_value=0.00064806825711862534 -0.0013731134549350432 -0.00028837044152394905 -0.00028619689248358032 0.00012888105063292089 0.00045520124567490216 0.00024171653004718505 0.00024210043951192574 -0.00051656661444063714 -0.0039350324202869864 0.00032195120765995104 0.0099196479570627747 -0.0073783232015557582 0.040543247560970483 -0.0062760897002202302
leaf_weight=13864 296 37204 7086 98657 13531 10407 9843 23184 2172 589 286 39 25 450
leaf_count=13864 296 37204 7086 98657 13531 10407 9843 23184 2172 589 286 39 25 450
internal_value=0 -6.48572e-05 0.000332068 2.36502e-05 -0.000147041 -0.000319355 -0.000477665 -0.000739661 -0.00208066 0.00030967 0.00417625 -0.00173054 0.011341 -0.00253572
internal_weight=0 58154 20950 159479 60822 47291 36884 27041 3857 1685 582 1103 64 1039
internal_count=217633 58154 20950 159479 60822 47291 36884 27041 3857 1685 582 1103 64 1039
shrinkage=0.15


Tree=769
num_leaves=15
num_cat=0
split_feature=21 1 21 14 23 12 20 11 6 2 2 18 6 14
split_gain=0.0179699 0.339732 0.966294 0.379262 0.468202 0.592877 0.498851 2.30796 2.23041 0.681542 0.444479 0.663352 0.421706 0.392179
threshold=3.1386350000000003 10.151550000000002 10.535600000000001 7.0631650000000013e-05 -7.5179349999999987 7.071485000000002e-05 0.27425600000000006 3.9376600000000001e-07 -4.6958349999999994e-07 1.9965100000000002 1.6442250000000003 1.7801400000000002e-07 1.8355650000000001e-06 0.00011615350000000002
decision_type=2 2 2 2 2 2 2 2 2 2 2 2 2 2
left_child=-1 -2 -3 -4 -5 6 8 -8 -6 10 -10 13 -13 -12
right_child=1 2 3 4 5 -7 7 -9 9 -11 11 12 -14 -15
leaf_value=3.2249257974803102e-05 3.7613710001984106e-05 -0.0019837551890214303 -0.0021127425313279672 -0.0024537225816643245 -0.012470522928474979 0.00054690540648944679 -0.016794740595128133 0.013987692208834702 0.042516665608654247 -0.0013890117465052752 0.021875727493694961 -0.0068972661794925276 0.020643162913620471 0.044221727411495521
leaf_weight=139526 71484 5316 300 204 55 317 80 174 29 24 43 22 29 30
leaf_count=139526 71484 5316 300 204 55 317 80 174 29 24 43 22 29 30
internal_value=0 -5.76083e-05 -0.00108537 0.00256867 0.00396333 0.00559357 0.00888532 0.00429244 0.0139137 0.0221122 0.0257987 0.0218889 0.00876298 0.031059
internal_weight=0 78107 6623 1307 1007 803 486 254 232 177 153 124 51 73
internal_count=217633 78107 6623 1307 1007 803 486 254 232 177 153 124 51 73
shrinkage=0.15


Tree=770
num_leaves=15
num_cat=0
split_feature=14 34 10 10 11 20 20 25 10 26 23 34 11 11
split_gain=0.0184305 0.0862916 0.105748 0.105318 0.0805095 0.132422 0.17393 0.105066 0.118823 0.101097 0.0828361 0.0767698 0.115297 0.0909111
threshold=7.3868200000000019e-05 0.008249755000000001 4.683900000000001e-05 3.950375000000001e-05 -1.2716849999999998e-05 -10.270699999999998 -5.5815149999999987 0.2651265000000001 1.2929700000000001e-05 8.1375700000000008e-05 -5.9629699999999994 0.006291215000000001 1.3255300000000002e-05 1.2352450000000002e-05
decision_type=2 2 2 2 2 2 2 2 2 2 2 2 2 2
left_child=1 3 -3 4 5 -1 -7 9 -9 10 -6 12 -10 -13
right_child=-2 2 -4 -5 7 6 -8 8 11 -11 -12 13 -14 -15
leaf_value=0.0039059560682113852 -1.7516694238543588e-05 0.00048393972433222578 -0.00015173297779991812 0.0002189652773762528 -0.0002069814096020098 -0.017358534423900503 -0.0034787003868464003 -0.010666332528247344 -0.0026112646170420276 -0.0083235102430027092 0.007496804000129486 -0.0010165991559340473 -0.013284622269566171 0.0071067864922310141
leaf_weight=31 187448 14754 9799 2855 1688 28 74 36 445 34 32 351 24 34
leaf_count=31 187448 14754 9799 2855 1688 28 74 36 445 34 32 351 24 34
internal_value=0 0.000108778 0.000230245 -0.000420765 -0.00107846 -0.00467953 -0.00728885 -0.00089732 -0.00222475 -0.000223766 -6.36552e-05 -0.0018689 -0.00315745 -0.000299209
internal_weight=0 30185 24553 5632 2777 133 102 2644 890 1754 1720 854 469 385
internal_count=217633 30185 24553 5632 2777 133 102 2644 890 1754 1720 854 469 385
shrinkage=0.15


Tree=771
num_leaves=15
num_cat=0
split_feature=21 12 10 23 22 22 1 1 23 3 23 13 33 20
split_gain=0.0150486 0.326275 0.212631 0.212144 0.43472 0.650298 0.632157 1.01045 1.74949 2.1251 1.33818 1.25744 1.55147 1.60828
threshold=-2.8596399999999997 1.9714300000000002e-05 1.6275850000000004e-05 -8.4609499999999986 -1.0598999999999996 -2.0478899999999993 -8.973889999999999 -5.2138099999999987 -13.606149999999998 -13.519999999999998 -14.248749999999998 1.5755450000000002e-05 -5.572309999999999e-06 2.5523700000000002
decision_type=2 2 2 2 2 2 2 2 2 2 2 2 2 2
left_child=1 2 3 4 5 -1 -7 8 9 -8 -9 12 -10 -14
right_child=-2 -3 -4 -5 -6 6 7 10 11 -11 -12 -13 13 -15
leaf_value=-0.0026474360728362891 -3.0268654260167106e-05 0.00039566663530084787 -8.6079081307525397e-05 -0.002063307914368383 -0.0029161268643236155 -0.0029579803883878898 0.027584694568864313 0.0070399588088211774 -0.0041382486794571405 -0.011760783659206438 -0.0082767137515180784 0.003028565626455143 0.028478006030329399 0.0015662642088360513
leaf_weight=824 136972 35036 39552 2602 997 369 38 243 61 165 272 221 216 65
leaf_count=824 136972 35036 39552 2602 997 369 38 243 61 165 272 221 216 65
internal_value=0 5.13998e-05 -0.000212967 -0.00103936 -0.000271764 0.000793891 0.00251247 0.00408827 0.00754259 -0.00439562 -0.00104962 0.0118471 0.0175457 0.0222529
internal_weight=0 80661 45625 6073 3471 2474 1650 1281 766 203 515 563 342 281
internal_count=217633 80661 45625 6073 3471 2474 1650 1281 766 203 515 563 342 281
shrinkage=0.15


Tree=772
num_leaves=15
num_cat=0
split_feature=7 23 23 24 5 25 32 37 19 9 20 29 29 26
split_gain=0.0158001 0.0566719 0.127125 0.189723 0.0904406 0.177579 0.0827422 0.14776 0.269285 0.106187 0.133689 0.124145 0.135675 0.0553788
threshold=1.0156850000000003e-05 -10.618199999999998 -10.016399999999999 0.12565850000000003 1.3356200000000001e-05 0.59057700000000002 0.5274755000000001 2.2628900000000005e-07 0.00080566800000000016 3.7504050000000005e-06 3.5535050000000004 0.010992550000000002 0.0043857250000000009 0.00010158150000000001
decision_type=2 2 2 2 2 2 2 2 2 2 2 2 2 2
left_child=1 6 3 -3 13 -6 7 9 -9 11 -11 12 -1 -4
right_child=-2 2 4 -5 5 -7 -8 8 -10 10 -12 -13 -14 -15
leaf_value=0.00051638463027625073 -2.5367542702323072e-06 0.020142257558181883 0.001035899546793692 0.0011518209641633739 -0.0026337200968080884 0.015460290473688822 -0.0067032956007986935 0.00024622328894431975 0.020782714902888983 -0.0023663783408701417 -0.015228729319642297 -0.0062682368598567942 0.013799169973208337 -0.0032364620399591309
leaf_weight=62 216779 20 331 29 23 26 47 51 20 75 24 36 24 86
leaf_count=62 216779 20 331 29 23 26 47 51 20 75 24 36 24 86
internal_value=0 0.000643929 0.00163531 0.00890302 0.000871114 0.00696718 -0.000862158 7.80247e-05 0.00603115 -0.00183452 -0.00548452 0.00112737 0.00422321 0.000154789
internal_weight=0 854 515 49 466 49 339 292 71 221 99 122 86 417
internal_count=217633 854 515 49 466 49 339 292 71 221 99 122 86 417
shrinkage=0.15


Tree=773
num_leaves=15
num_cat=0
split_feature=2 28 22 2 11 31 14 16 16 23 23 1 1 1
split_gain=0.0149458 0.104438 0.224333 1.2382 0.803237 4.04264 1.99027 1.15567 1.08851 0.915037 1.20923 1.15907 0.940761 0.927858
threshold=-1.0844649999999998 -0.0047538699999999995 -1.0598999999999996 -1.4338699999999998 8.5222450000000026e-06 -0.011094149999999999 0.011904450000000002 2.1717400000000003e-05 -6.9989149999999985e-06 -16.170749999999995 -7.4574949999999989 -4.5348499999999996 -4.6859799999999998 -8.6249899999999986
decision_type=2 2 2 2 2 2 2 2 2 2 2 2 2 2
left_child=1 2 4 -4 -1 6 7 8 -6 12 11 -11 -10 -12
right_child=-2 -3 3 -5 5 -7 -8 -9 9 10 13 -13 -14 -15
leaf_value=-0.00036899658754007211 -2.7792471250167796e-05 0.00018404740675898471 1.8304464697442919e-05 -0.0052554360995175709 0.0031158744707573288 -0.0015710258050570716 0.00039419889240711582 -0.005803358875735804 -0.013820170071695054 0.028145153778409975 0.028621961858589201 -0.00533984144590795 0.018147661321673472 -0.011293319186791594
leaf_weight=14712 145099 48058 5577 1221 109 1980 317 56 34 334 20 25 53 38
leaf_count=14712 145099 48058 5577 1221 109 1980 317 56 34 334 20 25 53 38
internal_value=0 5.55968e-05 -0.000196613 -0.000928921 8.49934e-05 0.00233688 0.0101844 0.0148234 0.0167077 0.0196473 0.0225666 0.0258133 0.00565449 0.00247057
internal_weight=0 72534 24476 6798 17678 2966 986 669 613 504 417 359 87 58
internal_count=217633 72534 24476 6798 17678 2966 986 669 613 504 417 359 87 58
shrinkage=0.15


Tree=774
num_leaves=15
num_cat=0
split_feature=3 22 24 14 15 29 15 0 6 4 12 22 4 17
split_gain=0.0176269 0.0619749 0.0452648 0.13371 0.0856755 0.18312 0.38335 0.674457 0.432608 0.119239 0.18877 0.318741 0.58857 0.677109
threshold=-6.6828699999999985 -1.6889349999999996 0.53053000000000006 0.0016290400000000002 2.6043850000000002e-06 -0.075338849999999985 1.8146050000000006e-05 4.3652200000000008 2.1294400000000006e-06 0.019025200000000003 6.7451950000000014e-05 1.2457400000000003 0.19042400000000004 7.2838650000000014e-07
decision_type=2 2 2 2 2 2 2 2 2 2 2 2 2 2
left_child=2 -2 -1 4 9 6 7 -6 -9 -4 -11 -12 -13 -14
right_child=1 -3 3 -5 5 -7 -8 8 -10 10 11 12 13 -15
leaf_value=-5.1121054540039932e-05 0.00033627139343557868 -1.4122440327406449e-05 0.0013336658225673258 -0.00019616796626296986 -0.0019084593285118565 0.00040926904073523715 -0.0007504281665100471 0.033058868224422139 0.0079413975970560897 -0.00095289746993136755 -0.00028463135485336266 -0.0029265472051859553 0.0070381104430204929 0.03453676130718969
leaf_weight=141450 14711 49824 2472 6495 44 318 95 36 27 1669 330 67 66 29
leaf_count=141450 14711 49824 2472 6495 44 318 95 36 27 1669 330 67 66 29
internal_value=0 6.57512e-05 -2.77159e-05 0.000256509 0.000827078 0.00265273 0.00618453 0.0123417 0.0222942 0.000622169 -0.000191722 0.0023904 0.00783952 0.0154324
internal_weight=0 64535 153098 11648 5153 520 202 107 63 4633 2161 492 162 95
internal_count=217633 64535 153098 11648 5153 520 202 107 63 4633 2161 492 162 95
shrinkage=0.15


Tree=775
num_leaves=15
num_cat=0
split_feature=3 35 32 21 12 8 7 14 38 13 7 13 18 37
split_gain=0.0179398 0.0535139 0.114733 0.128474 0.166558 0.0986748 0.105746 0.0718292 0.0698205 0.0887467 0.13181 0.129469 0.110135 0.0973496
threshold=-15.512049999999999 0.00056077100000000016 -10.048129999999999 3.7587400000000004 0.00024379100000000001 -3.8815499999999995e-05 3.3699050000000001e-05 0.0017399150000000001 -0.064480399999999979 -4.2680999999999993e-05 6.5266650000000013e-05 5.6532750000000005e-05 1.0568850000000002e-06 -6.9757649999999994e-09
decision_type=2 2 2 2 2 2 2 2 2 2 2 2 2 2
left_child=1 2 3 4 -1 -3 -7 -4 9 10 13 12 -11 -8
right_child=-2 5 7 -5 -6 6 8 -9 -10 11 -12 -13 -14 -15
leaf_value=0.0023173905782062896 -1.2273772364912378e-05 0.0084598157740713616 0.0042512658210334311 -0.00079850627540459706 0.021230909858713856 0.0014575648959860394 0.01458802433418376 -0.00012691624372714513 0.00023015434163211536 -0.0032786699469511404 -0.0071082630835007871 -0.0014290070815770213 -0.015929373675025997 0.0010776399512126642
leaf_weight=22 201284 35 85 37 20 1712 21 10435 3694 32 22 176 30 28
leaf_count=22 201284 35 85 37 20 1712 21 10435 3694 32 22 176 30 28
internal_value=0 0.000151111 -4.87742e-05 0.00564628 0.0113238 0.00051956 0.000470932 -9.15412e-05 4.897e-05 -0.00211703 0.00253719 -0.00350548 -0.00939998 0.0068678
internal_weight=0 16349 10599 79 42 5750 5715 10520 4003 309 71 238 62 49
internal_count=217633 16349 10599 79 42 5750 5715 10520 4003 309 71 238 62 49
shrinkage=0.15


Tree=776
num_leaves=15
num_cat=0
split_feature=6 33 33 19 14 23 6 23 3 2 22 22 22 21
split_gain=0.0160411 0.23458 0.163552 0.160031 0.49634 0.383031 0.469468 0.547312 0.387007 0.418866 1.35798 0.659154 0.600105 0.365317
threshold=1.1377400000000002e-06 -2.0893199999999995e-05 -5.572309999999999e-06 3.3787900000000009e-05 0.00074095750000000005 -9.6697249999999979 -5.8873849999999995e-06 -12.104349999999998 -9.4320199999999996 1.3682550000000002 1.3782650000000001 1.3562350000000001 0.55088050000000011 3.5574300000000005
decision_type=2 2 2 2 2 2 2 2 2 2 2 2 2 2
left_child=2 -2 3 4 -1 6 7 -6 9 11 12 13 -11 -8
right_child=1 -3 -4 -5 5 -7 8 -9 -10 10 -12 -13 -14 -15
leaf_value=-4.3705666636813225e-05 0.00057983828131204858 -0.00016096824107204305 0.00013699361968495103 0.00010672536793245994 -0.0015944546721875666 -0.0034633200888176249 -0.00053310425248483367 0.020829694985877723 -0.0049224488983952274 -0.0038431228742930607 0.016003750611791295 -0.0088064015199317402 -0.016033447219271454 0.0029474319038213844
leaf_weight=16524 11233 66874 97554 18885 50 1781 2585 48 529 266 61 185 138 920
leaf_count=16524 11233 66874 97554 18885 50 1781 2585 48 529 266 61 185 138 920
internal_value=0 -5.44288e-05 3.04694e-05 -0.000217121 -0.000482025 -0.0015856 -0.000886272 0.0093888 -0.00110125 -0.000614748 -0.00485733 -8.01142e-05 -0.00800714 0.000380474
internal_weight=0 78107 139526 41972 23087 6563 4782 98 4684 4155 465 3690 404 3505
internal_count=217633 78107 139526 41972 23087 6563 4782 98 4684 4155 465 3690 404 3505
shrinkage=0.15


Tree=777
num_leaves=15
num_cat=0
split_feature=4 38 4 34 37 13 4 14 17 34 20 9 37 0
split_gain=0.0149991 0.06197 0.134116 0.153248 0.132844 0.494526 0.493185 0.332885 0.269408 0.418824 0.361786 0.291921 0.270645 0.245146
threshold=-0.30706199999999995 -3.3935949999999991e-05 -1.0433649999999999 0.034418900000000009 -1.3912749999999999e-06 3.5094600000000008e-05 -1.8911349999999996 0.0011649500000000003 -3.1052299999999995e-06 1.4538050000000002 1.5643100000000001 3.0168650000000001e-05 -2.2746949999999997e-06 -3.6042449999999997
decision_type=2 2 2 2 2 2 2 2 2 2 2 2 2 2
left_child=1 2 -1 -4 5 6 -3 -8 -7 11 -11 12 13 -10
right_child=-2 4 3 -5 -6 8 7 -9 9 10 -12 -13 -14 -15
leaf_value=2.0106173912795579e-05 -2.2488440675470346e-05 0.00054107694481219553 0.0016132183728065316 0.00021281298093499092 7.9472755963002301e-06 -0.00013613834111311007 -0.0028483894591421542 -0.010284213128397822 0.0034805511217564341 0.0053538645112088746 -0.019550052012449928 0.028391585235949604 -0.0011406916153837779 0.025569803113690934
leaf_weight=18098 164111 341 2963 4324 26048 1045 259 284 20 35 21 20 38 26
leaf_count=18098 164111 341 2963 4324 26048 1045 259 284 20 35 21 20 38 26
internal_value=0 6.89548e-05 0.000238883 0.000782238 -8.43534e-05 -0.00123526 -0.0039298 -0.00673748 0.000741478 0.00647341 -0.0039851 0.0121049 0.00822714 0.0159658
internal_weight=0 53522 25385 7287 28137 2089 884 543 1205 160 56 104 84 46
internal_count=217633 53522 25385 7287 28137 2089 884 543 1205 160 56 104 84 46
shrinkage=0.15


Tree=778
num_leaves=15
num_cat=0
split_feature=33 19 14 10 3 32 2 36 18 6 1 21 36 17
split_gain=0.0154901 0.110802 0.163158 0.11495 0.111366 0.104137 0.228193 0.103547 0.11796 0.100762 0.0844484 0.301639 0.0921107 0.232903
threshold=4.0148700000000011e-05 3.0659200000000006e-05 0.00074095750000000005 1.5018400000000002e-05 -19.110799999999998 -7.1290899999999988 1.5309950000000001 -0.17109449999999995 -2.3753749999999996e-05 -1.1960899999999998e-06 -8.869159999999999 -5.1423849999999991 0.0060177500000000014 -8.1272599999999984e-07
decision_type=2 2 2 2 2 2 2 2 2 2 2 2 2 2
left_child=-1 2 -2 5 -5 6 -3 8 -7 -9 11 -4 -12 -14
right_child=1 3 10 4 -6 7 -8 9 -10 -11 12 -13 13 -15
leaf_value=-1.271460242352733e-05 0.00018634471324830137 -0.0050614766485523434 0.022373389354906976 0.0092841795955760538 -2.2632242917751367e-05 -0.013272488749741266 0.016798783140257002 0.0026864858508762312 -0.0029331778491177825 -0.001992103436923378 0.0026700548380239292 -0.00049084368904398097 -0.0063378178489074339 0.0014485430382588306
leaf_weight=197678 5262 22 20 29 11819 36 21 119 80 799 931 37 99 681
leaf_count=197678 5262 22 20 29 11819 36 21 119 80 799 931 37 99 681
internal_value=0 0.000125953 0.000605219 -0.000134723 1.47766e-07 -0.00161842 0.00561446 -0.00191921 -0.00614193 -0.00138562 0.00185189 0.00753169 0.00166267 0.000460274
internal_weight=0 19955 7030 12925 11848 1077 43 1034 116 918 1768 57 1711 780
internal_count=217633 19955 7030 12925 11848 1077 43 1034 116 918 1768 57 1711 780
shrinkage=0.15


Tree=779
num_leaves=15
num_cat=0
split_feature=4 24 4 37 19 3 34 3 12 19 22 2 29 4
split_gain=0.0149315 0.0467754 0.121268 0.339528 0.981166 0.546847 0.451646 0.407015 0.257861 0.232405 0.54896 0.988255 0.301251 0.224281
threshold=0.46547150000000009 0.21349650000000003 1.5436950000000003 -2.0707799999999996e-06 0.0008696480000000001 -14.170649999999997 1.3777350000000002 -10.501849999999999 -0.0002804119999999999 0.00025534800000000002 2.7283200000000005 2.8862200000000002 0.038039200000000009 1.3212600000000003
decision_type=2 2 2 2 2 2 2 2 2 2 2 2 2 2
left_child=-1 -2 3 4 8 -6 7 -7 -3 -5 12 -12 -11 -14
right_child=1 2 -4 9 5 6 -8 -9 -10 10 11 -13 13 -15
leaf_value=-2.0775938789981923e-05 0.00015553017705983245 0.014472028309246526 0.00011728590036081661 -0.000625534820276478 -0.0020458937402030356 0.039271916379220784 0.0052894304626222169 0.015615081437863408 -0.0031642552894403119 -0.0034357638553764104 -0.0026758694200543689 0.035474231746047732 -0.014138241286754135 0.0021752620753629696
leaf_weight=170077 36634 20 7811 1773 38 30 35 36 277 699 50 22 108 23
leaf_count=170077 36634 20 7811 1773 38 30 35 36 277 699 50 22 108 23
internal_value=0 7.43021e-05 -0.000198149 -0.000990133 0.00289135 0.0132927 0.0190637 0.0263682 -0.00197663 -0.00162278 -0.00358299 0.00898111 -0.00467289 -0.011274
internal_weight=0 47556 10922 3111 436 139 101 66 297 2675 902 72 830 131
internal_count=217633 47556 10922 3111 436 139 101 66 297 2675 902 72 830 131
shrinkage=0.15


Tree=780
num_leaves=15
num_cat=0
split_feature=22 2 2 22 19 0 2 22 19 1 21 0 33 28
split_gain=0.0151231 0.529373 0.711094 4.76086 1.16352 1.27825 0.699425 1.10299 0.805455 1.14476 0.646385 1.47358 0.731762 0.620894
threshold=-2.1362749999999995 -2.1314499999999996 -2.2973549999999996 -2.3274699999999995 0.00025534800000000002 -6.6283299999999992 -1.6363399999999999 -2.5818199999999996 1.1283150000000002e-05 -10.893749999999999 -6.9320449999999996 -5.0228599999999988 -1.9033099999999996e-05 -0.091068949999999982
decision_type=2 2 2 2 2 2 2 2 2 2 2 2 2 2
left_child=1 2 -1 -4 5 -5 7 -3 9 -9 11 -7 -12 -11
right_child=-2 6 3 4 -6 10 -8 8 -10 13 12 -13 -14 -15
leaf_value=0.00060833981382754957 -1.6985204110265474e-05 0.00020310491431745433 -0.0017673107073271212 0.0090699417399867487 -0.0034294213145455743 0.034522695127217208 6.2172250732760712e-05 -0.001338319623489248 -0.0014268158104660971 -0.00089884083735181336 0.027870870739653972 -0.0093558393145660654 0.052388017089494192 -0.01653772684022297
leaf_weight=5065 183731 1533 747 95 42 51 25026 256 521 68 70 26 45 357
leaf_count=5065 183731 1533 747 95 42 51 25026 256 521 68 70 26 45 357
internal_value=0 9.20509e-05 0.0013523 0.00485433 0.0198889 0.0233013 -0.000186729 -0.00246425 -0.00586612 -0.00926241 0.0303429 0.0197066 0.0374645 -0.0140355
internal_weight=0 33902 6141 1076 329 287 27761 2735 1202 681 192 77 115 425
internal_count=217633 33902 6141 1076 329 287 27761 2735 1202 681 192 77 115 425
shrinkage=0.15


Tree=781
num_leaves=15
num_cat=0
split_feature=18 10 26 24 18 37 31 30 26 33 4 9 31 25
split_gain=0.0151914 0.0504442 0.0804246 0.254011 0.380946 0.547183 0.608978 0.339191 0.187657 0.316902 0.181035 0.187925 0.204341 0.13299
threshold=-4.1156349999999994e-05 1.8869050000000005e-05 0.00022958950000000002 -0.42479649999999997 -0.00025461599999999999 -2.0707799999999996e-06 0.51625350000000003 0.0050404700000000009 -0.0063802799999999995 0.00015643550000000002 -1.0433649999999999 1.2944200000000002e-05 -0.26560599999999995 2.3678750000000006
decision_type=2 2 2 2 2 2 2 2 2 2 2 2 2 2
left_child=1 2 3 4 8 -6 7 13 -1 -10 -4 -12 -13 -7
right_child=-2 -3 10 -5 5 6 -8 -9 9 -11 11 12 -14 -15
leaf_value=-0.0066399751335235414 -2.1639849830687722e-05 8.2754666048314648e-08 0.00082393661103758538 0.00036981769065677124 -0.0080199529209898576 0.023348986204447489 -0.0038214605946380355 0.011635849029099678 0.00083660557987803418 0.019284099537617293 -0.0039496553905215273 0.01743716686265543 -0.0015692821303049899 0.04023026483399527
leaf_weight=57 167647 40591 680 7838 27 21 26 34 165 24 447 20 35 21
leaf_count=57 167647 40591 680 7838 27 21 26 34 165 24 447 20 35 21
internal_value=0 7.25774e-05 0.00038579 0.000552283 0.00436604 0.0109681 0.0159944 0.0227735 0.000903983 0.00317914 -0.000771066 -0.00293163 0.00534215 0.0317896
internal_weight=0 49986 9395 8213 375 129 102 76 246 189 1182 502 55 42
internal_count=217633 49986 9395 8213 375 129 102 76 246 189 1182 502 55 42
shrinkage=0.15


Tree=782
num_leaves=15
num_cat=0
split_feature=14 34 28 16 6 14 5 23 14 16 34 37 20 20
split_gain=0.0157574 0.0753387 0.132919 0.247975 0.251054 0.168246 0.136947 0.159743 0.304431 0.113466 0.11701 0.190737 0.155136 0.101599
threshold=0.000110883 0.0072790550000000004 0.0075415850000000008 -8.0791249999999992e-08 3.1482450000000008e-06 6.9224250000000017e-05 8.447165000000002e-06 -7.5399549999999991 7.2224100000000012e-05 1.8844850000000003e-07 0.0048231700000000008 1.8731150000000003e-09 10.36265 -11.287099999999999
decision_type=2 2 2 2 2 2 2 2 2 2 2 2 2 2
left_child=1 2 6 -4 5 -5 7 8 -1 10 12 -12 -9 -8
right_child=-2 -3 3 4 -6 -7 13 9 -10 -11 11 -13 -14 -15
leaf_value=-0.0030767338529195903 -2.1053068487520634e-05 0.00016400589088486002 0.0055157007686960115 -0.0087125383787497405 0.0021420764800859616 -0.028168965341756121 -0.0020266494470290095 -0.00077135356876589442 -0.02292943164211465 -0.0091205909028828427 0.00011989139783071113 0.015344825549254891 -0.01119431289430634 4.310731440758822e-05
leaf_weight=63 171085 38595 28 20 20 20 579 208 24 39 81 24 38 6809
leaf_count=63 171085 38595 28 20 20 20 579 208 24 39 81 24 38 6809
internal_value=0 7.73796e-05 -0.000343008 -0.00614033 -0.0115798 -0.0184408 -0.000278143 -0.00274147 -0.00855334 -0.00144498 -0.000592132 0.00359988 -0.0023814 -0.0001191
internal_weight=0 46548 7953 88 60 40 7865 477 87 390 351 105 246 7388
internal_count=217633 46548 7953 88 60 40 7865 477 87 390 351 105 246 7388
shrinkage=0.15


Tree=783
num_leaves=15
num_cat=0
split_feature=4 38 4 11 4 32 22 26 30 18 4 23 29 23
split_gain=0.0144985 0.113639 0.135304 0.135048 0.132433 0.160928 0.148691 0.348036 0.126327 0.258854 0.49548 0.502392 0.460207 0.41178
threshold=0.11543250000000001 -0.0061287349999999989 0.61528200000000022 -7.5258799999999992e-05 0.22843500000000003 -0.28622449999999994 -2.1859549999999994 -0.00049287749999999992 0.0032644900000000005 3.9077700000000007e-05 0.49798950000000003 -14.569749999999997 0.035816550000000009 -11.405099999999999
decision_type=2 2 2 2 2 2 2 2 2 2 2 2 2 2
left_child=-1 2 3 4 5 -2 7 -6 9 -5 11 -11 13 -13
right_child=1 -3 -4 8 6 -7 -8 -9 -10 10 -12 12 -14 -15
leaf_value=-2.8773211841781666e-05 0.010405267670284957 0.00012275528092121953 5.8118681924163209e-05 -0.0028387186369122019 -0.0097583233896228992 -0.0061522800195962183 -0.0076296558210275749 0.015657733454877001 -0.00020582723251113546 -0.0028855636478580821 -0.0053546344356145709 0.036310994366390834 -0.0037386757973581551 0.011498681895489641
leaf_weight=140198 28 67264 5817 1206 27 25 187 22 2626 52 100 27 20 34
leaf_count=140198 28 67264 5817 1206 27 25 187 22 2626 52 100 27 20 34
internal_value=0 5.20946e-05 -0.000415206 -0.00104757 -0.00418066 0.0025951 -0.00570233 0.00165297 -0.000824829 -0.00195443 0.0026226 0.00862052 0.0160071 0.0224812
internal_weight=0 77435 10171 4354 289 53 236 49 4065 1439 233 133 81 61
internal_count=217633 77435 10171 4354 289 53 236 49 4065 1439 233 133 81 61
shrinkage=0.15


Tree=784
num_leaves=15
num_cat=0
split_feature=5 21 21 25 10 27 13 34 6 12 15 12 25 36
split_gain=0.014447 0.0880771 0.132417 0.106171 0.101151 0.13998 0.116369 0.17742 0.269117 0.163313 0.0984711 0.0807076 0.152784 0.131509
threshold=7.2568900000000009e-06 4.6107400000000007 -7.1421249999999992 0.24036700000000003 9.1086300000000016e-06 0.13834450000000001 -9.7459899999999988e-06 0.011875250000000002 -1.6333399999999997e-06 1.9714300000000002e-05 -5.4793599999999992e-08 4.2025950000000011e-05 0.27925050000000007 0.0020100900000000004
decision_type=2 2 2 2 2 2 2 2 2 2 2 2 2 2
left_child=1 2 -1 4 10 -6 -7 8 -8 -9 -4 -3 -13 -14
right_child=-2 11 3 -5 5 6 7 9 -10 -11 -12 12 13 -15
leaf_value=0.0023314092048560267 -4.2488118235387579e-06 0.0024781244053701506 0.0101416489719312 -7.6579171092710935e-05 0.00378571866485588 -0.01268425887433945 -0.024973412076942623 0.0011313178104464896 -0.0046045969758577287 -0.011733006647813857 -0.0016114000324379512 0.0052198503468146853 -0.010237232019340702 0.0027091710278505667
leaf_weight=375 215034 599 23 1115 43 42 20 125 54 27 53 45 51 27
leaf_count=375 215034 599 23 1115 43 42 20 125 54 27 53 45 51 27
internal_value=0 0.000351535 -0.000190037 -0.000819559 -0.00296019 -0.00415899 -0.0054337 -0.00408625 -0.0101097 -0.00115379 0.00194544 0.00175947 -0.00174031 -0.00575578
internal_weight=0 2599 1877 1502 387 311 268 226 74 152 76 722 123 78
internal_count=217633 2599 1877 1502 387 311 268 226 74 152 76 722 123 78
shrinkage=0.15


Tree=785
num_leaves=15
num_cat=0
split_feature=1 23 22 3 14 3 23 3 3 22 23 0 4 18
split_gain=0.0150902 0.0700551 0.0871308 0.382339 0.294504 0.252659 0.229101 0.206436 0.302637 0.968465 0.583435 0.374169 0.367309 0.346496
threshold=-10.060549999999997 -7.1280949999999992 -0.92432499999999995 -5.9118649999999997 0.00059260700000000009 -7.0757599999999989 -6.8145799999999985 -7.0757599999999989 -6.1920449999999994 -2.0263699999999996 -6.2136699999999996 -5.1610799999999992 0.46547150000000009 6.9758600000000004e-07
decision_type=2 2 2 2 2 2 2 2 2 2 2 2 2 2
left_child=1 -1 7 4 5 6 -4 -3 9 11 12 -9 13 -11
right_child=-2 2 3 -5 -6 -7 -8 8 -10 10 -12 -13 -14 -15
leaf_value=0.00028045885196763558 -1.2207150627122686e-05 -0.0059849203180608618 -0.0085228961126498377 0.00062313293244156437 0.00044438556875944302 -0.0062705200827318092 0.0048512739360394895 0.011896022221417692 -0.00067385588586622023 0.0099839583946419747 -0.0074121476198565593 -0.0087172606678186451 -0.006005313059772718 0.02696717611514032
leaf_weight=14818 198658 106 41 1427 347 574 97 23 1018 273 49 143 29 30
leaf_count=14818 198658 106 41 1427 347 574 97 23 1018 273 49 143 29 30
internal_value=0 0.000127802 -0.000416356 -0.000979377 -0.00313876 -0.00488503 0.000877789 0.000421269 0.00085517 0.00370078 0.00786689 -0.0058612 0.0101219 0.0116655
internal_weight=0 18975 4157 2486 1059 712 138 1671 1565 547 381 166 332 303
internal_count=217633 18975 4157 2486 1059 712 138 1671 1565 547 381 166 332 303
shrinkage=0.15


Tree=786
num_leaves=15
num_cat=0
split_feature=22 2 22 2 19 3 23 23 21 11 35 17 3 35
split_gain=0.0155505 0.161646 0.448068 0.870634 0.763014 0.573509 1.44287 0.991096 0.781456 0.771069 0.327465 0.325687 0.310725 0.308659
threshold=-2.4761599999999997 -2.4541449999999996 -2.7774649999999994 -2.7531699999999995 2.1691500000000004e-05 -7.4742849999999992 -7.4574949999999989 -7.5399549999999991 -2.9957599999999993 -5.1252949999999995e-05 -0.00051672199999999995 7.4813700000000008e-08 -5.5420199999999991 -0.00077131949999999986
decision_type=2 2 2 2 2 2 2 2 2 2 2 2 2 2
left_child=1 2 -1 -4 5 6 8 -7 13 11 -11 -10 -9 -5
right_child=-2 -3 3 4 -6 7 -8 12 9 10 -12 -13 -14 -15
leaf_value=-0.00050384229084449053 -1.3654399344161665e-05 -3.8150106082742063e-05 -0.0011067040428296929 0.031427199483486046 -0.0020455389470435906 -0.0060325351347150355 -0.015680419892476708 0.016550321211644375 0.0070319939644541592 -0.022448227454775146 0.0037388619543476534 0.032056134532798417 -0.0027160723228007552 0.018421353333526187
leaf_weight=1645 195017 19647 587 59 174 118 34 104 25 21 22 22 23 135
leaf_count=1645 195017 19647 587 59 174 118 34 104 25 21 22 22 23 135
internal_value=0 0.000117741 0.00114933 0.00320332 0.00663613 0.00931928 0.0135215 0.003865 0.0170175 0.0054653 -0.00905018 0.0187454 0.0130611 0.0223767
internal_weight=0 22616 2969 1324 737 563 318 245 284 90 43 47 127 194
internal_count=217633 22616 2969 1324 737 563 318 245 284 90 43 47 127 194
shrinkage=0.15


Tree=787
num_leaves=15
num_cat=0
split_feature=18 3 26 20 3 35 28 26 3 10 4 38 1 38
split_gain=0.0156755 0.0405676 0.0934229 0.0922271 0.0503139 0.0747146 0.0612299 0.0464079 0.0667038 0.11596 0.105549 0.251362 0.129959 0.0399907
threshold=-4.1156349999999994e-05 -6.0822949999999993 -0.028182349999999998 -14.223749999999997 -6.4440149999999994 -0.4524034999999999 -0.48753549999999996 -0.028182349999999998 -8.0400999999999971 3.1700300000000012e-05 -2.5355949999999994 0.089395300000000025 -2.3048549999999994 1.8426500000000001
decision_type=2 2 2 2 2 2 2 2 2 2 2 2 2 2
left_child=1 4 -3 -4 7 -6 -7 8 10 -10 13 -12 -13 -1
right_child=-2 2 3 -5 5 6 -8 -9 9 -11 11 12 -14 -15
leaf_value=-0.0011656965087618204 -2.1981925787473397e-05 0.0088931233389303085 -0.0092302958173806678 -0.00042756905433163298 -0.0075240191441084984 0.0089457277187400246 0.00097335889412645377 9.5436143691266241e-05 0.010800210398621857 -0.0017116427810979077 0.0003628403962235342 -0.022207864657552406 -0.0075744599511381235 0.0050780729707589163
leaf_weight=159 167647 24 27 3283 23 22 1470 44751 25 50 67 22 36 27
leaf_count=159 167647 24 27 3283 23 22 1470 44751 25 50 67 22 36 27
internal_value=0 7.37247e-05 -0.000431761 -0.000499374 0.000109849 0.000960126 0.00109091 8.13103e-05 -0.00155637 0.00245897 -0.0025247 -0.00589555 -0.0131251 -0.000259343
internal_weight=0 49986 3334 3310 46652 1515 1492 45137 386 75 311 125 58 186
internal_count=217633 49986 3334 3310 46652 1515 1492 45137 386 75 311 125 58 186
shrinkage=0.15


Tree=788
num_leaves=15
num_cat=0
split_feature=23 1 22 22 14 37 14 23 1 1 21 37 7 37
split_gain=0.0137129 0.10769 0.13437 0.187933 0.318907 0.657837 0.400525 0.391052 0.702821 0.498437 1.01434 0.712512 0.403318 0.341198
threshold=-6.9313999999999991 8.2570200000000025 2.3223600000000002 0.82008800000000004 0.00018717200000000002 9.0597550000000005e-07 9.3253850000000015e-05 -6.3908299999999993 12.043950000000001 9.4331900000000015 9.8416500000000013 3.7562250000000003e-08 2.5523800000000005e-05 -3.404129999999999e-08
decision_type=2 2 2 2 2 2 2 2 2 2 2 2 2 2
left_child=-1 -2 3 -3 6 -6 -5 8 9 10 -8 12 -11 -9
right_child=1 2 -4 4 5 -7 7 13 -10 11 -12 -13 -14 -15
leaf_value=-1.7216924207869766e-05 0.00018672346002917244 -0.00097547170265815833 -0.0027825994601852529 -9.8516617950602869e-05 -0.0026165712722687083 0.019416445437673246 0.022753185039618984 0.0084235599272036582 -0.0044992717073248723 0.0039722304791212082 -0.01927116215985214 -0.0066805835897102957 0.024160163590591036 -0.0045901839823226246
leaf_weight=179998 32188 3168 539 574 646 32 24 74 66 27 28 25 127 117
leaf_count=179998 32188 3168 539 574 646 32 24 74 66 27 28 25 127 117
internal_value=0 8.23439e-05 -0.000534467 -0.000287576 0.00096487 -0.00157666 0.00258743 0.00574672 0.00915188 0.0130522 0.00012469 0.0168077 0.0206207 0.00045179
internal_weight=0 37635 5447 4908 1740 678 1062 488 297 231 52 179 154 191
internal_count=217633 37635 5447 4908 1740 678 1062 488 297 231 52 179 154 191
shrinkage=0.15


Tree=789
num_leaves=15
num_cat=0
split_feature=14 34 3 39 14 29 7 29 25 11 28 0 19 29
split_gain=0.0144842 0.0710246 0.137009 0.172702 0.289622 0.353774 0.341808 0.34302 0.276235 0.241308 0.237115 0.209715 0.191781 0.186055
threshold=7.8716300000000004e-05 0.008249755000000001 -6.0545599999999995 7.2858650000000016e-07 7.3868200000000019e-05 -0.0016011999999999999 2.8402950000000006e-05 0.0019079550000000002 0.17980350000000003 8.0872300000000015e-06 0.0017094500000000002 10.000450000000003 2.4339550000000004e-08 -0.0039842949999999988
decision_type=2 2 2 2 2 2 2 2 2 2 2 2 2 2
left_child=1 2 3 4 5 8 -7 12 9 -1 -6 -10 -8 -5
right_child=-2 -3 -4 13 10 6 7 -9 11 -11 -12 -13 -14 -15
leaf_value=0.00038588790921494364 -1.6297856716214101e-05 0.00019812821729827911 5.9661746219173242e-05 0.0013072456169199137 -0.014157022554427384 0.014233299220213665 -0.01602779806162289 0.0032936165826775283 0.0094526968592696867 0.019451433666429273 0.0048446046638260173 -0.011549343194346874 -0.0026876353898693866 -0.0033402090783716406
leaf_weight=20 184845 26622 4521 241 45 30 48 98 23 59 22 20 49 990
leaf_count=20 184845 26622 4521 241 45 30 48 98 23 59 22 20 49 990
internal_value=0 9.18805e-05 -0.000366849 -0.00153904 0.0011112 0.00285453 -0.000672245 -0.00296541 0.00935883 0.0146247 -0.00791768 -0.000315694 -0.00928895 -0.00243035
internal_weight=0 32788 6166 1645 414 347 225 195 122 79 67 43 97 1231
internal_count=217633 32788 6166 1645 414 347 225 195 122 79 67 43 97 1231
shrinkage=0.15


Tree=790
num_leaves=15
num_cat=0
split_feature=4 38 4 4 12 3 33 13 23 34 8 13 15 24
split_gain=0.0132107 0.0910442 0.269748 0.134842 0.112475 0.0982744 0.134257 0.105905 0.156983 0.239776 0.102101 0.0996733 0.145272 0.0895847
threshold=0.11543250000000001 -0.0056186199999999987 0.025946100000000003 -0.40425149999999993 -0.00025174199999999995 -6.3035799999999993 -5.8983399999999995e-05 -5.3645549999999997e-05 -13.750649999999998 0.58850850000000021 7.1790750000000012e-06 6.6831150000000008e-05 -9.647814999999997e-09 0.35887100000000005
decision_type=2 2 2 2 2 2 2 2 2 2 2 2 2 2
left_child=1 2 3 -1 -4 6 11 8 9 -8 -11 -5 -13 -2
right_child=13 -3 4 5 -6 -7 7 -9 -10 10 -12 12 -14 -15
leaf_value=6.5971040592097225e-05 0.00011130610196154326 -7.3873279701909653e-05 -0.0096137173738415262 0.0022265938859427187 -0.00081481187700513185 0.00028091154670105022 -0.020118689462542534 0.00098591238945244081 0.001382725929367633 -0.0089604683419955613 0.0058309994953950599 0.00026256771192752887 0.017345948664296881 -0.00037298758952186256
leaf_weight=6531 67589 122188 33 1802 3450 2865 25 3138 79 21 21 21 24 9846
leaf_count=6531 67589 122188 33 1802 3450 2865 25 3138 79 21 21 21 24 9846
internal_value=0 -2.74657e-05 0.000287385 0.000571636 -0.000898178 0.000984654 0.0013776 0.000802175 -0.00314692 -0.00848785 -0.00156473 0.00240072 0.0093737 4.97273e-05
internal_weight=0 140198 18010 14527 3483 7996 5131 3284 146 67 42 1847 45 77435
internal_count=217633 140198 18010 14527 3483 7996 5131 3284 146 67 42 1847 45 77435
shrinkage=0.15


Tree=791
num_leaves=15
num_cat=0
split_feature=3 28 34 14 12 28 7 33 19 34 34 34 27 22
split_gain=0.0134536 0.0599769 0.100021 0.081996 0.0817373 0.11222 0.0973291 0.0758214 0.0918557 0.0746769 0.0746183 0.0731135 0.175587 0.199561
threshold=-6.6828699999999985 0.0073393350000000015 0.0064288850000000005 7.5703150000000014e-05 3.3627650000000007e-05 0.0031921850000000006 3.1390950000000001e-05 -4.7009049999999996e-07 6.8051000000000003e-05 0.008054625000000001 0.037557050000000008 0.0043981750000000016 0.18787850000000003 1.2723550000000003
decision_type=2 2 2 2 2 2 2 2 2 2 2 2 2 2
left_child=-1 4 -3 9 7 6 11 10 -9 -4 -2 12 13 -6
right_child=1 2 3 -5 5 -7 -8 8 -10 -11 -12 -13 -14 -15
leaf_value=-2.4213730844030663e-05 0.00055010522286885126 -0.0065728438071660502 -0.0052979706861846021 -0.00046069044831637771 -0.0027063711443707172 -0.00049618741135687991 0.00047315262771867458 0.00010516585840503264 -0.00058071299884292292 0.00024994630392448732 -0.00010453200908590608 0.0021823317759796621 -0.0096691783583970035 0.0089918142366086085
leaf_weight=153098 8694 55 55 9343 92 2366 10275 10008 7831 7313 7131 1280 41 51
leaf_count=153098 8694 55 55 9343 92 2366 10275 10008 7831 7313 7131 1280 41 51
internal_value=0 5.74428e-05 -0.000186644 -0.000165625 0.000143113 0.00044624 0.000636186 1.61042e-05 -0.000195923 0.000208533 0.000255115 0.00178043 -0.00101543 0.00146571
internal_weight=0 64535 16766 16711 47769 14105 11739 33664 17839 7368 15825 1464 184 143
internal_count=217633 64535 16766 16711 47769 14105 11739 33664 17839 7368 15825 1464 184 143
shrinkage=0.15


Tree=792
num_leaves=15
num_cat=0
split_feature=18 24 2 16 10 10 26 1 22 6 23 10 7 34
split_gain=0.0175441 0.0371531 0.0817536 0.0854274 0.0793581 0.0771041 0.265562 0.273058 0.354765 0.173378 0.218794 0.219789 0.167128 0.153972
threshold=-4.1156349999999994e-05 -0.35208349999999994 3.0333000000000006 -2.2582199999999995e-06 8.362345000000001e-06 1.3571200000000001e-05 0.000197476 -4.5944149999999988 -1.3398849999999998 -2.1479449999999997e-07 -9.061029999999997 1.13795e-05 2.7950550000000003e-05 3.2423100000000002
decision_type=2 2 2 2 2 2 2 2 2 2 2 2 2 2
left_child=1 2 4 -4 -1 6 7 8 -6 12 11 -11 -9 -8
right_child=-2 -3 3 -5 5 -7 13 9 -10 10 -12 -13 -14 -15
leaf_value=-0.008635753118433058 -2.3255208190570452e-05 0.00013009393657122901 0.00031064415522015894 -0.012239171965764118 0.026746203131707651 -0.00030520672407485929 -0.0031642648287466589 -0.012657154512663301 0.0026481307971860388 0.024722871362298195 -0.0039010686213329722 0.004422500183448262 0.003219547652074003 0.0051581533195880743
leaf_weight=25 167647 43006 23 26 28 6433 217 26 27 21 26 28 35 65
leaf_count=25 167647 43006 23 26 28 6433 217 26 27 21 26 28 35 65
internal_value=0 7.79952e-05 -0.000243002 -0.00634844 -0.000199838 -0.0001693 0.00167909 0.00599777 0.0149162 0.00239103 0.0072211 0.0131227 -0.00354757 -0.00124598
internal_weight=0 49986 6980 49 6931 6906 473 191 55 136 75 49 61 282
internal_count=217633 49986 6980 49 6931 6906 473 191 55 136 75 49 61 282
shrinkage=0.15


Tree=793
num_leaves=15
num_cat=0
split_feature=30 15 19 23 0 26 5 6 22 18 26 1 32 10
split_gain=0.0143481 0.0646763 0.118848 0.128998 0.227583 0.445854 0.272308 0.416442 0.191711 0.154047 0.242979 0.348281 0.276871 0.193029
threshold=0.0012252050000000003 7.0051050000000008e-07 3.3787900000000009e-05 -7.9835499999999993 9.4310500000000008 -0.0010097049999999998 2.7724350000000002e-05 -5.6985399999999991e-06 -1.4024849999999998 -4.1156349999999994e-05 -0.0011416699999999998 7.8238000000000012 -0.7526839999999998 2.9520050000000002e-05
decision_type=2 2 2 2 2 2 2 2 2 2 2 2 2 2
left_child=-1 -2 3 -3 6 -6 7 -5 -8 -9 13 12 -12 -11
right_child=1 2 -4 4 5 -7 8 9 -10 10 11 -13 -14 -15
leaf_value=-2.4432595418091004e-05 0.00015466422728910867 -0.00060082378354389991 -3.2055142398533541e-05 -0.026596775689077649 0.015801817363765285 -0.006264425165669915 0.015811030446784568 -0.0010845987302285512 -0.0011467444647496449 -0.0272293302363583 -0.023023871219317829 0.013542310447831239 -0.0037674449759444017 -0.0096845139705650108
leaf_weight=155183 45293 1801 14859 22 38 45 20 122 60 21 21 21 84 43
leaf_count=155183 45293 1801 14859 22 38 45 20 122 60 21 21 21 84 43
internal_value=0 6.07129e-05 -0.00018731 -0.0011912 -0.00333057 0.00383819 -0.00476778 -0.00665053 0.0030927 -0.00524407 -0.00791489 -0.00409189 -0.00761873 -0.0154414
internal_weight=0 62450 17157 2298 497 83 414 334 80 312 190 126 105 64
internal_count=217633 62450 17157 2298 497 83 414 334 80 312 190 126 105 64
shrinkage=0.15


Tree=794
num_leaves=15
num_cat=0
split_feature=16 36 16 3 4 17 16 23 35 4 14 1 35 37
split_gain=0.0137481 0.0788731 0.195026 0.190541 0.165286 0.193937 0.235513 0.197303 0.184378 0.306308 0.183753 0.166818 0.213384 0.159977
threshold=1.6983350000000002e-06 -0.0043675249999999997 2.6513900000000004e-05 -6.3575099999999987 -1.3153099999999998 6.9477550000000009e-06 4.7861450000000004e-06 -17.487949999999994 0.007377840000000001 0.28148150000000011 0.0061666100000000003 -3.0565249999999993 0.0021783900000000001 -1.6329399999999996e-05
decision_type=2 2 2 2 2 2 2 2 2 2 2 2 2 2
left_child=-1 2 3 4 -2 7 8 10 -7 -10 -6 12 -8 -13
right_child=1 -3 -4 -5 5 6 11 -9 9 -11 -12 13 -14 -15
leaf_value=-2.2441664345938898e-05 0.0018264956088303453 0.00013841604819567023 0.00024633963272706723 0.00083424991083356202 0.0024820495901506298 0.0011164394530055687 -0.00059796190083337322 -0.0037463609539696665 0.0032633696499397044 0.025298988358752633 -0.0081366959428785107 0.011740730552992316 -0.011176076499041078 -0.00082467502757975985
leaf_weight=160694 260 48218 5097 810 220 128 90 1449 40 22 44 24 82 455
leaf_count=160694 260 48218 5097 810 220 128 90 1449 40 22 44 24 82 455
internal_value=0 6.33352e-05 -0.000351784 -0.00119302 -0.00177656 -0.00214335 -0.000277869 -0.00305922 0.00436851 0.0110825 0.000712259 -0.00163395 -0.00564102 -0.000195093
internal_weight=0 56939 8721 3624 2814 2554 841 1713 190 62 264 651 172 479
internal_count=217633 56939 8721 3624 2814 2554 841 1713 190 62 264 651 172 479
shrinkage=0.15


Tree=795
num_leaves=15
num_cat=0
split_feature=36 16 16 4 12 3 34 19 3 35 16 33 13 13
split_gain=0.0132068 0.860806 0.641464 1.11044 0.750304 0.646691 0.65463 0.640139 0.828854 0.797576 0.622211 0.594303 0.831003 0.668542
threshold=0.00047676150000000003 4.078890000000001e-08 -9.5177599999999978e-06 -0.11254849999999998 -5.7095649999999993e-05 -6.3035799999999993 0.97781150000000017 6.8051000000000003e-05 -6.5186449999999985 -0.00025640649999999994 -4.4942799999999995e-09 -2.9924449999999998e-05 4.6609650000000012e-05 3.0847550000000002e-05
decision_type=2 2 2 2 2 2 2 2 2 2 2 2 2 2
left_child=10 2 -2 5 -5 6 -4 8 9 -3 -1 12 -11 -13
right_child=1 7 3 4 -6 -7 -8 -9 -10 11 -12 13 -14 -15
leaf_value=0.00034928884652192087 0.00026820531491020705 0.00040915357078635583 -0.004015389065533133 -0.0019637147346712324 0.00012579508767911538 0.00020684435048735496 0.00083895824559968024 -1.2635021337277734e-05 -0.00015473937336193226 -0.0013989975988745204 -0.00029278210524785243 0.0055348773215139323 0.0072971738175584269 0.0013579638490360216
leaf_weight=68007 15162 3588 4655 5160 15426 1449 722 24413 5833 1065 67829 2745 322 1257
leaf_count=68007 15162 3588 4655 5160 15426 1449 722 24413 5833 1065 67829 2745 322 1257
internal_value=0 -4.76175e-05 -0.000514678 -0.000947703 -0.000397953 -0.00260565 -0.00336357 0.000459346 0.00123737 0.00214192 2.86741e-05 0.00329559 0.000619868 0.00422294
internal_weight=0 81797 42574 27412 20586 6826 5377 39223 14810 8977 135836 5389 1387 4002
internal_count=217633 81797 42574 27412 20586 6826 5377 39223 14810 8977 135836 5389 1387 4002
shrinkage=0.15


Tree=796
num_leaves=15
num_cat=0
split_feature=0 22 36 20 23 12 20 0 23 9 5 20 14 23
split_gain=0.0152862 0.0417187 0.0434962 0.115369 0.279885 0.171028 0.0526711 0.0851829 0.240195 0.087374 0.0669923 0.0487304 0.0718146 0.084436
threshold=11.559500000000002 -2.9625949999999994 0.018363850000000004 14.358700000000001 -8.2043399999999984 1.0000000180025095e-35 10.068200000000003 11.960450000000002 -6.7159199999999997 3.6970700000000008e-05 1.3189200000000001e-05 6.7373500000000011 8.198710000000002e-05 -8.5490249999999985
decision_type=2 2 2 2 2 2 2 2 2 2 2 2 2 2
left_child=-1 -2 3 6 -5 -6 -3 8 -8 -10 -11 -4 -13 -14
right_child=1 2 11 4 5 -7 7 -9 9 10 -12 12 13 -15
leaf_value=-9.1432164895553376e-06 -0.0015118981845797666 0.00037308939598953755 -0.00019596642780628158 -0.0047859467901563381 0.021656084194779397 0.0044383911183103917 -0.0051629857960506344 -0.0018324327426756585 0.00089288121555000546 0.018903266828939582 0.0067729813861660661 -0.00048136610803861701 -0.00059604802419712278 -0.010453885085450525
leaf_weight=206699 321 8781 909 34 25 27 48 526 20 21 20 122 34 46
leaf_count=206699 321 8781 909 34 25 27 48 526 20 21 20 122 34 46
internal_value=0 0.000172846 0.000223802 0.000327638 0.0057967 0.0127161 0.000277687 -0.00104157 0.00277489 0.00902108 0.0129861 -0.00066427 -0.00277164 -0.0062643
internal_weight=0 10934 10613 9502 86 52 9416 635 109 61 41 1111 202 80
internal_count=217633 10934 10613 9502 86 52 9416 635 109 61 41 1111 202 80
shrinkage=0.15


Tree=797
num_leaves=15
num_cat=0
split_feature=16 23 1 14 3 14 3 36 10 5 25 38 13 22
split_gain=0.017663 0.0689199 0.0764463 0.0684925 0.0774002 0.0943495 0.093033 0.0956024 0.0772326 0.100684 0.0645548 0.0594835 0.153726 0.0599171
threshold=1.6983350000000002e-06 -6.1298999999999984 11.042450000000001 0.0004987975000000001 -6.3575099999999987 0.0012804550000000002 -6.9170499999999988 0.041275950000000006 5.7444100000000008e-05 2.0324650000000005e-05 5.8526700000000007 0.0045479550000000011 1.6523550000000005e-05 -0.75455849999999991
decision_type=2 2 2 2 2 2 2 2 2 2 2 2 2 2
left_child=-1 -2 3 8 6 -6 11 -8 9 -3 -10 -5 -13 -14
right_child=1 2 -4 4 5 -7 7 -9 10 -11 -12 12 13 -15
leaf_value=-2.5437012345118889e-05 0.00010094941852920021 0.0021055745313476237 -0.0057174896033913162 -0.00070499838141836009 -0.011238301462374997 -0.0014295459868950082 0.001085558244599002 0.01332199094002135 0.0013990188641734992 0.013195128100225701 -0.0061056988709606236 -0.013119992093015754 -0.0031765466067251204 0.0057678871670346285
leaf_weight=160694 55215 70 70 1136 36 57 51 20 98 25 35 32 72 22
leaf_count=160694 55215 70 70 1136 36 57 51 20 98 25 35 32 72 22
internal_value=0 7.17887e-05 -0.00086215 -0.000656664 -0.00104263 -0.00522648 -0.000750737 0.00453244 0.00175734 0.00502388 -0.000575907 -0.00104797 -0.00414014 -0.00108317
internal_weight=0 56939 1724 1654 1426 93 1333 71 228 95 133 1262 126 94
internal_count=217633 56939 1724 1654 1426 93 1333 71 228 95 133 1262 126 94
shrinkage=0.15


Tree=798
num_leaves=15
num_cat=0
split_feature=30 10 14 39 23 23 14 19 22 0 13 10 33 34
split_gain=0.0142999 0.0556423 0.0644433 0.152464 0.0956908 0.0949166 0.156267 0.151727 0.126688 0.586201 0.439641 0.563348 0.580249 0.179118
threshold=0.0012252050000000003 2.0392150000000004e-05 0.00016362750000000005 5.1422400000000004e-05 -15.570249999999998 -11.623899999999997 0.00064274150000000012 0.00049070750000000001 2.4316000000000004 -6.821089999999999 2.4836450000000005e-05 5.6045500000000011e-05 -9.4167599999999983e-06 0.42331500000000005
decision_type=2 2 2 2 2 2 2 2 2 2 2 2 2 2
left_child=-1 -2 3 -3 -5 6 -4 -7 -9 10 11 12 -10 -13
right_child=1 2 5 4 -6 7 -8 8 9 -11 -12 13 -14 -15
leaf_value=-2.4391535231975027e-05 0.0003205044099234971 0.011950237669050694 0.00088691588082986949 -0.00044747836694471025 0.00044519908762697221 -0.00092867351015553661 -0.00015469652308541953 -0.00020637866749114697 0.00035823607551200046 -0.00021485427099706423 0.00074728278731995093 0.009105431783223138 0.029392296550953288 -0.008476718418850478
leaf_weight=155183 14293 25 4435 3580 11015 6798 12034 9074 21 959 103 32 59 22
leaf_count=155183 14293 25 4435 3580 11015 6798 12034 9074 21 959 103 32 59 22
internal_value=0 6.06109e-05 -1.65255e-05 0.000246283 0.000226235 -0.000131093 0.000125803 -0.000378974 -1.5112e-05 0.00143602 0.00811614 0.0137803 0.0217709 0.00194233
internal_weight=0 62450 48157 14620 14595 33537 16469 17068 10270 1196 237 134 80 54
internal_count=217633 62450 48157 14620 14595 33537 16469 17068 10270 1196 237 134 80 54
shrinkage=0.15


Tree=799
num_leaves=15
num_cat=0
split_feature=23 3 14 3 14 28 1 12 32 1 27 3 14 7
split_gain=0.0150456 0.134218 0.354629 0.157069 0.145476 0.167507 1.02313 0.766556 0.381824 0.240682 0.269922 0.314155 0.192896 0.156517
threshold=-6.9313999999999991 -7.2233449999999992 0.0015765250000000003 -5.8104799999999992 0.00018273250000000005 0.0022033650000000001 2.3261450000000004 2.3829550000000006e-05 0.032912150000000008 -3.3198799999999999 5.3277850000000013 -7.8229449999999989 0.00044448550000000006 5.2682300000000009e-05
decision_type=2 2 2 2 2 2 2 2 2 2 2 2 2 2
left_child=-1 2 4 -3 -2 7 -7 8 -6 10 13 -12 -8 -10
right_child=1 3 -4 -5 5 6 12 -9 9 -11 11 -13 -14 -15
leaf_value=-1.8034163883921432e-05 0.0024135861418474467 -0.00069706203485638549 -0.00018523533107120659 0.0002890450175670885 0.0010687025106615189 0.0021023975773172216 -0.0055181509114995333 0.0034563108500966326 -0.0072379084393903838 0.0007218341345246826 -0.001811022564996102 0.016094658122277065 -0.0018329899442662036 -0.00060336824566492749
leaf_weight=179998 1420 8317 13339 6455 1577 2027 510 2126 417 321 145 26 856 99
leaf_count=179998 1420 8317 13339 6455 1577 2027 510 2126 417 321 145 26 856 99
internal_value=0 8.62525e-05 0.000313948 -0.000266158 0.00101309 0.000767689 -3.58787e-05 0.00134644 -0.000388791 -0.00266902 -0.00425339 0.000911479 -0.00320886 -0.005965
internal_weight=0 37635 22863 14772 9524 8104 3393 4711 2585 1008 687 171 1366 516
internal_count=217633 37635 22863 14772 9524 8104 3393 4711 2585 1008 687 171 1366 516
shrinkage=0.15


Tree=800
num_leaves=15
num_cat=0
split_feature=14 23 3 14 9 20 20 9 0 20 31 20 30 24
split_gain=0.0161163 0.0895923 0.226831 0.196186 0.147117 0.595474 0.388859 0.29989 0.253069 0.227112 0.181015 0.176806 0.146103 0.121309
threshold=0.0016290400000000002 -6.551404999999999 -6.6541099999999984 0.00018717200000000002 -2.6277899999999998e-05 -7.2112649999999991 2.0727300000000004 1.5765000000000006e-05 5.6987450000000015 4.8265300000000009 0.014690650000000001 9.4321850000000023 0.0011718350000000002 0.070966350000000025
decision_type=2 2 2 2 2 2 2 2 2 2 2 2 2 2
left_child=1 -1 3 4 5 -3 8 11 10 -9 13 -8 -11 -6
right_child=-2 2 -4 -5 6 -7 7 9 -10 12 -12 -13 -14 -15
leaf_value=-7.6007375076022642e-05 4.9712079851350834e-05 -0.0044960626605181735 -0.00030201980924872955 0.00048153984335261318 -0.0082423915657381629 0.0071344954325100974 -0.0012355213939827081 0.0036833865674270778 0.0063293301793266666 -0.0084269007546681676 0.0040231812103754946 0.0082803400716295952 0.00049802697321865708 0.0011716157262287054
leaf_weight=116435 87642 130 6562 5328 67 416 96 60 372 200 135 81 52 57
leaf_count=116435 87642 130 6562 5328 67 416 96 60 372 200 135 81 52 57
internal_value=0 -3.35167e-05 0.000331444 0.00092578 0.0023465 0.00436531 0.00136232 -0.00181264 0.00382279 -0.00461051 0.000222669 0.00311919 -0.00658525 -0.00391498
internal_weight=0 129991 13556 6994 1666 546 1120 489 631 312 259 177 252 124
internal_count=217633 129991 13556 6994 1666 546 1120 489 631 312 259 177 252 124
shrinkage=0.15


Tree=801
num_leaves=15
num_cat=0
split_feature=1 21 21 7 1 23 21 21 23 1 5 20 22 23
split_gain=0.0151409 0.0762609 0.101981 0.120273 0.147384 0.219928 0.373846 0.267072 0.328682 0.49488 0.323023 0.293864 0.285565 0.201731
threshold=-10.060549999999997 9.8416500000000013 -4.5469049999999989 3.1541050000000005e-05 -11.245799999999997 -6.6695199999999994 -11.751949999999999 -9.3854649999999982 -7.2526199999999994 -10.362799999999998 1.4051600000000001e-05 1.8114300000000003 -1.7903349999999998 -8.0775649999999981
decision_type=2 2 2 2 2 2 2 2 2 2 2 2 2 2
left_child=1 2 3 4 -1 7 -7 8 11 10 -10 12 -6 -9
right_child=-2 -3 -4 -5 5 6 -8 13 9 -11 -12 -13 -14 -15
leaf_value=-0.00030753516762055118 -1.222765612500902e-05 -0.00097174414495963324 0.00045585874856187396 0.00012874037566271165 -0.0092264292420521903 -0.02127171343584594 -0.0034380288214818171 -0.0026293486980833577 0.02290881153542635 -0.012139036115258931 0.0030053153168410063 -0.015644956765426023 0.011436292534584508 -0.012370082021225243
leaf_weight=1032 198658 1320 12058 3957 27 38 87 236 43 20 32 31 34 60
leaf_count=1032 198658 1320 12058 3957 27 38 87 236 43 20 32 31 34 60
internal_value=0 0.000128017 0.000210242 -0.000318907 -0.00139899 -0.0032516 -0.00885947 -0.00180028 0.00263741 0.00882598 0.0144167 -0.00375297 0.0022905 -0.00460382
internal_weight=0 18975 17655 5597 1640 608 125 483 187 95 75 92 61 296
internal_count=217633 18975 17655 5597 1640 608 125 483 187 95 75 92 61 296
shrinkage=0.15


Tree=802
num_leaves=15
num_cat=0
split_feature=16 32 26 1 17 17 7 16 23 1 1 16 22 8
split_gain=0.0150073 0.0529666 0.0996035 0.190419 0.164025 0.258786 0.394212 0.161425 0.0777048 0.110007 0.148748 0.087404 0.0702871 0.126763
threshold=1.6983350000000002e-06 -0.10883 0.0085896400000000008 -6.2579299999999991 -1.4772749999999998e-06 -2.4939049999999996e-05 4.1042900000000006e-05 1.1091500000000002e-05 -14.762349999999998 -4.2723299999999993 -2.1902699999999995 4.7861450000000004e-06 0.98742750000000012 -1.1318349999999998e-05
decision_type=2 2 2 2 2 2 2 2 2 2 2 2 2 2
left_child=-1 12 -3 7 5 -5 -7 -4 -6 -10 11 -11 -2 -14
right_child=1 2 3 4 8 6 -8 -9 9 10 -12 -13 13 -15
leaf_value=-2.3446884475905225e-05 -0.00078231733599699231 0.0001655601039364394 -0.019275658573447301 -0.0035381539360557477 -0.0079914723893260934 0.024865863891318441 0.00089589220825521463 -0.004594412273339306 0.0087834149165163661 -0.0041668628745828752 -0.00053023282905347903 -0.017470740345306695 0.0010564001821892477 -0.00030156618251501397
leaf_weight=160694 3472 44332 22 53 47 26 38 72 22 25 199 20 2021 6590
leaf_count=160694 3472 44332 22 53 47 26 38 72 22 25 199 20 2021 6590
internal_value=0 6.61721e-05 0.000141259 -0.00191468 -0.00057775 0.00421397 0.0106337 -0.00803045 -0.0023689 -0.00137544 -0.0022914 -0.0100797 -0.000212575 1.71483e-05
internal_weight=0 56939 44856 524 430 117 64 94 313 266 244 45 12083 8611
internal_count=217633 56939 44856 524 430 117 64 94 313 266 244 45 12083 8611
shrinkage=0.15


Tree=803
num_leaves=15
num_cat=0
split_feature=4 24 4 34 23 14 11 37 13 4 14 23 17 34
split_gain=0.0144353 0.048477 0.112961 0.111444 0.103857 0.145957 0.105879 0.0915659 0.326783 0.345479 0.20322 0.188879 0.164404 0.281014
threshold=-0.30706199999999995 0.092078900000000005 -1.0433649999999999 0.034418900000000009 -17.075499999999995 0.0082895900000000012 -0.00014964099999999997 -1.3912749999999999e-06 3.5094600000000008e-05 -2.1668549999999995 0.0011649500000000003 -14.669299999999998 -3.1052299999999995e-06 1.4538050000000002
decision_type=2 2 2 2 2 2 2 2 2 2 2 2 2 2
left_child=1 7 -3 -4 5 6 -5 8 9 -1 -11 -12 -10 -14
right_child=-2 2 3 4 -6 -7 -8 -9 12 10 11 -13 13 -15
leaf_value=0.00067135756303984514 -2.2061731954631852e-05 1.9893358950746867e-05 0.0015356803671022342 -0.007769672738920365 -2.3382730512856041e-05 -0.0062699561007320877 0.0030777329451368925 1.2173666456604234e-05 -9.6532054032832967e-05 -0.0024430447143631785 -0.0037204704021977729 -0.011409744983635997 0.0096796013459634882 -0.0035000603309267068
leaf_weight=326 164111 17012 2515 21 3695 44 564 27582 1045 263 124 171 104 56
leaf_count=326 164111 17012 2515 21 3695 44 564 27582 1045 263 124 171 104 56
internal_value=0 6.76464e-05 0.000226869 0.000741722 0.000279926 0.00206169 0.00268834 -6.03448e-05 -0.00101784 -0.00320822 -0.00547478 -0.00817764 0.000589045 0.00506672
internal_weight=0 53522 23851 6839 4324 629 585 29671 2089 884 558 295 1205 160
internal_count=217633 53522 23851 6839 4324 629 585 29671 2089 884 558 295 1205 160
shrinkage=0.15


Tree=804
num_leaves=15
num_cat=0
split_feature=30 30 10 9 28 2 14 2 28 36 6 23 38 29
split_gain=0.0164107 0.0447661 0.0908502 0.142106 0.192371 0.44335 0.486977 0.148368 0.236274 0.116444 0.0809954 0.0930775 0.0702801 0.0625753
threshold=0.0021249300000000001 0.0023321250000000004 3.024855e-05 1.0000000180025095e-35 -0.045639949999999992 -0.96344399999999986 0.0028655100000000004 -2.2006199999999994 -0.026587599999999996 0.022400650000000005 3.0629350000000003e-06 -9.2080749999999991 -0.015849049999999996 -0.10850249999999999
decision_type=2 2 2 2 2 2 2 2 2 2 2 2 2 2
left_child=-1 2 3 7 5 6 -5 8 -2 12 -9 -12 -6 -4
right_child=1 -3 13 4 9 -7 -8 10 -10 -11 11 -13 -14 -15
leaf_value=-2.1403459724267357e-05 0.016718076622817473 4.3621383903342284e-05 0.0064705734896051579 0.033768339644974235 0.0083330648457470881 0.0016777680569551496 0.0034456241166811777 -0.0017927771224076467 -0.00080183289882856913 0.01074043552441928 -0.00059339141742149827 0.012531717120327811 0.00067710305015080926 -0.00023686551901330947
leaf_weight=171363 29 43718 32 26 29 81 22 401 43 31 31 20 387 1420
leaf_count=171363 29 43718 32 26 29 81 22 401 43 31 31 20 387 1420
internal_value=0 7.92687e-05 0.000689938 0.00171819 0.00334432 0.00844713 0.0198704 -6.93111e-05 0.0062548 0.0018717 -0.00107669 0.00455371 0.00121081 -8.90432e-05
internal_weight=0 46270 2552 1100 576 129 48 524 72 447 452 51 416 1452
internal_count=217633 46270 2552 1100 576 129 48 524 72 447 452 51 416 1452
shrinkage=0.15


Tree=805
num_leaves=15
num_cat=0
split_feature=3 21 22 2 23 1 22 3 3 14 3 3 28 23
split_gain=0.0156797 0.0596738 0.0589596 0.110548 0.162485 0.395691 0.877757 0.735498 0.47942 0.398832 0.227679 0.21389 0.210267 0.2317
threshold=-6.6828699999999985 -4.1775849999999997 -2.1604749999999995 -0.76969999999999994 -6.789509999999999 -4.141049999999999 -0.78142399999999979 -5.9118649999999997 -5.6195949999999995 0.00042154700000000003 -5.9751649999999996 -6.1920449999999994 -0.0017700999999999999 -6.2458949999999991
decision_type=2 2 2 2 2 2 2 2 2 2 2 2 2 2
left_child=-1 2 -2 -4 10 6 11 9 12 -7 -5 -6 13 -8
right_child=1 -3 3 4 5 7 8 -9 -10 -11 -12 -13 -14 -15
leaf_value=-2.6140312362484325e-05 0.00078967440477469876 -3.2858266404530532e-05 -0.00035355758170584458 0.0019418706620242838 -0.012643776859955064 -0.0084813258724396774 0.033935385925525967 0.00063198229376860255 -0.0020689894534630833 0.00086118801931143628 0.00019359147443220146 0.00041237349022382768 0.0098231623182073232 0.014062216659923167
leaf_weight=153098 4063 45047 6034 2526 35 412 33 1044 28 137 4981 146 27 22
leaf_count=153098 4063 45047 6034 2526 35 412 33 1044 28 137 4981 146 27 22
internal_value=0 6.20133e-05 0.000281311 0.000147407 0.000469291 -0.000776183 0.00430998 -0.00170529 0.0148775 -0.00614995 0.000781863 -0.0021123 0.0206642 0.0259861
internal_weight=0 64535 19488 15425 9391 1884 291 1593 110 549 7507 181 82 55
internal_count=217633 64535 19488 15425 9391 1884 291 1593 110 549 7507 181 82 55
shrinkage=0.15


Tree=806
num_leaves=15
num_cat=0
split_feature=3 14 23 12 28 8 32 20 35 23 33 8 13 21
split_gain=0.0154205 0.0589924 0.109308 0.182179 0.28153 0.198656 0.625208 0.57632 0.348841 0.326634 0.445787 0.870713 0.423587 0.267155
threshold=-15.512049999999999 0.035036700000000011 -13.606149999999998 0.00063768300000000011 0.011213250000000003 1.1559150000000001e-05 0.074384800000000015 4.7716350000000007 0.017883000000000003 -18.039999999999996 -1.6474599999999996e-05 1.5174050000000003e-05 2.2802050000000003e-05 -0.25576949999999993
decision_type=2 2 2 2 2 2 2 2 2 2 2 2 2 2
left_child=1 2 3 5 -5 13 -7 8 9 -8 12 -12 -11 -1
right_child=-2 -3 -4 4 -6 6 7 -9 -10 10 11 -13 -14 -15
leaf_value=-0.0027315326002738628 -1.1379394891369439e-05 -0.00028837475063399039 0.00061103456394848025 0.0012020226266673383 0.020098782304557972 -0.0040763940161565532 0.0022827564355205085 -0.01556846446685747 -0.0047645403658069909 -0.0074060323842180262 0.010278881640431094 0.042067221962762143 0.020295378290440726 0.00035934875731579368
leaf_weight=1231 201284 5013 8304 68 24 188 51 22 31 27 47 33 23 1287
leaf_count=1231 201284 5013 8304 68 24 188 51 22 31 27 47 33 23 1287
internal_value=0 0.0001401 0.000329579 -0.000441266 0.00613161 -0.000646948 0.00236495 0.00754004 0.0099381 0.0124562 0.0164474 0.0233916 0.00533662 -0.00115172
internal_weight=0 16349 11336 3032 92 2940 422 234 212 181 130 80 50 2518
internal_count=217633 16349 11336 3032 92 2940 422 234 212 181 130 80 50 2518
shrinkage=0.15


Tree=807
num_leaves=15
num_cat=0
split_feature=23 3 20 0 3 14 23 21 10 2 9 5 0 23
split_gain=0.0154109 0.137534 0.17785 0.56658 1.22533 0.616591 0.567351 0.284581 0.284287 0.281834 0.281093 0.264775 0.267352 0.24467
threshold=-15.140049999999997 -11.892349999999999 4.6422100000000013 3.3209650000000006 -14.701899999999998 0.0035426600000000004 -17.487949999999994 -0.25576949999999993 2.7339550000000005e-05 -0.17404899999999998 3.7995500000000006e-05 2.289975e-05 5.1663950000000005 -17.896049999999999
decision_type=2 2 2 2 2 2 2 2 2 2 2 2 2 2
left_child=1 2 10 -4 5 6 -5 9 -6 -7 -1 12 13 -12
right_child=-2 -3 3 4 8 7 -8 -9 -10 -11 11 -13 -14 -15
leaf_value=-0.00038878210552881388 -1.659567874201264e-05 0.00027407938131934577 -0.0010094360754588263 0.010159203696995973 0.0059567206953383559 0.011977222189307213 0.039254696641460453 0.017614409343805162 -0.007892034504461222 -0.011010557200643234 -0.0032303266423342985 -0.00026614813630823679 -0.00061385142221887553 -0.012626586047397583
leaf_weight=6297 185557 24141 642 25 52 24 38 40 93 24 103 308 131 158
leaf_count=6297 185557 24141 642 25 52 24 38 40 93 24 103 308 131 158
internal_value=0 9.60046e-05 -0.00044576 0.00149378 0.00692306 0.0163804 0.0277089 0.00827019 -0.00292558 0.000483332 -0.00070577 -0.0035573 -0.00614321 -0.00891848
internal_weight=0 32076 7935 938 296 151 63 88 145 48 6997 700 392 261
internal_count=217633 32076 7935 938 296 151 63 88 145 48 6997 700 392 261
shrinkage=0.15


Tree=808
num_leaves=15
num_cat=0
split_feature=26 39 0 0 19 6 3 12 12 36 9 15 26 29
split_gain=0.014494 0.0468439 0.329287 0.236864 0.0592381 0.0930377 0.056415 0.0714214 0.100169 0.184904 0.0864681 0.153801 0.178924 0.0674351
threshold=-0.0036721749999999993 0.0013720050000000001 10.600650000000002 6.6519700000000013 2.2808450000000001e-07 -2.8539149999999997e-06 -7.6814349999999996 -7.9406999999999994e-05 -6.8141299999999991e-05 -0.083741049999999984 -6.2616149999999982e-05 -2.0636699999999994e-06 -0.013856449999999998 1.0188050000000002
decision_type=2 2 2 2 2 2 2 2 2 2 2 2 2 2
left_child=1 2 3 4 5 -1 7 -3 9 -9 11 12 -10 -12
right_child=-2 6 -4 -5 -6 -7 -8 8 10 -11 13 -13 -14 -15
leaf_value=0.00055761788076219641 -6.5995352044732435e-06 -0.00036479038464809233 0.017860872124179472 -0.013421987855108454 0.00074688693389502651 0.013811505741482091 -0.00040733461464821321 0.018863399218535051 0.0026872211056549774 0.0015293610856557884 0.0010246070892744805 -0.00074005857032864513 0.022290285446215419 -0.0015561118497762884
leaf_weight=26 211486 1249 27 25 194 22 2488 20 22 45 1703 43 20 263
leaf_count=26 211486 1249 27 25 194 22 2488 20 22 45 1703 43 20 263
internal_value=0 0.000227055 0.00207463 0.000478268 0.00191424 0.00663232 0.00013425 0.000534685 0.00106561 0.00686291 0.000881887 0.00556591 0.012022 0.000679374
internal_weight=0 6147 294 267 242 48 5853 3365 2116 65 2051 85 42 1966
internal_count=217633 6147 294 267 242 48 5853 3365 2116 65 2051 85 42 1966
shrinkage=0.15


Tree=809
num_leaves=15
num_cat=0
split_feature=3 14 33 39 36 35 8 21 23 33 33 22 22 23
split_gain=0.0135828 0.0774822 0.131467 0.288693 0.236741 0.194064 0.0856196 0.17577 0.24985 0.141109 0.0907571 0.140986 0.161283 0.155381
threshold=-16.559399999999997 0.0056714500000000006 3.5008800000000009e-05 0.00011945150000000001 -0.00058406199999999988 0.21961350000000004 7.9805950000000008e-06 -3.3402249999999998 -16.296649999999996 1.257705e-05 1.1541700000000002e-05 -0.28136549999999994 -0.52681499999999992 -13.825799999999999
decision_type=2 2 2 2 2 2 2 2 2 2 2 2 2 2
left_child=1 2 5 4 -4 6 10 9 -9 -8 -1 12 -12 -13
right_child=-2 -3 3 -5 -6 -7 7 8 -10 -11 11 13 -14 -15
leaf_value=0.0011260255261961796 -7.9896680265688637e-06 -7.632734631984291e-05 -0.00086900530467656518 0.00014079065752306379 -0.021662249786147315 0.012707845675124023 -0.0032669385613285397 -0.014194038372287259 0.0029849899755918599 -0.016598749181933024 0.0035246362294304033 0.014985479455737565 -0.010418238613056019 0.0037293465023017112
leaf_weight=1560 208170 7036 22 215 28 33 95 21 205 22 84 44 24 74
leaf_count=1560 208170 7036 22 215 28 33 95 21 205 22 84 44 24 74
internal_value=0 0.000175759 0.000906571 -0.00224676 -0.0125132 0.00129308 0.00111615 -0.00105447 0.00138871 -0.00577377 0.00153301 0.00434232 0.00042622 0.00792655
internal_weight=0 9463 2427 265 50 2162 2129 343 226 117 1786 226 108 118
internal_count=217633 9463 2427 265 50 2162 2129 343 226 117 1786 226 108 118
shrinkage=0.15


Tree=810
num_leaves=15
num_cat=0
split_feature=33 12 19 22 13 7 13 13 8 8 9 5 21 5
split_gain=0.0131095 0.0854937 0.113529 0.0749993 0.216809 0.175835 0.072793 0.0707807 0.269232 0.12187 0.0867052 0.0761897 0.359784 0.124226
threshold=4.0148700000000011e-05 5.7997300000000008e-05 5.3757900000000004e-06 2.6381550000000007 -7.5815149999999975e-05 2.6697900000000004e-05 1.9207900000000006e-05 -8.095504999999999e-05 -8.4826099999999981e-06 -1.1318349999999998e-05 -3.678309999999999e-05 8.7325500000000016e-06 3.4860600000000006 9.0055000000000021e-06
decision_type=2 2 2 2 2 2 2 2 2 2 2 2 2 2
left_child=-1 6 -3 7 -5 -6 -2 8 9 10 -4 12 -9 -13
right_child=1 2 3 4 5 -7 -8 11 -10 -11 -12 13 -14 -15
leaf_value=-1.1696835593779107e-05 -0.00034635591552228902 0.0018146793584474506 0.00076215584356838868 -0.016424756696713821 -0.013353842379001434 -0.00017372672480188349 0.00037580078422708407 -0.0013148675212869422 0.018860336051743202 -0.0089215608313679695 0.009110219076879927 -0.0080179713791372568 0.015933711533076489 0.00028082819762996405
leaf_weight=197678 8924 1317 115 21 24 446 4846 90 22 23 37 41 39 4010
leaf_count=197678 8924 1317 115 21 24 446 4846 90 22 23 37 41 39 4010
internal_value=0 0.000115871 0.000579136 0.000244869 -0.00151302 -0.000846754 -9.22113e-05 0.000442065 0.0032206 0.00125446 0.00279425 0.000311115 0.00389982 0.000196836
internal_weight=0 19955 6185 4868 491 470 13770 4377 197 175 152 4180 129 4051
internal_count=217633 19955 6185 4868 491 470 13770 4377 197 175 152 4180 129 4051
shrinkage=0.15


Tree=811
num_leaves=15
num_cat=0
split_feature=1 21 39 14 26 23 15 21 5 3 5 21 1 20
split_gain=0.0148015 0.0620757 0.181086 0.205952 0.34438 0.315982 0.168906 0.0736348 0.11138 0.103429 0.087704 0.084171 0.0686764 0.0719653
threshold=-10.060549999999997 -13.890549999999999 0.0075815050000000014 0.00011358100000000001 1.0000000180025095e-35 -6.5922849999999995 -7.8360099999999987e-08 -4.5469049999999989 2.9709300000000004e-05 -7.5458749999999988 1.6106700000000003e-05 -7.2793899999999994 -12.647449999999997 7.0057400000000003
decision_type=2 2 2 2 2 2 2 2 2 2 2 2 2 2
left_child=1 2 3 4 -1 -5 -4 8 9 11 -9 -3 -11 -14
right_child=-2 7 6 5 -6 -7 -8 10 -10 12 -12 -13 13 -15
leaf_value=0.023596101596717742 -1.2089803049812126e-05 -0.013998407121107446 0.010003217810299248 0.01107731071751914 -0.00078316737728362728 -0.01074215808122452 -0.0029773415790711032 0.00077929952316321772 0.00072380122737183787 0.00024140392900068205 -1.4941345392162528e-05 -0.0015620015370659528 -0.00086914686935233351 -0.0033979090972972928
leaf_weight=32 198658 24 27 32 22 28 137 4988 1486 1164 8390 25 2336 284
leaf_count=32 198658 24 27 32 22 28 137 4988 1486 1164 8390 25 2336 284
internal_value=0 0.000126574 0.00235155 0.00694333 0.0136638 0.000894892 -0.000840298 9.34912e-05 -0.000378602 -0.000805988 0.000281192 -0.0076533 -0.00071732 -0.00114326
internal_weight=0 18975 278 114 54 60 164 18697 5319 3833 13378 49 3784 2620
internal_count=217633 18975 278 114 54 60 164 18697 5319 3833 13378 49 3784 2620
shrinkage=0.15


Tree=812
num_leaves=15
num_cat=0
split_feature=26 4 34 18 3 0 35 22 32 8 29 24 4 21
split_gain=0.012479 0.0947362 0.290527 0.552772 1.32685 0.876977 3.14328 1.9318 1.66993 1.24813 0.745978 0.605634 0.682882 0.747722
threshold=7.115370000000001e-05 -0.075053899999999993 0.14278350000000004 -1.7267249999999996e-05 -6.8364449999999986 6.4667950000000003 -0.00049797749999999988 0.82008800000000004 0.081379300000000016 6.4159000000000007e-06 -0.019334399999999998 -0.14922949999999999 -0.094637399999999997 6.4118950000000003
decision_type=2 2 2 2 2 2 2 2 2 2 2 2 2 2
left_child=-1 2 3 -2 5 10 7 8 -7 -10 -5 12 13 -12
right_child=1 -3 -4 4 -6 6 -8 -9 9 -11 11 -13 -14 -15
leaf_value=-2.5634330059530226e-05 -3.3245349347647196e-05 -9.2866493475776791e-05 -0.00027584995595467186 -0.0047035531630428111 -0.00089699856935361577 0.02468166594648627 -0.0022919852383471682 -0.013170779860758392 -0.017784453678035699 0.022876696070206575 0.0041989194642846834 5.2346142878434422e-05 -0.0016579794205946589 0.012140669873029308
leaf_weight=144191 10335 43037 13214 309 2685 314 369 44 41 29 1374 1024 336 331
leaf_count=144191 10335 43037 13214 309 2685 314 369 44 41 29 1374 1024 336 331
internal_value=0 5.03287e-05 0.000253015 0.000659532 0.00170385 0.0033781 0.00785326 0.0166 0.0200112 -0.00093912 0.00232098 0.00302917 0.00452268 0.00574069
internal_weight=0 73442 30405 17191 6856 4171 797 428 384 70 3374 3065 2041 1705
internal_count=217633 73442 30405 17191 6856 4171 797 428 384 70 3374 3065 2041 1705
shrinkage=0.15


Tree=813
num_leaves=15
num_cat=0
split_feature=3 23 14 23 22 2 9 22 2 2 20 0 22 2
split_gain=0.0168282 0.0715156 0.161325 0.472605 0.180703 1.49881 1.59282 3.46817 1.91066 1.35957 1.25296 1.50696 1.16484 1.06297
threshold=-6.9170499999999988 -7.1436399999999987 0.0016290400000000002 -15.060899999999998 -1.7647699999999997 -1.7602299999999997 -2.1801549999999998e-05 -2.2095749999999996 -2.2006199999999994 -2.1781349999999997 -4.3202599999999993 -4.0539249999999987 -2.4761599999999997 -1.4338699999999998
decision_type=2 2 2 2 2 2 2 2 2 2 2 2 2 2
left_child=1 2 3 -1 5 6 10 8 12 -9 -5 -12 -8 -7
right_child=-2 -3 -4 4 -6 13 7 9 -10 -11 11 -13 -14 -15
leaf_value=0.00068574365880014621 5.9675926688009993e-05 0.00017732312670019028 7.7507552277735996e-05 0.0018726651640997678 -0.00032665006784921279 -0.0097510714347466814 0.00023842780361080476 -0.0083875325258548662 -0.0086489740060343347 0.020465876484562062 -0.0090236805778962058 0.017342502868268637 0.03148033004812896 -0.0018328790255514235
leaf_weight=9398 71427 29999 63878 1475 33617 407 58 41 292 354 504 54 50 6079
leaf_count=9398 71427 29999 63878 1475 33617 407 58 41 292 354 504 54 50 6079
internal_value=0 -2.91539e-05 -8.24562e-05 -0.000277724 -0.000488636 -0.00107329 0.00180839 0.0075011 -0.00234414 0.017471 -0.000417737 -0.00647211 0.0147023 -0.00232975
internal_weight=0 146206 116207 52329 42931 9314 2828 795 400 395 2033 558 108 6486
internal_count=217633 146206 116207 52329 42931 9314 2828 795 400 395 2033 558 108 6486
shrinkage=0.15


Tree=814
num_leaves=15
num_cat=0
split_feature=6 33 13 22 22 22 2 0 29 2 22 11 5 22
split_gain=0.0169346 0.200954 0.123593 0.144097 0.30725 0.468981 0.435688 0.886548 1.45951 0.756963 0.80957 1.00487 0.511753 0.478523
threshold=-1.3655449999999999e-06 1.4933200000000001e-06 4.2943850000000006e-06 1.3299150000000002 0.22705150000000004 -1.8388199999999999 -1.8685299999999996 -5.3092249999999988 1.0000000180025095e-35 0.23346150000000002 -0.076877299999999996 1.1927250000000002e-05 2.1933250000000002e-05 -1.7377699999999998
decision_type=2 2 2 2 2 2 2 2 2 2 2 2 2 2
left_child=1 2 -1 4 5 -4 7 -7 -9 13 -11 -12 -13 -8
right_child=-2 -3 3 -5 -6 6 9 8 -10 10 11 12 -14 -15
leaf_value=0.0005108933789855954 3.0438774137160231e-05 0.00022538843300851091 -8.3572388925398837e-05 -0.0010777523557880611 0.00034234267839269438 -0.0016855793163014882 0.0080565434561702814 -0.0026220612624358376 -0.0189274472026487 -0.00019862403334909326 -0.00069382548146114777 -0.012066006150455276 -0.0024426836531620732 0.00084440400475446406
leaf_weight=4126 142318 32280 13786 5321 12751 1831 249 334 196 2009 590 442 173 1227
leaf_count=4126 142318 32280 13786 5321 12751 1831 249 334 196 2009 590 442 173 1227
internal_value=0 -5.75182e-05 -0.000269723 -0.000352501 -0.000237607 -0.000592502 -0.00158755 -0.0032494 -0.00865198 -0.000750957 -0.00204236 -0.00511628 -0.00935896 0.00206109
internal_weight=0 75315 43035 38909 33588 20837 7051 2361 530 4690 3214 1205 615 1476
internal_count=217633 75315 43035 38909 33588 20837 7051 2361 530 4690 3214 1205 615 1476
shrinkage=0.15


Tree=815
num_leaves=15
num_cat=0
split_feature=30 6 33 37 4 23 4 26 19 9 0 18 29 26
split_gain=0.0139896 0.0468552 0.0829398 0.0838743 0.0731462 0.391933 0.651277 0.415613 0.49929 0.30157 0.188182 0.227527 0.335932 0.184398
threshold=0.0011456650000000004 2.4161150000000002e-06 7.0810000000000013e-06 1.7610800000000003e-07 -0.21023149999999999 -7.8072199999999992 -1.2236799999999997 0.00020752000000000002 0.00031313300000000005 3.5895200000000002e-05 4.646065000000001 -3.2435349999999988e-05 -0.026386799999999998 7.0450000000000018e-05
decision_type=2 2 2 2 2 2 2 2 2 2 2 2 2 2
left_child=-1 -2 -3 -4 5 10 -7 8 -8 -9 13 -12 -13 -5
right_child=1 2 3 4 -6 6 7 9 -10 -11 11 12 -14 -15
leaf_value=-2.4818897765553615e-05 -1.5012832994000403e-05 0.00059406664991286428 -0.00064126092231735134 0.008332682367530651 1.4653298114350829e-05 0.00018280400477537609 0.021689779454827657 0.015448865442792132 -0.011827415576262866 0.038118145485287129 -0.00037556880507410569 -0.021485590607934524 -0.001633869988356971 0.00028334361751859271
leaf_weight=152629 48832 8708 3372 75 3118 132 20 31 20 23 157 34 44 438
leaf_count=152629 48832 8708 3372 75 3118 132 20 31 20 23 157 34 44 438
internal_value=0 5.82746e-05 0.000279569 -8.73449e-05 0.000369108 0.0015038 0.00697792 0.01652 0.00493118 0.0251043 -0.000150146 -0.00366538 -0.0102872 0.00146015
internal_weight=0 65004 16172 7464 4092 974 226 94 40 54 748 235 78 513
internal_count=217633 65004 16172 7464 4092 974 226 94 40 54 748 235 78 513
shrinkage=0.15


Tree=816
num_leaves=15
num_cat=0
split_feature=22 10 2 22 2 19 14 23 23 8 29 17 21 19
split_gain=0.0149405 0.104643 0.14398 0.327481 0.652067 0.577952 0.55404 1.02609 0.924964 0.42421 0.338727 0.437228 0.390075 0.266588
threshold=-2.4761599999999997 2.0057950000000003e-05 -2.4541449999999996 -2.7774649999999994 -2.7724249999999997 2.4794150000000001e-06 0.00028247300000000004 -9.5800499999999982 -8.2043399999999984 1.2791600000000003e-05 0.016337600000000004 2.9103950000000003e-07 -6.579159999999999 8.8794400000000016e-08
decision_type=2 2 2 2 2 2 2 2 2 2 2 2 2 2
left_child=1 -1 3 -3 -5 6 7 -6 9 -8 11 12 -9 -12
right_child=-2 2 -4 4 5 -7 8 10 -10 -11 13 -13 -14 -15
leaf_value=0.00073941832540324963 -1.3383894167814401e-05 -0.00051037287131286055 -0.00024088687106971953 -0.0014226043825973258 -0.0069259207540522706 -0.0009619144236855965 0.015904619634677548 0.034998802242002316 -0.0082481200682113093 0.036879976292570622 -0.0076776070473086383 -0.0057680921236169524 0.013124921114820231 0.01262115871286369
leaf_weight=4771 195017 1634 14899 525 118 228 131 21 33 26 37 24 145 24
leaf_count=4771 195017 1634 14899 525 118 228 131 21 33 26 37 24 145 24
internal_value=0 0.000115409 -5.14249e-05 0.000906753 0.00267168 0.00540294 0.00799898 0.00461038 0.01458 0.0193782 0.0100338 0.0131561 0.0158921 0.000308793
internal_weight=0 22616 17845 2946 1312 787 559 369 190 157 251 190 166 61
internal_count=217633 22616 17845 2946 1312 787 559 369 190 157 251 190 166 61
shrinkage=0.15


Tree=817
num_leaves=15
num_cat=0
split_feature=22 1 7 23 14 12 12 20 19 0 32 19 3 19
split_gain=0.0160319 0.0432227 0.040187 0.0359507 0.0393372 0.0391951 0.0451515 0.0423673 0.126733 0.177848 0.0382653 0.109064 0.145866 0.0754577
threshold=-2.8863399999999997 -4.5348499999999996 4.398050000000001e-05 -6.3408649999999991 0.0021510100000000005 2.0701100000000001e-05 2.1843750000000002e-05 -3.7927449999999996 7.2837050000000025e-05 -4.2354849999999997 0.016745500000000003 3.3815650000000004e-09 -8.4006749999999979 3.0008350000000006e-09
decision_type=2 2 2 2 2 2 2 2 2 2 2 2 2 2
left_child=1 2 -1 5 -5 7 -7 10 9 -9 13 12 -12 -3
right_child=-2 3 -4 4 -6 6 -8 8 -10 -11 11 -13 -14 -15
leaf_value=0.001228044491238465 -8.3220402508767259e-06 0.0037032043274918508 6.0387300538793121e-05 0.005040995265590026 -0.00049413255580405414 0.0053015706016629758 0.0001706860933507093 0.014049051787172044 -0.0015873709535784051 -0.0034118120729025188 -0.015282102727234875 -0.00099625494629641928 -0.001234866608249901 -0.00054072961052173917
leaf_weight=1469 208904 104 1209 65 52 39 3667 35 90 21 29 903 39 1007
leaf_count=1469 208904 104 1209 65 52 39 3667 35 90 21 29 903 39 1007
internal_value=0 0.000199165 0.000700898 -2.28885e-05 0.00258094 -7.42278e-05 0.000224681 -0.000571425 0.00189867 0.00750123 -0.00074464 -0.0014325 -0.0072256 -0.000143458
internal_weight=0 8729 2678 6051 117 5934 3706 2228 146 56 2082 971 68 1111
internal_count=217633 8729 2678 6051 117 5934 3706 2228 146 56 2082 971 68 1111
shrinkage=0.15


Tree=818
num_leaves=15
num_cat=0
split_feature=2 21 22 22 5 20 12 36 3 22 31 14 19 23
split_gain=0.0151152 0.0433445 0.174631 0.0530363 0.0595544 0.0562431 0.0585356 0.056389 0.054038 0.0520034 0.0401397 0.130252 0.124296 0.134495
threshold=-2.8223399999999992 -3.5985549999999997 2.9399650000000004 -2.8863399999999997 1.2571450000000001e-05 -9.9085449999999984 -2.9766249999999996e-05 0.0046927250000000009 -6.2498799999999992 2.9819500000000003 0.44113750000000007 0.00028996100000000009 5.8236700000000004e-05 -11.906049999999999
decision_type=2 2 2 2 2 2 2 2 2 2 2 2 2 2
left_child=1 2 3 4 -1 6 -5 8 -8 -3 -7 -12 13 -13
right_child=-2 9 -4 5 -6 10 7 -9 -10 -11 11 12 -14 -15
leaf_value=0.01177044891519472 -8.4492634964643971e-06 4.4803897194256366e-05 0.014282919406624775 0.0012727873608382651 0.00019472798245260493 0.00076326653901805683 -0.012664341944037006 0.0013607191317714748 -0.0029862261107191442 -0.0023068363900040833 0.0039874359512454714 -0.0037464810499491601 0.00073203051288146521 -0.018208983281384344
leaf_weight=20 208125 6244 21 50 20 2684 27 20 25 219 62 39 54 23
leaf_count=20 208125 6244 21 50 20 2684 27 20 25 219 62 39 54 23
internal_value=0 0.00018495 0.000651542 0.000556879 0.00598259 0.000484149 -0.00266999 -0.00540803 -0.0080114 -3.48819e-05 0.000618602 -0.00156275 -0.00452922 -0.0091116
internal_weight=0 9508 3045 3024 40 2984 122 72 52 6463 2862 178 116 62
internal_count=217633 9508 3045 3024 40 2984 122 72 52 6463 2862 178 116 62
shrinkage=0.15


Tree=819
num_leaves=15
num_cat=0
split_feature=0 28 21 12 12 24 20 23 20 8 20 20 22 23
split_gain=0.0139988 0.0389227 0.0535695 0.0386675 0.0342647 0.039371 0.0482243 0.0475567 0.0591576 0.0542861 0.0324994 0.0300313 0.0346904 0.0592952
threshold=11.559500000000002 0.0019208600000000001 -4.5469049999999989 3.2730600000000001e-05 1.6112050000000004e-05 0.12720450000000003 12.570150000000002 -6.2458949999999991 11.473100000000002 5.3795750000000009e-06 12.570150000000002 15.858650000000003 -1.0853349999999997 -6.5922849999999995
decision_type=2 2 2 2 2 2 2 2 2 2 2 2 2 2
left_child=-1 2 11 -4 5 7 -7 8 -3 -9 -6 12 -2 -14
right_child=1 4 3 -5 10 6 -8 9 -10 -11 -12 -13 13 -15
leaf_value=-8.7497376602020276e-06 0.00062685826984270926 0.0011690810111762684 -0.0007331544257582073 0.00071036857549466425 -0.00020624359330716972 0.00027809322602417023 -0.005368519288022071 0.0091013399321733836 -0.0048115374480594735 0.0012061295291777093 0.0042364436051636738 0.0057693856849294648 6.3050466435778891e-05 -0.0034064767648094097
leaf_weight=206699 2249 1798 2697 494 1479 1229 35 36 38 43 38 23 641 134
leaf_count=206699 2249 1798 2697 494 1479 1229 35 36 38 43 38 23 641 134
internal_value=0 0.000165407 -8.01455e-05 -0.000509682 0.000491591 0.000771488 0.000121739 0.00120036 0.0010453 0.00480395 -9.49568e-05 0.000369691 0.000328622 -0.000536842
internal_weight=0 10934 6238 3191 4696 3179 1264 1915 1836 79 1517 3047 3024 775
internal_count=217633 10934 6238 3191 4696 3179 1264 1915 1836 79 1517 3047 3024 775
shrinkage=0.15


Tree=820
num_leaves=15
num_cat=0
split_feature=22 2 5 2 28 17 23 19 14 3 20 21 1 9
split_gain=0.0137145 0.349827 0.276982 0.228438 0.169977 0.611474 0.477452 0.231614 0.134638 0.275791 0.181566 0.105623 0.0572094 0.0576069
threshold=3.0254700000000003 3.0126750000000002 1.9410550000000003e-05 2.5964800000000001 0.00057104700000000009 9.4771100000000014e-07 -11.124149999999998 0.0006432495000000001 0.0005728895000000001 -6.2187599999999987 -6.5310749999999986 1.3748850000000001 4.4581600000000003 -2.8151049999999995e-05
decision_type=2 2 2 2 2 2 2 2 2 2 2 2 2 2
left_child=-1 3 4 12 7 6 -6 -3 9 10 -5 -10 13 -2
right_child=1 2 -4 8 5 -7 -8 -9 11 -11 -12 -13 -14 -15
leaf_value=-5.1955985492203171e-06 -0.0014265218030705127 0.01068602129817009 -0.0082646376149072727 -0.021347007055521464 -0.012484478030819446 0.034992387839694224 0.017641428062804686 -0.009168195517268031 -0.0035047128620863078 -0.00028606802190552118 -0.005917333721845352 0.0058758773229390104 0.0011598993630775223 0.00029334858697966059
leaf_weight=213567 571 39 22 37 20 23 29 20 100 60 32 37 1192 1884
leaf_count=213567 571 39 22 37 20 23 29 20 100 60 32 37 1192 1884
internal_value=0 0.000272899 0.00730919 -2.2226e-06 0.00992464 0.0148158 0.00534514 0.00395578 -0.00424595 -0.00772371 -0.0141912 -0.000971269 0.0003073 -0.00010667
internal_weight=0 4066 153 3913 131 72 49 59 266 129 69 137 3647 2455
internal_count=217633 4066 153 3913 131 72 49 59 266 129 69 137 3647 2455
shrinkage=0.15


Tree=821
num_leaves=15
num_cat=0
split_feature=1 21 3 14 35 23 26 7 29 23 3 3 21 3
split_gain=0.0131199 0.0575475 0.136899 0.113475 0.122185 0.0894602 0.0738511 0.0590256 0.0489799 0.0796853 0.434119 0.187426 0.0464692 0.157748
threshold=-9.7969349999999995 10.005650000000001 -5.9424999999999999 0.00048450950000000005 0.00056077100000000016 -7.5399549999999991 -6.265274999999998e-05 2.9585200000000003e-05 -0.0016011999999999999 -6.4887299999999994 -6.3853549999999988 -6.4132949999999989 -3.5985549999999997 -6.1381299999999994
decision_type=2 2 2 2 2 2 2 2 2 2 2 2 2 2
left_child=1 12 3 4 5 -3 7 -7 -8 11 -11 -10 -1 -14
right_child=-2 2 -4 -5 -6 6 8 -9 9 10 -12 -13 13 -15
leaf_value=-0.0001223061782596182 -1.1945522460696929e-05 -0.00048699766733578497 0.00049678041363763071 5.0136603114211373e-05 0.0012033133721902948 0.0044644924261956469 -0.0031305875819684433 -0.0059232967905700207 -0.012616669409908354 0.00021466450718715072 -0.026266825525090097 0.0012423934774951225 0.0010465817243015337 -6.5553903110278049e-05
leaf_weight=7175 196917 62 777 237 76 20 33 32 52 26 30 38 4642 7516
leaf_count=7175 196917 62 777 237 76 20 33 32 52 26 30 38 4642 7516
internal_value=0 0.000113549 -0.00082119 -0.00251106 -0.00415606 -0.00554621 -0.00690409 -0.00192799 -0.00834966 -0.00952931 -0.0139718 -0.00676507 0.000180416 0.000359066
internal_weight=0 20716 1383 606 369 293 231 52 179 146 56 90 19333 12158
internal_count=217633 20716 1383 606 369 293 231 52 179 146 56 90 19333 12158
shrinkage=0.15


Tree=822
num_leaves=15
num_cat=0
split_feature=6 22 22 2 12 22 19 3 3 34 32 12 19 1
split_gain=0.0127161 0.134821 0.166887 0.750463 1.01048 0.86986 0.758905 1.05843 0.735116 0.344526 0.32772 0.309328 0.247112 0.318684
threshold=-1.3655449999999999e-06 0.22705150000000004 -0.076877299999999996 0.23346150000000002 8.5742250000000018e-06 0.088018150000000003 4.6329000000000001e-06 -6.3853549999999988 -7.4072199999999988 0.54444350000000019 -0.0069621349999999986 2.9825400000000004e-05 1.7928950000000002e-08 4.7255300000000009
decision_type=2 2 2 2 2 2 2 2 2 2 2 2 2 2
left_child=1 2 -1 4 -4 -6 7 9 -7 10 12 -12 -5 -14
right_child=-2 -3 3 6 5 8 -8 -9 -10 -11 11 -13 13 -15
leaf_value=-0.00014374285626531175 2.6376445351296446e-05 0.00016398674702928327 -0.0001340105640643252 -0.0099614684700837213 -0.0045779380287901241 0.033108528289627633 0.00036064474126735444 -0.00040787325402167425 0.005556614458328113 -0.0021086905453616524 -0.021688177263422401 -0.0057820313521191645 -0.027629675837144114 -0.013604551107420709
leaf_weight=36563 142318 35273 1723 95 41 53 655 406 37 93 32 196 65 83
leaf_count=36563 142318 35273 1723 95 41 53 655 406 37 93 32 196 65 83
internal_value=0 -4.98419e-05 -0.000238204 -0.00123095 0.000831581 0.0135317 -0.00358414 -0.00624789 0.0217816 -0.0104519 -0.0120992 -0.00801447 -0.0159319 -0.0197642
internal_weight=0 75315 40042 3479 1854 131 1625 970 90 564 471 228 243 148
internal_count=217633 75315 40042 3479 1854 131 1625 970 90 564 471 228 243 148
shrinkage=0.15


Tree=823
num_leaves=15
num_cat=0
split_feature=21 1 21 3 3 23 19 34 4 36 23 3 3 11
split_gain=0.0161785 0.219779 0.654319 0.563194 0.501583 0.476415 0.473441 0.454783 0.408003 0.743988 0.390985 1.07878 1.05089 0.667014
threshold=3.1386350000000003 10.151550000000002 10.535600000000001 -6.1122599999999991 -5.8104799999999992 -7.780594999999999 0.00013914700000000003 0.039788000000000011 -0.14766849999999998 -0.0013837649999999997 -6.4487099999999993 -6.3575099999999987 -6.3575099999999987 -6.1634349999999992e-06
decision_type=2 2 2 2 2 2 2 2 2 2 2 2 2 2
left_child=-1 -2 3 6 5 -4 7 -3 9 -7 11 -10 -12 -14
right_child=1 2 4 -5 -6 8 -8 -9 10 -11 12 -13 13 -15
leaf_value=3.0599564145177109e-05 2.192689033900364e-05 -0.0078233504861842957 -0.0047198393953775215 -0.00045019085451678898 -0.0013490320562301484 0.017664090679450468 -0.00010838010457426329 -0.0023123504926477953 0.016340024935334246 -0.0086269280937843144 -0.012242795685881941 -0.0045354771961247523 -0.014845237906722883 0.013906388250509721
leaf_weight=139526 71484 709 106 3376 545 33 589 642 235 91 69 73 21 134
leaf_count=139526 71484 709 106 3376 545 33 589 642 235 91 69 73 21 134
internal_value=0 -5.46614e-05 -0.000881301 -0.00162057 0.00212556 0.00461067 -0.00365728 -0.0052045 0.00611834 -0.00163012 0.00792438 0.0113923 0.00315604 0.010011
internal_weight=0 78107 6623 5316 1307 762 1940 1351 656 124 532 308 224 155
internal_count=217633 78107 6623 5316 1307 762 1940 1351 656 124 532 308 224 155
shrinkage=0.15


Tree=824
num_leaves=15
num_cat=0
split_feature=1 28 22 2 22 13 22 28 2 1 11 0 8 11
split_gain=0.0124014 0.202677 0.224976 1.14815 2.45683 1.63685 2.39535 1.24674 1.0667 0.997236 0.774353 0.627216 0.49214 0.46275
threshold=-1.2762649999999998 0.0021118650000000005 -0.14219899999999999 0.16486150000000002 0.15279050000000002 1.0000000180025095e-35 -0.024227699999999994 0.00029183350000000003 -0.13317249999999997 1.0000000180025095e-35 2.1913150000000006e-05 11.960450000000002 -1.0930799999999998e-06 7.5838050000000018e-05
decision_type=2 2 2 2 2 2 2 2 2 2 2 2 2 2
left_child=-1 2 -2 4 5 6 8 12 -4 -9 -10 -11 -7 -12
right_child=1 -3 3 -5 -6 7 -8 9 10 11 13 -13 -14 -15
leaf_value=-3.8536867196860618e-05 8.5527540987156097e-05 -0.0001858839433167289 0.0042696190665342977 0.00026498399492343649 -0.0016332150430701119 -0.0081802493836221398 -0.0024582686841610915 -0.00052457060049307879 0.018914255584352828 0.028113627362340181 0.055589967805506853 0.0025994357180833404 0.0049848545013284808 0.029130387366749343
leaf_weight=100835 53610 52373 21 9518 636 96 55 57 26 110 58 27 191 20
leaf_count=100835 53610 52373 21 9518 636 96 55 57 26 110 58 27 191 20
internal_value=0 3.327e-05 0.000211427 0.000835509 0.00502229 0.0114261 0.0236281 0.00685985 0.0351061 0.0161484 0.0413327 0.0230853 0.000581196 0.0488055
internal_weight=0 116798 64425 10815 1297 661 180 481 125 194 104 137 287 78
internal_count=217633 116798 64425 10815 1297 661 180 481 125 194 104 137 287 78
shrinkage=0.15


Tree=825
num_leaves=15
num_cat=0
split_feature=4 33 19 18 26 39 14 2 23 38 4 14 11 36
split_gain=0.0125634 0.0749741 0.113236 0.133805 0.376561 0.657206 0.375042 0.396296 0.47834 0.357963 0.643283 0.321758 0.284695 0.815381
threshold=0.11543250000000001 -1.2066749999999999e-05 1.5064750000000002e-05 -7.8519049999999971e-06 7.4396950000000023e-05 0.00017074050000000002 0.00074095750000000005 1.3167150000000003 -15.809749999999998 -0.0040405299999999996 -0.3422659999999999 0.0004987975000000001 2.8502500000000004e-05 0.00055608100000000004
decision_type=2 2 2 2 2 2 2 2 2 2 2 2 2 2
left_child=1 2 3 4 9 6 -6 8 -8 -1 -11 -12 13 -10
right_child=-2 -3 -4 -5 5 -7 7 -9 12 10 11 -13 -14 -15
leaf_value=-0.00057601024061741527 4.8493660369271274e-05 -8.1312900395806182e-05 0.00043968523019909935 6.611491733535084e-05 -0.0010071617038920522 -0.0018968146471294103 -0.0002512549266352185 -0.0078844474607401276 -0.010464726328791585 -0.00099835346686723519 -0.00042500267626019195 -0.013826363603675418 0.025674520494649185 0.024851146063424256
leaf_weight=658 77435 112418 16747 9039 85 509 42 22 24 298 50 208 60 38
leaf_count=658 77435 112418 16747 9039 85 509 42 22 24 298 50 208 60 38
internal_value=0 -2.67843e-05 0.000193878 -0.000179233 -0.00129142 0.00128021 0.00724739 0.0110196 0.0135555 -0.0029437 -0.00574576 -0.0112292 0.0183087 0.0111805
internal_weight=0 140198 27780 11033 1994 780 271 186 164 1214 556 258 122 62
internal_count=217633 140198 27780 11033 1994 780 271 186 164 1214 556 258 122 62
shrinkage=0.15


Tree=826
num_leaves=15
num_cat=0
split_feature=3 25 3 23 6 33 35 25 33 10 33 32 15 3
split_gain=0.0162779 0.0570378 0.0844857 0.140917 0.149754 0.4427 0.338796 0.294915 0.25003 0.170539 0.166659 0.164949 0.297805 0.147694
threshold=-6.6828699999999985 0.46008800000000005 -5.9751649999999996 -6.9868449999999989 7.6756100000000022e-06 2.1078850000000004e-06 6.4501950000000024e-05 0.20324850000000003 2.3899000000000002e-06 5.1059350000000004e-05 -7.9805249999999989e-07 0.038909050000000008 2.9276500000000004e-08 -6.3035799999999993
decision_type=2 2 2 2 2 2 2 2 2 2 2 2 2 2
left_child=-1 2 3 -2 11 6 9 -7 -9 -6 -8 -5 -13 -11
right_child=1 -3 -4 4 5 7 10 8 -10 13 -12 12 -14 -15
leaf_value=-2.663427731092258e-05 0.00084270760136356284 -7.0687057449886112e-05 3.1481124552616422e-05 -0.001149151912923766 -0.017442258475680969 -0.0017154072714038193 0.00080292434378696428 0.032711733779869974 0.010403521836717397 -0.010047316479696226 0.016139705367429997 -0.0033998314464198688 0.016311148758155897 0.0063762343022972347
leaf_weight=153098 8261 33944 20088 1960 28 20 44 20 26 28 25 35 34 22
leaf_count=153098 8261 33944 20088 1960 28 20 44 20 26 28 25 35 34 22
internal_value=0 6.31852e-05 0.000211731 0.000556476 -0.000498191 0.00328549 -0.00129666 0.0134912 0.0201027 -0.00806963 0.00635973 -0.000895393 0.00631283 -0.00282095
internal_weight=0 64535 30591 10503 2242 213 147 66 46 78 69 2029 69 50
internal_count=217633 64535 30591 10503 2242 213 147 66 46 78 69 2029 69 50
shrinkage=0.15


Tree=827
num_leaves=15
num_cat=0
split_feature=30 15 15 4 26 24 30 15 37 30 3 26 36 15
split_gain=0.0121575 0.050682 0.0992762 0.162402 0.317163 0.636127 0.571099 0.22864 0.118017 0.129086 0.112718 0.158494 0.0965697 0.137762
threshold=0.0012252050000000003 8.4221350000000012e-07 -6.5062949999999993e-07 -0.42388399999999993 0.00013991350000000001 -0.42479649999999997 0.0087794500000000011 8.4460100000000009e-08 -9.5293849999999991e-07 0.0027380300000000002 -10.501849999999999 0.00049199200000000002 -0.017866999999999997 -2.3708699999999995e-05
decision_type=2 2 2 2 2 2 2 2 2 2 2 2 2 2
left_child=-1 2 12 4 5 6 -4 -8 9 -6 11 -10 13 -2
right_child=1 -3 3 -5 8 -7 7 -9 10 -11 -12 -13 -14 -15
leaf_value=-2.2490296754375281e-05 9.8104876724903323e-05 -0.00016830528190670736 0.038094839418266455 0.00026182537059950712 -0.014972402983345092 0.0024819635399209801 0.020772592141292987 -0.00094308496336452656 0.013001156750727784 -0.0018563146613954672 -0.0028705397977230348 -0.00062191145141538148 9.253372477775622e-05 -0.0014103199107665639
leaf_weight=155183 2690 16642 23 27484 25 250 20 24 33 52 82 46 12319 2760
leaf_count=155183 2690 16642 23 27484 25 250 20 24 33 52 82 46 12319 2760
internal_value=0 5.58865e-05 0.000137335 0.000313125 0.00285351 0.00596054 0.0189403 0.00892768 -0.00128484 -0.00611478 0.00102513 0.00506874 -0.000140056 -0.000665795
internal_weight=0 62450 45808 28039 555 317 67 44 238 77 161 79 17769 5450
internal_count=217633 62450 45808 28039 555 317 67 44 238 77 161 79 17769 5450
shrinkage=0.15


Tree=828
num_leaves=15
num_cat=0
split_feature=2 21 22 3 14 33 19 37 9 22 22 13 8 23
split_gain=0.0127964 0.0316799 0.0417391 0.0359057 0.0695447 0.0552825 0.040965 0.0390665 0.0443154 0.0340295 0.0335315 0.0986301 0.0916222 0.0775438
threshold=-2.8223399999999992 -5.7462299999999988 1.9437700000000002 -13.239749999999999 0.0044395100000000015 -1.0012604999999998e-05 1.7928950000000002e-08 -4.8005949999999991e-07 -4.2818549999999993e-05 -1.7104999999999999 -2.3743599999999998 4.2555350000000006e-05 6.2479250000000008e-06 -8.2722599999999975
decision_type=2 2 2 2 2 2 2 2 2 2 2 2 2 2
left_child=1 2 3 4 -1 -6 7 -5 -9 -10 11 12 13 -8
right_child=-2 -3 -4 6 5 -7 10 8 9 -11 -12 -13 -14 -15
leaf_value=0.0039382740523763006 -7.7742031675963131e-06 2.8275720662418023e-05 0.0067893642392009498 0.0068125054475967764 -0.0075911680818535384 0.00076490063678915678 -0.015936043386516923 3.690008943522116e-05 9.1361262214680506e-05 0.0051823171863446095 9.9842053998918967e-05 0.0051905292604642449 0.0027021474984940141 -0.0038359894457523922
leaf_weight=192 208125 7495 25 30 20 163 22 254 45 86 1105 25 20 26
leaf_count=192 208125 7495 25 30 20 163 22 254 45 86 1105 25 20 26
internal_value=0 0.000170173 0.000698499 0.000621904 0.00194401 -0.000148331 0.000314533 0.00159889 0.00119263 0.00343352 -0.000130381 -0.00286583 -0.00582773 -0.00938185
internal_weight=0 9508 2013 1988 375 183 1613 415 385 131 1198 93 68 48
internal_count=217633 9508 2013 1988 375 183 1613 415 385 131 1198 93 68 48
shrinkage=0.15


Tree=829
num_leaves=15
num_cat=0
split_feature=12 32 7 28 30 33 1 10 36 7 8 11 34 18
split_gain=0.0126404 0.227973 0.267079 0.375851 0.214295 0.562009 0.419189 0.529055 0.30005 0.426584 0.248307 0.187103 0.206052 0.336523
threshold=3.2730600000000001e-05 -0.0078262299999999983 2.8402950000000006e-05 0.010319900000000002 0.00041892000000000003 -5.7715749999999999e-06 7.5509800000000009 1.1664200000000001e-05 -0.0019450599999999998 2.5305850000000004e-05 -8.7606299999999992e-06 4.8156500000000006e-05 0.12901250000000003 1.4868350000000002e-06
decision_type=2 2 2 2 2 2 2 2 2 2 2 2 2 2
left_child=-1 2 3 -2 5 -5 -7 -8 -9 -10 11 12 13 -6
right_child=1 -3 -4 4 10 6 7 8 9 -11 -12 -13 -14 -15
leaf_value=-2.9487803555605804e-05 -0.0021763703190674603 0.00028399025018837964 -4.9602644372490422e-05 0.025303442861576726 -0.0012976355808118737 -0.0043763717133726591 0.02839570645810454 -0.010224984713400212 -0.0055615985482607199 0.022008346293919855 0.0017553186307790178 0.0090300412330084085 -0.0028931651565012985 0.0077174753538758129
leaf_weight=130681 3382 44054 36810 26 405 112 24 26 23 28 906 38 997 121
leaf_count=130681 3382 44054 36810 26 405 112 24 26 23 28 906 38 997 121
internal_value=0 4.43175e-05 -0.000201814 -0.00112213 0.000195472 0.0044841 0.00194277 0.00895014 0.00288919 0.00957484 -0.000220005 -0.00136648 -0.00162588 0.000776183
internal_weight=0 86952 42898 6088 2706 239 213 101 77 51 2467 1561 1523 526
internal_count=217633 86952 42898 6088 2706 239 213 101 77 51 2467 1561 1523 526
shrinkage=0.15


Tree=830
num_leaves=15
num_cat=0
split_feature=28 1 23 3 3 14 14 23 3 3 23 14 34 23
split_gain=0.0121057 0.224788 0.227402 0.478961 0.268104 0.339043 0.235777 0.222661 0.194615 0.281822 0.743574 0.59605 0.458682 0.391539
threshold=-0.0033222799999999995 2.5579450000000006 -13.825799999999999 -14.087399999999997 -6.1920449999999994 0.0017399150000000001 0.014516050000000001 -18.153449999999996 -13.793399999999998 -7.8229449999999989 -7.6733199999999995 0.0014906400000000003 0.17356000000000002 -8.1455849999999987
decision_type=2 2 2 2 2 2 2 2 2 2 2 2 2 2
left_child=1 -1 3 6 5 -5 7 -3 -4 10 11 12 -10 -11
right_child=-2 2 8 4 -6 -7 -8 -9 9 13 -12 -13 -14 -15
leaf_value=-0.0002466389181683483 2.7573291794208223e-05 0.0011777987942552053 0.0012102186985533637 0.0029862546511577668 -8.8599699071469559e-05 0.0005164879847889683 -1.4299539215051371e-05 -0.0067272990813566315 -0.0043644137604665631 0.0010802309746056819 0.0011729285330509727 -0.00030348939514983483 -0.00041044897652418541 -0.00068100015059081441
leaf_weight=49587 135388 106 2799 2963 2042 2164 495 329 2128 7101 3203 3638 957 4733
leaf_count=49587 135388 106 2799 2963 2042 2164 495 329 2128 7101 3203 3638 957 4733
internal_value=0 -4.53899e-05 0.000260181 0.000949441 0.00136491 0.00194382 -0.00225324 -0.004801 3.28789e-05 -0.000118563 -0.000707987 -0.0016041 -0.00313785 0.000375828
internal_weight=0 82245 32658 8099 7169 5127 930 435 24559 21760 9926 6723 3085 11834
internal_count=217633 82245 32658 8099 7169 5127 930 435 24559 21760 9926 6723 3085 11834
shrinkage=0.15


Tree=831
num_leaves=15
num_cat=0
split_feature=12 34 22 24 32 10 13 17 14 19 16 23 3 27
split_gain=0.0147784 0.0544153 0.073147 0.0342065 0.0811676 0.0625587 0.108286 0.147239 0.0421127 0.0347609 0.0346512 0.0327983 0.291223 0.319569
threshold=0.00048539800000000006 0.016847400000000002 0.84427900000000011 0.82179550000000012 -22.304899999999996 2.8420100000000006e-05 9.4443350000000015e-05 3.6723150000000002e-06 0.022652900000000004 0.004329035000000001 -2.3103199999999996e-05 -11.298099999999998 -9.8624849999999977 0.97625300000000015
decision_type=2 2 2 2 2 2 2 2 2 2 2 2 2 2
left_child=11 2 -2 4 -3 6 7 -5 -8 10 -10 12 13 -1
right_child=1 3 -4 5 -6 -7 8 -9 9 -11 -12 -13 -14 -15
leaf_value=-0.00087019145590078813 -0.001066163918767384 0.0075402663015252487 0.00021201103456350585 -0.00042316873596064396 8.7958835003633891e-05 0.00038414019471179827 0.0045003869771026075 -0.016570496942020122 -0.0014432976300927944 -0.00096032705701787596 -0.0099618016543734644 5.3743714412522694e-05 0.00015664047374372165 0.00026195032235187728
leaf_weight=16427 2717 33 1601 24 9348 307 25 27 21 149 22 133898 44515 8519
leaf_count=16427 2717 33 1601 24 9348 307 25 27 21 149 22 133898 44515 8519
internal_value=0 -0.000147537 -0.000592251 4.53387e-05 0.000114174 -0.0010777 -0.00275227 -0.00897175 -0.00129054 -0.00204457 -0.0058016 1.03558e-05 -7.32818e-05 -0.000483568
internal_weight=0 14274 4318 9956 9381 575 268 51 217 192 43 203359 69461 24946
internal_count=217633 14274 4318 9956 9381 575 268 51 217 192 43 203359 69461 24946
shrinkage=0.15


Tree=832
num_leaves=15
num_cat=0
split_feature=3 34 14 33 6 14 9 20 9 6 31 38 24 14
split_gain=0.0143098 0.130102 0.210731 0.186289 1.64187 1.90133 0.767264 0.699585 1.16147 0.579963 0.519112 0.471727 0.349441 0.314348
threshold=-9.6081599999999998 0.033530350000000007 0.0067067750000000008 8.5593200000000009e-06 1.5978650000000003e-06 0.00088157450000000005 -2.5009899999999996e-05 5.5978600000000007 2.5093000000000002e-05 4.7060500000000013e-06 0.03827065000000001 0.00029016400000000004 -0.099396799999999993 0.0007585545000000001
decision_type=2 2 2 2 2 2 2 2 2 2 2 2 2 2
left_child=1 2 3 -1 13 6 10 8 12 11 -6 -7 -8 -5
right_child=-2 -3 -4 4 5 9 7 -9 -10 -11 -12 -13 -14 -15
leaf_value=0.00050314821919513202 -3.0331182374893062e-05 -0.00011176803614859688 -0.00013586781385059848 -0.009049777025309692 -0.0065852559579070652 -0.012306587398937129 0.022618965937622956 0.053821481466293335 -0.0058932083495892582 0.01809861706403483 0.02461305558681488 0.011894136723276459 0.048418245402475198 -8.9684067183175273e-05
leaf_weight=18556 134188 48103 15981 111 24 74 21 25 20 28 24 24 27 427
leaf_count=18556 134188 48103 15981 111 24 74 21 25 20 28 24 24 27 427
internal_value=0 4.87756e-05 0.000267287 0.00060006 0.00283397 0.0124501 0.0244158 0.0323652 0.0244769 -0.000940214 0.0090139 -0.00637988 0.0371311 -0.00193833
internal_weight=0 83445 35342 19361 805 267 141 93 68 126 48 98 48 538
internal_count=217633 83445 35342 19361 805 267 141 93 68 126 48 98 48 538
shrinkage=0.15


Tree=833
num_leaves=15
num_cat=0
split_feature=12 32 13 26 7 28 14 25 8 6 25 0 32 18
split_gain=0.0143765 0.0843055 0.172858 0.151715 0.18781 0.161785 0.317542 0.204519 0.158669 0.150245 0.136513 0.278717 0.208845 0.193565
threshold=-0.00013361299999999996 0.64451400000000014 0.00016332850000000003 -0.0022306899999999996 7.3017450000000014e-05 -0.67010049999999988 0.010291600000000001 54.164200000000008 2.6956850000000006e-05 1.0000000180025095e-35 9.4839650000000013 -4.808794999999999 3.6943000000000006 -0.0007942559999999998
decision_type=2 2 2 2 2 2 2 2 2 2 2 2 2 2
left_child=1 -1 3 -3 5 6 7 9 10 -5 -7 -12 -13 -14
right_child=-2 2 -4 4 -6 8 -8 -9 -10 -11 11 12 13 -15
leaf_value=1.3469306615609942e-05 -1.8922089524012884e-05 -0.0010480266743794148 -0.00059729437174647763 -0.000203204758211293 -0.00046931504564068008 0.0031909367238322195 0.019374743415615878 -0.0071808618352876908 0.012187354103524421 0.016793269273621264 0.012866817031648348 -0.0048837813588878841 0.014477506935761015 0.000111077299360269
leaf_weight=38607 175384 415 1326 22 474 918 39 29 37 25 33 186 26 112
leaf_count=38607 175384 415 1326 22 474 918 39 29 37 25 33 186 26 112
internal_value=0 7.85494e-05 0.00076843 0.00155036 0.0021176 0.00297689 0.00837158 0.00272521 0.00250403 0.00883747 0.00222303 -0.000265889 -0.00160348 0.0028178
internal_weight=0 42249 3642 2316 1901 1427 115 76 1312 47 1275 357 324 138
internal_count=217633 42249 3642 2316 1901 1427 115 76 1312 47 1275 357 324 138
shrinkage=0.15


Tree=834
num_leaves=15
num_cat=0
split_feature=3 1 37 32 26 36 8 21 32 25 13 21 26 12
split_gain=0.0124944 0.0707603 0.0788562 0.193816 0.0701577 0.0686456 0.123783 0.0840657 0.0951608 0.09475 0.138927 0.210057 0.225121 0.0949938
threshold=-13.239749999999999 5.6576700000000004 -1.4927499999999997e-07 -0.10883 -0.028182349999999998 0.18490500000000001 -1.9702099999999999e-05 6.4936950000000015 -22.304899999999996 12.803600000000001 -5.3645549999999997e-05 -2.7780149999999995 0.00063170100000000014 0.00012553750000000004
decision_type=2 2 2 2 2 2 2 2 2 2 2 2 2 2
left_child=1 4 -3 -4 -1 -6 -7 8 -8 10 -10 -12 13 -13
right_child=-2 2 3 -5 5 6 7 -9 9 -11 11 12 -14 -15
leaf_value=-0.0023789403644365395 -1.5823890007485724e-05 -0.0013260660594507656 0.013641488913555421 0.0018348287570268563 4.1205289283438488e-05 0.012916584134800358 0.0097763310059235664 -0.0012481105866417265 0.015177131503688818 0.00048783578072893782 -0.0035443880761401184 -0.00075415057549692397 0.019705275414162317 0.0089289074693078875
leaf_weight=263 182296 92 38 177 33615 20 32 279 23 609 72 53 24 40
leaf_count=263 182296 92 38 177 33615 20 32 279 23 609 72 53 24 40
internal_value=0 8.16321e-05 0.002349 0.00392159 6.1761e-05 8.02241e-05 0.00121878 0.0010121 0.00175138 0.00143859 0.00416977 0.00283025 0.0067531 0.00341061
internal_weight=0 35337 307 215 35030 34767 1152 1132 853 821 212 189 117 93
internal_count=217633 35337 307 215 35030 34767 1152 1132 853 821 212 189 117 93
shrinkage=0.15


Tree=835
num_leaves=15
num_cat=0
split_feature=38 17 4 14 4 11 19 13 5 13 10 3 15 14
split_gain=0.0135629 0.0748472 0.146119 0.207265 0.037654 0.128247 0.0738158 0.0284997 0.0347591 0.0268491 0.0220277 0.0223963 0.0190771 0.0173074
threshold=-3.3616099999999993 2.9541550000000002e-05 3.3313850000000005 0.022652900000000004 0.67000000000000015 -8.1991599999999983e-05 0.00040721400000000004 -3.0672399999999995e-05 1.8425950000000003e-05 0.00062806150000000013 2.1566150000000004e-05 -12.278849999999998 5.1731200000000013e-07 0.0032082450000000006
decision_type=2 2 2 2 2 2 2 2 2 2 2 2 2 2
left_child=1 4 3 -3 7 -6 -7 8 -1 -4 12 13 -9 -12
right_child=-2 2 9 -5 5 6 -8 10 -10 -11 11 -13 -14 -15
leaf_value=-0.0091054035548586397 2.3503106960889584e-06 0.0018102048906209682 -0.0044845866854302582 0.020675402192864567 0.0038788569991343785 -0.01586056302418001 -0.0041721636985218337 0.0016970543479773268 -0.00085495252860710023 0.0014295595120676161 -0.0075015807116869835 -0.00070359803322769517 -0.0026051886452478357 -0.0017658194719717419
leaf_weight=20 216779 38 39 20 28 20 31 135 27 31 20 388 28 29
leaf_count=20 216779 38 39 20 28 20 31 135 27 31 20 388 28 29
internal_value=0 -0.000596602 0.00274776 0.00831545 -0.00118624 -0.00427773 -0.00875585 -0.000808765 -0.00436578 -0.00186546 -0.000530132 -0.00108521 0.000958019 -0.00410695
internal_weight=0 854 128 58 726 79 51 647 47 70 600 437 163 49
internal_count=217633 854 128 58 726 79 51 647 47 70 600 437 163 49
shrinkage=0.15


Tree=836
num_leaves=15
num_cat=0
split_feature=15 20 9 36 15 35 18 32 23 5 4 23 33 23
split_gain=0.0121155 0.0556426 0.128755 0.105107 0.238916 0.229847 0.0870885 0.136349 0.343601 0.368219 0.243116 0.220067 0.186218 0.156629
threshold=5.0878500000000008e-06 5.3893600000000008 1.8539450000000004e-05 -0.035814699999999998 1.6217450000000005e-05 0.079759400000000022 0.00022380850000000002 0.040009150000000007 -14.850299999999999 2.5413550000000003e-05 0.3608320000000001 -9.1777649999999991 7.6110150000000007e-06 -8.5884699999999992
decision_type=2 2 2 2 2 2 2 2 2 2 2 2 2 2
left_child=-1 -2 -3 4 5 -4 7 12 -9 10 11 -10 -5 -11
right_child=1 2 3 6 -6 -7 -8 8 9 13 -12 -13 -14 -15
leaf_value=-1.716976740345776e-05 0.00017193502542473747 0.00020625193597931601 0.00014295644027047922 -0.0017873094112453853 -0.0003582738586047989 0.021242040320514487 -0.00065780332593686971 0.010095448492055377 -0.026236455832180136 0.01162865553152464 -0.0058984421254266841 -0.008948470996692777 0.010488148520154686 -0.0037704273201857826
leaf_weight=176170 31305 6069 21 675 159 26 2948 28 37 23 71 30 29 42
leaf_count=176170 31305 6069 21 675 159 26 2948 28 37 23 71 30 29 42
internal_value=0 7.29517e-05 -0.000232096 -0.000882703 0.00241908 0.0118148 -0.00105787 -0.00231925 -0.00548147 -0.00763001 -0.0120144 -0.0184956 -0.00128164 0.00167848
internal_weight=0 41463 10158 4089 206 47 3883 935 231 203 138 67 704 65
internal_count=217633 41463 10158 4089 206 47 3883 935 231 203 138 67 704 65
shrinkage=0.15


Tree=837
num_leaves=15
num_cat=0
split_feature=4 24 4 3 8 39 4 3 38 20 28 16 31 15
split_gain=0.0119592 0.076543 0.0974926 0.181703 0.276863 0.217402 0.206097 0.192131 0.293168 0.184583 0.351448 0.176454 0.148614 0.338663
threshold=0.11543250000000001 0.35887100000000005 0.3608320000000001 -7.6471249999999991 2.5208050000000003e-05 0.0010549800000000003 0.34245300000000006 -7.0077899999999991 -0.0077053249999999998 5.531130000000001 0.084788200000000008 -5.8856749999999991e-07 -1.3420899999999998 7.4711150000000015e-08
decision_type=2 2 2 2 2 2 2 2 2 2 2 2 2 2
left_child=-1 -2 3 4 5 6 -3 8 9 11 -11 -5 13 -7
right_child=1 2 -4 7 -6 12 -8 -9 -10 10 -12 -13 -14 -15
leaf_value=-2.613234850682059e-05 0.00010423357821119216 -0.0041300658232213683 -1.764206253026452e-05 -0.013041564796585589 -0.016022843304240416 0.0012040565215314964 0.0079807164554949843 -0.00047585103119665779 0.020058165141381323 0.025600534176919609 -0.0025198802375234666 0.0020775598522794264 0.00084320792087055451 -0.0084818957335441019
leaf_weight=140198 67589 754 6669 20 31 188 33 1072 24 20 20 132 740 143
leaf_count=140198 67589 754 6669 20 31 188 33 1072 24 20 20 132 740 143
internal_value=0 4.73133e-05 -0.000343423 -0.00102729 -0.001964 -0.00172943 -0.00362224 0.000346509 0.00442785 0.00247406 0.0115403 8.82013e-05 -0.000338538 -0.00298051
internal_weight=0 77435 9846 3177 1889 1858 787 1288 216 192 40 152 1071 331
internal_count=217633 77435 9846 3177 1889 1858 787 1288 216 192 40 152 1071 331
shrinkage=0.15


Tree=838
num_leaves=15
num_cat=0
split_feature=21 1 39 5 12 24 16 26 23 5 26 10 8 16
split_gain=0.0117003 0.344362 0.274183 0.389559 0.343473 0.390184 0.306294 0.138362 0.102381 0.0784341 0.0618732 0.0472139 0.081705 0.0627188
threshold=13.390900000000002 11.401950000000001 0.00070929100000000013 4.5927850000000008e-05 4.5049250000000006e-05 0.073715600000000006 1.0561000000000001e-06 -4.1290149999999996e-05 -7.0353699999999995 2.3554100000000002e-05 -0.0013240249999999997 1.5588300000000005e-05 -1.0770049999999999e-05 -1.7385049999999997e-06
decision_type=2 2 2 2 2 2 2 2 2 2 2 2 2 2
left_child=-1 11 3 4 7 -6 8 -3 9 10 -4 12 13 -2
right_child=1 2 6 -5 5 -7 -8 -9 -10 -11 -12 -13 -14 -15
leaf_value=-4.2802569278709757e-06 -0.00075167045250292051 -0.002383688933597031 0.010341339202464691 -0.0076001575180271175 0.011350139318801666 0.039006036543287333 0.017185983625875617 0.014638425453033829 -0.0096830148296430697 -0.0060167636435205793 -0.00034967403866928713 6.7073754089499259e-05 -0.00076062338690087244 -0.010779363914237668
leaf_weight=214386 23 22 21 20 24 22 22 21 30 26 29 2653 298 36
leaf_count=214386 23 22 21 20 24 22 22 21 30 26 29 2653 298 36
internal_value=0 0.000282608 0.00578773 0.0113165 0.0155674 0.0245769 0.00107963 0.00592944 -0.0022632 0.000665681 0.00414055 -0.000150852 -0.00177034 -0.00687026
internal_weight=0 3247 237 109 89 46 128 43 106 76 50 3010 357 59
internal_count=217633 3247 237 109 89 46 128 43 106 76 50 3010 357 59
shrinkage=0.15


Tree=839
num_leaves=15
num_cat=0
split_feature=2 20 10 14 11 26 31 19 14 3 5 26 22 4
split_gain=0.0115213 0.031948 0.0639722 0.0724167 0.126586 0.0545011 0.0492395 0.0893084 0.133943 0.0441278 0.0560915 0.0693427 0.113963 0.0627182
threshold=-2.8223399999999992 -9.9085449999999984 8.1871900000000011e-05 9.5139850000000004e-05 -6.7428999999999994e-05 -0.00012892449999999997 4.5513450000000004 0.00015282300000000004 0.00047114950000000003 -16.559399999999997 1.1444250000000001e-05 -9.098339999999998e-05 -2.8587899999999995 0.058500200000000009
decision_type=2 2 2 2 2 2 2 2 2 2 2 2 2 2
left_child=1 2 9 5 -5 -4 -3 8 -8 -1 11 12 -11 -13
right_child=-2 6 3 4 -6 -7 7 -9 -10 10 -12 13 -14 -15
leaf_value=-0.0069037397932593843 -7.3767110871668275e-06 0.0002016011021426467 -0.0069887886820652056 -0.002441901264962955 -0.016671920758248727 0.0023602601895889048 0.0019143645196668423 -0.002805139961087012 0.015591940993908791 0.0082678579494217721 0.0015413532526548463 -0.0013413318433961655 -0.0020437577297508884 -0.0073635970173795192
leaf_weight=21 208125 8661 20 39 22 47 49 35 24 38 298 133 66 55
leaf_count=21 208125 8661 20 39 22 47 49 35 24 38 298 133 66 55
internal_value=0 0.000161472 -0.000785683 -0.00383484 -0.00757404 -0.000430501 0.000241293 0.00342436 0.0064111 -0.000146906 9.35913e-05 -0.00138392 0.00172395 -0.00310316
internal_weight=0 9508 739 128 61 67 8769 108 73 611 590 292 104 188
internal_count=217633 9508 739 128 61 67 8769 108 73 611 590 292 104 188
shrinkage=0.15


Tree=840
num_leaves=15
num_cat=0
split_feature=12 22 13 37 3 36 4 12 22 3 32 37 16 21
split_gain=0.0112169 0.0278817 0.116323 0.223226 0.0228224 0.0639815 0.1391 0.112915 0.248946 0.0980551 0.059385 0.0554229 0.0919532 0.124268
threshold=0.00091580700000000014 1.7323450000000002 -1.5008599999999999e-05 -6.6509049999999986e-08 -15.512049999999999 -0.60180299999999987 -0.51881799999999989 -0.00015989499999999999 -0.54786299999999988 -17.304849999999998 -7.1290899999999988 -1.1844749999999999e-05 -1.3562949999999999e-08 -3.7979249999999998
decision_type=2 2 2 2 2 2 2 2 2 2 2 2 2 2
left_child=4 -2 3 -3 5 6 -1 8 -8 -9 -11 12 -7 -14
right_child=1 2 -4 -5 -6 11 7 9 -10 10 -12 -13 13 -15
leaf_value=-0.0031636128098034536 -0.00033195412486076 0.019755836730182639 0.00014514905011158891 -0.00084324737585246047 -7.005953260528827e-06 -0.0062822643002123811 0.022649373135367488 -0.0047682450430828237 0.0025603006169798649 0.011563164524167129 0.0010996601033884173 0.00018312679340638452 -0.0084753859395277683 0.00415464478598621
leaf_weight=60 5904 20 1602 29 195574 79 23 31 35 23 26 14138 24 65
leaf_count=60 5904 20 1602 29 195574 79 23 31 35 23 26 14138 24 65
internal_value=0 -0.000179572 0.000365349 0.00756454 6.45791e-06 0.000188007 0.00286595 0.0054875 0.0105267 0.0018341 0.0060111 0.000150943 -0.00255748 0.000748794
internal_weight=0 7555 1651 49 210078 14504 198 138 58 80 49 14306 168 89
internal_count=217633 7555 1651 49 210078 14504 198 138 58 80 49 14306 168 89
shrinkage=0.15


Tree=841
num_leaves=15
num_cat=0
split_feature=1 20 21 11 20 3 34 22 3 9 20 21 19 21
split_gain=0.0111185 0.0535763 0.0785307 0.380573 0.0518513 0.0611147 0.0976709 0.04599 0.0705805 0.12142 0.168826 0.241649 0.140663 0.113062
threshold=-10.060549999999997 -5.5085599999999983 -15.528799999999999 -3.174779999999999e-07 3.5535050000000004 -7.5830149999999987 0.023744300000000006 -0.47921199999999992 -6.749814999999999 7.7866400000000002e-07 4.9104300000000007 -8.9484099999999973 6.3072250000000013e-05 -11.139199999999997
decision_type=2 2 2 2 2 2 2 2 2 2 2 2 2 2
left_child=1 2 3 -1 5 6 -3 8 9 -6 12 -12 -11 -10
right_child=-2 4 -4 -5 7 -7 -8 -9 13 10 11 -13 -14 -15
leaf_value=0.022748628929257393 -1.0478295975661077e-05 -0.012720156765704893 0.00050392688063726735 -0.0030584028803180749 0.0001702886286536874 -0.00023971929863557083 -0.00020648746964676927 0.00055273765274698589 0.0032812816091425823 -0.0059608983322978022 -0.022212433723267165 -0.0046595823625102638 0.010916382875293494 -0.00042349939463442516
leaf_weight=20 198658 23 4202 36 174 8217 36 4539 214 25 25 60 20 1384
leaf_count=20 198658 23 4202 36 174 8217 36 4539 214 25 25 60 20 1384
internal_value=0 0.000109702 0.000578293 0.00615839 -2.58731e-05 -0.000274259 -0.0050847 0.000293277 -0.000325909 -0.00242089 -0.00588908 -0.00982219 0.00154012 7.26352e-05
internal_weight=0 18975 4258 56 14717 8276 59 6441 1902 304 130 85 45 1598
internal_count=217633 18975 4258 56 14717 8276 59 6441 1902 304 130 85 45 1598
shrinkage=0.15


Tree=842
num_leaves=15
num_cat=0
split_feature=18 18 24 21 1 29 34 29 0 27 34 3 23 3
split_gain=0.0113346 0.0360633 0.105986 0.108867 0.617498 0.104529 0.185536 0.158481 0.126953 0.122465 0.236828 0.402576 0.819185 1.75255
threshold=-4.1156349999999994e-05 -0.00036886949999999998 -0.10160649999999999 -19.847999999999995 -4.8475849999999987 -1.2159399999999998 34.706300000000006 -0.79124449999999991 2.8556450000000004 2.7706550000000005 0.16786050000000002 -10.389699999999999 -13.149599999999998 -14.260649999999998
decision_type=2 2 2 2 2 2 2 2 2 2 2 2 2 2
left_child=1 -1 3 4 -3 8 7 -7 -5 10 -9 12 -12 -14
right_child=-2 2 -4 5 -6 6 -8 9 -10 -11 11 -13 13 -15
leaf_value=-1.9544032421505135e-05 -1.8692098375346006e-05 0.027197766078170389 0.00062002357217066267 -0.00064444339850210932 -0.0068288160354131825 0.0094116905734776268 0.011577410021563992 -0.00053102517283780718 -0.015958458590986473 -0.0015551361370288337 0.0015565249060388424 -0.001112058861153906 -0.0075069995924422978 0.027013103551855617
leaf_weight=35286 167647 20 8173 29 30 38 30 3810 21 1379 490 537 52 91
leaf_count=35286 167647 20 8173 29 30 38 30 3810 21 1379 490 537 52 91
internal_value=0 6.2691e-05 0.000260089 -0.000190616 0.00678182 -0.00024444 -0.00019129 -0.000246482 -0.00707633 -0.000304197 4.21976e-05 0.00190885 0.0044716 0.0144603
internal_weight=0 49986 14700 6527 50 6477 6427 6397 50 6359 4980 1170 633 143
internal_count=217633 49986 14700 6527 50 6477 6427 6397 50 6359 4980 1170 633 143
shrinkage=0.15


Tree=843
num_leaves=15
num_cat=0
split_feature=31 11 11 2 34 11 19 0 11 10 10 8 8 19
split_gain=0.0132601 0.0734911 0.167888 0.154664 0.119613 0.107722 0.165423 0.262779 0.137667 0.099477 0.0981341 0.0905891 0.0645285 0.0625926
threshold=11.617550000000001 -0.00013346399999999997 -4.1693349999999993e-05 2.8313250000000005 34.706300000000006 -0.00040777899999999999 0.0015085200000000004 -4.5746249999999984 -0.0002538555 2.1748400000000003e-05 3.1700300000000012e-05 8.2595650000000006e-06 -8.3236449999999975e-06 0.022168200000000002
decision_type=2 2 2 2 2 2 2 2 2 2 2 2 2 2
left_child=-1 5 3 4 9 13 -7 8 -8 -3 -9 12 -6 -2
right_child=1 2 -4 -5 11 6 7 10 -10 -11 -12 -13 -14 -15
leaf_value=3.2094108200432529e-06 -0.0061894028385163086 -0.014871332096948247 -0.00013633038912077498 -0.015113037946035286 0.00041579073294997212 -0.0031080682098085211 0.026342929905513301 0.0077774408998084249 0.008953957149891981 -0.0038540086917383896 -0.0070819581163959807 -0.0049327343648586141 0.01246523256166256 0.0015553488318662365
leaf_weight=216010 39 23 1197 28 20 37 20 20 21 93 20 26 20 59
leaf_count=216010 39 23 1197 28 20 37 20 20 21 93 20 26 20 59
internal_value=0 -0.00042715 -0.000822634 -0.00473457 -0.00313788 0.00214899 0.00520172 0.00899755 0.0174364 -0.00603848 0.000347741 0.00196014 0.00644051 -0.00152675
internal_weight=0 1623 1407 210 182 216 118 81 41 116 40 66 40 98
internal_count=217633 1623 1407 210 182 216 118 81 41 116 40 66 40 98
shrinkage=0.15


Tree=844
num_leaves=15
num_cat=0
split_feature=23 8 8 14 35 10 6 18 21 3 3 33 14 1
split_gain=0.0122603 0.0380916 0.100054 0.0336157 0.0592413 0.0802468 0.0534225 0.0323867 0.0278458 0.0440544 0.037693 0.0306189 0.0237659 0.0204988
threshold=-23.590149999999998 5.3795750000000009e-06 6.8380000000000004e-06 0.0029699900000000005 0.47898950000000001 2.8032150000000006e-05 -1.8658949999999999e-07 -0.0031232349999999998 2.9901150000000007 -14.602749999999999 -9.3834099999999996 2.6478350000000004e-05 0.0017399150000000001 -6.829019999999999
decision_type=2 2 2 2 2 2 2 2 2 2 2 2 2 2
left_child=1 3 -3 12 7 -6 -7 -5 9 -4 11 -11 -1 -12
right_child=-2 2 8 4 5 6 -8 -9 -10 10 13 -13 -14 -15
leaf_value=-0.00094166645122855785 2.2555236981429068e-06 0.010583314717015518 -0.0069626109001692388 0.0041798706570541693 -0.012127891244599596 0.0034740191252369966 -0.0058688151210662901 -0.0023039878244722227 0.0016849570051676386 0.0056622676980017175 -0.00039522171543630505 -0.0014406600525861987 0.0038067202193465513 -0.0040496456467698574
leaf_weight=270 216763 21 25 26 30 21 40 52 135 36 117 22 26 49
leaf_count=270 216763 21 25 26 30 21 40 52 135 36 117 22 26 49
internal_value=0 -0.00056197 0.000501548 -0.00148826 -0.00317613 -0.00577621 -0.00265243 -0.000142702 -4.97983e-05 -0.000990328 -0.000323779 0.00296805 -0.000524578 -0.00147394
internal_weight=0 870 405 465 169 91 61 78 384 249 224 58 296 166
internal_count=217633 870 405 465 169 91 61 78 384 249 224 58 296 166
shrinkage=0.15


Tree=845
num_leaves=15
num_cat=0
split_feature=26 2 1 18 23 1 18 1 36 24 10 6 1 22
split_gain=0.0111309 0.0435466 0.0355894 0.20486 0.131726 0.0612021 0.0925222 0.126043 0.220438 0.190761 0.208631 0.300564 0.380772 0.37486
threshold=-0.0036721749999999993 3.0791950000000008 7.932595000000001 4.8783150000000006e-06 -6.1298999999999984 -3.9125799999999997 6.9758600000000004e-07 3.9519050000000004 -0.17109449999999995 0.50967450000000014 3.099335000000001e-05 5.6937550000000017e-07 2.6605050000000001 0.33068600000000009
decision_type=2 2 2 2 2 2 2 2 2 2 2 2 2 2
left_child=1 2 5 -4 -5 -1 -7 8 -8 -10 -11 12 13 -12
right_child=-2 -3 3 4 -6 6 7 -9 9 10 11 -13 -14 -15
leaf_value=-0.00027887133651384509 -5.78342412248265e-06 0.0055523149200085112 0.00040372302257059474 -0.0036797795712814239 -0.015654131342307663 8.3265471737022055e-05 -0.0023216073293796007 -0.00012865948398920157 0.00075118436679436258 -0.00046682041119213325 0.017563393311423207 0.0024295327507625644 0.03019840028491276 0.002474786542734364
leaf_weight=2214 211486 34 725 149 24 1806 140 470 215 79 69 119 23 80
leaf_count=2214 211486 34 725 149 24 1806 140 470 215 79 69 119 23 80
internal_value=0 0.000198977 0.000169202 -0.000702992 -0.00534096 0.000319391 0.000760761 0.00178466 0.00302501 0.00430455 0.00636934 0.00822521 0.012235 0.00946213
internal_weight=0 6147 6113 898 173 5215 3001 1195 725 585 370 291 172 149
internal_count=217633 6147 6113 898 173 5215 3001 1195 725 585 370 291 172 149
shrinkage=0.15


Tree=846
num_leaves=15
num_cat=0
split_feature=16 23 26 10 10 10 14 10 16 10 21 14 36 10
split_gain=0.0107847 0.0555951 0.0576061 0.1113 0.115672 0.0777495 0.136882 0.0895329 0.188088 0.109436 0.120774 0.088922 0.064463 0.254346
threshold=5.2623050000000008e-06 -6.4354599999999991 0.011675600000000003 1.2929700000000001e-05 1.6592800000000005e-05 2.8978300000000003e-05 0.0039324400000000006 3.3039050000000003e-05 2.9537550000000003e-05 3.5385500000000002e-05 -15.528799999999999 0.0010618150000000002 0.34984250000000006 1.8498100000000002e-05
decision_type=2 2 2 2 2 2 2 2 2 2 2 2 2 2
left_child=-1 2 12 -4 -5 6 -6 8 -7 -9 -11 -12 -2 -14
right_child=1 -3 3 4 5 7 -8 9 -10 10 11 -13 13 -15
leaf_value=-1.7248045923493305e-05 0.00010734747142582218 -0.00049681219001002867 -0.01026053896988742 0.0067874877568811359 -0.012475856613794651 0.015982783377297562 -0.0017575128508698461 -0.010307574221743769 -0.0016216874209931118 0.007517430081183241 -0.0066476895666650691 -7.763386859461711e-05 0.0077072883558069018 0.00034672847843655489
leaf_weight=171795 40760 3652 30 41 36 22 105 28 36 37 61 193 124 713
leaf_count=171795 40760 3652 30 41 36 22 105 28 36 37 61 193 124 713
internal_value=0 6.46435e-05 0.000113248 -0.00135979 -0.000882114 -0.00148917 -0.00449411 -0.000365303 0.00505587 -0.00135097 -0.000489167 -0.00165548 0.000134106 0.00143718
internal_weight=0 45838 42186 589 559 518 141 377 58 319 291 254 41597 837
internal_count=217633 45838 42186 589 559 518 141 377 58 319 291 254 41597 837
shrinkage=0.15


Tree=847
num_leaves=15
num_cat=0
split_feature=16 36 16 14 34 17 4 33 6 31 37 12 33 34
split_gain=0.0117816 0.609095 0.841632 0.562431 0.589569 0.675283 1.1791 0.960483 1.1361 0.778026 0.770571 0.974125 1.16076 2.91443
threshold=1.0410700000000001e-07 1.0000000180025095e-35 2.1230550000000007e-06 0.00011615350000000002 0.78160050000000014 7.2838650000000014e-07 -0.019882549999999995 -3.2742699999999997e-06 -4.0280749999999992e-07 -0.022346599999999998 -6.3381999999999991e-08 -1.5755399999999998e-05 4.8236750000000009e-06 0.09780800000000002
decision_type=2 2 2 2 2 2 2 2 2 2 2 2 2 2
left_child=-1 2 3 -2 5 7 9 8 -5 -7 11 12 -8 -14
right_child=1 -3 -4 4 -6 6 10 -9 -10 -11 -12 -13 13 -15
leaf_value=2.9671620002202303e-05 -0.00013567215178131019 0.00032114265191298779 8.9026372242336969e-05 -0.0082418223345005776 0.0011035853984649293 -0.0083165396085994013 0.0026378889980533502 -0.001854573468943365 -0.0012776208612924422 -0.00080708924738642676 -0.00060707029531392297 -0.0015371250837798304 0.032421542358724763 -0.002050614133105162
leaf_weight=126325 6220 48723 25551 1438 1275 544 245 4168 832 723 1095 269 128 97
leaf_count=126325 6220 48723 25551 1438 1275 544 245 4168 832 723 1095 269 128 97
internal_value=0 -4.10508e-05 -0.000455449 -0.00127216 -0.00192585 -0.00233077 -0.000512293 -0.00320668 -0.0056893 -0.00403135 0.00191881 0.00566149 0.00978155 0.0175602
internal_weight=0 91308 42585 17034 10814 9539 3101 6438 2270 1267 1834 739 470 225
internal_count=217633 91308 42585 17034 10814 9539 3101 6438 2270 1267 1834 739 470 225
shrinkage=0.15


Tree=848
num_leaves=15
num_cat=0
split_feature=36 16 19 33 3 33 23 9 16 19 36 3 35 15
split_gain=0.0218067 0.512789 0.73518 0.947733 1.14339 0.737899 0.621486 0.680083 0.403648 0.480858 0.627865 0.795851 0.649646 0.791809
threshold=0.00047676150000000003 -4.0484049999999996e-08 9.6074000000000005e-06 2.1078850000000004e-06 -6.3853549999999988 -4.3624849999999993e-05 -6.5700849999999997 -3.0188249999999997e-05 -4.4942799999999995e-09 6.3072250000000013e-05 -0.00013266849999999999 -6.2187599999999987 0.00016092950000000001 1.8511550000000003e-08
decision_type=2 2 2 2 2 2 2 2 2 2 2 2 2 2
left_child=8 2 3 4 5 -2 7 -7 9 10 11 12 13 -1
right_child=1 -3 -4 -5 -6 6 -8 -9 -10 -11 -12 -13 -14 -15
leaf_value=0.0035915710613219059 -0.0003470036966828874 0.00027856553823341919 -4.6835403099043045e-05 4.7057580301122551e-05 -0.0001040560483581511 -0.0025087732525065458 7.7291587400658187e-05 -0.00794285008714825 -0.00022206785999602416 -2.700058440454773e-05 -0.00037881085131908146 -0.00016995653506690571 0.00064264613395585951 -4.6184579445454303e-05
leaf_weight=6021 792 44984 26098 4788 2226 729 388 1792 67829 41165 7474 6150 5463 1734
leaf_count=6021 792 44984 26098 4788 2226 729 388 1792 67829 41165 7474 6150 5463 1734
internal_value=0 -6.11875e-05 -0.000476352 -0.0015225 -0.00279044 -0.00440619 -0.00551134 -0.00637147 3.68456e-05 0.000295081 0.000789027 0.00123969 0.00189556 0.00277818
internal_weight=0 81797 36813 10715 5927 3701 2909 2521 135836 68007 26842 19368 13218 7755
internal_count=217633 81797 36813 10715 5927 3701 2909 2521 135836 68007 26842 19368 13218 7755
shrinkage=0.15


Tree=849
num_leaves=15
num_cat=0
split_feature=36 16 10 16 34 20 9 3 36 15 4 22 22 35
split_gain=0.0158093 0.333613 0.418178 0.472273 0.440958 0.638404 0.947004 0.582245 0.545379 0.492545 0.714476 0.556931 0.924922 1.07989
threshold=0.0005789835000000001 4.078890000000001e-08 2.7515600000000001e-05 3.6571050000000005e-06 0.24027450000000003 -3.5743299999999993 -1.5565049999999998e-05 -6.1381299999999994 0.0026558950000000006 3.2989300000000008e-07 -0.039151049999999993 -0.47921199999999992 -1.3864299999999996 0.00053517450000000009
decision_type=2 2 2 2 2 2 2 2 2 2 2 2 2 2
left_child=-1 -2 3 4 5 6 8 9 -3 -7 11 12 13 -11
right_child=1 2 -4 -5 -6 7 -8 -9 -10 10 -12 -13 -14 -15
leaf_value=3.0056872241363289e-05 -0.00035347315411145898 0.0033778085322210077 -0.00012260259932832907 -6.3766378781652378e-05 0.0001104579840159594 0.0052949025635395707 -0.0019607741656450482 -0.00078595887644117009 0.020655051159701544 -0.016589883273486428 -0.0037898300215119135 -0.00041512096692381488 0.017923038480334358 0.016626211825714565
leaf_weight=140161 40281 109 23130 6203 2647 2474 1135 615 66 49 373 211 139 40
leaf_count=140161 40281 109 23130 6203 2647 2474 1135 615 66 49 373 211 139 40
internal_value=0 -5.43784e-05 0.000269567 0.000914675 0.00168704 0.00248789 -0.000377148 0.00345001 0.0098938 0.0042428 0.00103725 0.00513862 0.0102783 -0.0016613
internal_weight=0 77472 37191 14061 7858 5211 1310 3901 175 3286 812 439 228 89
internal_count=217633 77472 37191 14061 7858 5211 1310 3901 175 3286 812 439 228 89
shrinkage=0.15


Tree=850
num_leaves=15
num_cat=0
split_feature=16 36 16 3 15 31 19 23 36 4 2 29 36 35
split_gain=0.0163045 0.558344 0.70422 1.02908 0.758302 1.06439 0.5449 0.541802 0.531544 0.529872 1.03041 1.15908 0.70956 0.550741
threshold=3.1357800000000004e-08 -0.00019477949999999999 5.2623050000000008e-06 -6.4440149999999994 3.8287600000000005e-07 0.055220700000000005 0.00011964300000000002 -13.335099999999999 7.0939900000000015e-05 1.0000000180025095e-35 -0.106861 -0.0031031449999999994 -0.00011900099999999998 -8.590739999999999e-05
decision_type=2 2 2 2 2 2 2 2 2 2 2 2 2 2
left_child=8 2 3 4 5 7 -3 -2 -1 -8 11 12 -11 -13
right_child=1 6 -4 -5 -6 -7 9 -9 -10 10 -12 13 -14 -15
leaf_value=0.00035820332064697341 -0.0010541548780503621 0.00077534300528135658 0.0002187936191791353 0.00029942917293456118 -0.00029472937161793968 -0.00025974520710946329 0.00043034037667348844 -0.0043441577785946432 -0.00028903958594443554 0.0080710799250953702 -1.2584555483093056e-05 -0.0030903750643202841 -0.0061129169774405273 0.0010934561568861662
leaf_weight=57900 1441 25546 18907 8545 5147 3111 18276 5156 56317 83 12511 1245 1807 1641
leaf_count=57900 1441 25546 18907 8545 5147 3111 18276 5156 56317 83 12511 1245 1807 1641
internal_value=0 -4.31474e-05 -0.000462032 -0.00101213 -0.00176658 -0.00254693 0.000246855 -0.00362551 3.90671e-05 -0.000132774 -0.000728104 -0.00260245 -0.00549002 -0.000711419
internal_weight=0 103416 42307 23400 14855 9708 61109 6597 114217 35563 17287 4776 1890 2886
internal_count=217633 103416 42307 23400 14855 9708 61109 6597 114217 35563 17287 4776 1890 2886
shrinkage=0.15


Tree=851
num_leaves=15
num_cat=0
split_feature=32 1 7 13 14 34 22 13 2 25 23 14 23 29
split_gain=0.0122967 0.213336 0.266058 0.2522 0.240767 1.10825 0.740335 0.993184 0.712254 0.579872 0.470014 0.854276 0.771931 0.430245
threshold=0.023910750000000005 -3.4741849999999999 5.0336000000000007e-05 6.4421150000000009e-05 0.00088157450000000005 0.05360285 -0.66738199999999981 -6.0759549999999993e-06 -0.68956549999999994 2.2251250000000002 -11.472849999999999 0.0012017500000000003 -12.363649999999998 0.0017032150000000003
decision_type=2 2 2 2 2 2 2 2 2 2 2 2 2 2
left_child=-1 2 3 4 -2 10 13 8 9 -8 11 12 -6 -7
right_child=1 -3 -4 -5 5 6 7 -9 -10 -11 -12 -13 -14 -15
leaf_value=2.8825567031121505e-05 -0.00053682254179161749 0.00014560882999935262 0.00025120343751303841 0.00032976742875946485 -0.0024726704824715854 0.0031394852214634357 -0.021680785284256328 0.00051871382614348583 0.012803929657820843 -0.0067772659200147304 -0.0054275601077491608 -0.0030548219499343596 0.032470919414084747 -0.00068408658409551738
leaf_weight=131612 12272 52293 11404 4755 25 1195 119 340 24 116 1740 220 33 1485
leaf_count=131612 12272 52293 11404 4755 25 1195 119 340 24 116 1740 220 33 1485
internal_value=0 -4.41031e-05 -0.000338239 -0.000639349 -0.000901638 -0.00174684 -4.47402e-05 -0.00481222 -0.0118104 -0.0143242 -0.00451253 0.00121461 0.017409 0.00102083
internal_weight=0 86021 33728 22324 17569 5297 3279 599 259 235 2018 278 58 2680
internal_count=217633 86021 33728 22324 17569 5297 3279 599 259 235 2018 278 58 2680
shrinkage=0.15


Tree=852
num_leaves=15
num_cat=0
split_feature=23 14 14 23 20 11 10 37 0 29 32 22 17 20
split_gain=0.015201 0.212168 0.274552 0.316137 0.320488 1.80798 1.207 0.922789 0.929041 0.654149 0.687195 0.933569 0.619278 0.58462
threshold=-11.298099999999998 0.0006072295000000001 0.0013170050000000002 -15.265799999999997 3.4831650000000005 3.3308000000000007e-05 2.8234350000000002e-05 2.7198850000000005e-07 6.4667950000000003 -0.0048796299999999994 -0.061898149999999992 -0.11653899999999999 3.2752200000000006e-06 -1.6928849999999998
decision_type=2 2 2 2 2 2 2 2 2 2 2 2 2 2
left_child=1 -1 3 -3 13 -6 9 8 -8 10 -7 12 -12 -5
right_child=-2 2 -4 4 5 6 7 -9 -10 -11 11 -13 -14 -15
leaf_value=0.00022460473058573977 2.8580080339105662e-05 0.00010778777532293318 -9.5560829443450853e-05 -0.0010108047816121304 -0.0045245971021557699 0.029140433844608755 0.013656457683728975 -0.0070723438134779361 -0.0027024846615372657 0.039375522010959681 -0.00064997368449853216 -0.022018162906169893 0.03581972977146506 -0.0050613366307359934
leaf_weight=33545 143203 3049 33079 1972 829 39 198 148 129 28 22 21 20 1351
leaf_count=33545 143203 3049 33079 1972 829 39 198 148 129 28 22 21 20 1351
internal_value=0 -5.4988e-05 -0.000284386 -0.00108456 -0.00184879 2.54292e-05 0.00626009 0.00275506 0.00720293 0.019067 0.0134921 0.00380498 0.0167166 -0.00265759
internal_weight=0 74430 40885 7806 4757 1434 605 475 327 130 102 63 42 3323
internal_count=217633 74430 40885 7806 4757 1434 605 475 327 130 102 63 42 3323
shrinkage=0.15


Tree=853
num_leaves=15
num_cat=0
split_feature=0 31 20 0 0 20 14 23 14 23 22 6 14 11
split_gain=0.0148888 0.319062 0.246046 0.433329 0.361663 0.656783 0.708819 0.695421 0.793175 0.473219 0.43776 0.454102 0.405042 0.38365
threshold=-5.0859099999999993 -0.014327349999999997 -5.1526549999999993 -8.0951199999999996 -7.7555099999999992 -7.7075349999999991 0.0007810015000000002 -10.618199999999998 0.00051341800000000008 -12.940099999999997 -2.5595399999999997 1.3558200000000001e-06 8.9811050000000015e-05 -4.0077399999999997e-05
decision_type=2 2 2 2 2 2 2 2 2 2 2 2 2 2
left_child=1 -1 4 -4 -3 -6 7 8 -7 -10 -11 -12 -9 -14
right_child=-2 2 3 -5 5 6 -8 12 9 10 11 -13 13 -15
leaf_value=0.00033414611446302983 2.3651718830454346e-05 -0.00057123421328361494 -4.4411575677845826e-05 -0.0015307026362811388 -0.00053219067823290949 -0.0022736824013523727 -6.3839084828331964e-05 0.00027348377374919789 -0.0018563988711684941 0.0047451305141868556 0.011908296661539889 0.039943036050177537 0.0025931936583514768 0.0097435464033797537
leaf_weight=25355 159623 8491 9248 8443 3371 493 1366 181 45 38 26 26 222 705
leaf_count=25355 159623 8491 9248 8443 3371 493 1366 181 45 38 26 26 222 705
internal_value=0 -6.50812e-05 -0.000375061 -0.000753741 7.26281e-05 0.000917219 0.00249232 0.00450367 0.000515902 0.010703 0.0169828 0.0259257 0.00676389 0.00803116
internal_weight=0 58010 32655 17691 14964 6473 3102 1736 628 135 90 52 1108 927
internal_count=217633 58010 32655 17691 14964 6473 3102 1736 628 135 90 52 1108 927
shrinkage=0.15


Tree=854
num_leaves=15
num_cat=0
split_feature=10 20 14 20 23 21 1 1 14 23 30 25 16 36
split_gain=0.0127662 0.212664 0.125841 0.107194 0.198921 0.186862 1.19027 2.43948 1.15509 1.3035 0.959954 0.697225 0.728721 0.670127
threshold=2.1748400000000003e-05 9.4321850000000023 0.010291600000000001 -8.0805949999999971 -7.644499999999999 7.2885650000000011 6.5280850000000008 10.151550000000002 0.0007585545000000001 -10.428949999999999 0.0014166650000000003 0.89987700000000015 2.9115650000000008e-07 -0.00026615549999999997
decision_type=2 2 2 2 2 2 2 2 2 2 2 2 2 2
left_child=1 3 -3 -1 5 -5 -7 8 9 -8 11 12 13 -11
right_child=-2 2 -4 4 -6 6 7 -9 -10 10 -12 -13 -14 -15
leaf_value=0.00053156838314676752 -2.1609703278209576e-05 0.0014910892156474276 -0.00039569498219481396 -5.9863733524838952e-05 -0.00070597892554990756 -0.00079445380605125382 -0.0046628898156406747 -0.004332843544101966 0.0023300600220548459 0.028645390236207584 -0.0014329529820113545 0.037697071015513346 0.00091223813686519865 0.013969690883711267
leaf_weight=6808 160755 3435 1035 32072 9783 2529 71 420 294 127 54 44 50 156
leaf_count=6808 160755 3435 1035 32072 9783 2529 71 420 294 127 54 44 50 156
internal_value=0 6.10758e-05 0.00105422 -2.36315e-05 -0.000106522 5.72129e-05 0.00105985 0.00491638 0.00979662 0.0141695 0.0172718 0.019951 0.0176062 0.0205556
internal_weight=0 56878 4470 52408 45600 35817 3745 1216 796 502 431 377 333 283
internal_count=217633 56878 4470 52408 45600 35817 3745 1216 796 502 431 377 333 283
shrinkage=0.15


Tree=855
num_leaves=15
num_cat=0
split_feature=4 38 24 4 25 3 3 23 23 23 9 23 11 20
split_gain=0.0153591 0.0728914 0.132278 0.670895 0.730404 0.741706 1.62516 2.4786 1.9122 1.39477 1.04038 1.00618 0.904324 2.31925
threshold=0.11543250000000001 -0.0032950249999999996 0.17860850000000003 0.30999400000000005 0.50646200000000008 -10.344549999999998 -7.6814349999999996 -7.6733199999999995 -10.484749999999998 -10.108199999999998 2.5093000000000002e-05 -7.6939949999999993 2.2449700000000005e-06 -0.94117499999999987
decision_type=2 2 2 2 2 2 2 2 2 2 2 2 2 2
left_child=-1 -2 -3 4 -4 9 7 8 -7 10 -6 -8 -10 -14
right_child=1 2 3 -5 5 6 11 -9 12 -11 -12 -13 13 -15
leaf_value=-2.9614876547516731e-05 -0.00027484377758447384 3.2717805158989379e-05 -0.00046311513420191006 -0.00026628423842355481 0.0061290042642813706 -0.008776029108920275 -0.0037709826937516039 -0.0065106713465502243 0.015254999619037975 -0.0045713332211714322 0.038096883692296926 0.007531363375571273 -0.012862162905366858 0.037686828987830767
leaf_weight=140198 12707 55870 1144 5906 109 53 369 120 213 413 29 341 24 137
leaf_count=140198 12707 55870 1144 5906 109 53 369 120 213 413 29 341 24 137
internal_value=0 5.36185e-05 0.0001181 0.000656632 0.00250309 0.00437993 0.00639142 0.0125362 0.017889 -0.000208874 0.0128469 0.00165733 0.0216677 0.0301516
internal_weight=0 77435 64728 8858 2952 1808 1257 547 427 551 138 710 374 161
internal_count=217633 77435 64728 8858 2952 1808 1257 547 427 551 138 710 374 161
shrinkage=0.15


Tree=856
num_leaves=15
num_cat=0
split_feature=16 36 16 34 0 3 3 20 21 26 16 21 20 11
split_gain=0.0163156 0.0525834 0.490632 0.494799 0.443743 0.630491 0.607308 0.655814 0.360132 0.331278 0.295759 0.316268 0.267669 0.307715
threshold=-1.0956549999999998e-06 -0.0048763099999999992 -3.8224499999999993e-06 0.18784850000000003 -4.9512199999999984 -11.150499999999999 -6.3853549999999988 -4.2474399999999992 8.8178850000000022 0.00038798150000000003 -2.7253799999999992e-06 4.8214100000000011 -4.5622399999999983 -4.9299749999999995e-05
decision_type=2 2 2 2 2 2 2 2 2 2 2 2 2 2
left_child=1 2 -1 4 12 -6 7 -7 9 10 -9 -12 13 -4
right_child=-2 -3 3 -5 5 6 -8 8 -10 -11 11 -13 -14 -15
leaf_value=-0.00018464633752241058 -2.568141180649612e-05 5.5934486975038317e-06 -0.0074971353418368377 0.00093801446709389181 -0.00027915792997421101 6.0116015374660494e-05 -0.00082031864807984944 0.016904395202767441 0.0073009514787372607 0.0087873048270526131 0.027673763067201328 0.049545860556619511 -0.0019818696862175427 0.014079499645068324
leaf_weight=7487 156458 51551 20 1520 107 40 53 33 32 23 51 21 179 58
leaf_count=7487 156458 51551 20 1520 107 40 53 33 32 23 51 21 179 58
internal_value=0 6.56814e-05 0.000387543 0.00239221 0.00597468 0.00937352 0.0134559 0.0172391 0.0215338 0.025092 0.0286635 0.0340531 0.00121367 0.00854703
internal_weight=0 61175 9624 2137 617 360 253 200 160 128 105 72 257 78
internal_count=217633 61175 9624 2137 617 360 253 200 160 128 105 72 257 78
shrinkage=0.15


Tree=857
num_leaves=15
num_cat=0
split_feature=16 36 2 22 4 28 25 18 22 11 3 30 36 16
split_gain=0.0145289 0.0597144 0.0648117 0.399144 1.09512 1.05209 0.748551 0.368937 0.341512 0.201537 0.26469 0.140425 0.11249 0.244083
threshold=-2.2582199999999995e-06 -0.00016185449999999999 2.7568000000000006 2.7790800000000004 -0.041887649999999992 0.0010969400000000002 4.9136550000000012 1.0568850000000002e-06 2.4063700000000003 -8.5217949999999993e-05 -10.010399999999999 0.00038998350000000006 9.5141850000000008e-05 -7.7223649999999984e-06
decision_type=2 2 2 2 2 2 2 2 2 2 2 2 2 2
left_child=1 -1 -3 8 12 -6 7 11 -4 -10 -11 -7 -5 -14
right_child=-2 2 3 4 5 6 -8 -9 9 10 -12 -13 13 -15
leaf_value=-0.00011158658919262251 -2.2125730394201296e-05 0.00013688777932900306 0.00075942675262828413 0.0015495043532649541 -0.0047337584902899313 0.028757295212910872 -0.0010294989703900435 0.041194353429946692 -0.0025390426061130708 -0.023661593094484172 -0.0026001656726002691 0.011571552318055183 -0.0011815252380135159 -0.01922159642692552
leaf_weight=23437 164138 27233 2409 46 42 23 22 37 100 29 25 20 45 27
leaf_count=23437 164138 27233 2409 46 42 23 22 37 100 29 25 20 45 27
internal_value=0 6.78881e-05 0.000207829 0.000891704 0.00646832 0.015247 0.0234744 0.030213 0.00032164 -0.00652659 -0.0139109 0.0207639 -0.0042447 -0.00794655
internal_weight=0 53495 30058 2825 262 144 102 80 2563 154 54 43 118 72
internal_count=217633 53495 30058 2825 262 144 102 80 2563 154 54 43 118 72
shrinkage=0.15


Tree=858
num_leaves=15
num_cat=0
split_feature=13 22 1 1 23 4 18 2 0 14 22 2 23 3
split_gain=0.0134976 0.127799 0.34026 0.352976 0.416741 0.264697 0.296718 0.198776 0.186322 0.179599 0.145263 0.605879 1.17659 1.05132
threshold=-3.292609999999999e-05 2.6634450000000007 2.2456700000000005 6.7903100000000007 -9.8659199999999974 -0.68792049999999982 -1.4113149999999997e-05 2.3859450000000004 -5.7675899999999993 0.00093592300000000007 2.1073400000000002 2.1084950000000005 -9.355299999999998 -9.0501149999999981
decision_type=2 2 2 2 2 2 2 2 2 2 2 2 2 2
left_child=1 10 -3 4 5 -4 7 -7 -8 -6 -1 -12 13 -13
right_child=-2 2 3 -5 9 6 8 -9 -10 -11 11 12 -14 -15
leaf_value=8.2331648071471076e-05 -1.2651096540774232e-05 0.0006726177159153251 -0.001462603971688828 0.0023527938226488576 -0.0070271039553737305 -0.011288836729040162 -7.7416093372448816e-05 -0.028215861914528378 -0.012424275825469521 0.0013119298712283905 -0.00094728331392795247 0.012668572389973168 -0.0023729190000246736 -0.0027355982265977845
leaf_weight=18811 195240 942 62 163 87 27 40 37 88 175 1078 398 352 133
leaf_count=18811 195240 942 62 163 87 27 40 37 88 175 1078 398 352 133
internal_value=0 0.000110302 -0.00117246 -0.0037322 -0.0056544 -0.00998386 -0.0127355 -0.0210748 -0.00856588 -0.00145714 0.000210406 0.00143897 0.0043522 0.00881028
internal_weight=0 22393 1621 679 516 254 192 64 128 262 20772 1961 883 531
internal_count=217633 22393 1621 679 516 254 192 64 128 262 20772 1961 883 531
shrinkage=0.15


Tree=859
num_leaves=15
num_cat=0
split_feature=5 21 28 8 22 23 16 23 2 32 21 6 13 21
split_gain=0.0125114 0.0741192 0.109158 0.0923018 0.145333 0.0670736 0.0840503 0.371218 0.0693392 0.0641674 0.0634702 0.143472 0.227098 0.0818094
threshold=7.2568900000000009e-06 4.6107400000000007 -0.004164934999999999 -5.7785349999999989e-06 1.3299150000000002 -17.603099999999994 1.6983350000000002e-06 -12.104349999999998 -0.6081749999999998 0.31033450000000001 -1.4529649999999996 -1.0736799999999999e-06 1.1899350000000002e-06 -7.1421249999999992
decision_type=2 2 2 2 2 2 2 2 2 2 2 2 2 2
left_child=1 2 5 4 -4 8 10 -8 9 -1 13 -12 -13 -7
right_child=-2 -3 3 -5 -6 6 7 -9 -10 -11 11 12 -14 -15
leaf_value=-0.013380551759619264 -3.9539525883425157e-06 0.0016187057426784255 -0.00050301182477473835 -0.0016386954512966228 0.01187394723528996 0.0025468202647633423 0.02223427424652745 -0.0005214183157982511 0.001371795463793595 -0.0015087734974388565 -0.0049768909362187096 0.00029596499350321076 0.020180467322643378 -0.0010336613957252962
leaf_weight=20 215034 722 74 954 30 253 23 54 42 21 22 28 24 332
leaf_count=20 215034 722 74 954 30 253 23 54 42 21 22 28 24 332
internal_value=0 0.000327139 -0.00016967 -0.00117611 0.00306726 0.00113046 0.00158632 0.00627574 -0.00291181 -0.00729988 0.00103839 0.00517739 0.00947343 0.00051482
internal_weight=0 2599 1877 1058 104 819 736 77 83 41 659 74 52 585
internal_count=217633 2599 1877 1058 104 819 736 77 83 41 659 74 52 585
shrinkage=0.15


Tree=860
num_leaves=15
num_cat=0
split_feature=2 32 3 19 29 33 12 33 23 22 13 22 1 6
split_gain=0.0124569 0.0874932 0.126534 0.148554 0.167609 0.132062 0.138017 0.134119 0.100804 0.0963717 0.644644 1.12457 0.676645 0.643933
threshold=-1.0357749999999999 -0.039230949999999994 -6.1661399999999995 3.8227350000000008e-08 -0.016689499999999996 -2.3300049999999997e-07 -8.6358149999999986e-05 -7.6668749999999993e-06 -10.156499999999999 -1.0302249999999997 -6.8888199999999989e-06 -0.16518399999999997 -11.455549999999999 3.8136750000000007e-07
decision_type=2 2 2 2 2 2 2 2 2 2 2 2 2 2
left_child=1 2 3 4 -1 6 8 -8 -6 -3 11 12 -11 -14
right_child=-2 9 -4 -5 5 -7 7 -9 -10 10 -12 -13 13 -15
leaf_value=0.0034053160884387206 -2.5827184346288057e-05 0.00013553686328303567 -0.0003430624954821876 0.00027934271644708305 -0.0071512885893066846 0.0017360021111128292 0.0020363477109362309 -0.0019395598548828409 -0.00073882589587257201 0.00010091426722947111 2.0641442826420062e-05 0.00024013917343142764 -0.001611084750493319 -0.0099038552634277723
leaf_weight=727 143373 26127 5581 15497 106 1438 471 321 115 359 20760 1741 298 719
leaf_count=727 143373 26127 5581 15497 106 1438 471 321 115 359 20760 1741 298 719
internal_value=0 4.98643e-05 0.000283637 0.000470925 0.00140515 0.000811869 -0.000499981 0.0004249 -0.00381449 -6.35345e-05 -0.000281365 -0.0022928 -0.00549764 -0.00747392
internal_weight=0 74260 24256 18675 3178 2451 1013 792 221 50004 23877 3117 1376 1017
internal_count=217633 74260 24256 18675 3178 2451 1013 792 221 50004 23877 3117 1376 1017
shrinkage=0.15


Tree=861
num_leaves=15
num_cat=0
split_feature=6 33 22 2 20 19 3 12 7 22 9 33 3 21
split_gain=0.0134026 0.12816 0.12648 0.592363 0.917475 1.50178 1.597 0.800612 0.534101 0.509883 0.481955 0.566868 0.378233 0.355666
threshold=-1.8930799999999998e-06 9.3338250000000019e-07 1.1181450000000004 1.1228550000000002 2.2507550000000003 2.0955950000000004e-06 -6.3575099999999987 2.5800150000000004e-05 5.8493000000000004e-05 1.4079700000000002 1.4404950000000002e-05 -3.6648949999999995e-06 -6.7134699999999992 3.5574300000000005
decision_type=2 2 2 2 2 2 2 2 2 2 2 2 2 2
left_child=1 2 13 7 -5 6 10 -4 9 12 11 -6 -9 -1
right_child=-2 -3 3 4 5 -7 -8 8 -10 -11 -12 -13 -14 -15
leaf_value=-0.000419062356948231 2.4514760954119381e-05 0.00017342418601683178 -0.00040577654105504251 -0.00072382431070575721 -0.0002519019746354648 9.613238743497731e-05 0.0015111784976817523 -0.014002330508243604 -0.00091433161083205052 -0.0036570983840340568 0.037667919554620642 0.035033849040046333 -0.0040339043433079494 0.00077640613083175308
leaf_weight=22106 151796 29828 3555 963 21 256 78 272 550 498 66 20 125 7499
leaf_count=22106 151796 29828 3555 963 21 256 78 272 550 498 66 20 125 7499
internal_value=0 -5.65221e-05 -0.000246998 -0.000851439 0.00187102 0.00753731 0.0178343 -0.0016159 -0.00459307 -0.00685375 0.0297334 0.0169607 -0.0108637 -0.000116248
internal_weight=0 65837 36009 6404 1404 441 185 5000 1445 895 107 41 397 29605
internal_count=217633 65837 36009 6404 1404 441 185 5000 1445 895 107 41 397 29605
shrinkage=0.15


Tree=862
num_leaves=15
num_cat=0
split_feature=0 29 20 0 11 0 20 14 34 14 6 21 2 22
split_gain=0.0132024 0.238674 0.183766 0.376311 0.389317 0.295533 0.676371 0.657558 0.550428 0.37304 0.400888 0.669048 0.298978 0.488318
threshold=-5.0859099999999993 -0.0015173299999999997 -4.936799999999999 -8.3489949999999968 -7.5258799999999992e-05 -7.230624999999999 -7.0998299999999999 0.0007810015000000002 0.087393000000000012 8.198710000000002e-05 -6.2594649999999992e-06 -4.5469049999999989 -2.6547699999999996 -2.6828649999999992
decision_type=2 2 2 2 2 2 2 2 2 2 2 2 2 2
left_child=1 -1 5 -4 -5 -3 -7 8 9 -8 11 -11 -12 -14
right_child=-2 2 3 4 -6 6 7 -9 -10 10 12 -13 13 -15
leaf_value=0.00027947145300912641 2.2271960232371563e-05 -0.00045101757789338945 4.2428600785695716e-05 -0.00014668023553327113 -0.0022242674103546832 -0.0005230922355028947 -0.00065030409016456319 0.00020594129421171764 2.8360491275012271e-05 0.032535031356068479 -0.0011274501070147381 -4.3444202658619086e-05 -0.0052854957930523793 0.0096056794704453986
leaf_weight=25733 159623 10032 8217 3407 5019 3192 122 1147 342 37 84 23 54 601
leaf_count=25733 159623 10032 8217 3407 5019 3192 122 1147 342 37 84 23 54 601
internal_value=0 -6.12846e-05 -0.000332954 -0.000679847 -0.00138421 3.63276e-05 0.00090906 0.00280592 0.0051671 0.0070753 0.00825493 0.0200466 0.00729755 0.00837801
internal_weight=0 58010 32277 16643 8426 15634 5602 2410 1263 921 799 60 739 655
internal_count=217633 58010 32277 16643 8426 15634 5602 2410 1263 921 799 60 739 655
shrinkage=0.15


Tree=863
num_leaves=15
num_cat=0
split_feature=22 6 33 3 19 19 12 33 33 9 22 9 7 9
split_gain=0.0142449 0.0890472 0.111676 0.110622 0.109046 0.106042 0.17702 0.243106 0.498685 0.379482 0.475069 0.354823 0.315066 0.237654
threshold=-2.5339749999999994 -8.1766949999999984e-08 -1.0903599999999997e-06 -8.1765499999999971 0.00012604750000000004 6.1393400000000009e-06 -6.3361649999999983e-05 -3.4290999999999995e-06 -1.2997349999999997e-05 -2.5829599999999997e-05 -2.6579249999999996 -2.1394549999999997e-05 4.2972350000000005e-05 -4.5196699999999994e-05
decision_type=2 2 2 2 2 2 2 2 2 2 2 2 2 2
left_child=1 2 3 5 -4 6 7 8 9 10 13 -10 -12 -1
right_child=-2 -3 4 -5 -6 -7 -8 -9 11 -11 12 -13 -14 -15
leaf_value=0.011832333364240501 -1.2501525777605626e-05 0.00043157178037543171 0.0017589540910997563 0.00016010565109438109 -0.00077687674249251758 -0.00023110486290365415 -0.00079240670968152508 0.0015507920999662018 -0.016451452698118214 -0.0066200904627281409 0.031277084851171817 -0.0042986079354544494 0.0055347729352829243 -0.0056529894238337873
leaf_weight=23 196753 10306 1150 4161 571 2488 1556 150 115 142 20 102 23 73
leaf_count=23 196753 10306 1150 4161 571 2488 1556 150 115 142 20 102 23 73
internal_value=0 0.000117802 -0.000188015 -0.000402944 0.000917606 -0.000902273 -0.00165993 -0.00374304 -0.00533757 -0.00116632 0.00440516 -0.0107391 0.0175079 -0.0014638
internal_weight=0 20880 10574 8853 1721 4692 2204 648 498 281 139 217 43 96
internal_count=217633 20880 10574 8853 1721 4692 2204 648 498 281 139 217 43 96
shrinkage=0.15


Tree=864
num_leaves=15
num_cat=0
split_feature=22 1 6 1 13 1 12 1 37 0 12 27 27 1
split_gain=0.0129768 0.0501103 0.0755274 0.194839 0.142572 0.126641 0.124516 0.177524 0.515723 0.434091 0.216684 0.125439 0.106026 0.247584
threshold=3.0022850000000001 6.9947500000000007 1.4773500000000001e-06 1.1794150000000003 -3.1817149999999993e-06 2.9888350000000004 1.0000000180025095e-35 0.71710000000000007 -8.174709999999999e-08 -4.2354849999999997 1.4612150000000002e-05 0.87970300000000012 0.27514450000000007 1.0000000180025095e-35
decision_type=2 2 2 2 2 2 2 2 2 2 2 2 2 2
left_child=-1 2 6 12 5 -5 -2 8 9 10 -8 -10 -4 -14
right_child=1 -3 3 4 -6 -7 7 -9 11 -11 -12 -13 13 -15
leaf_value=-5.5578056405230976e-06 -0.00036649751067046536 0.001261650481656249 -0.0020263659688632076 -0.012051763495282185 -0.00026451020321186853 -0.0039819081287524255 0.015290357876569034 0.00097362313574143227 0.001847497606505218 -0.00073158413699433284 0.036237549176439642 -0.012008875234252108 0.000986088699445938 0.017224987453796942
leaf_weight=212735 1641 887 263 55 190 214 25 957 49 23 20 21 531 22
leaf_count=212735 1641 887 263 55 190 214 25 957 49 23 20 21 531 22
internal_value=0 0.000241392 1.57706e-05 -0.000937728 -0.00341009 -0.00563188 0.000460109 0.00169889 0.00672844 0.0160321 0.0246002 -0.00230941 0.000452976 0.00163212
internal_weight=0 4898 4011 1275 459 269 2736 1095 138 68 45 70 816 553
internal_count=217633 4898 4011 1275 459 269 2736 1095 138 68 45 70 816 553
shrinkage=0.15


Tree=865
num_leaves=15
num_cat=0
split_feature=2 28 7 2 22 22 22 7 1 27 19 3 14 3
split_gain=0.0132296 0.302868 0.287439 0.222206 1.95963 3.44455 1.02755 0.826843 0.756421 1.01318 0.616704 0.795693 0.555904 0.814871
threshold=1.1736800000000003 0.0014804350000000002 5.2015850000000008e-05 1.4407450000000004 1.1415700000000002 1.4463850000000003 1.6880500000000003 2.5940500000000003e-05 9.0836400000000008 0.27809050000000007 3.7476600000000006e-05 -6.1920449999999994 0.0052402850000000008 -6.3035799999999993
decision_type=2 2 2 2 2 2 2 2 2 2 2 2 2 2
left_child=-1 -2 3 4 10 7 -7 8 9 -6 11 -3 13 -9
right_child=1 2 -4 -5 5 6 -8 12 -10 -11 -12 -13 -14 -15
leaf_value=2.4940830373776038e-05 0.00024622002322674866 -0.011465016372539697 0.00027951750290909882 -0.00048649039013865609 0.0087955079258194777 -0.011264898964713868 -0.0011590630381342138 0.01431207308192349 0.0070752106767887355 0.044595887131341119 -0.00074803345546959981 -0.00091774319383564886 -0.0013265228781892803 -0.0023606455746884485
leaf_weight=149597 35716 649 10026 18890 29 271 1375 283 51 46 280 214 120 86
leaf_count=149597 35716 649 10026 18890 29 271 1375 283 51 46 280 214 120 86
internal_value=0 -5.48397e-05 -0.000387533 -0.000687517 -0.00180309 0.000755832 -0.0028229 0.010334 0.0211692 0.0307531 -0.00686495 -0.00884959 0.00754216 0.0104263
internal_weight=0 68036 32320 22294 3404 2261 1646 615 126 75 1143 863 489 369
internal_count=217633 68036 32320 22294 3404 2261 1646 615 126 75 1143 863 489 369
shrinkage=0.15


Tree=866
num_leaves=15
num_cat=0
split_feature=10 21 8 23 17 29 13 8 23 33 8 13 23 11
split_gain=0.0120872 0.0885071 0.164376 0.251853 0.176144 0.151021 0.257249 0.263458 0.641191 0.251488 0.219705 0.241167 0.213347 0.190398
threshold=2.1748400000000003e-05 -9.6841449999999991 1.8886500000000006e-05 -7.780594999999999 4.2817350000000011e-08 -0.0017085599999999998 -6.8888199999999989e-06 1.2644700000000003e-05 -7.8351449999999998 3.0210100000000007e-06 1.3417550000000002e-05 2.6202900000000003e-05 -6.907004999999999 1.6444850000000002e-05
decision_type=2 2 2 2 2 2 2 2 2 2 2 2 2 2
left_child=1 2 5 -4 -5 6 7 13 -9 -10 -8 12 -12 -1
right_child=-2 -3 3 4 -6 -7 10 8 9 -11 11 -13 -14 -15
leaf_value=0.0040640942133643417 -2.1027245593784547e-05 0.00011515032695025607 0.018946936208521944 -0.0085968243096990939 0.0073422540888154449 -0.0012656531705236122 0.00028911578461007401 0.032052683492656796 0.011900486082545127 -0.0088574059423990534 -0.016875592586382902 0.0021744037171596243 -0.003152640119951684 -0.0043465086922407394
leaf_weight=240 160755 52245 24 26 39 3162 827 24 29 24 52 55 50 81
leaf_count=240 160755 52245 24 26 39 3162 827 24 29 24 52 55 50 81
internal_value=0 5.94296e-05 -0.000568917 0.00581525 0.000966623 -0.000693959 0.00061407 0.00383195 0.0117117 0.00250069 -0.000687471 -0.00583166 -0.0101487 0.00194179
internal_weight=0 56878 4633 89 65 4544 1382 398 77 53 984 157 102 321
internal_count=217633 56878 4633 89 65 4544 1382 398 77 53 984 157 102 321
shrinkage=0.15


Tree=867
num_leaves=15
num_cat=0
split_feature=2 28 21 31 3 6 27 21 20 21 25 21 21 3
split_gain=0.0128519 0.0723786 0.0480927 0.0595648 0.117196 0.0546149 0.0373305 0.0325854 0.0636838 0.0285265 0.0271708 0.0203376 0.0312932 0.021741
threshold=3.0791950000000008 0.0041661550000000004 2.3962650000000001 0.075049950000000018 -9.095419999999999 4.7807800000000005e-07 0.23011750000000003 0.35508750000000006 -7.2112649999999991 -4.8424999999999994 0.7467410000000001 0.84386300000000014 0.097500650000000008 -6.4440149999999994
decision_type=2 2 2 2 2 2 2 2 2 2 2 2 2 2
left_child=-1 2 3 11 -5 -4 -7 -3 -9 -6 -11 12 13 -2
right_child=1 7 5 4 9 6 -8 8 -10 10 -12 -13 -14 -15
leaf_value=2.2580992910429781e-06 -0.0026349438874529703 0.0060615975184944168 0.0070193681121704038 -0.013678456814912872 -0.0072340871469350528 0.001921790711975728 -0.005597131841204828 -0.0071619225998542134 0.0014410043648563112 -0.0039776121641719531 0.0023026330447699422 -0.0052188552469791217 0.0041611160977045071 1.1882334533731778e-05
leaf_weight=216801 147 29 28 28 21 39 24 21 248 31 31 27 25 133
leaf_count=216801 147 29 28 28 21 39 24 21 248 31 31 27 25 133
internal_value=0 -0.000588412 -0.00163355 -0.00227872 -0.00528682 0.00150726 -0.000942561 0.00128441 0.0007694 -0.00245591 -0.00083749 -0.001273 -0.0009237 -0.0013777
internal_weight=0 832 534 443 111 91 63 298 269 83 62 332 305 280
internal_count=217633 832 534 443 111 91 63 298 269 83 62 332 305 280
shrinkage=0.15


Tree=868
num_leaves=15
num_cat=0
split_feature=20 0 20 0 11 34 0 20 14 34 3 18 24 18
split_gain=0.0127418 0.178381 0.238261 0.409771 0.40655 0.345852 0.310446 0.961002 0.989255 0.578712 0.57767 0.583174 0.554141 1.32239
threshold=0.27425600000000006 -4.4341149999999994 -4.1606849999999991 -6.9153299999999991 -7.5258799999999992e-05 0.078832000000000013 -6.6283299999999992 -6.9911799999999991 0.0007810015000000002 0.074107200000000012 -6.2187599999999987 7.9309250000000023e-06 -0.11368899999999998 -2.1803199999999994e-06
decision_type=2 2 2 2 2 2 2 2 2 2 2 2 2 2
left_child=1 2 6 -4 -5 -6 -1 -8 9 10 11 12 -9 -14
right_child=-2 -3 3 4 5 -7 7 8 -10 -11 -12 -13 13 -15
leaf_value=-0.00036250834903878197 -3.6355098762973799e-05 0.00016532529935451751 -7.2604664031286932e-05 -0.00038459645526064062 -0.0046962030511943842 -0.001329053284417869 -0.00086127884458447835 0.0053759831408741318 0.0004039632255544058 0.0015433350126841106 0.00013940948970020354 -0.0057214461631056937 0.0012081829139471824 0.018702324722595927
leaf_weight=13373 108636 75038 8005 2469 1393 1353 3687 313 2076 573 195 55 138 329
leaf_count=13373 108636 75038 8005 2469 1393 1353 3687 313 2076 573 195 55 138 329
internal_value=0 3.62347e-05 -0.000249012 -0.000746656 -0.00178132 -0.00303715 6.82088e-05 0.000850177 0.00256535 0.00536451 0.00749027 0.00920694 0.0102596 0.0135327
internal_weight=0 108997 33959 13220 5215 2746 20739 7366 3679 1603 1030 835 780 467
internal_count=217633 108997 33959 13220 5215 2746 20739 7366 3679 1603 1030 835 780 467
shrinkage=0.15


Tree=869
num_leaves=15
num_cat=0
split_feature=23 3 14 3 23 14 34 3 23 14 25 36 14 3
split_gain=0.0124778 0.119773 0.272501 0.231433 0.762694 1.58178 0.682683 0.565462 0.761424 0.909296 0.572802 0.659296 0.523334 0.491468
threshold=-7.7292499999999995 -9.196419999999998 0.0039324400000000006 -7.6814349999999996 -7.0815949999999992 0.00037299900000000005 0.033530350000000007 -7.2547399999999991 -7.3218799999999993 0.00039548800000000005 1.1738050000000002 0.00038891000000000007 0.00012151700000000001 -8.3197699999999983
decision_type=2 2 2 2 2 2 2 2 2 2 2 2 2 2
left_child=-1 2 -2 4 5 6 13 8 9 10 11 -5 -13 -3
right_child=1 3 -4 7 -6 -7 -8 -9 -10 -11 -12 12 -14 -15
leaf_value=-2.3663729784124374e-05 0.00080699875177988754 -0.0050581251645637369 -0.0001555208022967786 0.008344996258719789 0.00021358828489274838 -2.0999323408370989e-05 -0.0012112277628571282 -0.00014643022526036599 0.00059868096686874683 -0.0011423008098863647 -1.0453934385257911e-05 0.0021894972072914244 0.027338907282507742 -0.011938463271016027
leaf_weight=151758 12582 431 13962 374 6585 2138 374 25665 2720 300 127 24 83 510
leaf_count=151758 12582 431 13962 374 6585 2138 374 25665 2720 300 127 24 83 510
internal_value=0 5.45148e-05 0.000300719 -0.000111645 -0.000733222 -0.00253883 -0.00663245 0.000101354 0.00185422 0.0056153 0.00894964 0.0113154 0.0216979 -0.00878711
internal_weight=0 65875 26544 39331 10038 3453 1315 29293 3628 908 608 481 107 941
internal_count=217633 65875 26544 39331 10038 3453 1315 29293 3628 908 608 481 107 941
shrinkage=0.15


Tree=870
num_leaves=15
num_cat=0
split_feature=3 27 31 21 19 11 21 3 4 23 4 15 18 35
split_gain=0.0109058 0.0760211 0.0767113 0.0927334 0.231971 0.0847398 0.0925372 0.125458 0.145117 0.119118 0.181977 0.413055 1.09184 0.6888
threshold=-7.0077899999999991 0.86747050000000014 -0.0049593399999999987 -13.890549999999999 6.4831450000000011e-08 9.8314350000000029e-06 -12.332599999999998 -5.7833549999999994 0.12699950000000002 -6.9496149999999988 0.17832100000000004 -4.146919999999999e-08 -1.0730149999999997e-06 0.0004520525000000001
decision_type=2 2 2 2 2 2 2 2 2 2 2 2 2 2
left_child=-1 2 5 4 -4 -2 7 8 -7 -8 11 -11 -13 -14
right_child=1 -3 3 -5 -6 6 9 -9 -10 10 -12 12 13 -15
leaf_value=-2.4105585667926886e-05 0.00015859493383655639 -0.00015669102775349791 0.019383948678150773 0.00033096791495045794 -0.00086675512558680818 -0.018771959109062663 -0.00070617608120231786 0.0010319600194634404 -0.0014715577068272977 -0.0011454671111764405 -0.002331147524732625 0.03253051456180401 -0.00024511390953228091 0.012336613717885019
leaf_weight=143617 15739 26516 20 24478 35 24 5756 36 20 543 315 30 371 133
leaf_count=143617 15739 26516 20 24478 35 24 5756 36 20 543 315 30 371 133
internal_value=0 4.67733e-05 0.000160354 0.000344792 0.00649714 -3.66606e-05 -0.00046183 -0.0055351 -0.0109081 -0.000405051 0.00084012 0.00176765 0.00472986 0.00307506
internal_weight=0 74016 47500 24533 55 22967 7228 80 44 7148 1392 1077 534 504
internal_count=217633 74016 47500 24533 55 22967 7228 80 44 7148 1392 1077 534 504
shrinkage=0.15


Tree=871
num_leaves=15
num_cat=0
split_feature=21 1 23 18 38 3 3 1 19 12 23 3 17 1
split_gain=0.011207 0.257462 0.247603 0.308716 0.589049 0.171594 0.0578747 0.136579 0.39289 0.409835 0.119514 0.221852 0.165903 0.196338
threshold=13.390900000000002 12.043950000000001 -7.162399999999999 2.8293550000000005e-07 -0.00013551899999999999 -5.4421899999999992 -6.493739999999999 9.9796450000000014 2.1691500000000004e-05 6.5907450000000009e-05 -6.4159099999999993 -5.753169999999999 2.0335950000000003e-07 -4.1998849999999992
decision_type=2 2 2 2 2 2 2 2 2 2 2 2 2 2
left_child=-1 6 -3 5 -5 -4 7 -2 9 -9 -8 12 13 -12
right_child=1 2 3 4 -6 -7 10 8 -10 -11 11 -13 -14 -15
leaf_value=-4.1890651816666667e-06 7.8396694707444009e-05 -0.0011641039440026665 0.011266845163098831 0.038885390306822955 0.0024798941484186795 -0.0032903576592382576 0.00011940574747118574 0.00021675645940653654 -0.0048786693813404206 0.027464793477621343 -0.0059538390705711208 4.6359845294897569e-05 -0.0017362748407322214 -0.022844765107147395
leaf_weight=214386 2256 72 38 20 20 35 481 23 41 27 32 132 40 30
leaf_count=214386 2256 72 38 20 20 35 481 23 41 27 32 132 40 30
internal_value=0 0.000276587 0.00571064 0.010091 0.0206826 0.00428736 -5.17279e-05 0.000308211 0.0060056 0.0149307 -0.00123324 -0.00401366 -0.00926781 -0.0141269
internal_weight=0 3247 185 113 40 73 3062 2347 91 50 715 234 102 62
internal_count=217633 3247 185 113 40 73 3062 2347 91 50 715 234 102 62
shrinkage=0.15


Tree=872
num_leaves=15
num_cat=0
split_feature=2 21 5 21 22 7 20 12 14 20 2 2 16 3
split_gain=0.0109748 0.0822784 0.263397 0.211181 0.214169 0.259941 0.271826 0.673223 1.3364 0.931264 1.06413 1.0402 0.796101 1.03795
threshold=-1.0357749999999999 -3.5985549999999997 1.9148900000000006e-05 -5.7462299999999988 -0.88145999999999991 5.5860300000000011e-05 -3.1555199999999997 -7.7557999999999992e-05 0.0022836250000000005 2.3761250000000005 -1.2796449999999997 -2.0349049999999997 8.2307000000000013e-07 -7.4742849999999992
decision_type=2 2 2 2 2 2 2 2 2 2 2 2 2 2
left_child=1 2 -1 4 5 6 -4 8 9 11 -11 -8 13 -13
right_child=-2 -3 3 -5 -6 -7 7 -9 -10 10 -12 12 -14 -15
leaf_value=-0.00051071279208508228 -2.4242097103488552e-05 0.00016130254332452878 0.00026994349640954642 -0.00052996389358868443 -0.0010978415165866339 0.00056053486566207849 -0.0054545484971354847 0.00046675428774702916 -0.00053483322238386812 -0.0050084920678683939 0.029850842094048854 0.033917548921918055 0.0033192542948381741 0.0082174418615272304
leaf_weight=17078 143373 48667 616 2896 883 2895 35 587 269 93 25 127 40 49
leaf_count=17078 143373 48667 616 2896 883 2895 35 587 269 93 25 127 40 49
internal_value=0 4.6804e-05 -0.000170924 0.00051057 0.00104686 0.00144672 0.00284026 0.00413277 0.00750573 0.0133673 0.00237696 0.018534 0.0224211 0.0267624
internal_weight=0 74260 25593 8515 5619 4736 1841 1225 638 369 118 251 216 176
internal_count=217633 74260 25593 8515 5619 4736 1841 1225 638 369 118 251 216 176
shrinkage=0.15


Tree=873
num_leaves=15
num_cat=0
split_feature=35 16 10 6 36 13 16 6 18 16 34 2 19 20
split_gain=0.0110562 0.0573387 0.0889614 0.0815667 0.141048 0.154082 0.128999 0.119922 0.101428 0.0956543 0.121586 0.166662 0.105401 0.0956312
threshold=0.019767150000000004 1.1666250000000002e-07 9.5245350000000008e-06 2.2141650000000002e-07 -0.60180299999999987 -5.8507799999999996e-05 -5.8856749999999991e-07 1.1377400000000002e-06 -1.5641449999999996e-05 -1.0656299999999998e-05 0.97781150000000017 1.8690500000000003 4.2206300000000004e-07 -1.3626599999999998
decision_type=2 2 2 2 2 2 2 2 2 2 2 2 2 2
left_child=-1 2 -2 6 5 -5 9 8 -7 -4 12 -12 -11 -14
right_child=1 -3 3 4 -6 7 -8 -9 -10 10 11 -13 13 -15
leaf_value=-1.076404531961832e-05 0.0043192115499198647 -0.00019081638190733389 -0.00016103861512854802 0.0092971208210801699 0.00093540826497811301 -0.014327621380057694 0.00057749135533402432 -0.0013480621696191466 -0.0036132420126814397 0.00028184983347295556 0.00023435860813812498 -0.011445637537238732 -0.0020917782164141152 -0.0067656391449241859
leaf_weight=197603 124 8453 1955 25 4836 33 3206 268 50 123 527 29 174 227
leaf_count=197603 124 8453 1955 25 4836 33 3206 268 50 123 527 29 174 227
internal_value=0 0.000106191 0.000323052 0.000279787 0.000717826 -0.00208065 -8.60298e-05 -0.00289104 -0.00787318 -0.000786935 -0.00191992 -0.00037485 -0.00355935 -0.00473758
internal_weight=0 20030 11577 11453 5212 376 6241 351 83 3035 1080 556 524 401
internal_count=217633 20030 11577 11453 5212 376 6241 351 83 3035 1080 556 524 401
shrinkage=0.15


Tree=874
num_leaves=15
num_cat=0
split_feature=16 28 10 37 16 3 10 35 9 26 29 3 16 20
split_gain=0.0113789 0.0394859 0.149429 0.0890602 0.130388 0.117017 0.12424 0.0476068 0.0396093 0.0374101 0.0330765 0.0329117 0.0982693 0.0885842
threshold=-2.2582199999999995e-06 1.0239200000000002 1.2929700000000001e-05 0.00019757500000000005 -2.9572449999999995e-05 -7.8541999999999996 3.1340300000000009e-05 0.32650700000000005 -5.0923699999999988e-05 -0.0022306899999999996 2.0482950000000004 -16.559399999999997 1.1091500000000002e-05 -4.8346449999999992
decision_type=2 2 2 2 2 2 2 2 2 2 2 2 2 2
left_child=1 -1 -3 4 7 6 -6 9 -5 -4 -10 12 13 -2
right_child=11 2 3 8 5 -7 -8 -9 10 -11 -12 -13 -14 -15
leaf_value=7.087844838553513e-05 0.0022256955763744748 0.011135386282985564 0.0052107271731634116 0.0061487967986740052 -0.023022733591496945 -0.0023968380663973222 -0.0068576619970490754 -0.0068725302855734928 0.00037336275352572556 -0.0015520317124485571 -0.0062154805928003043 -3.2775863239925936e-05 -0.00034277841857819437 0.00042963291798277752
leaf_weight=53122 817 20 26 23 20 32 23 26 120 63 20 158039 2747 2535
leaf_count=53122 817 20 26 23 20 32 23 26 120 63 20 158039 2747 2535
internal_value=0 6.00797e-05 -0.00147786 -0.00219249 -0.00439929 -0.00926506 -0.0143763 -0.00122596 0.000379854 0.000423606 -0.000567901 -1.95809e-05 0.000322332 0.000867396
internal_weight=0 53495 373 353 190 75 43 115 163 89 140 164138 6099 3352
internal_count=217633 53495 373 353 190 75 43 115 163 89 140 164138 6099 3352
shrinkage=0.15


Tree=875
num_leaves=15
num_cat=0
split_feature=14 23 34 3 12 38 23 20 16 26 9 23 3 35
split_gain=0.0107962 0.0654534 0.0793755 0.121377 0.265893 0.261656 0.213304 0.187071 0.498803 0.285823 0.277685 0.274009 0.284648 0.254797
threshold=7.8716300000000004e-05 -13.010249999999997 0.008249755000000001 -6.2768299999999995 -2.8975799999999998e-05 -6.0115999999999992e-05 -6.2906249999999995 9.8638550000000009 7.0679000000000007e-08 -8.7016399999999982e-05 2.5093000000000002e-05 -6.9680999999999989 -6.8865649999999992 0.00015125800000000003
decision_type=2 2 2 2 2 2 2 2 2 2 2 2 2 2
left_child=1 -1 3 4 5 -3 7 10 9 -9 -6 -12 -13 -14
right_child=-2 2 -4 -5 6 -7 -8 8 -10 -11 11 12 13 -15
leaf_value=-0.00029762850260216012 -1.4070751969737317e-05 -0.024367058709945662 0.00035203268530288704 5.4531683368293753e-05 -0.00066877922023427796 -0.0048701573879521157 0.0044378292922296423 -0.022661479962989686 0.0077552461599068069 -0.0021179887204198166 -0.0026633738195481031 -0.0011538327056474077 -0.011672798980528615 -0.030004218849353489
leaf_weight=7875 184845 21 18747 4991 454 59 140 20 133 64 164 37 59 24
leaf_count=7875 184845 21 18747 4991 454 59 140 20 133 64 164 37 59 24
internal_value=0 7.9325e-05 0.00019848 -0.000268379 -0.00163999 -0.00998809 -0.00103009 -0.00183167 0.00203994 -0.0070093 -0.00297006 -0.00664888 -0.0120957 -0.0169735
internal_weight=0 32788 24913 6166 1175 80 1095 955 217 84 738 284 120 83
internal_count=217633 32788 24913 6166 1175 80 1095 955 217 84 738 284 120 83
shrinkage=0.15


Tree=876
num_leaves=15
num_cat=0
split_feature=4 38 18 34 4 37 13 25 34 14 14 34 4 6
split_gain=0.0111853 0.14457 0.12756 0.186438 0.104509 0.315715 0.947731 0.577307 0.90249 0.613512 0.790532 1.08878 0.582707 0.559731
threshold=0.22843500000000003 -2.0591449999999997e-05 0.00081348900000000014 0.021914400000000004 0.92173400000000016 -2.2793399999999998e-07 8.4862800000000007e-06 1.4201850000000003 0.97781150000000017 0.00027515900000000003 0.0011247700000000002 0.15042300000000003 0.41110300000000005 1.3558200000000001e-06
decision_type=2 2 2 2 2 2 2 2 2 2 2 2 2 2
left_child=-1 4 3 -3 5 6 7 -2 9 -9 12 -12 13 -11
right_child=1 2 -4 -5 -6 -7 -8 8 -10 10 11 -13 -14 -15
leaf_value=-2.0846727866911417e-05 0.00033264063200171131 0.001325373949606537 -1.2143321160376795e-05 0.00020597375571838205 1.7662802430916748e-05 -0.0010833628290387654 -0.0026524682960616798 -0.0011690845713325728 -0.0018727658295277158 0.010769796195672825 -0.010250181907239704 0.012771390853158664 0.0083331086049774575 0.032328470036320923
leaf_weight=158185 723 5193 15690 9421 19438 7247 1007 95 214 40 65 160 71 84
leaf_count=158185 723 5193 15690 9421 19438 7247 1007 95 214 40 65 160 71 84
internal_value=0 5.5471e-05 0.000284867 0.000603746 -0.000183056 -0.000585031 0.000883621 0.00333599 0.00631462 0.00971676 0.012179 0.00612071 0.0191694 0.0253741
internal_weight=0 59448 30304 14614 29144 9706 2459 1452 729 515 420 225 195 124
internal_count=217633 59448 30304 14614 29144 9706 2459 1452 729 515 420 225 195 124
shrinkage=0.15


Tree=877
num_leaves=15
num_cat=0
split_feature=6 33 3 14 19 3 14 33 30 4 3 4 5 21
split_gain=0.0105269 0.0868054 0.141791 0.173891 0.183931 0.10855 0.168595 0.157093 0.633165 0.864761 0.524338 0.347495 0.424067 0.503572
threshold=4.3472000000000005e-06 -7.8478199999999993e-06 -6.0822949999999993 0.00027515900000000003 6.8051000000000003e-05 -6.3035799999999993 0.00052710300000000012 2.3124300000000005e-06 0.00014637400000000003 -0.10700099999999999 -6.8865649999999992 0.15498250000000002 2.5967350000000005e-05 4.6107400000000007
decision_type=2 2 2 2 2 2 2 2 2 2 2 2 2 2
left_child=-1 2 3 -2 -5 6 7 -3 9 -9 11 12 13 -11
right_child=1 5 -4 4 -6 -7 -8 8 -10 10 -12 -13 -14 -15
leaf_value=1.4145251835499768e-05 0.002095564174429312 -0.001881384128207683 -0.0004315838873611059 0.014218839593896908 0.00013703828928184755 0.00015136158686222077 -3.1981309792014684e-05 -0.0072192660698559711 -0.0012433970559209662 0.017011123854549656 -0.00042542336737213615 -0.0017520323615023044 0.03180069007212296 0.0031151097028383184
leaf_weight=183835 1666 2861 3230 21 3371 10656 8382 117 3052 133 137 43 24 105
leaf_count=183835 1666 2861 3230 21 3371 10656 8382 117 3052 133 137 43 24 105
internal_value=0 -7.69392e-05 0.000344805 0.000840601 0.000224219 -0.000213961 -0.000476037 -0.00105114 -0.000393337 0.00424778 0.00728317 0.0107457 0.0127969 0.0108805
internal_weight=0 33798 8288 5058 3392 25510 14854 6472 3611 559 442 305 262 238
internal_count=217633 33798 8288 5058 3392 25510 14854 6472 3611 559 442 305 262 238
shrinkage=0.15


Tree=878
num_leaves=15
num_cat=0
split_feature=22 2 21 14 14 6 9 2 16 2 36 17 1 21
split_gain=0.0111544 0.0688526 0.0158777 0.0407093 0.0558427 0.0143109 0.0251688 0.0120606 0.0146483 0.01149 0.0114567 0.0150006 0.0114378 0.316585
threshold=3.1180850000000002 2.9632800000000006 -1.2262049999999998 0.0058968150000000006 0.0005728895000000001 2.0812600000000005e-06 -5.3290949999999992e-05 2.6393150000000003 -1.2413499999999997e-07 -0.91636799999999985 -3.3251549999999988e-05 8.3224350000000009e-07 7.2775700000000008 2.3962650000000001
decision_type=2 2 2 2 2 2 2 2 2 2 2 2 2 2
left_child=12 2 3 4 9 6 -4 8 10 -2 -7 -12 -1 -14
right_child=1 -3 5 -5 -6 7 -8 -9 -10 -11 11 -13 13 -15
leaf_value=1.4051225090712391e-05 -0.00083983244636328888 -0.0077127402768052307 -0.0038990137929266148 -0.0016345699928077761 0.01136593665811233 -0.0032908449429036725 0.00039370814326255811 0.0047035188605077565 0.0022782641337948254 0.0039837755933403969 -0.0019081631525685746 0.0038318512891419229 0.00028367476407272282 -0.00058536052729628622
leaf_weight=177951 20 22 33 34 20 23 447 25 103 25 21 20 22805 16084
leaf_count=177951 20 22 33 34 20 23 447 25 103 25 21 20 22805 16084
internal_value=0 0.000561546 0.000797648 0.00257112 0.00477102 0.000536377 9.85835e-05 0.00163086 0.00117088 0.00183995 -0.00061131 0.000891844 -2.05362e-06 -7.57473e-05
internal_weight=0 793 771 99 65 672 480 192 167 45 64 41 216840 38889
internal_count=217633 793 771 99 65 672 480 192 167 45 64 41 216840 38889
shrinkage=0.15


Tree=879
num_leaves=15
num_cat=0
split_feature=23 3 3 23 14 25 23 3 14 23 30 6 20 1
split_gain=0.00976035 0.270864 0.871102 1.57022 1.41801 1.04362 0.526628 2.07864 1.26556 0.653923 0.684226 0.590082 0.678996 0.574275
threshold=-12.666499999999997 -10.550799999999997 -12.508949999999999 -15.140049999999997 0.0046292850000000012 1.2240550000000001 -13.957949999999999 -13.793399999999998 0.0098545150000000029 -13.412199999999999 0.0027380300000000002 2.0360700000000003e-06 2.0727300000000004 5.588070000000001
decision_type=2 2 2 2 2 2 2 2 2 2 2 2 2 2
left_child=1 2 6 -4 5 -5 -1 -8 9 -9 11 13 -13 -11
right_child=-2 -3 3 4 -6 -7 7 8 -10 10 -12 12 -14 -15
leaf_value=-0.0002587510273671837 -1.8964690827862688e-05 0.00028229947276212845 0.00021512955228732624 -0.0098284943250928417 -0.0003479981080834528 -0.0015761016870475266 -0.00092402140488741572 0.0048324791172262163 -0.0011472321994784789 0.011961101545730579 0.0035027378187298948 0.011107770530203277 0.044896144607628231 0.032237410085674906
leaf_weight=9374 160446 38317 3571 1147 1080 493 2037 335 313 308 122 23 32 35
leaf_count=9374 160446 38317 3571 1147 1080 493 2037 335 313 308 122 23 32 35
internal_value=0 5.3208e-05 -0.00041198 -0.00185311 -0.00456843 -0.00734774 0.000308757 0.00196861 0.00701337 0.0100008 0.0133304 0.0163429 0.0307665 0.0140301
internal_weight=0 57187 18870 6291 2720 1640 12579 3205 1168 855 520 398 55 343
internal_count=217633 57187 18870 6291 2720 1640 12579 3205 1168 855 520 398 55 343
shrinkage=0.15


Tree=880
num_leaves=15
num_cat=0
split_feature=3 23 23 3 13 4 4 30 38 0 22 20 22 37
split_gain=0.0142967 0.237763 0.921882 4.37683 2.55366 1.31301 1.52694 1.89541 1.60274 1.42496 2.736 2.14741 1.67255 0.834534
threshold=-9.6081599999999998 -11.298099999999998 -9.6697249999999979 -11.279499999999997 7.2294550000000021e-05 -0.63345599999999991 0.32538350000000005 0.0039801700000000008 -0.0015235849999999998 -6.4307049999999988 2.5991050000000002 -5.5085599999999983 -2.5059149999999994 -6.1638299999999989e-07
decision_type=2 2 2 2 2 2 2 2 2 2 2 2 2 2
left_child=1 -1 3 -3 5 -5 7 9 -8 11 12 -7 -11 -14
right_child=-2 2 -4 4 -6 6 8 -9 -10 10 -12 -13 13 -15
leaf_value=-0.00029099207682078168 -3.0317243025211376e-05 -0.00077784408828134347 -8.351204267358344e-05 -0.00056981710635556457 -0.00066707019766005973 0.014934948010117154 0.01627696674153949 -0.0039634578280184334 -0.0035686099446408659 -0.0026747056482625859 -0.009262885136864905 -0.010331762497662567 0.0030012565996730698 0.017941911439452386
leaf_weight=29797 134188 7213 42361 376 1136 156 122 181 367 105 107 147 90 1287
leaf_count=29797 134188 7213 42361 376 1136 156 122 181 367 105 107 147 90 1287
internal_value=0 4.87532e-05 0.000237453 0.00144206 0.0053724 0.0077076 0.0089224 0.010701 0.00138264 0.0121038 0.0139014 0.00267684 0.0155739 0.0169654
internal_weight=0 83445 53648 11287 4074 2938 2562 2073 489 1892 1589 303 1482 1377
internal_count=217633 83445 53648 11287 4074 2938 2562 2073 489 1892 1589 303 1482 1377
shrinkage=0.15


Tree=881
num_leaves=15
num_cat=0
split_feature=3 23 23 3 13 23 3 18 4 5 21 1 1 22
split_gain=0.0244894 0.0768105 0.350673 0.642471 0.565635 0.334531 0.59467 0.478935 0.463871 0.834639 0.612882 1.86483 0.941154 0.754976
threshold=-13.607149999999999 -10.7143 -13.335099999999999 -15.512049999999999 7.7996750000000015e-05 -15.570249999999998 -15.512049999999999 -0.00017050999999999999 0.67000000000000015 1.2837400000000002e-05 -2.9333349999999991 -2.1902699999999995 -2.5391249999999994 -0.52681499999999992
decision_type=2 2 2 2 2 2 2 2 2 2 2 2 2 2
left_child=1 2 5 -4 -5 -1 -7 -8 9 -9 11 -11 -12 -14
right_child=-2 -3 3 4 -6 6 7 8 -10 10 12 -13 13 -15
leaf_value=-0.0003757296350854096 -2.0853019104293033e-05 0.00031689434717296574 0.00051970765734537876 -0.0048909628571668579 -0.00021756557731227033 -0.00054048179112436382 -0.0011543461796250862 0.003417072293902465 0.00054142586968110068 0.034382826380284601 -0.0067585096490204964 -0.010326668942660286 -0.0029302254394029401 0.020436616775696165
leaf_weight=4805 185733 18706 2494 1383 1007 1633 410 693 435 76 67 29 42 120
leaf_count=4805 185733 18706 2494 1383 1007 1633 410 693 435 76 67 29 42 120
internal_value=0 0.000121414 -0.000155732 -0.00116444 -0.00292188 0.000437113 0.00155144 0.00337628 0.00464684 0.00638574 0.0125453 0.0220345 0.00819434 0.0143785
internal_weight=0 31900 13194 4884 2390 8310 3505 1872 1462 1027 334 105 229 162
internal_count=217633 31900 13194 4884 2390 8310 3505 1872 1462 1027 334 105 229 162
shrinkage=0.15


Tree=882
num_leaves=15
num_cat=0
split_feature=3 21 1 12 21 38 30 33 33 6 32 14 39 18
split_gain=0.0176936 0.0447616 0.228049 0.122661 0.1793 0.276717 0.709005 0.204606 0.17437 0.288569 0.244202 0.172377 0.321011 0.137405
threshold=-13.607149999999999 4.060175000000001 0.53250800000000009 0.00023480000000000004 5.3537200000000009 0.0052293300000000008 0.0015666050000000002 3.1208300000000004e-05 -3.5620349999999992e-05 -9.7029549999999982e-07 -0.33713899999999997 0.0058968150000000006 8.3665850000000028e-06 -4.1286149999999994e-07
decision_type=2 2 2 2 2 2 2 2 2 2 2 2 2 2
left_child=1 -1 -3 8 5 11 -7 -8 9 -4 -10 12 -5 -14
right_child=-2 2 3 4 -6 6 7 -9 10 -11 -12 -13 13 -15
leaf_value=0.00022171531400727441 -1.772506598517993e-05 0.00052466255884473705 0.014512381449772824 -0.0076108625066678669 -0.00098231472722389349 0.03436895539431134 -0.0037125960927527476 0.011765875459902667 -0.0064248819438181967 -0.00068547515767978693 -0.0015223460403422852 -0.00060604631184596545 0.0058835021111493307 0.018861625177575458
leaf_weight=22078 185733 5154 37 28 2117 20 46 33 272 117 1433 489 45 31
leaf_count=22078 185733 5154 37 28 2117 20 46 33 272 117 1433 489 45 31
internal_value=0 0.000103202 -0.000163195 -0.000922667 -0.000297145 0.00179896 0.00914014 0.00275309 -0.00186785 0.00296596 -0.00230445 0.000573368 0.00611888 0.0111772
internal_weight=0 31900 9822 4668 2809 692 99 79 1859 154 1705 593 104 76
internal_count=217633 31900 9822 4668 2809 692 99 79 1859 154 1705 593 104 76
shrinkage=0.15


Tree=883
num_leaves=15
num_cat=0
split_feature=16 14 25 3 22 3 10 3 16 23 5 3 22 23
split_gain=0.0157919 0.0300963 0.0474633 0.105425 0.113993 0.50222 0.0546333 0.0822817 0.0882792 0.0562361 0.0532342 0.0496586 0.113643 0.0576948
threshold=-2.2582199999999995e-06 0.00034297200000000004 0.39194000000000007 -10.446599999999998 2.5687850000000005 -8.515839999999999 2.8794150000000003e-05 -6.749814999999999 -3.8224499999999993e-06 -10.364449999999998 9.5453100000000006e-06 -8.5842749999999981 1.6338900000000003 -11.906049999999999
decision_type=2 2 2 2 2 2 2 2 2 2 2 2 2 2
left_child=1 2 3 -1 11 -6 7 8 -4 10 -8 12 13 -5
right_child=-2 -3 6 4 5 -7 9 -9 -10 -11 -12 -13 -14 -15
leaf_value=-0.0076366651045147241 -2.3067386934564082e-05 3.7438421563386328e-05 0.00187015188700595 0.0050523548005217246 0.020607015349378342 0.00098670360001840824 -0.006791562535467424 0.00034482800506401408 0.01292346487512234 -0.00082318324641495225 0.00084336794915616515 0.0010207345148882763 -0.012130271536963328 -0.0023376697389215256
leaf_weight=31 164138 49177 37 34 36 159 21 146 29 1320 954 1451 21 79
leaf_count=31 164138 49177 37 34 36 159 21 146 29 1320 954 1451 21 79
internal_value=0 7.07774e-05 0.000450469 0.00103559 0.00118663 0.00460891 2.77899e-05 0.0023317 0.00672691 -0.000185033 0.000678923 0.000765586 -0.00199725 -0.000114123
internal_weight=0 53495 4318 1811 1780 195 2507 212 66 2295 975 1585 134 113
internal_count=217633 53495 4318 1811 1780 195 2507 212 66 2295 975 1585 134 113
shrinkage=0.15


Tree=884
num_leaves=15
num_cat=0
split_feature=4 24 4 36 16 21 10 20 20 22 8 25 31 38
split_gain=0.0130699 0.052152 0.12431 0.0783279 0.144837 0.261416 0.123361 0.13787 0.182624 0.0926885 0.0753439 0.154401 0.0817572 0.072535
threshold=-0.29098649999999998 0.092078900000000005 -0.7518554999999999 0.0010631700000000002 2.2974750000000004e-06 -4.0801599999999993 2.8420100000000006e-05 4.1922650000000008 -5.5815149999999987 -1.0598999999999996 -4.1754999999999992e-06 0.2651265000000001 -0.12430199999999998 -0.011478049999999998
decision_type=2 2 2 2 2 2 2 2 2 2 2 2 2 2
left_child=1 -1 -3 4 -4 6 7 8 -6 -8 11 -5 -12 -13
right_child=-2 2 3 10 5 -7 9 -9 -10 -11 12 13 -14 -15
leaf_value=-6.7965838202005936e-05 -2.1216031403967031e-05 3.9337552444913789e-05 0.0019053631103282003 -0.01038751879593627 0.0015430110709820973 0.0016629762001974251 0.0016572520233494926 0.00070486113981097366 -0.0090555515743405771 -0.0055222164078138963 -0.00087784950678979491 0.001490305831859067 0.0018236823521513904 -0.0016234303812311924
leaf_weight=30157 163251 18536 2489 38 47 792 171 77 165 53 392 252 706 507
leaf_count=30157 163251 18536 2489 38 47 792 171 77 165 53 392 252 706 507
internal_value=0 6.36891e-05 0.000227582 0.000840925 0.00123428 -4.56555e-05 -0.00268354 -0.00473138 -0.00670587 -4.14615e-05 5.33799e-05 -0.00105677 0.000859201 -0.000589621
internal_weight=0 54382 24225 5689 3794 1305 513 289 212 224 1895 797 1098 759
internal_count=217633 54382 24225 5689 3794 1305 513 289 212 224 1895 797 1098 759
shrinkage=0.15


Tree=885
num_leaves=15
num_cat=0
split_feature=15 35 15 6 35 35 15 3 0 24 20 23 26 11
split_gain=0.012719 0.0476088 0.0800511 0.0554985 0.0499631 0.0565374 0.127168 0.212342 0.355385 0.421258 0.392332 0.372021 0.209226 0.236011
threshold=4.5460050000000014e-06 -0.63058299999999989 5.527850000000001e-05 6.1110000000000004e-06 0.00012853200000000002 0.097696100000000022 3.5968100000000006e-05 -7.4471299999999987 4.4992300000000016 0.62847100000000011 12.306400000000002 -11.472849999999999 0.00070205250000000016 -0.0001086155
decision_type=2 2 2 2 2 2 2 2 2 2 2 2 2 2
left_child=-1 2 3 -2 -3 -6 7 8 12 -10 11 -11 -7 -14
right_child=1 4 -4 -5 5 6 -8 -9 9 10 -12 -13 13 -15
leaf_value=-1.7814378596772431e-05 -0.0033703224842967896 0.00024962838868871988 0.00035794572606549915 0.0047854459031077571 -0.00016657463460647694 -0.0014049864107626923 -0.00030619401826644318 -0.0014895102846878671 -0.0003749559659113669 0.011180121953328771 -0.00037603699178858236 0.034236412628160906 0.013996820806470864 0.0021747232254710979
leaf_weight=175321 306 21991 368 20 17576 236 1223 256 51 31 22 32 51 149
leaf_count=175321 306 21991 368 20 17576 236 1223 256 51 31 22 32 51 149
internal_value=0 7.38144e-05 -0.00115834 -0.00286997 9.43611e-05 -7.96076e-05 0.000665655 0.00210113 0.00370813 0.0104026 0.0168691 0.0228913 0.00161994 0.00518936
internal_weight=0 42312 694 326 41618 19627 2051 828 572 136 85 63 436 200
internal_count=217633 42312 694 326 41618 19627 2051 828 572 136 85 63 436 200
shrinkage=0.15


Tree=886
num_leaves=15
num_cat=0
split_feature=23 3 14 23 14 20 3 23 14 30 3 23 14 4
split_gain=0.0122273 0.0837984 0.244858 0.178798 0.168341 0.198732 0.159413 0.560153 1.1029 0.538454 0.405775 0.55055 0.57271 0.367779
threshold=-7.7292499999999995 -9.196419999999998 0.00023943100000000005 -6.5295149999999991 0.0086666100000000017 8.7622100000000014 -7.6814349999999996 -7.0353699999999995 0.00037299900000000005 0.0011986450000000001 -7.2547399999999991 -7.2526199999999994 0.00039548800000000005 0.16506100000000004
decision_type=2 2 2 2 2 2 2 2 2 2 2 2 2 2
left_child=-1 2 -2 4 5 -4 7 8 9 13 11 12 -8 -3
right_child=1 6 3 -5 -6 -7 10 -9 -10 -11 -12 -13 -14 -15
leaf_value=-2.3424921516899424e-05 0.0044104393182302559 -0.0076875118413044594 0.00052936897776494985 -0.00035115982424668092 -7.4977383514951212e-05 0.0021327608127149089 0.0068678845556454969 0.00025030714559011875 -2.8966992183105359e-05 0.00067243824525386152 -0.000118142739647877 0.00037283047051290755 -0.00044276476263284848 0.001401343771155823
leaf_weight=151758 316 1027 8235 8593 7195 2205 718 6365 2267 268 25665 2547 363 111
leaf_count=151758 316 1027 8235 8593 7195 2205 718 6365 2267 268 25665 2547 363 111
internal_value=0 5.39646e-05 0.000259901 0.000209894 0.000483279 0.000868016 -8.50192e-05 -0.000600894 -0.00207595 -0.00537647 9.17586e-05 0.00157663 0.00441297 -0.00680099
internal_weight=0 65875 26544 26228 17635 10440 39331 10038 3673 1406 29293 3628 1081 1138
internal_count=217633 65875 26544 26228 17635 10440 39331 10038 3673 1406 29293 3628 1081 1138
shrinkage=0.15


Tree=887
num_leaves=15
num_cat=0
split_feature=3 23 14 14 23 31 0 14 34 20 0 23 14 23
split_gain=0.0151146 0.0704257 0.582947 0.386296 0.798806 0.383359 0.616132 0.9358 1.35237 1.34715 1.06686 0.83556 0.788352 0.686934
threshold=-7.0077899999999991 -12.666499999999997 0.0006072295000000001 0.00059260700000000009 -6.6695199999999994 -0.037385749999999988 3.4931300000000003 0.00024663650000000006 0.10825800000000001 8.0730100000000018 7.4076200000000005 -8.8068099999999987 0.00018273250000000005 -9.2454099999999979
decision_type=2 2 2 2 2 2 2 2 2 2 2 2 2 2
left_child=1 2 -1 4 5 6 12 13 9 -9 -11 -12 -3 -8
right_child=-2 3 -4 -5 -6 -7 7 8 -10 10 11 -13 -14 -15
leaf_value=0.0011429467045127378 5.5063916824299095e-05 0.0020974205350890599 -0.00020003826509508365 8.6764916371233897e-05 0.0012629625499420856 -0.0013011847322919941 -0.0044073764120917611 0.009752852005384411 -0.0020853284515405597 -0.0056917956736469936 0.027460353222506288 0.0021915528557022636 -0.0024500318265259992 0.001507665450066985
leaf_weight=9805 74016 1167 28153 76255 4597 16685 787 882 621 288 44 89 3237 1007
leaf_count=9805 74016 1167 28153 76255 4597 16685 787 882 621 288 44 89 3237 1007
internal_value=0 -2.83783e-05 0.000146871 -9.13365e-05 -0.000553217 -0.000889774 -4.46142e-05 0.00137727 0.0036752 0.00642063 -0.000560412 0.0105512 -0.00124502 -0.00108717
internal_weight=0 143617 37958 105659 29404 24807 8122 3718 1924 1303 421 133 4404 1794
internal_count=217633 143617 37958 105659 29404 24807 8122 3718 1924 1303 421 133 4404 1794
shrinkage=0.15


Tree=888
num_leaves=15
num_cat=0
split_feature=20 9 0 5 22 13 2 22 0 23 21 22 2 9
split_gain=0.0132946 0.18459 0.168869 0.146618 0.352617 0.935459 0.512029 1.30311 0.838999 1.11123 0.751177 0.791901 0.759756 0.722062
threshold=0.27425600000000006 2.7133900000000005e-05 6.2261700000000006 1.0770600000000002e-05 0.61814750000000018 1.1238550000000003e-05 0.16486150000000002 0.15279050000000002 9.1590050000000023 -7.588404999999999 3.5574300000000005 0.42875200000000008 0.37821950000000004 2.8849300000000005e-05
decision_type=2 2 2 2 2 2 2 2 2 2 2 2 2 2
left_child=2 -2 -1 4 6 -6 -3 -8 9 10 11 12 -9 -12
right_child=1 3 -4 -5 5 -7 7 8 -10 -11 13 -13 -14 -15
leaf_value=-5.9597361387104173e-05 8.4588550325644929e-05 -0.0017407747993807615 0.00039783809841447651 -0.00021526163866437652 -0.00056671706047710423 -0.0097443263876872757 -0.0016052927902707049 0.031966270318279331 0.0021582062680955867 -0.007542469077375962 0.017481874438002705 -0.0036178293406632484 -0.00033145543673764104 0.052859474863443105
leaf_weight=85977 78293 2086 23020 25934 817 360 731 57 207 38 25 38 23 27
leaf_count=85977 78293 2086 23020 25934 817 360 731 57 207 38 25 38 23 27
internal_value=0 -3.71353e-05 3.70123e-05 -0.000351215 -0.0011509 -0.0033738 -0.000341387 0.00220584 0.00891895 0.0156472 0.0208308 0.0142117 0.0226807 0.035851
internal_weight=0 108636 108997 30343 4409 1177 3232 1146 415 208 170 118 80 52
internal_count=217633 108636 108997 30343 4409 1177 3232 1146 415 208 170 118 80 52
shrinkage=0.15


Tree=889
num_leaves=15
num_cat=0
split_feature=34 3 14 23 23 3 22 2 23 23 23 23 2 1
split_gain=0.0125234 0.0596633 0.233802 0.436134 0.330925 0.254034 0.21616 1.11866 0.88574 0.964542 0.662136 0.622867 0.59241 0.575248
threshold=0.10256300000000002 -6.8865649999999992 0.00042154700000000003 -6.5922849999999995 -11.906049999999999 -10.662649999999998 -1.7647699999999997 -1.7835899999999998 -9.8659199999999974 -6.8527199999999988 -9.9145799999999991 -6.9680999999999989 -1.1074199999999996 -3.7212499999999995
decision_type=2 2 2 2 2 2 2 2 2 2 2 2 2 2
left_child=1 2 3 4 5 -1 7 8 -6 13 -9 12 -12 -10
right_child=-2 -3 -4 -5 6 -7 -8 10 9 -11 11 -13 -14 -15
leaf_value=-0.0073225211830244257 4.7490997045208542e-05 0.00011437583018194961 3.4490135513189798e-05 0.0011800380154702486 -0.0082077897244195487 0.0010653848433647007 -0.00075234319691467341 0.001182457023202726 0.0068635802666557706 -0.015122867721804708 -0.015287510494704589 0.00077997742557480798 -0.0054942820708590596 -0.00071013677865949581
leaf_weight=84 79371 45092 71630 2906 179 2472 12479 449 667 61 154 323 1425 341
leaf_count=84 79371 45092 71630 2906 179 2472 12479 449 667 61 154 323 1425 341
internal_value=0 -2.72628e-05 -9.58124e-05 -0.000529126 -0.000795673 0.000789726 -0.00104771 -0.00207186 0.00155782 0.00319304 -0.00399863 -0.00522171 -0.00644942 0.00430144
internal_weight=0 138262 93170 21540 18634 2556 16078 3599 1248 1069 2351 1902 1579 1008
internal_count=217633 138262 93170 21540 18634 2556 16078 3599 1248 1069 2351 1902 1579 1008
shrinkage=0.15


Tree=890
num_leaves=15
num_cat=0
split_feature=35 15 19 36 3 20 0 39 23 3 3 20 0 20
split_gain=0.0124603 0.378276 0.350172 0.720091 1.00663 1.00857 4.11298 1.29722 0.98662 3.74065 2.59263 1.10908 0.909679 0.741088
threshold=-0.00036068949999999998 -3.1918699999999993e-08 2.0955950000000004e-06 -3.3251549999999988e-05 -6.572074999999999 4.9104300000000007 4.9407200000000007 0.00026683000000000007 -7.5620149999999997 -7.8229449999999989 -7.7871049999999995 5.7696600000000009 6.0567350000000006 5.2392200000000004
decision_type=2 2 2 2 2 2 2 2 2 2 2 2 2 2
left_child=1 2 3 4 5 -1 13 8 9 11 -10 12 -8 -7
right_child=-2 -3 -4 -5 -6 6 7 -9 10 -11 -12 -13 -14 -15
leaf_value=0.0022260927438933686 2.8446703555837245e-05 -0.00034082734207690758 4.2966786396273487e-05 -0.00026431423744587267 -0.00034333451263523601 0.018843474163939909 0.031906515295850112 0.0004617922712350264 -0.01842252400703728 -0.008744611682857133 0.027235045633278786 0.040838972735492619 -0.0082715243633304323 -0.0038873521587210352
leaf_weight=2055 133667 45102 29441 4547 1895 35 32 80 45 55 74 170 21 414
leaf_count=2055 133667 45102 29441 4547 1895 35 32 80 45 55 74 170 21 414
internal_value=0 -4.52848e-05 0.000297695 0.00109356 0.00235982 0.00407819 0.0081884 0.0178874 0.0213989 0.0262913 0.00996958 0.0349324 0.0159869 -0.00211546
internal_weight=0 83966 38864 9423 4876 2981 926 477 397 278 119 223 53 449
internal_count=217633 83966 38864 9423 4876 2981 926 477 397 278 119 223 53 449
shrinkage=0.15


Tree=891
num_leaves=15
num_cat=0
split_feature=20 9 0 31 22 13 2 0 6 22 3 30 18 18
split_gain=0.0144291 0.157274 0.133723 0.132512 0.161464 0.770803 1.85997 1.11404 0.795927 0.778545 0.821564 0.634827 0.61595 1.12512
threshold=0.27425600000000006 2.5967100000000004e-05 6.8213550000000014 -0.012733049999999997 -0.75455849999999991 2.5301900000000005e-06 -0.76969999999999994 8.6057500000000022 1.1707200000000002e-06 -1.0598999999999996 -6.942054999999999 0.012689600000000001 1.3202350000000002e-05 -4.5671949999999996e-05
decision_type=2 2 2 2 2 2 2 2 2 2 2 2 2 2
left_child=2 -2 -1 4 5 6 9 8 -8 -3 12 -10 13 -11
right_child=1 3 -4 -5 -6 -7 7 -9 11 10 -12 -13 -14 -15
leaf_value=-4.0638362602579818e-05 7.704689968778069e-05 -0.0018529329085103367 0.00038710568170486931 0.00047127332926172007 -0.00025328326797313081 0.00034684569748184477 -0.0041942565445581316 -0.0024276514998024892 -0.015474859694153719 0.0027844618111535404 0.0011828839504134717 0.0082500170347177323 -0.0025030639498833229 0.030614417328351091
leaf_weight=88816 76981 294 20181 4138 21810 3286 313 1025 422 52 167 27 33 88
leaf_count=88816 76981 294 20181 4138 21810 3286 313 1025 422 52 167 27 33 88
internal_value=0 -3.86874e-05 3.85593e-05 -0.000320139 -0.000439151 -0.00114947 -0.0031804 -0.00565685 -0.0100006 0.00379975 0.00868765 -0.0140482 0.0159321 0.0202776
internal_weight=0 108636 108997 31655 27517 5707 2421 1787 762 634 340 449 173 140
internal_count=217633 108636 108997 31655 27517 5707 2421 1787 762 634 340 449 173 140
shrinkage=0.15


Tree=892
num_leaves=15
num_cat=0
split_feature=17 33 13 23 5 23 5 0 31 22 23 0 0 0
split_gain=0.0139003 0.141701 0.147811 0.278263 0.33281 0.149581 0.219402 0.116764 0.37511 0.152794 0.107503 0.133811 0.119215 0.0970416
threshold=3.1090850000000007e-06 2.4838450000000008e-07 -8.4581549999999983e-06 -9.4688149999999975 1.4194300000000002e-05 -17.896049999999999 1.4265900000000002e-05 3.0359800000000003 -0.038902199999999991 0.98742750000000012 -10.580249999999998 -7.0100749999999996 -5.9541749999999984 -3.0108849999999996
decision_type=2 2 2 2 2 2 2 2 2 2 2 2 2 2
left_child=-1 2 3 5 -5 -2 7 10 9 -9 11 -7 -12 -13
right_child=1 -3 -4 4 -6 6 -8 8 -10 -11 12 13 -14 -15
leaf_value=-2.3690422796009735e-05 0.0018848867915592263 -0.00016931378761523793 1.2818360585562816e-05 0.0028266453791134507 0.00058447180322319145 0.0043689894360054663 0.00036164963315997163 -0.0089761165951680825 -0.00020036940293195979 -0.0013507270339664214 -0.0047860363174126981 -0.0034007849957545639 0.0040291549935438003 -1.4891772304474238e-06
leaf_weight=156510 779 30350 18123 2267 4343 81 3443 235 419 79 43 470 175 316
leaf_count=156510 779 30350 18123 2267 4343 81 3443 235 419 79 43 470 175 316
internal_value=0 6.06611e-05 0.000287475 0.000680961 0.00135346 -5.5002e-05 -0.000342243 -0.0016753 -0.00313786 -0.00705763 -0.000687234 -0.00143593 0.00229038 -0.00203415
internal_weight=0 61123 30773 12650 6610 6040 5261 1818 733 314 1085 867 218 786
internal_count=217633 61123 30773 12650 6610 6040 5261 1818 733 314 1085 867 218 786
shrinkage=0.15


Tree=893
num_leaves=15
num_cat=0
split_feature=34 14 20 11 14 16 23 20 19 22 5 5 34 11
split_gain=0.0144133 0.0388975 0.0859833 0.341324 0.0709657 0.13292 0.121439 0.223716 0.594683 1.30475 0.381834 0.16232 0.0977965 0.0889268
threshold=0.10256300000000002 6.7528100000000015e-05 -12.935299999999998 -1.0087699999999998e-05 0.00048450950000000005 3.0099100000000005e-06 -9.0165099999999985 5.7696600000000009 0.0013930150000000003 -0.076877299999999996 1.7935000000000004e-05 1.4763950000000001e-05 0.011875250000000002 3.5688200000000008e-05
decision_type=2 2 2 2 2 2 2 2 2 2 2 2 2 2
left_child=1 2 3 -1 5 -3 7 11 -9 10 -10 13 -8 -7
right_child=-2 4 -4 -5 -6 6 12 8 9 -11 -12 -13 -14 -15
leaf_value=0.017412602389231324 5.0948523446531095e-05 -0.00028309811409060076 0.00015495738636959195 -0.00095055623442712644 2.7512740688333635e-05 0.0011058165987661 0.00090055443861298949 0.000552902696435413 0.042300440114119958 -0.010281827029673597 0.015741849291329605 0.0015236889788106884 -0.0012809687904848344 -0.0092974179698263899
leaf_weight=32 79371 40877 17060 79 77112 29 1107 143 29 26 21 902 794 51
leaf_count=32 79371 40877 17060 79 77112 29 1107 143 29 26 21 902 794 51
internal_value=0 -2.92476e-05 0.000182033 0.00434333 -5.92077e-05 -0.000211262 0.000735371 0.00191615 0.00625127 0.0169732 0.0311458 0.000949356 -1.06131e-05 -0.00552625
internal_weight=0 138262 17171 111 121091 43979 3102 1201 219 76 50 982 1901 80
internal_count=217633 138262 17171 111 121091 43979 3102 1201 219 76 50 982 1901 80
shrinkage=0.15


Tree=894
num_leaves=15
num_cat=0
split_feature=1 35 15 23 15 22 3 3 14 23 28 32 32 16
split_gain=0.0122293 0.0406368 0.0607138 0.0484531 0.136828 0.37545 0.25484 0.183228 0.255977 0.204312 0.171643 0.132632 0.0715131 0.0893556
threshold=-10.060549999999997 -0.00022088299999999998 -1.547545e-06 -6.9680999999999989 2.0938650000000004e-08 -0.88145999999999991 -6.1381299999999994 -6.4132949999999989 0.00015620650000000002 -6.2663199999999994 -0.020444849999999997 0.019468450000000002 0.21331500000000003 2.1880300000000001e-08
decision_type=2 2 2 2 2 2 2 2 2 2 2 2 2 2
left_child=1 2 -1 -4 5 6 10 8 9 11 -5 -6 -9 -14
right_child=-2 -3 3 4 7 -7 -8 12 -10 -11 -12 -13 13 -15
leaf_value=-0.0007696797170592812 -1.098924434981167e-05 -7.5274412655834089e-05 0.00068428466212509407 0.023584237782051789 -0.0085006603166799654 -0.0023376811462443203 0.001766968338175657 0.00056398359101786344 -0.00088463250370242504 0.0020012094348203389 0.0059738070750609039 -0.021849886076661811 -0.0005617415454493448 -0.011037309709562189
leaf_weight=934 198658 10832 6068 33 33 134 47 603 136 20 20 34 53 28
leaf_count=934 198658 10832 6068 33 33 134 47 603 136 20 20 34 53 28
internal_value=0 0.000115051 0.000368227 0.000515655 -0.000381143 0.0028528 0.00980804 -0.00121548 -0.00494934 -0.0113034 0.0169388 -0.0152749 1.84961e-06 -0.00418293
internal_weight=0 18975 8143 7209 1141 234 100 907 223 87 53 67 684 81
internal_count=217633 18975 8143 7209 1141 234 100 907 223 87 53 67 684 81
shrinkage=0.15


Tree=895
num_leaves=15
num_cat=0
split_feature=18 3 32 14 23 38 4 3 24 37 16 21 0 21
split_gain=0.0112553 0.0544507 0.0630924 0.0802315 0.0483414 0.155495 0.53303 0.655574 0.477601 0.443654 0.188323 0.187397 0.168031 0.144039
threshold=7.5564450000000015e-05 -6.0545599999999995 -3.4807049999999995 0.00090841950000000011 -9.1480199999999989 -0.0032950249999999996 1.1140750000000001 -8.515839999999999 0.42735850000000003 2.8613350000000003e-07 6.5260250000000008e-06 -4.6848949999999991 -2.0658999999999996 10.323650000000002
decision_type=2 2 2 2 2 2 2 2 2 2 2 2 2 2
left_child=-1 4 3 -3 -2 6 7 11 -9 -10 -11 12 -6 -13
right_child=1 2 -4 -5 5 -7 -8 8 9 10 -12 13 -14 -15
leaf_value=-1.7240809716385309e-05 0.00026275537253303614 0.01167676842804732 -0.00067960159650964664 0.00040779384259870065 -0.030139634840888902 7.740750874117519e-05 -0.00018764578641594637 -0.016971672818560719 0.02180669182731259 0.0077033967285387913 -0.008985731708977757 -0.0062335044624793733 -0.012991632713237777 -0.016152789479668212
leaf_weight=173351 22060 21 2753 44 20 17520 1551 23 31 32 29 116 36 46
leaf_count=173351 22060 21 2753 44 20 17520 1551 23 31 32 29 116 36 46
internal_value=0 6.74927e-05 -0.000570542 0.00404854 0.000110855 -6.18369e-05 -0.00135672 -0.00680188 0.00236158 0.00719489 -0.000230779 -0.0116358 -0.0191159 -0.00905009
internal_weight=0 44282 2818 65 41464 19404 1884 333 115 92 61 218 56 162
internal_count=217633 44282 2818 65 41464 19404 1884 333 115 92 61 218 56 162
shrinkage=0.15


Tree=896
num_leaves=15
num_cat=0
split_feature=2 3 14 20 37 37 34 36 34 33 34 5 33 29
split_gain=0.0123577 0.0383104 0.0605549 0.114948 0.0667117 0.182328 0.339079 0.062799 0.0615806 0.131636 0.0644683 0.0615406 0.0491369 0.0444832
threshold=-2.8223399999999992 -7.5830149999999987 0.00018273250000000005 -5.6544449999999999 -1.1877199999999999e-07 -5.2446499999999999e-08 0.012341700000000002 0.00030346550000000006 0.015026650000000001 -1.2766899999999998e-07 0.43971050000000006 9.2142800000000012e-06 -3.6648949999999995e-06 0.020674350000000005
decision_type=2 2 2 2 2 2 2 2 2 2 2 2 2 2
left_child=1 2 3 4 7 6 -6 -1 9 12 -10 -11 -5 -7
right_child=-2 -3 -4 8 5 13 -8 -9 10 11 -12 -13 -14 -15
leaf_value=-0.011130379189504311 -7.6397802343834063e-06 -0.00021269326295217034 0.0002263057619457531 -0.0092925083017549835 -0.0032115805079229176 -0.00095967270987424647 0.020709022914525119 -0.0015919289533219232 0.0051333475819653057 0.011881770712456533 0.00053562274201819648 0.0020123214732765599 -0.0012249735085120216 -0.0079110574463437146
leaf_weight=25 208125 3668 5131 26 30 53 24 41 270 21 92 44 49 34
leaf_count=25 208125 3668 5131 26 30 53 24 41 270 21 92 44 49 34
internal_value=0 0.000167231 0.000405854 0.00170524 -0.00126907 0.000573266 0.0074198 -0.00520498 0.0029317 0.000260217 0.00396487 0.00520091 -0.00402172 -0.00367631
internal_weight=0 9508 5840 709 207 141 54 66 502 140 362 65 75 87
internal_count=217633 9508 5840 709 207 141 54 66 502 140 362 65 75 87
shrinkage=0.15


Tree=897
num_leaves=15
num_cat=0
split_feature=6 33 27 33 19 22 12 11 22 37 3 23 6 22
split_gain=0.0112238 0.217675 0.130269 0.122261 0.270447 0.297403 1.01351 2.18474 2.1205 1.36632 1.3525 0.945669 0.837251 0.797552
threshold=-7.5924149999999995e-07 1.4933200000000001e-06 0.26199200000000006 -1.3360349999999997e-06 3.0659200000000006e-05 -1.3864299999999996 -4.9301449999999992e-05 -2.6952949999999995e-06 -1.6187749999999999 1.0000000180025095e-35 -7.6471249999999991 -7.2759249999999991 4.4390200000000005e-07 -1.4969799999999998
decision_type=2 2 2 2 2 2 2 2 2 2 2 2 2 2
left_child=1 -1 -3 -2 5 6 7 -5 -9 10 12 -12 13 -10
right_child=3 2 -4 4 -6 -7 -8 8 9 -11 11 -13 -14 -15
leaf_value=-0.00024376467906574677 0.00019217034141054973 0.00065713490367081502 5.0201107700486627e-05 -0.0040894096549536473 -0.00023091368246235048 0.00025718323247590275 -0.00066140284770881412 -0.00047191546765709653 0.036742780182470118 -0.012700780776440693 -0.0037753482931293545 0.02592344912431704 0.054599048519456711 0.0067267664807981681
leaf_weight=50964 57027 11305 26866 246 59848 10028 948 147 69 23 45 52 37 28
leaf_count=50964 57027 11305 26866 246 59848 10028 948 147 69 23 45 52 37 28
internal_value=0 -4.08999e-05 0.000229955 2.83709e-05 -0.000102325 0.00055979 0.00246232 0.00703927 0.0138663 0.0221645 0.0256359 0.0121457 0.0354012 0.0280784
internal_weight=0 89135 38171 128498 71471 11623 1595 647 401 254 231 97 134 97
internal_count=217633 89135 38171 128498 71471 11623 1595 647 401 254 231 97 134 97
shrinkage=0.15


Tree=898
num_leaves=15
num_cat=0
split_feature=26 4 0 20 18 0 4 24 29 3 3 23 38 20
split_gain=0.0133635 0.0586098 0.110179 0.107528 0.107324 0.156761 0.129205 0.157064 0.370894 0.457758 0.200027 0.277098 0.108776 0.166374
threshold=0.00070205250000000016 -0.030700999999999996 6.4667950000000003 13.471950000000001 0.00025593300000000002 -2.1595199999999992 0.23858300000000002 0.35887100000000005 0.29393350000000007 -10.389699999999999 -6.2498799999999992 -7.4042949999999985 -0.0032950249999999996 -16.050999999999998
decision_type=2 2 2 2 2 2 2 2 2 2 2 2 2 2
left_child=-1 -2 4 -4 5 12 -7 -8 9 -9 11 -11 13 -3
right_child=1 2 3 -5 -6 6 7 8 -10 10 -12 -13 -14 -15
leaf_value=-9.7954419276407783e-06 -0.00017855751687160184 0.0065310922737219649 -0.00028557172836053858 -0.0045028986755408411 -0.00010468056466714465 0.001398988909645759 0.0027917173382279127 -0.0020142997787016528 -0.0084161156980806714 0.036592825544674107 0.0069991551472672392 0.014372521001080583 0.0009685374499397286 -0.0025160356810645904
leaf_weight=203500 6747 51 1372 151 2184 1083 396 33 23 23 21 28 1578 443
leaf_count=203500 6747 51 1372 151 2184 1083 396 33 23 23 21 28 1578 443
internal_value=0 0.000141044 0.000432995 -0.000703705 0.000728269 0.00122274 0.00233456 0.00426818 0.00883598 0.012615 0.0193201 0.0243934 0.000360441 -0.00158202
internal_weight=0 14133 7386 1523 5863 3679 1607 524 128 105 72 51 2072 494
internal_count=217633 14133 7386 1523 5863 3679 1607 524 128 105 72 51 2072 494
shrinkage=0.15


Tree=899
num_leaves=15
num_cat=0
split_feature=20 7 2 22 0 14 2 9 33 4 7 22 13 21
split_gain=0.0122603 0.0876739 0.0737482 0.165533 0.343432 0.356291 0.344336 0.304232 0.270728 0.16533 0.145817 0.130373 0.117913 0.206434
threshold=-8.1735049999999969 3.3699050000000001e-05 1.4567850000000002 2.4063700000000003 -8.3489949999999968 0.0014449400000000002 2.1826250000000003 -2.9822299999999997e-05 2.2566150000000003e-06 0.061052400000000007 2.9456150000000004e-05 2.6827550000000007 -8.0373599999999975e-06 10.535600000000001
decision_type=2 2 2 2 2 2 2 2 2 2 2 2 2 2
left_child=1 2 -1 12 7 6 -6 -5 -8 10 -10 -9 13 -4
right_child=-2 -3 3 4 5 -7 8 11 9 -11 -12 -13 -14 -15
leaf_value=0.00084129215662878611 -1.3145356831524381e-05 -7.5461118458645048e-05 0.0017364432805287773 0.016621016413689804 -0.0029547654398781069 0.00096760860851129258 -0.0036885813203692999 0.0082171340938657512 -0.016253459893844344 -0.0079576899310470454 -0.032485036365687843 -0.004338523384768098 -0.0004893471528871655 0.013608377651128519
leaf_weight=5197 191523 18770 564 39 328 317 53 30 33 27 20 49 648 35
leaf_count=5197 191523 18770 564 39 328 317 53 30 33 27 20 49 648 35
internal_value=0 9.64243e-05 0.000535973 -0.000204457 -0.00175971 -0.0029034 -0.00556525 0.0057809 -0.0120031 -0.0175115 -0.0223786 0.000429448 0.000913031 0.00243013
internal_weight=0 26110 7340 2143 896 778 461 118 133 80 53 79 1247 599
internal_count=217633 26110 7340 2143 896 778 461 118 133 80 53 79 1247 599
shrinkage=0.15


Tree=900
num_leaves=15
num_cat=0
split_feature=15 14 3 31 3 35 27 37 4 13 37 19 3 35
split_gain=0.01264 0.0411153 0.063723 0.0849151 0.157241 0.0499485 0.0449234 0.0437055 0.117159 0.157019 0.0425828 0.19577 0.123168 0.184842
threshold=4.5460050000000014e-06 0.0013588450000000002 -7.0077899999999991 -8.8280199999999969 -9.3441199999999984 0.0010072350000000002 0.18787850000000003 1.3231050000000004e-07 0.14210450000000005 -3.292609999999999e-05 -3.7431549999999991e-07 0.023850300000000001 -11.334249999999999 0.0040362250000000009
decision_type=2 2 2 2 2 2 2 2 2 2 2 2 2 2
left_child=-1 2 3 4 -2 -4 7 -5 9 -9 11 12 13 -8
right_child=1 -3 5 6 -6 -7 10 8 -10 -11 -12 -13 -14 -15
leaf_value=-1.7758967114426155e-05 0.01610031097003704 8.3661058523682907e-06 0.00028896266414868421 0.0013303755949164672 -0.00050749949145468013 -0.0010406857831235974 -0.00063024750528380873 0.019898329905699938 -0.0010591158829629421 0.0034782627585196965 0.00020940907207954142 0.015176178762213449 0.00033591283423992438 0.015369621819627354
leaf_weight=175321 23 35421 2176 578 29 898 33 20 45 38 2455 23 541 32
leaf_count=175321 23 35421 2176 578 29 898 33 20 45 38 2455 23 541 32
internal_value=0 7.35848e-05 0.000408821 0.000818165 0.00683826 -9.94642e-05 0.000735019 0.00183765 0.00468428 0.00914035 0.00049154 0.0015927 0.00107716 0.00724661
internal_weight=0 42312 6891 3817 52 3074 3765 681 103 58 3084 629 606 65
internal_count=217633 42312 6891 3817 52 3074 3765 681 103 58 3084 629 606 65
shrinkage=0.15


Tree=901
num_leaves=15
num_cat=0
split_feature=22 2 22 2 11 1 22 22 2 2 6 1 34 23
split_gain=0.0118282 0.237173 0.797315 0.814784 0.622641 0.59118 0.416854 0.389536 3.65323 1.04604 0.902341 0.862012 0.848889 0.793718
threshold=1.4463850000000003 2.1084950000000005 2.1073400000000002 2.5749400000000002 -8.9669799999999986e-05 8.9700450000000007 1.6338900000000003 2.4928950000000003 2.4739300000000006 2.5016900000000004 4.7807800000000005e-07 8.8472350000000031 1.8465900000000002 -7.4322149999999985
decision_type=2 2 2 2 2 2 2 2 2 2 2 2 2 2
left_child=-1 -2 3 4 -3 6 -6 8 10 -9 -4 12 -12 -13
right_child=1 2 7 -5 5 -7 -8 9 -10 -11 11 13 -14 -15
leaf_value=-2.0983237791327372e-05 0.00019600769347744951 -0.00051332412583362835 0.00050827591078479218 -0.00040533678221206716 -0.003224720881717171 -0.0014864832510390338 -0.011330662222041925 -0.0039623753247761987 -0.0036455812870010893 0.0011722523327577269 0.015704732115047849 -0.0050410501269729817 -0.010658149992452999 0.014171789012275771
leaf_weight=160018 47821 479 228 1978 191 308 565 1306 1164 2821 525 118 29 82
leaf_count=160018 47821 479 228 1978 191 308 565 1306 1164 2821 525 118 29 82
internal_value=0 5.82781e-05 -0.000614212 -0.00242068 -0.00500419 -0.00702592 -0.00928273 0.00039975 0.00203894 -0.000452614 0.00877701 0.0112774 0.0143247 0.00283621
internal_weight=0 57615 9794 3521 1543 1064 756 6273 2146 4127 982 754 554 200
internal_count=217633 57615 9794 3521 1543 1064 756 6273 2146 4127 982 754 554 200
shrinkage=0.15


Tree=902
num_leaves=15
num_cat=0
split_feature=34 38 10 26 15 15 10 34 31 4 30 1 28 4
split_gain=0.0117076 0.0351025 0.083716 0.118665 0.198199 0.122636 0.0914484 0.109942 0.0735098 0.0852093 0.280296 0.193205 0.121654 0.0850675
threshold=0.10256300000000002 0.0021297000000000004 1.1664200000000001e-05 0.00018190550000000004 -1.0188749999999999e-07 6.2639450000000014e-08 1.9565150000000004e-05 0.100425 0.18026350000000005 -0.13878399999999999 0.00093503900000000003 -7.8967999999999989 0.034480300000000012 -0.056370599999999993
decision_type=2 2 2 2 2 2 2 2 2 2 2 2 2 2
left_child=1 -1 3 4 -3 -6 7 8 9 10 -4 -12 -13 -10
right_child=-2 2 6 -5 5 -7 -8 -9 13 -11 11 12 -14 -15
leaf_value=-1.3523962427133442e-05 4.5917993954492193e-05 0.0046775643451837821 0.021348042139751749 0.00092541804729864515 -0.018542877065060151 -0.004084713898323984 -0.00068271972493518743 -0.0064609854676886099 -0.0046734384701703673 0.0013236864370034852 0.01538370932229673 -0.0029144892950425856 0.0089923875416948584 0.0020094097564797267
leaf_weight=134386 79371 20 22 58 33 22 3084 39 75 299 23 75 26 100
leaf_count=134386 79371 20 22 58 33 22 3084 39 75 299 23 75 26 100
internal_value=0 -2.63598e-05 -0.000471395 -0.00416957 -0.0081097 -0.0127596 -0.000339987 0.00126394 0.00174986 0.00277411 0.0057445 0.00297613 0.000150647 -0.000854668
internal_weight=0 138262 3876 133 75 55 3743 659 620 445 146 124 101 175
internal_count=217633 138262 3876 133 75 55 3743 659 620 445 146 124 101 175
shrinkage=0.15


Tree=903
num_leaves=15
num_cat=0
split_feature=14 34 10 36 12 35 36 21 4 17 33 15 33 31
split_gain=0.0125139 0.0582457 0.127809 0.194982 0.155869 0.353671 0.157891 0.134052 0.245199 0.188136 0.171395 0.152481 0.143931 0.120172
threshold=0.00018273250000000005 0.008249755000000001 1.5588300000000005e-05 0.00062724800000000006 4.8599150000000004e-05 3.1831850000000013e-05 0.00045930450000000007 -6.4898099999999994 -0.089102199999999979 1.4879650000000004e-07 1.6792800000000003e-06 2.3100500000000006e-08 2.1078850000000004e-06 -0.0029060349999999995
decision_type=2 2 2 2 2 2 2 2 2 2 2 2 2 2
left_child=1 2 3 4 6 -6 7 8 11 -9 -11 -1 13 -10
right_child=-2 -3 -4 -5 5 -7 -8 9 12 10 -12 -13 -14 -15
leaf_value=-0.0056923570504295636 -2.3358190926425534e-05 0.00012486369968896422 -0.00010145480671107955 0.0085674669895333382 -0.02444813874211501 0.0031124941818416116 -0.0097226318092064248 -0.0011071330105224683 0.010741675132885575 0.0014867055162679978 0.017597692177514546 -0.022783773743076777 -0.0095360846474332826 -0.0014875852775395077
leaf_weight=24 153077 52155 11493 38 22 20 55 468 21 39 24 23 44 130
leaf_count=24 153077 52155 11493 38 22 20 55 468 21 39 24 23 44 130
internal_value=0 5.53876e-05 -0.000236809 -0.00195005 -0.00240943 -0.011324 -0.00195725 -0.00140473 -0.00433075 -7.12093e-05 0.00762422 -0.0140562 -0.00198666 0.000213173
internal_weight=0 64556 12401 908 870 42 828 773 242 531 63 47 195 151
internal_count=217633 64556 12401 908 870 42 828 773 242 531 63 47 195 151
shrinkage=0.15


Tree=904
num_leaves=15
num_cat=0
split_feature=18 3 25 20 14 30 33 10 28 29 4 25 1 4
split_gain=0.011206 0.0325604 0.0766398 0.0583961 0.0477489 0.0743437 0.0846237 0.0874422 0.186161 0.103713 0.199338 0.0982607 0.166099 0.239436
threshold=-4.1156349999999994e-05 -6.0822949999999993 92.722700000000017 -14.223749999999997 0.0014906400000000003 0.00036147050000000003 2.1621100000000005e-05 2.3079000000000004e-05 -0.060039149999999993 -0.34874949999999993 -1.4177149999999996 11.779650000000002 -8.1814349999999987 -1.8911349999999996
decision_type=2 2 2 2 2 2 2 2 2 2 2 2 2 2
left_child=1 4 3 -3 5 -1 -7 8 -8 10 -9 -11 -13 -14
right_child=-2 2 -4 -5 -6 6 7 9 -10 11 -12 12 13 -15
leaf_value=0.00099128633776089767 -1.8585726580664462e-05 -0.0078186303326219786 0.008867042408091946 -0.00039261638469798114 2.9454330861429064e-05 -0.00039002525814099448 0.01437417329639977 -0.0003969540177957456 0.00117284388465256 0.0010177539347082261 0.014181448212669541 0.0063386830695283903 -2.0905024915312727e-05 -0.012077926773123353
leaf_weight=3184 167647 24 20 3290 39374 2988 34 51 82 714 36 36 90 63
leaf_count=3184 167647 24 20 3290 39374 2988 34 51 82 714 36 36 90 63
internal_value=0 6.23343e-05 -0.000390526 -0.000446396 9.46981e-05 0.000447667 2.48816e-05 0.00114581 0.0050422 0.000689258 0.00563549 0.000212711 -0.00282856 -0.00498556
internal_weight=0 49986 3334 3314 46652 7278 4094 1106 116 990 87 903 189 153
internal_count=217633 49986 3334 3314 46652 7278 4094 1106 116 990 87 903 189 153
shrinkage=0.15


Tree=905
num_leaves=15
num_cat=0
split_feature=18 3 19 3 21 20 29 9 4 35 18 4 7 26
split_gain=0.012073 0.0381704 0.0552594 0.0453543 0.062388 0.0381437 0.036558 0.0958675 0.160671 0.203229 0.143106 0.205476 0.185081 0.300836
threshold=7.5564450000000015e-05 -6.0822949999999993 1.7095050000000005e-05 -6.4132949999999989 -13.890549999999999 15.858650000000003 -0.34874949999999993 7.5602950000000016e-06 2.6382950000000007 0.32650700000000005 0.00013996000000000004 0.79323650000000001 3.850875000000001e-05 -0.0048464599999999995
decision_type=2 2 2 2 2 2 2 2 2 2 2 2 2 2
left_child=-1 3 -3 6 -5 -4 7 8 9 -2 -9 -12 13 -13
right_child=1 2 5 4 -6 -7 -8 10 -10 -11 11 12 -14 -15
leaf_value=-1.7856117639022648e-05 -0.0014752774227720993 0.0057446123664703919 -0.00047323237009401606 -0.0072511784753442046 0.0012027922188347694 -0.0064781925259012494 0.00010382250303931875 0.012066461866925239 -1.1160205803978919e-05 -0.010587899072561413 -0.013034939593635499 0.015139347210970299 -0.0010291747978301671 -0.00027864184517446637
leaf_weight=173351 135 32 2862 20 1094 24 39229 24 329 93 25 48 297 70
leaf_count=173351 135 32 2862 20 1094 24 39229 24 329 93 25 48 297 70
internal_value=0 6.99014e-05 -0.000454435 0.00010689 0.00105102 -0.00052317 8.07599e-05 -0.000805356 -0.00213197 -0.00519227 0.000787156 0.000171921 0.000967515 0.00599308
internal_weight=0 44282 2918 41364 1114 2886 40250 1021 557 228 464 440 415 118
internal_count=217633 44282 2918 41364 1114 2886 40250 1021 557 228 464 440 415 118
shrinkage=0.15


Tree=906
num_leaves=15
num_cat=0
split_feature=3 23 5 3 23 14 30 3 23 38 20 0 23 23
split_gain=0.0125286 0.0591186 0.134746 0.123223 2.16482 1.47366 0.978229 0.39893 0.437308 0.454419 0.266968 0.240864 0.22342 0.167621
threshold=-7.0077899999999991 -7.6156999999999995 1.7445300000000004e-05 -7.5458749999999988 -8.5214449999999982 0.00023412000000000001 0.00079871150000000008 -7.2823399999999987 -7.7545149999999987 -5.1520349999999992e-05 9.0324500000000025 -9.3812549999999977 -8.1455849999999987 -8.4265199999999982
decision_type=2 2 2 2 2 2 2 2 2 2 2 2 2 2
left_child=1 3 -3 -1 -5 6 7 8 10 -10 11 -6 -9 -13
right_child=-2 2 -4 4 5 -7 -8 12 9 -11 -12 13 -14 -15
leaf_value=-3.2314446545980351e-05 5.0132669741186454e-05 0.00033354819205409135 -0.00023983046739935168 0.00040594278193152269 -0.031241549327969548 -0.0014283151895121543 -0.0019155829020217588 -0.004385643560312423 0.0085561766960801418 -0.018537378543987869 -0.035080860970685114 -0.0041081218331653095 -0.013193392975221352 -0.018466168763050416
leaf_weight=93485 74016 25805 14350 8301 30 911 220 108 26 30 26 21 162 142
leaf_count=93485 74016 25805 14350 8301 30 911 220 108 26 30 26 21 162 142
internal_value=0 -2.58369e-05 0.000128643 -8.57925e-05 -0.000586885 -0.00550422 -0.010358 -0.013766 -0.0177872 -0.00595823 -0.0208119 -0.0188897 -0.00967029 -0.0166164
internal_weight=0 143617 40155 103462 9977 1676 765 545 275 56 219 193 270 163
internal_count=217633 143617 40155 103462 9977 1676 765 545 275 56 219 193 270 163
shrinkage=0.15


Tree=907
num_leaves=15
num_cat=0
split_feature=2 31 22 2 22 6 0 23 22 2 5 23 19 2
split_gain=0.0113847 0.184557 0.274198 0.284905 2.23533 0.833469 0.746973 0.903729 0.513059 0.883212 0.711756 0.469484 0.364389 0.341263
threshold=2.5016900000000004 0.031475800000000005 2.4622600000000006 2.6199850000000002 2.6381550000000007 1.1377400000000002e-06 -7.4213099999999992 -8.9202899999999978 2.6381550000000007 2.6393150000000003 1.1264650000000002e-05 -12.425899999999999 0.0010551000000000002 2.6393150000000003
decision_type=2 2 2 2 2 2 2 2 2 2 2 2 2 2
left_child=-1 -2 -3 4 5 -4 7 -7 9 -5 12 -8 -11 -10
right_child=1 2 3 8 -6 6 11 -9 13 10 -12 -13 -14 -15
leaf_value=-1.1238574543131483e-05 0.00045345281028056955 -0.0010676823671067527 -0.0014256780154338652 0.02120844244491309 -0.0038951542836570051 -0.0083881198931651715 0.016489255093038082 0.025393356252532945 -0.0091046721838369121 -0.0078412212263275338 -0.0024887904901074111 0.044521599717256492 -0.025110702522215433 0.001663291175250807
leaf_weight=196542 13038 5433 41 28 295 28 20 49 69 54 294 41 56 1645
leaf_count=196542 13038 5433 41 28 295 28 20 49 69 54 294 41 56 1645
internal_value=0 0.00010473 -0.000459862 0.000800554 0.00412881 0.0173527 0.0229317 0.0131092 6.54233e-05 -0.00455438 -0.00633992 0.0353307 -0.016633 0.00122981
internal_weight=0 21091 8053 2620 474 179 138 77 2146 432 404 61 110 1714
internal_count=217633 21091 8053 2620 474 179 138 77 2146 432 404 61 110 1714
shrinkage=0.15


Tree=908
num_leaves=15
num_cat=0
split_feature=14 33 19 7 33 6 35 14 25 39 34 7 10 11
split_gain=0.0132571 0.0478068 0.0641819 0.0834412 0.182834 0.481518 0.428484 0.326165 0.189043 0.257774 0.0770539 0.155162 0.096641 0.0721849
threshold=0.00018273250000000005 -3.5237899999999998e-06 0.00037907750000000008 2.9030500000000003e-05 -4.9776299999999991e-06 -2.5986849999999996e-06 -0.0014664949999999997 6.0340550000000006e-05 0.27214700000000008 6.2908200000000014e-06 0.015399350000000001 3.5193200000000007e-05 5.8857450000000007e-05 -1.4473899999999999e-05
decision_type=2 2 2 2 2 2 2 2 2 2 2 2 2 2
left_child=1 2 3 4 13 6 -6 -8 -9 -10 11 -4 -12 -1
right_child=-2 -3 10 -5 5 -7 7 8 9 -11 12 -13 -14 -15
leaf_value=0.0066435538579664756 -2.4041750958878583e-05 -3.755234216911037e-05 -0.0088257138612200785 -1.1669846880342391e-05 -0.0079456423450860059 0.00046444164869889658 0.0026997129818717501 0.010878965388446186 0.038608933803202079 0.016130148412776178 0.0020018879399858517 5.7199407901154299e-05 0.00021146066228931672 0.00030621996620784381
leaf_weight=41 153077 42011 51 16014 21 299 31 26 22 24 1422 334 1297 2963
leaf_count=41 153077 42011 51 16014 21 299 31 26 22 24 1422 334 1297 2963
internal_value=0 5.70085e-05 0.000233216 0.000132087 0.000803849 0.00372358 0.0115823 0.0155637 0.0211024 0.0268809 0.000866605 -0.0011195 0.00114783 0.000392715
internal_weight=0 64556 22545 19441 3427 423 124 103 72 46 3104 385 2719 3004
internal_count=217633 64556 22545 19441 3427 423 124 103 72 46 3104 385 2719 3004
shrinkage=0.15


Tree=909
num_leaves=15
num_cat=0
split_feature=22 14 14 2 23 2 0 1 5 2 36 18 38 21
split_gain=0.0111044 0.0400523 0.0644499 0.0684381 0.0617529 0.146721 0.101703 0.118575 0.0733826 0.0650655 0.252399 0.273517 0.138604 0.114601
threshold=-2.8863399999999997 7.3868200000000019e-05 0.0005728895000000001 3.0578500000000006 -10.756049999999997 -2.7724249999999997 -7.3110149999999985 -2.0013049999999994 3.8302250000000004e-05 -2.8697349999999995 9.5141850000000008e-05 -2.6852949999999997e-07 -0.00015965249999999996 -1.6499499999999998
decision_type=2 2 2 2 2 2 2 2 2 2 2 2 2 2
left_child=1 -1 4 -4 5 6 7 -3 -7 10 11 -6 -13 -12
right_child=-2 2 3 -5 9 8 -8 -9 -10 -11 13 12 -14 -15
leaf_value=-0.00061544958569131609 -6.9260487932513398e-06 0.00021672681240098818 -8.1084361561624849e-05 0.0079494804918795129 -0.014807541478425263 0.0027945568701061249 0.0030993711668998 -0.01447938282850373 -0.00089138038329879298 1.2151442405010471e-05 0.005180105863255448 0.0081759075498759586 -0.0043997661041265184 0.018931191656738521
leaf_weight=1263 208904 21 4677 24 25 843 26 30 142 1541 30 49 33 25
leaf_count=1263 208904 21 4677 24 25 843 26 30 142 1541 30 49 33 25
internal_value=0 0.000165755 0.000297909 -4.00859e-05 0.000872563 0.00177023 -0.00453567 -0.00842804 0.00226318 0.00031277 0.00317236 -0.00107254 0.00311497 0.0114306
internal_weight=0 8729 7466 4701 2765 1062 77 51 985 1703 162 107 82 55
internal_count=217633 8729 7466 4701 2765 1062 77 51 985 1703 162 107 82 55
shrinkage=0.15


Tree=910
num_leaves=15
num_cat=0
split_feature=26 3 32 21 29 11 11 32 11 11 23 6 23 17
split_gain=0.0110793 0.0488608 0.057733 0.202758 0.0851908 0.0440801 0.100271 0.1518 0.133114 0.076619 0.0668065 0.0863119 0.0787884 0.0555817
threshold=0.00070205250000000016 -13.158849999999999 -22.304899999999996 -2.4394949999999995 2.0482950000000004 8.5182850000000004e-05 4.6435250000000009e-05 2.6080700000000001 6.4657950000000013e-05 5.181150000000001e-05 -18.898199999999996 6.0096700000000009e-07 -16.670499999999997 -2.5904249999999994e-06
decision_type=2 2 2 2 2 2 2 2 2 2 2 2 2 2
left_child=-1 2 3 -2 -5 6 -4 9 -9 -8 11 -7 -12 -14
right_child=1 -3 5 4 -6 10 7 8 -10 -11 12 -13 13 -15
leaf_value=-8.9190957431545634e-06 0.016976669050795447 6.1665511992261409e-06 0.00063050501201002021 0.0058321387091252418 -0.005868875901588971 0.012237411605513315 0.0099800955506709772 0.0039042343490291384 0.021210462378803641 0.00050303050612487347 -0.0075425364149850791 -0.0015313154901377857 0.0018907550729611443 -0.0012248618365526679
leaf_weight=203500 22 11855 1316 28 28 21 23 20 20 116 36 20 181 447
leaf_count=203500 22 11855 1316 28 28 21 23 20 20 116 36 20 181 447
internal_value=0 0.000128425 0.000764676 0.0047751 -1.83686e-05 0.000622488 0.00108357 0.00441446 0.0125573 0.00207118 -0.00035526 0.00552096 -0.000718099 -0.000326889
internal_weight=0 14133 2278 78 56 2200 1495 179 40 139 705 41 664 628
internal_count=217633 14133 2278 78 56 2200 1495 179 40 139 705 41 664 628
shrinkage=0.15


Tree=911
num_leaves=15
num_cat=0
split_feature=23 1 28 14 28 3 18 3 1 14 14 36 39 1
split_gain=0.0118943 0.0255166 0.0456698 0.0524911 0.0503222 0.0354689 0.0317052 0.0546049 0.025334 0.0302051 0.0592617 0.0216088 0.016492 0.0159636
threshold=-23.590149999999998 1.9292050000000003 -1.7331449999999997 0.00025343850000000004 -0.028131049999999994 -13.793399999999998 -2.1803199999999994e-06 -12.914449999999997 5.8091200000000009 0.0029699900000000005 0.021235350000000004 0.0064979950000000003 0.34276850000000003 -3.8549749999999996
decision_type=2 2 2 2 2 2 2 2 2 2 2 2 2 2
left_child=1 2 3 -1 5 -4 7 -6 9 -3 11 -11 -9 -14
right_child=-2 8 4 -5 6 -7 -8 12 -10 10 -12 -13 13 -15
leaf_value=-0.0010743449767427853 2.221595725484771e-06 -0.0009578990049194544 -0.0087235605743314539 0.0075338259472266288 0.007025290151628164 -0.0018983406210956615 -0.00063290121869349317 0.0025467624453396147 -0.00045266272694182894 -0.012576002822024746 -0.0003519176706416352 -0.0056032072665402662 0.00067660181841347358 -0.0047943961346754802
leaf_weight=28 216763 75 21 37 39 93 217 41 198 20 31 20 30 20
leaf_count=28 216763 75 21 37 39 93 217 41 198 20 31 20 30 20
internal_value=0 -0.000553517 0.000103429 0.00382569 -0.000421402 -0.00315562 0.000476871 0.00232934 -0.00155803 -0.0030571 -0.00527456 -0.00908961 0.000316785 -0.0015118
internal_weight=0 870 526 65 461 114 347 130 344 146 71 40 91 50
internal_count=217633 870 526 65 461 114 347 130 344 146 71 40 91 50
shrinkage=0.15


Tree=912
num_leaves=15
num_cat=0
split_feature=35 15 19 33 3 34 4 11 21 30 31 6 18 4
split_gain=0.0108158 0.27951 0.363006 0.904327 1.66543 0.746254 0.4119 0.624582 0.895343 0.875313 1.21561 0.856402 0.801665 0.557052
threshold=-0.00036068949999999998 1.4191300000000002e-08 1.1283150000000002e-05 -1.0903599999999997e-06 -7.2547399999999991 0.33105250000000003 1.0000000180025095e-35 1.3649300000000002e-05 -0.75947199999999992 0.00038998350000000006 -0.038902199999999991 1.5207800000000002e-06 -1.1530249999999996e-06 1.2260050000000002
decision_type=2 2 2 2 2 2 2 2 2 2 2 2 2 2
left_child=1 -1 3 4 5 -3 7 -4 9 10 11 -9 -13 -8
right_child=-2 2 6 -5 -6 -7 13 8 -10 -11 -12 12 -14 -15
leaf_value=0.00021403659845709908 2.6503133912597645e-05 -0.0064365922175914853 5.1857327989250365e-05 0.00025397882634960916 0.00015343257598353683 -0.0010638502230127286 -0.0016150626083158651 -0.0005924871206904451 -0.00032629934349924603 0.0024106350190070398 0.0032731010063982691 0.027291510669559049 0.0032002063833015903 0.00030499626810238223
leaf_weight=44745 133667 2070 11085 6065 2929 809 6549 45 1237 903 267 153 39 7070
leaf_count=44745 133667 2070 11085 6065 2929 809 6549 45 1237 903 267 153 39 7070
internal_value=0 -4.21908e-05 -0.000334506 -0.00102709 -0.00236484 -0.00492685 -3.3825e-05 0.000545974 0.00261756 0.00520573 0.0102136 0.0180327 0.022398 -0.000618307
internal_weight=0 83966 39221 11873 5808 2879 27348 13729 2644 1407 504 237 192 13619
internal_count=217633 83966 39221 11873 5808 2879 27348 13729 2644 1407 504 237 192 13619
shrinkage=0.15


Tree=913
num_leaves=15
num_cat=0
split_feature=15 35 3 15 4 9 37 34 3 4 26 14 20 23
split_gain=0.0130836 0.267069 0.327995 0.604946 0.738281 1.34066 0.691575 1.36949 1.10302 1.23259 1.21109 0.611504 0.794409 0.649202
threshold=1.6080300000000002e-08 -0.00012284899999999999 -6.6271099999999992 6.3330950000000009e-06 0.058500200000000009 4.595425000000001e-06 3.5571950000000006e-08 0.038258850000000004 -12.581749999999998 0.0092838900000000012 4.6792250000000006e-05 0.00045556800000000005 6.0010550000000009 -9.9618999999999982
decision_type=2 2 2 2 2 2 2 2 2 2 2 2 2 2
left_child=-1 2 3 4 5 -2 -7 8 -8 10 -10 13 -13 -12
right_child=1 -3 -4 -5 -6 6 7 -9 9 -11 11 12 -14 -15
leaf_value=-3.4828577525230349e-05 -0.0015205968911549781 0.00025972992048184162 0.00039764578515508577 0.00017971650043380571 -0.0022582042152382562 0.00034555514001950434 -0.0061721570016415482 0.0018396430536342318 -0.0022289986829631602 -0.015497078019409225 0.00097109050320058653 0.048745286292754687 0.011975423844996841 0.023170610244234325
leaf_weight=114738 6545 56058 13518 16173 7184 1997 61 1036 52 26 37 39 20 149
leaf_count=114738 6545 56058 13518 16173 7184 1997 61 1036 52 26 37 39 20 149
internal_value=0 3.88373e-05 -0.000225543 -0.00047838 -0.00109913 -0.000263277 0.00214502 0.00467568 0.0123271 0.0158207 0.0185624 0.0229752 0.0362809 0.0187546
internal_weight=0 102895 46837 33319 17146 9962 3417 1420 384 323 297 245 59 186
internal_count=217633 102895 46837 33319 17146 9962 3417 1420 384 323 297 245 59 186
shrinkage=0.15


Tree=914
num_leaves=15
num_cat=0
split_feature=4 24 18 18 21 36 18 5 21 1 18 18 20 12
split_gain=0.0172164 0.0636432 0.0744379 0.0937804 0.128524 0.113179 0.103867 0.0696795 0.103778 0.475602 0.0903165 0.280795 0.305844 0.371835
threshold=0.11543250000000001 0.35887100000000005 -0.00022632149999999996 -1.4113149999999997e-05 1.4596200000000004 -0.032654949999999995 -7.8519049999999971e-06 2.1747100000000004e-05 13.390900000000002 9.8382400000000008 0.00022380850000000002 0.00013996000000000004 -2.4468249999999996 4.8599150000000004e-05
decision_type=2 2 2 2 2 2 2 2 2 2 2 2 2 2
left_child=-1 -2 -3 4 5 -4 -5 10 -9 -10 11 -8 -13 -14
right_child=1 2 3 6 -6 -7 7 8 9 -11 -12 12 13 -15
leaf_value=-3.1354340124146111e-05 0.00010867060498452994 0.006706922060316976 -0.0082200189884752035 0.0091901390329719723 -0.011921511304476676 0.0051601557457946574 -0.00073333821510237476 0.00013391152880602565 6.9187843295441453e-05 0.024037017164063517 2.8666555766597687e-05 0.0012350574899111179 -0.0033559908459564764 -0.018762653179180164
leaf_weight=140198 67589 34 25 26 37 33 3502 2675 98 23 3172 79 77 65
leaf_count=140198 67589 34 25 26 37 33 3502 2675 98 23 3172 79 77 65
internal_value=0 5.67678e-05 -0.000299525 -0.000323803 -0.0050138 -0.000607161 -0.000277951 -0.000303353 0.000328271 0.00462506 -0.000559483 -0.00106059 -0.00624622 -0.0104083
internal_weight=0 77435 9846 9812 95 58 9717 9691 2796 121 6895 3723 221 142
internal_count=217633 77435 9846 9812 95 58 9717 9691 2796 121 6895 3723 221 142
shrinkage=0.15


Tree=915
num_leaves=15
num_cat=0
split_feature=13 33 5 33 33 2 3 13 4 26 3 33 30 3
split_gain=0.0138496 0.510703 0.179041 0.50668 0.602361 0.442835 0.371583 0.448696 0.530726 0.553115 0.279011 0.885126 0.705962 0.689653
threshold=-2.1361299999999998e-05 2.4838450000000008e-07 1.2239100000000001e-05 1.3078300000000001e-05 3.7557400000000001e-06 2.7568000000000006 -15.628299999999998 -2.6209599999999997e-05 -0.091932049999999987 7.6697850000000006e-05 -13.004499999999998 2.0592650000000003e-05 0.0012252050000000003 -11.042399999999999
decision_type=2 2 2 2 2 2 2 2 2 2 2 2 2 2
left_child=1 -1 3 4 -3 6 -6 -8 9 -9 -5 12 13 -12
right_child=-2 2 -4 10 5 -7 7 8 -10 -11 11 -13 -14 -15
leaf_value=0.00050127807493260056 1.6418456237150721e-05 -0.00053937966003118952 -0.00041274703226153978 -0.0013761240025767045 -0.00051755958495148754 0.008530920155760173 -0.010560792543457225 -0.016654061737290796 0.0037692358141022072 0.0065590863855277343 0.024848478277536661 -0.00052200846508634879 -0.005354814843407699 0.0027877458046423266
leaf_weight=16909 183152 945 14026 912 185 46 509 83 131 32 88 523 42 50
leaf_count=16909 183152 945 14026 912 185 46 509 83 131 32 88 523 42 50
internal_value=0 -8.72096e-05 -0.000653493 -0.00160575 -0.00324553 -0.00583914 -0.00654236 -0.00801864 -0.00275864 -0.0101948 0.00035487 0.00260048 0.0116731 0.0168555
internal_weight=0 34481 17572 3546 1931 986 940 755 246 115 1615 703 180 138
internal_count=217633 34481 17572 3546 1931 986 940 755 246 115 1615 703 180 138
shrinkage=0.15


Tree=916
num_leaves=15
num_cat=0
split_feature=20 9 0 31 22 2 19 0 20 19 3 38 21 3
split_gain=0.0135205 0.114806 0.0966217 0.0936661 0.152348 1.23206 2.46944 1.85184 0.988283 1.2245 1.44183 0.755061 0.60784 1.01318
threshold=0.27425600000000006 2.5967100000000004e-05 -5.1610799999999992 -0.012733049999999997 0.71795400000000009 0.71681100000000009 8.1791500000000028e-06 8.6057500000000022 5.3188500000000003 2.0955950000000004e-06 -6.3575099999999987 -0.0046764749999999994 7.4491950000000005 -8.515839999999999
decision_type=2 2 2 2 2 2 2 2 2 2 2 2 2 2
left_child=2 -2 -1 4 -3 6 7 -6 -7 10 11 -10 -13 -14
right_child=1 3 -4 -5 5 8 -8 -9 9 -11 -12 12 13 -15
leaf_value=-0.00019464779452529817 6.1432019863857538e-05 -0.00019036761695412534 0.00012330688794875326 0.00038745814937170644 -0.01439641813570245 -2.9553508272067151e-05 -7.3693465557822234e-05 -0.0028596848969542851 -0.0028334272810025137 -0.00038518630060903981 0.00052531062346216381 0.039094680680864254 -0.0087742505233368955 0.029955914892594922
leaf_weight=29475 76981 21455 79522 4138 541 698 3655 743 20 177 88 64 21 55
leaf_count=29475 76981 21455 79522 4138 541 698 3655 743 20 177 88 64 21 55
internal_value=0 -3.74495e-05 3.73255e-05 -0.000277917 -0.000377976 -0.00104197 -0.00206166 -0.00772057 0.00344268 0.00914531 0.0159473 0.0244294 0.0283241 0.0192542
internal_weight=0 108636 108997 31655 27517 6062 4939 1284 1123 425 248 160 140 76
internal_count=217633 108636 108997 31655 27517 6062 4939 1284 1123 425 248 160 140 76
shrinkage=0.15


Tree=917
num_leaves=15
num_cat=0
split_feature=6 33 23 3 14 3 3 14 23 23 3 3 23 3
split_gain=0.0135757 0.141073 0.113066 0.275923 0.519068 0.198205 0.185301 0.37875 0.704954 0.586111 1.01428 0.556152 0.318266 0.540113
threshold=1.1377400000000002e-06 -1.3360349999999997e-06 -11.906049999999999 -6.2498799999999992 0.0007585545000000001 -7.2233449999999992 -6.7134699999999992 0.00068334050000000012 -6.8340949999999987 -10.108199999999998 -10.05805 -10.288849999999998 -6.6695199999999994 -6.1920449999999994
decision_type=2 2 2 2 2 2 2 2 2 2 2 2 2 2
left_child=-1 2 3 4 5 -2 7 8 9 10 -4 -11 -8 -14
right_child=1 -3 6 -5 -6 -7 12 -9 -10 11 -12 -13 13 -15
leaf_value=2.8030307943325392e-05 0.0032561419342198709 -0.00022909634305980352 -0.011203726496501573 -0.00061409701219346106 -3.2342954145772764e-05 0.0009243297762554307 0.00096208926154686214 0.00026336656768584008 0.0019417947821423547 0.0025809788490258382 0.0025966367830683886 -0.0037732482827809188 -0.0073387038562675398 3.1254873448669047e-05
leaf_weight=139526 2231 43668 137 3179 4491 1297 6952 9303 1198 345 956 3048 287 1015
leaf_count=139526 2231 43668 137 3179 4491 1297 6952 9303 1198 345 956 3048 287 1015
internal_value=0 -5.00718e-05 0.000176928 0.00056848 0.00103729 0.0023989 -1.17301e-05 -0.000326055 -0.00129076 -0.00215402 0.000866857 -0.00312715 0.000558997 -0.00159331
internal_weight=0 78107 34439 11198 8019 3528 23241 14987 5684 4486 1093 3393 8254 1302
internal_count=217633 78107 34439 11198 8019 3528 23241 14987 5684 4486 1093 3393 8254 1302
shrinkage=0.15


Tree=918
num_leaves=15
num_cat=0
split_feature=22 2 22 10 6 12 33 21 1 3 14 23 6 20
split_gain=0.0139593 0.162314 0.559266 0.63535 0.51893 0.435543 0.421975 0.346148 1.37285 0.683089 0.670583 0.802277 0.56871 0.505579
threshold=1.4463850000000003 2.1084950000000005 2.1073400000000002 3.118010000000001e-05 1.0569250000000003e-06 3.2730600000000001e-05 1.0242850000000001e-06 5.7525350000000008 4.8660050000000004 -5.9751649999999996 0.00071923400000000013 -9.9618999999999982 1.5978650000000003e-06 -11.287099999999999
decision_type=2 2 2 2 2 2 2 2 2 2 2 2 2 2
left_child=-1 -2 3 4 -3 -6 -7 -4 12 10 -10 -12 -9 -11
right_child=1 2 7 -5 5 6 -8 8 9 13 11 -13 -14 -15
leaf_value=-2.2795262155878444e-05 0.00017724968775284492 -0.0011472760186866187 -0.00027802760021885121 -0.00073869123816673783 -0.0016970116462085999 -0.0033909987632444339 -0.013846022558312236 0.00094404393637585737 0.01280001501077715 0.021403855974891816 0.018658051507309606 -0.004414656296911173 -0.0076435495918662465 -0.0024860551894266363
leaf_weight=160018 47821 414 4738 2523 170 124 290 446 396 22 46 129 284 212
leaf_count=160018 47821 414 4738 2523 170 124 290 446 396 22 46 129 284 212
internal_value=0 6.33108e-05 -0.000493017 -0.00200597 -0.00520971 -0.00808959 -0.0107146 0.000356194 0.00231381 0.00658562 0.00938281 0.00165017 -0.00239688 -0.000239995
internal_weight=0 57615 9794 3521 998 584 414 6273 1535 805 571 175 730 234
internal_count=217633 57615 9794 3521 998 584 414 6273 1535 805 571 175 730 234
shrinkage=0.15


Tree=919
num_leaves=15
num_cat=0
split_feature=5 22 11 37 14 10 2 23 33 2 23 14 2 20
split_gain=0.0148221 0.0733401 0.0970912 0.173291 0.224288 0.159053 0.194757 0.129899 0.128567 0.0656659 0.443942 0.437594 0.14166 0.0817023
threshold=8.942730000000002e-06 2.7283200000000005 -2.5478749999999997e-05 1.3231050000000004e-07 0.00037299900000000005 2.6466150000000001e-05 2.4123000000000006 -8.9202899999999978 4.0129950000000009e-06 2.7053050000000005 -9.5416749999999979 9.3253850000000015e-05 2.5016900000000004 -11.287099999999999
decision_type=2 2 2 2 2 2 2 2 2 2 2 2 2 2
left_child=1 -1 3 4 -3 6 -6 -5 -7 12 -11 13 -4 -12
right_child=-2 2 9 7 5 8 -8 -9 -10 10 11 -13 -14 -15
leaf_value=0.00022480251324768 -1.1149763246400021e-05 -0.01283910029368209 -0.00032749082185630593 -0.017654652521014211 0.00028461810336791264 -0.0010239066596841439 -0.012984286590653937 -0.002048195521929301 0.012271918730402832 -0.0093467602896519716 0.0081435825888183898 0.024881454181325219 -0.01159990424348507 -0.0047190409647300839
leaf_weight=15184 201302 35 712 30 112 30 32 20 36 41 20 28 26 25
leaf_count=15184 201302 35 712 30 112 30 32 20 36 41 20 28 26 25
internal_value=0 0.000137436 -0.00101912 -0.00336447 -0.00172211 0.000130723 -0.00266403 -0.0114121 0.00622836 -0.000207056 0.0031435 0.0101586 -0.000724622 0.000997681
internal_weight=0 16331 1147 295 245 210 144 50 66 852 114 73 738 45
internal_count=217633 16331 1147 295 245 210 144 50 66 852 114 73 738 45
shrinkage=0.15


Tree=920
num_leaves=15
num_cat=0
split_feature=12 28 0 28 3 7 3 34 23 23 14 3 29 8
split_gain=0.0128834 0.0224006 0.0632054 0.0335045 0.0276231 0.0221409 0.0160535 0.0623516 0.0912956 0.26515 0.618177 0.648228 0.326817 0.244287
threshold=-0.0010298699999999998 -0.99135349999999989 0.08305520000000001 -0.48753549999999996 -12.740499999999999 5.2375150000000003e-05 -13.607149999999999 0.0038662050000000006 -10.618199999999998 -13.243199999999998 0.0034191400000000006 -15.512049999999999 0.055268800000000007 1.0793150000000002e-05
decision_type=2 2 2 2 2 2 2 2 2 2 2 2 2 2
left_child=1 2 -1 4 -3 -5 7 -2 9 13 11 -11 -13 -9
right_child=6 3 -4 5 -6 -7 -8 8 -10 10 -12 12 -14 -15
leaf_value=0.0093011321900848994 -0.00071324886766080864 -0.0076024760110303758 -0.0026241397154444708 0.00022774573049216655 -0.00074259873623045032 -0.0003653803970934915 -9.9660313492867266e-06 4.683691550213324e-05 0.000419449645574102 0.0019310280783625049 1.9290497356785151e-05 -0.0069079218971110582 0.0025216866717370145 0.0024024508483804705
leaf_weight=20 1933 25 20 1999 28 4856 181530 6680 14833 316 3320 818 92 1163
leaf_count=20 1933 25 20 1999 28 4856 181530 6680 14833 316 3320 818 92 1163
internal_value=0 -0.00020097 0.0033385 -0.000221465 -0.00397839 -0.000192418 6.62761e-06 0.000109946 0.0001684 -0.000132175 -0.00104365 -0.00392209 -0.0059546 0.000396139
internal_weight=0 6948 40 6908 53 6855 210685 29155 27222 12389 4546 1226 910 7843
internal_count=217633 6948 40 6908 53 6855 210685 29155 27222 12389 4546 1226 910 7843
shrinkage=0.15


Tree=921
num_leaves=15
num_cat=0
split_feature=12 21 5 13 37 5 34 2 29 2 33 16 5 5
split_gain=0.01369 0.124988 0.296514 0.38115 0.18339 0.187055 0.220182 0.152688 0.218881 0.296884 0.292939 0.177664 0.183418 0.148655
threshold=-4.2234949999999994e-05 -3.5985549999999997 2.0000100000000002e-05 6.9651600000000016e-05 -1.6329399999999996e-05 1.4529200000000001e-05 5.4050250000000011 -2.6547699999999996 0.071968150000000022 -2.7973349999999995 -4.0472449999999997e-06 7.0679000000000007e-08 1.3539050000000002e-05 1.3427100000000001e-05
decision_type=2 2 2 2 2 2 2 2 2 2 2 2 2 2
left_child=1 2 3 4 5 6 -1 8 10 -10 11 12 -6 -3
right_child=-2 13 -4 -5 7 -7 -8 -9 9 -11 -12 -13 -14 -15
leaf_value=0.023666236870922151 2.8726006858508935e-05 0.00046599497854928106 0.00031590373113691157 0.00030843584354737054 -0.014615032452327962 -0.0021694539679239302 0.0038315905326539099 -0.0013774171026480961 -0.0011137301700987986 0.024108868617830532 0.0024764975374778069 0.0016796560469083488 -0.0024726986970850513 -8.1495806231721932e-05
leaf_weight=20 137479 16136 10651 5724 55 42 34 10752 21 21 407 60 57 36174
leaf_count=20 137479 16136 10651 5724 55 42 34 10752 21 21 407 60 57 36174
internal_value=0 -4.92704e-05 -0.000306008 -0.00069128 -0.00119022 0.00533835 0.0111778 -0.00124533 0.00104161 0.0114976 0.000283149 -0.00490693 -0.00843545 8.7388e-05
internal_weight=0 80154 27844 17193 11469 96 54 11373 621 42 579 172 112 52310
internal_count=217633 80154 27844 17193 11469 96 54 11373 621 42 579 172 112 52310
shrinkage=0.15


Tree=922
num_leaves=15
num_cat=0
split_feature=2 33 22 13 7 26 21 2 11 11 2 26 4 4
split_gain=0.0118423 0.148783 0.129104 0.727221 0.620194 0.884269 0.54266 0.649789 0.611231 0.533665 0.431755 0.391873 0.558883 0.708946
threshold=2.5016900000000004 5.3687500000000009e-06 2.4622600000000006 -1.8423699999999998e-05 5.658280000000001e-05 -0.00023250849999999998 2.2931300000000006 2.6644600000000005 -5.1252949999999995e-05 -6.4919299999999987e-05 2.6644600000000005 0.00013991350000000001 -0.16343149999999998 -1.8911349999999996
decision_type=2 2 2 2 2 2 2 2 2 2 2 2 2 2
left_child=-1 -2 -3 4 5 -4 7 -7 10 -9 -8 -5 13 -13
right_child=1 2 3 11 -6 6 8 9 -10 -11 -12 12 -14 -15
leaf_value=-1.1462171370775429e-05 0.00037292981011468148 -0.00086134669022210129 0.028199906328202063 -0.0044342723291006022 -0.00026905152350725363 -0.013675171613327359 0.01308574552531354 0.02037179614417255 0.018500846008703643 -0.0058653507582758632 -0.01070777926028854 -0.0063110871432096854 -0.00275887581746101 0.019469471951015293
leaf_weight=196542 14584 4969 46 575 328 56 32 37 105 33 37 36 181 72
leaf_count=196542 14584 4969 46 575 328 56 32 37 105 33 37 36 181 72
internal_value=0 0.000106813 -0.000489628 0.000711327 0.00440428 0.00883448 0.00586512 -0.00163182 0.0112939 0.00800286 0.000326899 -0.00216951 0.00233649 0.010876
internal_weight=0 21091 6507 1538 674 346 300 126 174 70 69 864 289 108
internal_count=217633 21091 6507 1538 674 346 300 126 174 70 69 864 289 108
shrinkage=0.15


Tree=923
num_leaves=15
num_cat=0
split_feature=12 34 32 21 10 21 22 32 15 19 14 8 15 0
split_gain=0.0113396 0.0186098 0.0181416 0.0459141 0.0275448 0.0253889 0.0156533 0.0152068 0.0619427 0.111781 0.0539536 0.0400316 0.0404637 0.0363501
threshold=-0.0010298699999999998 0.012110300000000003 0.71146950000000009 7.4491950000000005 1.4847900000000002e-05 2.9901150000000007 -0.61801149999999982 20.819650000000006 4.6395100000000006e-05 0.0085812350000000013 0.0031052900000000006 1.2076850000000001e-05 8.9866000000000013e-06 5.3268800000000009
decision_type=2 2 2 2 2 2 2 2 2 2 2 2 2 2
left_child=1 6 -3 4 -4 -6 -1 -2 10 -10 13 12 -12 -9
right_child=7 2 3 -5 5 -7 -8 8 9 -11 11 -13 -14 -15
leaf_value=-4.2729617414075856e-05 8.6506112895105809e-06 4.0389195375320132e-05 -0.0062749774977261122 0.0057977104233114833 -0.00070101633748467286 -0.005813857230089565 -0.00098606180625813783 0.00056225991952474569 0.0089860459664263398 -0.0026907595835031577 -0.003113258614917513 0.0013053298821406704 -0.0092573340656235802 -0.0021945142606105386
leaf_weight=642 209920 4768 23 22 438 23 1032 347 39 35 123 35 30 156
leaf_count=642 209920 4768 23 22 438 23 1032 347 39 35 123 35 30 156
internal_value=0 -0.000188545 -5.02395e-05 -0.000904227 -0.00120886 -0.000956104 -0.000624282 6.21787e-06 -0.00066134 0.00346323 -0.00110305 -0.00327109 -0.00431798 -0.000292724
internal_weight=0 6948 5274 506 484 461 1674 210685 765 74 691 188 153 503
internal_count=217633 6948 5274 506 484 461 1674 210685 765 74 691 188 153 503
shrinkage=0.15


Tree=924
num_leaves=15
num_cat=0
split_feature=4 38 4 11 35 3 34 3 22 21 22 12 20 20
split_gain=0.0113196 0.0658892 0.069184 0.148516 0.476404 0.296408 0.309137 0.35687 0.22163 0.167361 0.297281 0.61873 0.161626 0.138716
threshold=0.10593100000000001 -0.0032950249999999996 1.5436950000000003 -7.2710199999999987e-05 -0.14027249999999997 -14.949199999999999 1.2883350000000002 -10.550799999999997 3.0022850000000001 2.8817050000000006 1.84284 2.3829550000000006e-05 -6.8954199999999988 -4.472974999999999
decision_type=2 2 2 2 2 2 2 2 2 2 2 2 2 2
left_child=-1 2 3 4 5 -2 -7 -8 9 10 12 -12 -6 -14
right_child=1 -3 -4 -5 8 6 7 -9 -10 -11 11 -13 13 -15
leaf_value=-2.6082981627111853e-05 -0.0057964867817645429 0.00010503148457910875 0.00013683571477243352 -0.00032519274013216489 0.00542225469735318 0.024130336155828377 0.014804358368641451 -0.0066951603090274142 0.011546701099723578 -0.0079097744580926936 -0.014365324282116489 0.018085116610074271 -0.013147277711488476 -0.0041696684829623651
leaf_weight=137626 36 66932 5579 6666 35 26 38 32 20 217 20 39 44 323
leaf_count=137626 36 66932 5579 6666 35 26 38 32 20 217 20 39 44 323
internal_value=0 4.48673e-05 -0.000263118 -0.000560789 -0.00245294 0.00581088 0.0101636 0.00497601 -0.00401573 -0.0044748 -0.0028579 0.00708497 -0.00431717 -0.005246
internal_weight=0 80007 13075 7496 830 132 96 70 698 678 461 59 402 367
internal_count=217633 80007 13075 7496 830 132 96 70 698 678 461 59 402 367
shrinkage=0.15


Tree=925
num_leaves=15
num_cat=0
split_feature=29 3 0 14 16 3 23 0 37 37 3 13 23 23
split_gain=0.0121721 0.0518956 0.107719 0.0954644 0.103723 0.143432 0.0995441 0.251486 0.836829 0.0913271 0.0898086 0.355132 0.454144 1.51152
threshold=-0.026386799999999998 -11.150499999999999 6.728695000000001 0.00062385550000000004 -1.7584599999999997e-08 -6.942054999999999 -7.6733199999999995 7.508115000000001 -1.3410899999999997e-07 2.0144550000000003e-07 -10.219249999999999 1.9207900000000006e-05 -9.8659199999999974 -11.700949999999999
decision_type=2 2 2 2 2 2 2 2 2 2 2 2 2 2
left_child=1 2 -1 4 5 6 -3 -8 -9 -4 11 12 13 -6
right_child=-2 3 9 -5 10 -7 7 8 -10 -11 -12 -13 -14 -15
leaf_value=0.00037727739735034195 -1.3788877398921395e-05 0.0010693426589210113 0.014058313511486632 -0.00045203524096774233 -0.0030329045142438687 9.1206854452080007e-05 0.0023139440814115768 0.035593387746484947 -0.0026587183369443778 0.00033380420703906562 -0.00026992002699661153 -0.0080895051678490579 -0.0017787518721938608 0.040210643512827736
leaf_weight=7836 189067 1795 24 7699 44 3688 465 22 31 20 6789 49 73 31
leaf_count=7836 189067 1795 24 7699 44 3688 465 22 31 20 6789 49 73 31
internal_value=0 9.12631e-05 0.000418835 -3.35202e-05 0.000214585 0.000671965 0.00159796 0.00342976 0.0132195 0.0078199 -0.000178305 0.00297892 0.00664347 0.0148411
internal_weight=0 28566 7880 20686 12987 6001 2313 518 53 44 6986 197 148 75
internal_count=217633 28566 7880 20686 12987 6001 2313 518 53 44 6986 197 148 75
shrinkage=0.15


Tree=926
num_leaves=15
num_cat=0
split_feature=2 21 22 22 15 22 28 31 11 22 22 2 6 2
split_gain=0.0108035 0.0379497 0.115497 0.0436887 0.152235 0.0385929 0.0347008 0.0617235 0.124225 0.0917961 0.149994 0.226598 0.0793503 0.113406
threshold=-2.8223399999999992 -3.5985549999999997 2.9399650000000004 -2.8863399999999997 2.7206550000000005e-08 -2.7774649999999994 0.0036004400000000003 0.62597650000000005 -3.3037949999999994e-05 -2.6066699999999998 -2.8587899999999995 -2.9487299999999999 -6.9054099999999996e-07 -2.9487299999999999
decision_type=2 2 2 2 2 2 2 2 2 2 2 2 2 2
left_child=1 2 3 4 -1 -5 7 -3 9 10 12 -12 -9 -14
right_child=-2 6 -4 5 -6 -7 -8 8 -10 -11 11 -13 13 -15
leaf_value=-0.003813397457124665 -7.1432283999456452e-06 -0.00059711638475809677 0.011678665557077953 -0.0045016799306696548 0.014694161193037869 0.0005087251454192885 0.00029657282523454801 -0.0046338316350657905 -0.0035053561536486783 -0.0011435948094003835 0.0010409702668601477 0.021383928933313912 0.011433833463853524 -0.0017358753281379383
leaf_weight=20 208125 2947 21 35 20 2949 3247 27 73 60 22 28 31 28
leaf_count=20 208125 2947 21 35 20 2949 3247 27 73 60 22 28 31 28
internal_value=0 0.000156361 0.000592952 0.000515968 0.00544038 0.000449957 -4.93354e-05 -0.000398578 0.00177649 0.00374371 0.00589987 0.012433 0.00210152 0.0051838
internal_weight=0 9508 3045 3024 40 2984 6463 3216 269 196 136 50 86 59
internal_count=217633 9508 3045 3024 40 2984 6463 3216 269 196 136 50 86 59
shrinkage=0.15


Tree=927
num_leaves=15
num_cat=0
split_feature=33 12 15 32 12 9 18 36 23 31 14 23 12 19
split_gain=0.0107459 0.0506137 0.0676594 0.0737912 0.0902465 0.102917 0.11612 0.141733 0.0965601 0.264455 0.458806 0.60823 0.215264 0.176535
threshold=4.0148700000000011e-05 5.7997300000000008e-05 -2.3586649999999996e-08 0.10537650000000001 -0.00023276599999999997 -2.1394549999999997e-05 -3.1143699999999996e-07 -0.60180299999999987 -14.850299999999999 -0.20153349999999998 0.0022144250000000003 -17.075499999999995 -0.00018440399999999996 0.0022086300000000005
decision_type=2 2 2 2 2 2 2 2 2 2 2 2 2 2
left_child=-1 2 -2 -4 -5 -6 7 -7 9 10 -9 -12 -10 -11
right_child=1 -3 3 4 5 6 -8 8 12 13 11 -13 -14 -15
leaf_value=-1.0590028471629604e-05 0.00034173692620245949 0.00046135511220584058 0.00018251681399279461 0.00072031633994782708 0.00015966202800479128 0.008981954262179152 -0.00082458962070886997 -0.002077303901616756 -0.01713589068245271 -0.0038260334314545613 -0.0031640664351960785 0.028979527060356402 -0.0038197084282790531 -0.018536837888753106
leaf_weight=197678 5678 6185 3520 796 1132 22 1726 265 29 50 26 27 470 29
leaf_count=197678 5678 6185 3520 796 1132 22 1726 265 29 50 26 27 470 29
internal_value=0 0.000104907 -5.51972e-05 -0.000333718 -0.00073117 -0.00103715 -0.00154955 -0.00291261 -0.00320466 -0.00145888 0.000470742 0.013211 -0.00459359 -0.0092262
internal_weight=0 19955 13770 8092 4572 3776 2644 918 896 397 318 53 499 79
internal_count=217633 19955 13770 8092 4572 3776 2644 918 896 397 318 53 499 79
shrinkage=0.15


Tree=928
num_leaves=15
num_cat=0
split_feature=16 34 38 4 14 4 23 34 3 23 23 23 3 3
split_gain=0.0103139 0.0427102 0.0155624 0.0831239 0.241095 0.372413 0.741818 1.11914 0.554472 0.655067 0.386254 0.368747 0.544399 0.363709
threshold=-0.00018636549999999998 0.013341200000000003 0.00022251950000000002 0.025946100000000003 0.00022740750000000003 0.22843500000000003 -7.7545149999999987 0.11305350000000002 -13.519999999999998 -12.877249999999998 -11.405099999999999 -8.4877049999999983 -6.2498799999999992 -11.042399999999999
decision_type=2 2 2 2 2 2 2 2 2 2 2 2 2 2
left_child=1 -1 -2 -4 11 6 7 8 10 13 -6 -5 -13 -10
right_child=2 -3 3 4 5 -7 -8 -9 9 -11 -12 12 -14 -15
leaf_value=-0.00054768587784122572 4.0469516827608123e-05 3.2122442823681676e-05 -0.00020050631562352271 0.0010988062815254277 -0.0050692146301144292 0.00016730740680801452 0.0023741772240370791 0.00016137573348602033 -0.0067960851004251954 -0.0073528331160750719 0.0035743134508827113 -0.0031384661898045357 0.00076610554693372975 0.0028656984336113711
leaf_weight=3888 128293 10796 38148 9756 198 17634 1050 2455 132 1325 282 1293 2122 261
leaf_count=3888 128293 10796 38148 9756 198 17634 1050 2455 132 1325 282 1293 2122 261
internal_value=0 -0.000121398 8.78353e-06 -4.56674e-05 0.000116127 -0.00017346 -0.00122713 -0.0020398 -0.00449836 -0.00575765 8.85812e-06 0.00062923 -0.000712258 -0.000379481
internal_weight=0 14684 202949 74656 36508 23337 5703 4653 2198 1718 480 13171 3415 393
internal_count=217633 14684 202949 74656 36508 23337 5703 4653 2198 1718 480 13171 3415 393
shrinkage=0.15


Tree=929
num_leaves=15
num_cat=0
split_feature=5 20 11 10 22 6 12 5 22 19 19 33 11 22
split_gain=0.0120859 0.10107 0.106079 0.113635 0.177096 0.280323 0.433591 0.498479 0.319822 0.219025 0.180624 0.619016 0.274141 0.319052
threshold=1.7536450000000004e-05 5.0093250000000014 1.8157550000000001e-06 4.5221600000000008e-05 0.86801550000000016 -3.7257449999999995e-06 4.5049250000000006e-05 2.5967350000000005e-05 1.0806200000000004 8.0753900000000004e-08 2.4794150000000001e-06 -1.7400399999999999e-06 7.6619750000000021e-06 0.74297050000000009
decision_type=2 2 2 2 2 2 2 2 2 2 2 2 2 2
left_child=-1 -2 -3 4 10 6 -6 8 -8 -7 11 12 -4 -14
right_child=1 2 3 -5 5 9 7 -9 -10 -11 -12 -13 13 -15
leaf_value=2.9030506222517577e-05 5.361106605866685e-05 5.3379948809478269e-06 -0.0032034231110939448 -0.00025228247005706862 -0.0018246689690276979 -0.015500279341887852 0.028168072368631638 -0.0071192041353788224 0.0071435599736610639 -1.3230438197959571e-05 -0.001010404136296186 5.7148121083372413e-06 -0.01389653010046848 0.00086340198875404887
leaf_weight=129970 64453 11747 161 6904 75 22 41 20 27 311 3163 512 187 40
leaf_count=129970 64453 11747 161 6904 75 22 41 20 27 311 3163 512 187 40
internal_value=0 -4.30409e-05 -0.000311439 -0.000636063 -0.00121725 0.00145849 0.00655542 0.0136975 0.0198201 -0.0010364 -0.0015439 -0.00341882 -0.0079378 -0.0112957
internal_weight=0 87663 23210 11463 4559 496 163 88 68 333 4063 900 388 227
internal_count=217633 87663 23210 11463 4559 496 163 88 68 333 4063 900 388 227
shrinkage=0.15


Tree=930
num_leaves=15
num_cat=0
split_feature=15 35 3 19 33 34 6 4 4 33 33 22 0 22
split_gain=0.0109557 0.184252 0.224626 0.427025 1.21044 0.546748 0.524237 0.362623 0.590482 1.43032 0.802618 0.616105 0.50241 0.623691
threshold=1.6080300000000002e-08 -0.0003451739999999999 -6.6271099999999992 9.6074000000000005e-06 -7.0584149999999996e-07 0.14700000000000005 -1.4889799999999997e-06 -0.019882549999999995 0.53343300000000016 2.1744200000000004e-06 3.1208300000000004e-05 -0.33467499999999994 0.96588400000000008 -0.20827799999999999
decision_type=2 2 2 2 2 2 2 2 2 2 2 2 2 2
left_child=-1 2 3 4 5 6 -2 12 9 -9 11 -11 -5 -14
right_child=1 -3 -4 7 -6 -7 -8 8 -10 10 -12 -13 13 -15
leaf_value=-3.1870707131580326e-05 -0.0071533867335102303 0.00019319150960874689 0.00034190658036877415 -9.8070324740279238e-05 0.00053577503292659672 -0.0012238894767162274 -0.0021075942370737278 0.00046295344077358251 -3.6208093196883741e-06 -0.012681222651798245 -0.00094418267869217148 -0.0051098601935020841 0.0044413490608284038 -0.000167030889781527
leaf_weight=114738 1170 63638 11370 7969 3270 1351 767 1765 7452 420 499 570 1412 1242
leaf_count=114738 1170 63638 11370 7969 3270 1351 767 1765 7452 420 499 570 1412 1242
internal_value=0 3.5539e-05 -0.000220025 -0.000449135 -0.0015077 -0.00353998 -0.00515539 -0.00012366 -0.000739749 -0.00242556 -0.00584948 -0.00832195 0.000497243 0.00228475
internal_weight=0 102895 39257 27887 6558 3288 1937 21329 10706 3254 1489 990 10623 2654
internal_count=217633 102895 39257 27887 6558 3288 1937 21329 10706 3254 1489 990 10623 2654
shrinkage=0.15


Tree=931
num_leaves=15
num_cat=0
split_feature=6 7 34 38 0 11 12 21 7 20 0 12 6 12
split_gain=0.013248 0.0325703 0.0573469 0.215333 0.127188 0.0810477 0.0603829 0.031224 0.155754 0.0645795 0.111313 0.0517107 0.0520139 0.0336357
threshold=4.8256450000000006e-06 3.2317150000000006e-05 0.015026650000000001 0.00012735250000000004 5.9731700000000005 8.5222450000000026e-06 3.5424900000000007e-05 -13.890549999999999 4.0836600000000008e-05 9.6119850000000024 5.6189700000000009 -6.1600249999999983e-05 6.3001750000000011e-06 -3.7106949999999992e-05
decision_type=2 2 2 2 2 2 2 2 2 2 2 2 2 2
left_child=-1 2 3 4 6 -6 -2 8 -3 11 -11 12 -10 -13
right_child=1 7 -4 -5 5 -7 -8 -9 9 10 -12 13 -14 -15
leaf_value=1.4913311147807321e-05 4.020854726489355e-05 0.012745733253657817 -0.00028634277524529198 -0.016113896414530104 -0.00055389001458284581 -0.013082830010590931 0.0094321542594116171 -8.6926012746210785e-05 -0.0098055619162471918 0.00027114873689531189 0.013700611609134024 0.0062944792562947523 -0.0012876009578273323 5.2748588351519228e-05
leaf_weight=187230 67 25 422 26 21 26 20 29469 23 41 21 22 54 166
leaf_count=187230 67 25 422 26 21 26 20 29469 23 41 21 22 54 166
internal_value=0 -9.18403e-05 -0.00120317 -0.00362131 -0.00119737 -0.00748479 0.00219928 -7.0151e-05 0.00133423 0.000461793 0.00481984 -0.000557825 -0.00383193 0.000783164
internal_weight=0 30403 582 160 134 47 87 29821 352 327 62 265 77 188
internal_count=217633 30403 582 160 134 47 87 29821 352 327 62 265 77 188
shrinkage=0.15


Tree=932
num_leaves=15
num_cat=0
split_feature=18 34 4 33 14 23 24 19 16 17 1 16 21 1
split_gain=0.0120577 0.0342393 0.0311177 0.126143 0.122715 0.210446 0.343258 0.226907 0.493263 0.22607 0.189711 0.381563 0.434585 0.416067
threshold=0.00094737750000000018 0.012110300000000003 0.11543250000000001 -8.5104649999999985e-06 0.0007810015000000002 -8.770274999999998 0.82179550000000012 8.1791500000000028e-06 -1.3824149999999997e-06 1.65204e-07 5.588070000000001 1.2179350000000004e-06 6.4936950000000015 7.3763750000000012
decision_type=2 2 2 2 2 2 2 2 2 2 2 2 2 2
left_child=2 -2 -1 4 -4 10 7 8 -7 -10 -6 -12 -13 -14
right_child=1 -3 3 -5 5 6 -8 -9 9 -11 11 12 13 -15
leaf_value=-2.1548376315346954e-05 -0.00037138873725149499 2.8709637005291518e-06 0.00014440533547471703 0.00025799495011917843 4.0582330782826654e-06 -0.029904805544925771 0.0025506219503031819 -0.0030418305847923839 0.00028056965531924596 -0.01176865230158192 -0.0082651506435435715 -0.0019404394791157958 0.028609200126291919 0.0019023248855955896
leaf_weight=140198 7282 22475 6261 35962 3826 23 189 462 65 76 197 561 21 35
leaf_count=140198 7282 22475 6261 35962 3826 23 189 462 65 76 197 561 21 35
internal_value=0 -8.87162e-05 1.40514e-05 0.000118733 -0.000308727 -0.000828812 -0.00305184 -0.00474332 -0.00953653 -0.00621405 -0.000438345 -0.00251775 -0.000682677 0.0119174
internal_weight=0 29757 187876 47678 11716 5455 815 626 164 141 4640 814 617 56
internal_count=217633 29757 187876 47678 11716 5455 815 626 164 141 4640 814 617 56
shrinkage=0.15


Tree=933
num_leaves=15
num_cat=0
split_feature=5 21 10 1 4 29 31 22 2 23 0 22 2 21
split_gain=0.0117848 0.0642429 0.129926 0.070218 0.0569099 0.0736399 0.0673537 0.0558965 0.0751779 0.282098 0.376804 0.399661 0.445359 0.447681
threshold=8.942730000000002e-06 10.323650000000002 1.1875600000000002e-05 7.5509800000000009 0.3608320000000001 -0.0047731149999999988 -8.8280199999999969 -1.5733149999999998 -1.5873099999999998 -8.2043399999999984 -5.0228599999999988 -2.0263699999999996 -2.0832449999999993 -2.7780149999999995
decision_type=2 2 2 2 2 2 2 2 2 2 2 2 2 2
left_child=1 7 -3 4 6 -6 -4 8 9 10 -1 12 13 -12
right_child=-2 2 3 -5 5 -7 -8 -9 -10 -11 11 -13 -14 -15
leaf_value=0.00041932139371323232 -9.9419804533737999e-06 -0.0015344267345349233 0.0088566005274666772 0.010381376410805387 -0.0097049728338606655 0.0013971421467697549 0.0021635129511711824 -0.00011850745645200077 0.00012282497823315152 -0.00172096031828987 0.020620322409633768 0.014918900703168158 -0.0027190689512012205 -0.00072877001142702415
leaf_weight=429 201302 259 36 24 20 41 561 11457 2812 384 51 103 115 39
leaf_count=429 201302 259 36 24 20 41 561 11457 2812 384 51 103 115 39
internal_value=0 0.000122549 0.0013257 0.00241188 0.0021212 -0.0022429 0.00256712 4.89833e-05 0.000536891 0.00157557 0.00329316 0.007296 0.00346596 0.011369
internal_weight=0 16331 941 682 658 61 597 15390 3933 1121 737 308 205 90
internal_count=217633 16331 941 682 658 61 597 15390 3933 1121 737 308 205 90
shrinkage=0.15


Tree=934
num_leaves=15
num_cat=0
split_feature=25 16 7 16 11 13 16 15 3 18 22 16 18 18
split_gain=0.0117678 0.0261928 0.0820233 0.0595849 0.0588388 0.161564 0.029889 0.0996334 0.0541332 0.131082 0.121528 0.0608017 0.101794 0.0544888
threshold=92.722700000000017 -7.7223649999999984e-06 3.9998900000000008e-05 -8.1689649999999988e-05 -0.00035091199999999994 0.00039772800000000002 4.8771350000000009e-05 -2.1304699999999996e-05 -10.288849999999998 4.5687700000000006e-05 1.0000000180025095e-35 1.3970100000000002e-05 -7.5263849999999979e-05 7.5564450000000015e-05
decision_type=2 2 2 2 2 2 2 2 2 2 2 2 2 2
left_child=-1 2 3 -2 5 -3 7 -6 13 11 -11 12 -10 -9
right_child=1 4 -4 -5 6 -7 -8 8 9 10 -12 -13 -14 -15
leaf_value=2.9780463317808553e-06 -0.00082535796282172662 0.015272011205088348 -4.8713009886756154e-05 -0.0092170369593386949 0.0086474922177550411 -0.0026604856694155805 -0.0021036686870212467 0.00081138937772242596 -0.010671121074648742 -0.0012415741500444708 -0.0163498825940263 0.007563273006651018 -0.00030873840808063897 0.0075088274376016225
leaf_weight=216058 32 20 186 47 29 26 182 231 22 25 23 21 700 31
leaf_count=216058 32 20 186 47 29 26 182 231 22 25 23 21 700 31
internal_value=0 -0.000408527 -0.00176858 -0.00581788 -0.000133403 0.00513625 -0.000325178 -2.60237e-05 -0.000264895 -0.000883868 -0.00848097 -0.000393072 -0.00062449 0.00160383
internal_weight=0 1575 265 79 1310 46 1264 1082 1053 791 48 743 722 262
internal_count=217633 1575 265 79 1310 46 1264 1082 1053 791 48 743 722 262
shrinkage=0.15


Tree=935
num_leaves=15
num_cat=0
split_feature=23 2 17 2 3 35 13 6 22 3 4 3 13 21
split_gain=0.0111568 0.0288602 0.0624053 0.0330433 0.0409428 0.0879528 0.029155 0.0591632 0.029932 0.0250676 0.0231481 0.0405952 0.118853 0.023296
threshold=-21.086549999999995 2.8313250000000005 1.0718000000000003e-05 1.7839050000000001 -10.848199999999999 0.16987200000000005 -4.2680999999999993e-05 5.6937550000000017e-07 0.66859650000000015 -17.495099999999997 -0.22682949999999999 -12.740499999999999 0.00012591750000000003 -5.5758449999999993
decision_type=2 2 2 2 2 2 2 2 2 2 2 2 2 2
left_child=1 3 -3 6 5 -5 7 -1 -9 -8 11 12 -11 -12
right_child=-2 2 -4 4 -6 -7 9 8 -10 10 13 -13 -14 -15
leaf_value=0.0081415754975751042 3.063951424045765e-06 -0.00034061251334724542 0.0096958380471915007 -0.0019735252918326295 -0.00084935353986730804 -0.013459566305391491 -0.0045183832141404423 -0.0036620125540829229 0.003153134290739123 0.010721201377964461 -0.0018949991437001578 -2.6747958595828654e-05 -0.0019268721616806164 -0.00020435390327208828
leaf_weight=28 215876 46 20 60 207 20 32 29 29 32 247 260 35 712
leaf_count=28 215876 46 20 60 207 20 32 29 29 32 247 260 35 712
internal_value=0 -0.000376456 0.00270074 -0.000496559 -0.00196313 -0.00484504 -0.000196768 0.00247915 -0.000254439 -0.000371373 -0.000268181 0.000821662 0.004114 -0.000639796
internal_weight=0 1757 66 1691 287 80 1404 86 58 1318 1286 327 67 959
internal_count=217633 1757 66 1691 287 80 1404 86 58 1318 1286 327 67 959
shrinkage=0.15


Tree=936
num_leaves=15
num_cat=0
split_feature=5 35 35 14 10 18 12 18 14 23 23 34 34 23
split_gain=0.0101389 0.0480404 0.0809163 0.131918 0.146424 0.353101 0.419285 0.183728 0.461146 1.02349 0.457801 0.497519 0.368826 0.367511
threshold=1.7536450000000004e-05 0.00019395050000000001 -0.00013444999999999996 0.0016290400000000002 2.8032150000000006e-05 -5.6742149999999992e-06 -0.00015989499999999999 1.1777600000000004e-06 0.00025343850000000004 -7.644499999999999 -9.7994249999999976 0.010117100000000002 0.0067646700000000013 -8.2043399999999984
decision_type=2 2 2 2 2 2 2 2 2 2 2 2 2 2
left_child=-1 2 -2 4 5 -4 -7 8 13 10 -10 12 -12 -8
right_child=1 -3 3 -5 -6 6 7 -9 9 -11 11 -13 -14 -15
leaf_value=2.6589551114659753e-05 -3.2767126787413067e-05 -0.00016551423003764701 -0.0061402834998103648 -0.00024004565187848938 0.00058160257564531599 0.024089427531527523 -0.0051747320251797641 -0.0013751075877957101 0.0055666658096015448 -0.005816533641074784 0.033500330261886119 0.046083016784607682 0.005919458833523095 0.004403928640235112
leaf_weight=129970 40297 38290 92 3614 4555 22 120 164 31 50 20 22 24 362
leaf_count=129970 40297 38290 92 3614 4555 22 120 164 31 50 20 22 24 362
internal_value=0 -3.94219e-05 5.83658e-05 0.000462992 0.000928165 0.00266862 0.003663 0.00309631 0.00426215 0.0116166 0.0206027 0.0276652 0.0184562 0.0020192
internal_weight=0 87663 49373 9076 5462 907 815 793 629 147 97 66 44 482
internal_count=217633 87663 49373 9076 5462 907 815 793 629 147 97 66 44 482
shrinkage=0.15


Tree=937
num_leaves=15
num_cat=0
split_feature=29 29 2 2 28 25 9 6 6 9 22 9 22 9
split_gain=0.0101222 0.0503712 0.0581958 0.136135 0.348996 0.476141 0.119177 0.0908942 0.166636 0.217954 0.213024 0.0887929 0.0747998 0.191147
threshold=-0.026386799999999998 -0.029397749999999997 0.81660350000000015 0.37821950000000004 0.011679650000000001 1.7160950000000004 2.0004800000000005e-05 7.2341550000000014e-07 1.6468100000000001e-06 1.3370050000000001e-05 -0.11653899999999999 2.8385650000000002e-05 1.1415700000000002 -1.1194649999999998e-05
decision_type=2 2 2 2 2 2 2 2 2 2 2 2 2 2
left_child=1 -1 3 7 -5 -6 12 -3 9 -9 -11 -8 -4 -14
right_child=-2 2 6 4 5 -7 11 8 -10 10 -12 -13 13 -15
leaf_value=3.3213230662370296e-05 -1.257426983639267e-05 -0.00010035966338487188 2.9407575754938705e-05 -0.0017034916660871684 0.032308314324208449 0.0020512591298902406 -0.010888445280187098 0.0010233692428580701 0.0011701846496746133 0.027728746084612794 0.0058357457828242332 -0.0010410514140918772 -0.0023390096900984645 0.01733514256775379
leaf_weight=26872 189067 601 518 51 22 25 38 39 270 20 20 45 25 20
leaf_count=26872 189067 601 518 51 22 25 38 39 270 20 20 45 25 20
internal_value=0 8.32241e-05 0.000876549 0.00156681 0.00688966 0.0162141 -0.000243262 0.00101772 0.00294313 0.00900255 0.0167822 -0.0055495 0.000539007 0.00640506
internal_weight=0 28566 1694 1048 98 47 646 950 349 79 40 83 563 45
internal_count=217633 28566 1694 1048 98 47 646 950 349 79 40 83 563 45
shrinkage=0.15


Tree=938
num_leaves=15
num_cat=0
split_feature=36 16 16 0 20 34 3 3 23 23 32 2 18 12
split_gain=0.00967997 0.328255 0.4141 0.908916 0.894823 1.11588 0.898361 1.05996 0.876208 0.824397 0.61299 2.24903 0.930722 0.8702
threshold=-0.00053743599999999997 -8.3476249999999976e-09 -3.8224499999999993e-06 -4.4341149999999994 -4.683139999999999 0.063411150000000013 -6.2187599999999987 -11.892349999999999 -11.762749999999999 -11.973149999999999 -0.10579699999999999 0.59053450000000007 -6.0195449999999993e-07 -0.00010624399999999998
decision_type=2 2 2 2 2 2 2 2 2 2 2 2 2 2
left_child=1 2 -1 -4 -5 6 7 9 -9 -6 11 -10 -13 -12
right_child=-2 -3 3 4 5 -7 -8 8 10 -11 13 12 -14 -15
leaf_value=-0.00019809550428420564 -2.2192921383749954e-05 -0.00027723831467386549 -0.00016781825858093845 -0.00098632752851211336 0.012948203557836156 0.001148834795587047 -0.00015085640428776195 -0.0024076827589288195 -0.00085538830940292776 -0.0016423730931527381 0.021203583951923066 0.03029936430631144 -0.0033900012661303796 0.006642333739565306
leaf_weight=16214 145852 35716 10158 1975 105 4706 638 163 115 512 100 152 21 1206
leaf_count=16214 145852 35716 10158 1975 105 4706 638 163 115 512 100 152 21 1206
internal_value=0 4.50939e-05 0.000364307 0.000823669 0.00186272 0.00259178 0.00484626 0.0061892 0.00806745 0.000840626 0.00913862 0.0154026 0.0262099 0.00775728
internal_weight=0 71781 36065 19851 9693 7718 3012 2374 1757 617 1594 288 173 1306
internal_count=217633 71781 36065 19851 9693 7718 3012 2374 1757 617 1594 288 173 1306
shrinkage=0.15


Tree=939
num_leaves=15
num_cat=0
split_feature=1 21 21 3 23 14 23 3 23 23 9 20 18 36
split_gain=0.0118474 0.295244 0.717441 0.781601 3.69302 1.96912 1.97287 1.05025 1.57983 0.977787 1.01132 0.87649 0.694051 0.85117
threshold=7.2775700000000008 2.3962650000000001 7.2885650000000011 -7.6157749999999993 -7.6733199999999995 0.0015765250000000003 -10.428949999999999 -9.812249999999997 -9.7541349999999998 -10.016399999999999 -2.9410299999999995e-05 -6.6207549999999991 1.5027300000000003e-05 0.020248750000000003
decision_type=2 2 2 2 2 2 2 2 2 2 2 2 2 2
left_child=-1 -2 -3 4 5 6 -4 8 -8 -9 -11 -12 13 -13
right_child=1 2 3 -5 -6 -7 7 9 -10 10 11 12 -14 -15
leaf_value=1.635843840104103e-05 0.0002708058578392135 -0.0014337443209140313 -0.0051195138589069491 -0.00041611391434980314 -0.0042785943856870822 -0.00032033203086009534 0.031356174163520337 -0.011233134209760463 -0.020727781911141628 -0.0066290258623344159 -0.006148745179641992 0.025590787770983496 0.0019501056902192751 -0.0046406892313494933
leaf_weight=178611 22928 9205 112 4932 854 356 20 24 38 31 25 441 34 22
leaf_count=178611 22928 9205 112 4932 854 356 20 24 38 31 25 441 34 22
internal_value=0 -7.48756e-05 -0.000567344 0.00059033 0.00312675 0.00886036 0.0132356 0.0164731 -0.0027678 0.0184072 0.0196935 0.0212568 0.0226353 0.0241543
internal_weight=0 39022 16094 6889 1957 1103 747 635 58 577 553 522 497 463
internal_count=217633 39022 16094 6889 1957 1103 747 635 58 577 553 522 497 463
shrinkage=0.15


Tree=940
num_leaves=15
num_cat=0
split_feature=15 32 7 18 31 13 36 34 6 1 10 18 29 34
split_gain=0.0118662 0.144784 0.124333 0.146576 0.230369 0.324199 1.40704 1.17317 0.622792 0.45991 0.356054 0.335356 0.257769 0.202004
threshold=1.6080300000000002e-08 0.21331500000000003 5.0336000000000007e-05 2.1088550000000005e-06 -0.015857449999999999 -8.0373599999999975e-06 -0.0048763099999999992 0.97781150000000017 2.8454900000000007e-07 -4.9916099999999988 2.0392150000000004e-05 3.9077700000000007e-05 -0.0022758349999999995 0.082065000000000013
decision_type=2 2 2 2 2 2 2 2 2 2 2 2 2 2
left_child=-1 -2 3 13 5 6 7 8 -5 10 -10 -9 -7 -3
right_child=1 2 -4 4 -6 12 -8 11 9 -11 -12 -13 -14 -15
leaf_value=-3.316869390346807e-05 0.00011298150323561238 -0.0038636416959429393 0.00016915913501675477 -0.0011069888295605779 -0.0011986083129901892 8.1328025845324e-05 -0.0059999509352068837 -0.011844962897642593 0.0496401814520359 0.014679005474003182 0.026467621882329696 0.011045942964847198 0.016456989052147201 -0.00084752459131792919
leaf_weight=114738 87021 542 5860 20 1469 1279 132 36 25 37 37 24 22 6391
leaf_count=114738 87021 542 5860 20 1469 1279 132 36 25 37 37 24 22 6391
internal_value=0 3.69863e-05 -0.000379618 -0.000700752 0.000160109 0.0013983 0.00574913 0.0144133 0.0230361 0.0279134 0.0358114 -0.0026886 0.000358242 -0.00108332
internal_weight=0 102895 15874 10014 3081 1612 311 179 119 99 62 60 1301 6933
internal_count=217633 102895 15874 10014 3081 1612 311 179 119 99 62 60 1301 6933
shrinkage=0.15


Tree=941
num_leaves=15
num_cat=0
split_feature=38 4 14 3 23 3 14 23 23 4 39 3 21 3
split_gain=0.0141802 0.16309 0.18154 0.176512 0.159705 0.280816 0.264204 0.142846 0.22522 0.268579 0.604007 0.335143 0.259665 0.21564
threshold=-0.0015235849999999998 -0.0098646799999999989 0.00048450950000000005 -9.9127699999999983 -10.965549999999999 -6.2768299999999995 0.00015935200000000003 -9.355299999999998 -17.075499999999995 -0.30706199999999995 0.00030091450000000006 -16.266399999999997 -7.6127649999999987 -10.288849999999998
decision_type=2 2 2 2 2 2 2 2 2 2 2 2 2 2
left_child=1 2 3 -1 5 -5 -6 8 -4 -10 11 -11 -13 -9
right_child=-2 -3 7 4 6 -7 -8 13 9 10 -12 12 -14 -15
leaf_value=0.0042386489176678222 -1.9536493107058686e-05 -0.00020868447078708423 0.00097224243871247304 0.0023377763267096916 0.00088668963737065698 0.0001829273777589106 -0.0017051022315927508 0.0017904475536933016 -0.00028186364781689072 0.0021385687924681835 0.00043787293857463783 -0.022801282982950595 -0.0065398327745383612 -0.00053828956922765173
leaf_weight=334 172677 22634 2230 2710 2591 2733 1344 2061 5338 102 714 23 561 1581
leaf_count=334 172677 22634 2230 2710 2591 2733 1344 2061 5338 102 714 23 561 1581
internal_value=0 7.50401e-05 0.00036273 0.000850163 0.000729481 0.0012558 1.46263e-06 -1.26813e-05 -0.00033441 -0.000766858 -0.00261607 -0.00579467 -0.00718027 0.000779538
internal_weight=0 44956 22322 9712 9378 5443 3935 12610 8968 6738 1400 686 584 3642
internal_count=217633 44956 22322 9712 9378 5443 3935 12610 8968 6738 1400 686 584 3642
shrinkage=0.15


Tree=942
num_leaves=15
num_cat=0
split_feature=11 31 39 19 19 33 19 34 13 4 4 23 3 3
split_gain=0.0131205 0.0923017 0.077415 0.114655 0.195058 0.114327 0.115729 0.139923 0.105131 0.0880662 0.160669 0.174599 0.30933 0.30815
threshold=-2.8224349999999997e-05 -0.026451249999999999 0.00017074050000000002 3.3531450000000002e-07 0.00016655050000000002 1.0209450000000003e-05 2.4128850000000005e-05 0.90570150000000005 7.5104950000000017e-05 -0.42388399999999993 0.43714250000000004 -9.3974499999999974 -10.010399999999999 -9.095419999999999
decision_type=2 2 2 2 2 2 2 2 2 2 2 2 2 2
left_child=1 2 8 -4 5 6 7 -5 9 -1 11 13 -13 -11
right_child=-2 -3 3 4 -6 -7 -8 -9 -10 10 -12 12 -14 -15
leaf_value=0.0015650359634175493 -2.2804341709635032e-05 -8.7570676893312591e-05 0.0017075669915461364 -0.0073975811471667071 9.2218307989197422e-05 -0.00052564693025834415 -0.0011243772371624659 -0.0011036371340998035 1.6548583332982166e-05 -0.0021503141067791497 0.0014887138455070554 0.0026578211385675818 -0.0013043777657437616 0.0016935980962601686
leaf_weight=2557 157320 37047 733 228 6087 630 283 122 6175 1514 2427 1076 754 680
leaf_count=2557 157320 37047 733 228 6087 630 283 122 6175 1514 2427 1076 754 680
internal_value=0 5.94827e-05 0.000293639 -8.13645e-05 -0.000259771 -0.00195617 -0.00337992 -0.00520369 0.000493281 0.000820081 0.000524801 -5.65642e-05 0.00102531 -0.000958947
internal_weight=0 60313 23266 8083 7350 1263 633 350 15183 9008 6451 4024 1830 2194
internal_count=217633 60313 23266 8083 7350 1263 633 350 15183 9008 6451 4024 1830 2194
shrinkage=0.15


Tree=943
num_leaves=15
num_cat=0
split_feature=13 33 19 33 19 23 3 3 33 3 23 24 33 4
split_gain=0.0120613 0.111452 0.215661 0.153081 0.393176 0.614022 0.560883 0.278717 0.739881 0.829419 0.556722 0.676224 0.481487 0.693002
threshold=2.2315950000000001e-05 -3.3389649999999995e-07 3.7476600000000006e-05 -8.5104649999999985e-06 2.4794150000000001e-06 -9.713144999999999 -7.8541999999999996 -9.095419999999999 -4.1894999999999986e-06 -7.4471299999999987 -9.1480199999999989 0.15127950000000004 -5.7715749999999999e-06 -0.035014599999999993
decision_type=2 2 2 2 2 2 2 2 2 2 2 2 2 2
left_child=-1 3 -3 -2 5 6 -5 -7 9 10 -9 12 -12 -14
right_child=1 2 -4 4 -6 7 -8 8 -10 -11 11 -13 13 -15
leaf_value=-2.9023931680717926e-05 0.00015422653400274489 0.00070443805365404523 -1.2960548087215237e-05 -0.0074638221024621223 -5.5134926820307781e-05 -0.0018909978298777628 0.00050741432358056325 -0.0079722807065329762 -0.0017245040397859694 3.6232180936945109e-05 0.024841504474898104 0.00026928985219759247 0.024460275347727083 -0.001028729190667426
leaf_weight=129887 21994 13749 30002 650 16858 2302 286 33 1192 414 96 72 42 56
leaf_count=129887 21994 13749 30002 650 16858 2302 286 33 1192 414 96 72 42 56
internal_value=0 4.2963e-05 0.000212486 -0.00012562 -0.000405377 -0.00155342 -0.00502817 -0.000780336 0.000561786 0.00438403 0.010404 0.0126838 0.0172913 0.00989513
internal_weight=0 87746 43751 43995 22001 5143 936 4207 1905 713 299 266 194 98
internal_count=217633 87746 43751 43995 22001 5143 936 4207 1905 713 299 266 194 98
shrinkage=0.15


Tree=944
num_leaves=15
num_cat=0
split_feature=22 2 22 2 16 18 1 21 39 39 25 8 37 6
split_gain=0.0111538 0.0917003 0.265732 0.515342 0.291874 0.309808 0.413106 0.547948 0.428077 0.444881 0.303235 0.252644 0.358338 0.250425
threshold=-2.5339749999999994 -2.5276899999999993 -2.7774649999999994 -2.7531699999999995 -1.4816449999999998e-05 -4.1156349999999994e-05 -4.0791099999999991 -4.0801599999999993 5.3546250000000004e-06 3.606105e-06 1.4201850000000003 8.5266900000000019e-06 -1.1877199999999999e-07 -5.5308399999999999e-06
decision_type=2 2 2 2 2 2 2 2 2 2 2 2 2 2
left_child=1 2 -1 -4 -5 -6 7 11 9 -8 -10 -7 -13 -14
right_child=-2 -3 3 4 5 6 8 -9 10 -11 -12 12 13 -15
leaf_value=-0.00031787553113317554 -1.1062297265290256e-05 -1.1798312975310466e-05 -0.00056278513674712512 -0.0050567668273443092 -0.0025127705811868392 0.0019927847498117691 0.015792431506829765 -0.0046745669090202729 0.024949340283564186 -0.013964665273670107 0.007015201719156627 0.0018795035033048512 0.013417683656294938 0.03164598902637538
leaf_weight=1491 196753 18376 505 47 62 55 26 85 79 20 29 34 43 28
leaf_count=1491 196753 18376 505 47 62 55 26 85 79 20 29 34 43 28
internal_value=0 0.00010424 0.000955809 0.0028305 0.00620375 0.00735179 0.00888462 0.00505803 0.0149724 0.00285456 0.0201337 0.0102285 0.0145424 0.0206063
internal_weight=0 20880 2504 1013 508 461 399 245 154 46 108 160 105 71
internal_count=217633 20880 2504 1013 508 461 399 245 154 46 108 160 105 71
shrinkage=0.15


Tree=945
num_leaves=15
num_cat=0
split_feature=22 11 14 11 2 26 37 5 2 20 33 1 33 19
split_gain=0.0118716 0.039842 0.0512199 0.0635431 0.0521581 0.245683 0.183695 0.154764 0.0565974 0.0678248 0.0610023 0.0521031 0.0503075 0.112426
threshold=-2.8863399999999997 6.4657950000000013e-05 7.3868200000000019e-05 -3.4928399999999996e-05 -2.8223399999999992 9.0225100000000005e-05 -6.1250599999999989e-08 1.0554350000000002e-05 -2.6044999999999994 -6.5310749999999986 -1.1664049999999997e-06 -3.9125799999999997 -3.5237899999999998e-06 7.0604550000000007e-06
decision_type=2 2 2 2 2 2 2 2 2 2 2 2 2 2
left_child=1 2 -1 11 5 6 -5 -7 9 10 -6 12 13 -4
right_child=-2 -3 3 4 8 7 -8 -9 -10 -11 -12 -13 -14 -15
leaf_value=-0.00054151134381387413 -7.1613064977753516e-06 -0.00049865996467741264 -0.0071178074336630546 -0.0086535891591522258 -0.012849668965541889 0.0046357753872871398 0.0060954170565022843 0.022103087251473749 0.00088500444589857555 0.0033074614109604487 -0.0014164209320110136 -0.00052638392599559049 0.002291618689668483 0.0010051637901054933
leaf_weight=1263 208904 1625 47 38 21 25 38 21 3360 21 21 1699 342 208
leaf_count=1263 208904 1625 47 38 21 25 38 21 3360 21 21 1699 342 208
internal_value=0 0.000171386 0.000324655 0.000511946 0.000910108 0.00395778 -0.00127909 0.01261 0.000801485 -0.00365288 -0.00713304 -0.000102812 0.00110263 -0.000492011
internal_weight=0 8729 7104 5841 3545 122 76 46 3423 63 42 2296 597 255
internal_count=217633 8729 7104 5841 3545 122 76 46 3423 63 42 2296 597 255
shrinkage=0.15


Tree=946
num_leaves=15
num_cat=0
split_feature=4 24 4 4 3 36 33 19 14 17 11 25 28 9
split_gain=0.0116327 0.0538676 0.145377 0.0938194 0.109572 0.0923916 0.0835793 0.128503 0.125617 0.0670189 0.188726 0.0691581 0.184138 0.0616904
threshold=0.10593100000000001 0.33377850000000003 -0.0098646799999999989 -0.63345599999999991 -14.170649999999997 -0.60180299999999987 -1.0057549999999998e-06 0.00043822800000000009 0.0017399150000000001 4.663200000000001e-08 1.9183800000000001e-05 2.4573400000000003 -0.015011549999999997 1.9532000000000005e-05
decision_type=2 2 2 2 2 2 2 2 2 2 2 2 2 2
left_child=1 -1 3 -3 5 -5 9 -8 -9 10 11 12 -4 -7
right_child=-2 2 6 4 -6 13 7 8 -10 -11 -12 -13 -14 -15
leaf_value=-6.300618688318914e-05 4.5483565665881924e-05 -3.2889820956525772e-05 0.016891956388426478 0.010595887931995094 0.00057540357523315022 0.0028911237473285951 -0.00096412519910265226 -0.0035701493197068754 -0.014260581039406101 -0.00042049513497803499 0.012301399464486168 -0.00068567575067896133 -0.00023902187176645385 -0.00023124013836710029
leaf_weight=119486 80007 5856 20 30 7782 568 1035 168 29 2163 35 216 48 190
leaf_count=119486 80007 5856 20 30 7782 568 1035 168 29 2163 35 216 48 190
internal_value=0 -2.64413e-05 0.000214408 0.000429869 0.000746078 0.0024316 -0.000622491 -0.00163248 -0.00514387 -0.000121161 0.00190849 0.000627676 0.0047995 0.00210847
internal_weight=0 137626 18140 14426 8570 788 3714 1232 197 2482 319 284 68 758
internal_count=217633 137626 18140 14426 8570 788 3714 1232 197 2482 319 284 68 758
shrinkage=0.15


Tree=947
num_leaves=15
num_cat=0
split_feature=4 36 19 31 19 8 21 2 19 7 3 18 18 22
split_gain=0.0109446 0.0422736 0.0454225 0.137229 0.0605549 0.251404 0.345078 0.335916 0.0693031 0.0542662 0.0491652 0.0441168 0.068931 0.429426
threshold=-0.48541799999999996 -0.083741049999999984 8.1791500000000028e-06 -1.1967349999999999 5.8236700000000004e-05 -1.0310199999999998e-05 4.2770900000000012 0.27908250000000007 8.2642650000000018e-05 2.6900950000000005e-05 -12.831349999999999 -7.5263849999999979e-05 -0.00022632149999999996 2.1682400000000004
decision_type=2 2 2 2 2 2 2 2 2 2 2 2 2 2
left_child=1 2 3 -1 5 6 -4 -7 -6 10 -10 12 -11 -14
right_child=-2 -3 4 -5 8 7 -8 -9 9 11 -12 -13 13 -15
leaf_value=0.013593521408038213 -1.7568097413810869e-05 9.5399329601603158e-05 -0.0042047046742831858 -0.0018283085570343441 0.0058084639308687586 -0.0027268854493740944 0.018655599060002713 -0.020663685886369597 -0.0084238918122561714 -0.00054886791039340365 -5.5313856541437812e-06 -0.0043224276722564053 -0.0012245217762855728 0.021140275271682184
leaf_weight=20 170992 44543 39 37 39 97 24 31 37 1561 27 63 99 24
leaf_count=20 170992 44543 39 37 39 97 24 31 37 1561 27 63 99 24
internal_value=0 6.44069e-05 -0.000593598 0.00358286 -0.000710236 -0.00325304 0.00450398 -0.00707095 -0.000447708 -0.000582435 -0.0048724 -0.000425276 -0.00027948 0.00313934
internal_weight=0 46641 2098 57 2041 191 63 128 1850 1811 64 1747 1684 123
internal_count=217633 46641 2098 57 2041 191 63 128 1850 1811 64 1747 1684 123
shrinkage=0.15


Tree=948
num_leaves=15
num_cat=0
split_feature=12 22 19 23 20 11 25 1 16 31 6 14 20 9
split_gain=0.0106101 0.0652843 0.177471 0.587661 1.23435 1.29865 1.22503 1.21245 0.493184 0.358517 0.449516 0.332681 0.331161 1.1257
threshold=9.1870050000000003e-05 0.86801550000000016 2.9382000000000002e-07 -9.4348649999999985 2.0727300000000004 1.4492750000000001e-05 1.0238200000000004 4.3945300000000005 -7.0340699999999991e-08 -0.01025215 -2.8539149999999997e-06 0.00068334050000000012 -0.53812299999999991 1.5296750000000006e-05
decision_type=2 2 2 2 2 2 2 2 2 2 2 2 2 2
left_child=-1 -2 3 4 12 -6 7 -7 -9 10 11 -5 -3 -14
right_child=1 2 -4 9 5 6 -8 8 -10 -11 -12 -13 13 -15
leaf_value=-1.8542605592186603e-05 -6.9565756289009827e-05 -0.00082470163485859587 0.00013880118809920491 0.011783249486593136 -0.0050784335836311272 -0.00080338494153693325 -0.006316600791696045 0.055039447607472536 0.030300883318043568 0.00052968253637222394 -0.013068489864546624 -0.0091557958824259617 0.01490221825092391 -0.007679836693932884
leaf_weight=165696 32750 465 17534 38 53 24 27 25 66 603 110 31 131 80
leaf_count=165696 32750 465 17534 38 53 24 27 25 66 603 110 31 131 80
internal_value=0 5.9157e-05 0.000278872 0.00176465 0.00444452 0.0149582 0.0224367 0.0291875 0.0370972 -0.00122021 -0.00711508 0.00237585 0.00141171 0.0063403
internal_weight=0 51937 19187 1653 871 195 142 115 91 782 179 69 676 211
internal_count=217633 51937 19187 1653 871 195 142 115 91 782 179 69 676 211
shrinkage=0.15


Tree=949
num_leaves=15
num_cat=0
split_feature=23 14 3 23 3 3 3 23 3 25 3 37 37 0
split_gain=0.0113866 0.0753604 0.290743 0.479933 0.357241 0.345822 0.214667 0.869683 0.399555 0.297409 0.25792 0.4634 0.360596 0.643571
threshold=-7.8351449999999998 0.00019721000000000002 -6.1920449999999994 -6.2663199999999994 -6.2768299999999995 -8.7372249999999987 -7.8541999999999996 -7.3218799999999993 -8.2790849999999967 0.82237900000000008 -7.2547399999999991 4.1247850000000005e-08 8.1633150000000002e-08 4.2274800000000008
decision_type=2 2 2 2 2 2 2 2 2 2 2 2 2 2
left_child=-1 2 3 5 -5 -2 7 8 -7 -10 11 -8 13 -13
right_child=1 -3 -4 4 -6 6 10 -9 9 -11 -12 12 -14 -15
leaf_value=-2.3456877775085534e-05 0.0038827919920767047 0.00015902507773684263 0.0002956479427694812 0.0025614999036527781 -0.0057556844786063261 -0.0030585360982427921 -0.00060361800457371824 -0.00055336754281042836 -0.020306130348406028 -0.0060744777449144747 -0.0016330499240954609 -0.0030201636281976547 0.0016583767984536665 0.02110820019370294
leaf_weight=148312 289 46703 12819 1260 128 85 1440 577 106 48 5593 38 163 72
leaf_count=148312 289 46703 12819 1260 128 85 1440 577 106 48 5593 38 163 72
internal_value=0 5.01859e-05 -0.000174552 -0.000789665 0.0017945 -0.00121611 -0.00139754 -0.00370502 -0.0113138 -0.0158703 -0.00113982 0.000470595 0.00613678 0.0127729
internal_weight=0 69321 22618 9799 1388 8411 8122 816 239 154 7306 1713 273 110
internal_count=217633 69321 22618 9799 1388 8411 8122 816 239 154 7306 1713 273 110
shrinkage=0.15


Tree=950
num_leaves=15
num_cat=0
split_feature=14 23 34 3 5 37 15 20 23 18 21 21 0 1
split_gain=0.00992461 0.0810161 0.0561515 0.114678 0.115269 0.151985 0.279855 0.192884 0.274561 0.195687 0.215598 0.21382 0.423295 0.181323
threshold=0.000110883 -14.361299999999998 0.0067646700000000013 -7.0757599999999989 7.7149050000000017e-06 3.1857500000000006e-08 3.1455100000000005e-08 -7.8335649999999992 -6.7159199999999997 -5.5547949999999988e-07 -2.2686149999999996 -3.0476499999999995 9.0369550000000007 4.7981500000000006
decision_type=2 2 2 2 2 2 2 2 2 2 2 2 2 2
left_child=1 -1 3 4 -3 7 -7 13 9 10 -9 -11 -13 -6
right_child=-2 2 -4 -5 5 6 -8 8 -10 11 -12 12 -14 -15
leaf_value=-0.00036641085437948102 -1.6708219908187034e-05 -0.0076266473492768655 0.00024131129037609391 -4.8856558059215268e-05 -6.1501481756580828e-05 -0.0040967147767303445 0.016591558410021079 -0.0039210418984293935 0.001210664098968999 -0.012060043384138096 -0.023896770931840422 -0.0069974896659214907 0.018235157290473578 0.015116714034229517
leaf_weight=8204 171085 78 30998 6781 113 31 28 20 114 56 31 52 21 21
leaf_count=8204 171085 78 30998 6781 113 31 28 20 114 56 31 52 21 21
internal_value=0 6.14103e-05 0.000152946 -0.00021993 -0.00227312 -0.00141567 0.00572145 -0.00239953 -0.00454932 -0.0081973 -0.0160632 -0.00508755 0.000261217 0.00231717
internal_weight=0 46548 38344 7346 565 487 59 428 294 180 51 129 73 134
internal_count=217633 46548 38344 7346 565 487 59 428 294 180 51 129 73 134
shrinkage=0.15


Tree=951
num_leaves=15
num_cat=0
split_feature=29 0 9 20 9 31 14 3 29 9 19 22 22 3
split_gain=0.0098545 0.109826 0.151729 0.47964 0.621482 0.548406 0.619149 0.418303 0.377583 2.51283 1.58323 1.00247 1.13707 0.874318
threshold=1.0000000180025095e-35 6.4667950000000003 1.0000000180025095e-35 -3.4919999999999995 8.0374850000000012e-06 0.031475800000000005 0.0038047950000000006 -7.0757599999999989 0.0013509850000000001 -6.2292599999999995e-06 5.3757900000000004e-06 -1.7647699999999997 1.6604000000000003 -6.4132949999999989
decision_type=2 2 2 2 2 2 2 2 2 2 2 2 2 2
left_child=-1 2 8 -4 5 6 7 -5 9 -2 11 -11 13 -13
right_child=1 -3 3 4 -6 -7 -8 -9 -10 10 -12 12 -14 -15
leaf_value=-3.1170902022161413e-05 4.2868440252733971e-05 0.0003374441852636465 0.00012128155847275835 -0.012440271684317848 -0.00050513632762870411 -0.0014483384654028568 -0.00083995289529813558 -0.0044769618687992485 -1.9221886716435461e-05 -0.0089146486649553935 0.001552741030714737 0.027568310850927997 0.0016746867157053202 0.0063745868883614259
leaf_weight=111396 4333 21277 19847 339 8109 1466 326 264 49623 32 282 215 69 55
leaf_count=111396 4333 21277 19847 339 8109 1466 326 264 49623 32 282 215 69 55
internal_value=0 3.26846e-05 -4.3638e-05 -0.000312521 -0.00113218 -0.00325522 -0.00610656 -0.00895385 0.000105804 0.00135012 0.0100244 0.0164638 0.0188594 0.0232511
internal_weight=0 106237 84960 30351 10504 2395 929 603 54609 4986 653 371 339 270
internal_count=217633 106237 84960 30351 10504 2395 929 603 54609 4986 653 371 339 270
shrinkage=0.15


Tree=952
num_leaves=15
num_cat=0
split_feature=34 5 37 15 38 23 36 15 16 34 14 33 29 10
split_gain=0.0104599 0.0364077 0.182762 0.0881288 0.0911769 0.0737891 0.0719353 0.0700887 0.0616917 0.109819 0.0533139 0.0518236 0.0427006 0.0308675
threshold=0.10256300000000002 6.5625250000000012e-06 1.7610800000000003e-07 -1.6870249999999996e-07 -0.00038500549999999996 -12.0435 -0.0010519149999999998 -3.5308899999999996e-09 5.5163850000000009e-08 0.0052115000000000009 0.00042154700000000003 -4.3173299999999989e-06 0.0099036800000000032 3.6696650000000007e-05
decision_type=2 2 2 2 2 2 2 2 2 2 2 2 2 2
left_child=1 2 3 4 -1 10 7 -7 12 -10 -5 -6 -8 -3
right_child=-2 13 -4 5 11 6 8 -9 9 -11 -12 -13 -14 -15
leaf_value=0.01335632611939218 4.3402329032333323e-05 -9.0618967393578484e-05 0.012583271375624464 -0.0013955113560024819 0.0088480057660490271 -0.0018490742304129524 0.0016408123785561673 0.0093416332755569941 -0.013685722927912137 -0.0013179329348661538 -0.012096155964536592 0.00044154861930405486 -0.0055310531419568831 5.3088802337720281e-05
leaf_weight=20 79371 79367 30 22 21 20 169 34 20 84 20 77 21 58357
leaf_count=20 79371 79367 30 22 21 20 169 34 20 84 20 77 21 58357
internal_value=0 -2.49156e-05 0.00120663 0.000534779 0.00412656 -0.000551964 0.000164823 0.00519693 -0.000759441 -0.00369635 -0.00649106 0.00224293 0.000848133 -2.97265e-05
internal_weight=0 138262 538 508 118 390 348 54 294 104 42 98 190 137724
internal_count=217633 138262 538 508 118 390 348 54 294 104 42 98 190 137724
shrinkage=0.15


Tree=953
num_leaves=15
num_cat=0
split_feature=3 34 14 25 14 6 34 33 14 21 1 34 34 3
split_gain=0.0104781 0.0966742 0.188538 0.134542 0.185528 0.193529 0.252145 0.631499 0.168155 0.301901 0.284527 1.63175 0.4447 0.215829
threshold=-10.288849999999998 0.033530350000000007 0.0067067750000000008 0.43678050000000007 0.0054376550000000004 3.8605600000000014e-06 0.048668800000000005 6.7253650000000001e-06 0.00099878550000000025 -4.4635399999999992 -4.9916099999999988 0.057482300000000007 0.10825800000000001 -12.042299999999999
decision_type=2 2 2 2 2 2 2 2 2 2 2 2 2 2
left_child=1 2 -1 4 5 8 7 -7 9 10 11 -3 -12 -11
right_child=-2 3 -4 -5 -6 6 -8 -9 -10 13 12 -13 -14 -15
leaf_value=0.00060335026901734638 -2.3197819918285856e-05 0.026847896763287922 -0.00014515090182728058 6.1858975193559792e-05 9.8990568724482099e-05 -0.0045469955280667256 0.00022762260403765862 0.025054511173477616 -0.001820766535316059 0.0040334429248139467 -0.010749668028404021 -0.021586106081316565 0.0043762876458813323 -0.00024569312484521604
leaf_weight=16055 145402 34 14330 30602 5312 31 207 34 4068 371 169 29 59 930
leaf_count=16055 145402 34 14330 30602 5312 31 207 34 4068 371 169 29 59 930
internal_value=0 4.66975e-05 0.000250346 -0.000101175 -0.000544893 -0.00112148 0.00278682 0.0109369 -0.0013093 -2.35477e-06 -0.00436997 0.00455288 -0.0068355 0.000974568
internal_weight=0 72231 30385 41846 11244 5932 272 65 5660 1592 291 63 228 1301
internal_count=217633 72231 30385 41846 11244 5932 272 65 5660 1592 291 63 228 1301
shrinkage=0.15


Tree=954
num_leaves=15
num_cat=0
split_feature=14 19 33 23 23 3 3 23 6 33 36 37 13 39
split_gain=0.0109552 0.0533771 0.303272 0.173483 0.194462 0.364771 0.325572 0.337411 0.165567 0.582341 0.169896 0.158916 0.407213 0.456485
threshold=0.0013170050000000002 4.6329000000000001e-06 1.8499350000000002e-06 -10.965549999999999 -17.199899999999996 -16.724049999999995 -16.413199999999996 -16.042949999999994 -3.1083249999999988e-08 7.3721900000000005e-06 -0.020440999999999997 3.8063150000000008e-07 3.8072300000000012e-05 0.00067619600000000011
decision_type=2 2 2 2 2 2 2 2 2 2 2 2 2 2
left_child=-1 2 11 4 5 -4 7 -6 10 -10 -8 -2 -13 -14
right_child=1 -3 3 -5 6 -7 8 -9 9 -11 -12 12 13 -15
leaf_value=-2.9246056746036595e-05 -0.00068677703299367036 3.3053585155069519e-06 -0.0075476504941304609 0.0024403453301016292 -0.010648453310732881 0.005759134934543348 0.0032635727348538381 0.0060622329714434637 0.026376011451211524 -0.0047222450724802908 -0.0035738436304212236 -0.002476689168165117 0.0098907404207822583 0.00012497225291804954
leaf_weight=123994 4277 85295 56 1917 31 269 93 221 20 42 677 308 201 232
leaf_count=123994 4277 85295 56 1917 31 269 93 221 20 42 677 308 201 232
internal_value=0 3.87268e-05 0.000400816 0.00151159 0.000247975 0.00346627 -0.000716921 0.00400655 -0.00214759 0.00530945 -0.00274803 -0.000335419 0.00169259 0.00465827
internal_weight=0 93639 8344 3326 1409 325 1084 252 832 62 770 5018 741 433
internal_count=217633 93639 8344 3326 1409 325 1084 252 832 62 770 5018 741 433
shrinkage=0.15


Tree=955
num_leaves=15
num_cat=0
split_feature=13 22 19 22 0 28 7 25 24 16 37 37 30 37
split_gain=0.0094873 0.0418449 0.093098 0.0418499 0.0682728 0.0355008 0.0318103 0.0287012 0.0890735 0.0267584 0.0255798 0.0195257 0.0992034 0.0780561
threshold=-0.00011454099999999999 2.5417150000000004 0.079348700000000008 2.3223600000000002 -4.0539249999999987 0.016062950000000003 8.5628950000000013e-05 29.334150000000005 -0.82277699999999998 -1.3824149999999997e-06 2.5151900000000006e-06 -5.651309999999999e-07 0.00076204750000000013 -1.8027099999999996e-07
decision_type=2 2 2 2 2 2 2 2 2 2 2 2 2 2
left_child=1 3 5 7 -5 -3 -6 8 -1 -9 11 12 -10 -13
right_child=-2 2 -4 4 6 -7 -8 9 10 -11 -12 13 -14 -15
leaf_value=0.0070020671854236797 2.782966951311274e-06 0.00075531045031311799 -0.0090285840986045786 0.0090459657346243678 -0.0047459900597459637 -0.0052333651287160042 0.0032799579268321393 -0.00094377319596944658 -0.010641568605205976 -0.0080756728495907735 -0.00362313949737934 0.0029946662482481252 -0.00037156979936136148 -0.00051091718331750262
leaf_weight=38 215928 96 39 29 20 29 25 29 24 20 52 168 179 957
leaf_count=38 215928 96 39 29 20 29 25 29 24 20 52 168 179 957
internal_value=0 -0.000352446 -0.00263032 -0.000110025 0.00337043 -0.000634062 -0.00028713 -0.00028559 -0.000162255 -0.00385475 -0.000359533 -0.000231741 -0.00158576 1.25833e-05
internal_weight=0 1705 164 1541 74 125 45 1467 1418 49 1380 1328 203 1125
internal_count=217633 1705 164 1541 74 125 45 1467 1418 49 1380 1328 203 1125
shrinkage=0.15


Tree=956
num_leaves=15
num_cat=0
split_feature=4 19 37 24 18 33 23 3 23 23 29 37 10 3
split_gain=0.0092837 0.0467675 0.103119 0.129719 0.151722 0.155813 0.467242 0.1703 0.150035 0.105202 0.0820976 0.0926116 0.0756956 0.0676283
threshold=0.10593100000000001 2.7237000000000004e-08 -2.3412199999999996e-08 0.31915200000000005 8.4657650000000006e-07 -3.4290999999999995e-06 -10.016399999999999 -9.196419999999998 -6.2663199999999994 -8.4877049999999983 -0.06884934999999999 -1.8604049999999997e-06 1.2929700000000001e-05 -7.6157749999999993
decision_type=2 2 2 2 2 2 2 2 2 2 2 2 2 2
left_child=-1 2 10 4 8 6 7 -6 -4 -8 11 -2 -12 -5
right_child=1 -3 3 13 5 -7 9 -9 -10 -11 12 -13 -14 -15
leaf_value=-2.3621271951982014e-05 -0.00017786609521583437 2.4953653141149163e-05 0.0002180596872896221 -0.0085568570451165036 0.0092001262673875317 0.0030854433412425566 0.028808943348537595 -0.0099246637837495655 0.013273806497870412 0.014653230819385498 -0.0099147930450271815 0.013399050588486715 -0.00054623991509720744 -0.00031848812876786623
leaf_weight=137626 26 78539 348 31 20 179 21 22 21 27 20 20 652 81
leaf_count=137626 26 78539 348 31 20 179 21 22 21 27 20 20 652 81
internal_value=0 4.06327e-05 0.000879473 0.00210954 0.00293607 0.00564528 0.0107365 -0.000817621 0.00096107 0.0208464 -0.000405415 0.00572514 -0.000825066 -0.00259875
internal_weight=0 80007 1468 750 638 269 90 42 369 48 718 46 672 112
internal_count=217633 80007 1468 750 638 269 90 42 369 48 718 46 672 112
shrinkage=0.15


Tree=957
num_leaves=15
num_cat=0
split_feature=4 37 10 9 4 33 19 11 15 5 39 31 6 21
split_gain=0.0102611 0.0437342 0.0542203 0.112 0.0848693 0.071126 0.0478324 0.093151 0.13977 0.157504 0.128742 0.182019 0.0939557 0.138041
threshold=-0.30706199999999995 1.4757500000000002e-05 6.7180850000000023e-05 5.6259450000000009e-05 -0.96577349999999995 0.00037874450000000009 0.0028322050000000004 -1.7598049999999997e-05 4.5460050000000014e-06 9.941035000000001e-06 0.054589800000000008 -2.2757649999999994 -1.4092199999999999e-06 9.7178200000000015
decision_type=2 2 2 2 2 2 2 2 2 2 2 2 2 2
left_child=1 -1 3 6 -4 -6 7 8 10 -10 11 -3 13 -9
right_child=-2 2 4 -5 5 -7 -8 12 9 -11 -12 -13 -14 -15
leaf_value=8.3110524620031779e-05 -1.8600480874321348e-05 -0.002600209414543185 -0.0013768065094016001 0.0080802364792076069 -0.0028619012040927865 -0.01431315279079844 0.00047714013239914235 0.0013538283869192909 0.01152351680544338 -0.0019682215680798059 -0.0033566267588813546 -0.021220179313483339 -0.00078454055425399602 0.01519745310901531
leaf_weight=51613 164111 21 236 35 26 23 661 71 21 267 85 27 415 21
leaf_count=51613 164111 21 236 35 26 23 661 71 21 267 85 27 415 21
internal_value=0 5.70334e-05 -0.000648004 -0.000313117 -0.00255627 -0.00823698 -0.000497993 -0.00119256 -0.00284177 -0.000984449 -0.00686363 -0.0130739 0.000176892 0.00451379
internal_weight=0 53522 1909 1624 285 49 1589 928 421 288 133 48 507 92
internal_count=217633 53522 1909 1624 285 49 1589 928 421 288 133 48 507 92
shrinkage=0.15


Tree=958
num_leaves=15
num_cat=0
split_feature=34 3 14 23 34 26 4 23 11 29 29 0 9 32
split_gain=0.00952576 0.0368638 0.143531 0.310273 0.320578 0.242963 0.559923 1.12198 0.486143 0.623843 0.576732 1.30567 0.7421 0.421454
threshold=0.10256300000000002 -7.0077899999999991 0.00048450950000000005 -6.6317949999999994 0.029268250000000003 6.1092550000000015e-05 0.14210450000000005 -10.016399999999999 -2.0638099999999998e-05 0.014671650000000001 -0.010746449999999999 3.7488850000000005 2.0423650000000006e-05 -0.11649649999999999
decision_type=2 2 2 2 2 2 2 2 2 2 2 2 2 2
left_child=1 2 3 4 -1 6 -6 -8 9 -9 11 -10 13 -12
right_child=-2 -3 -4 -5 5 -7 7 8 10 -11 12 -13 -14 -15
leaf_value=-0.0011216018245310982 4.1418961181614128e-05 8.3650610373270522e-05 2.7711634278841763e-05 0.00093909865776480841 5.8786066184090248e-05 -0.00088335761185912368 -0.00060604604152829052 -0.0078245040578807119 -0.0099593847577190368 0.013402370920150794 0.037360528917051848 0.032012314969647883 -0.0041661774584569903 0.010904619438640241
leaf_weight=11847 79371 47289 68684 3271 3405 2990 429 59 21 66 20 81 58 42
leaf_count=11847 79371 47289 68684 3271 3405 2990 429 59 21 66 20 81 58 42
internal_value=0 -2.37771e-05 -7.96194e-05 -0.000410362 -0.000642463 0.000149109 0.000887467 0.00452363 0.0108655 0.00338329 0.0150785 0.0233711 0.00802972 0.0194388
internal_weight=0 138262 90973 22289 19018 7171 4181 776 347 125 222 102 120 62
internal_count=217633 138262 90973 22289 19018 7171 4181 776 347 125 222 102 120 62
shrinkage=0.15


Tree=959
num_leaves=15
num_cat=0
split_feature=8 21 21 15 15 10 10 33 22 8 23 18 10 35
split_gain=0.00957546 0.0806148 0.0494037 0.0916944 0.146837 0.0463882 0.0806344 0.178765 0.284956 0.0454213 0.072439 0.0938363 0.0374104 0.0711191
threshold=3.5712600000000008e-05 -6.0095599999999996 -6.3049749999999998 1.1163500000000001e-06 4.9895200000000003e-05 3.8082950000000011e-05 4.4815800000000006e-05 -1.4746649999999997e-06 -1.4226399999999997 3.8577500000000008e-05 -8.0513349999999981 -1.2645199999999997e-07 0.00014135150000000004 -0.00030471599999999996
decision_type=2 2 2 2 2 2 2 2 2 2 2 2 2 2
left_child=-1 2 5 -4 -5 -2 7 -7 -9 10 -8 -12 13 -11
right_child=1 -3 3 4 -6 6 9 8 -10 12 11 -13 -14 -15
leaf_value=7.2232579676043957e-06 -0.0060736016770533757 -0.00034530500030652701 0.00088670797254053468 0.018559243411291389 0.00060046300869933994 -0.0060479232636482813 0.0014563259301212383 0.024099180316552518 0.0020770659086757895 0.0033955345723760337 -0.013246456865512299 -0.00049303904848380217 -4.4250668948101398e-05 0.00037025242074534276
leaf_weight=206737 24 8644 96 20 21 23 48 20 39 252 25 27 1086 571
leaf_count=206737 24 8644 96 20 21 23 48 20 39 252 25 27 1086 571
internal_value=0 -0.000137052 0.000662301 0.00342276 0.00936084 0.000483491 0.000558752 0.00516935 0.00954219 0.000370564 -0.0027457 -0.00662449 0.000533804 0.00129658
internal_weight=0 10896 2252 137 41 2115 2091 82 59 2009 100 52 1909 823
internal_count=217633 10896 2252 137 41 2115 2091 82 59 2009 100 52 1909 823
shrinkage=0.15


Tree=960
num_leaves=15
num_cat=0
split_feature=14 3 21 27 33 39 32 21 21 34 34 33 13 5
split_gain=0.00973046 0.0822514 0.0799386 0.0769639 0.0832861 0.0769654 0.187818 0.197078 0.196504 0.300609 0.184942 0.148411 0.203417 0.187863
threshold=0.00018273250000000005 -8.2133949999999984 9.7178200000000015 0.13359000000000001 2.0093250000000005e-06 6.2908200000000014e-06 -0.014984399999999997 4.1380100000000004 0.26237100000000008 0.0084510450000000025 0.019002750000000002 6.2812850000000001e-06 -1.41669e-05 1.2346100000000002e-05
decision_type=2 2 2 2 2 2 2 2 2 2 2 2 2 2
left_child=1 2 3 4 -1 6 7 -5 11 -10 -7 12 -8 -14
right_child=-2 -3 -4 5 -6 10 8 -9 9 -11 -12 -13 13 -15
leaf_value=0.00040092501731123773 -2.0597235779887083e-05 1.8379425848711029e-05 0.0044885169609592823 -0.014464610183259119 0.014090111506520769 0.0088347094308119274 0.0093445819325279449 -0.0023100581484130707 0.00038587688474081002 0.017092488648799749 0.00083877019773030313 -0.013314004414714873 0.00049252326922533671 -0.0092805837366800644
leaf_weight=20 153077 62532 137 37 20 69 45 159 64 39 1147 20 211 56
leaf_count=20 153077 62532 137 37 20 69 45 159 64 39 1147 20 211 56
internal_value=0 4.88407e-05 0.000989951 0.000735948 0.00724552 0.000594972 -0.000749209 -0.00460454 0.000987906 0.00671168 0.00129249 -0.000787844 1.51151e-05 -0.00155727
internal_weight=0 64556 2024 1887 40 1847 631 196 435 103 1216 332 312 267
internal_count=217633 64556 2024 1887 40 1847 631 196 435 103 1216 332 312 267
shrinkage=0.15


Tree=961
num_leaves=15
num_cat=0
split_feature=22 3 14 20 9 34 28 16 3 21 21 3 21 21
split_gain=0.00920871 0.0496116 0.0780212 0.0901626 0.0726641 0.0700323 0.0557888 0.0648066 0.06026 0.0820685 0.103905 0.0700799 0.0908629 0.0621041
threshold=-2.8863399999999997 -6.5460449999999986 0.0005728895000000001 -6.8954199999999988 -3.6396649999999993e-05 0.43971050000000006 -0.0046256249999999987 -1.0982549999999999e-07 -8.4424149999999987 -1.5699599999999998 -0.84929049999999984 -8.2133949999999984 -0.52034099999999983 0.26237100000000008
decision_type=2 2 2 2 2 2 2 2 2 2 2 2 2 2
left_child=1 2 3 4 6 -5 7 -1 9 -8 -11 -10 -13 -14
right_child=-2 -3 -4 5 -6 -7 8 -9 11 10 -12 12 13 -15
leaf_value=-0.0013120796257031283 -6.3072095194150146e-06 -0.00042744194420421913 2.0818095657540397e-05 0.003669293656525489 0.0010987050687611877 0.00045232679087724853 -0.0038249135171489405 -0.012191240299514241 -0.010483356537879445 0.014430460413651806 0.00093336631543934341 0.00072082353822354765 -0.012732036212268708 -0.0013278440439275332
leaf_weight=28 208904 2414 4374 443 931 232 28 22 20 21 33 140 22 21
leaf_count=28 208904 2414 4374 443 931 232 28 22 20 21 33 140 22 21
internal_value=0 0.000150945 0.000372042 0.00116352 0.000417023 0.00256361 -0.00147744 -0.00609891 -0.00066666 0.00276516 0.00618224 -0.00205291 -0.00113155 -0.00716255
internal_weight=0 8729 6315 1941 1266 675 335 50 285 82 54 203 183 43
internal_count=217633 8729 6315 1941 1266 675 335 50 285 82 54 203 183 43
shrinkage=0.15


Tree=962
num_leaves=15
num_cat=0
split_feature=36 16 19 14 35 34 23 3 11 4 12 22 23 23
split_gain=0.00882196 0.184084 0.507077 0.517557 0.824985 0.54746 0.744145 0.501173 0.438749 0.279844 0.705522 0.784941 0.61147 0.715024
threshold=0.00047676150000000003 -5.438614999999999e-08 9.6074000000000005e-06 0.00019135550000000002 -0.00015646249999999999 0.42331500000000005 -7.780594999999999 -8.0805899999999991 -3.3037949999999994e-05 0.019025200000000003 2.9825400000000004e-05 1.84284 -7.6939949999999993 -15.809749999999998
decision_type=2 2 2 2 2 2 2 2 2 2 2 2 2 2
left_child=-1 2 3 -2 -5 6 7 8 -6 -4 -11 -12 13 -13
right_child=1 -3 9 4 5 -7 -8 -9 -10 10 11 12 -14 -15
leaf_value=2.3435420696966845e-05 -7.0580255650996322e-05 0.00016002286234095947 -0.00042846395104820256 -0.00024548505398182193 -0.0043516805324146758 7.9688226406418163e-05 -0.00089772383614641557 -0.0019162009644568224 -0.010469705598847596 3.3190772019393765e-05 0.0013088570427219513 -0.0038086374935355958 -0.0027416927947862342 0.012292425901282314
leaf_weight=135836 4808 45912 13078 2497 399 583 663 348 778 10417 1722 73 105 414
leaf_count=135836 4808 45912 13078 2497 399 583 663 348 778 10417 1722 73 105 414
internal_value=0 -3.8918e-05 -0.000293447 -0.00119588 -0.00222291 -0.00400481 -0.00509314 -0.00691711 -0.00839571 5.88672e-05 0.000559481 0.0029287 0.00764047 0.00987892
internal_weight=0 81797 35885 10076 5268 2771 2188 1525 1177 25809 12731 2314 592 487
internal_count=217633 81797 35885 10076 5268 2771 2188 1525 1177 25809 12731 2314 592 487
shrinkage=0.15


Tree=963
num_leaves=15
num_cat=0
split_feature=13 33 25 7 3 39 35 38 0 25 24 30 35 0
split_gain=0.0126171 0.345543 0.130331 0.143697 0.232787 0.286567 0.232769 0.323186 0.227259 0.173261 0.195089 0.188806 0.124973 0.123446
threshold=-2.1361299999999998e-05 -1.3360349999999997e-06 0.16720650000000001 4.4778700000000005e-05 -13.076899999999998 1.2452800000000003e-06 0.00066518100000000004 0.00035109250000000007 -4.0539249999999987 0.16496300000000003 0.12923450000000003 0.00014258900000000001 -0.00041537299999999997 -5.0859099999999993
decision_type=2 2 2 2 2 2 2 2 2 2 2 2 2 2
left_child=1 -1 3 4 6 -6 7 9 13 10 11 -3 -10 -7
right_child=-2 2 -4 -5 5 8 -8 -9 12 -11 -12 -13 -14 -15
leaf_value=0.00045682074826579382 1.5670878113360268e-05 -3.2291607873048629e-05 -0.00038646696549110386 -0.00068491279409759961 -0.00079465033597128133 -0.0074915121307130902 -0.015353959504599599 0.013303815612856011 -0.023360836627230475 -0.013266787581320386 0.012094000572911821 -0.015547675341367721 -0.011583177559710433 0.006213021610996552
leaf_weight=15034 183152 150 17897 958 121 50 22 39 26 25 26 20 92 21
leaf_count=15034 183152 150 17897 958 121 50 22 39 26 25 26 20 92 21
internal_value=0 -8.32387e-05 -0.000500745 -0.00182026 -0.00365752 -0.00649448 -0.00053887 0.000714715 -0.0101436 -0.00150689 -6.90425e-06 -0.00185763 -0.0141783 -0.00343806
internal_weight=0 34481 19447 1550 592 310 282 260 189 221 196 170 118 71
internal_count=217633 34481 19447 1550 592 310 282 260 189 221 196 170 118 71
shrinkage=0.15


Tree=964
num_leaves=15
num_cat=0
split_feature=2 3 11 31 35 37 26 3 23 11 31 7 23 36
split_gain=0.0104947 0.0393238 0.0581064 0.0574833 0.0631326 0.0544166 0.143697 0.0927077 0.112495 0.132567 0.0884382 0.0729508 0.0663454 0.0602463
threshold=-2.8223399999999992 -7.1641399999999988 -0.00014050199999999998 0.043633700000000004 -0.63058299999999989 -4.6905099999999989e-09 0.0033291050000000006 -14.949199999999999 -9.2080749999999991 -5.1252949999999995e-05 0.18765600000000002 2.9729300000000004e-05 -7.4042949999999985 -0.00046113049999999992
decision_type=2 2 2 2 2 2 2 2 2 2 2 2 2 2
left_child=1 2 -1 -4 -5 6 13 -7 11 -10 12 -9 -11 -6
right_child=-2 -3 3 4 5 7 -8 8 9 10 -12 -13 -14 -15
leaf_value=-0.00021608948028316207 -7.0403773004558094e-06 -0.00027856155892282597 0.0011491281317480037 0.0068868324096346715 0.0058562293194416096 -0.0089330731576089482 0.012533632556600919 0.0070518989326759565 0.0005543788045675993 -0.0082338783923270441 -0.011514078760332528 -7.3684064773260612e-06 0.0038376947467850184 -4.1785633903732593e-05
leaf_weight=2384 208125 3157 2539 29 41 34 22 37 82 21 56 300 20 786
leaf_count=2384 208125 3157 2539 29 41 34 22 37 82 21 56 300 20 786
internal_value=0 0.00015411 0.000369186 0.000720911 -4.04634e-05 -0.00018406 0.000568907 -0.00134637 -0.000846467 -0.0038854 -0.00763862 0.000767685 -0.00234531 0.000250619
internal_weight=0 9508 6351 3967 1428 1399 849 550 516 179 97 337 41 827
internal_count=217633 9508 6351 3967 1428 1399 849 550 516 179 97 337 41 827
shrinkage=0.15


Tree=965
num_leaves=15
num_cat=0
split_feature=4 35 15 11 29 6 3 20 20 4 24 11 14 7
split_gain=0.0102273 0.03886 0.0636919 0.116025 0.114124 0.058555 0.0584099 0.0830338 0.0577234 0.0564732 0.0620477 0.0482414 0.0477483 0.041898
threshold=-0.29098649999999998 0.038649300000000004 -2.9419199999999994e-05 5.5643800000000004e-05 0.061314450000000006 1.7302200000000003e-06 -18.015749999999997 -3.0231799999999995 -2.6024949999999998 -0.30706199999999995 -0.53362249999999989 3.7949700000000007e-05 0.0090203400000000017 3.7936850000000009e-05
decision_type=2 2 2 2 2 2 2 2 2 2 2 2 2 2
left_child=1 -1 11 6 5 -5 7 -4 -6 13 -11 -3 -10 -8
right_child=-2 2 3 4 8 -7 9 -9 12 10 -12 -13 -14 -15
leaf_value=9.1436329728262635e-05 -1.8767617320692538e-05 0.0079527475402574044 -0.0021194688130534538 -0.0016892791813871873 -0.0040420487770359715 0.0053549494040658653 0.00049283549389032366 0.009949150624492302 -0.0064953310748662894 -0.011966967627522534 -0.00015141427102207671 0.00050719803874362532 -0.015592194912023842 -0.00082643994086485748
leaf_weight=50512 163251 20 23 185 143 31 822 29 37 20 20 932 20 1588
leaf_count=50512 163251 20 23 185 143 31 822 29 37 20 20 932 20 1588
internal_value=0 5.63391e-05 -0.000401757 -0.000749336 -0.00306898 -0.000678302 -0.000363655 0.00461111 -0.00565092 -0.000469242 -0.00605919 0.000663617 -0.00968721 -0.000376463
internal_weight=0 54382 3870 2918 416 216 2502 52 200 2450 40 952 57 2410
internal_count=217633 54382 3870 2918 416 216 2502 52 200 2450 40 952 57 2410
shrinkage=0.15


Tree=966
num_leaves=15
num_cat=0
split_feature=5 20 11 10 19 33 22 33 13 0 22 19 23 11
split_gain=0.00972834 0.0759131 0.0809767 0.101348 0.218598 0.357264 0.377285 0.244746 0.144315 0.126645 0.113652 0.327968 0.809443 0.189757
threshold=1.7536450000000004e-05 5.0093250000000014 1.1575600000000001e-05 4.5221600000000008e-05 4.6876450000000007e-08 -5.125504999999999e-06 0.61814750000000018 -9.4167599999999983e-06 1.6523550000000005e-05 4.9407200000000007 0.77552150000000009 2.0955950000000004e-06 -7.588404999999999 7.8390250000000004e-05
decision_type=2 2 2 2 2 2 2 2 2 2 2 2 2 2
left_child=-1 -2 -3 4 5 7 8 9 -7 -4 13 12 -12 -6
right_child=1 2 3 -5 10 6 -8 -9 -10 -11 11 -13 -14 -15
leaf_value=2.6045633517033058e-05 4.5148488227814143e-05 -3.7394843618361049e-05 -0.014890377537230961 -0.00024400153893584366 -0.0028435048767293113 -0.016295163167108381 0.015283561069518326 -0.027134089764086124 -0.0025278663564090344 9.3209295883670248e-05 0.031315075013285072 -0.00024966262671393389 -0.005133452010742421 -0.00028673600500693736
leaf_weight=129970 64453 13681 30 6146 1098 21 25 23 93 22 26 404 29 1612
leaf_count=129970 64453 13681 30 6146 1098 21 25 23 93 22 26 404 29 1612
internal_value=0 -3.86155e-05 -0.000271224 -0.000606938 -0.00126629 -0.00590629 -0.00140432 -0.0142499 -0.00506395 -0.00855117 -0.000952959 0.00122976 0.0120968 -0.00132265
internal_weight=0 87663 23210 9529 3383 214 139 75 114 52 3169 459 55 2710
internal_count=217633 87663 23210 9529 3383 214 139 75 114 52 3169 459 55 2710
shrinkage=0.15


Tree=967
num_leaves=15
num_cat=0
split_feature=26 15 20 8 15 11 22 22 12 20 3 9 3 12
split_gain=0.00864713 0.0571285 0.0882136 0.268554 0.226698 0.574798 0.639166 0.794168 1.08698 0.712931 0.923384 1.09169 0.838326 0.727837
threshold=7.115370000000001e-05 6.2639450000000014e-08 4.9104300000000007 -1.0187849999999998e-05 -4.4532849999999992e-06 2.4927000000000004e-05 0.74297050000000009 -0.36388649999999995 -3.6013499999999997e-05 7.9717800000000008 -7.6157749999999993 2.1878250000000004e-05 -10.05805 -3.6013499999999997e-05
decision_type=2 2 2 2 2 2 2 2 2 2 2 2 2 2
left_child=-1 2 -2 -4 -5 -6 7 8 -7 10 11 -9 -11 -14
right_child=1 -3 3 4 5 6 -8 9 -10 12 -12 -13 13 -15
leaf_value=-2.1338698759683048e-05 1.5911947161329664e-05 -0.00011996710460996022 -0.00043359251170500297 -5.1713789569269135e-05 0.00089896455419548912 0.014105169043657096 -0.0059090998397153373 -0.0054031671337725126 -0.0091795249535431105 -0.0032232757169410415 -0.0037695686342582723 0.02481164844763829 -0.012581827989858787 0.016936428974068527
leaf_weight=144191 31472 29413 4553 2893 4260 68 103 32 134 149 45 169 22 129
leaf_count=144191 31472 29413 4553 2893 4260 68 103 32 134 149 45 169 22 129
internal_value=0 4.18949e-05 0.000150025 0.000486156 0.00100935 0.00160994 0.00516901 0.00669447 -0.00134111 0.00966734 0.015653 0.0200013 0.0047591 0.0126358
internal_weight=0 73442 44029 12557 8004 5111 851 748 202 546 246 201 300 151
internal_count=217633 73442 44029 12557 8004 5111 851 748 202 546 246 201 300 151
shrinkage=0.15


Tree=968
num_leaves=15
num_cat=0
split_feature=12 22 14 22 23 10 30 0 33 10 23 19 23 3
split_gain=0.010022 0.0703566 0.156049 0.19662 0.455905 0.641464 0.620778 0.24507 0.136497 0.134899 0.114117 0.1706 0.0893211 0.222351
threshold=0.00012553750000000004 1.4252250000000002 0.0010945700000000002 1.8642900000000002 -10.860199999999997 3.9260100000000007e-05 0.00015899100000000001 -0.37806699999999999 -2.2915149999999997e-05 1.6275850000000004e-05 -7.8687849999999999 3.7476600000000006e-05 -9.6230949999999975 -10.662649999999998
decision_type=2 2 2 2 2 2 2 2 2 2 2 2 2 2
left_child=-1 -2 3 4 -3 6 -6 -8 -5 -10 -7 -12 13 -11
right_child=1 2 -4 8 5 10 7 -9 9 12 11 -13 -14 -15
leaf_value=-1.585571298186411e-05 -5.2434777627076162e-05 -0.002355038026283222 0.00020442062263012148 0.011912203650172159 -0.00019722356455926986 -0.0016920952725636422 0.037575352194653529 0.016721343135993393 -0.010194976559768502 0.012594656492745894 0.017108146887039766 0.0015910836891138884 -0.00089145158878955425 0.0010911749822411913
leaf_weight=175138 30964 115 10453 24 23 61 32 21 26 43 25 44 351 313
leaf_count=175138 30964 115 10453 24 23 61 32 21 26 43 25 44 351 313
internal_value=0 6.53474e-05 0.000381626 0.00209993 0.00521086 0.00943455 0.0203819 0.0293124 0.000780756 0.000416288 0.00303457 0.00721321 0.000806518 0.00248064
internal_weight=0 42495 11531 1078 321 206 76 53 757 733 130 69 707 356
internal_count=217633 42495 11531 1078 321 206 76 53 757 733 130 69 707 356
shrinkage=0.15


Tree=969
num_leaves=15
num_cat=0
split_feature=15 35 4 11 22 35 11 22 4 39 3 15 4 3
split_gain=0.0103426 0.120289 0.238966 0.944272 0.475117 0.566562 0.541128 0.397285 0.588521 0.538417 0.600278 0.63272 0.345196 0.61853
threshold=1.6080300000000002e-08 -0.00012284899999999999 0.038924450000000006 5.8978900000000009e-06 0.11190500000000002 -8.590739999999999e-05 1.4492750000000001e-05 -1.5441099999999996 -0.025375049999999996 8.3359950000000012e-05 -6.1122599999999991 2.8562700000000001e-06 0.92173400000000016 -6.6271099999999992
decision_type=2 2 2 2 2 2 2 2 2 2 2 2 2 2
left_child=-1 -2 3 -3 5 6 -5 -7 9 10 11 -9 13 -4
right_child=1 2 12 4 -6 7 -8 8 -10 -11 -12 -13 -14 -15
leaf_value=-3.0966194981992223e-05 -0.00014290170698862424 0.00025928495805038981 0.0016567581777795972 0.028106573207332987 -0.00046334312526874293 -0.0018690715846726054 0.00021621350198984147 -0.014222999616265903 0.0019249004946232161 -0.0023512734722102966 -2.3420799181856698e-05 -0.002474909633334636 -0.00016022144653926604 -0.00025488271964227974
leaf_weight=114738 46837 24510 10159 24 2213 1162 45 448 192 357 124 134 10598 6092
leaf_count=114738 46837 24510 10159 24 2213 1162 45 448 192 357 124 134 10598 6092
internal_value=0 3.45303e-05 0.000182777 -0.000114148 -0.00206198 -0.00348505 0.00991721 -0.00386766 -0.00571814 -0.00709864 -0.00949922 -0.0115181 0.0005058 0.000940143
internal_weight=0 102895 56058 29209 4699 2486 69 2417 1255 1063 706 582 26849 16251
internal_count=217633 102895 56058 29209 4699 2486 69 2417 1255 1063 706 582 26849 16251
shrinkage=0.15


Tree=970
num_leaves=15
num_cat=0
split_feature=21 1 10 13 8 10 10 22 22 2 19 0 20 29
split_gain=0.0117295 0.17742 0.152482 0.227991 0.111345 0.122959 0.118641 0.128744 0.416155 1.33209 0.797127 1.77894 1.59075 0.955392
threshold=-2.8596399999999997 1.0837000000000001 4.2847000000000005e-05 8.0484950000000009e-05 -3.1160149999999997e-06 1.7969350000000004e-05 3.3857950000000003e-05 0.088018150000000003 0.64615500000000015 0.66626200000000002 8.2642650000000018e-05 7.9373400000000007 7.9717800000000008 -0.0048796299999999994
decision_type=2 2 2 2 2 2 2 2 2 2 2 2 2 2
left_child=1 -1 3 -3 6 -6 -2 -8 9 10 11 12 13 -9
right_child=4 2 -4 -5 5 -7 7 8 -10 -11 -12 -13 -14 -15
leaf_value=-0.00015546286046636099 -0.00035655702979283738 0.00075963753830658124 -0.00016346998940144813 -0.0002944410655880144 0.00054489614817954416 1.4794957589817527e-05 -0.00052231690279420299 0.01923456620604393 -9.7682219777036445e-05 -0.00045145892423119929 -0.0011999556486561262 0.0031663894722796155 0.0012017150556274804 0.04964736471167551
leaf_weight=44440 35069 18733 11361 6127 11739 61029 6730 219 17918 2839 372 914 117 26
leaf_count=44440 35069 18733 11361 6127 11739 61029 6730 219 17918 2839 372 914 117 26
internal_value=0 4.53788e-05 0.000291794 0.000499849 -2.6723e-05 0.000100311 -0.000170702 5.30065e-05 0.000225822 0.00151767 0.00490989 0.00669113 0.0155906 0.022462
internal_weight=0 80661 36221 24860 136972 72768 64204 29135 22405 4487 1648 1276 362 245
internal_count=217633 80661 36221 24860 136972 72768 64204 29135 22405 4487 1648 1276 362 245
shrinkage=0.15


Tree=971
num_leaves=15
num_cat=0
split_feature=12 22 14 20 7 15 23 21 10 21 22 32 13 26
split_gain=0.0118321 0.0581161 0.111144 0.148303 0.453872 0.496698 0.238417 0.305219 0.565257 0.153086 0.297782 0.171431 0.13767 0.217649
threshold=0.00012553750000000004 1.4252250000000002 0.0010945700000000002 -2.7544749999999998 4.8077700000000009e-05 -6.1533899999999995e-08 -7.8687849999999999 11.528150000000002 0.00010234750000000002 7.3636550000000005 2.0353750000000006 -0.63404999999999989 4.2943850000000006e-06 7.4396950000000023e-05
decision_type=2 2 2 2 2 2 2 2 2 2 2 2 2 2
left_child=-1 -2 3 9 5 -5 -6 8 -8 10 -3 -11 13 -13
right_child=1 2 -4 4 6 -7 7 -9 -10 11 -12 12 -14 -15
leaf_value=-1.7228156559635907e-05 -3.6043471103676821e-05 0.01930010765874093 0.00020890448843107471 0.030176748584249409 -0.00071848673689047524 0.004110160632837122 0.033515088252075338 -0.00060744610548551592 -0.0005231356963382235 0.0084807487321086235 0.0010646000866931927 -0.0048417610398080952 1.1219193005341696e-05 -0.022374413049380693
leaf_weight=175138 30964 21 10453 29 230 38 23 42 21 24 497 66 66 21
leaf_count=175138 30964 21 10453 29 230 38 23 42 21 24 497 66 66 21
internal_value=0 7.10038e-05 0.000358456 0.00180861 0.00417861 0.0153927 0.00180094 0.00853894 0.0172696 0.000502544 0.00180388 -0.00330588 -0.00515476 -0.00907378
internal_weight=0 42495 11531 1078 383 67 316 86 44 695 518 177 153 87
internal_count=217633 42495 11531 1078 383 67 316 86 44 695 518 177 153 87
shrinkage=0.15


Tree=972
num_leaves=15
num_cat=0
split_feature=4 38 32 22 31 11 17 3 19 3 3 30 4 4
split_gain=0.0101353 0.0528404 0.0533276 0.139518 0.0457588 0.0700171 0.0336746 0.0360994 0.0271419 0.0593009 0.0256328 0.0234073 0.07185 0.110524
threshold=-2.8332999999999999 0.00012735250000000004 20.819650000000006 -1.4969799999999998 3.7007800000000004 1.4492750000000001e-05 -9.6211049999999994e-05 -11.150499999999999 0.00036661050000000008 -10.662649999999998 -15.402299999999999 0.00010934700000000002 -0.17710599999999996 -0.097896399999999981
decision_type=2 2 2 2 2 2 2 2 2 2 2 2 2 2
left_child=1 10 4 -4 8 6 -6 -8 9 -3 -1 12 -2 -14
right_child=11 2 3 -5 5 -7 7 -9 -10 -11 -12 -13 13 -15
leaf_value=-0.000644153718739847 0.00062023139076117077 0.0095241836900822816 0.014232685523232 -0.0013862829550494245 -0.001654814066590488 0.00092033691624237679 -0.010378684881062986 -0.0033513961313905096 0.00032566868763323354 0.0011571032475923722 -2.1137715487702903e-05 -3.2034588131493768e-05 -0.0010214928019837606 0.00011586197106829414
leaf_weight=1676 5192 20 22 31 68 125 29 38 9521 405 13098 167237 2152 18019
leaf_count=1676 5192 20 22 31 68 125 29 38 9521 405 13098 167237 2152 18019
internal_value=0 8.9788e-05 0.000351314 0.00509706 0.000326669 -0.00163777 -0.00400639 -0.00639306 0.000378022 0.00155085 -9.18142e-05 -1.16701e-05 0.000122608 -5.47993e-06
internal_weight=0 25033 10259 53 10206 260 135 67 9946 425 14774 192600 25363 20171
internal_count=217633 25033 10259 53 10206 260 135 67 9946 425 14774 192600 25363 20171
shrinkage=0.15


Tree=973
num_leaves=15
num_cat=0
split_feature=14 23 34 3 23 23 29 11 21 3 23 23 21 23
split_gain=0.0102096 0.0598188 0.0514131 0.090753 0.40978 0.283092 0.353959 0.389054 0.284876 0.356211 0.512966 0.504933 0.405949 0.486548
threshold=0.000110883 -13.149599999999998 0.044056800000000007 -6.9170499999999988 -9.1777649999999991 -6.5295149999999991 -0.0097813299999999978 1.1110650000000002e-05 -5.2804599999999988 -7.8229449999999989 -7.6939949999999993 -7.7545149999999987 8.0114950000000018 -6.789509999999999
decision_type=2 2 2 2 2 2 2 2 2 2 2 2 2 2
left_child=1 -1 3 4 -3 6 7 -6 -8 10 -10 -11 13 -13
right_child=-2 2 -4 -5 5 -7 8 -9 9 11 -12 12 -14 -15
leaf_value=-0.00024743588587196065 -1.694637509392507e-05 0.0029416584477234614 0.00039394018885926992 0.00011924251976424532 -0.00097127883816435141 0.0018575221007722574 -0.0058375464628175559 -0.019196104174479842 0.013930456964644016 -0.0079933767509028416 -0.003810890518950295 0.0047841678172968203 -0.0060624374653006846 -0.010746141418125122
leaf_weight=10781 171085 493 12979 20528 47 352 356 60 81 233 67 357 162 52
leaf_count=10781 171085 493 12979 20528 47 352 356 60 81 233 67 357 162 52
internal_value=0 6.22856e-05 0.000155643 1.99196e-05 -0.000882249 -0.00194913 -0.00289609 -0.0111908 -0.00221755 -0.000863851 0.0058989 -0.00210874 0.000292528 0.00280965
internal_weight=0 46548 35767 22788 2260 1767 1415 107 1308 952 148 804 571 409
internal_count=217633 46548 35767 22788 2260 1767 1415 107 1308 952 148 804 571 409
shrinkage=0.15


Tree=974
num_leaves=15
num_cat=0
split_feature=21 12 7 13 20 23 3 14 23 32 32 30 20 3
split_gain=0.0101056 0.141089 0.223342 0.192527 0.204345 0.109959 0.323672 0.212917 0.296076 0.182398 0.149515 0.145524 0.13045 0.16332
threshold=-2.8596399999999997 3.2730600000000001e-05 5.0076550000000004e-05 8.0484950000000009e-05 10.068200000000003 -15.140049999999997 -15.166249999999998 0.0016871300000000002 -11.906049999999999 -3.4807049999999995 -0.46625749999999994 0.0023321250000000004 -8.1735049999999969 -7.1932899999999984
decision_type=2 2 2 2 2 2 2 2 2 2 2 2 2 2
left_child=1 -1 3 4 5 6 -3 12 -9 -10 -11 -12 -7 -14
right_child=-2 2 -4 -5 -6 7 -8 8 9 10 11 -13 13 -15
leaf_value=-0.00011494381918208398 -2.4804269321323481e-05 -0.0047772221984173765 -0.00022307936197328606 -0.00013636612595296568 0.0032870480540472652 0.001832788187083234 0.0025452009438843956 -0.0015793666997623128 -0.011083624724035516 0.014938257581421307 0.0026444409641633421 -0.00063962897235956726 -0.00062414749946297263 0.00086636054759174359
leaf_weight=49582 136972 149 11749 5586 767 940 1536 552 23 21 2427 347 4290 2692
leaf_count=49582 136972 149 11749 5586 767 940 1536 552 23 21 2427 347 4290 2692
internal_value=0 4.21206e-05 0.000292694 0.000606187 0.000907984 0.000767371 0.0018977 0.000598702 0.00159735 0.00221962 0.00232909 0.00223364 0.000173879 -4.94629e-05
internal_weight=0 80661 31079 19330 13744 12977 1685 11292 3370 2818 2795 2774 7922 6982
internal_count=217633 80661 31079 19330 13744 12977 1685 11292 3370 2818 2795 2774 7922 6982
shrinkage=0.15


Tree=975
num_leaves=15
num_cat=0
split_feature=15 32 7 8 21 32 3 34 15 18 18 35 34 16
split_gain=0.0108422 0.101468 0.132643 0.194869 0.153162 0.202708 0.184965 0.20811 0.332403 0.213905 0.186927 0.314755 0.23078 0.18326
threshold=1.6080300000000002e-08 0.29633800000000005 2.8402950000000006e-05 7.0032600000000009e-06 -4.3944199999999993 0.31033450000000001 -6.3575099999999987 0.13950200000000001 7.4711150000000015e-08 -5.1977999999999989e-05 -1.2604899999999999e-05 0.0019468600000000001 0.21756700000000004 -2.7253799999999992e-06
decision_type=2 2 2 2 2 2 2 2 2 2 2 2 2 2
left_child=-1 -2 3 -3 5 -5 7 8 -7 -9 11 -11 -12 -14
right_child=1 2 -4 4 -6 6 -8 9 -10 10 12 -13 13 -15
leaf_value=-3.1705233480022475e-05 9.2891254901811209e-05 0.0005959259065430099 -0.00017082496963897453 0.0089805076543707403 -0.00064688625652584478 -0.02603282094451374 2.3487785241898256e-05 -0.018312206299044193 -0.0053476147018955084 -0.0061301852418109773 0.0061516055817871047 0.019116169104818257 -0.018112901376194451 -0.0053727433469527167
leaf_weight=114738 89536 592 11676 25 446 29 139 25 44 25 36 20 28 274
leaf_count=114738 89536 592 11676 25 446 29 139 25 44 25 36 20 28 274
internal_value=0 3.53544e-05 -0.000350274 -0.00159523 -0.00278419 -0.00426208 -0.00479605 -0.00618881 -0.013565 -0.00486905 -0.00399156 0.00509042 -0.0052007 -0.00655395
internal_weight=0 102895 13359 1683 1091 645 620 481 73 408 383 45 338 302
internal_count=217633 102895 13359 1683 1091 645 620 481 73 408 383 45 338 302
shrinkage=0.15


Tree=976
num_leaves=15
num_cat=0
split_feature=15 35 3 15 25 39 19 36 30 13 36 28 38 2
split_gain=0.0104737 0.0765334 0.0544691 0.0640517 0.155066 0.27943 0.256419 0.183403 0.146658 0.140901 0.135773 0.0867294 0.107634 0.200984
threshold=-5.5217749999999993e-06 -9.6874149999999978e-05 -6.0288849999999989 -7.0429099999999998e-06 2.7233150000000004 0.029330700000000005 3.7476600000000006e-05 -0.016044349999999995 0.0027380300000000002 3.0239450000000001e-05 0.082357500000000014 0.024513850000000004 -0.0013601549999999998 2.1358050000000008
decision_type=2 2 2 2 2 2 2 2 2 2 2 2 2 2
left_child=1 2 3 -1 8 6 -6 -8 11 10 -9 12 13 -5
right_child=-2 -3 -4 4 5 -7 7 9 -10 -11 -12 -13 -14 -15
leaf_value=-0.00013468460114143021 -1.5998808362109267e-05 0.00026183708930330418 -0.0010488641541127484 -0.00021059316127588424 0.019522909131346217 -0.0071504447789100759 -0.0058603819122903852 0.01982476996324424 -0.010287637135881031 -0.0011660344302072191 0.0044497914521343766 0.0087899315137682215 0.0010739818780651632 -0.017952552916249261
leaf_weight=17687 176024 21775 1396 51 34 33 28 28 29 24 24 28 452 20
leaf_count=17687 176024 21775 1396 51 34 33 28 28 29 24 24 28 452 20
internal_value=0 6.76818e-05 -0.000145474 -7.70753e-05 0.0012797 0.00524928 0.00821443 0.00451743 0.000109354 0.00834084 0.0127286 0.000656564 0.000221125 -0.00520833
internal_weight=0 41609 19834 18438 751 171 138 104 580 76 52 551 523 71
internal_count=217633 41609 19834 18438 751 171 138 104 580 76 52 551 523 71
shrinkage=0.15


Tree=977
num_leaves=15
num_cat=0
split_feature=2 35 0 22 22 18 4 19 37 1 23 20 23 5
split_gain=0.0104399 0.069944 0.099039 0.536332 1.89613 2.95952 0.986452 0.655304 0.607892 0.614126 0.765465 0.695603 0.557124 0.457259
threshold=-1.0357749999999999 -7.5627349999999983e-05 1.2182750000000002 -1.0072199999999998 -1.3864299999999996 -2.6852949999999997e-07 -1.6509149999999997 0.00010773500000000001 1.4923650000000006e-08 -4.9060199999999989 -13.243199999999998 3.9041150000000004 -14.455649999999997 1.8127350000000005e-05
decision_type=2 2 2 2 2 2 2 2 2 2 2 2 2 2
left_child=1 2 -1 4 -4 6 -6 -8 -9 10 -10 -12 -11 -13
right_child=-2 -3 3 -5 5 -7 7 8 9 12 11 13 -14 -15
leaf_value=7.6539125312371936e-05 -2.364402719407184e-05 -9.341085838618955e-05 -5.2220685046053038e-05 -0.0002338366376547818 -0.00096299238292784934 -0.0037136787338177958 0.010415920795333621 0.00019359135534614323 0.0048010215087560927 0.027351590460166334 0.043770961676288959 0.0086068258494681974 -0.003310210624911747 0.038531165211461486
leaf_weight=28695 143373 38829 1643 4481 54 230 95 20 20 30 92 27 24 20
leaf_count=28695 143373 38829 1643 4481 54 230 95 20 20 30 92 27 24 20
internal_value=0 4.56493e-05 0.000198046 0.000715658 0.00260244 0.00972924 0.0178231 0.020916 0.0251971 0.0275449 0.0322387 0.0361866 0.0137241 0.0213406
internal_weight=0 74260 35431 6736 2255 612 382 328 233 213 159 139 54 47
internal_count=217633 74260 35431 6736 2255 612 382 328 233 213 159 139 54 47
shrinkage=0.15


Tree=978
num_leaves=15
num_cat=0
split_feature=0 20 3 33 3 20 0 20 11 34 29 4 30 34
split_gain=0.0110654 0.131025 0.0905254 0.0975341 0.0742376 0.133539 0.193866 0.198604 0.35794 0.336171 0.273566 0.352669 0.229313 0.23762
threshold=-6.821089999999999 -2.2803699999999996 -6.1661399999999995 -9.0968849999999982e-06 -6.3035799999999993 -7.0998299999999999 -9.3812549999999977 -9.3203249999999986 -2.6387649999999998e-05 0.037557050000000008 0.014127550000000001 0.15498250000000002 0.00074439950000000003 0.093331050000000013
decision_type=2 2 2 2 2 2 2 2 2 2 2 2 2 2
left_child=1 4 3 -3 5 6 -1 -8 -9 10 11 -10 -11 -14
right_child=-2 2 -4 -5 -6 -7 7 8 9 12 -12 -13 13 -15
leaf_value=-0.001292515442284163 -1.6224986322233274e-05 0.0012510384699475302 -4.7555036018332971e-05 0.00032022801100436841 0.00011338388879868401 -0.0010337355863938528 -0.00047027797830801057 0.00042725904551650098 0.0082140885138844016 -0.013562963096102556 0.022791939787566662 -0.011097623175010085 0.013196657481227791 -0.0024467370512743277
leaf_weight=1483 176921 3326 10095 10622 7132 5249 1363 978 284 26 26 23 31 74
leaf_count=1483 176921 3326 10095 10622 7132 5249 1363 978 284 26 26 23 31 74
internal_value=0 7.05085e-05 0.00029457 0.000542186 -0.000252673 -0.000526419 9.45935e-05 0.000827956 0.00205507 0.00548609 0.00801846 0.00676728 -0.000951139 0.00217179
internal_weight=0 40712 24043 13948 16669 9537 4288 2805 1442 464 333 307 131 105
internal_count=217633 40712 24043 13948 16669 9537 4288 2805 1442 464 333 307 131 105
shrinkage=0.15


Tree=979
num_leaves=15
num_cat=0
split_feature=29 0 9 29 11 7 9 22 13 22 12 13 31 12
split_gain=0.0108197 0.101726 0.200374 1.22328 0.922342 0.685744 0.36526 1.80341 2.29824 1.55106 1.85596 0.788814 0.769146 0.736419
threshold=1.0000000180025095e-35 -4.2354849999999997 1.0000000180025095e-35 -0.0014132449999999998 -2.3866199999999995e-05 3.9343900000000008e-05 8.0374850000000012e-06 -1.3398849999999998 1.0000000180025095e-35 1.3299150000000002 4.2025950000000011e-05 1.1550350000000002e-05 -0.032943299999999988 6.7451950000000014e-05
decision_type=2 2 2 2 2 2 2 2 2 2 2 2 2 2
left_child=1 -1 3 -3 -5 -6 7 8 -4 -9 -11 13 -13 -12
right_child=-2 2 6 4 5 -7 -8 9 -10 10 11 12 -14 -15
leaf_value=0.00018389514823448393 3.4247793418461972e-05 -0.00015018123344714927 0.016471274241473006 -0.00085784890405570826 -0.01052543447916105 -0.002272956893806282 -0.00013511158202751211 -0.00062106992352396187 0.00026412988934706088 -0.0021673090409816383 0.0072311916665807746 0.016553522043977864 -0.0019766853204817468 0.023558959859084187
leaf_weight=33937 106237 17698 366 970 600 364 50092 6124 426 339 97 84 126 173
leaf_count=33937 106237 17698 366 970 600 364 50092 6124 426 339 97 84 126 173
internal_value=0 -3.26617e-05 -0.000127541 -0.000541597 -0.00412344 -0.00740935 1.30286e-05 0.000972387 0.0077538 0.00019882 0.00632948 0.0123303 0.0054354 0.0176931
internal_weight=0 111396 77459 19632 1934 964 57827 7735 792 6943 819 480 210 270
internal_count=217633 111396 77459 19632 1934 964 57827 7735 792 6943 819 480 210 270
shrinkage=0.15


Tree=980
num_leaves=15
num_cat=0
split_feature=4 34 3 14 19 23 22 23 3 23 14 23 14 23
split_gain=0.0111031 0.0473242 0.0349526 0.0281779 0.0254145 0.0525762 0.0807767 0.035026 0.0197923 0.065837 0.0612266 0.0611797 0.0481101 0.0417145
threshold=-2.8332999999999999 0.008054625000000001 -6.0822949999999993 0.0022836250000000005 0.00036661050000000008 -10.7143 -2.8252699999999993 -16.545699999999997 -11.150499999999999 -10.756049999999997 0.012437950000000001 -11.906049999999999 0.0050209550000000006 -16.783199999999997
decision_type=2 2 2 2 2 2 2 2 2 2 2 2 2 2
left_child=1 3 4 -1 5 6 -3 -8 9 10 -6 13 -11 -10
right_child=-2 2 -4 -5 8 -7 7 -9 11 12 -12 -13 -14 -15
leaf_value=0.00038032907517291211 -1.2214610878939014e-05 0.01159550306154415 -0.00097681161342199501 -0.00055165670324453615 -0.0018990122882832938 -0.00021540735249947428 -0.00077984209431255537 0.0026514454927746558 5.6337575202949988e-05 0.0023059230314135945 -0.00019904215701661189 4.855076420678134e-05 0.00027322254639606153 0.0010720953538440579
leaf_weight=926 192600 20 563 3447 565 359 89 270 1309 281 3050 7301 3871 2982
leaf_count=926 192600 20 563 3447 565 359 89 270 1309 281 3050 7301 3871 2982
internal_value=0 9.39773e-05 0.000188863 -0.000354305 0.000221518 0.00108545 0.00231766 0.00180079 0.000188584 3.29449e-06 -0.000464736 0.000312733 0.000410792 0.000762231
internal_weight=0 25033 20660 4373 20097 738 379 359 19359 7767 3615 11592 4152 4291
internal_count=217633 25033 20660 4373 20097 738 379 359 19359 7767 3615 11592 4152 4291
shrinkage=0.15


Tree=981
num_leaves=15
num_cat=0
split_feature=11 31 34 23 25 3 13 11 23 3 5 13 1 6
split_gain=0.0114473 0.0492539 0.0824294 0.0784732 0.116068 0.490022 0.403552 0.101944 0.163313 0.0996649 0.119887 0.232303 0.0876472 0.160304
threshold=6.9744250000000019e-05 -1.4968849999999998 0.82288800000000017 -16.670499999999997 6.1968050000000012 -11.392199999999997 4.9502400000000009e-05 0.00010292900000000002 -13.243199999999998 -10.344549999999998 2.4942400000000004e-05 4.3872650000000008e-05 -3.4741849999999999 1.3958400000000003e-06
decision_type=2 2 2 2 2 2 2 2 2 2 2 2 2 2
left_child=-1 3 -3 -2 5 6 -5 8 -6 -10 11 -11 -9 -14
right_child=1 2 -4 4 7 -7 -8 12 9 10 -12 -13 13 -15
leaf_value=-1.6085816816054636e-05 -0.00078169595895223056 0.00010093705123334809 -0.00072171135517415949 0.028775835308312837 -0.011529773521675345 -0.0027298179349600107 0.0041175489235683923 -0.00041528770322842875 -0.003681659320272956 0.017169536408619023 -0.0042081053643910722 -0.0010475442639290122 0.0044863932796465862 4.8543761418271179e-05
leaf_weight=178587 516 34105 2980 28 34 72 32 347 96 28 33 36 404 335
leaf_count=178587 516 34105 2980 28 34 72 32 347 96 28 33 36 404 335
internal_value=0 7.35727e-05 3.48324e-05 0.000806201 0.00137323 0.00561317 0.0156247 0.000946974 -0.00194398 -0.000255292 0.00313575 0.00692243 0.00155125 0.00247465
internal_weight=0 39046 37085 1961 1445 132 60 1313 227 193 97 64 1086 739
internal_count=217633 39046 37085 1961 1445 132 60 1313 227 193 97 64 1086 739
shrinkage=0.15


Tree=982
num_leaves=15
num_cat=0
split_feature=36 14 14 23 8 21 5 31 23 4 14 23 3 25
split_gain=0.0105606 0.0689585 0.227876 0.162646 0.176812 0.319633 0.373541 0.181156 0.176392 0.253901 0.224116 0.37377 0.277349 0.215653
threshold=0.00047676150000000003 0.0013170050000000002 0.00030621600000000005 -15.060899999999998 2.6956850000000006e-05 -6.706739999999999 3.0839600000000002e-05 -6.1956549999999995 -11.234149999999998 -1.2236799999999997 0.00039548800000000005 -9.6230949999999975 -8.0400999999999971 0.37233300000000008
decision_type=2 2 2 2 2 2 2 2 2 2 2 2 2 2
left_child=-1 2 -2 -4 7 6 -6 -5 9 -9 11 12 13 -10
right_child=1 -3 3 4 5 -7 -8 8 10 -11 -12 -13 -14 -15
leaf_value=2.5640953071270852e-05 8.1119320317449249e-05 0.00011467782116037911 0.00042059373889515944 0.0029860562169308062 0.02337071532641018 -0.00036450714902367347 0.0040423873420986417 0.0025660393402081962 -0.016922014145138879 -0.0023698520394945227 -0.0003583270223836162 -0.0011197348910179207 -0.00095552703913258038 -0.0067666680690455358
leaf_weight=135836 30080 35506 2812 255 26 605 167 254 67 3052 7398 1293 124 158
leaf_count=135836 30080 35506 2812 255 26 605 167 254 67 3052 7398 1293 124 158
internal_value=0 -4.25806e-05 -0.000163201 -0.000616543 -0.000834204 0.00133107 0.0066462 -0.000971326 -0.00105306 -0.00199063 -0.00071019 -0.0022955 -0.00665156 -0.0097907
internal_weight=0 81797 46291 16211 13399 798 193 12601 12346 3306 9040 1642 349 225
internal_count=217633 81797 46291 16211 13399 798 193 12601 12346 3306 9040 1642 349 225
shrinkage=0.15


Tree=983
num_leaves=15
num_cat=0
split_feature=22 19 12 12 23 12 33 7 10 33 2 11 30 11
split_gain=0.00924055 0.0350403 0.0485985 0.0658449 0.0476515 0.0437974 0.0550017 0.0655459 0.0418399 0.037903 0.0585094 0.033657 0.118306 0.0894374
threshold=-2.8863399999999997 2.0955950000000004e-06 -0.00017094949999999997 -0.00014945249999999999 -8.5884699999999992 -5.8883399999999993e-05 -1.7962349999999996e-05 4.3578750000000007e-05 5.1059350000000004e-05 -2.3041049999999996e-06 -2.2006199999999994 -6.4919299999999987e-05 0.00055082150000000012 -3.4928399999999996e-05
decision_type=2 2 2 2 2 2 2 2 2 2 2 2 2 2
left_child=1 2 4 -4 -1 6 -5 9 -9 10 -8 12 -7 -13
right_child=-2 -3 3 5 -6 11 7 8 -10 -11 -12 13 -14 -15
leaf_value=-6.8401880395997842e-05 -6.3181024233046851e-06 -4.657574304139265e-05 -0.0068637578799906696 0.0061962977551748271 0.0080867258291140096 -0.0026013616006852753 -0.0056195842014858492 -0.0047405800048727544 0.00083202473160072976 0.0048875280820842209 0.0031648031645059838 -0.0033415946946716963 0.011333097334807881 0.00049429053855445785
leaf_weight=28 208904 6091 27 61 38 29 24 50 77 108 59 147 26 1964
leaf_count=28 208904 6091 27 61 38 29 24 50 77 108 59 147 26 1964
internal_value=0 0.000151206 0.000607873 0.000504739 0.00462697 0.000582912 0.00207049 0.00127907 -0.00136191 0.00303511 0.000624739 0.000322619 0.00398584 0.000227178
internal_weight=0 8729 2638 2572 66 2545 379 318 127 191 83 2166 55 2111
internal_count=217633 8729 2638 2572 66 2545 379 318 127 191 83 2166 55 2111
shrinkage=0.15


Tree=984
num_leaves=15
num_cat=0
split_feature=22 2 34 2 3 22 6 12 2 2 30 13 1 33
split_gain=0.00928719 0.0624486 0.0866161 0.0856147 0.0826592 0.0921512 0.0560107 0.0777753 0.0369762 0.0444866 0.0409739 0.0288388 0.0237033 0.0314879
threshold=3.0676500000000004 3.0578500000000006 0.014248000000000002 2.6644600000000005 -13.980049999999999 3.0909850000000003 2.3503850000000006e-06 2.5800150000000004e-05 -3.0483799999999994 -2.9487299999999999 0.0012252050000000003 -5.7174249999999997e-06 7.2775700000000008 4.8296750000000013e-07
decision_type=2 2 2 2 2 2 2 2 2 2 2 2 2 2
left_child=-1 3 -3 8 -5 -6 7 -7 -2 10 -10 12 13 -11
right_child=1 2 -4 4 5 6 -8 -9 9 11 -12 -13 -14 -15
leaf_value=-3.2727578524403485e-06 0.0060585621164556446 -0.0016543787426780909 0.01147571793721559 0.005248359039694111 -0.010658304857161755 -0.011343983250204474 0.0024792442056518907 -0.00072892915655180192 -0.00021616859017880275 0.0020155613674960105 -0.009124520883363272 0.00010548750795717977 0.0029831262493217412 -0.0003868817523386785
leaf_weight=215232 26 20 26 23 39 25 38 41 26 245 21 1478 147 246
leaf_count=215232 26 20 26 23 39 25 38 41 26 245 21 1478 147 246
internal_value=0 0.000293379 0.00576698 0.000186463 -0.00309781 -0.0044402 -0.00210841 -0.00474978 0.000435522 0.000367931 -0.0041965 0.000469315 0.00131216 0.000811893
internal_weight=0 2401 46 2355 166 143 104 66 2189 2163 47 2116 638 491
internal_count=217633 2401 46 2355 166 143 104 66 2189 2163 47 2116 638 491
shrinkage=0.15


Tree=985
num_leaves=15
num_cat=0
split_feature=16 36 4 1 22 23 21 5 33 31 4 33 28 7
split_gain=0.00910922 0.0554352 0.0605629 0.370435 0.805231 0.639475 0.352506 0.329234 0.225475 0.188125 0.181413 0.348331 0.539204 0.291225
threshold=-2.2582199999999995e-06 0.00010632200000000002 0.069797850000000008 0.53250800000000009 2.5417150000000004 -9.3210949999999979 1.4596200000000004 1.7097650000000004e-05 7.919650000000003e-06 0.33192000000000005 -0.63345599999999991 8.5593200000000009e-06 0.0020348000000000002 2.5940500000000003e-05
decision_type=2 2 2 2 2 2 2 2 2 2 2 2 2 2
left_child=1 2 10 -4 8 6 -6 -8 9 -5 -1 12 -12 -13
right_child=-2 -3 3 4 5 -7 7 -9 -10 -11 11 13 -14 -15
leaf_value=-0.00018092353752426876 -1.7519492688034409e-05 0.00021119715472931892 -5.5063465664434324e-05 0.0003448170493686689 -0.010584382170284361 -0.003240159776367854 -0.040421638757522617 -0.015223381261748726 -0.0053466873981379334 -0.0076237107329992192 0.0018915139341317052 0.016334589323602045 -0.0026213002939570584 0.0030718653660039802
leaf_weight=10665 164138 25929 12106 899 38 89 28 20 244 72 1578 39 957 831
leaf_count=10665 164138 25929 12106 899 38 89 28 20 244 72 1578 39 957 831
internal_value=0 5.37548e-05 -9.43378e-05 -0.000321352 -0.00264055 -0.0121535 -0.0213777 -0.0299224 -0.00127038 -0.000246052 0.000123415 0.00107665 0.00018786 0.0036664
internal_weight=0 53495 27566 13496 1390 175 86 48 1215 971 14070 3405 2535 870
internal_count=217633 53495 27566 13496 1390 175 86 48 1215 971 14070 3405 2535 870
shrinkage=0.15


Tree=986
num_leaves=15
num_cat=0
split_feature=36 16 16 0 34 3 11 4 35 1 23 22 22 18
split_gain=0.010097 0.110133 0.376552 0.536514 0.34131 0.341342 0.316578 0.227472 0.340024 0.318245 0.446253 0.43912 0.973849 0.482174
threshold=0.0005789835000000001 -9.1681949999999977e-08 -2.9575949999999995e-06 -4.9512199999999984 0.63652550000000019 -6.1381299999999994 -2.0005449999999997e-05 -0.077230699999999985 -0.00013444999999999996 -3.1376199999999996 -11.172049999999997 2.4063700000000003 1.84284 -4.0644549999999992e-06
decision_type=2 2 2 2 2 2 2 2 2 2 2 2 2 2
left_child=-1 2 -2 -4 5 6 7 8 -5 10 -9 12 -11 -14
right_child=1 -3 3 4 -6 -7 -8 9 -10 11 -12 -13 13 -15
leaf_value=2.402059729938945e-05 0.0001995596675396529 0.00010649352123123604 3.8690154218694676e-05 -0.011255037837012758 0.00033567340533964307 -4.4950404542269382e-05 -0.0037257219678046337 -0.010879368403508454 9.941664522297547e-05 0.00089871821930656939 0.00099435932794393112 -0.011493475993467105 -0.00031990584684535859 0.025474242249592428
leaf_weight=140161 17906 45492 7428 103 1327 1134 3152 110 140 350 202 43 22 63
leaf_count=140161 17906 45492 7428 103 1327 1134 3152 110 140 350 202 43 22 63
internal_value=0 -4.34576e-05 -0.000256765 -0.000837336 -0.00181644 -0.00235336 -0.00297886 -0.000699951 -0.00471338 0.000534559 -0.00319189 0.00296689 0.0043963 0.0187981
internal_weight=0 77472 31980 14074 6646 5319 4185 1033 243 790 312 478 435 85
internal_count=217633 77472 31980 14074 6646 5319 4185 1033 243 790 312 478 435 85
shrinkage=0.15


Tree=987
num_leaves=15
num_cat=0
split_feature=36 7 11 10 9 4 7 10 4 33 14 0 0 29
split_gain=0.0101075 0.0465703 0.0668565 0.0415165 0.0630433 0.0660818 0.0504423 0.0647245 0.0941398 0.108272 0.0391359 0.0356982 0.049289 0.0578028
threshold=1.2326750000000002 3.7936850000000009e-05 -0.00027305749999999995 1.8498100000000002e-05 1.4404950000000002e-05 -1.6509149999999997 2.7810300000000004e-05 3.3417200000000003e-05 0.57692800000000011 0.00018864850000000001 0.0014017550000000002 3.3209650000000006 0.96588400000000008 -0.5944839999999999
decision_type=2 2 2 2 2 2 2 2 2 2 2 2 2 2
left_child=-1 2 -2 4 5 -4 10 8 -8 -10 -5 12 -7 -14
right_child=1 -3 3 6 -6 11 7 -9 9 -11 -12 -13 13 -15
leaf_value=3.4185461832530637e-06 0.0067451750974067033 -0.00085245014702294258 -0.0074950587938656102 0.00089547371960158441 0.0077368405763991177 0.00084401648549586145 -0.0010745178611444486 0.0024084190081933281 -0.015243782158358954 -0.00067541534028185354 0.008927029736805708 -0.0036245614113607281 0.011379909055540339 0.0021110823530462522
leaf_weight=215226 37 1427 20 43 33 225 364 98 24 22 20 29 24 41
leaf_count=215226 37 1427 20 43 33 225 364 98 24 22 20 29 24 41
internal_value=0 -0.000305675 0.000490496 0.000245085 0.00147817 0.000868916 -0.000558255 -0.00105474 -0.00188252 -0.0082763 0.00344517 0.0013933 0.00189509 0.00553342
internal_weight=0 2407 980 943 372 339 571 508 410 46 63 319 290 65
internal_count=217633 2407 980 943 372 339 571 508 410 46 63 319 290 65
shrinkage=0.15


Tree=988
num_leaves=15
num_cat=0
split_feature=2 21 32 32 33 22 3 22 29 18 20 36 23 29
split_gain=0.0087658 0.0570811 0.040845 0.0473083 0.11341 0.0334838 0.0371078 0.0304682 0.0302686 0.047792 0.0230528 0.0377047 0.0185494 0.0111084
threshold=3.0791950000000008 2.3962650000000001 -0.040480049999999997 -0.0034365699999999995 7.250400000000002e-07 2.3818600000000001 -6.8084599999999993 2.3818600000000001 0.010233700000000002 5.6737950000000013e-07 -2.9340849999999992 -0.00029398149999999997 -6.6695199999999994 0.0042759300000000007
decision_type=2 2 2 2 2 2 2 2 2 2 2 2 2 2
left_child=-1 2 7 4 -4 10 -7 -2 13 -10 11 -3 -12 -5
right_child=1 5 3 8 -6 6 -8 -9 9 -11 12 -13 -14 -15
leaf_value=1.8649019565971561e-06 -0.0010355350147749829 0.0087723795217461882 -0.00019262392286856827 -0.0011709673490067018 -0.013586452153511345 -0.0064287985979507743 0.0010523453447967767 0.0060953948297537862 -0.0010654946158121508 -0.0089928794091974854 0.0015334108826188528 0.0014775188933444125 -0.0025658901405504679 0.0010966228201868943
leaf_weight=216801 28 25 33 256 25 26 35 26 44 28 173 44 29 60
leaf_count=216801 28 25 33 256 25 26 35 26 44 28 173 44 29 60
internal_value=0 -0.000485952 -0.00149837 -0.00197011 -0.00596583 0.00103877 -0.00213634 0.00239788 -0.00137282 -0.00414837 0.00175347 0.00412058 0.000944897 -0.000740412
internal_weight=0 832 500 446 58 332 61 54 388 72 271 69 202 316
internal_count=217633 832 500 446 58 332 61 54 388 72 271 69 202 316
shrinkage=0.15


Tree=989
num_leaves=15
num_cat=0
split_feature=23 14 14 23 13 23 33 19 24 37 5 33 4 1
split_gain=0.00856508 0.124405 0.250682 0.200531 0.172068 0.303717 0.445472 0.931066 0.380681 0.31155 0.278319 0.243734 0.227611 0.199878
threshold=-12.0435 0.00064274150000000012 0.00014131850000000001 -17.743599999999997 3.166850000000001e-05 -16.783199999999997 -1.0384049999999999e-05 1.1283150000000002e-05 0.22059200000000004 3.0075700000000008e-07 1.4194300000000002e-05 -2.1909249999999997e-05 0.15498250000000002 -6.1608199999999984
decision_type=2 2 2 2 2 2 2 2 2 2 2 2 2 2
left_child=1 2 -1 -4 5 -3 7 8 9 -7 -9 12 -10 -8
right_child=-2 4 3 -5 -6 6 13 10 11 -11 -12 -13 -14 -15
leaf_value=-0.00012722054003227827 -1.9407933071130094e-05 0.00050379560459059734 -0.00034725703351560724 0.0010492061047899758 0.00012883661040396924 -0.008434350261628587 -0.0022541803063745041 -0.0029613270232272605 -0.0016964891640974444 -0.024199685391504317 7.658148016938104e-05 0.004753487259930759 -0.012147605584219231 0.00012146806268991216
leaf_weight=16231 152685 4314 2956 10648 20854 471 937 1088 142 30 1803 76 70 5328
leaf_count=16231 152685 4314 2956 10648 20854 471 937 1088 142 30 1803 76 70 5328
internal_value=0 4.56257e-05 0.000270841 0.00074577 -0.000145736 -0.000547303 -0.00100325 -0.00231315 -0.00688028 -0.00937838 -0.00106671 -0.00253461 -0.00514733 -0.000233836
internal_weight=0 64948 29835 13604 35113 14259 9945 3680 789 501 2891 288 212 6265
internal_count=217633 64948 29835 13604 35113 14259 9945 3680 789 501 2891 288 212 6265
shrinkage=0.15


Tree=990
num_leaves=15
num_cat=0
split_feature=14 23 20 11 20 3 0 11 3 37 3 0 23 15
split_gain=0.0086212 0.0436173 0.0452999 0.329285 0.0538559 0.118453 0.309394 0.0726647 0.565356 0.100716 0.178204 0.228139 0.220599 0.309553
threshold=0.000110883 -14.762349999999998 19.256550000000001 1.3649300000000002e-05 11.473100000000002 -7.3111649999999999 8.3884950000000007 2.3517950000000001e-05 -6.3853549999999988 2.0133750000000003e-08 -6.2768299999999995 10.777050000000001 -7.2526199999999994 2.3100500000000006e-08
decision_type=2 2 2 2 2 2 2 2 2 2 2 2 2 2
left_child=1 -1 4 -4 -3 6 -6 9 -9 10 11 12 -7 -14
right_child=-2 2 3 -5 5 7 -8 8 -10 -11 -12 -13 13 -15
leaf_value=-0.00027497564804326331 -1.5572466968595447e-05 0.00014748689563417658 -2.3210548091227592e-05 0.020640828894975129 0.0020854040395555107 0.0019317904799456961 -0.016909040405548043 0.02465087746016004 -0.0027800954998333698 0.00077353613005074905 -0.00049444140612771531 0.0015581608687560741 -0.0057392039591871689 -0.021839979472199709
leaf_weight=7466 171085 37304 131 20 43 33 35 22 73 603 635 70 69 44
leaf_count=7466 171085 37304 131 20 43 33 35 22 73 603 635 70 69 44
internal_value=0 5.72359e-05 0.0001207 0.00271375 0.000110642 -0.000734139 -0.00643774 -0.000446933 0.00357234 -0.00070954 -0.00176042 -0.00548215 -0.00885764 -0.0120085
internal_weight=0 46548 39082 151 38931 1627 78 1549 95 1454 851 216 146 113
internal_count=217633 46548 39082 151 38931 1627 78 1549 95 1454 851 216 146 113
shrinkage=0.15


Tree=991
num_leaves=15
num_cat=0
split_feature=4 24 2 22 4 4 4 18 16 26 22 9 34 22
split_gain=0.00937569 0.0412003 0.0670014 0.485575 0.432208 0.37928 0.307009 0.369184 0.519136 0.391039 0.287693 0.724437 0.446923 0.287076
threshold=0.11543250000000001 0.32589550000000006 2.2580750000000003 2.2191300000000003 1.7706300000000004 0.21982700000000002 3.3313850000000005 0.00010488150000000002 1.5968850000000001e-07 -0.00020010149999999998 2.6381550000000007 -3.591789999999999e-05 0.25525800000000004 1.5383100000000003
decision_type=2 2 2 2 2 2 2 2 2 2 2 2 2 2
left_child=-1 -2 -3 4 5 -4 7 9 -9 10 11 -5 -12 -7
right_child=1 2 3 6 -6 13 -8 8 -10 -11 12 -13 -14 -15
leaf_value=-2.3138131223863323e-05 8.657636638840481e-05 -7.6821426761181883e-05 -0.00021075322251168214 -0.0051060272274877543 0.00055380372447099107 -0.0062635657306151764 -0.0050914865471842112 0.031449354605542289 0.0065292937273859989 -0.01367669447911261 0.02034470109834469 0.031878001514661053 -0.0042111672279942364 -0.017864145759323779
leaf_weight=140198 66366 9514 231 22 556 377 68 27 62 29 21 26 81 55
leaf_count=140198 66366 9514 231 22 556 377 68 27 62 29 21 26 81 55
internal_value=0 4.18922e-05 -0.000226019 -0.00113886 -0.00253049 -0.00511701 0.00390992 0.00619386 0.0140893 0.00226819 0.00535086 0.014927 0.000844453 -0.00774049
internal_weight=0 77435 11069 1555 1219 663 336 268 89 179 150 48 102 432
internal_count=217633 77435 11069 1555 1219 663 336 268 89 179 150 48 102 432
shrinkage=0.15


Tree=992
num_leaves=15
num_cat=0
split_feature=23 3 3 23 23 14 27 14 23 20 20 3 17 20
split_gain=0.00816384 0.115097 0.315826 0.636931 0.557662 0.68368 0.485076 0.406711 0.853538 1.26719 0.444389 0.31886 0.663369 0.341322
threshold=-12.0435 -10.501849999999999 -12.195349999999999 -15.479399999999998 -12.162849999999999 0.0046292850000000012 1.2652600000000003 0.0006614075000000002 -13.243199999999998 5.0965200000000008 -4.472974999999999 -11.820049999999997 2.2042900000000004e-06 6.665960000000001
decision_type=2 2 2 2 2 2 2 2 2 2 2 2 2 2
left_child=1 2 7 -4 5 6 -5 8 -1 10 -10 12 -6 -13
right_child=-2 -3 3 4 11 -7 -8 -9 9 -11 -12 13 -14 -15
leaf_value=-0.00098449019177401743 -1.8947883653964955e-05 0.00018623876581354718 0.00052363928617959804 -0.0060658915035810886 0.031514639944200298 -0.00016789144658956102 -0.0010221349136253976 4.8062609673511439e-05 0.018113623936053203 0.044096942294132094 -0.012066815314548356 -0.0014891310126120339 -0.0035745746641623554 0.01742678654129402
leaf_weight=115 152685 43197 2917 1475 27 1257 605 15111 23 29 21 123 22 26
leaf_count=115 152685 43197 2917 1475 27 1257 605 15111 23 29 21 123 22 26
internal_value=0 4.45442e-05 -0.000236858 -0.00111701 -0.00247084 -0.00292976 -0.00459884 0.000134328 0.00706811 0.0197537 0.00370932 0.00526358 0.0157603 0.00181163
internal_weight=0 64948 21751 6452 3535 3337 2080 15299 188 73 44 198 49 149
internal_count=217633 64948 21751 6452 3535 3337 2080 15299 188 73 44 198 49 149
shrinkage=0.15


Tree=993
num_leaves=15
num_cat=0
split_feature=3 23 23 3 14 25 14 20 0 9 18 39 11 8
split_gain=0.0117049 0.112401 0.432902 3.10894 2.2235 1.18432 0.836354 0.831042 1.37875 0.771957 0.606704 0.519245 0.439453 0.422225
threshold=-10.110599999999998 -11.298099999999998 -10.268599999999998 -11.455299999999998 0.0022836250000000005 1.7714450000000002 0.0013588450000000002 -6.0907299999999998 -6.6283299999999992 -2.4134849999999998e-05 -8.7140049999999986e-06 0.00082647400000000011 9.318670000000002e-05 2.2619000000000005e-05
decision_type=2 2 2 2 2 2 2 2 2 2 2 2 2 2
left_child=1 -1 3 6 5 7 -3 9 -9 -5 11 -7 13 -10
right_child=-2 2 -4 4 -6 10 -8 8 12 -11 -12 -13 -14 -15
leaf_value=-0.00019666088746823692 -2.5179435712613129e-05 -0.0061994407383472927 1.140638748323079e-05 0.012407807071352949 -0.00038129647657159256 0.027184842173652402 -0.00012109885286264994 -0.0075576934451331203 0.015703132465617702 -0.0060502636694291139 -0.0049294674827615381 -0.00073888259192303408 -0.0043391168299422127 0.037781494291266426
leaf_weight=26994 142811 593 41590 104 742 29 3610 62 763 100 160 31 24 20
leaf_count=26994 142811 593 41590 104 742 29 3610 62 763 100 160 31 24 20
internal_value=0 4.80594e-05 0.000186179 0.00135142 0.00616394 0.00991998 -0.00097869 0.0119756 0.0139982 0.00335973 -0.000105726 0.0127576 0.0156543 0.0162671
internal_weight=0 74822 47828 6238 2035 1293 4203 1073 869 204 220 60 807 783
internal_count=217633 74822 47828 6238 2035 1293 4203 1073 869 204 220 60 807 783
shrinkage=0.15


Tree=994
num_leaves=15
num_cat=0
split_feature=23 3 3 23 14 25 23 3 19 33 14 33 6 19
split_gain=0.011022 0.0954923 0.407118 0.860403 0.737267 0.584872 0.396711 1.31822 0.863442 1.09039 0.534266 0.711752 1.46842 1.37083
threshold=-12.666499999999997 -10.662649999999998 -12.508949999999999 -15.060899999999998 0.0046292850000000012 1.2871200000000003 -13.957949999999999 -13.697799999999999 7.2538700000000022e-08 2.5602950000000004e-06 0.011904450000000002 3.5602550000000003e-06 -2.1479449999999997e-07 0.00013127750000000005
decision_type=2 2 2 2 2 2 2 2 2 2 2 2 2 2
left_child=1 2 6 -4 5 -5 -1 -8 9 -9 11 13 -13 -10
right_child=-2 -3 3 4 -6 -7 7 8 10 -11 -12 12 -14 -15
leaf_value=-0.00023479372375901055 -2.0153210902736849e-05 0.00019040994162356265 0.0002962560985025483 -0.007365156256503429 -0.00023105309009807312 -0.00074974601982196961 -0.00047789658796370171 0.025030878421907519 0.0094932673726048217 -0.0090132774668745686 -0.0011610804251114049 -0.0060081714392549923 0.016845175380783752 -0.010098760899585668
leaf_weight=9374 160446 38719 3403 1065 1002 419 2120 98 203 27 275 83 266 133
leaf_count=9374 160446 38719 3403 1065 1002 419 2120 98 203 27 275 83 266 133
internal_value=0 5.65426e-05 -0.000224116 -0.00125342 -0.00337472 -0.00549733 0.000257764 0.0016984 0.0059507 0.0176773 0.00442379 0.00666589 0.0114101 0.00173809
internal_weight=0 57187 18468 5889 2486 1484 12579 3205 1085 125 960 685 349 336
internal_count=217633 57187 18468 5889 2486 1484 12579 3205 1085 125 960 685 349 336
shrinkage=0.15


Tree=995
num_leaves=15
num_cat=0
split_feature=3 14 23 3 23 14 30 3 20 14 4 0 20 21
split_gain=0.0146345 0.11439 0.105724 0.303331 0.704147 0.489018 0.455298 0.438216 0.335943 0.269462 0.26025 0.189865 0.208466 0.232638
threshold=-10.729049999999999 0.00029851800000000006 -13.149599999999998 -13.004499999999998 -15.570249999999998 0.0046292850000000012 0.0028914900000000005 -11.820049999999997 5.7696600000000009 0.00071923400000000013 0.26861600000000002 -4.7317399999999994 -4.6279899999999996 -5.4706949999999992
decision_type=2 2 2 2 2 2 2 2 2 2 2 2 2 2
left_child=1 -1 3 9 -5 6 7 8 10 -3 11 -6 -13 -14
right_child=-2 2 -4 4 5 -7 -8 -9 -10 -11 -12 12 13 -15
leaf_value=0.0038146466885086985 -2.5489308664321183e-05 0.012671700696228073 0.00015919458847916764 0.00032659143870753963 -0.0059443517057609155 -0.00065322844890098165 5.3812403900102775e-05 -0.0034443971448481995 0.0056867328585212817 0.00017917316082643043 -0.0029395621225652888 -0.0049323118748670477 -0.003646775020067306 -0.016932601903230031
leaf_weight=182 152253 39 48890 3457 97 1236 356 653 32 10027 92 53 34 232
leaf_count=182 152253 39 48890 3457 97 1236 356 653 32 10027 92 53 34 232
internal_value=0 5.9358e-05 4.88751e-05 -0.000281853 -0.00110337 -0.00287837 -0.00465388 -0.0060587 -0.00922006 0.000227575 -0.0101591 -0.0117557 -0.0135228 -0.0152344
internal_weight=0 65380 65198 16308 6242 2785 1549 1193 540 10066 508 416 319 266
internal_count=217633 65380 65198 16308 6242 2785 1549 1193 540 10066 508 416 319 266
shrinkage=0.15


Tree=996
num_leaves=15
num_cat=0
split_feature=23 3 3 23 14 0 20 22 22 21 23 15 0 27
split_gain=0.0130417 0.0702355 0.187774 1.14376 1.00333 0.675504 1.86768 1.62294 0.982039 0.564766 0.601105 0.572647 0.541339 0.523742
threshold=-12.666499999999997 -10.729049999999999 -12.508949999999999 -10.580249999999998 0.0054376550000000004 -5.1610799999999992 -5.3201199999999984 2.4316000000000004 -2.5339749999999994 -8.1782399999999971 -12.425899999999999 -1.1365049999999999e-05 -3.6042449999999997 8.3762950000000007
decision_type=2 2 2 2 2 2 2 2 2 2 2 2 2 2
left_child=-1 2 -2 4 5 7 12 8 -4 -8 -11 -12 -7 -13
right_child=1 -3 3 -5 -6 6 9 -9 -10 10 11 13 -14 -15
leaf_value=6.1505210867605402e-05 -8.9031962912806479e-05 -8.5903095990633974e-05 0.0072454464081073951 -0.00012858216915182251 -0.00066812562581111581 0.012905369529471499 -0.011647344729069366 0.017405668660019014 -0.0085346884410402984 -0.0017394048363469014 -0.0048803374296767284 0.010174659809348941 -0.007824855929007871 -0.0050171368850399477
leaf_weight=57187 30493 113340 124 12912 1216 32 33 97 312 127 64 1395 248 53
leaf_count=57187 30493 113340 124 12912 1216 32 33 97 312 127 64 1395 248 53
internal_value=0 -2.1922e-05 0.000132021 0.00053776 0.00286249 0.00459014 0.00588245 -0.00014266 -0.00404676 0.00778118 0.00817236 0.00900489 -0.00545569 0.00961861
internal_weight=0 160446 47106 16613 3701 2485 1952 533 436 1672 1639 1512 280 1448
internal_count=217633 160446 47106 16613 3701 2485 1952 533 436 1672 1639 1512 280 1448
shrinkage=0.15


Tree=997
num_leaves=15
num_cat=0
split_feature=29 9 29 0 9 0 20 13 3 21 15 14 31 3
split_gain=0.00964759 0.115687 0.12012 0.576347 0.970589 0.706502 1.30161 1.10793 0.770521 0.628506 0.661701 0.551564 0.425395 0.396764
threshold=1.0000000180025095e-35 2.5967100000000004e-05 -0.0020795199999999996 0.16629750000000001 -1.2294799999999998e-05 1.4045800000000002 2.2507550000000003 1.0887900000000003e-05 -6.4680349999999995 11.528150000000002 2.4614850000000008e-07 0.0014449400000000002 -0.0066746799999999997 -6.1122599999999991
decision_type=2 2 2 2 2 2 2 2 2 2 2 2 2 2
left_child=1 2 -1 4 -4 6 7 8 9 10 -5 12 -6 -14
right_child=-2 -3 3 5 11 -7 -8 -9 -10 -11 -12 -13 13 -15
leaf_value=0.00014633138211132682 3.2339633852583827e-05 -0.00026933662768006879 -0.00024580829774092981 0.019704503803261456 -0.0043922514113708408 -0.0001590711467448173 -0.0027324364083983711 0.00042358429629174127 -0.00022325947793433443 -0.004706414939507588 0.0019517319575243163 -0.0017052911561059947 -0.014258344861812728 -0.0013019080468545912
leaf_weight=66731 106237 32437 6416 302 506 2920 400 286 91 33 56 906 244 68
leaf_count=66731 106237 32437 6416 302 506 2920 400 286 91 33 56 906 244 68
internal_value=0 -3.08419e-05 6.71337e-05 -0.000365067 -0.00109486 0.00108809 0.00420599 0.00781976 0.0122084 0.0151017 0.0169275 -0.00425466 -0.00707829 -0.0114345
internal_weight=0 111396 78959 12228 8140 4088 1168 768 482 391 358 1724 818 312
internal_count=217633 111396 78959 12228 8140 4088 1168 768 482 391 358 1724 818 312
shrinkage=0.15


Tree=998
num_leaves=15
num_cat=0
split_feature=23 11 20 0 20 7 9 20 11 0 23 11 9 20
split_gain=0.013027 0.056604 0.107818 0.226541 0.158418 0.188491 0.218613 0.168071 0.151516 0.144779 0.117499 0.136763 0.348023 0.267453
threshold=-7.8351449999999998 1.3649300000000002e-05 4.1922650000000008 -4.1340849999999998 -9.3203249999999986 3.2178150000000006e-05 1.3897450000000002e-05 2.9359650000000008 -0.00014964099999999997 6.8213550000000014 -7.644499999999999 -1.3562099999999998e-05 -8.401774999999998e-06 -4.3984049999999995
decision_type=2 2 2 2 2 2 2 2 2 2 2 2 2 2
left_child=-1 2 3 -2 -5 6 -6 9 -4 -8 11 -7 13 -13
right_child=1 -3 8 4 5 10 7 -9 -10 -11 -12 12 -14 -15
leaf_value=-2.5089677134229821e-05 0.00018456869656390839 0.00023137093598718598 -0.00072090442407336233 0.00018325589305390045 -0.0013685245548416751 -0.0010969273390350118 -0.0071033353877889257 -0.012701309543928868 0.00047010257480382435 -0.0016544847291027822 -0.00069686710669612491 0.0024384665438961037 0.0014422991152541189 0.023937975425942566
leaf_weight=148312 14249 25499 2930 3536 3193 267 180 53 13370 281 5404 23 306 30
leaf_count=148312 14249 25499 2930 3536 3193 267 180 53 13370 281 5404 23 306 30
internal_value=0 5.36793e-05 -4.97154e-05 -0.000230784 -0.00067668 -0.000988966 -0.00183069 -0.00470171 0.000256014 -0.00378202 -0.000471506 0.00147394 0.00338598 0.014608
internal_weight=0 69321 43822 27522 13273 9737 3707 514 16300 461 6030 626 359 53
internal_count=217633 69321 43822 27522 13273 9737 3707 514 16300 461 6030 626 359 53
shrinkage=0.15


Tree=999
num_leaves=15
num_cat=0
split_feature=23 14 23 14 14 21 1 1 23 26 0 0 37 15
split_gain=0.0095326 0.0627943 0.12817 0.341791 0.210277 0.206719 2.35885 1.99964 1.18168 1.12426 1.00197 0.869735 0.483953 0.376916
threshold=-8.0148199999999985 0.00018273250000000005 -12.666499999999997 0.00090841950000000011 0.0006072295000000001 -7.6127649999999987 -7.6732999999999993 -9.4904649999999986 -10.156499999999999 0.00014330150000000001 -4.6429399999999994 4.2274800000000008 9.0930100000000013e-08 1.1823400000000001e-08
decision_type=2 2 2 2 2 2 2 2 2 2 2 2 2 2
left_child=1 -1 4 5 -3 6 7 -4 -9 10 -10 12 13 -12
right_child=-2 2 3 -5 -6 -7 -8 8 9 -11 11 -13 -14 -15
leaf_value=0.00013343512116293914 4.3539941749659339e-05 0.00074334904022182958 -0.0034178181856155524 2.5988109306400054e-05 -6.6125445552198524e-05 -0.0009067475892624682 -0.0021409207843542046 -0.0070919744675047693 -0.0013812578665072742 -0.013211140186060219 0.016587566442859289 0.00029732255806105541 0.0059384291544556612 0.031033449702625795
leaf_weight=41282 74441 9381 210 40958 31352 17747 1846 50 44 25 52 34 25 186
leaf_count=41282 74441 9381 210 40958 31352 17747 1846 50 44 25 52 34 25 186
internal_value=0 -2.2635e-05 -8.58564e-05 -0.00022312 0.0001203 -0.000727743 0.000557367 0.0085143 0.0145377 0.0174926 0.0197436 0.0228732 0.0257918 0.0278772
internal_weight=0 143192 101910 61177 40733 20219 2472 626 416 366 341 297 263 238
internal_count=217633 143192 101910 61177 40733 20219 2472 626 416 366 341 297 263 238
shrinkage=0.15


Tree=1000
num_leaves=15
num_cat=0
split_feature=4 26 10 38 25 13 9 5 24 8 21 1 36 13
split_gain=0.00963287 0.0645913 0.100852 0.29614 0.328909 0.359209 0.272387 0.200834 0.15538 0.199473 0.152171 0.325012 0.201797 0.230977
threshold=0.14210450000000005 -4.1290149999999996e-05 1.8158500000000002e-05 -0.0092590449999999987 9.4839650000000013 3.4251500000000009e-05 -8.5596999999999985e-07 1.4831250000000003e-05 0.86178750000000004 9.4243100000000013e-06 6.7472850000000006 6.1041250000000007 -0.00018434399999999997 1.6938500000000004e-05
decision_type=2 2 2 2 2 2 2 2 2 2 2 2 2 2
left_child=-1 -2 3 4 5 6 -3 8 9 -6 -5 -12 13 -13
right_child=1 2 -4 10 7 -7 -8 -9 -10 -11 11 12 -14 -15
leaf_value=-2.2055612388886449e-05 -0.00010111523289989788 0.028858699621923733 6.8644056418905235e-05 0.00083435136683026321 -0.014715306550515965 0.0010684081115447574 0.0094360251466489645 0.014668993236820981 0.0029685066332910035 0.0039604903357526797 0.0004199065248884213 -0.011501260370909329 0.0019581203135188483 -0.0010415940318648921
leaf_weight=146214 34815 32 30110 5169 31 41 33 23 107 22 766 136 61 73
leaf_count=146214 34815 32 30110 5169 31 41 33 23 107 22 766 136 61 73
internal_value=0 4.51538e-05 0.000184274 0.000720402 0.005414 0.0120629 0.018998 0.0015627 -0.000321334 -0.00696309 0.000501797 -0.00115745 -0.00563245 -0.00784788
internal_weight=0 71419 36604 6494 289 106 65 183 160 53 6205 1036 270 209
internal_count=217633 71419 36604 6494 289 106 65 183 160 53 6205 1036 270 209
shrinkage=0.15


Tree=1001
num_leaves=15
num_cat=0
split_feature=23 3 3 17 16 14 14 7 14 3 9 6 33 33
split_gain=0.0107418 0.0648286 0.0438865 0.0550596 0.0536974 0.0351544 0.0267577 0.0570163 0.0497304 0.0455563 0.0410535 0.029121 0.0523124 0.04225
threshold=-19.568199999999997 -19.110799999999998 -17.495099999999997 9.9555800000000016e-07 -8.3476249999999976e-09 0.00025343850000000004 0.0052402850000000008 2.5052550000000005e-05 0.0044395100000000015 -16.266399999999997 2.4644650000000005e-05 -1.5909299999999996e-06 -4.8404199999999993e-05 0.00057083650000000008
decision_type=2 2 2 2 2 2 2 2 2 2 2 2 2 2
left_child=1 -1 3 4 -3 -4 8 -8 9 -7 -10 12 -11 -13
right_child=-2 2 5 -5 -6 6 7 -9 10 11 -12 13 -14 -15
leaf_value=0.0066018871294574863 4.7625563172746231e-06 -0.01161621937588699 -0.00080043970049209251 0.00038206527644268299 -0.0017770019980162032 -0.0060212880643084644 -0.0083844471765041808 -0.00030498747008865534 0.0019789860734211588 -0.0026475724537273269 0.010010959369330002 0.00053778526055449805 0.00081663415744475537 0.0037558822164434182
leaf_weight=31 213277 26 1480 44 24 25 20 1131 45 171 21 1007 230 101
leaf_count=31 213277 26 1480 44 24 25 20 1131 45 171 21 1007 230 101
internal_value=0 -0.000233183 -0.000282174 -0.00348786 -0.0068934 -0.000210953 0.000106182 -0.000445378 0.000502961 0.0003295 0.00453461 0.000434715 -0.000660621 0.000831132
internal_weight=0 4356 4325 94 50 4231 2751 1151 1600 1534 66 1509 401 1108
internal_count=217633 4356 4325 94 50 4231 2751 1151 1600 1534 66 1509 401 1108
shrinkage=0.15


Tree=1002
num_leaves=15
num_cat=0
split_feature=32 15 37 12 13 3 15 37 29 23 28 3 4 16
split_gain=0.00916885 0.0713821 0.0930283 0.124287 0.192201 0.199342 0.22875 0.505349 0.396692 0.333227 0.941089 0.575178 0.426739 0.517071
threshold=-0.28622449999999994 -4.6562649999999992e-08 3.6076000000000006e-07 0.00010055750000000001 -3.3923949999999992e-05 -17.495099999999997 -9.0345749999999981e-06 -1.6896799999999998e-07 -0.15447899999999995 -15.694899999999999 0.028828300000000005 -14.602749999999999 0.26861600000000002 -1.1918899999999999e-06
decision_type=2 2 2 2 2 2 2 2 2 2 2 2 2 2
left_child=1 2 3 -1 -5 -6 -7 8 -8 11 -11 -10 13 -12
right_child=-2 -3 -4 4 5 6 7 -9 9 10 12 -13 -14 -15
leaf_value=-0.0012395134991976386 1.158694772465263e-05 0.0001320991564739287 7.5781465601717485e-05 -0.0028257013101080828 -0.0071952126123226035 -0.00020020561223006904 -0.0064732156605092125 -0.0072199512100529061 0.01750446653057789 0.040627568233176127 0.011411801006708463 -0.0072377043527436713 0.015934342490897202 -0.0025371872098807189
leaf_weight=4093 190633 15261 5686 378 65 918 57 84 29 20 110 78 90 131
leaf_count=4093 190633 15261 5686 378 65 918 57 84 29 20 110 78 90 131
internal_value=0 -8.18094e-05 -0.000359896 -0.000769158 0.000213069 0.000939147 0.00128769 0.00356796 0.00532754 0.0067962 0.00903011 -0.000531882 0.0071209 0.00382957
internal_weight=0 27000 11739 6053 1960 1582 1517 599 515 458 351 107 331 241
internal_count=217633 27000 11739 6053 1960 1582 1517 599 515 458 351 107 331 241
shrinkage=0.15


Tree=1003
num_leaves=15
num_cat=0
split_feature=15 26 15 12 32 26 37 19 0 22 39 25 11 22
split_gain=0.00918556 0.0551413 0.0866159 0.0633127 0.124584 0.175485 0.0806267 0.16174 0.159863 0.336818 0.10424 0.0908755 0.113017 0.125462
threshold=-2.5264549999999993e-06 -0.00014480999999999996 -3.211369999999999e-05 -0.0002804119999999999 1.0073750000000004 -0.0018968649999999997 -5.2213149999999988e-06 0.0012881300000000004 -4.0539249999999987 2.1317500000000007 0.029330700000000005 3.3813650000000006 -7.5258799999999992e-05 2.8829500000000006
decision_type=2 2 2 2 2 2 2 2 2 2 2 2 2 2
left_child=1 2 -1 4 -4 -6 7 -5 9 -9 -10 -8 13 -13
right_child=-2 -3 3 6 5 -7 11 8 10 -11 -12 12 -14 -15
leaf_value=0.00012300622942595056 -1.6318509010685847e-05 0.00013270316514236768 -0.0002910997700793021 -0.0019278661521882059 4.6423162233882719e-05 0.015978348374898942 -0.00058115571467682605 -0.001609775933320634 -0.0023279983776592415 0.022412939573606027 0.0093687853164738048 -0.005413026642341597 -0.0013969901784994733 0.0060666285055365572
leaf_weight=4822 169971 39284 266 161 35 28 1695 24 60 29 24 312 899 23
leaf_count=4822 169971 39284 266 161 35 28 1695 24 60 29 24 312 899 23
internal_value=0 5.81946e-05 -0.000291172 -0.000852805 0.00112944 0.00712728 -0.0010549 0.00129572 0.00508403 0.0115347 0.00101394 -0.00129405 -0.00227328 -0.00462487
internal_weight=0 47662 8378 3556 329 63 3227 298 137 53 84 2929 1234 335
internal_count=217633 47662 8378 3556 329 63 3227 298 137 53 84 2929 1234 335
shrinkage=0.15


Tree=1004
num_leaves=15
num_cat=0
split_feature=22 2 2 22 19 3 23 1 21 22 2 19 3 2
split_gain=0.00902993 0.226304 0.462503 1.7851 0.716545 0.900379 0.395107 0.490779 0.462984 0.361684 0.450174 0.347943 0.585159 0.339971
threshold=-2.1362749999999995 -2.1314499999999996 -2.5276899999999993 -2.5059149999999994 5.8236700000000004e-05 -6.1122599999999991 -15.694899999999999 -3.9125799999999997 -2.0112699999999992 -2.5059149999999994 -2.8223399999999992 0.00023529050000000001 -6.9170499999999988 -1.7330299999999996
decision_type=2 2 2 2 2 2 2 2 2 2 2 2 2 2
left_child=1 2 9 -4 5 6 7 -5 -8 -1 -11 12 -12 -3
right_child=-2 13 3 4 -6 -7 8 -9 -10 10 11 -13 -14 -15
leaf_value=0.00075078453736416738 -1.3124795467090872e-05 -0.0018838267157125473 -0.0010880311651742156 -0.012248728802197463 -0.00016701191449603739 -0.00039871370238840452 0.011736543980331958 0.017084807130907265 0.033417892055181059 0.00077792046376277252 -0.013338016898174267 0.00060169291534311806 -0.001774916894843084 4.429332916822276e-05
leaf_weight=2589 183731 2238 1413 33 248 182 607 21 23 479 208 151 187 25523
leaf_count=2589 183731 2238 1413 33 248 182 607 21 23 479 208 151 187 25523
internal_value=0 7.11295e-05 0.000895121 0.00245188 0.0069419 0.00897771 0.0114726 -0.000841243 0.0125281 -0.000193402 -0.00257828 -0.00552264 -0.00786384 -0.000111145
internal_weight=0 33902 6141 2527 1114 866 684 54 630 3614 1025 546 395 27761
internal_count=217633 33902 6141 2527 1114 866 684 54 630 3614 1025 546 395 27761
shrinkage=0.15


Tree=1005
num_leaves=15
num_cat=0
split_feature=26 14 13 14 37 13 19 0 23 9 3 3 34 8
split_gain=0.00863312 0.0427879 0.0959856 0.0910939 0.0790552 0.0848506 0.0794229 0.0985106 0.0771086 0.100371 0.0720691 0.133602 0.163771 0.077291
threshold=-0.0022306899999999996 0.0038047950000000006 0.00013960900000000004 0.0024330400000000005 6.278440000000001e-06 2.2315950000000001e-05 0.0051906000000000009 4.7888100000000007 -10.364449999999998 1.1162900000000003e-05 -8.6591799999999974 -7.6471249999999991 0.97781150000000017 -1.1318349999999998e-05
decision_type=2 2 2 2 2 2 2 2 2 2 2 2 2 2
left_child=1 3 4 -1 6 -6 8 -8 9 -3 13 12 -12 -5
right_child=-2 2 -4 10 5 -7 7 -9 -10 -11 11 -13 -14 -15
leaf_value=0.00021534741655146873 -5.7920996404146806e-06 -0.0017075818310459767 0.00044747036069389955 0.0071597855243030499 -0.00035431127539646855 -0.004537071579955196 0.00081830534046466879 0.010476360967316266 -0.00027497550939701491 -0.011522468725285893 0.021730938547157817 0.0015092252447452073 0.0039209813911628977 0.00027100811644378419
leaf_weight=4989 209749 71 1420 43 178 282 157 28 317 35 21 69 26 248
leaf_count=4989 209749 71 1420 43 178 282 157 28 317 35 21 69 26 248
internal_value=0 0.000154095 -0.000360528 0.000391379 -0.00143483 -0.00291853 -0.000312302 0.00228007 -0.00144608 -0.00494835 0.00254917 0.00571062 0.0118786 0.00128894
internal_weight=0 7884 2488 5396 1068 460 608 185 423 106 407 116 47 291
internal_count=217633 7884 2488 5396 1068 460 608 185 423 106 407 116 47 291
shrinkage=0.15


Tree=1006
num_leaves=15
num_cat=0
split_feature=2 33 22 22 22 2 22 6 3 33 22 16 16 23
split_gain=0.00816725 0.126889 0.139346 0.113827 0.408573 0.391165 1.49834 0.568224 0.633941 0.429605 0.388399 0.469659 0.439759 0.618476
threshold=2.5016900000000004 1.4933200000000001e-06 -2.0263699999999996 2.4622600000000006 2.3537500000000002 2.6199850000000002 2.6634450000000007 1.1377400000000002e-06 -7.4742849999999992 2.7699650000000002e-05 2.5991050000000002 -4.5891699999999995e-07 -3.8224499999999993e-06 -10.530399999999998
decision_type=2 2 2 2 2 2 2 2 2 2 2 2 2 2
left_child=-1 2 -2 4 -3 6 7 -5 9 -9 -7 12 -12 -14
right_child=1 3 -4 5 -6 10 -8 8 -10 -11 11 -13 13 -15
leaf_value=-9.5189199164719679e-06 -0.00038529185511965245 -0.00037285404590054339 0.00076302307262936025 -0.00066323601879250617 -0.0059997968768584539 -0.0051604455771833242 -0.0040999487353286079 0.02761291533794984 0.0045139052463890684 0.0051985152298584577 -0.00035589472764658843 -0.0031448233116266261 -0.0010603018256999249 0.0099955832732883058
leaf_weight=196542 3366 6949 8098 54 303 317 232 97 62 24 595 513 185 296
leaf_count=196542 3366 6949 8098 54 303 317 232 97 62 24 595 513 185 296
internal_value=0 8.87045e-05 0.000425861 -0.000312787 -0.000607957 0.000588505 0.00446925 0.0128577 0.0168474 0.0231671 -0.000366409 0.000589984 0.00237061 0.00574332
internal_weight=0 21091 11464 9627 7252 2375 469 237 183 121 1906 1589 1076 481
internal_count=217633 21091 11464 9627 7252 2375 469 237 183 121 1906 1589 1076 481
shrinkage=0.15


Tree=1007
num_leaves=15
num_cat=0
split_feature=31 9 10 37 7 4 3 14 23 4 23 31 25 28
split_gain=0.00876081 0.0517062 0.0678478 0.159797 0.11997 0.124564 0.0936794 0.135886 0.169724 0.207038 0.0943139 0.218427 0.193265 0.0670746
threshold=0.08676200000000002 -3.7350599999999994e-05 4.0555200000000008e-05 -1.3410899999999997e-07 3.9822050000000009e-05 0.21114250000000004 -6.3035799999999993 0.0014906400000000003 -12.666499999999997 0.22843500000000003 -7.3437899999999994 0.20575950000000001 2.7978650000000003 0.0052906950000000006
decision_type=2 2 2 2 2 2 2 2 2 2 2 2 2 2
left_child=-1 2 3 4 5 -2 7 8 -5 10 11 -10 -13 -9
right_child=1 -3 -4 6 -6 -7 -8 13 9 -11 -12 12 -14 -15
leaf_value=-1.6784588945448447e-05 0.0015071693188344526 0.00012439676458006474 -0.00013818285136810754 -0.0014785472522739187 -0.00098119682366814231 0.012408126170981524 0.00051029710407375617 0.0013277219680041137 0.0053521093204316065 -0.022918052804656325 -0.016728662734385578 -0.02255969492776785 -0.0031052250751397673 -0.0048539537061079614
leaf_weight=166000 77 42316 8473 70 280 34 103 89 28 25 20 20 27 71
leaf_count=166000 77 42316 8473 70 280 34 103 89 28 25 20 20 27 71
internal_value=0 5.39624e-05 -0.000265937 -0.00154847 0.000673128 0.0048462 -0.00346601 -0.00463618 -0.00734841 -0.0107725 -0.00757631 -0.00513568 -0.0113837 -0.0014154
internal_weight=0 51633 9317 844 391 111 453 350 190 120 95 75 47 160
internal_count=217633 51633 9317 844 391 111 453 350 190 120 95 75 47 160
shrinkage=0.15


Tree=1008
num_leaves=15
num_cat=0
split_feature=36 16 16 2 10 34 33 13 19 14 23 22 8 22
split_gain=0.0086647 0.0700989 0.262271 0.285988 0.237014 0.284924 0.240685 0.280421 0.22784 0.328542 0.287272 0.249244 0.383026 0.227051
threshold=0.0005789835000000001 -9.5177599999999978e-06 -1.1625449999999999e-07 2.1358050000000008 4.5221600000000008e-05 0.68351300000000015 5.2059550000000009e-06 -2.7910349999999995e-06 4.0426100000000008e-06 0.00012958450000000001 -6.789509999999999 1.4252250000000002 -1.0903499999999998e-05 2.0894700000000004
decision_type=2 2 2 2 2 2 2 2 2 2 2 2 2 2
left_child=-1 -2 3 4 5 6 8 -8 9 -3 -11 -10 13 -13
right_child=1 2 -4 -5 -6 -7 7 -9 11 10 -12 12 -14 -15
leaf_value=2.2251771046613893e-05 0.00025882954969319924 -0.00013229558406506128 7.3172696565580061e-05 0.00029630161599568464 -4.8011624853547222e-06 0.00038043550782836794 -0.0032596630942533884 0.00038578666058570787 -0.00048899811680804841 -0.0054507988620921682 -0.00061295971592110565 -0.01586481147377378 -0.001087782567622719 -0.002987202727672411
leaf_weight=140161 14363 481 46668 5200 3408 1468 676 1595 1447 1471 340 86 221 48
leaf_count=140161 14363 481 46668 5200 3408 1468 676 1595 1447 1471 340 86 221 48
internal_value=0 -4.02575e-05 -0.000108327 -0.000623516 -0.00104902 -0.00150334 -0.0019378 -0.000699341 -0.00262479 -0.003617 -0.00454254 -0.00136279 -0.00492439 -0.0112519
internal_weight=0 77472 63109 16441 11241 7833 6365 2271 4094 2292 1811 1802 355 134
internal_count=217633 77472 63109 16441 11241 7833 6365 2271 4094 2292 1811 1802 355 134
shrinkage=0.15


Tree=1009
num_leaves=15
num_cat=0
split_feature=24 19 10 19 14 16 18 34 11 14 16 16 18 13
split_gain=0.00851717 0.0255752 0.0455636 0.0497068 0.0408022 0.0271007 0.0514099 0.025106 0.019484 0.0188241 0.0177655 0.0407583 0.0227321 0.0128008
threshold=2.2465350000000002 0.0061755250000000003 6.8446450000000006e-05 0.0085812350000000013 0.0072867150000000009 -0.00015499249999999999 0.0023771500000000002 99.159650000000013 0.00027479250000000006 0.010788900000000002 2.1717400000000003e-05 6.5260250000000008e-06 0.00016738100000000003 -4.4240049999999993e-05
decision_type=2 2 2 2 2 2 2 2 2 2 2 2 2 2
left_child=-1 5 3 -3 -5 -2 9 8 -6 10 11 12 13 -7
right_child=1 2 -4 4 7 6 -8 -9 -10 -11 -12 -13 -14 -15
leaf_value=1.7796765130727264e-06 0.0041533828351100017 0.0067743526172957249 0.0074339188331657129 -0.0073124246124643827 0.0048069586663241981 -0.0038027555702931501 -0.0072557636851531149 -0.0033368936836268401 -0.0011128123582404275 -0.0042108646266997849 0.0028560091609051595 -0.0072588510919428832 -0.0047454327906355804 -9.6923398054391552e-05
leaf_weight=216853 23 21 23 20 29 22 29 28 22 34 32 21 27 449
leaf_count=216853 23 21 23 20 29 22 29 28 22 34 32 21 27 449
internal_value=0 -0.00049478 0.00131804 0.000145832 -0.00126022 -0.00090174 -0.0010911 0.000271986 0.00225333 -0.000785502 -0.000574137 -0.00078563 -0.000512662 -0.00027002
internal_weight=0 780 143 120 99 637 614 79 51 585 551 519 498 471
internal_count=217633 780 143 120 99 637 614 79 51 585 551 519 498 471
shrinkage=0.15


Tree=1010
num_leaves=15
num_cat=0
split_feature=4 24 4 18 3 23 23 7 28 20 23 17 8 10
split_gain=0.00790118 0.0377729 0.139666 0.0788131 0.11542 0.161653 0.199433 0.189719 0.146677 0.135976 0.0933837 0.340385 0.075559 0.0747966
threshold=0.11543250000000001 0.33377850000000003 -0.0098646799999999989 -9.7093149999999984e-05 -12.418249999999999 -13.606149999999998 -16.296649999999996 2.4045100000000005e-05 -0.083375999999999992 -4.683139999999999 -12.877249999999998 5.2786250000000007e-08 1.1041050000000002e-05 3.8545700000000006e-05
decision_type=2 2 2 2 2 2 2 2 2 2 2 2 2 2
left_child=1 -1 3 -3 5 6 7 -5 -8 -9 11 -7 -11 -10
right_child=-2 2 -4 4 -6 10 8 9 13 12 -12 -13 -14 -15
leaf_value=-5.1551259948504848e-05 3.8457157928520414e-05 -2.8121659535616199e-05 -0.00060253868454107217 0.016195153027573333 0.00048001219537879776 -0.0016343081602826714 0.0044759804566803559 -0.010215110311816844 -0.0050714134465663146 0.001018226833468816 0.0029935590258013014 0.022709793990361504 0.0092718994229911787 -0.01470653607446531
leaf_weight=121747 77435 5844 4025 21 7526 28 33 21 103 128 645 24 31 22
leaf_count=121747 77435 5844 4025 21 7526 28 33 21 103 128 645 24 31 22
internal_value=0 -2.12409e-05 0.000178759 0.000396749 0.000686069 0.00215461 -0.000431335 0.0027032 -0.00441894 0.00112914 0.00348654 0.00960143 0.00262743 -0.0067672
internal_weight=0 140198 18451 14426 8582 1056 359 201 158 180 697 52 159 125
internal_count=217633 140198 18451 14426 8582 1056 359 201 158 180 697 52 159 125
shrinkage=0.15


Tree=1011
num_leaves=15
num_cat=0
split_feature=28 15 7 30 15 11 24 13 33 7 13 30 10 13
split_gain=0.0079385 0.0448121 0.0884116 0.121239 0.113068 0.208807 0.330242 0.138068 0.243512 0.162624 0.0906998 0.0800364 0.0739266 0.061162
threshold=0.040885500000000012 -5.1704799999999995e-08 3.850875000000001e-05 0.0021249300000000001 -2.5264549999999993e-06 2.1913150000000006e-05 -0.33083599999999996 -9.7459899999999988e-06 -4.9776299999999991e-06 2.6697900000000004e-05 2.0522500000000002e-05 0.0014605850000000001 2.1909450000000004e-05 -5.144389999999999e-05
decision_type=2 2 2 2 2 2 2 2 2 2 2 2 2 2
left_child=-1 2 3 4 -2 7 -7 8 -6 -9 11 -11 -10 -5
right_child=1 -3 -4 13 5 6 -8 9 12 10 -12 -13 -14 -15
leaf_value=9.3296335099282286e-06 -0.00034378941606767266 0.00010149166218477253 2.7227895885732809e-05 -0.0052357518779312922 0.00025429911792426452 -0.02875325774308294 -0.0031152383104199543 0.0078448820012943961 -0.020827664035605264 -0.011021108634546787 0.0046930531980469824 -0.0019869494509246002 -0.0091726126404864765 -0.00047306447930708771
leaf_weight=196765 198 11973 5515 62 44 20 26 39 25 36 25 57 24 2824
leaf_count=196765 198 11973 5515 62 44 20 26 39 25 36 25 57 24 2824
internal_value=0 -8.79694e-05 -0.000342991 -0.000947061 -0.00311845 -0.00497448 -0.0142622 -0.00326554 -0.00784565 -0.00055248 -0.00332788 -0.00548404 -0.0151191 -0.000575381
internal_weight=0 20868 8895 3380 494 296 46 250 93 157 118 93 49 2886
internal_count=217633 20868 8895 3380 494 296 46 250 93 157 118 93 49 2886
shrinkage=0.15


Tree=1012
num_leaves=15
num_cat=0
split_feature=1 21 21 9 6 7 29 19 18 36 23 24 24 1
split_gain=0.00785098 0.149545 0.258708 0.258141 0.388274 0.241499 0.236624 0.163627 0.146678 0.439548 0.279424 0.319372 0.182428 0.182578
threshold=10.481450000000002 12.474600000000001 5.7525350000000008 -1.4992599999999998e-05 2.6680750000000003e-06 4.6451350000000011e-05 -0.00024544349999999993 1.6413000000000003e-07 1.7801400000000002e-07 0.00016774100000000003 -6.2136699999999996 0.38350300000000009 0.078457100000000016 13.03345
decision_type=2 2 2 2 2 2 2 2 2 2 2 2 2 2
left_child=-1 2 -2 -3 5 8 7 -7 12 -10 11 -11 13 -5
right_child=1 3 -4 4 -6 6 -8 -9 9 10 -12 -13 -14 -15
leaf_value=-8.0224845340349755e-06 0.0003417357695375381 -0.0039276639988715355 -0.0011510998597059866 0.010852085836020044 0.022311280160031925 0.014289011986402329 -0.011259481140010826 -0.004668722363255386 -0.0063374056377344659 0.034233830541372294 0.0018509452802721747 0.010705585408787657 -0.003829085860614491 -0.0052060009429364335
leaf_weight=201644 12207 101 3323 66 26 20 44 21 27 25 22 27 59 21
leaf_count=201644 12207 101 3323 66 26 20 44 21 27 25 22 27 59 21
internal_value=0 0.000101175 2.23093e-05 0.00276955 0.00465898 0.00327657 -0.00361977 0.00457895 0.00564981 0.0100446 0.0160219 0.0220172 0.00260956 0.006976
internal_weight=0 15989 15530 459 358 332 85 41 247 101 74 52 146 87
internal_count=217633 15989 15530 459 358 332 85 41 247 101 74 52 146 87
shrinkage=0.15


Tree=1013
num_leaves=15
num_cat=0
split_feature=21 1 1 3 23 14 34 17 23 3 3 21 30 14
split_gain=0.00899515 0.135744 0.565777 0.450176 2.4174 1.47655 1.93422 0.742788 0.654558 4.58161 3.68857 0.6555 0.635054 0.551297
threshold=7.2885650000000011 6.8904150000000008 3.7283150000000007 -7.6157749999999993 -7.6733199999999995 0.0007585545000000001 0.09594285000000001 1.5018850000000002e-06 -9.0957449999999991 -8.9446899999999996 -9.0186749999999982 8.5628800000000016 0.00033866400000000008 0.00088157450000000005
decision_type=2 2 2 2 2 2 2 2 2 2 2 2 2 2
left_child=-1 2 -2 4 5 6 7 8 9 12 11 -10 -3 -6
right_child=1 3 -4 -5 13 -7 -8 -9 10 -11 -12 -13 -14 -15
leaf_value=-1.303902525416793e-05 0.00027639435941095576 0.02269575066332306 -0.0014178730549401061 -0.00014584433603256138 -0.0069924044911218149 0.0011934340747579053 -0.0034013547992421457 -0.0057949206853449781 0.00072758616431831168 -0.022614510120606168 0.027203644956190712 -0.032955039942708722 0.050970965158194305 2.4452834076445395e-05
leaf_weight=183995 20564 70 5654 5118 449 587 154 34 26 62 296 26 24 574
leaf_count=183995 20564 70 5654 5118 449 587 154 34 26 62 296 26 24 574
internal_value=0 7.13216e-05 -8.89801e-05 0.000637735 0.00237986 0.00672712 0.0114211 0.015664 0.0171116 0.00903786 0.0207309 -0.0161137 0.029915 -0.00305528
internal_weight=0 33638 26218 7420 2302 1279 692 538 504 156 348 52 94 1023
internal_count=217633 33638 26218 7420 2302 1279 692 538 504 156 348 52 94 1023
shrinkage=0.15


Tree=1014
num_leaves=15
num_cat=0
split_feature=12 12 32 10 23 22 23 22 32 11 34 22 6 23
split_gain=0.0103397 0.0465001 0.129711 0.1599 0.17959 0.461658 0.470743 0.672906 0.577508 0.436353 0.407526 0.360058 0.283796 0.181508
threshold=9.1870050000000003e-05 6.1294700000000021e-05 -0.0069621349999999986 1.6275850000000004e-05 -10.209099999999998 1.1016150000000002 -8.6253599999999988 1.6604000000000003 -0.12845549999999997 -6.1634349999999992e-06 0.03912005000000001 2.0353750000000006 -3.0440899999999998e-07 -7.6733199999999995
decision_type=2 2 2 2 2 2 2 2 2 2 2 2 2 2
left_child=1 -1 3 4 -3 12 7 8 -7 -9 -8 -12 13 -6
right_child=-2 2 -4 -5 5 6 10 9 -10 -11 11 -13 -14 -15
leaf_value=5.5260167871526931e-06 5.839838503084406e-05 -0.0053141080866640792 0.00018771271042994302 -0.0004679201206489962 -0.022819533465829277 0.0046283930651843542 -0.0063181837054078231 0.013484588841145688 0.035270144848665599 -0.0089219751109340002 0.018782288839363236 -0.0033759546868333758 -0.0024541280861988279 -0.0062738942116713865
leaf_weight=152023 51937 343 6705 6114 35 25 159 33 31 48 33 33 88 26
leaf_count=152023 51937 343 6705 6114 35 25 159 33 31 48 33 33 88 26
internal_value=0 -1.83048e-05 -0.000283268 -0.000736471 -0.0026591 -0.000876966 0.00201558 0.0089476 0.0215908 0.000206625 -0.00220525 0.00770317 -0.00790448 -0.0157673
internal_weight=0 165696 13673 6968 854 511 362 137 56 81 225 66 149 61
internal_count=217633 165696 13673 6968 854 511 362 137 56 81 225 66 149 61
shrinkage=0.15


Tree=1015
num_leaves=15
num_cat=0
split_feature=23 14 3 23 3 3 3 25 21 1 21 30 0 23
split_gain=0.0100184 0.0624097 0.122674 0.316238 0.923194 1.31692 0.683457 0.72001 0.647667 0.870039 0.739185 0.417814 0.38617 0.34273
threshold=-7.8351449999999998 0.00018273250000000005 -6.2768299999999995 -8.4877049999999983 -7.8541999999999996 -7.1641399999999988 -8.4424149999999987 1.1190250000000002 -5.7462299999999988 -4.0334449999999995 8.5628800000000016 0.00070455850000000016 -8.9809199999999993 -7.9565749999999991
decision_type=2 2 2 2 2 2 2 2 2 2 2 2 2 2
left_child=1 2 3 -1 6 11 -5 8 9 -8 12 13 -10 -6
right_child=-2 -3 -4 4 5 -7 7 -9 10 -11 -12 -13 -14 -15
leaf_value=0.0007411236038747795 4.7074282637739497e-05 -8.3969085327031053e-05 -5.6894359547271907e-05 -0.0047032401951063157 -0.015313913973221495 -0.00012233895027518777 0.018584449761188948 -0.0048070215932667663 0.0082535747264046219 -0.018356915607000701 -0.0089778932793389849 -0.0029950928294828656 0.02411731588270901 -0.0036926299251767024
leaf_weight=13132 69321 105518 27678 126 250 1063 26 73 48 32 23 146 123 74
leaf_count=13132 69321 105518 27678 126 250 1063 26 73 48 32 23 146 123 74
internal_value=0 -2.20025e-05 0.00013079 0.000474447 -0.00129068 -0.0030457 0.00467486 0.00831068 0.0121107 -0.00179699 0.0162686 -0.00965748 0.0196643 -0.0126597
internal_weight=0 148312 42794 15116 1984 1533 451 325 252 58 194 470 171 324
internal_count=217633 148312 42794 15116 1984 1533 451 325 252 58 194 470 171 324
shrinkage=0.15


Tree=1016
num_leaves=15
num_cat=0
split_feature=4 24 4 4 10 26 28 1 21 13 23 6 28 2
split_gain=0.010652 0.05063 0.11782 0.0863394 0.129377 0.344312 0.396376 0.787346 0.586233 0.404554 0.309617 0.251549 0.23751 0.634607
threshold=-0.29098649999999998 0.092078900000000005 -0.7518554999999999 -0.63345599999999991 2.1909450000000004e-05 0.00049199200000000002 -0.045639949999999992 -4.9060199999999989 -9.2783699999999971 -2.7910349999999995e-06 -13.412199999999999 9.7656900000000009e-07 0.010319900000000002 1.7839050000000001
decision_type=2 2 2 2 2 2 2 2 2 2 2 2 2 2
left_child=1 3 -3 -1 5 6 7 8 -5 -10 -7 -12 -8 -14
right_child=-2 2 -4 4 -6 10 12 -9 9 -11 11 -13 13 -15
leaf_value=5.7863150231579806e-05 -1.9153322704670746e-05 3.5716660233885455e-05 0.00081609612212938255 0.0023701912396063562 -0.0010872178843276169 0.0032508451685354062 -0.00049981587883095888 -0.0026359746680975171 0.044903136205393816 0.017539826399015804 -0.0063355071745266498 -0.024210289902985096 0.00070027996192774953 0.016053170548053455
leaf_weight=23883 163251 18536 5689 32 3965 73 1509 79 20 31 155 20 315 75
leaf_count=23883 163251 18536 5689 32 3965 73 1509 79 20 31 155 20 315 75
internal_value=0 5.74969e-05 0.000218981 -7.22226e-05 -0.000567415 0.000325187 0.00096058 0.00808273 0.0182849 0.0282705 -0.00495523 -0.00837834 0.000353004 0.00365276
internal_weight=0 54382 24225 30157 6274 2309 2061 162 83 51 248 175 1899 390
internal_count=217633 54382 24225 30157 6274 2309 2061 162 83 51 248 175 1899 390
shrinkage=0.15


Tree=1017
num_leaves=15
num_cat=0
split_feature=11 29 14 24 13 4 34 4 23 7 23 0 6 22
split_gain=0.00904306 0.0716192 0.102964 0.0888937 0.126838 0.100064 0.080193 0.0741777 0.071257 0.224643 0.295657 0.150534 0.134357 0.154372
threshold=-2.9945149999999999e-05 0.0014737500000000002 0.0048352200000000012 0.82179550000000012 0.00013263950000000002 0.53343300000000016 0.011583400000000002 2.1026800000000003 -9.3974499999999974 4.398050000000001e-05 -16.933649999999997 -7.3110149999999985 1.4354600000000002e-06 1.5746600000000002
decision_type=2 2 2 2 2 2 2 2 2 2 2 2 2 2
left_child=1 2 8 6 5 -5 -4 -7 9 10 -1 -10 -12 -14
right_child=-2 -3 3 4 -6 7 -8 -9 11 -11 12 -13 13 -15
leaf_value=0.0022947674154517937 -1.8560369022619491e-05 -0.00013167881922615854 -0.00054961924442092751 -0.0023621561133817855 -0.00039546002109137782 -0.013687094333571232 0.00021245133404802248 -0.0036097511623261699 -1.9292723300224084e-05 0.00076435060999168944 -0.00099525317678469992 0.001289265898876803 -0.0031196509452405649 -0.015188331141136586
leaf_weight=537 159034 26573 4335 103 371 42 10967 27 3260 4935 1877 5030 517 25
leaf_count=537 159034 26573 4335 103 371 42 10967 27 3260 4935 1877 5030 517 25
internal_value=0 5.03717e-05 0.000201425 -7.03682e-05 -0.00195643 -0.00532339 -3.44044e-06 -0.00974379 0.000467574 0.000144938 -0.000889164 0.000774682 -0.00159597 -0.00367632
internal_weight=0 58599 32026 15845 543 172 15302 69 16181 7891 2956 8290 2419 542
internal_count=217633 58599 32026 15845 543 172 15302 69 16181 7891 2956 8290 2419 542
shrinkage=0.15


Tree=1018
num_leaves=15
num_cat=0
split_feature=31 0 9 20 19 22 2 12 3 3 31 22 13 23
split_gain=0.0122334 0.0844775 0.143024 1.11754 0.563348 0.816155 1.01085 0.60818 0.563764 0.558534 0.548475 0.517116 0.744289 0.732891
threshold=1.0000000180025095e-35 -4.4341149999999994 -4.1016949999999996e-07 -4.3202599999999993 0.00051117950000000012 1.9654450000000001 1.9492750000000003 3.8998450000000006e-05 -7.1376749999999989 -6.0545599999999995 0.092820250000000007 1.7837150000000002 -6.4222549999999989e-06 -9.2080749999999991
decision_type=2 2 2 2 2 2 2 2 2 2 2 2 2 2
left_child=-1 -2 3 -3 5 9 7 -7 10 -5 -9 -6 13 -13
right_child=1 2 -4 4 11 6 -8 8 -10 -11 -12 12 -14 -15
leaf_value=-3.4730107717683936e-05 -0.00016232020218695628 -0.00055455568020611309 -7.1921347163880947e-06 0.0041755932767293885 -0.0010577751120984676 0.00041682282322976562 0.022908877216794184 -0.026722345734965437 -0.0006031943403598328 -0.00051382824680928669 -0.0079339414441955206 0.0084631371666253289 -0.00037873472490056837 -0.0040757566416327476
leaf_weight=111396 33121 11366 52012 3886 2489 716 38 49 145 670 122 561 933 129
leaf_count=111396 33121 11366 52012 3886 2489 716 38 49 145 670 122 561 933 129
internal_value=0 3.64166e-05 0.000126443 0.000455794 0.00163505 0.00261043 -0.00111759 -0.00200228 -0.00748354 0.00348597 -0.0133178 0.000300556 0.00238366 0.00611891
internal_weight=0 106237 73116 21104 9738 5626 1070 1032 316 4556 171 4112 1623 690
internal_count=217633 106237 73116 21104 9738 5626 1070 1032 316 4556 171 4112 1623 690
shrinkage=0.15


Tree=1019
num_leaves=15
num_cat=0
split_feature=13 33 19 34 3 23 23 3 3 23 11 29 23 4
split_gain=0.0113739 0.10675 0.13604 0.148712 0.130576 0.598645 0.280482 0.217889 0.184183 0.406803 0.174966 0.195738 0.152552 0.144554
threshold=1.7665150000000005e-05 4.8296750000000013e-07 3.7476600000000006e-05 0.012110300000000003 -14.818499999999998 -14.248749999999998 -14.669299999999998 -8.4424149999999987 -8.5842749999999981 -8.4609499999999986 -4.5872649999999995e-05 0.0038348300000000004 -8.1455849999999987 -0.24573149999999996
decision_type=2 2 2 2 2 2 2 2 2 2 2 2 2 2
left_child=-1 -2 3 -3 5 -5 7 -6 9 10 -8 -12 -10 -11
right_child=1 2 -4 4 6 -7 8 -9 12 13 11 -13 -14 -15
leaf_value=-3.0807764408539638e-05 -0.00011005845024505354 0.0013489361724002373 7.6656809597231783e-06 -0.0031404603461408962 0.0028423064713367237 0.003341514796699641 0.00040275718300382532 9.3682526115071703e-05 0.00087451304870002648 -0.0017012423639075629 -0.0035890575426989358 -0.00080272317121385048 -0.0011699760301473973 0.0021719763705973028
leaf_weight=120429 51453 3952 28933 442 1313 1167 571 1283 3377 281 1477 921 1085 949
leaf_count=120429 51453 3952 28933 442 1313 1167 571 1283 3377 281 1477 921 1085 949
internal_value=0 3.81687e-05 0.00020487 0.000544131 0.000296922 0.00156089 0.00011626 0.00148388 -0.000293662 -0.00100672 -0.00195701 -0.00251891 0.000377366 0.00128712
internal_weight=0 97204 45751 16818 12866 1609 11257 2596 8661 4199 2969 2398 4462 1230
internal_count=217633 97204 45751 16818 12866 1609 11257 2596 8661 4199 2969 2398 4462 1230
shrinkage=0.15


Tree=1020
num_leaves=15
num_cat=0
split_feature=15 35 26 0 4 8 19 15 14 25 20 20 15 37
split_gain=0.0119108 0.0583547 0.0611877 0.307677 0.309282 0.16186 0.226475 0.057484 0.0494515 0.0552754 0.0453143 0.0537369 0.10097 0.260444
threshold=-2.5264549999999993e-06 -0.00011179099999999999 0.03129645000000001 5.8026400000000011 -2.1668549999999995 -1.0310199999999998e-05 0.0022086300000000005 -7.9737249999999979e-06 0.00051341800000000008 54.164200000000008 -7.4491649999999989 -3.6376949999999995 -3.9533899999999986e-06 -2.3547749999999997e-07
decision_type=2 2 2 2 2 2 2 2 2 2 2 2 2 2
left_child=1 2 10 5 -5 6 -4 -7 -3 -10 -1 12 -12 -14
right_child=-2 8 3 4 -6 7 -8 -9 9 -11 11 -13 13 -15
leaf_value=-0.0006371191873614933 -1.8582257951771613e-05 0.00089368169648437539 0.016231898399483826 -0.001466598588740453 0.022780108004748209 -0.0020582366338666442 -0.0012961721421709436 -0.010457555134780704 0.00018504329538234819 -0.0018316942680793281 0.00022578715455472153 -0.00017741383834545899 0.0096785637942488276 0.00014361499583174009
leaf_weight=3420 169971 2257 27 20 29 110 43 22 22488 310 3832 14801 93 210
leaf_count=3420 169971 2257 27 20 29 110 43 22 22488 310 3832 14801 93 210
internal_value=0 6.62676e-05 -0.000108463 0.0022205 0.0128835 -0.000366071 0.00546466 -0.00345812 0.000223926 0.00015762 -0.000134611 -4.3854e-05 0.000434216 0.00307018
internal_weight=0 47662 22607 251 49 202 70 132 25055 22798 22356 18936 4135 303
internal_count=217633 47662 22607 251 49 202 70 132 25055 22798 22356 18936 4135 303
shrinkage=0.15


Tree=1021
num_leaves=15
num_cat=0
split_feature=22 2 2 22 6 14 34 20 21 22 11 3 23 8
split_gain=0.0135371 0.172889 0.365262 2.25969 0.705426 0.782069 0.591252 0.363966 0.322441 0.316685 0.347018 0.321363 0.283429 0.271807
threshold=-2.1362749999999995 -2.1314499999999996 -2.2717399999999994 -2.2679949999999995 -1.0736799999999999e-06 0.00014886150000000003 0.0099048150000000026 -1.5458849999999997 -10.174899999999997 -2.5059149999999994 -7.5258799999999992e-05 -6.4440149999999994 -14.569749999999997 1.1684500000000001e-05
decision_type=2 2 2 2 2 2 2 2 2 2 2 2 2 2
left_child=1 2 -1 7 5 6 -5 8 -4 -10 -11 -12 -6 -7
right_child=-2 -3 3 4 12 13 -8 -9 9 10 11 -13 -14 -15
leaf_value=0.00032168852358209992 -1.6069910258039711e-05 -7.2227385328643774e-05 0.017010483744421174 0.024669419328512791 0.016257353679975495 0.018155171253956943 -0.0077054019249044358 0.019249500590376556 -5.8486028604033756e-05 0.0026386242260741707 -0.019344362937226831 -0.0020706603212182436 -0.0060137367836432531 0.033240538632694203
leaf_weight=5221 183731 27761 21 22 20 41 30 20 501 48 64 39 36 78
leaf_count=5221 183731 27761 21 22 20 41 30 20 501 48 64 39 36 78
internal_value=0 8.70905e-05 0.000807303 0.00356316 0.0165522 0.0213374 0.00599164 -0.000691533 -0.00128413 -0.00187338 -0.00789497 -0.0128038 0.00194022 0.0280431
internal_weight=0 33902 6141 920 227 171 52 693 673 652 151 103 56 119
internal_count=217633 33902 6141 920 227 171 52 693 673 652 151 103 56 119
shrinkage=0.15


Tree=1022
num_leaves=15
num_cat=0
split_feature=22 6 0 5 2 18 35 10 22 11 19 22 21 22
split_gain=0.0141326 0.0756136 0.118661 0.0809438 0.112562 0.189411 0.211609 0.192896 0.285864 0.178715 0.410578 0.729343 0.409298 0.222891
threshold=-2.2993349999999997 -7.5924149999999995e-07 -7.230624999999999 7.5896450000000008e-06 -2.3232449999999996 3.3180850000000009e-05 -0.024434799999999996 2.1748400000000003e-05 -2.5339749999999994 -1.1190949999999998e-05 8.1791500000000028e-06 -2.8036449999999995 -8.4323949999999979 -2.3274699999999995
decision_type=2 2 2 2 2 2 2 2 2 2 2 2 2 2
left_child=1 3 -3 -1 5 7 -7 8 -5 10 11 -6 -13 -14
right_child=-2 2 -4 4 9 6 -8 -9 -10 -11 -12 12 13 -15
leaf_value=-0.0032588449506764797 -1.489795224691755e-05 -0.00057525340284189446 0.00048832557563333501 -0.00059673156023823783 0.0018078439453854522 0.0099129577882454845 -0.0061909338468143539 0.00085576489587640796 0.021245775113885219 1.3063277353669425e-05 -0.00035133316204542797 0.0080693573478492903 -0.011137051647903566 0.0041234386477457434
leaf_weight=190 188933 2849 13757 28 235 21 146 2428 26 6782 1847 30 338 23
leaf_count=190 188933 2849 13757 28 235 21 146 2428 26 6782 1847 30 338 23
internal_value=0 9.80737e-05 0.000305853 -0.000187224 -0.000138197 0.000723962 -0.00416589 0.00105297 0.00992003 -0.000384968 -0.00147654 -0.00479642 -0.00876574 -0.0101648
internal_weight=0 28700 16606 12094 11904 2649 167 2482 54 9255 2473 626 391 361
internal_count=217633 28700 16606 12094 11904 2649 167 2482 54 9255 2473 626 391 361
shrinkage=0.15


Tree=1023
num_leaves=15
num_cat=0
split_feature=4 23 23 13 5 13 16 21 1 1 20 1 7 33
split_gain=0.0112072 0.0352742 0.0217368 0.0618159 0.13184 0.0782887 0.0892074 0.093849 0.300851 0.381084 0.315292 0.278071 0.239836 0.343293
threshold=-3.0121349999999993 -6.7383949999999997 -7.8351449999999998 -1.5427449999999997e-05 1.2346100000000002e-05 1.0268350000000001e-05 -2.3958049999999994e-07 10.697700000000001 9.8382400000000008 7.745070000000001 4.1186650000000009 13.03345 4.8594150000000006e-05 1.3458700000000004e-07
decision_type=2 2 2 2 2 2 2 2 2 2 2 2 2 2
left_child=1 -1 -2 4 -4 6 -5 -8 9 -9 11 12 13 -10
right_child=2 -3 3 5 -6 -7 7 8 10 -11 -12 -13 -14 -15
leaf_value=0.00016870446409525291 -4.6424185325003676e-05 -0.00035732594037606193 0.001205853321043357 0.00037783698108025501 8.4869395184126244e-05 0.00012800819716806016 -0.00059618570853773266 0.00013370369712972948 0.00091889416846327563 -0.008598212352497343 -0.0071872379406808509 -0.0016384407793912262 0.02187495063355362 0.010240179673912834
leaf_weight=20841 131795 3326 3099 3793 9908 30912 12074 1208 172 124 56 119 22 184
leaf_count=20841 131795 3326 3099 3793 9908 30912 12074 1208 172 124 56 119 22 184
internal_value=0 9.63092e-05 -1.20306e-05 6.14709e-05 0.000351951 -1.61691e-05 -0.000267229 -0.000442509 0.00054184 -0.000679177 0.00348288 0.00468515 0.0066759 0.00573664
internal_weight=0 24167 193466 61671 13007 48664 17752 13959 1885 1332 553 497 378 356
internal_count=217633 24167 193466 61671 13007 48664 17752 13959 1885 1332 553 497 378 356
shrinkage=0.15


Tree=1024
num_leaves=15
num_cat=0
split_feature=14 34 28 28 7 3 1 3 23 3 34 23 17 8
split_gain=0.0145676 0.0608038 0.0568697 0.0671039 0.0696591 0.100719 0.0487811 0.0608306 0.0653741 0.0549295 0.112959 0.136909 0.206011 0.109227
threshold=7.8716300000000004e-05 0.78160050000000014 0.0029099100000000004 -0.0026808149999999996 5.4733300000000007e-05 -7.1105099999999988 7.187450000000001 -5.6715199999999983 -8.3320149999999984 -5.9751649999999996 0.0048231700000000008 -6.3908299999999993 1.0893100000000001e-07 -8.7606299999999992e-06
decision_type=2 2 2 2 2 2 2 2 2 2 2 2 2 2
left_child=1 2 3 4 -1 -6 7 -4 -9 10 -8 13 -13 -12
right_child=-2 -3 6 -5 5 -7 9 8 -10 -11 11 12 -14 -15
leaf_value=0.00048760203519768468 -1.6344672093612519e-05 -0.00046574262495992095 0.0011121318005174882 -0.0003704485227837835 -0.0092673255068283257 -0.00023685418464395832 0.0064621175400207979 -0.00021254917697216576 0.0010009064879110325 0.00021203086438089592 -0.0021046507354448084 0.00092342250980436791 -0.019892321551299611 0.0062371984021200866
leaf_weight=7595 184845 3876 3441 6749 28 3689 37 2558 1639 2720 374 20 23 39
leaf_count=7595 184845 3876 3441 6749 28 3689 37 2558 1639 2720 374 20 23 39
internal_value=0 9.21444e-05 0.000166936 3.87244e-06 0.000227201 -0.00030488 0.000438348 0.000644623 0.000261326 -5.20141e-05 -0.00150881 -0.00215558 -0.0102106 -0.00131692
internal_weight=0 32788 28912 18061 11312 3717 10851 7638 4197 3213 493 456 43 413
internal_count=217633 32788 28912 18061 11312 3717 10851 7638 4197 3213 493 456 43 413
shrinkage=0.15


Tree=1025
num_leaves=15
num_cat=0
split_feature=22 2 2 22 23 0 23 19 23 22 19 0 23 22
split_gain=0.0115822 0.0924509 0.282674 1.68108 0.58674 0.6865 0.629874 0.598769 0.354038 0.204186 0.264785 0.485198 0.265057 0.199898
threshold=-2.3549649999999995 -2.3732299999999995 -2.5518049999999994 -2.5595399999999997 -15.928399999999998 -8.3489949999999968 -7.1806249999999991 0.00014627000000000002 -7.0815949999999992 -2.8863399999999997 1.1283150000000002e-05 -8.3489949999999968 -12.425899999999999 -2.5339749999999994
decision_type=2 2 2 2 2 2 2 2 2 2 2 2 2 2
left_child=1 2 13 9 -5 8 7 -7 -6 -4 11 -11 -13 -1
right_child=-2 -3 3 4 5 6 -8 -9 -10 10 -12 12 -14 -15
leaf_value=0.00060959604309084796 -1.301517133936399e-05 -2.0441058060049884e-05 0.0012153020936903239 -0.0085311011327693486 -0.0055072373147545895 0.023883879582934784 -0.0024321847294847812 0.00022085287886771507 0.013469783167631642 -0.00011307592157491257 0.00061711964327239614 -0.0043660065421136096 -0.021042899093232474 -0.0027422640046734161
leaf_weight=2412 190661 23173 241 31 55 171 31 28 37 87 129 32 65 480
leaf_count=2412 190661 23173 241 31 55 171 31 28 37 87 129 32 65 480
internal_value=0 9.20023e-05 0.00077788 0.00308832 0.0111783 0.0130758 0.0174562 0.0205544 0.00212483 -0.0020665 -0.00459339 -0.0082464 -0.0155412 5.32707e-05
internal_weight=0 26972 3799 907 353 322 230 199 92 554 313 184 97 2892
internal_count=217633 26972 3799 907 353 322 230 199 92 554 313 184 97 2892
shrinkage=0.15


Tree=1026
num_leaves=15
num_cat=0
split_feature=12 21 5 13 22 2 9 22 2 23 2 32 3 17
split_gain=0.0111622 0.160022 0.2259 0.390294 0.293202 1.27002 1.20542 2.11002 1.40646 1.21199 1.25513 0.892642 0.709471 0.686385
threshold=-4.2234949999999994e-05 -3.5985549999999997 2.1933250000000002e-05 6.9651600000000016e-05 -1.0853349999999997 -1.0844649999999998 2.4644650000000005e-05 -0.75455849999999991 -0.76969999999999994 -7.6156999999999995 -0.76969999999999994 0.097279100000000021 -7.7231599999999991 6.2656400000000009e-06
decision_type=2 2 2 2 2 2 2 2 2 2 2 2 2 2
left_child=1 2 3 4 -1 -6 7 9 -9 10 12 -10 13 -7
right_child=-2 -3 -4 -5 5 6 -8 8 11 -11 -12 -13 -14 -15
leaf_value=-0.0015904119320498688 2.593872736403968e-05 0.00011013946319335025 0.00027575625923994916 0.00034356644920015229 -0.0020974523944214184 0.033825368950694643 0.0001009364288072141 -0.0086582605269428081 0.001718910996223221 -0.0010386767576076841 -0.012456036412290164 0.036867025032125668 -0.00021064120062094712 0.012830351919452053
leaf_weight=8762 137479 52310 9149 6162 2393 147 846 169 37 62 21 29 21 46
leaf_count=8762 137479 52310 9149 6162 2393 147 846 169 37 62 21 29 21 46
internal_value=0 -4.44897e-05 -0.000334989 -0.000633876 -0.00111445 -8.53533e-06 0.00361903 0.00921358 -0.00140639 0.0176166 0.0225384 0.0171628 0.0259724 0.0288214
internal_weight=0 80154 27844 18695 12533 3771 1378 532 235 297 235 66 214 193
internal_count=217633 80154 27844 18695 12533 3771 1378 532 235 297 235 66 214 193
shrinkage=0.15


Tree=1027
num_leaves=15
num_cat=0
split_feature=4 38 34 18 4 3 39 14 26 16 39 34 34 0
split_gain=0.0110278 0.0623139 0.0712182 0.191799 0.0831658 0.119939 0.222047 0.282355 0.200484 0.166426 0.125597 0.113363 0.14605 0.129134
threshold=0.14210450000000005 -2.0591449999999997e-05 0.0126493 0.00016738100000000003 0.24753700000000003 -7.8541999999999996 5.8989300000000008e-06 0.00093592300000000007 6.2588750000000003e-05 -8.6091549999999988e-07 2.7632750000000007e-06 0.74623100000000009 0.022285300000000004 3.4050350000000003
decision_type=2 2 2 2 2 2 2 2 2 2 2 2 2 2
left_child=-1 -2 3 -3 5 6 7 9 -8 -4 -11 12 -10 -14
right_child=1 2 4 -5 -6 -7 8 -9 11 10 -12 -13 13 -15
leaf_value=-2.359853531709724e-05 -9.4419885428495773e-05 0.0013324113446894217 -0.018769706519170929 -5.7564614944803615e-05 0.00019092114158876679 0.00037398481606034983 0.0021254675528946726 0.00034554312624555976 0.0026655893748427748 -0.015486215262830354 -0.0047725432024064525 0.0010133993349891015 -0.0012039920450057223 -0.0040696612766944725
leaf_weight=146214 35048 3967 28 5112 22152 2155 492 158 152 29 163 407 1012 544
leaf_count=146214 35048 3967 28 5112 22152 2155 492 158 152 29 163 407 1012 544
internal_value=0 4.83126e-05 0.000185853 0.000549775 6.47904e-05 -0.000478799 -0.00109446 -0.00449201 -0.000601834 -0.00796626 -0.00639075 -0.00123627 -0.00177235 -0.00220587
internal_weight=0 71419 36371 9079 27292 5140 2985 378 2607 220 192 2115 1708 1556
internal_count=217633 71419 36371 9079 27292 5140 2985 378 2607 220 192 2115 1708 1556
shrinkage=0.15


Tree=1028
num_leaves=15
num_cat=0
split_feature=22 2 4 32 11 14 2 20 9 7 5 34 34 38
split_gain=0.0105016 0.14519 0.189478 0.164409 0.355833 0.257674 0.132037 0.108408 0.0659994 0.0901256 0.0612863 0.0696784 0.0525688 0.0411839
threshold=3.0254700000000003 3.0126750000000002 -0.23643249999999996 -0.0058286449999999995 -4.4583899999999992e-05 0.00019721000000000002 2.6199850000000002 -9.5917099999999973 -6.4906249999999982e-05 5.7322200000000012e-05 1.0615700000000002e-05 0.15558450000000004 0.16399400000000003 -0.0077053249999999998
decision_type=2 2 2 2 2 2 2 2 2 2 2 2 2 2
left_child=-1 6 -3 5 -5 -4 -2 -6 12 10 11 -10 -8 -12
right_child=1 2 3 4 7 -7 8 -9 9 -11 13 -13 -14 -15
leaf_value=-4.5464622652203838e-06 0.00029209893949332035 -0.006631435415410023 0.0015242303139530124 -0.014540659449412486 0.0034300421620719135 0.022085026641434524 -0.0019469703019907075 0.01768713162280619 -0.011609445427477893 -0.013667608779426452 -0.0076579196745296943 -0.0005107321433024481 0.0072955542529234661 -0.00016193624333220909
leaf_weight=213567 3657 27 24 20 30 32 45 20 35 22 20 20 20 94
leaf_count=213567 3657 27 24 20 30 32 45 20 35 22 20 20 20 94
internal_value=0 0.000238803 0.00477179 0.00721534 0.00236901 0.0132733 6.15615e-05 0.00913288 -0.0032317 -0.00463672 -0.0034611 -0.00757355 0.000896883 -0.00147702
internal_weight=0 4066 153 126 70 56 3913 50 256 191 169 55 65 114
internal_count=217633 4066 153 126 70 56 3913 50 256 191 169 55 65 114
shrinkage=0.15


Tree=1029
num_leaves=15
num_cat=0
split_feature=22 8 6 6 11 20 23 34 23 32 3 23 20 13
split_gain=0.0103574 0.0491668 0.0687885 0.135061 0.151297 0.175531 0.177035 0.186611 0.172697 0.124588 0.0971659 0.0969922 0.0781103 0.16052
threshold=-2.5339749999999994 5.1498050000000006e-06 -3.3417049999999996e-06 -4.2817399999999986e-06 -2.0005449999999997e-05 -5.9130249999999984 -9.6697249999999979 0.023744300000000006 -14.669299999999998 0.016745500000000003 -9.4771649999999976 -6.1069649999999989 3.7617250000000007 6.0257150000000006e-05
decision_type=2 2 2 2 2 2 2 2 2 2 2 2 2 2
left_child=1 -1 3 11 5 6 10 9 -7 -8 -5 -3 -4 -14
right_child=-2 2 12 4 -6 8 7 -9 -10 -11 -12 -13 13 -15
leaf_value=-0.00010132535457973723 -1.0660034064464301e-05 0.00011678102199807374 0.0005502754082324778 -0.024792706388980148 -0.00070875467760595921 -0.0063387299215214117 -0.0040627260069848719 0.0034041222867513582 0.01205144600593485 -0.020250416512135414 -0.010183877132034726 0.0085794476998759615 0.0011944198195124043 0.016535526539831022
leaf_weight=11807 196753 1790 6670 20 340 27 23 33 20 20 21 31 57 21
leaf_count=11807 196753 1790 6670 20 340 27 23 33 20 20 21 31 57 21
internal_value=0 0.00010045 0.000363027 -0.000340612 -0.00251374 -0.00625578 -0.00936607 -0.00508046 0.00148688 -0.0115919 -0.0173101 0.000260846 0.000605463 0.00532472
internal_weight=0 20880 9073 2325 504 164 117 76 47 43 41 1821 6748 78
internal_count=217633 20880 9073 2325 504 164 117 76 47 43 41 1821 6748 78
shrinkage=0.15


Tree=1030
num_leaves=15
num_cat=0
split_feature=2 33 0 11 22 22 1 22 22 2 2 0 23 33
split_gain=0.0106654 0.10199 0.095046 0.172581 0.26329 0.949386 0.609757 1.88627 1.07498 1.13313 0.904586 0.68922 0.895397 0.621669
threshold=2.5016900000000004 1.4933200000000001e-06 -12.275299999999998 -8.9669799999999986e-05 2.4928950000000003 2.1682400000000004 2.8804100000000008 2.7790800000000004 2.8311450000000002 2.8313250000000005 2.8313250000000005 -10.246499999999999 -12.729499999999998 4.0148700000000011e-05
decision_type=2 2 2 2 2 2 2 2 2 2 2 2 2 2
left_child=-1 -2 -3 -4 5 -5 8 11 9 -6 -10 -8 -13 -11
right_child=1 2 3 4 6 -7 7 -9 10 13 -12 12 -14 -15
leaf_value=-1.0877743824203626e-05 0.00040363964510579145 0.00073032237189594258 0.00027102758872720871 -0.00088684944880753605 0.0043307370030171502 -0.0089979957852857114 -0.00080149156750271224 -0.0076503878511559858 -0.018654236038370676 -0.020938608756356794 0.0068442144944856412 -0.0076034575856926776 0.016131077336613089 0.0031334780880193833
leaf_weight=196542 11464 1782 3650 2651 84 370 107 213 36 144 240 41 280 29
leaf_count=196542 11464 1782 3650 2651 84 370 107 213 36 144 240 41 280 29
internal_value=0 0.000101367 -0.000258584 -0.000483216 -0.00113947 -0.00188027 0.000766797 0.00388404 -0.00298208 -0.00996306 0.00351833 0.0096243 0.0130996 -0.0169034
internal_weight=0 21091 9627 7845 4195 3021 1174 641 533 257 276 428 321 173
internal_count=217633 21091 9627 7845 4195 3021 1174 641 533 257 276 428 321 173
shrinkage=0.15


Tree=1031
num_leaves=15
num_cat=0
split_feature=22 5 9 5 4 4 3 9 11 21 2 17 9 26
split_gain=0.00999969 0.01752 0.036272 0.0240146 0.0166676 0.025357 0.0363225 0.0585711 0.0316228 0.029155 0.0253974 0.0236908 0.0219615 0.05966
threshold=3.0909850000000003 8.1383150000000024e-06 -2.6721449999999998e-05 8.7325500000000016e-06 0.17221800000000004 -0.26752999999999993 -5.753169999999999 -6.0736099999999996e-05 4.6417550000000013e-06 2.4713150000000002 2.5964800000000001 1.0883300000000002e-06 -5.0131499999999999e-05 -0.00025881349999999994
decision_type=2 2 2 2 2 2 2 2 2 2 2 2 2 2
left_child=-1 2 -2 -3 5 -5 7 -7 9 10 11 -9 -6 -14
right_child=1 3 -4 4 12 6 -8 8 -10 -11 -12 -13 13 -15
leaf_value=-2.7635953637319567e-06 -0.0069917803323319696 0.0042522646188838213 0.00046774441327877202 -0.00021451383982726404 0.0023580907486732408 0.0089811299318590995 -0.00036919292321530446 -3.6248197617261845e-05 0.003240931118903063 0.0060364943117019723 -0.0049066581463973434 0.0048966301165055482 -0.0040475821231168658 0.0002571985647865985
leaf_weight=216037 22 37 44 402 58 26 199 177 165 20 21 25 95 305
leaf_count=216037 22 37 44 402 58 26 199 177 165 20 21 25 95 305
internal_value=0 0.000374084 -0.00201876 0.000477305 0.000383753 0.000717149 0.00130882 0.00207823 0.00163834 0.000550164 5.81166e-05 0.000574257 -0.000369663 -0.000765187
internal_weight=0 1596 66 1530 1493 1035 633 434 408 243 223 202 458 400
internal_count=217633 1596 66 1530 1493 1035 633 434 408 243 223 202 458 400
shrinkage=0.15


Tree=1032
num_leaves=15
num_cat=0
split_feature=12 28 13 25 5 4 4 36 31 4 0 33 3 0
split_gain=0.00932428 0.118935 0.149033 0.267681 0.314424 0.203297 0.448512 0.351678 0.417621 0.4362 0.397713 0.383456 0.603106 0.494547
threshold=-4.2234949999999994e-05 -0.0047538699999999995 4.3872650000000008e-05 0.84102950000000021 1.9857350000000004e-05 0.15990500000000005 -0.18992199999999995 -0.0040665249999999988 0.35662150000000009 2.7640900000000004 -3.9661499999999994 1.6512250000000004e-05 -9.6612599999999969 4.561020000000001
decision_type=2 2 2 2 2 2 2 2 2 2 2 2 2 2
left_child=1 2 3 4 -1 6 -5 8 9 10 -7 -12 13 -13
right_child=-2 -3 -4 5 -6 7 -8 -9 -10 -11 11 12 -14 -15
leaf_value=-0.0019669941696138665 2.3707234787866529e-05 9.0816792134096495e-05 0.00014761211304169938 0.00096006349090044891 -2.8785261385449099e-05 -0.0014609180684088724 -0.0016331957407272938 -0.00047631158965794073 -0.0014972570712860611 -0.0029389604848764888 0.010329219251958349 0.0036049449959417333 -0.0070062307310630725 0.02392945351699988
leaf_weight=4805 137479 52810 10539 2675 3097 133 3418 1540 352 146 407 107 89 36
leaf_count=4805 137479 52810 10539 2675 3097 133 3418 1540 352 146 407 107 89 36
internal_value=0 -4.06623e-05 -0.00029459 -0.000571911 -0.00120736 -7.90865e-06 -0.000494681 0.00104757 0.00289543 0.00457978 0.00600172 0.00755497 0.00268808 0.0087216
internal_weight=0 80154 27344 16805 7902 8903 6093 2810 1270 918 772 639 232 143
internal_count=217633 80154 27344 16805 7902 8903 6093 2810 1270 918 772 639 232 143
shrinkage=0.15


Tree=1033
num_leaves=15
num_cat=0
split_feature=14 23 34 13 33 7 26 14 6 33 33 29 7 11
split_gain=0.00980127 0.0483462 0.0480506 0.0993835 0.282666 0.423477 0.20681 0.229077 0.16442 0.109176 0.0890465 0.0756342 0.135768 0.295365
threshold=0.000110883 -13.010249999999997 0.0045179600000000006 -1.6705399999999998e-05 1.6792800000000003e-06 6.1340800000000021e-05 5.7744300000000009e-05 8.584265e-05 8.6165300000000017e-06 4.8296750000000013e-07 2.3899000000000002e-06 -0.0028160599999999996 5.3345100000000005e-05 1.3255300000000002e-05
decision_type=2 2 2 2 2 2 2 2 2 2 2 2 2 2
left_child=1 -1 3 4 8 6 7 10 9 -3 -6 12 13 -5
right_child=-2 2 -4 11 5 -7 -8 -9 -10 -11 -12 -13 -14 -15
leaf_value=-0.00021160885757291764 -1.6604069803708761e-05 -0.0037947192798707297 0.00021309979632389979 -0.0019977382262462593 0.0093310276237649047 8.0568912114647054e-05 0.025178028822418125 0.020559555776417257 0.0007197847404895861 -0.016445521338901016 -0.0044825122942191743 -0.00033362226156112877 0.0011232634351683881 -0.013694127286800136
leaf_weight=11134 171085 66 30950 275 21 123 25 25 294 20 21 3363 172 59
leaf_count=11134 171085 66 30950 275 21 123 25 25 294 20 21 3363 172 59
internal_value=0 6.10275e-05 0.000146743 -0.000313324 0.00149147 0.00583799 0.0135354 0.00919116 -0.00096775 -0.00673677 0.00242426 -0.000590877 -0.00230065 -0.00406387
internal_weight=0 46548 35414 4464 595 215 92 67 380 86 42 3869 506 334
internal_count=217633 46548 35414 4464 595 215 92 67 380 86 42 3869 506 334
shrinkage=0.15


Tree=1034
num_leaves=15
num_cat=0
split_feature=5 20 20 35 3 7 23 7 19 32 38 37 2 21
split_gain=0.00926238 0.0491593 0.049435 0.0551371 0.0640061 0.0668778 0.19849 0.27796 0.316572 0.291573 0.249034 0.14943 0.140571 0.122198
threshold=1.7536450000000004e-05 5.0965200000000008 -6.5310749999999986 0.0032192500000000003 -6.1920449999999994 3.3699050000000001e-05 -8.6253599999999988 3.1541050000000005e-05 0.00026624450000000002 -0.029393449999999998 0.00074033250000000007 -1.058365e-07 1.3432750000000002 11.733250000000002
decision_type=2 2 2 2 2 2 2 2 2 2 2 2 2 2
left_child=-1 2 -2 4 5 6 -4 10 9 -9 11 -8 -11 -13
right_child=1 -3 3 -5 -6 -7 7 8 -10 12 -12 13 -14 -15
leaf_value=2.5414225575923142e-05 -0.00020370475069460422 -0.0002266294162723863 -3.9043088373319139e-05 -0.00023614564614597936 -0.00010886470785199933 0.00025454576715945452 -0.0096182665484615005 0.028854494163533671 0.00033811664579843633 0.015424789942335336 0.015618516861832176 0.0030955293151745025 0.001708579299256912 -0.006119304404469071
leaf_weight=129970 15585 22891 733 8852 12249 26951 34 24 56 40 24 154 29 41
leaf_count=129970 15585 22891 733 8852 12249 26951 34 24 56 40 24 154 29 41
internal_value=0 -3.76794e-05 2.90972e-05 0.000102861 0.00017726 0.000302046 0.00142996 0.00410852 0.00924821 0.0146134 0.00108159 -0.000441926 0.00966001 0.00115805
internal_weight=0 87663 64772 49187 40335 28086 1135 402 149 93 253 229 69 195
internal_count=217633 87663 64772 49187 40335 28086 1135 402 149 93 253 229 69 195
shrinkage=0.15


Tree=1035
num_leaves=15
num_cat=0
split_feature=14 21 28 5 10 23 32 14 10 35 7 23 9 23
split_gain=0.00959666 0.0485983 0.0923895 0.0487258 0.0558294 0.0436903 0.100557 0.0561419 0.0697722 0.0758237 0.0606093 0.0454815 0.0385976 0.0735708
threshold=7.8716300000000004e-05 -6.9320449999999996 0.0027378600000000004 1.1672500000000002e-05 1.2545400000000002e-05 -6.2663199999999994 -0.018664799999999999 7.0631650000000013e-05 3.024855e-05 -0.00021254099999999998 3.4594900000000003e-05 -6.0751199999999992 6.4587800000000012e-05 -7.6939949999999993
decision_type=2 2 2 2 2 2 2 2 2 2 2 2 2 2
left_child=1 -1 -3 5 -5 6 12 8 9 -7 -10 -12 -4 -14
right_child=-2 2 3 4 -6 7 -8 -9 10 -11 11 -13 13 -15
leaf_value=0.00048213729198634721 -1.3266079363422814e-05 -0.00026608356426134839 0.00061541102458125582 -0.005567212579010699 0.00012049186885782951 0.0041906860112378907 -0.0092663899332325415 0.009911613401187503 0.011545306298648939 -0.0076443619179089777 0.0052301397422243922 -0.0014665317327643816 0.0010384212871031194 0.011866788620827719
leaf_weight=5487 184845 14514 3543 39 8927 21 23 23 20 29 55 39 48 20
leaf_count=5487 184845 14514 3543 39 8927 21 23 23 20 29 55 39 48 20
internal_value=0 7.47886e-05 -7.08102e-06 0.000286902 9.57517e-05 0.000735438 0.000620378 0.00297141 0.00199809 -0.00267364 0.0040471 0.00245173 0.000683351 0.00422324
internal_weight=0 32788 27301 12787 8966 3821 3634 187 164 50 114 94 3611 68
internal_count=217633 32788 27301 12787 8966 3821 3634 187 164 50 114 94 3611 68
shrinkage=0.15


Tree=1036
num_leaves=15
num_cat=0
split_feature=12 32 26 1 14 23 10 37 20 23 9 34 1 13
split_gain=0.00922246 0.0392869 0.100043 0.0808593 0.157814 0.287993 0.268626 0.297759 0.220292 0.134095 0.107047 0.0874114 0.231382 0.253599
threshold=0.00015070100000000002 -1.3157599999999998 -0.028182349999999998 3.6457350000000006 0.039549700000000007 -11.549549999999998 3.9260100000000007e-05 9.4364900000000012e-06 2.3761250000000005 -9.9618999999999982 -4.3632699999999993e-05 2.3649150000000003 5.2110150000000006 0.00011098700000000001
decision_type=2 2 2 2 2 2 2 2 2 2 2 2 2 2
left_child=-1 2 -2 4 5 6 8 -8 -4 -7 -11 12 -5 -14
right_child=1 -3 3 11 -6 9 7 -9 -10 10 -12 -13 13 -15
leaf_value=-1.4049205130342454e-05 -0.0040055082868600857 3.2484821582081585e-05 0.03207863643066957 -0.0018843810183806651 -0.00067566454786372008 -0.011271189256513025 -0.0027414223734432688 0.01908309466988695 0.0098153029975946993 0.011879001465858892 -0.0015065310751485477 -0.00060735963334553099 0.0068359478810927892 -0.00036368579167174176
leaf_weight=180307 95 35452 20 256 138 20 39 22 20 20 41 753 258 192
leaf_count=180307 95 35452 20 256 138 20 39 22 20 20 41 753 258 192
internal_value=0 6.78661e-05 0.000737203 0.000990468 0.00314981 0.00605044 0.011394 0.00512971 0.020947 -0.000612488 0.00288217 0.000516863 0.00171593 0.0037641
internal_weight=0 37326 1874 1779 320 182 101 61 40 81 61 1459 706 450
internal_count=217633 37326 1874 1779 320 182 101 61 40 81 61 1459 706 450
shrinkage=0.15


Tree=1037
num_leaves=15
num_cat=0
split_feature=1 20 20 23 1 28 35 15 28 13 7 1 20 1
split_gain=0.00899572 0.0508059 0.0588797 0.0574751 0.115315 0.0967232 0.131095 0.0945757 0.120457 0.097849 0.0656505 0.0740532 0.0654779 0.0539379
threshold=-9.7969349999999995 -6.0075799999999999 2.7610150000000004 -6.2458949999999991 -12.450199999999999 -0.0025200499999999998 1.0000000180025095e-35 -6.0102349999999985e-07 -0.0027652949999999996 2.9407700000000007e-06 2.7950550000000003e-05 -11.658299999999999 -1.6129449999999999 -13.194799999999999
decision_type=2 2 2 2 2 2 2 2 2 2 2 2 2 2
left_child=1 -1 3 -3 5 6 -5 -6 9 -9 -10 -12 -11 -7
right_child=-2 2 -4 4 7 13 -8 8 10 12 11 -13 -14 -15
leaf_value=0.00056271967773131187 -9.8914127868506306e-06 -0.00021490125833416689 0.00027247199573601137 0.011358618558733725 0.0036058673285879195 -0.00026784793754247729 -0.0015335952799900301 -0.016375991084020245 0.0045514221514167726 -0.00027015212981496006 -0.011111835077404977 -0.0010440512763125298 -0.011739257403782436 -0.0094099649493000464
leaf_weight=4159 196917 8312 7898 36 28 53 35 33 24 24 25 48 21 20
leaf_count=4159 196917 8312 7898 36 28 53 35 33 24 24 25 48 21 20
internal_value=0 9.40233e-05 -2.37098e-05 -0.000293862 -0.00218527 0.00106138 0.0050033 -0.00448831 -0.00578338 -0.010172 -0.00225439 -0.00449192 -0.0056224 -0.00277254
internal_weight=0 20716 16557 8659 347 144 71 203 175 78 97 73 45 73
internal_count=217633 20716 16557 8659 347 144 71 203 175 78 97 73 45 73
shrinkage=0.15


Tree=1038
num_leaves=15
num_cat=0
split_feature=23 14 14 23 23 14 7 29 16 20 21 17 37 17
split_gain=0.00876017 0.0546558 0.164886 0.170863 0.0760089 0.15381 0.158026 0.171076 0.161338 0.56172 0.726423 0.774505 0.50649 0.149209
threshold=-12.666499999999997 0.00074095750000000005 0.00015620650000000002 -17.743599999999997 -17.896049999999999 0.004267840000000001 5.2682300000000009e-05 0.047482600000000007 6.5260250000000008e-06 3.9041150000000004 -0.95562549999999991 1.1377700000000003e-05 2.5807000000000009e-07 1.3860700000000003e-05
decision_type=2 2 2 2 2 2 2 2 2 2 2 2 2 2
left_child=1 2 -1 -4 -3 6 7 8 -6 13 11 -11 -13 -10
right_child=-2 4 3 -5 5 -7 -8 -9 9 10 -12 12 -14 -15
leaf_value=-0.00012709562141168104 -1.7966744394529677e-05 0.00035204465109588433 -0.00036746330960079878 0.00093418997661348017 -0.0016190949204736365 0.00011658992969932681 0.00024091283592677908 0.00098613264643745415 -3.8405395382441166e-05 0.0013430360931812263 -0.0014107559492802057 0.044939947017701341 0.015915001760567388 -0.0054185619713847267
leaf_weight=15157 160446 6763 3011 9208 5359 13141 3009 810 365 41 98 24 31 170
leaf_count=15157 160446 6763 3011 9208 5359 13141 3009 810 365 41 98 24 31 170
internal_value=0 5.04082e-05 0.000203434 0.000613437 -9.0118e-05 -0.000219862 -0.000666145 -0.00106182 -0.00133429 0.000759342 0.00767389 0.0169478 0.0285804 -0.00174799
internal_weight=0 57187 27376 12219 29811 23048 9907 6898 6088 729 194 96 55 535
internal_count=217633 57187 27376 12219 29811 23048 9907 6898 6088 729 194 96 55 535
shrinkage=0.15


Tree=1039
num_leaves=15
num_cat=0
split_feature=22 13 3 9 1 2 2 22 11 34 1 14 0 27
split_gain=0.00989566 0.0512943 0.10901 0.0945696 0.0756087 0.0909517 0.13995 0.317434 0.407514 0.202772 0.328169 0.286866 0.130158 0.109032
threshold=-2.2993349999999997 -5.7174249999999997e-06 -6.1661399999999995 -5.4554849999999991e-05 -11.455549999999999 -2.2533199999999995 -2.0630899999999994 -2.5339749999999994 -5.7668049999999994e-05 0.060535650000000003 -6.3548299999999989 0.0007585545000000001 -3.3050749999999995 0.26199200000000006
decision_type=2 2 2 2 2 2 2 2 2 2 2 2 2 2
left_child=1 2 3 -1 -3 12 7 -7 -9 11 -11 -10 13 -6
right_child=-2 4 -4 -5 5 6 -8 8 9 10 -12 -13 -14 -15
leaf_value=-0.0011127893477563509 -1.2466321832508228e-05 0.0011897001021620773 -0.00048262781646081661 0.00088586681107744156 -0.00068350525362029691 -0.00036944399480323822 -0.00019901320142343571 -0.00014068512065262582 -0.031085650496081342 0.0004465471568087545 -0.023186436415999198 -0.0085469822457525865 0.011476418199436011 0.00089485858727439307
leaf_weight=586 188933 1046 2388 5853 1433 521 13496 95 27 39 20 24 24 3148
leaf_count=586 188933 1046 2388 5853 1433 521 13496 95 27 39 20 24 24 3148
internal_value=0 8.20662e-05 0.000382958 0.000703973 -5.1581e-05 -0.000120545 -0.000308148 -0.00233691 -0.00733716 -0.0135523 -0.00756463 -0.0204792 0.000458846 0.000401125
internal_weight=0 28700 8827 6439 19873 18827 14222 726 205 110 59 51 4605 4581
internal_count=217633 28700 8827 6439 19873 18827 14222 726 205 110 59 51 4605 4581
shrinkage=0.15


Tree=1040
num_leaves=15
num_cat=0
split_feature=14 21 21 10 12 21 10 34 25 10 13 7 11 13
split_gain=0.00909407 0.0474283 0.0572626 0.0566052 0.0880169 0.0434089 0.0412167 0.0456286 0.094685 0.184724 0.107537 0.0771541 0.0430804 0.0428807
threshold=8.584265e-05 -7.1421249999999992 4.4637200000000012 1.6275850000000004e-05 3.8998450000000006e-05 8.8178850000000022 1.13795e-05 0.0099048150000000026 0.24749850000000004 1.3935650000000001e-05 1.0000000180025095e-35 2.3759100000000004e-05 -3.8446549999999992e-06 -5.7174249999999997e-06
decision_type=2 2 2 2 2 2 2 2 2 2 2 2 2 2
left_child=1 -1 -3 4 6 -6 -4 8 11 10 -10 -8 -9 -13
right_child=-2 2 3 -5 5 -7 7 12 9 -11 -12 13 -14 -15
leaf_value=0.00046305678171639023 -1.3703363609927994e-05 -0.00015356022289528081 0.0018995326899218319 0.00037909216705091703 -0.0028758254862623288 -0.012758641207474284 0.0057792297429737766 -0.0052370988294881361 -0.0065434969570487738 0.00065594826215912205 -0.021103792188556066 -0.0087314041634090241 0.00027003836345378975 -0.00041184635091390785
leaf_weight=5767 181402 20116 124 9593 20 20 35 35 25 41 21 20 368 46
leaf_count=5767 181402 20116 124 9593 20 20 35 35 25 41 21 20 368 46
internal_value=0 6.86102e-05 -6.06063e-06 0.000280671 -0.000969861 -0.00781723 -0.000586791 -0.00110846 -0.00303816 -0.00666521 -0.0131906 8.61389e-05 -0.000208249 -0.00293292
internal_weight=0 36231 30464 10348 755 40 715 591 188 87 46 101 403 66
internal_count=217633 36231 30464 10348 755 40 715 591 188 87 46 101 403 66
shrinkage=0.15


Tree=1041
num_leaves=15
num_cat=0
split_feature=1 21 21 3 14 13 21 34 14 38 3 3 27 4
split_gain=0.00941054 0.109683 0.215496 0.422815 0.265966 0.250639 0.375869 0.200065 0.320579 0.191413 0.174664 0.174381 0.313341 0.237831
threshold=10.481450000000002 5.6760050000000009 10.535600000000001 -6.1122599999999991 0.0009636855000000001 -1.2282549999999998e-05 8.8178850000000022 0.014776600000000003 0.00017734350000000003 -7.7380049999999984e-05 -6.749814999999999 -5.8104799999999992 0.22738350000000004 0.14547050000000003
decision_type=2 2 2 2 2 2 2 2 2 2 2 2 2 2
left_child=-1 -2 3 4 5 6 -3 8 10 -10 -7 12 13 -4
right_child=1 2 11 -5 -6 7 -8 -9 9 -11 -12 -13 -14 -15
leaf_value=-8.7832273222534033e-06 0.00033145384379222159 -0.0039176254626669873 0.010788071771063149 -3.0093535639827907e-05 0.0010391664382624079 -0.024719207480342849 0.019164405426603148 -0.0042721856353327295 -0.013760104102865709 0.00279493436968716 -0.011478137057036458 -0.00092141887847550395 0.0008056209425827362 -0.0048249828517257882
leaf_weight=201644 12154 57 141 1809 181 27 22 364 22 55 132 523 476 26
leaf_count=201644 12154 57 141 1809 181 27 22 364 22 55 132 523 476 26
internal_value=0 0.000110769 -0.000588632 -0.00133183 -0.00407001 -0.00543195 0.00251028 -0.00647768 -0.00987938 -0.00193508 -0.0137266 0.00111256 0.00276694 0.0083573
internal_weight=0 15989 3835 2669 860 679 79 600 236 77 159 1166 643 167
internal_count=217633 15989 3835 2669 860 679 79 600 236 77 159 1166 643 167
shrinkage=0.15


Tree=1042
num_leaves=15
num_cat=0
split_feature=12 35 19 13 33 19 28 19 11 33 32 16 29 7
split_gain=0.00850612 0.0340343 0.0795717 0.113901 0.190321 0.0690329 0.0919917 0.126705 0.115777 0.0680243 0.207371 0.404518 0.775343 0.824081
threshold=9.1870050000000003e-05 -0.00098184599999999976 8.4127500000000008e-10 5.0947250000000009e-05 -9.4167599999999983e-06 0.00015282300000000004 0.54215900000000017 4.5448750000000008e-05 3.4467150000000011e-05 6.027510000000001e-07 -0.12845549999999997 6.0590300000000018e-07 -0.064186249999999986 3.7395050000000007e-05
decision_type=2 2 2 2 2 2 2 2 2 2 2 2 2 2
left_child=-1 2 3 -2 -5 6 9 8 -8 10 11 -3 -13 -14
right_child=1 5 -4 4 -6 -7 7 -9 -10 -11 -12 12 13 -15
leaf_value=-1.6602635533565046e-05 -0.00075537301609680677 -0.00022626391919095587 -0.00010430161841621257 -0.020841773471329362 -0.00083442489748172778 7.1132174098825311e-06 0.0036740429303197581 -0.013555837713647633 -0.0083035687095252796 0.00095405024366404577 -0.00026856631484660867 -0.0044869120682174907 0.023133737019106114 0.0045055947492655835
leaf_weight=165696 90 563 14956 20 23 27051 46 24 30 4404 4394 103 83 150
leaf_count=165696 90 563 14956 20 23 27051 46 24 30 4404 4394 103 83 150
internal_value=0 5.29678e-05 -0.000136785 -0.00378955 -0.0101402 0.00013067 0.00047183 -0.00405441 -0.00105396 0.000518507 0.000156116 0.00223181 0.00635056 0.0111414
internal_weight=0 51937 15089 133 43 36848 9797 100 76 9697 5293 899 336 233
internal_count=217633 51937 15089 133 43 36848 9797 100 76 9697 5293 899 336 233
shrinkage=0.15


Tree=1043
num_leaves=15
num_cat=0
split_feature=5 20 11 10 9 5 36 3 17 8 20 31 25 17
split_gain=0.00905434 0.0467838 0.166301 0.11157 0.115959 0.100992 0.189168 0.287135 0.21731 0.209003 0.264089 0.339186 0.250205 0.187895
threshold=1.7536450000000004e-05 5.4455950000000009 8.9648700000000025e-06 2.0242350000000001e-05 1.8539450000000004e-05 8.1383150000000024e-06 1.0000000180025095e-35 -10.389699999999999 2.7704400000000004e-06 4.1546100000000007e-06 9.0324500000000025 -0.037385749999999988 0.25428600000000007 1.2261800000000002e-08
decision_type=2 2 2 2 2 2 2 2 2 2 2 2 2 2
left_child=1 -1 3 4 -3 6 7 -4 9 10 11 13 -12 -9
right_child=-2 2 5 -5 -6 -7 -8 8 -10 -11 12 -13 -14 -15
leaf_value=-2.5662269764218883e-05 -3.7253800885390718e-05 0.00090505630451673919 0.00026154072476598897 0.00017581404956440531 0.010409328905069711 -8.577567143892529e-05 0.00026523179172242535 0.0054721839825755784 -0.02150934643577784 0.0033039467060007152 -0.027907462731871585 0.011566229318729408 -0.0093641625901909713 -0.01035421693610937
leaf_weight=98574 87663 7180 233 10425 29 12651 589 21 21 48 22 27 64 86
leaf_count=98574 87663 7180 233 10425 29 12651 589 21 21 48 22 27 64 86
internal_value=0 2.51272e-05 0.000184591 0.000489568 0.00094329 -0.000206193 -0.00157739 -0.00365651 -0.00681535 -0.00566395 -0.00762059 -0.00345715 -0.0141078 -0.0072481
internal_weight=0 129970 31396 17634 7209 13762 1111 522 289 268 220 134 86 107
internal_count=217633 129970 31396 17634 7209 13762 1111 522 289 268 220 134 86 107
shrinkage=0.15


Tree=1044
num_leaves=15
num_cat=0
split_feature=22 6 2 9 2 22 13 6 16 22 2 22 2 25
split_gain=0.00939995 0.0479582 0.0845803 0.069676 0.104326 0.586261 0.407922 0.33577 0.226013 0.26112 0.323647 0.288293 0.284909 0.588956
threshold=-2.2993349999999997 -4.0280749999999992e-07 2.3041050000000003 -4.4352649999999996e-05 -2.5827499999999994 -2.5818199999999996 1.6523550000000005e-05 -1.6333399999999997e-06 -6.8873299999999982e-07 -2.7774649999999994 -2.7531699999999995 -2.8863399999999997 -2.7724249999999997 1.15141
decision_type=2 2 2 2 2 2 2 2 2 2 2 2 2 2
left_child=1 3 -3 -1 5 8 -7 -8 -5 10 -10 -12 -11 -14
right_child=-2 2 -4 4 -6 6 7 -9 9 12 11 -13 13 -15
leaf_value=0.00070684423372867659 -1.2150068180102638e-05 0.00042636941374225271 -0.00048655100277733988 -0.0083042362282174584 -0.00013536447828265232 -0.0029630976980978769 -0.024764428751980316 -0.0064871927365727187 0.0012437702247413372 -0.0025742949850678949 -0.0037882987643938944 -0.021896316949278117 0.013139394755125976 -0.0076374734288765459
leaf_weight=1924 188933 12576 2790 63 10499 118 49 42 287 79 74 27 132 40
leaf_count=1924 188933 12576 2790 63 10499 118 49 42 287 79 74 27 132 40
internal_value=0 7.99843e-05 0.000260611 -0.000128168 -0.000268971 -0.00180875 -0.00878261 -0.0163288 0.000267511 0.00111261 -0.00132622 -0.00862906 0.0048826 0.00830756
internal_weight=0 28700 15366 13334 11410 911 209 91 702 639 388 101 251 172
internal_count=217633 28700 15366 13334 11410 911 209 91 702 639 388 101 251 172
shrinkage=0.15


Tree=1045
num_leaves=15
num_cat=0
split_feature=2 33 6 11 21 22 10 19 0 24 22 2 1 22
split_gain=0.00960582 0.0785917 0.0759331 0.120814 0.156426 0.136509 0.475931 0.359176 0.34856 0.334607 0.329489 0.415871 0.620887 0.320073
threshold=2.5016900000000004 1.5906100000000001e-06 6.8149800000000011e-06 -0.00012009049999999999 -3.7462599999999999 2.5417150000000004 5.3921650000000006e-05 0.00049070750000000001 -10.766699999999998 -0.15161949999999999 2.1317500000000007 2.5464700000000007 3.3844350000000003 2.4928950000000003
decision_type=2 2 2 2 2 2 2 2 2 2 2 2 2 2
left_child=-1 -2 3 -3 -5 8 7 -7 -6 -8 -10 13 -13 -12
right_child=1 2 -4 4 5 6 9 -9 10 -11 11 12 -14 -15
leaf_value=-1.0323262078115245e-05 0.00035869120085222939 0.00033693841081138502 0.00072928831838552479 0.00041190161045224734 0.00043140778603990062 -0.0034068008665281355 0.00039107806861578493 0.0030657121889953094 -0.002136363196300446 -0.011725525135267718 -0.0063144704041240571 -0.0045696798888314764 -0.018229634215114511 0.01927254525521262
leaf_weight=196542 11577 3011 1572 1495 790 266 89 702 1083 121 22 230 111 22
leaf_count=196542 11577 3011 1572 1495 790 266 89 702 1083 121 22 230 111 22
internal_value=0 9.62e-05 -0.000223209 -0.000411742 -0.000868906 -0.00142618 -0.0001172 0.00128711 -0.00210908 -0.00659039 -0.00347624 -0.00724529 -0.00901618 0.00647904
internal_weight=0 21091 9514 7942 4931 3436 1178 968 2258 210 1468 385 341 44
internal_count=217633 21091 9514 7942 4931 3436 1178 968 2258 210 1468 385 341 44
shrinkage=0.15


Tree=1046
num_leaves=15
num_cat=0
split_feature=5 22 11 14 22 20 32 1 34 33 21 2 20 32
split_gain=0.00989869 0.0619822 0.130214 0.107592 0.279225 0.30885 0.362027 0.220229 0.140328 0.0989657 0.10156 0.150071 0.237746 0.0990932
threshold=8.942730000000002e-06 2.5687850000000005 -1.6035999999999997e-05 0.00037299900000000005 2.7790800000000004 -8.2830599999999972 -0.020590399999999998 0.9808285000000001 0.084651750000000012 3.3399000000000003e-05 2.1817450000000007 2.5749400000000002 -7.2112649999999991 -0.028607799999999999
decision_type=2 2 2 2 2 2 2 2 2 2 2 2 2 2
left_child=1 -1 3 4 8 7 -7 -6 -3 10 13 -12 -13 -5
right_child=-2 2 -4 9 5 6 -8 -9 -10 -11 11 12 -14 -15
leaf_value=0.00020845541934137808 -9.111713419662528e-06 -0.019318804272020665 0.00022238070777026256 -0.0067653963541122178 -0.0022276036971216572 0.0022599529112994786 -0.020879487518285372 0.016784224256228369 -0.0041099528748808163 -0.0071655735735678006 -0.00040257701536910122 -0.00083572394670108734 0.020975427143275736 0.0004751305017424257
leaf_weight=14736 201302 39 1034 77 29 32 29 26 21 54 114 23 22 95
leaf_count=14736 201302 39 1034 77 29 32 29 26 21 54 114 23 22 95
internal_value=0 0.000112314 -0.00077592 -0.00261593 -0.00568829 -0.00139136 -0.00874076 0.00675981 -0.0139957 -0.00121142 -0.000240043 0.00249273 0.00982751 -0.00276627
internal_weight=0 16331 1595 561 176 116 61 55 60 385 331 159 45 172
internal_count=217633 16331 1595 561 176 116 61 55 60 385 331 159 45 172
shrinkage=0.15


Tree=1047
num_leaves=15
num_cat=0
split_feature=13 33 19 25 3 18 38 38 18 30 18 1 30 31
split_gain=0.00851802 0.0794701 0.102063 0.125908 0.100194 0.0773744 0.363153 0.214946 0.352812 0.271155 0.263871 0.115543 0.115754 0.0940277
threshold=1.7665150000000005e-05 1.4107600000000003e-06 3.7476600000000006e-05 0.2862590000000001 -6.1122599999999991 5.5024100000000016e-06 7.4112550000000023e-05 0.00019435450000000002 -3.1143699999999996e-07 0.006662625000000001 3.6780400000000004e-08 -9.4904649999999986 0.0079975500000000008 -4.7621299999999991
decision_type=2 2 2 2 2 2 2 2 2 2 2 2 2 2
left_child=-1 -2 3 4 -3 7 -7 10 9 -9 -5 -11 -13 -14
right_child=1 2 -4 5 -6 6 -8 8 -10 11 -12 12 13 -15
leaf_value=-2.6660894277469275e-05 -8.6180700664487521e-05 0.0014950272654160562 1.0001558482997209e-05 0.0018927074804744478 -0.00017691982419494701 -0.0013350734512652816 0.0023192304271441068 -0.0029491951951508186 0.00061198388615094155 0.0095690544541866974 -0.00075013433981729806 0.0089045694881034164 0.0035141198617234097 -0.0013581706874020076
leaf_weight=120429 54838 3742 26811 2171 1028 990 1602 1725 2324 32 1397 33 115 396
leaf_count=120429 54838 3742 26811 2171 1028 990 1602 1725 2324 32 1397 33 115 396
internal_value=0 3.3031e-05 0.000187337 0.000492997 0.0011347 0.000209184 0.000923489 -1.67988e-05 -0.000691624 -0.00200826 0.00085794 0.000809633 0.000294373 -0.000261667
internal_weight=0 97204 42366 15555 4770 10785 2592 8193 4625 2301 3568 576 544 511
internal_count=217633 97204 42366 15555 4770 10785 2592 8193 4625 2301 3568 576 544 511
shrinkage=0.15


Tree=1048
num_leaves=15
num_cat=0
split_feature=22 2 2 23 2 29 2 3 22 6 12 2 21 10
split_gain=0.00844725 0.0304305 0.030284 0.0328146 0.0280455 0.0538905 0.0471935 0.0546506 0.0725681 0.0361912 0.050807 0.020522 0.0223125 0.0219864
threshold=3.0676500000000004 -3.0483799999999994 -2.9487299999999999 -9.8659199999999974 3.0578500000000006 0.0068817350000000008 2.6644600000000005 -13.980049999999999 3.0909850000000003 2.3503850000000006e-06 2.5800150000000004e-05 0.37821950000000004 -6.4898099999999994 1.2315000000000002e-05
decision_type=2 2 2 2 2 2 2 2 2 2 2 2 2 2
left_child=-1 -2 3 -3 6 -6 11 -8 -9 10 -10 12 -4 -13
right_child=1 2 4 -5 5 -7 7 8 9 -11 -12 13 -14 -15
leaf_value=-3.1212542298912493e-06 0.0053836140518587153 0.00086435438923737292 0.0037064055271912363 -0.0071078280882480045 -0.0013954200841412372 0.0088825947685108979 0.004577054431580979 -0.0088188331251820677 -0.0086845313133671869 0.0024561014694403347 -0.00010501220879122251 -0.0016349915440677346 -8.3126118045270312e-05 0.001193223024177729
leaf_weight=215232 26 21 36 26 22 24 23 39 25 38 41 67 1209 804
leaf_count=215232 26 21 36 26 22 24 23 39 25 38 41 67 1209 804
internal_value=0 0.000279797 0.000223924 -0.00354579 0.000300031 0.00396702 0.000226113 -0.00220933 -0.00330085 -0.00123161 -0.00335483 0.000417173 2.64507e-05 0.000975668
internal_weight=0 2401 2375 47 2328 46 2282 166 143 104 66 2116 1245 871
internal_count=217633 2401 2375 47 2328 46 2282 166 143 104 66 2116 1245 871
shrinkage=0.15


Tree=1049
num_leaves=15
num_cat=0
split_feature=0 29 39 36 27 23 5 3 6 13 36 14 22 11
split_gain=0.00843138 0.0522571 0.0243957 0.0227996 0.0264382 0.0356012 0.0463906 0.0632371 0.0769662 0.0626076 0.0575529 0.0470761 0.0322015 0.0714688
threshold=11.559500000000002 0.0055169800000000003 2.4977550000000007e-06 -0.0071543299999999995 1.5761800000000001 -8.176264999999999 9.6016850000000005e-06 -5.9751649999999996 -2.4029549999999995e-06 3.8126000000000001e-06 0.022400650000000005 8.7942550000000017e-05 0.33068600000000009 4.058710000000001e-05
decision_type=2 2 2 2 2 2 2 2 2 2 2 2 2 2
left_child=-1 3 -3 -2 -5 -6 10 8 -8 -10 -7 -9 13 -13
right_child=1 2 -4 4 5 6 7 11 9 -11 -12 12 -14 -15
leaf_value=-6.7904498307397291e-06 0.001103286419337966 -0.0045706201455041374 -0.0003420711870277854 0.00036398286507538475 0.00033128754081129715 0.0075852641352237415 -0.013397907301656563 0.00048578138313997641 -0.0077465531501729849 0.001711879474591584 -0.0023952540307310356 -0.012695752722876413 0.00097018790856964179 -0.002170189748954107
leaf_weight=206699 788 31 3153 6071 498 26 22 164 32 31 26 21 24 47
leaf_count=206699 788 31 3153 6071 498 26 22 164 32 31 26 21 24 47
internal_value=0 0.000128368 -0.000383241 0.000338557 0.000252001 -0.000511011 -0.00157835 -0.00221476 -0.00575971 -0.0030924 0.00259501 -0.00103772 -0.00375353 -0.00542073
internal_weight=0 10934 3184 7750 6962 891 393 341 85 63 52 256 92 68
internal_count=217633 10934 3184 7750 6962 891 393 341 85 63 52 256 92 68
shrinkage=0.15


Tree=1050
num_leaves=15
num_cat=0
split_feature=22 2 2 22 1 6 5 18 26 33 23 3 33 33
split_gain=0.00861411 0.148677 0.487148 2.09448 0.808561 1.42763 0.866089 0.71323 0.703097 0.651778 0.818374 0.685796 0.639338 0.696451
threshold=-1.9550899999999998 -1.9124349999999997 -2.2717399999999994 -2.2679949999999995 -10.362799999999998 -1.1507099999999999e-06 1.3742700000000001e-05 -1.7267249999999996e-05 0.00011093100000000001 -3.0679049999999998e-06 -12.7784 -10.110599999999998 -7.4438449999999987e-06 -5.4434249999999986e-06
decision_type=2 2 2 2 2 2 2 2 2 2 2 2 2 2
left_child=1 2 -1 -4 -5 6 -6 -8 9 10 -9 -12 -13 -14
right_child=-2 -3 3 4 5 -7 7 8 -10 -11 11 12 13 -15
leaf_value=-0.00014093936651844098 -1.416691201334307e-05 -8.924357288181169e-05 -0.00081620693029773748 0.00026934029163571836 0.0075270576671713349 0.0021134088365986877 -0.0046910148304463778 0.0083887367212975555 0.00020341489535684768 0.0068944276897871691 0.052208135830792222 0.012500112631509231 0.059787600806781221 0.027756023084345674
leaf_weight=5988 177607 31348 1735 234 173 283 22 33 26 33 37 37 21 56
leaf_count=5988 177607 31348 1735 234 173 283 22 33 26 33 37 37 21 56
internal_value=0 6.28627e-05 0.000612324 0.00228911 0.0079307 0.0104172 0.0157824 0.0211717 0.0235132 0.0263061 0.0297876 0.0344641 0.0287051 0.0364919
internal_weight=0 40026 8678 2690 955 721 438 265 243 217 184 151 114 77
internal_count=217633 40026 8678 2690 955 721 438 265 243 217 184 151 114 77
shrinkage=0.15


Tree=1051
num_leaves=15
num_cat=0
split_feature=8 35 8 21 10 39 6 18 29 12 16 12 8 21
split_gain=0.00997245 0.0396605 0.0482251 0.072861 0.213443 0.224846 0.315418 0.355655 0.148265 0.10631 0.105417 0.0602172 0.0466422 0.104781
threshold=1.4331150000000001e-05 0.00088636600000000009 1.6073850000000002e-05 -6.7947599999999992 1.6275850000000004e-05 0.00067619600000000011 -1.1053749999999998e-06 -4.1286149999999994e-07 -0.005534879999999999 -0.00010970349999999998 1.8243550000000003e-08 -6.6440049999999984e-05 1.5174050000000003e-05 -5.7462299999999988
decision_type=2 2 2 2 2 2 2 2 2 2 2 2 2 2
left_child=-1 -2 3 4 10 6 7 -6 -8 -7 -3 -11 13 -5
right_child=1 2 -4 12 5 9 8 -9 -10 11 -12 -13 -14 -15
leaf_value=1.558665417328729e-05 2.9820128197888136e-05 2.1955756736653191e-05 -0.00042196110765028744 -0.0078912687823255757 0.025840442654346891 0.0045942193102746385 0.011402308159241719 0.0039219316613349703 -0.0039167211428734429 -0.011582921501831151 -0.015194518337957562 -0.0015827472291545877 0.00077857740480708154 -0.00038251960977763735
leaf_weight=176130 29057 21 10379 44 36 48 21 31 44 20 20 42 898 842
leaf_count=176130 29057 21 10379 44 36 48 21 31 44 20 20 42 898 842
internal_value=0 -6.61465e-05 -0.000290195 0.000371443 0.00260745 0.00430305 0.00847688 0.015699 0.0010325 -0.000705557 -0.00740071 -0.00480861 1.67406e-05 -0.000755415
internal_weight=0 41503 12446 2067 283 242 132 67 65 110 41 62 1784 886
internal_count=217633 41503 12446 2067 283 242 132 67 65 110 41 62 1784 886
shrinkage=0.15


Tree=1052
num_leaves=15
num_cat=0
split_feature=22 10 9 2 32 19 10 31 3 9 21 11 11 39
split_gain=0.0134225 0.0406418 0.0559676 0.0500391 0.153695 0.382703 0.45983 0.571272 0.305345 0.288008 0.239024 0.246352 0.379735 0.287367
threshold=-2.2993349999999997 2.0057950000000003e-05 -2.0949449999999996e-05 -2.2533199999999995 0.11228950000000001 1.6413000000000003e-07 2.8794150000000003e-05 0.19688900000000001 -12.508949999999999 -3.3558749999999991e-05 -0.16778899999999997 -9.4079849999999983e-05 -3.8565599999999989e-05 0.0010549800000000003
decision_type=2 2 2 2 2 2 2 2 2 2 2 2 2 2
left_child=1 2 -1 4 -3 8 7 -7 9 -6 11 -9 13 -13
right_child=-2 3 -4 -5 5 6 -8 10 -10 -11 -12 12 -14 -15
leaf_value=0.0083618735958589235 -1.4518884910334456e-05 -0.00012919927064198737 0.0004138237781147197 -0.00010903871618288251 -0.0020211971068585461 0.033756012259453363 0.0021830942884986083 0.00065934779704548421 -0.0027203959196540495 0.017511250572279095 -0.0049624371264750762 0.012518797642551361 -8.1358700408600262e-05 0.037946662511676547
leaf_weight=20 188933 3172 6057 18062 33 22 708 33 471 35 27 20 20 20
leaf_count=20 188933 3172 6057 18062 33 22 708 33 471 35 27 20 20 20
internal_value=0 9.55783e-05 0.000439982 3.0645e-06 0.000447004 0.00176285 0.00374555 0.0115358 -0.00136384 0.00803227 0.00746212 0.0110693 0.0167947 0.0252327
internal_weight=0 28700 6077 22623 4561 1389 850 142 539 68 120 93 60 40
internal_count=217633 28700 6077 22623 4561 1389 850 142 539 68 120 93 60 40
shrinkage=0.15


Tree=1053
num_leaves=15
num_cat=0
split_feature=22 6 0 34 9 20 18 1 8 19 22 0 23 1
split_gain=0.00969778 0.0352397 0.0809414 0.064834 0.061432 0.0871877 0.257507 0.0688657 0.0774057 0.12352 0.310204 0.275073 0.495283 0.512449
threshold=-2.2993349999999997 -8.1766949999999984e-08 -7.230624999999999 0.080256200000000014 -4.5196699999999994e-05 -14.223749999999997 -2.0215599999999997e-07 -11.455549999999999 9.1976300000000019e-06 8.7823200000000017e-05 -2.9160599999999994 -5.682059999999999 -10.108199999999998 -8.0946249999999988
decision_type=2 2 2 2 2 2 2 2 2 2 2 2 2 2
left_child=1 4 -3 -4 5 6 -1 -6 -9 10 -10 12 -12 -14
right_child=-2 2 3 -5 7 -7 -8 8 9 -11 11 -13 13 -15
leaf_value=0.017525348532049415 -1.2341050143550745e-05 -0.00051032759506637918 0.00071247882826697292 -1.0063203329988189e-05 0.001284244339165043 0.00053097328288910484 -0.0025719679084431845 -4.2337514549012195e-05 0.0016876947027180875 5.6707867000125391e-05 -0.0064229823682133685 -0.0045221404467474949 -0.0050755958396454396 0.0074923420613754073
leaf_weight=26 188933 2579 6876 4707 664 1850 32 8516 447 1643 181 849 109 221
leaf_count=26 188933 2579 6876 4707 664 1850 32 8516 447 1643 181 849 109 221
internal_value=0 8.12415e-05 0.000249647 0.000418858 -8.28085e-05 0.000710512 0.00643717 -0.000202655 -0.000285163 -0.000884556 -0.00174039 -0.00286712 -0.000117401 0.00334111
internal_weight=0 28700 14162 11583 14538 1908 58 12630 11966 3450 1807 1360 511 330
internal_count=217633 28700 14162 11583 14538 1908 58 12630 11966 3450 1807 1360 511 330
shrinkage=0.15


Tree=1054
num_leaves=15
num_cat=0
split_feature=2 29 22 6 22 2 1 3 1 34 22 3 22 5
split_gain=0.0102422 0.0512364 0.0938576 0.179344 0.569568 0.820517 0.512209 0.57988 0.489102 0.57306 0.553762 0.40794 0.374063 0.325951
threshold=2.5016900000000004 0.0030668750000000006 2.4622600000000006 2.5482200000000006e-06 2.8050300000000004 2.7813900000000005 2.2456700000000005 -6.6828699999999985 5.2820750000000007 0.38058200000000003 2.6827550000000007 -6.1920449999999994 2.5417150000000004 1.6793050000000003e-05
decision_type=2 2 2 2 2 2 2 2 2 2 2 2 2 2
left_child=-1 -2 -3 -4 5 8 13 -8 9 12 -10 -12 -5 -6
right_child=1 2 3 4 6 -7 7 -9 10 -11 11 -13 -14 -15
leaf_value=-1.0659732307500658e-05 0.00028982366875970151 -0.00053786607092672968 -0.00049381211102144285 0.0021703125291969625 0.020826451380496783 -0.003739830633739527 -0.010760722339169628 0.00065043159789969311 0.0081101296844837863 -0.0064551561237162639 -0.026258933579083533 -0.00076081687093392241 0.018182865306964051 0.0019371684506100401
leaf_weight=196542 12676 5652 1610 40 31 179 171 242 147 31 20 48 183 61
leaf_count=196542 12676 5652 1610 40 31 179 171 242 147 31 20 48 183 61
internal_value=0 9.93355e-05 -0.000187608 0.000528881 0.00195693 0.00490004 -0.00181959 -0.00407428 0.00819757 0.0126542 0.00293252 -0.00826026 0.0153107 0.00830204
internal_weight=0 21091 8415 2763 1153 648 505 413 469 254 215 68 223 92
internal_count=217633 21091 8415 2763 1153 648 505 413 469 254 215 68 223 92
shrinkage=0.15


Tree=1055
num_leaves=15
num_cat=0
split_feature=11 20 20 31 10 15 33 7 39 19 25 31 5 33
split_gain=0.00977535 0.0811819 0.0854776 0.0642658 0.273995 0.0633643 0.0586951 0.0698533 0.0451582 0.087171 0.0774835 0.0921495 0.115694 0.06596
threshold=6.9744250000000019e-05 -9.4357099999999985 1.3925150000000002 -6.1956549999999995 2.0590300000000002e-05 0.00017932200000000002 -0.00093521849999999988 5.5511750000000009e-05 2.3937350000000006e-05 6.8051000000000003e-05 0.78970400000000007 -0.22301549999999995 1.6898200000000004e-05 3.7557400000000001e-06
decision_type=2 2 2 2 2 2 2 2 2 2 2 2 2 2
left_child=-1 -2 3 4 -3 6 -6 -8 -5 10 13 12 -12 -10
right_child=1 2 -4 8 5 -7 7 -9 9 -11 11 -13 -14 -15
leaf_value=-1.486478162617263e-05 -0.00067663787827610007 0.019817594432970508 -0.00010435087080228328 0.00055815952424700911 0.0053111768309743353 0.00830152514556955 -0.0074036609648733005 0.0020296710707374257 -0.0054661128355032165 0.00024923831225530179 0.00039250933321720983 0.00026727276024315167 -0.011019624749986598 -0.00074153561770986132
leaf_weight=178587 3038 20 17691 9551 26 21 38 33 154 7710 41 567 39 117
leaf_count=178587 3038 20 17691 9551 26 21 38 33 154 7710 41 567 39 117
internal_value=0 6.79879e-05 0.000130812 0.000357938 0.00358271 0.000831039 -0.000786282 -0.00301915 0.000333458 8.47192e-05 -0.00129703 -0.000405145 -0.00517091 -0.00342635
internal_weight=0 39046 36008 18317 138 118 97 71 18179 8628 918 647 80 271
internal_count=217633 39046 36008 18317 138 118 97 71 18179 8628 918 647 80 271
shrinkage=0.15


Tree=1056
num_leaves=15
num_cat=0
split_feature=23 3 3 23 14 25 14 23 23 3 19 33 33 17
split_gain=0.0111336 0.0761492 0.201351 0.48297 0.401816 0.423027 0.287161 0.273034 0.263487 0.961583 0.675912 1.00955 0.436062 0.82371
threshold=-12.666499999999997 -10.729049999999999 -12.508949999999999 -15.140049999999997 0.0036607600000000003 1.2871200000000003 0.0016871300000000002 -13.660649999999999 -13.957949999999999 -13.437049999999997 7.2538700000000022e-08 -1.7962349999999996e-05 4.3599350000000003e-06 8.9979850000000011e-07
decision_type=2 2 2 2 2 2 2 2 2 2 2 2 2 2
left_child=1 2 8 -4 5 7 -7 -5 -1 -10 11 -11 -12 -14
right_child=-2 -3 3 4 -6 6 -8 -9 9 10 12 -13 13 -15
leaf_value=-0.00026215295029195616 -2.025494554917919e-05 0.00017544444689832233 0.00027963939697071941 -0.0035038085442028774 -0.00030686773703009315 0.0020873839597550701 -0.0072100030574579338 -0.0084589622588147045 -0.00022760422419427321 0.037349195250620443 0.0007339682327731432 0.0060373911807815048 -0.0022286810516126696 0.013412439158206767
leaf_weight=9374 160446 38913 3210 535 1067 315 98 470 2371 36 396 65 115 222
leaf_count=9374 160446 38913 3210 535 1067 315 98 470 2371 36 396 65 115 222
internal_value=0 5.6828e-05 -0.000195756 -0.000935749 -0.00250573 -0.0041603 -0.000118776 -0.00582114 0.000139267 0.00131334 0.00569414 0.017198 0.00410902 0.00807496
internal_weight=0 57187 18274 5695 2485 1418 413 1005 12579 3205 834 101 733 337
internal_count=217633 57187 18274 5695 2485 1418 413 1005 12579 3205 834 101 733 337
shrinkage=0.15


Tree=1057
num_leaves=15
num_cat=0
split_feature=22 37 10 1 7 0 8 8 6 8 1 0 17 18
split_gain=0.00928906 0.0396272 0.0329771 0.0402039 0.0359985 0.0997378 0.0295821 0.0609618 0.088385 0.0387254 0.111116 0.156282 0.108151 0.0965121
threshold=3.0022850000000001 -1.379015e-07 2.8420100000000006e-05 5.7343200000000012 3.2585650000000012e-05 -6.6283299999999992 -1.4482499999999997e-05 -1.7891249999999996e-05 -2.4052099999999996e-07 -1.6717849999999998e-06 1.3814250000000003 -8.5914799999999989 3.3979550000000005e-07 -4.858434999999999e-07
decision_type=2 2 2 2 2 2 2 2 2 2 2 2 2 2
left_child=-1 -2 -3 4 5 -4 7 -6 -9 10 11 12 -8 -13
right_child=1 2 3 -5 6 -7 9 8 -10 -11 -12 13 -14 -15
leaf_value=-4.7022386622200002e-06 0.00081935320501956479 0.00047469655677998159 -0.010154331496040173 0.00090765653354465026 -0.00041475256611623701 4.5599346912379169e-05 0.0036480172614877424 -0.00079464733633877974 -0.014727748071891256 -0.00097677735822802999 -0.0010058474416169206 0.0051964494780721987 0.016953404873077359 -0.0047386177772502629
leaf_weight=212735 1591 1361 34 375 76 59 27 21 20 943 275 44 28 44
leaf_count=212735 1591 1361 34 375 76 59 27 21 20 943 275 44 28 44
internal_value=0 0.000204233 -9.17025e-05 -0.000487833 -0.000820938 -0.00368341 -0.000640823 -0.0029296 -0.00759128 -0.000444065 0.000757723 0.00414921 0.0104217 0.000228916
internal_weight=0 4898 3307 1946 1571 93 1478 117 41 1361 418 143 55 88
internal_count=217633 4898 3307 1946 1571 93 1478 117 41 1361 418 143 55 88
shrinkage=0.15


Tree=1058
num_leaves=15
num_cat=0
split_feature=2 31 10 25 30 6 29 34 33 25 28 21 33 12
split_gain=0.0100733 0.0535528 0.0919683 0.104765 0.16582 0.116069 0.125801 0.215378 0.146859 0.0972991 0.0866344 0.131504 0.199093 0.123743
threshold=2.7568000000000006 0.051991800000000005 3.5385500000000002e-05 0.65809950000000017 0.00045491450000000006 6.9617050000000014e-07 0.0087231450000000016 0.021914400000000004 4.2404300000000005e-06 0.2651265000000001 0.09319230000000002 2.1817450000000007 2.1078850000000004e-06 1.9714300000000002e-05
decision_type=2 2 2 2 2 2 2 2 2 2 2 2 2 2
left_child=-1 -2 3 5 -5 9 7 -7 -8 -3 11 -6 -13 -14
right_child=1 2 -4 4 10 6 8 -9 -10 -11 -12 12 13 -15
leaf_value=-7.7205330415079605e-06 0.00035545719980285313 -0.0065362804880886175 3.4632028177459616e-05 0.011095544788986443 -0.0021872251141494786 -0.016403959924355147 -0.0048219035910536858 0.0014628012878390672 -0.018376074263027734 0.00135673954979549 -0.0061066821960594096 0.017697199697722682 -0.0052086625601917213 0.006015533519402037
leaf_weight=205851 7984 51 3057 27 221 20 37 63 35 113 64 20 39 51
leaf_count=205851 7984 51 3057 27 221 20 37 63 35 113 64 20 39 51
internal_value=0 0.00013489 -0.000328776 -0.00182802 -0.000277314 -0.00387942 -0.00682255 -0.00284244 -0.0114107 -0.0010978 -0.0010547 -7.78803e-05 0.00415999 0.00115172
internal_weight=0 11782 3798 741 422 319 155 83 72 164 395 331 110 90
internal_count=217633 11782 3798 741 422 319 155 83 72 164 395 331 110 90
shrinkage=0.15


Tree=1059
num_leaves=15
num_cat=0
split_feature=22 13 5 14 34 28 2 14 28 13 34 23 14 23
split_gain=0.00944325 0.0328599 0.0758301 0.0503171 0.0808737 0.151218 0.0713943 0.0664847 0.0851692 0.0441385 0.0619026 0.055517 0.0569595 0.0998684
threshold=-2.2993349999999997 -9.1282599999999975e-06 2.2324050000000002e-05 0.00016362750000000005 0.0088724050000000016 -0.0033222799999999995 2.3041050000000003 4.9478950000000008e-05 -0.0012037599999999997 -3.3923949999999992e-05 0.0078442450000000014 -11.906049999999999 0.0014906400000000003 -18.575849999999999
decision_type=2 2 2 2 2 2 2 2 2 2 2 2 2 2
left_child=1 2 3 4 5 -1 -7 -8 -9 -5 -11 12 -12 -14
right_child=-2 -3 -4 9 -6 6 7 8 -10 10 11 -13 13 -15
leaf_value=-0.012589852176988017 -1.2178021936561182e-05 -1.8186034411903833e-05 -0.00031969024522674068 0.00033120949259276135 0.00046028037423163958 0.00064458436751163085 3.9588341747435765e-05 -0.015879948763176797 -0.0029652434737525053 0.0032974759606712537 0.0028576239087057917 0.00041112688692569721 0.0089582740136867622 -0.0016474100381808391
leaf_weight=29 188933 20865 2602 1396 1387 167 37 20 27 332 544 1119 23 152
leaf_count=29 188933 20865 2602 1396 1387 167 37 20 27 332 544 1119 23 152
internal_value=0 8.01683e-05 0.000342091 0.000671148 -9.14639e-06 -0.00233449 -0.0011496 -0.00471662 -0.00846086 0.000989165 0.00141244 0.00107194 0.00210039 -0.00025352
internal_weight=0 28700 7835 5233 1667 280 251 84 47 3566 2170 1838 719 175
internal_count=217633 28700 7835 5233 1667 280 251 84 47 3566 2170 1838 719 175
shrinkage=0.15


Tree=1060
num_leaves=15
num_cat=0
split_feature=17 37 17 24 17 20 9 32 2 13 23 23 3 23
split_gain=0.00875612 0.212132 0.398031 0.358878 0.306973 0.266134 0.806993 1.66362 0.829314 0.787431 0.795299 0.671175 0.597914 0.594275
threshold=2.4332650000000004e-08 -3.6888849999999999e-08 -4.2368999999999995e-07 -0.36764199999999997 -1.1949949999999999e-06 4.5614350000000004 1.6662500000000002e-05 -0.028607799999999999 0.18773050000000002 3.9987100000000009e-05 -11.023199999999997 -11.906049999999999 -6.6828699999999985 -7.2957849999999995
decision_type=2 2 2 2 2 2 2 2 2 2 2 2 2 2
left_child=1 2 -1 -4 -3 -5 -7 8 -8 11 -11 -10 13 -13
right_child=-2 4 3 5 -6 6 7 -9 9 10 -12 12 -14 -15
leaf_value=-8.6328826230300012e-06 -1.8301073496679452e-05 0.00012093746981739503 -0.0015386970270023133 0.0011114348061246864 -0.00087954788549630568 0.00085385834164262845 -0.0070133080312847719 0.00024755901023811543 0.0019266265165060758 0.023026921169366686 -0.014839047273226942 0.037776630586658665 0.0082602300784654081 0.010570574124788188
leaf_weight=20248 158858 19967 925 5515 10544 1031 29 291 25 24 26 101 27 22
leaf_count=20248 158858 19967 925 5515 10544 1031 29 291 25 24 26 101 27 22
internal_value=0 4.94644e-05 0.000345544 0.00124018 -0.000224811 0.00160267 0.0033217 0.00799022 0.0168607 0.0199378 0.00333662 0.0246811 0.0284735 0.0329105
internal_weight=0 58775 28264 8016 30511 7091 1576 545 254 225 50 175 150 123
internal_count=217633 58775 28264 8016 30511 7091 1576 545 254 225 50 175 150 123
shrinkage=0.15


Tree=1061
num_leaves=15
num_cat=0
split_feature=31 29 3 37 3 14 2 23 2 9 21 2 32 19
split_gain=0.00936175 0.0418859 0.0455702 0.180801 0.115237 0.109683 0.183917 0.19539 0.236033 0.242905 0.149659 0.145108 0.188838 0.113303
threshold=0.089957200000000015 0.0090105100000000011 -16.131449999999997 3.8063150000000008e-07 -12.418249999999999 0.0048352200000000012 -1.9874349999999998 -17.199899999999996 2.7568000000000006 -2.1394549999999997e-05 -0.75947199999999992 1.8963550000000002 -0.089375499999999983 4.1466950000000005e-05
decision_type=2 2 2 2 2 2 2 2 2 2 2 2 2 2
left_child=-1 2 3 -2 5 6 10 -8 9 -9 -4 12 -11 -7
right_child=1 -3 4 -5 -6 13 7 8 -10 11 -12 -13 -14 -15
leaf_value=-1.7160541707686295e-05 0.0011001987600881039 1.2598261755453167e-05 0.0088579541806172082 0.013994149401939162 0.00071508260222164562 0.010242525703157299 0.0026445629287345875 -0.021785318996343346 0.0063958087573862737 -0.02200497387908399 -0.0033786015577127481 0.0029942209133878351 -0.0063796496392189593 -0.00018767566715709072
leaf_weight=166863 261 46014 46 27 3679 25 62 27 27 20 44 30 134 374
leaf_count=166863 261 46014 46 27 3679 25 62 27 27 20 44 30 134 374
internal_value=0 5.64006e-05 0.000480186 0.00230901 0.000362303 -0.00128266 -0.00307152 -0.00485567 -0.00680951 -0.00849929 0.00287564 -0.00654971 -0.00840891 0.000465846
internal_weight=0 50770 4756 288 4468 789 390 300 238 211 90 184 154 399
internal_count=217633 50770 4756 288 4468 789 390 300 238 211 90 184 154 399
shrinkage=0.15


Tree=1062
num_leaves=15
num_cat=0
split_feature=20 7 6 0 20 3 20 17 26 1 20 11 35 9
split_gain=0.00992204 0.0930776 0.105704 0.142321 0.356956 0.439829 0.341041 0.32338 0.176979 0.168092 0.127133 0.114584 0.196076 0.0761666
threshold=8.1756000000000011 3.0434000000000004e-05 3.3791450000000006e-06 7.7268700000000008 9.3032900000000023 -7.2233449999999992 10.878150000000002 1.2927700000000003e-07 -4.1290149999999996e-05 7.4568900000000005 10.068200000000003 8.5222450000000026e-06 0.00019395050000000001 2.6389300000000005e-05
decision_type=2 2 2 2 2 2 2 2 2 2 2 2 2 2
left_child=-1 2 3 13 5 -5 9 -8 -7 10 -6 -4 -13 -2
right_child=1 -3 11 4 6 8 7 -9 -10 -11 -12 12 -14 -15
leaf_value=-1.2019810233182643e-05 0.000775799614393613 -4.4584835543882399e-05 -0.00022645740843544126 0.02522085308296872 -0.0046444186160277401 0.011779728287491825 -0.00026110436742930043 0.017312479516381006 -0.0072663434914180206 0.0048020064173864997 -0.018669423029328194 -0.00060012511479895731 -0.016107012054089865 -0.00241970459728535
leaf_weight=190765 4096 22085 178 35 33 23 62 38 21 21 26 43 32 175
leaf_count=190765 4096 22085 178 35 33 23 62 38 21 21 26 43 32 175
internal_value=0 8.53416e-05 0.000685263 0.00085191 0.00426613 0.0126718 0.000576984 0.00641686 0.00268956 -0.00672286 -0.0108249 -0.00229857 -0.0072164 0.000644867
internal_weight=0 26868 4783 4530 259 79 180 100 44 80 59 253 75 4271
internal_count=217633 26868 4783 4530 259 79 180 100 44 80 59 253 75 4271
shrinkage=0.15


Tree=1063
num_leaves=15
num_cat=0
split_feature=14 23 3 3 28 8 3 36 19 33 17 33 22 29
split_gain=0.00898706 0.0350353 0.08146 0.131968 0.176888 0.1629 0.139408 0.386176 0.300622 0.476606 0.241727 0.0830446 0.0597292 0.0724756
threshold=0.000110883 -6.0395599999999989 -6.3575099999999987 -6.0288849999999989 0.012482400000000003 1.0793150000000002e-05 -5.7023449999999993 0.0031889550000000007 2.2808450000000001e-07 1.3458700000000004e-07 2.5793150000000008e-07 1.4933200000000001e-06 2.1918900000000003 0.0022299550000000005
decision_type=2 2 2 2 2 2 2 2 2 2 2 2 2 2
left_child=1 -1 12 4 5 -4 7 8 9 -5 -10 -12 13 -3
right_child=-2 2 3 6 -6 -7 -8 -9 10 -11 11 -13 -14 -15
leaf_value=4.0185684361170526e-05 -1.5899456566570356e-05 0.0034789467559421267 -0.0029256403080320783 0.012717972936168795 0.0049759983239507869 -0.01860022769990162 -0.00032525415743499074 -0.0049709948223261606 0.026745078864041715 -0.016549296051795993 0.0017471930128522216 0.015252801363489457 -0.0026956856176257133 0.011933017109223674
leaf_weight=45650 171085 107 35 31 27 26 465 63 28 21 20 21 25 29
leaf_count=45650 171085 107 35 31 27 26 465 63 28 21 20 21 25 29
internal_value=0 5.84377e-05 0.000986283 0.000318548 -0.0051324 -0.00960661 0.00105766 0.00455252 0.00951105 0.000898499 0.0160017 0.0086647 0.00404294 0.00528165
internal_weight=0 46548 898 737 88 61 649 184 121 52 69 41 161 136
internal_count=217633 46548 898 737 88 61 649 184 121 52 69 41 161 136
shrinkage=0.15


Tree=1064
num_leaves=15
num_cat=0
split_feature=4 24 4 9 29 29 13 33 3 39 3 23 28 12
split_gain=0.00928764 0.0592438 0.111805 0.179415 0.560356 0.240144 0.237455 0.788229 0.45574 0.473905 0.447591 0.427506 0.33256 1.21575
threshold=-0.29098649999999998 -0.35208349999999994 -2.0449499999999996 -1.7834849999999997e-05 0.047482600000000007 0.04050610000000001 8.0655500000000011e-06 5.5007900000000009e-06 -6.5460449999999986 0.018108800000000005 -15.512049999999999 -14.669299999999998 0.0041661550000000004 -1.0129549999999999e-05
decision_type=2 2 2 2 2 2 2 2 2 2 2 2 2 2
left_child=1 2 -1 4 -4 6 7 -5 9 10 11 -9 -12 -14
right_child=-2 -3 3 5 -6 -7 -8 8 -10 -11 12 -13 13 -15
leaf_value=0.0002084730995909484 -1.7884682683525291e-05 0.00011713898987459756 -0.0053190085872306114 -0.0050922748440400045 0.0014102787500451085 -0.0024407678628669692 -0.00074174228731270053 0.012651491402808962 -0.0033983017441642006 -0.0022669646981672417 0.016106416690903503 -0.011975959128301059 -0.012966004160698503 0.026979897711426018
leaf_weight=4053 163251 46710 663 203 480 760 994 29 96 81 208 35 40 30
leaf_count=4053 163251 46710 663 203 480 760 994 29 96 81 208 35 40 30
internal_value=0 5.36886e-05 -0.000332621 -0.000938605 -0.00249306 -0.000221019 0.000762087 0.00283246 0.00593211 0.00804965 0.0104931 -0.000816646 0.0130967 0.00415367
internal_weight=0 54382 7672 3619 1143 2476 1716 722 519 423 342 64 278 70
internal_count=217633 54382 7672 3619 1143 2476 1716 722 519 423 342 64 278 70
shrinkage=0.15


Tree=1065
num_leaves=15
num_cat=0
split_feature=29 11 16 16 0 21 7 11 3 19 32 20 36 0
split_gain=0.0095184 0.0483919 0.108012 0.0746121 0.141958 0.257607 0.264048 0.457173 0.308101 0.231227 0.180534 0.157934 0.505258 0.132143
threshold=-0.053962849999999993 9.7894750000000007e-05 3.0099100000000005e-06 4.065510000000001e-05 3.4931300000000003 -2.6150749999999996 3.4200500000000006e-05 6.2343150000000006e-05 -8.6591799999999974 0.0010161700000000003 4.7390700000000008 12.306400000000002 0.1228955 6.3167350000000004
decision_type=2 2 2 2 2 2 2 2 2 2 2 2 2 2
left_child=1 2 -1 4 -4 6 7 -6 13 10 -10 -7 -13 -8
right_child=-2 -3 3 -5 5 11 8 -9 9 -11 -12 12 -14 -15
leaf_value=0.00018984259919468567 -9.7199054316232941e-06 0.00065789440635728616 -0.0026369951886458477 -4.1613432393218652e-05 0.0022313206259591072 -0.0008453494674016313 -0.015335541482948299 0.028216115254908799 -0.0026355105964739776 0.016118324456196702 0.013392525399103761 -0.02036075488043328 0.0081008097284686054 -0.00076253386214375496
leaf_weight=12959 198569 2967 977 1531 39 333 28 25 64 33 21 36 23 28
leaf_count=12959 198569 2967 977 1531 39 333 28 25 64 33 21 36 23 28
internal_value=0 0.000101242 -1.36055e-06 -0.000790972 -0.00150489 0.000250767 0.0041435 0.0123816 0.00111338 0.00546165 0.00132436 -0.00211268 -0.00926557 -0.00804904
internal_weight=0 19064 16097 3138 1607 630 238 64 174 118 85 392 59 56
internal_count=217633 19064 16097 3138 1607 630 238 64 174 118 85 392 59 56
shrinkage=0.15


Tree=1066
num_leaves=15
num_cat=0
split_feature=33 13 13 12 31 29 10 34 37 13 30 9 7 11
split_gain=0.00925863 0.0769899 0.0975737 0.204024 0.256303 0.300384 0.367862 0.290971 0.186378 0.176937 0.368508 0.116669 0.311145 0.117635
threshold=-1.7962349999999996e-05 -1.0432299999999998e-05 3.9987100000000009e-05 0.00011228600000000002 -0.026451249999999999 -0.010746449999999999 1.9565150000000004e-05 0.09780800000000002 -3.4850749999999997e-07 3.5094600000000008e-05 0.0035753100000000004 1.5296750000000006e-05 5.9778900000000011e-05 2.1205450000000002e-05
decision_type=2 2 2 2 2 2 2 2 2 2 2 2 2 2
left_child=1 -1 3 -3 5 9 7 -7 -9 11 -11 13 -13 -5
right_child=-2 2 -4 4 -6 6 -8 8 -10 10 -12 12 -14 -15
leaf_value=0.00044916452308463517 -1.3532233323272866e-05 -0.0001504860286709549 0.00026847393085024229 -0.00297901755629573 0.00010130024593726706 -0.028963918378576634 -0.0016852293508097735 -0.020862073944881557 -0.0016016249591932416 0.018963631473015993 -0.0048807483618812895 -0.020605016052122078 -0.0026310385845742224 0.008902130171481986
leaf_weight=8986 182684 13381 11398 300 566 30 59 20 26 25 35 31 72 20
leaf_count=8986 182684 13381 11398 300 566 30 59 20 26 25 35 31 72 20
internal_value=0 7.07351e-05 -6.02423e-05 -0.000317483 -0.0022048 -0.00431686 -0.0105721 -0.0174711 -0.00997573 -0.00256851 0.00505441 -0.00364977 -0.00804068 -0.00223645
internal_weight=0 34949 25963 14565 1184 618 135 76 46 483 60 423 103 320
internal_count=217633 34949 25963 14565 1184 618 135 76 46 483 60 423 103 320
shrinkage=0.15


Tree=1067
num_leaves=15
num_cat=0
split_feature=1 21 3 14 23 16 26 16 18 6 15 15 21 7
split_gain=0.00870195 0.0312303 0.085467 0.0759457 0.145101 0.0505532 0.0691222 0.0552916 0.0474634 0.0406617 0.0430779 0.0406262 0.0708981 0.0425504
threshold=-9.7969349999999995 8.9308700000000023 -5.9424999999999999 0.00059260700000000009 -7.6733199999999995 -3.5728349999999993e-08 -8.3715749999999992e-05 -1.3562949999999999e-08 -7.9834699999999997e-07 -3.7257449999999995e-06 1.1684500000000001e-07 6.2639450000000014e-08 10.177800000000001 3.2178150000000006e-05
decision_type=2 2 2 2 2 2 2 2 2 2 2 2 2 2
left_child=1 -1 3 4 -3 9 8 -8 -7 -6 -11 12 -9 -14
right_child=-2 2 -4 -5 5 6 7 11 -10 10 -12 -13 13 -15
leaf_value=0.00015246376568938086 -9.7285578001844081e-06 0.00096458239028912173 0.00041404086536316834 0.00025030621094159172 0.0033358301385305821 -0.0053345512037049044 -0.013834591838002034 -0.014831160911126061 0.0047619088118980553 -0.0047914733567070112 0.0018386004861958068 -0.0029139687455343928 -0.0030919949611416084 -0.0099713263165995148
leaf_weight=18729 196917 175 1096 328 26 20 22 24 22 92 29 66 55 32
leaf_count=18729 196917 175 1096 328 26 20 22 24 22 92 29 66 55 32
internal_value=0 9.24753e-05 -0.000472962 -0.00156405 -0.00262107 -0.00423832 -0.00557553 -0.00674258 -4.59293e-05 -0.00204602 -0.00320245 -0.00586108 -0.00761342 -0.00562232
internal_weight=0 20716 1987 891 563 388 241 199 42 147 121 177 111 87
internal_count=217633 20716 1987 891 563 388 241 199 42 147 121 177 111 87
shrinkage=0.15


Tree=1068
num_leaves=15
num_cat=0
split_feature=4 38 4 19 26 37 3 4 4 23 20 2 6 28
split_gain=0.00861817 0.0488976 0.0978457 0.11722 0.31938 0.422566 0.496591 0.560331 0.445984 0.428598 0.364832 0.657493 0.207921 0.181898
threshold=0.13009950000000001 -0.0032950249999999996 1.5436950000000003 0.0018887850000000002 -0.00036405799999999995 -2.9818699999999997e-07 -12.914449999999997 0.7372645000000001 0.21982700000000002 -14.948949999999998 -5.6544449999999999 2.2099550000000003 9.7656900000000009e-07 0.018333850000000002
decision_type=2 2 2 2 2 2 2 2 2 2 2 2 2 2
left_child=-1 2 3 -2 5 6 7 9 -8 -5 -10 -12 -11 -6
right_child=1 -3 -4 4 13 -7 8 -9 10 12 11 -13 -14 -15
leaf_value=-2.1426749415742321e-05 -0.00035455578396398666 9.5835545899705492e-05 0.00023083062451474849 0.0085901486901483227 -0.0024593511407208107 -0.0035277173645410437 -0.0039468314582481977 0.014595677360722965 0.005541745645626049 -0.026952406350756065 0.041923885513097045 0.0063145817932672797 -0.0069942805774347938 -0.0080099549574724448
leaf_weight=143626 5642 61776 5579 21 388 218 25 33 28 24 28 20 23 202
leaf_count=143626 5642 61776 5579 21 388 218 25 33 28 24 28 20 23 202
internal_value=0 4.15831e-05 -0.000232434 -0.000620972 -0.00210921 0.00105224 0.00599496 -0.00144233 0.0134323 -0.00922549 0.0191491 0.0270867 -0.0171857 -0.00435973
internal_weight=0 74007 12231 6652 1010 420 202 101 101 68 76 48 47 590
internal_count=217633 74007 12231 6652 1010 420 202 101 101 68 76 48 47 590
shrinkage=0.15


Tree=1069
num_leaves=15
num_cat=0
split_feature=34 14 3 23 37 15 3 11 20 3 23 3 0 36
split_gain=0.00839171 0.0778251 0.203022 0.437185 0.264822 0.715337 1.00724 1.2687 1.25636 0.830215 0.503776 0.796477 0.55725 0.503583
threshold=0.037557050000000008 0.00070374100000000013 -6.8865649999999992 -6.6695199999999994 1.1260450000000002e-07 -3.0041299999999994e-08 -9.3441199999999984 2.3517950000000001e-05 4.9104300000000007 -10.446599999999998 -9.3974499999999974 -8.619629999999999 4.1687100000000008 0.00040694050000000007
decision_type=2 2 2 2 2 2 2 2 2 2 2 2 2 2
left_child=1 2 3 4 -1 -6 7 -7 -9 13 12 -12 -8 -10
right_child=-2 -3 -4 -5 5 6 10 8 9 -11 11 -13 -14 -15
leaf_value=-0.00098512873025983095 2.6852929677836616e-05 0.00010041008534154385 0.00010328177198353655 0.00084191555260574235 -0.0034858554183873 -0.00087315143474760192 0.0032495424714490619 -0.005544298814816607 0.030361349688610061 0.046567764107224546 0.036729527846910061 0.00075349218056847654 -0.010590564705563662 0.00046762169471808838
leaf_weight=16382 118851 49548 27647 4305 363 84 147 27 32 43 20 45 118 21
leaf_count=16382 118851 49548 27647 4305 363 84 147 27 32 43 20 45 118 21
internal_value=0 -3.23085e-05 -0.000165874 -0.000510587 -0.0008475 0.00165765 0.00513454 0.013337 0.0230415 0.0310812 -1.06248e-05 0.011823 -0.00291322 0.0185167
internal_weight=0 98782 49234 21587 17282 900 537 207 123 96 330 65 265 53
internal_count=217633 98782 49234 21587 17282 900 537 207 123 96 330 65 265 53
shrinkage=0.15


Tree=1070
num_leaves=15
num_cat=0
split_feature=5 31 8 10 22 21 10 31 1 23 21 14 14 39
split_gain=0.00878852 0.0516991 0.0481554 0.0835777 0.125314 0.0585736 0.0745078 0.0682344 0.0767903 0.0615583 0.0699315 0.0605435 0.142542 0.122983
threshold=8.942730000000002e-06 -28.391649999999995 -8.7606299999999992e-06 9.5245350000000008e-06 0.93967600000000007 9.5596900000000016 1.2120050000000001e-05 -8.8280199999999969 7.5509800000000009 -6.4159099999999993 -6.9320449999999996 7.8716300000000004e-05 3.2574200000000011e-05 3.5244400000000003e-06
decision_type=2 2 2 2 2 2 2 2 2 2 2 2 2 2
left_child=1 -1 3 4 -3 9 -7 -8 -9 -4 -11 12 -12 -14
right_child=-2 2 5 -5 -6 6 7 8 -10 10 11 -13 13 -15
leaf_value=-0.0041490780879485101 -8.5855680488766712e-06 -0.00080155811173892471 0.00015739321919404657 -0.00047437616709061385 -0.013559131636138774 -0.00077066566317188082 0.0089228827538317991 0.0014193868798933857 0.010826351786818122 0.00043806097763713888 0.0025831038492469811 -0.0013833036828324625 -0.014533883070277913 -0.0028433658974245189
leaf_weight=64 201302 41 13819 303 30 324 30 822 20 368 36 393 41 40
leaf_count=64 201302 41 13819 303 30 324 30 822 20 368 36 393 41 40
internal_value=0 0.000105829 0.000122569 -0.00155982 -0.00619208 0.00016216 0.00117162 0.00189329 0.00164283 8.00131e-05 -0.00113789 -0.00227504 -0.00527036 -0.00876079
internal_weight=0 16331 16267 374 71 15893 1196 872 842 14697 878 510 117 81
internal_count=217633 16331 16267 374 71 15893 1196 872 842 14697 878 510 117 81
shrinkage=0.15


Tree=1071
num_leaves=15
num_cat=0
split_feature=12 21 7 13 1 2 22 33 20 19 19 1 21 22
split_gain=0.00889981 0.12896 0.2051 0.253489 0.215075 0.242852 0.472511 1.34958 0.58144 0.53555 0.376752 0.343092 0.542194 0.622952
threshold=-4.2234949999999994e-05 -3.5985549999999997 5.2015850000000008e-05 7.2294550000000021e-05 -3.4741849999999999 -2.1781349999999997 -2.1604749999999995 -2.1731449999999998e-06 -7.9667699999999995 7.0604550000000007e-06 1.1641400000000003e-06 -4.2723299999999993 -4.256924999999999 -2.4007899999999993
decision_type=2 2 2 2 2 2 2 2 2 2 2 2 2 2
left_child=1 2 3 4 5 6 8 -8 10 11 -1 -10 13 -13
right_child=-2 -3 -4 -5 -6 -7 7 -9 9 -11 -12 12 -14 -15
leaf_value=-0.01468510187824244 2.3161340791613259e-05 9.9086951195838599e-05 0.00024925544604497638 0.00024192260220472147 0.00080391657976193714 -0.0009290268867500678 -0.014337316544413507 -0.0015526529250379393 0.0090986504118185946 -0.012196940158610231 0.0044314716226140525 0.0044653849303722378 0.012961485050618648 -0.032973125777207311
leaf_weight=73 137479 52310 9861 5541 1358 9683 252 707 227 40 34 20 28 20
leaf_count=73 137479 52310 9861 5541 1358 9683 252 707 227 40 34 20 28 20
internal_value=0 -3.9726e-05 -0.000300511 -0.000601977 -0.000977804 -0.0011961 -0.00304196 -0.00491213 0.0010157 0.0040904 -0.00861068 0.00629885 -0.00304755 -0.0142539
internal_weight=0 80154 27844 17983 12442 11084 1401 959 442 335 107 295 68 40
internal_count=217633 80154 27844 17983 12442 11084 1401 959 442 335 107 295 68 40
shrinkage=0.15


Tree=1072
num_leaves=15
num_cat=0
split_feature=5 23 14 5 3 23 12 3 3 31 21 21 14 35
split_gain=0.00902234 0.038141 0.0464765 0.0782788 0.142135 0.175504 0.110432 0.0965049 0.120071 0.211215 0.2513 0.0641581 0.0607977 0.185986
threshold=1.7536450000000004e-05 -6.6695199999999994 8.7942550000000017e-05 2.0000100000000002e-05 -6.1122599999999991 -6.4717399999999996 -3.825409999999999e-05 -6.2768299999999995 -5.8564649999999991 0.015478200000000001 6.7472850000000006 -5.2804599999999988 0.00015620650000000002 0.00051747000000000013
decision_type=2 2 2 2 2 2 2 2 2 2 2 2 2 2
left_child=-1 -2 3 6 5 -5 -3 -8 9 10 -9 -7 13 -4
right_child=1 2 12 4 -6 11 7 8 -10 -11 -12 -13 -14 -15
leaf_value=2.5082753884622472e-05 3.8014272736244736e-07 -0.010663081220133919 -0.00038414321204186604 -0.0028520248110660094 0.00056876650643005789 0.019835110976127907 0.0072592716081999239 -0.021165733383968471 0.00033203618590050605 0.0037859986789408138 -0.0010176343254547995 0.0078203011439472898 -0.0002648590130166567 -0.0043411713650158635
leaf_weight=129970 76617 28 1141 22 1391 20 30 30 200 30 26 20 7759 349
leaf_count=129970 76617 28 1141 22 1391 20 30 30 200 30 26 20 7759 349
internal_value=0 -3.71879e-05 -0.000297767 0.000400271 0.000881981 0.00790909 -0.00163439 -0.000834383 -0.00168337 -0.00637036 -0.0118113 0.0138277 -0.000433389 -0.00131099
internal_weight=0 87663 11046 1797 1453 62 344 316 286 86 56 40 9249 1490
internal_count=217633 87663 11046 1797 1453 62 344 316 286 86 56 40 9249 1490
shrinkage=0.15


Tree=1073
num_leaves=15
num_cat=0
split_feature=12 32 5 28 7 32 1 3 32 14 25 32 3 23
split_gain=0.00829531 0.0413589 0.117263 0.0277289 0.0269959 0.10471 0.0231767 0.0337203 0.0197832 0.0169229 0.0147619 0.0145627 0.027468 0.0139504
threshold=-0.00065264199999999983 20.819650000000006 2.0445300000000002e-05 -0.48753549999999996 5.2375150000000003e-05 3.6943000000000006 -3.8549749999999996 -15.289449999999997 0.29633800000000005 0.04633265000000001 23.183300000000006 2.2285250000000003 -14.701899999999998 -7.162399999999999
decision_type=2 2 2 2 2 2 2 2 2 2 2 2 2 2
left_child=1 3 -3 6 5 8 7 -1 13 -10 -9 -6 -13 -5
right_child=-2 2 -4 4 11 -7 -8 10 9 -11 -12 12 -14 -15
leaf_value=-0.0083934504002251692 6.829924196123182e-06 0.012810766124166548 -0.0034324652346549552 0.0003684837763577369 -0.00027837497261256109 0.0085888683875303042 0.0022371266788104548 -0.0053364005872572305 -0.0039742074918876821 -0.00057558320982711365 -0.00058894853368006547 -0.0063776007994310923 -0.00076397748008665597 -0.0003025954623220389
leaf_weight=23 206406 20 20 3010 6575 33 20 20 36 391 56 25 91 907
leaf_count=23 206406 20 20 3010 6575 33 20 20 36 391 56 25 91 907
internal_value=0 -0.000125567 0.00468915 -0.000142782 -0.000118295 0.000171348 -0.0024203 -0.0033612 0.000107403 -0.000862118 -0.00183828 -0.000307768 -0.00197381 0.000213092
internal_weight=0 11227 40 11187 11068 4377 119 99 4344 427 76 6691 116 3917
internal_count=217633 11227 40 11187 11068 4377 119 99 4344 427 76 6691 116 3917
shrinkage=0.15


Tree=1074
num_leaves=15
num_cat=0
split_feature=20 10 2 32 7 2 6 6 33 26 34 36 4 22
split_gain=0.00812223 0.0682092 0.0604043 0.0727266 0.113727 0.0412306 0.0635984 0.100628 0.257525 0.193293 0.327306 0.0973436 0.163823 0.0899156
threshold=-8.1735049999999969 1.6765950000000002e-05 -1.4338699999999998 4.7390700000000008 2.5749450000000001e-05 -2.3232449999999996 -3.3417049999999996e-06 -4.2817399999999986e-06 -3.3530949999999994e-06 0.00012065400000000001 0.037557050000000008 -0.23492899999999997 0.25797000000000009 2.3818600000000001
decision_type=2 2 2 2 2 2 2 2 2 2 2 2 2 2
left_child=1 2 3 -1 -5 6 7 13 9 10 -9 12 -8 -3
right_child=-2 5 -4 4 -6 -7 11 8 -10 -11 -12 -13 -14 -15
leaf_value=0.0013249643841067762 -1.0699401916737825e-05 0.00043964452028812627 0.00025002987921955353 -0.00016993630619253962 0.015826490577310323 6.7390549050752187e-05 0.00050997416485009381 -0.029451894093021423 -0.00099299511859472149 0.0012437697475044323 -0.0064171081516958238 -0.00019656815389912892 0.01436890963065837 -0.0024013997671175889
leaf_weight=1182 191523 663 2488 20 20 18900 61 23 203 21 35 2063 28 403
leaf_count=1182 191523 663 2488 20 20 18900 61 23 203 21 35 2063 28 403
internal_value=0 7.84826e-05 0.000674208 0.00153784 0.00782828 -2.01845e-05 -0.000493089 -0.00130099 -0.00382075 -0.011087 -0.0155516 1.2973e-05 0.00487009 -0.000634409
internal_weight=0 26110 3710 1222 40 22400 3500 1348 282 79 58 2152 89 1066
internal_count=217633 26110 3710 1222 40 22400 3500 1348 282 79 58 2152 89 1066
shrinkage=0.15


Tree=1075
num_leaves=15
num_cat=0
split_feature=2 20 20 22 20 8 8 13 17 17 20 16 4 38
split_gain=0.00773439 0.043979 0.0337528 0.0233905 0.0976487 0.0598939 0.0762843 0.0728044 0.157827 0.0889932 0.0740146 0.0986461 0.114831 0.0873989
threshold=-2.8697349999999995 -19.608449999999998 6.7373500000000011 -2.6579249999999996 -3.3588049999999998 8.660390000000002e-06 1.0290350000000002e-05 3.4251500000000009e-05 5.657635000000001e-07 1.8882750000000001e-06 -4.3202599999999993 -2.7186649999999997e-07 0.17221800000000004 -0.00084270449999999995
decision_type=2 2 2 2 2 2 2 2 2 2 2 2 2 2
left_child=1 -1 3 4 5 7 -7 8 10 -10 11 -3 13 -13
right_child=-2 2 -4 -5 -6 6 -8 -9 9 -11 -12 12 -14 -15
leaf_value=-0.0050121963060322542 -5.4417981198958235e-06 0.0061139809359596004 -0.00049784035969318208 0.00042961794081268479 0.0073264382160933943 0.010797707171046307 0.00045486893282299309 0.0014979666923270365 -0.017058204936223443 -0.0048145015121382828 -0.0082955342392632431 -0.0059908777302611739 -0.011980998560532249 0.000162378600075499
leaf_weight=37 209861 43 1390 5520 35 21 68 167 22 34 31 62 22 320
leaf_count=37 209861 43 1390 5520 35 21 68 167 22 34 31 62 22 320
internal_value=0 0.00014694 0.000171619 0.000318277 -0.000426691 -0.000770185 0.00289531 -0.00123556 -0.00209043 -0.00962453 -0.00120777 -0.000716228 -0.00144321 -0.000836317
internal_weight=0 7772 7735 6345 825 790 89 701 534 56 478 447 404 382
internal_count=217633 7772 7735 6345 825 790 89 701 534 56 478 447 404 382
shrinkage=0.15


Tree=1076
num_leaves=15
num_cat=0
split_feature=20 10 0 5 9 22 31 25 3 9 0 22 35 1
split_gain=0.00799912 0.13153 0.105903 0.0699088 0.126224 0.263822 0.290342 0.37532 0.22693 0.200708 0.199841 0.155716 0.151348 0.166112
threshold=8.1756000000000011 2.0751600000000003e-05 8.8935650000000006 8.6293650000000017e-06 3.0168650000000001e-05 0.42875200000000008 -0.038902199999999991 0.9748730000000001 -9.0186749999999982 3.362460000000001e-05 11.755300000000002 0.61814750000000018 0.00025164450000000009 0.71710000000000007
decision_type=2 2 2 2 2 2 2 2 2 2 2 2 2 2
left_child=-1 2 -2 4 -3 6 7 9 -9 -6 -11 -7 13 -8
right_child=1 3 -4 -5 5 11 12 8 -10 10 -12 -13 -14 -15
leaf_value=-1.0792405890805134e-05 0.00065546171551729752 -0.00018561435649316782 0.010853416016122892 -3.9656176267272203e-05 -0.0013153382996097208 -0.019970016523075174 -0.022345732020524641 -0.01986874899594113 -0.001628220842471101 0.019300450213057426 0.0029233949385525193 -0.0041702729626558717 0.00038235786917578912 -0.00519472019514069
leaf_weight=190765 5994 694 23 19840 40 32 27 21 57 38 30 25 23 24
leaf_count=190765 5994 694 23 19840 40 32 27 21 57 38 30 25 23 24
internal_value=0 7.6627e-05 0.000694443 -0.000101657 -0.00131837 -0.00379829 -0.00177216 0.00138953 -0.00653913 0.00711579 0.0120753 -0.0130403 -0.00971911 -0.0142747
internal_weight=0 26868 6017 20851 1011 317 260 186 78 108 68 57 74 51
internal_count=217633 26868 6017 20851 1011 317 260 186 78 108 68 57 74 51
shrinkage=0.15


Tree=1077
num_leaves=15
num_cat=0
split_feature=12 28 13 10 23 3 23 34 3 23 3 3 23 23
split_gain=0.00831331 0.109756 0.0997736 0.123282 0.138068 0.17819 0.172537 0.131985 0.118411 0.124257 0.602377 0.260942 0.249759 0.198184
threshold=-6.4754949999999982e-05 0.0020348000000000002 5.8330650000000004e-05 3.2466250000000008e-05 -8.2043399999999984 -8.2790849999999967 -17.297799999999995 0.041524050000000007 -8.244114999999999 -9.7994249999999976 -10.05805 -10.344549999999998 -11.172049999999997 -10.618199999999998
decision_type=2 2 2 2 2 2 2 2 2 2 2 2 2 2
left_child=1 -1 3 4 6 -6 -3 -7 9 11 -11 13 -13 -8
right_child=-2 2 -4 -5 5 7 8 -9 -10 10 -12 12 -14 -15
leaf_value=-0.0002132293614895198 1.9065806320889683e-05 0.0024396515489531669 -0.00014270311174534721 -5.1840627888022952e-05 0.0021937455639598601 0.00080127003863268687 -0.0026355264092486354 -0.0037579685671048674 0.0014590890710803274 0.0029814576145577509 -0.0044823036288995591 0.0031232723861331496 -0.002579121325485646 0.0014160187977791364
leaf_weight=37163 152946 774 12007 6700 2464 488 1515 202 1029 875 337 550 252 331
leaf_count=37163 152946 774 12007 6700 2464 488 1515 202 1029 875 337 550 252 331
internal_value=0 -4.50792e-05 0.000181958 0.000433179 0.000801743 0.00159711 0.000358763 -0.000533464 2.93276e-05 -0.000351819 0.000906138 -0.00092759 0.0013315 -0.00190906
internal_weight=0 64687 27524 15517 8817 3154 5663 690 4889 3860 1212 2648 802 1846
internal_count=217633 64687 27524 15517 8817 3154 5663 690 4889 3860 1212 2648 802 1846
shrinkage=0.15


Tree=1078
num_leaves=15
num_cat=0
split_feature=26 14 14 19 19 34 11 11 11 6 11 26 30 25
split_gain=0.00758175 0.0321147 0.0609893 0.0570239 0.0772039 0.0763013 0.11132 0.203893 0.161754 0.103704 0.0887945 0.143369 0.125188 0.0555404
threshold=-0.0022306899999999996 0.0038047950000000006 0.0024330400000000005 0.00094200300000000007 6.1393400000000009e-06 1.2883350000000002 0.00010781500000000002 4.6435250000000009e-05 0.00013807150000000001 1.2639750000000003e-06 -6.2747399999999975e-05 -0.0048464599999999995 0.023990800000000003 23.183300000000006
decision_type=2 2 2 2 2 2 2 2 2 2 2 2 2 2
left_child=1 2 -1 4 -3 -6 7 10 -8 -10 12 -12 -7 -4
right_child=-2 3 13 -5 5 6 8 -9 9 -11 11 -13 -14 -15
leaf_value=0.00020594099610305635 -5.427963716083307e-06 0.0030064816059374214 0.00053962315753839599 8.1571734426700372e-05 -0.00028461072656067992 -0.016722245795377108 0.012113893437864525 -0.016251597792143 -0.01188008091878146 0.0026113134250044822 -0.0043065511987254654 0.0096674367046944102 -0.0034642731920831791 0.0040638675134767174
leaf_weight=4989 209749 70 225 1937 222 22 21 35 20 25 53 24 59 182
leaf_count=4989 209749 70 225 1937 222 22 21 35 20 25 53 24 59 182
internal_value=0 0.000144408 0.000349978 -0.000301434 -0.00164786 -0.00232521 -0.0040743 -0.00589283 0.00124353 -0.00382931 -0.00359817 4.89775e-05 -0.0070652 0.00211558
internal_weight=0 7884 5396 2488 551 481 259 193 66 45 158 77 81 407
internal_count=217633 7884 5396 2488 551 481 259 193 66 45 158 77 81 407
shrinkage=0.15


Tree=1079
num_leaves=15
num_cat=0
split_feature=21 1 7 22 2 22 2 5 2 14 3 22 13 33
split_gain=0.00860333 0.126962 0.248047 0.180084 0.927658 0.77041 1.53526 1.01083 0.828833 0.735799 0.84148 0.661505 0.647812 0.531931
threshold=-2.8596399999999997 -3.7212499999999995 5.2682300000000009e-05 -1.0853349999999997 -1.0844649999999998 -0.54786299999999988 -0.55996749999999984 1.4763950000000001e-05 -0.5859764999999999 0.004267840000000001 -6.493739999999999 -0.36388649999999995 -1.9371999999999994e-06 4.3468250000000009e-05
decision_type=2 2 2 2 2 2 2 2 2 2 2 2 2 2
left_child=1 3 -3 -1 12 6 7 9 -7 10 13 -10 -5 -6
right_child=-2 2 -4 4 5 8 -8 -9 11 -11 -12 -13 -14 -15
leaf_value=-0.00044725757198601227 -2.2886431619370328e-05 0.00043016779456113554 -0.00027669229707331916 -0.0036091496940939072 0.016546167325742916 -0.0039620161178849228 -0.0040420563963954985 0.002675478085581902 0.010453477016826451 -0.00048282529370453626 0.0012901453954191988 -0.002505216879052891 6.2656895706655606e-05 0.0032895685717812735
leaf_weight=21094 136972 32585 16996 1350 458 688 424 934 207 128 134 155 5428 80
leaf_count=21094 136972 32585 16996 1350 458 688 424 934 207 128 134 155 5428 80
internal_value=0 3.88639e-05 0.000187861 -0.000198827 0.000325946 0.00242741 0.00404887 0.00602727 -0.000905053 0.00994048 0.0119259 0.00490486 -0.000668671 0.0145749
internal_weight=0 80661 49581 31080 9986 3208 2158 1734 1050 800 672 362 6778 538
internal_count=217633 80661 49581 31080 9986 3208 2158 1734 1050 800 672 362 6778 538
shrinkage=0.15


Tree=1080
num_leaves=15
num_cat=0
split_feature=1 20 21 11 12 17 10 20 23 1 21 3 21 13
split_gain=0.013955 0.0300875 0.068966 0.271501 0.290397 0.118291 0.0441332 0.0408727 0.0402658 0.0786466 0.129506 0.16559 0.100978 0.103241
threshold=-9.7969349999999995 -5.9130249999999984 -10.551199999999998 -6.6194499999999989e-06 -7.379629999999999e-05 -1.1483649999999998e-07 1.3168550000000003e-05 2.7610150000000004 -6.2458949999999991 -12.450199999999999 -11.751949999999999 -5.9751649999999996 -12.050999999999998 2.5301900000000005e-06
decision_type=2 2 2 2 2 2 2 2 2 2 2 2 2 2
left_child=1 2 3 4 -1 -5 -4 8 -3 10 11 -10 13 -11
right_child=-2 7 6 5 -6 -7 -8 -9 9 12 -12 -13 -14 -15
leaf_value=0.0016952597480584784 -1.2319841033835609e-05 -0.00013532373335227885 0.0021486837006523271 0.01060050422209315 0.026355694101325104 -0.0019403573770647529 0.00021306467866630694 0.00027157794045243588 0.017136740391807896 -0.016546462989208522 -0.0025504437872162574 -0.00011446531054623906 -0.001579258877919006 -0.0036166802059266374
leaf_weight=22 196917 8236 285 20 21 110 3784 7898 21 24 90 31 141 33
leaf_count=22 196917 8236 285 20 21 110 3784 7898 21 24 90 31 141 33
internal_value=0 0.000117107 0.000473349 0.00340657 0.0137387 -1.09941e-05 0.000348639 2.53756e-05 -0.000201362 -0.00180105 0.000892839 0.00685237 -0.00373304 -0.0090608
internal_weight=0 20716 4242 173 43 130 4069 16474 8576 340 142 52 198 57
internal_count=217633 20716 4242 173 43 130 4069 16474 8576 340 142 52 198 57
shrinkage=0.15


Tree=1081
num_leaves=15
num_cat=0
split_feature=10 19 33 17 20 17 29 33 20 30 34 17 9 21
split_gain=0.0101886 0.0244316 0.0405865 0.0696842 0.152405 0.0614644 0.0588758 0.0565868 0.0490459 0.0526432 0.048088 0.0435169 0.0361975 0.0316309
threshold=6.1212250000000014e-05 8.4127500000000008e-10 -2.6230199999999994e-06 1.4879650000000004e-07 -5.3201199999999984 1.4879650000000004e-07 -0.0027207899999999994 3.6796100000000005e-07 5.3188500000000003 0.00021659100000000003 0.021914400000000004 2.3800350000000003e-07 -6.9945249999999986e-05 6.8347600000000011
decision_type=2 2 2 2 2 2 2 2 2 2 2 2 2 2
left_child=-1 2 3 4 -2 7 -6 -4 9 -5 -10 -11 -9 -7
right_child=1 -3 5 8 6 13 -8 12 10 11 -12 -13 -14 -15
leaf_value=-1.5158161951440153e-05 -0.017311088985297828 8.5281383256193192e-05 0.0098614124097035852 0.0076995443507753818 -0.0061057411594447322 -0.00031075139981633738 0.0033697837181389332 0.0069153126678429544 -0.0090281071720640354 0.0011699374396869908 -0.00021445036138175054 -0.0066627245753261375 -0.00014081800563380472 -0.0042606741575582415
leaf_weight=178661 20 38295 22 22 36 246 25 21 26 79 30 20 74 56
leaf_count=178661 20 38295 22 22 36 246 25 21 26 79 30 20 74 56
internal_value=0 6.94902e-05 -0.000823749 -0.00230383 -0.00594795 8.76122e-05 -0.00222233 0.00300643 -0.000636179 0.00106248 -0.00430651 -0.000412419 0.00141896 -0.00104319
internal_weight=0 38972 677 258 81 419 61 117 177 121 56 99 95 302
internal_count=217633 38972 677 258 81 419 61 117 177 121 56 99 95 302
shrinkage=0.15


Tree=1082
num_leaves=15
num_cat=0
split_feature=2 33 22 13 22 2 22 3 20 0 13 4 37 24
split_gain=0.0109552 0.0523449 0.108298 1.97289 0.994479 0.735886 0.917116 0.818875 0.85283 0.700299 0.533088 0.485864 3.52289 1.68313
threshold=-1.0844649999999998 2.1744200000000004e-06 -1.0853349999999997 -8.0373599999999975e-06 -1.4226399999999997 -1.3893749999999998 -1.3864299999999996 -6.942054999999999 0.70967200000000019 2.0075800000000004 -1.1411099999999998e-05 -0.035014599999999993 1.0937450000000002e-08 -0.10160649999999999
decision_type=2 2 2 2 2 2 2 2 2 2 2 2 2 2
left_child=1 -1 3 4 -3 6 -6 8 9 -7 -4 12 -10 -13
right_child=-2 2 10 -5 5 7 -8 -9 11 -11 -12 13 -14 -15
leaf_value=-5.7220362633976664e-05 -2.3794595822637857e-05 -0.0022081474147814112 -0.0021646935584231529 -0.00046327177605979609 0.022209577779202457 0.012041817558929324 -0.0093842923214225854 0.0013734376099772561 -0.016277026953009355 -0.023672954884490793 0.00029172571862531686 -0.00099091055308235814 0.027402329851718636 0.031471260703454559
leaf_weight=43261 145099 185 2186 4325 28 30 79 117 63 21 21926 48 122 143
leaf_count=43261 145099 185 2186 4325 28 30 79 117 63 21 21926 48 122 143
internal_value=0 4.75994e-05 0.000202507 0.000826124 0.00749674 0.0102547 -0.00111674 0.0124913 0.0155377 -0.00266427 6.90261e-05 0.0180065 0.0125277 0.0233132
internal_weight=0 72534 29273 5161 836 651 107 544 427 51 24112 376 185 191
internal_count=217633 72534 29273 5161 836 651 107 544 427 51 24112 376 185 191
shrinkage=0.15


Tree=1083
num_leaves=15
num_cat=0
split_feature=29 9 7 29 10 21 7 26 33 10 39 33 17 17
split_gain=0.0108957 0.0508395 0.0729279 0.100891 0.0999232 0.242076 0.0806855 0.120053 0.14072 0.104637 0.0920793 0.0861241 0.0756546 0.163571
threshold=0.0043857250000000009 -2.1801549999999998e-05 2.9871800000000004e-05 0.0066389100000000005 2.3800800000000001e-05 3.3103350000000007 2.9175150000000005e-05 0.00024026250000000002 9.7852150000000018e-06 2.7174550000000002e-05 0.00024770800000000008 5.7004600000000005e-06 3.4677150000000005e-06 1.3103900000000001e-06
decision_type=2 2 2 2 2 2 2 2 2 2 2 2 2 2
left_child=-1 2 3 4 5 -2 12 8 11 -9 -10 -8 13 -5
right_child=1 -3 -4 6 -6 -7 7 9 10 -11 -12 -13 -14 -15
leaf_value=-2.32785238346292e-05 -0.017550400326795435 0.00013647089350943628 -7.0785800761897472e-05 0.00012046822246979976 -0.0022990889333774837 0.0023747245399798208 -0.0019318082860263529 -0.013916657141332204 0.013121592037549073 -0.0011301475678919815 -0.00031330272431659976 -0.012563735981384525 -0.002098468507775056 0.0078905117864737154
leaf_weight=146944 34 47781 21649 472 179 23 120 36 22 24 24 20 235 70
leaf_count=146944 34 47781 21649 472 179 23 120 36 22 24 24 20 235 70
internal_value=0 4.839e-05 -0.000135327 -0.00124514 -0.00404081 -0.00951044 -0.000600198 -0.00296772 -0.00108568 -0.00880205 0.00611208 -0.00345066 0.000149365 0.00112398
internal_weight=0 70689 22908 1259 236 57 1023 246 186 60 46 140 777 542
internal_count=217633 70689 22908 1259 236 57 1023 246 186 60 46 140 777 542
shrinkage=0.15


Tree=1084
num_leaves=15
num_cat=0
split_feature=1 21 18 14 24 10 26 38 5 26 3 22 22 3
split_gain=0.0112697 0.0262485 0.158282 0.508773 0.252904 0.286041 0.21123 0.129234 0.0665688 0.0622848 0.0905321 0.0571368 0.0307343 0.0306724
threshold=-9.7969349999999995 -13.890549999999999 -6.0195449999999993e-07 0.00012958450000000001 -0.089202199999999995 1.69678e-05 -0.00031256899999999995 0.025416450000000004 1.8310350000000003e-05 7.3670150000000001e-05 -5.5698199999999991 -1.3398849999999998 -2.3549649999999995 -6.572074999999999
decision_type=2 2 2 2 2 2 2 2 2 2 2 2 2 2
left_child=1 2 3 -1 9 -6 7 -5 -7 10 11 -4 -3 -14
right_child=-2 12 4 6 5 8 -8 -9 -10 -11 -12 -13 13 -15
leaf_value=0.027680206219665705 -1.1071249799307752e-05 0.0005810573049555369 -0.016320137473909806 -0.0012309212528634815 0.020752123145731664 -0.0060279139415006684 -0.0068936564445903062 0.014220084775046542 0.0048631088585742478 -7.574661193709624e-05 -0.0021099083335138855 -0.0057421893824357532 0.00036020590016085243 -9.5546878399046422e-05
leaf_weight=20 196917 2466 27 21 21 23 40 29 28 38 40 20 4403 13540
leaf_count=20 196917 2466 27 21 21 23 40 29 28 38 40 20 4403 13540
internal_value=0 0.000105238 0.00148192 0.00603992 -0.00106316 0.00601833 0.00123097 0.00773066 -4.85289e-05 -0.0051421 -0.00735499 -0.0118189 8.45298e-05 1.62895e-05
internal_weight=0 20716 307 110 197 72 90 50 51 125 87 47 20409 17943
internal_count=217633 20716 307 110 197 72 90 50 51 125 87 47 20409 17943
shrinkage=0.15


Tree=1085
num_leaves=15
num_cat=0
split_feature=33 10 7 39 7 39 12 11 18 4 12 17 21 11
split_gain=0.00913097 0.0475305 0.0955254 0.0736805 0.0655321 0.17412 0.0768872 0.113215 0.106707 0.0783492 0.0697118 0.0915757 0.0904762 0.206952
threshold=-1.7962349999999996e-05 8.362345000000001e-06 2.0288750000000001e-05 0.00010073550000000001 2.5052550000000005e-05 6.7495250000000012e-06 0.00021516000000000002 3.1225300000000007e-05 8.8556600000000012e-05 0.85613250000000007 -3.7106949999999992e-05 1.6631600000000001e-08 4.973135000000001 1.0705000000000002e-05
decision_type=2 2 2 2 2 2 2 2 2 2 2 2 2 2
left_child=1 2 3 -1 5 -3 8 -8 10 -10 11 -7 -12 -14
right_child=-2 4 -4 -5 -6 6 7 -9 9 -11 12 -13 13 -15
leaf_value=-0.0060357598867267371 -1.3438614568825977e-05 0.01309369906084612 -0.0075721752105958086 0.0028304583831746818 2.9824621748069094e-05 -0.0009444742263988163 0.0018252227270662137 0.014147561644684807 -0.0097830656091294557 -0.0011290154326535926 -0.00047783263564627366 0.0031515892762968177 0.00026284377219722485 0.010394067739252931
leaf_weight=30 182684 26 55 71 32696 166 62 23 36 68 998 472 186 60
leaf_count=30 182684 26 55 71 32696 166 62 23 36 68 998 472 186 60
internal_value=0 7.02458e-05 -0.00254218 0.000196928 8.1959e-05 0.000894828 0.000741679 0.0051595 0.000552598 -0.00412465 0.000811065 0.00208584 0.00015728 0.00273387
internal_weight=0 34949 156 101 34793 2097 2071 85 1986 104 1882 638 1244 246
internal_count=217633 34949 156 101 34793 2097 2071 85 1986 104 1882 638 1244 246
shrinkage=0.15


Tree=1086
num_leaves=15
num_cat=0
split_feature=9 37 4 16 37 4 34 29 25 5 37 26 3 21
split_gain=0.00881169 0.0225328 0.0347137 0.0480233 0.0187698 0.0542862 0.0168828 0.0351674 0.0688708 0.0349882 0.0271293 0.0929924 0.120722 0.0236977
threshold=8.7563350000000013e-05 4.8310200000000011e-05 -0.15273349999999999 -8.6475249999999982e-06 2.3922400000000003e-05 0.18414250000000001 0.010841250000000002 -0.0061838599999999994 0.46489000000000008 7.0268600000000014e-05 2.3615050000000003e-08 6.0042750000000011e-05 -6.0822949999999993 -8.8025949999999984
decision_type=2 2 2 2 2 2 2 2 2 2 2 2 2 2
left_child=-1 4 3 -3 6 -6 7 8 -2 -10 -9 13 -13 -12
right_child=1 2 -4 -5 5 -7 -8 10 9 -11 11 12 -14 -15
leaf_value=-6.3612931978677024e-06 0.0085159059759462256 -0.00061370896466542038 -0.00013220427929574666 -0.0095153080020099878 -0.0006309941293249383 0.00805140335575673 4.4607459140892767e-05 0.00016718021835876443 -0.004928043243198771 0.0029366993471714002 0.005278342477166526 0.014987166380044072 0.00087362684935214923 7.5383069614395326e-06
leaf_weight=208377 36 30 124 25 43 26 6926 1692 20 35 21 25 30 223
leaf_count=208377 36 30 124 25 43 26 6926 1692 20 35 21 25 30 223
internal_value=0 0.000143209 -0.00152339 -0.00465989 0.000176075 0.00264063 0.000157197 0.000531738 0.00341534 7.6793e-05 0.000399941 0.0017171 0.00728887 0.000461173
internal_weight=0 9256 179 55 9077 69 9008 2082 91 55 1991 299 55 244
internal_count=217633 9256 179 55 9077 69 9008 2082 91 55 1991 299 55 244
shrinkage=0.15


Tree=1087
num_leaves=15
num_cat=0
split_feature=2 31 17 30 12 11 31 34 38 39 30 16 14 39
split_gain=0.00865881 0.0459385 0.123599 0.110816 0.120932 0.0924687 0.0911317 0.0929674 0.261007 0.0909568 0.0862712 0.302008 0.135289 0.0836863
threshold=2.7568000000000006 2.3083350000000005 1.7286400000000003e-06 0.011010900000000002 0.00014639600000000003 -0.00028846549999999991 0.19688900000000001 0.047578050000000004 -0.0012166849999999997 4.072445000000001e-05 0.00079871150000000008 -5.7037449999999999e-06 0.00020775150000000003 0.0014976000000000002
decision_type=2 2 2 2 2 2 2 2 2 2 2 2 2 2
left_child=-1 6 -3 -4 5 -5 -2 8 -8 -9 11 -11 -13 -12
right_child=1 2 3 4 -6 -7 7 9 -10 10 13 12 -14 -15
leaf_value=-7.1579896946442084e-06 0.00023198416282008214 -0.0015474866174455116 0.010931415745513871 -0.0057228362647111751 0.011268519335426389 0.0024990885563339793 -0.0192621682431111 0.0085668113113016534 0.0016866691268660361 -0.017782488566590472 7.1576340454176848e-05 -0.0055050558499715402 0.0078203853103696007 -0.0026610144477074932
leaf_weight=205851 9808 176 39 37 30 183 23 23 32 30 993 40 30 338
leaf_count=205851 9808 176 39 37 30 183 23 23 32 30 993 40 30 338
internal_value=0 0.000125062 0.00158626 0.0034947 0.00233458 0.00111631 6.50232e-05 -0.00102017 -0.00707375 -0.00079118 -0.000941588 -0.00519065 0.000205848 -0.00062235
internal_weight=0 11782 465 289 250 220 11317 1509 55 1454 1431 100 70 1331
internal_count=217633 11782 465 289 250 220 11317 1509 55 1454 1431 100 70 1331
shrinkage=0.15


Tree=1088
num_leaves=15
num_cat=0
split_feature=1 23 15 21 35 17 36 17 1 23 8 23 23 17
split_gain=0.00855074 0.0329885 0.0742626 0.105832 0.364288 0.387792 0.33753 0.258415 0.338822 0.255969 0.179635 0.138337 0.128745 0.199809
threshold=-10.060549999999997 -7.1436399999999987 5.5844800000000004e-08 -9.3854649999999982 0.0004520525000000001 6.0555850000000007e-09 0.00038891000000000007 5.480555000000001e-08 -11.856549999999999 -6.4487099999999993 3.1513400000000002e-05 -6.4887299999999994 -6.3408649999999991 1.3942150000000003e-07
decision_type=2 2 2 2 2 2 2 2 2 2 2 2 2 2
left_child=1 -1 -3 4 6 -6 7 -4 12 -10 11 -8 -9 -14
right_child=-2 2 3 -5 5 -7 10 8 9 -11 -12 -13 13 -15
leaf_value=0.00020220101843311492 -9.1890095006393733e-06 -0.00089190464186647751 -0.0046174014171363031 -0.0002636494700925522 0.022016092139976816 0.0029253344306198414 -0.0038038306830068384 -0.0025125652572603918 0.021366012498037889 0.004675655358900817 0.0016687410147694338 -0.014777748384221922 0.01735544347649683 -0.0024165302155660872
leaf_weight=14741 198658 2148 67 1550 39 62 56 79 44 39 56 48 23 23
leaf_count=14741 198658 2148 67 1550 39 62 56 79 44 39 56 48 23 23
internal_value=0 9.6204e-05 -0.000272833 0.000364639 0.00218152 0.010297 0.000297229 0.00348433 0.00609403 0.0135236 -0.00518061 -0.00886872 0.00116082 0.00746946
internal_weight=0 18975 4234 2086 536 101 435 275 208 83 160 104 125 46
internal_count=217633 18975 4234 2086 536 101 435 275 208 83 160 104 125 46
shrinkage=0.15


Tree=1089
num_leaves=15
num_cat=0
split_feature=17 37 19 19 39 33 13 2 20 7 25 2 39 14
split_gain=0.00839023 0.152743 0.400035 0.327994 0.351314 0.317841 0.401523 0.339558 0.65556 0.277592 0.37509 0.254256 0.235524 0.229463
threshold=2.4332650000000004e-08 -3.6888849999999999e-08 4.0426100000000008e-06 1.0038850000000003e-06 0.00028039450000000006 -2.3967349999999997e-05 4.3872650000000008e-05 0.97612800000000011 2.8588350000000005 4.9763350000000009e-05 4.1186950000000015 0.56959000000000015 2.6210150000000006e-06 0.00022740750000000003
decision_type=2 2 2 2 2 2 2 2 2 2 2 2 2 2
left_child=1 2 5 4 12 6 -1 9 -9 10 11 -8 -3 -14
right_child=-2 3 -4 -5 -6 -7 7 8 -10 -11 -12 -13 13 -15
leaf_value=-0.003020840551018845 -1.7914617933693629e-05 -0.00028721592435166401 -5.9307193620494908e-05 7.3245037094403132e-05 0.00079772786530567838 0.0015169827807928506 0.011247590693334737 0.010736693112868007 -0.026395678776316343 -0.0028045472685548968 -0.0037363968526377628 0.029453124731246911 -0.00098281157961805721 -0.0035251235751740584
leaf_weight=726 158858 1651 20122 23944 1615 7243 45 23 20 34 23 28 1355 1946
leaf_count=726 158858 1651 20122 23944 1615 7243 45 23 20 34 23 28 1355 1946
internal_value=0 4.84199e-05 0.000299659 -0.000184317 -0.00112341 0.0011868 -0.00147337 0.00502062 -0.00653418 0.00884259 0.0129676 0.0182305 -0.00174996 -0.00248155
internal_weight=0 58775 28264 30511 6567 8142 899 173 43 130 96 73 4952 3301
internal_count=217633 58775 28264 30511 6567 8142 899 173 43 130 96 73 4952 3301
shrinkage=0.15


Tree=1090
num_leaves=15
num_cat=0
split_feature=33 13 3 3 23 23 3 4 14 3 23 30 30 22
split_gain=0.00831277 0.0618189 0.082916 0.139091 0.137331 0.179952 0.174776 0.127474 0.0991067 0.0944813 0.161056 0.0954776 0.0888448 0.0906178
threshold=-1.7962349999999996e-05 -1.5427449999999997e-05 -5.9751649999999996 -12.581749999999998 -12.104349999999998 -17.896049999999999 -17.495099999999997 0.26861600000000002 0.0069509900000000006 -17.304849999999998 -16.670499999999997 0.011010900000000002 0.00060826400000000018 1.9654450000000001
decision_type=2 2 2 2 2 2 2 2 2 2 2 2 2 2
left_child=1 2 3 4 5 6 8 -6 -1 10 -7 -11 -5 -14
right_child=-2 -3 -4 12 7 9 -8 -9 -10 11 -12 -13 13 -15
leaf_value=-0.014312771913994635 -1.2822387443932999e-05 -3.2430763586927201e-05 -0.00063180597786428384 0.0027796817479266698 0.0026767064778959048 -0.0095153437616924443 0.0032284095177134795 -0.002417268607428948 -0.00068100618019733313 -0.0040120616103132339 0.0033069628738667234 0.00075395406457951983 0.00069795551899804441 0.0042450297796708661
leaf_weight=21 182684 27992 1264 670 455 27 265 146 28 580 120 113 3097 171
leaf_count=21 182684 27992 1264 670 455 27 265 146 28 580 120 113 3097 171
internal_value=0 6.70247e-05 0.000467191 0.000711198 -0.000399433 -0.00135701 0.00170666 0.00143923 -0.00652319 -0.00250224 0.000951845 -0.00323492 0.00120616 0.000883558
internal_weight=0 34949 6957 5693 1755 1154 314 601 49 840 147 693 3938 3268
internal_count=217633 34949 6957 5693 1755 1154 314 601 49 840 147 693 3938 3268
shrinkage=0.15


Tree=1091
num_leaves=15
num_cat=0
split_feature=38 0 24 4 9 4 4 8 2 22 4 0 7 2
split_gain=0.00878029 0.0410941 0.0410954 0.0891252 0.0336024 0.0611986 0.134712 0.0325424 0.105253 0.211503 0.473183 0.0572888 0.0430994 0.0696324
threshold=-0.56962599999999985 6.3931750000000003 1.2344650000000004 0.23858300000000002 3.7514150000000011e-05 0.30999400000000005 3.7038600000000006 -9.7128299999999983e-06 2.1826250000000003 1.6050450000000003 0.12699950000000002 5.8026400000000011 3.4594900000000003e-05 -0.98252549999999983
decision_type=2 2 2 2 2 2 2 2 2 2 2 2 2 2
left_child=1 4 3 -3 7 -6 -7 8 -1 -10 -11 12 -9 -14
right_child=-2 2 -4 -5 5 6 -8 11 9 10 -12 -13 13 -15
leaf_value=-0.00050592473141703245 3.2987551632296626e-06 -0.0014957485583345558 -0.00087920294537017704 -0.01245302016209082 -0.00010822985574262789 0.016013968258921523 -0.00050243213342037049 0.00042842787489550364 9.2427425471348692e-05 0.00041311916570870938 0.026848993171937764 0.0052677325157993752 -0.00056686371876180878 -0.0037717536374821509
leaf_weight=436 215055 61 446 23 78 20 25 465 122 39 25 37 596 205
leaf_count=436 215055 61 446 23 78 20 25 465 122 39 25 37 596 205
internal_value=0 -0.00027518 -0.00145242 -0.00449595 2.9478e-05 0.00243314 0.00683819 -0.000124107 0.000768536 0.00375598 0.0107396 -0.000550219 -0.000720254 -0.00138709
internal_weight=0 2578 530 84 2048 123 45 1925 622 186 64 1303 1266 801
internal_count=217633 2578 530 84 2048 123 45 1925 622 186 64 1303 1266 801
shrinkage=0.15


Tree=1092
num_leaves=15
num_cat=0
split_feature=13 33 7 33 23 14 7 3 14 33 3 27 3 19
split_gain=0.00892872 0.33743 0.239549 0.226081 0.55861 0.309 0.267159 0.236801 0.708526 0.618008 1.04697 0.95675 0.645975 0.611467
threshold=-2.1361299999999998e-05 1.5906100000000001e-06 5.2015850000000008e-05 9.7852150000000018e-06 -9.7994249999999976 0.0036607600000000003 4.593640000000001e-05 -9.6612599999999969 0.0010945700000000002 5.3687500000000009e-06 -8.0001399999999983 0.61975350000000018 -8.6591799999999974 0.00090418950000000018
decision_type=2 2 2 2 2 2 2 2 2 2 2 2 2 2
left_child=1 -1 3 4 5 6 -3 8 -6 -9 11 12 13 -11
right_child=-2 2 -4 -5 7 -7 -8 9 -10 10 -12 -13 -14 -15
leaf_value=0.00036227483695316725 1.3182798084111174e-05 -0.0086645695485501727 -3.4665986791411761e-05 -0.00047721461327204394 -0.0064249073084030623 -1.7629408391477572e-06 -0.00078934834119706913 -0.0019349446958806242 7.7350635502114741e-05 0.043870775485769488 -0.0088124835633098583 -0.0010228161907500841 0.0041191215833855993 0.015386231481097638
leaf_weight=18651 183152 504 8459 4173 539 174 120 396 1255 39 59 55 27 30
leaf_count=18651 183152 504 8459 4173 539 174 120 396 1255 39 59 55 27 30
internal_value=0 -7.00228e-05 -0.000579358 -0.00120445 -0.0021534 -0.00559144 -0.0071501 -0.00101026 -0.00187623 0.00155336 0.0081313 0.0147517 0.0237892 0.0314862
internal_weight=0 34481 15830 7371 3198 798 624 2400 1794 606 210 151 96 69
internal_count=217633 34481 15830 7371 3198 798 624 2400 1794 606 210 151 96 69
shrinkage=0.15


Tree=1093
num_leaves=15
num_cat=0
split_feature=0 31 20 14 22 20 26 14 11 18 24 20 0 33
split_gain=0.00813644 0.0443552 0.0320015 0.142257 0.0234178 0.0241625 0.0205086 0.0501678 0.0536345 0.0394262 0.0699536 0.0657787 0.0473152 0.0231235
threshold=11.559500000000002 0.036870000000000007 19.256550000000001 7.3868200000000019e-05 -2.9625949999999994 8.7622100000000014 -0.00038688449999999994 0.00015620650000000002 4.3390300000000004e-05 2.1088550000000005e-06 0.55006150000000009 11.056200000000002 12.687350000000002 1.9383450000000008e-06
decision_type=2 2 2 2 2 2 2 2 2 2 2 2 2 2
left_child=-1 2 6 -4 -3 -6 7 9 -9 11 -11 -2 -13 -8
right_child=1 4 3 -5 5 -7 13 8 -10 10 -12 12 -14 -15
leaf_value=-6.6706230577710526e-06 0.00050633206964071362 -0.0016366143045800797 -0.0048320127758779557 0.012465501054311575 -0.00016144936416665709 -0.005390643002319848 0.00061528669929685734 -0.0092007126526108818 -0.0014329075047446946 0.010872272773704027 -0.0016734642296796665 -0.010682891315913627 -0.0017684262930226788 4.913182005470743e-05
leaf_weight=206699 311 273 20 23 3362 20 3995 28 70 20 20 21 37 2734
leaf_count=206699 311 273 20 23 3362 20 3995 28 70 20 20 21 37 2734
internal_value=0 0.000126103 0.000340186 0.00442015 -0.000300247 -0.000192373 0.000315941 -0.000604044 -0.00365228 0.00012634 0.0045994 -0.000358545 -0.00499608 0.000385257
internal_weight=0 10934 7279 43 3655 3382 7236 507 98 409 40 369 58 6729
internal_count=217633 10934 7279 43 3655 3382 7236 507 98 409 40 369 58 6729
shrinkage=0.15


Tree=1094
num_leaves=15
num_cat=0
split_feature=20 11 20 0 0 23 14 3 23 3 3 19 34 14
split_gain=0.00807975 0.0850771 0.136942 0.158021 0.317727 0.472695 0.770676 1.18033 0.872307 0.905504 0.491815 0.463402 0.435863 0.722041
threshold=0.27425600000000006 1.1110650000000002e-05 3.6148850000000006 -4.7317399999999994 0.44621550000000004 -10.108199999999998 0.00019135550000000002 -10.288849999999998 -7.3218799999999993 -7.2233449999999992 -7.2233449999999992 0.00019063950000000002 0.016053850000000005 0.0004987975000000001
decision_type=2 2 2 2 2 2 2 2 2 2 2 2 2 2
left_child=-1 2 3 -2 -5 -6 -7 -8 9 11 -10 12 13 -9
right_child=1 -3 -4 4 5 6 7 8 10 -11 -12 -13 -14 -15
leaf_value=2.8854089545894983e-05 0.00021594309218896901 -0.00018852632255333875 0.00023305944828126381 -0.0011719997108778875 -0.0010446093282411595 0.00018362524488531651 -0.01229280434573801 0.01997708035839511 -0.0074310929451723278 -0.0031262680231959857 0.0097546028006307555 -0.0019328360926592722 0.025919276789830869 -0.0061451732206478484
leaf_weight=108997 9495 44429 43417 7573 2004 1174 63 93 85 58 67 25 121 32
leaf_count=108997 9495 44429 43417 7573 2004 1174 63 93 85 58 67 25 121 32
internal_value=0 -2.895e-05 8.14713e-05 -0.000235099 -0.000614263 0.000520542 0.00234625 0.00701338 0.00954205 0.0138839 0.000144181 0.0175245 0.0195019 0.0132898
internal_weight=0 108636 64207 20790 11295 3722 1718 544 481 329 152 271 246 125
internal_count=217633 108636 64207 20790 11295 3722 1718 544 481 329 152 271 246 125
shrinkage=0.15


Tree=1095
num_leaves=15
num_cat=0
split_feature=23 12 21 19 12 19 1 1 12 33 35 6 10 29
split_gain=0.0106212 0.0551266 0.14415 0.465286 0.204648 0.167477 0.380322 0.650349 0.810449 0.256094 0.206757 0.153062 0.149915 0.145512
threshold=-12.104349999999998 -8.6358149999999986e-05 -6.0969499999999988 1.5867800000000003e-08 -0.00011532249999999999 0.0014480250000000001 -6.7307349999999992 -5.354544999999999 -0.00022387249999999999 -8.1221599999999988e-05 0.00088636600000000009 -3.6863499999999991e-07 1.3168550000000003e-05 -0.021160199999999997
decision_type=2 2 2 2 2 2 2 2 2 2 2 2 2 2
left_child=1 2 3 -1 5 6 -5 8 -8 -9 -10 -11 -7 -14
right_child=-2 -3 -4 4 -6 12 7 9 10 11 -12 -13 13 -15
leaf_value=0.018799287775490326 -2.1403100109644859e-05 0.00013365470469515117 -0.00029646925232617281 -0.0017957137168871538 -0.0047716038625633412 -0.011551436630543321 0.03964200415897981 0.014267625794745982 0.016089678254086592 -0.008607363262463634 -0.0035996454543367556 0.0030964979875044755 0.0043795535519306978 -0.0012030746289294111
leaf_weight=34 153568 47446 15604 140 123 24 28 30 28 41 21 65 155 326
leaf_count=34 153568 47446 15604 140 123 24 28 30 28 41 21 65 155 326
internal_value=0 5.13046e-05 -0.000183799 0.00154833 0.000950439 0.00177073 0.00427732 0.00826898 0.0192843 0.00203235 0.0076514 -0.00143047 1.8602e-05 0.000595901
internal_weight=0 64065 16619 1015 981 858 353 213 77 136 49 106 505 481
internal_count=217633 64065 16619 1015 981 858 353 213 77 136 49 106 505 481
shrinkage=0.15


Tree=1096
num_leaves=15
num_cat=0
split_feature=3 23 23 3 14 23 3 25 4 4 24 0 20 37
split_gain=0.0115208 0.0807366 0.32883 2.18457 1.69012 0.802407 1.6168 0.578458 0.494136 0.502374 0.632414 0.561858 1.13135 0.789552
threshold=-9.8624849999999977 -11.298099999999998 -9.9145799999999991 -11.101149999999999 0.0022144250000000003 -11.078849999999997 -10.973149999999999 5.3671050000000013 -0.54682199999999992 0.30999400000000005 0.20400400000000005 -6.6283299999999992 -6.7194299999999991 -6.1638299999999989e-07
decision_type=2 2 2 2 2 2 2 2 2 2 2 2 2 2
left_child=1 -1 3 -3 5 6 -5 8 -7 11 -11 -10 -13 -14
right_child=-2 2 -4 4 -6 7 -8 -9 9 10 -12 12 13 -15
leaf_value=-0.00015679892803800491 -2.6085237811693059e-05 -0.00051100599086934255 -1.6961166938604561e-05 0.030311927082948387 -0.00032118074352545503 -0.0017546440464138869 -0.0076920678145786046 -0.0023261630367583681 0.0034075772686099461 -0.0051291686091373889 0.016181081977296383 -0.0019382667843053495 -0.0018590292317458078 0.015999194217488657
leaf_weight=28407 138507 6319 41834 30 955 80 157 97 165 94 47 103 60 778
leaf_count=28407 138507 6319 41834 30 955 80 157 97 165 94 47 103 60 778
internal_value=0 4.56612e-05 0.000159056 0.000987814 0.00467879 0.00764277 -0.00159517 0.0088559 0.00967328 0.0104064 0.00197425 0.0114814 0.0128971 0.0147206
internal_weight=0 79126 50719 8885 2566 1611 187 1424 1327 1247 141 1106 941 838
internal_count=217633 79126 50719 8885 2566 1611 187 1424 1327 1247 141 1106 941 838
shrinkage=0.15


Tree=1097
num_leaves=15
num_cat=0
split_feature=3 14 29 33 33 23 3 23 14 3 23 23 3 3
split_gain=0.0124289 0.0797932 0.0721103 0.0663247 0.0808013 0.0629092 0.132372 0.340997 0.225692 0.222515 0.746959 1.26456 1.74331 1.31789
threshold=-10.729049999999999 0.00028996100000000009 -0.018510599999999999 5.3687500000000009e-06 1.5906100000000001e-06 -12.0435 -7.1641399999999988 -7.3665249999999993 0.00059260700000000009 -8.9017749999999989 -8.8482399999999988 -10.156499999999999 -10.160749999999998 -10.110599999999998
decision_type=2 2 2 2 2 2 2 2 2 2 2 2 2 2
left_child=1 2 -1 4 -4 -2 7 8 9 10 11 13 -13 -7
right_child=5 -3 3 -5 -6 6 -8 -9 -10 -11 -12 12 -14 -15
leaf_value=0.011852820832282306 0.00012739029868845208 4.6598062311323592e-05 0.0013936774514149873 -0.0035311020938131737 0.010659280117833986 0.0033977945873527753 7.7278941655110957e-05 0.00027210799462762744 -0.00017472982903601986 -0.00055160660363457522 -0.0040952695672235497 -0.0082298935782822626 0.0042152539005803668 -0.0064765002076098222
leaf_weight=20 44148 65224 72 34 30 426 55237 18150 18626 10807 1925 302 1569 1063
leaf_count=20 44148 65224 72 34 30 426 55237 18150 18626 10807 1925 302 1569 1063
internal_value=0 5.47023e-05 0.00344309 0.00220637 0.00411885 -2.34901e-05 -8.51067e-05 -0.000254769 -0.000530211 -0.00094167 -0.00173929 -0.00038951 0.00220647 -0.00365148
internal_weight=0 65380 156 136 102 152253 108105 52868 34718 16092 5285 3360 1871 1489
internal_count=217633 65380 156 136 102 152253 108105 52868 34718 16092 5285 3360 1871 1489
shrinkage=0.15


Tree=1098
num_leaves=15
num_cat=0
split_feature=1 28 21 3 12 30 18 3 23 23 16 23 3 23
split_gain=0.0102225 0.203807 0.377154 0.546691 0.618958 0.523072 0.286178 0.28925 0.395368 0.525291 0.309718 0.228856 0.373851 2.24125
threshold=7.2775700000000008 0.0021118650000000005 7.0074550000000011 -6.493739999999999 0.00017659550000000002 0.00060826400000000018 -1.2604899999999999e-05 -8.1765499999999971 -8.4609499999999986 -12.666499999999997 1.3186150000000004e-06 -10.016399999999999 -7.6157749999999993 -7.5399549999999991
decision_type=2 2 2 2 2 2 2 2 2 2 2 2 2 2
left_child=-1 -2 3 4 5 6 -3 8 9 -8 -11 -4 13 -13
right_child=1 2 11 -5 -6 -7 7 -9 -10 10 -12 12 -14 -15
leaf_value=1.519523747684781e-05 0.00024030311643451758 0.00042598027552906258 -0.0018433084540374414 6.5099497921530241e-05 0.00010159118420682045 -0.0015622621990100452 -0.0042673471477478525 -0.0045606895732016222 -0.0014623413275773134 -0.018860251768891303 -0.0013147100345612182 0.0074208949895245516 -6.3243420021273745e-06 -0.003433891000503419
leaf_weight=178611 21476 175 895 5233 1855 1808 127 971 111 175 26 962 4437 771
leaf_count=178611 21476 175 895 5233 1855 1808 127 971 111 175 26 962 4437 771
internal_value=0 -6.95515e-05 -0.000448808 -0.00101978 -0.00210156 -0.00330606 -0.00529519 -0.00600527 -0.00920045 -0.0118191 -0.0165907 0.000398238 0.000723389 0.00259167
internal_weight=0 39022 17546 10481 5248 3393 1585 1410 439 328 201 7065 6170 1733
internal_count=217633 39022 17546 10481 5248 3393 1585 1410 439 328 201 7065 6170 1733
shrinkage=0.15


Tree=1099
num_leaves=15
num_cat=0
split_feature=22 12 12 7 1 22 11 13 11 20 34 23 39 11
split_gain=0.00924584 0.169095 0.147825 0.142588 0.131732 1.07957 2.41349 1.86641 1.13003 0.844469 0.775735 0.900616 0.679501 0.607211
threshold=-0.36388649999999995 1.9714300000000002e-05 1.7246900000000003e-05 5.0336000000000007e-05 -2.1902699999999995 -0.024227699999999994 2.1913150000000006e-05 1.0000000180025095e-35 8.1264700000000008e-05 7.3339250000000016 0.016053850000000005 -13.412199999999999 0.0020182600000000005 3.1225300000000007e-05
decision_type=2 2 2 2 2 2 2 2 2 2 2 2 2 2
left_child=1 -1 4 -4 -2 6 -6 8 10 -10 -8 -12 -9 -13
right_child=2 -3 3 -5 5 -7 7 12 9 -11 11 13 -14 -15
leaf_value=-0.00020945491002695801 7.0927594387539791e-05 0.00019254802592275048 -0.00032184360596611766 0.00017234373310784037 -0.00085080862973072209 0.00012017986383359236 0.0092565839195310178 -0.00364417754524311 0.017159962854777021 -0.0035506202531226344 0.0062896898055138685 0.014729981173706403 0.016478497580689516 0.037300033313744721
leaf_weight=54206 50400 41618 37197 20309 891 12329 69 192 95 83 36 34 47 127
leaf_count=54206 50400 41618 37197 20309 891 12329 69 192 95 83 36 34 47 127
internal_value=0 -3.48582e-05 2.7422e-05 -0.000147315 0.000183689 0.000592461 0.0042918 0.0110005 0.0167535 0.00750278 0.0229438 0.0277378 0.000313001 0.0325337
internal_weight=0 95824 121809 57506 64303 13903 1574 683 444 178 266 197 239 161
internal_count=217633 95824 121809 57506 64303 13903 1574 683 444 178 266 197 239 161
shrinkage=0.15


Tree=1100
num_leaves=15
num_cat=0
split_feature=31 0 31 0 9 14 3 20 19 22 12 3 14 2
split_gain=0.0106378 0.105984 0.111299 0.362981 0.499405 0.397841 0.408871 0.423252 0.280691 0.582587 1.55798 0.650434 0.685998 0.625529
threshold=1.0000000180025095e-35 4.1070700000000011 -0.020311099999999995 0.16629750000000001 -1.2294799999999998e-05 0.00070374100000000013 -6.1381299999999994 5.8522750000000006 8.2642650000000018e-05 -1.2895399999999999 -4.8176099999999994e-05 -7.6471249999999991 0.0015765250000000003 1.4407450000000004
decision_type=2 2 2 2 2 2 2 2 2 2 2 2 2 2
left_child=1 2 -1 4 -4 6 7 -6 9 10 11 12 -5 -11
right_child=-2 -3 3 8 5 -7 -8 -9 -10 13 -12 -13 -14 -15
leaf_value=0.00015716852209884184 3.3958774226657045e-05 -0.00023715886745882472 -0.00024901630686683377 0.032001731551001562 -0.010168921345863514 -0.0012901442337489646 -0.00031812676762846026 0.00041957285573975851 -0.00035214591906218242 -0.0015379709933198075 0.00042137940808308695 0.0083886265670746352 0.0025234554165407368 0.0065042923968500303
leaf_weight=60805 106237 37649 7375 78 412 1248 224 107 1813 900 371 104 23 287
leaf_count=60805 106237 37649 7375 78 412 1248 224 107 1813 900 371 104 23 287
internal_value=0 -3.23861e-05 7.21537e-05 -0.000327269 -0.000818125 -0.0029262 -0.00567424 -0.00798594 0.000958345 0.002306 0.00622035 0.0167151 0.0252889 0.000406536
internal_weight=0 111396 73747 12942 9366 1991 743 519 3576 1763 576 205 101 1187
internal_count=217633 111396 73747 12942 9366 1991 743 519 3576 1763 576 205 101 1187
shrinkage=0.15


Tree=1101
num_leaves=15
num_cat=0
split_feature=32 1 7 13 3 21 19 20 28 30 2 8 6 1
split_gain=0.0106703 0.165523 0.215496 0.184329 0.255819 0.307955 0.320686 0.652814 0.372189 0.235612 0.200532 0.28767 0.212686 0.321515
threshold=0.023910750000000005 -3.4741849999999999 5.0699350000000001e-05 6.0257150000000006e-05 -6.6828699999999985 -3.5229999999999997 6.3072250000000013e-05 1.9046550000000002 -0.03380964999999999 0.0023321250000000004 -0.63008449999999983 1.0406150000000002e-05 6.6098000000000009e-07 -6.1608199999999984
decision_type=2 2 2 2 2 2 2 2 2 2 2 2 2 2
left_child=-1 2 3 4 5 -2 -7 9 -9 -8 12 -12 -10 -14
right_child=1 -3 -4 -5 -6 6 7 8 10 -11 11 -13 13 -15
leaf_value=2.6851635814107806e-05 -0.0016667158481770618 0.00012602272327264988 0.00023384929633183662 0.00023981101887107266 5.940600947747541e-06 0.0014977747230036783 0.0038443849731885603 0.00041146910453074054 -0.002750755706738741 -0.0015416379182465175 -0.0062112167925358957 0.014957204761449247 -0.0057178190202058559 -0.016004213848529004
leaf_weight=131612 8564 52293 11304 4939 5901 1656 405 188 92 333 52 20 131 143
leaf_count=131612 8564 52293 11304 4939 5901 1656 405 188 92 333 52 20 131 143
internal_value=0 -4.1083e-05 -0.000300169 -0.000569369 -0.000797939 -0.00120744 9.49457e-05 -0.0016082 -0.00517123 0.00141411 -0.00756746 -0.0003311 -0.008991 -0.0110863
internal_weight=0 86021 33728 22424 17485 11584 3020 1364 626 738 438 72 366 274
internal_count=217633 86021 33728 22424 17485 11584 3020 1364 626 738 438 72 366 274
shrinkage=0.15


Tree=1102
num_leaves=15
num_cat=0
split_feature=0 20 2 22 15 26 22 8 6 11 26 10 20 29
split_gain=0.00987777 0.0791563 0.0932158 0.256125 0.28834 0.293882 0.209133 0.168584 0.287603 0.0933685 0.070157 0.0583046 0.0516116 0.0667035
threshold=-10.580349999999997 -12.193649999999998 2.5749400000000002 2.5687850000000005 -4.4073849999999993e-08 -9.7794399999999993e-05 -2.3743599999999998 6.2479250000000008e-06 -5.5308399999999999e-06 -1.8165949999999995e-05 6.456065000000001e-05 4.1733450000000006e-05 -6.9911799999999991 -0.0026320249999999992
decision_type=2 2 2 2 2 2 2 2 2 2 2 2 2 2
left_child=1 2 6 -4 5 -5 7 11 9 -9 -6 -1 -3 -14
right_child=-2 12 3 4 10 -7 -8 8 -10 -11 -12 -13 13 -15
leaf_value=0.0028534260493787854 8.6124373586051492e-06 -0.0008624784461334381 -0.0012000837729240577 0.03188830218943102 -0.0045501984888687728 0.0064817859875620333 -0.0041790109210373561 0.0092849949459460641 0.021681328424025332 -0.0039924349812281434 0.0074788864178117354 -0.0079478130207027552 -0.00042093871206402828 0.00028061427751336303
leaf_weight=22 202896 2112 85 21 20 20 127 22 26 26 24 23 5917 6292
leaf_count=22 202896 2112 85 21 20 20 127 22 26 26 24 23 5917 6292
internal_value=0 -0.000118574 0.00192114 0.00462219 0.0104445 0.0194949 5.45626e-05 0.00457275 0.00897542 0.00209305 0.00201112 -0.00266721 -0.000177824 -5.93881e-05
internal_weight=0 14737 416 170 85 41 246 119 74 48 44 45 14321 12209
internal_count=217633 14737 416 170 85 41 246 119 74 48 44 45 14321 12209
shrinkage=0.15


Tree=1103
num_leaves=15
num_cat=0
split_feature=2 32 3 13 20 3 23 3 3 23 23 14 23 3
split_gain=0.0103235 0.0464773 0.163396 0.156587 0.117959 0.120849 0.0777278 0.30518 0.116899 0.111965 0.110727 0.159718 0.115349 0.106154
threshold=-1.0357749999999999 -0.039230949999999994 -6.2187599999999987 2.4836450000000005e-05 3.9041150000000004 -12.117249999999997 -9.1777649999999991 -10.05805 -9.0186749999999982 -6.2906249999999995 -15.928399999999998 0.0039324400000000006 -10.618199999999998 -16.559399999999997
decision_type=2 2 2 2 2 2 2 2 2 2 2 2 2 2
left_child=1 2 3 4 6 -6 7 10 -8 -10 11 -1 13 -12
right_child=-2 -3 -4 -5 5 -7 8 -9 9 -11 12 -13 -14 -15
leaf_value=0.0036378834591602825 -2.3511817744933233e-05 -3.7255691042436735e-05 -0.00048193974702132806 3.930227690075061e-05 0.0041270557171506194 0.0013148823885281646 0.0011510798293285979 0.0018282275332310572 -0.0017049817253313162 0.0028605224522184171 0.001669336243613736 -0.0031706227203589367 0.00096600099015631713 -0.003650592193850246
leaf_weight=226 143373 50004 5759 10198 423 1837 845 2776 1026 137 99 118 240 572
leaf_count=226 143373 50004 5759 10198 423 1837 845 2776 1026 137 99 118 240 572
internal_value=0 4.5394e-05 0.000215777 0.00043301 0.000916807 0.00184123 0.000570856 0.000950671 -0.000191612 -0.00116717 -0.000990443 0.00130241 -0.00185624 -0.00286568
internal_weight=0 74260 24256 18497 8299 2260 6039 4031 2008 1163 1255 344 911 671
internal_count=217633 74260 24256 18497 8299 2260 6039 4031 2008 1163 1255 344 911 671
shrinkage=0.15


Tree=1104
num_leaves=15
num_cat=0
split_feature=1 28 21 3 12 30 1 21 3 18 22 23 21 23
split_gain=0.00845892 0.123966 0.291039 0.388096 0.516957 0.386343 0.423445 0.685052 0.293785 0.262233 0.245097 0.243708 0.255483 0.222569
threshold=7.2775700000000008 0.0021118650000000005 7.8897200000000014 -6.4680349999999995 0.00010329600000000001 0.0002632405000000001 8.0447900000000025 6.8347600000000011 -8.0400999999999971 3.4393050000000005e-07 1.9654450000000001 -8.176264999999999 5.6760050000000009 -7.2526199999999994
decision_type=2 2 2 2 2 2 2 2 2 2 2 2 2 2
left_child=-1 -2 3 4 5 6 7 13 11 10 -9 12 -8 -3
right_child=1 2 -4 -5 -6 -7 8 9 -10 -11 -12 -13 -14 -15
leaf_value=1.382251280995175e-05 0.00017838886476209293 -0.010187832533392793 0.00052210214713087734 9.6203073731727389e-05 -0.00023066063398751214 -0.0020394905995352059 -0.010950954785559672 -0.004948264261027081 -0.0063108841584785256 0.024967098409648645 0.015276867437309452 -0.0034670936093936042 -0.027500491025971203 0.0068600739319143551
leaf_weight=178611 21476 96 5696 5786 3020 2300 43 26 436 22 28 31 41 21
leaf_count=178611 21476 96 5696 5786 3020 2300 43 26 436 22 28 31 41 21
internal_value=0 -6.32682e-05 -0.000359052 -0.000782601 -0.00162112 -0.00300061 -0.00597182 7.4628e-05 -0.00808972 0.0111628 0.00553884 -0.0148338 -0.0190287 -0.00712795
internal_weight=0 39022 17546 11850 6064 3044 744 193 551 76 54 115 84 117
internal_count=217633 39022 17546 11850 6064 3044 744 193 551 76 54 115 84 117
shrinkage=0.15


Tree=1105
num_leaves=15
num_cat=0
split_feature=5 25 5 7 23 21 19 22 7 13 35 34 30 6
split_gain=0.00954161 0.0308498 0.0291934 0.0406714 0.0562394 0.0425204 0.097503 0.106927 0.0895663 0.0733004 0.0383943 0.0495577 0.0343616 0.0382027
threshold=2.5967350000000005e-05 29.334150000000005 2.9709300000000004e-05 3.8198000000000009e-05 -6.2458949999999991 10.005650000000001 0.00042217450000000005 0.9134715000000001 4.3178150000000009e-05 -1.9476999999999997e-05 0.06742575000000002 10.768900000000002 0.011010900000000002 -6.6249699999999982e-07
decision_type=2 2 2 2 2 2 2 2 2 2 2 2 2 2
left_child=-1 2 3 4 -2 10 7 -7 -9 -10 -5 12 13 -12
right_child=1 -3 -4 5 -6 6 -8 8 9 -11 11 -13 -14 -15
leaf_value=1.5834975341906182e-05 0.0007938727083835899 -0.00076507428697840179 2.0867984927285376e-05 -0.00034073869210508894 0.0089666371978819378 -0.01301733500836417 0.00041909671246571635 -0.011215083269169554 -0.0092058365077648963 -0.00071655513952392964 0.00010867400884359393 0.0079695511522004381 -0.00099257429451239101 0.0051831516925761071
leaf_weight=173525 359 1362 34463 7102 20 25 256 25 26 191 71 24 121 63
leaf_count=173525 359 1362 34463 7102 20 25 256 25 26 191 71 24 121 63
internal_value=0 -6.22963e-05 -3.99039e-05 -0.000292757 0.00122515 -0.000365541 -0.00167253 -0.00367799 -0.00271319 -0.0017337 -0.000272931 0.00145313 0.000839815 0.00249444
internal_weight=0 44108 42746 8283 379 7904 523 267 242 217 7381 279 255 134
internal_count=217633 44108 42746 8283 379 7904 523 267 242 217 7381 279 255 134
shrinkage=0.15


Tree=1106
num_leaves=15
num_cat=0
split_feature=25 19 33 33 3 38 12 33 6 31 21 31 21 19
split_gain=0.00841395 0.0389326 0.0901152 0.116293 0.305949 0.0659771 0.0658189 0.0760573 0.0581036 0.0561686 0.0477948 0.0691727 0.0597673 0.0460681
threshold=0.19291100000000003 3.9025550000000007e-10 -1.6474599999999996e-05 -8.8274299999999983e-06 -8.4424149999999987 2.4066750000000005e-05 -0.00010970349999999998 -4.5791449999999988e-06 -1.7863049999999999e-06 -0.05027824999999999 9.5596900000000016 0.0078042100000000007 7.2885650000000011 1.1591100000000004e-09
decision_type=2 2 2 2 2 2 2 2 2 2 2 2 2 2
left_child=1 2 9 4 -4 10 -7 -8 -9 -1 11 12 -5 -3
right_child=-2 13 3 5 -6 6 7 8 -10 -11 -12 -13 -14 -15
leaf_value=-0.010323269486384975 -1.2086241065369055e-05 -0.0011302448267839686 0.023033094807760789 -0.0023668658814858645 -0.002334034188306364 -0.0034609966277112732 0.012723217962775379 0.001080531656459373 0.0072117411135248118 -0.00027218575793587409 0.0053988650119908225 0.0014159224879395167 -0.011664671291364358 7.8976607238491963e-05
leaf_weight=22 186341 726 20 70 23 29 21 105 52 29 26 92 20 30057
leaf_count=22 186341 726 20 70 23 29 21 105 52 29 26 92 20 30057
internal_value=0 7.19725e-05 0.00137312 0.00203914 0.00946463 0.00126975 0.00316563 0.00424525 0.00311125 -0.00460795 -0.000617013 -0.00147642 -0.00443304 5.04578e-05
internal_weight=0 31292 509 458 43 415 207 178 157 51 208 182 90 30783
internal_count=217633 31292 509 458 43 415 207 178 157 51 208 182 90 30783
shrinkage=0.15


Tree=1107
num_leaves=15
num_cat=0
split_feature=32 1 5 21 1 14 23 22 3 23 31 9 0 10
split_gain=0.00858404 0.114734 0.121104 0.159217 0.31043 0.452315 0.378599 0.39637 0.439707 0.420663 0.418596 0.407225 0.90828 0.346633
threshold=0.023910750000000005 -3.4741849999999999 1.3239750000000001e-05 -6.0969499999999988 -6.5480849999999995 0.0040955450000000008 -12.877249999999998 -0.81178699999999993 -6.7134699999999992 -7.2020549999999988 0.096275800000000009 3.0168650000000001e-05 5.3268800000000009 1.5018400000000002e-05
decision_type=2 2 2 2 2 2 2 2 2 2 2 2 2 2
left_child=-1 2 3 4 -2 6 13 8 9 10 -8 12 -9 -6
right_child=1 -3 -4 -5 5 -7 7 11 -10 -11 -12 -13 -14 -15
leaf_value=2.4084033630088963e-05 -7.9499196125338401e-05 0.00010227749871081323 -3.7731711264652226e-05 -0.00015764839683003544 0.016507254169389071 -7.3186670826564443e-06 -0.010196456464153698 0.00018660109082702545 0.00038037616822827455 -0.0022170873996245817 -0.0010329761608291472 -0.016247781256679444 0.035023133782669899 -0.00088297155317767259
leaf_weight=131612 2599 52293 21466 6970 35 1083 640 85 242 333 136 20 21 98
leaf_count=131612 2599 52293 21466 6970 35 1083 640 85 242 333 136 20 21 98
internal_value=0 -3.68485e-05 -0.000252554 -0.000628625 -0.00124894 -0.00237756 -0.00397195 -0.0046622 -0.00541262 -0.00667674 -0.00859049 0.00338406 0.00708818 0.0036934
internal_weight=0 86021 33728 12262 5292 2693 1610 1477 1351 1109 776 126 106 133
internal_count=217633 86021 33728 12262 5292 2693 1610 1477 1351 1109 776 126 106 133
shrinkage=0.15


Tree=1108
num_leaves=15
num_cat=0
split_feature=2 21 7 22 2 1 22 2 22 17 13 2 1 21
split_gain=0.0101688 0.0394549 0.150256 0.241856 0.984084 0.927816 0.995772 1.02074 0.889402 0.693406 0.605967 0.562973 0.556618 0.795832
threshold=-1.0357749999999999 -3.5229999999999997 4.2796300000000002e-05 -1.0302249999999997 -0.5859764999999999 -4.0334449999999995 -0.54786299999999988 -0.5859764999999999 -1.4226399999999997 8.9012550000000013e-08 -1.5008599999999999e-05 -1.0110049999999997 -9.0747149999999976 -9.5303999999999984
decision_type=2 2 2 2 2 2 2 2 2 2 2 2 2 2
left_child=-1 2 3 4 8 6 7 9 -2 -5 11 -10 13 -11
right_child=1 -3 -4 5 -6 -7 -8 -9 10 12 -12 -13 -14 -15
leaf_value=4.5052707518940457e-05 -0.0012469777978585778 -7.832128977013654e-05 -0.00018101175217827495 -0.0045595713961266741 0.00045965462857961218 0.0003469609989465688 -0.0015818565029992436 -0.0044587005217818672 0.010866218707524239 0.023919620588421821 -0.0028081270501056801 -0.015275931114124053 0.014123701422354092 -0.0076403686437288339
leaf_weight=74260 1424 96333 23328 62 14782 5903 347 122 20 25 222 253 488 64
leaf_count=74260 1424 96333 23328 62 14782 5903 347 122 20 25 222 253 488 64
internal_value=0 -2.3335e-05 8.92711e-05 0.000355177 4.47894e-05 0.00109455 0.00507745 0.00811395 -0.00315091 0.0105144 -0.00862806 -0.0133608 0.0121341 0.0012248
internal_weight=0 143373 47040 23712 16701 7011 1108 761 1919 639 495 273 577 89
internal_count=217633 143373 47040 23712 16701 7011 1108 761 1919 639 495 273 577 89
shrinkage=0.15


Tree=1109
num_leaves=15
num_cat=0
split_feature=11 20 29 20 17 4 18 26 17 17 38 11 4 22
split_gain=0.00940877 0.0709348 0.0391732 0.0763324 0.0790851 0.0754301 0.147407 0.316339 0.205803 0.103276 0.125332 0.224697 0.108028 0.239154
threshold=-0.0001086155 9.4321850000000023 0.20869500000000005 -16.050999999999998 8.7191600000000017e-06 2.1026800000000003 4.5687700000000006e-05 0.00091209800000000018 6.9477550000000009e-06 0.00012058450000000002 1.0406600000000001 -0.00028846549999999991 -1.6509149999999997 -2.3743599999999998
decision_type=2 2 2 2 2 2 2 2 2 2 2 2 2 2
left_child=1 2 -1 4 -4 6 9 8 -8 10 12 -12 -5 -14
right_child=-2 -3 3 5 -6 -7 7 -9 -10 -11 11 -13 13 -15
leaf_value=-4.48100567713547e-05 1.2315785459678887e-05 -0.00084674280717448886 -0.0051473688482722288 -0.00044069704904729957 0.0015818808095580503 -0.00029698064192884235 0.0045158185161136349 -0.0037681089501295766 0.021495257663385319 -0.0064637726496273125 0.018173887937286637 -0.00022585666158647655 -0.0051453988051175011 0.012232536077766669
leaf_weight=25822 188275 2479 88 276 71 350 29 35 36 35 28 32 28 49
leaf_count=25822 188275 2479 88 276 71 350 29 35 36 35 28 32 28 49
internal_value=0 -7.8982e-05 -8.17289e-06 0.000886855 -0.00214248 0.00142323 0.00252191 0.00772904 0.0139198 0.0013596 0.0020226 0.00836069 0.000945299 0.00591329
internal_weight=0 29358 26879 1057 159 898 548 100 65 448 413 60 353 77
internal_count=217633 29358 26879 1057 159 898 548 100 65 448 413 60 353 77
shrinkage=0.15


Tree=1110
num_leaves=15
num_cat=0
split_feature=32 1 7 1 7 14 3 29 20 0 0 20 4 32
split_gain=0.00891285 0.0854493 0.214585 0.0803517 0.142921 0.120579 0.174515 0.149951 0.192308 0.645984 0.567393 0.472458 0.522843 0.501794
threshold=0.023910750000000005 -3.8549749999999996 5.2375150000000003e-05 -3.4741849999999999 5.0699350000000001e-05 0.0086666100000000017 -5.9751649999999996 0.0072552150000000006 2.7610150000000004 2.9426650000000003 -3.1138999999999997 -2.9340849999999992 0.29391050000000002 0.12825600000000001
decision_type=2 2 2 2 2 2 2 2 2 2 2 2 2 2
left_child=1 2 -1 4 5 6 7 8 9 10 -2 13 -13 -12
right_child=3 -3 -4 -5 -6 -7 -8 -9 -10 -11 11 12 -14 -15
leaf_value=0.00042003644832692841 -0.0030153343179680817 -6.3738972788939088e-05 -0.00026841464815804869 7.8881041795035022e-05 0.00021683321051752679 0.00027415301625423165 0.00029752351327561207 -8.2219518668771215e-05 -0.00046224237698805554 -0.0045380540003805425 -0.0051616856965476876 0.0027558158893522706 -0.0049005086002294395 0.0062480698043420385
leaf_weight=30489 1577 85825 15298 52293 11304 4326 3791 4110 4782 1403 477 1623 229 106
leaf_count=30489 1577 85825 15298 52293 11304 4326 3791 4110 4782 1403 477 1623 229 106
internal_value=0 2.4541e-05 0.000190016 -3.75477e-05 -0.000218063 -0.000437295 -0.000607353 -0.000847123 -0.00115543 -0.00176758 -0.000798738 0.000636815 0.00180911 -0.00308718
internal_weight=0 131612 45787 86021 33728 22424 18098 14307 10197 5415 4012 2435 1852 583
internal_count=217633 131612 45787 86021 33728 22424 18098 14307 10197 5415 4012 2435 1852 583
shrinkage=0.15


Tree=1111
num_leaves=15
num_cat=0
split_feature=38 17 18 18 17 14 18 13 18 18 21 18 1 2
split_gain=0.00886602 0.0380871 0.12842 0.0942459 0.0925492 0.290835 0.194178 0.080102 0.0742371 0.0540241 0.137672 0.102063 0.0955037 0.0890138
threshold=-0.56962599999999985 2.55652e-05 0.0023771500000000002 0.001618115 8.8084900000000014e-05 0.022652900000000004 0.0081734150000000016 -1.7616899999999994e-05 -3.2435349999999988e-05 0.00013996000000000004 -9.6841449999999991 0.00025593300000000002 -4.9060199999999989 -0.39492999999999995
decision_type=2 2 2 2 2 2 2 2 2 2 2 2 2 2
left_child=1 2 3 9 5 7 -7 8 -3 -1 -11 -12 -13 -14
right_child=-2 4 -4 -5 -6 6 -8 -9 -10 10 11 12 13 -15
leaf_value=-0.00026946326131509202 3.3148200330456095e-06 0.00019544330578738527 -0.0092872449804122584 0.0087818170990794885 -0.00090428665255879825 0.025295067904517052 0.0046432508155703541 -0.003121156731261484 0.010992640051130285 0.0084214489627629507 -0.013357288382226565 -0.010081372865242882 0.0074782694566238204 -0.003500780271133408
leaf_weight=1956 215055 38 37 25 232 20 21 72 23 20 26 30 24 54
leaf_count=1956 215055 38 37 25 232 20 21 72 23 20 26 30 24 54
internal_value=0 -0.00027652 -0.000525791 -0.000373953 0.00105702 0.00367209 0.0147173 0.000267175 0.00426652 -0.000482434 -0.00318744 -0.00492011 -0.00288893 -0.000122611
internal_weight=0 2578 2172 2135 406 174 41 133 61 2110 154 134 108 78
internal_count=217633 2578 2172 2135 406 174 41 133 61 2110 154 134 108 78
shrinkage=0.15


Tree=1112
num_leaves=15
num_cat=0
split_feature=31 0 22 12 10 6 11 28 0 14 3 23 23 3
split_gain=0.0084794 0.172102 0.132058 0.37446 0.340101 0.183727 0.120413 0.115211 0.0943061 0.10341 0.232429 0.359113 0.505723 0.523613
threshold=-0.034947149999999989 2.4748750000000004 -1.3398849999999998 -6.3361649999999983e-05 2.5915050000000005e-05 1.8610000000000003e-07 1.2801800000000002e-05 -0.052625149999999996 -11.535049999999998 0.00023943100000000005 -6.8865649999999992 -8.3320149999999984 -6.9496149999999988 -8.3608649999999987
decision_type=2 2 2 2 2 2 2 2 2 2 2 2 2 2
left_child=1 8 3 4 5 -3 -2 -7 -1 10 11 -10 13 -13
right_child=6 2 -4 -5 -6 7 -8 -9 9 -11 -12 12 -14 -15
leaf_value=-0.00056965471110927601 -8.5036478356609007e-05 -0.0035117342080671476 -0.00024544584222671383 -0.00016379325976524723 -0.0036041018881835651 -0.014455776358860724 0.00020470676294431607 -0.029058261093450707 0.0025005441011592012 7.2048368794039454e-05 0.00011816649033912375 0.0047635662864195178 0.0026914993097695112 -0.0063733208586886792
leaf_weight=3796 87017 21 31761 794 247 31 51297 20 2659 31553 7389 122 497 429
leaf_count=3796 87017 21 31761 794 247 31 51297 20 2659 31553 7389 122 497 429
internal_value=0 -3.90981e-05 -0.000301725 -0.00190773 -0.00624844 -0.01532 2.24216e-05 -0.0201822 0.000146791 0.000210558 0.00060443 0.00157368 -0.000777981 -0.00390744
internal_weight=0 79319 32874 1113 319 72 138314 51 46445 42649 11096 3707 1048 551
internal_count=217633 79319 32874 1113 319 72 138314 51 46445 42649 11096 3707 1048 551
shrinkage=0.15


Tree=1113
num_leaves=15
num_cat=0
split_feature=4 38 7 20 39 14 14 7 4 3 15 36 35 19
split_gain=0.00810628 0.0432917 0.0632495 0.108757 0.265409 0.0822326 0.125333 0.110779 0.0894566 0.114994 0.0864118 0.18684 0.233041 0.295196
threshold=0.11543250000000001 -0.0032950249999999996 5.9379850000000007e-05 19.256550000000001 0.034433300000000007 0.0082895900000000012 0.0075547300000000008 5.6911100000000005e-05 0.92173400000000016 -15.402299999999999 9.1826800000000013e-07 0.27672400000000003 0.16987200000000005 9.2280150000000015e-05
decision_type=2 2 2 2 2 2 2 2 2 2 2 2 2 2
left_child=-1 2 5 -4 -5 6 7 10 9 -8 -2 -12 -13 -14
right_child=1 -3 3 4 -6 -7 8 -9 -10 -11 11 12 13 -15
leaf_value=-2.1514806344326851e-05 -0.000198268822817645 8.8646666541261493e-05 0.00022039674805693143 0.020686040094005875 -0.0013412310894636902 0.00020787884592563284 -0.0039569509731929584 -0.0039368535527961948 -0.0020577961450114592 -0.019508877655025569 -0.0020514782164106171 -0.0024645613532306419 0.021720551513135431 -0.00076894485973753033
leaf_weight=140198 4335 64728 3520 20 32 3078 23 223 55 20 1294 54 29 24
leaf_count=140198 4335 64728 3520 20 32 3078 23 223 55 20 1294 54 29 24
internal_value=0 3.89531e-05 -0.00021418 0.000320996 0.0071308 -0.000423447 -0.000744269 -0.000656766 -0.00606496 -0.0111904 -0.000529246 -0.00155336 0.00447061 0.0115366
internal_weight=0 77435 12707 3572 52 9135 6057 5959 98 43 5736 1401 107 53
internal_count=217633 77435 12707 3572 52 9135 6057 5959 98 43 5736 1401 107 53
shrinkage=0.15


Tree=1114
num_leaves=15
num_cat=0
split_feature=11 20 29 28 9 35 32 12 17 20 10 36 11 1
split_gain=0.0076018 0.0551777 0.0395991 0.0439842 0.231696 0.0424792 0.0510065 0.128904 0.0413668 0.0289644 0.104815 0.0752478 0.0681331 0.114983
threshold=-0.0001086155 10.068200000000003 -0.44589049999999997 -1.7331449999999997 -2.9822299999999997e-05 5.0389350000000013 -22.304899999999996 0.00011505000000000002 -5.3149449999999995e-06 8.7622100000000014 3.3039050000000003e-05 0.026455200000000002 1.0705000000000002e-05 -7.7674249999999985
decision_type=2 2 2 2 2 2 2 2 2 2 2 2 2 2
left_child=1 2 -1 4 -4 6 7 -5 -7 -2 -11 -12 -13 -14
right_child=9 -3 3 5 -6 8 -8 -9 -10 10 11 12 13 -15
leaf_value=-0.0015082642044898637 -8.9714600710197139e-06 -0.00083094838410424328 -0.0019091528369980107 -0.0028479585913009941 0.017367168988130288 -0.0086828949633054441 -4.8254952501635292e-06 0.010737592128729871 -0.00021516439737752078 0.00052163134977405374 -2.1145391436212709e-05 4.8870293643343944e-06 0.0037400826176200359 -0.0030715072240862958
leaf_weight=394 168699 2003 47 30 20 25 26779 33 27 10052 8433 475 62 554
leaf_count=394 168699 2003 47 30 20 25 26779 33 27 10052 8433 475 62 554
internal_value=0 -7.09937e-05 -1.5348e-05 6.46902e-06 0.00384497 -3.0937e-06 5.20378e-06 0.00426828 -0.00428619 1.10702e-05 0.000183782 -0.000172798 -0.00134501 -0.00238593
internal_weight=0 29358 27355 26961 67 26894 26842 63 52 188275 19576 9524 1091 616
internal_count=217633 29358 27355 26961 67 26894 26842 63 52 188275 19576 9524 1091 616
shrinkage=0.15


Tree=1115
num_leaves=15
num_cat=0
split_feature=20 11 11 11 19 33 22 36 2 0 20 0 20 33
split_gain=0.00853784 0.191164 0.132133 0.0762588 0.121356 0.357312 0.601611 0.474823 0.123134 0.113033 0.301294 0.174713 1.04594 0.517777
threshold=3.0820100000000008 1.1110650000000002e-05 1.1575600000000001e-05 0.00013208350000000002 3.7476600000000006e-05 -1.9033099999999996e-05 0.59409500000000015 -0.0005002269999999999 0.13928150000000003 3.3209650000000006 7.7422400000000007 6.3167350000000004 6.3263500000000006 -2.0893199999999995e-05
decision_type=2 2 2 2 2 2 2 2 2 2 2 2 2 2
left_child=2 -2 -1 9 5 6 7 -5 -7 10 -3 12 -11 -14
right_child=1 3 -4 4 -6 8 -8 -9 -10 11 -12 -13 13 -15
leaf_value=-9.3386970729282767e-05 0.00015522428616667871 -0.0020070688463048069 0.00020881035445423579 0.0041078022170740252 -7.6145029996805275e-05 0.0087825870062635449 -0.0083286521248519419 0.03103596564306987 -0.00077673866975079672 0.0023132201324096197 0.00048790111763927669 -0.00062463638640877534 0.0040684131186811421 -0.0022943924165987253
leaf_weight=84781 47022 3056 52847 26 9571 34 25 34 280 3064 1692 12173 322 2706
leaf_count=84781 47022 3056 52847 26 9571 34 25 34 280 3064 1692 12173 322 2706
internal_value=0 -3.89671e-05 2.26521e-05 -0.000315815 3.07068e-05 0.00259381 0.0112213 0.0193671 0.000258348 -0.000465939 -0.00111796 -0.000296446 0.000359342 -0.00161777
internal_weight=0 80005 137628 32983 9970 399 85 60 314 23013 4748 18265 6092 3028
internal_count=217633 80005 137628 32983 9970 399 85 60 314 23013 4748 18265 6092 3028
shrinkage=0.15


Tree=1116
num_leaves=15
num_cat=0
split_feature=0 31 20 6 23 26 19 26 34 14 14 0 20 20
split_gain=0.0077919 0.0535586 0.0206409 0.121122 0.210529 0.13654 0.0440101 0.0241723 0.0414791 0.0306767 0.030741 0.0179825 0.124049 0.394397
threshold=11.559500000000002 0.023016500000000006 14.358700000000001 -6.0952749999999998e-06 -8.2043399999999984 0.00015666500000000003 0.00016655050000000002 -0.00073592699999999983 0.084651750000000012 0.00015620650000000002 0.0010287300000000003 10.919150000000002 7.6222700000000012 11.260050000000001
decision_type=2 2 2 2 2 2 2 2 2 2 2 2 2 2
left_child=11 2 7 -4 6 -6 -5 8 -2 -10 -11 -1 -13 -14
right_child=1 -3 3 4 5 -7 -8 -9 9 10 -12 12 13 -15
leaf_value=-1.5919586633590719e-06 -0.0073584136877408515 -0.00029461575943343104 -0.0060660876077599825 0.0020778240524867379 0.017899129650322719 0.002537576135490899 -0.0073064064237532084 0.00041590837637288164 0.00034330198547141369 -0.0060228350303637296 0.00042588769755294093 7.2556335499019165e-05 -0.0062020509912813666 0.0031468570336949564
leaf_weight=204158 21 4229 30 22 30 23 23 6252 236 39 29 2107 272 162
leaf_count=204158 21 4229 30 22 30 23 23 6252 236 39 29 2107 272 162
internal_value=0 0.000123404 0.000387059 0.0022736 0.00482656 0.0112328 -0.00271856 0.000350344 -0.000910915 -0.000465528 -0.00327264 -6.52786e-06 -0.000403105 -0.00271237
internal_weight=0 10934 6705 128 98 53 45 6577 325 304 68 206699 2541 434
internal_count=217633 10934 6705 128 98 53 45 6577 325 304 68 206699 2541 434
shrinkage=0.15


Tree=1117
num_leaves=15
num_cat=0
split_feature=5 20 9 20 30 22 0 35 22 15 20 26 7 30
split_gain=0.00766766 0.07496 0.177239 0.359131 0.253434 0.24526 0.207608 0.190106 0.172545 0.187772 0.151837 0.15145 0.196317 0.147715
threshold=8.3491550000000032e-06 7.3339250000000016 2.7541700000000004e-05 8.7622100000000014 0.0001210415 0.35411200000000004 7.8304750000000007 -0.00033336149999999991 -0.28136549999999994 -8.9826899999999982e-08 7.2111900000000011 0.00010158150000000001 3.3136750000000008e-05 8.2206950000000018e-05
decision_type=2 2 2 2 2 2 2 2 2 2 2 2 2 2
left_child=1 10 -3 6 7 8 -4 -5 -6 -10 -1 12 -11 -9
right_child=-2 2 3 4 5 -7 -8 13 9 11 -12 -13 -14 -15
leaf_value=0.00026343876449344637 -6.2859936134731637e-06 0.0001176645338347133 -0.017930805043470947 -0.020357738658785818 -0.0018375024393511314 -0.0065074081739029763 -0.0055073715956635112 -0.0095576466737642279 0.021277638258678573 -0.001150235328823328 0.010163197520232642 -0.0049655340601811584 0.015877550879779916 0.0053678262541070583
leaf_weight=8629 207300 1238 47 20 54 55 85 37 21 25 35 23 39 25
leaf_count=8629 207300 1238 47 20 54 55 85 37 21 25 35 23 39 25
internal_value=0 0.000126109 -0.000794391 -0.00341417 -0.000537234 0.00214728 -0.00993087 -0.00764137 0.0050856 0.00854715 0.000303431 0.00547427 0.00922607 -0.00353931
internal_weight=0 10333 1669 431 299 217 132 82 162 108 8664 87 64 62
internal_count=217633 10333 1669 431 299 217 132 82 162 108 8664 87 64 62
shrinkage=0.15


Tree=1118
num_leaves=15
num_cat=0
split_feature=23 3 3 35 24 14 14 10 14 35 3 21 21 8
split_gain=0.00763023 0.0465606 0.0300184 0.0614607 0.0600927 0.0193734 0.0262988 0.0479081 0.0363322 0.037916 0.0347925 0.0266 0.0208376 0.0926567
threshold=-19.568199999999997 -19.110799999999998 -17.495099999999997 0.0055934550000000015 -0.25718149999999995 0.00025343850000000004 0.0052402850000000008 1.1664200000000001e-05 0.0044395100000000015 0.06742575000000002 -16.266399999999997 10.889000000000001 2.3962650000000001 -4.4186599999999995e-06
decision_type=2 2 2 2 2 2 2 2 2 2 2 2 2 2
left_child=1 -1 3 4 -3 -4 8 -8 10 -10 -7 12 -12 -14
right_child=-2 2 5 -5 -6 6 7 -9 9 -11 11 -13 13 -15
leaf_value=0.0055960107669835134 4.0139276164311203e-06 -0.010550130229676142 -0.00061675473764262576 0.0020905835743594381 -0.00097447186944291694 -0.0052486602547578516 -0.006619233770262716 -0.00033771834622906824 0.0013534306828329467 0.0089801291630878521 0.0007289250446060535 0.0054554571136933468 -0.002718246854058299 0.0013080149516068651
leaf_weight=31 213277 30 1480 35 29 25 28 1123 44 22 963 23 228 295
leaf_count=31 213277 30 1480 35 29 25 28 1123 44 22 963 23 228 295
internal_value=0 -0.000196529 -0.000238047 -0.00288929 -0.00584345 -0.000179145 5.62834e-05 -0.000490527 0.000449645 0.00389566 0.000301381 0.00039333 0.000314979 -0.00044722
internal_weight=0 4356 4325 94 59 4231 2751 1151 1600 66 1534 1509 1486 523
internal_count=217633 4356 4325 94 59 4231 2751 1151 1600 66 1534 1509 1486 523
shrinkage=0.15


Tree=1119
num_leaves=15
num_cat=0
split_feature=0 29 0 5 37 23 23 5 0 23 31 14 13 23
split_gain=0.00750902 0.128907 0.0754119 0.146265 0.18869 0.213411 0.284127 0.165813 0.0938665 0.109655 0.263002 0.288932 0.41765 0.526621
threshold=6.728695000000001 -0.0028160599999999996 6.9015100000000009 9.0055000000000021e-06 2.2628900000000005e-07 -10.108199999999998 -11.298099999999998 9.2142800000000012e-06 11.559500000000002 -9.5416749999999979 -0.15543199999999999 0.00019135550000000002 3.7169250000000007e-05 -6.1069649999999989
decision_type=2 2 2 2 2 2 2 2 2 2 2 2 2 2
left_child=-1 2 3 4 5 6 -2 -5 9 -4 11 -11 13 -13
right_child=1 -3 8 7 -6 -7 -8 -9 -10 10 -12 12 -14 -15
leaf_value=-1.3698498367642562e-05 0.0053547335181584853 0.00027886218946705847 -0.00095551149969948983 -0.012729889181043421 -0.0049717332744039595 0.0021407439408358052 0.030336020831018683 0.00085236648552619425 0.00027204138808271461 -0.00074715203711738691 -0.00078939905204643377 0.006026208400781656 -0.00082795497863889583 -0.0090826410923300818
leaf_weight=175268 21 24615 6448 21 25 40 20 547 4534 908 3968 710 452 56
leaf_count=175268 21 24615 6448 21 25 40 20 547 4534 908 3968 710 452 56
internal_value=0 5.6672e-05 -0.000251453 0.00130478 0.00641987 0.0099358 0.0175407 0.000350206 -0.000312878 -0.00052433 -6.81006e-05 0.00127814 0.00278797 0.00492164
internal_weight=0 42365 17750 674 106 81 41 568 17076 12542 6094 2126 1218 766
internal_count=217633 42365 17750 674 106 81 41 568 17076 12542 6094 2126 1218 766
shrinkage=0.15


Tree=1120
num_leaves=15
num_cat=0
split_feature=20 10 0 31 7 5 11 23 23 10 20 37 20 0
split_gain=0.00767402 0.0991174 0.118131 0.0998004 0.118374 0.0973866 0.113723 0.156984 0.217445 0.257434 0.241701 0.12075 0.167881 0.105735
threshold=7.4241650000000012 1.4324550000000002e-05 7.7268700000000008 1.3877350000000002 2.9030500000000003e-05 8.447165000000002e-06 1.9183800000000001e-05 -10.670499999999999 -9.8328599999999984 2.9520050000000002e-05 8.3080450000000017 -6.5011499999999986e-08 9.4321850000000023 7.508115000000001
decision_type=2 2 2 2 2 2 2 2 2 2 2 2 2 2
left_child=-1 2 3 -2 -5 6 -3 -8 -9 13 -11 -12 -13 -10
right_child=1 5 -4 4 -6 -7 7 8 9 10 11 12 -14 -15
leaf_value=-1.1884061730178755e-05 0.00070572498977207758 -0.00035631225230975844 0.010978347661260228 0.0010766453591014185 0.016426201527938247 4.3491409271517258e-05 -0.012095903151202948 0.012045961695019451 -0.0012689232380719241 -0.023381719545328191 -0.015070895524695514 0.0089619078312534843 -0.0069069769931957119 0.0095420502399539819
leaf_weight=184746 2767 883 26 26 20 28776 42 22 177 21 24 20 60 23
leaf_count=184746 2767 883 26 26 20 28776 42 22 177 21 24 20 60 23
internal_value=0 6.67599e-05 0.000913947 0.000820924 0.00775037 -1.32841e-05 -0.0012977 -0.00343457 -0.00238622 -0.00336317 -0.00870318 -0.00573925 -0.00293976 -2.56613e-05
internal_weight=0 32887 2839 2813 46 30048 1272 389 347 325 125 104 80 200
internal_count=217633 32887 2839 2813 46 30048 1272 389 347 325 125 104 80 200
shrinkage=0.15


Tree=1121
num_leaves=15
num_cat=0
split_feature=28 3 1 16 1 4 26 17 14 2 4 26 2 4
split_gain=0.00697637 0.0966675 0.0284921 0.0264938 0.0867546 0.0546518 0.114031 0.105522 0.133591 0.106748 0.0795969 0.0619725 0.0487883 0.0352937
threshold=-0.99135349999999989 -18.015749999999997 -14.127399999999998 1.1210250000000002e-06 -9.3417349999999981 -2.0449499999999996 0.0017654200000000002 6.1835350000000007e-07 0.00099878550000000025 -1.0110049999999997 -0.13123799999999999 -0.0015752549999999998 -2.6304499999999993 -0.094637399999999997
decision_type=2 2 2 2 2 2 2 2 2 2 2 2 2 2
left_child=1 -1 -3 13 -5 6 12 8 -7 -9 -11 -10 -6 -4
right_child=-2 2 3 4 5 7 -8 9 11 10 -12 -13 -14 -15
leaf_value=0.0087780388573614459 2.408214407046785e-06 0.0049257558929225939 -0.0013244332147436366 0.0054113243878083786 0.0045262911112513389 -0.00084613793351309143 0.010026969759837811 0.0089456885377876463 -0.019753279454307628 -0.0094257105229189619 -0.0013948468976169742 -0.0079448862082790589 -0.0041044227726940467 0.00041287094614442932
leaf_weight=26 215897 22 385 38 20 32 24 20 20 32 210 20 56 831
leaf_count=26 215897 22 385 38 20 32 24 20 20 32 210 20 56 831
internal_value=0 -0.000299497 -0.000437518 -0.000507418 -0.00146125 -0.002063 0.00101325 -0.00298403 -0.00807 -0.00158636 -0.00245678 -0.0138491 -0.00183318 -0.00013718
internal_weight=0 1736 1710 1688 472 434 100 334 72 262 242 40 76 1216
internal_count=217633 1736 1710 1688 472 434 100 334 72 262 242 40 76 1216
shrinkage=0.15


Tree=1122
num_leaves=15
num_cat=0
split_feature=21 8 5 14 22 2 0 22 4 22 26 19 21 3
split_gain=0.00697035 0.119291 0.254939 0.153971 0.165571 0.20642 0.698014 0.431947 0.357199 0.271435 0.196687 0.177343 0.161768 0.154966
threshold=8.4090650000000018 -6.2252749999999994e-06 1.51901e-05 0.0082895900000000012 1.0806200000000004 0.79383700000000013 5.0909800000000009 0.7990735000000001 -0.064856949999999983 0.71795400000000009 -5.3154599999999994e-05 3.8086000000000004e-07 9.1880650000000017 -6.0822949999999993
decision_type=2 2 2 2 2 2 2 2 2 2 2 2 2 2
left_child=-1 2 3 4 5 9 -7 -8 -9 11 -10 -2 -11 -6
right_child=1 -3 -4 -5 13 6 7 8 10 12 -12 -13 -14 -15
leaf_value=9.71397706800212e-06 -0.0024009444049785515 0.00020971908297092955 0.00020509990907392541 0.00040710148610915856 -0.0027006772698432249 -0.00077595737562513156 -0.0042920637269092433 0.0042247420309909755 0.032571779725549276 -0.018393549064057879 0.013889400587816325 0.013711590582335537 -0.0052970836787218497 1.642570229922441e-05
leaf_weight=192435 51 14344 5995 995 2487 519 26 28 32 32 21 22 63 583
leaf_count=192435 51 14344 5995 995 2487 519 26 28 32 32 21 22 63 583
internal_value=0 -7.41848e-05 -0.000449375 -0.00125686 -0.00168534 0.000245401 0.00149833 0.0125297 0.0179292 -0.00442323 0.0251693 0.00245489 -0.00970852 -0.00218469
internal_weight=0 25198 10854 4859 3864 794 626 107 81 168 53 73 95 3070
internal_count=217633 25198 10854 4859 3864 794 626 107 81 168 53 73 95 3070
shrinkage=0.15


Tree=1123
num_leaves=15
num_cat=0
split_feature=22 12 2 22 3 16 15 6 34 34 18 7 20 11
split_gain=0.00665296 0.0645714 0.19194 0.709598 0.674387 0.407107 0.489333 0.371557 0.347819 0.515331 0.395747 0.278296 0.263445 0.290383
threshold=-0.36388649999999995 3.2730600000000001e-05 -0.36988749999999998 -0.90574349999999992 -7.9276599999999986 -5.438614999999999e-08 -5.5217749999999993e-06 4.0791250000000007e-07 0.28095700000000007 0.0086640000000000016 2.8300600000000001e-05 3.3280500000000008e-05 9.3032900000000023 1.1575600000000001e-05
decision_type=2 2 2 2 2 2 2 2 2 2 2 2 2 2
left_child=1 2 -1 -4 5 -5 -7 -8 9 -9 11 -11 -6 -14
right_child=-2 -3 3 4 12 6 7 8 -10 10 -12 -13 13 -15
leaf_value=2.4918346499590431e-05 2.3261288378351716e-05 0.00012586554927326949 -6.6422933821455433e-05 -0.001881178662469293 -0.00016544882012157377 -0.00088459009141755103 -0.0062330418218789815 -0.0042457748473996451 -0.0049614241447172034 -0.042233888693153858 -0.0041928391103448863 -0.022748105762033486 -0.00044590410530808778 -0.0085492658162452679
leaf_weight=44769 121809 36948 11190 363 1530 155 227 46 62 20 22 94 199 199
leaf_count=44769 121809 36948 11190 363 1530 155 227 46 62 20 22 94 199 199
internal_value=0 -2.95692e-05 -0.000127113 -0.00060959 -0.00269325 -0.00587769 -0.00819516 -0.010601 -0.0146646 -0.01797 -0.0226121 -0.0261667 -0.00105974 -0.00449758
internal_weight=0 95824 58876 14107 2917 989 626 471 244 182 136 114 1928 398
internal_count=217633 95824 58876 14107 2917 989 626 471 244 182 136 114 1928 398
shrinkage=0.15


Tree=1124
num_leaves=15
num_cat=0
split_feature=9 31 10 22 2 22 19 0 23 23 2 22 23 9
split_gain=0.00990921 0.066013 0.0873837 0.490961 0.956135 2.05715 1.65388 0.517799 1.17555 0.699742 0.37186 0.304973 0.277162 0.276409
threshold=2.2322650000000002e-05 -0.019640099999999997 2.7339550000000005e-05 0.61814750000000018 0.56959000000000015 1.0333250000000003 1.9006200000000004e-05 5.8791150000000014 -9.6230949999999975 -9.7994249999999976 0.35262350000000003 0.82008800000000004 -12.877249999999998 2.4262050000000006e-05
decision_type=2 2 2 2 2 2 2 2 2 2 2 2 2 2
left_child=-1 2 3 -2 10 6 7 8 12 -9 -5 13 -6 -11
right_child=1 -3 -4 4 5 -7 -8 9 -10 11 -12 -13 -14 -15
leaf_value=-2.1626301222514521e-05 -0.00051285127622753448 0.00017952032939261829 -0.00020113352645305724 0.0001179970130876688 0.034006801885552704 -0.0035077628749679997 0.0010073955112271835 -0.0060542025882750752 0.0079262774204835289 0.021517855041152372 -0.013800724836182781 0.010847292763064615 0.056384949115189632 0.045577021515262973
leaf_weight=149419 2170 37854 27394 317 20 181 88 20 24 22 50 20 33 21
leaf_count=149419 2170 37854 27394 317 20 181 88 20 24 22 50 20 33 21
internal_value=0 4.73712e-05 -0.000117397 0.000655991 0.00384241 0.00865079 0.0175246 0.026609 0.0354684 0.01839 -0.00177829 0.0261501 0.0479404 0.0332677
internal_weight=0 68214 30360 2966 796 429 248 160 77 83 367 63 53 43
internal_count=217633 68214 30360 2966 796 429 248 160 77 83 367 63 53 43
shrinkage=0.15


Tree=1125
num_leaves=15
num_cat=0
split_feature=20 10 0 31 19 0 0 20 23 15 15 26 22 26
split_gain=0.00882751 0.068567 0.0853174 0.0703237 0.0965703 0.0563465 0.325796 0.649197 0.500974 0.424726 0.404664 0.855554 0.604064 0.544372
threshold=7.4241650000000012 1.4324550000000002e-05 7.7268700000000008 1.3877350000000002 9.6074000000000005e-06 9.4310500000000008 7.3090500000000009 10.068200000000003 -10.530399999999998 1.0122250000000001e-06 9.0514050000000008e-08 -6.7032699999999986e-05 -0.096267299999999986 5.4738650000000001e-05
decision_type=2 2 2 2 2 2 2 2 2 2 2 2 2 2
left_child=-1 2 3 -2 -5 6 -3 8 -8 10 13 -12 -13 -10
right_child=1 5 -4 4 -6 -7 7 -9 9 -11 11 12 -14 -15
leaf_value=-1.2745957973328498e-05 0.00060047642541589496 -9.4187854360962766e-05 0.0093293730536690694 -0.0013222466345177964 0.012541812202611113 -0.00054294235903429614 -0.0047920700967855135 -0.0011370990210111196 0.00048282957809852711 -8.4181840785002058e-05 0.020311862950787695 0.010966440218032163 -0.00795194056906527 0.0084163480238282282
leaf_weight=184746 2767 23701 26 20 26 3702 144 1094 413 344 122 98 62 368
leaf_count=184746 2767 23701 26 20 26 3702 144 1094 413 344 122 98 62 368
internal_value=0 7.16017e-05 0.000776233 0.000697178 0.00651396 5.02665e-06 8.20243e-05 0.00166101 0.00363465 0.00449709 0.00597965 0.0108501 0.00363557 0.00422103
internal_weight=0 32887 2839 2813 46 30048 26346 2645 1551 1407 1063 282 160 781
internal_count=217633 32887 2839 2813 46 30048 26346 2645 1551 1407 1063 282 160 781
shrinkage=0.15


Tree=1126
num_leaves=15
num_cat=0
split_feature=20 10 13 19 33 9 3 3 23 24 18 10 21 13
split_gain=0.0110384 0.0742553 0.0872576 0.0659903 0.158795 0.0841603 0.172974 0.219688 0.201131 0.19673 0.222592 0.122444 0.125519 0.125753
threshold=10.210350000000002 3.4738900000000007e-05 -1.5427449999999997e-05 9.7524750000000008e-05 -2.3300049999999997e-07 1.0374600000000002e-05 -7.1376749999999989 -10.344549999999998 -6.7159199999999997 -0.090774499999999994 3.8467950000000007e-06 2.4265750000000001e-05 2.7095700000000007 1.057155e-05
decision_type=2 2 2 2 2 2 2 2 2 2 2 2 2 2
left_child=-1 2 -2 4 5 -4 7 -7 9 -9 -11 -8 -13 -14
right_child=1 -3 3 -5 -6 6 11 8 -10 10 -12 12 13 -15
leaf_value=-8.9130366739163511e-06 0.0015762410893507977 -0.00023400256705880079 0.00037988367294230124 -0.00032217354335934616 0.0016856261543998206 0.00040870812390881412 -0.0028392169936514141 -0.023540060222148895 -0.0015776455321779043 -0.0040547605577653011 -0.022087160680093799 -0.0014993645640129646 0.00013327435648534446 0.012328666275481317
leaf_weight=203469 1289 6709 1123 2781 1702 141 95 24 78 67 20 53 30 52
leaf_count=203469 1289 6709 1123 2781 1702 141 95 24 78 67 20 53 30 52
internal_value=0 0.000128038 0.00045385 0.000219214 0.000664 -0.00036916 -0.00187126 -0.00407213 -0.00741497 -0.0115169 -0.00820014 0.00128651 0.0041898 0.00786694
internal_weight=0 14164 7455 6166 3385 1683 560 330 189 111 87 230 135 82
internal_count=217633 14164 7455 6166 3385 1683 560 330 189 111 87 230 135 82
shrinkage=0.15


Tree=1127
num_leaves=15
num_cat=0
split_feature=20 5 10 14 30 6 0 14 3 23 3 13 23 30
split_gain=0.00797524 0.0607637 0.0600961 0.0881403 0.0754995 0.0683613 0.0677985 0.151812 0.133444 0.111204 0.067447 0.128492 0.0982049 0.0633825
threshold=10.210350000000002 6.5625250000000012e-06 3.4738900000000007e-05 0.0034191400000000006 0.00015355550000000002 -2.1199999999999996e-06 10.152250000000002 9.9284450000000011e-05 -6.493739999999999 -6.6111549999999992 -6.2187599999999987 8.8270500000000005e-06 -6.6509899999999993 0.00017977150000000005
decision_type=2 2 2 2 2 2 2 2 2 2 2 2 2 2
left_child=-1 -2 3 4 6 13 7 10 -8 -10 11 12 -3 -6
right_child=1 2 -4 -5 5 -7 8 -9 9 -11 -12 -13 -14 -15
leaf_value=-7.5760816757733274e-06 -0.0051642281907296984 -0.003165289285508069 -0.00019809847772195207 -0.00027281061131902379 -0.0058975056906302387 0.00078068179443190283 0.013798695362638681 0.0021824307644927668 -0.0074533939361572264 0.0075528455609455702 -0.00027465142401101255 0.0022139649046584962 -0.017039870505686849 -0.00047630246953612044
leaf_weight=203469 49 22 6708 2644 52 2384 30 1218 20 25 232 30 24 726
leaf_count=203469 49 22 6708 2644 52 2384 30 1218 20 25 232 30 24 726
internal_value=0 0.000108832 0.000127137 0.000421681 0.000807202 0.000382252 0.00164648 0.00143008 0.00604952 0.000883406 -0.00154511 -0.00542335 -0.0104042 -0.000838645
internal_weight=0 14164 14115 7407 4763 3162 1601 1526 75 45 308 76 46 778
internal_count=217633 14164 14115 7407 4763 3162 1601 1526 75 45 308 76 46 778
shrinkage=0.15


Tree=1128
num_leaves=15
num_cat=0
split_feature=1 32 21 19 22 14 27 9 6 23 22 11 22 13
split_gain=0.00797252 0.0828126 0.188758 0.207326 0.530493 1.0327 0.562925 0.228151 0.199244 0.242479 0.208698 0.319274 0.170795 0.26083
threshold=3.9519050000000004 -0.025127699999999999 3.8317000000000001 7.0604550000000007e-06 0.84427900000000011 0.00045556800000000005 0.26557350000000007 1.1605300000000002e-05 -1.8658949999999999e-07 -8.1455849999999987 0.66859650000000015 2.4927000000000004e-05 2.1682400000000004 -1.7051149999999997e-05
decision_type=2 2 2 2 2 2 2 2 2 2 2 2 2 2
left_child=-1 2 3 4 5 -2 7 -7 9 10 11 -8 -5 -14
right_child=1 -3 -4 12 -6 6 8 -9 -10 -11 -12 -13 13 -15
leaf_value=2.1164471698010854e-05 -0.0015038851134545471 9.0870332599280463e-05 1.8122050183761945e-05 0.00038535679852565652 -0.00011089579106837173 -0.012292170889122643 -0.0071346970664660234 -0.028785031725419685 0.002290307235671207 0.00066617281029365306 3.3791716991653361e-05 -0.019702877702665 -0.0035449186019868859 -0.00023462659350948406
leaf_weight=141004 1042 45261 21767 3678 1922 32 93 46 39 46 31 89 758 1825
leaf_count=141004 1042 45261 21767 3678 1922 32 93 46 39 46 31 89 758 1825
internal_value=0 -3.89445e-05 -0.000226255 -0.000780296 -0.00173465 -0.00393553 -0.0106743 -0.0220187 -0.00770493 -0.00921001 -0.0113429 -0.0132807 -0.000271187 -0.00120606
internal_weight=0 76629 31368 9601 3340 1418 376 78 298 259 213 182 6261 2583
internal_count=217633 76629 31368 9601 3340 1418 376 78 298 259 213 182 6261 2583
shrinkage=0.15


Tree=1129
num_leaves=15
num_cat=0
split_feature=23 14 14 23 2 22 22 6 33 5 2 2 22 6
split_gain=0.00970479 0.0664339 0.161823 0.138606 0.0694782 0.284618 0.127823 0.105085 0.10356 0.144134 0.105782 0.101558 0.100688 0.0794787
threshold=-12.104349999999998 0.00064274150000000012 0.00014886150000000003 -17.743599999999997 -2.0630899999999994 -2.0082049999999998 -1.9550899999999998 -1.2751749999999998e-06 -1.5035749999999997e-05 9.6016850000000005e-06 -2.6547699999999996 -1.7602299999999997 -2.5059149999999994 -2.8539149999999997e-06
decision_type=2 2 2 2 2 2 2 2 2 2 2 2 2 2
left_child=1 2 -1 -4 5 7 11 8 9 -5 -11 12 -6 -12
right_child=-2 -3 3 4 6 -7 -8 -9 -10 10 13 -13 -14 -15
leaf_value=-9.6356277984535466e-05 -2.0458883338548425e-05 -9.181528582650442e-05 -0.00031209786194596345 -0.012849438221865269 0.0022063112611067481 0.0026471466920685808 0.00041354153441024524 0.0043022021351498555 0.0020486601804240588 0.0029142467968569616 -0.0076954485086885554 0.0022196947360348042 -0.0076700067453202786 0.0017438764704051067
leaf_weight=16519 153568 34623 2846 43 45 1406 6797 45 58 47 88 1474 48 26
leaf_count=16519 153568 34623 2846 43 45 1406 6797 45 58 47 88 1474 48 26
internal_value=0 4.90413e-05 0.000214685 0.000612277 0.000873344 0.00174366 0.000695098 -0.00239412 -0.00354425 -0.00513439 -0.00307385 0.00191637 -0.00289114 -0.00554262
internal_weight=0 64065 29442 12923 10077 1713 8364 307 262 204 161 1567 93 114
internal_count=217633 64065 29442 12923 10077 1713 8364 307 262 204 161 1567 93 114
shrinkage=0.15


Tree=1130
num_leaves=15
num_cat=0
split_feature=29 21 6 6 0 14 22 2 5 2 2 22 22 14
split_gain=0.00812671 0.0432028 0.162895 0.0777148 0.171127 0.228318 0.264218 0.375104 0.0821076 0.0770098 0.508151 0.428805 0.611978 0.411823
threshold=-0.053962849999999993 -2.1923349999999995 8.5684550000000019e-07 1.3958400000000003e-06 2.1831300000000007 0.0025946600000000004 -0.28136549999999994 -0.81985099999999989 1.8778950000000004e-05 -0.76969999999999994 -0.55996749999999984 -0.90574349999999992 -0.41140649999999995 0.00010876350000000002
decision_type=2 2 2 2 2 2 2 2 2 2 2 2 2 2
left_child=1 2 -1 4 -4 6 7 -6 -7 -5 11 -11 13 -13
right_child=-2 -3 3 9 5 8 -8 -9 -10 10 -12 12 -14 -15
leaf_value=-0.00018156552598222526 -8.9812651730477223e-06 -8.3522121102029329e-05 0.00043109188093197037 -0.00026574900317273309 0.019104806734965396 -0.002904538748814957 0.021796965022804215 -0.0048292574813411406 0.0079246411656798878 -0.0078130087591349491 0.00069787403798335205 0.0030251609767384994 -0.0012658814447498771 0.026863421224074303
leaf_weight=4459 198569 11805 212 777 26 50 36 34 23 26 1488 22 43 63
leaf_count=4459 198569 11805 212 777 26 50 36 34 23 26 1488 22 43 63
internal_value=0 9.35481e-05 0.00038151 0.00127821 0.00326943 0.00682995 0.0116377 0.00554217 0.000507395 0.000964584 0.00154678 0.00974921 0.0133165 0.0206935
internal_weight=0 19064 7259 2800 381 169 96 60 73 2419 1642 154 128 85
internal_count=217633 19064 7259 2800 381 169 96 60 73 2419 1642 154 128 85
shrinkage=0.15


Tree=1131
num_leaves=15
num_cat=0
split_feature=1 21 21 3 12 1 21 23 30 16 18 36 3 23
split_gain=0.00772952 0.0761127 0.223249 0.3322 0.475451 0.264854 0.521006 0.66745 0.40582 0.305521 0.424815 0.362807 0.276687 0.612178
threshold=7.2775700000000008 7.8897200000000014 3.6299650000000008 -6.4440149999999994 8.9546750000000011e-05 8.0447900000000025 6.7472850000000006 -10.156499999999999 0.0020092600000000006 8.0942150000000013e-08 -4.858434999999999e-07 -0.00021712349999999998 -7.7871049999999995 -8.3677549999999972
decision_type=2 2 2 2 2 2 2 2 2 2 2 2 2 2
left_child=-1 2 -2 4 5 6 -4 -8 12 10 11 -9 13 -7
right_child=1 -3 3 -5 -6 8 7 9 -10 -11 -12 -13 -14 -15
leaf_value=1.3213132429447075e-05 6.9855439285707515e-05 0.00043538651293230368 -0.0037125394385931071 0.00017133291139326555 -0.00028127575157788933 -0.013450368152452624 -0.015398658244647895 0.030242272111354395 0.00076524566039828956 0.026565222962785306 -0.0045721149654127657 0.0032449833267102282 -0.0042554438251013486 0.0011240994965191931
leaf_weight=178611 25167 5910 287 3798 2230 232 23 24 276 27 34 21 903 90
leaf_count=178611 25167 5910 287 3798 2230 232 23 24 276 27 34 21 903 90
internal_value=0 -6.0479e-05 -0.000148984 -0.00084219 -0.00177042 -0.0035027 -0.000153605 0.00776433 -0.0044309 0.0127903 0.00808237 0.0176435 -0.00560162 -0.00937676
internal_weight=0 39022 33112 7945 4147 1917 416 129 1501 106 79 45 1225 322
internal_count=217633 39022 33112 7945 4147 1917 416 129 1501 106 79 45 1225 322
shrinkage=0.15


Tree=1132
num_leaves=15
num_cat=0
split_feature=32 1 7 13 3 21 23 23 3 3 1 10 23 21
split_gain=0.00822031 0.0596792 0.108461 0.106666 0.147042 0.173205 0.22539 0.270587 1.44152 0.764108 0.447302 0.660001 0.532889 0.496259
threshold=0.023910750000000005 -3.4741849999999999 5.0699350000000001e-05 4.3872650000000008e-05 -6.6828699999999985 -3.5229999999999997 -6.8719549999999989 -13.412199999999999 -12.831349999999999 -13.437049999999997 -4.1998849999999992 1.2545400000000002e-05 -15.570249999999998 -5.5758449999999993
decision_type=2 2 2 2 2 2 2 2 2 2 2 2 2 2
left_child=-1 2 3 4 5 6 7 8 10 -9 11 13 -13 -2
right_child=1 -3 -4 -5 -6 -7 -8 9 -10 -11 -12 12 -14 -15
leaf_value=2.356826302186755e-05 0.015040291285064691 6.4280556448921962e-05 0.00018722599456888594 0.00018248443719411707 3.5796065122687727e-05 0.0001118433337729083 -0.003291796588064545 -0.0050245351339596343 -0.0058502830454448896 0.00021992975991892735 -0.0022576082039766176 0.0045393241363027217 0.021410569388629688 -0.0053931467107479246
leaf_weight=131612 36 52293 11304 5629 5841 2841 1057 718 1037 4830 161 77 93 104
leaf_count=131612 36 52293 11304 5629 5841 2841 1057 718 1037 4830 161 77 93 104
internal_value=0 -3.60594e-05 -0.00019163 -0.000382612 -0.000572009 -0.000896109 -0.00124907 -0.00094307 -0.00272476 -0.000458788 0.00415669 0.00748798 0.0137689 -0.000138834
internal_weight=0 86021 33728 22424 16795 10954 8113 7056 1508 5548 471 310 170 140
internal_count=217633 86021 33728 22424 16795 10954 8113 7056 1508 5548 471 310 170 140
shrinkage=0.15


Tree=1133
num_leaves=15
num_cat=0
split_feature=23 3 3 23 0 20 19 33 19 33 13 22 23 3
split_gain=0.00885796 0.0535619 0.128122 1.03206 0.606081 0.87386 0.789291 1.09869 0.891583 0.802086 0.768231 0.60188 0.551699 0.782448
threshold=-12.104349999999998 -10.729049999999999 -12.195349999999999 -10.917699999999998 -5.1610799999999992 -5.3201199999999984 0.0012881300000000004 1.1541700000000002e-05 0.00059769100000000013 4.6440650000000002e-06 -2.3880199999999995e-05 2.3818600000000001 -10.7143 -13.890949999999998
decision_type=2 2 2 2 2 2 2 2 2 2 2 2 2 2
left_child=-1 2 12 4 11 -6 7 -7 -9 -8 -11 -4 13 -2
right_child=1 -3 3 -5 5 6 9 8 -10 10 -12 -13 -14 -15
leaf_value=4.6852813095500825e-05 -2.4514035445869326e-05 -7.6475567123141677e-05 -0.0042788063352872992 -2.2369539721694033e-05 -0.0033553349067109175 0.013064848295589399 -0.0035752695702507215 -0.009081246298116569 0.015998443154334695 0.016922257904828809 0.001054718435935469 0.010996084165413828 0.00019893771465016315 -0.004235500177504699
leaf_weight=64065 2572 108683 318 11563 229 560 261 104 46 122 157 71 27265 1617
leaf_count=64065 2572 108683 318 11563 229 560 261 104 46 122 157 71 27265 1617
internal_value=0 -1.95459e-05 0.000118302 0.000506127 0.00377754 0.00516321 0.0067238 0.010011 -0.00139014 0.00240178 0.00799321 -0.00149084 -4.73014e-05 -0.00165
internal_weight=0 153568 44885 13431 1868 1479 1250 710 150 540 279 389 31454 4189
internal_count=217633 153568 44885 13431 1868 1479 1250 710 150 540 279 389 31454 4189
shrinkage=0.15


Tree=1134
num_leaves=15
num_cat=0
split_feature=14 34 3 34 27 1 12 1 22 28 3 24 31 11
split_gain=0.00825222 0.0527955 0.158737 0.243265 0.171141 0.367943 0.307228 0.219937 0.819809 0.437923 0.244739 0.356894 0.347846 0.330623
threshold=0.00019135550000000002 0.008249755000000001 -6.860879999999999 0.0033198800000000003 0.14932950000000003 8.748050000000001 3.8183400000000004e-05 8.3723950000000027 0.86801550000000016 0.0054241000000000003 -7.1376749999999989 0.11699200000000003 -0.03159204999999999 1.4851450000000002e-05
decision_type=2 2 2 2 2 2 2 2 2 2 2 2 2 2
left_child=1 2 3 -1 5 6 -5 10 -9 -10 -6 12 13 -12
right_child=-2 -3 -4 4 7 -7 -8 8 9 -11 11 -13 -14 -15
leaf_value=0.0011135241172626879 -1.9327355761883447e-05 0.00010940192466475235 6.6667274411064283e-05 -0.0054661626480613365 -0.0011150196665552592 -0.020384880100292237 0.011585539770830008 -0.0056759319163529323 0.014779144042247051 -0.0068481532032959739 -0.0019436194804974979 -0.019782919573730656 -0.005911094017253914 0.021162671621211552
leaf_weight=778 151361 53549 9678 199 1315 33 27 139 111 26 38 35 322 22
leaf_count=778 151361 53549 9678 199 1315 33 27 139 111 26 38 35 322 22
internal_value=0 4.41424e-05 -0.000230524 -0.00117509 -0.00196051 -0.00558941 -0.00342901 -0.00149244 0.00244014 0.0106747 -0.00211911 -0.0052855 -0.0039572 0.00652869
internal_weight=0 66272 12723 3045 2267 259 226 2008 276 137 1732 417 382 60
internal_count=217633 66272 12723 3045 2267 259 226 2008 276 137 1732 417 382 60
shrinkage=0.15


Tree=1135
num_leaves=15
num_cat=0
split_feature=21 1 1 12 1 21 16 16 27 23 23 12 14 18
split_gain=0.00871298 0.110493 0.387219 0.449792 0.277123 1.08179 0.50226 0.597128 0.715374 0.455349 0.586935 0.842591 0.573848 0.565139
threshold=8.4090650000000018 3.9519050000000004 8.0447900000000025 0.00014639600000000003 10.151550000000002 10.323650000000002 -1.3824149999999997e-06 1.5968850000000001e-07 1.5307550000000003 -8.9824849999999987 -7.1280949999999992 4.6139300000000007e-05 0.00014886150000000003 -1.8651849999999999e-07
decision_type=2 2 2 2 2 2 2 2 2 2 2 2 2 2
left_child=-1 -2 3 -3 5 6 -4 8 9 -8 11 -11 -12 -13
right_child=1 2 4 -5 -6 -7 7 -9 -10 10 12 13 -14 -15
leaf_value=1.0860584387431898e-05 0.00016136908135312714 -0.0027961870387038443 -0.0016304511567519816 3.4818790505418771e-05 -0.00054144113593818924 -0.0016629379748987698 -0.0023609174337512477 0.0018116747715001252 -0.0034963777272177805 0.0026413849841496399 0.012591719452523518 0.016111549287597879 -0.0077933633496963172 0.033124417770240042
leaf_weight=192435 15700 2534 191 2517 2437 999 42 317 74 55 112 96 43 81
leaf_count=192435 15700 2534 191 2517 2437 999 42 317 74 55 112 96 43 81
internal_value=0 -8.29414e-05 -0.000486782 -0.00138545 0.000533944 0.00183778 0.00529695 0.00691053 0.0101239 0.0124733 0.0140833 0.018858 0.0069365 0.0238971
internal_weight=0 25198 9498 5051 4447 2010 1011 820 503 429 387 232 155 177
internal_count=217633 25198 9498 5051 4447 2010 1011 820 503 429 387 232 155 177
shrinkage=0.15


Tree=1136
num_leaves=15
num_cat=0
split_feature=1 21 28 10 39 28 21 21 7 15 25 31 21 0
split_gain=0.00827885 0.068137 0.111315 0.154787 0.182673 0.397898 0.188501 0.175987 0.180642 0.16461 0.153686 0.162279 0.711466 0.245564
threshold=7.2775700000000008 -7.9193399999999992 0.0021118650000000005 1.4496750000000001e-05 5.0335950000000009e-06 0.0077550700000000011 11.325600000000001 7.0074550000000011 5.7722350000000005e-05 -4.6562649999999992e-08 0.38114100000000001 0.0078042100000000007 10.177800000000001 -0.37806699999999999
decision_type=2 2 2 2 2 2 2 2 2 2 2 2 2 2
left_child=-1 -2 -3 4 5 10 -6 8 -5 -8 11 13 -13 -4
right_child=1 2 3 7 6 -7 9 -9 -10 -11 -12 12 -14 -15
leaf_value=1.367459807784758e-05 -0.00058558490647139967 0.0002887917853947173 0.0030881359062746362 -0.00096404882140709632 -0.0010800684344333953 -0.021549684748363992 -0.0026985992638704679 0.00052533382515573444 0.00046077205406627579 0.0098137390561928248 0.0040105072407186524 -0.0035447588918986347 -0.03285088833548467 -0.0052860788328107445
leaf_weight=178611 4901 16728 130 6262 1318 27 36 6200 2943 69 64 122 22 200
leaf_count=178611 4901 16728 130 6262 1318 27 36 6200 2943 69 64 122 22 200
internal_value=0 -6.25912e-05 1.25295e-05 -0.00025317 -0.00149881 -0.00378072 -0.000592784 -9.24214e-05 -0.000508509 0.00552379 -0.00288897 -0.00382054 -0.00802208 -0.00198715
internal_weight=0 39022 34121 17393 1988 565 1423 15405 9205 105 538 474 144 330
internal_count=217633 39022 34121 17393 1988 565 1423 15405 9205 105 538 474 144 330
shrinkage=0.15


Tree=1137
num_leaves=15
num_cat=0
split_feature=8 22 25 3 34 3 14 31 34 34 14 7 13 24
split_gain=0.00880408 0.0581185 0.0481898 0.200066 0.491072 0.0602852 0.298875 0.19234 0.0489159 0.139135 0.110028 0.0446532 0.122005 0.158065
threshold=-2.4728349999999998e-05 0.50896400000000008 0.18856950000000003 -10.781849999999999 0.018591050000000001 -7.3111649999999999 0.00048450950000000005 0.011982300000000003 0.012341700000000002 0.008054625000000001 0.0007810015000000002 5.0336000000000007e-05 -2.0346849999999996e-05 0.070966350000000025
decision_type=2 2 2 2 2 2 2 2 2 2 2 2 2 2
left_child=1 -1 3 4 -3 6 7 -5 9 -8 -10 12 13 -4
right_child=-2 2 11 5 -6 -7 8 -9 10 -11 -12 -13 -14 -15
leaf_value=-0.00033935548187038827 8.8632881399986702e-06 -0.0012296576041710349 -0.01596314697008994 0.021291016252611629 0.025701286964700559 -0.00010590785802418828 -2.3585101713887552e-05 0.0020311833227424358 -0.011634260330306874 0.013648278134933207 0.0004115744059235064 0.00022097415469292408 -0.0004747125481829956 0.00012216493560117668
leaf_weight=9934 200342 39 27 28 25 697 103 20 22 20 76 5458 814 28
leaf_count=9934 200342 39 27 28 25 697 103 20 22 20 76 5458 814 28
internal_value=0 -0.000102694 0.000216864 0.00116834 0.00929024 0.000630245 0.00253767 0.0132661 0.000207521 0.00219948 -0.00229259 6.19688e-05 -0.000936709 -0.00777426
internal_weight=0 17291 7357 1030 64 966 269 48 221 123 98 6327 869 55
internal_count=217633 17291 7357 1030 64 966 269 48 221 123 98 6327 869 55
shrinkage=0.15


Tree=1138
num_leaves=15
num_cat=0
split_feature=21 1 1 14 34 3 14 23 23 33 1 22 6 29
split_gain=0.00832195 0.0852762 0.270226 0.34034 0.348563 0.401642 0.477247 0.365847 0.298375 0.258183 0.242085 0.35252 0.349522 0.345142
threshold=8.4090650000000018 3.9519050000000004 7.8238000000000012 0.0022144250000000003 0.043039550000000003 -6.3575099999999987 0.00032443100000000008 -6.4354599999999991 -8.2979299999999991 4.522835e-06 6.7903100000000007 1.3071100000000002 2.1294400000000006e-06 0.0012300150000000003
decision_type=2 2 2 2 2 2 2 2 2 2 2 2 2 2
left_child=-1 -2 3 4 5 6 7 9 -8 10 11 12 -3 -12
right_child=1 2 -4 -5 -6 -7 8 -9 -10 -11 13 -13 -14 -15
leaf_value=1.0614081256482718e-05 0.0001335701187165957 -0.025262046748561397 0.00038179967346901948 0.00014008945569386072 0.00020982258418749409 0.00049528276800361599 -0.010182335668218297 -0.00078570540342242365 -0.0019033968148127892 0.0053509056544862686 -0.012363765483314635 -0.006041255860671702 -0.0045437433095815187 -0.034098840384744103
leaf_weight=192435 15700 53 4646 2236 808 425 111 98 833 20 48 167 28 25
leaf_count=192435 15700 53 4646 2236 808 425 111 98 833 20 48 167 28 25
internal_value=0 -8.10588e-05 -0.000435836 -0.00121876 -0.00238022 -0.00353772 -0.00477707 -0.00886313 -0.00287687 -0.0111845 -0.0122148 -0.00997985 -0.0181002 -0.0198073
internal_weight=0 25198 9498 4852 2616 1808 1383 439 944 341 321 248 81 73
internal_count=217633 25198 9498 4852 2616 1808 1383 439 944 341 321 248 81 73
shrinkage=0.15


Tree=1139
num_leaves=15
num_cat=0
split_feature=5 23 3 14 3 23 0 3 23 34 14 35 3 7
split_gain=0.00850734 0.0289096 0.163297 0.230484 0.215687 0.384782 0.297493 0.187431 0.333248 0.434467 0.469659 0.262008 0.245452 0.30143
threshold=1.7536450000000004e-05 -7.5179349999999987 -7.2547399999999991 0.0014449400000000002 -7.4471299999999987 -7.3218799999999993 -9.3812549999999977 -8.7372249999999987 -7.0815949999999992 0.033530350000000007 0.00013246500000000004 0.00042232400000000002 -7.8541999999999996 4.1990000000000003e-05
decision_type=2 2 2 2 2 2 2 2 2 2 2 2 2 2
left_child=1 -1 3 4 7 6 -6 -3 9 10 11 -9 -11 -14
right_child=-2 2 -4 -5 5 -7 -8 8 -10 12 -12 -13 13 -15
leaf_value=-1.886265539063366e-05 -3.611096519530359e-05 0.0011791096185780534 -0.00030803121587734899 -4.7467278879133048e-05 -0.0044506890904158353 0.0016887947257058973 0.013575775094795973 -0.0084326265374013824 0.00072236861016463261 -0.00038340704435446335 -0.0024033651429806679 -0.02285654367249761 0.0038851778375754622 0.02536475658499902
leaf_weight=94646 87663 6415 12051 12998 25 579 117 121 2268 154 489 37 49 21
leaf_count=94646 87663 6415 12051 12998 25 579 117 121 2268 154 489 37 49 21
internal_value=0 2.43564e-05 0.000140156 0.000372232 0.000903157 0.00340487 0.0104021 0.000714363 -0.000235414 -0.00272939 -0.0047006 -0.0118104 0.00296424 0.0103291
internal_weight=0 129970 35324 23273 10275 721 142 9554 3139 871 647 158 224 70
internal_count=217633 129970 35324 23273 10275 721 142 9554 3139 871 647 158 224 70
shrinkage=0.15


Tree=1140
num_leaves=15
num_cat=0
split_feature=14 23 3 23 3 23 3 15 22 19 1 20 25 11
split_gain=0.0109061 0.0740452 0.158463 0.559501 0.267717 0.163462 0.300412 0.15127 0.225926 0.218463 0.217702 0.238257 0.166599 0.244794
threshold=0.00018273250000000005 -7.6939949999999993 -6.2768299999999995 -6.2906249999999995 -8.4424149999999987 -6.3165649999999989 -5.8104799999999992 -2.8691299999999994e-07 2.5169000000000006 0.00049070750000000001 8.4852300000000014 -2.5219899999999997 2.9170300000000005 -1.6553849999999997e-05
decision_type=2 2 2 2 2 2 2 2 2 2 2 2 2 2
left_child=1 -1 3 4 -3 -4 -7 8 10 -10 12 -12 13 -6
right_child=-2 2 5 -5 7 6 -8 -9 9 -11 11 -13 -14 -15
leaf_value=0.00016116928909296012 -2.1806013358797312e-05 0.0030887164611853864 0.00043033940948561676 0.0021957786662550145 -0.0045636926096306197 -0.003261490733524931 0.00019409050382361958 -0.001245781820080548 -0.0053407088484101256 0.012264337417270454 0.016813978508798753 -0.0063394068679190237 0.00070646203990514954 -0.013202886697362666
leaf_weight=44087 153077 306 9848 1261 197 830 1780 5963 29 35 20 20 62 118
leaf_count=44087 153077 306 9848 1261 197 830 1780 5963 29 35 20 20 62 118
internal_value=0 5.1707e-05 -0.000184057 -0.000704518 -0.00124634 0.00015062 -0.000904811 -0.00145219 -0.00401107 0.00428705 -0.00528464 0.00523729 -0.00640103 -0.00779996
internal_weight=0 64556 20469 8011 6750 12458 2610 6444 481 64 417 40 377 315
internal_count=217633 64556 20469 8011 6750 12458 2610 6444 481 64 417 40 377 315
shrinkage=0.15


Tree=1141
num_leaves=15
num_cat=0
split_feature=5 31 13 35 0 1 19 12 28 26 35 23 14 26
split_gain=0.00789478 0.0226631 0.0393445 0.0397084 0.0564246 0.101326 0.0386491 0.106272 0.100301 0.0475527 0.0777993 0.049978 0.0583775 0.0616679
threshold=2.5967350000000005e-05 0.042070900000000008 -1.5278699999999996e-06 0.47898950000000001 -4.307129999999999 4.7981500000000006 1.1591100000000004e-09 8.5235750000000018e-05 0.0031921850000000006 8.2550700000000009e-05 -0.00039611599999999991 -6.2663199999999994 0.00019135550000000002 4.5446500000000006e-05
decision_type=2 2 2 2 2 2 2 2 2 2 2 2 2 2
left_child=-1 6 3 -3 5 -5 7 9 -9 11 -11 12 -2 -14
right_child=1 2 -4 4 -6 -7 -8 8 -10 10 -12 -13 13 -15
leaf_value=1.4403785603777827e-05 9.0261023046657351e-05 -0.0005917879424799247 -1.0613270810159626e-05 0.014174826138914796 -0.00022252759931568338 0.00098437465862125941 4.1885841487857141e-05 -0.0020564828249108459 -0.016071571570937519 0.00035129565455102938 0.010551207029493526 -0.0070463687530718739 -0.0013112407831756985 -0.009539416906500264
leaf_weight=173525 309 5450 8580 20 113 38 29304 27 20 106 20 32 57 32
leaf_count=173525 309 5450 8580 20 113 38 29304 27 20 106 20 32 57 32
internal_value=0 -5.66658e-05 -0.0002127 -0.000521168 0.00172957 0.00553281 1.74251e-05 -0.00117129 -0.00802035 -0.000592327 0.00197033 -0.00134324 -0.000884702 -0.00426969
internal_weight=0 44108 14201 5621 171 58 29907 603 47 556 126 430 398 89
internal_count=217633 44108 14201 5621 171 58 29907 603 47 556 126 430 398 89
shrinkage=0.15


Tree=1142
num_leaves=15
num_cat=0
split_feature=14 3 20 16 3 20 34 31 21 5 27 18 26 0
split_gain=0.00799163 0.0419194 0.0821187 0.223245 0.157768 0.149729 0.201347 0.16746 0.0970092 0.0838896 0.117786 0.106737 0.18596 0.115859
threshold=0.00018273250000000005 -8.2133949999999984 3.7617250000000007 3.1296850000000004e-07 -8.4006749999999979 8.3930550000000022 0.13570050000000003 -0.05027824999999999 -1.1397149999999998 7.2568900000000009e-06 0.17007200000000003 1.6006350000000004e-07 -0.00012244449999999996 7.6190450000000007
decision_type=2 2 2 2 2 2 2 2 2 2 2 2 2 2
left_child=1 2 -1 9 5 6 7 -5 -7 -4 -11 13 -13 -12
right_child=-2 -3 3 4 -6 8 -8 -9 -10 10 11 12 -14 -15
leaf_value=0.0014085682611641819 -1.8666369737081521e-05 2.2515948132186668e-05 -0.0043391126795995659 -0.026690668228548018 0.005525055601332418 0.0053443768527358763 -0.0013811582528153218 -0.0093150575352550589 -0.0086157290664102357 0.0072785882237575835 0.0010159758224075584 0.016349034177983411 0.0010758936621206091 -0.0052226472041009856
leaf_weight=1327 153077 62532 64 24 23 24 26 26 21 67 233 24 71 94
leaf_count=1327 153077 62532 64 24 23 24 26 26 21 67 233 24 71 94
internal_value=0 4.42622e-05 0.000716119 -0.000602218 -0.00586296 -0.00802763 -0.0120879 -0.0176554 -0.00117034 0.000767669 0.00143604 0.000508433 0.00493437 -0.00077739
internal_weight=0 64556 2024 697 144 121 76 50 45 553 489 422 95 327
internal_count=217633 64556 2024 697 144 121 76 50 45 553 489 422 95 327
shrinkage=0.15


Tree=1143
num_leaves=15
num_cat=0
split_feature=32 1 3 14 23 34 23 3 3 23 3 3 34 23
split_gain=0.00729692 0.04743 0.0904971 0.0970639 0.509017 0.43423 0.343166 0.28287 0.364165 0.453987 0.228544 0.220129 0.678933 0.316942
threshold=0.023910750000000005 -3.4741849999999999 -6.0545599999999995 0.00022740750000000003 -8.4877049999999983 0.044056800000000007 -6.1917699999999991 -8.4798949999999973 -6.3281449999999984 -6.4159099999999993 -6.3281449999999984 -8.4006749999999979 0.038258850000000004 -13.889449999999998
decision_type=2 2 2 2 2 2 2 2 2 2 2 2 2 2
left_child=-1 -2 3 4 11 6 7 -6 -9 -10 -8 12 -3 -13
right_child=1 2 -4 -5 5 -7 10 8 9 -11 -12 13 -14 -15
leaf_value=2.2205116589128094e-05 -0.00017266274270667773 -0.011410246677931493 -0.00034960444240927284 4.1956394062869381e-05 0.0030835820716938228 0.0015017680416082276 0.0061125663723638956 -0.0051273431755752266 0.0024934344552012089 -0.020934103731997309 -0.010637930767344575 0.00022488836192295376 0.0014115327995688927 0.0027384609065286129
leaf_weight=131612 33728 119 10029 34287 145 940 144 1096 268 20 21 1815 424 2985
leaf_count=131612 33728 119 10029 34287 145 940 144 1096 268 20 21 1815 424 2985
internal_value=0 -3.39738e-05 5.5478e-05 0.000151602 0.000622882 -0.00108368 -0.00251835 -0.00321968 -0.00388006 0.000866522 0.00398068 0.00146419 -0.0013984 0.00178802
internal_weight=0 86021 52293 42264 7977 2634 1694 1529 1384 288 165 5343 543 4800
internal_count=217633 86021 52293 42264 7977 2634 1694 1529 1384 288 165 5343 543 4800
shrinkage=0.15


Tree=1144
num_leaves=15
num_cat=0
split_feature=21 1 1 14 21 3 1 33 13 25 21 22 16 25
split_gain=0.00941754 0.248876 0.371384 0.331908 0.392961 0.378296 0.354494 0.521938 0.624194 0.613615 0.309861 0.367453 0.283449 0.273396
threshold=-7.0373199999999985 -7.0907149999999985 -4.7537199999999986 0.0044395100000000015 -7.9193399999999992 -6.0545599999999995 -6.3548299999999989 6.8841200000000013e-06 -3.1817149999999993e-06 0.20707500000000004 -10.353899999999998 -0.64565649999999986 2.5734150000000004e-06 0.25729900000000006
decision_type=2 2 2 2 2 2 2 2 2 2 2 2 2 2
left_child=1 -1 3 4 5 10 7 9 -9 -6 -3 12 -12 -8
right_child=-2 2 -4 -5 6 -7 13 8 -10 -11 11 -13 -14 -15
leaf_value=0.0008211412350181929 -1.3822391498112199e-05 -0.002237205483534213 8.703541396208493e-05 0.0004508695419158978 0.018094114385222872 0.0010449466874177676 -0.0091547215208145766 0.0287288975284005 -0.0033474316349968699 -0.0031008011228625724 -0.0083467897160829935 0.0042703848186647518 -0.00085876773170157853 0.00033035619309256697
leaf_weight=7773 181932 836 23870 1355 39 357 91 39 21 145 695 69 136 275
leaf_count=7773 181932 836 23870 1355 39 357 91 39 21 145 695 69 136 275
internal_value=0 7.04388e-05 -0.000138499 -0.00146514 -0.00242562 -0.00340201 0.000924514 0.00535322 0.0175022 0.0013916 -0.00431651 -0.00624795 -0.00712131 -0.00202796
internal_weight=0 35701 27928 4058 2703 2093 610 244 60 184 1736 900 831 366
internal_count=217633 35701 27928 4058 2703 2093 610 244 60 184 1736 900 831 366
shrinkage=0.15


Tree=1145
num_leaves=15
num_cat=0
split_feature=27 10 6 18 17 14 33 37 35 14 7 6 4 10
split_gain=0.00777494 0.020755 0.0383054 0.0722241 0.0800488 0.0529098 0.0515449 0.0694675 0.0454352 0.0512842 0.0450098 0.041677 0.0450933 0.037933
threshold=92.277850000000015 2.7865550000000006e-05 6.0096700000000009e-07 0.012247050000000001 7.6153150000000006e-07 0.063962950000000005 -0.00093521849999999988 0.00019757500000000005 5.0389350000000013 0.00088157450000000005 3.2585650000000012e-05 -1.7863049999999999e-06 -0.48541799999999996 2.8610900000000004e-05
decision_type=2 2 2 2 2 2 2 2 2 2 2 2 2 2
left_child=-1 2 3 4 11 8 7 -6 -4 -10 -8 12 -2 -3
right_child=1 13 5 -5 6 -7 10 -9 9 -11 -12 -13 -14 -15
leaf_value=2.4206524911241535e-06 -0.0091355256918493818 0.0060114674024589476 0.00015175126704171385 0.0069585928553715344 -0.016448407849384238 -0.0068198521190788591 -0.0076907160286791617 -0.0039463319740025322 0.00054521730853593906 0.010908475451703582 0.0010658437016120713 0.00043786934485217705 -0.0018380221381596275 -3.1103145543937732e-05
leaf_weight=216058 23 24 171 20 20 20 25 20 22 21 28 172 111 898
leaf_count=216058 23 24 171 20 20 20 25 20 22 21 28 172 111 898
internal_value=0 -0.000332064 -0.00097909 -0.00183764 -0.00227855 0.000558227 -0.00613246 -0.0101974 0.00124777 0.00560634 -0.00306461 -0.00110727 -0.00309058 0.000126187
internal_weight=0 1575 653 419 399 234 93 40 214 43 53 306 134 922
internal_count=217633 1575 653 419 399 234 93 40 214 43 53 306 134 922
shrinkage=0.15


Tree=1146
num_leaves=15
num_cat=0
split_feature=35 15 15 15 23 20 3 3 22 3 23 15 23 16
split_gain=0.00735365 0.0555456 0.0834022 0.0821665 0.144176 0.206852 0.144652 0.243659 0.19355 0.109064 0.237239 0.347598 0.281352 0.250636
threshold=0.079759400000000022 -6.5929449999999997e-09 6.3330950000000009e-06 1.1005450000000001e-05 -10.067599999999999 7.0991650000000011 -11.455299999999998 -7.2233449999999992 -1.0072199999999998 -12.508949999999999 -10.917699999999998 0.00013207700000000003 -15.570249999999998 -3.5768449999999991e-05
decision_type=2 2 2 2 2 2 2 2 2 2 2 2 2 2
left_child=-1 -2 -3 4 5 -4 -6 8 -8 10 11 12 -5 -14
right_child=1 2 3 9 6 -7 7 -9 -10 -11 -12 -13 13 -15
leaf_value=6.2867796014956757e-06 0.00022904882359338629 -0.00090574992532148249 -0.0032041077785314493 0.0022782157359220686 -0.0028513740411856107 0.011886363727971911 0.0051482076544613975 0.00021345135852849731 0.023799097478284587 -0.00079411599027361883 -0.0018878189650039482 -0.0017772398410854004 0.00078842712682671836 0.018428679447301751
leaf_weight=206878 5236 3443 112 84 27 25 21 36 31 1295 228 119 24 74
leaf_count=206878 5236 3443 112 84 27 25 21 36 31 1295 228 119 24 74
internal_value=0 -0.000120929 -0.000452962 0.000297977 0.00283683 -0.000450372 0.00675288 0.00969964 0.016267 -5.2785e-05 0.001762 0.00452665 0.00864843 0.0141086
internal_weight=0 10755 5519 2076 252 137 115 88 52 1824 529 301 182 98
internal_count=217633 10755 5519 2076 252 137 115 88 52 1824 529 301 182 98
shrinkage=0.15


Tree=1147
num_leaves=15
num_cat=0
split_feature=0 20 20 0 0 20 14 3 23 22 22 2 11 23
split_gain=0.0072641 0.108971 0.278695 0.362816 0.328096 0.433898 0.49024 0.458781 0.508116 0.403442 0.388803 0.920832 0.435236 0.855505
threshold=6.728695000000001 3.5535050000000004 6.665960000000001 9.2978050000000021 8.7439000000000018 8.6135100000000016 0.0006614075000000002 -6.6271099999999992 -10.965549999999999 -0.92432499999999995 0.77552150000000009 0.77022550000000012 3.9213650000000004e-05 -9.6230949999999975
decision_type=2 2 2 2 2 2 2 2 2 2 2 2 2 2
left_child=-1 -2 3 -3 5 6 7 8 -4 -10 12 -12 13 -11
right_child=1 2 4 -5 -6 -7 -8 -9 9 10 11 -13 -14 -15
leaf_value=-1.3473238871658301e-05 0.00023727484401363512 -0.002163400977243417 -0.0029548712775113498 3.6742682015277805e-05 -0.00042316597976866445 -4.7220317789065237e-05 -0.0005097668997972077 -0.00010334568123796526 -0.0063066632531715459 -0.0038277416459315426 -0.012119591811899548 0.020661426846298476 0.018922007895822008 0.012913584807735917
leaf_weight=175268 26994 3140 94 3643 5314 1831 476 254 37 91 51 31 129 280
leaf_count=175268 26994 3140 94 3643 5314 1831 476 254 37 91 51 31 129 280
internal_value=0 5.57401e-05 -0.000263065 -0.000981752 0.000304571 0.00148575 0.00343092 0.0053707 0.00732078 0.00888122 0.00984678 0.000273232 0.0114168 0.00880722
internal_weight=0 42365 15371 6783 8588 3274 1443 967 713 619 582 82 500 371
internal_count=217633 42365 15371 6783 8588 3274 1443 967 713 619 582 82 500 371
shrinkage=0.15


Tree=1148
num_leaves=15
num_cat=0
split_feature=13 33 6 33 6 23 7 36 33 13 5 0 20 5
split_gain=0.00757216 0.128684 0.171988 0.234675 0.322696 0.242979 0.223967 0.269742 0.377624 0.753744 0.406032 0.465867 0.560821 0.529601
threshold=-3.292609999999999e-05 1.8499350000000002e-06 6.5457900000000011e-06 2.1621100000000005e-05 1.5110550000000004e-07 -8.2043399999999984 4.6451350000000011e-05 0.0037576550000000004 1.3533050000000003e-05 -5.144389999999999e-05 1.6033700000000005e-05 4.9407200000000007 3.8385900000000004 8.942730000000002e-06
decision_type=2 2 2 2 2 2 2 2 2 2 2 2 2 2
left_child=1 -1 3 4 -3 6 7 8 -6 -10 11 12 13 -11
right_child=-2 2 -4 -5 5 -7 -8 -9 9 10 -12 -13 -14 -15
leaf_value=0.00040381616821372315 -9.4756857199357064e-06 0.00029202475623247328 0.0007262048394137934 0.0003523778429735103 -0.0058419910468668502 -0.00046787817976735543 -0.0012762223720801955 -0.01245170442289823 -0.010326844117480504 -0.010136757341180263 -0.012360516854096204 0.026555128581821918 -0.0095041773681129715 0.016594150250441291
leaf_weight=12455 195240 1633 2608 2915 726 983 689 93 96 21 24 27 42 81
leaf_count=12455 195240 1633 2608 2915 726 983 689 93 96 21 24 27 42 81
internal_value=0 8.26166e-05 -0.000319933 -0.000692147 -0.00138179 -0.00236431 -0.00340054 -0.00471915 -0.00401204 0.000553395 0.00590982 0.00847408 0.00508388 0.0110907
internal_weight=0 22393 9938 7330 4415 2782 1799 1110 1017 291 195 171 144 102
internal_count=217633 22393 9938 7330 4415 2782 1799 1110 1017 291 195 171 144 102
shrinkage=0.15


Tree=1149
num_leaves=15
num_cat=0
split_feature=5 33 11 18 5 9 34 38 17 5 21 35 14 19
split_gain=0.00814302 0.0234318 0.0405773 0.0330914 0.0235407 0.0206003 0.0284131 0.0183835 0.0165765 0.0162817 0.0841793 0.0416933 0.0708545 0.067738
threshold=2.5967350000000005e-05 -0.0025000549999999997 3.4467150000000011e-05 3.3180850000000009e-05 4.0593400000000003e-05 -0.00015489999999999997 0.048668800000000005 -1.0483999999999998 1.2482750000000002e-07 2.9709300000000004e-05 -19.847999999999995 -0.005729559999999999 0.0022144250000000003 0.0018887850000000002
decision_type=2 2 2 2 2 2 2 2 2 2 2 2 2 2
left_child=5 2 3 7 -4 6 -1 8 -2 10 -3 12 13 -12
right_child=1 9 4 -5 -6 -7 -8 -9 -10 -11 11 -13 -14 -15
leaf_value=0.0063591362087107774 -0.0033124857964659375 0.007694569565355777 -0.0090605375519689085 0.0045545231921423693 -0.0025536153606010668 1.3751054018724318e-05 -0.00081533410930601142 -0.0045666401056692965 0.0020475746145915334 -6.1494979139364327e-06 -0.0015295351033519078 -0.00012731572439619786 0.00037128044376218253 -0.006590434358356735
leaf_weight=27 21 30 22 25 29 173475 23 31 34 35430 704 7241 476 65
leaf_count=27 21 30 22 25 29 173475 23 31 34 35430 704 7241 476 65
internal_value=0 -5.75498e-05 -0.00185824 -0.000249076 -0.00536052 1.46285e-05 0.00305888 -0.00164547 1.00609e-06 -5.09119e-05 -0.000237142 -0.000265182 -0.00106702 -0.00195731
internal_weight=0 44108 162 111 51 173525 50 86 55 43946 8516 8486 1245 769
internal_count=217633 44108 162 111 51 173525 50 86 55 43946 8516 8486 1245 769
shrinkage=0.15


Tree=1150
num_leaves=15
num_cat=0
split_feature=13 33 4 34 37 33 37 16 22 19 1 26 22 33
split_gain=0.00778782 0.0430381 0.162338 0.0432997 0.0748093 0.0689759 0.118433 0.0410787 0.0410915 0.0975462 0.0338598 0.0504156 0.0616644 0.0704441
threshold=-0.00011454099999999999 0.00022867500000000004 -0.51881799999999989 0.15558450000000004 -1.8027099999999996e-07 9.148070000000001e-06 -4.0691899999999991e-07 0.00061606400000000004 2.2495850000000002 0.088137850000000018 -2.7644099999999994 -9.6198899999999998e-05 -0.71545849999999989 1.6512250000000004e-05
decision_type=2 2 2 2 2 2 2 2 2 2 2 2 2 2
left_child=1 3 -3 4 5 -1 -7 8 10 -10 11 -5 13 -13
right_child=-2 2 -4 7 -6 6 -8 -9 9 -11 -12 12 -14 -15
leaf_value=0.00082255327895316955 2.5214164429094362e-06 -0.0046386553514325482 0.013799392636532763 -0.0052901248678099361 -0.00048725085022277266 -0.00078678290303489326 0.012278972495491994 -0.0080519239348047587 -0.00099589448638855377 -0.01266079500682004 0.00031377563104747103 -0.0022497827169718223 -0.0035682301631074068 0.010050411320778288
leaf_weight=140 215928 22 21 75 921 27 37 21 54 23 271 20 51 22
leaf_count=140 215928 22 21 75 921 27 37 21 54 23 271 20 51 22
internal_value=0 -0.000319322 0.00436597 -0.000440542 8.84251e-05 0.00268743 0.00676686 -0.00154871 -0.00128405 -0.00448022 -0.000723445 -0.00239658 -6.3079e-05 0.00419318
internal_weight=0 1705 43 1662 1125 204 64 537 516 77 439 168 93 42
internal_count=217633 1705 43 1662 1125 204 64 537 516 77 439 168 93 42
shrinkage=0.15


Tree=1151
num_leaves=15
num_cat=0
split_feature=36 16 19 3 35 23 23 3 0 20 26 3 12 28
split_gain=0.00697985 0.0834136 0.243528 0.392786 0.43233 0.59004 0.824982 2.45144 0.854882 1.35336 0.717236 0.658768 0.560423 0.460952
threshold=-0.00053743599999999997 -9.1681949999999977e-08 8.1791500000000028e-06 -7.3111649999999999 0.00018180000000000003 -7.1806249999999991 -11.352549999999999 -11.334249999999999 -4.3652699999999998 -4.2474399999999992 -7.8664699999999986e-05 -11.455299999999998 -0.00013747449999999999 -0.0060571349999999991
decision_type=2 2 2 2 2 2 2 2 2 2 2 2 2 2
left_child=1 2 3 4 5 6 11 -8 10 -10 -9 -1 -11 -12
right_child=-2 -3 -4 -5 -6 -7 7 8 9 12 13 -13 -14 -15
leaf_value=0.0047174723640106405 -1.8845192944379688e-05 -0.00010391280642282853 -3.0397681196816247e-05 -0.00017202883315185308 7.9011749022030509e-05 -0.0036351975337131333 -0.0047183760709396498 0.010431615032502683 -0.003650851627291344 0.039691814450855852 -0.021178237684608362 -0.0026727253630432759 0.015719442812030519 0.00063290775512642638
leaf_weight=514 145852 40476 22944 3947 1777 263 330 209 85 23 26 575 477 135
leaf_count=514 145852 40476 22944 3947 1777 263 330 209 85 23 26 575 477 135
internal_value=0 3.82916e-05 0.000222156 0.000915205 0.00188741 0.00310604 0.00385286 0.00642702 0.0102783 0.0138475 0.00463518 0.000815394 0.0168222 -0.00288939
internal_weight=0 71781 31305 8361 4414 2637 2374 1285 955 585 370 1089 500 161
internal_count=217633 71781 31305 8361 4414 2637 2374 1285 955 585 370 1089 500 161
shrinkage=0.15


Tree=1152
num_leaves=15
num_cat=0
split_feature=13 33 7 23 23 3 3 14 3 23 23 23 12 7
split_gain=0.00730909 0.0985079 0.0930464 0.150561 0.171337 0.124233 0.122876 0.110825 0.0909135 0.105644 0.0968586 0.076719 0.069067 0.0601774
threshold=-3.292609999999999e-05 -1.3360349999999997e-06 5.1722600000000012e-05 -10.810799999999999 -17.297799999999995 -17.068099999999998 -10.609449999999997 0.004267840000000001 -11.150499999999999 -6.5922849999999995 -8.8916699999999977 -15.265799999999997 0.00018373550000000001 4.593640000000001e-05
decision_type=2 2 2 2 2 2 2 2 2 2 2 2 2 2
left_child=1 2 3 4 7 11 12 -1 9 -5 -10 -6 -7 -3
right_child=-2 13 -4 8 5 6 -8 -9 10 -11 -12 -13 -14 -15
leaf_value=0.0048827804892802983 -9.3096232826478194e-06 -0.0006758764338178683 7.11940798544446e-05 0.0026845198291486913 -0.0048561503825476386 -0.0026644873679498248 0.0026710998432626465 -0.0014280953552522327 -0.0038822210860598714 -0.00038988044134201713 0.0013907289589971809 0.0053041753128020312 0.00042902436835875844 2.8195447883162114e-05
leaf_weight=217 195240 4026 6073 1611 20 767 145 88 120 298 226 102 206 8494
leaf_count=217 195240 4026 6073 1611 20 767 145 88 120 298 226 102 206 8494
internal_value=0 8.11687e-05 0.00043545 0.00101759 -0.000123094 -0.000906508 -0.00140248 0.00306194 0.00179912 0.0022046 -0.00043804 0.00363855 -0.00200954 -0.00019821
internal_weight=0 22393 9873 3800 1545 1240 1118 305 2255 1909 346 122 973 12520
internal_count=217633 22393 9873 3800 1545 1240 1118 305 2255 1909 346 122 973 12520
shrinkage=0.15


Tree=1153
num_leaves=15
num_cat=0
split_feature=23 14 14 23 0 20 31 11 11 5 20 5 36 9
split_gain=0.00737335 0.0506144 0.164136 0.0759141 0.0665754 0.453581 0.18125 0.245846 0.258878 0.135066 0.134585 0.127014 0.14264 0.105575
threshold=-12.104349999999998 0.00064274150000000012 0.00017734350000000003 -17.743599999999997 5.8791150000000014 3.8385900000000004 -0.068189049999999987 4.6417550000000013e-06 4.1947650000000008e-05 9.1402350000000018e-06 8.1756000000000011 8.3491550000000032e-06 0.00015892250000000002 8.5161300000000018e-06
decision_type=2 2 2 2 2 2 2 2 2 2 2 2 2 2
left_child=1 2 -1 -4 6 -6 7 -5 10 11 -9 12 -7 -8
right_child=-2 -3 3 4 5 9 13 8 -10 -11 -12 -13 -14 -15
leaf_value=-9.1063912718354189e-05 -1.7832868300137562e-05 -8.0200833361880532e-05 -9.3840431111324939e-05 0.0029112820959442199 0.0013496992079764646 0.0013112570108205544 3.0596980993644332e-05 -0.0017756130466007503 0.015000487592466095 -0.0025057613978524598 0.0087167684731459059 -0.019119210993604998 -0.01321327918377737 0.001933348786635844
leaf_weight=18198 153568 34623 2485 1924 1835 32 2972 534 23 518 29 21 29 842
leaf_count=18198 153568 34623 2485 1924 1835 32 2972 534 23 518 29 21 29 842
internal_value=0 4.27466e-05 0.000187329 0.000637899 0.000845499 0.000179049 0.00110211 0.002092 -0.000597918 -0.00340119 -0.00123515 -0.00905766 -0.00559385 0.000450659
internal_weight=0 64065 29442 11244 8759 2435 6324 2510 586 600 563 82 61 3814
internal_count=217633 64065 29442 11244 8759 2435 6324 2510 586 600 563 82 61 3814
shrinkage=0.15


Tree=1154
num_leaves=15
num_cat=0
split_feature=5 26 26 26 9 0 30 16 4 16 12 2 33 21
split_gain=0.00780464 0.03727 0.0499781 0.0764952 0.0967086 0.14892 0.147563 0.10217 0.106323 0.084013 0.0584787 0.134493 0.189396 0.101295
threshold=8.942730000000002e-06 -0.0011416699999999998 -0.00021996299999999997 -0.00029370599999999997 1.7612300000000004e-05 7.0070700000000006 0.0011986450000000001 -3.6020549999999995e-07 0.11543250000000001 -1.4724949999999996e-07 1.3207250000000003e-05 0.13928150000000003 -2.2298499999999995e-06 6.146065000000001
decision_type=2 2 2 2 2 2 2 2 2 2 2 2 2 2
left_child=1 -1 3 -3 7 -6 -7 8 -5 -9 -4 12 -12 -13
right_child=-2 2 10 4 5 6 -8 9 -10 -11 11 13 -14 -15
leaf_value=-0.00086853545149869252 -8.0907300620532583e-06 0.00034994124777051747 0.00031894185681156343 0.0018250107513337682 0.014876807091743958 0.010657984154849228 -0.0024869053180420612 -0.0080771642485013857 0.013894950406393037 0.00072957870311495898 -0.018433200095949523 9.3250677432974249e-05 0.0008348945644684135 -0.001475655969770959
leaf_weight=848 201302 903 8618 52 34 33 46 31 24 114 22 4410 24 1172
leaf_count=848 201302 903 8618 52 34 33 46 31 24 114 22 4410 24 1172
internal_value=0 9.97294e-05 0.000152761 0.00106733 0.00300685 0.00657635 0.003004 0.00118172 0.00563657 -0.00115324 7.33479e-05 -0.000302723 -0.00838028 -0.000236158
internal_weight=0 16331 15483 1237 334 113 79 221 76 145 14246 5628 46 5582
internal_count=217633 16331 15483 1237 334 113 79 221 76 145 14246 5628 46 5582
shrinkage=0.15


Tree=1155
num_leaves=15
num_cat=0
split_feature=22 12 1 22 11 34 11 17 3 30 0 14 23 33
split_gain=0.00785689 0.0444394 0.105645 0.690936 1.82534 0.770011 0.709863 0.717756 0.604879 0.737852 0.557546 0.663795 0.506544 0.391223
threshold=-0.36388649999999995 1.9714300000000002e-05 -2.1902699999999995 0.17753500000000003 2.3517950000000001e-05 0.015026650000000001 0.00013807150000000001 -3.1235699999999993e-08 -6.8364449999999986 0.0030262900000000005 6.3931750000000003 0.00052710300000000012 -14.850299999999999 3.7937600000000008e-05
decision_type=2 2 2 2 2 2 2 2 2 2 2 2 2 2
left_child=-1 2 -2 4 -4 -6 7 -7 9 12 -11 -12 -9 -8
right_child=1 -3 3 -5 5 6 13 8 -10 10 11 -13 -14 -15
leaf_value=-3.2133397818329303e-05 5.90471128180789e-06 -7.2083630749466675e-05 -0.00060367894421537501 -8.6685224075025435e-06 0.0002717917099376098 -0.003143645729869604 0.00096144754505075977 0.0017255766411835793 0.00078203104316226888 -0.013699432312407426 -0.0010873431526466876 0.031494605111947752 0.021536198313122579 0.019221480332780629
leaf_weight=95824 50400 56529 1540 12288 252 57 220 32 62 27 34 24 314 30
leaf_count=95824 50400 56529 1540 12288 252 57 220 32 62 27 34 24 314 30
internal_value=0 2.52785e-05 0.000109589 0.000460777 0.0026863 0.00750243 0.00978008 0.0127925 0.0146351 0.0166278 0.00410607 0.0123948 0.019704 0.00315265
internal_weight=0 121809 65280 14880 2592 1052 800 550 493 431 85 58 346 250
internal_count=217633 121809 65280 14880 2592 1052 800 550 493 431 85 58 346 250
shrinkage=0.15


Tree=1156
num_leaves=15
num_cat=0
split_feature=22 6 39 22 1 17 0 18 23 29 4 23 3 1
split_gain=0.00859925 0.0825414 0.156789 0.121286 0.36852 1.00545 2.1391 1.01186 0.559393 0.696319 0.691163 0.618519 1.76956 1.5008
threshold=1.7837150000000002 1.8610000000000003e-07 2.3937350000000006e-05 2.1317500000000007 6.0371450000000006 1.0893100000000001e-07 -4.879249999999999 6.0757700000000008e-06 -11.762749999999999 0.0039435100000000008 -0.17710599999999996 -7.6733199999999995 -7.755139999999999 9.4331900000000015
decision_type=2 2 2 2 2 2 2 2 2 2 2 2 2 2
left_child=-1 -2 3 4 -3 -6 -7 8 -8 10 -10 13 -13 -12
right_child=1 2 -4 -5 5 6 7 -9 9 -11 11 12 -14 -15
leaf_value=-1.5533286929593182e-05 0.00024938612851633227 -0.00070212613294391572 0.0002780808799373458 -0.00082506903366320764 -0.0053636434325100317 -0.0036475344087885599 -0.0064296063099754967 -0.00026973396550954105 -0.0074951904625631862 0.035931277075724209 0.03734439188614487 -0.020418302611255181 0.023934699744142508 -0.0089010878128465264
leaf_weight=171176 24151 2562 10312 8505 249 301 20 93 25 48 75 29 67 20
leaf_count=171176 24151 2562 10312 8505 249 301 20 93 25 48 75 29 67 20
internal_value=0 5.72341e-05 -0.000150811 -0.000519557 0.000225177 0.00278802 0.00578177 0.0133102 0.0177572 0.0195895 0.015958 0.0190278 0.0105364 0.0276085
internal_weight=0 46457 22306 11994 3489 927 678 377 284 264 216 191 96 95
internal_count=217633 46457 22306 11994 3489 927 678 377 284 264 216 191 96 95
shrinkage=0.15


Tree=1157
num_leaves=15
num_cat=0
split_feature=23 13 5 8 33 6 19 6 23 33 0 21 0 20
split_gain=0.00949467 0.0504577 0.102426 0.0774832 0.0771913 0.120962 0.121473 0.138845 0.147645 0.151354 0.106098 0.429177 0.110354 0.383669
threshold=-7.7292499999999995 -1.7051149999999997e-05 1.7645550000000003e-05 -1.8929149999999998e-05 4.8296750000000013e-07 1.0025950000000002e-05 0.00025534800000000002 2.2994300000000004e-06 -6.4887299999999994 3.2130100000000007e-06 8.3884950000000007 -3.7979249999999998 6.6519700000000013 2.9359650000000008
decision_type=2 2 2 2 2 2 2 2 2 2 2 2 2 2
left_child=-1 2 3 -2 -5 6 7 -6 9 -9 12 -12 -8 -14
right_child=1 -3 -4 4 5 -7 10 8 -10 -11 11 -13 13 -15
leaf_value=-2.0642077691144072e-05 0.0091316170365898855 -1.5995364889318097e-05 -6.4387295942921826e-05 0.0012747717369614158 -0.0020217250719838376 -0.0083648272505957421 6.4970263636689827e-05 0.0022894410611255665 -0.0010496170459581271 0.014292666480905608 0.017139867595019374 -0.0050164353967245131 0.0026544205677551374 -0.012054457827048592
leaf_weight=151758 25 53369 6961 3007 64 37 2031 39 42 60 37 42 88 73
leaf_count=151758 25 53369 6961 3007 64 37 2031 39 42 60 37 42 88 73
internal_value=0 4.75537e-05 0.000318748 0.000799722 0.000761987 0.0001484 0.000275617 0.00377256 0.00640258 0.00956412 -4.00471e-05 0.00536057 -0.000234686 -0.00401482
internal_weight=0 65875 12506 5545 5520 2513 2476 205 141 99 2271 79 2192 161
internal_count=217633 65875 12506 5545 5520 2513 2476 205 141 99 2271 79 2192 161
shrinkage=0.15


Tree=1158
num_leaves=15
num_cat=0
split_feature=14 34 3 14 23 23 8 21 10 26 21 3 23 1
split_gain=0.00939374 0.0683568 0.197722 0.138879 0.337733 0.14078 0.155059 0.366217 0.288793 0.533317 0.17488 0.554484 0.831367 0.56171
threshold=0.0013170050000000002 0.0078442450000000014 -10.010399999999999 0.00017188600000000003 -13.825799999999999 -7.162399999999999 1.5670900000000003e-05 -11.751949999999999 3.4738900000000007e-05 -0.00038688449999999994 -6.1725999999999992 -8.2133949999999984 -8.1455849999999987 -5.5925699999999994
decision_type=2 2 2 2 2 2 2 2 2 2 2 2 2 2
left_child=1 2 -1 -3 -5 6 -6 8 9 -8 11 12 13 -9
right_child=-2 3 -4 4 5 -7 7 10 -10 -11 -12 -13 -14 -15
leaf_value=0.0013960996142741873 3.5860812873024906e-05 9.6204248405732686e-05 4.1062403717704999e-05 0.00044533020848538159 -0.00073928080111563632 0.00017999452590780599 -0.0036899854429066183 0.0098661488748280606 0.0017401183627393597 0.025959524364533047 -0.00049902611854826817 -0.001381875594545776 -0.010004653784183219 -0.0057624840625794607
leaf_weight=2780 93639 51243 18862 11935 27208 6357 21 376 78 39 4338 628 69 60
leaf_count=2780 93639 51243 18862 11935 27208 6357 21 376 78 39 4338 628 69 60
internal_value=0 -2.70817e-05 0.000215122 -7.8295e-05 -0.000253252 -0.000466086 -0.000591239 0.00012688 0.00775841 0.0155822 -6.56171e-05 0.00159381 0.00529426 0.00771542
internal_weight=0 123994 21642 102352 51109 39174 32817 5609 138 60 5471 1133 505 436
internal_count=217633 123994 21642 102352 51109 39174 32817 5609 138 60 5471 1133 505 436
shrinkage=0.15


Tree=1159
num_leaves=15
num_cat=0
split_feature=4 14 26 16 27 5 32 29 38 6 19 5 24 3
split_gain=0.0099331 0.0297829 0.070879 0.214235 0.0773929 0.0512323 0.0973249 0.16445 0.0979723 0.10639 0.0699835 0.0507061 0.0930758 0.0473332
threshold=-0.48541799999999996 0.0033273500000000002 -0.070352799999999979 6.5260250000000008e-06 0.61975350000000018 9.8782150000000025e-06 0.56405550000000015 0.04050610000000001 0.012353350000000001 -6.6249699999999982e-07 3.3787900000000009e-05 1.0386350000000001e-05 -0.27306049999999998 -6.0822949999999993
decision_type=2 2 2 2 2 2 2 2 2 2 2 2 2 2
left_child=1 2 3 -1 13 6 8 -8 9 -6 -10 12 -7 -4
right_child=-2 -3 4 -5 5 11 7 -9 10 -11 -12 -13 -14 -15
leaf_value=-0.0020826419125244554 -1.6736601823732068e-05 -2.090377861721023e-05 0.0007084778865725491 0.014356994131324633 -0.0095329306131627933 0.011019389218283602 -0.013640782498681035 0.0015091217709206309 0.012343115522526205 -0.00012501126457668035 -0.00020530206325929614 -0.00014006132840803682 0.00032715315014244086 -0.00014407039839103573
leaf_weight=42 170992 31707 6461 31 35 26 38 28 20 119 20 6157 62 1895
leaf_count=42 170992 31707 6461 31 35 26 38 28 20 119 20 6157 62 1895
internal_value=0 6.13586e-05 0.000236013 0.00489857 0.00021311 -0.000174856 -0.00223795 -0.00721355 -0.00054522 -0.00226317 0.00606891 -8.89624e-05 0.00348622 0.000515134
internal_weight=0 46641 14934 73 14861 6505 260 66 194 154 40 6245 88 8356
internal_count=217633 46641 14934 73 14861 6505 260 66 194 154 40 6245 88 8356
shrinkage=0.15


Tree=1160
num_leaves=15
num_cat=0
split_feature=4 38 23 4 4 34 25 14 3 1 22 28 20 15
split_gain=0.00797858 0.0637734 0.0876005 0.102069 0.0945928 0.174724 0.328374 0.905276 0.871065 0.558494 0.433249 0.374487 0.357248 0.300638
threshold=0.13009950000000001 2.0827900000000004e-05 -6.5068949999999992 0.22843500000000003 0.16506100000000004 0.045740950000000009 0.47161650000000005 0.00036044150000000009 -6.572074999999999 4.943715000000001 1.3071100000000002 0.0037598100000000006 3.5535050000000004 3.1913400000000001e-06
decision_type=2 2 2 2 2 2 2 2 2 2 2 2 2 2
left_child=-1 2 4 -4 5 6 -2 8 9 11 -11 12 -8 -7
right_child=1 -3 3 -5 -6 13 7 -9 -10 10 -12 -13 -14 -15
leaf_value=-2.0616339852553797e-05 0.00060078636678098619 0.00017875602979503861 -0.0023501428188832372 -0.0003981104655221219 -0.00010179892613064197 -0.00064091549213576371 0.0084556075386298859 -0.0040561806575885595 -0.0019933695722742142 0.01637170253015938 0.04168513308054414 -0.0031318701519921885 0.028727629856251539 0.015045597519201691
leaf_weight=143626 1126 37136 747 3120 29942 1509 53 141 81 32 29 32 31 28
leaf_count=143626 1126 37136 747 3120 29942 1509 53 141 81 32 29 32 31 28
internal_value=0 4.00103e-05 -9.97326e-05 -0.00077519 -2.05908e-05 0.000773509 0.00191105 0.00560868 0.0108906 0.0167867 0.028406 0.0106766 0.0159369 -0.000355149
internal_weight=0 74007 36871 3867 33004 3062 1525 399 258 177 61 116 84 1537
internal_count=217633 74007 36871 3867 33004 3062 1525 399 258 177 61 116 84 1537
shrinkage=0.15


Tree=1161
num_leaves=15
num_cat=0
split_feature=4 37 3 18 38 10 10 26 6 12 28 16 1 36
split_gain=0.00805296 0.0280039 0.0453898 0.118916 0.129047 0.149211 0.147012 0.0894931 0.0744444 0.117692 0.0580572 0.103574 0.195345 0.419186
threshold=-0.48541799999999996 3.6249250000000003e-06 -8.3608649999999987 -0.00028490899999999991 0.075036400000000017 2.9520050000000002e-05 2.1255050000000006e-05 0.00079075450000000013 1.1916850000000001e-07 8.292345000000001e-05 0.044105050000000007 2.1717400000000003e-05 -8.1814349999999987 0.21912450000000003
decision_type=2 2 2 2 2 2 2 2 2 2 2 2 2 2
left_child=1 -1 3 -3 8 6 -6 -7 -5 -10 11 12 13 -4
right_child=-2 2 10 4 5 7 -8 -9 9 -11 -12 -13 -14 -15
leaf_value=8.5541749557552433e-05 -1.5069630683806159e-05 -0.00038491408830764368 -0.0035191923974909715 -0.0041914347572198423 -0.0068719562030686385 -0.0099645323266842108 -0.023351480912294519 0.0020138174125653068 -0.0016297257769530497 0.012523119354445953 -0.00090912252386939659 -0.0013235481406611133 0.0013512840468214869 0.021356477114771094
leaf_weight=43674 170992 1691 27 65 29 23 21 36 39 20 438 211 332 35
leaf_count=43674 170992 1691 27 65 29 23 21 36 39 20 438 211 332 35
internal_value=0 5.52472e-05 -0.000390686 -0.000822653 -0.00399955 -0.00776472 -0.0137934 -0.00265571 -0.00068984 0.00316785 0.000406156 0.00135837 0.00279463 0.0105235
internal_weight=0 46641 2967 1924 233 109 50 59 124 59 1043 605 394 62
internal_count=217633 46641 2967 1924 233 109 50 59 124 59 1043 605 394 62
shrinkage=0.15


Tree=1162
num_leaves=15
num_cat=0
split_feature=32 12 13 33 19 25 9 22 22 34 25 22 8 19
split_gain=0.00754238 0.0767636 0.0921764 0.129437 0.660622 0.523145 0.602017 0.583393 0.641309 0.557255 0.389303 0.208971 0.339826 0.110344
threshold=-0.031422399999999996 2.3829550000000006e-05 5.4641750000000013e-05 -2.1909249999999997e-05 3.7476600000000006e-05 3.6413250000000006 3.7995500000000006e-05 0.52775800000000006 1.1181450000000004 0.10825800000000001 1.0238200000000004 0.56816350000000015 -1.4314399999999998e-05 5.8236700000000004e-05
decision_type=2 2 2 2 2 2 2 2 2 2 2 2 2 2
left_child=1 -1 -3 4 5 6 7 -4 10 -8 -9 -11 -13 -5
right_child=-2 2 3 13 -6 -7 9 8 -10 11 -12 12 -14 -15
leaf_value=0.00017134652690849146 -2.120527704143868e-05 -0.00027757354889586922 -0.005263276857190898 -0.0015390115900905689 0.00017208747459328106 -0.00052767629569503837 0.024606369979446752 0.022332399617880583 0.0038368610461475324 0.0046288404541367009 0.044936826208140698 0.0028141969023272395 -0.024837358882650731 0.00016566976529648237
leaf_weight=43387 138034 25695 21 971 2069 130 20 60 32 37 24 20 20 7113
leaf_count=43387 138034 25695 21 971 2069 130 20 60 32 37 24 20 20 7113
internal_value=0 3.67724e-05 -0.000124466 0.000249604 0.00120882 0.00710168 0.0113402 0.0177422 0.021907 0.00229826 0.0287908 -0.00349605 -0.0110116 -3.9086e-05
internal_weight=0 79599 36212 10517 2433 364 234 137 116 97 84 77 40 8084
internal_count=217633 79599 36212 10517 2433 364 234 137 116 97 84 77 40 8084
shrinkage=0.15


Tree=1163
num_leaves=15
num_cat=0
split_feature=1 21 21 1 12 3 25 34 28 3 34 3 13 7
split_gain=0.00954025 0.125102 0.41133 0.596581 0.546214 0.465369 0.391806 0.288895 0.224173 0.335336 0.801697 0.24779 0.184527 0.176354
threshold=-6.5480849999999995 -6.4081649999999994 -3.5985549999999997 -10.060549999999997 -0.00016553599999999998 -6.493739999999999 4.6872250000000006 0.0064288850000000005 -0.024907849999999995 -9.8624849999999977 0.28895350000000003 -9.3441199999999984 2.3808100000000003e-05 5.3345100000000005e-05
decision_type=2 2 2 2 2 2 2 2 2 2 2 2 2 2
left_child=1 -1 3 -3 -5 6 7 -6 9 10 -9 -11 -8 -10
right_child=-2 2 -4 4 5 -7 12 8 13 11 -12 -13 -14 -15
leaf_value=0.00041442899748190106 1.6408122517295364e-05 0.00047430392346108487 4.820391903523962e-05 -5.4679213172404285e-05 0.00052413903168409303 -0.00097034123542977073 -0.0005771397698017028 0.027698208205401899 -0.0083488761772076078 -0.018059781995834783 -0.011491831224006802 -0.003607077740303566 0.012754260286289665 -0.0015676747319086739
leaf_weight=9859 170966 2679 30160 1412 139 894 141 24 941 30 23 242 28 95
leaf_count=9859 170966 2679 30160 1412 139 894 141 24 941 30 23 242 28 95
internal_value=0 -6.01117e-05 -0.000187217 -0.00125525 -0.00242267 -0.0037303 -0.005214 -0.00598837 -0.00665645 -0.0031795 0.0085201 -0.00520113 0.00163161 -0.00772705
internal_weight=0 46667 36808 6648 3969 2557 1663 1494 1355 319 47 272 169 1036
internal_count=217633 46667 36808 6648 3969 2557 1663 1494 1355 319 47 272 169 1036
shrinkage=0.15


Tree=1164
num_leaves=15
num_cat=0
split_feature=21 1 21 1 14 3 25 15 21 34 19 23 22 2
split_gain=0.0084479 0.0634119 0.311538 0.427829 0.399476 0.263087 0.266767 0.224642 0.286602 0.197646 0.185925 0.287213 0.156796 0.211655
threshold=-2.9333349999999991 -6.5480849999999995 -6.3049749999999998 -10.060549999999997 0.0012017500000000003 -6.5460449999999986 4.5053550000000007 3.1913400000000001e-06 -5.8485049999999994 0.16786050000000002 3.4781700000000004e-06 -11.352549999999999 -2.5818199999999996 -2.1781349999999997
decision_type=2 2 2 2 2 2 2 2 2 2 2 2 2 2
left_child=1 2 -1 -4 5 6 7 8 -5 -8 11 -6 13 -10
right_child=-2 -3 3 4 10 -7 9 -9 12 -11 -12 -13 -14 -15
leaf_value=0.00035034211964137847 -2.2488606506100319e-05 0.00011140597858675526 0.00042749975725196602 -0.0099620145706986862 -0.0034615682170260698 -0.0010359864018313159 0.011791990705585868 0.0026733096145207936 -0.01347146384557709 -0.00088133532208726248 -0.00029503611556363276 0.021116559205414807 -0.0048754911032895289 0.0011970057626977323
leaf_weight=10054 137825 61648 3265 224 20 1110 33 91 25 172 1809 23 1141 193
leaf_count=10054 137825 61648 3265 224 20 1110 33 91 25 172 1809 23 1141 193
internal_value=0 3.88369e-05 -0.000207514 -0.000899433 -0.00179438 -0.00286695 -0.00394858 -0.00457403 -0.00499065 0.00115876 -6.33212e-05 0.00968487 -0.00417123 -0.000485158
internal_weight=0 79808 18160 8106 4841 2989 1879 1674 1583 205 1852 43 1359 218
internal_count=217633 79808 18160 8106 4841 2989 1879 1674 1583 205 1852 43 1359 218
shrinkage=0.15


Tree=1165
num_leaves=15
num_cat=0
split_feature=1 21 21 23 3 1 12 3 4 23 21 13 3 21
split_gain=0.00892748 0.0461872 0.0991967 0.118294 0.154235 0.260713 0.121906 0.0976312 0.090475 0.140153 0.0652134 0.0751589 0.0625311 0.058707
threshold=-12.252349999999998 -2.2686149999999996 -9.8496499999999987 -6.2458949999999991 -5.4679649999999986 -12.450199999999999 -4.9301449999999992e-05 -5.5188399999999991 -0.056370599999999993 -6.4159099999999993 -15.528799999999999 7.2925650000000004e-06 -6.0822949999999993 -10.940449999999998
decision_type=2 2 2 2 2 2 2 2 2 2 2 2 2 2
left_child=1 2 3 7 5 6 -5 8 13 12 11 -9 -10 -1
right_child=-2 -3 -4 4 -6 -7 -8 10 9 -11 -12 -13 -14 -15
leaf_value=-0.011174824467613281 6.1737447506042367e-06 -0.00043822459980698541 0.00067585225563215315 0.022651051636785269 -0.0026601662011554224 -0.0050600321352249015 0.0071484973384067412 0.0097165166167542342 -0.009966748442093375 0.0089964273851364848 -0.0014215300399882836 -0.0024155177967622875 -0.0022898510354354314 -0.0025970356986643028
leaf_weight=58 209002 5100 2794 21 62 24 25 27 32 21 327 20 94 26
leaf_count=58 209002 5100 2794 21 62 24 25 27 32 21 327 20 94 26
internal_value=0 -0.000149499 0.000267522 -0.00128048 0.00278798 0.00761348 0.0142258 -0.00216814 -0.00459273 -0.00234869 -0.000670601 0.00455395 -0.00423954 -0.00851979
internal_weight=0 8631 3531 737 132 70 46 605 231 147 374 47 126 84
internal_count=217633 8631 3531 737 132 70 46 605 231 147 374 47 126 84
shrinkage=0.15


Tree=1166
num_leaves=15
num_cat=0
split_feature=22 6 25 30 3 14 33 18 8 13 34 2 29 0
split_gain=0.00794162 0.0517439 0.120324 0.10553 0.123076 0.172053 0.240119 0.360594 0.295652 0.240077 0.27057 0.59294 0.399168 0.467357
threshold=1.6880500000000003 1.0000000180025095e-35 0.32920750000000004 0.00047772550000000003 -7.7871049999999995 0.0005574960000000001 6.7253650000000001e-06 -8.7140049999999986e-06 -2.6341399999999995e-05 -2.8745349999999997e-05 0.0078442450000000014 1.7193250000000002 0.0058056400000000008 -3.7136199999999993
decision_type=2 2 2 2 2 2 2 2 2 2 2 2 2 2
left_child=-1 2 -2 4 5 6 8 -8 -3 -10 -11 -12 13 -13
right_child=1 3 -4 -5 -6 -7 7 -9 9 10 11 12 -14 -15
leaf_value=-1.5625508373324666e-05 0.0006340491241103029 0.016235408742266536 -4.9753543334911354e-05 0.00022875801673649004 0.00013225257268238903 -0.00040060604213785339 0.0060264494491078088 -0.0064949790718318171 -0.0067803718933762309 -0.0034298131367553907 -0.0043055433080560999 0.0055142942590382616 -0.00079318721754020015 0.021801184391712438
leaf_weight=167749 9267 22 15431 11782 5820 5883 59 421 157 420 242 178 151 51
leaf_count=167749 9267 22 15431 11782 5820 5883 59 421 157 420 242 178 151 51
internal_value=0 5.25452e-05 0.000206818 -9.87383e-05 -0.000386605 -0.000784778 -0.00211346 -0.00495589 -0.000996043 -0.00131222 -0.00048832 0.0014979 0.00519377 0.00914151
internal_weight=0 49884 24698 25186 13404 7584 1701 480 1221 1199 1042 622 380 229
internal_count=217633 49884 24698 25186 13404 7584 1701 480 1221 1199 1042 622 380 229
shrinkage=0.15


Tree=1167
num_leaves=15
num_cat=0
split_feature=28 3 11 11 2 13 5 8 3 16 18 4 31 33
split_gain=0.00739674 0.0685738 0.023619 0.0630158 0.11592 0.0447309 0.0380859 0.0372025 0.061024 0.192932 0.139198 0.22202 0.0506064 0.0576222
threshold=-0.99135349999999989 -18.015749999999997 4.490750000000001e-05 0.00011291700000000002 -0.79580649999999986 5.4641750000000013e-05 2.271735e-05 5.1498050000000006e-06 -7.3111649999999999 5.2623050000000008e-06 -5.8725749999999996e-05 -2.1668549999999995 7.8198850000000011 -0.00037994999999999994
decision_type=2 2 2 2 2 2 2 2 2 2 2 2 2 2
left_child=1 -1 7 4 -4 6 -5 -3 10 -10 11 -9 13 -12
right_child=-2 2 3 5 -6 -7 -8 8 9 -11 12 -13 -14 -15
leaf_value=0.0073371274047531188 2.4797085149161732e-06 -2.2378975653793224e-05 0.010344217885151894 -0.0095094701740890738 0.00056817919652390764 0.00019991850253111472 -0.0012329449058221332 0.00025513456364731406 -0.0014670196645965915 0.010765393768352539 -0.009967227132849232 -0.01835025955036643 0.0016069438356001379 -0.0019005764788524529
leaf_weight=26 215897 746 37 22 104 190 29 27 240 33 23 31 79 149
leaf_count=26 215897 746 37 22 104 190 29 27 240 33 23 31 79 149
internal_value=0 -0.000308388 -0.000424636 0.000614784 0.00313352 -0.000858835 -0.00480321 -0.000723625 -0.00162247 1.16237e-05 -0.00306619 -0.00968913 -0.00153579 -0.00297926
internal_weight=0 1736 1710 382 141 241 51 1328 582 273 309 58 251 172
internal_count=217633 1736 1710 382 141 241 51 1328 582 273 309 58 251 172
shrinkage=0.15


Tree=1168
num_leaves=15
num_cat=0
split_feature=8 21 7 1 21 33 26 12 3 8 21 4 29 7
split_gain=0.00743444 0.0331958 0.0482221 0.268165 0.0568015 0.0475422 0.0939568 0.133451 0.0830333 0.0374308 0.0613729 0.0654284 0.0234564 0.0703126
threshold=3.5712600000000008e-05 -6.0095599999999996 5.7322200000000012e-05 -10.362799999999998 -6.0969499999999988 2.2566150000000003e-06 5.2797150000000007e-05 -6.1600249999999983e-05 -5.9118649999999997 3.8577500000000008e-05 -8.8025949999999984 0.038924450000000006 -0.0015173299999999997 0.00013396800000000002
decision_type=2 2 2 2 2 2 2 2 2 2 2 2 2 2
left_child=-1 2 3 5 9 6 7 -2 -7 10 11 -4 13 -11
right_child=1 -3 4 -5 -6 8 -8 -9 -10 12 -12 -13 -14 -15
leaf_value=6.3646943203027355e-06 0.016038221130293094 -0.00025439843284263329 -0.010885586668737231 0.017522469902178272 0.0062907387209741178 -0.010771856940355349 -0.0047565350999913946 -0.00089153217109428197 0.0012242095431173692 0.0032709198890939735 0.00071145595560665245 -0.00011587736900599505 -0.00015581956821249333 3.8629929608856749e-05
leaf_weight=206737 20 8644 30 24 34 20 23 22 37 207 60 22 1189 564
leaf_count=206737 20 8644 30 24 34 20 23 22 37 207 60 22 1189 564
internal_value=0 -0.000120762 0.000392186 0.00302841 0.000209427 0.000177123 0.00295001 0.00717026 -0.00298494 0.000109637 -0.00255741 -0.00632917 0.00026204 0.000906443
internal_weight=0 10896 2252 146 2106 122 65 42 57 2072 112 52 1960 771
internal_count=217633 10896 2252 146 2106 122 65 42 57 2072 112 52 1960 771
shrinkage=0.15


Tree=1169
num_leaves=15
num_cat=0
split_feature=1 21 21 25 4 17 21 1 30 6 32 16 17 6
split_gain=0.0066823 0.0341609 0.0763921 0.20429 0.169616 0.0919675 0.0749983 0.0738951 0.102411 0.0506929 0.0479381 0.0762187 0.0461946 0.0374818
threshold=-12.252349999999998 -9.8496499999999987 -12.91935 0.61926450000000011 -0.056370599999999993 7.7086400000000015e-08 -3.0476499999999995 -12.647449999999997 0.00018208150000000004 6.8149800000000011e-06 11.810900000000002 6.0590300000000018e-07 6.063115000000001e-08 -3.1083249999999988e-08
decision_type=2 2 2 2 2 2 2 2 2 2 2 2 2 2
left_child=1 2 3 4 -1 -6 -3 -4 12 10 11 -5 -9 -10
right_child=-2 6 7 9 5 -7 -8 8 13 -11 -12 -13 -14 -15
leaf_value=-0.00072404382794047709 5.3413007268961476e-06 0.00065907570997187314 -0.0011710196375152571 -0.0023595097332018873 0.021397909820079806 0.0071852368876404527 -0.00034474861217750549 -0.01471334180006614 -0.0044537041685543954 0.0045968440710566936 0.0034040615499100605 -0.012520475100609474 -0.0060749336215667428 0.0032979380185715855
leaf_weight=30 209002 2411 388 98 20 21 5483 26 32 24 23 20 30 25
leaf_count=30 209002 2411 388 98 20 21 5483 26 32 24 23 20 30 25
internal_value=0 -0.000129341 -0.00110599 0.00111908 0.00784686 0.0141182 -3.81587e-05 -0.00215413 -0.00552978 -0.0017759 -0.00286062 -0.00408171 -0.0100856 -0.00105386
internal_weight=0 8631 737 236 71 41 7894 501 113 165 141 118 56 57
internal_count=217633 8631 737 236 71 41 7894 501 113 165 141 118 56 57
shrinkage=0.15


Tree=1170
num_leaves=15
num_cat=0
split_feature=38 4 14 23 14 4 30 23 23 14 23 34 1 14
split_gain=0.00657673 0.0987211 0.156645 0.290673 0.234937 0.162573 0.557714 0.379874 0.319113 0.301859 0.564021 0.400934 0.207946 0.189444
threshold=-0.00024543399999999994 -0.0098646799999999989 0.00031542200000000004 -9.1480199999999989 0.000110883 -0.20288699999999996 0.00055082150000000012 -8.2979299999999991 -14.669299999999998 0.00083241650000000016 -11.172049999999997 0.072606550000000006 -4.4708149999999991 0.00070374100000000013
decision_type=2 2 2 2 2 2 2 2 2 2 2 2 2 2
left_child=1 2 3 -1 -5 -4 7 8 -7 10 -10 12 -11 -12
right_child=-2 -3 5 4 -6 6 -8 -9 9 11 13 -13 -14 -15
leaf_value=0.0010857725765412822 -1.8915119872784717e-05 -0.00013475733293169756 0.00015285793067320222 0.0005533285134723887 -0.0016142781161251872 0.00047207424041758082 0.00050571799531887282 0.0012435389142234012 -0.0033431170833156149 -0.0066801973382877933 -0.014859232208127479 -0.01775841528045324 0.00096734767639385859 -0.0039484258994276003
leaf_weight=9370 142598 37813 19206 2641 1960 245 2480 350 285 112 214 36 280 43
leaf_count=9370 142598 37813 19206 2641 1960 245 2480 350 285 112 214 36 280 43
internal_value=0 3.59467e-05 0.000209361 0.000606331 -0.00037006 -2.91689e-05 -0.000893448 -0.00311066 -0.00436495 -0.00558667 -0.00793809 -0.00260894 -0.00121767 -0.0130337
internal_weight=0 75035 37222 13971 4601 23251 4045 1565 1215 970 542 428 392 257
internal_count=217633 75035 37222 13971 4601 23251 4045 1565 1215 970 542 428 392 257
shrinkage=0.15


Tree=1171
num_leaves=15
num_cat=0
split_feature=4 38 4 17 22 0 33 23 19 4 20 19 20 4
split_gain=0.00883225 0.0365717 0.0672949 0.0872906 0.173091 0.226533 0.190759 0.208124 0.254628 0.335504 0.186359 0.172091 0.136982 0.119105
threshold=0.11543250000000001 -0.0032950249999999996 1.5436950000000003 4.5674150000000016e-06 2.7043800000000005 -5.2293599999999989 4.3468250000000009e-05 -16.042949999999994 0.0024056700000000004 0.34245300000000006 19.256550000000001 0.0039778950000000013 -5.1526549999999993 0.15498250000000002
decision_type=2 2 2 2 2 2 2 2 2 2 2 2 2 2
left_child=-1 2 3 -2 6 11 10 -8 -9 -10 13 -6 -7 -5
right_child=1 -3 -4 4 5 12 7 8 9 -11 -12 -13 -14 -15
leaf_value=-2.2457546026389886e-05 -0.00023132236125283573 8.6334119343971924e-05 0.0001981824060701969 0.0022811010435415321 0.0041027277085833765 -0.0068197374884039165 -0.0027776267079389072 -0.0058602223603744412 -0.0024840272049634505 0.018523512823507188 0.0097369732944151532 0.021932548178093772 0.0051662769966486196 -0.003564903107940603
leaf_weight=140198 5671 64728 5579 85 29 45 96 26 26 50 26 21 41 1012
leaf_count=140198 5671 64728 5579 85 29 45 96 26 26 50 26 21 41 1012
internal_value=0 4.06599e-05 -0.000191999 -0.000497389 -0.00153299 0.00356244 -0.00205757 0.00223522 0.00695319 0.0113367 -0.00281445 0.0115913 -0.00110547 -0.00311193
internal_weight=0 77435 12707 7128 1457 136 1321 198 102 76 1123 50 86 1097
internal_count=217633 77435 12707 7128 1457 136 1321 198 102 76 1123 50 86 1097
shrinkage=0.15


Tree=1172
num_leaves=15
num_cat=0
split_feature=37 8 15 5 28 19 3 23 19 21 15 19 17 21
split_gain=0.0067972 0.0352567 0.0475335 0.112647 0.201276 0.264138 0.177451 0.246381 0.276006 0.0645496 0.130668 0.0602605 0.0669616 0.113572
threshold=-1.8604049999999997e-06 -8.9841999999999978e-06 -1.2760799999999998e-06 1.7351050000000004e-05 0.13736000000000001 0.0082253950000000017 -9.2460099999999983 -8.6943549999999981 0.0025007950000000005 3.8936900000000008 -7.0429099999999998e-06 7.4248700000000005e-07 -6.5767799999999986e-08 2.8817050000000006
decision_type=2 2 2 2 2 2 2 2 2 2 2 2 2 2
left_child=1 2 3 4 9 6 7 8 -6 -1 -11 12 13 -4
right_child=-2 -3 11 -5 5 -7 -8 -9 -10 10 -12 -13 -14 -15
leaf_value=-0.00045996442523592491 6.7107551309983849e-06 -0.00027897385126911088 0.00072640844895171793 -0.000133765365211848 0.028458655916952659 -0.003278864457670352 0.002418259568481804 0.0022115033765658151 0.0063693227772455424 -0.0014766786642105539 0.01210539161460474 -0.00057279753946668638 0.00052505364806476585 0.014896050577517599
leaf_weight=245 204526 8728 35 707 35 40 38 24 20 34 30 1966 1185 20
leaf_count=245 204526 8728 35 707 35 40 38 24 20 34 30 1966 1185 20
internal_value=0 -0.000104717 0.000242603 0.00105963 0.00287021 0.00724366 0.0108411 0.0148926 0.0204262 0.000648102 0.00488992 -5.63275e-05 0.000762527 0.00587901
internal_weight=0 13107 4379 1173 466 157 117 79 55 309 64 3206 1240 55
internal_count=217633 13107 4379 1173 466 157 117 79 55 309 64 3206 1240 55
shrinkage=0.15


Tree=1173
num_leaves=15
num_cat=0
split_feature=1 22 36 39 7 16 4 3 21 33 3 21 23 14
split_gain=0.00736296 0.062046 0.0431229 0.093909 0.184548 0.13705 0.333531 0.595633 0.0714614 0.0649603 0.0917615 0.255911 1.12855 0.76721
threshold=7.2775700000000008 2.8050300000000004 0.022400650000000005 0.00044504700000000001 2.5749450000000001e-05 3.3455050000000005e-07 0.67000000000000015 -6.0288849999999989 7.3636550000000005 1.4686200000000002e-05 -7.1641399999999988 7.8897200000000014 -7.2957849999999995 0.00043225750000000003
decision_type=2 2 2 2 2 2 2 2 2 2 2 2 2 2
left_child=-1 2 9 4 -4 8 7 -7 -6 10 11 -2 13 -13
right_child=1 -3 3 -5 5 6 -8 -9 -10 -11 -12 12 -14 -15
leaf_value=1.2896023678094075e-05 -0.00096273139131856011 0.00076612369746547183 0.016487471310288777 0.00015887061757900511 0.0015253015512344597 0.034163303014689256 -0.0034585739156822314 0.00048038300721802644 -0.0048413959107295214 0.00034337879263976375 -4.6289814698818523e-05 0.008920620685116714 -0.0031137595870260803 0.00034871482693762658
leaf_weight=178611 8186 1948 21 3414 136 21 39 27 56 4979 18459 462 796 478
leaf_count=178611 8186 1948 21 3414 136 21 39 27 56 4979 18459 462 796 478
internal_value=0 -5.90275e-05 -0.000102384 0.000382461 0.00292692 0.00190623 0.006845 0.0152167 -0.000331652 -0.000156362 -0.000244034 -0.000611919 0.00104232 0.00456172
internal_weight=0 39022 37074 3714 300 279 87 48 192 33360 28381 9922 1736 940
internal_count=217633 39022 37074 3714 300 279 87 48 192 33360 28381 9922 1736 940
shrinkage=0.15


Tree=1174
num_leaves=15
num_cat=0
split_feature=1 21 23 3 14 34 3 23 22 22 14 3 10 5
split_gain=0.00723801 0.0632993 0.160586 0.536167 0.443952 0.465406 0.25126 0.733969 1.05185 1.48624 1.06376 0.770327 0.77983 0.521668
threshold=8.2570200000000025 3.8317000000000001 -9.0165099999999985 -7.7871049999999995 0.0005728895000000001 0.040765500000000003 -7.6471249999999991 -7.5399549999999991 0.96020400000000017 2.1073400000000002 0.0015296250000000004 -8.8213249999999999 2.0590300000000002e-05 2.0810800000000004e-05
decision_type=2 2 2 2 2 2 2 2 2 2 2 2 2 2
left_child=-1 -2 3 4 5 -3 7 8 -4 10 11 -10 -13 -14
right_child=1 2 6 -5 -6 -7 -8 -9 9 -11 -12 12 13 -15
leaf_value=1.1036716018142274e-05 8.8213318086377202e-05 -0.017246981125632391 -0.0084072220997608547 -0.00032909036061282544 -0.001344402581726849 -0.0050644277750132617 -0.00031977439907739758 -0.0015650501423947211 -0.0050805627111473982 -0.0092527281608995454 -0.0015694314724425094 0.014467822084239182 0.05159335643376993 0.025199462562089877
leaf_weight=187166 20035 103 91 3584 376 224 5061 562 29 79 81 156 23 63
leaf_count=187166 20035 103 91 3584 376 224 5061 562 29 79 81 156 23 63
internal_value=0 -6.78012e-05 -0.000367432 -0.00107204 -0.0048597 -0.00890175 0.000124129 0.00219664 0.00624657 0.00934053 0.0135134 0.0180216 0.0207901 0.0322583
internal_weight=0 30467 10432 4287 703 327 6145 1084 522 431 352 271 242 86
internal_count=217633 30467 10432 4287 703 327 6145 1084 522 431 352 271 242 86
shrinkage=0.15


Tree=1175
num_leaves=15
num_cat=0
split_feature=10 20 22 36 16 31 2 22 15 20 15 20 2 25
split_gain=0.00759572 0.0722177 0.259247 0.0835941 0.153939 0.0773931 0.200771 0.535741 0.177043 0.221027 0.167601 0.158854 0.347811 0.422907
threshold=1.2120050000000001e-05 4.9104300000000007 1.6604000000000003 -0.054186549999999993 -7.415494999999999e-07 0.0015788600000000003 -1.5873099999999998 -1.2390999999999999 7.9174550000000015e-08 2.4692150000000006 1.1823400000000001e-08 -0.20577849999999995 1.5773200000000003 0.55773850000000003
decision_type=2 2 2 2 2 2 2 2 2 2 2 2 2 2
left_child=1 5 3 4 -3 6 7 8 9 10 -1 -7 -13 -14
right_child=-2 2 -4 -5 -6 11 -8 -9 -10 -11 -12 12 13 -15
leaf_value=-0.010580187501567279 -6.2611987480194127e-06 -0.01348923675966664 0.01601133871707134 0.00083973525117368275 -0.0002034758036097628 3.3387655260430311e-05 -9.9435036050310062e-05 -0.000732178184176867 -0.00048449136503040784 -0.0022826025032554749 -0.024602242253157863 0.00068514141774115461 0.029983859831223855 0.0051022252697935878
leaf_weight=34 207285 26 25 2465 80 4729 2174 423 25 25 44 225 22 51
leaf_count=34 207285 26 25 2465 80 4729 2174 423 25 25 44 225 22 51
internal_value=0 0.000125421 0.000810182 0.000662368 -0.00346225 -0.000103893 -0.000747628 -0.00330511 -0.0118078 -0.0145562 -0.0184901 0.000245058 0.00360408 0.0126008
internal_weight=0 10348 2596 2571 106 7752 2725 551 128 103 78 5027 298 73
internal_count=217633 10348 2596 2571 106 7752 2725 551 128 103 78 5027 298 73
shrinkage=0.15


Tree=1176
num_leaves=15
num_cat=0
split_feature=36 16 2 18 3 38 32 1 23 18 12 3 15 23
split_gain=0.00670968 0.0773035 0.0814331 0.193333 0.2767 0.213463 0.465901 1.12239 0.727697 0.568523 0.731756 0.591946 0.3065 0.358575
threshold=0.0029018250000000007 2.3988650000000003e-05 0.83980550000000009 -1.2507399999999998e-06 -7.0419349999999996 -0.0032950249999999996 -0.14305849999999995 5.5255250000000009 -6.8340949999999987 1.3191300000000002e-06 0.00013687950000000002 -8.3197699999999983 1.5512150000000003e-06 -11.973149999999999
decision_type=2 2 2 2 2 2 2 2 2 2 2 2 2 2
left_child=-1 2 -2 -4 5 12 7 -7 9 11 -11 -9 -5 -14
right_child=1 -3 3 4 -6 6 -8 8 -10 10 -12 -13 13 -15
leaf_value=1.3240041902633192e-05 -0.00013591100942166021 -0.00050971328575825882 -0.00030612782971987213 -3.916194175488832e-05 -4.1338421304032571e-05 -0.0030785629424168169 0.0018612539056378015 0.022933944292758083 -0.0082480705503257916 0.03668450687126424 0.0062133642397820951 -0.0061789333570050073 0.024167061991129928 0.00061313192021440375
leaf_weight=173730 23314 6992 6046 1431 3922 116 1850 33 24 61 25 30 26 33
leaf_count=173730 23314 6992 6046 1431 3922 116 1850 33 24 61 25 30 26 33
internal_value=0 -5.23926e-05 3.4237e-05 0.00032598 0.000832102 0.00177606 0.00273623 0.00833728 0.0159918 0.0198962 0.0278266 0.00907067 0.000397675 0.0109928
internal_weight=0 43903 36911 13597 7551 3629 2139 289 173 149 86 63 1490 59
internal_count=217633 43903 36911 13597 7551 3629 2139 289 173 149 86 63 1490 59
shrinkage=0.15


Tree=1177
num_leaves=15
num_cat=0
split_feature=21 10 2 23 37 19 23 17 15 6 33 3 4 6
split_gain=0.00866365 0.112466 0.107992 0.185113 0.206904 0.345081 0.368829 0.343172 0.191976 0.406136 0.591461 0.850716 0.186491 0.252776
threshold=8.4090650000000018 1.5588300000000005e-05 1.39368 -9.3974499999999974 -6.6509049999999986e-08 3.3787900000000009e-05 -7.5179349999999987 3.4829200000000005e-08 -3.6498949999999992e-08 2.8454900000000007e-07 2.4838450000000008e-07 -6.1661399999999995 0.065355050000000012 8.1996800000000005e-07
decision_type=2 2 2 2 2 2 2 2 2 2 2 2 2 2
left_child=-1 2 -2 -4 5 6 7 -5 -6 -10 -11 -12 13 -7
right_child=1 -3 3 4 8 12 -8 -9 9 10 11 -13 -14 -15
leaf_value=1.0829800877517161e-05 -0.00021561100976836948 3.7899578893054753e-05 0.0029377854365156965 -0.010157130056303804 -0.0038058676995735984 -0.00071900864051462239 -0.0062838227107857494 -0.036678746848234106 -0.0021910564673505487 -0.004691467241354985 0.030584682544161166 -0.0024876195529941469 0.003695908157769955 -0.018289062349226191
leaf_weight=192435 1941 22010 150 23 381 58 98 21 286 48 42 30 83 27
leaf_count=192435 1941 22010 150 23 381 58 98 21 286 48 42 30 83 27
internal_value=0 -8.27063e-05 -0.000915371 -0.00200457 -0.00268037 -0.00596267 -0.0114062 -0.0228152 -0.00138747 0.000882009 0.00820615 0.0168046 -0.00136159 -0.00630008
internal_weight=0 25198 3188 1247 1097 310 142 44 787 406 120 72 168 85
internal_count=217633 25198 3188 1247 1097 310 142 44 787 406 120 72 168 85
shrinkage=0.15


Tree=1178
num_leaves=15
num_cat=0
split_feature=17 37 19 34 33 13 3 14 25 33 3 19 13 33
split_gain=0.00711837 0.0819346 0.258237 0.413614 0.390299 0.608727 0.676137 0.480034 0.781964 0.543415 0.414445 0.372553 0.467323 0.309155
threshold=2.4332650000000004e-08 -3.6888849999999999e-08 3.8086000000000004e-07 0.050927300000000002 -3.4290999999999995e-06 1.5036500000000002e-05 -13.239749999999999 0.00070374100000000013 0.26309200000000005 -8.0543949999999983e-06 -6.572074999999999 4.6876450000000007e-08 2.0014650000000003e-05 -1.2997349999999997e-05
decision_type=2 2 2 2 2 2 2 2 2 2 2 2 2 2
left_child=1 2 3 4 5 -1 -7 8 11 13 -10 12 -8 -9
right_child=-2 -3 -4 -5 -6 6 7 9 10 -11 -12 -13 -14 -15
leaf_value=-0.00021604168436290677 -1.6501022395004403e-05 -0.00012585874402053169 1.5124863630215806e-05 -0.00023921107569884278 0.0013699478688467604 -0.0083015048786616343 -0.0047670199384608879 0.019410942814179828 0.015899118918401654 0.0046186209199950094 -0.0049615544003245296 -0.0082856853986913205 0.024329354049057103 0.044855381354731931
leaf_weight=271 158858 30511 23135 2410 1988 47 27 21 200 25 24 71 23 22
leaf_count=271 158858 30511 23135 2410 1988 47 27 21 200 25 24 71 23 22
internal_value=0 4.45992e-05 0.000228609 0.00119155 0.00245972 0.00542343 0.00874581 0.0106858 0.00841544 0.0222046 0.013664 -0.00130098 0.00861731 0.032429
internal_weight=0 58775 28264 5129 2719 731 460 413 345 68 224 121 50 43
internal_count=217633 58775 28264 5129 2719 731 460 413 345 68 224 121 50 43
shrinkage=0.15


Tree=1179
num_leaves=15
num_cat=0
split_feature=16 23 1 12 30 21 22 13 5 17 6 33 23 26
split_gain=0.00781067 0.0687918 0.1176 0.0806392 0.088174 0.0473294 0.138826 0.185619 0.293844 0.400116 0.403234 0.336531 0.358119 0.226649
threshold=6.4739650000000005e-07 -6.1298999999999984 11.042450000000001 8.7147550000000009e-05 0.00055082150000000012 -6.0969499999999988 -1.4226399999999997 3.3979700000000004e-06 2.1747100000000004e-05 1.4269550000000001e-06 1.5978650000000003e-06 2.0093250000000005e-06 -12.7784 -6.6528099999999991e-05
decision_type=2 2 2 2 2 2 2 2 2 2 2 2 2 2
left_child=-1 5 -3 4 -4 6 -2 8 9 -8 -11 -12 -13 -14
right_child=1 2 3 -5 -6 -7 7 -9 -10 10 11 12 13 -15
leaf_value=-1.8999830062161098e-05 0.00023776591439537186 -0.00056275079235822004 -0.0043669518912793134 -0.0017831614624699388 -0.017676170413116258 0.00013171046504093805 0.00081638630566826847 -8.1617508899517227e-05 0.00042093160510077665 -0.0017834491454857707 0.00083831278280082169 0.0051229944372607862 -0.016932037214773071 -0.0087405828693207649
leaf_weight=150398 7164 1970 24 49 21 52692 371 3301 759 433 77 32 114 228
leaf_count=150398 7164 1970 24 49 21 52692 371 3301 759 433 77 32 114 228
internal_value=0 4.25007e-05 -0.000810078 -0.00599342 -0.0105779 6.95023e-05 -0.000193169 -0.000774018 -0.00190888 -0.00331791 -0.005053 -0.00819206 -0.0100513 -0.0114711
internal_weight=0 67235 2064 94 45 65171 12479 5315 2014 1255 884 451 374 342
internal_count=217633 67235 2064 94 45 65171 12479 5315 2014 1255 884 451 374 342
shrinkage=0.15


Tree=1180
num_leaves=15
num_cat=0
split_feature=16 29 10 2 20 36 2 21 16 16 39 15 12 12
split_gain=0.00834228 0.0262655 0.066837 0.171673 0.257285 0.0697711 0.13683 0.190263 0.120882 0.298599 0.0972606 0.159101 0.184636 0.102889
threshold=-1.0956549999999998e-06 0.10967200000000001 2.7716350000000004e-05 -2.2973549999999996 -5.5815149999999987 -0.0015002249999999998 -2.0099249999999995 -2.6150749999999996 -1.4816449999999998e-05 -7.7223649999999984e-06 0.0052482900000000009 2.4614850000000008e-07 4.6139300000000007e-05 0.00012235900000000003
decision_type=2 2 2 2 2 2 2 2 2 2 2 2 2 2
left_child=1 -1 3 4 -3 6 7 -5 -8 -10 -11 13 -13 -12
right_child=-2 2 -4 5 -6 -7 8 -9 9 10 11 12 -14 -15
leaf_value=7.0484541950426307e-05 -1.8363663055486293e-05 0.0013353098050824233 0.00016233454539426825 0.01679158929095138 -0.021876649702475829 0.0002326402127216874 -0.00074746177664003705 -0.0036509724207072786 -0.017795655254667506 -0.0085065187040973406 -0.00096038333431351923 -0.001767916313630329 0.01710228507989086 -0.010969709673829908
leaf_weight=57862 156458 21 2058 20 22 611 320 21 36 53 68 28 20 35
leaf_count=57862 156458 21 2058 20 22 611 320 21 36 53 68 28 20 35
internal_value=0 4.6966e-05 -0.000363789 -0.00122655 -0.0105406 -0.000896101 -0.00204362 0.00632101 -0.00265603 -0.0052008 -0.00297817 -0.00103776 0.00609467 -0.00436161
internal_weight=0 61175 3313 1255 43 1212 601 41 560 240 204 151 48 103
internal_count=217633 61175 3313 1255 43 1212 601 41 560 240 204 151 48 103
shrinkage=0.15


Tree=1181
num_leaves=15
num_cat=0
split_feature=13 33 6 33 7 23 19 13 23 33 0 33 39 10
split_gain=0.00832609 0.0704057 0.160282 0.224214 0.239193 0.228738 0.300866 0.23556 0.219121 0.298438 0.186109 0.213714 0.178053 0.538115
threshold=-3.292609999999999e-05 3.2993750000000005e-06 6.5457900000000011e-06 2.1621100000000005e-05 4.593640000000001e-05 -13.149599999999998 0.0010161700000000003 -3.6413549999999996e-05 -12.729499999999998 1.5838450000000004e-05 3.4050350000000003 1.7169700000000003e-05 4.556510000000001e-06 0.00013200950000000002
decision_type=2 2 2 2 2 2 2 2 2 2 2 2 2 2
left_child=1 -1 3 4 5 6 -3 10 9 -7 11 -8 13 -4
right_child=-2 2 12 -5 -6 8 7 -9 -10 -11 -12 -13 -14 -15
leaf_value=0.00029520659873599579 -9.9362193317419498e-06 0.009182768725061222 0.012203218881571092 0.00032785540723474896 -0.00035313390261524144 -0.0048163537459913639 -0.014193209629523414 0.0015366432325390632 -0.0024882891055130886 0.017978410279777434 -0.020358267505295 -0.0023674436651456815 0.0002539336718835872 -0.00015985497204790711
leaf_weight=13866 195240 23 118 2915 1909 24 73 40 1199 28 39 65 1853 241
leaf_count=13866 195240 23 118 2915 1909 24 73 40 1199 28 39 65 1853 241
internal_value=0 8.66319e-05 -0.000252537 -0.000637432 -0.00146502 -0.00288863 -0.00713038 -0.00885942 -0.00207486 0.00745775 -0.0112088 -0.0086231 0.00084629 0.00390377
internal_weight=0 22393 8527 6315 3400 1491 240 217 1251 52 177 138 2212 359
internal_count=217633 22393 8527 6315 3400 1491 240 217 1251 52 177 138 2212 359
shrinkage=0.15


Tree=1182
num_leaves=15
num_cat=0
split_feature=5 23 3 14 3 23 5 16 23 3 35 21 7 28
split_gain=0.00850836 0.0298421 0.115217 0.16675 0.147919 0.484281 0.258721 0.299984 0.235742 0.443444 0.379487 0.225558 0.317159 0.249691
threshold=1.7536450000000004e-05 -7.5179349999999987 -7.2547399999999991 0.0015296250000000004 -7.5458749999999988 -7.3218799999999993 9.2862100000000017e-06 8.2307000000000013e-07 -7.2957849999999995 -8.4798949999999973 0.0014474350000000002 -8.5556099999999979 2.4531350000000004e-05 -0.0027652949999999996
decision_type=2 2 2 2 2 2 2 2 2 2 2 2 2 2
left_child=1 -1 3 4 8 6 -6 -8 9 -3 -11 12 -7 -13
right_child=-2 2 -4 -5 5 11 7 -9 -10 10 -12 13 -14 -15
leaf_value=-1.9552660552079108e-05 -3.611314741732425e-05 0.00029192043444920164 -0.00023445866690929195 -2.901892212960642e-05 -0.0015447048400528728 -0.018874444679106369 0.014598603638014129 -0.0046830404666252431 0.00086191424809928566 -0.0090187729473919839 0.0057357689360790741 0.00838840942171107 -0.0011574836868152166 0.00089463374984210414
leaf_weight=94646 87663 828 12051 12712 40 26 134 21 8388 237 47 123 181 536
leaf_count=94646 87663 828 12051 12712 40 26 134 21 8388 237 47 123 181 536
internal_value=0 2.43578e-05 0.00014201 0.00033695 0.000777456 0.00245725 0.00921067 0.0119863 0.00058985 -0.00146237 -0.006577 0.000936557 -0.0033828 0.00229332
internal_weight=0 129970 35324 23273 10561 1061 195 155 9500 1112 284 866 207 659
internal_count=217633 129970 35324 23273 10561 1061 195 155 9500 1112 284 866 207 659
shrinkage=0.15


Tree=1183
num_leaves=15
num_cat=0
split_feature=6 33 37 18 23 9 21 22 7 23 12 3 1 3
split_gain=0.00765797 0.0748314 0.0978931 0.409403 0.415789 0.420858 0.693172 0.921191 0.857911 0.696701 0.818359 0.561099 0.407041 0.387386
threshold=-1.8930799999999998e-06 8.2861700000000015e-07 8.6669950000000008e-09 6.6807150000000012e-08 -11.124149999999998 1.8092150000000003e-05 1.0125600000000003 1.1016150000000002 3.4465800000000011e-05 -8.0148199999999985 4.6139300000000007e-05 -7.8930599999999993 5.2110150000000006 -10.912299999999998
decision_type=2 2 2 2 2 2 2 2 2 2 2 2 2 2
left_child=1 2 -1 -4 13 -6 -7 8 9 10 12 -11 -8 -5
right_child=-2 -3 3 4 5 6 7 -9 -10 11 -12 -13 -14 -15
leaf_value=-0.00038017271063211063 1.853065079205121e-05 0.0001316002305569751 -0.00071749313142691637 0.0026703801783429129 0.00067037144865545557 -0.00090262664666200011 0.027231637200684812 -0.0030160222808846681 0.0055361365688352919 -0.011947648983914405 0.042966024577617647 0.014494665988188769 -0.0013075183484364638 -0.0015596832353872428
leaf_weight=22477 151796 30086 6495 645 2517 497 23 215 724 23 39 84 22 1990
leaf_count=22477 151796 30086 6495 645 2517 497 23 215 724 23 39 84 22 1990
internal_value=0 -4.27249e-05 -0.000189427 0.000133565 0.000948968 0.00188572 0.00376589 0.00581921 0.00789525 0.0168377 0.0270623 0.0088108 0.0132792 -0.000524241
internal_weight=0 65837 35751 13274 6779 4144 1627 1130 915 191 84 107 45 2635
internal_count=217633 65837 35751 13274 6779 4144 1627 1130 915 191 84 107 45 2635
shrinkage=0.15


Tree=1184
num_leaves=15
num_cat=0
split_feature=21 8 1 21 1 12 30 3 23 21 10 8 15 3
split_gain=0.00885603 0.0566235 0.0722683 0.242888 0.281095 0.284251 0.297371 0.218365 0.248449 0.165205 0.243767 0.138976 0.294769 0.241202
threshold=-2.9333349999999991 -2.2699899999999996e-05 -6.5480849999999995 -6.3049749999999998 -10.060549999999997 -0.00016553599999999998 0.00091716950000000008 -6.5460449999999986 -7.1280949999999992 -5.4119349999999988 3.8770850000000008e-05 1.2791600000000003e-05 2.8393450000000005e-07 -8.2133949999999984
decision_type=2 2 2 2 2 2 2 2 2 2 2 2 2 2
left_child=1 -1 3 -3 -5 -6 7 8 9 10 11 12 -7 -13
right_child=-2 2 -4 4 5 6 -8 -9 -10 -11 -12 13 -14 -15
leaf_value=-0.00036315913920078002 -2.3025418149387177e-05 0.00031283781574844172 0.00016570384038823059 0.00028471712716694075 3.9089380271924631e-05 -0.010850444964550357 -0.00043218457263521551 -0.0014005751873207061 0.00046432433063983095 -0.0044094875120593473 0.0029426712887167619 -0.018780921222787583 0.0063183928909711536 -0.005658250938428794
leaf_weight=7145 137825 10049 54512 3264 1709 90 1138 727 182 794 36 80 30 52
leaf_count=7145 137825 10049 54512 3264 1709 90 1138 727 182 794 36 80 30 52
internal_value=0 3.97639e-05 7.93836e-05 -0.000179858 -0.000790953 -0.00151666 -0.00236639 -0.00347192 -0.00466328 -0.00552577 -0.00860332 -0.0102527 -0.00655824 -0.0136114
internal_weight=0 79808 72663 18151 8102 4838 3129 1991 1264 1082 288 252 120 132
internal_count=217633 79808 72663 18151 8102 4838 3129 1991 1264 1082 288 252 120 132
shrinkage=0.15


Tree=1185
num_leaves=15
num_cat=0
split_feature=8 36 4 16 3 38 4 4 34 3 1 22 22 9
split_gain=0.00951303 0.0510626 0.654338 0.435752 0.50298 0.580918 0.378431 0.347332 0.361504 0.587158 0.368219 0.429271 0.791716 0.366245
threshold=5.8282650000000015e-06 -0.00023015799999999997 1.0000000180025095e-35 -1.2928299999999999e-06 -6.2768299999999995 -0.0030026649999999994 1.0000000180025095e-35 -0.48541799999999996 0.080256200000000014 -6.1920449999999994 -5.8410299999999991 -0.85638299999999978 -2.2095749999999996 -1.9561949999999997e-05
decision_type=2 2 2 2 2 2 2 2 2 2 2 2 2 2
left_child=-1 2 7 -4 5 -5 -3 -2 9 10 11 12 13 -9
right_child=1 6 3 4 -6 -7 -8 8 -10 -11 -12 -13 -14 -15
leaf_value=-2.6645976736907541e-05 0.00028865950684707308 0.00032954117037285052 1.3398178692173745e-06 -0.00069894937358668777 -1.4209197199015298e-05 0.002832763969281333 -0.00046607003920033868 -0.012618397715480319 -0.00011726984085245894 0.00025131479163839192 -0.0014082152517019863 -0.0025280622904038275 -0.010370427943254209 0.0024448674863658823
leaf_weight=126390 7663 27716 8828 1287 3574 5641 26136 44 4966 1885 1674 1082 539 208
leaf_count=126390 7663 27716 8828 1287 3574 5641 26136 44 4966 1885 1674 1082 539 208
internal_value=0 3.69101e-05 0.000171577 0.000778123 0.00143109 0.00217669 -5.65929e-05 -0.000477586 -0.00104229 -0.00188795 -0.00302482 -0.00446967 -0.00712558 -0.000185226
internal_weight=0 91243 37391 19330 10502 6928 53852 18061 10398 5432 3547 1873 791 252
internal_count=217633 91243 37391 19330 10502 6928 53852 18061 10398 5432 3547 1873 791 252
shrinkage=0.15


Tree=1186
num_leaves=15
num_cat=0
split_feature=16 37 10 9 36 22 22 16 25 12 22 8 19 22
split_gain=0.0116969 0.0311293 0.0645698 0.129734 0.190813 0.326985 0.414183 0.40673 0.278802 0.329092 0.357691 0.328853 0.320321 0.371362
threshold=-1.0956549999999998e-06 2.5280950000000004e-08 2.0924900000000004e-05 -8.5596999999999985e-07 -0.0056427899999999991 2.5169000000000006 -2.0082049999999998 -6.7747999999999989e-05 0.94111350000000005 0.00013315750000000002 2.0667800000000005 -1.1897099999999998e-05 0.00018117000000000003 -1.6669449999999999
decision_type=2 2 2 2 2 2 2 2 2 2 2 2 2 2
left_child=1 -1 3 4 5 6 -3 -8 -9 12 11 -11 13 -10
right_child=-2 2 -4 -5 -6 -7 7 8 9 10 -12 -13 -14 -15
leaf_value=-2.4922893475545593e-05 -2.1744642905466694e-05 -0.00083110215336381016 6.2218758839121957e-05 -0.00014079662633694612 0.00070846793609326188 -0.0059106918097709049 -0.00066408115207278477 0.025885484553873538 0.021395516943779183 0.0223482710785111 -0.01268391697309338 -0.001166154989550705 0.023185329778173652 0.001698573803221206
leaf_weight=39052 156458 176 17286 2279 1971 69 88 26 33 23 26 32 52 62
leaf_count=39052 156458 176 17286 2279 1971 69 88 26 33 23 26 32 52 62
internal_value=0 5.5613e-05 0.000197777 0.00068222 0.00141547 0.00378941 0.00508151 0.00812426 0.011169 0.00949084 0.00181372 0.00866715 0.0137211 0.00854067
internal_weight=0 61175 22123 4837 2558 587 518 342 254 228 81 55 147 95
internal_count=217633 61175 22123 4837 2558 587 518 342 254 228 81 55 147 95
shrinkage=0.15


Tree=1187
num_leaves=15
num_cat=0
split_feature=38 4 14 27 3 20 11 38 3 5 3 18 4 27
split_gain=0.0101977 0.0975978 0.123003 0.184455 0.237001 0.152096 0.445122 0.123266 0.336354 0.145932 0.117043 0.177065 0.157373 0.42815
threshold=-0.00024543399999999994 -0.0098646799999999989 0.00031542200000000004 0.5174970000000001 -6.2498799999999992 7.4241650000000012 9.4630800000000012e-06 -0.0011540049999999998 -6.3281449999999984 2.0953350000000002e-05 -16.559399999999997 -0.00022632149999999996 -0.20288699999999996 0.95457300000000012
decision_type=2 2 2 2 2 2 2 2 2 2 2 2 2 2
left_child=1 2 3 4 5 -1 -7 -5 9 -9 11 -4 -12 -14
right_child=-2 -3 10 7 -6 6 -8 8 -10 -11 12 -13 13 -15
leaf_value=0.0027221005227067419 -2.355353610088989e-05 -0.00012496841658122043 -8.4311802282402215e-05 0.00045309514972005838 0.00032576731506513839 0.0048228670487232084 -0.017086794735480318 -0.0023202721754883031 0.00089003400073949023 -0.0077897054622019105 9.9675366118666007e-05 0.0030678175618964669 -0.0024482898632426238 0.00074624234046468123
leaf_weight=2117 142598 37813 967 7482 2456 54 34 677 1020 131 17804 685 2032 1763
leaf_count=2117 142598 37813 967 7482 2456 54 34 677 1020 131 17804 685 2032 1763
internal_value=0 4.47616e-05 0.000217187 0.000568955 0.00133925 0.0024681 -0.00364223 0.00018331 -0.00092092 -0.00320702 5.81678e-06 0.00122272 -8.72577e-05 -0.000964242
internal_weight=0 75035 37222 13971 4661 2205 88 9310 1828 808 23251 1652 21599 3795
internal_count=217633 75035 37222 13971 4661 2205 88 9310 1828 808 23251 1652 21599 3795
shrinkage=0.15


Tree=1188
num_leaves=15
num_cat=0
split_feature=16 35 13 18 4 21 3 33 2 29 0 20 31 4
split_gain=0.00917394 0.0242832 0.0782051 0.097074 0.180947 0.237934 0.187262 0.167201 0.218312 0.320065 0.234138 0.186349 0.131761 0.209804
threshold=-1.0956549999999998e-06 -0.0031288199999999996 2.3808100000000003e-05 -8.7140049999999986e-06 -1.0433649999999999 14.999250000000002 -6.8865649999999992 3.4422350000000002e-06 2.1826250000000003 0.050858700000000007 -6.3379449999999995 -7.8335649999999992 -0.14544199999999999 -0.18357799999999999
decision_type=2 2 2 2 2 2 2 2 2 2 2 2 2 2
left_child=1 2 3 4 -1 6 12 -5 -9 11 -11 -10 13 -6
right_child=-2 -3 -4 7 5 -7 -8 8 9 10 -12 -13 -14 -15
leaf_value=0.00036898999432268464 -1.9257277415538761e-05 9.5771604507462318e-05 0.00018729612574836909 -0.0011110823273214273 -0.0069586953364719536 0.0139000029489398 0.00089009605226723399 -0.00029792803170764637 0.015728097277778116 0.0029231533188766872 0.02160349717257001 0.0015692452611827594 -0.0019030458068446754 -0.00029259505985190689
leaf_weight=898 156458 49243 6863 1422 390 20 281 807 22 26 36 424 597 146
leaf_count=898 156458 49243 6863 1422 390 20 281 807 22 26 36 424 597 146
internal_value=0 4.92514e-05 -0.000142736 -0.000589572 -0.00130071 -0.00234631 -0.0025761 1.63387e-05 0.0012355 0.00367147 0.0137698 0.00226766 -0.00343577 -0.00514293
internal_weight=0 61175 11932 5069 2332 1434 1414 2737 1315 508 62 446 1133 536
internal_count=217633 61175 11932 5069 2332 1434 1414 2737 1315 508 62 446 1133 536
shrinkage=0.15


Tree=1189
num_leaves=15
num_cat=0
split_feature=21 12 34 19 23 12 23 14 38 4 13 23 14 33
split_gain=0.00852589 0.0460488 0.0756894 0.0699305 0.083062 0.0671875 0.0906679 0.100472 0.158132 0.164475 0.114341 0.142708 0.155476 0.0896857
threshold=-2.9333349999999991 0.00024379100000000001 0.012110300000000003 6.1393400000000009e-06 -15.369399999999997 3.2730600000000001e-05 -13.660649999999999 0.0012017500000000003 -0.21262149999999999 0.57692800000000011 8.0484950000000009e-05 -11.124149999999998 0.0016871300000000002 -2.7857349999999998e-06
decision_type=2 2 2 2 2 2 2 2 2 2 2 2 2 2
left_child=1 5 -3 4 -4 -1 -7 13 9 -9 11 12 -10 -8
right_child=-2 2 3 -5 -6 6 7 8 10 -11 -12 -13 -14 -15
leaf_value=-1.507042454713442e-05 -2.2592169194892952e-05 -0.00096411001153849825 -0.0043863758755226931 -0.00010946149573761242 0.0033423611161699503 0.00098951082217671221 -0.00063559672716213323 -0.0002452591219307145 -0.0048421574416720346 -0.01236353950766248 -0.00030240295646271216 0.0015869387072387805 0.00049905882761584394 0.00022605862472418483
leaf_weight=49065 137825 2578 36 6773 239 3609 4281 63 163 42 1579 3441 495 7444
leaf_count=49065 137825 2578 36 6773 239 3609 4281 63 163 42 1579 3441 495 7444
internal_value=0 3.90157e-05 -0.000268642 -1.42548e-05 0.0023306 8.12133e-05 0.000304927 0.000163811 0.000675463 -0.00509257 0.000782128 0.00119991 -0.000824069 -8.85466e-05
internal_weight=0 79808 9626 7048 275 70182 21117 17508 5783 105 5678 4099 658 11725
internal_count=217633 79808 9626 7048 275 70182 21117 17508 5783 105 5678 4099 658 11725
shrinkage=0.15


Tree=1190
num_leaves=15
num_cat=0
split_feature=15 35 16 36 36 35 15 3 23 23 14 13 4 36
split_gain=0.00936293 0.0550146 0.0744705 0.114006 0.0962031 0.0662653 0.231434 0.316811 0.311634 0.535497 0.496807 0.367533 0.521145 1.28704
threshold=1.6080300000000002e-08 0.019767150000000004 1.3299800000000001e-07 0.026455200000000002 -0.0015595299999999997 -0.00017729399999999996 -2.5264549999999993e-06 -6.8865649999999992 -12.877249999999998 -7.1806249999999991 0.0013170050000000002 1.34378e-05 0.054426050000000011 -7.9741799999999996e-05
decision_type=2 2 2 2 2 2 2 2 2 2 2 2 2 2
left_child=1 5 4 -4 -3 -1 -7 8 -8 10 11 12 -10 -14
right_child=-2 2 3 -5 -6 6 7 -9 9 -11 -12 -13 13 -15
leaf_value=5.7857430026753029e-05 3.2854230310017403e-05 -3.5335803330076843e-05 0.0004346487532647108 -0.0013514104652549617 0.0010881065459398445 0.00019361769336869049 0.00040597793278384416 9.0441432410333882e-05 -0.00040940254481221895 0.00018769121993775313 0.00012259976330325541 -0.0039148626677308193 -0.0082748901206534699 -6.0559402573586745e-05
leaf_weight=52039 102895 3119 2013 1339 3810 21720 3398 13703 2859 4285 2215 2499 771 968
leaf_count=52039 102895 3119 2013 1339 3810 21720 3398 13703 2859 4285 2215 2499 771 968
internal_value=0 -2.94631e-05 0.000301613 -0.000278816 0.000582403 -6.20487e-05 -0.000181088 -0.000446206 -0.000878903 -0.00120001 -0.00183857 -0.00245065 -0.00165486 -0.00370245
internal_weight=0 114738 10281 3352 6929 104457 52418 30698 16995 13597 9312 7097 4598 1739
internal_count=217633 114738 10281 3352 6929 104457 52418 30698 16995 13597 9312 7097 4598 1739
shrinkage=0.15


Tree=1191
num_leaves=15
num_cat=0
split_feature=23 9 6 33 14 14 11 1 2 20 13 14 11 13
split_gain=0.00935632 0.0390153 0.0467288 0.0560315 0.150888 0.153096 0.0742007 0.0900984 0.105951 0.139037 0.201793 0.274914 0.137571 0.10671
threshold=-15.809749999999998 4.0050800000000006e-05 7.2341550000000014e-07 -4.3173299999999989e-06 0.00020237850000000003 0.0033273500000000002 3.0128700000000004e-06 -5.066889999999999 -1.4574249999999997 0.53709300000000015 9.0003600000000014e-05 0.0078268300000000016 1.6961250000000003e-05 2.1867850000000004e-05
decision_type=2 2 2 2 2 2 2 2 2 2 2 2 2 2
left_child=1 2 3 6 -5 -6 -1 -8 12 -10 13 -12 -9 -11
right_child=-2 -3 -4 4 5 -7 7 8 9 10 11 -13 -14 -15
leaf_value=-9.102995886429806e-05 1.1671376684917442e-05 -0.00049829544815298114 0.00026867304870855133 -0.0010963127693902276 0.0013339934566178684 -0.00024970463675498349 0.00045896053220818465 -0.018082295337226242 -0.00022643216527003587 -0.0023176494692459622 0.016850516640166145 -0.00058175804832421435 -0.0010720419292540653 -0.0060029572976077359
leaf_weight=4061 190768 4277 8688 1760 2605 2905 617 20 994 395 23 177 23 320
leaf_count=4061 190768 4277 8688 1760 2605 2905 617 20 994 395 23 177 23 320
internal_value=0 -8.28783e-05 -4.21975e-06 -0.000174788 0.000112813 0.000499031 -0.00049015 -0.00112107 -0.00162049 -0.00145464 -0.00278888 0.00142295 -0.00898379 -0.00396702
internal_weight=0 26865 22588 13900 7270 5510 6630 2569 1952 1909 915 200 43 715
internal_count=217633 26865 22588 13900 7270 5510 6630 2569 1952 1909 915 200 43 715
shrinkage=0.15


Tree=1192
num_leaves=15
num_cat=0
split_feature=15 27 19 33 15 21 33 3 8 3 21 3 8 28
split_gain=0.0109334 0.0406773 0.0780421 0.111209 0.141738 0.325448 0.478733 0.529504 0.459807 0.635247 0.339556 0.361423 0.286977 0.283815
threshold=-2.1145799999999999e-07 0.54682600000000015 6.3072250000000013e-05 1.0000000180025095e-35 -7.7434749999999987e-07 5.1921150000000003 3.1087100000000007e-06 -7.5830149999999987 -8.8754949999999979e-06 -7.2233449999999992 6.8989050000000001 -8.9780899999999981 -6.6141399999999985e-06 0.0013842950000000002
decision_type=2 2 2 2 2 2 2 2 2 2 2 2 2 2
left_child=1 2 -1 -4 -5 13 7 12 9 10 11 -8 -7 -6
right_child=-2 -3 3 4 5 6 8 -9 -10 -11 -12 -13 -14 -15
leaf_value=0.00046885148158741497 2.3812135946900186e-05 -0.00016726615002145791 0.00024188031037288222 -0.00016155840540969994 -0.001416361668376991 -0.015069364233153634 0.016996017682499118 0.0040400931738126516 -0.002457005603245215 -0.0039970439891996125 0.02111769772684538 -0.0054407834212179297 0.00044337109810350321 -0.0061881621274969944
leaf_weight=8188 144931 33973 14835 13764 1005 86 35 110 109 56 83 30 39 389
leaf_count=8188 144931 33973 14835 13764 1005 86 35 110 109 56 83 30 39 389
internal_value=0 -4.74693e-05 5.76162e-05 -5.26355e-05 -0.000330818 -0.00153046 0.0015666 -0.00355006 0.00540817 0.00961064 0.0147595 0.00664057 -0.0102294 -0.00274795
internal_weight=0 72702 38729 30541 15706 1942 548 235 313 204 148 65 125 1394
internal_count=217633 72702 38729 30541 15706 1942 548 235 313 204 148 65 125 1394
shrinkage=0.15


Tree=1193
num_leaves=15
num_cat=0
split_feature=3 33 36 19 32 16 20 20 33 23 14 8 1 34
split_gain=0.00892988 0.066477 0.110809 0.0889414 0.0753402 0.123327 0.0726847 0.0575369 0.0574879 0.0948555 0.111615 0.0723229 0.0832065 0.0689372
threshold=-17.495099999999997 -9.3333449999999986e-05 -0.60180299999999987 0.00049070750000000001 3.6943000000000006 3.6814400000000004e-05 -1.9356099999999998 3.1787150000000004 3.2060200000000009e-05 -15.369399999999997 0.0052402850000000008 -1.1465549999999999e-05 3.9519050000000004 0.013715200000000002
decision_type=2 2 2 2 2 2 2 2 2 2 2 2 2 2
left_child=1 2 -1 6 8 -6 -4 -8 13 10 -10 12 -12 -3
right_child=-2 4 3 -5 5 -7 7 -9 9 -11 11 -13 -14 -15
leaf_value=0.0078562337381299589 4.74068701856561e-06 -0.00088443395071757477 -0.0026504563174539189 -0.001279713564891007 0.0012068914234770267 0.014629185860976578 -0.017292021714489566 -0.0063151703216135502 -0.011570993240124413 0.00038519368822830181 0.010134018069365992 -0.0038030642324516067 -0.002966108469991013 0.000411127085281172
leaf_weight=20 212461 1330 34 118 67 20 22 21 35 255 20 178 24 3028
leaf_count=20 212461 1330 34 118 67 20 22 21 35 255 20 178 24 3028
internal_value=0 -0.000194743 -0.00277693 -0.00386751 -8.27458e-05 0.00429248 -0.00783323 -0.0119312 -0.000160907 -0.00166448 -0.0036982 -0.00245699 0.00298849 1.57402e-05
internal_weight=0 5172 215 195 4957 87 77 43 4870 512 257 222 44 4358
internal_count=217633 5172 215 195 4957 87 77 43 4870 512 257 222 44 4358
shrinkage=0.15


Tree=1194
num_leaves=15
num_cat=0
split_feature=15 15 35 21 8 34 10 31 9 0 2 7 33 2
split_gain=0.00797674 0.0335177 0.116567 0.162366 0.215416 0.237581 0.244812 0.228158 0.532798 0.216571 0.202461 0.261506 0.191528 0.18687
threshold=-2.1145799999999999e-07 -1.1448849999999999e-07 -0.00036068949999999998 4.8976950000000015 -6.407459999999999e-06 0.050927300000000002 2.0057950000000003e-05 -0.060477199999999995 2.0004800000000005e-05 -0.94951099999999988 1.9736150000000003 3.3404350000000012e-05 -2.9545649999999993e-06 -1.7089899999999998
decision_type=2 2 2 2 2 2 2 2 2 2 2 2 2 2
left_child=-1 2 3 13 5 7 9 8 -5 -7 12 -12 -9 -2
right_child=1 -3 -4 4 -6 6 -8 10 -10 -11 11 -13 -14 -15
leaf_value=-4.0546089871319413e-05 0.0033914819143525711 3.2170480865174702e-06 -0.00014688481740336124 0.00094287820451427256 -0.00089927979830723152 -0.0022945649339817463 -0.0014818379757793188 0.01351978787117534 0.035151833189385272 0.015419336760268462 0.026556119748524256 0.0064870945799157193 -0.00083097944687676403 -0.00014223386972070341
leaf_weight=72702 406 137201 4673 20 210 24 170 27 21 44 21 48 93 1973
leaf_count=72702 406 137201 4673 20 210 24 170 27 21 44 21 48 93 1973
internal_value=0 2.03392e-05 0.000324243 0.00104442 0.00309215 0.00488318 0.00156079 0.00832112 0.0184645 0.00916737 0.0061207 0.0125951 0.00239794 0.00046083
internal_weight=0 144931 7730 3057 678 468 238 230 41 68 189 69 120 2379
internal_count=217633 144931 7730 3057 678 468 238 230 41 68 189 69 120 2379
shrinkage=0.15


Tree=1195
num_leaves=15
num_cat=0
split_feature=21 10 8 37 15 12 3 19 15 14 15 6 33 3
split_gain=0.00722669 0.0814639 0.0801517 0.130397 0.318309 0.327335 0.385274 0.436095 0.315065 0.224821 0.217859 0.210107 0.411119 0.460741
threshold=8.4090650000000018 1.5588300000000005e-05 -8.7606299999999992e-06 -6.6509049999999986e-08 -8.9826899999999982e-08 9.1870050000000003e-05 -6.3575099999999987 6.4664700000000011e-07 -2.3586649999999996e-08 0.00035063800000000007 -4.146919999999999e-08 -3.1083249999999988e-08 -1.2766899999999998e-07 -6.8084599999999993
decision_type=2 2 2 2 2 2 2 2 2 2 2 2 2 2
left_child=-1 2 3 4 9 6 7 8 -6 -2 -5 -12 -13 -14
right_child=1 -3 -4 10 5 -7 -8 -9 -10 -11 11 12 13 -15
leaf_value=9.8909888785532789e-06 0.015005506992019945 2.7108854667747651e-05 -0.00013504791584275725 -0.0034642342278771473 0.00029313149793779302 -0.0011719129371907009 -0.00066595461879235998 -0.031103913509286939 -0.021708788174308009 -0.00096766196739305377 -0.0010627486562758443 -0.0027200623566465726 0.018912118204883231 0.00038614255571949545
leaf_weight=192435 24 22010 1827 391 32 113 45 34 27 114 367 92 67 55
leaf_count=192435 24 22010 1827 391 32 113 45 34 27 114 367 92 67 55
internal_value=0 -7.55367e-05 -0.000784203 -0.00165563 -0.00397652 -0.0071581 -0.0120598 -0.017573 -0.00977554 0.00181028 -0.00072679 0.00111545 0.00485095 0.0105602
internal_weight=0 25198 3188 1361 389 251 138 93 59 138 972 581 214 122
internal_count=217633 25198 3188 1361 389 251 138 93 59 138 972 581 214 122
shrinkage=0.15


Tree=1196
num_leaves=15
num_cat=0
split_feature=13 33 19 37 4 24 37 5 6 33 24 33 19 25
split_gain=0.00781478 0.0353724 0.11621 0.0349806 0.053064 0.0826712 0.049775 0.0508726 0.124987 0.0692338 0.0318545 0.0296089 0.0680557 0.0456672
threshold=-0.00011454099999999999 0.00022867500000000004 0.020458000000000004 -9.5293849999999991e-07 0.0092838900000000012 -0.22044149999999998 -1.8027099999999996e-07 5.2744950000000007e-05 6.3001750000000011e-06 2.3350150000000005e-05 0.44112700000000005 4.0129950000000009e-06 0.0085812350000000013 0.16618350000000001
decision_type=2 2 2 2 2 2 2 2 2 2 2 2 2 2
left_child=1 3 -3 4 10 -6 7 8 9 -5 -1 -8 -13 -14
right_child=-2 2 -4 6 5 -7 11 -9 -10 -11 -12 12 13 -15
leaf_value=-0.002428194280187397 2.5257775788447648e-06 -0.0036909034047064113 0.011909130448475479 0.00011999924657866358 0.0010066904171253555 -0.010182550427718805 -0.00012942036868041331 -0.00082649698305729304 0.012377774018594729 0.0096252650802489351 0.0028508633068867781 0.0013285301962241646 0.0035856743962670275 -0.0037189891856275513
leaf_weight=69 215928 22 21 125 24 39 832 119 28 20 41 112 21 232
leaf_count=69 215928 22 21 125 24 39 832 119 28 20 41 112 21 232
internal_value=0 -0.000319874 0.00392772 -0.00042977 -0.00244866 -0.00591998 -0.000195204 0.00156072 0.00320279 0.00143107 -0.000460546 -0.000623549 -0.00174989 -0.00311267
internal_weight=0 1705 43 1662 173 63 1489 292 173 145 110 1197 365 253
internal_count=217633 1705 43 1662 173 63 1489 292 173 145 110 1197 365 253
shrinkage=0.15


Tree=1197
num_leaves=15
num_cat=0
split_feature=10 21 21 8 25 37 37 37 15 9 22 24 16 21
split_gain=0.00734671 0.0923477 0.0738877 0.0993601 0.10161 0.271221 0.122093 0.0714276 0.0969376 0.0984736 0.0994491 0.0864659 0.102531 0.237211
threshold=1.5213000000000002e-05 6.7472850000000006 -12.332599999999998 1.2515500000000001e-05 6.6944750000000006 -1.8023299999999995e-08 -5.4757149999999993e-08 -3.4850749999999997e-07 3.0487750000000005e-07 -1.3696949999999999e-05 -1.7647699999999997 -0.11734399999999999 -4.4942799999999995e-09 -6.1725999999999992
decision_type=2 2 2 2 2 2 2 2 2 2 2 2 2 2
left_child=1 2 3 -1 5 6 -5 -4 9 10 -9 12 -11 -14
right_child=-2 -3 7 4 -6 -7 -8 8 -10 11 -12 -13 13 -15
leaf_value=-0.00060765037009600717 -9.7296811557634034e-06 -0.00053428783844035386 -0.00029419021838501802 -0.0099856660634811429 0.0021841530986130239 -0.022162040581062446 0.0061892301226699996 0.010879976107389666 -0.00027514085534441942 0.00031974942298731263 0.0022280554159578967 0.00024199440109137793 0.0045290166405310009 0.00096157231659082458
leaf_weight=617 193514 4506 3929 21 25 23 21 39 3435 2107 128 6828 538 1902
leaf_count=617 193514 4506 3929 21 25 23 21 39 3435 2107 128 6828 538 1902
internal_value=0 7.80642e-05 0.000218749 -0.0012868 -0.00594276 -0.00906849 -0.00189822 0.00027505 0.000424382 0.000632566 0.00424856 0.000579479 0.00108626 0.00174816
internal_weight=0 24119 19613 707 90 65 42 18906 14977 11542 167 11375 4547 2440
internal_count=217633 24119 19613 707 90 65 42 18906 14977 11542 167 11375 4547 2440
shrinkage=0.15


Tree=1198
num_leaves=15
num_cat=0
split_feature=38 4 38 4 24 18 18 23 14 23 3 23 23 38
split_gain=0.00831406 0.0696651 0.112722 0.114405 0.0985323 0.179351 0.127509 0.163859 0.132419 0.558838 0.472924 0.810475 0.359909 0.378396
threshold=-0.00024543399999999994 -0.019882549999999995 0.0032364300000000006 0.15990500000000005 -0.18190049999999996 -0.00015207299999999999 -2.3753749999999996e-05 -6.4159099999999993 0.00051341800000000008 -9.2917499999999986 -9.4320199999999996 -8.2315849999999973 -14.762349999999998 0.0032364300000000006
decision_type=2 2 2 2 2 2 2 2 2 2 2 2 2 2
left_child=-1 4 -3 -4 5 -2 7 -7 -8 12 -11 -12 -10 -14
right_child=1 2 3 -5 -6 6 8 -9 9 10 11 -13 13 -15
leaf_value=4.0416632020947358e-05 0.00012531193970750755 -2.7859686510824715e-05 0.0008653477972279831 0.00010233440515666728 2.5303037741496467e-05 -0.0012466138600539575 -0.00066623897671183412 -0.0072586344784940594 -0.00061211090322990961 -0.0037862913133309508 0.021239408184192145 -0.005322731246789252 0.0060248052650234548 0.00090107822919783165
leaf_weight=75035 11611 54221 7254 11323 40041 3573 11367 105 859 840 48 56 620 680
leaf_count=75035 11611 54221 7254 11323 40041 3573 11367 105 859 840 48 56 620 680
internal_value=0 -2.12672e-05 8.13949e-05 0.000400278 -0.000128339 -0.000335065 -0.000629612 -0.00141825 -0.000429157 0.000439331 -0.00260494 0.00693672 0.00177041 0.0033447
internal_weight=0 142598 72798 18577 69800 29759 18148 3678 14470 3103 944 104 2159 1300
internal_count=217633 142598 72798 18577 69800 29759 18148 3678 14470 3103 944 104 2159 1300
shrinkage=0.15


Tree=1199
num_leaves=15
num_cat=0
split_feature=31 0 2 22 0 9 2 2 7 7 20 12 2 5
split_gain=0.00695227 0.030761 0.0553205 0.102296 0.0518553 0.0438195 0.0730804 0.0633692 0.0258221 0.0606275 0.0338209 0.0252844 0.0244658 0.0512137
threshold=11.617550000000001 -7.6489999999999991 -2.6817999999999995 2.1073400000000002 -8.2175199999999986 -6.2616149999999982e-05 2.8595700000000002 2.6393150000000003 3.7268750000000008e-05 3.6412700000000005e-05 9.7253800000000012 -0.00015989499999999999 -1.9874349999999998 1.6615200000000003e-05
decision_type=2 2 2 2 2 2 2 2 2 2 2 2 2 2
left_child=-1 4 3 -3 -2 -4 7 8 9 11 12 -7 13 -10
right_child=1 2 5 -5 -6 6 -8 -9 10 -11 -12 -13 -14 -15
leaf_value=2.3238837982297477e-06 -0.0011090656145599557 0.013084002948598936 0.0050477106114184215 -0.0019055486157802599 -0.0082847923908848306 -0.0026750366996006608 -0.0082032170289984118 0.0080019156024458676 -0.0078819357181688938 0.006819078042053661 -0.0057413314251349339 0.00050157582380394583 -0.00037032794721482306 0.00028614989446046259
leaf_weight=216010 242 20 35 21 25 65 26 21 31 32 31 425 610 39
leaf_count=216010 242 20 35 21 25 65 26 21 31 32 31 425 610 39
internal_value=0 -0.000309293 -1.95197e-05 0.00540643 -0.00178095 -0.000188694 -0.000331877 -0.000168675 -0.000307833 0.0004933 -0.000896008 8.01884e-05 -0.000675118 -0.00333115
internal_weight=0 1623 1356 41 267 1315 1280 1254 1233 522 711 490 680 70
internal_count=217633 1623 1356 41 267 1315 1280 1254 1233 522 711 490 680 70
shrinkage=0.15


Tree=1200
num_leaves=15
num_cat=0
split_feature=36 12 18 18 3 34 35 6 19 22 36 29 8 22
split_gain=0.00659548 0.045882 0.385748 0.472307 0.660112 0.308331 0.272102 0.958481 0.896225 0.65895 0.63873 0.361185 0.319783 0.264978
threshold=-0.00013266849999999999 -1.1496199999999998e-05 5.6944000000000004e-08 0.00010488150000000002 -6.2768299999999995 0.19264550000000003 -2.4663599999999995e-05 3.8136750000000007e-07 3.8086000000000004e-07 0.13242800000000002 -0.0012506349999999997 -0.004420799999999999 -1.0930799999999998e-06 1.5746600000000002
decision_type=2 2 2 2 2 2 2 2 2 2 2 2 2 2
left_child=1 -1 -3 4 5 6 8 11 9 -4 -11 -8 -12 -9
right_child=-2 2 3 -5 -6 -7 7 13 -10 10 12 -13 -14 -15
leaf_value=0.00013714406427371782 -2.3293892729959532e-05 0.00028574889391030917 -0.00292691497737279 0.00025074349134709723 0.00031084014596688528 -0.0005301387812852021 -0.003196312117688649 -0.0028713553231990998 -0.0010412623927923581 -0.0046296303694038886 -0.015075152344156659 0.0016079436953603291 0.0018654622483558745 -0.0079148388388707424
leaf_weight=46209 121193 28997 598 9234 4306 2247 472 451 1370 304 351 1386 27 488
leaf_count=46209 121193 28997 598 9234 4306 2247 472 451 1370 304 351 1386 27 488
internal_value=0 2.92727e-05 -6.99614e-05 -0.000555717 -0.00117629 -0.00200857 -0.00261845 -0.00158651 -0.00370764 -0.0065615 -0.00974841 0.000387487 -0.0138651 -0.00549246
internal_weight=0 96440 50231 21234 12000 7694 5447 2797 2650 1280 682 1858 378 939
internal_count=217633 96440 50231 21234 12000 7694 5447 2797 2650 1280 682 1858 378 939
shrinkage=0.15


Tree=1201
num_leaves=15
num_cat=0
split_feature=13 13 33 33 3 25 11 21 33 30 3 3 23 22
split_gain=0.00854523 0.0397455 0.146713 0.280397 0.315053 0.319045 0.219527 0.374829 0.0958103 0.174856 0.0750563 0.0709846 0.118158 0.10845
threshold=4.8190950000000003e-05 4.2555350000000006e-05 -1.6474599999999996e-05 -2.8728449999999998e-05 -10.729049999999999 0.20183950000000003 4.1947650000000008e-05 -2.0112699999999992 -1.4283949999999999e-05 0.00062820650000000014 -15.739199999999999 -12.042299999999999 -12.162849999999999 0.47068050000000006
decision_type=2 2 2 2 2 2 2 2 2 2 2 2 2 2
left_child=1 -1 3 10 5 -5 7 -7 9 -4 -3 12 13 -12
right_child=-2 2 8 4 -6 6 -8 -9 -10 -11 11 -13 -14 -15
leaf_value=7.4400140672846245e-06 -4.7046750012676168e-05 -0.0060571361352534346 0.0030309412106557178 -0.0039650777043243575 0.00040436555506088409 0.026718917245845027 0.028561885404185604 0.0019251791148288998 0.00018969265898261049 -0.015900553795306579 0.0039040810230247633 -7.4855238615003015e-05 -0.0039415227463468908 0.017054857227153011
leaf_weight=152146 62085 36 21 20 78 23 26 34 2779 23 43 273 25 21
leaf_count=152146 62085 36 21 20 78 23 26 34 2779 23 43 273 25 21
internal_value=0 1.87781e-05 0.000525846 0.00270093 0.0075958 0.0130417 0.0171398 0.0119297 7.97354e-05 -0.00686507 0.000474867 0.00112446 0.00480325 0.00821918
internal_weight=0 155548 3402 579 181 103 83 57 2823 44 398 362 89 64
internal_count=217633 155548 3402 579 181 103 83 57 2823 44 398 362 89 64
shrinkage=0.15


Tree=1202
num_leaves=15
num_cat=0
split_feature=11 20 29 31 0 31 29 20 3 11 6 12 17 16
split_gain=0.00748223 0.0397395 0.0301095 0.0283938 0.0419349 0.0276528 0.0327723 0.0534998 0.0558719 0.126239 0.168495 0.130165 0.147991 0.183753
threshold=-0.0001086155 8.6135100000000016 1.0188050000000002 -13.003849999999998 -3.0108849999999996 -0.026451249999999999 0.20869500000000005 -16.050999999999998 -8.9780899999999981 -0.00021076349999999997 -1.1053749999999998e-06 0.00015472350000000004 2.9541550000000002e-05 -1.6260199999999997e-06
decision_type=2 2 2 2 2 2 2 2 2 2 2 2 2 2
left_child=1 3 -3 4 -1 -5 -7 -8 9 -9 -11 12 13 -12
right_child=-2 2 -4 5 -6 6 7 8 -10 10 11 -13 -14 -15
leaf_value=-0.00059503565744047841 1.0982759162032319e-05 -0.000620278658613654 0.0040044022685833619 0.00021690336608727804 -0.0064675958596667072 -0.00016203350246420597 -0.0018312267544782991 0.00060262115110003083 -0.00069406643185210173 -0.00320749799890109 0.016373545718134232 0.017893542756792159 -0.0050023474808372353 0.002535549531196011
leaf_weight=105 188275 3123 32 8862 37 16150 159 455 260 40 38 24 23 50
leaf_count=105 188275 3123 32 8862 37 16150 159 455 260 40 38 24 23 50
internal_value=0 -7.04332e-05 -0.000573372 -9.87633e-06 -0.00212521 1.6496e-06 -0.000109263 0.000703178 0.00115595 0.00191945 0.00534322 0.00787676 0.00571097 0.00851105
internal_weight=0 29358 3155 26203 142 26061 17199 1049 890 630 175 135 111 88
internal_count=217633 29358 3155 26203 142 26061 17199 1049 890 630 175 135 111 88
shrinkage=0.15


Tree=1203
num_leaves=15
num_cat=0
split_feature=23 11 11 3 23 31 3 14 3 4 30 4 4 35
split_gain=0.0080243 0.063842 0.0745332 0.091366 0.0792673 0.1112 0.23405 0.293559 0.422519 0.360569 0.291855 0.290535 0.302096 0.486418
threshold=-8.0148199999999985 1.3649300000000002e-05 0.00010781500000000002 -10.05805 -6.4887299999999994 -0.15030549999999995 -8.3608649999999987 0.00012403000000000004 -6.3853549999999988 -1.2236799999999997 0.036175450000000005 0.53343300000000016 0.21982700000000002 0.019767150000000004
decision_type=2 2 2 2 2 2 2 2 2 2 2 2 2 2
left_child=-1 -2 3 -3 5 6 -5 -8 9 -9 11 12 13 -11
right_child=1 2 -4 4 -6 -7 7 8 -10 10 -12 -13 -14 -15
leaf_value=-2.0767261999382801e-05 -6.6069834464865676e-05 0.00089646804528153501 -0.00010134074898004174 -0.0027834631469572293 0.00081992003550192954 -0.00027424131191628853 -0.0014318895183685909 -0.0052256951561232313 -0.0028052663558934651 0.012353667587041855 -0.008823952276725321 0.00085541512951469768 0.021508855018093867 -0.0083188445342239001
leaf_weight=143192 47041 5801 10119 233 3060 7397 266 47 128 175 20 65 59 30
leaf_count=143192 47041 5801 10119 233 3060 7397 266 47 128 175 20 65 59 30
internal_value=0 3.99472e-05 0.00022196 0.00041127 0.000166093 -7.15205e-05 0.00139429 0.00262647 0.00468662 0.00710824 0.00876926 0.00983876 0.0120506 0.00932842
internal_weight=0 74441 27400 17281 11480 8420 1023 790 524 396 349 329 264 205
internal_count=217633 74441 27400 17281 11480 8420 1023 790 524 396 349 329 264 205
shrinkage=0.15


Tree=1204
num_leaves=15
num_cat=0
split_feature=4 38 23 4 8 36 18 34 2 22 12 22 4 36
split_gain=0.00751377 0.0572803 0.0875321 0.099036 0.137803 0.260189 0.0809175 0.115658 0.108109 0.164181 0.116311 0.266488 0.281191 0.220968
threshold=0.14210450000000005 -2.0591449999999997e-05 -6.7159199999999997 0.34245300000000006 -2.0593599999999995e-05 0.0023945300000000002 0.00034490750000000004 0.0126493 -1.1074199999999996 -1.2658949999999998 -7.379629999999999e-05 -2.6828649999999992 0.20409350000000004 0.0012347300000000001
decision_type=2 2 2 2 2 2 2 2 2 2 2 2 2 2
left_child=-1 2 -2 4 5 -4 7 -3 9 10 11 -9 13 -13
right_child=1 6 3 -5 -6 -7 -8 8 -10 -11 -12 12 -14 -15
leaf_value=-1.9479160408221243e-05 -4.7707258511061406e-06 0.0010537016374463069 -0.0019194030666767501 -0.00027859852892064244 -0.0023161179449835206 0.013698778547889862 -5.0326999216852962e-05 0.0030559694199288807 -0.00011012276117430492 0.0014247330260756133 0.0010329470885619564 -0.023679251791062679 -0.0017886593480495776 -0.0068907896059918743
leaf_weight=146214 30443 4524 72 3341 1156 36 18321 189 9263 2947 566 22 450 89
leaf_count=146214 30443 4524 72 3341 1156 36 18321 189 9263 2947 566 22 450 89
internal_value=0 3.98791e-05 -9.69672e-05 -0.000706465 -0.0018374 0.00328666 0.000171748 0.000397156 0.000177564 0.000802673 -0.000590345 -0.00181539 -0.00345654 -0.0102182
internal_weight=0 71419 35048 4605 1264 108 36371 18050 13526 4263 1316 750 561 111
internal_count=217633 71419 35048 4605 1264 108 36371 18050 13526 4263 1316 750 561 111
shrinkage=0.15


Tree=1205
num_leaves=15
num_cat=0
split_feature=20 13 14 8 13 19 12 15 9 13 28 8 23 7
split_gain=0.00784367 0.0476709 0.0832329 0.059422 0.233671 0.0816969 0.124334 0.0705403 0.0546509 0.0545807 0.0457938 0.0422677 0.0373613 0.0570796
threshold=-16.050999999999998 -8.0373599999999975e-06 0.0058968150000000006 -1.3919799999999998e-05 -1.2858199999999998e-05 0.0016963150000000001 9.7651800000000019e-05 -1.8773999999999998e-06 -2.7229399999999997e-05 -3.1748149999999992e-05 0.70226900000000014 -2.2121399999999998e-05 -5.9052549999999995 2.8243700000000005e-05
decision_type=2 2 2 2 2 2 2 2 2 2 2 2 2 2
left_child=1 2 3 4 5 6 -1 9 10 -5 -9 -3 -13 -14
right_child=-2 11 -4 7 -6 -7 -8 8 -10 -11 -12 12 13 -15
leaf_value=-0.0011404130407500752 -2.5572286362354158e-06 -0.0033257934790342689 0.010807385751312331 -0.00069561703555966518 0.018443280566550257 -0.0068498349227213663 0.012723869752583347 0.0021769406273961065 0.00025160559198860778 -0.0095681681718605641 0.011222533061227296 -0.00024276124687085251 0.0098078913289646134 0.0011255914785104561
leaf_weight=43 215892 89 21 39 21 23 22 34 243 26 20 1025 20 115
leaf_count=43 215892 89 21 39 21 23 22 34 243 26 20 1025 20 115
internal_value=0 0.000317108 0.0015677 0.00115574 0.00422615 0.000833422 0.00355211 0.00023123 0.0012108 -0.00424464 0.00552716 -0.00017552 6.61815e-05 0.00241186
internal_weight=0 1741 492 471 109 88 65 362 297 65 54 1249 1160 135
internal_count=217633 1741 492 471 109 88 65 362 297 65 54 1249 1160 135
shrinkage=0.15


Tree=1206
num_leaves=15
num_cat=0
split_feature=38 4 18 14 23 3 3 3 34 23 3 4 34 3
split_gain=0.00713294 0.182934 0.154839 0.146297 0.156784 0.312945 0.158769 0.191864 0.197712 0.147618 0.195258 0.178988 0.379083 0.390281
threshold=0.00027825150000000004 0.0092838900000000012 -0.00022632149999999996 0.00023943100000000005 -8.8482399999999988 -6.4132949999999989 -6.2498799999999992 -8.2790849999999967 0.060535650000000003 -7.1072649999999991 -7.4072199999999988 0.24753700000000003 0.100425 -13.239749999999999
decision_type=2 2 2 2 2 2 2 2 2 2 2 2 2 2
left_child=-1 2 -2 4 5 -3 7 -6 -9 11 -11 12 13 -5
right_child=1 3 -4 9 6 -7 -8 8 -10 10 -12 -13 -14 -15
leaf_value=2.0010000793941833e-05 0.00013958189993469995 0.0020898084771791745 -0.00049126734367376142 0.0010173136496184972 0.0029516356239696505 0.00028641521389087451 0.0005511507024554492 -0.0038428694843184721 -3.9348561300658673e-05 0.0016151342784980185 -0.0018249100722868095 9.1397369780617794e-05 0.0002170202687389063 -0.0034841212180196928
leaf_weight=141049 13533 3347 24790 579 192 6131 2284 688 556 2215 446 17153 2947 1723
leaf_count=141049 13533 3347 24790 579 192 6131 2284 688 556 2215 446 17153 2947 1723
internal_value=0 -3.68535e-05 -0.000268496 0.000195164 0.000599361 0.000923254 -0.000225868 -0.00146174 -0.0021429 -1.76837e-05 0.00103856 -0.000143149 -0.000909613 -0.00235192
internal_weight=0 76584 38323 38261 13198 9478 3720 1436 1244 25063 2661 22402 5249 2302
internal_count=217633 76584 38323 38261 13198 9478 3720 1436 1244 25063 2661 22402 5249 2302
shrinkage=0.15


Tree=1207
num_leaves=15
num_cat=0
split_feature=31 2 1 28 28 30 0 32 32 22 18 18 13 33
split_gain=0.00780158 0.0435134 0.109095 0.155013 0.2154 0.0795132 0.0497235 0.0696405 0.158691 0.109063 0.16572 0.149389 0.0636611 0.056066
threshold=0.21248250000000005 2.9891800000000006 0.42284000000000005 -0.031947399999999994 0.022200200000000003 0.00079871150000000008 -12.275299999999998 -0.08618629999999998 -0.040480049999999997 2.5687850000000005 -1.1262149999999999e-05 -8.3411799999999982e-08 -9.1282599999999975e-06 2.3350150000000005e-05
decision_type=2 2 2 2 2 2 2 2 2 2 2 2 2 2
left_child=-1 -2 3 -3 -5 -4 -7 9 -9 -8 -11 -12 -10 -13
right_child=1 2 5 4 -6 6 7 8 12 10 11 13 -14 -15
leaf_value=1.1786704300437712e-05 -4.2522880951006016e-05 -0.0064978141969602018 -0.0095598771056192456 0.019106610646849733 -0.00059976018114516947 0.0010490054943850487 -0.00087288007339338938 0.011519767733460123 0.0026425017706385137 0.00074874388342323068 -0.0232169575849548 -0.013333612019196152 -0.0031299049075096262 -0.002474445255875648
leaf_weight=185655 31292 21 29 24 26 132 96 22 56 32 20 20 185 23
leaf_count=185655 31292 21 29 24 26 132 96 22 56 32 20 20 185 23
internal_value=0 -6.84302e-05 -0.0012502 0.00431705 0.0088593 -0.00189292 -0.0015135 -0.00225854 -0.000675351 -0.00443854 -0.00804172 -0.0125067 -0.0017886 -0.00752522
internal_weight=0 31978 686 71 50 615 586 454 263 191 95 63 241 43
internal_count=217633 31978 686 71 50 615 586 454 263 191 95 63 241 43
shrinkage=0.15


Tree=1208
num_leaves=15
num_cat=0
split_feature=15 20 7 7 9 21 2 1 13 15 3 15 0 20
split_gain=0.00775522 0.0310259 0.0705906 0.0538134 0.0870321 0.0496276 0.231818 0.193436 0.0829142 0.0454084 0.0430938 0.0729152 0.0723411 0.200936
threshold=-2.1145799999999999e-07 -8.0805949999999971 3.7677900000000007e-05 3.7545050000000004e-05 -2.4582649999999997e-05 10.535600000000001 1.9492750000000003 8.2570200000000025 0.00016332850000000003 -1.9713949999999999e-07 -8.0805899999999991 1.7475450000000002e-06 -6.821089999999999 -8.4074199999999983
decision_type=2 2 2 2 2 2 2 2 2 2 2 2 2 2
left_child=-1 2 3 5 -5 9 8 -8 -7 -2 11 12 13 -11
right_child=1 -3 -4 4 -6 6 7 -9 -10 10 -12 -13 -14 -15
leaf_value=-3.9979135282796261e-05 0.0045363739755703136 -5.9209528506621947e-06 -5.9252454668593141e-05 0.010616418899735436 0.00090810632155764661 -0.00019262623569874716 0.0026039162452798333 0.023466084657702592 0.0099087138054164813 0.0022118185188063711 1.4370055290434082e-05 -0.00018672861809671435 0.00097086787154527501 0.017145214457591266
leaf_weight=72702 60 127123 9972 31 63 213 20 20 20 171 3534 1282 2399 23
leaf_count=72702 60 127123 9972 31 63 213 20 20 20 171 3534 1282 2399 23
internal_value=0 2.00548e-05 0.000205484 0.000542384 0.00410978 0.00049907 0.00248551 0.013035 0.000674442 0.000426463 0.00039318 0.000738655 0.00119617 0.00398227
internal_weight=0 144931 17808 7836 94 7742 273 40 233 7469 7409 3875 2593 194
internal_count=217633 144931 17808 7836 94 7742 273 40 233 7469 7409 3875 2593 194
shrinkage=0.15


Tree=1209
num_leaves=15
num_cat=0
split_feature=23 10 3 22 20 15 5 31 27 13 3 3 23 20
split_gain=0.00720306 0.0649385 0.0778532 0.103354 0.185806 0.180992 0.106469 0.0803649 0.0358417 0.0535455 0.0341681 0.133164 0.299803 0.601931
threshold=-15.809749999999998 4.7587850000000002e-05 -17.495099999999997 2.6634450000000007 2.0727300000000004 -2.2565499999999996e-06 2.8910300000000003e-05 0.10329400000000001 0.12950200000000003 -1.8964049999999997e-05 -13.793399999999998 -15.739199999999999 -17.297799999999995 6.2529500000000011
decision_type=2 2 2 2 2 2 2 2 2 2 2 2 2 2
left_child=1 8 3 4 6 -6 -3 -8 9 -1 11 -10 -13 -14
right_child=-2 2 -4 -5 5 -7 7 -9 10 -11 -12 12 13 -15
leaf_value=0.0087926029865629963 1.0240666888582209e-05 -0.018647582603618502 -0.00038077850531775728 0.0058921130507120067 -0.0079226641275454302 0.008563398170254883 -0.013165664953412487 -2.7863560270899059e-05 0.00057190924384289054 0.0010682951426133514 0.00015102956179116305 0.00033064761985074803 -0.004457547496836833 0.015681592914541916
leaf_weight=25 190768 25 7278 21 29 31 20 22 1776 105 15660 1111 727 35
leaf_count=25 190768 25 7278 21 29 31 20 22 1776 105 15660 1111 727 35
internal_value=0 -7.27188e-05 -0.000450038 -0.0038559 -0.00546778 0.000595135 -0.0108973 -0.00628396 7.14228e-05 0.00255374 5.47103e-05 -0.000358652 -0.00124102 -0.00353252
internal_weight=0 26865 7426 148 127 60 67 42 19439 130 19309 3649 1873 762
internal_count=217633 26865 7426 148 127 60 67 42 19439 130 19309 3649 1873 762
shrinkage=0.15


Tree=1210
num_leaves=15
num_cat=0
split_feature=3 29 11 29 35 34 1 34 11 36 30 39 30 39
split_gain=0.00638345 0.054109 0.0638436 0.0586746 0.0570085 0.0472867 0.142953 0.107062 0.117278 0.104061 0.0973527 0.0898574 0.125839 0.0871457
threshold=-17.495099999999997 0.70185150000000018 -8.1991599999999983e-05 0.53709950000000017 0.95208850000000012 2.9722450000000005 -4.0791099999999991 1.0428250000000003 -2.8949199999999994e-05 0.082357500000000014 0.012689600000000001 0.00082647400000000011 0.0056407700000000007 0.0022391600000000005
decision_type=2 2 2 2 2 2 2 2 2 2 2 2 2 2
left_child=1 3 -3 4 5 7 -7 -1 13 11 -8 -10 -13 -9
right_child=-2 2 -4 -5 -6 6 10 8 9 -11 -12 12 -14 -15
leaf_value=-4.2438696721402653e-05 4.0081713889930724e-06 -0.011269908607937395 -0.0012174888043029403 0.0076198727030053048 -0.0074367254645949284 0.012289388808939192 0.0071110644454165589 -0.0064435649999520844 0.00068528524945057662 0.0014249672031093558 -0.0012798166098010758 -0.019019775387222087 -0.0066723399005758641 0.0036082231238454012
leaf_weight=4613 212461 21 44 22 24 27 40 27 21 33 140 26 65 69
leaf_count=4613 212461 21 44 22 24 27 40 27 21 33 140 26 65 69
internal_value=0 -0.000164652 -0.00446519 -0.000109916 -0.000143359 -0.000108773 0.00211151 -0.000203457 -0.00328552 -0.00597794 0.000584824 -0.00815915 -0.0102002 0.000781158
internal_weight=0 5172 65 5107 5085 5061 207 4854 241 145 180 112 91 96
internal_count=217633 5172 65 5107 5085 5061 207 4854 241 145 180 112 91 96
shrinkage=0.15


Tree=1211
num_leaves=15
num_cat=0
split_feature=1 32 3 21 21 27 3 21 3 27 3 12 16 35
split_gain=0.00618009 0.0248042 0.0449603 0.0437629 0.0350379 0.155942 0.374963 0.0869243 0.0700363 0.0616846 0.0629422 0.0474683 0.0834301 0.0316364
threshold=-12.252349999999998 -0.029393449999999998 -6.2498799999999992 -6.579159999999999 -12.91935 0.58283300000000005 -5.4155299999999995 -10.551199999999998 -5.8104799999999992 0.34147150000000009 -6.0545599999999995 -9.9805249999999988e-05 4.1385500000000005e-07 0.0045123100000000011
decision_type=2 2 2 2 2 2 2 2 2 2 2 2 2 2
left_child=1 -1 3 -3 5 6 -4 8 9 -6 -11 -7 -13 -10
right_child=-2 2 4 -5 7 11 -8 -9 13 10 -12 12 -14 -15
leaf_value=-0.00045459374725271792 5.1366712201512654e-06 -0.0087224913291865953 0.018341554299695417 -0.00095480918089185459 -0.011772584142404254 -0.0068466039385384645 -0.0045772535435389724 0.00020903721935729489 -0.0016680994823173767 0.0025308044756378006 -0.0089750112674664706 -0.0017871225956861798 0.0076136038396238549 0.0040394774914602749
leaf_weight=3213 209002 25 36 47 29 24 29 4801 244 23 20 88 28 24
leaf_count=3213 209002 25 36 47 29 24 29 4801 244 23 20 88 28 24
internal_value=0 -0.000124386 7.14351e-05 -0.00365192 0.000121581 0.00204464 0.00811624 4.48983e-05 -0.00227284 -0.00642634 -0.00282074 -0.000774317 0.000482018 -0.00115697
internal_weight=0 8631 5418 72 5346 205 65 5141 340 72 43 140 116 268
internal_count=217633 8631 5418 72 5346 205 65 5141 340 72 43 140 116 268
shrinkage=0.15


Tree=1212
num_leaves=15
num_cat=0
split_feature=28 3 15 15 4 35 10 37 15 24 16 2 14 4
split_gain=0.00620285 0.0383831 0.0198467 0.0898906 0.0804564 0.0399316 0.0888645 0.0682706 0.0269713 0.0254304 0.0495741 0.16974 0.181988 0.0629289
threshold=-0.99135349999999989 -18.015749999999997 2.0193000000000005e-05 9.9346350000000022e-06 -0.42388399999999993 1.6402550000000002 2.8032150000000006e-05 1.2200700000000002e-05 2.9493950000000006e-05 -1.0622799999999997 6.5260250000000008e-06 -0.6081749999999998 0.0038047950000000006 -0.10996449999999998
decision_type=2 2 2 2 2 2 2 2 2 2 2 2 2 2
left_child=1 -1 3 9 -5 8 -7 -8 -4 10 13 12 -12 -3
right_child=-2 2 5 4 -6 6 7 -9 -10 -11 11 -13 -14 -15
leaf_value=0.0054376156071577076 2.2707858232063968e-06 -0.0025310010269617355 0.0045806527936032839 -0.013969278015429154 -0.0012558535367134026 0.011683966986178842 -0.003486506370398657 0.0061774421878688941 -0.0011390034739410765 -0.0011181093655356182 0.019939151169224217 -0.0017335550768300034 0.0012332052611745894 0.00062287795268403971
leaf_weight=26 215897 202 21 21 24 22 38 29 159 597 22 68 25 482
leaf_count=26 215897 202 21 21 24 22 38 29 159 597 22 68 25 482
internal_value=0 -0.000282405 -0.000369377 -0.000590168 -0.00718878 0.000813376 0.00341243 0.000696397 -0.00047171 -0.000377462 0.000175938 0.00305748 0.00998918 -0.000308531
internal_weight=0 1736 1710 1441 45 269 89 67 180 1396 799 115 47 684
internal_count=217633 1736 1710 1441 45 269 89 67 180 1396 799 115 47 684
shrinkage=0.15


Tree=1213
num_leaves=15
num_cat=0
split_feature=14 32 20 19 19 16 20 0 13 22 0 1 13 11
split_gain=0.00618299 0.018077 0.00641132 0.0669311 0.0919025 0.101361 0.0756798 0.0670987 0.0596544 0.0796319 0.538583 0.320065 0.257311 0.319689
threshold=0.71230950000000004 3.0995850000000007 9.0324500000000025 0.00013914700000000003 0.00015928200000000004 2.1880300000000001e-08 11.056200000000002 9.5540300000000027 -1.3148349999999999e-05 -0.43781749999999992 7.3090500000000009 -3.9125799999999997 -2.7867099999999996e-05 2.2669950000000005e-05
decision_type=2 2 2 2 2 2 2 2 2 2 2 2 2 2
left_child=2 -2 -1 -4 5 -5 -7 -8 9 10 -6 12 -12 -14
right_child=1 -3 3 4 8 6 7 -9 -10 -11 11 -13 13 -15
leaf_value=-6.8534835622586237e-06 -0.00029682656039506128 -0.0047551526621516264 0.00037904788276941359 -9.3490205065288644e-05 -0.00047877066695571001 -0.002241280637310245 -0.0058513786302619554 -0.015751619824732187 -0.0003676795647298017 6.1663830286205565e-06 0.0036571050851377479 -0.0022312725474618656 0.010741530670312856 0.029394779720210602
leaf_weight=195982 800 21 9335 143 698 66 43 24 6921 3375 65 53 79 28
leaf_count=195982 800 21 9335 143 698 66 43 24 6921 3375 65 53 79 28
internal_value=0 -0.000410864 1.55581e-06 8.06759e-05 -0.00016163 -0.00286573 -0.00584641 -0.00939773 -9.51058e-05 0.000343815 0.00157845 0.0079604 0.0111009 0.0156228
internal_weight=0 821 216812 20830 11495 276 133 67 11219 4298 923 225 172 107
internal_count=217633 821 216812 20830 11495 276 133 67 11219 4298 923 225 172 107
shrinkage=0.15


Tree=1214
num_leaves=15
num_cat=0
split_feature=22 21 13 2 2 2 32 35 20 4 2 39 7 12
split_gain=0.00663388 0.0480042 0.0673399 0.100435 0.0990805 0.588984 0.458145 0.349551 0.345545 0.208995 0.107029 0.139245 0.130744 0.081553
threshold=-0.36388649999999995 -3.5985549999999997 6.2271550000000012e-05 -3.0483799999999994 -0.41453399999999996 -0.1546215 0.014881700000000003 -0.082776699999999995 11.473100000000002 0.10321350000000001 -0.68956549999999994 0.0022391600000000005 3.9998900000000008e-05 -1.0129549999999999e-05
decision_type=2 2 2 2 2 2 2 2 2 2 2 2 2 2
left_child=-1 2 3 -2 10 6 -6 -8 9 -9 -5 12 -12 -7
right_child=1 -3 -4 4 5 13 7 8 -10 -11 11 -13 -14 -15
leaf_value=-2.9526720110833263e-05 0.0095566053019138057 6.3854505232191896e-06 -0.00052173305560955366 0.00028974584159841026 0.0016227103754725501 -0.0070496143947586399 0.00084783945312665314 0.019563298463994024 0.0053963839242767006 0.038486412215570448 -0.017792690293863416 0.00022721451174662874 -0.0038254581297606865 0.00072688516756249744
leaf_weight=95824 30 118033 978 984 87 31 24 29 21 24 25 74 38 1431
leaf_count=95824 30 118033 978 984 87 31 24 29 21 24 25 74 38 1431
internal_value=0 2.32279e-05 0.000549702 0.000924206 0.000830647 0.00157103 0.00954518 0.0165784 0.0216802 0.0281323 -0.000257146 -0.00418519 -0.00936801 0.000561994
internal_weight=0 121809 3776 2798 2768 1647 185 98 74 53 1121 137 63 1462
internal_count=217633 121809 3776 2798 2768 1647 185 98 74 53 1121 137 63 1462
shrinkage=0.15


Tree=1215
num_leaves=15
num_cat=0
split_feature=2 33 14 22 18 15 24 16 23 14 0 37 0 23
split_gain=0.00633488 0.0496789 0.0895083 0.0824554 0.327954 0.459154 0.499416 0.460843 0.377734 0.800365 0.602881 0.288221 0.284412 0.297536
threshold=2.5016900000000004 5.3687500000000009e-06 9.9284450000000011e-05 2.4622600000000006 -2.3618449999999997e-06 -9.1224749999999996e-07 0.19546850000000002 -2.3958049999999994e-07 -11.352549999999999 0.0006072295000000001 -10.246499999999999 1.3231050000000004e-07 -5.7675899999999993 -12.363649999999998
decision_type=2 2 2 2 2 2 2 2 2 2 2 2 2 2
left_child=-1 -2 -3 -4 8 6 -6 -8 12 10 -10 -11 -5 -14
right_child=1 2 3 4 5 -7 7 -9 9 11 -12 -13 13 -15
leaf_value=-8.3833773371166029e-06 0.00023189595657922241 0.00075432282087613267 -0.00091496582241899587 -0.0044723382849339516 -0.0035478297317952717 -0.010252074056281708 0.015324697648266966 -0.0024294280472531679 -0.0054955566884018481 -0.0075231779284809751 0.018028692880946422 0.0061934015079168608 0.0059054907793695006 -0.011955845293414313
leaf_weight=196542 14584 1490 3794 196 272 125 76 58 30 81 134 60 167 24
leaf_count=196542 14584 1490 3794 196 272 125 76 58 30 81 134 60 167 24
internal_value=0 7.81227e-05 -0.000266526 -0.000569708 0.000501353 -0.00230273 0.00014473 0.00764008 0.00265304 0.00660067 0.0137255 -0.00168634 -0.000458144 0.00366113
internal_weight=0 21091 6507 5017 1223 531 406 134 692 305 164 141 387 191
internal_count=217633 21091 6507 5017 1223 531 406 134 692 305 164 141 387 191
shrinkage=0.15


Tree=1216
num_leaves=15
num_cat=0
split_feature=2 21 31 31 34 37 37 4 36 15 26 0 20 31
split_gain=0.00610785 0.0445303 0.0497099 0.054762 0.142321 0.0350314 0.0461443 0.0689991 0.276458 0.228249 0.372545 0.421972 0.279456 0.169283
threshold=2.7568000000000006 6.3134300000000012 7.8198850000000011 2.3083350000000005 1.7104650000000003 -1.0171699999999998e-06 -4.1916899999999992e-08 -0.051615199999999993 1.0000000180025095e-35 3.5999250000000005e-06 -6.1098949999999989e-05 -11.792149999999998 -3.9273699999999994 0.023689400000000003
decision_type=2 2 2 2 2 2 2 2 2 2 2 2 2 2
left_child=-1 5 3 -3 -5 -2 7 8 13 10 11 -10 -13 -7
right_child=1 2 -4 4 -6 6 -8 -9 9 -11 -12 12 -14 -15
leaf_value=-6.0118196998436179e-06 -0.00093685794798117146 0.00065862022263445401 -0.0056994227563134494 0.015544365088571793 -0.00031765749761169507 0.00060091494530189224 -0.00024121124337819633 0.0010208403030547771 0.0015948517683269032 0.00052191353658990103 -0.0013159179158571722 -0.019887886419562701 -0.00087305307176641447 0.0062539255674093916
leaf_weight=205851 885 2208 27 20 35 630 4994 2094 44 335 258 83 22 147
leaf_count=205851 885 2208 27 20 35 630 4994 2094 44 335 258 83 22 147
internal_value=0 0.000105036 0.000698742 0.000775079 0.00545035 -3.81984e-05 5.42047e-05 0.000462538 -0.000307104 -0.00237789 -0.00476471 -0.0107364 -0.0159038 0.0016704
internal_weight=0 11782 2290 2263 55 9492 8607 3613 1519 742 407 149 105 777
internal_count=217633 11782 2290 2263 55 9492 8607 3613 1519 742 407 149 105 777
shrinkage=0.15


Tree=1217
num_leaves=15
num_cat=0
split_feature=20 11 7 7 14 34 17 3 37 17 15 3 30 9
split_gain=0.00591537 0.0472568 0.0368691 0.0727332 0.0553092 0.0965108 0.0980275 0.172738 0.095988 0.0947765 0.247505 0.0662316 0.0846086 0.0594361
threshold=-11.056249999999999 3.1225300000000007e-05 4.2972350000000005e-05 4.7790500000000003e-05 0.00012403000000000004 0.0071301150000000011 5.480555000000001e-08 -5.8104799999999992 -4.6735749999999989e-08 5.4117700000000011e-07 -5.8207499999999994e-08 -5.5938249999999998 0.011863300000000002 -3.0608749999999994e-05
decision_type=2 2 2 2 2 2 2 2 2 2 2 2 2 2
left_child=1 2 4 -4 5 6 7 8 -1 -7 -11 -6 -13 -8
right_child=-2 -3 3 -5 11 9 13 -9 -10 10 -12 12 -14 -15
leaf_value=-0.007460107904459749 5.2920887257243421e-06 -0.00067690366691746198 -0.0018439630776509819 3.8130959125424247e-05 0.00064835552256274241 -0.00010318225772482224 0.0029200286305240295 0.00049353369503541908 -0.020486738844774664 0.018838951806008648 -0.00037426832132041453 0.001554162714119929 0.013363679002837411 -0.0024606408480153676
leaf_weight=35 208103 2492 563 2575 2680 762 64 43 20 22 48 39 21 166
leaf_count=35 208103 2492 563 2575 2680 762 64 43 20 22 48 39 21 166
internal_value=0 -0.000115561 8.31976e-05 -0.000299542 0.000391156 -0.000477012 -0.0026561 -0.00662874 -0.0121971 0.000382052 0.00566417 0.000758702 0.00568749 -0.000963411
internal_weight=0 9530 7038 3138 3900 1160 328 98 55 832 70 2740 60 230
internal_count=217633 9530 7038 3138 3900 1160 328 98 55 832 70 2740 60 230
shrinkage=0.15


Tree=1218
num_leaves=15
num_cat=0
split_feature=0 20 7 17 25 7 32 23 3 2 3 15 32 21
split_gain=0.00690397 0.0561217 0.0865627 0.303408 0.110211 0.10462 0.0874054 0.0777151 0.142231 0.105064 0.126361 0.0412615 0.0344437 0.0265533
threshold=-10.580349999999997 -12.193649999999998 4.1413700000000006e-05 4.3645800000000003e-07 7.8320250000000007 4.4571700000000006e-05 0.0041927100000000014 -6.8527199999999988 -5.3892799999999985 -2.7531699999999995 -6.2187599999999987 1.0122250000000001e-06 -0.016127799999999998 -7.1421249999999992
decision_type=2 2 2 2 2 2 2 2 2 2 2 2 2 2
left_child=1 2 3 4 6 -4 -1 11 9 -9 -11 -7 -3 -14
right_child=-2 12 5 -5 -6 7 -8 8 -10 10 -12 -13 13 -15
leaf_value=-0.00079442276265067246 7.2002270947346879e-06 0.00011612086603083313 -0.007025678067082864 0.018395070123871596 -0.0058246732046661363 -0.0023528790652172964 0.012764202279904567 0.001809935834975668 -0.0022261509211911855 0.0033799443629686718 0.019110730335685524 0.0048926655901595948 8.5121282559067859e-05 -0.00052159372131342326
leaf_weight=23 202896 6229 38 29 35 112 20 38 53 20 27 21 2247 5845
leaf_count=23 202896 6229 38 29 35 112 20 38 53 20 27 21 2247 5845
internal_value=0 -9.91312e-05 0.00161835 0.00529538 0.000424984 0.000345074 0.00551191 0.00137861 0.00387232 0.0076749 0.0124168 -0.00120885 -0.000149021 -0.00035312
internal_weight=0 14737 416 107 78 309 43 271 138 85 47 133 14321 8092
internal_count=217633 14737 416 107 78 309 43 271 138 85 47 133 14321 8092
shrinkage=0.15


Tree=1219
num_leaves=15
num_cat=0
split_feature=25 19 34 12 19 30 18 2 10 39 18 3 5 18
split_gain=0.00599497 0.0443158 0.0913725 0.1 0.0837513 0.164399 0.187787 0.184599 0.106118 0.12225 0.153098 0.163595 0.110468 0.115904
threshold=0.5657890000000001 8.8794400000000016e-08 0.78160050000000014 6.5907450000000009e-05 1.5064750000000002e-05 0.0045686050000000008 0.00012152750000000001 0.25774100000000005 1.3772300000000002e-05 0.0012724150000000003 -1.5641449999999996e-05 -13.519999999999998 1.5261250000000002e-05 1.7497200000000002e-05
decision_type=2 2 2 2 2 2 2 2 2 2 2 2 2 2
left_child=-1 2 -2 -4 5 8 -7 -8 -3 12 -11 -12 13 -10
right_child=1 4 3 -5 -6 6 7 -9 9 10 11 -13 -14 -15
leaf_value=2.3143387979893128e-05 0.00037213533836784324 0.00034092555816188087 -0.00064826975798038314 0.0013317478830367551 -2.5315527900488459e-06 0.00053385737273209551 -0.0022229259901289499 -0.017716585746529744 -0.0017551569619939347 -0.0095732447930045456 -0.013078262427815289 -0.00077569102443165463 -0.0002861955577476239 0.00021014194139010574
leaf_weight=116744 14172 1816 4230 664 66708 4206 62 24 3344 77 27 245 4468 846
leaf_count=116744 14172 1816 4230 664 66708 4206 62 24 3344 77 27 245 4468 846
internal_value=0 -2.67804e-05 0.000179167 -0.000379628 -7.47694e-05 -0.000393581 0.000391982 -0.00654674 -0.000705106 -0.000916008 -0.00366847 -0.0019969 -0.000805057 -0.00135834
internal_weight=0 100889 19066 4894 81823 15115 4292 86 10823 9007 349 272 8658 4190
internal_count=217633 100889 19066 4894 81823 15115 4292 86 10823 9007 349 272 8658 4190
shrinkage=0.15


Tree=1220
num_leaves=15
num_cat=0
split_feature=38 4 23 13 17 14 23 14 23 4 34 14 23 14
split_gain=0.0060978 0.0682203 0.0922522 0.139759 0.125493 0.0863712 0.171958 0.136632 0.12562 0.208362 0.43938 0.442833 0.239281 0.32908
threshold=-0.00024543399999999994 -0.0098646799999999989 -15.265799999999997 4.3872650000000008e-05 3.8911000000000003e-08 0.00031542200000000004 -8.770274999999998 0.00010223650000000001 -8.0513349999999981 -0.26752999999999993 0.10256300000000002 0.0012017500000000003 -12.162849999999999 0.0010287300000000003
decision_type=2 2 2 2 2 2 2 2 2 2 2 2 2 2
left_child=1 5 3 -3 -5 6 -1 -8 9 -7 11 12 13 -11
right_child=-2 2 -4 4 -6 8 7 -9 -10 10 -12 -13 -14 -15
leaf_value=0.00081252142027398908 -1.8213387879811583e-05 -0.0010292642357503396 8.2595036682560941e-06 0.011912704046283451 0.00026531864106549085 9.6273683155178319e-05 0.00047767957958643918 -0.0012572658443852744 0.00067119271289092623 -0.00042094427334404827 0.00025623014803033379 0.00047378742365194212 -0.005919776362831114 -0.018526036513503642
leaf_weight=9874 142598 5033 30415 21 2344 14096 2158 1939 4960 384 2344 610 833 24
leaf_count=9874 142598 5033 30415 21 2344 14096 2158 1939 4960 384 2344 610 833 24
internal_value=0 3.46131e-05 -0.000107291 -0.000582348 0.000368742 0.00017877 0.00047354 -0.000343423 1.64992e-06 -0.000179911 -0.00110794 -0.00283546 -0.00446208 -0.00148595
internal_weight=0 75035 37813 7398 2365 37222 13971 4097 23251 18291 4195 1851 1241 408
internal_count=217633 75035 37813 7398 2365 37222 13971 4097 23251 18291 4195 1851 1241 408
shrinkage=0.15


Tree=1221
num_leaves=15
num_cat=0
split_feature=3 23 3 9 29 29 18 0 16 36 29 33 28 23
split_gain=0.00798889 0.0784058 0.173452 0.166062 0.230052 0.189572 0.176 0.172093 0.136797 0.133263 0.113999 0.116912 0.154716 0.108702
threshold=-6.1122599999999991 -6.1631349999999996 -5.9118649999999997 -1.8188249999999996e-05 0.0033411900000000004 0.0013509850000000001 7.6855900000000007e-07 11.960450000000002 -3.5728349999999993e-08 0.00053887500000000018 -0.012684199999999998 -6.0217299999999992e-07 -0.0036166849999999993 -8.4877049999999983
decision_type=2 2 2 2 2 2 2 2 2 2 2 2 2 2
left_child=-1 13 3 4 8 6 7 10 -3 -7 -5 -12 -13 -2
right_child=1 2 -4 5 -6 9 -8 -9 -10 -11 11 12 -14 -15
leaf_value=1.5003014013113771e-05 -0.00019899249226957696 -0.0091384291138837861 -0.00032910632740668403 -0.0040024495334364469 5.9981604751486045e-05 -0.016190174789918618 -0.0086905828126790843 -0.0090658371057361353 -0.023216379781253633 -0.00252697209410447 0.016940327311077943 0.014947392132099984 -0.0013384122670894222 0.00028233259607658408
leaf_weight=171024 27839 41 1439 20 39 29 33 20 25 36 26 21 35 17006
leaf_count=171024 27839 41 1439 20 39 29 33 20 25 36 26 21 35 17006
internal_value=0 -5.50511e-05 -0.00103598 -0.00416581 -0.00907377 -0.00182337 0.00102803 0.00365683 -0.014471 -0.00862286 0.00615147 0.00862804 0.00476876 -1.64657e-05
internal_weight=0 46609 1764 325 105 220 155 122 66 65 102 82 56 44845
internal_count=217633 46609 1764 325 105 220 155 122 66 65 102 82 56 44845
shrinkage=0.15


Tree=1222
num_leaves=15
num_cat=0
split_feature=4 26 13 33 17 17 23 5 23 3 33 19 19 18
split_gain=0.00648896 0.0397348 0.0823705 0.180616 0.828532 0.170564 0.165347 0.147883 0.129394 0.133865 0.0990669 0.38449 0.237258 0.231601
threshold=0.14210450000000005 -4.8031449999999999e-05 3.7169250000000007e-05 -9.4167599999999983e-06 2.4413200000000008e-06 6.9908850000000011e-07 -16.434549999999998 2.6253150000000005e-05 -15.694899999999999 -15.512049999999999 2.8439950000000003e-06 0.00015282300000000004 3.8086000000000004e-07 3.9077700000000007e-05
decision_type=2 2 2 2 2 2 2 2 2 2 2 2 2 2
left_child=-1 -2 10 4 6 -5 -4 8 -8 -10 12 -12 -3 -13
right_child=1 2 3 5 -6 -7 7 -9 9 -11 11 13 -14 -15
leaf_value=-1.810209328633085e-05 -7.9452323786457577e-05 -0.00096585102654025317 -0.0019733761181214503 0.0020541462696148528 -0.00027457478332314065 8.872677237043286e-06 -0.021814282437447798 -0.00028333997260607941 -0.0040824736407640474 -0.012118580268436761 0.0011444654804551291 -0.0022794032550486096 0.00091650291358838011 -7.2442385489167018e-05
leaf_weight=146214 34263 1775 84 987 3243 13013 22 34 66 159 3389 1816 9964 2604
leaf_count=146214 34263 1775 84 987 3243 13013 22 34 66 159 3389 1816 9964 2604
internal_value=0 3.70599e-05 0.0001445 -9.08196e-05 -0.00103715 0.000153064 -0.00781263 -0.00955817 -0.0108349 -0.00976132 0.000356466 -5.75545e-05 0.000631881 -0.000979194
internal_weight=0 71419 37156 17608 3608 14000 365 281 247 225 19548 7809 11739 4420
internal_count=217633 71419 37156 17608 3608 14000 365 281 247 225 19548 7809 11739 4420
shrinkage=0.15


Tree=1223
num_leaves=15
num_cat=0
split_feature=38 4 3 23 3 30 4 12 21 10 13 4 23 4
split_gain=0.00689278 0.0473002 0.0758367 0.197458 0.299494 0.387739 0.336555 0.368391 0.284448 0.196456 0.18941 0.17962 0.152327 0.17922
threshold=-0.00024543399999999994 -0.0098646799999999989 -6.8364449999999986 -6.7637699999999983 -6.3575099999999987 0.0032644900000000005 0.7372645000000001 4.1059100000000008e-05 6.6820600000000008 3.0649050000000008e-05 -2.3689349999999998e-06 0.3608320000000001 -6.9868449999999989 1.0025000000000002
decision_type=2 2 2 2 2 2 2 2 2 2 2 2 2 2
left_child=1 -1 12 -4 5 6 7 8 10 -10 -5 -7 -3 -14
right_child=-2 2 3 4 -6 11 -8 -9 9 -11 -12 -13 13 -15
leaf_value=0.00015683630817987736 -1.936427841601184e-05 0.00018471473743489323 -0.00059986901994561444 0.023512581055983899 0.00012696438204223414 -0.010314399629132821 -0.0022885983059412946 0.026367489338907247 0.0091115389527245006 -0.010934467321600425 0.008125486515151957 0.0053500317290724646 -0.0021138767579265494 0.00031614391221559371
leaf_weight=37222 142598 23392 10556 30 851 40 44 34 22 22 45 28 1484 1265
leaf_count=37222 142598 23392 10556 30 851 40 44 34 22 22 45 28 1484 1265
internal_value=0 3.68003e-05 -8.13597e-05 -0.000399266 0.0014982 0.00590166 0.00927267 0.0125975 0.00866319 -0.000911464 0.0142803 -0.00386434 6.05859e-05 -0.000995661
internal_weight=0 75035 37813 11672 1116 265 197 153 119 44 75 68 26141 2749
internal_count=217633 75035 37813 11672 1116 265 197 153 119 44 75 68 26141 2749
shrinkage=0.15


Tree=1224
num_leaves=15
num_cat=0
split_feature=13 33 4 34 33 25 11 33 25 8 9 4 19 10
split_gain=0.00559451 0.0249163 0.100916 0.0260213 0.0428638 0.0327859 0.0222793 0.0477671 0.0292014 0.034927 0.0446443 0.0336162 0.0258108 0.0272942
threshold=-0.00011454099999999999 0.00022867500000000004 -0.51881799999999989 0.31672950000000005 4.1914650000000004e-05 0.48393650000000005 0.00020435050000000004 1.7169700000000003e-05 2.3678750000000006 -1.6634549999999998e-05 -0.00011388499999999998 -0.0098646799999999989 0.017760400000000003 0.0001222335
decision_type=2 2 2 2 2 2 2 2 2 2 2 2 2 2
left_child=1 3 -3 4 -1 -5 8 -8 11 10 -10 12 13 -7
right_child=-2 2 -4 5 -6 6 7 -9 9 -11 -12 -13 -14 -15
leaf_value=-0.00018386192750590168 2.1370647848141482e-06 -0.003805320414407602 0.010731983560669634 -0.0074044977792073032 0.0056479363083028521 0.0061932424118276682 0.00027567706018654178 -0.0085785628641203322 -0.001129551584017463 -0.00020691406404157764 -0.0091983964807594819 0.0061007803939131782 -0.0036500443266614352 -0.0013834819879143059
leaf_weight=1280 215928 22 21 20 29 20 29 26 36 117 27 26 29 23
leaf_count=1280 215928 22 21 20 29 20 29 26 36 117 27 26 29 23
internal_value=0 -0.000270646 0.00329429 -0.00036288 -5.46624e-05 -0.00150582 -0.00115154 -0.00390996 -0.000605812 -0.00174016 -0.00458763 0.00147769 -0.000191757 0.00214058
internal_weight=0 1705 43 1662 1309 353 333 55 278 180 63 98 72 43
internal_count=217633 1705 43 1662 1309 353 333 55 278 180 63 98 72 43
shrinkage=0.15


Tree=1225
num_leaves=15
num_cat=0
split_feature=15 35 15 23 15 3 23 14 14 3 13 19 14 16
split_gain=0.00547823 0.0519626 0.0764884 0.088219 0.156688 0.11173 0.148696 0.13431 0.102947 0.205041 0.08639 0.0898095 0.0780262 0.0771627
threshold=1.6080300000000002e-08 0.007377840000000001 -4.7403849999999999e-07 -14.455649999999997 -5.5217749999999993e-06 -13.437049999999997 -13.149599999999998 0.00021428950000000003 0.004267840000000001 -16.131449999999997 -5.3645549999999997e-05 0.0085812350000000013 0.0014017550000000002 2.9115650000000008e-07
decision_type=2 2 2 2 2 2 2 2 2 2 2 2 2 2
left_child=1 -1 3 8 -5 6 -6 -7 9 -3 -9 13 -8 -12
right_child=-2 2 -4 4 5 7 12 10 -10 -11 11 -13 -14 -15
leaf_value=-6.1758810454679591e-05 2.5130743540295779e-05 0.016818078216165305 0.00062389118148624238 0.00019803265025590609 -0.0083668369011554323 0.00026951793346684672 0.0093398016849372146 -0.010238767986513929 -0.00026149322310239009 0.0014927816125574198 -0.0018730873653620031 0.006260218602032042 0.0012121757297894153 -0.0044405096579094574
leaf_weight=99688 102895 20 6523 4101 35 481 29 33 1133 1100 874 26 318 377
leaf_count=99688 102895 20 6523 4101 35 481 29 33 1133 1100 874 26 318 377
internal_value=0 -2.25368e-05 0.000237261 -5.85033e-05 -0.000347626 -0.00137742 0.000951536 -0.00187416 0.000746627 0.00176645 -0.00266127 -0.00246545 0.00189143 -0.0026468
internal_weight=0 114738 15050 8527 6274 2173 382 1791 2253 1120 1310 1277 347 1251
internal_count=217633 114738 15050 8527 6274 2173 382 1791 2253 1120 1310 1277 347 1251
shrinkage=0.15


Tree=1226
num_leaves=15
num_cat=0
split_feature=25 3 23 23 23 3 19 13 23 3 13 22 33 21
split_gain=0.00675982 0.0326802 0.0796127 0.128655 0.155726 0.538031 0.588893 0.259179 0.188825 0.897914 0.498553 0.678688 0.325233 0.400965
threshold=0.5657890000000001 -12.418249999999999 -6.551404999999999 -10.7143 -12.425899999999999 -13.607149999999999 1.0038850000000003e-06 -8.8161699999999983e-06 -13.412199999999999 -13.437049999999997 3.8072300000000012e-05 -1.7377699999999998 -1.7962349999999996e-05 -4.015274999999999
decision_type=2 2 2 2 2 2 2 2 2 2 2 2 2 2
left_child=1 2 3 4 8 -6 -7 -8 -1 -10 11 -11 13 -12
right_child=-2 -3 -4 -5 5 6 7 -9 9 10 12 -13 -14 -15
leaf_value=-0.00046283691832448996 -2.843753534696439e-05 6.463796437259091e-05 -0.00095491561523792536 0.00029522484873000893 -6.0173780038313023e-05 -0.014246317601355257 -0.0072567992795869105 -0.00074530718178398572 -0.0011811437617066268 -0.0077354993436774986 -0.0017132082712186243 0.014153061494302085 -0.0031555425970403775 0.023688205164540298
leaf_weight=5750 100889 93036 2383 11643 1814 125 208 406 927 37 29 230 129 27
leaf_count=5750 100889 93036 2383 11643 1814 125 208 406 927 37 29 230 129 27
internal_value=0 2.45754e-05 -0.00013264 -4.07531e-05 -0.00044478 -0.00145004 -0.0048617 -0.00295115 -8.47816e-05 0.00149159 0.00697306 0.0111198 0.000988289 0.0105339
internal_weight=0 116744 23708 21325 9682 2553 739 614 7129 1379 452 267 185 56
internal_count=217633 116744 23708 21325 9682 2553 739 614 7129 1379 452 267 185 56
shrinkage=0.15


Tree=1227
num_leaves=15
num_cat=0
split_feature=4 24 4 18 34 4 34 3 3 23 23 23 14 3
split_gain=0.00579892 0.0318116 0.0834625 0.20086 0.154877 0.143511 0.545574 0.796516 0.884929 0.744175 0.625694 0.455181 0.82532 0.532332
threshold=0.14210450000000005 -0.067968749999999981 -0.14309299999999997 -0.00022632149999999996 0.012110300000000003 1.0000000180025095e-35 0.028647800000000005 -6.3575099999999987 -10.010399999999999 -6.3908299999999993 -10.319049999999999 -9.355299999999998 0.00018717200000000002 -8.7372249999999987
decision_type=2 2 2 2 2 2 2 2 2 2 2 2 2 2
left_child=1 -1 3 -3 -5 6 7 8 10 11 -4 12 -10 -13
right_child=-2 2 5 4 -6 -7 -8 -9 9 -11 -12 13 -14 -15
leaf_value=-8.6498473414271324e-05 3.503401271472637e-05 -0.0001073729040612554 -0.010192733931658688 0.001406893494832706 0.00033743109932841546 0.00019328152297412162 0.00028379588637828234 0.00034962840607724008 0.0040595163088427569 0.0015157679841207332 0.0015253328787488754 -0.0015477465760024628 -0.0081026198278360672 -0.0073609998195911658
leaf_weight=73716 71419 19121 112 4112 11761 18632 11066 3448 296 450 1212 454 218 1616
leaf_count=73716 71419 19121 112 4112 11761 18632 11066 3448 296 450 1212 454 218 1616
internal_value=0 -1.71125e-05 5.34391e-05 0.000220055 0.000614482 -0.000102026 -0.000393577 -0.00135384 -0.0027016 -0.00411362 0.000534076 -0.00509397 -0.00109874 -0.00608602
internal_weight=0 146214 72498 34994 15873 37504 18872 7806 4358 3034 1324 2584 514 2070
internal_count=217633 146214 72498 34994 15873 37504 18872 7806 4358 3034 1324 2584 514 2070
shrinkage=0.15


Tree=1228
num_leaves=15
num_cat=0
split_feature=3 34 19 3 35 34 33 36 13 34 39 27 13 22
split_gain=0.00873555 0.0355095 0.056315 0.0554756 0.115248 0.200803 0.0497835 0.0475021 0.0406957 0.0391179 0.0515819 0.0384278 0.0350313 0.0489063
threshold=-6.1122599999999991 0.011875250000000002 1.4590650000000001e-08 -5.8564649999999991 -6.3420399999999987e-05 0.0030911400000000005 -1.9189149999999997e-06 0.0005789835000000001 7.2925650000000004e-06 0.0053646400000000012 1.1477300000000002e-06 0.4049525000000001 1.7665150000000005e-05 -2.3274699999999995
decision_type=2 2 2 2 2 2 2 2 2 2 2 2 2 2
left_child=-1 2 3 4 5 -2 8 12 -4 10 -7 -3 13 -6
right_child=1 11 6 -5 7 9 -8 -9 -10 -11 -12 -13 -14 -15
leaf_value=1.5688460437883133e-05 -0.015432104612045805 -0.00035966125831093118 0.0013584908545350922 -0.00015005296518711854 -0.0066896080652077217 -0.00074472789087199731 0.00012968006222949222 -0.0055247149704622904 0.00010284763697132584 -0.00028381523117423056 -0.011258178310734885 -2.4187212601825546e-05 0.0059921569864465193 0.0013037451863056049
leaf_weight=171024 34 11319 1675 2648 20 21 5813 28 889 75 21 23914 28 124
leaf_count=171024 34 11319 1675 2648 20 21 5813 28 889 75 21 23914 28 124
internal_value=0 -5.75662e-05 0.000172848 -0.000384934 -0.00215692 -0.00528502 0.000372536 0.000204803 0.000923129 -0.0023363 -0.00600145 -0.000131962 0.00113752 0.000193557
internal_weight=0 46609 11376 2999 351 151 8377 200 2564 117 42 35233 172 144
internal_count=217633 46609 11376 2999 351 151 8377 200 2564 117 42 35233 172 144
shrinkage=0.15


Tree=1229
num_leaves=15
num_cat=0
split_feature=25 19 39 34 12 19 30 4 34 5 33 0 29 26
split_gain=0.00687859 0.032281 0.0836336 0.0644143 0.0694131 0.063664 0.121826 0.0978121 0.136916 0.158321 0.208392 0.132929 0.18194 0.113578
threshold=0.5657890000000001 8.8794400000000016e-08 4.2267650000000009e-06 0.78160050000000014 6.5907450000000009e-05 1.5064750000000002e-05 0.0045686050000000008 0.34245300000000006 1.5836250000000003 1.1899450000000002e-05 -8.2696899999999974e-06 8.1548950000000016 -0.075338849999999985 0.00045778900000000006
decision_type=2 2 2 2 2 2 2 2 2 2 2 2 2 2
left_child=-1 2 -2 -4 -5 6 -3 -8 9 10 -9 12 13 -11
right_child=1 5 3 4 -6 -7 7 8 -10 11 -12 -13 -14 -15
leaf_value=2.4790385742172807e-05 0.0043687914782016635 -0.00061577795490927066 0.00028678108847806087 -0.00056883758972767087 0.0010808051370895418 -6.6620203736165782e-06 0.00065467563387775136 -0.014380974386385161 0.0005223213022308434 -0.015207892229013583 -0.0014321607899748616 0.0070176929880462176 0.00086028151417849585 -0.0021767580778234534
leaf_weight=116744 105 10823 14067 4230 664 66708 3555 58 422 34 54 37 105 27
leaf_count=116744 105 10823 14067 4230 664 66708 3555 58 422 34 54 37 105 27
internal_value=0 -2.86863e-05 0.000147086 0.000123708 -0.00034502 -6.96439e-05 -0.000347606 0.000328635 -0.00124406 -0.00361044 -0.0081378 -0.00111259 -0.00292477 -0.00944001
internal_weight=0 100889 19066 18961 4894 81823 15115 4292 737 315 112 203 166 61
internal_count=217633 100889 19066 18961 4894 81823 15115 4292 737 315 112 203 166 61
shrinkage=0.15


Tree=1230
num_leaves=15
num_cat=0
split_feature=3 23 3 23 3 39 16 36 16 36 36 28 13 33
split_gain=0.00673369 0.0627061 0.160162 0.168546 0.238873 0.160952 0.158479 0.219541 0.19416 0.185285 0.179038 0.143155 0.0928229 0.0921118
threshold=-6.1122599999999991 -6.1917699999999991 -5.8349799999999989 -6.0751199999999992 -6.0020699999999989 3.1190500000000007e-06 2.1292700000000004e-07 0.00049153750000000007 -1.3562949999999999e-08 0.00025465150000000006 9.5141850000000008e-05 -0.0026808149999999996 -2.3689349999999998e-06 7.250400000000002e-07
decision_type=2 2 2 2 2 2 2 2 2 2 2 2 2 2
left_child=-1 -2 3 4 11 -6 7 8 10 -8 -5 -3 -10 -11
right_child=1 2 -4 6 5 -7 9 -9 12 13 -12 -13 -14 -15
leaf_value=1.3774059983203812e-05 -1.4244214630790074e-05 -0.0091120173114632042 -0.00011568682885682938 0.011112484855111687 -0.018513452583686151 -0.0055679029689053999 -0.017879698620527049 -0.0032800827406092802 0.021479245322152563 -0.0070885178955206862 -0.007335433282724838 0.0037361385372933001 0.0075067471854550682 0.0034472084752368653
leaf_weight=171024 44665 32 1474 20 47 40 23 110 20 43 29 50 23 33
leaf_count=171024 44665 32 1474 20 47 40 23 110 20 43 29 50 23 33
internal_value=0 -5.05416e-05 -0.000884504 -0.00329565 -0.00708654 -0.0125615 -0.0011672 0.00124234 0.00664959 -0.00608365 0.000194329 -0.00127778 0.0140056 -0.00251379
internal_weight=0 46609 1944 470 169 87 301 202 92 99 49 82 43 76
internal_count=217633 46609 1944 470 169 87 301 202 92 99 49 82 43 76
shrinkage=0.15


Tree=1231
num_leaves=15
num_cat=0
split_feature=35 5 15 4 4 4 19 32 38 11 5 34 14 18
split_gain=0.0058644 0.0474599 0.0370037 0.0821182 0.162093 0.0587178 0.207875 0.484114 0.124001 0.291262 0.172257 0.243348 0.167546 0.163595
threshold=0.079759400000000022 6.5625250000000012e-06 2.9276500000000004e-08 0.49798950000000003 0.53343300000000016 3.3313850000000005 0.0064326750000000005 0.40770150000000005 -0.13745849999999996 0.00024476000000000006 1.1207000000000001e-05 2.3649150000000003 0.0082895900000000012 0.00016738100000000003
decision_type=2 2 2 2 2 2 2 2 2 2 2 2 2 2
left_child=-1 -2 -3 -4 -5 6 8 -8 9 10 -6 -12 13 -13
right_child=1 2 3 4 5 -7 7 -9 -10 -11 11 12 -14 -15
leaf_value=5.6142113813235777e-06 -0.0055451905078371059 0.00016702688951130939 -0.00074712234253766329 0.011747775616622049 0.010929324947452792 -0.00074204971293154805 -0.0060078703651569127 0.022917467239312827 -0.00088664357827513514 0.020867398428381419 0.010181676066627808 -1.7999868502776172e-05 0.004831450444180518 -0.014814921152719762
leaf_weight=206878 36 5798 3685 29 36 551 23 30 414 20 34 29 30 40
leaf_count=206878 36 5798 3685 29 36 551 23 30 414 20 34 29 30 40
internal_value=0 -0.000107992 -8.97313e-05 -0.000392248 0.000665772 0.00039951 0.00135835 0.010365 0.000566725 0.00375029 0.0017246 -0.000766905 -0.00452702 -0.00859593
internal_weight=0 10755 10719 4921 1236 1207 656 53 603 189 169 133 99 69
internal_count=217633 10755 10719 4921 1236 1207 656 53 603 189 169 133 99 69
shrinkage=0.15


Tree=1232
num_leaves=15
num_cat=0
split_feature=20 11 10 5 35 10 22 32 5 19 22 32 0 20
split_gain=0.00631821 0.135158 0.104078 0.0848338 0.149993 0.107813 0.253077 0.42314 0.394027 0.292696 1.17802 1.06392 0.498201 0.80007
threshold=3.0820100000000008 1.1110650000000002e-05 1.9722900000000004e-05 1.0934400000000002e-05 -0.052612949999999999 2.9146500000000003e-05 0.42875200000000008 0.020307000000000002 7.2568900000000009e-06 8.1791500000000028e-06 0.057390050000000005 1.0000000180025095e-35 9.1590050000000023 9.1661150000000013
decision_type=2 2 2 2 2 2 2 2 2 2 2 2 2 2
left_child=-1 2 -2 4 -3 -6 7 8 -7 10 -10 -11 13 -12
right_child=1 3 -4 -5 5 6 -8 -9 9 11 12 -13 -14 -15
leaf_value=1.9486376183129795e-05 0.0005193522257145903 0.0018497496569441956 1.9341843411754543e-06 -0.00014080046450512225 -0.00044193685999989956 -0.010936139476123369 -0.0040042647362192726 -0.0032089629303891456 -0.0053086058140539337 -0.008191781436468577 0.025376526122335749 0.0063308582028265914 0.0048732313328483457 -0.0012692906820614424
leaf_weight=137628 11617 474 35405 25926 4109 54 746 806 152 210 92 247 132 35
leaf_count=137628 11617 474 35405 25926 4109 54 746 806 152 210 92 247 132 35
internal_value=0 -3.35213e-05 0.000129765 -0.000266309 -0.000727402 -0.000912966 -0.00169529 -0.000698469 0.00149617 0.00226961 0.00517415 -0.000342565 0.0113262 0.0180332
internal_weight=0 80005 47022 32983 7057 6583 2474 1728 922 868 411 457 259 127
internal_count=217633 80005 47022 32983 7057 6583 2474 1728 922 868 411 457 259 127
shrinkage=0.15


Tree=1233
num_leaves=15
num_cat=0
split_feature=5 21 10 5 21 5 23 15 34 29 13 33 23 33
split_gain=0.00613845 0.0392894 0.0634929 0.0588112 0.0497236 0.0768114 0.0833132 0.072123 0.100581 0.177823 0.142577 0.122203 0.0697216 0.0681093
threshold=8.942730000000002e-06 9.5596900000000016 1.1101600000000001e-05 8.6293650000000017e-06 -4.1775849999999997 8.8751800000000013e-06 -6.4354599999999991 1.5512150000000003e-06 0.20298200000000002 0.0055169800000000003 9.0003600000000014e-05 4.5690900000000007e-05 -6.6111549999999992 2.6478350000000004e-05
decision_type=2 2 2 2 2 2 2 2 2 2 2 2 2 2
left_child=1 4 3 -3 7 6 -6 -1 13 10 11 -10 -7 -9
right_child=-2 2 -4 -5 5 12 -8 8 9 -11 -12 -13 -14 -15
leaf_value=0.00064367371536653759 -7.1753080977529104e-06 -8.7940930600076831e-05 0.0014988923110658572 -0.0058259745503164593 -0.00016187192213537466 0.00115285098158642 -0.002262270109279322 -0.00052402924676161165 -0.022798952239606044 0.0012799478023095745 -0.00091067259854753495 -0.0067669698013924058 0.0083716528395598282 0.0082304248652820076
leaf_weight=4133 201302 247 946 48 9410 508 445 418 23 56 24 20 32 21
leaf_count=4133 201302 247 946 48 9410 508 445 418 23 56 24 20 32 21
internal_value=0 8.84455e-05 0.000899745 -0.00102159 2.17243e-05 -0.000161268 -0.000256715 0.00042688 -0.00116744 -0.00495849 -0.0101727 -0.0153422 0.00158063 -0.000105251
internal_weight=0 16331 1241 295 15090 10395 9855 4695 562 123 67 43 540 439
internal_count=217633 16331 1241 295 15090 10395 9855 4695 562 123 67 43 540 439
shrinkage=0.15


Tree=1234
num_leaves=15
num_cat=0
split_feature=15 20 11 38 18 4 3 10 25 21 12 25 19 21
split_gain=0.00648946 0.0397429 0.0940264 0.144225 0.319734 0.282162 0.490041 0.431656 0.421523 0.331596 0.822697 0.703239 0.572708 0.764058
threshold=1.6080300000000002e-08 5.1570950000000009 8.9648700000000025e-06 8.966175000000002e-05 7.9309250000000023e-06 0.0092838900000000012 -6.3035799999999993 2.0057950000000003e-05 2.6276400000000009 -0.34030149999999992 -0.00012133299999999999 1.3625700000000001 0.00090418950000000018 -7.0373199999999985
decision_type=2 2 2 2 2 2 2 2 2 2 2 2 2 2
left_child=-1 -2 -3 -4 5 9 7 -7 -9 10 -5 12 13 -12
right_child=1 2 3 4 -6 6 -8 8 -10 -11 11 -13 -14 -15
leaf_value=-2.4528825916369536e-05 8.241504899344651e-05 0.0001432937980464486 -8.9227262731395496e-06 -0.0095521643017675018 4.1304602164276046e-05 0.0020079952579919792 0.00084789194343009948 -0.0085445185886330616 -0.00094853279043578267 -0.0036047715016276484 0.023668324354932539 -0.0043193675053998957 0.014393874450245944 -0.0047381122300192702
leaf_weight=114738 76282 13698 7709 109 2842 152 394 659 219 396 27 128 179 101
leaf_count=114738 76282 13698 7709 109 2842 152 394 659 219 396 27 128 179 101
internal_value=0 2.7352e-05 -0.000130477 -0.000420847 -0.00103082 -0.00231973 -0.00365118 -0.00537219 -0.00664985 -0.000302719 0.00210098 0.00502097 0.00891531 0.00125387
internal_weight=0 102895 26613 12915 5206 2364 1424 1030 878 940 544 435 307 128
internal_count=217633 102895 26613 12915 5206 2364 1424 1030 878 940 544 435 307 128
shrinkage=0.15


Tree=1235
num_leaves=15
num_cat=0
split_feature=11 29 31 11 0 23 34 14 3 3 38 6 30 22
split_gain=0.00736808 0.0687838 0.061714 0.297886 0.429262 0.384595 0.848986 1.2221 0.655954 0.325729 0.267205 0.233883 0.368669 0.50395
threshold=1.3649300000000002e-05 -0.00321566 -0.016881449999999996 3.5688200000000008e-05 5.1663950000000005 -9.2080749999999991 0.022285300000000004 0.00085365250000000016 -9.6612599999999969 -11.334249999999999 -0.00051373149999999997 -3.9840749999999988e-06 8.9765800000000021e-05 0.55088050000000011
decision_type=2 2 2 2 2 2 2 2 2 2 2 2 2 2
left_child=-1 -2 3 4 5 6 7 8 -3 10 -8 12 13 -6
right_child=1 2 -4 -5 11 -7 9 -9 -10 -11 -12 -13 -14 -15
leaf_value=-2.1282564656411713e-05 -0.00013202007770826677 0.049584801178425543 9.690737924728398e-05 -0.00021048923273359049 0.0055784238654343395 0.00066447410804287095 -0.0014414725001328265 0.00051089864282403139 0.01871113542219973 -0.0030584545264990899 0.013611489565051033 -0.00094582678199286508 0.00055517536470546243 0.032060234172439035
leaf_weight=136480 32767 30 44142 2792 61 193 39 42 32 91 83 675 184 22
leaf_count=136480 32767 30 44142 2792 61 193 39 42 32 91 83 675 184 22
internal_value=0 3.57922e-05 0.000149435 0.000695773 0.00243839 0.00594357 0.00915765 0.0202669 0.03365 0.00373341 0.00879948 0.000540688 0.00429873 0.0125977
internal_weight=0 81153 48386 4244 1452 510 317 104 62 213 122 942 267 83
internal_count=217633 81153 48386 4244 1452 510 317 104 62 213 122 942 267 83
shrinkage=0.15


Tree=1236
num_leaves=15
num_cat=0
split_feature=20 5 16 7 5 22 35 0 18 0 3 17 23 3
split_gain=0.00685086 0.041359 0.0427253 0.0362323 0.064021 0.133445 0.0722193 0.0649883 0.0596056 0.0437003 0.334132 0.112104 0.132118 0.12196
threshold=10.210350000000002 6.5625250000000012e-06 3.6119650000000003e-08 4.0151500000000003e-05 9.6016850000000005e-06 0.40504800000000007 0.00062007900000000005 10.429750000000002 -1.1307749999999999e-07 10.429750000000002 -6.942054999999999 -6.6467399999999989e-09 -6.9496149999999988 -5.6715199999999983
decision_type=2 2 2 2 2 2 2 2 2 2 2 2 2 2
left_child=-1 2 -2 9 5 6 7 -5 -8 -3 -11 -12 -13 -14
right_child=1 3 -4 4 -6 -7 8 -9 -10 10 11 12 13 -15
leaf_value=-7.021746809067876e-06 -0.00057115836936081276 0.00029416915208718616 -0.0095830866484902799 -0.0011570365199336913 -4.4086267147478412e-05 -0.014023331745887513 -0.011809691329981432 0.0092317535873735323 -0.0013709926674891904 0.019522518461124728 -0.0069789472900919384 -0.002219788199936104 0.0079577398886380869 -0.0016863581622939903
leaf_weight=203469 29 6062 20 42 7619 22 20 20 32 23 37 101 94 43
leaf_count=203469 29 6062 20 42 7619 22 20 20 32 23 37 101 94 43
internal_value=0 0.000100869 -0.0042495 0.000115971 -0.000101668 -0.0033275 -0.00126339 0.00219419 -0.00538588 0.000381347 0.00215474 0.000702162 0.00189628 0.00493076
internal_weight=0 14164 49 14115 7755 136 114 62 52 6360 298 275 238 137
internal_count=217633 14164 49 14115 7755 136 114 62 52 6360 298 275 238 137
shrinkage=0.15


Tree=1237
num_leaves=15
num_cat=0
split_feature=9 20 5 22 2 12 22 36 33 6 3 8 22 13
split_gain=0.00649093 0.0461504 0.104812 0.177999 0.319709 0.599941 0.473295 0.285368 0.195324 0.258567 0.236153 0.186794 1.57032 0.702379
threshold=2.2322650000000002e-05 3.6148850000000006 1.1786700000000002e-05 0.74297050000000009 0.74169050000000014 1.7246900000000003e-05 0.93967600000000007 0.022400650000000005 -6.7695049999999997e-06 -4.0666649999999988e-06 -8.1415149999999983 -6.407459999999999e-06 0.52775800000000006 1.9207900000000006e-05
decision_type=2 2 2 2 2 2 2 2 2 2 2 2 2 2
left_child=-1 -2 3 11 5 -5 -6 8 10 -10 -7 12 -3 -14
right_child=1 2 -4 4 6 7 -8 -9 9 -11 -12 -13 13 -15
leaf_value=-1.7503145644521683e-05 0.0001306210500092976 -0.0014559394164030193 4.2433444455106547e-05 -0.00050600587433780682 0.023043252668979289 -0.021616913826073867 -0.005577783560175493 0.0025901378707203549 -0.022887460527126677 -0.0043331783499842118 -0.0070354706238104853 -0.00080383502879102548 0.0040495160427492325 0.022682401283949431
leaf_weight=149419 43743 757 18874 542 26 64 26 40 20 109 41 3789 85 98
leaf_count=149419 43743 757 18874 542 26 64 26 40 20 109 41 3789 85 98
internal_value=0 3.83397e-05 -0.000126617 -0.000696684 -0.00267114 -0.00339786 0.00873273 -0.00911824 -0.0111197 -0.00720981 -0.0159232 -0.000334276 0.00155844 0.0140278
internal_weight=0 68214 24471 5597 868 816 52 274 234 129 105 4729 940 183
internal_count=217633 68214 24471 5597 868 816 52 274 234 129 105 4729 940 183
shrinkage=0.15


Tree=1238
num_leaves=15
num_cat=0
split_feature=5 20 20 9 20 19 13 34 22 16 36 22 24 30
split_gain=0.00748241 0.0535434 0.0943014 0.0657673 0.346051 0.250819 0.162486 0.153713 0.199041 0.180084 0.394557 0.214033 0.143711 0.133965
threshold=8.3491550000000032e-06 7.3339250000000016 7.2111900000000011 2.8849300000000005e-05 8.6135100000000016 0.00049070750000000001 9.555065000000002e-06 0.006291215000000001 0.35411200000000004 1.1666250000000002e-07 3.803005000000001e-05 -0.076877299999999996 0.11699200000000003 0.00019029550000000003
decision_type=2 2 2 2 2 2 2 2 2 2 2 2 2 2
left_child=1 2 -1 -3 5 6 13 -6 9 11 -11 -9 -13 -5
right_child=-2 3 -4 4 7 -7 -8 8 -10 10 -12 12 -14 -15
leaf_value=0.00024292444800677878 -6.2095961639168788e-06 -0.00014388441525698859 0.0080447317347196595 0.0087529615382663899 -0.005384592488408088 -0.022200190627740486 -0.016293107311833987 -0.0057257394211774225 -0.0058303285963120293 -0.0045165235293097789 0.02203493080245714 0.016326403805986048 7.6191876723896704e-05 -0.0066363619811870321
leaf_weight=8629 207300 1291 35 20 75 27 22 48 48 20 34 25 24 35
leaf_count=8629 207300 1291 35 20 75 27 22 48 48 20 34 25 24 35
internal_value=0 0.000124577 0.000274441 -0.000653392 -0.00239354 -0.00976026 -0.00539821 0.000402592 0.00258369 0.00525835 0.0122011 0.00139333 0.00836712 -0.00104024
internal_weight=0 10333 8664 1669 378 104 77 274 199 151 54 97 49 55
internal_count=217633 10333 8664 1669 378 104 77 274 199 151 54 97 49 55
shrinkage=0.15


Tree=1239
num_leaves=15
num_cat=0
split_feature=31 9 3 3 14 20 9 14 19 32 3 26 25 30
split_gain=0.00735064 0.0338234 0.0684542 0.0677515 0.12586 0.0983877 0.215338 0.0621172 0.0838163 0.502902 0.0744094 0.142323 0.138689 0.294201
threshold=0.21248250000000005 -4.3876499999999994e-06 -6.0020699999999989 -6.8084599999999993 0.0005728895000000001 7.0057400000000003 7.5602950000000016e-06 0.013066200000000002 0.00049070750000000001 0.8450120000000001 -13.004499999999998 0.00013653850000000002 2.6276400000000009 0.0020769350000000007
decision_type=2 2 2 2 2 2 2 2 2 2 2 2 2 2
left_child=-1 2 7 4 -3 -6 -7 10 9 -9 11 -2 13 -13
right_child=1 3 -4 -5 5 6 -8 8 -10 -11 -12 12 -14 -15
leaf_value=1.1440997155198936e-05 -0.0026315324906225285 0.0011239919931384087 0.00041921445734002788 -0.00036024493386887293 -8.3115841767895072e-05 0.013674960762413368 0.00077866117765678321 -0.0028888275958974296 8.1582533603630837e-05 0.019678615164593793 -0.00036996413949234728 -0.0018768592844899815 -0.001574659691568529 0.0076566166835736566
leaf_weight=185655 989 2983 2954 5355 8293 37 137 68 2636 33 7771 153 430 139
leaf_count=185655 989 2983 2954 5355 8293 37 137 68 2636 33 7771 153 430 139
internal_value=0 -6.64231e-05 -0.000228775 8.01623e-05 0.000286134 -9.05038e-06 0.00352098 -0.00038543 0.000244065 0.00448469 -0.000567135 -0.00146264 0.000138513 0.00266134
internal_weight=0 31978 15173 16805 11450 8467 174 12219 2737 101 9482 1711 722 292
internal_count=217633 31978 15173 16805 11450 8467 174 12219 2737 101 9482 1711 722 292
shrinkage=0.15


Tree=1240
num_leaves=15
num_cat=0
split_feature=3 4 4 20 9 24 4 26 13 30 23 32 26 21
split_gain=0.00582083 0.0318736 0.033561 0.163728 0.25145 0.118807 0.0904437 0.0601273 0.0772405 0.0485987 0.0433274 0.0414655 0.0352326 0.108821
threshold=-5.9751649999999996 -1.5283549999999997 -0.11956199999999999 -14.223749999999997 -1.2787399999999997e-05 -0.090774499999999994 -0.48541799999999996 -0.00031256899999999995 8.4862800000000007e-06 0.00013785900000000002 -5.9052549999999995 -2.9812749999999997 -0.0088494799999999981 -13.890549999999999
decision_type=2 2 2 2 2 2 2 2 2 2 2 2 2 2
left_child=-1 -2 3 4 -3 6 7 8 -5 -7 -11 -9 -8 -14
right_child=1 2 -4 5 -6 9 12 11 -10 10 -12 -13 13 -15
leaf_value=1.2057546077601556e-05 -0.00070198885945418389 0.016456685038948697 -8.5911322293445849e-05 0.0017061849916353822 -0.0017940649879164992 0.0016829301477966992 -0.0059464542812747824 0.007348542088900855 -0.011476799930096603 0.0005033945761338611 -0.0060331331646960714 0.00089019920270118715 0.0089065719050704494 -0.0010474695926688188
leaf_weight=175286 1622 35 33737 20 33 961 32 23 20 2861 23 814 25 2141
leaf_count=175286 1622 35 33737 20 33 961 32 23 20 2861 23 814 25 2141
internal_value=0 -4.99095e-05 -2.39384e-05 0.000275257 0.0075997 0.000203283 -0.000491717 0.000796153 -0.00488531 0.000759102 0.000451266 0.00106767 -0.00100558 -0.00093258
internal_weight=0 42347 40725 6988 68 6920 3075 877 40 3845 2884 837 2198 2166
internal_count=217633 42347 40725 6988 68 6920 3075 877 40 3845 2884 837 2198 2166
shrinkage=0.15


Tree=1241
num_leaves=15
num_cat=0
split_feature=39 14 11 15 4 20 4 4 33 37 37 18 37 39
split_gain=0.00809678 0.0584905 0.0876764 0.0913757 0.108707 0.0877047 0.0700223 0.139803 0.452257 0.28048 0.17177 0.209781 0.178278 0.100514
threshold=2.8985800000000004e-06 0.0027514900000000005 2.3517950000000001e-05 4.6338250000000001e-08 0.17221800000000004 5.0093250000000014 -0.041887649999999992 -0.10700099999999999 -4.803269999999999e-06 6.0656200000000008e-08 5.0937400000000003e-08 -6.1948499999999997e-06 8.5454350000000004e-08 2.5594900000000004e-06
decision_type=2 2 2 2 2 2 2 2 2 2 2 2 2 2
left_child=1 2 3 4 -1 -6 7 10 -9 -10 -4 13 -13 -12
right_child=-2 -3 6 -5 5 -7 -8 8 9 -11 11 12 -14 -15
leaf_value=-0.00045802304786072667 1.5348460767685324e-05 -0.00028846813228407454 0.00093607664380483799 0.00033482491739060083 -3.7450902513629493e-05 0.0016345538371844916 7.8248398517248159e-05 0.019800153917167336 0.0013085575421749799 0.019051840342581273 -0.0030154634535033897 -0.0036568188066926914 -0.02344508918467909 0.007530174143845215
leaf_weight=13399 169837 15999 2570 8468 2129 1056 3503 35 441 21 109 21 20 25
leaf_count=13399 169837 15999 2570 8468 2129 1056 3503 35 441 21 109 21 20 25
internal_value=0 -5.45388e-05 6.31652e-05 -6.60785e-05 -0.000270785 0.000516909 0.000543197 0.00104558 0.0033605 0.00211507 0.000626445 -0.00392072 -0.0133096 -0.00104799
internal_weight=0 47796 31797 25052 16584 3185 6745 3242 497 462 2745 175 41 134
internal_count=217633 47796 31797 25052 16584 3185 6745 3242 497 462 2745 175 41 134
shrinkage=0.15


Tree=1242
num_leaves=15
num_cat=0
split_feature=14 23 3 3 23 39 20 0 20 11 3 3 23 23
split_gain=0.00636419 0.0552961 0.152204 0.159772 0.859668 0.335833 0.303923 0.49154 0.143534 0.130302 0.124472 0.180167 0.39444 0.179756
threshold=0.00018273250000000005 -7.6156999999999995 -8.2133949999999984 -7.6471249999999991 -6.9680999999999989 3.5466800000000011e-05 7.7422400000000007 5.6189700000000009 -2.0155699999999999 -1.4473899999999999e-05 -7.2547399999999991 -6.2768299999999995 -6.2906249999999995 -7.3218799999999993
decision_type=2 2 2 2 2 2 2 2 2 2 2 2 2 2
left_child=1 -1 -3 4 5 6 8 -8 9 -4 13 12 -12 -5
right_child=-2 2 3 10 -6 -7 7 -9 -10 -11 11 -13 -14 -15
leaf_value=0.00013145652417240693 -1.6657649929806245e-05 0.0023471917017666663 -0.015739121166025768 0.0046830944604270399 0.0017272714248083873 0.0015593335694015526 -0.004336074928769135 -0.030122671992732927 -0.0019189078630220406 -0.0063251110537630778 -0.0015484519422545172 7.3628378043314718e-05 0.0020094768926172545 0.00029250881289173632
leaf_weight=44869 153077 526 58 279 490 65 29 39 68 77 4399 11977 834 846
leaf_count=44869 153077 526 58 279 490 65 29 39 68 77 4399 11977 834 846
internal_value=0 3.94991e-05 -0.000170083 -0.000239186 -0.0022799 -0.0081237 -0.0104462 -0.0191254 -0.00753886 -0.0103696 -0.000147251 -0.000247175 -0.000981413 0.00138137
internal_weight=0 64556 19687 19161 826 336 271 68 203 135 18335 17210 5233 1125
internal_count=217633 64556 19687 19161 826 336 271 68 203 135 18335 17210 5233 1125
shrinkage=0.15


Tree=1243
num_leaves=15
num_cat=0
split_feature=3 4 23 23 3 26 15 1 1 18 25 20 5 21
split_gain=0.00735525 0.0270689 0.0256175 0.0354699 0.121925 0.152474 0.163055 0.0662632 0.0597661 0.0557381 0.0840161 0.0902247 0.0596273 0.0479544
threshold=-5.9751649999999996 1.3212600000000003 -8.4877049999999983 -6.1631349999999996 -5.9118649999999997 7.0450000000000018e-05 -2.5777549999999996e-08 7.187450000000001 6.5280850000000008 2.5731550000000001e-07 1.1738050000000002 -5.0832949999999988 2.0000100000000002e-05 14.019350000000001
decision_type=2 2 2 2 2 2 2 2 2 2 2 2 2 2
left_child=-1 2 -2 13 5 6 -5 8 -6 -9 -11 -12 -13 -4
right_child=1 -3 3 4 7 -7 -8 9 -10 10 11 12 -14 -15
leaf_value=1.3553929291903693e-05 -0.00012553558083014933 -0.00055412583010769388 0.00015764177497463867 -0.00090215635718777771 0.00031057019879415646 0.0017434710858982394 -0.018387255258858204 -0.00070508890621257794 0.0078988308323459933 -0.00044617336501570181 -0.016547487827483564 -0.010445677848765626 0.00064402031530335084 0.0025079944943475615
leaf_weight=175286 23951 2321 14425 20 867 33 30 352 24 62 20 20 24 198
leaf_count=175286 23951 2321 14425 20 867 33 30 352 24 62 20 20 24 198
internal_value=0 -5.61035e-05 -2.72245e-05 0.000119254 -0.000587845 -0.0061702 -0.0113932 -0.000249397 0.000514968 -0.00167419 -0.0043815 -0.00819386 -0.00439675 0.000189466
internal_weight=0 42347 40026 16075 1452 83 50 1369 891 478 126 64 44 14623
internal_count=217633 42347 40026 16075 1452 83 50 1369 891 478 126 64 44 14623
shrinkage=0.15


Tree=1244
num_leaves=15
num_cat=0
split_feature=24 14 19 23 4 18 16 19 19 29 18 19 21 26
split_gain=0.00643593 0.0408003 0.0879206 0.102679 0.282225 0.196921 0.0856721 0.12425 0.0665583 0.125459 0.168186 0.0649875 0.0628252 0.0590589
threshold=0.82179550000000012 0.0048352200000000012 0.00019063950000000002 -11.023199999999997 0.92173400000000016 0.00012152750000000001 1.5595000000000003e-06 1.9006200000000004e-05 0.00049070750000000001 0.29393350000000007 0.001618115 3.0659200000000006e-05 4.8976950000000015 -0.00083767649999999993
decision_type=2 2 2 2 2 2 2 2 2 2 2 2 2 2
left_child=-1 -2 3 4 6 -5 7 -3 9 10 12 -8 -4 -10
right_child=1 2 8 5 -6 -7 11 -9 13 -11 -12 -13 -14 -15
leaf_value=5.1196002023573655e-06 8.7088366155804546e-05 0.0056113970841491414 -0.002089747853311895 -0.0010689976891413567 0.010153168633482172 -0.015590314613655209 -0.015218496153829619 -0.0069729977628079851 0.00012154713306312272 -0.0052094788623435308 0.014133563689777955 -0.0036410731938667593 0.008049527506227604 -0.0014982327536813892
leaf_weight=209385 5795 31 44 47 38 38 24 41 1216 32 34 20 20 868
leaf_count=209385 5795 31 44 47 38 38 24 41 1216 32 34 20 20 868
internal_value=0 -0.000129967 -0.000642741 -0.00337598 -0.00106613 -0.00756088 -0.00474142 -0.00155472 -0.00034769 0.00294523 0.00560799 -0.00995603 0.00107878 -0.000553102
internal_weight=0 8248 2453 239 154 85 116 72 2214 130 98 44 64 2084
internal_count=217633 8248 2453 239 154 85 116 72 2214 130 98 44 64 2084
shrinkage=0.15


Tree=1245
num_leaves=15
num_cat=0
split_feature=1 21 21 25 3 33 15 25 15 3 21 24 12 29
split_gain=0.00641577 0.0239391 0.0519693 0.131596 0.067187 0.0591522 0.0480718 0.0812501 0.151387 0.0714194 0.037936 0.0321029 0.0321419 0.0288426
threshold=-12.252349999999998 -10.551199999999998 -12.91935 0.24036700000000003 -5.9424999999999999 -1.1664049999999997e-06 2.9276500000000004e-08 2.0477050000000001 7.0104900000000013e-08 -5.3892799999999985 -2.8596399999999997 -0.28392899999999993 -6.1600249999999983e-05 0.014127550000000001
decision_type=2 2 2 2 2 2 2 2 2 2 2 2 2 2
left_child=1 2 3 -1 5 -4 9 8 -8 -5 -3 12 -9 -6
right_child=-2 10 4 6 13 -7 7 11 -10 -11 -12 -13 -14 -15
leaf_value=0.010730738337490319 5.2336956488674658e-06 0.0004022284884921433 -0.012774211306975264 -0.0089933939052571077 -0.0017780542498663774 -0.0030358130636159329 0.012324494091820182 0.0044643270804954225 -0.0037370541661917028 0.0017068032848183065 -0.00028919586690463023 -0.005846267976739909 -0.0023330252929978693 0.0032093200354650219
leaf_weight=26 209002 2674 23 32 260 36 31 24 23 25 5373 30 45 29
leaf_count=26 209002 2674 23 32 260 36 31 24 23 25 5373 30 45 29
internal_value=0 -0.000126735 -0.00105405 0.000664226 -0.00221931 -0.00683214 -0.000582104 0.000803116 0.00548346 -0.00430032 -5.94371e-05 -0.0017498 3.12712e-05 -0.00127759
internal_weight=0 8631 584 236 348 59 210 153 54 57 8047 99 69 289
internal_count=217633 8631 584 236 348 59 210 153 54 57 8047 99 69 289
shrinkage=0.15


Tree=1246
num_leaves=15
num_cat=0
split_feature=4 28 18 22 0 24 30 11 36 12 11 33 9 22
split_gain=0.00618622 0.0268035 0.0908778 0.20832 0.751659 0.955163 0.296415 0.201434 0.0932531 0.146516 0.217928 0.174273 0.210344 0.197181
threshold=0.11543250000000001 -0.0032314449999999999 -1.73185e-06 -0.64565649999999986 4.1687100000000008 0.13793150000000001 0.0013021900000000002 5.181150000000001e-05 -0.00053743599999999997 -0.00013361299999999996 8.5182850000000004e-05 2.7338450000000002e-06 2.6389300000000005e-05 -1.1071899999999999
decision_type=2 2 2 2 2 2 2 2 2 2 2 2 2 2
left_child=-1 2 3 8 7 -6 -7 -5 9 10 -2 -11 13 -13
right_child=1 -3 -4 4 5 6 -8 -9 -10 11 -12 12 -14 -15
leaf_value=-1.8794872169180871e-05 0.012080422734212143 0.00010357505451070531 -0.00012576083330458076 6.2594589141484069e-05 -0.002557601618605691 0.039060738772667684 0.015971171288666399 -0.017151961268100421 0.0016704549430081551 -0.00067982644364206321 -0.0029255933439879512 -0.014906902690418064 -0.019566719002764802 0.0044532081766599984
leaf_weight=140198 38 47769 28714 65 37 29 22 20 464 148 51 20 29 29
leaf_count=140198 38 47769 28714 65 37 29 22 20 464 148 51 20 29 29
internal_value=0 3.40286e-05 -7.7957e-05 0.00136389 0.0060724 0.0157897 0.0291005 -0.00398789 0.000318226 -0.00167363 0.00348147 -0.00370374 -0.00944141 -0.00344888
internal_weight=0 77435 29666 952 173 88 51 85 779 315 89 226 78 49
internal_count=217633 77435 29666 952 173 88 51 85 779 315 89 226 78 49
shrinkage=0.15


Tree=1247
num_leaves=15
num_cat=0
split_feature=21 8 7 33 23 28 14 3 28 30 7 11 0 19
split_gain=0.00586937 0.0661652 0.121843 0.117025 0.159349 0.141047 0.146956 0.313887 0.282704 0.182771 0.161772 0.120458 0.179297 0.319696
threshold=8.4090650000000018 -6.2252749999999994e-06 2.9729300000000004e-05 -4.3173299999999989e-06 -7.0815949999999992 0.0040662500000000013 0.00014886150000000003 -6.1381299999999994 0.0034175050000000008 6.716750000000001e-05 2.5523800000000005e-05 1.6444850000000002e-05 0.96588400000000008 1.6413000000000003e-07
decision_type=2 2 2 2 2 2 2 2 2 2 2 2 2 2
left_child=-1 2 3 11 -5 6 7 8 9 10 -6 12 -2 -14
right_child=1 -3 -4 4 5 -7 -8 -9 -10 -11 -12 -13 13 -15
leaf_value=8.9138538404099095e-06 -0.00057866144728583354 0.00014336356952403774 -9.8371280965532358e-05 -0.003360218644170744 0.0016803836204677023 -0.002127439823246288 -0.00095780448747441037 -0.003426617177319713 0.024729601970023433 -0.0061583197010414937 0.01718180451796136 -0.0053818241454822689 0.0024641281189396978 0.020597807238144535
leaf_weight=192435 229 14344 8713 855 28 498 205 62 23 21 33 59 100 28
leaf_count=192435 229 14344 8713 855 28 498 205 62 23 21 33 59 100 28
internal_value=0 -6.80743e-05 -0.000347498 -0.00136134 -0.00190594 -0.000476734 0.00173308 0.00503626 0.0100334 0.00591129 0.0100664 0.0008969 0.00193456 0.00643087
internal_weight=0 25198 10854 2141 1725 870 372 167 105 82 61 416 357 128
internal_count=217633 25198 10854 2141 1725 870 372 167 105 82 61 416 357 128
shrinkage=0.15


Tree=1248
num_leaves=15
num_cat=0
split_feature=5 34 10 28 3 19 30 3 31 38 33 36 21 13
split_gain=0.00617556 0.0376302 0.0681446 0.0682416 0.0656101 0.0622945 0.0973971 0.114709 0.120227 0.154749 0.124928 0.119058 0.138628 0.0847571
threshold=1.6615200000000003e-05 0.016847400000000002 2.1255050000000006e-05 -0.012542949999999999 -15.289449999999997 4.2478050000000008e-08 6.716750000000001e-05 -6.2187599999999987 0.0023728250000000007 -0.00012989199999999997 -3.6648949999999995e-06 -0.00026615549999999997 4.6107400000000007 4.2943850000000006e-06
decision_type=2 2 2 2 2 2 2 2 2 2 2 2 2 2
left_child=-1 2 3 -2 -4 6 -5 8 10 -10 -8 -12 -13 -11
right_child=1 -3 4 5 -6 -7 7 -9 9 13 11 12 -14 -15
leaf_value=2.250387442713289e-05 -0.0085613689353016918 3.4769105776832225e-05 -0.00097026330293862066 0.0031076921990865632 -5.0856779998705628e-05 -0.00050319103643841549 -0.01350785654154606 -1.3028679989695996e-05 -0.0011397529653130241 -0.022670627584947006 0.0081320868544235755 0.0010781508655054494 -0.014216799464193172 -0.010328487451038053
leaf_weight=121366 27 66241 1870 54 26417 1363 20 111 26 21 26 40 20 31
leaf_count=121366 27 66241 1870 54 26417 1363 20 111 26 21 26 40 20 31
internal_value=0 -2.83711e-05 -0.000167666 -0.00107905 -0.000111637 -0.000961047 -0.00274918 -0.00382128 -0.00611866 -0.0105885 -0.00282955 -0.000346229 -0.00402017 -0.0153128
internal_weight=0 96267 30026 1739 28287 1712 349 295 184 78 106 86 60 52
internal_count=217633 96267 30026 1739 28287 1712 349 295 184 78 106 86 60 52
shrinkage=0.15


Tree=1249
num_leaves=15
num_cat=0
split_feature=0 20 2 23 17 4 17 31 34 31 20 23 10 34
split_gain=0.00630063 0.0446214 0.103519 0.141823 0.188773 0.161951 0.050374 0.0491989 0.0402254 0.030274 0.0340308 0.0808921 0.0506984 0.121848
threshold=-11.331049999999999 -12.935299999999998 -2.9738899999999995 -6.7637699999999983 1.3942150000000003e-07 0.062855200000000014 6.5530550000000015e-08 4.5513450000000004 1.1050400000000002 -0.034947149999999989 -7.2112649999999991 -6.0063449999999987 3.7774650000000006e-05 0.0040060800000000013
decision_type=2 2 2 2 2 2 2 2 2 2 2 2 2 2
left_child=1 2 -1 6 -5 -6 -4 8 -8 -3 11 12 13 -11
right_child=-2 9 3 4 5 -7 7 -9 -10 10 -12 -13 -14 -15
leaf_value=-0.0061661547852744315 5.9674729434313073e-06 -0.00047448781529552965 -0.0067571015610883474 0.021080027720890938 -0.0049781198438722642 0.012447683117352426 0.0021331098397615066 0.0067413630437970695 -0.0063447051298135193 -0.010494328575135258 0.00021679631904868979 0.0084541951401413164 -0.0003329631621683035 -0.0012500986843389723
leaf_weight=29 206352 4071 20 20 24 24 34 28 20 38 5448 22 1297 206
leaf_count=29 206352 4071 20 20 24 24 34 28 20 38 5448 22 1297 206
internal_value=0 -0.000109157 0.00211708 0.0035301 0.00883632 0.00373478 -7.37484e-06 0.0016389 -0.00100682 -0.000149134 3.97861e-05 -0.000577201 -0.000706138 -0.00268977
internal_weight=0 11281 199 170 68 48 102 82 54 11082 7011 1563 1541 244
internal_count=217633 11281 199 170 68 48 102 82 54 11082 7011 1563 1541 244
shrinkage=0.15


Tree=1250
num_leaves=15
num_cat=0
split_feature=29 0 23 16 9 11 29 20 37 9 0 23 3 3
split_gain=0.00636733 0.0342023 0.0491455 0.169594 0.0459295 0.0444298 0.0885933 0.0780873 0.0786957 0.0907064 0.14041 0.21048 0.11811 0.231526
threshold=0.010992550000000002 -12.275299999999998 -6.7383949999999997 -9.7727699999999997e-08 -3.7350599999999994e-05 -9.9065149999999984e-05 0.066267200000000012 3.0020100000000003 -3.2566999999999998e-07 -4.4352649999999996e-05 -8.5914799999999989 -11.172049999999997 -9.9601599999999983 -7.755139999999999
decision_type=2 2 2 2 2 2 2 2 2 2 2 2 2 2
left_child=-1 2 -2 -4 5 -3 7 8 9 -7 -11 -12 -13 -14
right_child=1 4 3 -5 -6 6 -8 -9 -10 10 11 12 13 -15
leaf_value=1.2924525822639987e-05 0.000375852190129881 2.9121104680567635e-05 3.9010719708378676e-05 0.011717477081737551 -9.881532897287286e-06 -0.0010389421148975289 0.00019156845091367568 -0.0086663890011550396 -0.0017915404511988696 -0.0016393359776286942 -8.3768703726768172e-05 0.002555912739730307 0.027615917344311517 0.005831618285130547
leaf_weight=173585 1436 2664 99 39 35942 543 1390 32 1664 105 69 21 21 23
leaf_count=173585 1436 2664 99 39 35942 543 1390 32 1664 105 69 21 21 23
internal_value=0 -5.09332e-05 0.000635685 0.00333945 -7.63778e-05 -0.00044227 -0.000766931 -0.00130459 -0.00120828 3.28386e-05 0.00246789 0.00568624 0.0118113 0.0162287
internal_weight=0 44048 1574 138 42474 6532 3868 2478 2446 782 239 134 65 44
internal_count=217633 44048 1574 138 42474 6532 3868 2478 2446 782 239 134 65 44
shrinkage=0.15


Tree=1251
num_leaves=15
num_cat=0
split_feature=32 5 11 11 28 11 11 19 8 16 20 33 10 15
split_gain=0.00587174 0.0342829 0.042644 0.0495095 0.0843325 0.0706244 0.0591763 0.0448599 0.0747417 0.0615923 0.0559228 0.168705 0.123773 0.178264
threshold=-0.11234649999999999 7.8282700000000005e-06 5.0034150000000006e-05 3.9213650000000004e-05 0.036164400000000006 3.6769950000000005e-05 3.4467150000000011e-05 6.3072250000000013e-05 -7.3485499999999984e-06 1.2402350000000004e-07 -1.3626599999999998 1.3078300000000001e-05 1.5943200000000003e-05 -1.7311499999999999e-08
decision_type=2 2 2 2 2 2 2 2 2 2 2 2 2 2
left_child=1 2 3 5 -5 6 7 9 -9 -1 12 -12 13 -10
right_child=-2 -3 -4 4 -6 -7 -8 8 10 -11 11 -13 -14 -15
leaf_value=0.00051321994108732979 1.2615594293064418e-05 -7.0318766575633917e-05 -0.0023537761869561638 0.010250554740725256 -0.0010532728887887464 -0.0080927197169512518 0.0079725900673880586 0.0082698772017858954 -0.017854395572212522 -0.0036995004646615272 0.0014451560821118542 0.01440612716419855 0.0019461978534393264 -0.00064842692279073945
leaf_weight=487 172427 43937 94 33 27 20 26 37 20 93 235 25 130 42
leaf_count=487 172427 43937 94 33 27 20 26 37 20 93 235 25 130 42
internal_value=0 -4.8119e-05 0.00072051 0.000966452 0.00516383 0.000740584 0.000901923 0.000729952 0.00178821 -0.000162268 0.00125763 0.0026914 -0.000683938 -0.00619874
internal_weight=0 45206 1269 1175 60 1115 1095 1069 489 580 452 260 192 62
internal_count=217633 45206 1269 1175 60 1115 1095 1069 489 580 452 260 192 62
shrinkage=0.15


Tree=1252
num_leaves=15
num_cat=0
split_feature=36 2 4 22 15 33 19 28 19 14 1 21 22 4
split_gain=0.00573648 0.041375 0.308492 0.249122 0.439506 0.43566 0.452496 0.412432 0.62325 0.506794 0.37794 0.605694 0.455395 0.466688
threshold=-0.00053743599999999997 1.1986600000000001 -0.091932049999999987 1.1933200000000002 2.1137100000000002e-07 2.5416850000000004e-05 0.004329035000000001 0.0042911100000000008 1.1283150000000002e-05 0.00042154700000000003 4.3945300000000005 4.6857300000000004 2.7556600000000002 -0.42388399999999993
decision_type=2 2 2 2 2 2 2 2 2 2 2 2 2 2
left_child=1 -1 3 7 5 10 -7 -3 9 -9 11 -5 13 -12
right_child=-2 2 -4 4 -6 6 -8 8 -10 -11 12 -13 -14 -15
leaf_value=0.00011103903257224203 -1.7084412581412991e-05 0.00069299825221606304 -0.00058905508934447941 0.0088064232645344662 -0.00022067924093664527 -0.0032208104331528402 0.0073684088570681507 -0.0023299945222788666 -0.00099997271210192757 -0.017588063457602401 -0.00016732241181288934 -0.0062902738546588037 -0.0052816054249644724 0.0088851470166298775
leaf_weight=49532 145852 4259 13401 99 1525 355 122 96 1216 100 157 151 71 697
leaf_count=49532 145852 4259 13401 99 1525 355 122 96 1216 100 157 151 71 697
internal_value=0 3.47139e-05 -0.000135206 0.000552186 0.00161558 0.00331068 -0.000512457 -4.35502e-05 -0.00226519 -0.0101147 0.00486271 -0.000311982 0.00626128 0.00722093
internal_weight=0 71781 22249 8848 3177 1652 477 5671 1412 196 1175 250 925 854
internal_count=217633 71781 22249 8848 3177 1652 477 5671 1412 196 1175 250 925 854
shrinkage=0.15


Tree=1253
num_leaves=15
num_cat=0
split_feature=4 26 4 0 20 3 24 20 23 23 19 28 36 4
split_gain=0.00638941 0.0345795 0.0700982 0.0988516 0.428655 0.430898 0.236995 0.217766 0.185488 0.197006 0.173616 0.313908 0.290395 0.190321
threshold=0.14210450000000005 -4.1290149999999996e-05 0.79323650000000001 5.0909800000000009 3.9041150000000004 -6.6541099999999984 0.2652790000000001 4.0390700000000006 -6.7383949999999997 -13.660649999999999 1.1641400000000003e-06 0.00014218450000000004 0.00051599700000000014 0.32538350000000005
decision_type=2 2 2 2 2 2 2 2 2 2 2 2 2 2
left_child=-1 -2 3 7 6 8 -5 -3 9 -6 11 -11 -12 -14
right_child=1 2 -4 4 5 -7 -8 -9 -10 10 12 -13 13 -15
leaf_value=-1.7962698910026125e-05 -7.0247940748480222e-05 0.000181966216832446 -3.5652280834021128e-05 0.0011633418729226693 2.0628444159425466e-05 0.00084833195736232127 -0.0048400487969927916 0.0016316501016056335 0.000590115810994194 -0.0035733327857841932 -0.0022796702562824494 -0.015883117825271457 -0.0192097772304392 -0.0059197871764707895
leaf_weight=146214 34815 7775 21476 2568 111 520 157 3330 124 82 255 108 44 54
leaf_count=146214 34815 7775 21476 2568 111 520 157 3330 124 82 255 108 44 54
internal_value=0 3.67745e-05 0.000138566 0.00038589 -0.000251164 -0.00249461 0.000817458 0.000616676 -0.00472897 -0.00573748 -0.00691456 -0.0105705 -0.00494678 -0.0118867
internal_weight=0 71419 36604 15128 4023 1298 2725 11105 778 654 543 190 353 98
internal_count=217633 71419 36604 15128 4023 1298 2725 11105 778 654 543 190 353 98
shrinkage=0.15


Tree=1254
num_leaves=15
num_cat=0
split_feature=18 33 13 13 38 7 27 26 18 3 0 20 20 38
split_gain=0.00597857 0.0545145 0.212822 0.185075 0.127768 0.169669 0.124221 0.118676 0.123402 0.143793 0.112576 0.445966 0.130051 0.11565
threshold=-3.6078549999999997e-07 -1.3360349999999997e-06 -7.7280699999999977e-06 -9.7459899999999988e-06 2.7182450000000003e-05 4.6689650000000011e-05 0.16863600000000004 -8.9705449999999987e-05 -0.000112673 -6.2187599999999987 8.8935650000000006 10.878150000000002 4.5614350000000004 -0.00031184799999999993
decision_type=2 2 2 2 2 2 2 2 2 2 2 2 2 2
left_child=1 3 6 4 5 -1 -3 8 -8 10 13 12 -12 -10
right_child=-2 2 -4 -5 -6 -7 7 -9 9 -11 11 -13 -14 -15
leaf_value=0.0015002849380701905 2.2516091618226443e-05 -0.0014361921411457682 0.00010918911573440764 -0.00012653136128170742 7.1442366397373479e-06 0.00018344582551832152 0.00037138873041651162 -0.00013146815213703166 -0.002348456234334835 0.0003688263912932903 -0.00044501771134485175 -0.025965880442942891 -0.0087062046443010799 -0.00023415397194749576
leaf_weight=4737 119564 2779 32932 28945 6366 4113 1123 13437 1759 786 139 21 62 870
leaf_count=4737 119564 2779 32932 28945 6366 4113 1123 13437 1759 786 139 21 62 870
internal_value=0 -2.74512e-05 -0.000128673 9.61118e-05 0.00051964 0.00088829 -0.000502113 -0.000359463 -0.00100307 -0.00142746 -0.00192268 -0.00516633 -0.00299324 -0.00164878
internal_weight=0 98069 53908 44161 15216 8850 20976 18197 4760 3637 2851 222 201 2629
internal_count=217633 98069 53908 44161 15216 8850 20976 18197 4760 3637 2851 222 201 2629
shrinkage=0.15


Tree=1255
num_leaves=15
num_cat=0
split_feature=23 1 32 4 18 36 4 16 16 25 7 21 1 1
split_gain=0.0063289 0.0483073 0.110134 0.250817 0.183552 0.0902634 0.085502 0.0810556 0.141676 0.136701 0.102916 0.0757337 0.3873 0.197239
threshold=-6.3908299999999993 10.151550000000002 -0.21928149999999999 0.21982700000000002 3.9077700000000007e-05 0.029192350000000002 0.086015600000000011 5.1765450000000016e-07 9.9440800000000022e-06 0.50646200000000008 5.0699350000000001e-05 12.162300000000002 11.245050000000001 13.304
decision_type=2 2 2 2 2 2 2 2 2 2 2 2 2 2
left_child=-1 -2 3 5 -5 -3 -7 11 9 -9 -11 -4 -13 -14
right_child=1 2 7 4 -6 6 -8 8 -10 10 -12 12 13 -15
leaf_value=7.1400429697142975e-06 -9.6440479900822682e-06 0.0054705021890141528 -0.0013873738984200047 0.023162128673284311 0.0028399245446780698 -0.0006253826984166038 -0.011393906867929867 -0.002598407243830122 0.00043354359701933229 -0.016957584187682524 -0.0052049718640046197 -0.012870730274589733 0.0099852058341082951 -0.0039921782904251985
leaf_weight=201902 14336 41 819 20 20 79 21 79 102 38 30 30 85 31
leaf_count=201902 14336 41 819 20 20 79 21 79 102 38 30 30 85 31
internal_value=0 -9.164e-05 -0.000934288 0.00251743 0.013001 -0.000456643 -0.00288677 -0.00144892 -0.00386181 -0.00684226 -0.0117726 -0.000826317 0.00232098 0.00624987
internal_weight=0 15731 1395 181 40 141 100 1214 249 147 68 965 146 116
internal_count=217633 15731 1395 181 40 141 100 1214 249 147 68 965 146 116
shrinkage=0.15


Tree=1256
num_leaves=15
num_cat=0
split_feature=20 11 23 16 23 13 23 19 16 11 11 18 30 5
split_gain=0.00643318 0.0547631 0.0414315 0.0822242 0.128988 0.071248 0.109922 0.179773 0.172224 0.0886627 0.141244 0.0844462 0.0439619 0.0806007
threshold=10.210350000000002 -8.1991599999999983e-05 -9.0165099999999985 1.7912000000000001e-07 -9.1480199999999989 3.5094600000000008e-05 -16.783199999999997 0.0030404650000000004 2.9537550000000003e-05 5.3877900000000008e-05 3.5688200000000008e-05 -7.1994299999999988e-06 0.00095553150000000009 1.1786700000000002e-05
decision_type=2 2 2 2 2 2 2 2 2 2 2 2 2 2
left_child=-1 -2 3 12 5 6 11 9 -9 10 -8 -5 13 -3
right_child=1 2 -4 4 -6 -7 7 8 -10 -11 -12 -13 -14 -15
leaf_value=-6.8043311852127672e-06 -0.00058329816094653865 0.010735928711481393 0.00033655455153461738 0.0079398767673410468 -0.011623586740210284 0.0010452475251264742 -0.0012727859530894099 -0.017463079191695312 -0.001232415877166204 0.0069848941480317572 -0.011863556174177895 -0.0012644897057907654 3.2077238103332452e-05 0.00077550679670821408
leaf_weight=203469 2237 25 10301 33 29 186 170 38 24 22 34 70 927 68
leaf_count=203469 2237 25 10301 33 29 186 170 38 24 22 34 70 927 68
internal_value=0 9.77457e-05 0.000225481 -0.000478192 -0.00186206 -0.00137145 -0.00252107 -0.00402515 -0.0111802 -0.00206224 -0.00303791 0.00168448 0.000343989 0.00345304
internal_weight=0 14164 11927 1626 606 577 391 288 62 226 204 103 1020 93
internal_count=217633 14164 11927 1626 606 577 391 288 62 226 204 103 1020 93
shrinkage=0.15


Tree=1257
num_leaves=15
num_cat=0
split_feature=19 26 19 9 23 10 13 17 14 7 21 20 2 19
split_gain=0.00634464 0.0308727 0.0512831 0.0780759 0.0354183 0.115548 0.0615179 0.0662534 0.0604216 0.118752 0.1949 0.26315 0.503494 0.402198
threshold=0.0023004300000000004 0.00063170100000000014 0.0025007950000000005 4.0739400000000005e-05 -14.762349999999998 9.5245350000000008e-06 7.5104950000000017e-05 0.00081075650000000021 0.0013588450000000002 5.2015850000000008e-05 -2.8596399999999997 2.0727300000000004 -0.53906949999999998 0.0061755250000000003
decision_type=2 2 2 2 2 2 2 2 2 2 2 2 2 2
left_child=-1 4 3 -3 5 -2 7 8 -7 10 11 -10 13 -13
right_child=1 2 -4 -5 -6 6 -8 -9 9 -11 -12 12 -14 -15
leaf_value=-1.5536330878592908e-05 0.0079969509308667544 0.0017605005006504526 0.00034541109399744129 0.011748958835752481 6.6801747050349464e-05 0.00011602791952932408 4.4245850736648385e-05 0.0065243878934000219 -0.0021635068157614774 -0.00010192815969002243 -0.0032640407357349198 0.0018896576161828954 -0.0030452700420223835 0.023435555227016184
leaf_weight=159090 38 109 3891 21 45408 1141 5215 28 295 1232 1007 35 79 44
leaf_count=159090 38 109 3891 21 45408 1141 5215 28 295 1232 1007 35 79 44
internal_value=0 4.22198e-05 0.000443327 0.00337402 1.26382e-05 -0.000257217 -0.000291776 -0.000745636 -0.000798744 -0.00118647 -0.00210164 0.000482321 0.00542232 0.0138899
internal_weight=0 58543 4021 130 54522 9114 9076 3861 3833 2692 1460 453 158 79
internal_count=217633 58543 4021 130 54522 9114 9076 3861 3833 2692 1460 453 158 79
shrinkage=0.15


Tree=1258
num_leaves=15
num_cat=0
split_feature=14 23 3 20 11 3 23 25 20 9 36 33 3 23
split_gain=0.00632216 0.0451043 0.10975 0.125918 0.2927 0.116098 0.620945 0.257338 0.194722 0.305934 0.17338 0.113166 0.109568 0.151653
threshold=0.00018273250000000005 -7.6156999999999995 -8.2133949999999984 6.7373500000000011 1.1927250000000002e-05 -7.6471249999999991 -6.9680999999999989 0.54390900000000009 7.837320000000001 2.0423650000000006e-05 0.00037494600000000008 2.5602950000000004e-06 -6.1920449999999994 -16.545699999999997
decision_type=2 2 2 2 2 2 2 2 2 2 2 2 2 2
left_child=1 12 3 -3 -5 6 7 8 10 -10 11 -4 13 -1
right_child=-2 2 5 4 -6 -7 -8 -9 9 -11 -12 -13 -14 -15
leaf_value=-0.00070960733540957458 -1.6602552257985979e-05 0.0035014823376181216 -0.0071350129524723862 0.004783744947562809 -0.0081719960340044702 -0.00013022700080928337 0.0014574705856663353 -0.0016891493609616122 -0.0061920277203898868 -0.02921996834791369 0.0044790019321700805 -0.017396091000409796 -6.1329557427079926e-05 0.00059808709514534979
leaf_weight=2307 153077 369 99 80 77 18335 490 130 25 27 23 32 27791 14771
leaf_count=2307 153077 369 99 80 77 18335 490 130 25 27 23 32 27791 14771
internal_value=0 3.93684e-05 -0.000149916 0.00198765 -0.00157034 -0.000208596 -0.00194818 -0.00691474 -0.0102124 -0.0181488 -0.00753262 -0.00964154 0.00012242 0.000421436
internal_weight=0 64556 19687 526 157 19161 826 336 206 52 154 131 44869 17078
internal_count=217633 64556 19687 526 157 19161 826 336 206 52 154 131 44869 17078
shrinkage=0.15


Tree=1259
num_leaves=15
num_cat=0
split_feature=16 36 16 3 34 14 9 18 24 15 20 23 3 20
split_gain=0.00649473 0.0524136 0.302626 0.263823 0.330105 0.488813 0.523201 0.389019 0.251443 0.219024 0.271431 0.337283 0.53885 0.306643
threshold=-4.5044949999999995e-08 9.5141850000000008e-05 -2.2582199999999995e-06 -6.0545599999999995 0.054756200000000012 0.0007585545000000001 -2.8151049999999995e-05 -1.2604899999999999e-05 0.23088500000000003 -2.2781399999999998e-07 -7.9667699999999995 -9.2917499999999986 -8.8213249999999999 6.4175900000000006
decision_type=2 2 2 2 2 2 2 2 2 2 2 2 2 2
left_child=1 -1 -3 4 5 6 -4 8 -6 -8 -11 12 -12 -13
right_child=-2 2 3 -5 7 -7 9 -9 -10 10 11 13 -14 -15
leaf_value=7.7076829041205144e-05 2.3824254848586239e-05 0.00020473030791819978 -0.00074894254245931418 0.00020361880121133705 -0.0060700176883046464 0.00033526940122108366 -0.0017036353767548409 0.00015211907970902146 -0.0002561953954579256 -0.00023675688979593658 -0.010843793918729716 -0.0082089827572168449 0.00017018176330518478 -0.0030663405431467935
leaf_weight=51478 117938 26144 2488 7099 394 2110 874 6723 291 286 128 847 456 377
leaf_count=51478 117938 26144 2488 7099 394 2110 874 6723 291 286 128 847 456 377
internal_value=0 -2.81838e-05 -0.000140563 -0.000549541 -0.000906605 -0.0016035 -0.00235328 -0.000194849 -0.0036002 -0.00369815 -0.00453063 -0.00520986 -0.00224384 -0.00662502
internal_weight=0 99695 48217 22073 14974 7566 5456 7408 685 2968 2094 1808 584 1224
internal_count=217633 99695 48217 22073 14974 7566 5456 7408 685 2968 2094 1808 584 1224
shrinkage=0.15


Tree=1260
num_leaves=15
num_cat=0
split_feature=1 21 13 10 5 20 22 3 25 6 13 22 0 21
split_gain=0.00663971 0.0594944 0.160267 0.178089 0.208971 0.185107 0.144333 0.11462 0.108304 0.148305 0.165521 0.235044 0.255416 0.104846
threshold=10.481450000000002 12.474600000000001 -1.0135899999999997e-05 3.7774650000000006e-05 2.7293100000000001e-05 0.4699020000000001 1.8895150000000001 -5.9424999999999999 11.779650000000002 1.6919750000000002e-06 -3.1817149999999993e-06 1.6604000000000003 1.0413800000000002 7.5460850000000006
decision_type=2 2 2 2 2 2 2 2 2 2 2 2 2 2
left_child=-1 13 6 4 8 -5 7 -3 9 10 -4 12 -12 -2
right_child=1 2 3 5 -6 -7 -8 -9 -10 -11 11 -13 -14 -15
leaf_value=-7.3777060735932289e-06 0.00019873037821259028 -0.014778821447935814 -0.0089967859047465019 -0.011038548637103908 0.018314737663604318 0.0040696436968770478 0.0070958766157590697 -0.0024999959493870847 -0.00099604395274162437 0.014954755644430405 0.019143790452476789 -0.005358390772082864 0.0034876190926297567 -0.00093399665998976475
leaf_weight=201644 13399 26 20 36 24 37 22 50 78 32 37 33 64 2131
leaf_count=201644 13399 26 20 36 24 37 22 50 78 32 37 33 64 2131
internal_value=0 9.30434e-05 0.0017761 0.00323648 0.00491382 -0.00338097 -0.00360347 -0.00670065 0.00369555 0.005663 0.00373224 0.0056321 0.00922305 4.32995e-05
internal_weight=0 15989 459 361 288 73 98 76 264 186 154 134 101 15530
internal_count=217633 15989 459 361 288 73 98 76 264 186 154 134 101 15530
shrinkage=0.15


Tree=1261
num_leaves=15
num_cat=0
split_feature=31 0 9 11 4 24 4 38 2 25 1 14 2 3
split_gain=0.00662618 0.0320176 0.0574013 0.0671384 0.0540867 0.0868243 0.151531 0.115638 0.0985827 0.0811855 0.0751698 0.0941073 0.0694036 0.063535
threshold=0.21248250000000005 8.4991750000000028 -4.3876499999999994e-06 5.5643800000000004e-05 0.22843500000000003 0.31226800000000005 1.0025000000000002 -0.022653099999999995 -1.6105999999999996 1.2871200000000003 8.3723950000000027 0.0035426600000000004 1.1487550000000002 -6.572074999999999
decision_type=2 2 2 2 2 2 2 2 2 2 2 2 2 2
left_child=-1 2 -2 4 13 8 7 10 -6 -9 11 12 -7 -4
right_child=1 -3 3 -5 5 6 -8 9 -10 -11 -12 -13 -14 -15
leaf_value=1.0862575641362521e-05 -0.00020295347759152088 -0.00045665063573774691 0.0010307170838248626 -0.00018679273544311751 0.010340691165860651 0.00045259570675765498 0.00097147475006743476 -0.0018398035418424525 0.00039766443092182762 -0.0089968975276660621 -0.006934715507231886 -0.0086364716089023692 0.010101129354588921 -4.5905782424132193e-05
leaf_weight=185655 15173 4060 4259 5186 23 104 278 53 915 109 40 22 20 1736
leaf_count=185655 15173 4060 4259 5186 23 104 278 53 915 109 40 22 20 1736
internal_value=0 -6.3065e-05 -5.82741e-06 0.000228852 0.000514014 -0.000271548 -0.00163962 -0.00372549 0.00064147 -0.00665538 -0.00117365 0.000404727 0.00200881 0.000718954
internal_weight=0 31978 27918 12745 7559 1564 626 348 938 162 186 146 124 5995
internal_count=217633 31978 27918 12745 7559 1564 626 348 938 162 186 146 124 5995
shrinkage=0.15


Tree=1262
num_leaves=15
num_cat=0
split_feature=3 24 18 4 21 3 3 5 30 38 31 21 32 1
split_gain=0.00684326 0.0322734 0.0695314 0.105396 0.154732 0.0905336 0.1259 0.163059 0.112848 0.142544 0.0853417 0.0727405 0.0696578 0.205728
threshold=-8.0805899999999991 -0.59705149999999985 -2.7380799999999995e-06 -2.2825899999999995 18.392150000000004 -7.8930599999999993 -7.1641399999999988 2.7724350000000002e-05 0.0079975500000000008 0.089395300000000025 1.5746050000000003 -19.847999999999995 1.9381800000000002 -12.047649999999999
decision_type=2 2 2 2 2 2 2 2 2 2 2 2 2 2
left_child=-1 2 3 -2 5 10 7 8 -7 -10 -5 -8 -13 -14
right_child=1 -3 -4 4 -6 6 11 -9 9 -11 -12 12 13 -15
leaf_value=-2.4847273194677822e-05 0.00058061921666687801 5.0573406706123571e-05 -2.952477458986165e-05 0.0094728749720767759 0.0081479291824962264 -0.0099028123958851202 0.0045206892386956427 -0.017281388788484037 0.0095924522727727883 -0.0040617561049568797 -0.002820452902233228 -0.0011657737484219817 -0.018622250167287087 -0.0027956684427290503
leaf_weight=116217 494 94940 5009 27 32 60 39 25 20 123 24 448 21 154
leaf_count=116217 494 94940 5009 27 32 60 39 25 20 123 24 448 21 154
internal_value=0 2.84736e-05 -0.000295516 -0.00120373 -0.00210966 -0.00245848 -0.00281069 -0.00585066 -0.00444293 -0.00215208 0.00368778 -0.00176369 -0.00215709 -0.00469486
internal_weight=0 101416 6476 1467 973 941 890 228 203 143 51 662 623 175
internal_count=217633 101416 6476 1467 973 941 890 228 203 143 51 662 623 175
shrinkage=0.15


Tree=1263
num_leaves=15
num_cat=0
split_feature=8 35 15 31 31 5 22 10 34 4 29 10 34 33
split_gain=0.00623973 0.0180569 0.0322633 0.0288104 0.0333241 0.0951791 0.0233779 0.114081 0.0217684 0.0175287 0.0210273 0.0247115 0.0236501 0.0175177
threshold=3.5712600000000008e-05 0.00077247550000000018 -9.647814999999997e-09 -0.021322949999999997 -0.024774949999999997 4.3951800000000008e-05 -1.1071899999999999 5.7444100000000008e-05 0.0092879550000000023 1.0000000180025095e-35 0.014127550000000001 5.198605000000001e-05 0.014497950000000001 6.0655000000000006e-06
decision_type=2 2 2 2 2 2 2 2 2 2 2 2 2 2
left_child=-1 3 -3 4 6 -6 7 -2 -4 10 12 -12 -10 -11
right_child=1 2 8 -5 5 -7 -8 -9 9 13 11 -13 -14 -15
leaf_value=5.830908477291124e-06 0.0098629268182610936 0.00031972590941360121 -0.0047129121469333766 -0.00021141678920641568 0.010249720392738677 0.00083616572854476416 0.00012239131657966804 0.00038784502989834844 -0.0042688439510619406 0.00014334195600223236 -0.0061217889500767338 -0.0017071078290880994 -0.00046872745632336245 -0.00095983716334797063
leaf_weight=206737 33 993 30 4656 29 145 2441 214 39 816 32 263 668 537
leaf_count=206737 33 993 30 4656 29 145 2441 214 39 816 32 263 668 537
internal_value=0 -0.000110634 -0.000398705 1.88031e-05 0.000393333 0.00240509 0.000263107 0.00165375 -0.000697826 -0.000646678 -0.00112222 -0.00218599 -0.000678352 -0.000294505
internal_weight=0 10896 3378 7518 2862 174 2688 247 2385 2355 1002 295 707 1353
internal_count=217633 10896 3378 7518 2862 174 2688 247 2385 2355 1002 295 707 1353
shrinkage=0.15


Tree=1264
num_leaves=15
num_cat=0
split_feature=22 2 22 2 13 7 21 2 22 20 9 34 14 2
split_gain=0.00635869 0.0621769 0.448905 2.89265 1.13794 0.606698 0.493793 0.458156 0.46521 0.426367 0.518494 0.445661 0.777852 0.397979
threshold=1.7837150000000002 1.8049350000000002 2.1073400000000002 2.1084950000000005 -1.2282549999999998e-05 6.4068100000000018e-05 12.162300000000002 2.1084950000000005 2.4622600000000006 -1.8356499999999998 -1.1194649999999998e-05 0.016438050000000006 0.00085365250000000016 2.4421250000000003
decision_type=2 2 2 2 2 2 2 2 2 2 2 2 2 2
left_child=-1 -2 3 4 5 6 9 8 -4 11 -11 12 -3 -5
right_child=1 2 7 13 -6 -7 -8 -9 -10 10 -12 -13 -14 -15
leaf_value=-1.3357248223378469e-05 -4.6126021061982479e-05 0.018059347913833335 -0.0058467429533221975 -0.0047424305464122364 0.0033340560259198424 -0.00046052490200963801 -0.0052842520119156687 0.00038875737228447689 -0.00062195248062596453 -0.00082165386840259949 0.024104548579530923 0.02366312830938996 -0.012011459228051535 1.505452818843966e-05
leaf_weight=171176 35685 100 577 581 463 60 24 6273 1143 57 28 202 24 1240
leaf_count=171176 35685 100 577 581 463 60 24 6273 1143 57 28 202 24 1240
internal_value=0 4.92163e-05 0.000365062 0.00200728 0.00867946 0.0136793 0.0156296 -0.000205904 -0.00237469 0.0168509 0.00738933 0.0193178 0.0122392 -0.00150285
internal_weight=0 46457 10772 2779 958 495 435 7993 1720 411 85 326 124 1821
internal_count=217633 46457 10772 2779 958 495 435 7993 1720 411 85 326 124 1821
shrinkage=0.15


Tree=1265
num_leaves=15
num_cat=0
split_feature=16 22 2 36 4 22 9 22 3 16 22 3 9 22
split_gain=0.00679685 0.0377421 0.0942004 0.218061 0.482294 0.513111 0.469555 0.981772 0.50443 0.379787 0.42739 0.450081 0.469188 1.12658
threshold=3.3455050000000005e-07 0.93967600000000007 0.8628570000000001 0.0055718750000000013 1.4356200000000003 2.0894700000000004 -7.5427049999999993e-06 1.7569500000000002 -6.9692649999999992 5.6579350000000019e-07 1.8642900000000002 -16.724049999999995 7.5602950000000016e-06 1.3562350000000001
decision_type=2 2 2 2 2 2 2 2 2 2 2 2 2 2
left_child=-1 -2 -3 -4 5 6 7 -5 -9 -8 11 -11 -13 -14
right_child=1 2 3 4 -6 -7 9 8 -10 10 -12 12 13 -15
leaf_value=-1.9206963866289106e-05 -3.9831114924374323e-05 -4.1767240461028505e-06 0.00023588388205482696 -0.0083858335493738299 -0.00056362954233183976 -0.00051897910317235914 4.1668382764328271e-05 0.027244940524299939 0.00040069424680301118 -0.0049282684622322329 -0.0051172014455705015 0.024342907623784448 0.021664090536964626 -0.0081396899360697706
leaf_weight=142711 49447 17818 6194 98 702 260 60 36 28 23 26 107 78 45
leaf_count=142711 49447 17818 6194 98 702 260 60 36 28 23 26 107 78 45
internal_value=0 3.65853e-05 0.00018491 0.000624918 0.002272 0.00488778 0.00769368 0.00105078 0.0155006 0.0108682 0.0131964 0.0150785 0.0170791 0.0107603
internal_weight=0 74922 25475 7657 1463 761 501 162 64 339 279 253 230 123
internal_count=217633 74922 25475 7657 1463 761 501 162 64 339 279 253 230 123
shrinkage=0.15


Tree=1266
num_leaves=15
num_cat=0
split_feature=32 14 11 34 3 19 20 9 30 19 20 0 20 34
split_gain=0.00794514 0.0318659 0.0543483 0.0482784 0.122036 0.063855 0.0615703 0.0691276 0.0734873 0.0524986 0.317295 0.0788216 0.053566 0.0425802
threshold=-0.11234649999999999 0.00016362750000000005 1.0230700000000002e-05 0.026516200000000004 -6.6541099999999984 9.8134050000000006e-08 8.4896800000000017 6.4587800000000012e-05 0.0016200050000000001 1.0038850000000003e-06 9.4321850000000023 9.1590050000000023 12.994100000000001 0.19741050000000002
decision_type=2 2 2 2 2 2 2 2 2 2 2 2 2 2
left_child=1 2 -1 4 -4 6 -5 8 -8 10 11 -7 -11 -3
right_child=-2 13 3 5 -6 9 7 -9 -10 12 -12 -13 -14 -15
leaf_value=-4.1119588724338889e-05 1.467489385525545e-05 -0.00032818685841841649 0.011720395788940931 0.00010823414513096623 0.00016238824380886144 0.0082854160299757496 -0.013080692801370539 0.0024823318845433691 -0.0031247556656244734 0.00098239704336952442 0.019233258702442978 -0.00010578628992965848 -0.004867463580255086 1.6390484931075459e-05
leaf_weight=9046 172427 14262 31 1228 61 30 22 33 69 1624 25 157 36 18582
leaf_count=9046 172427 14262 31 1228 61 30 22 33 69 1624 25 157 36 18582
internal_value=0 -5.59737e-05 0.000149303 0.000668773 0.00405693 0.000572089 -0.000213428 -0.00339892 -0.00553169 0.00113941 0.0033622 0.0012404 0.000855533 -0.000133237
internal_weight=0 45206 12362 3316 92 3224 1352 124 91 1872 212 187 1660 32844
internal_count=217633 45206 12362 3316 92 3224 1352 124 91 1872 212 187 1660 32844
shrinkage=0.15


Tree=1267
num_leaves=15
num_cat=0
split_feature=11 31 14 3 23 23 23 25 3 23 23 3 14 23
split_gain=0.00629283 0.0454171 0.071852 0.0607051 0.466157 0.308309 0.199084 0.155731 0.147531 0.104219 0.133402 0.645169 0.144833 0.171579
threshold=-2.9945149999999999e-05 0.01286635 0.0048352200000000012 -13.607149999999999 -13.243199999999998 -17.075499999999995 -7.644499999999999 2.9170300000000005 -16.413199999999996 -13.750649999999998 -9.3974499999999974 -9.5178949999999976 0.0014017550000000002 -11.472849999999999
decision_type=2 2 2 2 2 2 2 2 2 2 2 2 2 2
left_child=1 2 3 4 5 8 -6 -7 -1 -5 11 12 -11 -14
right_child=-2 -3 -4 9 6 7 -8 -9 -10 10 -12 -13 13 -15
leaf_value=-0.0088180834427475929 -1.5482890887831258e-05 -0.00010308315721899111 -6.4894011127860073e-05 0.0011110721771627756 0.0033310087571504538 -0.0079639262916537945 0.00021470221258232535 0.00098717861466058004 0.0028776430571459777 -0.0042457648727139523 0.00044442495551120744 0.00086375031003288179 -0.0043613196399842546 0.00098286054641234886
leaf_weight=28 159034 26547 15848 2632 1188 230 754 54 182 931 7213 2432 228 332
leaf_count=28 159034 26547 15848 2632 1188 230 754 54 182 931 7213 2432 228 332
internal_value=0 4.20196e-05 0.000162201 0.000384306 0.00107453 -0.00303962 0.00212107 -0.00626196 0.00131821 0.000262183 6.15481e-05 -0.000642426 -0.00309918 -0.00119298
internal_weight=0 58599 32052 16204 2436 494 1942 284 210 13768 11136 3923 1491 560
internal_count=217633 58599 32052 16204 2436 494 1942 284 210 13768 11136 3923 1491 560
shrinkage=0.15


Tree=1268
num_leaves=15
num_cat=0
split_feature=0 31 20 1 17 3 23 18 26 14 20 23 31 11
split_gain=0.0075145 0.0332998 0.0319517 0.135789 0.100013 0.105595 0.106997 0.0540787 0.0326043 0.0606295 0.0385147 0.0350926 0.0318307 0.093297
threshold=-11.331049999999999 -0.016881449999999996 -12.935299999999998 -5.066889999999999 3.3979550000000005e-07 -5.0935449999999998 -7.0557349999999994 -8.6838149999999993e-07 -0.0048464599999999995 0.00013542600000000004 -6.9911799999999991 -6.0063449999999987 0.019014250000000003 -1.1190949999999998e-05
decision_type=2 2 2 2 2 2 2 2 2 2 2 2 2 2
left_child=1 -1 3 -3 7 6 -6 -5 9 -4 11 12 13 -10
right_child=-2 2 8 4 5 -7 -8 -9 10 -11 -12 -13 -14 -15
leaf_value=-0.00041219069464775668 6.5170117118990673e-06 0.010317302414720566 0.00064169256022758982 -0.010389353541276333 -0.00055602556729519902 -0.0042265042629039198 0.013121992550159414 -0.0012457929247364854 -0.0010921494484457926 0.01021918203070527 0.0002394282918449638 0.0052069063743819359 -0.00050177944754086173 -0.011862365025709467
leaf_weight=4921 206352 36 58 22 22 26 31 43 102 20 4464 23 1491 22
leaf_count=4921 206352 36 58 22 22 26 31 43 102 20 4464 23 1491 22
internal_value=0 -0.000119209 0.000107483 0.00207749 1.75363e-05 0.00360329 0.00744432 -0.00434054 5.01042e-05 0.00309746 1.11508e-05 -0.000610968 -0.000693823 -0.00300299
internal_weight=0 11281 6360 180 144 79 53 65 6180 78 6102 1638 1615 124
internal_count=217633 11281 6360 180 144 79 53 65 6180 78 6102 1638 1615 124
shrinkage=0.15


Tree=1269
num_leaves=15
num_cat=0
split_feature=24 3 9 4 0 14 27 0 33 9 3 13 10 10
split_gain=0.00604244 0.0357008 0.0706841 0.0764793 0.0528146 0.0468846 0.102353 0.068757 0.0625597 0.132258 0.0741981 0.0747643 0.0548569 0.0668663
threshold=0.77512900000000007 -12.581749999999998 5.0394750000000011e-05 0.34245300000000006 6.1430700000000007 0.0017399150000000001 4.6464000000000008 -5.682059999999999 0.00022867500000000004 -1.7834849999999997e-05 -12.831349999999999 0.00010689000000000002 2.0392150000000004e-05 2.3800800000000001e-05
decision_type=2 2 2 2 2 2 2 2 2 2 2 2 2 2
left_child=-1 2 5 -4 -3 6 -2 -7 10 -10 12 -12 -9 -14
right_child=1 4 3 -5 -6 7 -8 8 9 -11 11 -13 13 -15
leaf_value=5.212789997662696e-06 0.010888126433234323 0.00027964167874564271 0.00030561560017399879 0.0097674661808233743 -0.00063374515902121439 -0.0099243490913067944 6.557053032117216e-05 1.4344704420955013e-05 0.011312587374621737 -0.00093653707248021788 -0.012523887335107876 -0.0019679595468915065 -0.0047149180735954468 -0.0012340745571214683
leaf_weight=208561 22 5248 57 29 1955 20 185 586 28 68 26 36 153 659
leaf_count=208561 22 5248 57 29 1955 20 185 586 28 68 26 36 153 659
internal_value=0 -0.00011984 -0.000703998 0.00349624 3.17351e-05 -0.000906589 0.00121579 -0.00118535 -0.00107303 0.00263612 -0.00131692 -0.00639464 -0.00109173 -0.00188995
internal_weight=0 9072 1869 86 7203 1783 207 1576 1556 96 1460 62 1398 812
internal_count=217633 9072 1869 86 7203 1783 207 1576 1556 96 1460 62 1398 812
shrinkage=0.15


Tree=1270
num_leaves=15
num_cat=0
split_feature=0 31 2 3 25 29 18 23 26 26 15 23 16 23
split_gain=0.00571453 0.024617 0.0253894 0.0247856 0.0453084 0.0280171 0.0757379 0.155806 0.0435824 0.0340943 0.0434406 0.026639 0.10659 0.0224369
threshold=-11.331049999999999 -0.029625199999999997 -2.8476049999999993 -6.6828699999999985 1.4201850000000003 0.34604700000000005 3.8467950000000007e-06 -8.8068099999999987 0.0021032350000000006 -0.0063802799999999995 1.5512150000000003e-06 -5.9629699999999994 -1.0982549999999999e-07 -6.2136699999999996
decision_type=2 2 2 2 2 2 2 2 2 2 2 2 2 2
left_child=1 2 -1 4 -3 8 9 -8 11 -7 -11 13 -13 -5
right_child=-2 3 -4 5 -6 6 7 -9 -10 10 -12 12 -14 -15
leaf_value=-0.0010763797070250322 5.6831443569286016e-06 -0.00061116953178358153 -0.00019386401571335596 0.00012230357410944671 -0.0077231220435351128 -0.0029899790348717941 -0.00034137787297368051 0.017126328275771811 -0.0033450898382787792 0.00044379602293867553 0.0073813929077005012 -0.0023405661453398349 0.011405502578285945 -0.0013326938780481568
leaf_weight=937 206352 104 3377 6201 25 50 27 20 84 132 24 30 22 248
leaf_count=937 206352 104 3377 6201 25 50 27 20 84 132 24 30 22 248
internal_value=0 -0.000103956 -0.000385546 7.04059e-05 -0.00198945 0.000109266 0.00165828 0.00709169 4.97514e-05 0.000418619 0.00151112 9.36164e-05 0.00347508 6.63508e-05
internal_weight=0 11281 4314 6967 129 6838 253 47 6585 206 156 6501 52 6449
internal_count=217633 11281 4314 6967 129 6838 253 47 6585 206 156 6501 52 6449
shrinkage=0.15


Tree=1271
num_leaves=15
num_cat=0
split_feature=20 0 9 10 2 7 29 18 23 35 0 23 3 3
split_gain=0.00594412 0.0316683 0.0580653 0.0900135 0.121232 0.0678951 0.110513 0.0827955 0.0997843 0.114628 0.0543064 0.132293 0.0849795 0.0892506
threshold=-12.002199999999997 -11.149749999999999 -3.0188249999999997e-05 3.8545700000000006e-05 -2.6044999999999994 4.4571700000000006e-05 0.0079056050000000013 -4.0500549999999989e-08 -6.8145799999999985 0.00062007900000000005 -7.7555099999999992 -7.1436399999999987 -8.5842749999999981 -7.5830149999999987
decision_type=2 2 2 2 2 2 2 2 2 2 2 2 2 2
left_child=1 2 3 4 -1 6 -5 8 -7 -10 11 12 -3 -14
right_child=-2 10 -4 5 -6 7 -8 -9 9 -11 -12 -13 13 -15
leaf_value=-0.00042281605128664524 4.1844022385707189e-06 -0.0057393680019595193 -0.0067348761402536176 0.0035443470978442256 0.012996428288434716 -8.1721759609839248e-05 -0.0092894679420472432 -0.00080019784723383929 0.003353018343113945 0.016574518868699671 -7.4292006814639849e-05 -0.0036787298624454774 0.0058576278793771057 -0.00015871661643816661
leaf_weight=28 211604 40 20 26 33 54 36 142 36 25 5007 321 80 181
leaf_count=28 211604 40 20 26 33 54 36 142 36 25 5007 321 80 181
internal_value=0 -0.000146863 0.00114277 0.00155738 0.00683678 0.000547846 -0.00390755 0.00162269 0.00461442 0.00877167 -0.000238505 -0.00156039 0.000698697 0.00168537
internal_weight=0 6029 400 380 61 319 62 257 115 61 5629 622 301 261
internal_count=217633 6029 400 380 61 319 62 257 115 61 5629 622 301 261
shrinkage=0.15


Tree=1272
num_leaves=15
num_cat=0
split_feature=38 13 17 14 14 29 17 23 6 22 13 28 23 7
split_gain=0.00550589 0.0262019 0.0347051 0.0433981 0.0645127 0.200931 0.139416 0.158699 0.193705 0.122868 0.130891 0.0828757 0.0753174 0.0749072
threshold=-0.0027737449999999998 0.00012123800000000001 4.663200000000001e-08 0.0011247700000000002 0.0013170050000000002 0.026537400000000003 1.9846050000000004e-06 -13.889449999999998 -1.4092199999999999e-06 2.2761200000000001 3.9015150000000009e-05 -0.041117799999999989 -9.3974499999999974 2.9981350000000004e-05
decision_type=2 2 2 2 2 2 2 2 2 2 2 2 2 2
left_child=1 2 -1 -4 5 6 7 -5 -9 10 13 -8 -10 -7
right_child=-2 -3 3 4 -6 9 11 8 12 -11 -12 -13 -14 -15
leaf_value=0.00015151028653290197 1.0673689604961821e-05 0.00021026667473837338 -7.1210250017326589e-05 -0.0015751128576812336 -0.00040564857136437556 0.0080177977617660705 -0.0089559841950956186 -0.025133669259957969 -0.013459101131452518 -0.0053030449377339597 0.015189489671029149 8.5960094967470842e-05 -0.0030849282014969504 -0.00049145775732011064
leaf_weight=8005 181339 6877 14760 50 6194 33 28 20 31 42 20 123 32 79
leaf_count=8005 181339 6877 14760 50 6194 33 28 20 31 42 20 123 32 79
internal_value=0 -5.33299e-05 -0.000114953 -0.000214571 -0.000532672 -0.00225054 -0.00470977 -0.00825097 -0.0122726 0.00176336 0.00401176 -0.00159069 -0.00818968 0.00201573
internal_weight=0 36294 29417 21412 6652 458 284 133 83 174 132 151 63 112
internal_count=217633 36294 29417 21412 6652 458 284 133 83 174 132 151 63 112
shrinkage=0.15


Tree=1273
num_leaves=15
num_cat=0
split_feature=1 21 1 21 14 23 10 23 14 0 23 14 23 15
split_gain=0.00553894 0.0688764 0.266989 1.13284 0.733946 0.72011 0.575985 0.889482 0.631402 0.554432 0.449495 0.502132 0.503913 0.369622
threshold=5.0797350000000012 5.1921150000000003 7.2775700000000008 7.6430700000000007 0.00085365250000000016 -11.124149999999998 2.7515600000000001e-05 -8.8482399999999988 0.00020775150000000003 6.5563600000000006 -11.078849999999997 0.0027514900000000005 -14.248749999999998 2.9583450000000003e-09
decision_type=2 2 2 2 2 2 2 2 2 2 2 2 2 2
left_child=-1 -2 3 4 5 -3 7 9 -9 -7 11 12 -6 -14
right_child=1 2 -4 -5 10 6 -8 8 -10 -11 -12 -13 13 -15
leaf_value=1.5111503190927997e-05 -0.00013402916706329945 -0.00068349626644347006 -0.0002411605810779896 -0.00095656009016305841 -0.0047328052897734419 0.023229376843797084 0.0052028058575487434 0.018410959655375335 -0.0025183298484189437 -0.0022271940389394082 -0.00090735957205842455 0.00019034536435990661 0.014978829304454848 0.0021985110973539224
leaf_weight=155588 45288 306 10485 3236 53 154 707 48 100 22 1051 344 180 71
leaf_count=155588 45288 306 10485 3236 53 154 707 48 100 22 1051 344 180 71
internal_value=0 -3.78946e-05 0.000221922 0.000996064 0.00307732 0.0057064 0.00760291 0.0128402 0.00426955 0.0200473 0.00100841 0.00411562 0.00855738 0.0113637
internal_weight=0 62045 16757 6272 3036 1337 1031 324 148 176 1699 648 304 251
internal_count=217633 62045 16757 6272 3036 1337 1031 324 148 176 1699 648 304 251
shrinkage=0.15


Tree=1274
num_leaves=15
num_cat=0
split_feature=1 23 21 1 12 0 0 23 9 16 1 9 6 1
split_gain=0.00680664 0.0883522 0.135425 0.139461 0.120388 0.150047 0.147445 0.173216 0.131019 0.123267 0.119158 0.12591 0.117069 0.210023
threshold=10.481450000000002 -6.8527199999999988 10.535600000000001 12.500900000000003 0.00011228600000000002 -5.3962499999999993 6.3931750000000003 -6.1069649999999989 5.9719750000000005e-06 -4.5044949999999995e-08 10.829750000000002 1.6227500000000003e-05 -2.4029549999999995e-06 12.500900000000003
decision_type=2 2 2 2 2 2 2 2 2 2 2 2 2 2
left_child=-1 -2 3 4 5 -3 7 10 9 -9 11 -7 13 -4
right_child=1 2 12 -5 -6 6 -8 8 -10 -11 -12 -13 -14 -15
leaf_value=-7.4698723931711857e-06 0.00025342592221382743 0.00011200720039583227 0.0082784654664433688 -8.4676254344580845e-06 0.00090791381603078656 0.0018956825005455461 -0.00028284124475477849 -0.0024356502271257337 -0.0073368266243487596 0.013509196427185089 -0.0080284829090498319 -0.010743986561894415 -5.515525305159635e-05 -0.0023722323270228044
leaf_weight=201644 13281 225 116 1006 194 61 151 20 25 24 340 25 456 65
leaf_count=201644 13281 225 116 1006 194 61 151 20 25 24 340 25 456 65
internal_value=0 9.42057e-05 -0.000686667 -0.00127496 -0.0024713 -0.00322396 -0.00438587 -0.0056375 0.00133459 0.00626154 -0.00676678 -0.00177864 0.00122599 0.00445363
internal_weight=0 15989 2708 2071 1065 871 646 495 69 44 426 86 637 181
internal_count=217633 15989 2708 2071 1065 871 646 495 69 44 426 86 637 181
shrinkage=0.15


Tree=1275
num_leaves=15
num_cat=0
split_feature=23 11 11 0 31 14 13 15 14 18 20 23 0 22
split_gain=0.00704674 0.044839 0.0687542 0.0811659 0.133628 0.269551 0.14658 0.261539 0.131987 0.140275 0.104373 0.091003 0.0952455 0.151527
threshold=-7.7292499999999995 1.3649300000000002e-05 0.00010781500000000002 8.7439000000000018 -1.0808149999999999 0.00018717200000000002 1.7314450000000005e-05 -1.547545e-06 9.7364850000000017e-05 3.1418200000000008e-07 15.858650000000003 -6.4887299999999994 11.755300000000002 0.56816350000000015
decision_type=2 2 2 2 2 2 2 2 2 2 2 2 2 2
left_child=-1 -2 3 -3 5 8 7 -7 9 -5 11 12 13 -6
right_child=1 2 -4 4 10 6 -8 -9 -10 -11 -12 -13 -14 -15
leaf_value=-1.77831067125486e-05 -5.3545811601687599e-05 0.00063963706712086472 -0.00012761708312042822 -0.00043179883422226337 -0.00028197612854491926 0.016014741336845831 0.016851463407958643 -0.0061491408819565547 -0.0064245222198628139 0.013696524188188569 -0.0095583738966120609 0.00080156938952118996 0.00039065915077387197 -0.002907728656686843
leaf_weight=151758 41607 10226 8939 64 1354 23 39 25 54 21 27 1424 1293 779
leaf_count=151758 41607 10226 8939 64 1354 23 39 25 54 21 27 1424 1293 779
internal_value=0 4.09674e-05 0.000203008 0.00039581 -9.27984e-05 0.00347294 0.0100209 0.00447105 -0.000625412 0.00305873 -0.000258035 -0.00020626 -0.000625159 -0.00124094
internal_weight=0 65875 24268 15329 5103 226 87 48 139 85 4877 4850 3426 2133
internal_count=217633 65875 24268 15329 5103 226 87 48 139 85 4877 4850 3426 2133
shrinkage=0.15


Tree=1276
num_leaves=15
num_cat=0
split_feature=11 29 14 7 26 10 20 6 22 23 14 34 14 22
split_gain=0.0066356 0.0335415 0.0505697 0.041517 0.0574991 0.0626044 0.0694432 0.0984816 0.0878374 0.0597963 0.0520127 0.137163 0.0669151 0.177167
threshold=-2.9945149999999999e-05 0.0014737500000000002 0.0075547300000000008 5.7322200000000012e-05 -0.0036721749999999993 7.1540100000000017e-05 -5.5815149999999987 1.7302200000000003e-06 -2.2095749999999996 -9.5800499999999982 0.00015935200000000003 0.016847400000000002 0.00023412000000000001 2.6827550000000007
decision_type=2 2 2 2 2 2 2 2 2 2 2 2 2 2
left_child=1 2 -1 10 5 6 8 -8 -5 -10 11 -3 13 -12
right_child=-2 3 -4 4 -6 -7 7 -9 9 -11 12 -13 -14 -15
leaf_value=0.0003096073968424268 -1.5898973088978986e-05 -0.014507345257443375 -7.1326623518280397e-05 0.0079520380260936652 -0.0004007352813658901 -0.00069325880318073219 0.0024919840550099155 0.014215828964474245 -0.0081209690403699387 0.0014347344414024363 0.00061726179644964357 0.00052860717716908382 3.9649599237950777e-05 0.011571912787337902
leaf_weight=18315 159034 20 13711 29 9118 130 38 28 23 41 175 43 16887 41
leaf_count=18315 159034 20 13711 29 9118 130 38 28 23 41 175 43 16887 41
internal_value=0 4.31488e-05 0.000146522 -8.14369e-05 -0.000334712 0.00174832 0.00374459 0.00746574 0.00110377 -0.00199935 5.73585e-05 -0.00424471 7.32054e-05 0.00269662
internal_weight=0 58599 32026 26573 9407 289 159 66 93 64 17166 63 17103 216
internal_count=217633 58599 32026 26573 9407 289 159 66 93 64 17166 63 17103 216
shrinkage=0.15


Tree=1277
num_leaves=15
num_cat=0
split_feature=14 23 14 23 8 22 10 22 0 2 22 10 20 26
split_gain=0.00628545 0.0334237 0.0784299 0.245404 0.163032 0.396527 0.55906 0.816716 0.839295 0.558981 0.534483 0.490295 0.494608 0.412677
threshold=0.00017188600000000003 -7.6156999999999995 0.0015765250000000003 -12.877249999999998 1.5670900000000003e-05 -1.1581899999999998 2.2900350000000002e-05 -1.7647699999999997 -1.3343199999999997 -1.8685299999999996 -2.0478899999999993 1.7969350000000004e-05 -0.20577849999999995 6.8906900000000016e-05
decision_type=2 2 2 2 2 2 2 2 2 2 2 2 2 2
left_child=-1 2 3 -2 -5 6 7 9 -9 10 -6 -10 -13 -14
right_child=1 -3 -4 4 5 -7 -8 8 11 -11 -12 12 13 -15
leaf_value=4.0013209484844556e-05 0.00027163241904112938 9.5742370158156587e-05 4.9350992019867917e-05 -0.00059987374509591878 -0.0024660191884322553 -0.00060397947091504604 0.0008096565271823148 -0.011804943199136428 0.038091883351132443 -0.003307532548569725 0.02735023588663147 -0.0054614659173421393 0.027257118114443906 0.0023244244116358459
leaf_weight=62830 16129 43225 63728 26387 24 3559 1420 21 28 152 31 20 59 20
leaf_count=62830 16129 43225 63728 26387 24 3559 1420 21 28 152 31 20 59 20
internal_value=0 -1.62402e-05 -5.96219e-05 -0.000204755 -0.000446981 0.000309369 0.0021407 0.00746486 0.0159736 0.00138129 0.0143395 0.0205669 0.0156104 0.020945
internal_weight=0 154803 111578 47850 31721 5334 1775 355 148 207 55 127 99 79
internal_count=217633 154803 111578 47850 31721 5334 1775 355 148 207 55 127 99 79
shrinkage=0.15


Tree=1278
num_leaves=15
num_cat=0
split_feature=23 19 26 1 24 26 22 22 21 6 32 36 15 33
split_gain=0.00669617 0.0613655 0.0845489 0.0530827 0.133423 0.128631 0.0846201 0.163849 0.0645263 0.0798728 0.0492463 0.0480228 0.137093 0.043648
threshold=-6.3908299999999993 8.0753900000000004e-08 7.8598500000000003e-05 10.151550000000002 0.078457100000000016 -5.9948399999999997e-05 1.1664650000000003 1.6338900000000003 7.3636550000000005 -3.6434549999999997e-06 -1.5426949999999999 -0.00039633399999999998 -6.5679299999999979e-08 -1.2622299999999997e-06
decision_type=2 2 2 2 2 2 2 2 2 2 2 2 2 2
left_child=-1 2 3 10 6 8 13 -8 -6 -10 -2 12 -4 -5
right_child=1 -3 11 4 5 -7 7 -9 9 -11 -12 -13 -14 -15
leaf_value=7.3442935832393802e-06 0.0064850344186134891 -0.00023949664372345159 0.015383416005881206 -0.0044450672001403293 0.0003453146244864911 -0.012410390448655419 0.013713946741010095 -0.0036836494359054734 0.00024515779329125172 -0.011740601248236308 0.00025662546097509053 0.0014062838469543662 0.0019569902210239344 0.0013039103399093549
leaf_weight=201902 29 12683 22 48 75 38 29 21 22 29 1895 685 77 78
leaf_count=201902 29 12683 22 48 75 38 29 21 22 29 1895 685 77 78
internal_value=0 -9.42615e-05 0.000510075 4.5177e-05 -0.00168262 -0.00476085 0.00118574 0.00640696 -0.00245385 -0.00657027 0.000350505 0.00185259 0.00494064 -0.000886176
internal_weight=0 15731 3048 2264 340 164 176 50 126 51 1924 784 99 126
internal_count=217633 15731 3048 2264 340 164 176 50 126 51 1924 784 99 126
shrinkage=0.15


Tree=1279
num_leaves=15
num_cat=0
split_feature=8 10 21 28 4 4 34 12 3 17 26 36 24 16
split_gain=0.00647744 0.0400488 0.133028 0.031192 0.0779138 0.333408 0.361336 0.49882 0.67067 0.355322 0.197712 0.447894 0.590049 0.490512
threshold=1.4331150000000001e-05 1.4847900000000002e-05 -6.4898099999999994 -0.031947399999999994 -0.19656399999999996 -1.2236799999999997 0.15558450000000004 -0.00015989499999999999 -6.3853549999999988 1.9034300000000003e-07 0.00038798150000000003 0.026455200000000002 -0.62742749999999992 7.2521050000000008e-06
decision_type=2 2 2 2 2 2 2 2 2 2 2 2 2 2
left_child=-1 2 -2 4 5 -3 7 -7 9 -9 11 -8 13 -13
right_child=1 3 -4 -5 -6 6 10 8 -10 -11 -12 12 -14 -15
leaf_value=1.2561853567611246e-05 -0.01163658324613011 -0.00068996387705257773 2.9732378859010237e-05 -9.3629961805159978e-05 -5.4009937765598401e-05 -0.0052889600139239736 -0.00043405760865818983 0.039463688988752403 0.0016695222887210548 0.013474895241670309 -0.0026938175063895126 -0.011486999270800879 0.023193002495594008 0.01357051647053315
leaf_weight=176130 29 794 91 36387 3648 29 185 29 35 20 132 32 53 39
leaf_count=176130 29 794 91 36387 3648 29 185 29 35 20 132 32 53 39
internal_value=0 -5.33099e-05 -0.00278963 -4.53752e-05 0.000306075 0.00128055 0.00410471 0.0116726 0.0175283 0.028856 0.00216556 0.00424141 0.0112169 0.00227699
internal_weight=0 41503 120 41383 4996 1348 554 113 84 49 441 309 124 71
internal_count=217633 41503 120 41383 4996 1348 554 113 84 49 441 309 124 71
shrinkage=0.15


Tree=1280
num_leaves=15
num_cat=0
split_feature=3 23 23 3 30 3 18 38 18 34 18 23 14 28
split_gain=0.00670544 0.0434416 0.0497777 0.223974 0.161927 0.102878 0.102756 0.388289 0.594003 0.221302 0.167055 0.130325 0.122256 0.125701
threshold=-8.0805899999999991 -17.487949999999994 -9.0957449999999991 -6.2498799999999992 0.00044662450000000007 -7.8229449999999989 -2.7380799999999995e-06 0.00090732200000000012 -0.00012797649999999995 0.066489350000000016 -1.9113899999999997e-05 -14.361299999999998 0.00028247300000000004 0.19720000000000001
decision_type=2 2 2 2 2 2 2 2 2 2 2 2 2 2
left_child=-1 -2 3 4 5 -3 7 -6 -9 10 -10 -11 -13 -14
right_child=1 2 -4 -5 6 -7 -8 8 9 11 -12 12 13 -15
leaf_value=-2.4595793721052534e-05 -0.00032795685887175764 -0.00034150831487693266 -4.9883641461741068e-05 -0.00015758138602229056 0.0010045964022928422 0.0011741658298065683 0.000439194406755995 0.00010660639899821419 -0.0048023604991612951 -0.0015540986485592801 -0.022369342012298777 -0.0034437451281594065 -0.0093916595506590567 0.0018125877790153026
leaf_weight=116217 7162 1150 48833 23209 1934 8138 9108 1149 21 211 29 219 228 25
leaf_count=116217 7162 1150 48833 23209 1934 8138 9108 1149 21 211 29 219 228 25
internal_value=0 2.81854e-05 5.52473e-05 0.000168276 0.000508759 0.000986502 0.000165423 -0.000488013 -0.00202186 -0.00535831 -0.0149912 -0.00465312 -0.00603848 -0.00828452
internal_weight=0 101416 94254 45421 22212 9288 12924 3816 1882 733 50 683 472 253
internal_count=217633 101416 94254 45421 22212 9288 12924 3816 1882 733 50 683 472 253
shrinkage=0.15


Tree=1281
num_leaves=15
num_cat=0
split_feature=22 6 28 3 11 39 3 19 2 22 2 22 5 31
split_gain=0.00649602 0.0599275 0.0807969 0.0946282 0.0782341 0.076715 0.0791215 0.1421 0.608301 0.629529 0.147675 0.210909 0.10319 0.270721
threshold=1.7837150000000002 1.0000000180025095e-35 0.0094352450000000018 -6.1122599999999991 0.00010781500000000002 2.3937350000000006e-05 -7.1932899999999984 4.1466950000000005e-05 1.6963750000000002 2.3537500000000002 1.3432750000000002 2.2191300000000003 8.0250450000000017e-06 0.063074300000000014
decision_type=2 2 2 2 2 2 2 2 2 2 2 2 2 2
left_child=-1 2 3 4 -2 6 7 8 10 -10 -3 -12 13 -9
right_child=1 5 -4 -5 -6 -7 -8 12 9 -11 11 -13 -14 -15
leaf_value=-1.3500711038105555e-05 0.00085748815663905503 0.00037573650959010199 -0.00010487872679695269 -0.00029928328098939745 -0.00025010793131505379 0.00017279568739085341 0.00012534475352833215 -0.00034707833744725011 -0.03361387240584008 -0.003625081793143181 -0.014965577602790863 -0.0012175642483713532 -0.00036945740114925055 -0.0098893770640914123
leaf_weight=171176 8656 350 9812 2870 1720 10847 4576 232 28 36 38 74 7124 94
leaf_count=171176 8656 350 9812 2870 1720 10847 4576 232 28 36 38 74 7124 94
internal_value=0 4.97449e-05 0.000221364 0.00046303 0.000673885 -0.000119374 -0.000371856 -0.000657111 -0.00303988 -0.0167452 -0.00114131 -0.00588207 -0.000488878 -0.00309854
internal_weight=0 46457 23058 13246 10376 23399 12552 7976 526 64 462 112 7450 326
internal_count=217633 46457 23058 13246 10376 23399 12552 7976 526 64 462 112 7450 326
shrinkage=0.15


Tree=1282
num_leaves=15
num_cat=0
split_feature=19 33 13 21 12 5 22 32 26 14 23 23 3 23
split_gain=0.0069882 0.0355096 0.0639936 0.0859065 0.090765 0.0592134 0.0900568 0.127759 0.0523084 0.0445011 0.0985846 0.184117 0.253902 0.0970353
threshold=0.0023004300000000004 -1.8260499999999999e-06 3.4251500000000009e-05 -6.3049749999999998 6.1294700000000021e-05 1.0880250000000001e-05 -0.18624849999999998 -2.1047449999999994 -0.0018968649999999997 0.0009636855000000001 -13.010249999999997 -8.8916699999999977 -8.7372249999999987 -12.104349999999998
decision_type=2 2 2 2 2 2 2 2 2 2 2 2 2 2
left_child=-1 2 3 4 5 -2 8 -8 -7 10 -5 12 -12 -11
right_child=1 -3 -4 9 -6 6 7 -9 -10 13 11 -13 -14 -15
leaf_value=-1.6305255978054753e-05 0.0043612461490249322 -5.691541834885221e-05 -4.306253101435091e-06 0.0012170799413496523 5.3978733674811717e-05 -0.0060702644155493802 -4.5276886085048317e-05 0.016706262620365512 0.0015294285958084189 -0.00029654787618053571 -0.0045280974717367131 0.00075431930529044119 0.0016990857901174213 0.0009850226424013551
leaf_weight=159090 251 33438 15822 640 617 21 20 21 688 2143 505 668 208 3501
leaf_count=159090 251 33438 15822 640 617 21 20 21 688 2143 505 668 208 3501
internal_value=0 4.43094e-05 0.000179133 0.000491789 0.00148497 0.002367 0.0016996 0.00853478 0.00130433 0.000282139 -0.000321852 -0.00103504 -0.00271147 0.000498416
internal_weight=0 58543 25105 9283 1618 1001 750 41 709 7665 2021 1381 713 5644
internal_count=217633 58543 25105 9283 1618 1001 750 41 709 7665 2021 1381 713 5644
shrinkage=0.15


Tree=1283
num_leaves=15
num_cat=0
split_feature=26 15 2 33 33 19 20 4 3 14 33 15 14 31
split_gain=0.00582692 0.022628 0.042365 0.15152 0.0898511 0.0906332 0.139782 0.183951 0.146795 0.153337 0.370429 0.0978874 0.0726485 0.158105
threshold=7.115370000000001e-05 6.2639450000000014e-08 -0.29067049999999994 -4.7009049999999996e-07 1.4107600000000003e-06 9.6074000000000005e-06 5.7696600000000009 0.25797000000000009 -7.0077899999999991 0.00031542200000000004 -4.9776299999999991e-06 5.9804750000000007e-07 0.0011649500000000003 -0.024774949999999997
decision_type=2 2 2 2 2 2 2 2 2 2 2 2 2 2
left_child=-1 -2 3 -3 5 6 12 8 9 -8 -11 -9 -4 -14
right_child=1 2 4 -5 -6 -7 7 11 -10 10 -12 -13 13 -15
leaf_value=-1.751667241545819e-05 0.00010244324141963943 0.00054725893416477506 -0.00017327442293052381 -0.00034887496789506189 0.00014560085747733804 -0.0003879668195670027 -0.018797298701694953 0.0083544605862698514 -0.002514094382345768 -0.016145890841905312 0.0069684481844888065 -0.0022828584170851685 -0.0097078653650486003 -0.00088622935854173503
leaf_weight=144191 44029 8255 724 8740 5906 5250 39 24 71 39 26 103 62 174
leaf_count=144191 44029 8255 724 8740 5906 5250 39 24 71 39 26 103 62 174
internal_value=0 3.4391e-05 -6.74779e-05 8.64051e-05 -0.000278079 -0.000662331 -0.0018037 -0.00461832 -0.00777203 -0.0113616 -0.00690016 -0.000272656 -0.000918273 -0.00320378
internal_weight=0 73442 29413 16995 12418 6512 1262 302 175 104 65 127 960 236
internal_count=217633 73442 29413 16995 12418 6512 1262 302 175 104 65 127 960 236
shrinkage=0.15


Tree=1284
num_leaves=15
num_cat=0
split_feature=1 22 21 9 6 9 7 3 12 19 30 21 25 3
split_gain=0.00627689 0.0535227 0.0452203 0.203439 0.231861 0.098301 0.0873318 0.102087 0.0863195 0.162783 0.0841923 0.0570057 0.0770693 0.184322
threshold=10.481450000000002 2.5169000000000006 13.390900000000002 -1.4567849999999998e-05 2.4805150000000004e-06 -2.5829599999999997e-05 4.8077700000000009e-05 -5.9118649999999997 4.6139300000000007e-05 2.0603900000000001e-07 0.0003793785000000001 7.5460850000000006 0.15280250000000004 -6.1920449999999994
decision_type=2 2 2 2 2 2 2 2 2 2 2 2 2 2
left_child=-1 2 11 5 6 -4 8 -8 10 -10 -5 -2 13 -13
right_child=1 -3 3 4 -6 -7 7 -9 9 -11 -12 12 -14 -15
leaf_value=-7.173301705242133e-06 9.3708738154151306e-05 0.00093200892443937988 -0.0013271699765027734 0.0079998736172759276 0.019361113642808049 -0.013810335578388979 -0.010632222151856364 0.002820374732837081 0.00011819870541653325 0.014765177812047399 -0.0021128644322250352 0.016273704429622737 -0.00086539767392188472 -0.002082875087944558
leaf_weight=201644 11917 1537 40 27 20 22 22 30 31 38 59 20 2194 32
leaf_count=201644 11917 1537 40 27 20 22 22 30 31 38 59 20 2194 32
internal_value=0 9.04655e-05 9.6565e-07 0.00185844 0.00393834 -0.00575668 0.00244822 -0.00287111 0.00423276 0.00818465 0.00106206 -3.69366e-05 -0.000730125 0.00497735
internal_weight=0 15989 14452 289 227 62 207 52 155 69 86 14163 2246 52
internal_count=217633 15989 14452 289 227 62 207 52 155 69 86 14163 2246 52
shrinkage=0.15


Tree=1285
num_leaves=15
num_cat=0
split_feature=29 29 10 11 23 23 11 0 35 23 13 31 25 13
split_gain=0.00580537 0.0238611 0.0314668 0.0302569 0.0598962 0.0716652 0.0736978 0.0536491 0.0526232 0.0514803 0.0767719 0.0510589 0.100156 0.197885
threshold=-0.026386799999999998 -0.029397749999999997 9.9318600000000012e-06 9.7894750000000007e-05 -16.670499999999997 -17.297799999999995 0.00033105950000000009 5.009195000000001 -0.95036449999999995 -19.806449999999995 0.00023942100000000005 -0.68217099999999997 2.3011200000000005 6.4421150000000009e-05
decision_type=2 2 2 2 2 2 2 2 2 2 2 2 2 2
left_child=1 3 -3 -1 5 8 7 -7 9 10 -5 12 13 -6
right_child=-2 2 -4 4 11 6 -8 -9 -10 -11 -12 -13 -14 -15
leaf_value=-3.9193254547593679e-05 -9.5227087699474905e-06 -0.0039775320405500345 0.0007001665986151568 0.012864791058448396 0.014439992337311441 -0.013685226087458431 0.00058483319975493936 -0.0035288229796358126 -0.00090432170947920252 -0.0017867265906210781 0.00059734151363954879 -7.9025291658278241e-05 0.00087665399493621623 0.00053583246252125467
leaf_weight=22745 189067 33 1661 22 37 25 30 22 490 27 24 1341 2048 61
leaf_count=22745 189067 33 1661 22 37 25 30 22 490 27 24 1341 2048 61
internal_value=0 6.3027e-05 0.000609043 2.86064e-05 0.000402269 -0.00093159 -0.00522363 -0.00893117 -0.000344578 0.0034126 0.00646438 0.000647083 0.00110082 0.00578536
internal_weight=0 28566 1694 26872 4127 640 77 47 563 73 46 3487 2146 98
internal_count=217633 28566 1694 26872 4127 640 77 47 563 73 46 3487 2146 98
shrinkage=0.15


Tree=1286
num_leaves=15
num_cat=0
split_feature=36 8 34 4 4 22 1 3 20 4 4 34 31 2
split_gain=0.00587952 0.0434949 0.0606283 0.0455898 0.101681 0.327171 0.123523 0.306237 0.375962 0.165387 0.166205 0.135862 0.123372 0.242712
threshold=0.0064979950000000003 -1.0187849999999998e-05 0.026516200000000004 2.7640900000000004 0.17221800000000004 0.82008800000000004 4.6517600000000003 -10.344549999999998 -1.0420449999999997 0.7372645000000001 0.25797000000000009 0.45951800000000004 0.62597650000000005 2.5016900000000004
decision_type=2 2 2 2 2 2 2 2 2 2 2 2 2 2
left_child=-1 2 -2 4 -3 -6 9 8 -8 10 11 -7 -12 -14
right_child=1 3 -4 -5 5 6 7 -9 -10 -11 12 -13 13 -15
leaf_value=1.0377767382742194e-05 -0.0074857133891782718 -7.1159350402371074e-05 0.00022468155823303842 0.0003961635730588598 9.9626355405456487e-05 -0.0050304558346314565 -0.001638121698979867 -0.0035840764154212489 0.020211900276241496 -0.0012150116104308764 -0.0077958751600442711 0.001557604383290992 -0.0056351097319575104 0.0075379313184664792
leaf_weight=184877 23 15747 9748 2798 2804 132 37 121 34 628 331 151 163 39
leaf_count=184877 23 15747 9748 2798 2804 132 37 121 34 628 331 151 163 39
internal_value=0 -5.85728e-05 0.000206532 -0.00017127 -0.000249918 -0.000883909 -0.00256963 0.0010048 0.00882527 -0.00304489 -0.00445319 -0.00151527 -0.00601309 -0.0030918
internal_weight=0 32756 9771 22985 20187 4440 1636 192 71 1444 816 283 533 202
internal_count=217633 32756 9771 22985 20187 4440 1636 192 71 1444 816 283 533 202
shrinkage=0.15


Tree=1287
num_leaves=15
num_cat=0
split_feature=22 1 11 0 1 22 20 7 0 19 22 0 1 19
split_gain=0.00661518 0.0432817 0.0342941 0.0764594 0.231581 0.404619 0.266121 0.264913 0.221699 0.247118 0.186525 0.35127 0.944035 0.795974
threshold=1.7837150000000002 13.03345 5.0612550000000012e-06 -1.6135499999999998 4.594100000000001 2.2761200000000001 1.2595350000000003 4.1812100000000006e-05 -0.37806699999999999 0.00094200300000000007 2.1073400000000002 -4.6429399999999994 4.943715000000001 2.4128850000000005e-05
decision_type=2 2 2 2 2 2 2 2 2 2 2 2 2 2
left_child=-1 2 3 10 -5 6 7 8 9 -6 11 -2 -13 -14
right_child=1 -3 -4 4 5 -7 -8 -9 -10 -11 -12 12 13 -15
leaf_value=-1.3623979131112006e-05 -0.00011664720610762134 0.00090656710235169846 0.00017131065998875675 0.00026398935803581498 -0.014001971756883185 -0.00018905443309399439 0.0078388280580543937 -0.0015184584282109505 -0.0046505938846882157 -2.1930459978258501e-05 -0.00023384383321773647 -0.00038542351893193955 -0.013432952818233345 0.0075567960222469397
leaf_weight=171176 3357 1291 20157 2741 152 1247 37 274 267 35 15005 1107 43 744
leaf_count=171176 3357 1291 20157 2741 152 1247 37 274 267 35 15005 1107 43 744
internal_value=0 5.01991e-05 2.57211e-05 -9.16226e-05 -0.000633064 -0.00185514 -0.00457098 -0.00520169 -0.00742462 -0.0113854 3.54248e-05 0.000804874 0.00243821 0.00640996
internal_weight=0 46457 45166 25009 4753 2012 765 728 454 187 20256 5251 1894 787
internal_count=217633 46457 45166 25009 4753 2012 765 728 454 187 20256 5251 1894 787
shrinkage=0.15


Tree=1288
num_leaves=15
num_cat=0
split_feature=1 32 21 3 12 30 3 18 1 34 16 20 13 0
split_gain=0.00588816 0.074386 0.208502 0.265976 0.319411 0.311415 0.240094 0.234856 0.290818 0.366911 0.296631 0.26643 0.539511 0.384186
threshold=5.0797350000000012 -0.025127699999999999 5.1128250000000008 -6.6271099999999992 0.00026803150000000007 0.00044102900000000006 -13.697799999999999 9.0773400000000014e-06 7.187450000000001 0.0126493 -1.3824149999999997e-06 4.6422100000000013 6.9623300000000006e-06 3.4050350000000003
decision_type=2 2 2 2 2 2 2 2 2 2 2 2 2 2
left_child=-1 2 3 4 5 7 -7 8 9 -2 -11 13 -13 -12
right_child=1 -3 -4 -5 -6 6 -8 -9 -10 10 11 12 -14 -15
leaf_value=1.5580592782546458e-05 0.00690045891182415 9.7581712582390175e-05 0.00015248875887882672 0.00017664304732004443 0.0001543790812641695 -0.0095323133582916435 -0.0011142274764862315 0.00022118158084688855 -0.0027402510654550619 -0.0029924848511981481 -0.013105897739337484 -0.0018104988913465703 -0.027700691008093681 0.001645914617957632
leaf_weight=155588 34 36664 13957 4558 2270 78 3363 223 501 117 143 27 55 55
leaf_count=155588 34 36664 13957 4558 2270 78 3363 223 501 117 143 27 55 55
internal_value=0 -3.90709e-05 -0.000236472 -0.000711675 -0.00130139 -0.0020204 -0.00130505 -0.00415159 -0.00519787 -0.00805463 -0.00933542 -0.0119859 -0.0191759 -0.00900817
internal_weight=0 62045 25381 11424 6866 4596 3441 1155 932 431 397 280 82 198
internal_count=217633 62045 25381 11424 6866 4596 3441 1155 932 431 397 280 82 198
shrinkage=0.15


Tree=1289
num_leaves=15
num_cat=0
split_feature=28 1 21 1 19 31 25 3 23 25 1 21 14 23
split_gain=0.00718642 0.0648443 0.189986 0.222608 0.195583 0.573029 0.61107 0.376385 0.220194 0.192278 0.183099 0.875976 0.630982 0.625578
threshold=0.0018024150000000001 5.3805850000000008 5.1128250000000008 7.6494800000000014 4.9230750000000014e-07 -0.032943299999999988 0.37676000000000004 -7.2547399999999991 -6.3575049999999989 3.7622250000000004 7.2775700000000008 7.6430700000000007 0.00085365250000000016 -10.917699999999998
decision_type=2 2 2 2 2 2 2 2 2 2 2 2 2 2
left_child=-1 -2 3 4 5 6 7 -3 9 -8 11 12 13 -4
right_child=1 2 10 -5 -6 -7 8 -9 -10 -11 -12 -13 -14 -15
leaf_value=-2.447709036245895e-05 0.00010690257648405881 -0.019337136407266371 -0.00042460222201684084 -8.7058407047277468e-05 -0.00089145208322229043 0.00024558718908374792 -0.0064186114549232729 -0.0031788839288350097 0.011893352614906689 0.0013169048317358829 -0.00018913258086734677 -0.001021640997726451 0.00075548970636232554 0.0075219921349161962
leaf_weight=120479 69885 110 301 7062 3635 543 261 46 20 100 10255 2642 1435 859
leaf_count=120479 69885 110 301 7062 3635 543 261 46 20 100 10255 2642 1435 859
internal_value=0 3.03536e-05 -0.000165826 -0.000619928 -0.00141805 -0.00319043 -0.00666483 -0.0145725 -0.00342703 -0.00427581 0.000179382 0.000901 0.00285846 0.00545999
internal_weight=0 97154 27269 11777 4715 1080 537 156 381 361 15492 5237 2595 1160
internal_count=217633 97154 27269 11777 4715 1080 537 156 381 361 15492 5237 2595 1160
shrinkage=0.15


Tree=1290
num_leaves=15
num_cat=0
split_feature=21 12 12 11 33 22 2 23 6 0 23 23 22 2
split_gain=0.00700412 0.0736228 0.133329 0.162013 0.269399 0.305502 0.687516 0.737749 0.328991 0.235494 0.356933 0.31975 0.23084 0.754766
threshold=4.7592950000000007 2.9825400000000004e-05 0.00010329600000000001 3.3308000000000007e-05 -2.7857349999999998e-06 0.82008800000000004 0.54726450000000015 -8.2979299999999991 -6.9054099999999996e-07 7.1032850000000005 -10.016399999999999 -12.940099999999997 1.1664650000000003 1.1736800000000003
decision_type=2 2 2 2 2 2 2 2 2 2 2 2 2 2
left_child=-1 -2 3 12 5 6 -5 -8 9 10 11 -7 13 -3
right_child=1 2 -4 4 -6 8 7 -9 -10 -11 -12 -13 -14 -15
leaf_value=1.6451834760911191e-05 0.00010176839087015678 0.0037148074664112344 8.8965257260674189e-05 -0.0046186475195554516 -0.00039214894084170195 -0.0063084339397028091 0.028560855697415875 -0.0046506943669454709 -0.00077530745347878527 -0.0051546415482574184 -0.0073469943217338018 -0.029182587675644422 -0.00086949290189996988 -0.00097782684157935481
leaf_weight=158419 33650 1175 13459 176 1012 20 34 27 151 152 89 44 6981 2244
leaf_count=158419 33650 1175 13459 176 1012 20 34 27 151 152 89 44 6981 2244
internal_value=0 -4.40146e-05 -0.000235909 -0.000597123 -0.00195243 -0.00423094 0.00013763 0.0138607 -0.00650145 -0.00933636 -0.0134908 -0.0220344 -0.00037493 0.00063488
internal_weight=0 59214 25564 12105 1705 693 237 61 456 305 153 64 10400 3419
internal_count=217633 59214 25564 12105 1705 693 237 61 456 305 153 64 10400 3419
shrinkage=0.15


Tree=1291
num_leaves=15
num_cat=0
split_feature=8 10 21 22 20 20 33 20 23 22 22 26 22 2
split_gain=0.00749208 0.0297006 0.112395 0.213414 0.268971 0.170134 0.100255 0.142258 0.112348 0.0879132 0.0545576 0.047691 0.0317799 0.373458
threshold=1.4331150000000001e-05 1.6275850000000004e-05 -5.3390999999999993 -1.7903349999999998 -3.0231799999999995 -1.2709449999999998 -1.3360349999999997e-06 0.53709300000000015 -9.9145799999999991 -1.3110299999999997 -1.0072199999999998 -6.3810199999999988e-05 -1.9550899999999998 -1.9124349999999997
decision_type=2 2 2 2 2 2 2 2 2 2 2 2 2 2
left_child=-1 2 3 4 11 -5 -7 -8 -9 -10 -11 -2 13 -3
right_child=1 12 -4 5 -6 6 7 8 9 10 -12 -13 -14 -15
leaf_value=1.3509931564390715e-05 -0.0091587095447307962 0.0017372736353214993 0.00011885646051421083 0.0082917754805797855 -0.022987891791563016 0.006338801254142626 -0.015318307511219957 -0.0093387245430078883 0.0094709374790545534 -0.0081477341242134557 0.001632501999847591 0.00017392020132060029 -0.00010134482822336845 -0.00050252187302062565
leaf_weight=176130 22 2505 699 37 25 22 23 35 20 21 33 28 32978 5055
leaf_count=176130 22 2505 699 37 25 22 23 35 20 21 33 28 32978 5055
internal_value=0 -5.73333e-05 -0.000879769 -0.00350398 -0.0102843 -0.000841561 -0.00303593 -0.00459839 -0.00233639 0.000975526 -0.00217092 -0.00393244 -3.77554e-05 0.000239633
internal_weight=0 41503 965 266 75 191 154 132 109 74 54 50 40538 7560
internal_count=217633 41503 965 266 75 191 154 132 109 74 54 50 40538 7560
shrinkage=0.15


Tree=1292
num_leaves=15
num_cat=0
split_feature=28 12 13 7 20 21 2 20 23 3 11 23 7 2
split_gain=0.00696809 0.0607917 0.10547 0.129455 0.138732 0.0777394 0.204046 0.742633 0.141571 0.14432 0.12583 0.181722 0.134143 0.120586
threshold=0.0018024150000000001 3.3627650000000007e-05 8.0484950000000009e-05 5.0076550000000004e-05 9.7253800000000012 -3.5229999999999997 1.0196900000000002 4.0390700000000006 -16.434549999999998 -6.4440149999999994 5.5643800000000004e-05 -12.729499999999998 3.8055500000000009e-05 0.81660350000000015
decision_type=2 2 2 2 2 2 2 2 2 2 2 2 2 2
left_child=1 -1 3 4 5 -3 7 -7 -9 10 13 12 -12 -10
right_child=-2 2 -4 -5 -6 6 -8 8 9 -11 11 -13 -14 -15
leaf_value=-0.00010797686112454766 2.9888984345408046e-05 0.00061048248071589805 -0.00024662163515868198 -0.00011976703370275847 0.0017257094654838333 0.00075524868114672824 0.00038819034662387821 0.0010168112683459185 -0.01334127879473153 6.0627825027600356e-05 -0.021772839258774181 -0.0010313834006120352 -0.0054328165545414848 -0.0064397179443610002
leaf_weight=74386 97154 11262 13216 12712 1860 983 5582 51 138 52 20 94 26 97
leaf_count=74386 97154 11262 13216 12712 1860 983 5582 51 138 52 20 94 26 97
internal_value=0 -2.41024e-05 0.000111256 0.000255117 0.000491444 0.000366028 -2.48632e-05 -0.001603 -0.00645272 -0.00734486 -0.00837176 -0.00481186 -0.0125372 -0.0104925
internal_weight=0 120479 46093 32877 20165 18305 7043 1461 478 427 375 140 46 235
internal_count=217633 120479 46093 32877 20165 18305 7043 1461 478 427 375 140 46 235
shrinkage=0.15


Tree=1293
num_leaves=15
num_cat=0
split_feature=22 12 1 3 22 22 2 23 23 3 2 2 3 19
split_gain=0.00667832 0.0330287 0.068456 0.137864 0.188137 0.290012 0.807389 1.51892 1.32417 1.07402 0.909073 0.763624 0.72775 0.791781
threshold=-0.36388649999999995 0.00020606500000000004 2.2456700000000005 -7.0077899999999991 1.1664650000000003 0.35411200000000004 1.1736800000000003 -6.9868449999999989 -14.455649999999997 -14.260649999999998 0.35262350000000003 1.1736800000000003 -14.818499999999998 3.7476600000000006e-05
decision_type=2 2 2 2 2 2 2 2 2 2 2 2 2 2
left_child=-1 2 -2 4 5 11 7 8 9 -7 -10 -4 -12 -14
right_child=1 -3 3 -5 -6 6 -8 -9 10 -11 12 -13 13 -15
leaf_value=-2.9625461196807366e-05 8.1908238945681738e-05 0.00021945909133610849 -0.0037733616597437907 0.00012898833224010906 -0.00086663359950152807 0.017026660501336055 -0.00093789065452176343 -0.0061467298502050705 -0.0068436235488735361 -0.0080236261011215112 -0.013557893725275692 0.00073434743708075125 0.0089524200465610874 -0.0022226208172037333
leaf_weight=95824 67862 16671 1350 17902 10760 45 2711 354 111 267 37 2263 1316 160
leaf_count=95824 67862 16671 1350 17902 10760 45 2711 354 111 267 37 2263 1316 160
internal_value=0 2.33056e-05 -7.79711e-06 -0.000171108 -0.000448404 7.40189e-05 0.000813799 0.00288752 0.00453945 -0.0044106 0.00625892 -0.000949961 0.00722017 0.00774103
internal_weight=0 121809 105138 37276 19374 8614 5001 2290 1936 312 1624 3613 1513 1476
internal_count=217633 121809 105138 37276 19374 8614 5001 2290 1936 312 1624 3613 1513 1476
shrinkage=0.15


Tree=1294
num_leaves=15
num_cat=0
split_feature=21 12 1 19 33 33 9 26 8 23 10 21 14 29
split_gain=0.00761613 0.0503597 0.21517 0.417885 0.772212 0.650563 0.289387 0.262649 0.389914 0.243086 0.154011 0.133238 0.204368 0.20874
threshold=4.7592950000000007 2.9825400000000004e-05 4.8660050000000004 6.4664700000000011e-07 -3.6648949999999995e-06 -2.4853599999999999e-05 2.5093000000000002e-05 0.00014776600000000002 -1.4314399999999998e-05 -9.1480199999999989 1.5753850000000005e-05 7.7619950000000015 0.0006614075000000002 0.0028797400000000004
decision_type=2 2 2 2 2 2 2 2 2 2 2 2 2 2
left_child=-1 -2 3 4 5 6 10 8 -7 -10 -3 12 13 -5
right_child=1 2 -4 11 -6 7 -8 -9 9 -11 -12 -13 -14 -15
leaf_value=1.7155550410391873e-05 7.4673572445195733e-05 0.0017340631701517851 9.9265157094963996e-05 -0.0016108875989523596 -0.00047667190815996532 0.00098705979223138573 -0.0042797473416679322 -0.0017490364742116071 -0.019758301071682305 -0.0098470284845097907 0.020126282400451598 0.00026793954310441281 -0.00060016625544956066 -0.0082247044317808604
leaf_weight=158419 33650 20 17185 304 739 35 82 48 146 90 21 3482 3246 166
leaf_count=158419 33650 20 17185 304 739 35 82 48 146 90 21 3482 3246 166
internal_value=0 -4.58973e-05 -0.000204605 -0.000827832 -0.00344303 -0.00840262 0.000864991 -0.011976 -0.0137874 -0.0159786 0.0111545 -0.000398748 -0.00102345 -0.00394683
internal_weight=0 59214 25564 8379 1181 442 123 319 271 236 41 7198 3716 470
internal_count=217633 59214 25564 8379 1181 442 123 319 271 236 41 7198 3716 470
shrinkage=0.15


Tree=1295
num_leaves=15
num_cat=0
split_feature=23 3 14 23 23 5 8 3 23 12 26 29 17 5
split_gain=0.00720318 0.0940825 0.156236 0.665619 0.298777 0.527463 0.471732 0.486403 0.655194 0.350903 0.388193 0.447856 0.336517 0.451581
threshold=-10.580249999999998 -12.042299999999999 0.0014449400000000002 -12.104349999999998 -13.243199999999998 1.3742700000000001e-05 1.1189700000000001e-05 -12.664549999999998 -12.877249999999998 -0.00010624399999999998 -9.6198899999999998e-05 -0.0039842949999999988 9.2200700000000016e-08 1.1207000000000001e-05
decision_type=2 2 2 2 2 2 2 2 2 2 2 2 2 2
left_child=1 2 3 4 -1 6 7 8 -6 -7 -11 -12 13 -10
right_child=-2 -3 -4 -5 5 9 -8 -9 12 10 11 -13 -14 -15
leaf_value=-0.0012132225037199884 -2.2167140143406746e-05 0.0001207892178159847 -9.418039378495386e-05 -0.0058056722117907755 0.0079526750986375142 0.029709588097674506 -0.020775517533448608 0.008497284282245398 -0.0080728962697321546 -0.00861834688947293 0.03146316547962752 0.0051501013100320519 -0.0019910635985434053 -0.034595030292402948
leaf_weight=1329 131117 66006 18050 581 94 21 22 153 52 23 22 43 100 20
leaf_count=1329 131117 66006 18050 581 94 21 22 153 52 23 22 43 100 20
internal_value=0 3.35948e-05 -0.000247017 -0.00136844 3.58045e-06 0.00294382 0.000634415 0.00175856 -0.00211747 0.0122874 0.0081298 0.0140561 -0.00762092 -0.0154402
internal_weight=0 86516 20510 2460 1879 550 441 419 266 109 88 65 172 72
internal_count=217633 86516 20510 2460 1879 550 441 419 266 109 88 65 172 72
shrinkage=0.15


Tree=1296
num_leaves=15
num_cat=0
split_feature=8 35 35 21 17 16 13 18 20 18 4 29 16 17
split_gain=0.00700934 0.0275523 0.0464725 0.0860961 0.153269 0.209506 0.167124 0.354163 0.140121 0.170537 0.32857 0.067042 0.0586479 0.0347002
threshold=1.4331150000000001e-05 -0.00055600599999999984 -0.00077131949999999986 -4.8424999999999994 -6.6467399999999989e-09 -4.5891699999999995e-07 1.7314450000000005e-05 1.0632700000000001e-07 -0.31545399999999996 -6.1948499999999997e-06 -0.068773549999999989 0.0042759300000000007 3.6571050000000005e-06 5.0788150000000013e-08
decision_type=2 2 2 2 2 2 2 2 2 2 2 2 2 2
left_child=-1 2 -2 4 12 11 8 -8 -7 -10 -11 -6 -4 -3
right_child=1 13 3 -5 5 6 7 -9 9 10 -12 -13 -14 -15
leaf_value=1.3067436897917553e-05 2.8198597774266938e-05 0.00012053435314836244 -0.0090437344419769944 0.00021981820021564475 0.0010557187030533865 -0.00016751505630535949 0.0019343511212685947 0.028849471133435143 -0.003098296980606392 0.026194020319817355 0.0041651235165772963 -0.0082127613314223712 -8.4138681154399811e-05 -0.00025204187338040429
leaf_weight=176130 12938 7930 25 936 59 68 22 22 20 25 39 25 48 19346
leaf_count=176130 12938 7930 25 936 59 68 22 22 20 25 39 25 48 19346
internal_value=0 -5.54555e-05 0.000113769 0.000972664 0.00296888 0.00456481 0.00725091 0.0153919 0.0048943 0.00899196 0.0127702 -0.00170276 -0.00315249 -0.000143722
internal_weight=0 41503 14227 1289 353 280 196 44 152 84 64 84 73 27276
internal_count=217633 41503 14227 1289 353 280 196 44 152 84 64 84 73 27276
shrinkage=0.15


Tree=1297
num_leaves=15
num_cat=0
split_feature=1 3 14 32 33 32 21 1 31 19 20 0 0 39
split_gain=0.00656685 0.0476012 0.126021 0.13856 0.167338 0.0419262 0.112701 0.246039 0.269391 0.243124 0.581953 0.536482 0.854502 0.666421
threshold=5.0797350000000012 -14.170649999999997 0.0040955450000000008 -0.11234649999999999 -6.551814999999999e-06 -0.028607799999999999 4.8214100000000011 0.9044525000000001 0.19688900000000001 3.7476600000000006e-05 4.8265300000000009 10.000450000000003 4.4992300000000016 1.0692700000000002e-05
decision_type=2 2 2 2 2 2 2 2 2 2 2 2 2 2
left_child=5 2 3 4 -2 6 7 -1 9 10 -9 12 -12 -14
right_child=1 -3 -4 -5 -6 -7 -8 8 -10 -11 11 -13 13 -15
leaf_value=5.4571997829553261e-05 -0.0010096876517586085 -2.8158456369670546e-05 8.8495466259743189e-05 -0.0019467475388477964 -0.017676839217628266 -4.3440630746882422e-05 -7.2633346046438351e-05 0.00078602902552148796 -0.00033218502742033801 0.00090872636792571875 -0.0025848392023472117 -0.00081686057389030895 0.02433669498283416 0.0088811838008197291
leaf_weight=18595 23 61434 421 134 33 97751 31672 1082 2193 3523 125 187 75 385
leaf_count=18595 23 61434 421 134 33 97751 31672 1082 2193 3523 125 187 75 385
internal_value=0 -4.12612e-05 -0.0013587 -0.00456538 -0.0108314 1.6454e-05 0.000117683 0.000348055 0.00106897 0.00164043 0.00303082 0.00617701 0.00841265 0.0114011
internal_weight=0 62045 611 190 56 155588 57837 26165 7570 5377 1854 772 585 460
internal_count=217633 62045 611 190 56 155588 57837 26165 7570 5377 1854 772 585 460
shrinkage=0.15


Tree=1298
num_leaves=15
num_cat=0
split_feature=33 13 7 19 14 30 7 30 33 13 12 36 19 14
split_gain=0.00821957 0.119042 0.0872538 0.1075 0.0684405 0.0857718 0.0773366 0.0656525 0.0907556 0.122102 0.0730725 0.10112 0.0607429 0.124596
threshold=-4.3173299999999989e-06 -1.0135899999999997e-05 1.8518350000000002e-05 2.4128850000000005e-05 0.0010287300000000003 0.00060826400000000018 4.7790500000000003e-05 0.021374900000000006 -0.00020540699999999998 -3.9361349999999995e-05 0.00013687950000000002 1.2326750000000002 0.00010256800000000002 0.0006614075000000002
decision_type=2 2 2 2 2 2 2 2 2 2 2 2 2 2
left_child=1 2 3 -1 -4 6 -6 -7 10 -10 -9 -12 13 -2
right_child=12 -3 4 -5 5 7 -8 8 9 -11 11 -13 -14 -15
leaf_value=0.010870900695534565 8.4070735449770602e-07 -0.00015622372282434496 5.3688359931653159e-05 0.00031714845898356855 0.0020681517191002683 -3.5645375123590829e-05 0.00046870823239768408 0.0026199603933855543 0.0021630647232417353 0.017016211762384045 0.0010287812046482468 -0.0084359423943317011 -6.2286198535524507e-05 0.00047691430416828826
leaf_weight=39 44244 53220 12367 49 1409 3295 1315 240 33 20 81 37 84115 17169
leaf_count=39 44244 53220 12367 49 1409 3295 1315 240 33 20 81 37 84115 17169
internal_value=0 -4.14137e-05 0.000282134 0.00499438 0.000260073 0.000657018 0.00129603 0.00018733 0.00197493 0.00776803 0.0011173 -0.00193897 2.05193e-05 0.000133935
internal_weight=0 72105 18885 88 18797 6430 2724 3706 411 53 358 118 145528 61413
internal_count=217633 72105 18885 88 18797 6430 2724 3706 411 53 358 118 145528 61413
shrinkage=0.15


Tree=1299
num_leaves=15
num_cat=0
split_feature=2 21 24 21 33 6 13 15 3 21 23 23 18 37
split_gain=0.00621686 0.0344258 0.037228 0.0268775 0.125397 0.174825 0.211203 0.196348 0.198101 0.209057 0.185625 0.18558 0.138242 0.129336
threshold=2.7568000000000006 6.3134300000000012 1.2344650000000004 2.7095700000000007 1.7495550000000002e-06 5.7612200000000006e-06 1.2836100000000002e-05 -4.146919999999999e-08 -8.3608649999999987 3.3871600000000002 -8.0513349999999981 -11.700949999999999 1.1777600000000004e-06 -2.9806049999999992e-08
decision_type=2 2 2 2 2 2 2 2 2 2 2 2 2 2
left_child=-1 3 -3 -2 -5 6 7 8 9 11 -10 -6 -11 -12
right_child=1 2 -4 4 5 -7 -8 -9 10 12 13 -13 -14 -15
leaf_value=-6.0652326691788161e-06 0.00011571609822423471 0.00069766816711680165 -0.0046213229143177159 0.0005946483287521295 -0.008571337033063172 0.0030651315371238636 0.0015943364408147836 -0.00031196683603532924 0.00086611716473521301 -0.0093376290810201906 -0.019314192730234936 -0.025885579618625341 -0.00094751080321426782 -0.002820936536780842
leaf_weight=205851 7364 2260 30 1128 30 147 210 225 131 117 20 26 71 23
leaf_count=205851 7364 2260 30 1128 30 147 210 225 131 117 20 26 71 23
internal_value=0 0.00010597 0.000627987 -1.99701e-05 -0.000489516 -0.00171245 -0.00253579 -0.00388466 -0.00580776 -0.00856533 -0.00194083 -0.0166101 -0.00616902 -0.0104922
internal_weight=0 11782 2290 9492 2128 1000 853 643 418 244 174 56 188 43
internal_count=217633 11782 2290 9492 2128 1000 853 643 418 244 174 56 188 43
shrinkage=0.15


Tree=1300
num_leaves=15
num_cat=0
split_feature=22 2 22 2 13 2 22 13 5 10 20 20 9 2
split_gain=0.00769909 0.0429353 0.228543 0.455613 0.296243 0.289816 0.312121 0.424079 0.431773 0.376424 0.341515 0.269031 0.253221 0.228478
threshold=1.7837150000000002 1.8049350000000002 2.4928950000000003 2.4739300000000006 -6.4222549999999989e-06 2.5016900000000004 2.9399650000000004 -1.2595899999999997e-05 1.4763950000000001e-05 2.0392150000000004e-05 -6.0907299999999998 -9.4357099999999985 -3.0608749999999994e-05 2.4123000000000006
decision_type=2 2 2 2 2 2 2 2 2 2 2 2 2 2
left_child=-1 -2 3 4 12 6 7 8 9 -4 11 -11 -3 -14
right_child=1 2 5 -5 -6 -7 -8 -9 -10 10 -12 -13 13 -15
leaf_value=-1.4697816798652742e-05 -2.5072126085776144e-05 0.00043931991821006151 -0.0041110085753080922 -0.00058842066128878283 -0.00053523259607899168 0.00063798743455072864 0.00083665282906506618 8.9943367419912748e-05 -0.0022597689119949948 -0.010124115132070569 -0.0060242592431181529 -0.025409911373364073 0.0035098763683136559 0.011913757595711534
leaf_weight=171176 35685 665 189 2364 711 2821 793 671 575 44 77 63 1723 76
leaf_count=171176 35685 665 189 2364 711 2821 793 671 575 44 77 63 1723 76
internal_value=0 5.41558e-05 0.000316618 0.000988181 0.00216207 -0.000394214 -0.00160144 -0.00279564 -0.00483808 -0.00881269 -0.0136421 -0.0191242 0.00294039 0.0038649
internal_weight=0 46457 10772 5539 3175 5233 2412 1619 948 373 184 107 2464 1799
internal_count=217633 46457 10772 5539 3175 5233 2412 1619 948 373 184 107 2464 1799
shrinkage=0.15


Tree=1301
num_leaves=15
num_cat=0
split_feature=20 11 2 10 9 32 6 21 1 27 27 30 5 6
split_gain=0.00643183 0.0604385 0.0507718 0.0633652 0.0769728 0.0706803 0.0540096 0.0695685 0.254582 0.191279 0.1767 0.385602 0.131534 0.205751
threshold=-8.0805949999999971 0.00010781500000000002 -2.3232449999999996 2.2747850000000006e-05 -2.1801549999999998e-05 0.022153650000000004 -3.3417049999999996e-06 -5.9280049999999997 -4.9060199999999989 2.0810500000000007 1.6301050000000001 0.00036147050000000003 1.2512950000000002e-05 -7.0294249999999992e-06
decision_type=2 2 2 2 2 2 2 2 2 2 2 2 2 2
left_child=1 2 3 4 -1 -6 7 8 10 -10 11 12 -5 -14
right_child=-2 -3 -4 6 5 -7 -8 -9 9 -11 -12 -13 13 -15
leaf_value=-0.0093297691671882371 -9.7064747342588958e-06 -0.00049336443888491099 0.00025358864800049811 0.014300001966767012 -0.0038527484207761362 0.0061092327232472599 0.00023082741578959017 -0.0014227851909378968 -0.014636268323374679 0.0020356316887773572 -0.0027861932176474896 0.026454398661319701 0.0061836428367695222 -0.012231856221333147
leaf_weight=38 190624 3715 19643 20 59 22 2145 1174 32 30 47 21 43 20
leaf_count=38 190624 3715 19643 20 59 22 2145 1174 32 30 47 21 43 20
internal_value=0 6.85063e-05 0.000158115 -0.000355548 -0.00376 -0.00114703 -0.000240845 -0.000970289 0.00152375 -0.00656922 0.00484669 0.00829617 0.00370192 0.000337453
internal_weight=0 27009 23294 3651 119 81 3532 1387 213 62 151 104 83 63
internal_count=217633 27009 23294 3651 119 81 3532 1387 213 62 151 104 83 63
shrinkage=0.15


Tree=1302
num_leaves=15
num_cat=0
split_feature=1 28 21 10 1 24 14 23 21 4 4 14 1 26
split_gain=0.00580371 0.0359618 0.0931168 0.125769 0.121993 0.198499 0.153693 0.143329 0.190273 0.359988 0.117896 0.16612 0.141395 0.118926
threshold=5.0797350000000012 0.0038418400000000004 4.8214100000000011 3.1905250000000004e-05 10.481450000000002 0.31915200000000005 0.0036607600000000003 -10.756049999999997 4.060175000000001 -0.041887649999999992 0.15990500000000005 0.00017734350000000003 5.2110150000000006 -6.9930049999999979e-05
decision_type=2 2 2 2 2 2 2 2 2 2 2 2 2 2
left_child=-1 -2 3 4 5 6 10 -7 -9 -10 11 -3 -13 -12
right_child=1 2 -4 -5 -6 7 -8 8 9 -11 13 12 -14 -15
leaf_value=1.5468464304125656e-05 4.9018328434090096e-05 -0.00096851693023798473 5.5114236371155621e-05 9.8132912252428886e-05 0.00016328310200354023 -0.0012253135233229338 -0.00054377483256894414 0.0012921425464114957 -0.00071123615780379625 0.026537178635189774 -0.0049154298152123887 -0.01617153178946034 -0.0042800719104625377 0.00077308792676341925
leaf_weight=155588 38992 406 14000 3780 1402 607 924 408 24 20 112 23 1031 316
leaf_count=155588 38992 406 14000 3780 1402 607 924 408 24 20 112 23 1031 316
internal_value=0 -3.87897e-05 -0.000187309 -0.000562204 -0.00103557 -0.00146977 -0.00212895 0.00028055 0.00230281 0.0116744 -0.00290474 -0.00354652 -0.00453956 -0.000715496
internal_weight=0 62045 23053 9053 5273 3871 2812 1059 452 44 1888 1460 1054 428
internal_count=217633 62045 23053 9053 5273 3871 2812 1059 452 44 1888 1460 1054 428
shrinkage=0.15


Tree=1303
num_leaves=15
num_cat=0
split_feature=22 6 3 25 15 18 3 13 33 1 21 11 33 15
split_gain=0.00639727 0.0480734 0.0677652 0.0655211 0.101067 0.159819 0.148301 0.213067 0.310866 0.210429 0.542347 0.178423 0.267538 0.395681
threshold=1.7837150000000002 1.8610000000000003e-07 -6.1122599999999991 0.27484350000000007 -4.0359749999999992e-07 1.1450250000000003e-05 -7.1932899999999984 -3.6029199999999995e-06 3.6458700000000006e-06 8.9700450000000007 5.4316850000000008 -1.8165949999999995e-05 7.919650000000003e-06 3.5786550000000005e-07
decision_type=2 2 2 2 2 2 2 2 2 2 2 2 2 2
left_child=-1 2 -2 4 5 -3 7 8 -6 11 -11 12 13 -10
right_child=1 3 -4 -5 6 -7 -8 -9 9 10 -12 -13 -14 -15
leaf_value=-1.3397705126175841e-05 0.00032445876315356168 0.001148610326969115 -0.00029548623223805878 6.3490265825844481e-05 -0.00026464353489967805 -0.0014242708074231336 3.5718643448579526e-05 -5.8567884021840658e-05 -0.027257248378523131 0.00074310338291663509 -0.033031112439930441 -0.0031230300980731149 -0.0030150197760225568 -0.0042001278372481464
leaf_weight=171176 19147 1621 5004 15359 597 817 2036 1040 34 23 20 647 79 33
leaf_count=171176 19147 1621 5004 15359 597 817 2036 1040 34 23 20 647 79 33
internal_value=0 4.93653e-05 0.000196008 -0.000109407 -0.000491663 0.00028641 -0.000912364 -0.00169291 -0.00287904 -0.00474602 -0.0149658 -0.00419185 -0.00892834 -0.0159008
internal_weight=0 46457 24151 22306 6947 2438 4509 2473 1433 836 43 793 146 67
internal_count=217633 46457 24151 22306 6947 2438 4509 2473 1433 836 43 793 146 67
shrinkage=0.15


Tree=1304
num_leaves=15
num_cat=0
split_feature=3 21 34 25 12 21 21 39 25 34 32 39 20 22
split_gain=0.00595059 0.0422932 0.110353 0.134912 0.100225 0.0941375 0.0736841 0.0592563 0.0735357 0.0591753 0.0556626 0.0528868 0.055213 0.0513601
threshold=-17.495099999999997 -3.8797499999999996 0.17356000000000002 0.45306850000000004 -0.00037996049999999994 -3.7462599999999999 3.7587400000000004 0.0007702805000000002 5.8526700000000007 0.019958900000000005 0.097279100000000021 0.12384550000000001 -5.9130249999999984 -2.8252699999999993
decision_type=2 2 2 2 2 2 2 2 2 2 2 2 2 2
left_child=1 2 -1 -4 7 10 9 -5 -9 -7 -3 -8 -13 -11
right_child=-2 5 3 4 -6 6 11 8 -10 13 -12 12 -14 -15
leaf_value=-4.4271959071100888e-05 3.8698874915545665e-06 0.0018862762056025011 -0.011240107987116341 -0.0014687094552241235 -0.00047303305550421628 -0.00098419239821821735 -0.00053151894099884528 -0.014032878048019485 -0.0043094048725574137 -0.0014560530116205564 0.012943353937589563 -0.00038470435867329005 -0.010669400775805115 0.0014401645863526993
leaf_weight=1207 212461 21 39 46 284 372 1603 30 42 154 20 23 24 1307
leaf_count=1207 212461 21 39 46 284 372 1603 30 42 154 20 23 24 1307
internal_value=0 -0.000158971 -0.000786216 -0.00281689 -0.00199971 0.00013436 5.02454e-05 -0.00567408 -0.00836085 0.000704825 0.00727997 -0.000676933 -0.00563646 0.00113488
internal_weight=0 5172 1648 441 402 3524 3483 118 72 1833 41 1650 47 1461
internal_count=217633 5172 1648 441 402 3524 3483 118 72 1833 41 1650 47 1461
shrinkage=0.15


Tree=1305
num_leaves=15
num_cat=0
split_feature=23 14 14 23 23 14 2 6 33 0 28 22 14 0
split_gain=0.00572784 0.0291085 0.0858239 0.105244 0.0817049 0.132942 0.0903121 0.105563 0.146328 0.0890274 0.0682793 0.0538575 0.0419682 0.0414383
threshold=-10.364449999999998 0.00030621600000000005 0.00012656100000000005 -17.743599999999997 -10.7143 0.00025343850000000004 -0.48940749999999994 2.0812600000000005e-06 5.5007900000000009e-06 7.2016400000000003 0.0015690750000000003 2.8618250000000005 0.00028247300000000004 -9.801264999999999
decision_type=2 2 2 2 2 2 2 2 2 2 2 2 2 2
left_child=1 2 -1 -4 13 11 12 9 -9 10 -8 -6 -7 -5
right_child=-2 -3 3 4 5 6 7 8 -10 -11 -12 -13 -14 -15
leaf_value=-3.9504750202058698e-05 -2.042560595094655e-05 -3.4870832097876709e-05 -0.00058568638372477947 -0.00028938602895605385 -9.2827994246493157e-05 0.0032592332480003519 0.0066632685497593647 -0.0036417121533304452 -0.021369477239469151 -0.010166261535939863 -0.0052944696358671146 0.0058742525895164963 -0.0043177801678117751 0.00089371682236145619
leaf_weight=20742 127679 57657 1793 725 623 38 22 20 22 27 21 36 29 8199
leaf_count=20742 127679 57657 1793 725 623 38 22 20 22 27 21 36 29 8199
internal_value=0 2.89917e-05 0.000143 0.000470608 0.000664619 -0.000751512 -0.00437658 -0.00698253 -0.0129277 -0.00341544 0.000823443 0.000233143 -2.03696e-05 0.0007976
internal_weight=0 89954 32297 11555 9762 838 179 112 42 70 43 659 67 8924
internal_count=217633 89954 32297 11555 9762 838 179 112 42 70 43 659 67 8924
shrinkage=0.15


Tree=1306
num_leaves=15
num_cat=0
split_feature=19 23 13 23 14 22 22 11 5 1 23 22 0 23
split_gain=0.0054249 0.0300989 0.0346128 0.028651 0.0962539 0.0813363 0.265211 0.318121 0.325587 0.253534 0.21422 0.196386 1.40671 0.961946
threshold=0.0023004300000000004 -6.5295149999999991 9.8553700000000012e-05 -10.618199999999998 0.0039324400000000006 -1.2112899999999998 -0.66738199999999981 2.5658450000000005e-05 2.3777800000000005e-05 -3.4741849999999999 -9.3210949999999979 -0.20827799999999999 6.6519700000000013 -8.2315849999999973
decision_type=2 2 2 2 2 2 2 2 2 2 2 2 2 2
left_child=-1 3 -3 -2 5 -5 7 -7 9 10 -9 12 -8 -14
right_child=1 2 -4 4 -6 6 11 8 -10 -11 -12 -13 13 -15
leaf_value=-1.4366165048208395e-05 -4.8795872779162076e-05 -0.00072312924483227379 2.5921017801118833e-05 0.0014105371959072922 1.8016841134320634e-05 0.0010880194919488584 -0.00050222790844862931 -0.024703060722888703 0.0016866084906916297 -0.0043943668992535486 -0.0099014321143675432 0.00033869092946233723 0.02975922910116071 -0.00011743251295564206
leaf_weight=159090 23556 2392 3307 2196 22078 255 412 33 85 111 66 3947 67 38
leaf_count=159090 23556 2392 3307 2196 22078 255 412 33 85 111 66 3947 67 38
internal_value=0 3.90399e-05 -0.000288472 7.43607e-05 0.000173414 0.000649262 0.000315843 -0.00279212 -0.00614613 -0.00931652 -0.0148353 0.000698768 0.00344775 0.0189467
internal_weight=0 58543 5699 52844 29288 7210 5014 550 295 210 99 4464 517 105
internal_count=217633 58543 5699 52844 29288 7210 5014 550 295 210 99 4464 517 105
shrinkage=0.15


Tree=1307
num_leaves=15
num_cat=0
split_feature=33 13 13 34 7 3 33 6 21 8 8 13 5 23
split_gain=0.00568048 0.0837508 0.109324 0.156633 0.150712 0.249985 0.183567 0.140542 0.111351 0.319892 0.173077 0.121585 0.100261 0.0992518
threshold=-4.3173299999999989e-06 9.555065000000002e-06 1.5755450000000002e-05 0.016847400000000002 2.7280100000000003e-05 -6.3035799999999993 -5.572309999999999e-06 -7.5924149999999995e-07 -5.3390999999999993 9.7788450000000017e-06 4.1546100000000007e-06 1.1238550000000003e-05 1.1264650000000002e-05 -8.2979299999999991
decision_type=2 2 2 2 2 2 2 2 2 2 2 2 2 2
left_child=1 -1 3 4 6 7 -3 8 9 -6 11 -10 -13 -8
right_child=-2 2 -4 -5 5 -7 13 -9 10 -11 -12 12 -14 -15
leaf_value=0.00014814545513905817 1.7058101979322547e-05 -0.0052578105016008901 -7.9299455577414526e-05 -0.00052256664448677701 -0.0056246247838915714 -0.00024275380246638646 0.01722103754756972 -6.9055793937877757e-05 -0.019914418084546921 -0.027152589010074734 -0.0013975252731868264 -0.00062862587833984027 -0.012650271682414805 0.0029134579497622328
leaf_weight=31688 145528 34 34882 4950 41 219 20 54 25 25 79 27 37 24
leaf_count=31688 145528 34 34882 4950 41 219 20 54 25 25 79 27 37 24
internal_value=0 -3.4428e-05 -0.00017757 -0.000796882 -0.00311801 -0.00406236 0.00302023 -0.00696684 -0.00855864 -0.0137792 -0.00650773 -0.0110437 -0.00757864 0.0094169
internal_weight=0 72105 40417 5535 585 507 78 288 234 66 168 89 64 44
internal_count=217633 72105 40417 5535 585 507 78 288 234 66 168 89 64 44
shrinkage=0.15


Tree=1308
num_leaves=15
num_cat=0
split_feature=24 18 17 11 17 0 17 1 6 6 2 13 16 11
split_gain=0.00532824 0.0341015 0.123094 0.032077 0.0282804 0.0237964 0.0187035 0.039686 0.0175788 0.0221919 0.0212712 0.0163674 0.0139788 0.0131634
threshold=-2.2351899999999998 -0.0011624699999999999 -2.8136049999999996e-05 -0.00023831399999999997 -3.1052299999999995e-06 1.4045800000000002 -6.5767799999999986e-08 -2.3048549999999994 5.340575000000001e-07 2.5326700000000007e-07 2.7568000000000006 -5.3645549999999997e-05 1.1091500000000002e-05 4.6435250000000009e-05
decision_type=2 2 2 2 2 2 2 2 2 2 2 2 2 2
left_child=1 2 3 -1 12 -5 7 -6 9 -8 11 -10 -3 -13
right_child=-2 4 -4 5 6 -7 8 -9 10 -11 -12 13 -14 -15
leaf_value=-0.004407512922189198 -1.5022860870996071e-06 -0.0011284957083104096 0.010044033204515775 0.0057967473390453965 0.0068597626561313517 -0.00097769365695837352 -0.00041874423624121824 -0.0011265464440969352 -0.002870822213590145 -0.0055610404131584803 0.0047759984960846066 0.00031213723440134744 -0.006481261036398271 0.003043713490686579
leaf_weight=30 216745 23 36 20 28 28 338 28 30 20 28 209 21 49
leaf_count=30 216745 23 36 20 28 28 338 28 30 20 28 209 21 49
internal_value=0 0.000366681 0.00278877 -0.000559819 9.94024e-06 0.00184499 0.000232542 0.00286661 1.36878e-05 -0.000706023 0.000829057 0.000445326 -0.00368322 0.000830925
internal_weight=0 888 114 78 774 48 730 56 674 358 316 288 44 258
internal_count=217633 888 114 78 774 48 730 56 674 358 316 288 44 258
shrinkage=0.15


Tree=1309
num_leaves=15
num_cat=0
split_feature=25 3 10 16 23 7 19 19 10 23 23 15 5 3
split_gain=0.00539905 0.0384931 0.0378719 0.068278 0.0833417 0.112893 0.118282 0.062207 0.0538894 0.131086 0.0323142 0.0299536 0.073344 0.05251
threshold=26.434800000000003 -8.2790849999999967 2.7716350000000004e-05 1.5595000000000003e-06 -8.2979299999999991 3.1541050000000005e-05 6.3072250000000013e-05 2.1691500000000004e-05 2.9322450000000002e-05 -8.2979299999999991 -12.940099999999997 -5.5362349999999989e-07 1.1390100000000001e-05 -8.548074999999999
decision_type=2 2 2 2 2 2 2 2 2 2 2 2 2 2
left_child=-1 11 3 -3 7 -6 -7 -5 9 -4 -9 12 -2 -14
right_child=1 2 8 4 5 6 -8 10 -10 -11 -12 -13 13 -15
leaf_value=4.4331642545788101e-06 -0.0023394669486587641 -0.00067488275164407643 -0.001354778561104393 0.0066316096665104849 -0.017094701317255385 -0.011252034255303441 0.0014223567536965993 -0.0073257336509414015 -0.00027489980995120219 0.010767144903708385 -0.00072921635202047492 0.00054616266341099128 -9.1720140210529188e-06 0.0043887488728684663
leaf_weight=210231 317 949 49 20 20 30 37 24 2473 34 55 2315 1014 65
leaf_count=210231 317 949 49 20 20 30 37 24 2473 34 55 2315 1014 65
internal_value=0 -0.00012591 -0.000468901 -0.00118994 -0.00381785 -0.00720492 -0.00425274 -0.000841337 -0.00014872 0.00361083 -0.00273322 0.000215231 -0.000333555 0.000255763
internal_weight=0 7402 3691 1135 186 87 67 99 2556 83 79 3711 1396 1079
internal_count=217633 7402 3691 1135 186 87 67 99 2556 83 79 3711 1396 1079
shrinkage=0.15


Tree=1310
num_leaves=15
num_cat=0
split_feature=5 32 15 15 18 36 21 4 33 8 8 35 16 7
split_gain=0.00537797 0.0287797 0.0897889 0.0829185 0.069067 0.101041 0.0699554 0.133243 0.186413 0.0977527 0.146478 0.116984 0.0939665 0.0669153
threshold=1.6615200000000003e-05 0.23882650000000002 -9.647814999999997e-09 -3.3980299999999994e-07 -6.7200249999999984e-05 0.010676500000000002 -4.6242149999999986 0.25797000000000009 -5.7715749999999999e-06 1.4966500000000001e-05 1.3264350000000001e-05 0.0025243150000000005 1.1210250000000002e-06 2.4290550000000001e-05
decision_type=2 2 2 2 2 2 2 2 2 2 2 2 2 2
left_child=1 -1 3 -3 5 -5 7 9 -9 10 12 -12 -6 -4
right_child=-2 2 13 4 6 -7 -8 8 -10 -11 11 -13 -14 -15
leaf_value=5.0831640136234522e-05 -2.647573737082134e-05 -0.00020865067984396338 -0.001751584270091374 -5.6697480613365765e-05 0.00099789548634261521 0.014190569546605858 -4.0885528385943288e-05 0.014624308239619591 -0.0027257931040367109 0.0088129147072322656 -0.00032387859094887967 -0.015321512903425503 0.0096101562739430175 -0.00035233635291812319
leaf_weight=104017 96267 4739 848 24 1670 21 1622 38 22 36 25 22 29 8253
leaf_count=104017 96267 4739 848 24 1670 21 1622 38 22 36 25 22 29 8253
internal_value=0 2.10004e-05 -0.000157854 0.000200601 0.000753307 0.00659203 0.000677458 0.00131001 0.0082626 0.00107591 0.000916386 -0.00734405 0.0011449 -0.000482713
internal_weight=0 121366 17349 8248 3509 45 3464 1842 60 1782 1746 47 1699 9101
internal_count=217633 121366 17349 8248 3509 45 3464 1842 60 1782 1746 47 1699 9101
shrinkage=0.15


Tree=1311
num_leaves=15
num_cat=0
split_feature=23 3 14 23 3 3 23 23 30 37 23 23 3 23
split_gain=0.0056804 0.064167 0.130039 0.460007 0.371333 0.400073 0.573081 0.361358 0.278987 0.248386 0.372013 0.235236 0.581914 0.340156
threshold=-10.364449999999998 -12.042299999999999 0.0034191400000000006 -12.162849999999999 -14.260649999999998 -12.278849999999998 -11.973149999999999 -11.124149999999998 0.0016200050000000001 9.5700800000000007e-08 -11.472849999999999 -14.361299999999998 -14.602749999999999 -16.783199999999997
decision_type=2 2 2 2 2 2 2 2 2 2 2 2 2 2
left_child=1 2 3 11 -5 7 -7 8 -6 -8 -11 13 -13 -1
right_child=-2 -3 -4 4 5 6 9 -9 -10 10 -12 12 -14 -15
leaf_value=0.00084670349190014906 -2.0340836591132824e-05 9.9296037800758908e-05 6.9184860732672372e-05 0.00032981519289361646 -0.0098576373119374314 0.021419885951387375 -0.0055859235586946231 -0.0024390719773800811 -0.0023285024626238738 0.023055663015693426 -0.0011501187013636808 -0.0035495174163753191 0.0023645912650360847 -0.0023257162513170052
leaf_weight=1415 127679 68719 13951 619 423 29 114 525 150 20 50 471 1824 1644
leaf_count=1415 127679 68719 13951 619 423 29 114 525 150 20 50 471 1824 1644
