tree
version=v3
num_class=1
num_tree_per_iteration=1
label_index=0
max_feature_idx=40
objective=regression
feature_names=feature_1 feature_2 feature_3 feature_4 feature_5 feature_6 feature_7 feature_10 feature_11 feature_12 feature_14 feature_15 feature_16 feature_17 feature_18 feature_19 feature_20 feature_21 feature_22 feature_23 feature_24 feature_25 feature_26 feature_27 feature_28 feature_29 feature_30 feature_31 feature_33 feature_34 feature_35 feature_36 feature_37 feature_38 feature_39 feature_40 feature_3_diff_feature_23 feature_23_ratio_feature_3 feature_3_ratio_feature_23 feature_4_ratio_feature_24 feature_24_ratio_feature_4
feature_infos=[-15.939299999999999:15.947900000000001] [-16.752600000000001:16.742699999999999] [-3.1493500000000001:3.1712600000000002] [-20.337599999999998:-4.4050799999999999] [-76.333299999999994:81.104100000000003] [4.7191799999999999e-06:0.024492400000000001] [-0.0134629:0.0043453500000000004] [-0.0042041600000000002:0.0042393500000000002] [5.16389e-06:0.0043024400000000003] [-0.0307505:0.44305499999999998] [-0.0015938:0.16405600000000001] [1.1073199999999999e-05:8.1351999999999993] [-0.051134800000000001:2.89988] [-1.6246700000000001:0.29819499999999999] [-0.0342528:1.09792] [-12.1029:53.042499999999997] [3.4101299999999998e-11:351.17200000000003] [-54.533999999999999:55.582099999999997] [-54.234499999999997:40.377200000000002] [-3.1409400000000001:3.1415299999999999] [-52.629199999999997:-3.9076399999999998] [-15.932700000000001:8.9071200000000008] [0.13626099999999999:426.577] [-2.75034:1.68068] [0.119494:426.75] [-9.53993:25.175699999999999] [-26.306100000000001:16.1218] [4.0056099999999998e-05:10.1328] [-1201.8099999999999:402.52300000000002] [-0.609962:0.153891] [0.0015259:23287.5] [-419.49400000000003:113.274] [-96.991100000000003:223.089] [-0.0093706699999999993:0.110289] [-4322.8400000000001:2111.3200000000002] [3.4248799999999999e-07:802.66200000000003] [-6.2414699999999996:6.2264600000000003] [-6.2264600000000003:6.2414699999999996] [-6.2414699999999996:6.2264600000000003] [-15.002770000000002:47.938089999999995] [-47.938089999999995:15.002770000000002]
tree_sizes=2877 2932 2922 2929 2935 2893 2947 2900 2874 2895 2933 2953 2905 2923 2950 2925 2954 2927 2906 2932 2900 2882 2899 2905 2922 2892 2939 2890 2920 2957 2916 2933 2930 2936 2922 2926 2944 2911 2917 2926 2940 2922 2936 2893 2961 2901 2937 2907 2961 2932 2925 2935 2918 2946 2971 2913 2939 2950 2907 2919 2899 2878 2960 2945 2855 2923 2922 2873 2922 2917 2922 2875 2953 2926 2874 2914 2947 2898 2950 2967 2894 2872 2944 2961 2932 2920 2967 2898 2895 2902 2938 2958 2918 2914 2956 2907 2905 2881 2950 2891 2977 2933 2904 2948 2915 2886 2945 2970 2947 2890 2937 2970 2894 2897 2993 2966 2950 2937 2947 2984 2978 2921 2946 2921 2984 2986 2931 2928 2949 2908 2928 2940 2941 2959 2981 2959 2932 2953 2948 2900 2942 2968 2950 2969 2972 2939 2975 2955 2972 2936 2957 2947 2903 2954 2946 2954 2924 2980 3000 2941 2905 2952 2965 2948 2943 2984 2941 2981 2958 2978 2977 2939 2943 2960 2980 2984 2955 2918 2916 2938 2996 2952 2980 2989 2977 2963 2989 2954 2982 2982 2939 2953 2969 3004 2957 2919 2978 2902 2982 2923 2990 2962 2968 2987 2988 2924 2926 2958 2986 2995 2978 2958 2944 2955 2982 2928 2942 3002 2951 2943 3001 2994 2961 2972 2951 2929 2968 2926 2929 2994 2931 2979 2989 2944 2967 2975 2983 2941 3009 2973 2940 2962 2963 2916 2948 2995 2915 2945 2931 2988 2996 2943 2978 3017 2964 2975 2953 2956 2975 2961 2938 2974 3000 2990 2950 2944 2971 2986 2970 2959 2958 2982 2938 2995 2957 2953 3012 2969 2977 2964 2919 2985 2957 3010 2954 2955 3013 2994 2949 2898 2969 2985 2947 2994 2950 2900 2952 3022 2977 2990 2949 3029 2946 3015 2974 3014 2981 3022 2973 2983 2931 2949 2949 2992 2981 2986 2989 2943 3000 2939 2966 2964 3004 2941 3001 2967 3021 2922 2945 3012 2983 3003 2927 2974 2965 2952 2986 2923 2981 2982 3014 2972 2979 3050 2971 2994 2999 2990 3009 2974 2998 3020 3006 2976 2974 2977 2976 2960 3003 2989 2952 3010 2964 2982 2955 2983 3016 2999 2997 2989 2944 2990 3030 3028 3000 2950 2988 2984 2941 2985 2976 2975 3001 3010 2961 3005 3004 2994 2962 2965 2984 2954 2951 2953 2979 2959 3013 2983 2975 2972 2974 2961 2971 2942 2974 2981 2995 2958 2976 2963 2989 3004 2972 2992 2968 2973 2966 2951 3004 2935 2991 2980 3025 3000 2942 3019 3004 2996 3009 2994 2964 3002 2999 2944 3011 2980 3004 2971 2995 2984 2977 2988 2983 2922 2988 3020 2986 2978 2992 3004 3005 2992 2989 3038 3004 3014 2950 3010 2969 2966 3035 2987 2977 2978 2992 2991 2988 2989 3012 2978 2955 2944 2967 2982 3018 3014 2975 2916 3001 2994 2990 3013 2992 2970 3004 3023 2973 2970 2969 2929 2995 2980 2960 3014 3014 2939 2963 2987 2971 3007 3005 3010 2992 2985 2980 2935 3015 3010 3022 2988 2980 2980 3042 2971 3047 2974 2974 3000 2969 2918 2949 3002 3024 3024 2968 3002 2991 3006 3030 3002 2959 2993 2990 2979 3008 2987 2968 3006 3009 2994 3010 2978 3014 2990 2993 2985 2971 2989 2901 2969 2955 3040 2977 2997 3009 2987 3058 3007 2981 2975 3002 3026 2990 3002 2958 2985 3035 3001 3009 3003 3007 3019 2986 2990 2976 3011 3001 2984 3004 3002 2978 3014 2991 2967 2961 2991 2996 2998 3007 2992 2983 3008 3009 2969 2996 2929 2989 3000 3040 2980 2967 2924 2961 2999 3011 2974 2996 3005 2977 2996 2970 3020 2949 2989 2977 3054 2987 3011 2967 3009 3003 3011 3021 3015 2965 3008 2991 3028 2975 2994 3006 3000 3034 3003 2994 2976 3012 3028 3008 2984 3007 3001 2990 2993 2975 3007 2972 3042 2974 3033 2985 2958 3013 3023 2979 2965 3017 3005 2965 3034 2981 3029 2972 2969 2970 2977 2998 3012 3046 2973 2981 3011 3014 2980 2960 3010 3006 2989 3030 2986 3000 2959 2920 2989 3035 3009 2984 2949 3034 3002 3042 2977 2976 3021 2977 2993 3005 2988 3029 3059 3029 2972 3006 2972 2969 2989 2992 3003 3015 2982 2996 3017 3019 2995 2973 2999 3022 2974 2999 3006 2973 2970 2974 3023 2991 3007 3009 3013 2940 3012 2947 2974 2968 2990 3041 3022 2983 3012 2984 2940 2999 2999 2954 2990 2996 2970 3013 3003 2975 3026 3006 2976 3103 3007 3002 2998 3007 3014 2964 3078 2964 2986 2981 2964 3030 2995 2980 3005 2991 2970 3027 2993 3017 3037 2982 3025 3031 3034 3000 3015 2994 3024 3022 3002 2988 2982 3030 2971 3040 2996 2938 2997 2975 2996 2983 3010 3016 2999 2989 2977 3007 2974 3040 3030 2966 3021 2979 3014 3011 3004 3057 2962 3051 2986 2982 3018 3027 2980 2984 2967 2999 2975 2990 2985 3067 3065 3001 2978 3062 2989 3001 3006 2997 3045 2995 3093 3006 2994 3010 2966

Tree=0
num_leaves=31
num_cat=0
split_feature=39 40 37 36 37 4 4 35 39 30 37 37 36 27 10 39 30 36 3 18 11 37 30 36 36 30 40 36 37 36
split_gain=220.221 943.737 804.671 3116.64 144.001 62.6024 62.2557 38.8312 34.7648 42.4108 53.7534 279.231 23.9239 31.4501 19.3154 16.3439 34.1419 13.3977 11.3815 9.11966 9.00127 8.18682 11.9493 7.95843 41.2119 7.49291 7.89636 10.4337 60.6406 13.6584
threshold=0.80790999999999979 0.31988499999999936 -0.15132349999999997 -0.079468000000000025 -0.057539999999999918 -1.2205099999999998 1.4464300000000001 2.9142450000000004e-05 -0.82558500000000012 0.034131950000000001 0.19792950000000006 -0.10141500000000002 -0.14969009999999991 0.0013551150000000003 0.00021504100000000004 0.47541999999999979 0.021266050000000005 -0.079468000000000025 -15.732949999999999 -7.1421249999999992 0.00015284250000000002 0.057875000000000128 0.041331900000000012 -0.30278099999999991 0.10022550000000004 0.209427 2.014730000000001 0.354709 0.24875600000000014 0.12375499999999996
decision_type=2 2 2 2 2 2 2 2 2 2 2 2 2 2 2 2 2 2 2 2 2 2 2 2 2 2 2 2 2 2
left_child=1 2 -1 12 7 -6 15 -5 25 -10 11 -11 -4 -14 17 21 -17 -13 23 -19 -18 -7 -23 -2 -25 -3 27 28 29 -27
right_child=18 8 3 4 5 6 -8 -9 9 10 -12 14 13 -15 -16 16 20 19 -20 -21 -22 22 -24 24 -26 26 -28 -29 -30 -31
leaf_value=0.033387846447035824 0.033338903038628548 0.033251324556012866 0.033384128200574757 0.03670348680330434 0.038704542493786909 0.082024730688140951 0.03580743962906166 0.064889426019619639 0.033670770039831398 0.034194046889788533 0.03353054987761811 0.055987814583903575 0.035014160751864851 0.067663818188241326 0.034725188558905676 0.035796243928335907 0.047793370231039183 0.047210036904225108 0.033379752651187318 0.078091206577382666 0.079559242891900903 0.041543370300888373 0.077833692475957575 0.065956515567956314 0.034853229530586102 0.060400369083095637 0.033859920758445489 0.033421185706976178 0.033554864643040444 0.040710036976868265
leaf_weight=9842 388 59340 9765 229 91 5526 77 262 4775 1626 1560 90 194 119 33 58 24 25 111952 547 315 30 93 142 426 331 7309 1184 1160 120
leaf_count=9842 388 59340 9765 229 91 5526 77 262 4775 1626 1560 90 194 119 33 58 24 25 111952 547 315 30 93 142 426 331 7309 1184 1160 120
internal_value=0.0349579 0.0366094 0.0447387 0.0513951 0.0778111 0.0798708 0.0804826 0.0517436 0.0338381 0.036826 0.0407081 0.0455323 0.0338203 0.0474273 0.072059 0.0810516 0.0712453 0.07392 0.0334261 0.0767415 0.0773103 0.0817407 0.0689824 0.0388586 0.0426291 0.0334656 0.0347243 0.0369846 0.0396036 0.0551613
internal_weight=0 104725 26625 16783 6705 6214 6123 491 78100 8656 3881 2321 10078 313 695 6046 397 662 112908 572 339 5649 123 956 568 69444 10104 2795 1611 451
internal_count=217633 104725 26625 16783 6705 6214 6123 491 78100 8656 3881 2321 10078 313 695 6046 397 662 112908 572 339 5649 123 956 568 69444 10104 2795 1611 451
shrinkage=1


Tree=1
num_leaves=31
num_cat=0
split_feature=39 40 37 36 37 4 4 35 39 30 37 37 36 27 39 30 4 4 3 11 18 37 30 36 36 36 30 36 11 40
split_gain=198.749 851.722 726.216 2812.77 129.961 56.4987 56.1858 35.0451 31.3752 38.3688 46.3624 224.083 21.5913 28.3837 14.7504 30.8131 13.7649 12.4424 10.2881 8.12364 7.72732 7.3886 10.7842 6.80571 36.5424 7.14175 6.78471 6.68868 6.16492 6.15538
threshold=0.80790999999999979 0.31988499999999936 -0.15132349999999997 -0.079468000000000025 -0.057539999999999918 -1.2205099999999998 1.4464300000000001 2.9142450000000004e-05 -0.82558500000000012 0.052080500000000009 0.19792950000000006 -0.10141500000000002 -0.14969009999999991 0.0013551150000000003 0.47541999999999979 0.021266050000000005 -2.0429399999999993 1.7937450000000001 -15.867949999999999 0.00015284250000000002 -7.7245449999999991 0.057875000000000128 0.041331900000000012 -0.30278099999999991 0.10022550000000004 -0.12496499999999998 0.2810120000000001 0.24966499999999994 0.00010873100000000003 2.3013500000000007
decision_type=2 2 2 2 2 2 2 2 2 2 2 2 2 2 2 2 2 2 2 2 2 2 2 2 2 2 2 2 2 2
left_child=1 2 -1 12 7 -6 14 -5 26 -10 11 27 -4 -14 21 -16 -13 20 23 -17 -18 -7 -23 -2 25 -25 -3 -11 -9 -28
right_child=18 8 3 4 5 6 -8 28 9 10 -12 16 13 -15 15 19 17 -19 -20 -21 -22 22 -24 24 -26 -27 29 -29 -30 -31
leaf_value=-0.0014915829725764894 -0.0015190162249570768 -0.0016034610538711571 -0.0014951153310121664 0.0016582755469534078 0.0035592784429644489 0.044713456544808045 0.00080703070701716782 0.001755528785288334 -0.00075201014157191999 0.013674912902598197 -0.0012797020080070648 -0.0023824527013030922 5.3415725910172022e-05 0.03107059160951807 0.00079639475985333842 0.012193664574685197 0.012804668891028718 0.001881940411808698 -0.0014969424650507516 0.042371243102446443 0.040727208869662523 0.0062561647966504104 0.040731970429100019 0.0096053997114781409 -7.1710382604966741e-05 0.037106213899272864 0.0017909962542688282 -0.0014246861391218459 0.030639826090744705 -0.0010479471661186824
leaf_weight=9842 338 60846 9765 229 91 5526 77 20 5492 78 1260 22 194 119 58 24 26 23 112051 315 527 30 93 31 389 99 2862 1228 242 5736
leaf_count=9842 338 60846 9765 229 91 5526 77 20 5492 78 1260 22 194 119 58 24 26 23 112051 315 527 30 93 31 389 99 2862 1228 242 5736
internal_value=0 0.00156891 0.0092917 0.0156153 0.0407105 0.0426672 0.0432484 0.0159464 -0.00106386 0.00177469 0.00616047 0.0110841 -0.00108077 0.0118459 0.043789 0.034473 0.0364332 0.0379157 -0.0014552 0.0402348 0.0394144 0.0444437 0.0323232 0.00400229 0.00759805 0.0305483 -0.00141768 -0.000522872 0.0284349 -0.000102953
internal_weight=0 104725 26625 16783 6705 6214 6123 491 78100 8656 3164 1904 10078 313 6046 397 598 576 112908 339 553 5649 123 857 519 130 69444 1306 262 8598
internal_count=217633 104725 26625 16783 6705 6214 6123 491 78100 8656 3164 1904 10078 313 6046 397 598 576 112908 339 553 5649 123 857 519 130 69444 1306 262 8598
shrinkage=0.05


Tree=2
num_leaves=31
num_cat=0
split_feature=40 40 37 36 37 4 4 27 40 30 37 37 36 27 36 40 30 18 3 11 36 36 36 30 40 36 37 4 36 18
split_gain=179.366 792.224 664.699 2505.49 114.455 49.0948 47.9389 31.1626 28.3062 34.428 43.4576 215.861 18.1509 23.913 15.0912 11.2408 34.6374 11.1919 9.67353 7.11648 6.82255 35.2502 6.84648 6.69544 7.30757 10.6443 63.0215 12.3835 11.8634 12.4652
threshold=-0.77194499999999999 0.31988499999999936 -0.15132349999999997 -0.079468000000000025 -0.057539999999999918 -1.2205099999999998 1.4464300000000001 0.0008353560000000001 0.7622899999999998 0.031882050000000009 0.19792950000000006 -0.10141500000000002 -0.14969009999999991 0.0013551150000000003 -0.079468000000000025 -0.35442999999999975 0.021266050000000005 -7.1421249999999992 -15.732949999999999 0.00015284250000000002 -0.30278099999999991 0.10022550000000004 -0.12496499999999998 0.209427 2.014730000000001 0.327845 0.24875600000000014 -1.6465649999999996 0.10022550000000004 6.8372650000000013
decision_type=2 2 2 2 2 2 2 2 2 2 2 2 2 2 2 2 2 2 2 2 2 2 2 2 2 2 2 2 2 2
left_child=18 2 -2 12 7 -6 15 -5 9 -3 11 -11 -4 -14 -13 16 -7 -16 20 -18 -1 22 -22 -10 25 26 27 -25 29 -29
right_child=1 8 3 4 5 6 -8 -9 23 10 -12 14 13 -15 17 -17 19 -19 -20 -21 21 -23 -24 24 -26 -27 -28 28 -30 -31
leaf_value=-0.001464613043243372 -0.0014213845417269996 -0.0012223116907418945 -0.0014133105814441063 0.0033944363793125378 0.0035686272281137384 0.0039450638334859508 0.00090900249779224396 0.028900781527989441 -0.0015261000179458046 -0.00065748787020993254 -0.0012993382315105158 0.015544446464627982 8.872645171849352e-05 0.028976322036722429 0.0082882495305966596 0.042415158787333727 0.018530353178849091 0.038740862467834224 -0.0014155477591421461 0.041223772143991581 0.0083767594148715339 -0.00010715486209519778 0.034289998760713002 -0.00033503430525934889 -0.0009955814800660088 -0.0014985514996956346 -0.0013703375864111246 0.032532426490220111 0.0095332872224124995 -0.00011100142516873101
leaf_weight=395 9514 4131 9385 256 88 77 73 225 60158 1463 1410 96 190 115 32 5380 37 528 112701 521 33 431 112 63 7309 1279 1231 257 110 33
leaf_count=395 9514 4131 9385 256 88 77 73 225 60158 1463 1410 96 190 115 32 5380 37 528 112701 521 33 431 112 63 7309 1279 1231 257 110 33
internal_value=0 0.00150096 0.00908607 0.0152014 0.0388182 0.0406478 0.0411838 0.0153257 -0.00101067 0.00187589 0.00550261 0.0100287 -0.0010232 0.0109808 0.0338608 0.0416726 0.0353811 0.0370007 -0.00137273 0.039719 0.00359651 0.00706724 0.0283925 -0.00132457 -0.00014545 0.00194457 0.00454418 0.0202694 0.0235146 0.0288178
internal_weight=0 103961 25861 16347 6657 6176 6088 481 78100 7660 3529 2119 9690 305 656 6015 635 560 113672 558 971 576 145 70440 10282 2973 1694 463 400 290
internal_count=217633 103961 25861 16347 6657 6176 6088 481 78100 7660 3529 2119 9690 305 656 6015 635 560 113672 558 971 576 145 70440 10282 2973 1694 463 400 290
shrinkage=0.05


Tree=3
num_leaves=31
num_cat=0
split_feature=39 40 37 36 37 4 4 35 39 30 37 37 36 35 10 36 39 30 3 18 11 37 30 36 36 36 30 30 11 15
split_gain=161.993 694.016 591.718 2291.79 105.84 46.0387 45.7823 29.1508 25.6786 31.8775 40.7349 210.509 17.6568 22.285 15.6213 12.3796 11.9389 25.3629 8.53364 7.93492 6.76574 6.62416 9.62175 6.37767 36.3353 7.08121 5.57933 5.52677 5.38055 5.49752
threshold=0.80790999999999979 0.31988499999999936 -0.15132349999999997 -0.079468000000000025 -0.057539999999999918 -1.2205099999999998 1.4464300000000001 2.6280300000000003e-05 -0.82558500000000012 0.031882050000000009 0.19792950000000006 -0.10141500000000002 -0.14969009999999991 0.00012862450000000002 0.00021504100000000004 -0.079468000000000025 0.47541999999999979 0.021266050000000005 -15.284849999999999 -7.1421249999999992 0.00015284250000000002 0.057875000000000128 0.041331900000000012 -0.30278099999999991 0.10022550000000004 -0.12496499999999998 0.35804150000000007 0.209427 0.00010873100000000003 0.00040503100000000009
decision_type=2 2 2 2 2 2 2 2 2 2 2 2 2 2 2 2 2 2 2 2 2 2 2 2 2 2 2 2 2 2
left_child=1 2 -1 12 7 -6 16 -5 26 -10 11 -11 -4 -14 15 27 21 -18 23 -17 -19 -7 -23 -2 25 -25 -3 -13 -9 -30
right_child=18 8 3 4 5 6 -8 28 9 10 -12 14 13 -15 -16 19 17 20 -20 -21 -22 22 -24 24 -26 -27 -28 -29 29 -31
leaf_value=-0.0013459775202260939 -0.0014320892493865224 -0.0014358105647523059 -0.0013496878491767053 0.0010440795845247704 0.0032110987394884391 0.040370808870080287 0.00072726673361929982 0.00056559246033430102 -0.0011973912593193604 -0.00068226942161205581 -0.001242514510777007 0.0022749705669971613 5.1991852166140893e-05 0.027407937799198707 -0.0012673756929443163 0.0097201512436623921 0.0005916702143591026 0.010782126151025296 -0.0013619802541843238 0.037476111205442135 0.038322290027188878 0.0040169350244104859 0.036581660662927937 0.0071166943049147018 -0.00029068880162302625 0.030525035931994873 1.0757334605168589e-05 0.026790505587788567 0.029847624001249802 0.0036649683659726925
leaf_weight=9842 571 61975 9765 223 91 5526 77 20 4667 1664 1613 39 191 122 34 27 58 24 111536 556 315 30 93 42 619 140 7469 56 226 22
leaf_count=9842 571 61975 9765 223 91 5526 77 20 4667 1664 1613 39 191 122 34 27 58 24 111536 556 315 30 93 42 619 140 7469 56 226 22
internal_value=0 0.00141642 0.00838767 0.0140957 0.0367479 0.0385138 0.0390384 0.0143999 -0.000960136 0.00160783 0.00488984 0.00905293 -0.000974995 0.0107147 0.0318049 0.0334634 0.0395263 0.0311451 -0.00131377 0.0361907 0.0363725 0.0401154 0.028639 0.0026055 0.00548373 0.0251231 -0.00128023 0.0167262 0.0255131 0.027525
internal_weight=0 104725 26625 16783 6705 6214 6123 491 78100 8656 3989 2376 10078 313 712 678 6046 397 112908 583 339 5649 123 1372 801 182 69444 95 268 248
internal_count=217633 104725 26625 16783 6705 6214 6123 491 78100 8656 3989 2376 10078 313 712 678 6046 397 112908 583 339 5649 123 1372 801 182 69444 95 268 248
shrinkage=0.05


Tree=4
num_leaves=31
num_cat=0
split_feature=40 40 37 36 37 4 4 35 39 30 36 36 36 30 37 39 30 18 11 3 30 11 36 30 36 37 11 37 30 40
split_gain=146.209 624.136 533.067 2073.52 95.0846 41.5413 41.3099 26.5584 23.175 28.7771 37.3124 183.445 15.8328 20.0944 15.0977 10.8513 22.8604 10.3145 7.67861 7.58905 6.6898 6.60075 6.154 8.9249 5.66738 32.7757 5.90928 5.16922 5.09907 5.93788
threshold=-0.81248999999999982 0.31988499999999936 -0.15132349999999997 -0.079468000000000025 -0.057539999999999918 -1.2205099999999998 1.4464300000000001 2.6280300000000003e-05 -0.82558500000000012 0.034131950000000001 0.24966499999999994 -0.12496499999999998 -0.14969009999999991 0.086996850000000014 -0.078199999999999964 0.47541999999999979 0.021266050000000005 -7.2793899999999994 0.022777000000000002 -15.284849999999999 0.14687100000000003 0.00015284250000000002 -0.040859549999999939 0.018263050000000003 -0.30278099999999991 -0.25176499999999996 0.037495750000000008 -0.078199999999999964 0.209427 2.014730000000001
decision_type=2 2 2 2 2 2 2 2 2 2 2 2 2 2 2 2 2 2 2 2 2 2 2 2 2 2 2 2 2 2
left_child=19 2 -2 12 7 -6 15 -5 28 -10 11 -11 -4 -14 20 22 -17 -16 -19 24 -13 -18 23 -7 -1 -26 -27 -9 -3 -30
right_child=1 8 3 4 5 6 -8 27 9 10 -12 14 13 -15 17 16 21 18 -20 -21 -22 -23 -24 -25 25 26 -28 -29 29 -31
leaf_value=-0.0013603246104168265 -0.0012793400237867134 -0.0013930101765405713 -0.0012830671818066402 0.00099187555468135892 0.003050543859109774 0.012878625016998161 0.00069090335254932381 0.018606943509075793 -0.001071646476291237 -0.00077270906260161953 -0.0013454462517072342 0.0012624018002922338 -0.00062031984237618132 0.024974409878169273 0.0033521460337114744 0.00056208681700558498 0.0097750881798565406 0.035017992671526658 0.0049120845781131231 -0.001294648173088114 0.024973314555393436 0.03646086945612724 0.038492798770346975 0.035262301400240163 -0.0011276091484472388 0.024652344188677063 0.00079893466706077256 0.032725346488280037 0.0017821863170026774 -0.0009274590585647358
leaf_weight=570 9879 59340 9814 223 91 55 77 160 4775 1611 1532 60 183 132 29 58 25 568 22 111446 59 317 5360 234 577 193 30 109 2795 7309
leaf_count=570 9879 59340 9814 223 91 55 77 160 4775 1611 1532 60 183 132 29 58 25 568 22 111446 59 317 5360 234 577 193 30 109 2795 7309
internal_value=0 0.00134451 0.00794119 0.013351 0.0349102 0.0365847 0.0370828 0.0137507 -0.000912129 0.00152744 0.00472523 0.00868448 -0.000928909 0.0101051 0.0293288 0.0375461 0.0295877 0.0324645 0.0338954 -0.00124918 0.0130182 0.0345102 0.0381096 0.0310024 0.00244953 0.00516405 0.0214434 0.0243278 -0.00121621 -0.000177909
internal_weight=0 104817 26717 16838 6709 6217 6126 492 78100 8656 3881 2349 10129 315 738 6049 400 619 590 112816 119 342 5649 289 1370 800 223 269 69444 10104
internal_count=217633 104817 26717 16838 6709 6217 6126 492 78100 8656 3881 2349 10129 315 738 6049 400 619 590 112816 119 342 5649 289 1370 800 223 269 69444 10104
shrinkage=0.05


Tree=5
num_leaves=31
num_cat=0
split_feature=37 37 36 40 40 4 35 39 40 4 20 37 27 39 4 11 4 39 40 30 39 30 37 30 40 35 39 11 10 16
split_gain=132.022 1671.87 658.135 468.154 366.246 51.4057 42.4431 49.8695 46.7311 40.6203 30.7977 27.4388 27.3611 22.2405 17.8407 19.2817 18.9071 13.0233 11.841 26.8398 11.6192 29.4084 10.4358 10.3089 10.7346 7.9149 12.6126 6.97993 6.65427 6.34408
threshold=0.19792950000000006 -0.057539999999999918 -0.040859549999999939 -1.111915 0.87140500000000032 1.2369950000000001 7.4540950000000013e-05 1.510785 1.5644200000000008 -1.2205099999999998 -13.010249999999997 -0.10141500000000002 0.0011742500000000002 1.5956900000000005 -2.0429399999999993 0.00019198350000000004 1.7937450000000001 -1.7757399999999997 -2.1380549999999996 0.28940100000000007 0.47541999999999979 0.046494550000000003 0.057875000000000128 0.15036250000000004 2.2262100000000005 1.4802850000000002e-05 1.6830350000000001 0.00014136750000000003 5.0929450000000004e-05 9.7782250000000015e-08
decision_type=2 2 2 2 2 2 2 2 2 2 2 2 2 2 2 2 2 2 2 2 2 2 2 2 2 2 2 2 2 2
left_child=1 11 6 18 5 9 22 8 14 -5 -6 -1 -13 17 -8 -16 29 -14 -4 -20 -11 -22 25 -12 -25 -3 28 -23 -27 -17
right_child=-2 2 3 4 10 -7 7 -9 -10 20 23 12 13 -15 15 16 -18 -19 19 -21 21 27 -24 24 -26 26 -28 -29 -30 -31
leaf_value=-0.0012780366973093242 -0.0013492574006594529 0.0020786403267742536 -0.00060984997854097393 0.0032854350518924423 0.032493648497214499 0.00028480303956678618 -0.002691506095711262 0.00095598520881636255 0.0027445990412658908 0.036157817582957538 -0.00095719661741442688 0.00040040875105079105 0.0066187881249421786 0.0017380441841765197 0.006107059954288039 0.015333834034814076 -0.00035984411324356118 0.027150769492013838 0.00052116804452606179 0.028811219002097106 0.0063855361824823641 0.010404480148393375 -0.00098620284449777123 0.023920285216275049 8.7823849171400083e-05 0.031892892837905411 -0.0013905316591262817 0.037349244457839423 -5.7473662309348583e-05 0.03322482200562954
leaf_weight=101534 98906 313 1391 99 86 108 62 1092 446 5910 859 1119 109 243 111 55 51 265 273 121 118 26 3152 94 95 88 69 318 20 500
leaf_count=101534 98906 313 1391 99 86 108 62 1092 446 5910 859 1119 109 243 111 55 51 265 273 121 118 26 3152 94 95 88 69 318 20 500
internal_value=0 0.001124 0.0164603 0.0246324 0.0299726 0.0344961 0.00343481 0.00872527 0.015651 0.0350671 0.00372934 -0.00117147 0.00506152 0.013515 0.0230403 0.0252654 0.0287746 0.0211668 0.0015575 0.00920923 0.0355609 0.0279244 6.90778e-05 0.00136891 0.011941 0.00685733 0.0153078 0.0353127 0.0259762 0.0314518
internal_weight=0 118727 15457 9498 7713 6579 5959 2317 1225 6471 1134 103270 1736 617 779 717 606 374 1785 394 6372 462 3642 1048 189 490 177 344 108 555
internal_count=217633 118727 15457 9498 7713 6579 5959 2317 1225 6471 1134 103270 1736 617 779 717 606 374 1785 394 6372 462 3642 1048 189 490 177 344 108 555
shrinkage=0.05


Tree=6
num_leaves=31
num_cat=0
split_feature=40 40 37 36 37 4 4 35 40 3 36 36 36 27 40 11 35 36 36 4 27 3 36 37 40 11 35 11 4 15
split_gain=119.437 510.905 435.598 1694.78 75.5826 34.0393 33.7388 22.6218 18.7577 20.7447 22.9974 91.9716 12.8852 17.4171 9.19802 22.0956 7.14758 9.11471 51.0583 8.18957 6.99915 6.81014 5.63372 46.6758 13.118 8.90324 7.21945 5.51147 5.4713 6.52848
threshold=-0.81248999999999982 0.31988499999999936 -0.15132349999999997 -0.079468000000000025 -0.057539999999999918 -1.2205099999999998 1.4464300000000001 2.0374000000000002e-05 0.7622899999999998 -11.394249999999998 -0.14969009999999991 0.14973499999999998 -0.14969009999999991 0.0013551150000000003 -0.31477499999999997 0.00014912150000000003 2.7124000000000003e-05 0.22528099999999995 -0.12496499999999998 1.1247450000000001 0.00019858150000000001 -13.443999999999997 0.30085850000000008 0.12358499999999996 -2.2348749999999997 0.037495750000000008 0.0038655250000000003 0.022777000000000002 -1.1200049999999997 -5.6792399999999992e-06
decision_type=2 2 2 2 2 2 2 2 2 2 2 2 2 2 2 2 2 2 2 2 2 2 2 2 2 2 2 2 2 2
left_child=21 2 -2 12 7 -6 14 -5 9 10 -3 27 -4 -14 15 -7 -11 18 -18 -20 -17 22 23 24 26 -26 -1 -12 -9 -30
right_child=1 8 3 4 5 6 -8 28 -10 16 11 -13 13 -15 -16 20 17 -19 19 -21 -22 -23 -24 -25 25 -27 -28 -29 29 -31
leaf_value=0.0022341498238749283 -0.0011514712001282545 -0.0010250289750833857 -0.0011556963528166157 0.00022385954304317539 0.0027023202852233426 0.0080923969671130181 0.00062035357023214376 -0.0032973213493824004 -0.0010820336330577326 -0.0009686492148941625 0.033264388409708898 -0.0008503230388231457 -0.0001052347475137466 0.024105324490616722 0.03467811628965408 0.012753382394480151 -0.00065868719924270375 -0.0012810450562271655 0.025072496585368705 -0.0047488673888146883 0.033605006025736316 -0.0012006820763385878 -0.0011845715531560756 -0.00093385648672560584 0.031899903448163923 0.0014201304709006634 0.022367033206255122 0.0068540700711309912 0.033571027833610205 0.01745942736852844
leaf_weight=129 9879 574 9814 209 91 110 77 20 70440 4090 333 561 195 120 5268 43 897 868 291 25 628 109105 1663 1657 166 28 68 21 104 159
leaf_count=129 9879 574 9814 209 91 110 77 20 70440 4090 333 561 195 120 5268 43 897 868 291 25 628 109105 1663 1657 166 28 68 21 104 159
internal_value=0 0.0012152 0.00718357 0.0120738 0.0315649 0.0330578 0.0335087 0.0126997 -0.000826505 0.00152329 0.0068204 0.011742 -0.000836202 0.00911784 0.0339274 0.0288636 0.000245148 0.00263075 0.00542995 0.0227132 0.0322688 -0.00112904 0.000977356 0.00273287 0.0182719 0.0275008 0.00918357 0.0316977 0.0219134 0.0238306
internal_weight=0 104817 26717 16838 6709 6217 6126 492 78100 7660 1489 915 10129 315 6049 781 6171 2081 1213 316 671 112816 3711 2048 391 194 197 354 283 263
internal_count=217633 104817 26717 16838 6709 6217 6126 492 78100 7660 1489 915 10129 315 6049 781 6171 2081 1213 316 671 112816 3711 2048 391 194 197 354 283 263
shrinkage=0.05


Tree=7
num_leaves=31
num_cat=0
split_feature=37 37 36 40 40 4 35 40 40 4 20 3 37 27 40 4 16 4 40 30 40 40 30 37 6 3 35 40 10 20
split_gain=108.772 1374.7 537.932 381.891 294.713 42.2828 36.631 41.8226 38.8552 33.3069 27.7949 25.9375 23.212 23.4417 18.894 15.6023 15.5741 16.0745 10.5953 9.30378 9.68801 8.9871 25.3205 8.41106 7.80383 6.83174 6.62062 10.3313 5.52036 5.28696
threshold=0.19792950000000006 -0.057539999999999918 -0.040859549999999939 -1.111915 0.87140500000000032 1.2369950000000001 7.4540950000000013e-05 -1.5183250000000001 1.8216650000000005 -1.2205099999999998 -13.010249999999997 -13.243349999999998 -0.10141500000000002 0.0011742500000000002 -1.5612350000000006 -2.0429399999999993 9.7782250000000015e-08 1.7937450000000001 1.2627400000000006 0.15036250000000004 2.2262100000000005 -0.47859499999999983 0.046494550000000003 0.057875000000000128 1.3540400000000001e-06 -13.989599999999998 1.4802850000000002e-05 -1.3566450000000001 5.0929450000000004e-05 -9.5298349999999985
decision_type=2 2 2 2 2 2 2 2 2 2 2 2 2 2 2 2 2 2 2 2 2 2 2 2 2 2 2 2 2 2
left_child=1 12 6 11 5 9 23 25 15 -5 -6 -4 -1 -14 -15 -9 29 24 -16 -12 -21 22 -11 26 -18 -8 -3 -28 -29 -17
right_child=-2 2 3 4 10 -7 7 8 -10 21 19 -13 13 14 18 16 17 -19 -20 20 -22 -23 -24 -25 -26 -27 27 28 -30 -31
leaf_value=-0.0011592654125141932 -0.0012247007823236462 0.0017477418498371166 0.025583024776230257 0.0029351722985280285 0.03092306747512762 0.00016860549027721089 0.017947876975605532 -0.0026968637410777086 0.0016743729810782756 0.0051103893959003948 -0.00085523513268258723 -3.2516421439747017e-05 0.00035722420198827903 0.0016413848371908007 0.025511672421092969 0.019732892367897964 0.031982219278913836 0.00028023621590252508 0.0076711472705006598 0.022778373033283873 0.00013753431408028855 0.032684192262179161 0.032211333600977478 -0.00092335829069852124 0.019582693756029414 1.7290712627843456e-05 -0.0012659490148982278 0.028891571736047891 -0.00020950790960341692 -0.0028178448670766725
leaf_weight=101534 98906 313 105 99 86 108 56 66 403 115 859 1680 1119 243 249 41 404 57 125 94 95 5913 344 3152 185 1034 69 88 20 71
leaf_count=101534 98906 313 105 99 86 108 56 66 403 115 859 1680 1119 243 249 41 404 57 125 94 95 5913 344 3152 185 1034 69 88 20 71
internal_value=0 0.00102024 0.0149269 0.0223152 0.0271383 0.0311961 0.00315084 0.00806574 0.0143972 0.0317139 0.00359697 0.00147428 -0.00106125 0.0046716 0.0124962 0.0206196 0.0226498 0.025634 0.0195489 0.00135457 0.0113981 0.032161 0.0254213 2.4035e-05 0.0280876 0.000938495 0.00611829 0.013847 0.0235025 0.00543734
internal_weight=0 118727 15457 9498 7713 6579 5959 2317 1227 6471 1134 1785 103270 1736 617 824 758 646 374 1048 189 6372 459 3642 589 1090 490 177 108 112
internal_count=217633 118727 15457 9498 7713 6579 5959 2317 1227 6471 1134 1785 103270 1736 617 824 758 646 374 1048 189 6372 459 3642 589 1090 490 177 108 112
shrinkage=0.05


Tree=8
num_leaves=31
num_cat=0
split_feature=36 36 36 40 40 4 35 39 4 40 20 3 36 27 39 36 4 11 4 39 35 39 39 30 40 39 30 11 3 4
split_gain=98.0413 1233.13 492.192 343.167 264.6 37.7889 33.0493 33.9442 29.658 28.4298 24.5096 23.3856 22.2292 21.8694 17.8086 13.7049 13.0829 15.4611 11.1801 10.212 9.72914 14.4131 9.55754 8.50191 8.89221 8.16651 22.8559 7.80524 6.61494 5.99277
threshold=-0.19934349999999995 0.056773999999999998 -0.040859549999999939 -1.111915 0.87140500000000032 1.2369950000000001 0.00018647200000000003 1.510785 -1.2205099999999998 2.014730000000001 -13.010249999999997 -13.243349999999998 0.10022550000000004 0.0011742500000000002 1.5956900000000005 -0.058960000000000005 -2.0429399999999993 0.00022094500000000003 1.7937450000000001 -2.7863399999999992 1.9415700000000001e-05 1.3507450000000001 -1.4591200000000002 0.13940550000000004 2.2262100000000005 0.47541999999999979 0.024696250000000003 0.00014136750000000003 -13.897099999999998 -1.4133199999999999
decision_type=2 2 2 2 2 2 2 2 2 2 2 2 2 2 2 2 2 2 2 2 2 2 2 2 2 2 2 2 2 2
left_child=-1 2 6 11 5 8 15 9 -5 16 -6 -4 13 -3 19 -2 -8 -18 -19 -15 -17 22 -22 -12 -25 -10 -27 -28 -9 -21
right_child=1 12 3 4 10 -7 7 28 25 -11 23 -13 -14 14 -16 20 17 18 -20 29 21 -23 -24 24 -26 26 27 -29 -30 -31
leaf_value=-0.0011634004473694585 -0.00068474457538835061 0.00041293390010874994 0.024303873443887347 0.002837678666549678 0.029227731569724927 0.00017518255964060812 -0.0027467302486977796 0.018069568146685405 0.031056142489581037 0.0018378831864779212 -0.00086531396823149209 -2.323311257237446e-05 -0.0011000775786569807 0.0033665847419420396 0.0015801483949969622 0.0023363946321274132 0.0050081441730477861 0.028380083169655075 0.0011691468040935878 -0.0031012806482613089 -0.0019072155069027629 -0.0012803491171715516 0.030411543646454809 0.021447926803885662 9.3232868809481069e-05 0.0020007447429722359 0.0069100417251534325 0.032052896073949871 0.00031201374281838214 0.025249653404755313
leaf_weight=98843 3578 1104 105 98 85 107 55 56 5899 287 846 1670 101579 82 242 363 103 476 41 20 28 84 125 97 98 93 34 335 826 274
leaf_count=98843 3578 1104 105 98 85 107 55 56 5899 287 846 1670 101579 82 242 363 103 476 41 20 28 84 125 97 98 93 34 335 826 274
internal_value=0 0.000968044 0.0141241 0.0212328 0.0258057 0.029646 0.00294874 0.00852425 0.0301342 0.0150199 0.00341198 0.00141584 -0.00100458 0.00462875 0.0121599 0.000487934 0.0206246 0.0226979 0.0262222 0.0189693 0.007481 0.0153607 0.024497 0.00130406 0.0107158 0.0305548 0.0241531 0.0297362 0.00143948 0.023321
internal_weight=0 118790 15489 9467 7692 6566 6022 1844 6459 962 1126 1775 103301 1722 618 4178 675 620 517 376 600 237 153 1041 195 6361 462 369 882 294
internal_count=217633 118790 15489 9467 7692 6566 6022 1844 6459 962 1126 1775 103301 1722 618 4178 675 620 517 376 600 237 153 1041 195 6361 462 369 882 294
shrinkage=0.05


Tree=9
num_leaves=31
num_cat=0
split_feature=37 37 38 40 39 4 4 35 39 40 38 27 39 38 4 11 40 4 40 35 20 20 35 39 39 4 11 4 39 11
split_gain=88.6047 1119.83 438.134 311.094 241.089 43.4661 34.4085 30.1669 30.6628 25.6939 19.1616 21.8085 19.1521 12.3262 11.7412 13.627 11.0077 10.1911 9.49619 16.8261 9.50762 9.15686 8.78055 13.0079 8.62568 7.25329 8.69628 8.07467 7.02654 22.7043
threshold=0.19792950000000006 -0.057539999999999918 -0.040859549999999939 -1.111915 -1.3362800000000006 1.2369950000000001 -1.2205099999999998 0.00018647200000000003 1.510785 2.014730000000001 0.12375499999999996 0.0011742500000000002 2.2683550000000001 -0.058960000000000005 -2.0429399999999993 0.00022094500000000003 2.829940000000001 2.3910900000000006 -2.1380549999999996 9.1330750000000006e-05 -11.761549999999998 -14.137299999999998 1.9415700000000001e-05 1.3507450000000001 -1.4591200000000002 -1.5265699999999998 0.00026773650000000009 1.7937450000000001 0.39187000000000044 0.00015638100000000001
decision_type=2 2 2 2 2 2 2 2 2 2 2 2 2 2 2 2 2 2 2 2 2 2 2 2 2 2 2 2 2 2
left_child=1 10 7 18 21 6 -6 13 9 14 11 -1 16 -3 -9 -16 25 -17 -4 -20 -21 -5 -15 24 -24 -13 -27 -28 -8 -30
right_child=-2 2 3 4 5 -7 28 8 -10 -11 -12 12 -14 22 15 17 -18 -19 19 20 -22 -23 23 -25 -26 26 27 -29 29 -31
leaf_value=-7.0218601576001928e-05 -0.0011053492267561536 -0.00064411439082201049 -0.00061100677705599538 0.029623063322570586 0.0022873530915427593 -0.00038495134464951592 0.029404027828578608 -0.0026364594215044271 0.0014086069452479996 0.0017785225234086246 -0.0010660960773238623 -0.0030644332935266636 0.00032321961318030733 0.0022195750059811371 0.0048815698925368861 0.026888860388038061 0.0018708576124666606 -0.00069359170738607649 -0.0005884834939378058 0.032577611356513735 0.0085690691568223506 8.2710076695977354e-05 -0.0018118547774585232 -0.0012163316509464668 0.02889096655547619 0.0047140896964051274 0.026824007972764477 -0.0003822144865989685 0.0032005095972933552 0.028295460542690061
leaf_weight=1654 98906 3534 1391 27 124 134 5895 54 870 284 100725 34 341 363 101 480 118 36 229 81 84 924 28 84 125 68 300 30 110 499
leaf_count=1654 98906 3534 1391 27 124 134 5895 54 870 284 100725 34 341 363 101 480 118 36 229 81 84 924 28 84 125 68 300 30 110 499
internal_value=0 0.000920816 0.0134723 0.0201401 0.0244933 0.0278084 0.0283784 0.00284457 0.00819887 0.0143848 -0.000957835 0.00332689 0.00963309 0.000480859 0.0197203 0.021677 0.0154052 0.0249645 0.00132992 0.0081823 0.0203551 0.000921395 0.00710695 0.0145927 0.0232721 0.0191021 0.0209957 0.0243507 0.0288758 0.0237627
internal_weight=0 118727 15457 9498 7713 6762 6628 5959 1825 955 103270 2545 891 4134 671 617 550 516 1785 394 165 951 600 237 153 432 398 330 6504 609
internal_count=217633 118727 15457 9498 7713 6762 6628 5959 1825 955 103270 2545 891 4134 671 617 550 516 1785 394 165 951 600 237 153 432 398 330 6504 609
shrinkage=0.05


Tree=10
num_leaves=31
num_cat=0
split_feature=37 37 37 39 39 4 4 27 39 39 3 11 10 4 3 20 4 37 36 27 39 16 36 27 20 27 39 39 39 11
split_gain=80.0485 918.089 435.735 304.259 267.542 41.1014 41.7537 33.4952 34.442 23.5064 18.9989 16.9976 18.2851 10.043 9.30508 8.75961 7.91239 7.78909 7.34874 15.8338 10.9146 6.20101 6.1529 14.5992 6.0578 4.91652 7.67233 7.73011 4.69413 8.76697
threshold=-0.25176499999999996 0.078754999999999922 -0.039869999999999954 1.1065400000000005 -1.2170650000000005 1.4464300000000001 -1.2205099999999998 0.0011742500000000002 2.1254700000000009 -2.2545749999999996 -13.353949999999999 0.00026773650000000009 0.00017341400000000002 -1.5265699999999998 -5.8362949999999989 -14.667549999999997 1.7937450000000001 -0.057539999999999918 -0.14969009999999991 0.0023437000000000002 2.7388300000000005 4.8386800000000011e-07 -0.040859549999999939 0.00043582050000000007 -9.709209999999997 0.00027963700000000006 1.1470050000000007 -0.5126099999999999 -0.82558500000000012 0.0032042350000000002
decision_type=2 2 2 2 2 2 2 2 2 2 2 2 2 2 2 2 2 2 2 2 2 2 2 2 2 2 2 2 2 2
left_child=-1 2 7 4 15 6 -6 17 9 -9 -5 -11 13 -13 22 -4 21 -2 -3 -20 24 -15 23 -8 -21 -19 27 -27 29 -23
right_child=1 18 3 10 5 -7 14 8 -10 11 -12 12 -14 16 -16 -17 -18 25 19 20 -22 28 -24 -25 -26 26 -28 -29 -30 -31
leaf_value=-0.0010754757571244005 -0.00073897414492704204 -0.0010335839904748933 0.028939432281724832 0.02020105909571418 0.0015627707412213456 -0.00072187571852867088 0.0085516150489869259 0.0018995433823182817 0.00052208106639377132 0.0031455634952318383 -0.0001256962671187402 0.00039540179260075096 -0.00039203410448793033 0.012188608037485255 0.0094985479769641411 0.00014117929060711176 0.00010781664236941759 -7.6761568469978941e-05 -0.00065612782007614106 0.020319824439005159 0.00037086216260248157 0.0061081370037487327 0.027886564610503112 0.027453914174175528 0.008060861601390773 0.0010550338053895581 -0.00096194133615103844 0.022382201406828783 0.029198262332340515 0.032823262935770411
leaf_weight=96389 4589 100569 27 122 162 140 142 410 1179 205 1991 50 104 84 73 1199 34 214 1930 177 268 68 6113 364 234 62 107 135 436 56
leaf_count=96389 4589 100569 27 122 162 140 142 410 1179 205 1991 50 104 84 73 1199 34 214 1930 177 268 68 6113 364 234 62 107 135 436 56
internal_value=0 0.000855003 0.0112529 0.0179704 0.0223205 0.0260972 0.026645 0.00227675 0.0068658 0.0120346 0.00104793 0.0160417 0.0192192 0.0220208 0.0272522 0.000775399 0.0236156 -8.2925e-05 -0.000965619 0.00165424 0.00822127 0.0248567 0.027448 0.0221493 0.0133403 0.00572906 0.00981606 0.0156701 0.026757 0.018173
internal_weight=0 121244 18066 10333 8220 6994 6854 7733 2626 1447 2113 1037 832 728 6692 1226 678 5107 103178 2609 679 644 6619 506 411 518 304 197 560 124
internal_count=217633 121244 18066 10333 8220 6994 6854 7733 2626 1447 2113 1037 832 728 6692 1226 678 5107 103178 2609 679 644 6619 506 411 518 304 197 560 124
shrinkage=0.05


Tree=11
num_leaves=31
num_cat=0
split_feature=40 40 37 36 37 4 4 30 20 36 36 37 27 36 39 30 36 36 11 40 30 4 15 34 16 12 3 4 18 10
split_gain=72.4322 312.973 264.871 1015.26 53.7233 24.2381 22.4174 17.7707 11.7643 10.0248 54.1184 7.54645 13.8001 7.46604 6.79398 10.3354 12.4793 64.6591 9.05087 5.64318 18.0251 5.48861 6.96784 7.59683 5.43119 5.04347 4.70285 4.50954 4.07719 4.07701
threshold=-0.81248999999999982 0.31988499999999936 -0.17681499999999981 -0.10081500000000009 -0.057539999999999918 1.4464300000000001 -1.1200049999999997 0.047384050000000004 -14.137299999999998 0.30085850000000008 -0.10081500000000009 0.057875000000000128 0.00048652850000000008 0.12375499999999996 -0.82558500000000012 0.031882050000000009 0.2761725000000001 -0.12496499999999998 0.018015550000000002 -0.31477499999999997 0.021266050000000005 -1.4133199999999999 -6.2009649999999988e-06 0.0042610100000000008 4.6729550000000004e-08 -1.2624199999999998e-05 -13.443999999999997 0.20333750000000003 -7.1421249999999992 4.2516950000000003e-05
decision_type=2 2 2 2 2 2 2 2 2 2 2 2 2 2 2 2 2 2 2 2 2 2 2 2 2 2 2 2 2 2
left_child=26 2 -2 -4 7 6 -6 -5 9 10 -3 19 -13 -12 -10 -16 17 -17 24 20 -8 -9 -23 27 -19 -26 -1 -24 -27 -29
right_child=1 8 3 4 5 -7 11 21 14 -11 13 12 -14 -15 15 16 -18 18 -20 -21 -22 22 23 -25 25 28 -28 29 -30 -31
leaf_value=0.00087118680578611581 -0.00093175985724554809 -0.00036578829257858731 -0.00078226761996383516 -4.0196285419564217e-05 0.0022384487666340185 0.00039478650120528121 0.00082084868541535219 -0.0066537810404869646 -0.00091030987310072625 -0.0011059767491042771 0.027832259406500005 -0.00075429160561826499 0.025166948480979025 0.0035079670190397236 -0.00091527858663223427 -0.00054821563657310045 -0.001019885559697031 0.0078571097527941076 -0.003920427866552661 0.027163768847075886 0.025324966736405205 0.029042943824181516 0.0075933096309502915 -0.0069670715923043532 0.00085397061820213609 0.006244715658249334 -0.00093877032923374607 0.031002661570067137 0.024731162316876554 0.0063682612370360983
leaf_weight=3711 9784 798 10008 262 99 95 85 22 68124 764 255 72 179 36 4667 1475 1368 75 41 5167 641 113 60 37 26 32 109105 71 439 22
leaf_count=3711 9784 798 10008 262 99 95 85 22 68124 764 255 72 179 36 4667 1475 1368 75 41 5167 641 113 60 37 26 32 109105 71 439 22
internal_value=0 0.000946331 0.00561765 0.00940194 0.0241201 0.0254604 0.0258418 0.00964914 -0.000651667 0.00328475 0.00636512 0.0262221 0.0177314 0.0248231 -0.000747332 0.000619492 0.00269205 0.00512401 0.0187725 0.0265838 0.022456 0.0174602 0.0192111 0.0133637 0.0203991 0.0222918 -0.000879233 0.0182803 0.0234752 0.0251752
internal_weight=0 104817 26717 16933 6925 6338 6243 587 78100 1853 1089 6144 251 291 76247 8123 3456 2088 613 5893 726 325 303 190 572 497 112816 153 471 93
internal_count=217633 104817 26717 16933 6925 6338 6243 587 78100 1853 1089 6144 251 291 76247 8123 3456 2088 613 5893 726 325 303 190 572 497 112816 153 471 93
shrinkage=0.05


Tree=12
num_leaves=31
num_cat=0
split_feature=37 37 36 40 39 4 4 27 39 40 36 27 39 11 4 4 3 3 20 36 30 27 39 39 39 16 10 20 11 4
split_gain=66.0968 832.548 322.242 228.584 174.188 34.6797 28.0734 23.67 24.3631 16.6085 14.9754 21.7236 16.6324 14.0341 13.9088 12.2218 11.1175 10.8865 10.0472 9.05175 7.80234 6.90724 9.84459 6.07184 5.81164 5.29408 5.6693 4.9021 4.74768 4.57115
threshold=0.19792950000000006 -0.057539999999999918 -0.040859549999999939 -1.4363049999999993 -1.3362800000000006 1.2369950000000001 -1.2205099999999998 0.0014247650000000004 2.7388300000000005 2.014730000000001 0.1751400000000001 0.0021377100000000006 2.9569100000000006 0.00024047200000000001 -2.0429399999999993 1.6690850000000002 -13.243349999999998 -5.8362949999999989 -13.824199999999998 -0.058960000000000005 0.209427 0.00039926250000000006 1.5525100000000001 -0.82558500000000012 -1.4591200000000002 1.1187350000000001e-07 8.383530000000002e-05 -13.010249999999997 0.00037336950000000003 0.19669200000000001
decision_type=2 2 2 2 2 2 2 2 2 2 2 2 2 2 2 2 2 2 2 2 2 2 2 2 2 2 2 2 2 2
left_child=1 10 7 16 20 6 -6 19 9 13 11 -1 18 29 -15 -16 -4 -8 -13 -3 -5 -21 24 -20 -23 -25 28 -22 -27 -9
right_child=-2 2 3 4 5 -7 17 8 -10 -11 -12 12 -14 14 15 -17 -18 -19 23 21 27 22 -24 25 -26 26 -28 -29 -30 -31
leaf_value=-4.6833978245141593e-05 -0.00095468764019438098 -0.0005945605129214391 0.018976164328587522 -0.0010949800050129063 0.0018582492304183005 -0.00061932663666084417 0.024874007692574817 -0.00035698877506052393 -0.00018697827021097222 0.0013670385969374833 -0.0009493315740660565 0.027686183081823402 -0.00012563438945325554 -0.0026127030935243403 0.023129234064390568 -0.00011176251998496435 -0.00048186914170494601 0.0067584830491493157 0.0047974318669375959 0.0013765965735295877 0.028760833630803975 -0.0018032781883246371 -0.0011528387445998327 -0.0049566372237618899 0.023532355993853084 0.0095432964069873446 -0.002564467975924559 0.0066140798353508381 0.023549077803239463 0.023062877147458496
leaf_weight=3140 98906 3498 77 805 138 144 6530 158 703 296 99017 96 397 71 554 63 1574 84 277 336 32 27 89 31 140 89 34 114 189 24
leaf_count=3140 98906 3498 77 805 138 144 6530 158 703 296 99017 96 397 71 554 63 1574 84 277 336 32 27 89 31 140 89 34 114 189 24
internal_value=0 0.000795306 0.0116177 0.0173361 0.020894 0.0236604 0.0241782 0.00250333 0.00716498 0.0115976 -0.000824546 0.00208067 0.00808281 0.0150783 0.0183446 0.0207562 0.000425622 0.0246439 0.0126341 0.000373106 0.000833746 0.00609084 0.0122783 0.0103035 0.0194362 0.0147501 0.0167081 0.0114682 0.0190652 0.00273135
internal_weight=0 118727 15457 9498 7847 6896 6752 5959 1869 1166 103270 4253 1113 870 688 617 1651 6614 716 4090 951 592 256 620 167 343 312 146 278 182
internal_count=217633 118727 15457 9498 7847 6896 6752 5959 1869 1166 103270 4253 1113 870 688 617 1651 6614 716 4090 951 592 256 620 167 343 312 146 278 182
shrinkage=0.05


Tree=13
num_leaves=31
num_cat=0
split_feature=36 36 36 39 39 4 4 35 39 36 3 30 3 39 11 4 4 13 13 32 32 20 36 35 39 36 39 30 11 39
split_gain=59.6917 654.123 347.612 224.536 194.843 34.0809 35.2598 27.3534 27.5309 17.4028 13.523 11.5229 9.80069 8.26951 7.1468 8.69872 9.5887 5.57843 9.02869 5.92 5.62151 5.4768 5.4453 12.3937 7.97429 5.25635 5.14207 24.9296 7.50794 5.71774
threshold=0.2761725000000001 -0.079468000000000025 0.039429999999999972 1.4285350000000012 -1.3362800000000006 1.4464300000000001 -1.2205099999999998 0.00011839150000000002 2.84389 0.10022550000000004 -5.8362949999999989 0.59297050000000018 -13.009399999999998 -4.0456399999999988 0.00026773650000000009 -1.8861499999999998 1.8987000000000003 2.5770550000000005e-06 7.0201950000000013e-05 0.041913150000000003 0.0037576550000000004 -14.667549999999997 -0.14969009999999991 0.00095358200000000002 2.7388300000000005 0.056773999999999998 0.47541999999999979 0.046494550000000003 0.00019198350000000004 -0.5126099999999999
decision_type=2 2 2 2 2 2 2 2 2 2 2 2 2 2 2 2 2 2 2 2 2 2 2 2 2 2 2 2 2 2
left_child=1 22 3 4 21 6 -6 25 9 13 26 -11 -5 -9 -15 -16 -17 19 20 -13 -19 -3 -1 -24 -25 -4 29 -28 -29 -8
right_child=-2 2 7 12 5 -7 10 8 -10 11 -12 17 -14 14 15 16 -18 18 -20 -21 -22 -23 23 24 -26 -27 27 28 -30 -31
leaf_value=-0.00089192923379520961 -0.00093560088471858266 0.02384535910872122 0.0046401447305470358 0.014910136270293287 0.0010132417897693814 -0.00086745096111222157 0.018368267528669834 -0.00084170326299499727 -0.00017101981333996123 0.0015471113587087139 0.0058024730761958793 0.015048448935138166 -0.0006539098778915864 0.0038802766422559691 -0.0027991681555776223 0.024309971012615894 -0.00045090963370924772 0.0057687008388988348 0.0016360086757534493 0.00063518263326944619 0.033632164149380785 -0.00028581521108206543 -0.00034818907304024708 0.013209583312273027 0.00082694311460403548 -0.0006717211543731485 0.0008476337847801356 0.003899425124892822 0.026869487831897944 0.024320618782886046
leaf_weight=100569 95596 24 512 107 184 158 434 64 1159 632 110 144 1849 77 38 431 43 23 48 141 85 1159 2036 320 219 5153 143 39 405 5731
leaf_count=100569 95596 24 512 107 184 158 434 64 1159 632 110 144 1849 77 38 431 43 23 48 141 85 1159 2036 320 219 5153 143 39 405 5731
internal_value=0 0.00073289 0.00928603 0.0154524 0.0190101 0.0220983 0.0226133 0.00182657 0.00578953 0.00979201 0.0231925 0.00587535 0.000197498 0.0162278 0.0180825 0.0202184 0.0220637 0.0120782 0.0196791 0.00791768 0.0276983 0.000203744 -0.000833797 0.0014366 0.00817842 -0.000191637 0.0234758 0.0190041 0.0248518 0.0239016
internal_weight=0 122037 18893 10343 8387 7204 7046 8550 2885 1726 6862 1073 1956 653 589 512 474 441 156 285 108 1183 103144 2575 539 5665 6752 587 444 6165
internal_count=217633 122037 18893 10343 8387 7204 7046 8550 2885 1726 6862 1073 1956 653 589 512 474 441 156 285 108 1183 103144 2575 539 5665 6752 587 444 6165
shrinkage=0.05


Tree=14
num_leaves=31
num_cat=0
split_feature=37 37 37 40 39 4 4 35 40 39 11 10 3 4 3 4 11 36 35 40 40 11 10 20 40 30 11 39 30 17
split_gain=53.9827 617.139 290.047 203.228 175.383 31.014 31.4242 24.9146 24.9473 14.9321 14.5465 14.2206 12.2186 9.22152 8.65847 7.27721 6.77189 5.23677 10.7912 7.26103 5.37017 5.29069 7.29114 4.94483 4.80022 23.3307 6.82605 4.90761 22.8681 6.48208
threshold=-0.25176499999999996 0.078754999999999922 -0.039869999999999954 -1.4363049999999993 -1.3362800000000006 1.4464300000000001 -1.2205099999999998 0.00011839150000000002 -2.8126249999999997 -2.2545749999999996 0.00026773650000000009 0.00022778250000000003 -5.8362949999999989 -1.5265699999999998 -13.009399999999998 2.0063000000000004 0.0036550950000000006 -0.12496499999999998 0.00018647200000000003 -2.9773649999999998 3.0726850000000008 0.00088131050000000012 0.00012137250000000001 -14.667549999999997 -0.47859499999999983 0.046494550000000003 0.00016757500000000002 -0.5126099999999999 0.034131950000000001 -4.7705699999999993
decision_type=2 2 2 2 2 2 2 2 2 2 2 2 2 2 2 2 2 2 2 2 2 2 2 2 2 2 2 2 2 2
left_child=-1 2 7 14 23 6 -6 -2 -9 -10 -11 13 24 -12 -4 16 -15 -3 -19 -20 21 -21 -23 -5 25 -8 -27 28 -26 -30
right_child=1 17 3 4 5 -7 12 8 9 10 11 -13 -14 15 -16 -17 -18 18 19 20 -22 22 -24 -25 27 26 -28 -29 29 -31
leaf_value=-0.00088318413423246203 -0.00013196671192263956 -0.00083727764860376953 0.014115867080787818 0.022653091931715608 0.00099291166439038382 -0.00083097356061140695 0.00034549161332698779 -9.2015409068093126e-05 0.0015205719868218216 0.0019463001521334293 8.2003961859354339e-05 -0.0013769575873167691 0.0055123494387688959 0.01799400756449512 -0.00064597423620914589 0.00061105754187641042 0.029556440910414223 -0.00077060953170224311 -3.0762884728234224e-05 0.006678081089710324 -0.00053981123226029537 0.025334137503771073 -0.0011024987907148898 -0.00027741844897503351 -0.0032446412295840756 0.0024359920248389244 0.02544249742130196 0.023109822563527147 0.00043176894110661963 0.02598859188907774
leaf_weight=96389 5106 101433 105 24 182 159 142 1054 401 248 67 109 110 534 1841 48 166 1187 198 117 70 141 32 1153 101 35 409 5739 27 306
leaf_count=96389 5106 101433 105 24 182 159 142 1054 401 248 67 109 110 534 1841 48 166 1187 198 117 70 141 32 1153 101 35 409 5739 27 306
internal_value=0 0.000702132 0.00922713 0.0147078 0.0180855 0.0210068 0.0214992 0.00190373 0.00586043 0.00984891 0.0126985 0.0155843 0.0220426 0.0178528 0.000150528 0.0194445 0.020736 -0.000790556 0.00192526 0.00766002 0.01189 0.0148902 0.0204441 0.000190154 0.0223116 0.0179869 0.0236289 0.0227221 0.0175955 0.0239164
internal_weight=0 121244 18066 10333 8387 7210 7051 7733 2627 1573 1172 924 6869 815 1946 748 700 103178 1745 558 360 290 173 1177 6759 586 444 6173 434 333
internal_count=217633 121244 18066 10333 8387 7210 7051 7733 2627 1573 1172 924 6869 815 1946 748 700 103178 1745 558 360 290 173 1177 6759 586 444 6173 434 333
shrinkage=0.05


Tree=15
num_leaves=31
num_cat=0
split_feature=36 36 36 39 40 4 4 35 39 30 40 3 16 4 40 4 39 30 11 36 17 17 35 39 37 27 39 13 13 32
split_gain=48.837 581.24 246.61 190.577 148.184 26.5447 21.2993 19.6191 20.1129 17.8089 16.5987 12.1072 10.1204 12.4145 9.56604 7.90628 7.12564 23.6801 6.60693 6.50327 5.86303 7.21934 5.36852 7.37589 5.09014 15.6272 8.43557 8.85547 10.111 5.63089
threshold=-0.22452634999999985 0.077348000000000056 -0.040859549999999939 1.2296250000000011 0.87140500000000032 0.92648250000000021 -1.4133199999999999 0.00018647200000000003 1.510785 0.15036250000000004 2.014730000000001 -13.243349999999998 2.562600000000001e-07 -1.8861499999999998 2.2262100000000005 2.3910900000000006 0.39187000000000044 0.026407200000000002 0.00013551050000000002 -0.058960000000000005 5.095670000000001 -3.8589749999999996 1.9415700000000001e-05 1.3507450000000001 -0.25176499999999996 0.0064016150000000003 4.4497700000000018 2.5770550000000005e-06 7.0201950000000013e-05 0.069832100000000022
decision_type=2 2 2 2 2 2 2 2 2 2 2 2 2 2 2 2 2 2 2 2 2 2 2 2 2 2 2 2 2 2
left_child=-1 2 7 4 5 6 -4 19 10 -6 12 -5 -9 -14 20 -15 -8 -18 -19 -2 21 -11 -21 -24 -3 -26 27 29 -29 -27
right_child=1 24 3 11 9 -7 16 8 -10 14 -12 -13 13 15 -16 -17 17 18 -20 22 -22 -23 23 -25 25 26 -28 28 -30 -31
leaf_value=-0.00082769619403883085 -0.00059694824293644963 -0.00083902499170879967 -0.00014036410267196468 0.017001754249323091 -0.00087524843433761884 0.00061699599704959172 0.021869409111374277 0.002080008772660106 0.00087445785057742016 -0.0032538517098873857 0.0014846610137493584 -0.00034418157948201797 -0.0021270431917426841 0.022015775174334978 0.0034198656074445827 -0.0011012899572961034 -0.00071250780635783752 0.0039241604730486873 0.022940717752190365 0.0011453719524866788 -0.0036578474655037836 0.029118494148696623 0.017356017721342109 -0.001084195876804491 -0.00036002885818265762 0.012241687582153354 -0.00029663396755984028 0.02752740940514712 0.0010795369835606978 0.00024081527845953236
leaf_weight=97981 4212 96389 118 106 1033 165 5890 126 1012 20 333 1974 70 491 145 40 155 50 528 363 21 124 153 84 5216 197 268 124 51 194
leaf_count=97981 4212 96389 118 106 1033 165 5890 126 1012 20 333 1974 70 491 145 40 155 50 528 363 21 124 153 84 5216 197 268 124 51 194
internal_value=0 0.000677786 0.00917922 0.014065 0.0174755 0.0204307 0.0209157 0.00184835 0.00591613 0.00227889 0.0107295 0.000539794 0.0149641 0.0176652 0.0127893 0.0202744 0.0212908 0.0166418 0.0212957 9.68043e-05 0.021023 0.0246223 0.00496695 0.0108202 -0.000750724 0.000656095 0.00701114 0.0104714 0.0198197 0.00628729
internal_weight=0 119652 17213 10329 8249 6906 6741 6884 2072 1343 1060 2080 727 601 310 531 6623 733 578 4812 165 144 600 237 102439 6050 834 566 175 391
internal_count=217633 119652 17213 10329 8249 6906 6741 6884 2072 1343 1060 2080 727 601 310 531 6623 733 578 4812 165 144 600 237 102439 6050 834 566 175 391
shrinkage=0.05


Tree=16
num_leaves=31
num_cat=0
split_feature=40 40 37 36 37 4 4 27 20 40 30 36 36 18 18 11 40 30 36 36 4 4 11 36 27 16 3 24 27 40
split_gain=44.1343 174.86 157.141 644.088 34.3688 20.13 16.118 9.29819 7.82693 6.61705 23.1716 6.61609 35.2015 4.43303 5.13024 4.30696 4.03395 6.25443 7.19131 35.4819 5.12828 4.61753 4.56576 2.74287 5.70282 2.82155 2.68227 2.64916 2.3321 2.9663
threshold=-0.93924999999999936 0.31988499999999936 -0.17681499999999981 -0.10081500000000009 -0.078199999999999964 1.0072750000000001 -1.5265699999999998 0.00085889000000000007 -14.137299999999998 -0.35442999999999975 0.023088400000000005 0.30085850000000008 -0.17527649999999997 -4.6302799999999991 4.6258850000000011 0.00015284250000000002 0.71026 0.031882050000000009 0.24966499999999994 -0.12496499999999998 1.1247450000000001 -1.7643199999999999 0.00026773650000000009 -0.058960000000000005 0.00033368200000000002 8.8529750000000019e-08 -16.558299999999999 17.809000000000001 0.011952750000000002 -2.1380549999999996
decision_type=2 2 2 2 2 2 2 2 2 2 2 2 2 2 2 2 2 2 2 2 2 2 2 2 2 2 2 2 2 2
left_child=26 2 -2 -4 7 6 -6 -5 11 10 -8 12 -3 -14 -15 -12 17 -10 19 -19 21 -21 -23 24 -11 -26 -1 -9 -28 -30
right_child=1 8 3 4 5 -7 9 27 16 23 15 -13 13 14 -16 -17 -18 18 -20 20 -22 22 -24 -25 25 -27 28 -29 29 -31
leaf_value=0.0032293714746763863 -0.00070883726038972012 -0.00063834943560586743 -0.00059827764760086782 -0.0004302767760396659 7.3769835755228998e-05 0.0010261684910140255 -0.0020049101621683304 0.016605730613846851 -0.00073693830706331523 -0.0033431676855044702 0.0067585174370099581 -0.00087032083029424813 0.00039209472015500069 0.022851613644786457 -0.0012710300118972859 0.0210926325778262 -0.00070214635399115568 -0.00035210802240321818 -0.00072140564298024408 -0.0053818076891316612 -0.0040242893411026846 0.0043139630014885147 0.019952334670583383 0.021130416944521561 0.0040124518796801571 0.02304914998957544 -0.00078939637390910164 0.00039830901349584264 -0.00033473336487518414 0.0021666947481441506
leaf_weight=432 10993 766 11217 273 100 143 145 158 3667 35 57 764 29 270 24 650 69860 1135 1088 22 31 53 391 5362 24 103 100246 30 8179 1386
leaf_count=432 10993 766 11217 273 100 143 145 158 3667 35 57 764 29 270 24 650 69860 1135 1088 22 31 53 391 5362 24 103 100246 30 8179 1386
internal_value=0 0.000721422 0.004016 0.00685472 0.0186627 0.019582 0.0199918 0.00546245 -0.00051415 0.0203042 0.0162027 0.00269665 0.00519911 0.0190427 0.0208824 0.019937 -0.00059218 0.00061061 0.00242732 0.00452648 0.0156677 0.0169777 0.0180856 0.0209368 0.0145269 0.0194517 -0.000702752 0.0140194 -0.000718221 2.77318e-05
internal_weight=0 107390 29290 18297 7080 6619 6476 461 78100 6376 852 1853 1089 323 294 707 76247 6387 2720 1632 497 466 444 5524 162 127 110243 188 109811 9565
internal_count=217633 107390 29290 18297 7080 6619 6476 461 78100 6376 852 1853 1089 323 294 707 76247 6387 2720 1632 497 466 444 5524 162 127 110243 188 109811 9565
shrinkage=0.05


Tree=17
num_leaves=31
num_cat=0
split_feature=36 36 36 39 40 4 4 35 39 30 3 20 40 36 4 16 39 16 39 30 11 35 39 39 17 17 13 32 36 35
split_gain=40.3032 478.283 200.905 154.887 119.737 21.8278 17.3957 17.1948 16.3232 15.6307 10.8408 9.86988 8.41657 6.40657 6.14797 6.12333 7.07929 6.31943 5.53161 19.6882 5.5183 5.20114 7.70193 5.22224 5.16339 6.38422 4.61399 6.61538 4.3533 14.5428
threshold=-0.22452634999999985 0.077348000000000056 -0.040859549999999939 1.2296250000000011 0.87140500000000032 0.92648250000000021 -1.4133199999999999 0.00030061950000000002 2.7388300000000005 0.15036250000000004 -13.243349999999998 -10.753299999999998 2.2262100000000005 -0.058960000000000005 -2.5331249999999996 9.7782250000000015e-08 -2.39771 8.2724850000000008e-05 0.39187000000000044 0.026407200000000002 0.00013551050000000002 1.9415700000000001e-05 1.3507450000000001 -1.4591200000000002 5.095670000000001 -3.8589749999999996 8.9452450000000012e-07 0.033124950000000007 0.2761725000000001 0.00095358200000000002
decision_type=2 2 2 2 2 2 2 2 2 2 2 2 2 2 2 2 2 2 2 2 2 2 2 2 2 2 2 2 2 2
left_child=-1 2 7 4 5 6 -4 13 11 -6 -5 14 24 -2 -9 -13 -17 26 -8 -20 -21 -15 23 -23 25 -11 27 -18 29 -3
right_child=1 28 3 10 9 -7 18 8 -10 12 -12 15 -14 21 -16 16 17 -19 19 20 -22 22 -24 -25 -26 -27 -28 -29 -30 -31
leaf_value=-0.00075191070560097755 -0.00048112131507123439 -0.00057651381117647426 -0.0001207096589003074 0.01612146872289057 -0.00080321910552182824 0.00050121090459552683 0.019757037307839394 -0.0029534951458979205 -5.3252384191277639e-05 -0.0031149360910058023 -0.00029220202986788847 -0.0039480626265086778 0.0032099458678015351 0.00092022257264364859 0.01823970515329694 -9.3119164100951619e-05 0.02251370692914673 0.0069556972089819345 -0.00067295635299336528 0.0035186568088829517 0.020898045467876013 -0.0025112446818140247 -0.0012026732270088462 0.020044688494163472 -0.0034398479121071955 0.027327504285400914 0.028627658588811757 -0.0045442035245532924 -0.0007673106129902625 0.0053045603281867875
leaf_weight=97981 4399 5546 118 106 1033 165 5890 38 717 20 1974 123 145 363 344 180 58 272 155 50 528 31 99 149 21 124 74 37 95596 1297
leaf_count=97981 4399 5546 118 106 1033 165 5890 38 717 20 1974 123 145 363 344 180 58 272 155 50 528 31 99 149 21 124 74 37 95596 1297
internal_value=0 0.000615727 0.00832755 0.0127374 0.015812 0.0184685 0.0189082 0.00171079 0.00584358 0.00215174 0.000544264 0.0095985 0.0119984 0.000199828 0.0161315 0.0062442 0.00826295 0.0116736 0.0192473 0.0151511 0.0193946 0.00486571 0.00999909 0.0161601 0.0197217 0.0230994 0.0192669 0.0119754 -0.000680104 0.000538166
internal_weight=0 119652 17213 10329 8249 6906 6741 6884 1843 1343 2080 1126 310 5041 382 744 621 441 6623 733 578 642 279 180 165 144 169 95 102439 6843
internal_count=217633 119652 17213 10329 8249 6906 6741 6884 1843 1343 2080 1126 310 5041 382 744 621 441 6623 733 578 642 279 180 165 144 169 95 102439 6843
shrinkage=0.05


Tree=18
num_leaves=31
num_cat=0
split_feature=37 37 36 40 39 4 35 4 39 40 37 27 39 16 4 6 4 3 39 3 30 36 35 39 39 34 39 32 13 3
split_gain=36.3761 457.19 175.294 124.665 95.2868 19.5616 15.7434 15.4937 15.2491 10.4134 8.92796 10.0127 9.84284 8.33808 8.69177 8.22558 7.01523 6.88568 6.45069 5.88599 5.29665 4.59745 4.13819 6.03028 4.06557 4.02053 3.48782 3.41913 3.33886 3.17738
threshold=0.19792950000000006 -0.057539999999999918 -0.040859549999999939 -1.4363049999999993 -1.3362800000000006 1.2369950000000001 0.00018647200000000003 -1.0382099999999996 2.7388300000000005 2.014730000000001 -0.10141500000000002 0.0008353560000000001 1.5956900000000005 9.7782250000000015e-08 -2.0429399999999993 1.3950750000000001e-06 1.6690850000000002 -13.243349999999998 -1.2170650000000005 -5.8362949999999989 0.209427 -0.058960000000000005 1.4802850000000002e-05 1.3507450000000001 -1.4591200000000002 0.065375400000000014 -2.3298099999999988 0.12161000000000001 3.3134750000000005e-06 -13.989599999999998
decision_type=2 2 2 2 2 2 2 2 2 2 2 2 2 2 2 2 2 2 2 2 2 2 2 2 2 2 2 2 2 2
left_child=1 10 6 17 20 7 21 25 9 13 -1 -12 18 -8 -15 16 -16 -4 -13 27 -5 -3 -23 24 -24 -6 -22 -9 -29 -10
right_child=-2 2 3 4 5 -7 8 19 29 -11 11 12 -14 14 15 -17 -18 -19 -20 -21 26 22 23 -25 -26 -27 -28 28 -30 -31
leaf_value=-0.00067116975700364043 -0.00070823789004617567 -0.00050707645104206087 0.01493821581462761 -0.0009710380528700649 -0.00077765174689428771 -0.00073405531584285204 -0.00035113784301484755 0.018523736829486812 0.016055565314560101 0.0010019555953528049 -0.00028583293442189871 0.003812362585647577 0.00049957472010706829 -0.0028827046796652506 0.021444696915568787 0.0077501346121117273 -0.0012744796386844404 -0.00037509569776359255 0.016746854350037341 0.0047796982736326753 0.0031060794304887005 0.00039417357845116912 -0.0027593475220532254 -0.0010027375814532587 0.017736899718795329 0.02272854078383673 0.018899203567155479 -0.0098230796733072834 0.016759565362223873 -0.00085658398329098602
leaf_weight=101534 98906 3534 77 805 136 144 117 6467 29 284 1007 147 302 69 416 217 37 1574 280 80 88 324 29 101 146 21 58 21 27 656
leaf_count=101534 98906 3534 77 805 136 144 117 6467 29 284 1007 147 302 69 416 217 37 1574 280 80 88 324 29 101 146 21 58 21 27 656
internal_value=0 0.00059 0.00860988 0.0128274 0.015455 0.0175011 0.00188754 0.01789 0.00575555 0.00929841 -0.00061038 0.00294503 0.00740797 0.012051 0.0140145 0.0157547 0.019589 0.000339093 0.012294 0.0182595 0.00061809 0.000179969 0.00422667 0.00872569 0.0143404 0.00236649 0.00938006 0.0184251 0.00512966 -0.000140595
internal_weight=0 118727 15457 9498 7847 6896 5959 6752 1825 1140 103270 1736 729 856 739 670 453 1651 427 6595 951 4134 600 276 175 157 146 6515 48 685
internal_count=217633 118727 15457 9498 7847 6896 5959 6752 1825 1140 103270 1736 729 856 739 670 453 1651 427 6595 951 4134 600 276 175 157 146 6515 48 685
shrinkage=0.05


Tree=19
num_leaves=31
num_cat=0
split_feature=37 36 37 40 39 4 4 27 39 20 39 40 30 11 10 37 27 39 39 13 30 40 4 30 30 20 36 35 40 20
split_gain=32.976 375.865 174.262 123.838 108.643 19.5592 20.0061 18.7852 16.8569 10.0593 7.34529 6.21603 22.7382 6.18768 8.08073 5.34068 5.98999 11.0403 9.70248 5.11517 4.31564 7.77512 3.53342 3.41588 3.33074 4.15439 3.21827 6.87531 4.58135 4.05776
threshold=-0.25176499999999996 -0.079468000000000025 -0.039869999999999954 -1.4363049999999993 -1.3362800000000006 1.4464300000000001 -1.2205099999999998 0.0021377100000000006 2.84389 -13.328949999999997 -2.2545749999999996 -0.60415499999999989 0.068195050000000021 0.00030683250000000005 0.00014004150000000002 -0.078199999999999964 0.00027963700000000006 0.72566000000000008 -1.1637600000000001 7.0201950000000013e-05 1.2911250000000003 -2.1849649999999996 0.61713700000000016 1.0464450000000001 0.209427 -13.010249999999997 -0.12496499999999998 0.00018647200000000003 -2.9773649999999998 -9.6131449999999976
decision_type=2 2 2 2 2 2 2 2 2 2 2 2 2 2 2 2 2 2 2 2 2 2 2 2 2 2 2 2 2 2
left_child=-1 26 7 20 24 6 23 15 9 -9 -11 12 -8 -12 19 -3 -17 18 -18 -15 -4 -22 -20 -6 -5 -26 -2 -28 -29 -30
right_child=1 2 3 4 5 -7 11 8 -10 10 13 -13 -14 14 -16 16 17 -19 22 -21 21 -23 -24 -25 25 -27 27 28 29 -31
leaf_value=-0.00069027617984909837 -0.00065370487996970546 -0.00072797842915594537 -0.00089292017124926808 -0.0010773756930521174 -0.001883183024176283 -0.00096643096620931557 -0.0019731877760134917 0.020592418087380274 7.0314419568534122e-05 0.001020969860818262 0.0027667223861913919 0.017625279885046786 0.019998309921192114 0.017387946571683324 -0.0013081708934623748 -0.0012399215024768138 -0.00096343838979072612 -0.00084028401585339125 0.017682442232461532 -0.0054938147704188638 0.002312890911158526 0.025009112697179342 -0.0027240313508588333 0.020004160455428063 0.022041639965027574 0.0026477513619426159 -0.00064851247383045747 -1.9235381713280313e-05 0.015191853480290868 0.0044818371479855255
leaf_weight=96389 101433 4507 1653 1005 164 159 187 175 785 298 193 6371 318 403 80 510 116 344 273 26 265 44 23 20 34 147 1161 195 167 188
leaf_count=96389 101433 4507 1653 1005 164 159 187 175 785 298 193 6371 318 403 80 510 116 344 273 26 265 44 23 20 34 147 1161 195 167 188
internal_value=0 0.00054877 0.00719444 0.0114316 0.0140719 0.0163761 0.0167666 0.00151396 0.00574334 0.0095334 0.00759808 0.017202 0.0118623 0.0103901 0.0132806 7.8032e-05 0.00294745 0.00577227 0.0112934 0.0160012 0.000120958 0.00554472 0.0160968 0.000495876 4.71101e-05 0.0062908 -0.000617431 0.00153299 0.00613795 0.00952007
internal_weight=0 121244 18100 10367 8405 7219 7060 7733 1960 1175 1000 6876 505 702 509 5773 1266 756 412 429 1962 309 296 184 1186 181 103144 1711 550 355
internal_count=217633 121244 18100 10367 8405 7219 7060 7733 1960 1175 1000 6876 505 702 509 5773 1266 756 412 429 1962 309 296 184 1186 181 103144 1711 550 355
shrinkage=0.05


Tree=20
num_leaves=31
num_cat=0
split_feature=36 36 37 39 39 4 4 27 39 39 3 11 10 4 37 27 39 39 3 30 4 11 20 40 39 30 30 4 11 4
split_gain=29.783 324.957 171.004 111.769 97.47 17.8789 17.6482 17.2867 15.4153 9.80626 8.67854 7.86486 10.1681 7.38739 4.95941 5.40596 9.9725 7.99707 4.34334 5.28382 3.99274 4.87387 3.85873 10.5743 8.88805 12.799 8.19124 3.44522 3.33408 3.07077
threshold=0.2761725000000001 -0.079468000000000025 -0.039869999999999954 1.510785 -1.3362800000000006 1.4464300000000001 -1.6465649999999996 0.0021377100000000006 2.84389 -2.2545749999999996 -5.8362949999999989 0.00030683250000000005 0.00022778250000000003 -1.5265699999999998 -0.078199999999999964 0.00027963700000000006 1.1470050000000007 -1.1637600000000001 -13.009399999999998 0.78599850000000016 2.2539600000000006 0.0035378750000000007 -11.621199999999998 -0.47859499999999983 -0.465335 0.026899000000000003 0.046494550000000003 0.61713700000000016 0.00016757500000000002 -0.15847949999999997
decision_type=2 2 2 2 2 2 2 2 2 2 2 2 2 2 2 2 2 2 2 2 2 2 2 2 2 2 2 2 2 2
left_child=1 -1 7 4 -4 6 -6 14 9 -9 22 29 13 -13 -3 -16 17 -17 19 -5 21 -15 -8 26 25 -25 -24 -19 -28 -11
right_child=-2 2 3 18 5 -7 10 8 -10 11 -12 12 -14 20 15 16 -18 27 -20 -21 -22 -23 23 24 -26 -27 28 -29 -30 -31
leaf_value=-0.00058655937157538922 -0.00066087278471204747 -0.00069485294751370479 4.4754666117652877e-05 -0.0020109507700671321 -0.0007520038480810726 -0.00091932929195693625 0.018618215620117042 0.0014957685914493537 2.9903040985174281e-05 0.014723388549633499 0.0032505865083149975 -0.00055860070221614648 -0.002520177542741987 0.015772510848010443 -0.0011779253926201194 -0.00091526645540805727 -0.0012926617672643331 0.015938202515934353 -0.00058166618460460146 0.021359444928227687 -0.00067680529817672717 0.026326427471188719 -0.0019012743390729309 -0.006485763916745782 0.016977299159679056 0.015166016900262168 0.00011420224660209247 -0.0027166123329489321 0.017231017898915239 -0.00026926668416933121
leaf_weight=103144 95596 5121 1186 46 156 162 1627 346 863 43 126 61 84 397 510 116 316 297 1822 51 28 151 142 100 4547 215 35 27 152 166
leaf_count=103144 95596 5121 1186 46 156 162 1627 346 863 43 126 61 84 397 510 116 316 297 1822 51 28 151 142 100 4547 215 35 27 152 166
internal_value=0 0.000517686 0.00654617 0.0108601 0.0133344 0.0155048 0.0158796 0.00130079 0.00519121 0.00868198 0.0162532 0.0113556 0.0138311 0.0159874 -2.10401e-06 0.00280008 0.00548366 0.0103503 -3.28128e-05 0.0102766 0.0177396 0.0186806 0.0164935 0.0158276 0.0164146 0.00829244 0.00715237 0.0143836 0.0140273 0.00281535
internal_weight=0 122037 18893 10367 8448 7262 7100 8526 2139 1276 6944 930 721 637 6387 1266 756 440 1919 97 576 548 6818 5191 4862 315 329 324 187 209
internal_count=217633 122037 18893 10367 8448 7262 7100 8526 2139 1276 6944 930 721 637 6387 1266 756 440 1919 97 576 548 6818 5191 4862 315 329 324 187 209
shrinkage=0.05


Tree=21
num_leaves=31
num_cat=0
split_feature=36 36 39 39 36 4 30 4 30 39 17 17 3 3 18 18 35 11 4 22 11 21 35 39 20 3 39 30 39 30
split_gain=27.1283 319.927 135.263 149.979 46.7435 17.6887 17.4149 15.9888 13.7121 11.154 8.77089 9.51566 7.61792 6.59246 5.70735 5.96329 4.42395 4.0778 5.57557 3.67565 4.89505 3.58693 3.22645 6.03726 3.37957 3.18778 15.8128 5.8045 4.94359 5.01738
threshold=-0.22452634999999985 0.077348000000000056 1.4285350000000012 -0.71725499999999964 -0.079468000000000025 0.92648250000000021 0.13940550000000004 -1.0382099999999996 0.209427 -2.3298099999999988 5.095670000000001 -5.585399999999999 -5.8362949999999989 -14.267049999999999 6.8372650000000013 -5.7481999999999989 0.00015995400000000002 0.00024047200000000001 -2.0429399999999993 12.831100000000001 0.00070374100000000013 -0.66179549999999987 0.0060015500000000005 2.7930350000000002 -11.621199999999998 -7.5181649999999989 0.31279500000000043 0.11577400000000002 -0.27803499999999998 0.015342150000000001
decision_type=2 2 2 2 2 2 2 2 2 2 2 2 2 2 2 2 2 2 2 2 2 2 2 2 2 2 2 2 2 2
left_child=-1 2 3 6 8 7 -2 21 -5 -8 11 -11 19 16 15 -13 -4 -10 -19 25 -21 -6 -15 24 -24 -9 28 -28 29 -27
right_child=1 -3 13 4 5 -7 9 12 17 10 -12 14 -14 22 -16 -17 -18 18 -20 20 -22 -23 23 -25 -26 26 27 -29 -30 -31
leaf_value=-0.00061689005788352223 -0.00065871253673536253 -0.00055465596042947145 -0.0026599355215250059 -4.5178931537011902e-05 0.018882238075137142 0.00058026261078322533 0.0015714177858377337 0.016577874753782293 -0.00054358516459945935 -0.003901714975014329 -0.0023535388007171845 0.0012769409280736 0.0032261125862598421 -0.0009104812828021286 -0.0033024341464042667 0.024185618572673307 0.016669486390524787 -0.0037889692050521264 0.019475134484121925 -0.0047021046573040536 0.017099102844412514 -0.0013574177588452586 0.023093837365740912 0.00031487315401468237 0.0063889010616282873 -0.0081131830335009932 -0.0023038496299543315 0.017954958060925657 0.016206075225187386 0.015074274352952548
leaf_weight=97981 2843 102439 43 772 25 217 407 4595 44 50 76 32 125 4270 25 253 95 30 182 51 52 176 48 447 82 43 180 44 1955 51
leaf_count=97981 2843 102439 43 772 25 217 407 4595 44 50 76 32 125 4270 25 253 95 30 182 51 52 176 48 447 82 43 180 44 1955 51
internal_value=0 0.000505161 0.0068124 0.0096424 0.0132799 0.014648 0.00121274 0.0150664 0.00328016 0.00752417 0.013081 0.0163394 0.0154603 -0.000129466 0.0196041 0.0216134 0.0106466 0.0133082 0.016183 0.0156796 0.00630433 0.00115995 -0.000436272 0.00307304 0.0125569 0.0158202 0.0142887 0.00167556 0.0156675 0.00446725
internal_weight=0 119652 17213 12228 8542 7514 3686 7297 1028 843 436 360 7096 4985 310 285 138 256 212 6971 103 201 4847 577 130 6868 2273 224 2049 94
internal_count=217633 119652 17213 12228 8542 7514 3686 7297 1028 843 436 360 7096 4985 310 285 138 256 212 6971 103 201 4847 577 130 6868 2273 224 2049 94
shrinkage=0.05


Tree=22
num_leaves=31
num_cat=0
split_feature=36 36 37 39 39 27 4 4 39 39 3 11 10 4 37 27 39 39 3 30 4 11 3 39 30 39 30 11 39 4
split_gain=24.557 266.294 138.256 91.0906 79.7846 15.3619 14.7305 14.5654 13.4848 8.56157 7.07701 6.88289 8.92791 6.52689 3.90952 4.58573 8.42119 7.87604 3.6221 4.50946 3.53474 4.01152 3.35776 8.53176 9.96466 9.6175 8.64358 3.5347 3.21608 2.74848
threshold=0.2761725000000001 -0.079468000000000025 -0.039869999999999954 1.510785 -1.3362800000000006 0.0021377100000000006 1.4464300000000001 -1.6465649999999996 2.84389 -2.2545749999999996 -5.8362949999999989 0.00030683250000000005 0.00022778250000000003 -1.5265699999999998 -0.078199999999999964 0.00028364750000000005 0.47541999999999979 -1.1637600000000001 -13.009399999999998 0.78599850000000016 3.0771300000000004 0.0032042350000000002 -11.042399999999999 -0.465335 0.028445000000000002 0.43278000000000022 0.046494550000000003 0.00012403000000000004 -0.82558500000000012 -0.15847949999999997
decision_type=2 2 2 2 2 2 2 2 2 2 2 2 2 2 2 2 2 2 2 2 2 2 2 2 2 2 2 2 2 2
left_child=1 -1 5 4 -4 14 7 -6 9 -7 22 29 13 -13 -3 -16 17 -17 19 -5 21 28 -9 24 -24 -25 -27 -28 -15 -11
right_child=-2 2 3 18 6 8 -8 10 -10 11 -12 12 -14 20 15 16 -18 -19 -20 -21 -22 -23 23 25 -26 26 27 -29 -30 -31
leaf_value=-0.00052953917713980888 -0.00060009634901790393 -0.00063237750171135415 1.6324851005440218e-05 -0.0019644115484603072 -0.00076545868770410428 0.001428547062819576 -0.00090440603542245107 0.016692657070998606 5.1029774803897048e-05 0.013917906400422717 0.0029415196295650235 -0.00057477364774610176 -0.0023644491409262024 0.0042180691387445207 -0.0011573138374243251 -0.00084109745282483727 -0.00043131946383611014 0.014849364788466091 -0.00052873156146932508 0.019625662983048197 -0.0021598044957499953 0.023671549932226879 -0.007304032200697772 0.015378013429012681 0.013030624930869858 -0.0017115804696490305 -0.0050527138028131878 0.015650240855113646 0.016599897860576168 -0.00026618464098098767
leaf_weight=103144 95596 5121 1186 46 156 346 162 1889 863 43 126 61 84 63 516 114 368 268 1822 51 24 176 97 4290 159 161 23 199 313 166
leaf_count=103144 95596 5121 1186 46 156 346 162 1889 863 43 126 61 84 63 516 114 368 268 1822 51 24 176 97 4290 159 161 23 199 313 166
internal_value=0 0.000470077 0.00592736 0.00980625 0.01204 0.00121091 0.0140037 0.0143438 0.00487835 0.00814322 0.0146833 0.0106414 0.0129573 0.0149777 -1.73102e-05 0.00247065 0.00496669 0.0101669 -2.75159e-05 0.00938707 0.0166248 0.0174415 0.0149003 0.0142134 0.0053257 0.0147003 0.00710867 0.0135053 0.0145253 0.00265207
internal_weight=0 122037 18893 10367 8448 8526 7262 7100 2139 1276 6944 930 721 637 6387 1266 750 382 1919 97 576 552 6818 4929 256 4673 383 222 376 209
internal_count=217633 122037 18893 10367 8448 8526 7262 7100 2139 1276 6944 930 721 637 6387 1266 750 382 1919 97 576 552 6818 4929 256 4673 383 222 376 209
shrinkage=0.05


Tree=23
num_leaves=31
num_cat=0
split_feature=36 36 36 39 39 4 35 39 20 4 39 16 4 6 3 4 3 32 13 30 36 35 39 39 18 18 39 35 36 30
split_gain=22.3276 249.466 119.647 84.4033 64.5637 12.5314 12.1611 11.4527 10.4218 9.65246 8.66373 7.33093 7.85252 7.0503 6.59703 4.83137 3.8997 3.69311 5.84159 3.50019 3.3028 3.30266 4.40699 3.25602 3.12792 3.94649 3.11246 3.08307 2.98652 8.1812
threshold=-0.25142799999999998 0.077348000000000056 -0.040859549999999939 1.2296250000000011 -0.88227999999999918 0.92648250000000021 0.00030061950000000002 1.510785 -13.010249999999997 -1.7643199999999999 -2.3298099999999988 2.562600000000001e-07 -1.8861499999999998 1.3540400000000001e-06 -13.243349999999998 1.7937450000000001 -15.867949999999999 0.14537000000000003 2.1242850000000004e-06 0.13940550000000004 -0.058960000000000005 1.9415700000000001e-05 1.2296250000000011 -2.2545749999999996 -3.8826699999999996 3.4952500000000004 -1.4591200000000002 9.1330750000000006e-05 0.02582950000000005 0.013931150000000002
decision_type=2 2 2 2 2 2 2 2 2 2 2 2 2 2 2 2 2 2 2 2 2 2 2 2 2 2 2 2 2 2
left_child=-1 2 6 4 8 9 20 10 -4 -6 -8 -12 -13 15 27 -14 -9 28 -19 -10 -2 -22 26 -21 -25 -26 -23 -5 -11 -30
right_child=1 -3 3 14 5 -7 7 16 19 17 11 12 13 -15 -16 -17 -18 18 -20 23 21 22 -24 24 25 -27 -28 -29 29 -31
leaf_value=-0.00056411358905446448 -0.00043478999444908464 -0.00050075063938137608 0.017225746424266636 -0.0041183477436954321 -0.0010970382711717062 3.8534595002700763e-05 0.00099543685335093802 0.022040524723983948 -0.00093351348135620356 0.014734502146301544 1.2850101853980395e-05 -0.0022850961636452535 0.021333520051052036 0.0072075527364409767 -0.00026006706888393973 0.00097700114274630319 0.00026535834020147543 -0.019454607970657803 0.014483597874641419 0.00038813716017229615 0.00022751947649377437 -0.0022018935591463121 -0.00088023371063172817 -0.0058349938830360775 0.021883056609742886 -0.0024367586032233456 0.015231918378853473 0.016908001203444743 0.001516047025819315 0.013778203323261401
leaf_weight=97126 5076 102439 99 22 105 166 293 21 1000 5601 122 70 327 172 1974 32 984 21 32 129 363 31 101 20 69 22 147 84 163 822
leaf_count=97126 5076 102439 99 22 105 166 293 21 1000 5601 122 70 327 172 1974 32 984 21 32 129 363 31 101 20 69 22 147 84 163 822
internal_value=0 0.000454663 0.00587151 0.00939343 0.011663 0.0136103 0.00117092 0.00450483 0.00161428 0.0139443 0.00824832 0.0111876 0.013456 0.0155311 0.00039245 0.019519 0.000720362 0.0141822 0.00103638 0.000367886 -7.42825e-06 0.00337153 0.00746211 0.00579038 0.0120687 0.0160035 0.0121957 0.012544 0.014288 0.011749
internal_weight=0 120507 18068 10329 8249 6910 7739 2021 1339 6744 1016 723 601 531 2080 359 1005 6639 53 1240 5718 642 279 240 111 91 178 106 6586 985
internal_count=217633 120507 18068 10329 8249 6910 7739 2021 1339 6744 1016 723 601 531 2080 359 1005 6639 53 1240 5718 642 279 240 111 91 178 106 6586 985
shrinkage=0.05


Tree=24
num_leaves=31
num_cat=0
split_feature=36 36 37 39 39 35 39 10 39 11 10 3 12 20 40 40 30 30 17 17 18 12 18 37 27 39 39 3 30 12
split_gain=20.2587 218.432 111.741 74.4564 65.3642 13.7059 12.1369 11.345 7.35118 6.40126 8.00342 5.76493 4.78727 3.57019 8.36336 8.38668 12.8797 6.42045 4.0386 4.19634 3.90968 3.50907 3.26552 3.15967 3.88212 7.203 6.78727 3.00134 3.88125 2.7438
threshold=0.2761725000000001 -0.079468000000000025 -0.039869999999999954 1.510785 -1.3362800000000006 0.00039785800000000007 2.84389 0.00016420600000000005 -2.2545749999999996 0.00030683250000000005 0.00022778250000000003 -5.8362949999999989 -2.6163199999999997e-05 -11.621199999999998 -0.47859499999999983 0.23534999999999953 0.014727600000000002 0.046494550000000003 8.6104250000000011 -7.7125999999999992 7.3737850000000007 5.5927550000000006e-05 -7.4922749999999985 -0.078199999999999964 0.00027963700000000006 0.47541999999999979 -1.1637600000000001 -13.009399999999998 0.78599850000000016 7.2144500000000009e-06
decision_type=2 2 2 2 2 2 2 2 2 2 2 2 2 2 2 2 2 2 2 2 2 2 2 2 2 2 2 2 2 2
left_child=1 -1 5 4 -4 23 8 11 -7 -10 21 12 -6 -14 17 29 -17 -15 19 -18 22 -11 -21 -3 -25 26 -26 28 -5 -16
right_child=-2 2 3 27 7 6 -8 -9 9 10 -12 -13 13 14 15 16 18 -19 -20 20 -22 -23 -24 24 25 -27 -28 -29 -30 -31
leaf_value=-0.00047837867145848474 -0.00054505399008688714 -0.0005762914265120564 -6.7472684826909193e-06 -0.0019951508785395521 0.00090675664169690285 0.001443146267568676 6.1750651754473304e-05 -0.00042963405314906227 0.0021181741249606464 0.015059970162400474 -0.0022330130882827299 0.0024370834427827506 0.015341739684555423 -0.0022322614612819264 0.01411075227549427 -0.0051671673250320849 -0.0073002754747867596 0.011352655566103447 -0.0083558982179965831 -0.0018526977066088608 -0.0031317026790929959 -0.001685518744599187 0.016107542531468011 -0.0011673365352565751 -0.00086084272171187614 -0.00051712855204658688 0.013532958278643998 -0.00049020600841001387 0.018034691012957516 -0.00015004871084409603
leaf_weight=103144 95596 5135 1186 46 79 337 866 162 198 602 84 128 1616 159 4234 146 25 192 24 27 32 33 404 510 117 371 273 1822 51 34
leaf_count=103144 95596 5135 1186 46 79 337 866 162 198 602 84 128 1616 159 4234 146 25 192 24 27 32 33 404 510 117 371 273 1822 51 34
internal_value=0 0.000426961 0.00536955 0.0088567 0.0108763 0.00112942 0.00461421 0.0126536 0.00775809 0.0100788 0.0122711 0.0129521 0.0131452 0.0132855 0.0126557 0.0131871 0.00793276 0.0051988 0.0116683 0.0126531 0.0137305 0.0141897 0.0149824 -2.38329e-05 0.00220817 0.00447033 0.00921482 -3.39568e-05 0.008536 0.0139971
internal_weight=0 122037 18893 10367 8448 8526 2120 7262 1254 917 719 7100 6972 6893 5277 4926 658 351 512 488 463 635 431 6406 1271 761 390 1919 97 4268
internal_count=217633 122037 18893 10367 8448 8526 2120 7262 1254 917 719 7100 6972 6893 5277 4926 658 351 512 488 463 635 431 6406 1271 761 390 1919 97 4268
shrinkage=0.05


Tree=25
num_leaves=31
num_cat=0
split_feature=36 36 36 39 40 27 4 11 4 30 4 4 39 39 3 37 27 39 40 32 13 40 16 6 3 39 30 39 30 18
split_gain=18.4642 171.975 128.301 68.8341 52.3919 12.564 11.3573 9.79263 9.49799 6.71824 6.50841 5.99571 5.86974 7.54131 5.48715 5.09165 6.34626 8.03655 6.05192 3.66058 5.19093 3.26791 2.76355 2.69116 2.64922 6.67048 9.55733 7.32113 7.57294 4.47528
threshold=-0.3562499999999999 0.077348000000000056 -0.040859549999999939 1.2296250000000011 1.151035 0.0050916450000000005 0.92648250000000021 0.00062372550000000006 -1.7643199999999999 0.209427 -2.1602949999999992 2.5139300000000007 -3.1159849999999993 5.089570000000001 -13.243349999999998 0.078754999999999922 0.00044704450000000007 1.46871 1.0949350000000011 0.14537000000000003 2.1242850000000004e-06 3.0726850000000008 1.3049500000000003e-06 5.6989500000000011e-07 -10.911099999999999 0.35261000000000037 0.026407200000000002 -0.27803499999999998 0.014983150000000002 7.3737850000000007
decision_type=2 2 2 2 2 2 2 2 2 2 2 2 2 2 2 2 2 2 2 2 2 2 2 2 2 2 2 2 2 2
left_child=-1 2 5 4 6 15 8 -7 -4 -6 -9 12 -12 22 -5 16 -2 18 -18 24 -21 -11 -14 -24 -10 27 -27 28 -26 -30
right_child=1 -3 3 14 9 7 -8 10 19 21 11 -13 13 -15 -16 -17 17 -19 -20 20 -22 -23 23 -25 25 26 -28 -29 29 -31
leaf_value=-0.00052952509250729976 -0.00057217377271237123 -0.00045217518485853774 -0.0013743236553201005 0.01143750650632494 -0.00082465866503229771 0.0001539129284667849 -0.00011099972386839368 -0.0012700673952386304 0.014458230565303556 0.013764619625600659 0.0026223283367990346 0.00094748344967843278 0.0050684659230727253 0.002493827947998576 -0.00023995792868772661 -0.00043497849139269697 0.01338588525635187 -0.0010045989995420563 0.00022651682663549726 -0.018873618052087048 0.011795852454127493 0.00097599195782095195 0.022068794979613067 0.01330291846509468 -0.0059643475925743898 -0.0030223174015071223 0.011928361979147 0.013481370696767431 0.012272720699757338 -0.011249760131944311
leaf_weight=93727 700 102439 121 106 993 672 183 158 1883 133 135 154 41 107 1974 8082 345 255 117 22 37 80 231 141 96 167 297 3965 250 22
leaf_count=93727 700 102439 121 106 993 672 183 158 1883 133 135 154 41 107 1974 8082 345 255 117 22 37 80 231 141 96 167 297 3965 250 22
internal_value=0 0.000400552 0.00446971 0.00848367 0.0105333 0.000747296 0.0121822 0.00479008 0.0125101 0.000903721 0.0080119 0.00982469 0.0119119 0.0143236 0.000355144 4.9736e-05 0.00281435 0.00612059 0.0100533 0.0127594 0.000359779 0.00896138 0.0173884 0.0187462 0.012869 0.0122451 0.00654741 0.0128552 0.00610899 0.0103702
internal_weight=0 123906 21467 10329 8249 11138 7043 1639 6860 1206 967 809 655 520 2080 9499 1417 717 462 6739 59 213 413 372 6680 4797 464 4333 368 272
internal_count=217633 123906 21467 10329 8249 11138 7043 1639 6860 1206 967 809 655 520 2080 9499 1417 717 462 6739 59 213 413 372 6680 4797 464 4333 368 272
shrinkage=0.05


Tree=26
num_leaves=31
num_cat=0
split_feature=37 36 37 39 39 35 40 4 4 39 11 10 4 40 35 11 4 11 13 35 11 37 39 35 40 4 21 21 4 10
split_gain=16.7404 163.282 105.227 60.8451 53.5295 12.6116 11.1743 10.2136 10.0961 6.32456 6.21209 7.62848 5.04672 3.95226 11.313 4.90449 3.75652 4.21018 2.6846 2.64673 2.79644 2.59403 3.2208 6.39983 5.08881 2.5138 9.10883 8.50402 6.51024 2.4866
threshold=-0.33012499999999995 -0.079468000000000025 -0.039869999999999954 1.510785 -1.3362800000000006 0.00039785800000000007 -2.8126249999999997 1.4464300000000001 -1.6465649999999996 -2.2545749999999996 0.00030683250000000005 0.00022778250000000003 -1.5265699999999998 -0.47859499999999983 2.0374000000000002e-05 0.00014136750000000003 1.8987000000000003 0.0059042550000000015 8.2193200000000006e-07 0.0060015500000000005 0.0006072295000000001 -0.078199999999999964 0.47541999999999979 1.2929400000000002e-05 1.2052499999999997 -0.29052249999999996 0.42697150000000006 -0.48397549999999995 0.28079350000000008 0.00021504100000000004
decision_type=2 2 2 2 2 2 2 2 2 2 2 2 2 2 2 2 2 2 2 2 2 2 2 2 2 2 2 2 2 2
left_child=-1 -2 5 4 -4 21 -7 8 -6 -8 18 12 -12 14 -10 -16 17 25 -11 -5 -21 -3 23 -23 -25 26 -14 -27 -29 -22
right_child=1 2 3 19 7 6 9 -9 13 10 11 -13 16 -15 15 -17 -18 -19 -20 20 29 22 -24 24 -26 27 -28 28 -30 -31
leaf_value=-0.00050388545805070959 -0.00043160786053912312 -0.00052217273868762789 -2.9499182072397428e-05 -0.00074727911262354504 -0.00086860961089722626 8.18622629276476e-05 0.0013676913553354098 -0.00098616649837946001 9.8740655474018209e-05 -0.00047203256624132992 0.00028188885901019809 -0.0018720284304904319 0.023513031978212248 0.012399427274171482 -0.00017258391560365759 0.015149901286876825 0.00033266059847341647 0.024958348563431126 0.014177772859614846 -0.0005074711832071631 0.014049904680553268 -0.00068057602104633613 -0.00078433547384258717 0.012602906643102567 -0.00098572262770872817 -0.002499109107315883 -0.007219514539786454 0.0046091596264930734 0.022082677955782955 -0.0034208894958003208
leaf_weight=93794 103144 6567 1186 1678 156 1063 384 162 258 202 72 101 143 6223 60 403 45 95 37 121 94 335 584 258 94 87 29 83 149 26
leaf_count=93794 103144 6567 1186 1678 156 1063 384 162 258 202 72 101 143 6223 60 403 45 95 37 121 94 335 584 258 94 87 29 83 149 26
internal_value=0 0.000381636 0.00443485 0.00799347 0.00981912 0.000862787 0.0039627 0.0114276 0.0117108 0.00685362 0.00887336 0.0109772 0.0128233 0.0119934 0.00848895 0.0131643 0.0142543 0.0153234 0.00179593 -4.35594e-05 0.0048562 -0.000122003 0.00194559 0.00426623 0.00897412 0.0134592 0.0183314 0.0108322 0.0158314 0.0102646
internal_weight=0 123839 20695 10367 8448 10328 2490 7262 7100 1427 1043 804 703 6944 721 463 631 586 239 1919 241 7838 1271 687 352 491 172 319 232 120
internal_count=217633 123839 20695 10367 8448 10328 2490 7262 7100 1427 1043 804 703 6944 721 463 631 586 239 1919 241 7838 1271 687 352 491 172 319 232 120
shrinkage=0.05


Tree=27
num_leaves=31
num_cat=0
split_feature=36 36 36 39 40 27 4 4 11 30 4 3 4 39 39 37 27 39 40 32 13 18 18 11 3 11 40 3 30 40
split_gain=15.2649 141.197 94.8666 60.6673 50.3648 11.247 10.476 9.55434 8.71255 6.2874 5.79141 5.43459 5.31712 5.1807 6.73486 4.19161 6.40245 7.5768 7.54482 3.96987 5.02461 3.29848 4.17967 3.15672 3.01883 2.97498 2.88119 2.76687 2.66962 10.7468
threshold=-0.3562499999999999 0.10022550000000004 -0.040859549999999939 1.2296250000000011 1.151035 0.0050916450000000005 0.92648250000000021 -1.0382099999999996 0.00062372550000000006 0.34287850000000003 -2.1602949999999992 -13.243349999999998 2.5139300000000007 -3.1159849999999993 5.089570000000001 0.09983149999999999 0.00047923150000000006 1.46871 1.0949350000000011 0.14537000000000003 6.0361250000000016e-07 4.6258850000000011 -4.5569299999999986 0.030258200000000002 -8.1461699999999979 0.01464405 3.7911450000000002 -14.092499999999999 0.093126650000000019 -0.60415499999999989
decision_type=2 2 2 2 2 2 2 2 2 2 2 2 2 2 2 2 2 2 2 2 2 2 2 2 2 2 2 2 2 2
left_child=-1 2 5 4 6 15 7 -4 -7 -6 -10 23 13 -12 -15 16 -2 18 24 28 -21 22 -11 -5 25 -18 -24 -8 29 -9
right_child=1 -3 3 11 9 8 27 19 10 21 12 -13 -14 14 -16 -17 17 -19 -20 20 -22 -23 26 -25 -26 -27 -28 -29 -30 -31
leaf_value=-0.00048146843573666499 -0.00062357702462024513 -0.00042711445208637667 0.00024231168190548148 0.014502638200183913 -0.00063257527298681265 0.0001497182099098739 0.016897781946781008 -0.00059819909147721122 -0.0011940783308597895 -0.00014226291095837952 0.0025099627359735747 -0.0002187583684061096 0.00091196189713120079 0.016399300136416248 0.0023236363499521094 -0.00052422706107120305 0.016284919981145379 -0.00061525178860892288 6.7132672362883258e-05 -0.018379626855254173 0.01048259774321004 -0.0035689297176542734 0.021521453086412356 -0.0068592227019724401 0.0056661457847092906 -0.0017356549091637136 0.0013140342790972104 -0.0018027350365906498 0.013496453031229219 0.011543873721991213
leaf_weight=93727 1107 101579 193 98 1253 672 22 189 158 48 135 2356 154 413 107 7385 273 386 192 25 38 42 89 21 131 25 22 196 1505 5092
leaf_count=93727 1107 101579 193 98 1253 672 22 189 158 48 135 2356 154 413 107 7385 273 386 192 25 38 42 89 21 131 25 22 196 1505 5092
internal_value=0 0.0003642 0.00396437 0.00721613 0.00917828 0.000697712 0.0108794 0.0112136 0.00452274 0.000684304 0.0075617 0.000307806 0.00927173 0.0112372 0.013503 3.77242e-05 0.00200083 0.00488586 0.00830523 0.0115228 -0.000970666 0.0088935 0.0121855 0.0107329 0.0119922 0.0147731 0.0175164 8.44731e-05 0.0116387 0.0111093
internal_weight=0 123906 22327 11189 8714 11138 7260 7042 1639 1454 967 2475 809 655 520 9499 2114 1007 621 6849 63 201 159 119 429 298 111 218 6786 5281
internal_count=217633 123906 22327 11189 8714 11138 7260 7042 1639 1454 967 2475 809 655 520 9499 2114 1007 621 6849 63 201 159 119 429 298 111 218 6786 5281
shrinkage=0.05


Tree=28
num_leaves=31
num_cat=0
split_feature=37 36 37 39 40 35 39 4 4 20 3 40 13 32 13 32 13 10 34 0 6 20 39 39 30 3 18 17 17 30
split_gain=13.7902 133.645 85.3919 49.8171 43.8862 11.1539 9.74232 8.51674 8.91262 6.59671 4.101 4.0344 4.79857 8.45198 6.39694 6.26661 3.76174 4.02973 3.45464 3.06048 2.84667 2.3071 5.98261 6.88397 7.88376 4.70573 3.59822 2.85638 3.21268 2.2959
threshold=-0.33012499999999995 -0.079468000000000025 -0.039869999999999954 1.510785 1.4428800000000004 0.00039785800000000007 2.9569100000000006 1.4464300000000001 -1.0382099999999996 -13.328949999999997 -5.8362949999999989 2.829940000000001 6.9009750000000011e-07 0.0055718750000000013 7.0201950000000013e-05 0.033124950000000007 -5.3401899999999988e-07 0.00010299250000000001 0.065375400000000014 4.865495000000001 1.2194600000000003e-06 -10.311099999999998 0.43278000000000022 -0.27803499999999998 0.014983150000000002 -7.5181649999999989 7.3737850000000007 -7.3314749999999984 8.1756000000000011 1.2911250000000003
decision_type=2 2 2 2 2 2 2 2 2 2 2 2 2 2 2 2 2 2 2 2 2 2 2 2 2 2 2 2 2 2
left_child=-1 -2 5 4 7 -3 9 8 18 20 21 12 15 -14 19 16 17 -11 -4 -15 -7 -10 23 24 -23 -24 27 -26 -29 -5
right_child=1 2 3 29 -6 6 -8 -9 10 11 -12 -13 13 14 -16 -17 -18 -19 -20 -21 -22 22 25 -25 26 -27 -28 28 -30 -31
leaf_value=-0.00045733544528396173 -0.00038936788667522581 -0.0001306183857196416 -0.0020953542470638436 -0.00080502974065632324 -0.00018916264881720473 0.01728570440331894 8.7101743067098346e-06 -0.00092597750861331772 0.012332517058113134 0.01588198816347303 0.0016766288615137088 2.2189682110761985e-05 -0.0019772705078745885 0.024555700092871741 -0.0013266587541956041 -0.0024419035439336291 0.0014611232029490694 -0.0013035673187872354 0.015252729609389516 0.012460912148990148 0.0031688560441964207 -0.0066067807091114766 0.010797829448901973 0.011539438189579518 -0.0061947364243678752 -0.0021868782283658264 -0.0097792088869027797 0.013433107522045415 -0.0060913285584715399 0.0039251978579358977
leaf_weight=93794 103144 7838 184 1614 1154 173 1037 165 2288 165 119 312 90 123 45 237 129 43 34 91 45 111 122 3786 24 163 24 251 23 305
leaf_count=93794 103144 7838 184 1614 1154 173 1037 165 2288 165 119 312 90 123 45 237 129 43 34 91 45 111 122 3786 24 163 24 251 23 305
internal_value=0 0.00034638 0.00401335 0.00721908 0.00887102 0.000795513 0.00371078 0.0103044 0.0105644 0.00635294 0.0108784 0.00493748 0.00659899 0.0112225 0.0158092 0.00378785 0.00816902 0.0123292 0.00061031 0.0194126 0.0143717 0.0110396 0.0103828 0.0108564 0.00488425 0.00337149 0.00884545 0.0103454 0.0117942 -5.32218e-05
internal_weight=0 123839 20695 10367 8448 10328 2490 7294 7129 1453 6911 1235 923 349 259 574 337 208 218 214 218 6792 4504 4219 433 285 322 298 274 1919
internal_count=217633 123839 20695 10367 8448 10328 2490 7294 7129 1453 6911 1235 923 349 259 574 337 208 218 214 218 6792 4504 4219 433 285 322 298 274 1919
shrinkage=0.05


Tree=29
num_leaves=31
num_cat=0
split_feature=36 36 36 37 4 4 3 27 27 11 11 10 4 4 21 21 4 4 37 27 4 4 36 12 3 10 16 35 36 18
split_gain=12.6287 116.262 76.9408 22.5921 14.1442 13.2042 13.3686 10.0657 7.92868 7.80268 6.14099 5.70473 5.21502 5.19179 13.9003 8.41236 5.08738 7.51202 3.45808 5.50274 2.92529 3.19589 2.90073 2.73583 2.65155 3.78481 2.57766 2.4544 2.34174 2.10527
threshold=-0.3562499999999999 0.10022550000000004 -0.040859549999999939 -0.026150000000000003 0.92648250000000021 -1.6465649999999996 -5.8575499999999989 0.0050916450000000005 0.00049555400000000015 0.00062372550000000006 0.00015638100000000001 0.00015586950000000003 -1.8861499999999998 -0.40498649999999997 -0.48397549999999995 0.65909550000000017 0.18998850000000003 3.3436750000000006 0.09983149999999999 0.00047923150000000006 -2.2787549999999999 2.0063000000000004 -0.17527649999999997 -1.9150249999999998e-05 -8.0858449999999973 6.0257150000000006e-05 2.8823200000000004e-07 9.5398850000000016e-05 -0.018010000000000078 -6.7912899999999992
decision_type=2 2 2 2 2 2 2 2 2 2 2 2 2 2 2 2 2 2 2 2 2 2 2 2 2 2 2 2 2 2
left_child=-1 2 7 8 5 -5 28 18 -4 -9 -10 20 -11 14 22 -15 -17 23 19 -2 -12 26 -14 -18 25 -21 -22 -28 -7 -25
right_child=1 -3 3 4 -6 6 -8 9 10 12 11 -13 13 15 -16 16 17 -19 -20 24 21 -23 -24 29 -26 -27 27 -29 -30 -31
leaf_value=-0.00043792660877069466 -0.0006180792040121763 -0.00038678876515776516 0.00048661284704774047 -0.0011397313305808764 -0.00062889383090821815 0.007630716423120569 0.00027031090971787726 0.00013642779418400355 -0.0003570938554142742 -0.00094453216228761118 -0.002816630912323793 -0.0012270709641335397 0.034627532929261316 2.0953994856154831e-05 -0.003777527988755277 0.0001883540250774887 0.0033670513890683654 0.00074976844374429093 -0.00047854730712480661 0.0086360429498633651 0.0035334130026802254 -0.0018891621101647616 0.01938709447921444 0.033616325741305068 0.0010868774674679727 -0.00023910876072477549 0.0060010124482772556 0.011608571288400683 0.01001722440700367 0.019663842108848535
leaf_weight=93727 1107 101579 1545 336 446 1275 412 672 379 165 60 194 47 274 63 72 21 66 7385 482 176 70 93 34 365 160 267 725 5304 132
leaf_count=93727 1107 101579 1545 336 446 1275 412 672 379 165 60 194 47 274 63 72 21 66 7385 482 176 70 93 34 365 160 267 725 5304 132
internal_value=0 0.000331264 0.00359812 0.00652659 0.00801601 0.00854223 0.00900757 0.000656236 0.00313746 0.00427481 0.00532642 0.00677016 0.00715071 0.00881619 0.0157266 0.00647425 0.0119149 0.0152521 3.18707e-05 0.00181495 0.00796543 0.00848798 0.0245035 0.0203705 0.0044896 0.00642417 0.0091099 0.0100993 0.00955472 0.0225216
internal_weight=0 123906 22327 11189 7773 7327 6991 11138 3416 1639 1871 1492 967 802 203 599 325 253 9499 2114 1298 1238 140 187 1007 642 1168 992 6579 166
internal_count=217633 123906 22327 11189 7773 7327 6991 11138 3416 1639 1871 1492 967 802 203 599 325 253 9499 2114 1298 1238 140 187 1007 642 1168 992 6579 166
shrinkage=0.05


Tree=30
num_leaves=31
num_cat=0
split_feature=36 36 36 39 39 4 27 4 11 30 4 4 21 21 4 4 3 37 27 39 40 22 39 18 18 20 39 30 40 27
split_gain=11.3974 104.927 69.439 47.1047 37.8074 9.12828 9.08429 7.77015 7.04192 4.80753 4.71861 4.4115 12.3029 7.59215 4.59136 6.7796 4.02128 3.12092 4.96622 6.16958 6.33825 3.02897 2.59439 2.58888 3.6105 2.45162 4.22701 7.35037 5.10748 7.25949
threshold=-0.3562499999999999 0.10022550000000004 -0.040859549999999939 1.636995 -1.2170650000000005 0.92648250000000021 0.0050916450000000005 -1.6465649999999996 0.00062372550000000006 0.34287850000000003 -2.1602949999999992 -0.40498649999999997 -0.48397549999999995 0.65909550000000017 0.18998850000000003 3.3436750000000006 -5.8575499999999989 0.09983149999999999 0.00047923150000000006 1.46871 1.0949350000000011 38.031000000000013 4.3033550000000007 4.6258850000000011 -4.5569299999999986 -12.100849999999999 -0.27803499999999998 0.014983150000000002 -0.27579999999999932 0.0028284650000000005
decision_type=2 2 2 2 2 2 2 2 2 2 2 2 2 2 2 2 2 2 2 2 2 2 2 2 2 2 2 2 2 2
left_child=-1 2 6 4 9 7 17 -6 -8 -4 -10 12 -12 -13 -15 22 21 18 -2 20 -20 25 -16 24 -11 -9 27 -27 29 -28
right_child=1 -3 3 -5 5 -7 8 16 10 23 11 13 -14 14 15 -17 -18 -19 19 -21 -22 -23 -24 -25 -26 26 28 -29 -30 -31
leaf_value=-0.00041603028245200066 -0.00058717526074384481 -0.0003674493355901576 -0.00079464703248413419 -0.00029683306821998569 -0.00097783043386948402 -0.00018107584870727096 0.00012960641078756278 0.011867106696788393 -0.001110138773993306 -0.00089034911892984223 0.02267536159990163 1.9906249991788049e-05 -0.0035030279559298202 0.00017893633468904431 0.021611852831624312 0.00071227993590362154 0.002117048554032682 -0.0004546199407250846 0.010729989177810076 -0.00069892233511471618 -0.00020003681784146467 -0.0094385518506169327 0.0040039077168330548 -0.0034040808904825188 0.01593265580908897 -0.0062874390588452417 0.0037124370665178965 0.0082600038881260173 0.010704074266237566 0.016131024057565092
leaf_weight=93727 1107 101579 1233 2233 171 249 672 1461 158 46 145 274 65 72 163 66 166 7385 429 386 192 20 24 41 104 108 590 443 4177 147
leaf_count=93727 1107 101579 1233 2233 171 249 672 1461 158 46 145 274 65 72 163 66 166 7385 429 386 192 20 24 41 104 108 590 443 4177 147
internal_value=0 0.0003147 0.00341821 0.00620026 0.00782018 0.00923272 0.000623424 0.00955457 0.00406107 0.000348787 0.00679318 0.00833672 0.0145725 0.00615054 0.0113191 0.0144895 0.00980781 3.02772e-05 0.00172421 0.00426512 0.00735066 0.00999161 0.019352 0.00773022 0.0107736 0.0100477 0.00956133 0.0054086 0.010027 0.00618941
internal_weight=0 123906 22327 11189 8956 7532 11138 7283 1639 1424 967 809 210 599 325 253 7112 9499 2114 1007 621 6946 187 191 150 6926 5465 551 4914 737
internal_count=217633 123906 22327 11189 8956 7532 11138 7283 1639 1424 967 809 210 599 325 253 7112 9499 2114 1007 621 6946 187 191 150 6926 5465 551 4914 737
shrinkage=0.05


Tree=31
num_leaves=31
num_cat=0
split_feature=37 38 37 40 39 27 4 4 40 13 32 13 32 3 30 11 4 3 6 29 3 39 30 39 30 11 18 16 27 13
split_gain=10.3789 99.4645 56.9613 43.4747 39.66 9.65995 9.34262 8.74659 6.02783 5.81621 7.04425 5.95938 5.13509 4.21064 5.87889 4.35076 3.78187 3.41016 3.37769 3.2215 2.66338 6.80661 6.00406 4.71652 6.60604 3.55843 3.03429 3.20422 2.66283 2.62447
threshold=-0.33012499999999995 -0.10081500000000009 -0.057539999999999918 -1.4363049999999993 -1.5836399999999993 0.0061309900000000011 1.1247450000000001 -1.0382099999999996 -4.4138449999999994 9.6924450000000025e-07 0.029614900000000003 7.0201950000000013e-05 0.0037576550000000004 -10.911099999999999 0.71357000000000015 0.037495750000000008 -0.29052249999999996 -5.8362949999999989 9.362525000000001e-07 0.00012485500000000002 -10.442949999999998 -0.465335 0.028445000000000002 0.31279500000000043 0.022662550000000004 0.00012403000000000004 7.0074550000000011 8.8529750000000019e-08 0.0071414500000000006 3.2990050000000008e-07
decision_type=2 2 2 2 2 2 2 2 2 2 2 2 2 2 2 2 2 2 2 2 2 2 2 2 2 2 2 2 2 2
left_child=-1 -2 5 13 -5 -3 7 -6 -7 10 16 12 -11 14 -4 -16 -10 20 -14 -20 -9 22 -22 28 -25 -26 27 -24 -23 -19
right_child=1 2 3 4 6 8 -8 17 9 11 -12 -13 18 -15 15 -17 -18 29 19 -21 21 23 26 24 25 -27 -28 -29 -30 -31
leaf_value=-0.00039675678163625275 -0.00034990780250577396 -0.0001442844370620543 -0.0009434550326841419 -0.00023616038263469977 6.6248848452232781e-05 -0.00037868786059940858 -0.00066262682172236976 0.010810251729018727 0.019290841743970912 0.0011851388823494993 -0.0015357012516266271 0.00089951385126774575 0.024470330392377396 -0.00070863941210771086 0.017754122247885262 -0.0037482424561555185 0.0059487577591725927 -0.0029605363422888333 0.024160126691938125 -0.00085740803530619995 -0.0063611942364264337 0.009988416901485081 -0.0088461217097938055 -0.0033720330733939736 -0.0030456346271788342 0.010468321443994099 -0.010766709747258574 0.012539375403644979 -0.0026674518272990274 0.013204897367669381
leaf_weight=93794 102289 8198 160 1488 266 420 260 2379 75 44 289 83 132 2348 109 30 182 96 22 31 134 3988 20 167 57 335 20 141 42 34
leaf_count=93794 102289 8198 160 1488 266 420 260 2379 75 44 289 83 132 2348 109 30 182 96 22 31 134 3988 20 167 57 335 20 141 42 34
internal_value=0 0.000300498 0.00338771 0.00566503 0.00725486 0.000486029 0.0086589 0.00897451 0.00452931 0.00693182 0.00381991 0.0123777 0.0165379 2.98976e-06 0.0055913 0.0131133 0.00984236 0.00929417 0.0201893 0.00952723 0.00943745 0.00877148 0.00166157 0.00925952 0.00495556 0.00850328 0.00760108 0.00988279 0.00985652 0.00126735
internal_weight=0 123839 21550 12074 9427 9476 7939 7679 1278 858 546 312 229 2647 299 139 257 7413 185 53 7283 4904 315 4589 559 392 181 161 4030 130
internal_count=217633 123839 21550 12074 9427 9476 7939 7679 1278 858 546 312 229 2647 299 139 257 7413 185 53 7283 4904 315 4589 559 392 181 161 4030 130
shrinkage=0.05


Tree=32
num_leaves=31
num_cat=0
split_feature=36 36 36 39 39 27 4 4 11 4 4 21 21 30 4 4 3 32 13 30 39 39 30 39 36 4 36 27 39 39
split_gain=9.39567 86.1308 56.3122 38.682 30.9007 8.10954 7.52541 6.43336 6.23859 4.20343 4.23973 11.3137 6.83152 4.19615 4.13826 6.0328 3.23184 3.5585 4.75598 3.01879 8.73998 6.33481 2.89339 2.8102 2.67454 2.50398 2.46213 4.23281 5.37926 5.44683
threshold=-0.3562499999999999 0.10022550000000004 -0.040859549999999939 1.636995 -1.2170650000000005 0.0050916450000000005 0.8580755000000001 -1.6465649999999996 0.00062372550000000006 -1.8861499999999998 -0.40498649999999997 -0.48397549999999995 0.65909550000000017 0.34287850000000003 0.18998850000000003 3.3436750000000006 -5.7548799999999991 0.14537000000000003 6.0361250000000016e-07 0.093126650000000019 0.60048999999999852 -0.56159999999999977 0.041331900000000012 0.80790999999999979 -0.17527649999999997 -0.51868499999999995 -0.10081500000000009 0.00045550750000000008 1.46871 -1.7757399999999997
decision_type=2 2 2 2 2 2 2 2 2 2 2 2 2 2 2 2 2 2 2 2 2 2 2 2 2 2 2 2 2 2
left_child=-1 2 5 4 13 26 7 -6 -7 -10 11 24 -12 -4 -14 -16 17 19 -19 20 21 22 -9 -21 -11 -23 -2 -28 29 -29
right_child=1 -3 3 -5 6 8 -8 16 9 10 12 -13 14 -15 15 -17 -18 18 -20 23 -22 25 -24 -25 -26 -27 27 28 -30 -31
leaf_value=-0.00037773337933284389 -0.00041439984725769209 -0.00033230837529844956 -0.00075196022444819341 -0.00028475089677669144 -0.00093252277301286756 0.00012832427753545789 0.00010379362168585819 -0.0057160695987896852 -0.00086751006825855283 0.03177988370682331 -3.621607685774347e-05 -0.0034558075823865478 0.00010582473413604829 0.0072124230270688445 0.018278812338662818 0.00069564930445542843 0.00097743575204545133 -0.018134519032069616 0.0081116590731673769 0.010311503584009472 -0.0014007634959973714 -0.0040182746308190485 0.0078622007890353143 0.016996742811811679 0.017145706088312212 0.0094031042964023755 -0.00065199549977737838 -0.001175497187210656 -0.0006802443477546018 0.009404761724336165
leaf_weight=93727 7354 101579 1233 2233 171 672 267 104 165 47 274 63 72 191 187 66 127 28 45 1405 211 35 63 177 93 4899 1101 164 409 471
leaf_count=93727 7354 101579 1233 2233 171 672 267 104 165 47 274 63 72 191 187 66 127 28 45 1405 211 35 63 177 93 4899 1101 164 409 471
internal_value=0 0.000285731 0.00309757 0.00560289 0.00707086 0.000580771 0.00834787 0.00865086 0.00382876 0.00640031 0.00789556 0.0141403 0.00577921 0.000316296 0.0106821 0.0136919 0.00888186 0.00902595 -0.00195537 0.00914223 0.00857125 0.00898373 -0.000593728 0.0110595 0.0220586 0.0093079 2.03493e-05 0.00151086 0.0037918 0.00667222
internal_weight=0 123906 22327 11189 8956 11138 7532 7265 1639 967 802 203 599 1424 325 253 7094 6967 73 6894 5312 5101 167 1582 140 4934 9499 2145 1044 635
internal_count=217633 123906 22327 11189 8956 11138 7532 7265 1639 967 802 203 599 1424 325 253 7094 6967 73 6894 5312 5101 167 1582 140 4934 9499 2145 1044 635
shrinkage=0.05


Tree=33
num_leaves=31
num_cat=0
split_feature=37 36 37 40 39 27 4 4 40 13 32 13 32 3 30 11 13 16 12 6 29 3 30 21 13 3 40 30 39 30
split_gain=8.55932 81.4675 45.9907 35.3785 32.4255 8.64137 7.83062 7.26601 5.358 5.22925 6.25496 5.36357 4.59695 3.71167 5.25968 3.87313 3.5228 3.7591 3.07902 3.04019 2.8982 2.80744 2.55056 2.47304 2.36815 2.2906 5.8526 6.02866 4.37551 5.64513
threshold=-0.33012499999999995 -0.10081500000000009 -0.057539999999999918 -1.4363049999999993 -1.5836399999999993 0.0061309900000000011 1.1247450000000001 -1.0382099999999996 -4.4138449999999994 9.6924450000000025e-07 0.029614900000000003 7.0201950000000013e-05 0.0037576550000000004 -10.911099999999999 0.71357000000000015 0.037495750000000008 -5.8728149999999988e-07 0.00047256250000000005 1.2060150000000002e-06 9.362525000000001e-07 0.00012485500000000002 -5.8362949999999989 2.1557050000000006 -0.59879749999999998 3.2990050000000008e-07 -10.442949999999998 0.23534999999999953 0.014727600000000002 0.31279500000000043 0.022662550000000004
decision_type=2 2 2 2 2 2 2 2 2 2 2 2 2 2 2 2 2 2 2 2 2 2 2 2 2 2 2 2 2 2
left_child=-1 -2 5 13 -5 -3 7 23 -7 10 16 12 -11 14 -4 -16 17 -10 -19 22 -21 25 -14 -6 -23 -9 28 -28 -27 -30
right_child=1 2 3 4 6 8 -8 21 9 11 -12 -13 19 -15 15 -17 -18 18 -20 20 -22 24 -24 -25 -26 26 27 -29 29 -31
leaf_value=-0.00036030352500233351 -0.0003157411973395816 -0.00013660181267431248 -0.00092879281430214189 -0.00022606881740953652 0.011446063914336266 -0.00034354568115391193 -0.00071707273878228786 0.0098003003997207579 0.02289365285404903 0.001133320114405995 -0.0014485428102413568 0.00082331299108554098 0.017748424572097819 -0.00066265053742186816 0.016745763254104134 -0.0035420075493554277 0.0022862702186377546 -0.0018124194194873173 0.017516942508518697 0.022877994374456732 -0.00085102565015756314 -0.0029019624140346426 0.032076331257820133 -0.0020417681036375888 0.012453804639003732 0.0091380420469971343 -0.0053286833299683754 0.0062977520696528375 -0.0032989747436789653 0.0076787282013077753
leaf_weight=93794 102289 8198 160 1488 40 420 260 2379 68 44 289 83 82 2348 109 30 106 45 38 22 31 96 50 226 34 3787 154 404 167 392
leaf_count=93794 102289 8198 160 1488 40 420 260 2379 68 44 289 83 82 2348 109 30 106 45 38 22 31 96 50 226 34 3787 154 404 167 392
internal_value=0 0.000272889 0.00306688 0.00511317 0.00654735 0.000459555 0.00781689 0.00810584 0.00428373 0.00654882 0.00359811 0.0117126 0.0156593 5.48457e-06 0.00525224 0.0123671 0.00927314 0.0141778 0.00703717 0.0191142 0.00899876 0.00839718 0.0231757 -1.35227e-05 0.00111416 0.00852718 0.00790958 0.00308902 0.00852851 0.00439916
internal_weight=0 123839 21550 12074 9427 9476 7939 7679 1278 858 546 312 229 2647 299 139 257 151 83 185 53 7413 132 266 130 7283 4904 558 4346 559
internal_count=217633 123839 21550 12074 9427 9476 7939 7679 1278 858 546 312 229 2647 299 139 257 151 83 185 53 7413 132 266 130 7283 4904 558 4346 559
shrinkage=0.05


Tree=34
num_leaves=31
num_cat=0
split_feature=38 38 38 39 39 27 4 4 11 4 4 21 21 4 4 30 3 40 27 40 16 37 12 27 34 39 20 37 27 39
split_gain=7.74991 70.7144 45.647 31.7931 25.2843 7.20188 6.71636 5.55577 5.53381 3.74854 3.79476 10.1425 6.14957 3.73298 5.37388 3.53146 2.72433 9.01868 3.95494 3.19882 2.72108 2.48227 2.40435 2.29716 2.24263 2.1317 2.08138 2.036 3.54836 4.50061
threshold=-0.3562499999999999 0.10022550000000004 -0.040859549999999939 1.636995 -1.3362800000000006 0.0050916450000000005 0.8580755000000001 -1.6465649999999996 0.00062372550000000006 -1.8861499999999998 -0.40498649999999997 -0.48397549999999995 0.65909550000000017 0.18998850000000003 3.3436750000000006 0.4236100000000001 -7.5181649999999989 -0.27579999999999932 0.0014247650000000004 0.31988499999999936 0.0018801250000000003 0.17390849999999994 -1.9150249999999998e-05 0.00076265100000000015 -0.0083346849999999997 4.3033550000000007 -7.0320599999999986 0.09983149999999999 0.00044704450000000007 1.46871
decision_type=2 2 2 2 2 2 2 2 2 2 2 2 2 2 2 2 2 2 2 2 2 2 2 2 2 2 2 2 2 2
left_child=-1 2 5 4 15 27 7 -6 -7 -10 11 21 -12 -14 22 -4 26 18 -18 -19 -17 -11 -15 -21 -8 -24 -9 28 -2 -30
right_child=1 -3 3 -5 6 8 24 16 9 10 12 -13 13 14 -16 20 17 19 -20 23 -22 -23 25 -25 -26 -27 -28 -29 29 -31
leaf_value=-0.00034305965159072397 -0.00064972655849142953 -0.00030050092201832165 -0.0007370593010288765 -0.00027475979031500291 -0.00095702263259392405 0.00011701404665862876 0.0097307516494765881 0.0088234905346988076 -0.00083919827385354009 0.016108327543222774 -8.3618506408520869e-05 -0.0033163410417425135 4.0624222149037653e-05 0.001333296201413586 0.00067830425757689017 0.015158438109210692 -0.0032130286993644498 0.0085255024857562711 0.0072215881607862135 -0.0068317230098182335 0.0017920123175420662 0.030206676620118163 0.021387081873947628 0.0087557509541511536 -0.0021511647698682045 0.0039812034461647276 -0.0048496894372094959 -0.00037844342972434422 0.0060845905583961019 -0.00062365648240637656
leaf_weight=93727 1066 101579 1223 2233 176 672 48 4653 165 93 274 63 72 21 66 64 291 1918 132 60 94 47 146 39 230 20 28 7385 636 412
leaf_count=93727 1066 101579 1223 2233 176 672 48 4653 165 93 274 63 72 21 66 64 291 1918 132 60 94 47 146 39 230 20 28 7385 636 412
internal_value=0 0.000259503 0.0028073 0.00506293 0.00639378 0.000541334 0.00752812 0.00781872 0.00360216 0.00602411 0.00743613 0.0133441 0.00543392 0.0100856 0.0129443 0.000171735 0.00803562 0.00668104 4.31638e-05 0.00807312 0.00720626 0.0208413 0.0172735 -0.000691203 -9.96109e-05 0.01929 0.0087417 1.32056e-05 0.00138138 0.00344738
internal_weight=0 123906 22327 11189 8956 11138 7575 7297 1639 967 802 203 599 325 253 1381 7121 2440 423 2017 158 140 187 99 278 166 4681 9499 2114 1048
internal_count=217633 123906 22327 11189 8956 11138 7575 7297 1639 967 802 203 599 325 253 1381 7121 2440 423 2017 158 140 187 99 278 166 4681 9499 2114 1048
shrinkage=0.05


Tree=35
num_leaves=31
num_cat=0
split_feature=37 36 37 40 39 27 4 4 40 13 32 13 20 39 39 27 18 18 17 17 32 13 16 6 29 3 3 2 23 35
split_gain=7.0615 66.7233 37.0774 28.7361 26.0096 7.69606 7.01733 6.49471 4.68532 4.92551 5.49803 4.80141 4.02308 7.6896 6.74592 5.72569 4.96198 6.02955 4.91646 5.46958 3.82726 3.10421 3.12682 3.02836 2.90063 2.51138 2.25761 2.15209 2.07735 1.96131
threshold=-0.33012499999999995 -0.10081500000000009 -0.057539999999999918 -1.8692049999999989 -1.5836399999999993 0.0064016150000000003 1.4464300000000001 -2.6817999999999995 -4.4138449999999994 9.6924450000000025e-07 0.029614900000000003 7.0201950000000013e-05 -10.421199999999997 0.39187000000000044 -0.19603999999999996 0.0031784400000000007 -7.7245449999999991 9.5666150000000023 9.1618800000000018 -7.7125999999999992 0.0037576550000000004 -1.1786699999999996e-06 0.0034295500000000004 -5.7203749999999994e-08 -8.3102699999999969e-06 -7.7574999999999994 -14.605749999999999 -0.91624149999999982 0.00017367150000000003 0.053913100000000005
decision_type=2 2 2 2 2 2 2 2 2 2 2 2 2 2 2 2 2 2 2 2 2 2 2 2 2 2 2 2 2 2
left_child=-1 -2 5 26 -5 -3 7 -6 -7 10 21 20 -9 14 16 25 -14 18 19 -18 -11 22 -10 29 -25 27 28 -15 -4 -22
right_child=1 2 3 4 6 8 -8 12 9 11 -12 -13 13 15 -16 -17 17 -19 -20 -21 23 -23 -24 24 -26 -27 -28 -29 -30 -31
leaf_value=-0.00032726329937355822 -0.00028484332805322294 -0.00011832425119896603 0.0024636733990449173 -0.00025294425362791187 -0.0022714360362894852 -0.00028899722902661228 -0.0011336271590205317 0.0090571782145223122 0.019570706292301759 0.001344881843911802 -0.0013996755955714166 0.0009168424629203884 -0.0077955740096474066 -0.0031235534249042926 0.0082041569188025694 0.010254133285992352 -0.0060673591204470018 -0.010844488091192787 -0.0088046555080925869 0.0092841376833045323 0.020251989114013588 0.0030122015314797564 0.0028222378150264665 0.02389303513078226 0.0062013613353841587 -0.0030976656877036968 -0.00053185534473688641 0.009430433159383635 0.021969228841009596 0.037142252087593079
leaf_weight=93794 102289 8233 39 1488 177 408 261 2518 87 41 284 81 93 55 3822 148 66 58 51 480 55 120 41 36 65 369 2338 90 21 25
leaf_count=93794 102289 8233 39 1488 177 408 261 2518 87 41 284 81 93 55 3822 148 66 58 51 480 55 120 41 36 65 369 2338 90 21 25
internal_value=0 0.000247865 0.00277641 0.00461375 0.00582807 0.000435342 0.00693317 0.00719877 0.00410255 0.00624836 0.00335022 0.0113368 0.00741506 0.00662476 0.00735432 0.00158839 0.00301194 0.00454645 0.00604171 0.00742846 0.0151387 0.00878963 0.014206 0.0182633 0.0125073 -0.0009068 -0.000286089 0.00466858 0.00929062 0.0255302
internal_weight=0 123839 21550 12074 9676 9476 8188 7927 1243 835 532 303 7750 5232 4570 662 748 655 597 546 222 248 128 181 101 514 2398 145 60 80
internal_count=217633 123839 21550 12074 9676 9476 8188 7927 1243 835 532 303 7750 5232 4570 662 748 655 597 546 222 248 128 181 101 514 2398 145 60 80
shrinkage=0.05


Tree=36
num_leaves=31
num_cat=0
split_feature=36 36 36 39 39 35 4 11 4 10 40 39 4 30 40 39 32 12 39 39 15 21 21 4 35 11 10 4 36 35
split_gain=6.39634 58.1043 36.9667 26.0784 20.6778 6.41564 6.10825 5.65276 5.4216 3.72994 3.57809 5.35447 3.87839 2.61487 8.69601 6.58801 3.50346 2.78113 2.73102 3.02836 2.58512 2.90038 2.35895 2.2072 2.15923 2.11194 2.0817 2.06596 2.05886 1.93596
threshold=-0.3562499999999999 0.10022550000000004 -0.040859549999999939 1.636995 -1.7757399999999997 0.00095358200000000002 0.8580755000000001 0.00062372550000000006 -1.6465649999999996 0.00015586950000000003 3.6866600000000003 3.129045000000001 -1.4133199999999999 0.093126650000000019 -0.60415499999999989 -0.56159999999999977 0.12161000000000001 -2.6601849999999995e-07 -0.82558500000000012 0.80790999999999979 -0.00025226399999999993 -0.78263349999999987 0.86341500000000015 0.41110300000000005 0.0048254100000000013 0.00034418150000000005 2.2707500000000002e-05 -0.51868499999999995 0.056773999999999998 0.010368050000000002
decision_type=2 2 2 2 2 2 2 2 2 2 2 2 2 2 2 2 2 2 2 2 2 2 2 2 2 2 2 2 2 2
left_child=-1 2 5 4 24 -2 8 -7 -6 10 11 12 -9 14 -10 -16 18 -18 -15 28 21 -14 -8 27 -4 -21 -19 -17 -20 -5
right_child=1 -3 3 29 6 7 22 9 13 -11 -12 -13 20 16 15 23 17 26 19 25 -22 -23 -24 -25 -26 -27 -28 -29 -30 -31
leaf_value=-0.00031166450829982971 -6.0115002010751913e-05 -0.00027186853267026774 -0.00082334204523493062 -0.00078773322667977411 -0.0010290922580419907 -0.00011874843407287818 -0.0012650042313032646 -0.0013174597919395749 -0.0015271097501826209 2.7283706266390989e-05 0.00015887857649679235 0.0019240476093979485 0.031246932161351045 0.016418369753883427 -0.0012048265144083809 -0.004435790700039694 0.011780396709218622 -0.014257349218759272 0.0073662069209861599 0.0042774742016115702 0.010916015787000988 0.011176282085297216 0.016487012277357282 -0.005114854433957268 0.0070994532256517364 0.017660738933702996 0.0037432080198978555 0.0077555049886029103 0.013641585711212385 0.0038411861517484869
leaf_weight=93727 9110 101579 1142 1978 203 831 291 57 302 266 169 235 36 131 223 35 32 36 1179 37 398 36 20 34 93 145 29 4877 147 255
leaf_count=93727 9110 101579 1142 1978 203 831 291 57 302 266 169 235 36 131 223 35 32 36 1179 37 398 36 20 34 93 145 29 4877 147 255
internal_value=0 0.000235754 0.00254524 0.00457511 0.00578043 0.000506073 0.00674129 0.00304945 0.0070294 0.00524893 0.00674083 0.00820061 0.0109995 0.00725639 0.0067199 0.00720173 0.00894713 -0.000285967 0.00949356 0.00889201 0.0124932 0.0212116 -0.000123395 0.00758076 -0.000226727 0.01494 -0.00622633 0.00766864 0.00806189 -0.000259128
internal_weight=0 123906 22327 11189 8956 11138 7721 2028 7410 1197 931 762 527 7207 5471 5169 1736 97 1639 1508 470 72 311 4946 1235 182 65 4912 1326 2233
internal_count=217633 123906 22327 11189 8956 11138 7721 2028 7410 1197 931 762 527 7207 5471 5169 1736 97 1639 1508 470 72 311 4946 1235 182 65 4912 1326 2233
shrinkage=0.05


Tree=37
num_leaves=31
num_cat=0
split_feature=37 38 37 40 40 27 4 4 11 10 20 39 39 30 30 18 18 16 39 39 4 4 11 18 4 34 20 30 39 39
split_gain=5.8279 54.8956 30.1315 23.6617 21.5363 6.81678 6.09908 5.81586 4.43614 4.091 3.73727 6.29193 6.04729 5.17719 4.65886 3.49532 3.81697 3.4906 2.53387 3.8574 3.11376 3.69069 3.14561 2.42693 2.83792 3.65384 2.7929 2.03582 2.00514 2.06007
threshold=-0.33012499999999995 -0.10081500000000009 -0.057539999999999918 -1.8692049999999989 1.7569350000000001 0.0061309900000000011 1.4464300000000001 -2.6817999999999995 0.00071877950000000007 0.00037732250000000004 -10.421199999999997 0.39187000000000044 -0.19603999999999996 0.11577400000000002 0.012828100000000002 9.8452300000000026 -7.7245449999999991 6.6946150000000003e-09 -2.8634500000000003 5.8194249999999998 -2.6817999999999995 2.3910900000000006 0.0059042550000000015 -6.5734549999999992 0.25745450000000009 -0.062954099999999985 -10.311099999999998 0.19727550000000002 0.85052500000000031 -0.82558500000000012
decision_type=2 2 2 2 2 2 2 2 2 2 2 2 2 2 2 2 2 2 2 2 2 2 2 2 2 2 2 2 2 2
left_child=-1 -2 5 -4 6 -3 7 -5 -7 18 27 12 14 -13 -12 16 -16 -18 -10 20 -20 22 23 -22 26 -26 -25 -9 29 -29
right_child=1 2 3 4 -6 8 -8 10 9 -11 11 13 -14 -15 15 -17 17 -19 19 -21 21 -23 -24 24 25 -27 -28 28 -30 -31
leaf_value=-0.00029730670407012615 -0.00025801549905358546 -0.00012122720101303004 -0.00027121333448582171 -0.0020933652991061537 -0.00043453092275662944 0.00057316953504502229 -0.0010564141327884737 0.0073530831567481404 0.0021372753451053138 -0.002084017206627699 -0.0042561627405527189 -0.0013657821081545715 0.0074307628672117742 0.0084717467004152888 -0.0070816202758039633 -0.013914405856727777 -0.010960647033957336 0.0078404108137318466 -0.0036108168779374582 -0.00011266577057540418 0.021789678296074273 -0.0014593638578819968 0.023431640167117997 -0.0027363471797622382 0.024567967136295474 0.0013785157963866368 0.015269201936087374 0.016239593071596965 0.016017214413312147 0.0081180627095428382
leaf_weight=93794 102289 8198 2398 192 1410 580 276 1759 133 116 188 476 3822 186 54 24 26 489 29 78 50 37 85 62 49 26 33 91 133 550
leaf_count=93794 102289 8198 2398 192 1410 580 276 1759 133 116 188 476 3822 186 54 24 26 489 29 78 50 37 85 62 49 26 33 91 133 550
internal_value=0 0.000225176 0.00251869 0.00417501 0.00527691 0.000408264 0.00625116 0.00650359 0.00380479 0.0064901 0.00671526 0.00595603 0.00661152 0.00139824 0.0026024 0.00477678 0.00556516 0.00689123 0.00819903 0.0099946 0.0121196 0.0134534 0.0152625 0.0121063 0.00925825 0.016529 0.00351821 0.00829337 0.0104303 0.00927104
internal_weight=0 123839 21550 12074 9676 9476 8266 7990 1278 698 7798 5265 4603 662 781 593 569 515 582 449 371 342 305 220 170 75 95 2533 774 641
internal_count=217633 123839 21550 12074 9676 9476 8266 7990 1278 698 7798 5265 4603 662 781 593 569 515 582 449 371 342 305 220 170 75 95 2533 774 641
shrinkage=0.05


Tree=38
num_leaves=31
num_cat=0
split_feature=36 37 36 39 40 27 11 4 4 4 39 39 4 34 34 4 12 30 37 18 18 40 3 40 17 39 33 30 3 34
split_gain=5.28061 47.7441 29.8138 21.5666 17.1615 5.76544 4.42863 4.28508 3.68127 3.07474 2.85393 3.68088 2.74592 6.69456 4.22679 5.60774 3.05104 2.71752 2.60521 2.20358 3.1634 2.17096 2.11048 6.33228 4.31088 2.61354 2.5264 2.32503 1.81059 1.74826
threshold=-0.3562499999999999 -0.10141500000000002 -0.040859549999999939 1.636995 1.2052499999999997 0.0050916450000000005 0.00062372550000000006 0.8580755000000001 -2.6817999999999995 -2.6817999999999995 -5.5958699999999988 3.3061900000000009 -0.42458499999999993 0.022830750000000004 -0.025457549999999999 0.17191050000000002 -3.4995899999999995e-05 0.34287850000000003 0.12358499999999996 4.6258850000000011 -4.5569299999999986 3.7911450000000002 -7.4497099999999987 -0.27579999999999932 -12.926599999999999 -0.27803499999999998 3.2072350000000002e-07 0.018950700000000004 -13.897099999999998 -0.062954099999999985
decision_type=2 2 2 2 2 2 2 2 2 2 2 2 2 2 2 2 2 2 2 2 2 2 2 2 2 2 2 2 2 2
left_child=-1 -2 5 4 7 -3 -7 8 -4 -8 -11 12 13 -12 15 -14 -17 -6 -15 20 -19 -22 -10 24 -24 27 -26 -25 -13 -9
right_child=1 2 3 -5 17 6 9 29 22 10 11 28 14 18 -16 16 -18 19 -20 -21 21 -23 23 25 26 -27 -28 -29 -30 -31
leaf_value=-0.00028318050022052771 -0.00024650487190339029 -5.2346202585308186e-07 -0.0019022098924602092 -0.00025503619659899011 -0.00063714590975629177 9.2865843059068234e-05 -0.0015624150528443339 0.013829428738071806 0.0071596528910882586 -0.0012666133323964636 -0.0056474525916079682 0.014198976889666585 -0.0041570009400501203 0.012865243590714641 0.00014868265143521721 -0.00025154443768163527 0.017903018171071178 -0.0023020989756951942 0.0274579024175182 -0.0044345411472022532 0.016944300693770252 -0.00069973182610490105 0.020399180768678585 -0.0089263386738602998 -0.0032508002689777904 0.0069889016536062417 0.007143396031583699 0.005971125608140772 0.0003431966735465673 -0.0011955523794782612
leaf_weight=93727 101534 9499 131 2250 1247 672 137 21 4783 103 30 27 46 57 126 27 162 47 66 42 84 22 24 50 331 1828 71 55 186 248
leaf_count=93727 101534 9499 131 2250 1247 672 137 21 4783 103 30 27 46 57 126 27 162 47 66 42 84 22 24 50 331 1828 71 55 186 248
internal_value=0 0.000214208 0.00230513 0.00412258 0.00521893 0.000472011 0.00321063 0.00617448 0.00640368 0.00537727 0.00652274 0.00762632 0.00991659 0.0155302 0.00753742 0.011499 0.0153095 0.000221191 0.0206955 0.00571014 0.00849496 0.0132823 0.00655603 0.00533216 -0.000186041 0.00654827 -0.00141501 -0.00112291 0.00209956 -2.25985e-05
internal_weight=0 123906 22372 11234 8984 11138 1639 7542 7273 967 830 727 514 153 361 235 189 1442 123 195 153 106 7142 2359 426 1933 402 105 213 269
internal_count=217633 123906 22372 11234 8984 11138 1639 7542 7273 967 830 727 514 153 361 235 189 1442 123 195 153 106 7142 2359 426 1933 402 105 213 269
shrinkage=0.05


Tree=39
num_leaves=31
num_cat=0
split_feature=37 36 37 39 40 27 39 20 4 4 13 32 16 32 13 16 4 3 40 0 26 20 39 39 27 16 17 36 11 10
split_gain=4.81065 45.2072 24.4314 18.5133 18.0377 6.47874 5.43307 4.92157 4.40849 4.22583 2.68613 5.70028 4.41045 3.63584 2.85936 3.41858 2.54244 2.32196 2.30163 2.87613 2.26791 2.19141 5.75328 4.03649 3.52522 3.84481 2.40233 2.05777 1.99815 1.94605
threshold=-0.33012499999999995 -0.10081500000000009 -0.039869999999999954 1.46871 1.7569350000000001 0.0021377100000000006 2.9569100000000006 -13.328949999999997 2.2539600000000006 -1.6465649999999996 8.2193200000000006e-07 0.0055718750000000013 0.0021987950000000003 -0.013126049999999998 -6.8546449999999991e-07 0.0032667350000000002 -1.4133199999999999 -13.989599999999998 2.829940000000001 1.1355750000000002 -0.18041899999999997 -8.6217649999999981 0.43278000000000022 -0.19603999999999996 0.00029812300000000007 2.6963350000000004e-08 -12.926599999999999 0.10022550000000004 0.0023552050000000004 0.00011169250000000001
decision_type=2 2 2 2 2 2 2 2 2 2 2 2 2 2 2 2 2 2 2 2 2 2 2 2 2 2 2 2 2 2
left_child=-1 -2 5 4 8 -3 7 -7 9 -4 13 -12 16 14 15 20 -13 29 19 27 -9 -11 23 24 -23 -26 -24 -18 -22 -5
right_child=1 2 3 17 -6 6 -8 10 -10 21 11 12 -14 -15 -16 -17 18 -19 -20 -21 28 22 26 -25 25 -27 -28 -29 -30 -31
leaf_value=-0.0002701161332799082 -0.00023390201555117973 -0.0001789381246409806 -0.0011805781684355689 0.01217083232830081 -0.00059792756054603596 0.011677968797685449 -4.011999445965575e-05 0.02747466295309689 -0.0018525567942681478 0.0071029140042803505 -0.0022297465874042029 -0.002127191768554242 0.0011036667115563021 -0.0011241512270303198 -0.00091253637995881347 -0.0008179002054338714 0.012734371810047716 -0.00037239199116533841 -0.00078256673878058798 0.011767711702457353 0.015733059833140731 -0.0038934451209913408 0.015782021749764681 0.0067247124478068514 -0.012672453736221152 0.0067598615627087258 -0.0021096787186792479 0.029539114266767037 0.0033834401621246355 -0.0053045003209263092
leaf_weight=93794 102289 7816 197 66 1261 215 1034 23 181 3657 134 23 99 465 108 63 27 2247 20 111 77 175 20 2786 28 280 303 56 57 21
leaf_count=93794 102289 7816 197 66 1261 215 1034 23 181 3657 134 23 99 465 108 63 27 2247 20 111 77 175 20 2786 28 280 303 56 57 21
internal_value=0 0.000204582 0.00228589 0.00390097 0.00494167 0.000531007 0.00273998 0.00468492 0.00585755 0.00604497 0.00349449 0.00648965 0.00996703 0.0017193 0.00575042 0.00902132 0.0136694 -6.20756e-05 0.0153672 0.0170321 0.0129695 0.00624133 0.00536415 0.00599316 0.00177346 0.00499329 -0.00100183 0.0240725 0.0104799 0.00795265
internal_weight=0 123839 21550 11222 8888 10328 2512 1478 7627 7446 1263 470 336 793 328 220 237 2334 214 194 157 7249 3592 3269 483 308 323 83 134 87
internal_count=217633 123839 21550 11222 8888 10328 2512 1478 7627 7446 1263 470 336 793 328 220 237 2334 214 194 157 7249 3592 3269 483 308 323 83 134 87
shrinkage=0.05


Tree=40
num_leaves=31
num_cat=0
split_feature=36 37 36 39 39 27 4 11 4 10 3 40 30 40 18 18 11 39 39 4 12 34 30 27 32 39 35 16 13 39
split_gain=4.36039 39.2924 24.1476 17.7315 13.7934 5.16779 4.50046 3.96517 3.95799 2.76019 2.59208 3.07052 5.55774 3.1217 4.26778 4.32285 2.77986 2.15926 3.50087 2.41608 2.46595 1.96786 1.86649 1.81445 1.7257 1.75833 1.71178 2.10991 1.64835 1.68389
threshold=-0.3562499999999999 -0.10141500000000002 -0.040859549999999939 1.9002500000000004 -1.7757399999999997 0.0050916450000000005 0.8580755000000001 0.00062372550000000006 -1.6465649999999996 0.00011169250000000001 -12.585899999999999 -0.27579999999999932 0.025319150000000002 0.23534999999999953 9.5666150000000023 -7.2793899999999994 0.00020887000000000002 -3.1159849999999993 3.3691350000000004 -1.4133199999999999 6.3536550000000009e-06 -0.076179349999999993 0.33174250000000005 0.0071414500000000006 0.18330700000000003 0.80790999999999979 0.0048254100000000013 0.0024905200000000004 1.0552950000000002e-06 2.1254700000000009
decision_type=2 2 2 2 2 2 2 2 2 2 2 2 2 2 2 2 2 2 2 2 2 2 2 2 2 2 2 2 2 2
left_child=-1 -2 5 4 26 -3 8 28 -6 17 -10 12 -12 23 15 -15 -17 -9 19 -19 -21 -8 -14 -13 25 -24 -4 -28 -7 -30
right_child=1 2 3 -5 6 7 21 9 10 -11 11 13 22 14 -16 16 -18 18 -20 20 -22 -23 24 -25 -26 -27 27 -29 29 -31
leaf_value=-0.00025732637754193602 -0.00022329945550604688 -5.6287592653616917e-06 -0.00073466176361560234 -0.00040237706592782964 -0.00091729175427516076 -0.00086424577190165666 0.013867688349083716 0.0012855349369544514 0.0079234825151973907 0.00082550719052027822 -0.0017103311776559737 0.006600580911445629 0.004181410746449339 -0.0070716138945338377 -0.012329049190766245 -0.0019637040387540353 0.0069679599213244865 -0.0024579891925602549 0.0023633553403091027 0.010229491984036845 0.021615282098125473 -0.0012920935022877153 0.0069438329419574223 -0.0055405951075015534 7.4288589613778256e-05 0.017807249322533608 0.015582509369060799 0.00019568435049482753 0.015201005349209644 0.00089117214800073544
leaf_weight=93727 101534 9499 1152 2111 219 586 23 143 1306 273 391 4194 504 79 43 106 489 31 176 287 57 309 74 31 35 75 37 56 34 52
leaf_count=93727 101534 9499 1152 2111 219 586 23 143 1306 273 391 4194 504 79 43 106 489 31 176 287 57 309 74 31 35 75 37 56 34 52
internal_value=0 0.000194651 0.00209149 0.00372715 0.00468269 0.000441744 0.00545557 0.00303454 0.00570624 0.00508468 0.00590422 0.00546622 0.00304975 0.00599382 0.00294334 0.00391769 0.00537677 0.00676011 0.00818092 0.0109113 0.0121161 -0.000241868 0.00575497 0.0065115 0.0100651 0.012412 -0.000207887 0.00631732 8.44153e-05 0.00654855
internal_weight=0 123906 22372 11234 9123 11138 7878 1639 7546 967 7327 6021 1079 4942 717 674 595 694 551 375 344 332 688 4225 184 149 1245 93 672 86
internal_count=217633 123906 22372 11234 9123 11138 7878 1639 7546 967 7327 6021 1079 4942 717 674 595 694 551 375 344 332 688 4225 184 149 1245 93 672 86
shrinkage=0.05


Tree=41
num_leaves=31
num_cat=0
split_feature=37 36 37 40 40 27 4 4 40 13 32 13 32 20 40 40 27 35 4 17 6 25 18 18 35 17 30 4 4 3
split_gain=3.97202 37.2151 19.8011 16.0707 14.667 5.52143 4.24162 4.06457 3.4712 3.727 4.42885 3.83043 3.22107 2.99383 4.52486 4.39648 3.94266 3.66747 2.66752 2.65623 2.36439 2.39514 2.25866 2.01798 1.9876 1.94779 1.81457 1.80345 1.98569 1.75572
threshold=-0.33012499999999995 -0.10081500000000009 -0.057539999999999918 -1.8692049999999989 1.7569350000000001 0.0061309900000000011 2.2539600000000006 -2.6817999999999995 -4.4138449999999994 9.6924450000000025e-07 0.029614900000000003 7.0201950000000013e-05 0.0037576550000000004 -10.421199999999997 -0.47859499999999983 0.23534999999999953 0.0031784400000000007 1.6939100000000005e-05 -0.29052249999999996 9.3032900000000023 -5.7203749999999994e-08 -0.18761549999999996 -7.7245449999999991 7.3737850000000007 0.053913100000000005 -6.4328999999999992 0.19727550000000002 0.24725400000000003 1.6690850000000002 -14.605749999999999
decision_type=2 2 2 2 2 2 2 2 2 2 2 2 2 2 2 2 2 2 2 2 2 2 2 2 2 2 2 2 2 2
left_child=-1 -2 5 29 6 -3 7 -5 -7 10 18 12 -11 26 16 -16 -15 -17 -10 22 24 -22 -19 25 -14 -24 -9 -20 -29 -4
right_child=1 2 3 4 -6 8 -8 13 9 11 -12 -13 20 14 15 17 -18 19 27 -21 21 -23 23 -25 -26 -27 -28 28 -30 -31
leaf_value=-0.00024544535162458807 -0.00021194448543407536 -0.00011306811440096184 0.0081981250829994672 -0.0018658766851335903 -0.00038827452712431417 -0.00030415759973471897 -0.0015360634125280396 0.0060210753710280979 0.015462973158806563 0.00077878327786245127 -0.0014941668643731801 0.0004005766167944993 0.017016479931771755 -0.0015863298102369366 0.0059759594119143224 -0.0026072936788686597 0.0081310647772625099 -0.007541968444517504 0.00045861145157528958 -0.012608039203942531 0.0024428101910397093 0.017813918864862485 -0.00076106445828698723 -0.0041693840960138721 0.033881614714860918 0.0097164956962361056 0.0089187892972656876 0.016594353806146461 -0.0019612262513311134 -0.00046399799991413788
leaf_weight=93794 102289 8198 60 192 1410 420 232 1768 75 44 289 83 58 449 4006 291 136 30 115 21 47 55 53 38 25 272 778 46 21 2338
leaf_count=93794 102289 8198 60 192 1410 420 232 1768 75 44 289 83 58 449 4006 291 136 30 115 21 47 55 53 38 25 272 778 46 21 2338
internal_value=0 0.000185897 0.00207429 0.00341699 0.00432509 0.000363467 0.00512909 0.00532156 0.0034203 0.00524346 0.00275239 0.00960285 0.0129382 0.00549754 0.00482017 0.00533519 0.000672757 0.00169413 0.0075277 0.0047176 0.0158301 0.0107312 0.0056434 0.0067331 0.0220963 0.00800785 0.00690655 0.00425766 0.0107784 -0.000247264
internal_weight=0 123839 21550 12074 9676 9476 8266 8034 1278 858 546 312 229 7842 5296 4711 585 705 257 414 185 102 393 363 83 325 2546 182 67 2398
internal_count=217633 123839 21550 12074 9676 9476 8266 8034 1278 858 546 312 229 7842 5296 4711 585 705 257 414 185 102 393 363 83 325 2546 182 67 2398
shrinkage=0.05


Tree=42
num_leaves=31
num_cat=0
split_feature=36 37 36 39 39 27 11 4 4 10 40 39 4 30 40 40 32 39 40 11 4 2 4 21 36 17 4 4 34 27
split_gain=3.60147 32.2823 19.5399 14.5862 11.308 4.63854 3.83237 3.7198 3.26594 2.93861 2.64386 4.16232 2.96857 2.26027 6.39295 4.46771 2.75006 2.33297 2.85551 2.35983 2.18969 2.23847 2.00144 3.10806 1.91833 1.91496 1.8759 1.74598 1.69341 1.55407
threshold=-0.3562499999999999 -0.10141500000000002 -0.040859549999999939 1.9002500000000004 -1.7757399999999997 0.0031784400000000007 0.00062372550000000006 0.8580755000000001 -1.6465649999999996 0.00015586950000000003 3.6866600000000003 3.129045000000001 -1.4133199999999999 0.093126650000000019 -0.60415499999999989 0.65993499999999961 0.12161000000000001 0.80790999999999979 0.7622899999999998 0.00015284250000000002 -0.27873999999999993 0.92985250000000008 -0.75155249999999996 -0.66179549999999987 0.056773999999999998 3.4514100000000005 0.41110300000000005 -0.51868499999999995 -0.076179349999999993 0.053348600000000003
decision_type=2 2 2 2 2 2 2 2 2 2 2 2 2 2 2 2 2 2 2 2 2 2 2 2 2 2 2 2 2 2
left_child=-1 -2 5 4 -4 -3 -7 8 -6 10 11 12 -8 14 -10 26 17 18 24 -19 -18 -22 23 -14 -15 -20 27 -16 -9 -13
right_child=1 2 3 -5 7 6 9 28 13 -11 -12 29 22 16 15 -17 20 19 25 -21 21 -23 -24 -25 -26 -27 -28 -29 -30 -31
leaf_value=-0.00023386283320578059 -0.00020193469854606829 -8.814152353832529e-05 -0.00019385285630642651 -0.00037783075769576155 -0.00085475079928015545 -1.2769441865371557e-05 -0.0013345465761307486 0.012842973661811455 -0.0014136224259671413 -0.00016465075602062099 6.5297441749331242e-05 -0.00068190339910484128 0.024072494321878544 0.0052443124254842773 -0.0051578700970354927 -0.0025706227961626582 0.0069458795090516405 -0.0012449806423059531 0.015415542827775845 0.014335852943401298 -0.017093397242327533 0.003393524279817939 0.0091091840124799157 0.0026231542986351998 0.011361280833888385 -0.0012036074884235861 -0.0056371380851880926 0.0057443177944647194 -0.0012199839627751508 0.0085906737251207239
leaf_weight=93727 101534 8979 1245 2111 219 894 59 23 380 289 178 193 57 1166 37 174 45 28 130 184 30 24 406 24 144 20 37 4928 309 59
leaf_count=93727 101534 8979 1245 2111 219 894 59 23 380 289 178 193 57 1166 37 174 45 28 130 184 30 24 406 24 144 20 37 4928 309 59
internal_value=0 0.000176902 0.00189623 0.00336758 0.00423424 0.000412203 0.00249307 0.00493403 0.00516193 0.004264 0.00557535 0.00680441 0.00925765 0.00534176 0.00484595 0.00530551 0.00689723 0.00737666 0.00666496 0.012278 -0.00119993 -0.0079881 0.0105409 0.0177171 0.00591671 0.0131997 0.00557948 0.00566307 -0.000245743 0.00148906
internal_weight=0 123906 22372 11234 9123 11138 2159 7878 7546 1265 976 798 546 7327 5556 5176 1771 1672 1460 212 99 54 487 81 1310 150 5002 4965 332 252
internal_count=217633 123906 22372 11234 9123 11138 2159 7878 7546 1265 976 798 546 7327 5556 5176 1771 1672 1460 212 99 54 487 81 1310 150 5002 4965 332 252
shrinkage=0.05


Tree=43
num_leaves=31
num_cat=0
split_feature=36 36 40 40 36 27 20 27 4 4 3 40 17 17 40 4 29 12 33 21 21 22 4 4 21 4 36 30 40 17
split_gain=3.2811 30.7596 16.0209 22.1381 6.38866 5.67646 4.58069 3.50455 3.44951 3.21184 2.72688 5.03097 3.39675 2.75222 2.70335 2.58785 4.21821 2.41918 1.96386 1.92761 1.75651 1.71113 1.66575 5.17458 2.27344 3.10515 1.65748 1.63984 2.52675 3.39531
threshold=0.327845 -0.10081500000000009 -1.47746 0.6060099999999996 0.12375499999999996 0.0048391350000000005 -13.237099999999998 0.024062950000000003 0.8580755000000001 -1.0382099999999996 -7.4497099999999987 -0.27579999999999932 -12.926599999999999 13.501750000000001 -4.4138449999999994 -0.26743249999999991 0.00038371750000000001 -2.1368049999999996e-05 -7.2225249999999991e-07 -0.66179549999999987 0.34963900000000009 12.831100000000001 0.32420950000000004 1.4464300000000001 0.50944100000000014 -0.15847949999999997 0.12375499999999996 0.075586750000000022 2.2262100000000005 5.5992650000000008
decision_type=2 2 2 2 2 2 2 2 2 2 2 2 2 2 2 2 2 2 2 2 2 2 2 2 2 2 2 2 2 2
left_child=1 -1 7 4 8 -6 17 -3 9 19 21 12 -12 -14 -9 16 -16 -5 -19 -4 -10 -11 24 -24 25 -7 -20 -8 29 -29
right_child=-2 2 3 6 5 22 27 14 20 10 11 -13 13 -15 15 -17 -18 18 26 -21 -22 -23 23 -25 -26 -27 -28 28 -30 -31
leaf_value=-0.00019196091204867505 -0.0002228887162293616 -0.00039622661276069457 0.0118429222942463 -0.0053421429961944301 -0.00027985209744204134 0.020202270142977971 -0.00066185020238798036 0.0011010818080504196 -0.0019314698438284356 0.006034280638069137 0.014893526277121375 0.005049022068643846 -0.0024187619974618273 0.012520192484512475 0.0015814120862632992 0.0045599948146900719 0.028316278896656718 0.015026175948111592 0.0081952857675787524 -0.0020753541060529166 0.007469236530119279 -0.0019532653804430191 0.027098708131756539 -0.0016981667018486546 -0.0019996949738048933 -0.001531216762183855 -0.0029606487964176469 0.0058823678475796335 -0.00047822014704876239 -0.0038486603255088476
leaf_weight=102289 93885 6433 28 38 1126 42 3654 276 268 4797 34 2017 469 33 25 112 36 74 128 223 61 68 39 26 54 27 45 449 765 112
leaf_count=102289 93885 6433 28 38 1126 42 3654 276 268 4797 34 2017 469 33 25 112 36 74 128 223 61 68 39 26 54 27 45 449 765 112
internal_value=0 0.000169101 0.00189018 0.00282889 0.00429405 0.00106298 0.00023753 -9.81381e-05 0.00482489 0.00503996 0.00522818 0.00390483 -0.000400845 -0.00143672 0.00417269 0.00907307 0.0173594 0.00640247 0.00820933 -0.000522718 -0.000188482 0.00592264 0.00910567 0.01558 0.0056843 0.0116979 0.00529345 -0.000115282 0.00139087 0.00393963
internal_weight=0 123748 21459 14577 9312 1314 5265 6882 7998 7669 7418 2553 536 502 449 173 61 285 247 251 329 4865 188 65 123 69 173 4980 1326 561
internal_count=217633 123748 21459 14577 9312 1314 5265 6882 7998 7669 7418 2553 536 502 449 173 61 285 247 251 329 4865 188 65 123 69 173 4980 1326 561
shrinkage=0.05


Tree=44
num_leaves=31
num_cat=0
split_feature=36 37 36 39 39 27 40 16 6 40 12 4 4 10 30 40 40 32 39 39 12 36 30 4 4 20 35 16 18 10
split_gain=2.97555 26.4036 15.6826 11.9442 9.19215 4.1152 3.42636 3.13117 3.27305 3.71465 3.78476 3.04554 2.66155 2.21822 1.96968 5.34369 3.75881 2.40373 2.1658 2.52092 1.97287 1.91644 1.71294 1.68467 1.55601 1.48656 1.45481 1.55223 1.42526 1.33131
threshold=-0.3562499999999999 -0.10141500000000002 -0.040859549999999939 1.9002500000000004 -1.7757399999999997 0.0031784400000000007 -2.2348749999999997 1.8317000000000004e-07 1.3950750000000001e-06 3.6866600000000003 -2.1368049999999996e-05 0.8580755000000001 -1.6465649999999996 0.00018205200000000001 0.093126650000000019 -0.60415499999999989 0.65993499999999961 0.12161000000000001 0.80790999999999979 -0.82558500000000012 -2.6601849999999995e-07 0.056773999999999998 0.17303750000000004 0.41110300000000005 -0.58642949999999983 -13.237099999999998 0.0066980350000000006 0.0024905200000000004 -13.876599999999998 2.2707500000000002e-05
decision_type=2 2 2 2 2 2 2 2 2 2 2 2 2 2 2 2 2 2 2 2 2 2 2 2 2 2 2 2 2 2
left_child=-1 -2 5 4 26 -3 28 -8 9 10 -9 12 -6 -12 15 -14 23 18 19 -16 -19 -21 -20 24 -17 -13 -4 -28 -7 -22
right_child=1 2 3 -5 11 6 7 8 -10 -11 13 25 14 -15 17 16 -18 20 22 21 29 -23 -24 -25 -26 -27 27 -29 -30 -31
leaf_value=-0.00021257164769625413 -0.00018181448606911435 -8.5061527732997727e-05 -0.00061312341177118435 -0.00035540047927227092 -0.00077624058784288676 0.010289296344853939 -0.0021112714484222456 -0.0014827049382037712 0.0010971324784631656 0.00067251151614180354 0.012145073295490721 0.0084359357880731661 -0.0013681211912109194 -0.0013398156106246241 0.01264973470216034 -0.0064425216570239644 -0.0024493814684215121 0.0089127492741681632 0.0013332643413117955 0.004702597526648573 -0.012524942822150283 0.010702966106434664 0.013438919303402054 -0.0056033143723333212 0.0051732774209751892 -0.0015283859367262826 0.014679837023670024 0.00033453037454323338 -0.00012424382724435449 0.0016488448530435564
leaf_weight=93727 101534 8979 1168 2111 219 34 167 69 315 161 402 43 380 33 131 29 174 32 35 1179 37 150 177 37 4936 289 33 44 978 30
leaf_count=93727 101534 8979 1168 2111 219 34 167 69 315 161 402 43 380 33 131 29 174 32 35 1179 37 150 177 37 4936 289 33 44 978 30
internal_value=0 0.000160797 0.00171572 0.00303386 0.00381811 0.000386213 0.00234618 0.00421716 0.00529558 0.00728432 0.00939643 0.00444905 0.00465526 0.0111221 0.0048176 0.00435476 0.00477491 0.00626964 0.00671787 0.00603214 -0.0013005 0.00537984 0.0114403 0.00502622 0.00510543 -0.000237826 -0.000174276 0.00648252 0.000225618 -0.00617847
internal_weight=0 123906 22372 11234 9123 11138 2159 1147 980 665 504 7878 7546 435 7327 5556 5176 1771 1672 1460 99 1329 212 5002 4965 332 1245 77 1012 67
internal_count=217633 123906 22372 11234 9123 11138 2159 1147 980 665 504 7878 7546 435 7327 5556 5176 1771 1672 1460 99 1329 212 5002 4965 332 1245 77 1012 67
shrinkage=0.05


Tree=45
num_leaves=31
num_cat=0
split_feature=37 37 39 39 36 27 30 27 40 17 17 4 18 4 4 28 34 3 39 17 34 18 17 39 6 16 3 30 40 36
split_gain=2.71278 25.2417 13.3967 18.4586 5.08801 5.05288 3.97926 3.7603 3.65931 3.96467 4.00128 3.7509 3.55728 2.99449 2.6876 2.67977 2.64174 2.56934 4.6774 2.51691 2.30454 2.2631 2.23286 2.0606 2.27411 2.27866 2.00456 2.7372 2.00155 2.0578
threshold=-0.33012499999999995 0.12358499999999996 1.510785 -0.56159999999999977 0.12375499999999996 0.0048391350000000005 0.095842500000000011 0.043133650000000003 3.0726850000000008 5.7713600000000005 -4.0797899999999991 -1.7643199999999999 -8.8025949999999984 0.79460700000000006 -1.5265699999999998 -2.9812749999999997 -0.029002799999999999 -7.5181649999999989 0.23546500000000006 -12.926599999999999 -0.26996899999999996 4.5505850000000008 13.501750000000001 4.4497700000000018 1.1712600000000001e-06 5.5624400000000012e-07 -14.605749999999999 0.71357000000000015 0.7622899999999998 0.10022550000000004
decision_type=2 2 2 2 2 2 2 2 2 2 2 2 2 2 2 2 2 2 2 2 2 2 2 2 2 2 2 2 2 2
left_child=-1 2 3 6 13 -6 -2 26 9 10 15 -12 -13 14 -5 -8 -15 -16 -19 -20 -10 28 -21 24 25 -9 27 -4 -14 -30
right_child=1 -3 7 4 5 -7 8 23 20 -11 11 12 21 16 17 -17 -18 18 19 22 -22 -23 -24 -25 -26 -27 -28 -29 29 -31
leaf_value=-0.0002028411882145574 -0.00053321804249468053 -0.00018145989774023512 -0.0022913619714110332 -0.0008763694184636318 -0.0002807752443607135 0.0084948319544158341 0.013303317353429815 0.0017141427717764269 0.014182523723691701 -0.0029742666849333251 -0.0034998563316073089 -0.0072104902141877716 0.0054704509261581631 0.0093956471180483211 0.0054157066545676294 -0.0026463836602966437 -0.001907336685663193 0.0046665764186752858 0.01168519447868069 -0.0017693826691933146 -0.0013327509969341738 0.0024198217714468066 0.010170033159444021 0.0018864908490957505 0.0017565611079335215 0.020658264462958629 -0.00045636665100101388 0.012146653300402939 0.01569594231732337 0.0060095127588075626
leaf_weight=93794 4149 101478 59 221 1126 192 31 22 25 155 65 31 99 62 4788 175 311 2064 42 579 561 78 42 187 50 57 6793 74 253 70
leaf_count=93794 4149 101478 59 221 1126 192 31 22 25 155 65 31 99 62 4788 175 311 2064 42 579 561 78 42 187 50 57 6793 74 253 70
internal_value=0 0.000153629 0.00167432 0.00252134 0.00387888 0.000997614 0.000272995 -9.39799e-05 0.00244083 0.00434621 0.00576101 0.00783732 0.00922511 0.00434719 0.00455817 -0.000246186 -2.85565e-05 0.00471799 0.00349294 -0.000160713 -0.000670837 0.0102441 -0.000961886 0.00523998 0.0101012 0.0153827 -0.000337343 0.00574182 0.0116903 0.0135967
internal_weight=0 123839 22361 15119 9427 1318 5692 7242 1543 957 802 596 531 8109 7736 206 373 7515 2727 663 586 500 621 316 129 79 6926 133 422 323
internal_count=217633 123839 22361 15119 9427 1318 5692 7242 1543 957 802 596 531 8109 7736 206 373 7515 2727 663 586 500 621 316 129 79 6926 133 422 323
shrinkage=0.05


Tree=46
num_leaves=31
num_cat=0
split_feature=37 37 36 40 40 35 11 20 40 17 40 17 17 30 34 30 30 4 15 34 34 15 4 15 6 17 17 36 11 35
split_gain=2.46201 18.7392 15.2242 9.75546 7.28891 4.12249 3.11688 2.23195 3.60083 3.3545 3.11568 3.03385 2.87015 2.51043 1.61529 1.57092 1.49942 1.47268 2.94089 3.51837 2.00719 3.20835 2.58528 1.55523 1.50521 1.43155 2.42516 1.30673 1.2837 1.27587
threshold=0.46135450000000006 -0.10141500000000002 -0.040859549999999939 -2.1380549999999996 1.2052499999999997 0.029330700000000005 0.00047127200000000006 -12.100849999999999 -0.27579999999999932 -12.926599999999999 0.23534999999999953 8.1756000000000011 -7.7125999999999992 0.078737600000000005 -0.036336349999999996 0.013046700000000003 0.34287850000000003 -2.6817999999999995 -0.00016939049999999998 0.22632500000000003 0.14170100000000002 2.0038450000000001e-05 4.1822950000000008 -1.2604899999999999e-05 2.2329450000000003e-07 -3.1555199999999997 2.7591150000000004 -0.14969009999999991 0.00015284250000000002 0.00027959350000000008
decision_type=2 2 2 2 2 2 2 2 2 2 2 2 2 2 2 2 2 2 2 2 2 2 2 2 2 2 2 2 2 2
left_child=1 -1 5 -4 7 29 -7 -5 9 -9 14 12 -12 -11 -10 -14 -6 -8 19 -19 21 -20 24 -22 -23 -18 -27 -21 -15 -3
right_child=-2 2 3 4 16 6 17 8 10 13 11 -13 15 28 -16 -17 25 18 20 27 23 22 -24 -25 -26 26 -28 -29 -30 -31
leaf_value=-0.00016325708069795519 -0.00019942869934407175 -0.00016434404255283099 -0.00043774252269143806 0.0056955783960652324 -0.0004883963475309581 -0.00033932401887189678 -0.00084021529754089129 0.015810495658814417 -0.0084808465741250828 -0.00089723839535125116 -0.0068876927550591063 -0.0078711883131886064 -0.0024518483924054497 -0.0026770480893432134 0.0048061406335502066 0.004533281779206982 -0.0037098896774378693 0.00090198800340294833 -0.0017925661897448743 0.029350047319063117 0.011130178492964694 0.023346155423384446 -0.00053757668550436693 -0.0025520513649098576 0.0096934245264326986 0.011684216927368563 -0.0012646671539793411 0.013328863503411413 0.0051443007661308273 0.00099763373346643315
leaf_weight=101534 90444 10747 1999 1582 1247 240 54 38 23 801 75 81 95 62 4168 527 44 25 46 35 27 52 24 90 33 91 60 20 341 3028
leaf_count=101534 90444 10747 1999 1582 1247 240 54 38 23 801 75 81 95 62 4168 527 44 25 46 35 27 52 24 90 33 91 60 20 341 3028
internal_value=0 0.000141814 0.00134918 0.00272919 0.0034147 0.000274152 0.0041779 0.00401895 0.00359189 0.00118385 0.00419378 0.00128788 0.00235228 0.000722211 0.00473322 0.00346642 0.000149181 0.00684818 0.00802765 0.0164547 0.00554909 0.00928079 0.013954 0.000605386 0.0180457 0.0042264 0.00653896 0.0235242 0.00394102 9.10802e-05
internal_weight=0 127189 25655 11234 9235 14421 646 7793 6211 1242 4969 778 697 1204 4191 622 1442 406 352 80 272 155 109 117 85 195 151 55 403 13775
internal_count=217633 127189 25655 11234 9235 14421 646 7793 6211 1242 4969 778 697 1204 4191 622 1442 406 352 80 272 155 109 117 85 195 151 55 403 13775
shrinkage=0.05


Tree=47
num_leaves=31
num_cat=0
split_feature=37 37 39 40 37 30 20 27 4 11 4 4 13 17 13 4 40 12 17 18 18 36 30 2 39 3 35 0 18 17
split_gain=2.24526 20.8678 11.1547 13.7372 4.60508 8.36505 3.31025 2.2199 2.07089 2.06704 2.47022 2.66942 2.43232 2.34294 1.93771 1.81874 1.76152 1.61352 1.4976 1.49303 1.90231 1.4624 1.68768 1.44104 1.43913 1.41072 2.86448 1.38091 1.36765 1.36587
threshold=-0.33012499999999995 0.12358499999999996 2.1254700000000009 0.6060099999999996 -0.026150000000000003 0.21701850000000003 -13.237099999999998 0.043133650000000003 0.92648250000000021 0.00038378800000000009 1.4464300000000001 -2.5331249999999996 3.2990050000000008e-07 -5.585399999999999 3.3134750000000005e-06 -1.5265699999999998 -0.20255000000000042 -2.1368049999999996e-05 -12.464199999999998 -4.4014699999999989 4.2128100000000011 0.12375499999999996 0.01182295 1.8439650000000001 4.8349600000000006 -14.703099999999997 0.0038655250000000003 3.0384450000000007 9.8452300000000026 -3.7927449999999996
decision_type=2 2 2 2 2 2 2 2 2 2 2 2 2 2 2 2 2 2 2 2 2 2 2 2 2 2 2 2 2 2
left_child=-1 2 3 4 5 16 17 25 15 12 11 -11 -7 -13 -9 -6 18 -5 -2 -19 27 22 -18 -15 -16 26 -4 29 -24 -21
right_child=1 -3 7 6 8 9 -8 14 -10 10 -12 13 -14 23 24 -17 21 19 -20 20 -22 -23 28 -25 -26 -27 -28 -29 -30 -31
leaf_value=-0.00018453627365119427 0.013119605382089504 -0.00016491169157228588 -3.4230778952921502e-05 -0.0039556738739338479 -0.00083035572887307687 -0.0025671087139173699 -7.2938995675951056e-05 0.0017236360937779888 -0.00049320656871565676 -0.003266611792435847 -0.00071749885248330737 0.016711595832162258 0.01019928199323741 0.0093232339883509204 0.018663980521480827 0.0043196703320427339 -0.0012245283906568737 -0.0038294391730671813 -0.00064287251328224413 -0.0001112923788605258 -0.0042254611664382675 -0.00038698174305338884 0.0055753835441384424 -0.00029797123491086746 0.0042205428438527245 -0.0005632101825505867 0.01900888580296721 0.0018748567816579626 -0.007777884788811207 0.013883042953196256
leaf_weight=93794 20 101478 67 40 176 116 5276 218 245 41 75 103 55 337 34 6605 139 29 1697 20 27 355 465 44 35 5916 28 42 20 136
leaf_count=93794 20 101478 67 40 176 116 5276 218 245 41 75 103 55 337 34 6605 139 29 1697 20 27 355 465 44 35 5916 28 42 20 136
internal_value=0 0.000139765 0.00152244 0.00222171 0.00328703 0.0017959 0.000214797 -0.000261027 0.00402284 0.00638852 0.00777062 0.0089832 0.00153904 0.0100209 0.00403501 0.004186 0.000482509 0.00537838 -0.000482564 0.00684831 0.00822455 0.00217508 0.00363267 0.00821212 0.0113376 -0.000466145 0.00557848 0.00992228 0.00502473 0.0120889
internal_weight=0 123839 22361 16063 10493 3467 5570 6298 7026 771 600 525 171 484 287 6781 2696 294 1717 254 225 979 624 381 69 6011 95 198 485 156
internal_count=217633 123839 22361 16063 10493 3467 5570 6298 7026 771 600 525 171 484 287 6781 2696 294 1717 254 225 979 624 381 69 6011 95 198 485 156
shrinkage=0.05


Tree=48
num_leaves=31
num_cat=0
split_feature=39 39 36 37 13 30 39 11 13 36 15 27 28 36 12 37 37 39 12 13 3 24 17 2 32 39 33 31 27 13
split_gain=2.03868 7.17567 7.05399 30.1684 2.76657 2.73028 6.58362 2.84804 5.37458 2.7127 1.82019 1.54203 1.502 2.32201 1.80235 1.48213 1.6314 1.79142 1.77933 1.44731 1.39932 1.31975 1.20559 1.7781 1.1688 1.08883 1.07354 1.06386 1.05982 0.956113
threshold=1.2296250000000011 -0.5126099999999999 -0.25142799999999998 -0.15132349999999997 4.4163850000000002e-05 0.069860150000000024 0.27381999999999979 0.00015638100000000001 3.2990050000000008e-07 -0.058960000000000005 3.940980000000001e-05 0.064526950000000013 -1.3507849999999997 0.43531000000000003 2.6249650000000004e-07 -0.057539999999999918 0.040430000000000084 0.85052500000000031 1.1129000000000003e-05 -7.0069149999999991e-06 -6.9704649999999999 5.5455250000000005 -5.0875749999999984 -2.0335249999999996 0.0027849950000000006 0.64319500000000052 -4.3459899999999996e-07 0.039030700000000008 0.043133650000000003 -5.7111899999999989e-06
decision_type=2 2 2 2 2 2 2 2 2 2 2 2 2 2 2 2 2 2 2 2 2 2 2 2 2 2 2 2 2 2
left_child=1 -1 -3 12 5 6 9 8 21 -5 29 15 13 14 27 19 17 -17 22 26 25 24 -18 -24 -7 -8 -9 -4 -2 -11
right_child=28 2 3 4 -6 7 20 11 -10 10 -12 -13 -14 -15 -16 16 18 -19 -20 -21 -22 -23 23 -25 -26 -27 -28 -29 -30 -31
leaf_value=-0.00013973327533208879 -0.00018978137619433431 -0.00016203217393695013 0.011724390925305403 -0.00071315191371029187 -0.001009414842397966 0.0085276276146507134 0.0028921321086031763 0.010159607146633789 0.015706197669108711 -0.00078734827708187329 -0.003963731266258313 -0.0082304220474907191 -0.00016967167776233105 0.00088617947674768491 0.023912691397126765 0.0040120440781013008 0.012918660748400727 0.011566426708217128 -0.0014229182196705014 0.01088320052203192 -0.0023969026914904133 -0.0099973818192396462 -0.004119427419209387 0.0082316863724813324 -0.0079994061181787399 -0.0016087344401130915 -0.0050075946849704326 -0.0028085881465813147 0.00067671773381592195 0.004507085104192129
leaf_weight=74578 100712 14720 34 290 314 23 370 20 36 87 66 20 15055 226 20 1440 120 83 49 223 477 81 32 326 20 211 28 20 3657 4295
leaf_count=74578 100712 14720 34 290 314 23 370 20 36 87 66 20 15055 226 20 1440 120 83 49 223 477 81 32 326 20 211 28 20 3657 4295
internal_value=0 0.0001469 0.000699466 0.0012286 0.0035975 0.00377185 0.00317604 0.00515261 -0.00130136 0.00397235 0.00427784 0.00559372 -9.98645e-05 0.00340329 0.0110907 0.00571285 0.00525345 0.00442374 0.00765128 0.00918795 -0.000390054 -0.00623904 0.00858148 0.00712768 0.000840635 0.00125757 0.00131207 0.00634181 -0.00015942 0.00440197
internal_weight=0 113264 38686 23966 8611 8297 5796 2501 160 4738 4448 2341 15355 300 74 2321 2050 1523 527 271 1058 124 478 358 43 581 48 54 104369 4382
internal_count=217633 113264 38686 23966 8611 8297 5796 2501 160 4738 4448 2341 15355 300 74 2321 2050 1523 527 271 1058 124 478 358 43 581 48 54 104369 4382
shrinkage=0.05


Tree=49
num_leaves=31
num_cat=0
split_feature=37 36 36 40 39 35 3 20 40 40 30 13 20 17 18 18 17 11 13 34 30 39 16 11 20 10 5 30 16 11
split_gain=1.86607 13.9995 10.21 7.91427 6.15052 3.67758 2.79522 2.59094 2.82278 3.72565 2.48495 2.44009 3.30874 2.2321 2.57393 3.14069 3.17145 1.81469 1.78247 1.57323 1.55132 2.00782 1.44635 1.87365 1.38829 1.42575 1.32663 1.22373 1.2054 1.19284
threshold=0.46135450000000006 0.12375499999999996 -0.040859549999999939 -2.1380549999999996 -1.7757399999999997 0.029330700000000005 -11.279499999999997 -11.621199999999998 -0.27579999999999932 0.23534999999999953 0.07119010000000002 1.8237450000000004e-06 -8.9454249999999984 8.6104250000000011 -8.4289549999999984 7.3737850000000007 -7.7125999999999992 0.0090263400000000025 6.4713950000000014e-05 -0.036336349999999996 0.18345600000000004 1.7675950000000007 8.0243550000000009e-08 0.0016846400000000001 -7.6401149999999989 1.1548300000000001e-05 1.2406650000000003e-05 0.68717050000000013 0.0012845400000000002 7.6961250000000015e-05
decision_type=2 2 2 2 2 2 2 2 2 2 2 2 2 2 2 2 2 2 2 2 2 2 2 2 2 2 2 2 2 2
left_child=1 2 5 -4 27 -1 17 20 10 19 -9 -8 -13 14 -11 16 -16 -7 26 -10 -6 -22 -12 29 25 -17 -19 -5 -18 -24
right_child=-2 -3 3 4 7 6 11 8 9 13 22 12 -14 -15 15 24 28 18 -20 -21 21 -23 23 -25 -26 -27 -28 -29 -30 -31
leaf_value=7.6464681959800661e-05 -0.00017362253156530662 -0.00014541892618191249 -0.00040174742381861664 -0.00057353157907608142 0.0038713294800933823 0.004674113638962067 -0.00058871546058060151 -0.00079097178985330994 -0.0089529686971851017 -0.0059394474769956726 -0.0039716270884042086 0.0025991388203542606 0.020172990337202983 -0.0059143563972228509 -0.004344828053520663 -0.021556682928930967 0.0069834325902137576 0.02941791186597021 0.0038282257271930577 0.004160647045035719 0.0062440071581922763 0.018868669960647823 -0.0039280408322811128 -0.0018762323870716328 -0.001110928658382174 -0.002677160429011565 0.013683602480041619 0.0049832900115680473 0.0016535881368526296 0.007448563021195888
leaf_weight=13775 90444 100725 2321 1338 1164 108 319 845 23 102 53 97 37 114 96 20 388 21 27 4080 690 33 25 83 101 20 37 107 146 294
leaf_count=13775 90444 100725 2321 1338 1164 108 319 845 23 102 53 97 37 114 96 20 388 21 27 4080 690 33 25 83 101 20 37 107 146 294
internal_value=0 0.000123463 0.00114686 0.00222155 0.00284783 0.000249376 0.00393646 0.0033733 0.00289258 0.00342367 0.00081314 0.00178966 0.00745162 0.000665604 0.00152484 0.00251234 0.00402205 0.00897532 0.0144404 0.00408714 0.0050012 0.00682024 0.0037922 0.00481579 -0.0042332 -0.0121169 0.0193805 -0.000162058 0.00552621 0.00655698
internal_weight=0 127189 26464 12043 9722 14421 646 8277 6390 5090 1300 453 134 987 873 771 630 193 85 4103 1887 723 455 402 141 40 58 1445 534 319
internal_count=217633 127189 26464 12043 9722 14421 646 8277 6390 5090 1300 453 134 987 873 771 630 193 85 4103 1887 723 455 402 141 40 58 1445 534 319
shrinkage=0.05


Tree=50
num_leaves=31
num_cat=0
split_feature=37 37 40 40 30 40 40 20 30 4 4 6 18 18 8 11 17 16 27 4 13 22 4 13 40 17 19 23 37 16
split_gain=1.69779 15.7186 8.42209 10.1052 4.10941 7.26196 2.97781 2.87565 2.76958 2.44409 2.46322 2.26871 2.22634 2.68361 2.86082 2.04667 1.98444 1.98001 1.94842 1.93042 1.89816 1.85142 1.76024 1.73754 1.5528 1.51846 1.52736 1.3686 1.34817 1.32113
threshold=-0.33012499999999995 0.12358499999999996 -2.1380549999999996 0.6060099999999996 0.7542350000000001 -0.47859499999999983 -0.8551649999999994 -11.970249999999998 0.18770700000000004 0.8580755000000001 -0.88881949999999998 4.8221700000000006e-06 4.2128100000000011 -3.9665599999999999 2.4122650000000005e-05 0.0023552050000000004 -12.464199999999998 8.0243550000000009e-08 0.043133650000000003 1.4464300000000001 4.1207450000000003e-07 12.831100000000001 0.79460700000000006 3.3134750000000005e-06 -1.5183250000000001 -6.9007099999999992 1.5434200000000002 0.069955350000000013 -0.2029299999999998 4.0088250000000005e-06
decision_type=2 2 2 2 2 2 2 2 2 2 2 2 2 2 2 2 2 2 2 2 2 2 2 2 2 2 2 2 2 2
left_child=-1 2 18 4 5 8 11 12 16 10 -7 17 13 -5 -15 20 -4 -6 -2 25 -8 22 24 -20 -10 -19 29 -9 -12 -27
right_child=1 -3 3 7 6 9 15 27 21 -11 28 -13 -14 14 -16 -17 -18 19 23 -21 -22 -23 -24 -25 -26 26 -28 -29 -30 -31
leaf_value=-0.0001604690827344383 -0.00042395832026960944 -0.00014289081163877031 0.014496859148229388 -0.0015224019558647544 -0.0015657338819000872 -0.00118497552630639 -0.0066485380412494716 -0.0002378274457255963 -0.00042290255728720549 -0.0010924967188049941 -6.5368293395625762e-05 -0.0033730363516412953 -0.0036110387246184616 0.012434378475882114 0.0032599297754985651 0.0067118100633671704 -0.00059814077634329828 0.022154284049482907 0.0016045481436501403 -0.0012780367696125592 0.0062854341727317034 -0.0072833858546800913 -0.0039377954013814984 0.010708395728463497 0.007106590584919018 0.004384823058110973 0.0039096301586208186 0.0099782390770445945 0.0039143777266302292 0.017376197040748765
leaf_weight=93794 5993 101478 22 117 25 259 74 4985 86 289 220 27 89 150 196 183 2107 51 218 21 46 36 55 69 336 24 41 33 6503 106
leaf_count=93794 5993 101478 22 117 25 259 74 4985 86 289 220 27 89 150 196 183 2107 51 218 21 46 36 55 69 336 24 41 33 6503 106
internal_value=0 0.000121537 0.00132156 0.00192795 0.00284037 0.00259755 0.00686559 0.00020616 0.000352503 0.00341331 0.00359982 0.0104414 0.00363152 0.00502372 0.00723729 0.00338416 -0.000442157 0.0118332 -0.000231228 0.0132117 -0.00169052 0.00365042 0.00447561 0.00379328 0.00557214 0.0145823 0.012324 -0.000170643 0.00378415 0.0149778
internal_weight=0 123839 22361 16081 10511 9913 598 5570 2642 7271 6982 295 552 463 346 303 2129 268 6280 243 120 513 477 287 422 222 171 5018 6723 130
internal_count=217633 123839 22361 16081 10511 9913 598 5570 2642 7271 6982 295 552 463 346 303 2129 268 6280 243 120 513 477 287 422 222 171 5018 6723 130
shrinkage=0.05


Tree=51
num_leaves=31
num_cat=0
split_feature=36 36 39 40 36 30 30 18 11 16 27 27 31 26 16 3 40 17 17 14 13 30 5 11 16 18 35 39 40 36
split_gain=1.53919 11.7633 8.17881 10.4043 3.93084 4.39154 3.13734 2.21241 2.3159 2.68704 2.03803 2.02945 1.91186 2.38564 1.85738 1.83137 3.41072 1.98322 1.95864 1.5701 1.55263 1.37312 1.40365 1.30827 1.54515 1.23574 1.22972 2.51907 2.08721 1.91433
threshold=-0.43704099999999996 0.12375499999999996 1.510785 0.6060099999999996 -0.10081500000000009 1.3837400000000002 0.43987200000000004 8.5720600000000022 0.00085338750000000011 0.0024010250000000006 0.064526950000000013 0.043133650000000003 -0.35970249999999998 0.082377100000000023 7.0271150000000011e-06 -7.4497099999999987 -0.16918499999999967 -12.926599999999999 12.319050000000002 -2.4916349999999997e-05 -4.2565349999999989e-06 2.1557050000000006 1.8306700000000002e-05 0.0013551600000000002 0.0013893600000000003 -13.388899999999998 2.0374000000000002e-05 0.85052500000000031 -0.68809499999999957 -0.058960000000000005
decision_type=2 2 2 2 2 2 2 2 2 2 2 2 2 2 2 2 2 2 2 2 2 2 2 2 2 2 2 2 2 2
left_child=-1 2 3 4 5 -2 -5 8 -8 12 15 -4 -10 14 -14 19 17 -17 25 -6 -18 -11 -23 -7 -25 -19 28 -28 -21 -30
right_child=1 -3 11 6 10 23 7 -9 9 21 -12 -13 13 -15 -16 16 20 18 -20 26 -22 22 -24 24 -26 -27 27 -29 29 -31
leaf_value=-0.00015658127856555182 0.00017835859672136033 -0.00013078140432628559 -0.00031626036541561634 -0.00019357286207767626 -0.0024200134004602643 0.0026554881674807503 -0.0040281173151165044 -0.003141927678069774 0.020022899998516284 0.00018191104448175925 -0.011966684477573092 0.003526644115128123 0.0029587898248185714 2.2810467175747218e-06 0.014154372903344743 0.0096616335749707145 -0.0058859276994057425 0.0063305641329565723 0.0061076609034031674 -0.0031782184065558203 0.0036173565552134906 0.0028758425271094203 0.018033794775449984 0.018396791025451473 0.0052844840252640642 -0.0024157398675612629 0.004265035404021786 0.0099271462240990288 -0.0062636136730695709 0.0037081137553742604
leaf_weight=91187 1945 100725 8516 5973 99 48 73 116 34 224 22 358 54 76 118 46 44 43 86 121 1853 42 24 53 39 664 2073 217 49 2711
leaf_count=91187 1945 100725 8516 5973 99 48 73 116 34 224 22 358 54 76 118 46 44 43 86 121 1853 42 24 53 39 664 2073 217 49 2711
internal_value=0 0.000112919 0.00106727 0.00171436 0.0027283 0.000794003 0.000191648 0.0032152 0.0043585 0.00542882 0.00323067 -0.000161228 0.00890405 0.00737969 0.0106395 0.00327243 0.00222289 -0.000431637 -0.00101712 0.00381731 0.00339693 0.00204946 0.00838783 0.00934706 0.0128383 -0.00188379 0.00393673 0.00480158 0.00324929 0.00353108
internal_weight=0 126446 25721 16847 10113 2085 6734 761 645 572 8028 8874 282 248 172 8006 2736 839 793 5270 1897 290 66 140 92 707 5171 2290 2881 2760
internal_count=217633 126446 25721 16847 10113 2085 6734 761 645 572 8028 8874 282 248 172 8006 2736 839 793 5270 1897 290 66 140 92 707 5171 2290 2881 2760
shrinkage=0.05


Tree=52
num_leaves=31
num_cat=0
split_feature=37 36 37 39 39 27 13 13 40 4 30 39 39 31 21 4 39 18 18 17 18 21 17 32 7 30 37 16 32 4
split_gain=1.41121 11.2045 7.1216 5.80638 5.6908 3.32748 2.43278 3.3947 2.9241 2.19869 2.48598 3.76582 4.37508 2.13812 2.28022 2.12248 2.21116 3.41105 4.11101 1.93626 1.88245 2.50024 1.73076 1.59635 2.22739 1.96077 1.48067 1.74668 1.39253 2.30862
threshold=-0.43858299999999995 -0.12496499999999998 -0.057539999999999918 2.1254700000000009 -1.9691099999999999 0.0064016150000000003 2.5770550000000005e-06 7.0201950000000013e-05 -5.322309999999999 2.2539600000000006 0.069860150000000024 0.39187000000000044 -0.465335 0.96084200000000008 -1.1409399999999998 -1.6465649999999996 -0.77143500000000065 5.2853500000000002 -6.0049649999999994 5.1544950000000016 6.2342700000000013 0.82362200000000019 -3.4870349999999992 -0.084377249999999987 2.9762850000000006e-05 4.1501900000000012 0.078754999999999922 3.2780400000000001e-07 0.069832100000000022 -0.29052249999999996
decision_type=2 2 2 2 2 2 2 2 2 2 2 2 2 2 2 2 2 2 2 2 2 2 2 2 2 2 2 2 2 2
left_child=-1 -2 5 4 -4 -3 28 8 -8 10 11 12 -6 14 -12 -16 17 18 -17 22 23 -22 -20 -10 25 -25 -18 -28 29 -7
right_child=1 2 3 -5 9 6 7 -9 20 -11 13 -13 -14 -15 15 16 26 -19 19 -21 21 -23 -24 24 -26 -27 27 -29 -30 -31
leaf_value=-0.00015108660232192211 -0.0001294391132873252 -0.00010130015124456076 -0.00040786828700956307 -0.00025950964990475902 -0.0017486255199315294 0.0084976613399296418 -0.00036344450354055668 -0.00033099522129054031 -0.0015012914442680389 -0.0013151692916498695 0.018334675644492284 -0.00096150278611245349 0.0033862083009279496 -0.012019042028114199 -0.0030228977865112239 -0.010986262349179016 0.0036649507587864514 -0.0077159215222179361 0.0024731080151266524 -0.0013896130956709387 0.0090632368022432706 0.031208919520489872 0.016089701375295952 0.010982503676010918 0.0017592528147276406 0.02687574372523361 -0.0015838278074036625 0.011105523040907374 -0.00082241585297794734 0.0011655802238480343
leaf_weight=90374 101433 11252 1542 2573 456 134 68 163 30 301 29 712 4595 20 97 20 2168 28 27 22 26 25 172 69 43 27 34 134 519 540
leaf_count=90374 101433 11252 1542 2573 456 134 68 163 30 301 29 712 4595 20 97 20 2168 28 27 22 26 25 172 69 43 27 34 134 519 540
internal_value=0 0.000107295 0.00103708 0.00186628 0.00239439 0.000205698 0.00230688 0.00543514 0.00869861 0.00288459 0.00303307 0.00244277 0.00292264 0.00426967 0.00438896 0.00423928 0.0045097 0.00880245 0.0107216 0.0126861 0.0114996 0.019919 0.0142422 0.00895886 0.0112164 0.0154525 0.00401537 0.00853744 0.00112428 0.00262329
internal_weight=0 127259 25826 12930 10357 12896 1644 451 288 8815 8514 5763 5051 2751 2731 2702 2605 269 241 221 220 51 199 169 139 96 2336 168 1193 674
internal_count=217633 127259 25826 12930 10357 12896 1644 451 288 8815 8514 5763 5051 2751 2731 2702 2605 269 241 221 220 51 199 169 139 96 2336 168 1193 674
shrinkage=0.05


Tree=53
num_leaves=31
num_cat=0
split_feature=37 36 40 40 37 30 20 27 4 4 27 40 11 37 40 4 22 36 16 25 32 36 4 15 17 18 30 21 11 16
split_gain=1.27466 9.40935 6.60944 8.82592 3.31445 3.32188 2.68863 2.02608 1.81552 1.73121 1.82187 3.76009 2.92996 2.23482 2.21692 2.14743 2.95862 1.9654 1.86687 1.87477 1.68214 2.43179 1.58642 1.58615 1.48863 1.45272 1.70569 1.3848 1.29635 1.68519
threshold=0.46135450000000006 0.12375499999999996 -1.4363049999999993 0.6060099999999996 0.14791590000000002 1.3837400000000002 -13.824199999999998 0.043133650000000003 0.92648250000000021 -2.6817999999999995 0.00044156150000000004 -0.27579999999999932 0.00011354650000000001 0.057875000000000128 -0.81248999999999982 -0.13131799999999996 2.0531150000000005 -0.058960000000000005 2.8823200000000004e-07 -0.022658049999999996 0.18330700000000003 0.056773999999999998 -0.40498649999999997 5.1095850000000008e-07 3.5249450000000002 4.2128100000000011 1.7130900000000002 -0.23198249999999998 0.00047127200000000006 0.00037934750000000005
decision_type=2 2 2 2 2 2 2 2 2 2 2 2 2 2 2 2 2 2 2 2 2 2 2 2 2 2 2 2 2 2
left_child=1 2 7 4 8 -6 24 -1 9 -4 11 -11 15 14 -14 -12 -17 -13 19 -15 21 -16 -22 -18 25 26 -5 -10 -7 -30
right_child=-2 -3 3 6 5 28 -8 -9 27 10 12 17 13 18 20 16 23 -19 -20 -21 22 -23 -24 -25 -26 -27 -28 -29 29 -31
leaf_value=-0.00027457448010791271 -0.00014349584274574241 -0.00011839706915366413 -0.0018387815760156551 0.0059007844513882489 -3.6729332132553807e-05 -0.0012632732383700876 -3.9924247073728683e-05 0.0034715258751988431 -0.0077687782460104746 -0.00086034709809435688 0.010898550845061741 -0.0037554712843906029 0.0091180506971987648 -0.011085296981036663 0.0032667322151743068 0.0033896281479558511 -0.012877754509252937 0.0033072107999513704 0.010354175299867183 0.0075414052738675052 0.0032244167412104814 0.0088865091969552029 -0.015556227500465784 0.0018667432751196128 -0.0035981368352009293 -0.0032191571811298753 0.017644050053173776 0.00075617846494361435 0.020232174566412783 0.0062565757922622995
leaf_weight=9013 90444 100725 177 166 1688 26 6704 376 57 689 30 101 199 22 2000 84 76 3985 257 35 23 213 22 24 43 33 38 290 34 59
leaf_count=9013 90444 100725 177 166 1688 26 6704 376 57 689 30 101 199 22 2000 84 76 3985 257 35 23 213 22 24 43 33 38 290 34 59
internal_value=0 0.00010204 0.000941048 0.00152699 0.00247269 0.000532478 0.000160567 -0.000124555 0.00289591 0.00305068 0.00316221 0.00255647 0.00413118 0.00456651 0.0040589 -0.00150571 -0.00352815 0.00313263 0.00853852 0.000352152 0.00361303 0.00380763 -0.00595723 -0.00933908 0.0049609 0.00651381 0.00808826 -0.000644175 0.00860661 0.0113659
internal_weight=0 127189 26464 17075 10091 1807 6984 9389 8284 7937 7760 4775 2985 2771 2457 214 184 4086 314 57 2258 2213 45 100 280 237 204 347 119 93
internal_count=217633 127189 26464 17075 10091 1807 6984 9389 8284 7937 7760 4775 2985 2771 2457 214 184 4086 314 57 2258 2213 45 100 280 237 204 347 119 93
shrinkage=0.05


Tree=54
num_leaves=31
num_cat=0
split_feature=37 36 37 40 40 27 11 10 30 40 40 11 13 4 4 40 40 4 28 37 4 4 33 40 13 32 32 14 11 8
split_gain=1.17073 9.20788 5.78174 4.78061 4.71644 2.97217 2.2844 2.36123 1.9115 3.59662 2.82822 2.20621 2.83973 2.02743 2.13424 1.9243 2.42981 1.83647 1.61437 1.59633 1.58554 1.37863 1.66154 1.48475 1.87839 3.527 2.34421 1.9065 1.96567 1.55863
threshold=-0.43858299999999995 -0.12496499999999998 -0.057539999999999918 -2.1849649999999996 2.014730000000001 0.0064016150000000003 0.00071877950000000007 0.00037732250000000004 0.093126650000000019 -0.64641000000000026 0.46045500000000011 0.00026773650000000009 3.2990050000000008e-07 2.5139300000000007 -2.5331249999999996 -0.81248999999999982 0.81788000000000027 0.36048500000000006 0.65138850000000015 0.078754999999999922 -0.58642949999999983 -3.3078599999999994 -2.7510949999999998e-05 -4.7185699999999988 1.8237450000000004e-06 -0.0071753399999999997 0.0037576550000000004 8.2035700000000018e-06 0.0061690100000000008 1.1875600000000002e-05
decision_type=2 2 2 2 2 2 2 2 2 2 2 2 2 2 2 2 2 2 2 2 2 2 2 2 2 2 2 2 2 2
left_child=-1 -2 5 -4 8 -3 -7 21 9 -5 17 12 18 14 -13 -16 19 20 -10 -17 -11 -8 -23 -24 25 29 -26 -28 -29 -25
right_child=1 2 3 4 -6 6 7 -9 11 10 -12 13 -14 -15 15 16 -18 -19 -20 -21 -22 22 23 24 26 -27 27 28 -30 -31
leaf_value=-0.00013761241825881244 -0.00011688079729326671 -9.8641209331385118e-05 -0.00025340727810534196 -0.001351603070300674 -0.00040538761294248084 0.00011983864596877097 -0.0016061050340067597 -0.0015617179512191354 -0.0019109962894992138 -0.0032301829479749983 -0.00062415800673534252 -0.0039334909271544769 0.0076405928928464182 -0.004007152442879398 0.0087081581824738873 0.0030967099969459594 0.0091652107359418127 -0.002406639470763576 -0.01410307206112791 0.0095762535655761483 0.0032242756962896318 0.014938922118365198 -0.00020888006526105312 -0.0025608598215815922 -0.00012232090090907624 -0.0016467982018214282 0.016067035508871431 -0.0050451564772699313 0.01552215722566914 0.011332979925732151
leaf_weight=90374 101433 11252 2547 654 1524 741 70 164 102 97 624 71 63 71 283 1396 220 156 37 102 4983 46 109 24 46 153 117 26 21 127
leaf_count=90374 101433 11252 2547 654 1524 741 70 164 102 97 624 71 63 71 283 1396 220 156 37 102 4983 46 109 24 46 153 117 26 21 127
internal_value=0 9.77266e-05 0.000940608 0.00168774 0.00216392 0.000191504 0.00217734 0.00386572 0.00260591 0.00216524 0.00255774 0.00383001 -0.00116524 0.00430087 0.00458555 0.00488783 0.00425852 0.00293694 -0.00515637 0.00353791 0.00310103 0.00507019 0.00576876 0.00509167 0.00621571 0.00370351 0.00985242 0.0126502 0.00414449 0.00912469
internal_weight=0 127259 25826 12930 10383 12896 1644 903 8859 6514 5860 2345 202 2143 2072 2001 1718 5236 139 1498 5080 739 669 623 514 304 210 164 47 151
internal_count=217633 127259 25826 12930 10383 12896 1644 903 8859 6514 5860 2345 202 2143 2072 2001 1718 5236 139 1498 5080 739 669 623 514 304 210 164 47 151
shrinkage=0.05


Tree=55
num_leaves=31
num_cat=0
split_feature=37 36 37 40 40 30 40 3 30 4 34 4 34 4 4 33 36 27 39 4 30 40 4 36 4 34 4 40 4 4
split_gain=1.05658 8.31012 5.21908 4.12044 4.70125 3.27626 4.04415 2.10897 2.71024 1.91934 6.4385 4.18357 2.79239 6.34986 3.55963 2.73917 1.73823 1.59183 1.51853 1.42787 1.63924 1.96705 1.49785 1.32969 2.44874 2.73944 1.66512 1.58845 1.31392 1.18359
threshold=-0.43858299999999995 -0.12496499999999998 -0.026150000000000003 -1.4363049999999993 2.014730000000001 0.78599850000000016 -4.4138449999999994 -13.989599999999998 0.71357000000000015 0.41110300000000005 0.033251350000000006 3.0771300000000004 0.025766600000000004 -0.20992299999999997 -2.6817999999999995 3.3001550000000009e-05 0.22528099999999995 0.036175450000000005 0.68409500000000023 -1.6465649999999996 0.13940550000000004 -0.68809499999999957 0.41110300000000005 -0.079468000000000025 -0.19656399999999996 0.0069494100000000005 0.19669200000000001 -0.81248999999999982 0.8580755000000001 -0.58642949999999983
decision_type=2 2 2 2 2 2 2 2 2 2 2 2 2 2 2 2 2 2 2 2 2 2 2 2 2 2 2 2 2 2
left_child=-1 -2 5 7 17 -3 -7 8 -4 12 11 -11 -8 14 -14 -16 -17 19 -19 -5 21 -21 29 24 -22 26 -26 -25 -28 -23
right_child=1 2 3 4 -6 6 9 -9 -10 10 -12 -13 13 -15 15 16 -18 18 -20 20 23 22 -24 27 25 -27 28 -29 -30 -31
leaf_value=-0.00013073179565809828 -0.00011103675839768581 -1.7130089093717992e-05 -0.0027254785223004337 -0.0011250428755773644 -0.00056850700841556176 -0.00023372615784779399 -0.00079732062532376089 -0.00035365373307940723 0.014572140636543433 0.016529509605498559 -0.0028852252444489706 0.0002170812872533973 -0.00058050019635209958 -0.0019159693094870315 0.010566901799231853 0.016109474217174232 0.035289631555566477 -0.014553608401463584 0.0025351131299080759 -0.0015830922450140034 0.017576899210799416 -0.0041192510031100556 -0.0010746183232000401 0.0093763162157008972 -0.0031981226588998525 -0.0090134565319333754 0.018212583146634556 0.0032285844728535645 0.0031288833357393745 0.0030019333560463834
leaf_weight=90374 101433 12730 39 228 1285 892 291 2434 54 161 99 52 52 163 133 27 21 26 26 275 53 59 245 118 21 28 42 959 22 5291
leaf_count=90374 101433 12730 39 228 1285 892 291 2434 54 161 99 52 52 163 133 27 21 26 26 275 53 59 245 118 21 28 42 959 22 5291
internal_value=0 9.28402e-05 0.000893578 0.00170551 0.00222292 0.000271341 0.0022133 -7.13064e-05 0.0073183 0.00439823 0.00765033 0.0125471 0.00292129 0.00565391 0.0109496 0.0142621 0.0245008 0.0027081 -0.00600925 0.00276985 0.0028947 0.00254541 0.00274833 0.00454418 0.00870965 0.00455068 0.00901886 0.00390215 0.0130276 0.0029234
internal_weight=0 127259 25826 11205 8678 14621 1891 2527 93 999 312 213 687 396 233 181 48 7393 52 7341 7113 5870 5595 1243 166 113 85 1077 64 5350
internal_count=217633 127259 25826 11205 8678 14621 1891 2527 93 999 312 213 687 396 233 181 48 7393 52 7341 7113 5870 5595 1243 166 113 85 1077 64 5350
shrinkage=0.05


Tree=56
num_leaves=31
num_cat=0
split_feature=36 36 39 40 36 30 30 18 3 11 4 40 18 4 18 36 22 17 35 39 11 15 36 4 13 22 40 35 11 36
split_gain=0.963784 7.02861 5.0191 6.57128 2.51024 3.02154 2.25022 1.99323 2.69802 1.73265 1.81921 2.12475 2.33038 2.14328 1.57128 1.55127 2.06843 1.64113 1.46309 3.3409 2.69653 2.13207 1.79087 1.75921 1.74244 1.47163 1.43953 1.6461 2.23092 1.8078
threshold=-0.46506469999999994 0.12375499999999996 1.510785 0.6060099999999996 -0.14969009999999991 1.3837400000000002 0.41015900000000005 -12.050999999999998 -7.899074999999999 0.00085338750000000011 -2.2787549999999999 5.3622850000000026 9.8452300000000026 4.1822950000000008 -8.5511699999999973 -0.3562499999999999 16.451500000000003 -4.3220249999999991 2.0374000000000002e-05 0.27381999999999979 0.00011354650000000001 -1.0730149999999997e-06 -0.058960000000000005 0.10312400000000001 4.4163850000000002e-05 2.0531150000000005 -0.81248999999999982 0.005313420000000001 0.00068272250000000014 -0.058960000000000005
decision_type=2 2 2 2 2 2 2 2 2 2 2 2 2 2 2 2 2 2 2 2 2 2 2 2 2 2 2 2 2 2
left_child=-1 2 3 4 5 -2 -5 8 -4 -8 -11 12 13 14 -12 -16 17 -17 19 22 21 -20 -6 25 26 -23 -22 29 -29 -28
right_child=1 -3 7 6 18 -7 9 -9 -10 10 11 -13 -14 -15 15 16 -18 -19 20 -21 24 23 -24 -25 -26 -27 27 28 -30 -31
leaf_value=-0.00012491455176294279 -5.4448153370391126e-05 -0.00010222209919980643 0.017751338737351557 -0.00019351520667239185 -0.0026872257843122754 0.0078705395024555001 -0.003312423699930601 -0.00022156100655622583 0.0018805095896488257 -0.0024787138767218991 -0.0008679133953481185 -0.00077337197882078638 -0.005580711630411829 -0.003025843715801349 -0.00082988843223023596 -0.0019989947562238999 0.016822003763950162 0.0098027763710487447 0.009373707743361593 -0.00079261722012001631 0.0072137595880409026 -0.00018367934674817199 0.0027527938197830781 0.0049508109137317855 -0.0023422782764292173 -0.011232515515526065 0.0079777214806450256 -0.011988512706011534 0.0020640355251221494 0.0034287611749000547
leaf_weight=90327 1778 100725 35 6190 157 129 109 9112 114 110 41 146 39 46 33 35 93 186 33 901 304 47 4158 38 114 84 243 38 110 2158
leaf_count=90327 1778 100725 35 6190 157 129 109 9112 114 110 41 146 39 46 33 35 93 186 33 901 304 47 4158 38 114 84 243 38 110 2158
internal_value=0 8.86302e-05 0.000811838 0.00131424 0.00211904 0.000481642 0.000135673 -0.00012776 0.00560856 0.00256726 0.00344639 0.00449932 0.00612683 0.00717889 0.00838873 0.00948245 0.0105662 0.00793372 0.00249143 0.00197662 0.00333878 -0.002251 0.00255486 -0.00452091 0.00371934 -0.00726843 0.00396155 0.00357369 -0.00154405 0.00388915
internal_weight=0 127306 26581 17320 10292 1907 7028 9261 149 838 729 619 473 434 388 347 314 221 8385 5216 3169 202 4315 169 2967 131 2853 2549 148 2401
internal_count=217633 127306 26581 17320 10292 1907 7028 9261 149 838 729 619 473 434 388 347 314 221 8385 5216 3169 202 4315 169 2967 131 2853 2549 148 2401
shrinkage=0.05


Tree=57
num_leaves=31
num_cat=0
split_feature=37 38 37 39 39 35 20 27 39 27 11 30 11 39 18 18 27 20 17 17 39 18 10 11 39 20 14 16 4 29
split_gain=0.879985 5.65505 5.35657 3.64847 3.43202 2.63576 1.98908 1.8821 1.76595 1.90445 1.63317 1.57751 1.30864 1.29457 2.74904 2.84939 2.37274 1.65926 1.32998 1.54315 1.85569 2.30105 1.23739 1.78625 1.54205 1.57424 1.62023 2.77264 1.04161 2.14016
threshold=-0.60497499999999982 -0.12496499999999998 -0.057539999999999918 2.7930350000000002 -1.9691099999999999 0.044881000000000004 -13.237099999999998 0.017781650000000003 0.39187000000000044 0.030440600000000005 0.00034418150000000005 0.30734050000000007 0.046615350000000007 -0.19603999999999996 -7.4922749999999985 9.5666150000000023 0.00055216300000000015 -8.8365399999999976 -6.5323449999999985 6.2570500000000004 -0.77143500000000065 4.7688000000000015 0.00037732250000000004 0.025521750000000003 5.8194249999999998 -16.290849999999995 -1.1906449999999996e-06 0.00010273900000000001 0.61713700000000016 -0.00058211249999999993
decision_type=2 2 2 2 2 2 2 2 2 2 2 2 2 2 2 2 2 2 2 2 2 2 2 2 2 2 2 2 2 2
left_child=-1 -2 5 4 -4 -3 7 12 9 13 -7 -10 -6 14 17 16 -16 -8 -18 20 21 -20 23 24 25 -12 27 -27 -28 -30
right_child=1 2 3 -5 6 10 8 -9 11 -11 22 -13 -14 -15 15 -17 18 -19 19 -21 -22 -23 -24 -25 -26 26 28 -29 29 -31
leaf_value=-0.00012534130120682549 -9.996239238982532e-05 -4.4926777500968025e-06 -0.00034909386124903392 -0.00038663658275549326 0.0039764562175526631 -0.00035172513618460602 -0.018029956224684916 0.016157204639767449 -0.00041426765322125775 -0.01123460242882944 0.019875696822003061 0.0035738292629473784 -0.0050996107107139105 0.002730458697035931 0.000201557245407451 -0.0061198404385672455 -0.0020387124221549549 -0.0030477530667301295 0.013542933448189801 -0.00059295191739996284 0.0043666246952307119 -0.0035850308734275728 -0.001125700588215283 0.016743927963211069 -0.0010609093135508921 0.026843476765365765 0.00059390321375318422 0.0051039106789672094 0.019812960912939163 0.00076992058133732322
leaf_weight=85207 101433 17376 1542 2239 1268 224 21 31 1239 26 21 310 41 4739 583 104 67 154 133 90 320 23 73 35 83 22 124 44 25 36
leaf_count=85207 101433 17376 1542 2239 1268 224 21 31 1239 26 21 310 41 4739 583 104 67 154 133 90 320 23 73 35 83 22 124 44 25 36
internal_value=0 8.06485e-05 0.000671747 0.00144867 0.00183303 0.000115604 0.00220082 0.00398055 0.00189542 0.00226944 0.00315316 0.000383867 0.00369218 0.00232577 0.00104293 0.00182361 0.00250298 -0.00484562 0.00462261 0.00541115 0.00654637 0.0110177 0.00484883 0.00596714 0.00490464 0.00672501 0.00562476 0.0123504 0.00322533 0.00857445
internal_weight=0 132426 30993 12930 10691 18063 9149 1340 7809 6260 687 1549 1309 6234 1495 1320 1216 175 633 566 476 156 463 390 355 272 251 66 185 61
internal_count=217633 132426 30993 12930 10691 18063 9149 1340 7809 6260 687 1549 1309 6234 1495 1320 1216 175 633 566 476 156 463 390 355 272 251 66 185 61
shrinkage=0.05


Tree=58
num_leaves=31
num_cat=0
split_feature=37 36 39 40 30 40 30 36 18 3 4 21 34 4 36 4 35 36 4 40 36 36 4 18 11 40 12 18 19 12
split_gain=0.799915 5.84906 4.20723 5.8289 2.54236 3.71177 2.16397 1.95757 1.94025 2.3074 1.77281 5.54899 5.48426 2.70977 3.3747 2.68598 3.53656 2.56901 2.12408 2.0957 2.01436 1.8873 1.74844 1.74124 1.87063 1.74539 1.97922 2.10274 3.12974 2.00496
threshold=0.46135450000000006 0.1751400000000001 1.510785 0.6060099999999996 0.13562800000000003 -0.27579999999999932 0.43987200000000004 -0.058960000000000005 -12.050999999999998 -7.899074999999999 -0.27873999999999993 -0.45225049999999994 0.0061275400000000008 -2.5331249999999996 -0.10081500000000009 0.28079350000000008 0.0015197350000000001 0.10022550000000004 2.7715550000000007 -0.77194499999999999 0.12375499999999996 -0.079468000000000025 -0.19656399999999996 8.5720600000000022 0.00085338750000000011 5.3622850000000026 -4.6146349999999992e-05 -6.1725999999999992 -0.18541999999999997 4.3407200000000007e-05
decision_type=2 2 2 2 2 2 2 2 2 2 2 2 2 2 2 2 2 2 2 2 2 2 2 2 2 2 2 2 2 2
left_child=1 2 3 4 5 -1 -5 -7 9 -4 12 22 -6 -14 -15 16 -13 19 20 -16 21 -17 -12 24 -8 26 -26 28 -28 -29
right_child=-2 -3 8 6 10 7 23 -9 -10 -11 11 15 13 14 17 18 -18 -19 -20 -21 -22 -23 -24 -25 25 -27 27 29 -30 -31
leaf_value=-0.00012967233927483601 -0.00011367484056137407 -0.00010002572408325473 0.016119322862083976 -0.00019109337611343725 -0.0011316122053762632 -0.0001414824624768865 -0.0035698899099185968 0.002541731079120587 -0.00019665098338029734 0.0019957113827286242 0.0068279724029707729 0.0034565994822907137 -0.0025984502016799527 0.019268167582585625 0.014667120608501137 0.012643496356630589 -0.0060016600134956645 0.019810055224941329 -0.0027087306380824392 0.0043186251513378801 0.020343280142073386 0.0050319162166866452 -0.0056427814234733522 -0.002907151171497189 -0.0019515516716022781 -0.00051642553278238477 -0.005686258130481292 0.010434363389302032 0.01461266930628982 -0.0010252206379928713
leaf_weight=2405 90444 99017 38 6721 216 781 84 5243 9828 121 32 503 50 76 60 102 123 39 59 265 28 404 231 127 71 142 64 288 27 44
leaf_count=2405 90444 99017 38 6721 216 781 84 5243 9828 121 32 503 50 76 60 102 123 39 59 265 28 404 231 127 71 142 64 288 27 44
internal_value=0 8.08341e-05 0.000716508 0.00116932 0.0019251 0.0015309 0.000109051 0.00219386 -0.000108007 0.00537117 0.00344373 0.00246141 0.00550579 0.00843166 0.00968508 0.00388252 0.00159819 0.00768422 0.00629398 0.00622912 0.00728866 0.00656627 -0.00412543 0.00249072 0.00344284 0.00436905 0.00577338 0.00707 0.000336501 0.00891562
internal_weight=0 127189 28172 18185 10617 8429 7568 6024 9987 159 2188 1482 706 490 440 1219 626 364 593 325 534 506 263 847 720 636 494 423 91 332
internal_count=217633 127189 28172 18185 10617 8429 7568 6024 9987 159 2188 1482 706 490 440 1219 626 364 593 325 534 506 263 847 720 636 494 423 91 332
shrinkage=0.05


Tree=59
num_leaves=31
num_cat=0
split_feature=37 36 37 40 40 30 40 3 30 10 4 21 4 21 4 30 17 20 39 11 36 4 4 31 30 39 39 37 16 40
split_gain=0.728873 4.62348 4.37346 2.77419 3.29146 2.7061 3.09328 1.82931 2.43682 1.57978 2.4434 6.28129 3.35777 5.17289 2.86652 2.09069 1.40048 1.29639 1.09009 1.07968 1.02171 0.979119 1.02419 1.24457 1.23467 1.90571 1.89534 1.19086 1.69783 1.05572
threshold=-0.60497499999999982 -0.12496499999999998 -0.026150000000000003 -1.4363049999999993 2.014730000000001 1.1210650000000002 -4.4138449999999994 -13.989599999999998 0.71357000000000015 0.00037732250000000004 0.41110300000000005 0.53020800000000012 -0.42458499999999993 -0.59879749999999998 -2.5331249999999996 5.3516150000000016 -6.2436999999999996 -15.921249999999999 -1.1067849999999997 0.0050185850000000016 0.38220950000000015 -2.6817999999999995 2.5139300000000007 0.67406600000000017 0.072496500000000005 -0.465335 0.64319500000000052 0.078754999999999922 1.6081950000000002e-07 -0.77194499999999999
decision_type=2 2 2 2 2 2 2 2 2 2 2 2 2 2 2 2 2 2 2 2 2 2 2 2 2 2 2 2 2 2
left_child=-1 -2 5 7 21 -3 -7 8 -4 10 12 -12 13 14 -8 18 -13 -14 -16 -10 -18 -5 23 24 25 -23 -27 29 -29 -26
right_child=1 2 3 4 -6 6 9 -9 19 -11 11 16 17 -15 15 -17 20 -19 -20 -21 -22 22 -24 -25 27 26 -28 28 -30 -31
leaf_value=-0.00011407294839580137 -8.9910968496695329e-05 -3.6822686870666858e-05 -0.0027021984071231996 -0.0013639953306670038 -0.00051395720499120381 -7.9814496065469591e-05 0.0011532971148633143 -0.00032372216195722647 0.022917868830263616 -0.0017260236439445482 -0.0023440961018682824 0.022229193928001753 0.0083532360527897257 -0.0032629769939562844 0.021172596641223541 0.024942594681065099 0.01377583750942722 -0.00082293893320720525 0.0083449080165948226 0.0082772357060628791 0.0013961739849764855 -0.0016181444869322185 -0.0013321288765229429 -0.0091947277825649674 0.0068693793716994751 0.0025253728050532872 -0.0021391438696341278 -0.0034799335133885185 0.0092920357936326376 0.0027177113258212726
leaf_weight=85207 101433 17757 39 185 1285 1006 44 2434 20 114 84 43 43 78 22 43 100 367 67 34 20 333 187 23 169 4444 229 31 162 1630
leaf_count=85207 101433 17757 39 185 1285 1006 44 2434 20 114 84 43 43 78 22 43 100 367 67 34 20 333 187 23 169 4444 229 31 162 1630
internal_value=0 7.33981e-05 0.000607871 0.00139718 0.00182172 0.000160925 0.00188983 -6.07606e-05 0.00682148 0.00382296 0.00451734 0.00876299 0.00293801 0.0074554 0.0122056 0.0158897 0.0144869 0.00013944 0.0115158 0.0136997 0.0117126 0.0022277 0.00231988 0.00241715 0.00245531 0.00203637 0.00229679 0.00350815 0.00724058 0.00310772
internal_weight=0 132426 30993 11205 8678 19788 2031 2527 93 1025 911 247 664 254 176 132 163 410 89 54 120 7393 7208 7021 6998 5006 4673 1992 193 1799
internal_count=217633 132426 30993 11205 8678 19788 2031 2527 93 1025 911 247 664 254 176 132 163 410 89 54 120 7393 7208 7021 6998 5006 4673 1992 193 1799
shrinkage=0.05


Tree=60
num_leaves=31
num_cat=0
split_feature=35 11 37 37 10 11 15 35 4 4 21 4 21 4 39 17 39 15 30 10 3 3 39 20 33 16 39 40 37 37
split_gain=0.739291 1.11488 1.49704 5.63546 2.54314 3.60079 2.43598 2.79267 1.45604 2.75955 5.76512 2.28937 5.53813 4.1036 2.63481 1.95253 1.64131 1.52454 1.2923 0.976965 0.845921 1.05132 0.987439 0.83093 0.768713 0.723038 0.695262 2.67215 2.33836 9.1566
threshold=0.020672650000000004 0.00059245900000000015 0.70899650000000014 -0.60497499999999982 0.00033872700000000009 0.022777000000000002 -0.011677349999999998 0.34276850000000003 2.5139300000000007 0.73862450000000013 0.86341500000000015 -0.42458499999999993 -0.69490299999999994 -2.1602949999999992 6.0173949999999996 -8.5876849999999987 -0.56159999999999977 -0.00036585349999999998 3.2423100000000002 0.00010711200000000001 -10.386699999999999 -12.918299999999999 2.1697850000000001 -16.647599999999994 1.8324750000000004e-05 0.0021145800000000005 1.1470050000000007 0.23534999999999953 0.29985500000000015 -0.17681499999999981
decision_type=2 2 2 2 2 2 2 2 2 2 2 2 2 2 2 2 2 2 2 2 2 2 2 2 2 2 2 2 2 2
left_child=26 -2 3 -3 5 8 -7 19 9 11 -11 12 13 -5 16 -12 17 -15 -18 -8 21 -17 -22 25 -20 -13 27 28 29 -1
right_child=1 2 -4 4 -6 6 7 -9 -10 10 15 23 -14 14 -16 20 18 -19 24 -21 22 -23 -24 -25 -26 -27 -28 -29 -30 -31
leaf_value=-8.9579721671940581e-05 -0.00016102863991088531 -4.8006651944140607e-05 -0.0001199917662091003 -0.001423017734403122 -0.000695948028003794 -0.00031428887698523424 0.020563249418046325 0.029675842878601418 -0.0011381257563213391 -0.0023005884618183263 0.029140709305647761 0.00088733024936038681 -0.0019089291288574757 0.017909902397410148 0.0016048339268309065 0.011121972174505177 0.011942653852300002 0.00032120858436841945 0.017416141338815746 0.0074877457229304131 0.01610232935386843 0.02679647284014209 0.00076920785497696634 -0.0010383359846610036 0.028820527245083619 0.0097912901987958906 -0.00011664252793782812 -9.0567265094892627e-05 -0.00011322577037297868 0.0021192881413079887
leaf_weight=11776 4790 2209 2329 52 234 27 20 29 120 58 26 57 134 28 32 23 26 22 22 50 21 20 21 252 45 38 98995 77093 11285 7799
leaf_count=11776 4790 2209 2329 52 234 27 20 29 120 58 26 57 134 28 32 23 26 22 22 50 21 20 21 252 45 38 98995 77093 11285 7799
internal_value=0 0.000405563 0.000865949 0.00150988 0.0040459 0.00503395 0.0129981 0.0166288 0.00402745 0.00473425 0.0104749 0.00336395 0.0061515 0.0109096 0.0145742 0.0171504 0.0174764 0.0101709 0.0214042 0.0112236 0.0134828 0.0184124 0.00843577 0.000463937 0.0250758 0.00444891 -2.09398e-05 6.68215e-05 0.000460003 0.000790469
internal_weight=0 10685 5895 3566 1357 1123 126 99 997 877 169 708 361 227 175 111 143 50 93 70 85 43 42 347 67 95 206948 107953 30860 19575
internal_count=217633 10685 5895 3566 1357 1123 126 99 997 877 169 708 361 227 175 111 143 50 93 70 85 43 42 347 67 95 206948 107953 30860 19575
shrinkage=0.05


Tree=61
num_leaves=31
num_cat=0
split_feature=35 11 37 37 10 11 15 35 13 32 4 32 13 6 39 7 18 13 35 17 3 10 29 5 39 8 5 6 23 16
split_gain=0.66721 1.00618 1.35108 5.086 2.29518 3.24971 2.19847 2.52038 1.48267 2.52464 2.47264 2.30743 2.58219 2.09393 1.66821 1.38807 1.33285 1.42083 1.28324 1.18037 0.893212 0.881711 0.982231 0.870143 0.809285 0.796274 1.02224 0.749471 0.723145 0.642333
threshold=0.020672650000000004 0.00059245900000000015 0.70899650000000014 -0.60497499999999982 0.00033872700000000009 0.022777000000000002 -0.011677349999999998 0.34276850000000003 3.3134750000000005e-06 0.011562400000000002 -0.42458499999999993 0.14537000000000003 7.6833350000000012e-05 -1.6203399999999995e-07 6.0173949999999996 4.9401950000000002e-05 -6.488389999999999 -5.1699099999999993e-06 0.053913100000000005 -5.5138199999999991 -15.510599999999998 0.00010711200000000001 -0.00010541199999999999 1.6293600000000003e-05 0.35261000000000037 4.7241300000000005e-05 1.8127350000000005e-05 6.3193550000000007e-07 0.0058547700000000013 0.010140600000000001
decision_type=2 2 2 2 2 2 2 2 2 2 2 2 2 2 2 2 2 2 2 2 2 2 2 2 2 2 2 2 2 2
left_child=-1 -2 3 -3 5 8 -7 21 9 10 14 15 13 18 19 -10 17 -12 -13 -5 -18 -8 -23 -20 -21 26 27 28 -15 -11
right_child=1 2 -4 4 -6 6 7 -9 11 29 16 12 -14 25 -16 -17 20 -19 23 24 -22 22 -24 -25 -26 -27 -28 -29 -30 -31
leaf_value=-1.9892786855600996e-05 -0.00015297720673288021 -4.5606322678656815e-05 -0.00011399218081002804 0.025938137272550239 -0.00066115060867423775 -0.00029857441291419997 0.019535087035037577 0.028192050600874013 -0.0017822315799021452 -0.0013670657666953537 0.018164814246818425 0.011030306485789719 -0.00058716227882811209 0.017068417106944858 -5.8127884230565369e-05 0.012358055785132041 0.008233722127042712 0.00074235941045282586 0.030958945498886434 0.019782940861914539 -0.0013240596452801998 0.015696326731704176 0.0013913793660079441 0.016548956220503896 0.006961629853867635 -0.00072863497366399874 0.019687144201016055 0.0011603005777487852 0.0041951635957229883 0.0069758344227448107
leaf_weight=206948 4790 2209 2329 21 234 27 20 29 100 299 25 34 54 24 21 21 30 22 22 20 132 20 30 20 32 23 20 32 20 25
leaf_count=206948 4790 2209 2329 21 234 27 20 29 100 299 25 34 54 24 21 21 30 22 22 20 132 20 30 20 32 23 20 32 20 25
internal_value=0 0.000385285 0.000822652 0.00143439 0.0038436 0.00478226 0.0123482 0.0157974 0.00382608 0.00234488 0.00562574 0.00633609 0.00908859 0.011768 0.0123608 0.000671868 0.00259659 0.0100096 0.0182514 0.0159333 0.0004459 0.0106624 0.00711336 0.024097 0.0118929 0.00762739 0.00962935 0.00698256 0.0112169 -0.000723323
internal_weight=0 10685 5895 3566 1357 1123 126 99 997 627 303 370 249 195 94 121 209 47 76 73 162 70 50 42 52 119 96 76 44 324
internal_count=217633 10685 5895 3566 1357 1123 126 99 997 627 303 370 249 195 94 121 209 47 76 73 162 70 50 42 52 119 96 76 44 324
shrinkage=0.05


Tree=62
num_leaves=31
num_cat=0
split_feature=35 13 13 36 36 18 39 32 34 15 29 39 11 32 36 37 39 13 18 29 39 39 39 36 37 30 36 30 11 36
split_gain=0.602157 0.909593 1.29878 1.39339 4.33416 2.56848 1.56958 1.89118 1.9162 1.07042 1.03902 0.936934 0.6601 1.07348 1.44091 4.47895 2.07386 1.7578 0.9062 0.807772 0.627474 2.40841 2.21651 2.34706 4.80553 1.07826 0.970196 1.58724 1.60376 0.910646
threshold=0.020672650000000004 3.3134750000000005e-06 3.6618400000000008e-05 -0.71412249999999966 0.60008550000000016 -19.754149999999996 4.8349600000000006 -0.43959349999999991 -1.0090899999999998 -0.00036585349999999998 0.00023007250000000004 0.31279500000000043 0.0021460700000000004 -0.43959349999999991 -0.49100999999999978 -0.60497499999999982 1.9461850000000005 -1.1710799999999998e-05 6.2342700000000013 -0.00058211249999999993 1.1470050000000007 -0.19603999999999996 0.20156999999999983 0.14973499999999998 0.29985500000000015 0.068195050000000021 0.056773999999999998 0.028445000000000002 0.00038378800000000009 -0.19934349999999995
decision_type=2 2 2 2 2 2 2 2 2 2 2 2 2 2 2 2 2 2 2 2 2 2 2 2 2 2 2 2 2 2
left_child=20 12 3 -3 5 -5 7 -7 -9 -10 -11 -12 -2 14 -14 -16 17 18 -17 -18 21 -1 23 24 26 -24 -23 -28 -29 -27
right_child=1 2 -4 4 -6 6 -8 8 9 10 11 -13 13 -15 15 16 19 -19 -20 -21 -22 22 25 -25 -26 29 27 28 -30 -31
leaf_value=-8.2297001343644327e-05 -0.00017673416198443379 0.00028197559954441456 0.00024523740009598074 0.022496758909606986 8.9288446826359905e-05 -0.0013886776911985019 0.0010091735317765587 0.026074529496254401 0.017369358138018993 0.011437433173631367 -0.0067233901610597975 0.0076712805164368975 -0.00023409433022372414 7.6447187744764093e-05 0.00013638478086708128 0.024921403848566115 0.011305773580758027 0.0069410850276024304 0.011886355315800757 0.0004024165563851985 -0.0001098157622520701 0.0023227729714920503 -0.00012836250542927125 -0.00013310246978840586 -0.0001035238672354788 -0.00010142423606328076 -0.00064411339773373178 0.020611807446067151 0.0063392257708826186 0.0011846708179486364
leaf_weight=77875 5816 415 1501 29 335 34 81 20 33 59 20 26 310 1566 266 40 26 39 20 49 98995 4649 13315 3179 2966 2242 55 26 81 3565
leaf_count=77875 5816 415 1501 29 335 34 81 20 33 59 20 26 310 1566 266 40 26 39 20 49 98995 4649 13315 3179 2966 2242 55 26 81 3565
internal_value=0 0.000366021 0.00118936 0.00253644 0.00400521 0.00834903 0.00684616 0.00930864 0.0116106 0.00951437 0.00704566 0.00141273 0.000107537 0.000821407 0.00237688 0.00421644 0.0104538 0.0152049 0.0205764 0.00418225 -1.88981e-05 6.44751e-05 0.000444483 0.00101153 0.00147942 0.000119591 0.00245532 0.006259 0.00980733 0.000688128
internal_weight=0 10685 2553 1052 637 302 273 192 158 138 105 46 8132 2316 750 440 174 99 60 75 206948 107953 30078 10956 7777 19122 4811 162 107 5807
internal_count=217633 10685 2553 1052 637 302 273 192 158 138 105 46 8132 2316 750 440 174 99 60 75 206948 107953 30078 10956 7777 19122 4811 162 107 5807
shrinkage=0.05


Tree=63
num_leaves=31
num_cat=0
split_feature=27 13 36 36 13 32 6 31 7 16 18 27 39 39 36 37 30 39 4 36 4 15 34 4 37 15 35 4 16 35
split_gain=0.550595 0.928423 1.04639 3.00732 2.00436 2.21536 2.12804 1.93504 1.51152 1.35952 0.997204 0.926262 0.620774 2.06388 1.95678 8.16914 1.79721 2.64317 1.18315 1.57175 1.72805 1.53014 4.66418 1.48168 1.03967 1.03664 1.02088 0.921183 1.11303 1.11358
threshold=0.043133650000000003 2.3057600000000002e-06 -0.71412249999999966 0.60008550000000016 7.6833350000000012e-05 -0.43959349999999991 6.3193550000000007e-07 -1.5367699999999997 -8.1998199999999991e-07 0.0012391700000000002 -8.2769249999999985 0.087932350000000006 1.2296250000000011 -0.27803499999999998 -0.25142799999999998 -0.17681499999999981 0.069860150000000024 0.27381999999999979 2.7715550000000007 0.056773999999999998 -1.4133199999999999 -1.0730149999999997e-06 0.0026319150000000007 0.21050500000000003 0.027234499999999971 3.940980000000001e-05 0.0048254100000000013 -1.7643199999999999 2.2514500000000002e-07 0.0027520250000000004
decision_type=2 2 2 2 2 2 2 2 2 2 2 2 2 2 2 2 2 2 2 2 2 2 2 2 2 2 2 2 2 2
left_child=12 -2 -3 4 5 -4 8 -8 11 -10 -9 -7 13 -1 -15 -16 17 25 19 24 -21 26 23 -23 -18 -17 -22 -26 29 -29
right_child=1 2 3 -5 -6 6 7 10 9 -11 -12 -13 -14 14 15 16 18 -19 -20 20 21 22 -24 -25 27 -27 -28 28 -30 -31
leaf_value=-7.4109517011248678e-05 0.00011421919248892999 1.107363097163048e-05 5.4983432730879501e-06 0.00018172000370311652 0.00096909214362158778 0.0015669500967487695 -0.0044093085842060618 0.0045350529752405623 0.02857051687751664 0.012633580954127905 0.02013521886430681 0.015368444951731834 -0.00010300975092411007 -9.4338114082310998e-05 -7.9772194750491498e-05 0.0021618394333781112 0.0019027540548643192 -0.00060348490213127392 -0.0035135373723908115 -0.0066687041589909282 0.013512070670757177 4.5918668911326682e-05 -0.0101003505713639 0.012609752513129603 -0.0024843209599962196 -0.0024031397260387169 0.0028379300592600238 0.0028574163737648635 0.0058757458781640085 -0.0093442746777208929
leaf_weight=77349 4295 613 53 484 118 20 31 21 32 23 20 31 100712 12767 13072 4376 1214 1206 65 23 112 32 42 88 46 128 28 100 509 23
leaf_count=77349 4295 613 53 484 118 20 31 21 32 23 20 31 100712 12767 13072 4376 1214 1206 65 23 112 32 42 88 46 128 28 100 509 23
internal_value=0 0.000483156 0.00157899 0.00273282 0.00627073 0.00897893 0.0116508 0.00501739 0.0161565 0.021906 0.0121449 0.00995609 -1.30906e-05 6.83623e-05 0.000394101 0.000690146 0.00194945 0.00147545 0.0031355 0.00333044 0.00654261 0.00754876 0.0042402 0.0092594 0.00277867 0.00203211 0.0113772 0.00434705 0.00484427 0.000575799
internal_weight=0 5741 1446 833 349 231 178 72 106 55 41 51 211892 111180 33831 21064 7992 5710 2282 2217 325 302 162 120 1892 4504 140 678 632 123
internal_count=217633 5741 1446 833 349 231 178 72 106 55 41 51 211892 111180 33831 21064 7992 5710 2282 2217 325 302 162 120 1892 4504 140 678 632 123
shrinkage=0.05


Tree=64
num_leaves=31
num_cat=0
split_feature=35 11 37 37 10 11 15 35 4 4 21 17 4 21 4 40 40 1 30 10 29 3 3 40 20 16 33 26 4 21
split_gain=0.50786 0.805687 1.08232 4.06476 1.93773 2.82863 1.90878 2.18989 1.19421 2.23572 4.62649 1.71904 1.70133 4.29138 3.28964 2.08351 1.37373 1.55808 1.03077 0.757887 0.869671 0.749154 0.895274 0.819529 0.746632 0.627889 0.587322 0.518442 1.02214 0.533285
threshold=0.020672650000000004 0.00059245900000000015 0.70899650000000014 -0.60497499999999982 0.00033872700000000009 0.022777000000000002 -0.011677349999999998 0.34276850000000003 2.5139300000000007 0.73862450000000013 0.86341500000000015 -8.5876849999999987 -0.42458499999999993 -0.69490299999999994 -2.1602949999999992 -5.7888699999999993 0.55624500000000021 -2.1876999999999995 3.2423100000000002 0.00010711200000000001 -0.00010541199999999999 -10.386699999999999 -12.918299999999999 -1.7773799999999997 -16.647599999999994 0.0021145800000000005 1.8324750000000004e-05 0.70424300000000006 0.30910700000000008 0.97666950000000008
decision_type=2 2 2 2 2 2 2 2 2 2 2 2 2 2 2 2 2 2 2 2 2 2 2 2 2 2 2 2 2 2
left_child=-1 -2 3 -3 5 8 -7 19 9 12 -11 -12 13 14 -5 -16 18 -18 -17 -8 -21 22 -13 -23 25 -14 -20 28 -26 -30
right_child=1 2 -4 4 -6 6 7 -9 -10 10 11 21 24 -15 15 16 17 -19 26 20 -22 23 -24 -25 27 -27 -28 -29 29 -31
leaf_value=-1.7355457770264561e-05 -0.00014551753096980549 -4.805212677804262e-05 -0.0001108088350653674 -0.001644615659349186 -0.00071028874139550228 -0.00043405614991637851 0.018003583988174796 0.026117457115444644 -0.0012789134070408182 -0.0022380855693411614 0.02643710032033806 0.0096566623805657698 0.00076440434817126709 -0.0018864200508796243 0.0011454891498942743 0.010402531681868894 0.0013690420333296062 0.01938567938981578 0.015436505356972869 0.014563286611810328 0.0011029201730464895 1.1245572351894918e-05 0.024121159818023444 0.013979997423787914 -0.0021079894635947318 0.0090618401275653591 0.025404960018479163 -0.0055657681959928595 -0.00045124779092020617 0.0098957762480219556
leaf_weight=206948 4790 2209 2329 52 234 27 20 29 120 58 26 23 57 134 32 26 30 20 22 20 30 21 20 21 147 38 45 52 20 33
leaf_count=206948 4790 2209 2329 52 234 27 20 29 120 58 26 23 57 134 32 26 30 20 22 20 30 21 20 21 147 38 45 52 20 33
internal_value=0 0.000336142 0.000727516 0.00127504 0.00342883 0.0042913 0.0113501 0.014564 0.00339922 0.00403933 0.0092065 0.0151866 0.00280592 0.00520895 0.00939741 0.0126785 0.0152593 0.0085757 0.0188526 0.0097775 0.00648707 0.0117452 0.0163843 0.00699562 0.000305943 0.00408338 0.0221317 -0.00111809 3.8306e-05 0.00599124
internal_weight=0 10685 5895 3566 1357 1123 126 99 997 877 169 111 708 361 227 175 143 50 93 70 50 85 43 42 347 95 67 252 200 53
internal_count=217633 10685 5895 3566 1357 1123 126 99 997 877 169 111 708 361 227 175 143 50 93 70 50 85 43 42 347 95 67 252 200 53
shrinkage=0.05


Tree=65
num_leaves=31
num_cat=0
split_feature=37 36 37 39 39 30 39 4 34 4 21 4 39 3 39 12 18 13 32 32 27 8 23 4 13 21 39 30 27 11
split_gain=0.489237 3.09399 3.09429 2.03491 2.27957 1.92259 2.34487 1.2398 3.97859 2.79697 1.79367 2.76372 1.605 1.20984 1.18126 1.13772 1.14274 1.01644 1.19748 1.00502 0.938889 0.922614 0.912592 1.10641 0.91043 0.885033 0.842538 1.3184 1.12677 0.897348
threshold=-0.60497499999999982 -0.12496499999999998 -0.026150000000000003 2.7388300000000005 -1.9691099999999999 0.78599850000000016 2.1254700000000009 0.29311550000000003 0.039173400000000004 2.9223900000000005 0.62895050000000008 -0.20992299999999997 1.06199 -11.676349999999998 2.3174500000000009 1.5700050000000004e-06 6.2342700000000013 -5.1699099999999993e-06 -0.14294799999999999 0.0060177500000000014 0.064526950000000013 5.4898200000000009e-05 0.00070136550000000008 -2.2787549999999999 1.0552950000000002e-06 -1.0674849999999998 1.0196000000000003 0.52499700000000005 0.030440600000000005 0.00040814700000000003
decision_type=2 2 2 2 2 2 2 2 2 2 2 2 2 2 2 2 2 2 2 2 2 2 2 2 2 2 2 2 2 2
left_child=-1 -2 5 4 -4 -3 7 10 9 15 11 12 22 14 -6 -9 -17 19 -19 -15 -8 24 -7 -24 -22 -25 28 -28 -20 -29
right_child=1 2 3 -5 13 6 20 8 -10 -11 -12 -13 -14 17 -16 16 -18 18 26 -21 21 -23 23 25 -26 -27 27 29 -30 -31
leaf_value=-9.3457957816922316e-05 -7.3459602646420074e-05 -6.5492815845173661e-05 -0.00047771798299016573 -0.00033603991992603449 0.0028020513842067197 0.0019851365194367451 -0.00026230657498684608 0.010097347080548751 -0.0020555979886072843 0.00030661911040895796 -0.001503487620195869 -0.00096297210599443478 0.01549461093062407 -9.8321495370097938e-05 0.014462357706559653 0.013628354964182816 0.028534692861139778 -0.0074602803700448321 0.0019426223945445313 -0.0083228138548026732 0.002658190647173873 -0.0016994050418768676 -0.00070309120055753746 0.018549633173332102 0.010723079521323179 0.006601942091759655 -0.00088531133303124522 3.3956238379081087e-05 -0.0091487576876281076 0.011601801407768538
leaf_weight=85207 101433 17300 1300 1887 1708 92 1338 103 105 57 221 156 51 395 22 36 20 36 5180 41 107 67 21 31 52 31 545 30 23 38
leaf_count=85207 101433 17300 1300 1887 1708 92 1338 103 105 57 221 156 51 395 22 36 20 36 5180 41 107 67 21 31 52 31 545 30 23 38
internal_value=0 6.01338e-05 0.000497354 0.00116127 0.00146449 0.00012141 0.00142101 0.00341805 0.00592829 0.00980935 0.00208175 0.00415594 0.00768934 0.00177939 0.00295033 0.013216 0.018952 0.00145724 0.00163076 -0.000871726 0.000241177 0.00322198 0.00541467 0.00921607 0.00529576 0.0125758 0.00168703 -6.62439e-05 0.00189359 0.00649834
internal_weight=0 132426 30993 11205 9318 19788 2488 924 321 216 603 382 226 8018 1730 159 56 6288 5852 436 1564 226 175 83 159 62 5816 613 5203 68
internal_count=217633 132426 30993 11205 9318 19788 2488 924 321 216 603 382 226 8018 1730 159 56 6288 5852 436 1564 226 175 83 159 62 5816 613 5203 68
shrinkage=0.05


Tree=66
num_leaves=31
num_cat=0
split_feature=27 13 13 37 37 6 32 34 39 35 13 39 40 38 37 30 39 4 38 4 15 21 37 4 21 4 4 29 15 0
split_gain=0.444967 0.760057 0.878388 1.12217 2.02205 1.55071 2.68719 1.51139 1.21462 1.35006 0.843887 0.510355 1.71966 1.61443 6.70516 1.40106 2.40153 1.04425 1.17216 1.47949 1.22993 4.35355 1.08143 1.82421 3.00659 1.85176 2.43445 1.26347 1.02163 0.96325
threshold=0.043133650000000003 2.3057600000000002e-06 3.6618400000000008e-05 1.0338880000000001 -0.60497499999999982 6.3193550000000007e-07 0.14537000000000003 0.6802760000000001 2.6836000000000007 0.17438400000000001 5.2573900000000008e-06 1.2296250000000011 0.23534999999999953 -0.25142799999999998 -0.17681499999999981 0.069860150000000024 0.27381999999999979 2.7715550000000007 0.056773999999999998 -1.4133199999999999 -1.0730149999999997e-06 -0.14927199999999999 0.078754999999999922 0.21856850000000003 0.28971450000000004 -0.19656399999999996 -0.96247749999999999 1.5735400000000003e-06 2.1594550000000003e-07 2.3918500000000003
decision_type=2 2 2 2 2 2 2 2 2 2 2 2 2 2 2 2 2 2 2 2 2 2 2 2 2 2 2 2 2 2
left_child=11 -2 3 4 -3 6 -6 10 9 -8 -7 12 13 -1 -15 16 -16 18 22 -20 29 -22 -17 25 -25 26 -24 -28 -23 -21
right_child=1 2 -4 -5 5 7 8 -9 -10 -11 -12 -13 -14 14 15 17 -18 -19 19 20 21 28 23 24 -26 -27 27 -29 -30 -31
leaf_value=-8.4613065001287906e-05 0.00010053350977387594 0.00055584770340525824 0.00030913911827802013 4.1210092604160314e-06 0.00069598147469646804 0.00064498252526391298 0.0046147558813434885 -0.0044984495922108184 0.023049030557407868 0.020018729820381852 0.014092392745078543 -9.3298917380758612e-05 -6.5492570589432462e-05 -7.0907256011921546e-05 0.0019134048018370842 0.0020519926555643392 -0.00060484102000441116 -0.0034821820109047826 -0.0063306640195862759 0.0068941145562481645 -0.0097230841454421721 -0.0012156874989159407 -0.0019451173719461645 -0.0048826783476397396 0.017549909079857803 -0.002334263918161454 0.0045602959236535042 0.019408052076438542 0.011265134087131758 0.015494247584569236
leaf_weight=12424 4295 192 794 233 44 20 33 42 35 25 28 100712 78245 12706 4404 1547 1206 63 23 82 43 20 41 20 59 91 23 38 91 54
leaf_count=12424 4295 192 794 233 44 20 33 42 35 25 28 100712 78245 12706 4404 1547 1206 63 23 82 43 20 41 20 59 91 23 38 91 54
internal_value=0 0.000434345 0.00142585 0.00278578 0.00433262 0.00752708 0.0108766 0.00242835 0.0156932 0.0112544 0.00848931 -1.17682e-05 6.20862e-05 0.00036518 0.000637631 0.00179108 0.00137205 0.00286205 0.00304952 0.00587579 0.00684389 0.0037839 0.00256319 0.00547065 0.0118708 0.00285091 0.00747689 0.0138097 0.00901634 0.0103089
internal_weight=0 5741 1446 652 419 227 137 90 93 58 48 211892 111180 32935 20511 7805 5610 2195 2132 313 290 154 1819 272 79 193 102 61 111 136
internal_count=217633 5741 1446 652 419 227 137 90 93 58 48 211892 111180 32935 20511 7805 5610 2195 2132 313 290 154 1819 272 79 193 102 61 111 136
shrinkage=0.05


Tree=67
num_leaves=31
num_cat=0
split_feature=35 11 37 37 10 11 15 35 4 4 21 17 4 21 4 39 39 1 14 35 32 8 3 3 39 24 4 21 6 39
split_gain=0.411952 0.675655 0.906449 3.3814 1.65369 2.54397 1.70166 1.8402 1.03042 1.9234 3.96466 1.50155 1.4478 3.63916 2.81827 1.80748 1.17885 1.39834 0.91252 0.749842 0.749487 0.684484 0.664904 0.821745 0.721338 0.529179 0.822019 0.690468 0.424614 0.417909
threshold=0.020672650000000004 0.00059245900000000015 0.70899650000000014 -0.60497499999999982 0.00033872700000000009 0.022777000000000002 -0.008718469999999999 0.34276850000000003 2.5139300000000007 0.73862450000000013 0.86341500000000015 -8.5876849999999987 -0.42458499999999993 -0.69490299999999994 -2.1602949999999992 6.0173949999999996 -0.56159999999999977 -2.1876999999999995 -3.0819049999999996e-06 0.053913100000000005 0.43367700000000003 5.8844850000000006e-05 -10.386699999999999 -12.918299999999999 2.1697850000000001 53.953100000000013 0.30910700000000008 1.0406250000000001 -6.6513949999999992e-07 1.1470050000000007
decision_type=2 2 2 2 2 2 2 2 2 2 2 2 2 2 2 2 2 2 2 2 2 2 2 2 2 2 2 2 2 2
left_child=29 -2 3 -3 5 8 28 20 9 12 -11 -12 13 14 -5 16 17 -16 -18 -20 -8 25 23 -13 -24 26 -14 -28 -7 -1
right_child=1 2 -4 4 -6 6 7 -9 -10 10 11 22 21 -15 15 -17 18 -19 19 -21 -22 -23 24 -25 -26 -27 27 -29 -30 -31
leaf_value=5.2409750381156753e-05 -0.00013833892409788651 -4.454526328840097e-05 -0.00010604921388923692 -0.001618563768484959 -0.00069711037450384213 -0.0023932767026549717 0.006096219713202654 0.027149907516484911 -0.0012681121580923598 -0.0021297526154300836 0.024515274399891498 0.0087091992163787716 -0.00089874588751707107 -0.0017892565043887351 0.0010238303554554781 0.00089678483564057396 0.011793411448711485 0.018091981997713447 0.015027017450041098 0.027116109893239777 0.017476468634508229 0.0089713280272137909 0.01286225333765504 0.022566984780132773 -0.00024297848715269495 -0.0033059768792828414 -0.00026747907611058544 0.010248481293485778 0.0076729201845591889 -8.9828788687830045e-05
leaf_weight=107953 4790 2209 2329 52 234 22 39 22 120 58 26 23 159 134 30 32 41 20 23 29 23 21 21 20 21 103 27 37 20 98995
leaf_count=107953 4790 2209 2329 52 234 22 39 22 120 58 26 23 159 134 30 32 41 20 23 29 23 21 21 20 21 103 27 37 20 98995
internal_value=0 0.000302743 0.000661146 0.00116221 0.00312664 0.00392339 0.0106176 0.0147263 0.00307738 0.00367198 0.00846466 0.0140005 0.00252796 0.00474472 0.00860178 0.0116387 0.0140425 0.00785109 0.0173712 0.021769 0.0103179 0.000221768 0.0107842 0.0151547 0.00630964 -0.000341854 0.00102723 0.00581206 0.00240015 -1.5631e-05
internal_weight=0 10685 5895 3566 1357 1123 126 84 997 877 169 111 708 361 227 175 143 50 93 52 62 347 85 43 42 326 223 64 42 206948
internal_count=217633 10685 5895 3566 1357 1123 126 84 997 877 169 111 708 361 227 175 143 50 93 52 62 347 85 43 42 326 223 64 42 206948
shrinkage=0.05


Tree=68
num_leaves=31
num_cat=0
split_feature=36 37 40 20 40 40 17 35 30 30 40 18 20 3 11 17 18 18 3 3 17 32 13 11 17 14 40 35 16 18
split_gain=0.395763 3.51931 2.46959 3.46859 2.36048 1.74014 2.3154 1.94768 1.61371 1.54463 1.96525 1.75916 1.7484 1.49492 1.16256 1.04041 1.212 1.75969 1.5953 1.24988 1.26297 1.09751 1.00992 0.967363 0.947848 1.08488 0.906488 1.79675 1.94066 1.4976
threshold=0.327845 0.12358499999999996 -2.1380549999999996 -13.237099999999998 0.19419999999999996 -0.35442999999999975 -12.926599999999999 0.029330700000000005 0.21701850000000003 0.47864000000000007 -1.0681750000000003 6.507505000000001 -16.647599999999994 -16.413199999999996 0.00020887000000000002 9.3032900000000023 -9.853489999999999 8.1649450000000012 -7.5517599999999989 -8.7018349999999973 -8.4049549999999993 0.27368000000000009 2.1581450000000003e-05 0.0022103100000000005 16.002400000000005 1.6342400000000002e-06 2.2262100000000005 4.1855750000000003e-05 0.00012624750000000005 -10.181949999999999
decision_type=2 2 2 2 2 2 2 2 2 2 2 2 2 2 2 2 2 2 2 2 2 2 2 2 2 2 2 2 2 2
left_child=1 2 13 9 5 6 7 -5 -8 -4 12 23 -11 -1 -6 16 18 19 -10 20 -18 -17 -7 -12 -15 -26 27 -16 29 -29
right_child=-2 -3 3 4 14 22 8 -9 15 10 11 -13 -14 24 26 21 17 -19 -20 -21 -22 -23 -24 -25 25 -27 -28 28 -30 -31
leaf_value=0.010736873959221188 -7.7409864004112467e-05 -6.6182628282397338e-05 0.0021834879151397834 0.013331766317645877 -0.0025054146712119884 0.0019451910686861563 -0.00053711486252529239 -0.0043994394219702198 0.013110299080954461 0.0047639412349280048 -0.0038595361200471721 -0.010226342031022623 0.017751510400663723 -0.00033032996209718868 -0.00025419128513572836 0.0098784106466742357 0.011004750642925502 0.0064940853911826801 -0.00036780180858581198 -0.0066327994015159932 -0.0011576058482691447 -0.0023303992861959462 -0.0024375915771815927 0.0055586330421902802 0.00093979185220558902 0.015168460723500522 -0.00034950729148783624 -0.0064257951927612772 0.000616441276303431 0.0057251210301015668
leaf_weight=31 93885 101478 1226 59 436 4984 2250 21 46 49 30 21 55 6154 1413 79 25 82 42 91 146 24 135 299 37 21 3476 27 594 417
leaf_count=31 93885 101478 1226 59 436 4984 2250 21 46 49 30 21 55 6154 1413 79 25 82 42 91 146 24 135 299 37 21 3476 27 594 417
internal_value=0 5.87292e-05 0.000627917 0.000956536 0.00070483 0.00127738 0.000290683 0.00867732 4.97742e-05 0.00310608 0.00559749 0.00380426 0.0116324 -0.000215713 -1.35746e-05 0.002518 0.00144135 0.000101856 0.00667757 -0.00189877 0.000620516 0.00703364 0.00182961 0.00469983 -0.00027037 0.00609155 0.000169729 0.000906109 0.00248559 0.00498621
internal_weight=0 123748 22270 16027 14347 7984 2865 80 2785 1680 454 350 104 6243 6363 535 432 344 88 262 171 103 5119 329 6212 58 5927 2451 1038 444
internal_count=217633 123748 22270 16027 14347 7984 2865 80 2785 1680 454 350 104 6243 6363 535 432 344 88 262 171 103 5119 329 6212 58 5927 2451 1038 444
shrinkage=0.05


Tree=69
num_leaves=31
num_cat=0
split_feature=35 13 13 32 36 36 39 39 16 1 17 26 1 17 12 27 4 21 36 4 36 39 17 9 26 5 39 39 36 37
split_gain=0.369771 0.667818 1.07865 1.20378 1.46842 3.37953 1.76637 2.42279 1.38002 0.986703 0.956776 1.29038 0.844391 0.80085 0.54388 0.702075 0.428487 1.03183 1.88654 2.68299 3.55545 1.54036 0.815665 1.01388 0.783326 0.5984 0.341069 1.49648 1.40801 5.50153
threshold=0.013816900000000002 3.3134750000000005e-06 3.6618400000000008e-05 0.046686200000000004 -1.0422104999999997 0.60008550000000016 4.8349600000000006 3.1865250000000005 0.0041491750000000006 7.7500100000000005 -0.53881199999999996 0.34967900000000007 -2.3010149999999996 -6.0084349999999995 -2.7784749999999993e-06 0.030440600000000005 -0.42458499999999993 -0.82489099999999993 0.80350500000000014 -2.6817999999999995 -0.46506469999999994 6.5436949999999996 -5.585399999999999 -7.3149949999999989e-07 0.30041650000000003 1.5128750000000001e-05 1.1470050000000007 -0.27803499999999998 0.22528099999999995 0.14791590000000002
decision_type=2 2 2 2 2 2 2 2 2 2 2 2 2 2 2 2 2 2 2 2 2 2 2 2 2 2 2 2 2 2
left_child=26 16 3 -3 -5 6 7 8 9 10 11 13 -10 -6 -12 -16 17 18 19 -2 -21 22 -22 24 -24 -25 27 -1 29 -29
right_child=1 2 -4 4 5 -7 -8 -9 12 -11 14 -13 -14 -15 15 -17 -18 -19 -20 20 21 -23 23 25 -26 -27 -28 28 -30 -31
leaf_value=-7.5740231536232261e-05 -0.0011812261664060509 0.00012699102586721195 0.00012677140457275919 7.8797014816606195e-06 0.028612906840585529 0.00020590069244563996 0.0009276501363358246 0.024954543503699828 -0.0069716636251541788 0.00044615748227529585 0.01450424028391188 0.008117521243790787 0.0069389903214566104 0.014962081526755357 0.011754461834756182 -0.0001814729459251144 -8.4679335723987273e-05 -0.00048578396589491699 -9.3596259527629018e-05 -0.00028150559505391644 0.022294477305765597 0.002960166073717119 9.7378742066212001e-05 0.012405880698299204 0.013923760838363143 0.024205803161575681 -8.4081012907111019e-05 0.0016575213341395219 -9.6451530734062752e-05 -6.4343901215691961e-05
leaf_weight=75331 122 514 1887 241 21 234 65 25 20 21 22 30 24 22 22 28 8444 772 442 83 31 32 20 22 21 21 97662 7513 11814 12127
leaf_count=75331 122 514 1887 241 21 234 65 25 20 21 22 30 24 22 22 28 8444 772 442 83 31 32 20 22 21 21 97662 7513 11814 12127
internal_value=0 0.00025663 0.000888343 0.00200323 0.00324759 0.00470971 0.00822268 0.0102405 0.00848878 0.0105756 0.0120426 0.0160762 0.000615966 0.0216288 0.00795292 0.00507034 5.61988e-05 0.000815825 0.00208137 0.00481244 0.00799168 0.0126629 0.0153628 0.0128047 0.00717918 0.0181686 -1.65516e-05 4.52085e-05 0.000334876 0.000594331
internal_weight=0 13186 3176 1289 775 534 300 235 210 166 145 73 44 43 72 50 10010 1566 794 352 230 147 115 84 41 43 204447 106785 31454 19640
internal_count=217633 13186 3176 1289 775 534 300 235 210 166 145 73 44 43 72 50 10010 1566 794 352 230 147 115 84 41 43 204447 106785 31454 19640
shrinkage=0.05


Tree=70
num_leaves=31
num_cat=0
split_feature=27 13 13 37 36 6 32 21 39 35 13 39 39 37 36 30 40 17 16 27 36 10 40 36 6 17 11 17 15 4
split_gain=0.34357 0.600598 0.692985 0.876968 1.55398 1.29119 2.17773 1.24558 1.05485 1.13518 0.624764 0.344641 1.0941 1.24436 5.71099 2.20628 2.00028 1.8654 1.75296 2.06212 1.44127 1.48677 1.47683 1.3652 1.37589 1.1954 1.12467 1.09486 1.06513 1.10095
threshold=0.043133650000000003 2.3057600000000002e-06 3.6618400000000008e-05 1.0338880000000001 0.60008550000000016 6.3193550000000007e-07 0.14537000000000003 -0.96093699999999993 2.6836000000000007 0.17438400000000001 5.2573900000000008e-06 1.510785 -0.5126099999999999 -0.2272394999999999 -0.22452634999999985 0.21701850000000003 -0.47859499999999983 -12.464199999999998 2.562600000000001e-07 0.0080523800000000013 0.10022550000000004 0.00014004150000000002 -0.93924999999999936 -0.079468000000000025 1.1712600000000001e-06 -6.0084349999999995 0.0059042550000000015 7.3475050000000008 5.4626650000000007e-05 -0.58642949999999983
decision_type=2 2 2 2 2 2 2 2 2 2 2 2 2 2 2 2 2 2 2 2 2 2 2 2 2 2 2 2 2 2
left_child=11 -2 3 4 5 6 -3 -7 9 -8 -9 12 -1 -14 -15 16 17 -16 19 -17 22 -22 25 24 26 -20 -24 -27 29 -18
right_child=1 2 -4 -5 -6 7 8 10 -10 -11 -12 -13 13 14 15 18 28 -19 20 -21 21 -23 23 -25 -26 27 -28 -29 -30 -31
leaf_value=-7.1453069888089329e-05 8.4925625320334485e-05 0.00053034608909828507 0.00027116123226467436 1.1907284354886976e-05 0.0005274872676030403 -0.0045901460525055882 0.0038063198772513053 0.00040216831723228097 0.020886245670595341 0.017931378800421956 0.011810895971332988 -8.1184657347598311e-05 -8.6054626503985585e-05 -7.5653999787570131e-05 0.01303682623198256 0.0018490456876757205 -0.0016621923608022564 -0.0007378279683712941 0.017160061846620271 -0.010996247791834841 0.011039772218916843 -0.0021388953229269157 0.0141696644660372 0.001572558908686063 0.00034164715941776246 0.0028712549920531642 0.0021832600851277159 0.012836283753411129 -0.0013494365743123259 0.0018057893028810572
leaf_weight=73112 4295 44 794 233 192 40 33 20 35 25 30 94837 17294 17387 25 122 238 1457 28 42 121 26 65 666 51 94 28 39 306 5954
leaf_count=73112 4295 44 794 233 192 40 33 20 35 25 30 94837 17294 17387 25 122 238 1457 28 42 121 26 65 666 51 94 28 39 306 5954
internal_value=0 0.000381662 0.00126305 0.00247096 0.0038384 0.00663882 0.00969523 0.00198627 0.0140313 0.00989471 0.0072474 -1.03407e-05 4.70564e-05 0.000244232 0.000458572 0.00146144 0.00115214 -0.000505462 0.00338677 -0.0014406 0.0040949 0.00870885 0.0033964 0.00252705 0.00694155 0.00777015 0.0105609 0.00579333 0.00153018 0.00167249
internal_weight=0 5741 1446 652 419 227 137 90 93 58 50 211892 117055 43943 26649 9262 7980 1482 1282 164 1118 147 971 810 144 161 93 133 6498 6192
internal_count=217633 5741 1446 652 419 227 137 90 93 58 50 211892 117055 43943 26649 9262 7980 1482 1282 164 1118 147 971 810 144 161 93 133 6498 6192
shrinkage=0.05


Tree=71
num_leaves=31
num_cat=0
split_feature=35 11 37 36 10 11 4 3 39 26 23 4 33 4 4 34 34 15 15 4 18 36 14 17 3 5 18 12 34 6
split_gain=0.310953 0.604161 0.807183 2.99235 1.84147 1.99047 2.25334 1.72236 1.8905 1.28755 1.10948 0.940328 0.980452 0.899638 2.5015 1.86003 0.962686 1.58176 1.77903 1.08355 1.37372 1.03383 0.908837 0.826403 0.750194 0.71278 0.635276 0.590614 0.583501 0.548794
threshold=0.013816900000000002 0.0009049345000000001 0.70899650000000014 0.49120000000000014 0.00033872700000000009 0.0078496150000000025 -2.6817999999999995 -10.386699999999999 -6.0363149999999992 -1.2159399999999998 0.0020748500000000005 -1.2205099999999998 -1.6329399999999996e-05 -1.5265699999999998 -0.81164199999999986 0.075559000000000015 0.11219700000000001 1.7622650000000003e-05 0.00061356150000000016 -0.36598199999999997 -1.9516699999999998 -0.3562499999999999 -3.0819049999999996e-06 -3.2419049999999996 -15.867949999999999 1.3685250000000001e-05 6.507505000000001 1.0214300000000003e-06 0.22632500000000003 -7.9179699999999979e-07
decision_type=2 2 2 2 2 2 2 2 2 2 2 2 2 2 2 2 2 2 2 2 2 2 2 2 2 2 2 2 2 2
left_child=-1 -2 3 4 5 13 -7 8 -8 -10 11 -11 -13 -3 15 -15 17 24 21 20 -18 -19 23 -17 -16 27 -9 -23 -14 -27
right_child=1 2 -4 -5 -6 6 7 26 9 10 -12 12 28 14 16 22 19 18 -20 -21 -22 25 -24 -25 -26 29 -28 -29 -30 -31
leaf_value=-1.5178221860548389e-05 -9.9942338431103481e-05 -0.0025151187881379024 -0.00011421193336196776 -5.0585704569337714e-06 -0.0008272162457226835 -0.00079000679020337192 0.00091514107283897873 -0.0010644141454206504 0.022620566751531984 0.02004350090707728 0.0044066289900608051 0.019842152085832575 0.010699228475103156 -0.0019035070623927329 0.0082869845880304636 0.017340457860846075 0.014349520674906672 -4.1795262156731704e-06 -0.0014057077121759328 -0.0021588032529306785 -0.001775804870495839 0.0023371442615126191 0.022161588495230089 0.0029668484814465049 -0.0022403168485917294 0.010501292836852373 0.0093672885189880623 0.013765900917351246 0.00076749121182642524 0.020327130708028565
leaf_weight=204447 6655 89 2565 2540 274 83 43 54 27 37 48 22 50 22 20 20 25 22 49 213 28 26 26 20 110 27 20 20 21 30
leaf_count=204447 6655 89 2565 2540 274 83 43 54 27 37 48 22 50 22 20 20 25 22 49 213 28 26 26 20 110 27 20 20 21 30
internal_value=0 0.000235336 0.00057698 0.00102401 0.00285699 0.00373326 0.00655589 0.0084494 0.0104469 0.0124463 0.010903 0.0133017 0.0106194 0.00220292 0.00284107 0.0106872 0.00162975 0.00355186 0.00666932 -0.000566953 0.00583048 0.00983473 0.0148841 0.0101537 -0.000620732 0.0119362 0.00175496 0.00730617 0.00776167 0.0156728
internal_weight=0 13186 6531 3966 1426 1152 405 322 248 205 178 130 93 747 658 88 570 304 174 266 53 125 66 40 130 103 74 46 71 57
internal_count=217633 13186 6531 3966 1426 1152 405 322 248 205 178 130 93 747 658 88 570 304 174 266 53 125 66 40 130 103 74 46 71 57
shrinkage=0.05


Tree=72
num_leaves=31
num_cat=0
split_feature=27 13 36 36 10 11 12 32 16 7 0 35 7 34 32 13 36 36 39 13 12 16 11 39 39 37 36 30 40 16
split_gain=0.290848 0.515108 0.598988 1.66463 1.25331 1.20322 1.24998 0.958584 1.34462 1.65114 0.824957 0.756104 0.731124 0.370576 0.314289 0.674229 0.585357 2.00319 1.36224 0.974686 0.786633 1.66508 0.415532 0.307069 0.984747 1.11824 5.12786 1.93837 1.80525 1.56231
threshold=0.043133650000000003 2.3057600000000002e-06 -0.71412249999999966 0.60008550000000016 0.00033872700000000009 0.025521750000000003 2.7414300000000003e-05 -0.43959349999999991 0.0010528750000000002 -8.1998199999999991e-07 -5.3044499999999992 0.34276850000000003 2.6395250000000001e-05 0.42223950000000005 0.069832100000000022 -1.2815949999999998e-06 -0.49100999999999978 0.80350500000000014 6.5436949999999996 -0.00011856649999999998 1.5700050000000004e-06 0.00015321200000000004 0.0083088400000000014 1.510785 -0.5126099999999999 -0.2272394999999999 -0.22452634999999985 0.21701850000000003 -0.47859499999999983 2.562600000000001e-07
decision_type=2 2 2 2 2 2 2 2 2 2 2 2 2 2 2 2 2 2 2 2 2 2 2 2 2 2 2 2 2 2
left_child=23 14 -3 4 5 6 7 -4 9 10 -9 13 -11 -10 15 16 -2 18 19 -18 21 -21 -20 24 -1 -26 -27 28 -28 -29
right_child=1 2 3 -5 -6 -7 -8 8 11 12 -12 -13 -14 -15 -16 -17 17 -19 22 20 -22 -23 -24 -25 25 26 27 29 -30 -31
leaf_value=-6.7767575221207136e-05 7.0460553536039475e-06 -1.8871574701367593e-05 -4.484072006085799e-05 0.00014238520152578209 -0.0014183824276508806 0.016181714972265549 -0.0024793101716527924 0.012564757125536827 0.012648722222828921 0.026153150360499113 -0.0011279475324871865 -0.0017041997934736882 0.013378283161849445 0.003244848368194653 -0.00027969037879494921 -0.00019970681094124527 0.0022854871279560031 -6.5380198914984562e-06 -0.0027991816220010687 0.017206763822053158 0.018410329105164339 -0.00054642991395667203 0.0055977731184192149 -7.6385174285967692e-05 -8.137534157897123e-05 -7.1302680870876785e-05 -0.00047943000348118743 -0.0013674518334815598 0.0014544343602232129 0.0038583762227583475
leaf_weight=73112 274 613 42 484 68 27 45 22 22 21 22 36 24 20 2537 1065 30 240 34 28 36 25 26 94837 17294 17387 1482 164 6498 1118
leaf_count=73112 274 613 42 484 68 27 45 22 22 21 22 36 24 20 2537 1065 30 240 34 28 36 25 26 94837 17294 17387 1482 164 6498 1118
internal_value=0 0.00035116 0.00116741 0.00204039 0.00467257 0.00614654 0.0050798 0.00670736 0.00840552 0.0126057 0.0057184 0.00361305 0.0193399 0.00817069 7.63526e-05 0.000590164 0.00180404 0.00297915 0.00698232 0.0100795 0.0127067 0.00883262 0.000839499 -9.51431e-06 4.46639e-05 0.000231726 0.000434915 0.00138521 0.00109529 0.00318986
internal_weight=0 5741 1446 833 349 281 254 209 167 89 44 78 45 42 4295 1758 693 419 179 119 89 53 60 211892 117055 43943 26649 9262 7980 1282
internal_count=217633 5741 1446 833 349 281 254 209 167 89 44 78 45 42 4295 1758 693 419 179 119 89 53 60 211892 117055 43943 26649 9262 7980 1282
shrinkage=0.05


Tree=73
num_leaves=31
num_cat=0
split_feature=27 13 13 32 36 36 8 4 39 20 35 3 27 13 32 8 1 17 12 31 13 11 36 39 3 37 37 39 20 39
split_gain=0.264524 0.440557 0.702391 0.89745 1.07037 2.54498 0.969101 1.54591 1.094 0.647348 0.898321 0.559094 0.488092 0.276107 0.75157 0.878367 0.85522 0.626905 0.422283 0.554244 0.381794 0.802618 0.840687 0.295391 0.608276 0.264989 2.98246 2.07737 2.71939 1.60971
threshold=0.021592100000000003 3.3134750000000005e-06 7.6833350000000012e-05 0.5797365000000001 -1.0422104999999997 0.60008550000000016 3.8349550000000013e-05 1.2369950000000001 -2.7863399999999992 -7.6924349999999988 0.8356380000000001 -7.8588299999999993 0.043133650000000003 -3.2239999999999995e-06 -0.60180299999999987 1.5224150000000001e-05 -5.6681399999999993 -0.53881199999999996 -7.03526e-06 -0.17054099999999997 -3.5869249999999995e-05 0.0069578350000000008 -0.49100999999999978 2.84389 -10.442949999999998 -0.2029299999999998 0.057875000000000128 2.1254700000000009 -12.100849999999999 -0.19603999999999996
decision_type=2 2 2 2 2 2 2 2 2 2 2 2 2 2 2 2 2 2 2 2 2 2 2 2 2 2 2 2 2 2
left_child=25 13 3 -3 -5 6 7 8 -6 10 12 -8 -10 14 15 16 -2 -18 19 -15 -17 23 -23 24 -22 -1 27 28 -27 -30
right_child=1 2 -4 4 5 -7 11 -9 9 -11 -12 -13 -14 18 -16 20 17 -19 -20 -21 21 22 -24 -25 -26 26 -28 -29 29 -31
leaf_value=-7.4330296504068044e-05 -0.00032679203710437796 0.00052009753855430366 -9.9443110911308285e-05 -0.00021086803240475955 -0.0020109287416562437 0.00030664896028837201 -0.0017860312404207373 0.023679048005142252 0.01125911925919354 0.0036404366682594026 0.0042625829466574252 0.0080320943473609456 0.020718694988948603 0.0091706070140519704 -2.3599697220977071e-05 0.00027900171876312884 0.018092300866555888 0.0059883813760951976 -0.00018586976698073204 -0.00046196417151804785 -0.00052376710563504061 -0.0001864981942344457 0.012537067465805072 -7.1783401914380073e-05 0.010917470710063798 0.0026879105370536203 -6.0335450492988464e-05 -0.00040504538751114696 -0.0001763353196332719 0.0011591810412433631
leaf_weight=93693 23 750 1065 161 20 177 29 20 25 24 21 29 30 28 1719 333 20 23 5132 32 26 20 37 123 21 2002 99054 3331 3589 6076
leaf_count=93693 23 750 1065 161 20 177 29 20 25 24 21 29 30 28 1719 333 20 23 5132 32 26 20 37 123 21 2002 99054 3331 3589 6076
internal_value=0 0.000252669 0.00085024 0.00163672 0.00319916 0.0046632 0.00855769 0.0108092 0.00866421 0.0107992 0.0130599 0.00312303 0.0164189 6.62696e-05 0.000516573 0.00199989 0.00745549 0.0116181 -0.000137113 0.00403324 0.00135691 0.00293815 0.00807266 0.00121659 0.00458828 -1.20262e-05 3.91562e-05 0.000696247 0.00101067 0.000663251
internal_weight=0 9888 2351 1286 536 375 198 140 120 100 76 58 55 7537 2345 626 66 43 5192 60 560 227 57 170 47 207745 114052 14998 11667 9665
internal_count=217633 9888 2351 1286 536 375 198 140 120 100 76 58 55 7537 2345 626 66 43 5192 60 560 227 57 170 47 207745 114052 14998 11667 9665
shrinkage=0.05


Tree=74
num_leaves=31
num_cat=0
split_feature=35 11 36 36 4 4 11 3 39 26 23 13 4 3 4 7 24 14 0 15 21 17 4 6 30 39 2 18 18 21
split_gain=0.241337 0.48599 0.648593 2.43808 1.57218 2.19637 2.45488 1.32902 1.48353 1.56565 1.07016 0.993372 1.19857 0.87099 1.15568 0.650792 0.800947 0.781143 0.748724 0.735009 1.85359 0.681026 0.565473 0.735596 0.979049 0.596771 0.551032 0.526309 0.508123 0.699238
threshold=0.013816900000000002 0.0009049345000000001 -0.71412249999999966 0.49120000000000014 -2.6817999999999995 3.3436750000000006 0.0078496150000000025 -10.386699999999999 -6.0363149999999992 -0.58729449999999994 0.0020748500000000005 8.7195400000000012e-06 -1.5265699999999998 -16.131449999999997 1.6690850000000002 -4.5221399999999994e-05 67.650400000000005 1.2176250000000002e-05 -5.1561799999999991 1.7622650000000003e-05 0.86341500000000015 3.5952650000000004 -1.1200049999999997 6.3193550000000007e-07 4.6183500000000004 0.16841000000000064 0.79287500000000011 6.507505000000001 -1.1455399999999998 -0.96093699999999993
decision_type=2 2 2 2 2 2 2 2 2 2 2 2 2 2 2 2 2 2 2 2 2 2 2 2 2 2 2 2 2 2
left_child=-1 -2 -3 4 -4 6 11 8 -8 -10 13 15 -13 -11 -15 18 17 19 -6 28 -21 -22 -14 24 25 -24 -12 -9 29 -17
right_child=1 2 3 -5 5 -7 7 27 9 10 26 12 22 14 -16 16 -18 -19 -20 20 21 -23 23 -25 -26 -27 -28 -29 -30 -31
leaf_value=-1.3371685951471752e-05 -9.3380430429893012e-05 -0.00010643743117526029 -0.0010179729769261609 -1.5437533576782985e-05 0.014227092873105513 -0.00090089446390048873 0.00098656482116963999 -0.0011774938090497421 0.020929343015194644 0.0043811153508080498 -0.0033895406257943256 -0.0049945920854224824 0.014915964923333379 0.017858857418446301 0.0052090693747159095 0.0083356867713914456 -0.0034492784102720764 -0.0052992964972597267 0.00070953325921436778 -0.0023507406959585599 0.0074744119825165562 0.01786443402816076 0.010303251576676433 -0.0013274686074431015 0.018046676612547823 -0.00032502012181794275 0.0082069310581400282 0.0085707403550622976 -0.00085643334569979754 -0.00038234675866197394
leaf_weight=204447 6655 2562 252 2540 21 243 39 45 37 29 20 20 25 65 25 46 81 33 20 41 46 24 28 23 21 25 21 20 133 46
leaf_count=204447 6655 2562 252 2540 21 243 39 45 37 29 20 20 25 65 25 46 81 33 20 41 46 24 28 23 21 25 21 20 133 46
internal_value=0 0.000207326 0.000513742 0.000914069 0.00256624 0.00333363 0.00443533 0.00815265 0.00989628 0.0116601 0.00951662 0.00266769 0.00635085 0.0119168 0.014345 0.0016025 0.00105304 0.00204136 0.00763316 0.00276231 0.00609179 0.0110367 0.00821076 0.00648262 0.00891008 0.00528992 0.00255012 0.00182196 0.00111977 0.00397667
internal_weight=0 13186 6531 3969 1429 1177 934 301 236 197 160 633 142 119 90 491 450 369 41 336 111 70 122 97 74 53 41 65 225 92
internal_count=217633 13186 6531 3969 1429 1177 934 301 236 197 160 633 142 119 90 491 450 369 41 336 111 70 122 97 74 53 41 65 225 92
shrinkage=0.05


Tree=75
num_leaves=31
num_cat=0
split_feature=37 37 36 27 4 4 34 4 34 4 18 3 17 40 36 30 40 25 30 40 12 8 4 4 34 4 3 18 40 12
split_gain=0.228885 1.59097 1.84623 0.967188 1.21529 2.56869 1.56704 0.963867 2.11724 1.53791 1.23313 0.987567 1.38158 0.953306 0.720304 0.650093 1.50906 1.06753 0.638041 0.637999 0.969637 0.626361 0.583824 0.505564 0.514102 0.571942 1.11547 0.466064 0.676797 0.455118
threshold=0.51323350000000023 -0.057539999999999918 -0.018010000000000078 0.015345200000000002 -0.75155249999999996 -1.4133199999999999 0.11219700000000001 0.36048500000000006 -0.062954099999999985 4.1822950000000008 -7.1421249999999992 -15.510599999999998 9.8666800000000006 -2.1380549999999996 -0.19934349999999995 0.78599850000000016 -1.1537099999999991 -0.13224499999999997 3.2423100000000002 -0.052540000000000468 -2.2530999999999997e-06 1.7656850000000004e-05 -0.68745799999999979 0.61713700000000016 -0.0059856599999999994 1.1247450000000001 -9.2899249999999984 5.2037050000000002 0.98037999999999992 9.2565100000000011e-07
decision_type=2 2 2 2 2 2 2 2 2 2 2 2 2 2 2 2 2 2 2 2 2 2 2 2 2 2 2 2 2 2
left_child=1 -1 3 -3 5 21 -7 19 9 10 -9 -12 18 -4 -8 22 -17 -18 -13 20 -6 -5 -15 -24 -25 26 -26 28 -19 -22
right_child=-2 2 13 4 7 6 14 8 -10 -11 11 12 -14 15 -16 16 17 27 -20 -21 29 -23 23 24 25 -27 -28 -29 -30 -31
leaf_value=-4.4956673303379028e-05 -6.1798175938875915e-05 1.7981850196914731e-05 -0.00036705771020735696 0.0096190543819102466 0.010463614445863009 0.0014250292717770208 0.024179809975127378 0.017330721198231914 -0.0022810964785248407 -0.0021007944596592924 0.016076003247871996 0.0062777787551112855 0.015441392585524315 -0.00086347744551247487 0.011654461937194521 0.011691875787147759 -0.0046539292180355881 0.0029838721534949457 -0.0030465114341918812 -0.0033830565153864702 -0.00057719050043274764 0.00014672528603007972 0.0013938940880592404 0.003670026413390353 -0.00031314688631027825 -0.00036558666069981191 -0.015365726238669594 -0.0019210218324918638 0.012896134772409612 0.0048908728937108424
leaf_weight=103270 88739 16680 1047 20 23 20 24 32 118 43 21 32 21 335 22 49 47 51 43 141 405 137 5845 62 32 264 20 22 26 42
leaf_count=103270 88739 16680 1047 20 23 20 24 32 118 43 21 32 21 335 22 49 47 51 43 141 405 137 5845 62 32 264 20 22 26 42
internal_value=0 4.25459e-05 0.000395199 0.00011444 0.00152084 0.00483272 0.0131093 0.000718936 0.00298979 0.00622918 0.00863314 0.00625431 0.00410581 0.00103677 0.0181894 0.00125442 0.00409939 0.00155123 0.000931852 -0.000433213 0.00045174 0.00135339 0.00116983 0.00127929 -0.00049288 -0.00130965 -0.0061026 0.00449712 0.00633087 -6.34127e-05
internal_weight=0 128894 25624 17824 1144 223 66 921 310 192 149 117 96 7800 46 6753 195 146 75 611 470 157 6558 6223 378 316 52 99 77 447
internal_count=217633 128894 25624 17824 1144 223 66 921 310 192 149 117 96 7800 46 6753 195 146 75 611 470 157 6558 6223 378 316 52 99 77 447
shrinkage=0.05


Tree=76
num_leaves=31
num_cat=0
split_feature=4 37 36 3 4 30 11 37 4 21 21 4 4 14 20 36 36 35 34 2 17 3 36 5 4 17 37 17 6 17
split_gain=0.21451 0.300527 2.16919 1.37512 1.7903 2.15401 4.03908 1.70655 1.70524 4.14046 1.50703 3.80387 2.40162 1.05727 1.07555 0.997657 1.52463 0.9607 0.957528 0.95537 0.976734 0.934312 1.0525 0.912368 0.84088 0.812767 0.77815 0.765757 0.739552 0.735587
threshold=-2.2787549999999999 -0.43858299999999995 -0.12496499999999998 -7.4497099999999987 2.2539600000000006 0.43987200000000004 0.0006072295000000001 -0.10141500000000002 0.57834950000000018 0.47318500000000002 -0.42581149999999995 -0.23603199999999996 -0.15847949999999997 -1.4503199999999997e-07 -11.077049999999998 0.24966499999999994 0.10022550000000004 2.0374000000000002e-05 -0.025457549999999999 -1.4120199999999998 -6.9007099999999992 -16.722199999999997 0.10022550000000004 1.1853100000000002e-05 -0.22659549999999998 -6.4328999999999992 -0.17681499999999981 -4.3220249999999991 -8.4483849999999976e-08 -12.926599999999999
decision_type=2 2 2 2 2 2 2 2 2 2 2 2 2 2 2 2 2 2 2 2 2 2 2 2 2 2 2 2 2 2
left_child=-1 -2 -3 4 5 7 13 -4 10 -10 11 15 21 -7 -15 16 -8 24 -19 27 -21 -12 -23 -18 -9 -14 -16 -11 -29 -5
right_child=1 2 3 29 -6 6 8 17 9 19 12 -13 25 14 26 -17 23 18 -20 20 -22 22 -24 -25 -26 -27 -28 28 -30 -31
leaf_value=-0.0001278306271796431 -5.566473393458215e-05 -4.2177424652223446e-05 -0.00015651203245911237 0.0033674996597594757 -0.0005421159159263863 0.0077947862715267678 0.0065645158669212838 -0.0012332604135709693 -0.002461444026999454 -0.0010709160898715771 0.0027476849200428225 -0.00087381689398459731 0.010438250752777094 -0.00037878087519916856 -0.00096873364400049805 0.00035968472009037874 0.0068648330453369355 -0.0066674296802375467 0.0020327156330124069 0.020421812972375032 0.010434104284070652 -0.0092296103711705657 -0.0013062001366511379 0.018121732110847479 0.00098413693253385833 0.0028171736060980577 -0.0085500935669353406 0.0027310816609921558 0.015849079706557943 -4.259755830006758e-05
leaf_weight=28518 78352 87379 3468 161 2104 29 275 486 88 29 54 208 40 305 55 44 27 32 2703 29 157 75 95 54 3555 279 88 21 22 8901
leaf_count=28518 78352 87379 3468 161 2104 29 275 486 88 29 54 208 40 305 55 44 27 32 2703 29 157 75 95 54 3555 279 88 21 22 8901
internal_value=0 1.92765e-05 7.22887e-05 0.000500014 0.000805009 0.00103699 0.00254935 0.000745561 0.00382604 0.00690392 0.0029008 0.00461059 0.000986347 -0.00145738 -0.00205629 0.00746248 0.00834035 0.00120725 0.00193092 0.0100983 0.0119913 -0.00298185 -0.00480182 0.0143694 0.000717457 0.00377279 -0.00563419 0.005208 0.00944262 1.79879e-05
internal_weight=0 189115 110763 23384 14322 12218 1974 10244 1497 346 1151 608 543 477 448 400 356 6776 2735 258 186 224 170 81 4041 319 143 72 43 9062
internal_count=217633 189115 110763 23384 14322 12218 1974 10244 1497 346 1151 608 543 477 448 400 356 6776 2735 258 186 224 170 81 4041 319 143 72 43 9062
shrinkage=0.05


Tree=77
num_leaves=31
num_cat=0
split_feature=27 14 21 4 15 36 37 22 4 4 5 17 4 21 4 36 36 36 5 39 39 17 39 39 40 36 37 36 30 11
split_gain=0.213211 0.257826 0.571368 0.842006 1.90144 2.4662 2.61204 0.816432 0.704893 1.28335 1.1086 0.303405 0.253394 0.680162 1.05444 0.925569 1.83765 1.29565 0.719791 0.761104 0.744638 0.219897 0.216005 0.727465 1.05548 0.965034 1.93045 0.848213 1.32088 1.67938
threshold=0.043133650000000003 4.8443000000000012e-06 0.65909550000000017 3.3436750000000006 3.940980000000001e-05 -0.68744999999999989 -0.43858299999999995 67.039100000000005 -0.58642949999999983 -2.3911599999999997 2.1459700000000004e-05 1.0555450000000002 -0.42458499999999993 -0.74181699999999984 -2.6817999999999995 0.77415 -0.57440449999999987 -0.17527649999999997 1.0887750000000003e-05 5.0027350000000004 1.06199 -12.464199999999998 1.510785 -0.19603999999999996 -0.20255000000000042 0.14973499999999998 0.29985500000000015 0.056773999999999998 0.010080700000000001 0.00038378800000000009
decision_type=2 2 2 2 2 2 2 2 2 2 2 2 2 2 2 2 2 2 2 2 2 2 2 2 2 2 2 2 2 2
left_child=22 12 8 4 -4 -6 11 -8 9 -3 -11 -7 13 14 -2 16 21 -18 -19 20 -20 -16 23 -1 -25 26 27 -26 -29 -30
right_child=1 2 3 -5 5 6 7 -9 -10 10 -12 -13 -14 -15 15 -17 17 18 19 -21 -22 -23 -24 24 25 -27 -28 28 29 -31
leaf_value=-4.916019123631057e-05 -0.00019785602598858533 -0.0006081877723221568 -1.3194453226438223e-05 -0.00034638252660138495 0.0003847716961136479 0.0083842999939363269 0.012595420291360755 0.024523827080702179 -0.00054154655877592349 0.018336205695099621 0.0022752981738276071 0.00060048991055678454 -0.00012403170760634727 -0.00064952622951139263 0.0041971647180616854 -0.00022850111305767009 0.021402767113232541 0.01459497616563637 0.0020522063481621445 -0.0025405791552696867 0.015696231266483666 -0.00049300018461956958 -6.4231600283543009e-05 4.79741464294262e-05 0.001422519726099283 -9.9497753148257545e-05 -6.4416215874621999e-05 -0.0060293274972101915 0.016041790699032513 0.0036385288107759644
leaf_weight=79034 320 66 195 233 81 21 26 32 725 22 21 31 3160 491 38 96 21 26 20 23 20 73 94837 26933 4669 3233 3022 23 37 104
leaf_count=79034 320 66 195 233 81 21 26 32 725 22 21 31 3160 491 38 96 21 26 20 23 20 73 94837 26933 4669 3233 3022 23 37 104
internal_value=0 0.00030066 0.000876278 0.00202717 0.0034599 0.00700574 0.0118812 0.0191766 2.20817e-05 0.00377099 0.0104925 0.00374395 0.000105611 0.000748935 0.00182687 0.00387076 0.00565143 0.0102315 0.00759556 0.00470691 0.00887422 0.00111264 -8.14608e-06 3.72939e-05 0.000217006 0.000627587 0.000926844 0.00154666 0.00508097 0.00689329
internal_weight=0 5741 1453 619 386 191 110 58 834 109 43 52 4288 1128 637 317 221 110 89 63 40 111 211892 117055 38021 11088 7855 4833 164 141
internal_count=217633 5741 1453 619 386 191 110 58 834 109 43 52 4288 1128 637 317 221 110 89 63 40 111 211892 117055 38021 11088 7855 4833 164 141
shrinkage=0.05


Tree=78
num_leaves=31
num_cat=0
split_feature=27 13 3 39 36 36 10 11 12 12 32 25 12 13 6 32 13 36 36 39 1 14 23 36 11 17 40 39 40 37
split_gain=0.192423 0.364469 0.484681 1.09973 0.28917 0.932583 0.76106 1.18196 0.781443 0.710411 0.853113 0.72748 0.677702 0.871931 0.654052 0.233379 0.483822 0.423675 1.48094 1.07605 0.826657 1.17045 0.997273 0.449506 0.335817 0.227177 0.195815 0.512036 0.767381 0.90592
threshold=0.043133650000000003 2.3057600000000002e-06 -5.392034999999999 3.8152399999999997 -0.71412249999999966 0.60008550000000016 0.00033872700000000009 0.025521750000000003 2.7414300000000003e-05 5.1880700000000008e-06 0.14537000000000003 -0.65584149999999986 -7.057509999999999e-07 3.6618400000000008e-05 -8.4483849999999976e-08 0.069832100000000022 -1.2815949999999998e-06 -0.49100999999999978 0.80350500000000014 6.5436949999999996 -4.6697349999999984 -3.0819049999999996e-06 0.0058547700000000013 0.12375499999999996 0.0083088400000000014 1.8064750000000001 -2.1380549999999996 -0.5126099999999999 -0.35442999999999975 -0.2029299999999998
decision_type=2 2 2 2 2 2 2 2 2 2 2 2 2 2 2 2 2 2 2 2 2 2 2 2 2 2 2 2 2 2
left_child=26 15 4 -4 -3 6 7 8 9 10 -6 -11 13 14 -12 16 17 -2 19 20 -19 -22 23 -23 -21 -10 -1 -28 -29 -30
right_child=1 2 3 -5 5 -7 -8 -9 25 11 12 -13 -14 -15 -16 -17 -18 18 -20 24 21 22 -24 -25 -26 -27 27 28 29 -31
leaf_value=-6.7699346931151047e-05 -3.2914153597212272e-06 -8.0969342286451844e-05 0.014935114378458819 0.0011388306289938136 -0.0029735782731710597 -6.8715769815278928e-05 -0.0012986423235620285 0.014545565505546552 -0.0058995158124636633 0.0030542404856532812 0.018896608725190164 0.015365147742808664 -0.00055021162807538683 -0.00044804117642343049 0.0071432992944429662 -0.00025234016642166696 -0.00017187511739453592 0.00063918890058994296 -4.1902714025733687e-05 -0.0027633887800381195 0.0020801168499962877 0.015872486929098765 0.023762270841980355 0.0060371202092098361 0.0047852848862441118 0.0012074268962764605 -5.6301741883531267e-05 4.24651934720605e-06 -7.8105956298129143e-05 0.0006267057712807634
leaf_weight=82894 274 584 20 52 41 460 68 27 23 21 20 28 31 20 29 2537 1065 25 240 34 27 21 20 26 26 22 73112 35485 6878 13523
leaf_count=82894 274 584 20 52 41 460 68 27 23 21 20 28 31 20 29 2537 1065 25 240 34 27 21 20 26 26 22 73112 35485 6878 13523
internal_value=0 0.000285627 0.000972227 0.00497113 0.000762677 0.00138634 0.00341459 0.00463787 0.00349954 0.00490272 0.00310038 0.010089 0.0055907 0.00834967 0.0119406 5.44692e-05 0.000497231 0.00152551 0.00252525 0.00596725 0.00871996 0.0108691 0.0144109 0.0104316 0.000507703 -0.00242501 -7.73878e-06 3.07918e-05 0.000144731 0.000389085
internal_weight=0 5741 1446 72 1374 790 330 262 235 190 141 49 100 69 49 4295 1758 693 419 179 119 94 67 47 60 45 211892 128998 55886 20401
internal_count=217633 5741 1446 72 1374 790 330 262 235 190 141 49 100 69 49 4295 1758 693 419 179 119 94 67 47 60 45 211892 128998 55886 20401
shrinkage=0.05


Tree=79
num_leaves=31
num_cat=0
split_feature=12 37 36 40 30 16 12 40 6 27 27 4 21 4 34 34 33 22 36 32 26 17 37 13 40 40 17 14 30 30
split_gain=0.187117 0.259498 1.67846 1.50537 2.82415 2.27 1.96281 1.73617 2.00118 1.62305 1.83506 1.61731 1.49097 1.68074 1.47919 1.4281 1.40117 1.17973 1.07759 1.14981 1.15751 1.07584 1.05654 1.08596 1.00811 1.16913 0.98365 1.01177 0.950729 0.907362
threshold=-2.6163199999999997e-05 0.46135450000000006 0.1751400000000001 -2.1380549999999996 0.13562800000000003 2.562600000000001e-07 2.2869100000000004e-05 4.0845250000000011 1.3540400000000001e-06 0.0024282350000000004 0.064526950000000013 -0.38361349999999994 -0.62980599999999998 0.18998850000000003 -0.0043154599999999993 -0.0029691849999999996 -1.8701649999999998e-06 5.3710200000000006 0.10022550000000004 -0.022925199999999996 -0.0040010199999999992 -14.223749999999997 0.057875000000000128 -3.8247049999999986e-06 0.65993499999999961 -0.64641000000000026 16.002400000000005 7.2680000000000008e-07 1.3837400000000002 0.36930950000000001
decision_type=2 2 2 2 2 2 2 2 2 2 2 2 2 2 2 2 2 2 2 2 2 2 2 2 2 2 2 2 2 2
left_child=-1 2 3 26 22 17 7 8 9 -7 18 14 -13 16 -10 -15 -14 29 21 20 -20 -11 23 -5 25 -25 -2 -28 -16 -6
right_child=1 -3 -4 4 5 6 -8 -9 11 10 -12 12 13 15 28 -17 -18 -19 19 -21 -22 -23 -24 24 -26 -27 27 -29 -30 -31
leaf_value=-0.00011719348990532982 -0.00020104576996577458 -5.1350498308887285e-05 -3.9055125216005321e-05 -0.0010518551919374845 -0.00070708760911559131 0.0022638347214235079 -0.00059879485744703193 -0.001034030325590792 -0.0059060338934484339 0.015262242773762688 -0.0043103358123768518 -0.0059875206052351533 -0.0075420058096025257 0.0070317874706966686 0.0063095306454453663 -0.0072579926159232859 0.00061565471570177658 -0.0035142500245245994 0.012173163183033468 0.013953580752652335 -0.0046342195410813605 0.0049506346369274506 -0.00020050382786145223 -0.00076462305925789978 -0.00037411221100124313 0.0013896319895356647 -0.00088254588996418404 0.012492046137190155 0.01843951762188226 0.0051281654086625696
leaf_weight=29451 7753 78121 84693 802 223 679 465 253 21 26 47 90 66 139 84 20 260 258 20 76 21 933 5355 710 1319 5576 26 31 20 95
leaf_count=29451 7753 78121 84693 802 223 679 465 253 21 26 47 90 66 139 84 20 260 258 20 76 21 933 5355 710 1319 5576 26 31 20 95
internal_value=0 1.83411e-05 6.7808e-05 0.000424579 0.000681462 0.00188887 0.002406 0.00291316 0.0033123 0.00419364 0.00536046 0.00104349 -7.7079e-05 0.0010197 0.00619811 0.00523433 -0.0010359 -0.00100205 0.00578288 0.010313 0.0035645 0.0052302 0.000348421 0.000698069 0.00088261 0.00114631 -0.000152932 0.00639136 0.00864222 0.00103615
internal_weight=0 188182 110061 25368 17558 3796 3220 2755 2502 1802 1123 700 575 485 125 159 326 576 1076 117 41 959 13762 8407 7605 6286 7810 57 104 318
internal_count=217633 188182 110061 25368 17558 3796 3220 2755 2502 1802 1123 700 575 485 125 159 326 576 1076 117 41 959 13762 8407 7605 6286 7810 57 104 318
shrinkage=0.05


Tree=80
num_leaves=31
num_cat=0
split_feature=27 13 32 16 36 36 29 37 17 39 0 32 0 32 3 36 36 20 4 36 4 39 13 30 3 27 3 9 23 12
split_gain=0.176188 0.301566 0.534059 0.710521 0.927006 1.8097 0.771699 1.14101 1.4307 0.879324 0.563875 0.81369 0.613588 0.303075 0.58892 0.515626 1.70639 0.352496 0.324063 0.574614 0.819338 0.892042 0.9033 0.776545 0.545329 0.232736 0.198654 0.189209 0.170299 0.378238
threshold=0.021592100000000003 8.9452450000000012e-07 0.069832100000000022 0.0010528750000000002 -1.0422104999999997 0.60008550000000016 0.0031288150000000005 0.37828249999999997 14.554100000000002 4.5961850000000011 7.7322150000000009 0.43367700000000003 -2.0595049999999993 0.069832100000000022 -15.510599999999998 -0.49100999999999978 0.24966499999999994 -16.772999999999996 -0.22659549999999998 0.80350500000000014 -2.6817999999999995 3.8152399999999997 -1.0891499999999998e-06 6.2013600000000011 -9.7440149999999992 0.030440600000000005 -17.729749999999996 -2.6900849999999998e-05 -0.028182349999999998 7.2144500000000009e-06
decision_type=2 2 2 2 2 2 2 2 2 2 2 2 2 2 2 2 2 2 2 2 2 2 2 2 2 2 2 2 2 2
left_child=-1 13 28 4 -4 6 7 8 9 10 11 -6 -13 14 15 -2 -17 -18 19 20 -16 22 23 25 -23 -22 -5 -7 29 -3
right_child=1 2 3 26 5 27 -8 -9 -10 -11 -12 12 -14 -15 18 16 17 -19 -20 -21 21 24 -24 -25 -26 -27 -28 -29 -30 -31
leaf_value=-9.8148645939473543e-06 -0.00028105036493821878 -0.00052093583815601761 2.1952082583761264e-05 0.0042277870440645326 0.017823255102595557 0.0036425786052285206 0.015499889127253978 -0.0001102302965122245 0.019125481617326537 -0.0012295951486907364 0.00039890605024993418 0.0025313159664841121 0.011766375888671195 -0.00026843958846367729 -0.0010337355469649387 0.014144742636320493 0.0056352475692619921 -0.00080887631925251639 -5.4242365684909932e-05 -0.00018432176828414937 0.0038827480606572783 0.0077008636570099044 -0.00087821488555164253 0.018691382332421517 -0.001196026466665198 0.010995748310866159 0.00015798946067085236 -0.00022233398312987687 -0.0002789533164868514 0.008054972526442725
leaf_weight=207745 77 36 274 31 23 38 22 62 24 33 20 37 35 3868 84 36 32 63 2288 305 23 24 20 23 61 23 915 190 1201 20
leaf_count=207745 77 36 274 31 23 38 22 62 24 33 20 37 35 3868 84 36 32 63 2288 305 23 24 20 23 61 23 915 190 1201 20
internal_value=0 0.000206208 0.000628547 0.00120528 0.00234589 0.0036615 0.00654685 0.00570511 0.00780134 0.00596499 0.00802952 0.00963597 0.00702058 2.56766e-05 0.000397576 0.00296605 0.00487465 0.00136178 0.000210189 0.00128482 0.0030216 0.00497934 0.00847801 0.01119 0.00131604 0.00743925 0.000291355 0.000421818 -0.000153283 0.00254189
internal_weight=0 9888 2961 1704 758 484 256 234 172 148 115 95 72 6927 3059 208 131 95 2851 563 258 174 89 69 85 46 946 228 1257 56
internal_count=217633 9888 2961 1704 758 484 256 234 172 148 115 95 72 6927 3059 208 131 95 2851 563 258 174 89 69 85 46 946 228 1257 56
shrinkage=0.05


Tree=81
num_leaves=31
num_cat=0
split_feature=4 30 4 21 37 37 37 37 18 1 39 4 17 3 4 34 4 37 37 11 17 17 17 14 3 30 39 18 16 9
split_gain=0.16865 0.236899 1.1939 2.70793 1.49147 3.68529 1.26454 0.809272 0.693619 0.48963 0.565609 0.570245 0.41398 0.607292 0.382555 1.40514 1.88674 1.78427 4.49833 1.40546 0.971257 1.1654 0.695441 0.976007 0.661189 0.944313 0.627757 0.608799 0.600475 0.433161
threshold=-2.2787549999999999 1.3837400000000002 -0.58642949999999983 -0.78263349999999987 0.54185499999999998 -0.43858299999999995 0.12358499999999996 0.040430000000000084 -3.8826699999999996 5.1366050000000003 0.55890500000000032 -1.1200049999999997 -9.0227099999999982 -8.0464099999999981 0.36048500000000006 -0.092780149999999992 2.3910900000000006 0.68231549999999996 -0.41158849999999991 0.0083088400000000014 9.3032900000000023 -7.5821849999999991 -5.585399999999999 1.301295e-05 -16.722199999999997 6.2013600000000011 0.64319500000000052 14.003250000000001 0.0010528750000000002 -0.00020968799999999995
decision_type=2 2 2 2 2 2 2 2 2 2 2 2 2 2 2 2 2 2 2 2 2 2 2 2 2 2 2 2 2 2
left_child=-1 -2 3 4 5 12 7 9 -8 10 11 -7 13 -3 29 16 17 18 27 20 21 -20 -21 26 25 -18 -24 -16 -23 -4
right_child=1 2 14 -5 -6 6 8 -9 -10 -11 -12 -13 -14 -15 15 -17 24 -19 19 22 -22 28 23 -25 -26 -27 -28 -29 -30 -31
leaf_value=-0.00011334547413137187 1.6699702403617183e-07 0.011767949861158353 0.0057006721483958247 -0.00034788439268802426 0.00045233380856142953 0.013099751048721374 0.023556300349857496 -0.00010529286414384843 0.012378751866552714 0.0033821141929365698 0.014694938135587358 0.0014343660314228724 0.00027353128413739361 -0.00040612496915855446 3.127005725493303e-05 -0.00032775209442656049 -0.00045541665577157229 1.7619713890462074e-05 0.01296241522132833 0.021849150639837205 0.014096051730283197 0.00072511633845931444 0.010237182793207468 0.004596834065887379 -0.00027949799843271262 0.013681577226296732 0.022476691930470142 0.0086503807625955571 0.0090983091886820532 -0.00012599250016872337
leaf_weight=28518 173266 21 32 799 198 20 23 25 35 24 55 22 184 20 298 2532 27 308 36 23 37 91 20 28 989 21 22 22 28 9909
leaf_count=28518 173266 21 32 799 198 20 23 25 35 24 55 22 184 20 298 2532 27 308 36 23 37 91 20 28 989 21 22 22 28 9909
internal_value=0 1.70922e-05 0.000202123 0.00158226 0.00404188 0.00569859 0.0105655 0.00808432 0.0168112 0.00977639 0.0113585 0.00698931 0.00128593 0.00582938 6.56696e-05 0.000449172 0.00145798 0.00311552 0.00469263 0.00926109 0.00681739 0.0050799 0.0143062 0.0118277 -1.35646e-06 0.00572952 0.0166484 0.000623834 0.00269528 -0.000107237
internal_weight=0 189115 15849 1426 627 429 204 146 58 121 97 42 225 41 14423 4482 1950 913 605 285 192 155 93 70 1037 48 42 320 119 9941
internal_count=217633 189115 15849 1426 627 429 204 146 58 121 97 42 225 41 14423 4482 1950 913 605 285 192 155 93 70 1037 48 42 320 119 9941
shrinkage=0.05


Tree=82
num_leaves=31
num_cat=0
split_feature=12 37 38 39 20 30 4 21 21 4 22 4 39 37 39 40 17 17 25 37 37 11 37 37 7 37 13 32 13 3
split_gain=0.160921 0.22124 1.45224 1.36341 2.86782 2.57258 1.17854 2.82532 1.47727 1.89083 1.40924 1.32994 1.32904 1.14459 1.12141 1.68422 1.84443 1.70516 0.997513 0.85037 0.843253 1.23126 0.918298 0.803916 0.798181 0.797391 0.789955 0.786316 0.841161 0.785491
threshold=-2.6163199999999997e-05 0.46135450000000006 0.1751400000000001 2.2194399999999996 -10.522449999999997 0.36930950000000001 0.32420950000000004 0.44009350000000008 0.49038950000000003 -0.24562099999999998 2.3108700000000004 -0.15847949999999997 1.5956900000000005 -0.10141500000000002 -0.15760999999999911 -0.16918499999999967 -12.926599999999999 13.501750000000001 0.093819000000000013 0.040430000000000084 0.078754999999999922 0.020162700000000002 -0.078199999999999964 0.09983149999999999 -4.5221399999999994e-05 0.14791590000000002 1.1210250000000002e-06 -0.00060518849999999984 9.1799900000000009e-08 -7.0771999999999986
decision_type=2 2 2 2 2 2 2 2 2 2 2 2 2 2 2 2 2 2 2 2 2 2 2 2 2 2 2 2 2 2
left_child=-1 2 3 4 5 23 8 19 9 13 -11 25 20 -7 -6 16 24 29 -13 -8 22 26 -9 -2 -16 -10 -22 -19 -29 -18
right_child=1 -3 -4 -5 14 6 7 12 11 10 -12 18 -14 -15 15 -17 17 27 -20 -21 21 -23 -24 -25 -26 -27 -28 28 -30 -31
leaf_value=-0.00010868071885617734 0.0014939610053169112 -4.7340781800373833e-05 -3.6717384983985359e-05 -0.00016189928124226308 -0.0002137387883976081 0.015034552184598787 0.0025992006019432434 0.01266412325469511 -0.010072487706961314 0.0042100021567603105 -0.0045191177012680406 0.0047711838769579412 0.019748419784009458 0.0054642830879791139 0.011954959334689194 0.0014976900322167636 0.00046048232517899225 0.01317409314134897 -0.0075145565299317239 -0.0083064336068646022 0.010341275096288884 0.0014713373791892083 0.0034849471978955489 -0.00040499749744191777 0.0031458221594625178 -0.00035388235701248053 0.022074662629389563 -0.0049895349842873186 0.0069710071241407059 -0.0010403438221061379
leaf_weight=29451 2467 78121 84693 7677 6215 35 39 35 46 100 86 95 25 291 40 3466 1518 29 20 33 32 21 123 720 72 39 26 21 49 2048
leaf_count=29451 2467 78121 84693 7677 6215 35 39 35 46 100 86 95 25 291 40 3466 1518 29 20 33 32 21 123 720 72 39 26 21 49 2048
internal_value=0 1.70088e-05 6.2684e-05 0.000394543 0.000636011 0.00177112 0.00392268 0.00637311 0.00277318 0.00419662 0.000173957 -0.000870823 0.00878383 0.00649177 0.000278982 0.000701771 -2.86118e-05 -0.000221764 0.00263453 -0.00239922 0.00762723 0.0118451 0.00551831 0.00106495 0.00629194 -0.00561336 0.0156011 0.00625099 0.00338284 -0.000401462
internal_weight=0 188182 110061 25368 17691 4233 1046 334 712 512 186 200 262 326 13458 7243 3777 3665 115 72 237 79 158 3187 112 85 58 99 70 3566
internal_count=217633 188182 110061 25368 17691 4233 1046 334 712 512 186 200 262 326 13458 7243 3777 3665 115 72 237 79 158 3187 112 85 58 99 70 3566
shrinkage=0.05


Tree=83
num_leaves=31
num_cat=0
split_feature=10 36 36 39 20 35 4 21 21 11 39 4 34 21 36 36 36 39 40 17 17 3 35 15 18 32 11 39 13 3
split_gain=0.147006 0.188274 1.29181 1.1777 2.40673 1.8868 1.60328 2.1783 1.37423 1.33935 1.32738 1.30149 1.61298 1.21937 1.05846 0.994149 1.32601 0.991261 1.5138 1.49029 1.53609 0.932561 2.07972 0.86326 0.801222 0.798893 0.784122 0.784027 0.780516 0.745839
threshold=0.00016420600000000005 -0.46506469999999994 0.1751400000000001 2.2194399999999996 -10.522449999999997 0.00026605000000000004 0.32420950000000004 0.38309800000000005 0.77580800000000016 0.0016273450000000003 1.5956900000000005 -0.26743249999999991 0.0076879600000000006 -0.48397549999999995 0.10022550000000004 0.077348000000000056 -0.079468000000000025 -0.15760999999999911 -0.16918499999999967 -12.926599999999999 13.501750000000001 -14.267049999999999 0.0038655250000000003 5.4626650000000007e-05 2.7053200000000004 -0.00060518849999999984 6.2945500000000009e-05 -1.0505799999999998 8.6656600000000024e-08 -7.5181649999999989
decision_type=2 2 2 2 2 2 2 2 2 2 2 2 2 2 2 2 2 2 2 2 2 2 2 2 2 2 2 2 2 2
left_child=1 -1 3 4 5 23 8 -8 11 -10 15 12 -7 -13 -14 16 -9 26 19 -19 29 22 24 -3 -5 -22 -6 -18 -27 -21
right_child=-2 2 -4 21 17 6 7 10 9 -11 -12 13 14 -15 -16 -17 27 18 -20 20 25 -23 -24 -25 -26 28 -28 -29 -30 -31
leaf_value=-4.2981210232914492e-05 -9.2964024554453698e-05 0.0013077208074971517 -3.4242673354644146e-05 -0.0038350322648368186 -0.0094240271810280257 -0.0027997867518871349 -0.0045023578276258622 0.011187629660668032 0.0054330276612071671 -0.0080119069817602261 0.018818779192864898 -0.0036591711181699796 0.0052253690843175916 0.0028569906313932734 0.014214389489309207 0.01451524810658561 0.010221779376508729 0.0055254808166476004 0.0014234553629631982 0.00065596274262571662 0.013087100012593771 -0.00021001557321058116 0.012738913793323771 -0.0013996017390080526 0.0075897172647750094 -0.0052573247684631497 -0.00017371298460174198 0.0013792474163358034 0.0063970751797908223 -0.00089009764943356244
leaf_weight=74426 35574 2666 82870 57 23 58 41 73 27 59 25 112 285 200 37 36 31 117 3446 1164 28 7509 45 331 21 20 5805 131 51 2365
leaf_count=74426 35574 2666 82870 57 23 58 41 73 27 59 25 112 285 200 37 36 31 117 3446 1164 28 7509 45 331 21 20 5805 131 51 2365
internal_value=0 1.8165e-05 6.04463e-05 0.000377326 0.000607477 0.001662 0.00341795 0.00629874 0.0021701 -0.00379082 0.00779484 0.0029109 0.00487572 0.000517856 0.00625827 0.00677787 0.00559257 0.000274411 0.000667183 -2.87092e-05 -0.000207827 -0.000139278 0.00417917 0.00100871 -0.000759138 0.00593478 -0.000210219 0.00307134 0.00311415 -0.000380147
internal_weight=0 182059 107633 24763 17131 4112 1115 337 778 86 296 692 380 312 322 271 235 13019 7191 3745 3628 7632 123 2997 78 99 5828 162 71 3529
internal_count=217633 182059 107633 24763 17131 4112 1115 337 778 86 296 692 380 312 322 271 235 13019 7191 3745 3628 7632 123 2997 78 99 5828 162 71 3529
shrinkage=0.05


Tree=84
num_leaves=31
num_cat=0
split_feature=27 13 13 18 1 25 4 21 39 5 6 21 39 37 14 29 16 26 39 4 28 3 0 36 19 15 4 4 21 36
split_gain=0.14215 0.279864 0.376445 0.426016 1.31599 0.34767 0.346956 1.42976 1.33851 0.477846 0.245148 0.514013 0.705536 0.163666 0.157592 0.175969 0.343069 0.482817 1.00825 0.24568 0.581272 0.228835 0.154493 0.327465 0.197032 0.145425 0.130406 0.190554 3.41224 2.29361
threshold=0.043133650000000003 3.3134750000000005e-06 3.6618400000000008e-05 -19.754149999999996 -8.2705599999999979 -0.65584149999999986 0.49902250000000004 0.86341500000000015 5.8194249999999998 1.6536050000000006e-05 8.812610000000001e-08 -1.0674849999999998 2.3174500000000009 0.22260499999999997 1.6342400000000002e-06 -0.00028142099999999996 0.00034026750000000006 -0.58729449999999994 4.0888900000000019 -0.81164199999999986 -2.1163149999999997 -17.304849999999998 5.4701800000000009 -0.3562499999999999 2.7036350000000007 -5.8589749999999996e-05 1.6690850000000002 0.21050500000000003 0.34963900000000009 -0.32870999999999989
decision_type=2 2 2 2 2 2 2 2 2 2 2 2 2 2 2 2 2 2 2 2 2 2 2 2 2 2 2 2 2 2
left_child=26 14 3 4 -3 -6 10 -8 9 -9 11 12 -5 -13 -2 16 17 -16 -19 20 -17 -18 24 -24 -23 -21 27 -1 -29 -30
right_child=1 2 -4 6 5 -7 7 8 -10 -11 -12 13 -14 -15 15 19 21 18 -20 25 -22 22 23 -25 -26 -27 -28 28 29 -31
leaf_value=-1.1387345194832106e-05 -0.00012992789983934044 0.015958416249070847 0.0001677311058035965 0.013047073385387194 -0.0011270425290540729 0.0058862221594123791 -0.0010949455465750909 0.018545423687266357 -0.00078918792165091466 0.0086184029303560099 -0.0010009992892101589 -0.004297972200742072 0.0012747611948621593 0.00072488692135349014 -0.00072099924141968649 0.010018742358806777 0.0057910292608929536 0.015289518816147887 0.00061307541001588109 -0.0041701349430418901 -0.00066668953037281298 -0.00038244497168501599 -0.00038352978471009873 0.0066322434997659763 0.0039310002925550839 -0.00011744804200310273 -9.8115033014738531e-05 -8.8963711870263361e-05 -9.9390676183702464e-05 0.0025362937083703938
leaf_weight=152371 3213 21 794 20 43 30 93 22 27 27 173 23 35 55 29 20 21 22 25 23 35 304 39 29 29 589 32917 23043 1300 2261
leaf_count=152371 3213 21 794 20 43 30 93 22 27 27 173 23 35 55 29 20 21 22 25 23 35 304 39 29 29 589 32917 23043 1300 2261
internal_value=0 0.000245496 0.000871158 0.00185274 0.0049282 0.00175512 0.00124412 0.00306247 0.00814984 0.0130754 0.000239871 0.00185394 0.0055556 -0.000756213 5.07091e-05 0.000548895 0.00126006 0.00435246 0.0074829 1.79171e-05 0.00321892 0.000703139 0.000436691 0.00260849 -6.79959e-06 -0.000269755 -6.65147e-06 1.01705e-05 0.00013364 0.00157409
internal_weight=0 5741 1363 569 94 73 475 169 76 49 306 133 55 78 4378 1165 498 76 47 667 55 422 401 68 333 612 211892 178975 26604 3561
internal_count=217633 5741 1363 569 94 73 475 169 76 49 306 133 55 78 4378 1165 498 76 47 667 55 422 401 68 333 612 211892 178975 26604 3561
shrinkage=0.05


Tree=85
num_leaves=31
num_cat=0
split_feature=4 4 21 37 36 40 40 36 18 5 36 33 35 4 36 7 27 40 21 40 33 30 21 17 33 36 15 4 30 6
split_gain=0.131899 0.213457 4.29396 2.27448 7.69317 2.65284 1.69063 2.34695 1.46695 1.06889 1.10817 0.827124 0.817545 0.739119 1.15135 1.28119 1.39706 1.12257 0.913955 0.898165 0.75077 0.724428 0.638409 0.611672 0.598071 0.589373 0.519343 0.500473 0.590235 0.497189
threshold=-2.2787549999999999 -0.20278049999999997 -0.33207549999999991 -0.60497499999999982 -0.3562499999999999 -3.4537049999999998 5.2253350000000003 -0.079468000000000025 14.003250000000001 1.2843600000000002e-05 -0.19934349999999995 0.00046534500000000004 0.00050174200000000012 -1.4133199999999999 0.077348000000000056 -2.2309399999999997e-05 0.0067147150000000004 1.4428800000000004 -1.0137249999999998 -0.77194499999999999 -7.6530749999999989e-07 34.706300000000006 -0.35379549999999998 3.3940200000000007 9.0597550000000005e-07 -5.6825599999999996 -0.00036585349999999998 -0.40498649999999997 2.6849000000000003 8.2329800000000007e-07
decision_type=2 2 2 2 2 2 2 2 2 2 2 2 2 2 2 2 2 2 2 2 2 2 2 2 2 2 2 2 2 2
left_child=-1 2 3 -2 11 21 7 9 12 10 -7 25 26 18 17 -16 20 19 -14 27 -17 -6 -3 -18 -11 -5 -9 28 -15 -26
right_child=1 22 -4 4 5 6 -8 8 -10 24 -12 -13 13 14 15 16 23 -19 -20 -21 -22 -23 -24 -25 29 -27 -28 -29 -30 -31
leaf_value=-0.00010023773907646922 1.3011870037127339e-05 -0.00027317233144829407 -0.00011173287338995679 0.0075428089501656361 -0.00018847214926374304 -0.00040401270399646213 -0.0022317268173130036 -0.0037283771240394208 0.017396302938461304 0.011202163706028452 0.011663476682196444 0.0079320115886409494 0.0092277403743494125 0.00068705385271459823 0.01690823166929328 0.018328911727838848 -0.0022805698928149306 0.014055123671348538 -0.0038320391350803343 0.0024429182130040351 0.0078437439668433452 0.0094833514661461643 2.9354467485437518e-05 0.007071069422333192 0.022852624133229256 -3.6103599301976626e-05 0.0036590348791937042 0.014632174100726845 0.012211065327282996 0.013081504610043183
leaf_weight=28518 1792 20015 28448 26 248 30 58 26 25 56 52 34 21 25 49 31 34 31 37 216 38 21 135473 36 30 1915 280 25 20 23
leaf_count=28518 1792 20015 28448 26 248 30 58 26 25 56 52 34 21 25 49 31 34 31 37 216 38 21 135473 36 30 1915 280 25 20 23
internal_value=0 1.51156e-05 0.000129342 0.00145356 0.00221572 0.00503398 0.00608537 0.00652997 0.0054551 0.011561 0.00724854 0.000200842 0.00511157 0.0062422 0.00685616 0.00995628 0.00750559 0.00501761 0.000896502 0.00403802 0.0125545 0.000566577 -9.58792e-06 0.00252884 0.0148053 6.54171e-05 0.00303135 0.00896003 0.00580884 0.0186123
internal_weight=0 189115 33627 5179 3387 1412 1143 1085 894 191 82 1975 869 563 505 188 139 317 58 286 69 269 155488 70 109 1941 306 70 45 53
internal_count=217633 189115 33627 5179 3387 1412 1143 1085 894 191 82 1975 869 563 505 188 139 317 58 286 69 269 155488 70 109 1941 306 70 45 53
shrinkage=0.05


Tree=86
num_leaves=31
num_cat=0
split_feature=12 17 0 13 6 32 13 12 21 4 40 39 37 36 22 1 39 39 27 36 36 12 28 33 31 4 0 4 4 29
split_gain=0.123563 0.175211 0.557976 0.598691 0.540302 0.377662 0.860496 0.204592 0.603021 0.177553 0.161162 0.807386 0.605907 1.55096 1.13173 0.714307 1.04838 0.967619 0.661737 1.31096 1.11612 1.15274 0.824482 0.631742 0.58125 0.560396 0.683852 0.544228 0.524567 0.449546
threshold=-2.6163199999999997e-05 -14.223749999999997 -8.8447699999999987 3.2990050000000008e-07 1.8381350000000001e-06 0.0025121700000000006 -6.8546449999999991e-07 -2.7784749999999993e-06 0.91519300000000003 -0.084020649999999988 -0.68809499999999957 -0.12174999999999957 0.29985500000000015 0.1751400000000001 29.284250000000004 11.597950000000003 0.27381999999999979 0.47541999999999979 0.0012351400000000002 0.10022550000000004 -0.079468000000000025 -1.1433699999999999e-07 0.22670350000000003 5.3317650000000004e-06 0.018029750000000001 -0.38361349999999994 -8.5831699999999973 0.43776750000000003 0.026035500000000007 -7.6752849999999981e-06
decision_type=2 2 2 2 2 2 2 2 2 2 2 2 2 2 2 2 2 2 2 2 2 2 2 2 2 2 2 2 2 2
left_child=-1 2 3 5 -5 6 -2 8 -4 -8 -3 -12 13 14 15 18 -17 -18 25 20 21 -20 -21 -22 28 26 -13 -27 -23 -28
right_child=1 10 7 4 -6 -7 9 -9 -10 -11 11 12 -14 -15 -16 16 17 -19 19 22 23 24 -24 -25 -26 27 29 -29 -30 -31
leaf_value=-9.5233669825768867e-05 0.010629561130025972 -3.2403975444275769e-05 0.00036272324930893788 0.011219681747906815 0.00080479795600695069 -0.00043071299655292572 0.0049946702814486349 -2.21963738184593e-05 0.0076333637546849784 -0.00040252960259294927 -1.9415959046302503e-05 -0.0092102492731064561 -6.4138362620151545e-05 -1.3859863327764423e-05 -0.0075945323474730392 0.00022399440415263655 -0.016495018558184495 -0.0011280025873566047 0.011952964902649492 0.0049552680238628306 0.001448565215961619 0.0038401602752855982 0.016854501981288194 -0.0063717911899503739 0.0088382230265639152 0.00126362870832839 0.004224248329197375 -0.0017018872363769332 -0.0054801123276075276 -0.0016794955113899606
leaf_weight=29451 31 102475 154 33 20 129 20 1756 35 64 65791 25 5681 5913 37 124 21 20 52 37 593 36 24 27 26 4680 41 160 26 151
leaf_count=29451 31 102475 154 33 20 129 20 1756 35 64 65791 25 5681 5913 37 124 21 20 52 37 593 36 24 27 26 4680 41 160 26 151
internal_value=0 1.49043e-05 0.000454274 0.00247283 0.00728954 0.00142658 0.00350998 0.000146041 0.00170914 0.000882518 9.60657e-06 6.11854e-05 0.000361222 0.000562712 0.00112345 0.00117683 -0.00206776 -0.00899891 0.0012679 0.00258456 0.00201852 0.00605079 0.00963693 0.001108 0.00256314 0.00105415 -0.00143164 0.0011656 -6.83411e-05 -0.0004188
internal_weight=0 188182 2242 297 53 244 115 1945 189 84 185940 83465 17674 11993 6080 6043 165 41 5878 821 760 140 61 620 88 5057 217 4840 62 192
internal_count=217633 188182 2242 297 53 244 115 1945 189 84 185940 83465 17674 11993 6080 6043 165 41 5878 821 760 140 61 620 88 5057 217 4840 62 192
shrinkage=0.05


Tree=87
num_leaves=31
num_cat=0
split_feature=30 3 37 36 29 15 21 21 10 15 19 0 15 21 14 36 36 5 39 18 1 8 25 21 15 20 36 18 36 17
split_gain=0.120759 0.419262 0.37066 1.16137 0.878474 0.616932 1.33022 1.21761 1.13748 1.1169 0.552565 0.247178 0.145063 0.591147 0.741911 0.859603 2.27344 1.03512 0.784906 0.552645 0.384593 0.321182 0.441217 0.129482 0.363418 0.441033 0.661913 0.279827 0.660871 0.170394
threshold=3.2423100000000002 -15.510599999999998 0.70899650000000014 0.40779500000000007 0.00091355850000000014 -7.2323849999999985e-06 0.54950250000000012 -0.59879749999999998 0.00010711200000000001 -0.00087365449999999981 0.33168800000000004 -4.3615599999999999 -4.1197899999999994e-05 -0.82489099999999993 -2.4916349999999997e-05 -0.51801999999999981 0.80350500000000014 3.1472150000000003e-05 6.1209300000000013 10.191550000000001 4.4568150000000015 1.9215700000000003e-05 -0.25901299999999999 1.0406250000000001 2.0038450000000001e-05 -8.9454249999999984 -0.60254799999999997 11.729050000000003 -0.32870999999999989 16.002400000000005
decision_type=2 2 2 2 2 2 2 2 2 2 2 2 2 2 2 2 2 2 2 2 2 2 2 2 2 2 2 2 2 2
left_child=-1 2 3 4 5 7 -7 9 10 -2 -8 -5 13 14 -3 -16 17 18 19 20 21 -17 -23 -14 -25 27 -27 29 -29 -26
right_child=1 12 -4 11 -6 6 8 -9 -10 -11 -12 -13 23 -15 15 16 -18 -19 -20 -21 -22 22 -24 24 25 26 -28 28 -30 -31
leaf_value=-8.1368047383257373e-06 0.017501392493722963 -0.00022863072547939462 -0.00011831120053554272 0.0046248200868181551 -0.0018219375273666198 0.00057987865253255287 0.014516748203895986 -0.0037233842951108647 0.02301038897712715 0.00079134030733257537 0.0027633952570613476 -0.00030308955251206907 -0.00018772172471041385 -0.00045118732043542475 -0.00016570469356565811 0.016707871064898513 8.6657644558974656e-05 -0.001138719034874898 0.0031156911796298686 0.018610027046154509 0.0036549405474215744 0.0054987031965509003 0.014528772361033285 -0.0001496728471979705 0.00019831018574652248 0.0007748704871725447 0.010097842329449838 0.00020596089654226001 0.0097337634915935015 0.0037891660061099433
leaf_weight=207719 20 453 306 28 38 29 20 34 21 20 20 279 4642 942 200 21 191 27 37 22 20 31 24 1707 589 45 33 52 28 35
leaf_count=207719 20 453 306 28 38 29 20 34 21 20 20 279 4642 942 200 21 191 27 37 22 20 31 24 1707 589 45 33 52 28 35
internal_value=0 0.000170483 0.00125692 0.00208369 0.00502804 0.00661523 0.00939597 0.00323324 0.0135872 0.00914637 0.00864007 0.000146361 7.31702e-05 0.000453198 0.00128354 0.00247902 0.00389711 0.00789599 0.00946978 0.0114622 0.00982411 0.0114476 0.0094391 -3.1709e-05 0.000259256 0.00115189 0.0047192 0.000756649 0.00354069 0.00039972
internal_weight=0 9914 815 509 202 164 90 74 61 40 40 307 9099 1968 1026 573 373 182 155 118 96 76 55 7131 2489 782 78 704 80 624
internal_count=217633 9914 815 509 202 164 90 74 61 40 40 307 9099 1968 1026 573 373 182 155 118 96 76 55 7131 2489 782 78 704 80 624
shrinkage=0.05


Tree=88
num_leaves=31
num_cat=0
split_feature=4 30 4 21 36 36 39 17 17 1 18 18 39 20 5 18 3 17 22 3 3 21 36 36 4 21 4 36 36 39
split_gain=0.113825 0.166068 0.705718 2.31905 1.68561 4.39315 1.61244 1.00568 1.11302 0.823034 0.792885 0.957814 1.31435 0.76474 0.534593 0.472082 0.462489 0.436249 0.342087 0.332841 0.332262 0.42938 0.430964 0.873657 0.261808 1.0022 1.16385 1.09005 3.08618 1.68113
threshold=2.9223900000000005 0.83312700000000006 0.36048500000000006 0.53020800000000012 -0.68744999999999989 0.40779500000000007 5.8194249999999998 -7.3314749999999984 6.7384950000000012 -1.2762649999999998 -7.8035849999999991 7.6671550000000011 -1.0505799999999998 -8.5818999999999992 1.7182950000000001e-05 14.999250000000002 -9.9050449999999977 -0.53881199999999996 13.887650000000002 -11.456749999999998 -18.627349999999996 0.42697150000000006 0.38220950000000015 -0.27744100000000016 -0.20278049999999997 -0.55552099999999982 -2.2787549999999999 -0.57440449999999987 0.80350500000000014 5.1853450000000008
decision_type=2 2 2 2 2 2 2 2 2 2 2 2 2 2 2 2 2 2 2 2 2 2 2 2 2 2 2 2 2 2
left_child=1 -1 20 -4 -5 6 7 14 10 -10 -9 12 17 -11 19 -7 -14 -12 -8 -6 21 22 23 -3 25 26 -22 -28 29 -29
right_child=-2 2 3 4 5 15 18 8 9 13 11 -13 16 -15 -16 -17 -18 -19 -20 -21 24 -23 -24 -25 -26 -27 27 28 -30 -31
leaf_value=-3.5593896062489548e-06 -9.957045353963625e-05 0.0012667952672018147 -0.00045004950808872783 -6.1139864864321556e-05 0.021951342197135092 4.4713667486977058e-05 -0.0011761179369327171 0.012684861518518479 0.0051943586072108403 0.023349915783513676 0.0051587932848964234 0.011342650908642473 0.0012841299498833588 0.01044399783325692 0.0084433985488681969 0.0072209571014051725 -0.007066377165901941 0.015233924346310752 0.0059795341828999963 0.013217729789418323 -0.00017929332885440843 -0.00067991004418244301 -0.00035639118612986452 0.01324885021493738 -0.00014091827684957974 -0.00030751726034654959 0.0001060707776072685 0.0066773278319574971 2.9894217446677796e-05 0.00057866741566265365
leaf_weight=170302 25358 32 1674 517 20 508 61 33 24 22 22 39 97 24 29 24 20 21 23 24 1449 69 30 29 11516 3812 673 449 581 151
leaf_count=170302 25358 32 1674 517 20 508 61 33 24 22 22 39 97 24 29 24 20 21 23 24 1449 69 30 29 11516 3812 673 449 581 151
internal_value=0 1.31318e-05 0.000142497 0.000831095 0.00225327 0.00346068 0.0070447 0.00844729 0.00717424 0.0127003 0.00550691 0.00431659 0.00260399 0.0166164 0.0137138 0.000368454 -0.000143307 0.0100792 0.000783168 0.0171876 2.58919e-05 0.00229468 0.00455014 0.00696318 6.40795e-06 0.000244863 0.000882367 0.00171211 0.00262732 0.0051425
internal_weight=0 192275 21973 3182 1508 991 459 375 302 70 232 199 160 46 73 532 117 43 84 44 18791 160 91 61 18631 7115 3303 1854 1181 600
internal_count=217633 192275 21973 3182 1508 991 459 375 302 70 232 199 160 46 73 532 117 43 84 44 18791 160 91 61 18631 7115 3303 1854 1181 600
shrinkage=0.05


Tree=89
num_leaves=31
num_cat=0
split_feature=4 4 21 37 37 40 40 18 36 37 4 27 26 12 39 36 36 39 4 19 39 8 39 11 30 21 30 36 16 36
split_gain=0.10665 0.1744 3.58314 1.91311 6.44661 2.31605 1.50692 1.49291 1.44885 1.28971 1.758 1.04687 0.815885 0.80619 0.760308 0.676316 1.1506 1.28508 0.998886 1.10672 0.883335 0.859562 0.713288 0.699814 0.691251 0.545389 0.542558 0.524478 0.405811 0.370136
threshold=-2.2787549999999999 -0.20278049999999997 -0.33207549999999991 -0.60497499999999982 0.46135450000000006 -3.4537049999999998 3.0726850000000008 14.999250000000002 -0.079468000000000025 0.24875600000000014 -0.81164199999999986 0.16934650000000004 0.70424300000000006 -9.0272649999999983e-06 1.4285350000000012 0.30085850000000008 0.077348000000000056 -0.99152500000000054 -1.4133199999999999 -1.6673999999999998 0.80790999999999979 2.8986250000000004e-05 0.47541999999999979 0.0083088400000000014 0.7542350000000001 -0.29593199999999992 0.39206000000000002 -5.6825599999999996 0.0025984850000000006 -0.10081500000000009
decision_type=2 2 2 2 2 2 2 2 2 2 2 2 2 2 2 2 2 2 2 2 2 2 2 2 2 2 2 2 2 2
left_child=-1 2 3 -2 5 11 7 8 9 14 -11 28 15 -8 29 16 17 24 -18 -20 -19 22 -21 -22 -10 -3 -23 -6 -5 -7
right_child=1 25 -4 4 27 6 13 -9 12 10 -12 -13 -14 -15 -16 -17 18 20 19 21 23 26 -24 -25 -26 -27 -28 -29 -30 -31
leaf_value=-9.0134730949442292e-05 5.334801887643285e-06 -0.00022647106674590856 -0.00010337827207948484 -0.00089117605142689186 0.0071341842081612695 0.016138991749343964 0.0087215663411770953 0.019634727491065859 0.015620018662336997 0.014384955883509033 -0.001687401050715024 0.010570340745228654 0.014890257366932931 -0.0011852453013947843 0.0044717416375836668 0.00011084910959874145 -0.0014574783101644635 0.002199508049603404 0.018266755974653996 0.008420030517277844 0.0098553769970061017 0.0063086443145394982 -0.0027766569443047049 -0.00030172565920193769 0.0051120259895406925 3.1536568544583297e-05 0.016251871088410124 -1.6674919028022337e-05 0.0060445315482945232 0.0096804313339112751
leaf_weight=28518 1792 24271 28448 254 26 78 25 20 34 27 46 24 20 115 24 74 21 410 33 33 74 23 25 22 29 131217 34 1862 23 31
leaf_count=28518 1792 24271 28448 254 26 78 25 20 34 27 46 24 20 115 24 74 21 410 33 33 74 23 25 22 29 131217 34 1862 23 31
internal_value=0 1.35921e-05 0.000116841 0.00132649 0.0020255 0.00447359 0.00545873 0.0061038 0.00584309 0.00959723 0.00425717 0.00055267 0.00491358 0.000583828 0.0125282 0.00466785 0.00512478 0.00404884 0.00874735 0.0101953 0.00321039 0.00787919 0.00359387 0.00752771 0.010783 -8.7373e-06 0.0122397 8.18009e-05 -0.000315287 0.0143022
internal_weight=0 189115 33627 5179 3387 1499 1198 1058 1038 206 73 301 832 140 133 812 738 569 169 148 506 115 58 96 63 155488 57 1888 277 109
internal_count=217633 189115 33627 5179 3387 1499 1198 1058 1038 206 73 301 832 140 133 812 738 569 169 148 506 115 58 96 63 155488 57 1888 277 109
shrinkage=0.05


Tree=90
num_leaves=31
num_cat=0
split_feature=4 27 15 4 21 36 36 39 9 4 21 4 16 36 5 20 39 31 39 13 26 35 14 36 36 36 40 39 39 40
split_gain=0.101653 0.144795 0.779018 0.42783 1.45165 1.07853 1.24175 1.05156 0.58527 0.215892 0.639184 1.14037 0.822474 0.833547 0.771171 0.535491 0.706204 0.343171 0.256799 0.443668 0.534053 0.22825 0.329317 0.226164 1.55045 0.527318 0.485264 0.139708 0.496228 0.612301
threshold=2.9223900000000005 0.043133650000000003 0.006463130000000001 0.73862450000000013 0.86341500000000015 -0.68744999999999989 1.2536785000000004 -0.086730000000000182 3.4880500000000006e-05 -0.58642949999999983 -0.96093699999999993 -2.6817999999999995 0.0024010250000000006 0.57364500000000007 1.0179600000000002e-05 -10.354649999999998 -0.88227999999999918 -4.3203749999999994 0.60048999999999852 5.2573900000000008e-06 -0.34874949999999993 0.025835650000000005 1.9012050000000005e-07 0.354709 -0.17527649999999997 0.14973499999999998 1.9491550000000004 1.2296250000000011 -0.15760999999999911 -0.20255000000000042
decision_type=2 2 2 2 2 2 2 2 2 2 2 2 2 2 2 2 2 2 2 2 2 2 2 2 2 2 2 2 2 2
left_child=1 27 3 9 -5 -6 7 -7 -9 10 11 -3 14 -14 -13 17 -17 -16 23 21 -21 22 -20 24 -11 26 -26 28 -1 -30
right_child=-2 2 -4 4 5 6 -8 8 -10 18 -12 12 13 -15 15 16 -18 -19 19 20 -22 -23 -24 -25 25 -27 -28 -29 29 -31
leaf_value=-2.6536160225010131e-05 -9.4096192379667157e-05 -0.00014012991500817067 0.0077101860188122373 -0.000647803218896337 0.00036633090500254187 0.020406327784682314 0.00067737797324202566 0.013351827826350927 0.0028264631276085444 -0.00035781053407971824 -0.00050430691208051381 0.011206281909020618 0.016487706100568177 0.0032984078314494468 0.0048863724348202891 -0.0010621058377659038 0.010667008888435015 -0.0010756723218012191 -0.00036108123288916739 0.0080774269260521243 -0.00054833002574442241 -4.7445807820597948e-05 0.0083261792459234131 1.7688191343709548e-05 -0.016936734750528228 -0.0034814549535700022 -0.0063106794775064506 -3.8816529329551886e-05 5.8673079013555775e-05 0.00055109615791115295
leaf_weight=67144 25358 335 35 276 75 24 38 25 28 417 599 25 25 23 31 21 33 109 24 38 34 2326 20 412 22 35 21 91665 18948 9467
leaf_count=67144 25358 335 35 276 75 24 38 25 28 417 599 25 25 23 31 21 33 109 24 38 34 2326 20 412 22 35 21 91665 18948 9467
internal_value=0 1.24098e-05 0.000276576 0.000224707 0.00166762 0.00503107 0.00807329 0.0117232 0.00779126 7.69277e-05 0.000652062 0.00180267 0.00424026 0.0101678 0.00294107 0.00187596 0.00610569 0.000244495 -0.000129324 0.000137509 0.00400415 2.00416e-05 0.00358767 -0.000847743 -0.00156806 -0.00803825 -0.0117473 5.283e-06 4.75855e-05 0.000222733
internal_weight=0 192275 5051 5016 466 190 115 77 53 4550 1201 602 267 48 219 194 54 140 3349 2442 72 2370 44 907 495 78 43 187224 95559 28415
internal_count=217633 192275 5051 5016 466 190 115 77 53 4550 1201 602 267 48 219 194 54 140 3349 2442 72 2370 44 907 495 78 43 187224 95559 28415
shrinkage=0.05


Tree=91
num_leaves=31
num_cat=0
split_feature=12 17 0 13 39 32 13 12 34 4 31 13 3 39 3 37 36 18 17 31 12 35 39 18 17 22 22 36 5 12
split_gain=0.0968782 0.141878 0.467018 0.472658 0.50857 0.326236 0.737265 0.165409 0.734267 0.160252 0.134188 0.221838 0.126578 0.293808 0.482179 0.585992 1.79209 1.31135 0.960857 0.831721 0.802181 0.709122 0.661669 1.79912 0.55948 0.524127 0.493435 0.459679 0.442964 0.419405
threshold=-2.6163199999999997e-05 -14.223749999999997 -8.8447699999999987 3.2990050000000008e-07 2.2683550000000001 0.0025121700000000006 -6.8546449999999991e-07 -2.7784749999999993e-06 -0.55203199999999986 -0.084020649999999988 -0.060375999999999992 8.0155350000000022e-06 -7.4497099999999987 -1.7757399999999997 -13.989599999999998 0.48750300000000008 0.327845 -5.8485049999999994 -5.585399999999999 0.098593250000000007 1.8224600000000005e-05 0.0043455600000000009 0.8945249999999999 6.1622250000000012 5.095670000000001 53.742400000000011 5.5910550000000008 -0.027530000000000051 1.5576600000000003e-05 -1.1362599999999997e-05
decision_type=2 2 2 2 2 2 2 2 2 2 2 2 2 2 2 2 2 2 2 2 2 2 2 2 2 2 2 2 2 2
left_child=-1 2 3 5 -5 6 -2 8 -4 -8 11 -10 13 -3 15 16 17 20 -19 22 21 -15 26 24 -24 -18 29 -21 -26 -20
right_child=1 12 7 4 -6 -7 9 -9 10 -11 -12 -13 -14 14 -16 -17 25 18 19 27 -22 -23 23 -25 28 -27 -28 -29 -30 -31
leaf_value=-8.4325665170730498e-05 0.0098521219153377814 -5.5172216657982638e-05 0.0095141653608880015 0.010348066397692134 0.00024364271739614197 -0.00040055668780901888 0.0047366366334608764 -2.4694813812392212e-05 -0.00056373992016839727 -0.00039086819513727282 -0.00055078339546336496 0.0065663281763045228 -3.9130743278383428e-05 0.0070209918205229637 7.1698215306367695e-05 -0.00014788321521450599 -0.00013936308558125182 0.0073298420317885948 0.0068578903516754511 0.012358234769285277 0.00077039480508704281 0.019114025216549636 -0.0030392254904569697 0.012305340853830178 0.008408422504241269 0.0070078908756840974 -0.0051136773710216714 0.0028479219841149946 -0.0019888943992555142 0.0019163018544903468
leaf_weight=29451 31 43722 25 33 20 129 20 1756 24 64 120 20 79832 27 57129 1838 1909 78 45 27 21 22 214 24 21 26 24 24 20 937
leaf_count=29451 31 43722 25 33 20 129 20 1756 24 64 120 20 79832 27 57129 1838 1909 78 45 27 21 22 214 24 21 26 24 24 20 937
internal_value=0 1.31972e-05 0.00040857 0.00225529 0.00653508 0.00132566 0.00326203 0.000126577 0.00153205 0.000829966 0.000315261 0.0026772 8.42994e-06 4.42129e-05 0.000113865 0.000572102 0.000959155 0.0022663 0.0019356 0.00162066 0.00894648 0.0124505 0.00137213 -0.000782319 -0.0020141 -4.33276e-05 0.00196963 0.00788279 0.00333656 0.00214275
internal_weight=0 188182 2242 297 53 244 115 1945 189 84 164 44 185940 106108 62386 5257 3419 1484 1414 1336 70 49 1285 279 255 1935 1006 51 41 982
internal_count=217633 188182 2242 297 53 244 115 1945 189 84 164 44 185940 106108 62386 5257 3419 1484 1414 1336 70 49 1285 279 255 1935 1006 51 41 982
shrinkage=0.05


Tree=92
num_leaves=31
num_cat=0
split_feature=4 4 21 37 36 39 35 39 36 4 36 6 17 19 36 40 40 12 27 33 36 5 21 13 36 39 4 33 18 18
split_gain=0.0920334 0.194237 3.32068 1.77687 5.81438 2.10446 1.64139 1.54253 1.07619 1.39379 1.30288 1.06377 1.41489 1.22797 1.06464 0.939913 0.89928 0.769399 0.754117 0.597592 0.55403 0.507587 0.489437 0.476608 0.458231 0.414733 0.385578 0.368601 0.361852 0.345287
threshold=-1.5265699999999998 -0.20278049999999997 -0.29593199999999992 -0.60497499999999982 -0.3562499999999999 3.7486700000000006 0.00050174200000000012 -4.0456399999999988 -0.10081500000000009 -0.38361349999999994 0.10022550000000004 -1.9548899999999994e-06 -7.7125999999999992 -1.6898149999999998 0.20129000000000011 1.4428800000000004 -0.77194499999999999 -1.6963049999999999e-06 0.016485500000000004 0.00046534500000000004 0.10022550000000004 1.1454450000000002e-05 -0.34389449999999994 5.8204250000000011e-06 -5.6825599999999996 -0.99152500000000054 -0.88881949999999998 -2.3515049999999995e-08 -7.375894999999999 7.3737850000000007
decision_type=2 2 2 2 2 2 2 2 2 2 2 2 2 2 2 2 2 2 2 2 2 2 2 2 2 2 2 2 2 2
left_child=-1 2 3 -2 19 6 20 -8 9 21 15 -12 -13 -14 17 16 26 -15 25 24 23 -9 -3 -6 -5 -18 -10 -23 -7 -28
right_child=1 22 -4 4 5 28 7 8 10 -11 11 12 13 14 -16 -17 18 -19 -20 -21 -22 27 -24 -25 -26 -27 29 -29 -30 -31
leaf_value=-7.5959137998228915e-05 -1.2025956393388382e-05 -0.00023487220703790704 -0.00011904408702115926 0.0064988043529242371 0.0044260957578735544 0.004769911612030618 -0.0018806252133799718 0.0082089742222292861 0.0019460823973349761 0.0013784550386480988 0.02006688312748852 0.020208210802891039 0.014585284017683829 0.014437738118263391 -0.0021528777466631832 0.012204740831676202 0.0096882141559668216 0.001732918323779648 -0.0063693999418650161 0.0071445739579697456 -0.00050133991800898811 0.012232813311740757 2.6637351312959842e-05 -0.00070402971135850889 -6.2041148590414425e-05 0.002620866362757253 0.0077548186115005569 0.019972171369008723 -0.00072706846362237138 0.015390587523579597
leaf_weight=33702 1738 20629 23324 27 350 35 49 22 20 25 23 22 34 26 44 39 23 22 22 30 94 25 134859 52 1860 213 57 40 207 20
leaf_count=33702 1738 20629 23324 27 350 35 49 22 20 25 23 22 34 26 44 39 23 22 22 30 94 25 134859 52 1860 213 57 40 207 20
internal_value=0 1.39181e-05 0.000134053 0.00128725 0.00195515 0.00432783 0.00517144 0.00668609 0.00730613 0.0117836 0.00641856 0.0100631 0.00850851 0.0064657 0.00346499 0.00483678 0.00402734 0.0086147 0.00248429 0.000143145 0.00295443 0.0147736 -8.05781e-06 0.0037625 3.18342e-05 0.00330963 0.00813153 0.0169955 6.79493e-05 0.00973814
internal_weight=0 183931 28443 5119 3381 1464 1222 726 677 112 565 171 148 126 92 394 355 48 258 1917 496 87 155488 402 1887 236 97 65 242 77
internal_count=217633 183931 28443 5119 3381 1464 1222 726 677 112 565 171 148 126 92 394 355 48 258 1917 496 87 155488 402 1887 236 97 65 242 77
shrinkage=0.05


Tree=93
num_leaves=31
num_cat=0
split_feature=4 4 21 36 37 40 39 18 18 30 3 39 36 36 10 30 11 5 33 21 1 39 11 20 35 23 25 40 36 36
split_gain=0.0873206 0.197197 3.55849 2.33984 7.82407 1.54779 2.01082 1.5942 1.37213 1.302 1.04401 0.734313 1.24424 1.02913 1.17473 1.02084 0.730522 0.833351 0.72804 0.472808 0.463348 0.404418 0.492435 0.40078 0.330748 0.307422 0.302892 0.27873 0.290261 2.88743
threshold=1.7937450000000001 0.24725400000000003 0.34963900000000009 0.40779500000000007 0.35345999999999994 3.6866600000000003 -0.66712000000000005 7.6671550000000011 -8.2769249999999985 0.7542350000000001 -9.2899249999999984 2.1697850000000001 -0.079468000000000025 0.10022550000000004 5.2534050000000007e-06 7.9426800000000002 0.0094329700000000006 1.9150900000000003e-05 1.5720100000000002e-06 0.33996650000000006 9.8382400000000008 1.3895649999999999 0.0010249100000000002 -9.2399249999999977 0.0066980350000000006 -0.00024772449999999996 1.0121250000000004 -0.8551649999999994 -0.27744100000000016 0.1751400000000001
decision_type=2 2 2 2 2 2 2 2 2 2 2 2 2 2 2 2 2 2 2 2 2 2 2 2 2 2 2 2 2 2
left_child=1 19 -3 4 5 6 16 8 9 -8 -9 12 23 21 -15 -13 17 18 25 -1 -12 22 -14 -10 -24 -4 -5 -21 -29 -30
right_child=-2 2 3 26 -6 -7 7 10 11 -11 20 15 13 14 -16 -17 -18 -19 -20 27 -22 -23 24 -25 -26 -27 -28 28 29 -31
leaf_value=2.5947487422198707e-05 -7.4931522071373997e-05 -0.00010219969685847591 0.0077410504583747611 -0.00020388903035129265 2.3223690557754789e-05 -0.0018627070691824581 0.0049899816527613442 0.018364376106910642 0.014510524519593331 0.017671177748790276 0.0048084181952827536 -0.001055067494977426 0.0048873814039159871 0.017741232672706247 0.0022544561312921969 0.010553973830643703 0.019078793533173249 0.017210706703424936 0.0024364453847878255 -0.00010060225615433942 0.012249695354008249 0.0090126209936681242 0.0011804015065232914 0.0057254675123840568 -0.0050062979945214468 0.014277902892125506 0.0051476079726988384 -0.0001541008631836816 -0.0039023895680519341 -0.00014823525418840259
leaf_weight=139421 32987 21201 37 1277 1308 60 48 32 37 35 52 136 88 25 24 22 26 31 39 13587 35 21 159 20 25 35 27 3294 621 2923
leaf_count=139421 32987 21201 37 1277 1308 60 48 32 37 35 52 136 88 25 24 22 26 31 39 13587 35 21 159 20 25 35 27 3294 621 2923
internal_value=0 1.33865e-05 0.000144569 0.00159823 0.00255923 0.00592001 0.00642374 0.00532815 0.00434004 0.0103375 0.0106423 0.00344635 0.00458877 0.00344889 0.0101559 0.000561381 0.0113735 0.00996267 0.00793844 -6.96634e-06 0.00780204 0.00232724 0.00181109 0.011428 0.000339817 0.0109187 -9.30835e-05 -0.000231636 -0.000491998 -0.00080606
internal_weight=0 184646 24800 3599 2295 987 927 759 640 83 119 557 399 342 49 158 168 142 111 159846 87 293 272 57 184 72 1304 20425 6838 3544
internal_count=217633 184646 24800 3599 2295 987 927 759 640 83 119 557 399 342 49 158 168 142 111 159846 87 293 272 57 184 72 1304 20425 6838 3544
shrinkage=0.05


Tree=94
num_leaves=31
num_cat=0
split_feature=17 0 39 13 16 32 13 12 2 25 2 40 39 36 36 1 39 22 12 36 30 11 34 17 14 17 18 9 17 7
split_gain=0.0806362 0.392511 0.362101 0.450001 0.474412 0.36554 0.712328 0.125625 0.122361 0.116726 0.11528 0.0779426 0.691833 0.512085 1.30138 0.602184 1.77416 0.614233 0.536841 0.602117 1.83117 1.0193 0.859247 1.0666 1.19468 1.45178 0.491202 0.349268 0.320899 0.755525
threshold=-14.223749999999997 -8.8447699999999987 3.4885250000000001 3.2990050000000008e-07 0.00035386650000000005 0.0025121700000000006 -6.8546449999999991e-07 7.0184150000000016e-08 -2.7519549999999997 -0.060167999999999992 -2.6524249999999996 -0.47859499999999983 -0.12174999999999957 0.1751400000000001 -0.10081500000000009 11.597950000000003 0.23546500000000006 26.434800000000003 -2.6163199999999997e-05 0.056773999999999998 0.010080700000000001 0.0048329650000000007 -0.0010865249999999999 6.0977500000000004 4.8606200000000009e-08 -4.8420449999999997 -5.0750049999999991 -0.00019804799999999998 14.554100000000002 2.1412350000000005e-05
decision_type=2 2 2 2 2 2 2 2 2 2 2 2 2 2 2 2 2 2 2 2 2 2 2 2 2 2 2 2 2 2
left_child=1 2 3 5 -5 6 -1 -8 9 -3 -10 28 -13 14 -14 17 -17 18 -16 27 -21 22 -22 24 26 -26 -24 -20 -2 -30
right_child=11 8 -4 4 -6 -7 7 -9 10 -11 -12 12 13 -15 15 16 -18 -19 19 20 21 -23 23 -25 25 -27 -28 -29 29 -31
leaf_value=0.011051368153654879 -3.8728161739190338e-05 -0.004431296093289034 -0.00080663479994563098 0.011822560227189499 0.0021759205896523782 -0.00036791710657876377 -0.00036155651686428994 0.0044530862426108804 0.0036334407517721922 -0.00034537683179988482 7.5001018281725928e-05 -2.8351768549434973e-05 -2.891382792607721e-05 -8.0345271498859125e-05 -0.0029608979030423433 0.0003560310016900044 -0.014845275795390911 -0.007569392127916217 0.0070350887270178644 -0.0046441962517035961 0.012100719291259323 -0.0024354887393522352 0.013822382474318147 0.011714786810513873 0.0042535008854585991 -0.012567784207994523 0.0029956225432794205 0.0011096273244047823 -0.0001637935562294236 0.0024729176595066718
leaf_weight=26 117405 29 89 26 25 95 42 20 23 44 2182 81046 5154 4973 76 116 23 20 25 55 57 34 20 39 29 23 22 4739 750 426
leaf_count=26 117405 29 89 26 25 95 42 20 23 44 2182 81046 5154 4973 76 116 23 20 25 55 57 34 20 39 29 23 22 4739 750 426
internal_value=0 0.000276729 0.00190791 0.00294036 0.00709382 0.00178284 0.00410468 0.00119155 4.54421e-05 -0.00196855 0.000112119 -3.34727e-06 3.00307e-05 0.000337182 0.00053622 0.00108808 -0.00215929 0.00117591 0.00121008 0.00127294 0.00353055 0.00553775 0.00696453 0.00476331 0.00187919 -0.00318668 0.00815122 0.00114072 -3.04961e-05 0.000791342
internal_weight=0 2601 323 234 51 183 88 62 2278 73 2205 215032 96451 15405 10432 5278 139 5139 5119 5043 279 224 190 133 94 52 42 4764 118581 1176
internal_count=217633 2601 323 234 51 183 88 62 2278 73 2205 215032 96451 15405 10432 5278 139 5139 5119 5043 279 224 190 133 94 52 42 4764 118581 1176
shrinkage=0.05


Tree=95
num_leaves=31
num_cat=0
split_feature=4 15 21 36 36 4 35 39 6 40 36 4 36 4 21 7 40 9 33 15 32 12 40 21 39 20 39 36 39 36
split_gain=0.0793948 0.142958 1.79666 1.253 5.01247 1.6414 1.82777 1.41938 1.22065 1.14646 1.24787 0.879057 0.657254 0.910023 1.18576 0.910429 0.902864 0.742476 0.682281 0.679646 0.626152 0.597201 0.545451 0.53613 0.512604 0.494904 0.489487 1.44246 0.599216 0.491437
threshold=-2.2787549999999999 -1.7388649999999999e-06 -0.24039599999999997 0.327845 -0.25142799999999998 -0.20278049999999997 0.00050174200000000012 4.9203450000000002 -2.8071799999999994e-06 3.0726850000000008 -0.10081500000000009 -0.63310749999999982 0.077348000000000056 -1.4133199999999999 -0.59879749999999998 -2.2309399999999997e-05 1.4428800000000004 1.7182650000000001e-05 5.6572450000000008e-07 -0.00012715299999999997 -0.09986109999999998 4.7226350000000001e-07 -0.77194499999999999 -0.50105749999999993 1.7675950000000007 -16.542649999999998 -1.4591200000000002 -0.058960000000000005 -0.77143500000000065 0.039429999999999972
decision_type=2 2 2 2 2 2 2 2 2 2 2 2 2 2 2 2 2 2 2 2 2 2 2 2 2 2 2 2 2 2
left_child=-1 2 3 4 -2 6 11 8 21 10 20 -6 16 -14 15 -15 22 -16 -17 -20 -10 -8 -12 25 26 -7 -13 -28 -29 -30
right_child=1 -3 -4 -5 5 23 7 -9 9 -11 12 24 13 14 17 18 -18 -19 19 -21 -22 -23 -24 -25 -26 -27 27 28 29 -31
leaf_value=-7.7769114921754642e-05 9.8819486782711203e-05 -1.488784990054921e-05 -7.0449984148611701e-05 2.1434507886893269e-05 -0.0012086361187078011 0.0037379509662943226 0.019554545699308316 -0.00049526516481118645 0.0051335613000328129 -0.00084832559659844267 0.0066364968177555234 -0.0005089077851593946 -0.0015954250081752738 0.014177338468531767 0.023087646521295691 0.0099435388725250956 0.012433285290195098 0.010334703799337149 0.0061031256198129137 -0.006338130613869947 0.014859393821492539 0.0085124195152893652 0.0021541135599693765 0.0017749630409910786 -0.00041663112874773918 -0.0029000720485219322 0.013062014835198102 0.010820381702855229 0.001992837077759086 0.0059974488173552068
leaf_weight=28518 4197 137555 40619 4585 153 35 24 86 23 60 97 66 21 27 21 25 31 25 21 23 59 25 226 359 95 142 41 25 351 98
leaf_count=28518 4197 137555 40619 4585 153 35 24 86 23 60 97 66 21 27 21 25 31 25 21 23 59 25 226 359 95 142 41 25 351 98
internal_value=0 1.17274e-05 8.27331e-05 0.000651433 0.00110589 0.0030636 0.00385587 0.00557037 0.00630716 0.00574104 0.00640108 0.00221375 0.00549221 0.00811944 0.00955615 0.00639339 0.00428249 0.0161567 0.00334749 -0.000400258 0.0121314 0.0139208 0.00350022 0.000664608 0.00298834 -0.00158747 0.00354509 0.00406464 0.00328638 0.00286689
internal_weight=0 189115 51560 10941 6356 2159 1623 794 708 659 599 829 517 163 142 96 354 46 69 44 82 49 323 536 676 177 581 515 474 449
internal_count=217633 189115 51560 10941 6356 2159 1623 794 708 659 599 829 517 163 142 96 354 46 69 44 82 49 323 536 676 177 581 515 474 449
shrinkage=0.05


Tree=96
num_leaves=31
num_cat=0
split_feature=30 3 37 37 18 4 4 10 12 36 32 6 36 4 4 21 39 37 36 29 3 17 31 33 13 16 17 0 14 21
split_gain=0.0756205 0.317792 0.277258 0.862458 0.538787 0.503443 1.47761 0.543408 0.614114 0.668176 0.484388 0.391737 0.156394 0.120114 0.432235 0.93517 0.936204 1.19762 1.71788 1.12736 0.708539 0.543664 0.244321 0.103993 0.20527 0.504014 0.0986447 0.321931 0.400059 0.266241
threshold=3.2423100000000002 -15.510599999999998 0.70899650000000014 -0.60497499999999982 11.881850000000002 5.3515400000000009 1.8987000000000003 -7.1201799999999986e-05 -2.6163199999999997e-05 -0.14969009999999991 -0.60180299999999987 -8.4483849999999976e-08 4.9596750000000007 -0.54650249999999989 -2.3911599999999997 -0.82489099999999993 5.2734150000000009 -0.71931549999999989 -0.51801999999999981 0.0002933525000000001 -11.394249999999998 4.394750000000001 0.33249250000000002 0.00019513800000000003 2.5770550000000005e-06 0.0022843050000000008 19.256550000000001 8.9117650000000008 1.3649650000000004e-06 0.62895050000000008
decision_type=2 2 2 2 2 2 2 2 2 2 2 2 2 2 2 2 2 2 2 2 2 2 2 2 2 2 2 2 2 2
left_child=23 2 3 12 5 6 7 -5 -9 -10 -11 -12 -2 14 -3 16 17 -16 -19 -20 -18 22 -21 -1 -25 -26 -15 -28 29 -29
right_child=1 13 -4 4 -6 -7 -8 8 9 10 11 -13 -14 26 15 -17 20 18 19 21 -22 -23 -24 24 25 -27 27 28 -30 -31
leaf_value=-7.4057007070082867e-06 -0.00039301152096308774 -0.00020003066512869455 -0.00010862209925417001 -0.0025542381483739103 -0.003736105654970743 -0.0026782901561819019 0.018161989419327475 -0.0027854108423343862 0.0011061831395538222 0.015546862038106405 0.002833425850258209 0.010913615674944595 0.0039085207022372228 -8.8729968933902795e-05 -0.00061116904426786211 -0.00050420809935930726 0.0082627172497898131 0.00034805378600948544 0.0032494098413735628 0.016528976024128499 -0.00064061076908780354 0.022556113363021896 0.0087135827401652929 0.00014258909162693985 0.010040350002668674 -0.00070689580801020684 8.1457091657279995e-05 0.0060651313583366577 0.0097209778917022056 -0.0011665652780876762
leaf_weight=207564 260 1121 306 26 20 20 21 20 37 22 30 30 23 6810 54 343 26 45 24 20 159 21 20 111 20 24 381 20 20 35
leaf_count=207564 260 1121 306 26 20 20 21 20 37 22 30 30 23 6810 54 343 26 45 24 20 159 21 20 111 20 24 381 20 20 35
internal_value=0 0.000134909 0.00108079 0.00179583 0.00409897 0.00485965 0.00567018 0.00408032 0.00532131 0.00668379 0.00920051 0.00687352 -4.3417e-05 5.01865e-05 0.000411877 0.00137529 0.00312235 0.00564769 0.00824752 0.0124296 0.000610668 0.0160415 0.0126213 -6.43893e-06 0.00128819 0.00417822 -4.10575e-05 0.000670894 0.00366523 0.00146314
internal_weight=0 9914 815 509 226 206 186 165 139 119 82 60 283 9099 1833 712 369 184 130 85 185 61 40 207719 155 44 7266 456 75 55
internal_count=217633 9914 815 509 226 206 186 165 139 119 82 60 283 9099 1833 712 369 184 130 85 185 61 40 207719 155 44 7266 456 75 55
shrinkage=0.05


Tree=97
num_leaves=31
num_cat=0
split_feature=4 4 21 36 37 39 30 40 37 37 39 39 4 34 8 25 36 5 39 5 21 4 6 3 0 21 21 12 36 30
split_gain=0.0749362 0.122309 2.74833 1.70208 7.09879 1.42186 1.68651 1.47612 1.52564 1.35882 1.34091 1.23518 0.812431 0.868177 0.780903 0.776326 0.989714 0.755162 0.597381 0.796722 0.56471 0.607832 0.524567 0.587016 0.611529 0.46325 0.434806 0.428269 0.421633 0.394698
threshold=2.9223900000000005 0.21050500000000003 0.34963900000000009 0.40779500000000007 0.35345999999999994 4.0888900000000019 14.135600000000002 3.6866600000000003 0.078754999999999922 -0.057539999999999918 -0.82558500000000012 2.1254700000000009 1.3297700000000001 -0.092780149999999992 1.3379750000000002e-05 0.07628225000000001 -0.19934349999999995 1.6910850000000004e-05 1.06199 1.6117600000000003e-05 1.0406250000000001 1.1247450000000001 -2.4515249999999996e-07 -9.4732099999999981 6.2314700000000007 0.30416600000000005 0.86341500000000015 5.756625000000001e-06 5.6762150000000009 1.2911250000000003
decision_type=2 2 2 2 2 2 2 2 2 2 2 2 2 2 2 2 2 2 2 2 2 2 2 2 2 2 2 2 2 2
left_child=1 25 -3 4 5 7 -7 8 9 11 -11 14 15 -14 -4 16 -10 -17 26 -20 21 22 23 -16 -25 -1 -12 -9 -5 -13
right_child=-2 2 3 28 -6 6 -8 27 12 10 18 29 13 -15 20 17 -18 -19 19 -21 -22 -23 -24 24 -26 -27 -28 -29 -30 -31
leaf_value=2.7225091522971498e-05 -8.0789946448633809e-05 -8.3136530904150366e-05 0.00070813682902118444 -9.2748151035801786e-05 2.1267444961988298e-05 -0.00097604453427872306 0.012976651363074779 -0.0027791807478674208 0.00037442969018593435 0.010601356788136965 0.0022141209037945375 -0.0039720039220659002 0.010730780948969452 -0.0036629163015459197 0.0014287507713392931 0.011603190325614479 0.011881284748921424 0.023053275514394046 0.011015694015215904 6.8597301530341314e-06 0.016016210896290236 0.0010114465409424157 0.013235114548976225 0.016235754697117955 0.004694837892682038 -0.00021604903763214851 -0.0036749348357053742 0.0054657695745672329 0.0072059390666072438 0.0052998041691766544
leaf_weight=133497 25358 30807 23 1860 1953 162 25 63 25 58 300 24 22 20 27 36 74 24 42 27 37 20 75 24 22 22930 35 21 20 22
leaf_count=133497 25358 30807 23 1860 1953 162 25 63 25 58 300 24 22 20 27 36 74 24 42 27 37 20 75 24 22 22930 35 21 20 22
internal_value=0 1.06549e-05 9.3958e-05 0.00117623 0.00188478 0.00489756 0.000889289 0.00563169 0.00620092 0.00514657 0.00349207 0.00793627 0.0100616 0.00387664 0.00944417 0.0116954 0.00897551 0.0161832 0.00247143 0.00670789 0.0104243 0.00919276 0.0102983 0.00728111 0.0107162 -8.43548e-06 0.00159885 -0.000717943 -1.51025e-05 0.000462339
internal_weight=0 192275 35848 5041 3161 1208 187 1021 937 736 462 274 201 42 228 159 99 60 404 69 205 168 148 73 46 156427 335 84 1880 46
internal_count=217633 192275 35848 5041 3161 1208 187 1021 937 736 462 274 201 42 228 159 99 60 404 69 205 168 148 73 46 156427 335 84 1880 46
shrinkage=0.05


Tree=98
num_leaves=31
num_cat=0
split_feature=18 3 1 4 16 6 21 4 15 21 36 36 35 4 39 39 36 36 39 39 36 4 27 39 15 39 4 33 28 39
split_gain=0.0717694 0.31121 0.729643 0.199069 0.320434 0.632518 0.131874 0.0717923 0.142807 1.52121 1.24749 4.70158 1.53305 2.47962 1.20499 1.23643 1.45041 1.66084 1.00826 0.954713 1.0914 0.969002 0.945004 0.896486 0.849628 0.819873 0.804825 0.764087 0.732473 0.58609
threshold=18.392150000000004 -5.0945699999999992 8.267730000000002 -0.38361349999999994 0.00019078500000000004 -3.3864449999999993e-07 -1.1409399999999998 -1.4133199999999999 -1.7388649999999999e-06 -0.14722649999999995 0.30085850000000008 -0.25142799999999998 0.00042511250000000007 -0.20278049999999997 2.7930350000000002 -4.0456399999999988 0.12375499999999996 -0.10081500000000009 1.1890849999999997 -1.4591200000000002 -0.040859549999999939 0.044857050000000002 0.010273350000000002 -1.4591200000000002 -5.194759999999999e-05 0.80790999999999979 -0.58642949999999983 1.4797450000000002e-05 4.7390700000000008 0.80790999999999979
decision_type=2 2 2 2 2 2 2 2 2 2 2 2 2 2 2 2 2 2 2 2 2 2 2 2 2 2 2 2 2 2
left_child=7 3 -3 4 5 -2 -6 -1 9 10 11 -9 18 14 15 -14 17 -17 19 -13 26 25 -18 -19 27 -22 -21 -25 -16 -26
right_child=1 2 -4 -5 6 -7 -8 8 -10 -11 -12 12 13 -15 28 16 22 23 -20 20 21 -23 -24 24 29 -27 -28 -29 -30 -31
leaf_value=-6.7917986371800759e-05 0.011949509998230497 -0.00054937638843482767 0.011700013560184745 -0.00022137452228917568 0.0038608800923512995 -0.00047484182079123071 -0.00035436450391254464 3.2510633256990024e-05 -1.4674751089593661e-05 -0.00012506414923289929 -2.5392527084327238e-05 -0.00050081491872711102 -0.0035767704277532178 -0.00070330202177921412 -0.0014309775665581051 0.012565451461963263 0.018719180926489522 0.011930871793092827 -0.00034820315088778604 -0.0017466622429007355 0.0022557610611820553 -0.0086343394592404369 0.0074851959723875768 0.0029166741042094906 0.0049900794013676489 0.010359802149832831 0.0081957406208219719 -0.0070884487092761064 0.0087809610434553837 0.011783991195261479
leaf_weight=34455 20 31 20 572 23 21 96 5872 137037 29457 6879 265 30 208 87 79 39 39 470 24 1263 20 36 209 130 32 134 21 22 42
leaf_count=34455 20 31 20 572 23 21 96 5872 137037 29457 6879 265 30 208 87 79 39 39 470 24 1263 20 36 209 130 32 134 21 22 42
internal_value=0 0.000477833 0.00425431 0.000214718 0.00177375 0.00558582 0.000460347 -1.72535e-06 1.07786e-05 8.76792e-05 0.000481792 0.000868504 0.0024269 0.00411566 0.00548125 0.00632728 0.00682665 0.00588912 0.00170643 0.00226205 0.00275911 0.00228734 0.0133269 0.00469313 0.00399096 0.00245602 0.0066855 0.00200316 0.000630148 0.00664906
internal_weight=0 783 51 732 160 41 119 216850 182395 45358 15901 9022 3150 942 734 625 595 520 2208 1738 1473 1315 75 441 402 1295 158 230 109 172
internal_count=217633 783 51 732 160 41 119 216850 182395 45358 15901 9022 3150 942 734 625 595 520 2208 1738 1473 1315 75 441 402 1295 158 230 109 172
shrinkage=0.05


Tree=99
num_leaves=31
num_cat=0
split_feature=4 4 21 36 37 39 34 40 37 37 39 39 4 34 8 25 36 5 4 39 5 6 21 4 6 6 5 16 21 18
split_gain=0.0662498 0.113027 2.47934 1.53611 6.40837 1.28328 1.41426 1.33205 1.37678 1.22647 1.21023 1.11482 0.733214 0.783558 0.704695 0.70063 0.893241 0.681562 0.549545 0.539127 0.718989 0.470413 0.405745 0.402285 0.399951 0.556663 0.435616 0.422695 0.392326 0.384518
threshold=2.9223900000000005 0.21050500000000003 0.34963900000000009 0.40779500000000007 0.35345999999999994 4.0888900000000019 -1.0090899999999998 3.6866600000000003 0.078754999999999922 -0.057539999999999918 -0.82558500000000012 2.1254700000000009 1.3297700000000001 -0.092780149999999992 1.3379750000000002e-05 0.07628225000000001 -0.19934349999999995 1.6910850000000004e-05 0.26785250000000005 1.06199 1.6117600000000003e-05 -3.2693399999999996e-06 0.30416600000000005 1.1247450000000001 -1.6374549999999998e-06 -2.4515249999999996e-07 1.1738350000000001e-05 2.7427600000000005e-05 0.86341500000000015 1.0000000180025095e-35
decision_type=2 2 2 2 2 2 2 2 2 2 2 2 2 2 2 2 2 2 2 2 2 2 2 2 2 2 2 2 2 2
left_child=1 22 -3 4 5 7 -7 8 9 11 -11 14 15 -14 -4 16 -10 -17 -16 28 -21 -20 -1 -9 -23 27 -27 -26 -12 -18
right_child=-2 2 3 -5 -6 6 -8 23 12 10 19 -13 13 -15 18 17 29 -19 21 20 -22 24 -24 -25 25 26 -28 -29 -30 -31
leaf_value=2.5040533390707126e-05 -7.5963325194116092e-05 -7.810695822168253e-05 0.00067436254542806878 -1.3717596980499402e-05 2.0592382954590848e-05 0.01166607836404672 -0.00090162783693677683 -0.0033950605119781145 0.00035644198535010217 0.010072403311215599 0.0021042773962059681 0.00044018055550227675 0.010195226450874048 -0.0034790367689129203 0.0022413553359607857 0.011023764454552698 0.013481567084306367 0.021901575033552945 0.0035393505392130467 0.010465642903000116 7.6331957070915793e-06 0.017934836358339947 -0.00020263415988436607 0.0037301874879631216 0.0021850100218283909 0.019298497516484488 0.01111408290000529 0.011521597748452968 -0.0034897060229975201 0.0053657511528581378
leaf_weight=133497 25358 30807 23 1880 1953 26 161 52 25 58 300 46 22 20 21 36 54 24 20 42 27 22 22930 32 27 21 72 22 35 20
leaf_count=133497 25358 30807 23 1880 1953 26 161 52 25 58 300 46 22 20 21 36 54 24 20 42 27 22 22930 32 27 21 72 22 35 20
internal_value=0 1.00183e-05 9.00983e-05 0.00111805 0.00179117 0.00465369 0.000845754 0.00535113 0.00589187 0.00489027 0.00331841 0.00754063 0.00955939 0.00368367 0.00897318 0.0111115 0.00852758 0.0153749 0.00990427 0.00234878 0.00637338 0.0107788 -8.33338e-06 -0.00068068 0.0116617 0.0106898 0.0129622 0.00637695 0.00151983 0.0112881
internal_weight=0 192275 35848 5041 3161 1208 187 1021 937 736 462 274 201 42 228 159 99 60 205 404 69 184 156427 84 164 142 93 49 335 74
internal_count=217633 192275 35848 5041 3161 1208 187 1021 937 736 462 274 201 42 228 159 99 60 205 404 69 184 156427 84 164 142 93 49 335 74
shrinkage=0.05


Tree=100
num_leaves=31
num_cat=0
split_feature=18 1 39 37 13 13 4 25 25 36 36 4 21 4 15 34 36 36 39 4 27 4 36 36 23 4 39 39 11 15
split_gain=0.0644017 0.205755 0.286054 0.342039 0.509221 0.698767 0.209871 0.476942 0.0881474 0.0835664 0.30933 0.063865 0.137361 0.33889 0.130199 1.3779 1.13955 4.24687 1.4039 1.63213 1.6363 1.53779 1.16911 1.21418 1.16157 0.85155 0.694735 0.94941 0.638234 0.632304
threshold=18.392150000000004 4.5221550000000006 0.55890500000000032 -0.89665319999999982 -5.8728149999999988e-07 1.0552950000000002e-06 -0.68745799999999979 0.051198250000000008 0.69707500000000011 -0.32870999999999989 0.14973499999999998 -1.4133199999999999 -2.2419299999999995 -2.6817999999999995 -1.7388649999999999e-06 0.00035064550000000002 0.30085850000000008 -0.25142799999999998 3.0124600000000004 0.019144700000000004 0.0024282350000000004 -0.26743249999999991 -0.10081500000000009 0.10022550000000004 -0.00039100399999999997 -0.63310749999999982 -1.4591200000000002 -0.77143500000000065 0.00015957750000000003 -4.5779349999999994e-05
decision_type=2 2 2 2 2 2 2 2 2 2 2 2 2 2 2 2 2 2 2 2 2 2 2 2 2 2 2 2 2 2
left_child=11 6 8 -4 -5 -6 7 -2 -3 -8 -11 12 13 -1 15 -13 17 -17 19 20 25 22 -22 29 -25 -19 -27 -28 -23 -24
right_child=1 2 3 4 5 -7 9 -9 -10 10 -12 14 -14 -15 -16 16 -18 18 -20 -21 21 28 23 24 -26 26 27 -29 -30 -31
leaf_value=-2.1694001566658623e-05 0.0066551617949776945 0.00038152028284632535 -0.00013886593834589199 0.010989494279990216 -0.00055704544570794998 0.0094199002270565525 -0.00013915712573813263 -0.00062450313608491026 -0.0030173153662299565 -0.0058302440447732806 -0.00019558651183224258 -0.0001157109401770091 -7.0209520199163711e-05 0.0056833113192169549 -1.4144846948854076e-05 3.1322977626406874e-05 -2.5213553235250936e-05 -0.0018724439860695703 -9.6924376538447255e-05 -0.0031114807326535552 0.012004993162991015 0.0088224588488431087 0.0026607426417181385 -9.7004662356561141e-05 0.013151098553461429 -0.00039347363406704977 0.0091110132199562141 0.0026386604659781356 -0.00010693997187031942 0.007241236723087934
leaf_weight=94 35 65 60 24 54 26 303 63 27 33 93 29782 34325 36 137037 5733 6737 117 501 112 80 23 244 21 78 180 59 1428 154 109
leaf_count=94 35 65 60 24 54 26 303 63 27 33 93 29782 34325 36 137037 5733 6737 117 501 112 80 23 244 21 78 180 59 1428 154 109
internal_value=0 0.000452642 0.00161556 0.0028674 0.00460178 0.00268546 -0.000112268 0.00197538 -0.000615964 -0.000589166 -0.00167133 -1.6344e-06 -6.40656e-05 0.00155815 1.01591e-05 8.35868e-05 0.000464653 0.000838024 0.00232702 0.0027932 0.00305847 0.00509043 0.00643358 0.00544749 0.0103409 0.00225093 0.00254033 0.00289547 0.00105338 0.00407512
internal_weight=0 783 256 164 104 80 527 98 92 429 126 216850 34455 130 182395 45358 15576 8839 3106 2605 2493 709 532 452 99 1784 1667 1487 177 353
internal_count=217633 783 256 164 104 80 527 98 92 429 126 216850 34455 130 182395 45358 15576 8839 3106 2605 2493 709 532 452 99 1784 1667 1487 177 353
shrinkage=0.05


Tree=101
num_leaves=31
num_cat=0
split_feature=30 3 17 36 37 29 32 13 39 39 26 31 10 19 33 13 16 36 15 34 36 36 8 11 14 11 17 16 3 39
split_gain=0.0613516 0.270957 0.232942 0.306552 0.973755 0.617728 0.532513 0.463295 0.300097 0.578005 0.299406 0.198761 0.197793 0.140551 0.0897147 0.172633 0.444254 0.086157 0.0723793 0.330846 0.28666 0.8949 0.900146 0.478921 0.420797 0.480882 0.612772 0.297636 0.579346 0.439453
threshold=3.2423100000000002 -15.510599999999998 16.002400000000005 -0.71412249999999966 -0.60497499999999982 -0.00020540699999999998 -0.60180299999999987 -5.9166999999999996e-08 4.3033550000000007 1.9002500000000004 -0.44589049999999997 -0.14027249999999997 4.3872650000000008e-05 -2.9623449999999996 0.00019513800000000003 2.5770550000000005e-06 0.0022843050000000008 -5.6825599999999996 -7.2323849999999985e-06 0.30670150000000002 -0.51801999999999981 0.80350500000000014 1.7987700000000004e-05 0.0090263400000000025 -2.8169299999999998e-05 0.0056726700000000003 14.554100000000002 0.0025984850000000006 -9.7440149999999992 4.6757400000000002
decision_type=2 2 2 2 2 2 2 2 2 2 2 2 2 2 2 2 2 2 2 2 2 2 2 2 2 2 2 2 2 2
left_child=14 2 3 -2 13 6 -6 -8 9 10 -7 -12 -13 -5 -1 -16 -17 -3 19 -19 -21 22 23 -22 -24 26 27 28 -26 -30
right_child=1 17 -4 4 5 8 7 -9 -10 -11 11 12 -14 -15 15 16 -18 18 -20 20 21 -23 24 -25 25 -27 -28 -29 29 -31
leaf_value=-6.697673729287905e-06 -7.0657924542159151e-05 0.0023883255300461317 -0.0017845378141129809 0.0039146375883969348 0.015147647572060427 0.0071566262213640253 8.1507692257651976e-05 0.010250774241285399 -0.0029550177887722388 0.010795815316099756 -0.0033509594772982857 0.0057210506061496948 -0.00035774927910097181 -0.00035107869140877789 0.00014608593421189242 0.0093506447621621198 -0.00073936430174702163 -0.00028176679603538293 -5.4799600183798292e-05 -0.00011131054516612371 0.0057231122804241204 -4.6513255316292285e-05 -0.00094602152012780542 0.01552857555449009 -0.0068455801734951544 0.0084700386787657268 0.0095865085138939331 0.0052484923667604263 0.0057791066925144859 -0.0019804253216362494
leaf_weight=207564 276 39 69 21 21 22 21 24 20 23 23 23 32 240 111 20 24 1333 6529 463 33 417 73 20 26 39 24 30 36 37
leaf_count=207564 276 39 69 21 21 22 21 24 20 23 23 23 32 240 111 20 24 1333 6529 463 33 417 73 20 26 39 24 30 36 37
internal_value=0 0.000121516 0.000994918 0.001252 0.00202871 0.00457198 0.00857319 0.00550512 0.00272527 0.00364889 0.0020051 0.000552104 0.00218429 -7.86014e-06 -5.79972e-06 0.00119667 0.003847 4.32854e-05 3.31909e-05 0.000260172 0.000863181 0.00147705 0.00347492 0.00942329 0.00228525 0.0035138 0.00225044 0.000885595 -0.000436495 0.00184619
internal_weight=0 9914 815 746 470 209 66 45 143 123 100 78 55 261 207719 155 44 9099 9060 2531 1198 735 318 53 265 192 153 129 99 73
internal_count=217633 9914 815 746 470 209 66 45 143 123 100 78 55 261 207719 155 44 9099 9060 2531 1198 735 318 53 265 192 153 129 99 73
shrinkage=0.05


Tree=102
num_leaves=31
num_cat=0
split_feature=4 4 21 37 36 39 35 37 30 5 9 15 36 20 14 27 40 39 8 20 23 36 15 17 32 36 36 24 0 21
split_gain=0.0583718 0.104657 2.25339 1.42216 6.33409 1.39966 1.27619 1.23947 1.1235 1.01781 1.10127 0.990901 0.805457 1.23261 1.10564 0.77782 0.739408 0.781726 0.624277 0.595126 0.563492 0.559483 0.868202 0.549293 0.491614 0.422762 1.01529 0.4193 0.41479 0.37807
threshold=2.9223900000000005 0.19669200000000001 0.24655200000000002 0.35345999999999994 0.2761725000000001 4.0888900000000019 0.0005469880000000001 0.078754999999999922 14.135600000000002 2.3990350000000003e-05 -8.8703799999999996e-05 5.4626650000000007e-05 0.12375499999999996 -6.889454999999999 6.6737300000000016e-07 0.053348600000000003 1.3201050000000005 0.97785500000000003 2.8428900000000005e-05 -10.753299999999998 -0.00039100399999999997 -0.22452634999999985 7.6735600000000018e-05 -3.0760849999999995 0.14537000000000003 -0.12496499999999998 -0.040859549999999939 91.481750000000019 -4.429314999999999 0.31809300000000001
decision_type=2 2 2 2 2 2 2 2 2 2 2 2 2 2 2 2 2 2 2 2 2 2 2 2 2 2 2 2 2 2
left_child=1 29 -3 4 5 6 11 12 -7 10 -9 25 15 14 -14 16 17 24 -18 23 -16 -21 -23 -12 -8 -4 -27 -6 -19 -1
right_child=-2 2 3 -5 27 8 7 9 -10 -11 19 -13 13 -15 20 -17 18 28 -20 21 -22 22 -24 -25 -26 26 -28 -29 -30 -31
leaf_value=2.265595337504359e-05 -7.130386464819479e-05 -0.0001133161778486901 -0.0014582779492290383 7.9264434349690369e-07 -1.3279840446560492e-05 -0.00068019008884220974 0.0027241031025836051 -0.0010631457830233306 0.011424219244647593 0.017949061261104612 0.019513511734903264 0.00021345429927044896 -0.0038722168442539198 0.019330267029415288 0.012977583995327736 -0.0059878612682223321 0.0052895994045801704 0.013226108155820683 0.016620071642100814 0.0011529089069621738 0.0039462908531629273 0.0167876220792532 0.0044347621528713996 0.0096215396550380534 -0.0039976917030975119 0.01009594128166403 0.0035841898800715853 0.0056532855137034366 0.0052910749883800425 -0.00020315666949160258
leaf_weight=133177 25358 29806 30 3044 3040 220 222 29 21 29 23 223 22 21 39 20 31 23 20 28 31 25 33 36 31 72 355 33 58 21533
leaf_count=133177 25358 29806 30 3044 3040 220 222 29 21 29 23 223 22 21 39 20 31 23 20 28 31 25 33 36 31 72 355 33 58 21533
internal_value=0 9.40384e-06 8.42658e-05 0.000843272 0.00138718 0.00389424 0.0044997 0.00596523 0.000374551 0.00927683 0.00783146 0.0029458 0.00466744 0.00840007 0.00590513 0.00362599 0.00412541 0.00326918 0.00973292 0.00961038 0.00897801 0.0069572 0.00975927 0.0134777 0.00190048 0.0042791 0.00468219 4.75717e-05 0.00754423 -8.77332e-06
internal_weight=0 192275 37565 7759 4715 1642 1401 721 241 203 174 680 518 113 92 405 385 334 51 145 70 86 58 59 253 457 427 3073 81 154710
internal_count=217633 192275 37565 7759 4715 1642 1401 721 241 203 174 680 518 113 92 405 385 334 51 145 70 86 58 59 253 457 427 3073 81 154710
shrinkage=0.05


Tree=103
num_leaves=31
num_cat=0
split_feature=18 3 7 17 14 29 7 1 12 36 36 36 18 13 3 8 32 36 36 32 2 3 32 13 13 36 36 17 9 3
split_gain=0.0559026 0.279883 0.171889 0.0861953 0.0895004 0.29051 0.0891153 0.110117 0.231465 0.084462 0.541402 0.0829828 0.0545883 0.292052 0.535247 0.200443 0.295181 0.42059 0.772528 0.0579305 0.158683 0.057435 0.0972636 0.596103 0.794169 0.765874 1.9092 0.497037 0.667344 0.203701
threshold=18.392150000000004 -4.8298799999999993 6.4682750000000014e-05 7.745845000000001 -6.4438349999999989e-07 0.0014581450000000003 4.7675400000000008e-05 4.8656050000000013 7.9739600000000016e-08 0.1751400000000001 -0.17527649999999997 0.010257000000000018 -19.754149999999996 2.3057600000000002e-06 -6.1953499999999995 3.7335250000000005e-05 0.86690500000000015 0.80350500000000014 -0.43704099999999996 0.14537000000000003 -1.5676099999999999 -7.4497099999999987 -0.43959349999999991 -1.1710799999999998e-05 -7.5351749999999975e-05 -0.49100999999999978 0.80350500000000014 4.023365000000001 -5.9599849999999995e-05 -17.495099999999997
decision_type=2 2 2 2 2 2 2 2 2 2 2 2 2 2 2 2 2 2 2 2 2 2 2 2 2 2 2 2 2 2
left_child=12 2 3 4 5 -2 7 -6 11 10 -5 -9 13 19 15 16 -15 18 -18 20 -1 22 23 24 29 -26 27 28 -27 -14
right_child=1 -3 -4 9 6 -7 -8 8 -10 -11 -12 -13 21 14 -16 -17 17 -19 -20 -21 -22 -23 -24 -25 25 26 -28 -29 -30 -31
leaf_value=0.0042779436513508424 -0.00024067383902956203 0.0056269753159722312 0.0041677920082023511 8.915099111745113e-05 -0.00030437232468759118 0.0052034253049274221 -0.003093362218073924 0.0020837866389659832 0.0047850038656474074 0.00061765098161816118 -0.0089433206223128812 -0.00081846465809836191 0.0051109586547681829 -0.00052955598528672636 0.0079989839267293594 -0.00080986455061945019 0.00046912135832826606 -0.00033000726736795677 0.014046798799906605 -0.0003973522519857051 -0.00013548151269458957 -3.501241061810079e-05 1.2441321590719474e-05 -0.0001537477425857741 -0.00039124801328025723 0.014555084669997019 -0.00022734649476279309 0.017699597897412985 0.0035380374390764965 -0.00010974916075031322
leaf_weight=26 69 25 27 79 302 38 21 38 37 56 21 70 20 53 31 91 20 28 22 523 94 85404 128631 1422 61 27 62 23 28 284
leaf_count=26 69 25 27 79 302 38 21 38 37 56 21 70 20 53 31 91 20 28 22 523 94 85404 128631 1422 61 27 62 23 28 284
internal_value=0 0.000421718 0.000250041 0.000105336 0.000388138 0.00169274 8.98621e-05 0.00023941 0.00137198 -0.000937041 -0.00180767 0.000202698 -1.52274e-06 0.000389698 0.00185868 0.000969195 0.00228541 0.00441674 0.00758124 -0.000170022 0.000820761 -3.13137e-06 1.77235e-05 0.000370318 0.001846 0.00428448 0.00632177 0.0115275 0.00894641 0.000233718
internal_weight=0 783 758 731 575 107 468 447 145 156 100 108 216850 888 245 214 123 70 42 643 120 215962 130558 1927 505 201 140 78 55 304
internal_count=217633 783 758 731 575 107 468 447 145 156 100 108 216850 888 245 214 123 70 42 643 120 215962 130558 1927 505 201 140 78 55 304
shrinkage=0.05


Tree=104
num_leaves=31
num_cat=0
split_feature=4 15 21 37 36 4 35 39 39 36 36 0 5 18 39 40 40 30 8 4 31 4 36 36 39 21 39 39 17 17
split_gain=0.056352 0.120319 1.2964 0.984886 3.67705 1.37503 1.28234 1.0061 0.948543 1.04319 1.0375 0.867999 0.823673 0.680754 0.761874 0.637946 0.799036 0.756625 0.579311 0.493335 0.483323 0.445765 0.440828 0.457848 0.438302 0.418483 0.407647 0.397791 0.624978 0.370515
threshold=-1.5265699999999998 -1.7388649999999999e-06 -0.24039599999999997 -0.33012499999999995 -0.25142799999999998 -0.20278049999999997 0.00042511250000000007 4.9203450000000002 -4.0456399999999988 -0.10081500000000009 0.10022550000000004 -4.7236949999999993 1.1853100000000002e-05 2.9920850000000008 0.76755000000000007 1.4428800000000004 -0.77194499999999999 1.9974350000000001 2.3813350000000005e-05 -0.63310749999999982 0.044432700000000006 -0.40498649999999997 0.10022550000000004 0.056773999999999998 -0.27803499999999998 -0.11556699999999999 -0.71725499999999964 -0.27803499999999998 7.9731000000000005 1.3891550000000004
decision_type=2 2 2 2 2 2 2 2 2 2 2 2 2 2 2 2 2 2 2 2 2 2 2 2 2 2 2 2 2 2
left_child=-1 2 3 -2 -5 6 19 8 -8 21 15 -12 -13 14 -14 16 -11 24 -17 -6 27 26 23 -21 -18 -3 -10 -7 -29 -28
right_child=1 25 -4 4 5 20 7 -9 9 10 11 12 13 -15 -16 18 17 -19 -20 22 -22 -23 -24 -25 -26 -27 29 28 -30 -31
leaf_value=-5.9437696612881366e-05 -2.5861886237235976e-06 -0.00011873615055265027 -5.6982169135753306e-05 7.5322002573475024e-05 -0.0013686836657066841 -0.00094680717052660502 -0.0028995906621275937 -0.00055021506651476218 0.019034245628863574 0.0069639292463502247 0.01663652346308889 0.00045196086558622916 0.012118585362063292 0.016369638334100062 -0.00052394997011023488 0.0039808192150667309 0.0053591406112536788 -0.0067100611636820053 0.016015259977430106 0.002564929464770068 -0.0035010586698011209 0.0045586682809516796 -0.0011357952309874629 0.0079909255705951227 0.0011735729579179421 5.9063452304628125e-05 0.0060177819843849414 0.0015470303028286357 0.01068239364627516 0.01509398129684004
leaf_weight=33702 4111 55435 36499 3724 95 158 32 76 20 112 29 34 26 26 22 20 100 23 20 523 65 20 74 42 167 82120 23 293 20 22
leaf_count=33702 4111 55435 36499 3724 95 158 32 76 20 112 29 34 26 26 22 20 100 23 20 523 65 20 74 42 167 82120 23 293 20 22
internal_value=0 1.08909e-05 8.05377e-05 0.000588722 0.00101031 0.00271545 0.00348949 0.00491214 0.00550861 0.00591382 0.00515448 0.00895615 0.00689383 0.00985361 0.00632409 0.00397613 0.00337694 0.00199162 0.00999804 0.00199319 0.000540603 0.0110863 0.002493 0.00296828 0.0027412 -1.25902e-05 0.0130948 0.00109837 0.00213076 0.010455
internal_weight=0 183931 46376 9877 5766 2042 1506 772 696 664 579 137 108 74 48 442 402 290 40 734 536 85 639 565 267 137555 65 471 313 45
internal_count=217633 183931 46376 9877 5766 2042 1506 772 696 664 579 137 108 74 48 442 402 290 40 734 536 85 639 565 267 137555 65 471 313 45
shrinkage=0.05


Tree=105
num_leaves=31
num_cat=0
split_feature=4 4 21 37 36 39 40 35 37 36 5 30 5 15 20 3 10 40 6 39 32 0 20 36 36 36 1 8 18 22
split_gain=0.0520952 0.0955668 2.00477 1.28134 5.70365 1.26459 1.19438 1.27588 1.37474 1.37745 1.07558 0.998683 0.982547 0.791612 0.749496 0.794034 0.713645 0.685504 0.621776 0.537864 0.765975 0.546801 0.523513 0.462892 0.790214 0.46737 0.496312 0.427826 0.373176 0.371694
threshold=2.9223900000000005 0.19669200000000001 0.24655200000000002 0.35345999999999994 0.2761725000000001 4.0888900000000019 3.6866600000000003 0.0005469880000000001 0.078754999999999922 0.12375499999999996 1.1508200000000001e-05 14.135600000000002 1.7650100000000002e-05 5.4626650000000007e-05 -7.8892249999999988 -11.334749999999998 1.9140700000000005e-05 1.3201050000000005 7.8911650000000013e-07 1.06199 0.14537000000000003 -4.429314999999999 -8.3897499999999976 -0.027530000000000051 -0.12496499999999998 0.039429999999999972 2.1386600000000002 2.6635100000000002e-05 1.8274200000000003 87.628850000000014
decision_type=2 2 2 2 2 2 2 2 2 2 2 2 2 2 2 2 2 2 2 2 2 2 2 2 2 2 2 2 2 2
left_child=1 -1 -3 4 5 6 7 13 9 17 -11 -7 18 23 15 -12 -14 19 22 20 -9 -21 -10 24 -4 -25 -27 -15 -29 -6
right_child=-2 2 3 -5 29 11 -8 8 12 10 14 -13 16 27 -16 -17 -18 -19 -20 21 -22 -23 -24 25 -26 26 -28 28 -30 -31
leaf_value=-8.4859194199102307e-06 -6.73612650570253e-05 -0.00010594328779138065 -0.0020136634517430572 -3.3499180750705014e-06 -1.5876779648188517e-05 -0.00064835356326015743 -0.00073422122299565337 0.0027864289539313303 0.011594806964017658 0.0019642332913698975 0.017683196496218443 0.010763898678123952 0.020385071124474054 0.0027460719315639199 0.021890436746180061 0.0043169117271900179 0.0085228959963257831 0.0092939616180956371 0.00067990232044114521 0.013298487006908373 -0.0049671002921673497 0.0039440670516341925 0.0034307994345134057 0.0020771305847342445 0.0086283760032282008 0.010452164536109195 0.0026700117536598727 0.00093099348925170487 -0.0053826423616225262 0.0053193196668430715
leaf_weight=154710 25358 29806 21 3044 3040 220 110 229 72 27 20 21 32 94 20 25 21 46 26 21 37 61 27 233 103 40 42 50 44 33
leaf_count=154710 25358 29806 21 3044 3040 220 110 229 72 27 20 21 32 94 20 25 21 46 26 21 37 61 27 233 103 40 42 50 44 33
internal_value=0 8.88387e-06 8.04207e-05 0.000796333 0.00131261 0.00369164 0.00426715 0.00469329 0.00622072 0.00484386 0.0103525 0.000346075 0.00997999 0.00307572 0.0138369 0.0102575 0.015685 0.00355758 0.00756108 0.00279933 0.00170793 0.00633971 0.00936826 0.00423835 0.0068261 0.00321968 0.00646618 0.000360873 -0.00202433 4.14163e-05
internal_weight=0 192275 37565 7759 4715 1642 1401 1291 664 486 92 241 178 627 65 45 53 394 125 348 266 82 99 439 124 315 82 188 94 3073
internal_count=217633 192275 37565 7759 4715 1642 1401 1291 664 486 92 241 178 627 65 45 53 394 125 348 266 82 99 439 124 315 82 188 94 3073
shrinkage=0.05


Tree=106
num_leaves=31
num_cat=0
split_feature=4 15 34 37 37 4 40 27 6 4 3 30 40 35 5 40 37 36 12 31 20 40 37 21 36 36 17 30 22 16
split_gain=0.0504845 0.0937954 1.15431 0.843929 3.64934 1.14142 1.41943 1.2181 1.20599 1.02023 1.01662 0.935709 0.826775 1.0836 0.815484 0.795956 0.914354 0.962517 0.677079 0.669553 0.650737 0.634741 0.631382 0.616657 0.939042 0.871891 0.640517 0.580855 0.527325 0.491612
threshold=-2.2787549999999999 -1.6062999999999998e-06 0.00031421350000000004 -0.25176499999999996 0.24875600000000014 0.019144700000000004 -1.7773799999999997 0.0053263050000000008 -3.2041749999999997e-06 -0.88881949999999998 -13.989599999999998 1.3837400000000002 -1.1956799999999992 0.029330700000000005 1.2076400000000002e-05 2.5130600000000003 -0.039869999999999954 -0.040859549999999939 -5.525729999999999e-07 0.17102100000000001 -16.164099999999994 0.31988499999999936 0.14791590000000002 -0.43859649999999994 0.077348000000000056 0.12375499999999996 7.9731000000000005 0.062021250000000007 0.50595050000000008 0.0025984850000000006
decision_type=2 2 2 2 2 2 2 2 2 2 2 2 2 2 2 2 2 2 2 2 2 2 2 2 2 2 2 2 2 2
left_child=-1 2 -2 -4 5 6 10 9 -9 -8 11 -5 -10 14 -14 16 23 22 -15 29 -7 -19 -18 24 -11 26 27 -25 -29 -16
right_child=1 -3 3 4 -6 20 7 8 12 15 -12 -13 13 18 19 -17 17 21 -20 -21 -22 -23 -24 25 -26 -27 -28 28 -30 -31
leaf_value=-6.201404338532965e-05 -0.00010587746593963783 -1.2454153072688019e-05 5.9204092038953754e-06 -0.00043503581158195931 3.8057998260598219e-05 0.0042942503872778152 -0.0018498378068376471 0.016504493251989556 0.011472452622838318 0.0036815313444960684 -0.00036659955535201026 0.013881557539105416 0.0015061185305115788 0.0041967011299372343 0.0072595187584869568 -0.00075168632639133648 0.0066625603724004617 0.0013667229583585706 -0.0067070494864934259 0.015456037265671928 -0.0038250931424030094 0.0044994012778442043 0.00038633325100675519 -0.00041315133201478183 0.014192994614673216 -0.0013533302670367179 0.01300274724713885 0.0126629689672532 0.00451443834414628 -0.0011834486195584758
leaf_weight=28518 34084 136695 8127 21 6927 31 136 23 40 42 601 25 94 24 125 160 187 1054 35 22 121 191 51 43 43 57 26 26 84 20
leaf_count=28518 34084 136695 8127 21 6927 31 136 23 40 42 601 25 94 24 125 160 187 1054 35 22 121 191 51 43 43 57 26 26 84 20
internal_value=0 9.35154e-06 6.6214e-05 0.000386107 0.00068876 0.00206213 0.00226762 0.00281114 0.00540432 0.00233819 0.000181726 0.00734572 0.00469514 0.00384798 0.00523134 0.0026282 0.00292797 0.00240426 -0.00227163 0.00732817 -0.00216917 0.00184732 0.00531765 0.00534747 0.0089991 0.00403227 0.00574724 0.00451428 0.00644045 0.00609497
internal_weight=0 189115 52420 18336 10209 3282 3130 2483 383 2100 647 46 360 320 261 1964 1804 1483 59 167 152 1245 238 321 85 236 179 153 110 145
internal_count=217633 189115 52420 18336 10209 3282 3130 2483 383 2100 647 46 360 320 261 1964 1804 1483 59 167 152 1245 238 321 85 236 179 153 110 145
shrinkage=0.05


Tree=107
num_leaves=31
num_cat=0
split_feature=17 0 15 21 26 34 36 4 2 36 2 10 20 1 26 13 13 32 2 2 32 0 26 9 12 11 36 36 22 4
split_gain=0.0484158 0.28557 0.309975 0.572539 0.463036 0.175907 0.333118 0.1263 0.107181 0.107656 0.0973264 0.0609511 0.44111 0.0777238 0.0592659 0.208085 0.442893 0.648243 0.071017 0.0861789 0.218348 0.0676832 0.0988623 0.060452 0.0496816 0.200833 0.0481921 1.22154 0.458791 0.395089
threshold=-14.223749999999997 -8.8447699999999987 -1.0730149999999997e-06 0.10159350000000002 0.70424300000000006 -0.21186449999999998 -0.12496499999999998 -0.086314049999999989 -2.7519549999999997 -0.19934349999999995 -2.6524249999999996 -3.6340149999999998e-05 -13.010249999999997 6.1111750000000002 0.089515950000000025 6.5238050000000013e-06 7.0201950000000013e-05 0.18330700000000003 2.8579150000000006 2.5006450000000005 0.18330700000000003 5.9730150000000011 -0.58729449999999994 3.3784900000000002e-05 1.1684500000000001e-07 0.00026116850000000005 0.02582950000000005 -0.018010000000000078 23.183300000000006 -0.3422659999999999
decision_type=2 2 2 2 2 2 2 2 2 2 2 2 2 2 2 2 2 2 2 2 2 2 2 2 2 2 2 2 2 2
left_child=1 2 3 4 -1 6 -4 -7 9 -3 -10 12 -12 -14 15 21 17 -17 19 -16 -21 24 23 -23 -13 -26 27 -2 29 -29
right_child=26 8 5 -5 -6 7 -8 -9 10 -11 11 14 13 -15 18 16 -18 -19 -20 20 -22 22 -24 -25 25 -27 -28 28 -30 -31
leaf_value=0.01111521457839239 -1.9395942075587082e-05 -0.00039671926157177007 -0.00069161922965577105 -0.002122978396480903 0.002244810740324153 0.0037770612463646105 0.0077290888547988448 -0.0004209410265418207 0.0033150766158739674 -0.0043740387943183084 0.006576886581701572 -0.00011248747088118143 -0.00060111142485576286 0.0024885975120772248 -0.00027446825304857313 -0.00043874083429757104 -0.00047936195268410606 0.0093042203162775356 -0.0026544613867978723 -0.0012350668911797888 0.0058386886199878066 -0.001407870965792697 -8.835806765522361e-05 -0.0047666284999216997 0.0056570535340870268 0.00020632446639281445 -2.7119262978463078e-05 -0.00056599445175323216 -0.0037134212419663651 0.00088018059277116607
leaf_weight=31 105296 46 24 25 28 20 23 172 23 27 29 317 134 24 1150 31 84 38 30 24 20 37 114 21 20 109 103702 517 58 5459
leaf_count=31 105296 46 24 25 28 20 23 172 23 27 29 317 134 24 1150 31 84 38 30 24 20 37 114 21 20 109 103702 517 58 5459
internal_value=0 0.000214429 0.00160576 0.00421847 0.00690553 0.000687488 0.00342915 1.63509e-05 1.71498e-05 -0.00186778 7.95535e-05 4.54485e-05 0.000908594 -0.000131789 -3.54579e-05 0.000307914 0.00195878 0.00492695 -0.000251749 -0.000191379 0.00198028 -0.000100795 -0.000943391 -0.00262397 0.000224152 0.0010514 -2.5937e-06 2.02514e-05 0.000712116 0.000755068
internal_weight=0 2601 323 84 59 239 47 192 2278 73 2205 2182 187 158 1995 771 153 69 1224 1194 44 618 172 58 446 129 215032 111330 6034 5976
internal_count=217633 2601 323 84 59 239 47 192 2278 73 2205 2182 187 158 1995 771 153 69 1224 1194 44 618 172 58 446 129 215032 111330 6034 5976
shrinkage=0.05


Tree=108
num_leaves=31
num_cat=0
split_feature=18 13 3 40 15 39 26 1 15 32 2 18 3 7 17 4 4 36 36 36 3 1 13 4 13 3 40 3 18 40
split_gain=0.0464047 0.255291 0.47587 0.138129 0.251817 0.338053 0.10124 0.0606455 0.0834823 0.0498327 0.137605 0.0466382 0.243838 0.158961 0.0765628 0.0852389 0.203826 0.379789 0.0756948 0.490056 0.070627 0.128048 0.0762129 0.20755 0.0486904 0.0473267 0.121752 0.3494 0.458705 0.27047
threshold=-19.754149999999996 2.3057600000000002e-06 -6.1953499999999995 -4.1937399999999991 0.00082871750000000014 -3.7428349999999995 -0.78911549999999997 -4.1965899999999996 -0.00059694499999999988 0.14537000000000003 -1.5676099999999999 18.392150000000004 -4.8298799999999993 6.4682750000000014e-05 7.745845000000001 -0.38361349999999994 -2.2787549999999999 -1.0422104999999997 0.1751400000000001 -0.17527649999999997 -5.5710999999999995 9.4357350000000029 9.9131400000000028e-06 2.6533750000000005 1.6824400000000002e-06 -7.4497099999999987 0.6060099999999996 -18.627349999999996 4.6976250000000013 -0.47859499999999983
decision_type=2 2 2 2 2 2 2 2 2 2 2 2 2 2 2 2 2 2 2 2 2 2 2 2 2 2 2 2 2 2
left_child=1 9 3 -3 6 -6 -5 8 -8 10 -1 25 13 14 15 16 -13 -18 19 -16 22 -22 24 -24 -17 26 27 28 -2 -29
right_child=11 2 -4 4 5 -7 7 -9 -10 -11 -12 12 -14 -15 18 20 17 -19 -20 -21 21 -23 23 -25 -26 -27 -28 29 -30 -31
leaf_value=0.0039757137979344968 0.0013825171293211668 0.0035862986401368219 0.0075238419674156648 -0.003072020724868855 0.008345743471727474 -0.00016542783299412027 -0.00074803181023093033 -0.0011523748560834141 0.0037656873145169817 -0.0003734444478970587 -0.00013414026876208928 -0.00060203197375874697 0.0052422329690307379 0.0039910030700007664 8.2334861499360553e-05 -0.00033734355782811853 -0.00062832363561028627 0.0070901398484720102 0.00057369871136156035 -0.0085111582452165237 -0.00034242304095159575 0.0044574696984758097 0.0054401387542990657 -0.0007833659442022091 -0.0028236427363784364 -3.1814277905877785e-05 -2.8541834540773926e-05 1.1102475575425998e-06 0.0096705920438944302 0.00024529757166171488
leaf_weight=26 101 39 31 37 20 28 21 49 20 523 94 59 25 27 79 316 30 34 56 21 33 24 21 37 21 85404 70452 44802 20 15183
leaf_count=26 101 39 31 37 20 28 21 49 20 523 94 59 25 27 79 316 30 34 56 21 33 24 21 37 21 85404 70452 44802 20 15183
internal_value=0 0.000360709 0.00173413 0.000895432 0.000295753 0.00338089 -0.000870284 3.48746e-05 0.00145378 -0.0001626 0.000756328 -1.47782e-06 0.000383711 0.00022347 8.43133e-05 0.000350845 0.00151785 0.00347211 -0.000898094 -0.0017223 3.32757e-05 0.00167858 -0.000204149 0.00146997 -0.000492276 -2.87437e-06 1.60566e-05 6.83316e-05 0.00275245 6.29173e-05
internal_weight=0 888 245 214 175 48 127 90 41 643 120 216745 783 758 731 575 123 64 156 100 452 57 395 58 337 215962 130558 60106 121 59985
internal_count=217633 888 245 214 175 48 127 90 41 643 120 216745 783 758 731 575 123 64 156 100 452 57 395 58 337 215962 130558 60106 121 59985
shrinkage=0.05


Tree=109
num_leaves=31
num_cat=0
split_feature=4 4 21 36 36 39 40 37 15 30 37 39 21 22 39 8 3 4 40 36 9 33 40 30 40 15 22 36 40 21
split_gain=0.0451369 0.0851798 1.75774 1.13938 5.03277 1.23158 1.21603 1.52424 1.5832 1.10453 1.05273 1.19298 0.834987 0.823228 0.711927 0.645534 0.654986 0.597435 0.743534 0.519499 0.476113 0.590668 0.417211 0.443027 0.416983 0.483667 0.403637 0.357216 0.680688 0.493506
threshold=3.0771300000000004 0.19669200000000001 0.24655200000000002 0.40779500000000007 -0.22452634999999985 2.84389 2.9908550000000012 0.078754999999999922 5.4626650000000007e-05 14.135600000000002 -0.057539999999999918 -0.77143500000000065 0.47318500000000002 2.2291500000000002 0.76755000000000007 1.3379750000000002e-05 -11.895549999999998 1.4464300000000001 1.0949350000000011 0.10022550000000004 6.2986800000000012e-05 -4.0691899999999991e-07 -1.8234799999999993 2.1557050000000006 -0.77194499999999999 6.4264150000000017e-05 23.183300000000006 0.10022550000000004 -0.68809499999999957 0.60591150000000005
decision_type=2 2 2 2 2 2 2 2 2 2 2 2 2 2 2 2 2 2 2 2 2 2 2 2 2 2 2 2 2 2
left_child=1 -1 -3 4 -4 6 7 10 14 -7 13 -12 -10 19 -9 -15 -17 18 27 -6 21 -14 -13 24 25 -24 -8 29 -29 -18
right_child=-2 2 3 -5 5 9 26 8 12 -11 11 22 20 15 -16 16 17 -19 -20 -21 -22 -23 23 -25 -26 -27 -28 28 -30 -31
leaf_value=-8.4361059653960056e-06 -6.3924692019629771e-05 -9.7779651012231943e-05 7.5651827366899802e-05 -2.5734815970464869e-05 0.0073167413356713951 -0.00025614643121484748 -0.0017615304899787146 0.0116982207146235 -0.0039423812559107319 0.011634565676961627 0.0086621548031468563 0.0081233549014931277 0.0098363974356445779 -0.00070696080103516579 0.023116712174378336 0.013442037409792343 0.010964662581682206 -0.0010143360955407845 -0.00067249447340145708 -0.00064384428997392093 0.013370341543729106 -0.00054217064394973796 0.0098032739635932065 -0.0045047462058181954 0.001706448741443071 0.00095047793950437135 0.0056747744955249479 0.007030773252049447 0.017111344545778326 0.00095749726010994473
leaf_weight=154710 24505 30485 3272 3024 32 279 107 43 20 21 79 28 29 20 20 54 28 20 20 57 24 26 36 26 530 27 22 33 34 22
leaf_count=154710 24505 30485 3272 3024 32 279 107 43 20 21 79 28 29 20 20 54 28 20 20 57 24 26 36 26 530 27 22 33 34 22
internal_value=0 8.11107e-06 7.47469e-05 0.000737733 0.00120804 0.00347143 0.00412107 0.00461383 0.0091269 0.000576203 0.00391486 0.00286176 0.00518383 0.00630409 0.0153231 0.00787823 0.00869199 0.00705822 0.00823669 0.00221839 0.00749427 0.00493017 0.00215352 0.00188348 0.00216357 0.00600922 -0.000493323 0.00975963 0.0121463 0.00656151
internal_weight=0 193128 38418 7933 4909 1637 1337 1208 162 300 1046 726 99 320 63 231 211 157 137 89 79 55 647 619 593 63 129 117 67 50
internal_count=217633 193128 38418 7933 4909 1637 1337 1208 162 300 1046 726 99 320 63 231 211 157 137 89 79 55 647 619 593 63 129 117 67 50
shrinkage=0.05


Tree=110
num_leaves=31
num_cat=0
split_feature=4 15 34 36 36 22 4 39 36 39 39 39 4 4 11 3 25 1 25 8 16 5 17 25 17 40 36 39 34 39
split_gain=0.0426618 0.0845073 1.02882 0.747719 3.04115 1.0469 1.73869 0.846015 0.829336 0.729437 0.635034 0.741916 0.555291 0.596895 0.515275 0.543572 0.466198 0.483982 0.64744 0.725697 0.601808 0.752398 0.512583 0.446533 0.445261 0.432005 0.47579 0.589176 0.589143 0.585798
threshold=-2.2787549999999999 -1.6062999999999998e-06 0.00031421350000000004 0.327845 -0.25142799999999998 3.7654200000000002 -0.26743249999999991 1.1890849999999997 -0.10081500000000009 0.80790999999999979 -3.0299649999999994 1.5956900000000005 0.038924450000000006 -0.88881949999999998 0.00022094500000000003 -6.2531049999999988 -0.96676949999999995 3.6485900000000004 0.11940450000000001 3.5202800000000008e-05 0.0018801250000000003 1.3813450000000001e-05 -3.3588049999999998 0.23134650000000004 8.3915400000000009 2.5130600000000003 -0.040859549999999939 -1.1067849999999997 0.010018650000000002 -0.32314999999999999
decision_type=2 2 2 2 2 2 2 2 2 2 2 2 2 2 2 2 2 2 2 2 2 2 2 2 2 2 2 2 2 2
left_child=-1 2 -2 4 -4 7 8 9 10 12 -7 -12 13 -6 -10 16 -16 18 19 22 21 -19 -18 -23 -8 26 27 -15 -29 -28
right_child=1 -3 3 -5 5 6 24 -9 14 -11 11 -13 -14 25 15 -17 17 20 -20 -21 -22 23 -24 -25 -26 -27 29 28 -30 -31
leaf_value=-5.7007321381801696e-05 -9.9898007334055046e-05 -1.2101355517647881e-05 3.485805685244415e-05 -1.8728573514326054e-06 -0.0014666295155796932 0.0011779096687123888 -0.0010688272794536517 -0.00012019548260284442 0.010694797020200727 0.0071446013535933165 0.013856980397160781 0.0030984622574496 -0.0027192380844580305 -0.00070692672881322285 -0.0033909835340455181 -0.002497324409127674 0.002200355548744223 -0.00028922038847778106 0.014369129646802321 0.001926118303958689 -0.0054658687356012791 0.004013311587041244 0.0092129439381524736 0.012531623050570487 0.0053565655081089765 -0.00048363422960454928 0.0041945383690919977 0.0080987637523109116 0.00036624533404392426 0.001559880024760573
leaf_weight=28518 34084 136695 6918 7913 124 21 207 710 27 64 59 22 68 38 20 34 35 66 20 107 22 40 102 25 31 145 260 107 32 1119
leaf_count=28518 34084 136695 6918 7913 124 21 207 710 27 64 59 22 68 38 20 34 35 66 20 107 22 40 102 25 31 145 260 107 32 1119
internal_value=0 8.59654e-06 6.25702e-05 0.000364575 0.000642778 0.00184266 0.00338424 0.00135828 0.00481865 0.00189467 0.00892612 0.0109349 0.00171718 0.00188248 0.00397736 0.00359229 0.00406608 0.00442373 0.00572049 0.00501159 0.00218618 0.00347126 0.00742141 0.00728959 -0.000231906 0.00212662 0.00236987 0.00481031 0.00631862 0.00205662
internal_weight=0 189115 52420 18336 10423 3505 838 2667 600 1957 102 81 1893 1825 498 471 437 417 264 244 153 131 137 65 238 1701 1556 177 139 1379
internal_count=217633 189115 52420 18336 10423 3505 838 2667 600 1957 102 81 1893 1825 498 471 437 417 264 244 153 131 137 65 238 1701 1556 177 139 1379
shrinkage=0.05


Tree=111
num_leaves=31
num_cat=0
split_feature=37 18 18 13 3 8 31 19 3 22 32 2 18 3 7 35 4 8 21 3 8 36 36 36 16 3 39 11 37 36
split_gain=0.041437 1.27217 0.0425186 0.228375 0.430334 0.174078 0.26435 0.149582 0.121832 0.0699514 0.0463932 0.144633 0.0410073 0.216651 0.144034 0.0722679 0.184713 0.124982 0.176502 0.0847853 0.196059 0.10662 0.798774 0.099074 0.0881358 0.0431379 0.181351 0.246261 0.374049 1.29579
threshold=5.6849350000000003 -3.7984549999999992 -19.754149999999996 2.3057600000000002e-06 -6.1953499999999995 3.7335250000000005e-05 1.6674650000000002 0.47223950000000009 -8.0464099999999981 38.031000000000013 0.14537000000000003 -1.5676099999999999 18.392150000000004 -4.8298799999999993 6.4682750000000014e-05 0.17438400000000001 -1.3105149999999999 1.9891650000000005e-05 -1.2617699999999996 -5.5710999999999995 3.5838500000000006e-05 -0.17527649999999997 0.14973499999999998 -0.57440449999999987 5.8709150000000007e-05 -11.042399999999999 -1.7757399999999997 0.015505300000000001 0.32610899999999998 0.1751400000000001
decision_type=2 2 2 2 2 2 2 2 2 2 2 2 2 2 2 2 2 2 2 2 2 2 2 2 2 2 2 2 2 2
left_child=2 -2 3 10 5 6 7 8 9 -5 11 -1 25 14 15 19 -17 18 -18 21 -21 23 -23 -14 -24 26 -4 28 29 -28
right_child=1 -3 12 4 -6 -7 -8 -9 -10 -11 -12 -13 13 -15 -16 16 17 -19 -20 20 -22 22 24 -25 -26 -27 27 -29 -30 -31
leaf_value=0.0042078843088044476 0.0098248159484121394 -4.562294921050267e-05 -2.9250458106061816e-05 -0.0002030130998589032 0.0071484797498992383 -0.00081275192141030148 0.0060649725018940386 0.0043225221084040562 0.0026771201351948552 -0.0040746521950882205 -0.00035404063889645198 -0.00014097949244503671 -0.00017698464223091031 0.004938473441638053 0.0037934872780978264 0.004196078430044616 -0.00029154642653728455 -0.0004724234333750672 0.0056198013998452912 0.0053556918772561142 -0.00094341086170364485 -0.0084644538907785762 0.0025496972965606069 0.0032570227849013779 -0.00048447434808860556 -1.8098359318588326e-05 0.0012933704374357537 -0.00010192775514309202 -7.0195681198355673e-05 1.7374014751651398e-05
leaf_weight=24 34 819 40423 28 31 91 31 22 22 20 523 94 242 25 27 34 28 158 23 21 30 33 31 23 105 154658 3095 6373 4994 5571
leaf_count=24 34 819 40423 28 31 91 31 22 22 20 523 94 242 25 27 34 28 158 23 21 30 33 31 23 105 154658 3095 6373 4994 5571
internal_value=0 0.000347806 -1.36857e-06 0.000344295 0.00164274 0.00084518 0.00207178 0.000726247 -0.000404011 -0.0018162 -0.000151991 0.000743535 -2.78713e-06 0.000359095 0.00020746 7.44618e-05 0.000778255 0.000222245 0.00237436 -0.00027816 0.00165034 -0.000504781 -0.00148613 0.000121061 0.000207138 -4.09931e-06 3.17129e-05 0.000154726 0.000274467 0.000473087
internal_weight=0 853 216780 886 245 214 123 92 70 48 641 118 215894 780 755 728 243 209 51 485 51 434 169 265 136 215114 60456 20033 13660 8666
internal_count=217633 853 216780 886 245 214 123 92 70 48 641 118 215894 780 755 728 243 209 51 485 51 434 169 265 136 215114 60456 20033 13660 8666
shrinkage=0.05


Tree=112
num_leaves=31
num_cat=0
split_feature=30 3 17 37 37 29 32 13 39 39 18 19 37 18 4 4 21 39 37 37 29 3 17 31 2 18 39 21 4 4
split_gain=0.0387738 0.207167 0.187412 0.238395 0.756063 0.530163 0.464581 0.40996 0.277901 0.475696 0.327162 0.391666 0.136761 0.0879865 0.0832415 0.286488 0.645851 0.647742 0.875401 1.20169 0.975849 0.60564 0.49925 0.237927 0.0959693 0.0754409 0.0718094 0.160808 0.320268 1.01054
threshold=3.2423100000000002 -15.510599999999998 16.002400000000005 0.70899650000000014 -0.60497499999999982 -0.00020540699999999998 -0.60180299999999987 -5.9166999999999996e-08 4.3033550000000007 1.9002500000000004 3.3144750000000003 -0.66781149999999989 -4.952469999999999 -2.6213749999999996 -0.54650249999999989 -2.3911599999999997 -0.82489099999999993 5.2734150000000009 -0.71931549999999989 0.54185499999999998 0.0002933525000000001 -11.394249999999998 4.394750000000001 0.33249250000000002 -1.5877199999999998 -10.950149999999999 0.55890500000000032 1.1195950000000001 0.79460700000000006 2.3910900000000006
decision_type=2 2 2 2 2 2 2 2 2 2 2 2 2 2 2 2 2 2 2 2 2 2 2 2 2 2 2 2 2 2
left_child=-1 2 3 4 12 6 -6 -8 9 10 11 13 -2 -7 15 -3 17 18 -17 20 -20 -19 23 -22 -21 -23 27 -16 -29 -30
right_child=1 14 -4 -5 5 8 7 -9 -10 -11 -12 -13 -14 -15 26 16 -18 21 19 24 22 25 -24 -25 -26 -27 -28 28 29 -31
leaf_value=-4.6106605952839441e-06 0.003663062976430292 -0.00016887498192928735 -0.0016327666874702486 -7.5492406398108445e-05 0.013864462468994872 -0.0020081506285350771 -0.00024393389633457576 0.0093220955537011221 -0.0031601427245186646 0.0096784837624948952 -0.0026649526941279573 0.0078945222776383162 -0.00037449746698779138 0.00268190515369497 -0.00082860526486185646 -0.00068497939875197963 -0.00044829475462435445 0.0075509338156105237 0.0018455388645331066 0.0025402056425303712 0.014325716309249401 0.002190681312531524 0.01998987171710247 0.0066132691781967878 -0.0020789989874008988 -0.0010936693307589949 1.5505798873461139e-05 -0.00075523528262684829 0.010006266201415918 -0.00049331691725334776
leaf_weight=207719 23 1121 69 276 21 20 21 24 20 23 30 30 238 20 732 54 343 26 24 23 20 20 21 20 22 139 6253 173 33 75
leaf_count=207719 23 1121 69 276 21 20 21 24 20 23 30 30 238 20 732 54 343 26 24 23 20 20 21 20 22 139 6253 173 33 75
internal_value=0 9.6603e-05 0.000860306 0.0010909 0.00177584 0.00401687 0.00772366 0.00485795 0.00230605 0.00319486 0.00170362 0.00357587 -1.86971e-05 0.000336877 2.81979e-05 0.000329297 0.00111364 0.00256552 0.00466608 0.00688882 0.0103866 0.000476313 0.013747 0.0104695 0.000281928 -0.000680543 -4.77607e-05 -0.000438289 0.000578478 0.00271489
internal_weight=0 9914 815 746 470 209 66 45 143 123 100 70 261 40 9099 1833 712 369 184 130 85 185 61 40 45 159 7266 1013 281 108
internal_count=217633 9914 815 746 470 209 66 45 143 123 100 70 261 40 9099 1833 712 369 184 130 85 185 61 40 45 159 7266 1013 281 108
shrinkage=0.05


Tree=113
num_leaves=31
num_cat=0
split_feature=4 27 4 21 37 36 4 3 30 22 40 36 37 39 5 9 18 39 18 8 20 21 32 35 39 3 30 39 39 18
split_gain=0.0379401 0.0722093 0.0580533 1.31565 0.898283 4.43482 1.21743 1.25584 1.38474 1.1388 0.904881 0.916186 1.079 1.22178 1.01298 0.626287 0.705674 0.588237 0.508775 0.472606 0.595709 0.454517 0.422854 0.427963 0.418745 0.833188 0.578437 0.439088 0.433608 0.332265
threshold=4.1822950000000008 0.0041875850000000015 0.19669200000000001 0.24655200000000002 0.35345999999999994 0.2761725000000001 1.5563800000000001 -14.818499999999998 3.5771350000000006 2.5401000000000002 3.6866600000000003 0.077348000000000056 0.078754999999999922 4.2289650000000005 1.7650100000000002e-05 4.247685000000001e-05 -7.0365699999999984 2.1697850000000001 2.9920850000000008 3.4769000000000005e-05 -8.3897499999999976 0.73617500000000013 -0.016104499999999997 0.005313420000000001 1.3091549999999998 -9.2899249999999984 2.1557050000000006 -0.77143500000000065 0.76755000000000007 -8.4289549999999984
decision_type=2 2 2 2 2 2 2 2 2 2 2 2 2 2 2 2 2 2 2 2 2 2 2 2 2 2 2 2 2 2
left_child=2 -2 -1 -4 5 6 9 8 -8 17 11 12 24 14 19 16 -13 -5 -16 20 21 -14 -18 -24 26 -26 27 -11 -29 -9
right_child=1 -3 3 4 -6 -7 7 29 -10 10 -12 15 13 -15 18 -17 22 -19 -20 -21 -22 -23 23 -25 25 -27 -28 28 -30 -31
leaf_value=-8.3535712563561188e-06 -2.9342008549840131e-05 -0.00031999233180736572 -8.0638836328581485e-05 0.0029379330672351278 -1.6973027039511687e-05 2.0464689580409578e-05 0.00030079454341570719 0.004730774131045716 0.017063659099353989 0.0077021276101558699 -0.0017102724010934862 0.014837653546904526 0.016796586334705352 -0.00036289771505368829 0.010938517279922962 0.014888938234159441 -0.0012122948071919383 -0.00067446918160696864 0.021495313569903376 0.0014386806781564294 0.0025206003280472942 0.0075969064046211288 0.010959103954438535 0.0036082050096328286 0.015175586109980941 0.0020005746309955919 -0.0051125473071200155 0.0015915248918769239 0.008252368123686649 -0.0014120059148032503
leaf_weight=154710 15219 2486 35977 494 3686 3777 28 24 22 42 48 24 25 39 25 33 20 146 21 29 25 29 36 44 20 30 24 257 27 266
leaf_count=154710 15219 2486 35977 494 3686 3777 28 24 22 42 48 24 25 39 25 33 20 146 21 29 25 29 36 44 20 30 24 257 27 266
internal_value=0 -7.01529e-05 6.21252e-06 5.60493e-05 0.000588203 0.000989765 0.00304885 0.00035814 0.00767645 0.00368504 0.00494513 0.00537108 0.00447188 0.00754235 0.00954433 0.0087674 0.00713828 0.00211385 0.0157579 0.00689779 0.00890177 0.011856 0.00529043 0.00691611 0.00299038 0.00727058 0.00237893 0.00293045 0.00222477 -0.000903638
internal_weight=0 17705 199928 45218 9241 5555 1778 340 50 1438 798 750 593 193 154 157 124 640 46 108 79 54 100 80 400 50 350 326 284 290
internal_count=217633 17705 199928 45218 9241 5555 1778 340 50 1438 798 750 593 193 154 157 124 640 46 108 79 54 100 80 400 50 350 326 284 290
shrinkage=0.05


Tree=114
num_leaves=31
num_cat=0
split_feature=37 33 23 39 40 10 36 36 36 11 23 32 28 13 13 9 15 36 29 17 7 13 36 19 5 32 19 15 36 11
split_gain=0.0376375 0.266147 0.0871701 0.0359478 0.551797 0.399142 0.415273 0.711447 0.503796 0.853207 0.325314 0.44635 0.331411 0.31954 0.60791 0.244434 0.3582 0.259659 0.441572 0.220518 0.611627 0.657755 0.861941 1.04183 0.505819 0.184176 0.284633 0.234159 0.18087 1.01733
threshold=5.6849350000000003 1.2277200000000002e-05 0.0033062250000000007 -0.12174999999999957 -0.16918499999999967 3.3176100000000009e-05 0.14973499999999998 -0.27744100000000016 0.077348000000000056 0.00047127200000000006 -0.0029059199999999998 0.046686200000000004 -0.27584949999999991 4.1207450000000003e-07 -3.5700899999999991e-07 -0.00012512549999999997 -0.00016939049999999998 0.039429999999999972 -1.8227649999999998e-06 14.554100000000002 3.5461000000000012e-05 8.2193200000000006e-07 0.30085850000000008 -0.20719599999999996 2.5175700000000004e-05 0.0070919350000000006 0.05815710000000001 1.1699350000000001e-06 -0.040859549999999939 9.1514950000000017e-05
decision_type=2 2 2 2 2 2 2 2 2 2 2 2 2 2 2 2 2 2 2 2 2 2 2 2 2 2 2 2 2 2
left_child=3 2 -2 -1 19 6 7 -6 10 -10 -9 12 13 14 -12 -14 -17 28 -19 -5 -21 25 23 -23 -25 26 27 -22 29 -18
right_child=1 -3 -4 4 5 -7 -8 8 9 -11 11 -13 15 -15 -16 16 17 18 -20 20 21 22 -24 24 -26 -27 -28 -29 -30 -31
leaf_value=-2.7396019605566641e-05 8.3524666019952373e-05 0.0056370434732145999 0.002785855773629831 -1.8528662855792888e-05 -0.00012653439290035971 -0.00022732118575240201 -0.00010773018831924738 -0.004950070935923246 0.014171053962782027 0.0012907855859440234 -0.00025194575167628692 0.0079444166854955259 0.0066909648307773755 0.0025422031821411414 -0.010852150616812564 -0.0050714859554199911 -0.0071564732078948749 -0.00047211465200469377 0.0073189066622448579 1.0651946073615345e-05 -0.00050564615582569621 0.018415914057099837 -0.00040458297823230778 0.009995249315397815 -0.00050088605044451974 -0.00068765894956162275 0.0066810172086531703 0.0056489146375679408 0.0010343228389587194 0.0041031414936563582
leaf_weight=82047 799 23 31 124839 1449 1955 1635 22 20 36 38 24 20 27 21 23 23 31 44 940 68 21 36 24 22 94 28 20 3116 157
leaf_count=82047 799 23 31 124839 1449 1955 1635 22 20 36 38 24 20 27 21 23 23 31 44 940 68 21 36 24 22 94 28 20 3116 157
internal_value=0 0.000331477 0.000184455 -1.30432e-06 1.45845e-05 0.000401116 0.000584872 0.000809066 0.00118544 0.00589088 0.00111113 0.00114896 0.00110237 -0.00196314 -0.0040249 0.00117959 0.00114711 0.00118954 0.00409862 -1.19042e-05 0.000648102 0.00256249 0.0058353 0.00918807 0.00497536 0.000957252 0.0022902 0.000893118 0.00112334 0.00266441
internal_weight=0 853 830 216780 134733 8641 6686 5051 3602 56 3546 3524 3500 86 59 3414 3394 3371 75 126092 1253 313 103 67 46 210 116 88 3296 180
internal_count=217633 853 830 216780 134733 8641 6686 5051 3602 56 3546 3524 3500 86 59 3414 3394 3371 75 126092 1253 313 103 67 46 210 116 88 3296 180
shrinkage=0.05


Tree=115
num_leaves=31
num_cat=0
split_feature=17 0 15 21 26 34 36 4 2 25 2 10 20 1 26 13 16 32 2 2 11 0 26 9 0 12 11 0 26 37
split_gain=0.037305 0.236129 0.266541 0.496972 0.414735 0.152288 0.289921 0.118123 0.0999986 0.100565 0.0852467 0.0522949 0.386003 0.0649433 0.0512099 0.180585 0.397523 0.84125 0.0639072 0.0749858 0.203852 0.0615832 0.0914827 0.0526258 0.0460784 0.0436838 0.176064 0.0389781 0.0874326 0.0354234
threshold=-14.223749999999997 -8.8447699999999987 -1.0730149999999997e-06 0.10159350000000002 0.70424300000000006 -0.21186449999999998 -0.12496499999999998 -0.086314049999999989 -2.7519549999999997 -0.060167999999999992 -2.6524249999999996 -3.6340149999999998e-05 -13.010249999999997 6.1111750000000002 0.089515950000000025 6.5238050000000013e-06 0.0017507150000000001 0.18330700000000003 2.8579150000000006 2.5006450000000005 0.0098803550000000021 5.9730150000000011 -0.58729449999999994 3.3784900000000002e-05 -4.429314999999999 1.1684500000000001e-07 0.00026116850000000005 1.9180150000000002 -0.58729449999999994 -0.026150000000000003
decision_type=2 2 2 2 2 2 2 2 2 2 2 2 2 2 2 2 2 2 2 2 2 2 2 2 2 2 2 2 2 2
left_child=1 2 3 4 -1 6 -4 -7 9 -3 -10 12 -12 24 15 21 17 -17 19 -16 -21 25 23 -23 -14 27 -27 -13 -29 -2
right_child=29 8 5 -5 -6 7 -8 -9 10 -11 11 14 13 -15 18 16 -18 -19 -20 20 -22 22 -24 -25 -26 26 -28 28 -30 -31
leaf_value=0.010363682478125538 -2.3307385207263059e-05 -0.0040977559638498678 -0.00069146130663284573 -0.002032007020781748 0.0019686715508214548 0.0036143635248299688 0.0071643175779963321 -0.00044547362579335235 0.0030971941153478365 -0.00030522147466068754 0.0061391218635153252 -0.00039475959400455085 -0.0026575466988354246 0.0022587446940936693 -0.00025904228513123282 -0.00042358669425084376 -8.9951046898857729e-05 0.011995316190179439 -0.0025180747772780405 0.005405866298575087 -0.0014077828336588067 -0.0013850294196320622 -8.054223299878734e-05 -0.0045188397512815537 -0.00015460388228802913 0.0052986441773828124 0.00019510492355794009 0.0037334547518548793 -0.00020137153010561329 1.7306054876350897e-05
leaf_weight=31 103683 29 24 25 28 20 23 172 23 44 29 249 22 24 1150 30 98 25 30 21 23 37 114 21 112 20 109 20 48 111349
leaf_count=31 103683 29 24 25 28 20 23 172 23 44 29 249 22 24 1150 30 98 25 30 21 23 37 114 21 112 20 109 20 48 111349
internal_value=0 0.000188223 0.0014534 0.00387615 0.00637961 0.000601883 0.00315286 -2.25739e-05 8.83269e-06 -0.00181184 6.91091e-05 3.71907e-05 0.000836699 -0.00013653 -3.77507e-05 0.000281432 0.00181935 0.00522137 -0.000238804 -0.000181536 0.00184419 -9.93141e-05 -0.000903044 -0.00251968 -0.000565535 0.000210644 0.000986351 -0.000105022 0.00095593 -2.27672e-06
internal_weight=0 2601 323 84 59 239 47 192 2278 73 2205 2182 187 158 1995 771 153 55 1224 1194 44 618 172 58 134 446 129 317 68 215032
internal_count=217633 2601 323 84 59 239 47 192 2278 73 2205 2182 187 158 1995 771 153 55 1224 1194 44 618 172 58 134 446 129 317 68 215032
shrinkage=0.05


Tree=116
num_leaves=31
num_cat=0
split_feature=18 3 7 39 39 2 12 13 13 31 39 13 3 32 13 13 36 36 18 22 39 11 36 36 24 4 39 30 18 36
split_gain=0.0351354 0.190672 0.126134 0.0573782 0.142146 0.104597 0.205616 0.098218 0.216024 0.0866137 0.10047 0.0793097 0.0377035 0.156317 0.591384 0.621857 0.589598 1.14577 0.386701 0.166226 0.119344 0.222031 0.280988 1.14472 0.512063 1.28945 1.06339 1.23963 0.946471 0.745177
threshold=18.392150000000004 -4.8298799999999993 6.4682750000000014e-05 0.51814999999999956 0.76755000000000007 1.1481900000000003 7.9739600000000016e-08 2.9426600000000004e-05 8.953990000000002e-05 -0.052110149999999994 1.9902050000000007 4.3089250000000013e-06 -11.042399999999999 -0.43959349999999991 -1.3281999999999998e-05 -7.5351749999999975e-05 0.8902650000000002 -0.49100999999999978 -0.091024949999999979 53.742400000000011 -1.5196849999999988 0.015505300000000001 -0.30278099999999991 0.1751400000000001 1.3081100000000003 -1.5265699999999998 1.06199 2.6849000000000003 -5.4139599999999986 -0.10081500000000009
decision_type=2 2 2 2 2 2 2 2 2 2 2 2 2 2 2 2 2 2 2 2 2 2 2 2 2 2 2 2 2 2
left_child=12 2 3 7 -5 -6 9 11 -9 10 -7 -2 13 14 15 19 17 -17 -19 -1 -15 22 -22 24 -24 -26 27 29 -28 -27
right_child=1 -3 -4 4 5 6 -8 8 -10 -11 -12 -13 -14 20 -16 16 -18 18 -20 -21 21 -23 23 -25 25 26 28 -29 -30 -31
leaf_value=2.1860582369949303e-05 -0.00048117375170061283 0.0046306556388735773 0.0035486866504436838 0.0046312487601244358 -0.00044492235014233081 0.0045412637899581955 0.0052723885874406233 0.0050698314248002136 -0.00055187280578576506 -0.00087501661377230506 -0.00034969922131018565 -0.0031469955852615737 -1.4237420490139947e-05 -2.5160354549995191e-05 -0.00015241836125288696 -0.00055516052890687627 -0.00042147889451308435 0.0083270195964292651 0.017149629508671556 0.0040683007697694968 -6.3850927279696394e-05 -0.0001283228424055456 0.0008587089449288599 -2.573878457010897e-05 -0.0084587535478371691 0.0072960295488883279 0.012080766039434821 -0.0070975149503762006 0.0039735360881321766 0.0013978789779751581
leaf_weight=140 279 25 27 20 194 21 27 25 54 59 21 31 155939 41322 642 26 29 27 23 31 4707 5843 2294 5179 26 64 48 38 144 328
leaf_count=140 279 25 27 20 194 21 27 25 54 59 21 31 155939 41322 642 26 29 27 23 31 4707 5843 2294 5179 26 64 48 38 144 328
internal_value=0 0.000334333 0.000192634 6.86754e-05 0.000541115 0.00028707 0.0013965 -0.000346683 0.00122715 0.000360365 0.00209578 -0.000747756 -1.20721e-06 3.21516e-05 0.000679672 0.00261519 0.00564394 0.00795838 0.0123854 0.000755426 2.22434e-05 0.000127156 0.000243523 0.00042168 0.0012093 0.00245044 0.00290645 0.00152499 0.00600034 0.00236084
internal_weight=0 783 758 731 342 322 128 389 79 101 42 310 216850 60911 918 276 105 76 50 171 59993 18671 12828 8121 2942 648 622 430 192 392
internal_count=217633 783 758 731 342 322 128 389 79 101 42 310 216850 60911 918 276 105 76 50 171 59993 18671 12828 8121 2942 648 622 430 192 392
shrinkage=0.05


Tree=117
num_leaves=31
num_cat=0
split_feature=18 13 1 3 11 32 1 13 40 12 37 36 36 40 36 37 18 0 36 18 23 22 13 32 16 36 36 17 40 27
split_gain=0.0342821 0.195466 0.468621 0.206978 0.253658 0.0610474 0.155933 0.287879 0.0493117 0.0583867 0.0415291 0.157474 0.0992051 0.147026 0.0358976 0.035279 1.20757 0.0346533 0.0340395 1.1095 0.0401758 0.0397541 0.16699 0.374508 0.519877 0.683159 2.28108 0.860007 1.03067 1.03316
threshold=-19.754149999999996 6.5238050000000013e-06 -8.8547249999999984 -12.665349999999998 0.017185350000000002 0.14537000000000003 -2.5377799999999993 6.0944250000000013e-08 -1.69079 6.3536550000000009e-06 -0.66104499999999999 -0.32870999999999989 0.1751400000000001 -1.0250350000000001 1.1294060000000001 5.6849350000000003 -3.7984549999999992 -11.535399999999997 5.6762150000000009 4.4724750000000002 -0.0037174099999999996 5.8644050000000005 8.2193200000000006e-07 0.018509300000000003 0.00093784150000000008 -0.3819765 0.30085850000000008 14.554100000000002 -1.69079 0.053348600000000003
decision_type=2 2 2 2 2 2 2 2 2 2 2 2 2 2 2 2 2 2 2 2 2 2 2 2 2 2 2 2 2 2
left_child=1 5 -3 4 -4 6 7 -1 14 -10 17 -12 13 -13 -5 18 -17 -7 21 20 -20 -2 -23 -24 25 -25 27 28 -27 -30
right_child=15 2 3 8 -6 10 -8 -9 9 -11 11 12 -14 -15 -16 16 -18 -19 19 -21 -22 22 23 24 -26 26 -28 -29 29 -31
leaf_value=9.815158106253617e-05 3.810458317884172e-06 0.007561087222561113 -0.00030723734629039732 -0.003286236576968804 0.0068210824067556622 0.0021085121914802586 -0.00062201889732760556 0.0075031529367801594 0.0017563781415829956 -0.0010535794095732046 4.5362646481220618e-05 -0.0013984878769233114 -0.00088292905456910376 -0.0073885936697479339 -0.00051273045563188398 0.0098486036178655929 -5.2272195652276271e-05 -4.9576091631484492e-05 0.0021937465237074536 0.011950215417527943 -2.1082850047487639e-05 -0.00015232739984437596 -0.00026626745334376627 -1.0768169121124659e-05 -4.5678151859753707e-05 -0.00099363784477310749 -4.3163219906598051e-05 0.013795484319329263 0.0062526053143226639 -0.0054943425767123707
leaf_weight=35 191131 29 24 20 26 20 74 21 38 36 187 21 43 20 28 32 819 266 21 20 819 16590 3244 785 2284 76 587 25 292 20
leaf_count=35 191131 29 24 20 26 20 74 21 38 36 187 21 43 20 28 32 819 266 21 20 819 16590 3244 785 2284 76 587 25 292 20
internal_value=0 0.000310034 0.00168148 0.000690156 0.00339949 -9.122e-05 0.000884401 0.00287503 -0.000420227 0.000389372 -0.000318923 -0.000762447 -0.00256079 -0.00432049 -0.00166836 -1.2702e-06 0.000320029 0.000101339 -2.53668e-06 0.000311402 3.42879e-05 -3.79224e-06 -6.45843e-05 0.000134467 0.000453951 0.00109325 0.00195991 0.00480689 0.00422773 0.0054996
internal_weight=0 888 201 172 50 687 130 56 122 74 557 271 84 41 48 216745 851 286 215894 860 840 215034 23903 7313 4069 1785 1000 413 388 312
internal_count=217633 888 201 172 50 687 130 56 122 74 557 271 84 41 48 216745 851 286 215894 860 840 215034 23903 7313 4069 1785 1000 413 388 312
shrinkage=0.05


Tree=118
num_leaves=31
num_cat=0
split_feature=18 3 7 35 10 8 4 3 8 36 36 36 16 3 35 39 0 11 11 39 11 17 0 39 36 37 18 32 13 17
split_gain=0.0330191 0.172046 0.112062 0.0637606 0.156936 0.229122 0.216935 0.0706763 0.172491 0.10093 0.701542 0.0833824 0.0791689 0.0344337 0.164001 0.147167 0.175782 0.246015 0.646927 0.11084 0.209418 0.287442 0.742096 1.39832 0.827606 1.2541 0.76568 0.460543 0.397473 0.353279
threshold=18.392150000000004 -4.8298799999999993 6.4682750000000014e-05 0.17438400000000001 2.6137250000000005e-05 1.9891650000000005e-05 -1.3105149999999999 -5.5710999999999995 3.5838500000000006e-05 -0.17527649999999997 0.14973499999999998 -0.57440449999999987 5.8709150000000007e-05 -11.042399999999999 2.3303150000000001 5.2734150000000009 -4.8003249999999991 0.017185350000000002 0.049864050000000007 -1.7757399999999997 0.015505300000000001 -6.2436999999999996 -3.6002049999999994 0.8945249999999999 -0.19934349999999995 -0.2272394999999999 0.69234250000000008 -0.30938449999999995 -2.2582199999999995e-06 -10.617499999999998
decision_type=2 2 2 2 2 2 2 2 2 2 2 2 2 2 2 2 2 2 2 2 2 2 2 2 2 2 2 2 2 2
left_child=13 2 3 7 -5 -6 -7 9 -9 11 -11 -2 -12 14 19 -16 -17 -18 -19 -1 21 22 23 27 -25 28 -27 -21 -26 -29
right_child=1 -3 -4 4 5 6 -8 8 -10 10 12 -13 -14 -15 15 16 17 18 -20 20 -22 -23 -24 24 25 26 -28 29 -30 -31
leaf_value=-2.138456398709136e-05 -0.00013132370526634552 0.0044052014127373695 0.0033528176457534929 -0.00034345649993327985 0.0067413544856456363 0.005361170980281064 -0.00054344993091945079 0.0049763555965563729 -0.00093202322018138758 -0.0079614393314290221 0.0023854509595924271 0.0030190237847779393 -0.00049023356453939675 -1.3622663040487499e-05 -0.00095829631165394622 0.0064378193040586966 -5.5880789163480088e-05 0.010729209706187249 -0.00082133652545895465 0.0076697569002308662 -0.00011498129341345387 0.00016982576973946002 -7.114776118094205e-05 0.00082503895225669022 0.0086242883435182233 0.02247162801878793 0.0093983414253064751 -0.0064151796814803687 -0.00048345006298040975 0.00053935498963060785
leaf_weight=40736 242 25 27 143 22 21 60 21 30 33 31 23 105 155939 49 21 88 22 27 21 6340 12673 572 39 23 21 24 20 25 210
leaf_count=40736 242 25 27 143 22 21 60 21 30 33 31 23 105 155939 49 21 88 22 27 21 6340 12673 572 39 23 21 24 20 25 210
internal_value=0 0.000324107 0.000189507 7.26677e-05 0.000728346 0.00221638 0.000987378 -0.000259903 0.00150084 -0.000466811 -0.00142162 0.000142103 0.000165253 -1.17028e-06 3.07092e-05 0.00143568 0.00217812 0.00152518 0.00436462 2.59183e-05 0.000122419 0.000232862 0.00106936 0.00277269 0.00693874 0.00950255 0.0154992 0.000581776 0.00388067 -6.53872e-05
internal_weight=0 783 758 731 246 103 81 485 51 434 169 265 136 216850 60911 207 158 137 49 60704 19968 13628 955 383 132 93 45 251 48 230
internal_count=217633 783 758 731 246 103 81 485 51 434 169 265 136 216850 60911 207 158 137 49 60704 19968 13628 955 383 132 93 45 251 48 230
shrinkage=0.05


Tree=119
num_leaves=31
num_cat=0
split_feature=3 39 34 4 40 13 12 33 4 21 3 35 37 37 28 39 32 30 11 4 3 36 30 15 34 37 37 22 4 39
split_gain=0.0317161 0.266254 0.167529 0.515688 0.100528 0.168486 0.0586634 0.0409949 0.0366877 0.0801387 0.318751 0.0838397 0.0929584 0.869157 0.130011 0.19403 0.239298 0.223839 0.154419 0.19006 0.153752 0.117176 0.129213 0.0696369 0.868937 0.624122 2.48482 0.968 1.57457 0.760615
threshold=-18.627349999999996 1.46871 0.08967940000000002 -0.96247749999999999 1.381785 -1.8737049999999999e-06 -1.9144549999999996e-08 -7.6530749999999989e-07 -1.6465649999999996 -2.2419299999999995 -12.585899999999999 0.00070929100000000013 0.22260499999999997 -0.27889399999999981 -4.3985699999999994 3.4885250000000001 -0.09986109999999998 1.3837400000000002 0.015505300000000001 -2.6817999999999995 -11.676349999999998 -0.011175000000000155 0.78599850000000016 -1.6062999999999998e-06 0.00022212900000000003 -0.33012499999999995 0.24875600000000014 3.7654200000000002 -0.26743249999999991 1.7247300000000003
decision_type=2 2 2 2 2 2 2 2 2 2 2 2 2 2 2 2 2 2 2 2 2 2 2 2 2 2 2 2 2 2
left_child=1 2 4 -4 5 -1 -5 -7 9 10 -2 -11 13 -13 -15 16 17 -16 19 -18 -17 22 -20 24 -10 -26 27 29 -29 -27
right_child=8 -3 3 6 -6 7 -8 -9 23 11 -12 12 -14 14 15 20 18 -19 21 -21 -22 -23 -24 -25 25 26 -28 28 -30 -31
leaf_value=0.0053777534368485008 0.0051813943406967961 0.0049637497780073824 0.0086688611278710279 0.0015910927517238417 -8.2108360239272827e-05 -0.001366624453819234 -0.0019048400470118004 0.0010879635791061447 -0.00010840877307119386 -1.9244891199348538e-05 -0.00040348991339349353 -5.4019943063598166e-05 -1.457403578559115e-05 0.0003315719202733957 -0.0037123354420804514 -0.0054021826537791647 -0.0025919180698366021 -0.010400587536225265 -0.0018524652844242721 -0.0073599893381469886 -0.00071129870847326483 -0.0029081831067534428 0.0033715831418521707 -1.1283093541240868e-05 -6.8241384416858981e-06 0.0016525634860451552 2.2907637853568151e-05 0.0046569094816130167 -0.00022868665187257998 -0.0003453210811314838
leaf_weight=22 36 29 23 21 1512 22 28 75 29502 26831 88 2448 2563 39 29 20 57 22 29 33 138 70 20 135854 7780 2175 6769 553 235 610
leaf_count=22 36 29 23 21 1512 22 28 75 29502 26831 88 2448 2563 39 29 20 57 22 29 33 138 70 20 135854 7780 2175 6769 553 235 610
internal_value=0 0.000213109 0.000132211 0.00249252 2.80161e-05 0.00142724 -0.000406583 0.000531253 -1.7096e-06 -5.07404e-05 0.00121793 -5.56109e-05 -0.000234056 -0.000427699 -0.00242937 -0.00268697 -0.00352674 -0.00659746 -0.00277742 -0.00434021 -0.00130508 -0.00159548 0.000279799 6.95479e-06 5.89808e-05 0.000331485 0.000585986 0.00165273 0.00319991 0.00121497
internal_weight=0 1732 1703 72 1631 119 49 97 215901 32423 124 32299 5468 2905 457 418 260 51 209 90 158 119 49 183478 47624 18122 10342 3573 788 2785
internal_count=217633 1732 1703 72 1631 119 49 97 215901 32423 124 32299 5468 2905 457 418 260 51 209 90 158 119 49 183478 47624 18122 10342 3573 788 2785
shrinkage=0.05


Tree=120
num_leaves=31
num_cat=0
split_feature=37 18 18 1 13 13 14 29 3 16 23 13 21 36 36 21 13 17 22 13 32 16 37 36 11 20 3 12 25 17
split_gain=0.0307925 0.995273 0.0302625 0.142018 0.393548 0.156275 0.0991899 0.406411 0.44135 0.157784 0.0934447 0.140556 0.65303 0.0765038 0.293294 0.223844 0.10987 0.0622081 0.0368239 0.147041 0.341067 0.407925 0.573284 1.91062 0.807027 0.626697 0.638476 0.588806 0.700413 0.574478
threshold=5.6849350000000003 -3.7984549999999992 14.999250000000002 10.154350000000003 1.0552950000000002e-06 -7.8838099999999994e-07 -4.2326149999999998e-07 0.0014581450000000003 -9.9050449999999977 8.167805000000002e-06 0.0014686500000000002 9.9131400000000028e-06 0.77580800000000016 -0.71412249999999966 0.1751400000000001 0.82362200000000019 -2.4990899999999996e-06 0.70659250000000007 5.8644050000000005 8.2193200000000006e-07 0.022445900000000001 0.0012391700000000002 0.40643499999999982 0.30085850000000008 0.01464405 -6.8508799999999992 -7.5517599999999989 2.2039450000000004e-06 -0.32150099999999993 9.3032900000000023
decision_type=2 2 2 2 2 2 2 2 2 2 2 2 2 2 2 2 2 2 2 2 2 2 2 2 2 2 2 2 2 2
left_child=2 -2 18 6 5 -5 7 9 -9 -4 11 -8 -13 -12 15 17 -16 -15 -1 -20 -21 22 23 24 25 26 27 -22 -29 -28
right_child=1 -3 3 4 -6 -7 10 8 -10 -11 13 12 -14 14 16 -17 -18 -19 19 20 21 -23 -24 -25 -26 -27 29 28 -30 -31
leaf_value=4.437086343745956e-06 0.0086822359548772085 -4.8164655383567032e-05 0.0036161723963838693 0.0038481277727511879 0.0062188455324404569 -0.00045116160990720812 -6.9374592197491583e-05 -0.00026945859087087836 0.0088274115013579537 -0.0004289198950565252 -0.00011010364090146622 -0.00070139964282414169 0.0084322102863292718 -0.00027774351928383116 0.0033607318559188571 -0.0079973393160996595 -0.00060104977618461169 -0.0037092297179957055 -0.0001451448152063924 -0.00025802559609385407 0.0068568731083919728 -5.1346915159589765e-05 -3.4791860564410388e-05 -1.2391079782663652e-05 0.014071156568825245 0.0068270852319773081 -0.0022932786367215905 -0.0066823008137622056 0.0038829691316359751 0.0064337968797190115
leaf_weight=191768 34 819 27 26 36 113 497 24 30 225 292 65 28 25 20 23 140 28 16254 3191 104 2061 820 647 20 121 88 21 62 24
leaf_count=191768 34 819 27 26 36 113 497 24 30 225 292 65 28 25 20 23 140 28 16254 3191 104 2061 820 647 20 121 88 21 62 24
internal_value=0 0.000299823 -1.17976e-06 0.000215536 0.00155971 0.000353022 5.03464e-05 0.00084799 0.00478436 4.48285e-06 -0.000167971 0.000264461 0.0020485 -0.000651181 -0.00132065 -0.00387817 -0.000105827 -0.0020906 -2.79017e-06 -6.19862e-05 0.00012682 0.000436306 0.000963339 0.0017163 0.00425826 0.00379098 0.00256232 0.00435043 0.00120983 -0.000423191
internal_weight=0 853 216780 1599 175 139 1424 306 54 252 1118 590 93 528 236 76 160 53 215181 23413 7159 3968 1907 1087 440 420 299 187 83 112
internal_count=217633 853 216780 1599 175 139 1424 306 54 252 1118 590 93 528 236 76 160 53 215181 23413 7159 3968 1907 1087 440 420 299 187 83 112
shrinkage=0.05


Tree=121
num_leaves=31
num_cat=0
split_feature=18 1 4 25 14 32 37 2 36 0 36 16 3 40 3 18 18 1 36 36 5 1 22 17 2 3 4 39 18 18
split_gain=0.029998 0.140822 0.378399 0.0786164 0.274993 0.0607177 0.0584148 0.285183 0.267616 0.101115 0.0854887 0.0419621 0.0308052 0.074754 0.263205 0.392247 0.214518 0.411289 0.288763 0.665251 0.362947 0.243802 0.228267 0.203901 0.384972 1.06566 0.395138 0.310074 0.320657 0.213953
threshold=-19.754149999999996 -8.3789549999999995 -0.42458499999999993 1.9114100000000003 7.7830150000000009e-06 0.14537000000000003 -0.25176499999999996 -1.5435349999999997 -0.011175000000000155 6.5600500000000013 -0.60254799999999997 6.3553350000000007e-07 -7.4497099999999987 0.6060099999999996 -18.627349999999996 4.6976250000000013 -12.332599999999998 -1.9933749999999997 0.327845 -0.3562499999999999 2.1459700000000004e-05 -6.820479999999999 44.542100000000012 -8.175164999999998 2.3031400000000004 -12.046299999999997 -0.24562099999999998 -0.15760999999999911 1.4596200000000004 2.8823700000000003
decision_type=2 2 2 2 2 2 2 2 2 2 2 2 2 2 2 2 2 2 2 2 2 2 2 2 2 2 2 2 2 2
left_child=1 2 -1 6 11 -4 7 -3 9 10 -8 -5 13 14 15 -2 17 18 19 22 21 -21 -16 24 -18 26 -26 28 -27 -29
right_child=12 3 5 4 -6 -7 8 -9 -10 -11 -12 -13 -14 -15 16 -17 23 -19 -20 20 -22 -23 -24 -25 25 27 -28 29 -30 -31
leaf_value=0.0062377825871642147 0.0011178089334294998 0.0059508038016792856 0.002545884644496255 0.0016048596425389406 0.0065386531930198546 -0.00027806513628646549 -0.00021699657120625491 -0.00016722008040190417 -0.0059873263432603822 0.0024437251247883102 -0.0032735785324673216 -0.00067304786408062831 -2.4490863473308972e-05 -2.0795296562325153e-05 -0.00011882641173059084 0.0087820058531360694 0.00017005132513065856 -0.0003624047071024593 -8.0773839879559367e-05 0.0013388838132959791 0.013491824420634659 0.009145965549396352 0.0059285697600716964 1.9377123931588673e-05 0.013799668047577145 0.00047122347158702643 0.0049896513808718214 0.00058947742791943755 -0.0058237510062099321 0.0028028100753308433
leaf_weight=35 101 20 24 30 20 92 125 400 23 29 28 62 85729 70755 71 20 2827 221 65 20 20 20 20 56265 20 55 35 296 32 173
leaf_count=35 101 20 24 30 20 92 125 400 23 29 28 62 85729 70755 71 20 2827 221 65 20 20 20 20 56265 20 55 35 296 32 173
internal_value=0 0.000290016 0.00168107 5.01042e-06 0.00122491 0.0003062 -0.000213596 0.000124114 -0.000905489 -0.000263279 -0.000776371 6.97481e-05 -1.18819e-06 1.40597e-05 5.49844e-05 0.00238462 5.02972e-05 0.00115407 0.00270564 0.00390509 0.00799222 0.00524242 0.00121027 4.22181e-05 0.000416025 0.00155411 0.00819329 0.000897354 -0.00184417 0.00140591
internal_weight=0 888 151 737 112 116 625 420 205 182 153 92 216745 131016 60261 121 60140 437 216 151 60 40 91 59703 3438 611 55 556 87 469
internal_count=217633 888 151 737 112 116 625 420 205 182 153 92 216745 131016 60261 121 60140 437 216 151 60 40 91 59703 3438 611 55 556 87 469
shrinkage=0.05


Tree=122
num_leaves=31
num_cat=0
split_feature=4 35 37 36 39 3 36 39 36 39 4 21 36 37 40 30 40 40 35 40 17 37 4 37 4 17 23 39 26 18
split_gain=0.0295701 0.0639984 0.0518604 0.355086 0.0823629 0.114282 0.12709 0.0657714 0.0825014 0.0537195 0.0497237 1.10884 0.7547 3.57878 1.1264 1.14263 1.01985 0.810297 1.0406 0.786543 0.855699 0.756469 1.39367 0.883184 0.975481 0.639799 0.747541 0.80008 0.713823 0.601524
threshold=4.1822950000000008 0.0013738800000000003 0.43359400000000009 0.2761725000000001 3.4270650000000007 -16.413199999999996 -0.19934349999999995 -2.1087049999999987 0.10022550000000004 0.64319500000000052 0.19669200000000001 0.24655200000000002 0.40779500000000007 0.27484500000000006 -2.1380549999999996 14.135600000000002 -1.8234799999999993 2.9908550000000012 0.029330700000000005 0.50668999999999997 -4.5635999999999983 0.078754999999999922 1.0072750000000001 -0.057539999999999918 0.92648250000000021 3.2523950000000004 -0.00029873799999999994 -1.5836399999999993 0.030416150000000003 -7.2793899999999994
decision_type=2 2 2 2 2 2 2 2 2 2 2 2 2 2 2 2 2 2 2 2 2 2 2 2 2 2 2 2 2 2
left_child=10 -2 3 4 5 -3 -7 -8 9 -9 -1 -12 13 14 15 29 -16 19 -19 21 -21 23 -23 24 -18 26 27 -22 -27 -13
right_child=1 2 -4 -5 -6 6 7 8 -10 -11 11 12 -14 -15 16 -17 17 18 -20 20 25 22 -24 -25 -26 28 -28 -29 -30 -31
leaf_value=-7.9960604457967623e-06 -2.4126029416202349e-05 0.00088192176248412578 -3.9301940661608348e-05 -8.1089786131044439e-05 -0.00094983693421387154 -0.00088826313165001286 -0.0025021414558463934 -0.0079680332913994786 -0.0029036617007416987 -0.0044248674425762151 -7.3878452371254252e-05 0.0081083928965264406 -2.5084060228328722e-05 2.8088444722592431e-05 0.012111041558444302 0.009809035993361425 0.0075708716474074097 -0.0015830189309705756 0.01008706670254469 0.00020875599616291849 0.02083687477785608 0.010402862193067401 -0.0028216731597408566 0.0013995285026758462 -0.00031207216227564712 0.0016754542783330277 0.0064333436104863397 0.0087623262935427621 0.012291897586546838 -0.00057425434217759687
leaf_weight=154710 15287 20 1062 1063 108 46 46 23 30 20 35977 21 3603 3808 33 31 137 145 22 55 23 76 27 579 55 76 98 34 20 398
leaf_count=154710 15287 20 1062 1063 108 46 46 23 30 20 35977 21 3603 3808 33 31 137 145 22 55 23 76 27 579 55 76 98 34 20 398
internal_value=0 -6.19331e-05 -0.000300956 -0.00050588 -0.00204701 -0.00268753 -0.00312019 -0.00398295 -0.00491605 -0.00632005 5.48461e-06 5.16077e-05 0.00054015 0.000901366 0.00271855 0.000546229 0.00342691 0.00321416 -4.56424e-05 0.0036755 0.00585715 0.00291168 0.00693624 0.00237402 0.00531274 0.00709485 0.00908152 0.0136345 0.00388721 -0.000139086
internal_weight=0 17705 2418 1356 293 185 165 119 73 43 199928 45218 9241 5638 1830 450 1380 1347 167 1180 306 874 103 771 192 251 155 57 96 419
internal_count=217633 17705 2418 1356 293 185 165 119 73 43 199928 45218 9241 5638 1830 450 1380 1347 167 1180 306 874 103 771 192 251 155 57 96 419
shrinkage=0.05


Tree=123
num_leaves=31
num_cat=0
split_feature=36 18 18 18 13 3 8 5 9 23 30 22 13 32 14 37 36 18 39 39 14 1 13 8 18 19 39 3 17 39
split_gain=0.0282644 0.968962 0.039691 0.0281637 0.161572 0.363692 0.139535 0.268107 0.135903 0.0481662 0.0357751 0.0355809 0.140493 0.282803 0.397126 0.574553 1.40433 0.879703 0.913227 0.525787 0.593354 0.523563 0.454205 0.417241 0.633048 0.930888 0.549312 0.403877 0.370938 0.357326
threshold=5.6762150000000009 4.4724750000000002 2.4716600000000004 -19.754149999999996 2.3057600000000002e-06 -6.0574999999999983 3.7335250000000005e-05 1.8661550000000004e-05 -5.7102799999999991e-05 -0.013856449999999998 18.825800000000005 5.8644050000000005 8.2193200000000006e-07 -0.018049799999999994 6.2869000000000007e-06 0.56931500000000013 0.327845 11.525150000000002 1.8568299999999998 0.80790999999999979 -1.1906449999999996e-06 10.154350000000003 8.7195400000000012e-06 3.1191600000000001e-05 -4.5569299999999986 -1.0309599999999997 -0.82558500000000012 -7.1133149999999992 -10.065 0.20156999999999983
decision_type=2 2 2 2 2 2 2 2 2 2 2 2 2 2 2 2 2 2 2 2 2 2 2 2 2 2 2 2 2 2
left_child=3 2 -2 4 -1 6 7 8 -6 -10 -8 -5 -13 -14 15 16 17 18 19 23 -21 22 -19 24 26 -26 -15 28 -25 -28
right_child=1 -3 -4 11 5 -7 10 -9 9 -11 -12 12 13 14 -16 -17 -18 21 -20 20 -22 -23 -24 27 25 -27 29 -29 -30 -31
leaf_value=-0.00013651987637172135 -2.871928113344098e-05 0.011162668182514608 0.0020770756701692693 4.8909292069486959e-06 0.0036245511700294039 0.006739796581678093 -0.00023456761055737178 0.0063942923358699779 0.00099509478847418609 -0.0016280493781648279 -0.0025200646260560935 -0.00013994208194725887 -0.00026705954308133277 -0.00390778507826326 -0.00024351893849156871 2.0062641638428982e-05 -9.672204875512659e-07 0.0012337273258405427 -0.0011920247264757466 0.0021774629622366495 0.012149208555264133 0.015249586154241115 0.010586619053552569 -0.0062395801397294483 0.014350869028168102 0.0041448988632737382 0.0079035589576608705 0.0048919006850785367 0.00088352014993991676 -4.4701161543623765e-05
leaf_weight=637 826 20 23 191867 27 28 67 25 30 42 23 16671 2851 32 1664 1421 767 27 129 26 35 20 25 22 31 80 31 52 108 26
leaf_count=637 826 20 23 191867 27 28 67 25 30 42 23 16671 2851 32 1664 1421 767 27 129 26 35 20 25 22 31 80 31 52 108 26
internal_value=0 0.000284585 2.83282e-05 -1.14089e-06 0.000281307 0.00138112 0.000679988 0.0017677 0.00059937 -0.000535073 -0.000818639 -2.29091e-06 -5.96628e-05 0.000122498 0.000369524 0.00072973 0.00144443 0.00316588 0.00251025 0.00358834 0.00789896 0.00837455 0.00573031 0.00289999 0.00447634 0.00699521 0.00133482 0.00116774 -0.000321928 0.00427804
internal_weight=0 869 849 216764 879 242 214 124 99 72 90 215885 24018 7347 4496 2832 1411 644 572 443 61 72 52 382 200 111 89 182 130 57
internal_count=217633 869 849 216764 879 242 214 124 99 72 90 215885 24018 7347 4496 2832 1411 644 572 443 61 72 52 382 200 111 89 182 130 57
shrinkage=0.05


Tree=124
num_leaves=31
num_cat=0
split_feature=37 18 39 39 10 36 36 23 36 11 32 28 3 9 15 36 29 3 3 17 0 15 10 21 32 31 4 12 8 3
split_gain=0.0279385 0.895236 0.0281119 0.454749 0.353707 0.353853 0.600207 0.422453 0.497244 0.691051 0.315821 0.323142 0.217869 0.216682 0.325042 0.227076 0.398167 0.21421 0.195968 0.180845 0.407789 0.492506 1.06848 0.541769 0.826953 0.38843 0.577242 0.449055 0.635113 0.167078
threshold=5.6849350000000003 -3.7984549999999992 -0.12174999999999957 0.16841000000000064 3.3176100000000009e-05 0.14973499999999998 -0.27744100000000016 -0.0029059199999999998 0.077348000000000056 0.00047127200000000006 0.046686200000000004 -0.27584949999999991 -7.4804449999999987 -0.00012512549999999997 -0.00016939049999999998 0.039429999999999972 -1.8227649999999998e-06 -5.8879799999999989 -11.334749999999998 14.554100000000002 5.3241200000000006 -1.7388649999999999e-06 -1.7032199999999996e-05 -0.69490299999999994 0.34392800000000007 -0.00023088749999999997 0.16470650000000003 8.0636700000000017e-06 4.3453600000000007e-05 -18.627349999999996
decision_type=2 2 2 2 2 2 2 2 2 2 2 2 2 2 2 2 2 2 2 2 2 2 2 2 2 2 2 2 2 2
left_child=2 -2 -1 4 5 6 -4 -8 10 -10 11 12 18 -13 -15 17 -17 -16 -9 29 -21 22 -22 24 -24 -23 -27 28 -28 -5
right_child=1 -3 3 19 -6 -7 7 8 9 -11 -12 13 -14 14 15 16 -18 -19 -20 20 21 25 23 -25 -26 26 27 -29 -30 -31
leaf_value=-2.4197136620543748e-05 0.0082355823860887217 -4.4445432308970521e-05 -0.00011783037403645836 0.0024249910034008543 -0.00022843721859107992 -0.00010197196949560122 -0.0056645039162780764 -0.0043278536939760671 0.013265212504193186 0.0016143678567771401 0.0067759644162530708 0.0062860486959107221 -0.0057265055835833429 -0.0048573974160599004 0.0010125155446767946 -0.00051304545148365922 0.0068851516031744808 0.0060785780261669847 0.0017596765018727941 -7.3489363885517151e-05 0.013272978574753291 -0.0013481005579261936 0.013380895622512549 -0.0010580678024623546 -0.00082529972870361247 -0.00020017463982814943 0.0030848162028553859 0.0011741525904011832 0.015111567861389459 -1.8454874971396982e-05
leaf_weight=82047 34 819 1440 70 1948 1634 23 20 20 35 24 20 27 23 3270 31 44 21 39 816 27 129 21 58 20 104 23 34 21 124791
leaf_count=82047 34 819 1440 70 1948 1634 23 20 20 35 24 20 27 23 3270 31 44 21 39 816 27 129 21 58 20 104 23 34 21 124791
internal_value=0 0.000285591 -1.12376e-06 1.2927e-05 0.000364303 0.000537389 0.000744797 0.00109014 0.0011336 0.00585104 0.00105987 0.00102062 -0.00200634 0.00109698 0.00106636 0.00110684 0.00382723 0.00104484 -0.000303893 -1.10871e-05 0.000586608 0.00181919 0.00445631 0.00205177 0.00645104 0.000750777 0.00223844 0.00548993 0.00882486 -1.7085e-05
internal_weight=0 853 216780 134733 8619 6671 5037 3597 3574 55 3519 3495 86 3409 3389 3366 75 3291 59 126114 1253 437 126 99 41 311 182 78 44 124861
internal_count=217633 853 216780 134733 8619 6671 5037 3597 3574 55 3519 3495 86 3409 3389 3366 75 3291 59 126114 1253 437 126 99 41 311 182 78 44 124861
shrinkage=0.05


Tree=125
num_leaves=31
num_cat=0
split_feature=17 0 15 19 13 21 5 2 36 2 0 3 10 15 21 14 7 16 3 8 4 36 36 19 14 0 9 24 13 32
split_gain=0.0269203 0.192877 0.224786 0.491711 0.16577 0.132892 0.187209 0.0886201 0.0886517 0.0715546 0.0512935 0.116143 0.0466828 0.109674 0.385331 0.0942053 0.256969 0.0766941 0.121192 0.0719357 0.0665279 0.0528004 0.287294 0.279801 0.142342 0.0373231 0.0988729 0.0293327 0.113223 0.228666
threshold=-14.223749999999997 -8.8447699999999987 -1.0730149999999997e-06 2.6187600000000004 3.2990050000000008e-07 -0.25330649999999993 1.1054200000000002e-05 -2.7519549999999997 -0.12496499999999998 -2.6524249999999996 -11.535399999999997 -5.3196249999999994 2.6751950000000004e-05 -0.00032340099999999991 -0.88671549999999988 -6.530729999999998e-08 -1.8734599999999998e-05 0.0095771650000000003 -14.703099999999997 1.7819450000000001e-05 -0.58642949999999983 -0.17527649999999997 0.22528099999999995 -0.66781149999999989 1.5692150000000001e-06 -7.5291399999999991 -2.0937149999999997e-05 5.817635000000001 8.2193200000000006e-07 -0.018049799999999994
decision_type=2 2 2 2 2 2 2 2 2 2 2 2 2 2 2 2 2 2 2 2 2 2 2 2 2 2 2 2 2 2
left_child=1 2 3 4 -1 -4 -7 8 -3 -9 11 -8 13 14 -11 16 -15 20 -19 -18 -17 23 24 -14 -23 26 -22 -2 -29 -30
right_child=27 7 5 -5 -6 6 10 9 -10 12 -12 -13 21 15 -16 17 19 18 -20 -21 25 22 -24 -25 -26 -27 -28 28 29 -31
leaf_value=-0.001000559769660386 4.4372215280928397e-06 -0.0006089165830836954 -0.00068258533762681093 0.010371473310515286 0.004098761046382909 0.0051834510052215371 0.0046338394585472998 0.0028287707342077861 -0.0044580563099034841 0.0067409149096680013 -0.00048337759733341028 -0.00063075711300784453 0.0048968393430876521 0.0057133751100991509 -0.00051032864618959272 -0.0023831021820910794 0.0028265632976226269 -0.00088212762209877833 0.0043879034945651565 -0.00046156168324216649 0.0038899515737111437 -0.0066920004431503246 -0.00020651857001941903 -0.00020430093927575646 -0.0011267100961413234 -0.00013851388870193661 -0.00052536579465822797 -0.00012906831019757588 -0.00024871987663552914 0.00033978132624145198
leaf_weight=34 192159 52 117 20 30 29 20 23 21 28 51 22 29 27 53 32 21 20 24 80 21 27 430 368 20 970 32 15908 2688 4277
leaf_count=34 192159 52 117 20 30 29 20 23 21 28 51 22 29 27 53 32 21 20 24 80 21 27 430 368 20 970 32 15908 2688 4277
internal_value=0 0.000159893 0.00130334 0.00352825 0.00138975 0.000521362 0.00167597 -2.23785e-06 -0.0017162 5.45057e-05 0.000582235 0.00187619 2.52627e-05 0.000214311 0.00199627 9.66754e-05 0.00138042 -5.2842e-05 0.00199243 0.000222108 -0.000138143 -0.000257661 -0.000612204 0.000168326 -0.00432379 -6.79191e-05 0.0012241 -1.93404e-06 -5.54598e-05 0.000112661
internal_weight=0 2601 323 84 64 239 122 2278 73 2205 93 42 2182 1308 81 1227 128 1099 44 101 1055 874 477 397 47 1023 53 215032 22873 6965
internal_count=217633 2601 323 84 64 239 122 2278 73 2205 93 42 2182 1308 81 1227 128 1099 44 101 1055 874 477 397 47 1023 53 215032 22873 6965
shrinkage=0.05


Tree=126
num_leaves=31
num_cat=0
split_feature=4 15 34 36 36 4 39 3 40 36 34 3 18 4 40 17 36 39 15 39 11 3 39 26 33 29 18 8 30 4
split_gain=0.0262899 0.0568113 0.750613 0.51505 2.14856 0.849921 0.991079 1.0384 0.759037 0.805647 0.769506 0.654158 0.853459 0.546917 0.498542 0.820779 0.77373 0.96641 0.991439 0.838593 0.734884 0.772616 0.701631 0.604493 0.55252 0.639028 0.628361 0.541399 0.721528 0.486447
threshold=-2.2787549999999999 -1.6062999999999998e-06 0.00022212900000000003 0.327845 -0.22452634999999985 0.019144700000000004 1.8568299999999998 -5.5951849999999999 3.0726850000000008 -0.058960000000000005 0.0021318600000000006 -13.989599999999998 2.4716600000000004 -0.19656399999999996 0.31988499999999936 5.7713600000000005 0.056773999999999998 0.35261000000000037 -1.2604899999999999e-05 0.80790999999999979 0.0016846400000000001 -8.5493049999999986 -0.71725499999999964 -0.049149049999999993 -1.4028749999999999e-06 -3.7334249999999996e-05 5.8567400000000012 2.2092100000000001e-05 0.30734050000000007 -0.88881949999999998
decision_type=2 2 2 2 2 2 2 2 2 2 2 2 2 2 2 2 2 2 2 2 2 2 2 2 2 2 2 2 2 2
left_child=-1 2 -2 4 -4 6 7 8 9 10 -6 12 -8 -12 16 24 19 18 -18 29 21 -21 23 -17 25 -16 -26 -19 -29 -11
right_child=1 -3 3 -5 5 -7 11 -9 -10 14 13 -13 -14 -15 15 22 17 27 -20 20 -22 -23 -24 -25 26 -27 -28 28 -30 -31
leaf_value=-4.4751287310713468e-05 -9.6764484362765117e-05 -1.0222202846954501e-05 3.4129626405776606e-05 1.4570817979820626e-06 0.00068233805377306532 -0.001855492138234471 -0.00066363732423633344 0.013470507791498677 -0.00046524267174412499 -0.0064034823328256614 0.0075286733164893101 -0.00029874894035794 0.01268226466497214 0.00032005072270910589 0.0019450081783967716 -0.010138970099389554 0.0045654736947653872 -0.0028446777628193124 0.015459639436730574 0.017016272720965474 0.001721262549134818 0.0037650662998203188 0.0063295185588122839 0.00047049963543721444 0.0042281279090978811 0.0121725625505427 -0.0024319326384284069 -0.00027544900168086989 0.0081497317713607725 0.00093137616167840171
leaf_weight=28518 32560 136695 7586 8585 81 179 25 20 273 23 174 714 23 31 24 25 64 46 31 22 55 22 21 29 309 42 40 54 48 1314
leaf_count=28518 32560 136695 7586 8585 81 179 25 20 273 23 174 714 23 31 24 25 64 46 31 22 55 22 21 29 309 42 40 54 48 1314
internal_value=0 6.74837e-06 5.10023e-05 0.000293262 0.000515449 0.00150523 0.00167661 0.00211904 0.00203582 0.00231394 0.00480832 8.1095e-05 0.00573127 0.00643859 0.00198503 0.00338823 0.00157552 0.00418476 0.00812041 0.00113399 0.00557433 0.0103907 -0.00142546 -0.00444129 0.00425817 0.00845345 0.0034648 0.0016585 0.00368934 0.000805197
internal_weight=0 189115 52420 19860 11275 3689 3510 2748 2728 2455 286 762 48 205 2169 490 1679 243 95 1436 99 44 75 54 415 66 349 148 102 1337
internal_count=217633 189115 52420 19860 11275 3689 3510 2748 2728 2455 286 762 48 205 2169 490 1679 243 95 1436 99 44 75 54 415 66 349 148 102 1337
shrinkage=0.05


Tree=127
num_leaves=31
num_cat=0
split_feature=36 18 18 37 18 22 13 32 14 37 36 1 18 8 13 13 31 28 15 8 21 39 39 29 39 25 5 28 1 17
split_gain=0.0257829 0.872428 0.0357337 0.0252034 0.800557 0.0309295 0.129216 0.276242 0.329815 0.600835 1.21061 0.71955 0.715935 0.521725 0.554634 0.665251 0.583687 0.547964 0.525097 0.501448 0.470117 0.421042 0.492814 0.440771 0.396685 0.345585 0.325342 0.204922 0.191943 0.185122
threshold=5.6762150000000009 4.4724750000000002 2.4716600000000004 5.6849350000000003 -3.7984549999999992 5.8644050000000005 8.2193200000000006e-07 0.0078514400000000012 9.3118750000000014e-06 0.51323350000000023 0.30085850000000008 10.154350000000003 10.010650000000002 1.5030250000000002e-05 4.0423150000000006e-05 9.9131400000000028e-06 0.22099200000000002 2.6219150000000004 3.3339000000000007e-05 3.6901900000000007e-05 -0.62980599999999998 -0.82558500000000012 1.8568299999999998 1.5735400000000003e-06 0.60048999999999852 1.0121250000000004 1.6368250000000004e-05 11.695650000000002 5.0786750000000014 5.0058800000000003
decision_type=2 2 2 2 2 2 2 2 2 2 2 2 2 2 2 2 2 2 2 2 2 2 2 2 2 2 2 2 2 2
left_child=3 2 -2 5 -5 -1 -7 -8 9 10 11 13 -13 17 15 18 20 -9 21 28 26 29 23 -23 -25 -12 -17 -16 -20 -15
right_child=1 -3 -4 4 -6 6 7 8 -10 -11 25 12 -14 14 27 16 -18 -19 19 -21 -22 22 -24 24 -26 -27 -28 -29 -30 -31
leaf_value=4.6465385906295843e-06 -2.5480716506747237e-05 0.010593799753114582 0.0019725811168546385 0.007788019660202896 -4.1936710814229545e-05 -0.00013068359220639905 -0.00024221828232188841 0.0029399074660072669 -0.00024584558468061004 -5.8033264040565479e-05 -1.5594603273934819e-05 0.0024891629176140256 0.014976466372900177 -0.00075225916369808766 -0.0021174727736398644 0.0073864208401313849 0.00081310758958696517 0.011833538231239173 -0.0016130142350448296 0.010552068477928904 0.0042390086474148811 -0.00048314644571175765 -0.002321739096448503 0.0029335736890789121 0.010284166954907366 0.0066336322738789026 0.015994233986281831 0.0032486470370878869 0.0048496077652089298 -0.006535117657855154
leaf_weight=191171 826 20 23 34 819 17164 3134 43 1457 1450 852 22 24 31 93 21 37 29 20 28 37 47 55 50 29 20 23 22 27 25
leaf_count=191171 826 20 23 34 819 17164 3134 43 1457 1450 852 22 24 31 93 21 37 29 20 28 37 47 55 50 29 20 23 22 27 25
internal_value=0 0.000271805 2.86482e-05 -1.08966e-06 0.00027016 -2.16128e-06 -5.47667e-05 0.000117229 0.000370832 0.000671837 0.00136129 0.00297164 0.00900428 0.00252188 0.00199341 0.00281829 0.00601619 0.00652206 0.00160883 0.00525516 0.00839291 0.000454928 0.00162716 0.00335089 0.00563189 0.000136911 0.011886 -0.00109091 0.00209956 -0.00333389
internal_weight=0 869 849 216764 853 215911 24740 7576 4442 2985 1535 663 46 617 545 430 118 72 312 75 81 237 181 126 79 872 44 115 47 56
internal_count=217633 869 849 216764 853 215911 24740 7576 4442 2985 1535 663 46 617 545 430 118 72 312 75 81 237 181 126 79 872 44 115 47 56
shrinkage=0.05


Tree=128
num_leaves=31
num_cat=0
split_feature=3 32 13 16 36 36 1 14 14 4 23 2 26 2 1 39 17 36 39 0 3 21 5 6 30 7 12 11 36 37
split_gain=0.0257499 0.126147 0.440956 0.445665 0.70253 1.25945 0.298564 0.11909 0.238071 0.105792 0.144466 0.148361 0.197287 0.1145 0.1033 0.0685371 0.182042 0.497421 0.317871 0.636115 0.506469 0.380118 0.340004 0.218904 0.197896 0.152307 0.186598 0.144796 0.193875 0.704568
threshold=-11.042399999999999 -0.43959349999999991 -1.3281999999999998e-05 0.0070645400000000011 -0.49100999999999978 0.86046950000000011 -3.2275299999999993 3.1672400000000012e-05 0.00012097400000000001 -0.25665499999999991 -0.028182349999999998 -2.0077749999999996 0.24911750000000002 1.5056400000000003 -5.7517599999999991 -1.5196849999999988 -6.2436999999999996 5.6762150000000009 0.16841000000000064 -3.5052499999999998 -14.267049999999999 0.56550400000000012 1.3860800000000001e-05 1.0000000180025095e-35 4.6183500000000004 -4.2830499999999996e-05 2.4676700000000005e-07 0.0067067750000000008 0.20129000000000011 0.24875600000000014
decision_type=2 2 2 2 2 2 2 2 2 2 2 2 2 2 2 2 2 2 2 2 2 2 2 2 2 2 2 2 2 2
left_child=1 2 3 4 -1 6 -6 -5 -9 13 -11 12 -12 -4 -13 -3 17 18 25 20 23 24 -23 -20 -22 26 -17 28 29 -18
right_child=-2 15 9 7 5 -7 -8 8 -10 10 11 14 -14 -15 -16 16 27 -19 19 -21 21 22 -24 -25 -26 -27 -28 -29 -30 -31
leaf_value=-0.00033716239056677576 -1.0749086661278619e-05 -1.7587946238261993e-05 -0.0006506320360940821 -0.0012107708019235062 0.0071519856597296906 -0.0003239670505406269 0.014939521843916738 0.005621582262616498 1.8551926450527391e-05 0.0042404536776075473 -4.7842772889963252e-05 -0.0037737843269133008 0.0052879104388800146 -0.0044056652414956659 -8.9174690695778807e-05 -0.00016017681610537693 0.0010277993302242982 0.0085157397352941186 0.0046203620968818934 7.8621667261330992e-05 0.001822190294693265 0.010994707443751396 0.0019973023390732472 0.011757276744042016 -0.0035097007875447162 -7.053858671220716e-05 -0.0065534470284113744 -0.00011109890483536028 -9.0651389378483487e-05 -7.2500351024036837e-05
leaf_weight=52 156501 41445 173 67 20 35 32 26 70 22 41 20 30 23 389 25 2387 20 21 388 134 21 21 22 20 493 21 7390 3998 3726
leaf_count=52 156501 41445 173 67 20 35 32 26 70 22 41 20 30 23 389 25 2387 20 21 388 134 21 21 22 20 493 21 7390 3998 3726
internal_value=0 2.75182e-05 0.000584483 0.0021807 0.00426067 0.0070088 0.0119443 0.000406982 0.00153604 -0.000106144 0.000278488 9.68982e-05 0.0022067 -0.00109127 -0.000269351 1.82558e-05 9.77521e-05 0.000697232 0.000563124 0.00132856 0.00335774 0.00227965 0.006496 0.00827181 0.00112974 -0.000327277 -0.00307884 5.71268e-05 0.000180081 0.000357144
internal_weight=0 61132 1000 302 139 87 52 163 96 698 502 480 71 196 409 60132 18687 1186 1166 627 239 196 42 43 154 539 46 17501 10111 6113
internal_count=217633 61132 1000 302 139 87 52 163 96 698 502 480 71 196 409 60132 18687 1186 1166 627 239 196 42 43 154 539 46 17501 10111 6113
shrinkage=0.05


Tree=129
num_leaves=31
num_cat=0
split_feature=3 39 18 34 4 36 36 11 21 18 36 18 34 15 3 36 36 4 16 18 18 13 39 22 2 17 2 19 39 36
split_gain=0.0241057 0.194527 0.316921 0.121502 0.561099 0.103273 0.10876 0.10211 0.0329476 0.0409828 0.0667511 0.0275142 0.0271308 0.397911 0.509215 0.526894 0.773754 0.49204 0.543798 0.492233 0.272225 0.909387 0.242369 0.215151 0.259125 0.148845 0.14296 0.190368 0.150911 0.245662
threshold=-18.627349999999996 -0.82558500000000012 4.6976250000000013 0.08967940000000002 -0.96247749999999999 0.12375499999999996 -0.30278099999999991 0.0098803550000000021 0.44009350000000008 -3.1042299999999998 0.57364500000000007 0.93373450000000013 -0.26996899999999996 2.0038450000000001e-05 -15.993649999999997 -0.49100999999999978 0.40779500000000007 2.7715550000000007 0.0059260250000000006 -11.282949999999998 7.0074550000000011 1.5710250000000004e-05 -0.23716000000000023 67.039100000000005 -0.79447199999999996 -19.608449999999998 1.8942800000000002 1.6350150000000003 2.1254700000000009 -0.32870999999999989
decision_type=2 2 2 2 2 2 2 2 2 2 2 2 2 2 2 2 2 2 2 2 2 2 2 2 2 2 2 2 2 2
left_child=1 3 5 8 -5 6 -3 -8 -1 10 -10 -11 13 -2 15 -15 -17 18 19 22 25 23 -16 24 -22 -21 28 -28 29 -27
right_child=12 2 -4 4 -6 -7 7 -9 9 11 -12 -13 -14 14 17 16 -18 -19 -20 20 21 -23 -24 -25 -26 26 27 -29 -30 -31
leaf_value=2.0347884780358591e-05 -0.0001570396322839921 -0.00041619574095910555 0.0076458522456786821 0.0088556885586253235 -0.0011541193453922462 -0.00090334146133197164 0.0015155081299599261 0.0063087131106294688 -0.003439076054164616 0.0014016144631845554 -0.00010363158968175412 -0.00057833525582503393 -4.0290799230052078e-06 -0.00055536254367325453 0.0025557901363208661 0.012593607208691538 0.0011004191005701649 -0.00052511869839868338 0.0077037142810877412 0.0034414848803620162 -0.00056732069624007586 0.012030747215877373 0.010246672768075119 -0.0030617045000124361 0.0061812421638751409 -0.00080671587388411259 -0.00040685485659387754 -0.0064334808723651802 -0.00049059065561248266 0.0051197708065349925
leaf_weight=1375 3238 26 21 21 42 45 25 20 30 23 30 74 211561 33 20 32 27 487 35 30 33 22 21 27 25 34 38 20 182 36
leaf_count=1375 3238 26 21 21 42 45 25 20 30 23 30 74 211561 33 20 32 27 487 35 30 33 22 21 27 25 34 38 20 182 36
internal_value=0 0.000185789 0.00199382 3.04915e-05 0.00218248 0.000970608 0.00215832 0.00364582 -5.80043e-05 -0.00074421 -0.00177135 -0.000108863 -1.49044e-06 0.00012226 0.000942925 0.00450413 0.00733401 0.000618538 0.00168347 0.00125169 0.000770761 0.00297028 0.00649502 0.000625217 0.00234154 7.85599e-05 -0.000246884 -0.002485 0.000268238 0.00224119
internal_weight=0 1732 137 1595 63 116 71 45 1532 157 60 97 215901 4340 1102 92 59 1010 523 488 447 107 41 85 58 340 310 58 252 70
internal_count=217633 1732 137 1595 63 116 71 45 1532 157 60 97 215901 4340 1102 92 59 1010 523 488 447 107 41 85 58 340 310 58 252 70
shrinkage=0.05


Tree=130
num_leaves=31
num_cat=0
split_feature=5 24 28 3 9 21 2 37 37 33 39 36 5 11 1 26 23 17 23 39 30 40 39 36 39 33 39 39 36 33
split_gain=0.0233612 0.0467497 0.300187 0.575948 0.11852 0.11529 0.187232 0.0608154 0.539931 0.449599 0.389542 0.227552 0.646685 0.205092 0.185869 0.181319 0.277866 0.207659 0.138547 0.138421 0.226457 0.279398 0.180285 0.216764 0.101496 0.0764799 0.246528 0.0696074 0.0653631 0.0614203
threshold=8.8143050000000017e-06 7.8117800000000015 2.6219150000000004 -13.443999999999997 -0.0001144375 0.86341500000000015 -1.2287049999999999 -0.039869999999999954 0.09983149999999999 1.3227200000000003e-07 -0.27803499999999998 0.056773999999999998 8.1441900000000017e-06 0.0014416350000000004 -3.0563699999999998 -0.024110249999999996 0.00026497250000000005 6.5793150000000002 -5.3010199999999996e-05 -0.56159999999999977 0.11295550000000001 1.6302050000000003 1.1065400000000005 -0.040859549999999939 1.1470050000000007 -4.9754949999999999e-07 -0.32314999999999999 0.27381999999999979 -0.018010000000000078 1.0154450000000001e-07
decision_type=2 2 2 2 2 2 2 2 2 2 2 2 2 2 2 2 2 2 2 2 2 2 2 2 2 2 2 2 2 2
left_child=1 2 5 -4 -3 7 -7 11 9 15 -11 12 18 24 -15 17 19 -9 -1 20 21 -17 23 -21 27 -25 -27 -12 -24 -28
right_child=-2 4 3 -5 -6 6 -8 8 -10 10 13 -13 -14 14 -16 16 -18 -19 -20 22 -22 -23 28 25 -26 26 29 -29 -30 -31
leaf_value=-0.0021961536648715 -4.4136313308984185e-06 0.0026492549843221374 0.010293468914910807 2.2880891218590434e-05 -0.00029935598201970737 0.0062013199077773605 0.00036675061532233404 0.001687493023928255 -1.7748500687268128e-05 0.0082971745702837187 0.00069021386178064865 -1.9933728405920487e-05 -0.010204198722550203 0.0019250971410656348 0.0087417815235676238 -0.0069171751424437393 0.0067681305282894762 -0.0047952723984296128 0.0035538367106346413 0.0051528982582870718 0.0042136367689818146 -0.00039026497298426887 -4.2583733150596794e-05 -0.001047645461349512 -0.0018353090631654083 0.0066112521636698925 0.0011944472808234144 0.003975878071246876 -0.0030611113820135684 -0.0016349770224769599
leaf_weight=22 202904 35 21 39 1296 20 44 21 5976 35 40 6210 21 20 20 20 20 30 20 36 20 91 47 37 23 21 468 27 29 20
leaf_count=22 202904 35 21 39 1296 20 44 21 5976 35 40 6210 21 20 20 20 20 30 20 36 20 91 47 37 23 21 468 27 29 20
internal_value=0 6.08014e-05 8.88778e-05 0.00361759 -0.000221819 7.30042e-05 0.00219005 6.27969e-05 0.000164102 0.00122434 0.00361505 -5.02655e-05 -0.00304011 0.00235448 0.00533344 0.000765654 0.00094794 -0.0021259 0.000541937 0.000800407 -0.000683854 -0.00156628 0.00109591 0.00139498 0.0010305 0.00114721 0.00130675 0.00201429 -0.00119439 0.00107849
internal_weight=0 14729 13398 60 1331 13338 64 13274 7001 1025 165 6273 63 130 40 860 809 51 42 789 131 111 658 582 90 546 509 67 76 488
internal_count=217633 14729 13398 60 1331 13338 64 13274 7001 1025 165 6273 63 130 40 860 809 51 42 789 131 111 658 582 90 546 509 67 76 488
shrinkage=0.05


Tree=131
num_leaves=31
num_cat=0
split_feature=18 3 4 11 21 3 29 23 13 37 36 0 36 10 13 22 13 32 16 36 36 40 37 30 8 28 31 8 20 20
split_gain=0.0230759 0.143429 0.0776216 0.236532 0.153037 0.051189 0.145804 0.0706579 0.16358 0.0961735 0.377826 0.0433076 0.0658514 0.0401086 0.0302982 0.0267276 0.109066 0.21875 0.278287 0.364762 1.43801 0.508309 0.648947 0.55905 0.59743 0.492606 0.361028 0.378921 0.345806 0.292797
threshold=18.392150000000004 -4.8298799999999993 -0.38361349999999994 0.00088131050000000012 -1.1409399999999998 -5.5710999999999995 -0.00028142099999999996 -0.0048905699999999995 9.9131400000000028e-06 0.32610899999999998 0.14973499999999998 1.405915 -0.772536 5.8318900000000008e-05 -3.9895999999999995e-08 5.8644050000000005 8.2193200000000006e-07 -0.018049799999999994 0.0012391700000000002 -0.3562499999999999 0.30085850000000008 -1.8692049999999989 0.078754999999999922 1.3837400000000002 3.9806000000000005e-05 3.7022150000000003 -0.024434799999999996 2.7034150000000006e-05 -11.167499999999999 -6.889454999999999
decision_type=2 2 2 2 2 2 2 2 2 2 2 2 2 2 2 2 2 2 2 2 2 2 2 2 2 2 2 2 2 2
left_child=15 2 3 -2 -5 7 -7 8 -4 10 -9 13 -13 -6 -8 -1 -17 -18 19 -19 21 23 25 -21 -25 28 -24 -28 -23 -30
right_child=1 -3 5 4 11 6 14 9 -10 -11 -12 12 -14 -15 -16 16 17 18 -20 20 -22 22 26 24 -26 -27 27 -29 29 -31
leaf_value=5.2448725982985421e-06 0.0057012202948196018 0.0039971963204443453 -0.00010064346975160597 0.0034762523276731373 0.0021538814982341135 0.0046406600524538334 0.00088237024518700009 -0.006293813072240001 0.0042578476346097887 5.9181979962874677e-05 -0.00033364137458103543 -9.0394894855476369e-05 -0.0038757307689229492 -0.00058844467539529441 -0.0014045592018906714 -0.00012085615340309872 -0.00023910049725789649 2.7367207541878503e-05 -5.1820587976429496e-05 -0.0054137551168969367 -5.6482094607308782e-05 0.010110469013452531 0.011195397799899587 0.0078260787248220897 -0.0019132233661366628 -0.0027920202410314232 -0.00022551746750693947 0.008068589033209719 0.0015261432122687163 0.0052559482593799835
leaf_weight=192638 24 25 155 30 20 21 30 34 25 182 122 27 20 40 28 16818 2797 1010 2392 30 734 20 43 31 32 32 21 40 115 97
leaf_count=192638 24 25 155 30 20 21 30 34 25 182 122 27 20 40 28 16818 2797 1010 2392 30 734 20 43 31 32 32 21 40 115 97
internal_value=0 0.000270948 0.000148051 0.00112237 0.000320235 -0.000114705 0.00107085 -0.000295514 0.000504703 -0.000721665 -0.00163265 -0.00056463 -0.00170118 0.000325664 -0.000221665 -9.78337e-07 -5.04921e-05 0.000109554 0.00032169 0.000726877 0.00131809 0.00350668 0.00434133 0.000204007 0.00287913 0.00302348 0.00768663 0.00521324 0.00382562 0.0032327
internal_weight=0 783 758 161 137 597 79 518 180 338 156 107 47 60 58 216850 24212 7394 4597 2205 1195 461 368 93 63 264 104 61 232 212
internal_count=217633 783 758 161 137 597 79 518 180 338 156 107 47 60 58 216850 24212 7394 4597 2205 1195 461 368 93 63 264 104 61 232 212
shrinkage=0.05


Tree=132
num_leaves=31
num_cat=0
split_feature=30 3 19 36 12 28 36 36 19 22 13 16 32 36 36 39 3 39 39 34 33 22 18 17 18 29 36 36 32 13
split_gain=0.0233296 0.117968 0.189121 0.677196 0.126408 0.185038 0.109468 0.204691 0.188966 0.0689842 0.100788 0.17828 0.268096 0.307019 0.9319 0.776829 1.1433 0.371206 0.712856 0.321066 0.416465 0.289826 0.262263 0.295877 0.412282 0.258774 0.166334 1.7309 1.38677 1.39411
threshold=3.2423100000000002 -17.304849999999998 -0.96156149999999985 0.20129000000000011 1.0083500000000001e-05 -3.4807049999999995 0.039429999999999972 -0.54531499999999988 1.1226900000000002 5.8644050000000005 3.2990050000000008e-07 0.00040781450000000006 -0.018049799999999994 -0.3562499999999999 0.30085850000000008 2.0800550000000007 -5.7548799999999991 -0.23716000000000023 -2.4699349999999991 -0.032169599999999993 3.7945450000000004e-07 21.272000000000002 -8.5511699999999973 10.532700000000002 4.0630850000000009 2.9120900000000002e-06 0.1751400000000001 -0.17527649999999997 0.029614900000000003 -3.1157049999999994e-07
decision_type=2 2 2 2 2 2 2 2 2 2 2 2 2 2 2 2 2 2 2 2 2 2 2 2 2 2 2 2 2 2
left_child=9 2 3 -2 6 -6 7 -4 -8 -1 26 12 -12 -14 15 16 17 18 -15 -20 25 22 -19 24 -24 -21 27 -11 29 -29
right_child=1 -3 4 -5 5 -7 8 -9 -10 10 11 -13 13 14 -16 -17 -18 21 19 20 -22 -23 23 -25 -26 -27 -28 28 -30 -31
leaf_value=4.8857884076767978e-06 0.0082097361036544882 4.3231010289492443e-05 -0.00039640217744755352 -7.487311621032958e-05 -0.00049541722271343412 0.0060804898769492872 -0.00082374261259158122 -0.0060060605290345849 0.0049204435744534501 -1.512231366433717e-05 -0.00039105766027562735 -0.00015715487142549216 1.3751371958821641e-05 -0.00082914390509973308 8.868141405878535e-06 -0.0031225679690733824 0.01518697731027549 0.0067941486524369828 0.011067267755020618 0.0043504692237114626 0.0006455336516755152 -0.0031738709604654178 -0.0040642631439758202 0.0065998429454685679 0.0034108277213258237 0.012027315650661679 2.0031446063298208e-05 0.0010386028458315543 -0.00481112391731142 -0.004819505826584144
leaf_weight=191226 37 9590 87 74 23 20 41 20 22 4892 719 3537 720 37 495 41 22 29 36 21 29 26 35 21 39 23 4926 339 361 145
leaf_count=191226 37 9590 87 74 23 20 41 20 22 4892 719 3537 720 37 495 41 22 29 36 21 29 26 35 21 39 23 4926 339 361 145
internal_value=0 7.49333e-05 0.00101328 0.00268666 0.000141236 0.00256314 -0.000471364 -0.00144494 0.00118216 -3.57641e-06 -0.00010169 6.54688e-05 0.00040887 0.000774276 0.00141547 0.00335493 0.00419008 0.00337274 0.00516748 0.00720303 0.00529738 0.00162586 0.00263226 0.00136179 -0.000124688 0.00836337 -0.000193085 -0.000376074 -0.00246575 -0.000716409
internal_weight=0 9914 324 111 213 43 170 107 63 207719 16493 5830 2293 1574 854 359 318 296 146 109 73 150 124 95 74 44 10663 5737 845 484
internal_count=217633 9914 324 111 213 43 170 107 63 207719 16493 5830 2293 1574 854 359 318 296 146 109 73 150 124 95 74 44 10663 5737 845 484
shrinkage=0.05


Tree=133
num_leaves=31
num_cat=0
split_feature=39 40 11 36 36 23 36 36 11 0 16 25 36 3 15 22 33 5 3 17 7 13 36 19 5 39 11 3 8 32
split_gain=0.0229991 0.391854 0.325704 0.283098 0.48003 0.743584 0.58126 0.258128 1.29226 0.854068 0.489345 0.341245 0.337188 0.529283 0.297566 0.249098 0.211861 0.424862 0.18907 0.157744 0.437268 0.443208 0.613656 0.845924 0.376041 0.152232 0.13952 0.184816 0.13806 0.167751
threshold=-0.12174999999999957 -0.16918499999999967 0.0007810015000000002 -0.17527649999999997 0.14973499999999998 -0.0011493749999999998 0.077348000000000056 -0.040859549999999939 0.00010396350000000002 -3.1104599999999993 0.0002560000000000001 0.041210350000000007 0.039429999999999972 -7.1133149999999992 1.7022000000000002e-06 3.2492400000000008 1.3687350000000002e-07 1.5809250000000005e-05 -5.8879799999999989 14.554100000000002 3.5461000000000012e-05 8.2193200000000006e-07 0.30085850000000008 -0.20719599999999996 2.5175700000000004e-05 1.06199 0.00020887000000000002 -6.0871149999999989 5.5414800000000003e-05 -0.018049799999999994
decision_type=2 2 2 2 2 2 2 2 2 2 2 2 2 2 2 2 2 2 2 2 2 2 2 2 2 2 2 2 2 2
left_child=26 19 3 -3 5 -5 7 8 -7 -10 14 12 16 -14 -11 -13 18 -18 -9 -2 -21 25 23 -23 -25 -22 -1 -28 29 -27
right_child=1 2 -4 4 -6 6 -8 11 9 10 -12 15 13 -15 -16 -17 17 -19 -20 20 21 22 -24 24 -26 28 27 -29 -30 -31
leaf_value=-0.00026719570754959006 -1.5144732296697159e-05 -0.00010141747203419615 -7.441788127098322e-05 -0.0075090174220968035 -9.8684241104882728e-05 -0.0080257995541961422 0.0079610868687591246 0.0010127366810708327 -0.00095517819555585883 0.014791035811815942 0.0022767569603664535 0.0003448517771903426 0.0081767516187392173 -0.0010973272640258074 0.007020403051071546 -0.0075465744297252974 0.00060987261148673583 -0.0069423594260588292 0.0057751590962566088 9.6763913274978044e-06 0.0036685532233558405 0.015997941778706653 -0.00041114817416503988 0.0082150850066682324 -0.00083493652602390455 0.0044059972872834323 -4.9504277129963325e-06 0.00457847267249566 -0.0010639714472008086 -0.00031838687427807603
leaf_weight=5372 125390 1236 3081 25 1191 21 31 2742 34 28 21 20 40 25 22 20 73 25 21 940 39 21 36 24 22 34 76940 22 95 42
leaf_count=5372 125390 1236 3081 25 1191 21 31 2742 34 28 21 20 40 25 22 20 73 25 21 940 39 21 36 24 22 34 76940 22 95 42
internal_value=0 1.26796e-05 0.000338154 0.00056616 0.000756325 0.00107981 0.00114856 0.00108026 0.00329676 0.00556127 0.00868183 0.000986098 0.0010488 0.0046098 0.011372 -0.00360086 0.000967901 -0.00131672 0.00104893 -9.56646e-06 0.000548661 0.00216734 0.00485387 0.00768284 0.00388681 0.000849657 -2.08363e-05 -3.64023e-06 0.000206751 0.00179515
internal_weight=0 135299 8656 5575 4339 3148 3123 3092 126 105 71 2966 2926 65 50 40 2861 98 2763 126643 1253 313 103 67 46 210 82334 76962 171 76
internal_count=217633 135299 8656 5575 4339 3148 3123 3092 126 105 71 2966 2926 65 50 40 2861 98 2763 126643 1253 313 103 67 46 210 82334 76962 171 76
shrinkage=0.05


Tree=134
num_leaves=31
num_cat=0
split_feature=17 0 40 4 29 25 31 2 25 10 2 10 11 27 14 20 36 36 36 19 37 10 36 36 19 14 21 5 23 30
split_gain=0.0228918 0.16328 0.207481 0.298161 0.589314 0.575934 0.258358 0.0789458 0.0774625 0.0764664 0.0619887 0.0414388 0.203372 0.307876 0.106566 0.200603 0.0748153 0.173133 0.050985 0.255567 0.245612 0.137457 0.0482046 0.261827 0.241163 0.12518 0.0300983 0.0252691 0.0436619 0.0783117
threshold=-14.223749999999997 -8.8447699999999987 -3.3956749999999993 -0.088954349999999988 1.5735400000000003e-06 -0.052625149999999996 -0.35970249999999998 -2.7519549999999997 -0.060167999999999992 -1.4994649999999999e-05 -2.6524249999999996 2.6751950000000004e-05 0.0083088400000000014 0.036175450000000005 -6.530729999999998e-08 -6.3388799999999987 0.02582950000000005 1.9413290000000003 0.10022550000000004 1.7847250000000001 0.19792950000000006 -1.4552299999999998e-05 -0.17527649999999997 0.22528099999999995 -0.66781149999999989 1.5692150000000001e-06 0.91519300000000003 8.8143050000000017e-06 -0.0016081899999999998 2.6849000000000003
decision_type=2 2 2 2 2 2 2 2 2 2 2 2 2 2 2 2 2 2 2 2 2 2 2 2 2 2 2 2 2 2
left_child=1 2 -1 4 -4 -6 -5 8 -3 -8 -9 12 14 -14 15 16 -12 -18 20 26 21 -16 24 25 -13 -24 -20 28 -2 -30
right_child=27 7 3 6 5 -7 9 10 -10 -11 11 22 13 -15 18 -17 17 -19 19 -21 -22 -23 23 -25 -26 -27 -28 -29 29 -31
leaf_value=-0.00085529807646493323 -0.00035398612462302499 -0.0036256717845139191 -0.0017341154161840677 0.0046782464463500546 0.0028214171179570258 0.013499626890837176 0.0021174716326081231 0.0026340013957056015 -0.00029714678873708842 -0.00092941431581457061 -0.0011447118359958336 0.0045549807405693395 -0.00045596083336104959 0.0081155313069211834 -0.00098608436670805208 0.0053653476786376603 0.005414380395013723 -0.00017668899160677636 -0.00011293803889799281 0.004223891181639996 -9.0869970173069255e-05 -0.0064051030117552726 -0.0063448344536246384 -0.0001934246568620184 -0.0001808665353976835 -0.0011258110372000373 0.0014682436199450423 -6.4004671807448604e-06 5.6567515392427835e-05 0.00068193544674265095
leaf_weight=89 605 29 25 33 28 23 26 23 44 99 43 29 22 20 22 26 20 45 506 38 509 25 27 430 368 20 32 200485 13422 520
leaf_count=89 605 29 25 33 28 23 26 23 44 99 43 29 22 20 22 26 20 45 506 38 509 25 27 430 368 20 32 200485 13422 520
internal_value=0 0.000147445 0.00119951 0.00198104 0.00455445 0.00763708 0.000743192 -1.72845e-06 -0.00161944 -0.000295662 5.18284e-05 2.46102e-05 0.000202724 0.0036257 8.91657e-05 0.00142249 0.000473278 0.00154364 -6.86654e-05 0.000261016 -0.000410205 -0.00386854 -0.000241949 -0.000580711 0.000165077 -0.00412397 -1.88901e-05 -1.78347e-06 6.18474e-05 7.98921e-05
internal_weight=0 2601 323 234 76 51 158 2278 73 125 2205 2182 1308 42 1266 134 108 65 1132 576 556 47 874 477 397 47 538 215032 14547 13942
internal_count=217633 2601 323 234 76 51 158 2278 73 125 2205 2182 1308 42 1266 134 108 65 1132 576 556 47 874 477 397 47 538 215032 14547 13942
shrinkage=0.05


Tree=135
num_leaves=31
num_cat=0
split_feature=37 18 3 32 13 36 36 16 19 7 17 2 10 36 1 8 8 11 11 1 15 40 17 36 40 0 3 21 5 13
split_gain=0.0223009 0.707782 0.0231867 0.110922 0.388237 0.398026 1.13317 0.668711 0.291054 0.0992264 0.0992161 0.154174 0.12049 0.185169 0.0907601 0.0743958 0.0862855 0.191727 0.264156 0.0720494 0.0687985 0.0574803 0.171815 0.444596 0.286732 0.606495 0.435201 0.372505 0.308939 0.202546
threshold=5.6849350000000003 -3.7984549999999992 -11.042399999999999 -0.43959349999999991 -1.3281999999999998e-05 0.86046950000000011 -0.49100999999999978 0.0070645400000000011 -1.2681999999999998 5.2649200000000011e-05 -7.8361449999999992 -2.5264449999999994 -3.5092449999999993e-05 0.38220950000000015 -5.9210599999999998 1.1875600000000002e-05 1.8512400000000006e-05 0.0090263400000000025 0.0027461200000000003 4.3945300000000005 -1.8670099999999997e-06 1.5039450000000001 -6.2436999999999996 5.6762150000000009 -0.16918499999999967 -3.5052499999999998 -14.267049999999999 0.56550400000000012 1.3860800000000001e-05 -2.2582199999999995e-06
decision_type=2 2 2 2 2 2 2 2 2 2 2 2 2 2 2 2 2 2 2 2 2 2 2 2 2 2 2 2 2 2
left_child=2 -2 3 4 5 6 -1 8 -8 10 11 -6 13 -12 -14 20 17 18 -17 -13 -16 22 23 24 25 26 29 -28 -29 -5
right_child=1 -3 -4 21 9 -7 7 -9 -10 -11 12 19 14 -15 15 16 -18 -19 -20 -21 -22 -23 -24 -25 -26 -27 27 28 -30 -31
leaf_value=-0.00018917898157501351 0.0073239893214229277 -3.8301218335787138e-05 -1.1226980165259211e-05 0.0046077300984920426 0.0046549475985970768 -0.00035309525092419461 0.0064609106705756855 0.002466550707901517 0.014149889032705688 0.0025326541182841863 -0.0051951464781589442 -0.00033530074753201265 -0.0034816415987387744 -0.00017633497391670973 -0.0042042493428743914 0.00028521184187276823 -0.00029444969655605569 -0.0015927503627357635 0.0077622525053032271 0.0021313366128245101 -0.00019452346991190848 -1.6336371101588364e-05 5.0336903269386365e-05 0.0080697072925977418 -0.0003153084735270594 7.4207181512666554e-05 0.0011219492944490128 0.010958235647995026 0.0021699018159415571 0.011560049867257477
leaf_weight=102 34 819 155863 22 22 110 20 38 32 34 34 134 21 40 20 27 253 29 21 38 23 41378 17384 20 520 388 147 20 20 20
leaf_count=102 34 819 155863 22 22 110 20 38 32 34 34 134 21 40 20 27 253 29 21 38 23 41378 17384 20 520 388 147 20 20 20
internal_value=0 0.000255155 -1.004e-06 2.51526e-05 0.000547943 0.00204506 0.003419 0.00750826 0.0111926 -0.000101666 -0.000236964 0.000713759 -0.000631067 -0.00248228 -0.000283378 -0.000103315 0.000151583 0.00161712 0.00355642 0.000209654 -0.00205951 1.64451e-05 8.96038e-05 0.000679591 0.000549597 0.00127853 0.00331904 0.00228604 0.00656407 0.00791836
internal_weight=0 853 216780 60917 998 302 192 90 52 696 662 194 468 74 394 373 330 77 48 172 43 59919 18541 1157 1137 617 229 187 40 42
internal_count=217633 853 216780 60917 998 302 192 90 52 696 662 194 468 74 394 373 330 77 48 172 43 59919 18541 1157 1137 617 229 187 40 42
shrinkage=0.05


Tree=136
num_leaves=31
num_cat=0
split_feature=4 27 10 4 21 37 36 4 24 3 30 40 11 40 37 37 10 33 27 36 29 32 40 14 5 28 23 6 4 23
split_gain=0.02172 0.0535501 0.0567981 0.0403045 0.965396 0.640749 3.1822 0.952827 0.953326 0.944638 1.13642 0.89444 0.78398 0.675681 0.840818 1.03147 0.81052 0.59233 0.772095 0.569909 0.660395 0.560202 0.696581 0.511385 0.520295 0.903036 0.753257 0.499756 0.407208 0.400654
threshold=4.1822950000000008 0.35534200000000005 6.4449800000000021e-05 0.17191050000000002 0.21995000000000003 0.35345999999999994 0.2761725000000001 1.5563800000000001 1.3446500000000003 -15.040049999999999 3.5771350000000006 3.6866600000000003 0.0083088400000000014 -4.1215849999999987 0.078754999999999922 -0.057539999999999918 -1.4146449999999999e-05 1.4797450000000002e-05 0.0095837200000000022 -0.17527649999999997 -3.4237299999999992e-05 0.12161000000000001 0.7622899999999998 2.5810200000000002e-07 1.2293000000000001e-05 -1.3507849999999997 -0.0037174099999999996 -3.153044999999999e-08 0.34232900000000005 -0.00029873799999999994
decision_type=2 2 2 2 2 2 2 2 2 2 2 2 2 2 2 2 2 2 2 2 2 2 2 2 2 2 2 2 2 2
left_child=3 -2 -3 -1 -5 6 7 8 28 10 -9 12 13 -10 15 23 -16 18 19 -18 -21 22 -17 -15 25 -25 -26 -27 -6 -28
right_child=1 2 -4 4 5 -7 -8 9 11 -11 -12 -13 -14 14 16 21 17 -19 -20 20 -22 -23 -24 24 26 27 29 -29 -30 -31
leaf_value=-8.0265046016082368e-06 -4.8051307002543224e-05 -0.0037232584937009964 -0.00044596316513959141 -7.7874698787008164e-05 0.0023596484163557231 -1.0912499959878271e-05 1.443019683802321e-05 0.0001877551162314992 -0.00010600831768863158 -0.0008126833559602563 0.015046575546941974 -0.0014001408145607761 0.008842761896232355 0.0010510088581787912 0.012572361599653959 0.001983465311236892 0.00031414515343062849 0.012586738191418013 -0.0045477359560723218 0.015268015650951344 0.0042311702091176288 -0.0035414609401050257 0.0083975182648034809 -0.0048387783044017852 0.018438537353649736 0.0027334956480190159 0.004600219802306767 0.012731054760515691 -0.00030417345649802171 0.011666299700071769
leaf_weight=151301 17646 20 39 37384 328 4507 4583 31 106 346 22 81 79 38 50 426 31 22 23 23 33 40 47 20 20 25 47 25 255 35
leaf_count=151301 17646 20 39 37384 328 4507 4583 31 106 346 22 81 79 38 50 426 31 22 23 23 33 40 47 20 20 25 47 25 255 35
internal_value=0 -5.30794e-05 -0.00155691 4.70055e-06 4.43003e-05 0.000450543 0.000759299 0.00234487 0.00284655 0.00013949 0.00635557 0.00366904 0.00404574 0.0036709 0.00411328 0.00334863 0.00715088 0.00509729 0.0035994 0.00575324 0.00876416 0.00214031 0.0026208 0.00630037 0.00746011 0.00414055 0.00973825 0.00773228 0.00119451 0.00761623
internal_weight=0 17705 59 199928 48627 11243 6736 2153 1754 399 53 1171 1090 1011 905 723 182 132 110 87 56 513 473 210 172 70 102 50 583 82
internal_count=217633 17705 59 199928 48627 11243 6736 2153 1754 399 53 1171 1090 1011 905 723 182 132 110 87 56 513 473 210 172 70 102 50 583 82
shrinkage=0.05


Tree=137
num_leaves=31
num_cat=0
split_feature=22 36 1 6 13 16 36 37 36 20 3 39 3 40 3 27 26 0 33 17 26 15 13 39 17 6 37 36 13 40
split_gain=0.0221361 0.11042 0.313323 0.134279 0.11393 0.251942 0.238681 0.287487 1.08089 0.468697 0.527411 0.41896 0.375954 0.333285 0.322578 0.383092 0.286051 0.39759 0.493461 0.294468 0.621124 0.209354 0.198179 0.132985 0.131443 0.127539 0.124881 1.24884 0.889693 0.995081
threshold=2.3108700000000004 5.6762150000000009 0.63221400000000016 -8.2463199999999984e-07 8.2193200000000006e-07 5.8709150000000007e-05 -5.6825599999999996 0.37828249999999997 0.2761725000000001 -6.2653549999999987 -6.6293999999999995 -2.4699349999999991 -12.833899999999998 -1.5612350000000006 -5.946604999999999 0.024062950000000003 0.13068350000000004 0.63201800000000008 6.0851150000000021e-08 -2.7544749999999998 0.028609250000000006 1.7622650000000003e-05 2.1242850000000004e-06 0.60048999999999852 4.5525700000000011 -1.1991399999999997e-06 0.24875600000000014 0.14973499999999998 -3.5700899999999991e-07 -0.89938499999999999
decision_type=2 2 2 2 2 2 2 2 2 2 2 2 2 2 2 2 2 2 2 2 2 2 2 2 2 2 2 2 2 2
left_child=-1 4 -3 -4 26 6 -6 8 9 10 11 -8 -13 -14 21 -16 17 19 -19 25 -21 -12 -11 24 -20 -15 27 28 -2 -30
right_child=1 2 3 -5 5 -7 7 -9 -10 22 14 12 13 16 15 -17 -18 18 23 20 -22 -23 -24 -25 -26 -27 -28 -29 29 -31
leaf_value=8.1731624467289975e-06 -0.00031686235254459525 0.0057782446237744749 0.0040653676092915706 -0.00033772193907165375 0.0058171776638898465 -2.3840297453811123e-05 -0.0021891121560429386 -8.4659976160773474e-05 -4.7659639991556508e-05 0.003524254463030957 -0.00099381401943641578 0.0085493926143720492 -0.00011140145744623928 0.0016069453454110772 -0.00085810666353976792 0.0070170276595846477 -0.00023821851063985378 -0.0040472512377337328 0.0061589162093393197 0.0041540631023235615 0.01646599721252209 -0.0073086358049684877 0.0093529364255456517 0.0081115056958515203 0.0012639309837311431 0.0072536103517631999 2.3560875240384493e-05 1.7820236567050691e-06 -0.00093466644240180672 -0.0037909831396709193
leaf_weight=172355 1417 31 20 129 21 11132 32 1278 977 25 35 37 60 20 47 23 32 21 24 20 21 21 35 20 32 20 13736 14764 718 530
leaf_count=172355 1417 31 20 129 21 11132 32 1278 977 25 35 37 60 20 47 23 32 21 24 20 21 21 35 20 32 20 13736 14764 718 530
internal_value=0 -3.11119e-05 0.00120482 0.000253297 -3.60449e-05 8.28114e-05 0.000506677 0.000466561 0.000935577 0.00276533 0.00222869 0.00325529 0.00382279 0.00317507 -0.000533367 0.00172944 0.00411406 0.00489649 0.00273709 0.00748245 0.0104602 -0.00336187 0.00692432 0.00461171 0.00336178 0.00443028 -8.91822e-05 -0.000178036 -0.00117422 -0.00214769
internal_weight=0 45278 180 149 45098 13933 2801 2780 1502 525 465 339 307 270 126 70 210 178 97 81 41 56 60 76 56 40 31165 17429 2665 1248
internal_count=217633 45278 180 149 45098 13933 2801 2780 1502 525 465 339 307 270 126 70 210 178 97 81 41 56 60 76 56 40 31165 17429 2665 1248
shrinkage=0.05


Tree=138
num_leaves=31
num_cat=0
split_feature=4 15 34 37 37 4 40 3 20 39 15 35 22 5 21 10 18 17 17 36 36 40 30 4 22 22 15 40 36 39
split_gain=0.0202634 0.0456038 0.627888 0.435441 1.92002 0.773954 0.704987 0.708534 0.600851 0.591766 1.09226 0.747985 0.798867 0.76293 0.664292 0.600012 0.545177 0.528842 0.859204 0.644779 0.517237 0.957719 0.820215 0.803452 0.881128 0.877648 0.742825 0.458757 0.836596 0.781204
threshold=-2.2787549999999999 -1.6062999999999998e-06 0.00022212900000000003 -0.25176499999999996 0.14791590000000002 0.019144700000000004 -1.7773799999999997 -13.989599999999998 -15.921249999999999 0.80790999999999979 -8.547639999999998e-05 0.029330700000000005 21.272000000000002 1.3920850000000002e-05 -0.59879749999999998 1.0260100000000002e-05 1.6414900000000003 8.4869350000000026 -5.8330499999999992 0.056773999999999998 0.056773999999999998 0.65993499999999961 0.29738350000000008 -0.75155249999999996 0.65801200000000015 1.2555050000000001 -5.194759999999999e-05 0.31988499999999936 -0.058960000000000005 -1.9691099999999999
decision_type=2 2 2 2 2 2 2 2 2 2 2 2 2 2 2 2 2 2 2 2 2 2 2 2 2 2 2 2 2 2
left_child=-1 2 -2 -4 5 6 7 16 -7 11 14 12 20 -13 -11 -14 -5 18 -12 -20 27 23 -23 -22 -25 -26 -24 28 -8 -29
right_child=1 -3 3 4 -6 8 9 -9 -10 10 17 13 15 -15 -16 -17 -18 -19 19 -21 21 22 26 24 25 -27 -28 29 -30 -31
leaf_value=-3.9288621906881957e-05 -8.9574209646340198e-05 -9.2801549471689016e-06 5.2899714506149702e-06 0.00076369760735403927 5.5071066932104561e-05 0.003829838045567158 0.0060568314269543273 -0.00043868616924153808 -0.0039962354469129683 0.0045808823101899845 0.012828367512913481 0.002238003588614187 0.0030632669127292258 -0.010943501357637022 -0.0053072208987682001 0.015029250536463224 0.012298387235496193 0.01400518497102894 0.006332255101762713 -0.0032563159548401558 -0.0013052910321026245 -0.00096207542930142509 0.012634022608399393 0.016269453235257133 -0.0034372451482340693 0.0081785092949224949 3.6623532121831724e-05 -0.00030997909193891768 0.00072893063832124517 0.0041414212726478541
leaf_weight=28518 32560 136695 8823 21 7837 32 78 516 105 33 31 21 22 23 35 20 20 24 50 27 28 131 25 26 20 87 22 140 1330 333
leaf_count=28518 32560 136695 8823 21 7837 32 78 516 105 33 31 21 22 23 35 20 20 24 50 27 28 131 25 26 20 87 22 140 1330 333
internal_value=0 5.92461e-06 4.55739e-05 0.000267146 0.000476474 0.00150852 0.00167297 6.39916e-05 -0.00216825 0.00203059 0.00463956 0.00180431 0.00192991 -0.00465233 -0.000508583 0.00876135 0.00639038 0.00729164 0.00579974 0.00297003 0.00180066 0.00359843 0.00107092 0.00639281 0.00801347 0.00600734 0.00673737 0.00147666 0.00102408 0.00282388
internal_weight=0 189115 52420 19860 11037 3200 3063 557 137 2506 200 2306 2262 44 68 42 41 132 108 77 2220 339 178 161 133 107 47 1881 1408 473
internal_count=217633 189115 52420 19860 11037 3200 3063 557 137 2506 200 2306 2262 44 68 42 41 132 108 77 2220 339 178 161 133 107 47 1881 1408 473
shrinkage=0.05


Tree=139
num_leaves=31
num_cat=0
split_feature=24 36 18 4 21 4 36 37 40 3 39 23 40 36 36 4 20 32 34 18 17 39 39 3 14 36 39 7 18 17
split_gain=0.021484 0.0999833 0.671983 0.0812819 0.622348 0.779592 0.863074 2.95011 0.780657 0.697584 1.29959 1.28028 1.22479 0.691759 0.532506 0.529143 0.529016 0.546248 0.525732 0.397086 0.373956 0.318364 0.5281 0.433428 0.425427 0.361375 0.293539 0.27541 0.262925 0.241937
threshold=2.2852800000000006 5.6762150000000009 2.9920850000000008 0.18356700000000004 0.25201650000000003 1.5563800000000001 0.38220950000000015 0.35345999999999994 3.6866600000000003 -10.156199999999998 1.1890849999999997 -0.00039100399999999997 1.3201050000000005 -0.10081500000000009 0.077348000000000056 0.73862450000000013 -9.0882149999999982 -0.11978799999999999 -0.076179349999999993 8.6910200000000017 -9.7539799999999968 -1.6462299999999999 -0.23716000000000023 -5.7548799999999991 3.6875050000000006e-06 0.056773999999999998 2.2683550000000001 -3.3572249999999994e-05 -8.9484099999999973 9.3032900000000023
decision_type=2 2 2 2 2 2 2 2 2 2 2 2 2 2 2 2 2 2 2 2 2 2 2 2 2 2 2 2 2 2
left_child=-1 3 -3 -2 -5 6 7 8 9 10 12 26 13 -6 18 -14 19 -18 -15 20 -11 -19 24 28 25 -23 -12 -22 -24 -30
right_child=1 2 -4 4 5 -7 -8 -9 -10 16 11 -13 15 14 -16 -17 17 21 -20 -21 27 22 23 -25 -26 -27 -28 -29 29 -31
leaf_value=8.051975766771263e-06 -7.968036289195086e-05 -0.00022082478408507692 0.0079766336740188619 -0.00028033592869122423 0.009596092537875571 -0.00011681882741592964 -0.00013738825684396402 -1.7070692756022239e-05 -0.0017725738795724894 0.0066072988307860209 0.013487820318550803 0.0026589772502041385 0.0057367686718476545 -0.0064723676353049308 0.007160027075389569 0.014994322739798447 0.010774688215540916 -0.0023326803163702908 0.0012213452417965344 0.0073093802374470142 -0.0052454965710812427 0.0067491873864069466 0.0062274858005337361 0.0090655736950187322 0.00080405919050628499 0.014478575815446676 0.021689603794366123 0.00031916292903747131 0.00018363381946174843 0.0044169820788212957
leaf_weight=172354 31400 150 30 6657 23 3625 1210 1290 61 20 24 23 33 34 22 29 29 21 64 22 27 62 31 24 22 20 20 126 135 45
leaf_count=172354 31400 150 30 6657 23 3625 1210 1290 61 20 24 23 33 34 22 29 29 21 64 22 27 62 31 24 22 20 20 126 135 45
internal_value=0 -3.06498e-05 0.00114542 -3.53437e-05 6.62821e-05 0.00039395 0.00093581 0.0015242 0.00369239 0.00408183 0.00617331 0.0122187 0.00419749 0.0016527 0.000130218 0.0100669 0.00310772 0.00417319 -0.0014479 0.000982249 0.000177642 0.0036414 0.00401148 0.00269864 0.00697798 0.0086344 0.0172159 -0.000662836 0.00197444 0.00124197
internal_weight=0 45279 180 45099 13699 7042 3417 2207 917 856 272 67 205 143 120 62 584 389 98 195 173 360 339 235 104 82 44 153 211 180
internal_count=217633 45279 180 45099 13699 7042 3417 2207 917 856 272 67 205 143 120 62 584 389 98 195 173 360 339 235 104 82 44 153 211 180
shrinkage=0.05


Tree=140
num_leaves=31
num_cat=0
split_feature=18 13 13 1 3 30 13 13 15 27 36 22 36 36 40 16 39 3 30 11 17 18 18 18 17 39 13 7 36 6
split_gain=0.0206454 0.13237 0.341727 0.752319 0.132903 0.0453623 0.176002 0.0423769 0.0504154 0.0298157 0.0281379 0.0267207 0.108338 1.49494 0.751087 1.46615 1.14116 0.998631 0.76756 1.21737 0.635609 0.568401 0.63678 0.563793 0.518499 0.603506 0.390589 0.4446 0.39011 0.373837
threshold=-19.754149999999996 6.5238050000000013e-06 2.1581450000000003e-05 -3.9068649999999994 -13.897099999999998 2.3658200000000007 3.2990050000000008e-07 1.5560450000000002e-06 -2.9139699999999996e-06 0.35534200000000005 -4.1172299999999993 5.8644050000000005 0.14973499999999998 -0.10081500000000009 -1.1537099999999991 8.0243550000000009e-08 -0.82558500000000012 -10.279999999999999 1.9974350000000001 0.022777000000000002 -3.7927449999999996 -6.0049649999999994 5.1273750000000007 0.93373450000000013 8.0730100000000018 3.1865250000000005 -3.9349849999999991e-05 6.4682750000000014e-05 0.10022550000000004 -5.390634999999999e-07
decision_type=2 2 2 2 2 2 2 2 2 2 2 2 2 2 2 2 2 2 2 2 2 2 2 2 2 2 2 2 2 2
left_child=1 5 3 -3 -4 6 -1 10 -9 -6 -7 -2 13 -13 17 16 -16 24 21 20 -20 -17 26 -22 25 -15 -23 28 -28 -24
right_child=11 2 4 -5 9 7 -8 8 -10 -11 -12 12 -14 14 15 18 -18 -19 19 -21 23 22 29 -25 -26 -27 27 -29 -30 -31
leaf_value=-0.00031285531219796736 5.2271537224843565e-06 0.011378475182573311 0.003182318043224898 -0.00033227075523427634 -0.00018384009629793081 0.0016008274833122572 0.0050920886216977122 -0.0029866870420940765 0.00018745439743228913 -0.0020117930326766023 -0.00018542436651240084 4.1241856198274226e-05 6.7077568129845599e-05 0.0062537437153243744 -0.0029172816997743213 -0.0039803426386857315 -0.015339978750010856 -0.0012229514775610067 -0.012508951684105256 0.0036993718329661838 0.00061843662185530216 -0.004339698940726301 -0.00013256337887679155 -0.0084027346786718048 0.010433837354183198 -0.002394484500645807 0.0016294115515719497 0.0082334789272863421 -0.0035924304115247823 -0.0046410610784992706
leaf_weight=61 192621 24 28 32 87 23 20 29 22 30 532 11842 10802 43 36 148 38 480 42 30 29 33 78 43 25 38 241 22 42 112
leaf_count=61 192621 24 28 32 87 23 20 29 22 30 532 11842 10802 43 36 148 38 480 42 30 29 33 78 43 25 38 241 22 42 112
internal_value=0 0.000240595 0.00136919 0.00468662 8.79795e-05 -8.96056e-05 0.0010217 -0.000238146 -0.00161745 -0.000652546 -0.0001114 -9.85714e-07 -5.05931e-05 -0.000146005 -0.00164423 -0.00255617 -0.0092965 -0.000252987 -0.0019479 -0.00526235 -0.00762069 -0.00124186 -0.000474254 -0.00476921 0.00413931 0.00219655 0.000827611 0.0013867 0.000854439 -0.0027902
internal_weight=0 888 201 56 145 687 81 606 51 117 555 216745 24124 13322 1480 894 74 586 820 144 114 676 528 72 106 81 338 305 283 190
internal_count=217633 888 201 56 145 687 81 606 51 117 555 216745 24124 13322 1480 894 74 586 820 144 114 676 528 72 106 81 338 305 283 190
shrinkage=0.05


Tree=141
num_leaves=31
num_cat=0
split_feature=17 0 39 4 29 25 34 2 39 10 2 10 11 27 14 18 0 13 39 9 36 36 19 14 0 9 2 9 36 22
split_gain=0.0208239 0.138328 0.182951 0.259253 0.515119 0.511878 0.324028 0.0685362 0.0678225 0.060986 0.0552183 0.0369597 0.173796 0.265101 0.0916472 0.180969 0.0959999 0.0487242 0.130122 0.0494784 0.0420559 0.226366 0.21301 0.10867 0.0296391 0.0630506 0.031542 0.0318569 0.0298476 0.0256711
threshold=-14.223749999999997 -8.8447699999999987 3.4885250000000001 -0.088954349999999988 1.5735400000000003e-06 -0.052625149999999996 -0.21186449999999998 -2.7519549999999997 -2.0405449999999985 -1.4994649999999999e-05 -2.6524249999999996 2.6751950000000004e-05 0.0083088400000000014 0.036175450000000005 -6.530729999999998e-08 14.999250000000002 -4.5031199999999991 -1.4853299999999997e-05 0.60048999999999852 -8.0872649999999985e-05 -0.17527649999999997 0.22528099999999995 -0.66781149999999989 1.5692150000000001e-06 -7.5291399999999991 -1.7190199999999997e-05 2.3560350000000008 -4.2495899999999994e-05 0.9482394999999999 5.8644050000000005
decision_type=2 2 2 2 2 2 2 2 2 2 2 2 2 2 2 2 2 2 2 2 2 2 2 2 2 2 2 2 2 2
left_child=1 2 3 4 -1 -6 -5 8 -3 -8 -9 12 14 -14 15 16 -12 18 -16 -19 22 23 -13 -22 25 -21 27 -26 -28 -2
right_child=29 7 -4 6 5 -7 9 10 -10 -11 11 20 13 -15 17 -17 -18 19 -20 24 21 -23 -24 -25 26 -27 28 -29 -30 -31
leaf_value=-0.0016368976309895516 4.25933867294322e-06 -0.00015754904280340003 -0.00082054299675516815 0.0060389127623542063 0.0025845713231579534 0.012651461387134117 0.0019043202268641418 0.0024903109924786764 -0.0032290554998326117 -0.00079304035783243985 0.0036110191209618712 0.0042816949490425658 -0.00042745980356771317 0.0075263235077727593 -0.00036212960210258121 0.0057141385004797485 -0.00013186730616250166 -0.00237655795418353 0.0046204236669518655 0.0031163808937311513 -0.0059044496380482557 -0.00018051756732580376 -0.00016914722469298636 -0.0010417597729247064 0.0018930078225457691 -0.00040768785280912811 -0.0028785167494788768 -0.00012374394201796182 -0.00023744725660198248 -5.1774696244098083e-05
leaf_weight=25 192159 41 89 24 28 23 26 23 32 108 21 29 22 20 38 20 93 24 20 22 27 430 368 20 20 30 20 935 23 22873
leaf_count=25 192159 41 89 24 28 23 26 23 32 108 21 29 22 20 38 20 93 24 20 22 27 430 368 20 20 30 20 935 23 22873
internal_value=0 0.000140628 0.00110897 0.00184285 0.00424249 0.00712454 0.000688594 3.3247e-06 -0.00150396 -0.000269672 5.32258e-05 2.7537e-05 0.00019575 0.00336006 9.07728e-05 0.00132724 0.000557612 -5.55938e-05 0.00135599 -0.000131825 -0.000224205 -0.000540625 0.000155977 -0.00383522 -8.05165e-05 0.00108326 -0.000141154 -8.15083e-05 -0.00146585 -1.70101e-06
internal_weight=0 2601 323 234 76 51 158 2278 73 134 2205 2182 1308 42 1266 134 114 1132 58 1074 874 477 397 47 1050 52 998 955 43 215032
internal_count=217633 2601 323 234 76 51 158 2278 73 134 2205 2182 1308 42 1266 134 114 1132 58 1074 874 477 397 47 1050 52 998 955 43 215032
shrinkage=0.05


Tree=142
num_leaves=31
num_cat=0
split_feature=18 3 7 35 10 8 4 12 1 37 37 37 27 1 12 8 15 37 22 4 21 4 38 37 40 38 9 31 39 18
split_gain=0.0196181 0.12442 0.09244 0.0508964 0.117122 0.193377 0.178496 0.0504384 0.10324 0.115675 0.0907508 0.237266 0.0447436 0.0555242 0.0380787 0.0314643 0.0239455 0.0459726 0.0227168 0.0894278 0.563756 0.699824 0.785891 2.87354 0.722951 0.685176 0.628572 0.805917 0.600367 0.672026
threshold=18.392150000000004 -4.8298799999999993 6.4682750000000014e-05 0.17438400000000001 2.6137250000000005e-05 1.9891650000000005e-05 -1.3105149999999999 -1.8360349999999999e-07 9.4357350000000029 -0.25176499999999996 0.54185499999999998 -0.15132349999999997 0.030440600000000005 6.7196500000000006 4.4044100000000007e-07 2.6290250000000001e-05 0.0073236350000000011 0.040430000000000084 2.3108700000000004 0.18356700000000004 0.25201650000000003 1.5563800000000001 0.354709 0.35345999999999994 3.6866600000000003 0.077348000000000056 4.8912350000000013e-05 -0.35970249999999998 -1.2170650000000005 -12.332599999999998
decision_type=2 2 2 2 2 2 2 2 2 2 2 2 2 2 2 2 2 2 2 2 2 2 2 2 2 2 2 2 2 2
left_child=18 2 3 7 -5 -6 -7 10 12 -10 11 15 14 16 -9 -2 17 -14 -1 -20 -21 22 23 24 25 28 27 -27 -22 -30
right_child=1 -3 -4 4 5 6 -8 8 9 -11 -12 -13 13 -15 -16 -17 -18 -19 19 20 21 -23 -24 -25 -26 26 -28 -29 29 -31
leaf_value=7.3205127325277469e-06 -0.0021506378736202828 0.0037203827649354934 0.003008404370134317 -0.00031086436247119471 0.0060576008354639105 0.0047388991241210272 -0.00061711812603486283 -0.00016269556311575192 -0.00054161457879845756 0.0044062717679750037 0.00026333992415857212 -0.0064328135274674585 -0.0020376325394624332 -0.003011564223284257 0.0027913453735527584 0.00018511914946113553 0.0013319733720527438 -8.2472176773585996e-05 -7.9566457966722423e-05 -0.00025795648742066155 0.0076439725039391853 -9.9418036967266693e-05 -0.00011283778381663163 -5.6662891606484912e-05 -0.00170640348302895 0.014411198582855009 0.012695966215272034 0.0038922130988475728 0.011712630558758975 0.0023836233908358581
leaf_weight=172355 21 25 27 143 22 21 60 24 21 27 80 23 38 21 20 46 20 144 30982 6559 69 3575 1216 1267 59 21 35 137 20 555
leaf_count=172355 21 25 27 143 22 21 60 24 21 27 80 23 38 21 20 46 20 144 30982 6559 69 3575 1216 1267 59 21 35 137 20 555
internal_value=0 0.000249825 0.00013536 2.92424e-05 0.000615055 0.00190055 0.000771479 -0.000267891 0.000106693 0.00224157 -0.000961973 -0.00205114 -0.000277106 -0.000564616 0.00118005 -0.000546984 -0.000310231 -0.000490692 -9.02064e-07 -3.27529e-05 7.45792e-05 0.000388226 0.000904156 0.00147589 0.00364302 0.0040201 0.0066333 0.00529031 0.00323695 0.00270811
internal_weight=0 783 758 731 246 103 81 485 315 48 170 90 267 223 44 67 202 182 216850 44495 13513 6954 3379 2163 896 837 193 158 644 575
internal_count=217633 783 758 731 246 103 81 485 315 48 170 90 267 223 44 67 202 182 216850 44495 13513 6954 3379 2163 896 837 193 158 644 575
shrinkage=0.05


Tree=143
num_leaves=31
num_cat=0
split_feature=17 39 3 0 10 15 11 40 0 30 12 28 19 2 9 2 8 10 8 29 26 9 16 9 9 30 26 0 3 36
split_gain=0.0201422 0.121113 0.295706 0.971027 0.881619 0.209067 0.298534 0.133115 0.233912 0.286445 0.222123 0.196914 0.188087 0.187613 0.186412 0.12741 0.149248 0.120904 0.135716 0.118907 0.117417 0.274797 0.460412 0.101845 0.096503 0.10812 0.0836597 0.110973 0.191061 0.177838
threshold=-8.175164999999998 -0.19603999999999996 -12.203099999999997 -4.3615599999999999 2.1772650000000002e-05 -0.0012949349999999999 0.041697100000000008 -0.47859499999999983 -4.8003249999999991 0.029684750000000006 -5.8105949999999988e-08 0.066310100000000011 -2.9378149999999996 2.9157100000000002 -3.4539199999999996e-05 -2.7703699999999993 2.5545350000000001e-05 1.6852200000000004e-05 4.0835050000000008e-05 -0.00090391799999999997 -0.24353549999999999 5.0670100000000008e-05 0.0017507150000000001 -0.0001144375 -2.6900849999999998e-05 0.12216150000000002 0.11680600000000001 -4.3615599999999999 -6.7859549999999986 -0.19934349999999995
decision_type=2 2 2 2 2 2 2 2 2 2 2 2 2 2 2 2 2 2 2 2 2 2 2 2 2 2 2 2 2 2
left_child=1 20 3 4 -3 6 -5 -4 9 11 13 14 -12 15 -9 -11 -17 24 -19 -10 21 -1 -23 -7 25 -14 -22 28 29 -28
right_child=-2 2 7 5 -6 23 -8 8 19 10 12 -13 17 -15 -16 16 -18 18 -20 -21 26 22 -24 -25 -26 -27 27 -29 -30 -31
leaf_value=-7.4729870031924972e-05 -5.613659408619189e-06 0.012462467283808759 3.1200683301600014e-05 0.0076651004784071127 0.0013181263422464126 -0.0037201787514883713 -0.00068751494555385761 -0.00068374137799555063 -0.0037896230258324761 0.0063316805771319196 0.0046870256931450067 -0.0043540819532652333 0.0055432717579173016 0.006958509472515916 0.00094843072941840773 0.0060768064923468054 0.001419613222796903 -0.0045247999377655409 0.00038603210940731087 5.0643144235329492e-06 -3.9529657352285046e-05 0.0077937871249399481 0.00057408290528064034 -0.00021215130748411567 -0.00022365346915783585 0.00071962944491063422 -5.2725802097565329e-05 -0.0001935188822694386 0.0035799220953776968 -0.0023384428597811391
leaf_weight=227 191545 35 9772 20 36 24 23 233 21 20 27 21 21 29 702 20 123 24 34 1218 11541 34 63 150 54 26 140 1213 20 217
leaf_count=227 191545 35 9772 20 36 24 23 233 21 20 27 21 21 29 702 20 123 24 34 1218 11541 34 63 150 54 26 140 1213 20 217
internal_value=0 4.1217e-05 0.000152399 0.00173618 0.00681182 7.54939e-05 0.00319742 0.00011545 0.000435421 0.000894866 0.00206005 0.000434154 0.00082861 0.00325302 0.000541697 0.00259376 0.00207097 0.000173407 -0.00164604 -5.92524e-05 -6.31723e-05 0.000877137 0.0031047 -0.000696017 0.00121824 0.00287487 -8.63739e-05 -0.000426392 -0.00117566 -0.00144208
internal_weight=0 26088 12633 288 71 217 43 12345 2573 1334 378 956 186 192 935 163 143 159 58 1239 13455 324 97 174 101 47 13131 1590 377 357
internal_count=217633 26088 12633 288 71 217 43 12345 2573 1334 378 956 186 192 935 163 143 159 58 1239 13455 324 97 174 101 47 13131 1590 377 357
shrinkage=0.05


Tree=144
num_leaves=31
num_cat=0
split_feature=37 18 18 1 13 13 1 29 8 32 1 13 37 36 36 1 15 15 22 36 36 16 8 20 17 18 10 9 1 34
split_gain=0.0190137 0.626713 0.020373 0.118709 0.0768165 0.225421 0.356183 0.11403 0.193931 0.0484836 0.119223 0.265949 0.0415432 0.129373 0.0976382 0.04839 0.0290089 0.0270623 0.0263401 0.112231 1.38424 0.530101 0.422634 0.512274 0.367845 0.52204 0.401687 0.443067 0.441166 0.477615
threshold=5.6849350000000003 -3.7984549999999992 -19.754149999999996 -13.470699999999999 8.7195400000000012e-06 2.1581450000000003e-05 -2.5377799999999993 -0.00058211249999999993 3.3048950000000005e-05 0.14537000000000003 -2.5377799999999993 1.0372650000000001e-07 -0.66104499999999999 -0.32870999999999989 0.1751400000000001 -3.9068649999999994 -1.1273899999999999e-05 0.00029248800000000009 5.8644050000000005 0.14973499999999998 -0.10081500000000009 8.0243550000000009e-08 5.1498350000000005e-05 -8.5818999999999992 8.0730100000000018 12.832950000000002 -5.5566899999999992e-07 -2.0367299999999997e-05 5.8094700000000001 -0.0154986
decision_type=2 2 2 2 2 2 2 2 2 2 2 2 2 2 2 2 2 2 2 2 2 2 2 2 2 2 2 2 2 2
left_child=2 -2 3 -1 9 6 -6 8 -7 10 11 -5 17 16 15 -15 -14 -11 -4 20 -20 22 23 -22 26 -26 27 28 -23 -30
right_child=1 -3 18 4 5 7 -8 -9 -10 12 -12 -13 13 14 -16 -17 -18 -19 19 -21 21 24 -24 -25 25 -27 -28 -29 29 -31
leaf_value=0.0039527890108902721 0.0068872976007268716 -4.0538110408622177e-05 4.2686749081728535e-06 -9.0268696866197787e-05 0.0091007193457335236 0.0058586127863964072 -0.00011873454389966685 -0.00088653941661505093 -0.00058783222526212096 -2.3867884614583951e-05 -0.00052685745293517053 0.0071374588971957562 -0.0017853495784220287 -0.0024207157758064572 -0.00076468451259036866 -0.0058988633146509527 0.00023581823708257078 0.0018408065229734696 3.2800323954080654e-05 6.8251383136607517e-05 -0.0026800799423314556 -0.0022838090617209677 -0.00016251698081545969 -0.008769946556549257 0.0013083699397620323 -0.006954490569686252 -0.0007492335184323542 -0.0038848352673783375 0.0090137444342309175 -0.00096137915716099087
leaf_weight=21 34 819 191885 35 20 20 22 96 28 265 75 20 20 20 45 20 158 21 11727 10802 75 125 51 64 213 21 585 297 21 28
leaf_count=21 34 819 191885 35 20 20 22 96 28 265 75 20 20 20 45 20 158 21 11727 10802 75 125 51 64 213 21 585 297 21 28
internal_value=0 0.000235601 -9.27057e-07 0.000238345 0.000148167 0.00104843 0.00427148 0.000108369 0.00209819 -9.84428e-05 0.000769811 0.002538 -0.00030404 -0.000757605 -0.00236238 -0.00415979 8.72073e-06 0.000113049 -1.909e-06 -5.12822e-05 -0.000149049 -0.00158996 -0.00405564 -0.00548405 -0.00122679 0.000566831 -0.00162425 -0.00271104 -0.000707506 0.00331367
internal_weight=0 853 216780 886 865 186 42 144 48 679 130 55 549 263 85 40 178 286 215894 24009 13207 1480 190 139 1290 234 1056 471 174 49
internal_count=217633 853 216780 886 865 186 42 144 48 679 130 55 549 263 85 40 178 286 215894 24009 13207 1480 190 139 1290 234 1056 471 174 49
shrinkage=0.05


Tree=145
num_leaves=31
num_cat=0
split_feature=17 0 39 4 29 25 34 10 7 33 20 7 25 24 28 0 20 23 0 12 26 39 39 19 36 37 1 19 1 36
split_gain=0.0186645 0.121125 0.16292 0.236032 0.46674 0.456658 0.281981 0.0549118 0.0490832 0.132648 0.078927 0.0411001 0.344093 0.0788686 0.0766864 0.0370868 0.0547801 0.0328897 0.0493859 0.320714 0.0471276 0.117934 0.227465 0.047333 0.0413789 0.174781 0.085547 0.0587348 0.0269797 0.0291248
threshold=-14.223749999999997 -8.8447699999999987 3.4885250000000001 -0.088954349999999988 1.5735400000000003e-06 -0.052625149999999996 -0.21186449999999998 -1.4994649999999999e-05 -4.2176599999999992e-05 0.00019513800000000003 -11.970249999999998 -3.1845949999999996e-05 1.0121250000000004 67.650400000000005 2.6219150000000004 -6.333524999999999 -7.4282149999999989 0.011675600000000003 -5.3044499999999992 1.1684500000000001e-07 -0.18041899999999997 -3.7428349999999995 -6.0363149999999992 0.7461000000000001 -0.40968649999999995 -0.12554300000000002 5.3828400000000007 0.088626400000000008 10.651350000000003 0.62909250000000005
decision_type=2 2 2 2 2 2 2 2 2 2 2 2 2 2 2 2 2 2 2 2 2 2 2 2 2 2 2 2 2 2
left_child=1 2 3 4 -1 -6 -5 -8 9 10 -3 12 13 14 -10 16 -12 18 19 -13 21 22 -20 -23 27 28 -27 -19 29 -26
right_child=-2 8 -4 6 5 -7 7 -9 11 -11 15 17 -14 -15 -16 -17 -18 24 20 -21 -22 23 -24 -25 25 26 -28 -29 -30 -31
leaf_value=-0.0015750351566821337 -1.6104019782787264e-06 -0.004379973171162419 -0.00078155706405085056 0.005621576740062059 0.0024767277936916798 0.011985133956793858 0.0017994113241561885 -0.00076009746397142372 -0.0002832510372956319 0.0023005737835774197 -0.003408745991403301 -0.00028840960150533008 0.0058780912910411385 -0.0024690196820301939 0.0029215113401733109 -0.00011710701262927614 -0.00024809085655131362 0.0026457122488257787 0.00020630211254637034 0.0062568522968338884 -5.604859251589025e-05 -0.0012932764695469815 0.0064757139586499373 0.0014897797500122 -0.0019008201000230787 -0.0015469390289148406 -0.0061161338727106348 -0.0001095687086809467 0.001439384800257606 -0.0001619249009647404
leaf_weight=25 215032 20 89 24 28 23 26 108 84 28 29 85 28 30 24 60 26 21 39 24 1177 50 23 22 28 21 20 245 22 172
leaf_count=25 215032 20 89 24 28 23 26 108 84 28 29 85 28 30 24 60 26 21 39 24 1177 50 23 22 28 21 20 245 22 172
internal_value=0 0.000133136 0.00103927 0.00173181 0.00402146 0.00676483 0.000630456 -0.000263476 4.65494e-06 -0.000831373 -0.00148096 6.90864e-05 0.000824332 -0.000201068 0.000428918 -0.000976786 -0.00191462 4.76071e-06 0.000130126 0.00115275 4.51025e-05 0.000933571 0.00253205 -0.000442898 -0.000331759 -0.000776487 -0.00377581 0.000107953 -0.000222557 -0.00040537
internal_weight=0 2601 323 234 76 51 158 134 2278 163 135 2115 166 138 108 115 55 1949 1420 109 1311 134 62 72 529 263 41 266 222 200
internal_count=217633 2601 323 234 76 51 158 134 2278 163 135 2115 166 138 108 115 55 1949 1420 109 1311 134 62 72 529 263 41 266 222 200
shrinkage=0.05


Tree=146
num_leaves=31
num_cat=0
split_feature=3 34 35 5 16 16 39 23 26 30 35 4 21 4 3 16 30 35 37 37 39 39 14 16 21 16 3 33 1 23
split_gain=0.0197313 0.160311 0.236069 0.277245 0.0737568 0.157576 0.0606326 0.0677253 0.0716513 0.0447399 0.031286 0.0209893 0.072639 0.324017 0.437696 0.191731 0.17284 0.0840588 0.0932055 0.932593 0.190585 0.272223 0.3255 0.234003 0.107304 0.100652 0.0919686 0.0869176 0.0816173 0.138495
threshold=-18.627349999999996 0.015434100000000001 0.00067619600000000011 1.5809250000000005e-05 0.0010528750000000002 0.0070645400000000011 -0.82558500000000012 -6.1060649999999979e-05 -0.0038119849999999995 3.2423100000000002 0.034433300000000007 -1.4133199999999999 -1.4574199999999997 -2.6817999999999995 -11.150049999999998 0.0021145800000000005 14.135600000000002 0.00044455850000000007 0.22260499999999997 -0.27889399999999981 3.5499500000000008 -2.1822199999999996 -1.7471999999999995e-05 0.00032567350000000007 -0.82489099999999993 0.0049635200000000008 -11.746199999999998 1.7767500000000002e-06 -1.0953499999999996 0.00063056350000000006
decision_type=2 2 2 2 2 2 2 2 2 2 2 2 2 2 2 2 2 2 2 2 2 2 2 2 2 2 2 2 2 2
left_child=1 6 -3 4 9 -6 10 8 -8 -4 -1 12 13 -2 15 -15 -16 -14 19 -19 21 24 28 -24 -21 27 -22 -25 29 -23
right_child=11 2 3 -5 5 -7 7 -9 -10 -11 -12 -13 17 14 16 -17 -18 18 -20 20 26 22 23 25 -26 -27 -28 -29 -30 -31
leaf_value=-4.4300805382344867e-05 -0.0002273234096326524 0.0067073248661472466 -0.00034250732174768929 0.0047972676176666739 0.0046875919387093755 -0.00079545424236321686 0.00049707785153507516 -4.0688663879196754e-05 0.0044095365840476006 -0.0030731946934489923 -0.0017623294854678937 5.4043256255779358e-06 -7.129676794011961e-06 0.0037931956510419695 0.0033845385644651416 0.010421798360766843 -0.0017644056076115263 -3.2157076403818226e-05 -3.328119543714902e-06 0.0021542712214535904 -0.0042014919883695259 -0.0028717992901874825 -0.010757198785026761 -0.0058026367914169987 -0.0017672952645581481 -0.0077951722830766823 -0.00061010819925108887 -0.0013054888510602972 -0.0037491557835268655 0.00184700395911932
leaf_weight=1428 302 20 40 36 20 38 22 52 25 24 27 181793 27282 24 28 20 39 2904 2974 21 20 48 23 21 103 20 164 22 70 23
leaf_count=1428 302 20 40 36 20 38 22 52 25 24 27 181793 27282 24 28 20 39 2904 2974 21 20 48 23 21 103 20 164 22 70 23
internal_value=0 0.000168089 0.00158941 0.000941578 -0.000196167 0.00109525 5.28563e-06 0.00120261 0.00257817 -0.00136652 -7.61817e-05 -1.34844e-06 -3.73402e-05 0.000621734 0.00293178 0.0068062 0.000387392 -4.54184e-05 -0.000208305 -0.000385567 -0.00230389 -0.00298716 -0.00401631 -0.00644064 -0.00110316 -0.00486476 -0.00100048 -0.00350177 -0.00253763 -0.00134317
internal_weight=0 1732 178 158 122 58 1554 99 47 64 1455 215901 34108 413 111 44 67 33695 6413 3439 535 351 227 86 124 63 184 43 141 71
internal_count=217633 1732 178 158 122 58 1554 99 47 64 1455 215901 34108 413 111 44 67 33695 6413 3439 535 351 227 86 124 63 184 43 141 71
shrinkage=0.05


Tree=147
num_leaves=31
num_cat=0
split_feature=3 17 10 13 5 18 16 3 12 21 15 4 37 36 17 3 8 27 17 18 3 3 6 3 17 7 7 2 16 12
split_gain=0.0184124 0.0658584 0.202097 0.511844 0.101582 0.0478249 0.174068 0.0521932 0.0626029 0.0428122 0.47597 0.613601 0.631295 1.18276 0.986935 0.509116 0.432221 0.677907 0.309398 0.298281 0.225639 0.159304 0.0983558 0.047286 0.0466204 0.244967 0.0793696 0.159446 0.259441 0.118641
threshold=-7.4497099999999987 16.002400000000005 -1.7032199999999996e-05 5.1445100000000014e-07 8.0350100000000025e-06 18.392150000000004 6.1128050000000005e-06 -7.2857699999999985 -1.1362599999999997e-05 1.0406250000000001 1.7622650000000003e-05 3.3436750000000006 0.68231549999999996 0.40779500000000007 8.9118250000000021 -9.9050449999999977 1.6453300000000004e-05 0.043133650000000003 -5.2467099999999993 5.2037050000000002 -12.918299999999999 -17.495099999999997 1.9804200000000007e-06 -18.305499999999995 14.554100000000002 8.2391300000000012e-05 3.3200700000000009e-05 0.094929050000000015 0.00051133100000000018 -2.2530999999999997e-06
decision_type=2 2 2 2 2 2 2 2 2 2 2 2 2 2 2 2 2 2 2 2 2 2 2 2 2 2 2 2 2 2
left_child=9 -2 3 -3 -4 7 -7 -6 -9 24 23 12 13 14 15 16 -12 20 -17 22 -18 -13 -15 -11 -1 26 -26 28 -28 -29
right_child=1 2 4 -5 5 6 -8 8 -10 10 11 21 -14 19 -16 18 17 -19 -20 -21 -22 -23 -24 -25 25 -27 27 29 -30 -31
leaf_value=1.0302346402139629e-05 -2.185792639062379e-05 9.0949167618722043e-05 0.0036004080027896637 0.007534602550560307 0.002065431357943453 0.0048127309671447925 -0.0016250300874595441 -0.0023460487453335461 -0.00012045175796012071 -0.0020238668699233595 0.00074634906620933467 0.0039314460863048833 -2.5356312994626584e-05 -0.00081918556981525569 0.014891744365117379 0.0043642994516994811 0.0029343601849783837 0.015922493407768863 -0.0043252206654177004 0.0053789203534877206 0.0087538170763441624 -0.00053070260862963094 0.0029434290355129632 -0.00021941906563476257 -0.00021410162660519591 0.0048020313420683858 -0.0077129145329490716 0.0035571824368768527 -0.0014473369456582557 -0.00072084143135584845
leaf_weight=127370 85434 72 20 34 25 21 21 34 447 37 26 21 209 132 28 20 36 21 21 27 31 421 20 1937 938 23 20 21 95 71
leaf_count=127370 85434 72 20 34 25 21 21 34 447 37 26 21 209 132 28 20 36 21 21 27 31 421 20 1937 938 23 20 21 95 71
internal_value=0 -1.7974e-05 0.000474337 0.00247854 0.000100314 -2.74272e-05 0.00159385 -0.000162 -0.00027777 1.17674e-05 0.000198899 0.00107997 0.00216265 0.0034259 0.0062525 0.00469187 0.00641037 0.00808384 -8.64304e-05 0.000536128 0.00562694 -0.0003187 -0.000324105 -0.000253241 7.41878e-06 -0.000307033 -0.000409661 -0.00129582 -0.002537 0.000255664
internal_weight=0 86108 674 106 568 548 42 506 481 131525 2987 1013 571 362 183 155 114 88 41 179 67 442 152 1974 128538 1168 1145 207 115 92
internal_count=217633 86108 674 106 568 548 42 506 481 131525 2987 1013 571 362 183 155 114 88 41 179 67 442 152 1974 128538 1168 1145 207 115 92
shrinkage=0.05


Tree=148
num_leaves=31
num_cat=0
split_feature=39 39 11 36 36 23 36 29 36 11 8 0 29 28 22 37 20 3 9 25 17 7 15 10 29 31 4 12 21 39
split_gain=0.0180208 0.328762 0.294603 0.244232 0.417754 0.668529 0.491172 0.235705 0.333075 1.19663 0.823947 0.313062 0.191426 0.176114 0.158742 0.244809 0.75663 0.171993 0.127058 0.380929 0.123363 0.352439 0.355011 0.692115 0.46671 0.32588 0.475202 0.486373 0.148782 0.122197
threshold=-0.12174999999999957 0.16841000000000064 0.0007810015000000002 -0.17527649999999997 0.14973499999999998 -0.0011493749999999998 0.077348000000000056 1.9573100000000004e-05 -0.040859549999999939 0.00010396350000000002 5.1039400000000005e-05 -3.1104599999999993 1.1994250000000002e-06 0.26698650000000007 3.1525300000000001 -0.039869999999999954 -6.9476399999999989 -5.8879799999999989 2.9798800000000003e-05 0.0071428550000000009 14.554100000000002 3.5461000000000012e-05 -1.7388649999999999e-06 2.1335350000000006e-05 4.8167950000000007e-05 -0.00023088749999999997 0.16470650000000003 9.1030600000000033e-06 -0.69490299999999994 1.0000000180025095e-35
decision_type=2 2 2 2 2 2 2 2 2 2 2 2 2 2 2 2 2 2 2 2 2 2 2 2 2 2 2 2 2 2
left_child=-1 2 3 -2 5 -5 7 8 9 -7 11 -11 -13 14 15 16 29 18 -17 -20 -3 -22 23 24 -23 -24 -27 -28 -25 -10
right_child=1 20 -4 4 -6 6 -8 -9 13 10 -12 12 -14 -15 -16 17 -18 -19 19 -21 21 22 25 28 -26 26 27 -29 -30 -31
leaf_value=-1.8443873634099883e-05 -9.5817512158645688e-05 -1.4057379734074954e-05 -8.3045031852165181e-05 -0.0071384240867846532 -9.4609010950917014e-05 -0.0074708973150700332 0.0073329864730758048 -0.0036434376277072636 0.010913759903050961 0.0035121204513732505 -0.0028054433187381144 0.012931759413913824 0.0067881468417389061 -0.0025808211883330454 -0.0032438897527754308 0.001013371135086863 -0.0037606521183624862 0.0054605052695565282 0.00042838476404550197 -0.0068335775403829766 6.4665915744549153e-07 0.0039888577633246311 -0.001282401282889623 0.0033225951879020696 0.013858016912379992 -0.00012428259642275857 0.01066870676336943 0.00060254029844405272 -0.0022166347817363678 0.0053866215539164842
leaf_weight=82334 1227 125412 3074 25 1190 20 31 27 20 23 21 32 21 35 22 2599 20 21 186 20 940 25 100 22 23 67 28 21 27 20
leaf_count=82334 1227 125412 3074 25 1190 20 31 27 20 23 21 32 21 35 22 2599 20 21 186 20 940 25 100 22 23 67 28 21 27 20
internal_value=0 1.12237e-05 0.000309752 0.000526921 0.000703265 0.00100536 0.00107065 0.00100777 0.00104881 0.00366508 0.00596115 0.0083835 0.0104975 0.000944795 0.000987228 0.00101948 0.00417991 0.000952382 0.000918631 -0.00027666 -9.12519e-06 0.000484534 0.00193774 0.00445055 0.00871783 0.000809306 0.0026125 0.00635464 0.000270366 0.00815019
internal_weight=0 135299 8634 5560 4333 3143 3118 3087 3060 117 97 76 53 2943 2908 2886 60 2826 2805 206 126665 1253 313 97 48 216 116 49 49 40
internal_count=217633 135299 8634 5560 4333 3143 3118 3087 3060 117 97 76 53 2943 2908 2886 60 2826 2805 206 126665 1253 313 97 48 216 116 49 49 40
shrinkage=0.05


Tree=149
num_leaves=31
num_cat=0
split_feature=3 39 34 13 40 13 33 33 25 30 18 39 39 16 2 3 3 37 0 37 37 38 39 37 9 16 14 37 32 39
split_gain=0.0180722 0.145162 0.122903 0.274234 0.0473339 0.124788 0.0374984 0.0296683 0.0265237 0.0360706 0.0198067 0.0879686 0.245498 0.458487 0.128148 0.184051 0.127931 0.214091 0.0861327 0.116771 0.107963 0.474668 0.299956 0.242511 0.186936 0.0698306 0.124203 0.0396514 0.0366614 0.0469838
threshold=-18.627349999999996 1.46871 0.30670150000000002 4.8253050000000006e-09 1.381785 -1.8737049999999999e-06 -7.6530749999999989e-07 -1.7368199999999998e-07 0.54025350000000005 2.6849000000000003 14.999250000000002 0.51814999999999956 0.93421999999999994 7.799435000000001e-05 0.37742650000000005 -4.8298799999999993 -8.1804699999999979 -0.60497499999999982 8.7505950000000023 0.37828249999999997 0.29985500000000015 0.14973499999999998 -2.0405449999999985 0.56931500000000013 0.00024596600000000008 8.2724850000000008e-05 2.0335950000000003e-07 0.51323350000000023 -0.17249249999999997 1.9461850000000005
decision_type=2 2 2 2 2 2 2 2 2 2 2 2 2 2 2 2 2 2 2 2 2 2 2 2 2 2 2 2 2 2
left_child=1 2 4 -4 5 -1 -7 -8 9 -6 -2 18 13 -13 27 16 17 -16 20 -20 21 22 -12 -22 -23 26 28 -14 -18 -30
right_child=10 -3 3 -5 8 6 7 -9 -10 -11 11 12 14 -15 15 -17 25 -19 19 -21 23 24 -24 -25 -26 -27 -28 -29 29 -31
leaf_value=0.0042992369777968397 -2.5932949177091782e-06 0.0036686406767894998 -0.0010798860853273337 0.0070097440094104976 -4.9997238373892053e-05 -0.0015580617697750036 0.0018441340482882773 -0.00014268797098165601 -0.0017652098179413854 0.0017613979263322627 -0.0023760248560355923 0.0083333476863962069 -0.0015980909087311215 -0.00014693248587128758 -0.00038260030464855316 0.0054005860303649655 0.0017676111620385201 0.0055488427346972458 0.0047982712127850394 -0.00042559781120318167 0.0046456188065349124 -0.00044146798998150548 -0.0095541314129315505 -8.3387027828726228e-05 0.0043543316476478307 -0.00069816840441490064 0.0036261445447576773 -0.00015305177104418246 -0.0022194133106386289 0.00041014966453350906
leaf_weight=23 214315 29 22 20 1489 23 34 42 22 28 43 28 57 37 29 22 25 32 20 23 29 266 22 416 22 120 33 284 25 53
leaf_count=23 214315 29 22 20 1489 23 34 42 22 28 43 28 57 37 29 22 25 32 20 23 29 266 22 416 22 120 33 284 25 53
internal_value=0 0.000160867 0.000101134 0.00277232 3.35902e-05 0.000981596 0.000210831 0.000746153 -4.15603e-05 -1.65634e-05 -1.2905e-06 0.000174755 0.000570396 0.00350611 0.000289776 0.000978188 0.000671271 0.00272898 -0.000175725 0.00200411 -0.000293184 -0.000946162 -0.00480554 0.000224795 -7.51222e-05 0.000180959 0.000956659 -0.000394598 0.000101387 -0.000432659
internal_weight=0 1732 1703 42 1661 122 99 76 1539 1517 215901 1586 745 65 680 339 317 61 841 43 798 353 65 445 288 256 136 341 103 78
internal_count=217633 1732 1703 42 1661 122 99 76 1539 1517 215901 1586 745 65 680 339 317 61 841 43 798 353 65 445 288 256 136 341 103 78
shrinkage=0.05


Tree=150
num_leaves=31
num_cat=0
split_feature=4 21 37 36 36 39 20 34 4 39 36 37 23 4 18 23 21 30 39 0 24 15 4 10 8 37 37 39 36 15
split_gain=0.0172518 0.0426559 0.0335202 0.202167 0.0610872 0.0558932 0.0265123 0.0250582 0.454312 0.636424 0.846063 0.486369 0.262861 0.181365 0.388623 0.177905 0.146972 0.114636 0.404482 0.0957078 0.0542747 0.101325 0.169841 0.0736353 0.101043 0.0691483 0.624141 0.377654 0.447814 0.0688037
threshold=5.1455300000000008 0.57845200000000008 0.43359400000000009 0.24966499999999994 -0.17527649999999997 2.6261900000000007 -9.8258599999999969 -0.26996899999999996 0.73862450000000013 -0.12174999999999957 -0.60254799999999997 -0.43858299999999995 -0.0029059199999999998 1.0072750000000001 1.6414900000000003 0.011675600000000003 1.3511250000000004 34.706300000000006 7.8477300000000012 -3.6002049999999994 26.374400000000005 7.6735600000000018e-05 0.46668750000000003 -6.3741049999999988e-05 7.1508850000000012e-05 0.37828249999999997 -0.17681499999999981 1.8131900000000003 -0.058960000000000005 1.7622650000000003e-05
decision_type=2 2 2 2 2 2 2 2 2 2 2 2 2 2 2 2 2 2 2 2 2 2 2 2 2 2 2 2 2 2
left_child=7 -2 3 4 -3 6 -6 8 20 10 -10 -12 -13 14 16 17 -11 -15 -19 -17 29 22 23 24 -22 26 -25 28 -28 -1
right_child=1 2 -4 -5 5 -7 -8 -9 9 13 11 12 -14 15 -16 19 -18 18 -20 -21 21 -23 -24 25 -26 -27 27 -29 -30 -31
leaf_value=1.0130492664056506e-05 -3.1659250954210791e-05 -0.00090253654463381006 -4.8101340385455796e-05 -0.00013185784257625541 -0.0058114978527142244 -0.0016618504969721053 -0.0033277551710073441 1.1062875480744134e-06 0.00016291029709827854 0.0032669205608181076 0.0029599190074602829 0.014357881996935854 0.0071661992069695984 -3.745640852465495e-05 0.0087008238388170869 -0.00021086902596012113 -0.0027220777999554277 0.0060897660770327404 -0.00083241379831152328 -0.0046761931259555111 -0.00038508063813564013 -0.0030383785036864346 0.0036931070788543568 -3.1685411046040208e-05 0.0043420872708156829 -7.1602893814922707e-05 -0.0032731606096162327 -0.0015071581680856001 -0.01225437409568416 0.0012117755972459526
leaf_weight=1556 12647 34 381 369 22 26 21 200014 75 20 36 24 27 290 20 21 21 36 51 28 26 33 27 607 20 936 35 78 23 129
leaf_count=1556 12647 34 381 369 22 26 21 200014 75 20 36 24 27 290 20 21 21 36 51 28 26 33 27 607 20 936 35 78 23 129
internal_value=0 -5.47412e-05 -0.000396966 -0.000678571 -0.00263719 -0.00349194 -0.00459851 3.62022e-06 0.000125694 0.0013399 0.00405464 0.00740958 0.0105505 0.00043685 0.00298674 7.17241e-05 0.000199385 0.000440096 0.00203194 -0.00276248 -0.000101402 -0.000293527 -0.000241826 -0.000303416 0.00167021 -0.000357488 -0.000717635 -0.00377919 -0.00683468 0.000102126
internal_weight=0 13500 853 472 103 69 43 204133 4119 649 162 87 51 487 61 426 41 377 87 49 3470 1785 1752 1725 46 1679 743 136 58 1685
internal_count=217633 13500 853 472 103 69 43 204133 4119 649 162 87 51 487 61 426 41 377 87 49 3470 1785 1752 1725 46 1679 743 136 58 1685
shrinkage=0.05


Tree=151
num_leaves=31
num_cat=0
split_feature=3 32 13 36 36 16 19 4 23 14 16 31 36 3 3 21 3 18 4 21 4 36 1 23 7 36 37 13 16 5
split_gain=0.0172635 0.0813291 0.3289 0.330427 0.921298 0.544727 0.294234 0.0862054 0.11267 0.119778 0.081443 0.0809797 0.257331 0.0781728 0.0526626 0.175506 0.057559 0.0429263 0.138687 0.460395 0.559728 0.616405 0.117637 0.0810423 0.0841263 0.0948663 0.206372 0.0593923 0.35996 0.139005
threshold=-11.042399999999999 -0.43959349999999991 -1.3281999999999998e-05 0.86046950000000011 -0.49100999999999978 0.0070645400000000011 -1.2681999999999998 -0.25665499999999991 -0.028182349999999998 -3.1088599999999993e-08 2.0787700000000003e-09 0.22099200000000002 -0.32870999999999989 -13.243349999999998 -15.510599999999998 1.5291850000000002 -15.867949999999999 14.999250000000002 -0.20992299999999997 -0.25851049999999992 -2.1602949999999992 -0.57440449999999987 13.299100000000001 0.031042450000000003 -9.7705449999999988e-06 -0.40968649999999995 -0.33012499999999995 2.5770550000000005e-06 4.9239600000000009e-05 1.5576600000000003e-05
decision_type=2 2 2 2 2 2 2 2 2 2 2 2 2 2 2 2 2 2 2 2 2 2 2 2 2 2 2 2 2 2
left_child=1 2 3 4 -1 6 -6 11 -9 -10 -11 13 -13 -4 15 16 -12 -2 19 20 -19 -22 23 27 -25 -26 -27 -20 -29 -30
right_child=17 -3 7 -5 5 -7 -8 8 9 10 14 12 -14 -15 -16 -17 -18 18 22 -21 21 -23 -24 24 25 26 -28 28 29 -31
leaf_value=-0.00015327616775703422 -1.1035507421418412e-05 1.5094664720684474e-05 -0.001071639204604123 -0.00033673218547097475 0.0053551862086169428 0.0022369801749989979 0.013086052320431918 0.0037193914773798625 0.0036639081793096427 0.0030072447935526724 -0.001047155347181778 -0.00058972811088395575 -0.0068222310685748452 0.0017698102387225232 -0.00057874062323158939 0.0046819458056812768 0.001806518725576704 -0.00016204683131803121 -8.7871390043867063e-05 -0.00048440352479819807 0.00041758194970695868 0.01073812581315183 0.0029180422466762333 0.00010274388159696293 -0.00024957096485243375 -0.00050524973150998078 -0.0068096734529826787 0.0065961296398503082 0.0033071164401553689 -0.0014596392384667596
leaf_weight=102 155370 60132 70 110 20 38 32 22 22 20 67 67 22 37 325 22 24 51 555 154 23 39 33 77 38 27 25 24 20 65
leaf_count=102 155370 60132 70 110 20 38 32 22 22 20 67 67 22 37 325 22 24 51 555 154 23 39 33 77 38 27 25 24 20 65
internal_value=0 2.25318e-05 0.000469742 0.0018483 0.00310015 0.00678736 0.0101126 -0.000126713 0.000220491 6.0125e-05 -0.000112982 -0.00101598 -0.00213035 -8.90819e-05 -0.000255459 0.000674335 -0.000294538 -8.80131e-06 0.000298119 0.00129412 0.00371794 0.00690954 -9.67168e-06 -0.000125935 -0.00111051 -0.00214853 -0.00353622 0.000121693 0.00118874 -0.00033805
internal_weight=0 61132 1000 302 192 90 52 698 502 480 458 196 89 107 438 113 91 156501 1131 267 113 62 864 831 167 90 52 664 109 85
internal_count=217633 61132 1000 302 192 90 52 698 502 480 458 196 89 107 438 113 91 156501 1131 267 113 62 864 831 167 90 52 664 109 85
shrinkage=0.05


Tree=152
num_leaves=31
num_cat=0
split_feature=22 36 36 40 16 39 3 30 39 11 4 17 11 17 39 39 14 21 20 6 23 2 17 4 34 4 8 39 20 13
split_gain=0.0175185 0.0894705 1.2914 0.635407 1.25451 1.24137 0.816414 0.699427 0.82421 0.554629 0.714568 0.525083 1.1279 0.488446 0.568957 0.453188 0.43986 0.380354 0.585577 0.317968 0.286092 0.337 0.41582 0.285329 1.01215 0.37853 0.356264 0.254074 0.251273 0.239626
threshold=5.8644050000000005 0.14973499999999998 -0.10081500000000009 -1.1537099999999991 5.2173100000000012e-08 -0.82558500000000012 -10.279999999999999 1.1210650000000002 -2.1087049999999987 0.0040917000000000011 0.41110300000000005 7.1058900000000014 0.00018765950000000002 8.0730100000000018 3.1865250000000005 -0.66712000000000005 -1.8508249999999996e-08 0.60591150000000005 -9.6131449999999976 -4.0493649999999993e-07 9.7569450000000018e-05 -1.6103249999999998 -3.3588049999999998 0.26785250000000005 -0.012723849999999998 1.1247450000000001 3.4116050000000007e-05 -1.1067849999999997 -6.6508199999999995 -3.2239999999999995e-06
decision_type=2 2 2 2 2 2 2 2 2 2 2 2 2 2 2 2 2 2 2 2 2 2 2 2 2 2 2 2 2 2
left_child=-1 2 -2 6 5 -5 13 11 16 10 17 12 28 14 29 -13 -9 18 -10 -18 21 22 -14 24 -23 26 -25 -11 -6 -4
right_child=1 -3 3 4 7 -7 -8 8 9 27 -12 15 20 -15 -16 -17 19 -19 -20 -21 -22 23 -24 25 -26 -27 -28 -29 -30 -31
leaf_value=5.1072417222551512e-06 4.5458184154267774e-05 6.4876314138215109e-05 0.0021903076251460749 -0.0015730317734414712 -0.013596786316484213 -0.015433671024761031 -0.0011083537306405969 0.0066624752758070831 -0.015175501499325037 -0.0072779588373599663 -0.0023164645160016206 -0.0019647031614345735 -0.0025038855990338754 0.0098165710344910624 -0.0024478310081758538 0.0044738070396706468 0.0033238475368125367 -0.016507423516701571 -0.0040544409256685404 -0.004335960415413692 0.00057970407840683669 -0.011269539598632899 0.0064985746450791186 -0.0028298674475239673 -0.00061836031209504998 -0.0052892857170175585 0.0056384079054825837 -0.00082897356644805003 -0.0056709925783798099 0.0096573819184587115
leaf_weight=192661 12186 11279 22 30 20 35 495 20 20 21 35 43 29 25 40 75 20 22 29 42 191 38 23 23 54 31 27 56 20 21
leaf_count=192661 12186 11279 22 30 20 35 495 20 20 21 35 43 29 25 40 75 20 22 29 42 191 38 23 23 54 31 27 56 20 21
internal_value=0 -3.94028e-05 -0.000125298 -0.00150608 -0.0023446 -0.00903645 -0.000248992 -0.00182616 -0.00395084 -0.00581742 -0.00816348 -0.000845254 -0.00161454 0.00368975 0.00184432 0.00212757 0.000214831 -0.0110458 -0.00859365 -0.00186505 -0.000843446 -0.00205154 0.00147797 -0.00311244 -0.00501776 -0.000948368 0.001743 -0.00258779 -0.00963389 0.00583702
internal_weight=0 24972 13693 1507 904 65 603 839 265 183 106 574 456 108 83 118 82 71 49 62 416 225 52 173 92 81 50 77 40 43
internal_count=217633 24972 13693 1507 904 65 603 839 265 183 106 574 456 108 83 118 82 71 49 62 416 225 52 173 92 81 50 77 40 43
shrinkage=0.05


Tree=153
num_leaves=31
num_cat=0
split_feature=17 39 9 5 9 14 23 10 11 37 17 36 8 39 20 6 27 17 20 20 36 30 2 36 36 22 8 0 20 32
split_gain=0.0171747 0.107579 0.223325 0.315485 0.316305 0.878337 0.183327 0.158929 0.253151 0.201692 0.332646 0.713746 0.33256 0.192407 0.822214 0.474871 0.14894 0.27431 0.145076 0.2188 0.127415 0.275833 0.130927 0.120496 0.0842486 0.0829903 0.128468 0.0820869 0.117873 0.139319
threshold=-8.175164999999998 -0.026199999999999776 -1.6735099999999998e-05 9.9471450000000032e-06 -3.9555399999999991e-05 2.0335950000000003e-07 -0.00043562299999999995 2.1772650000000002e-05 0.0069578350000000008 0.14791590000000002 -14.223749999999997 1.0676735000000004 4.5652150000000006e-05 2.0800550000000007 -10.262699999999999 1.7355800000000002e-06 0.0035869550000000006 -11.056249999999999 -9.6620099999999969 -9.4627199999999991 0.1751400000000001 0.027706900000000003 2.6852350000000005 0.010257000000000018 -0.040859549999999939 67.039100000000005 3.6038200000000003e-05 -4.0528699999999995 -10.576799999999997 3.8353050000000004
decision_type=2 2 2 2 2 2 2 2 2 2 2 2 2 2 2 2 2 2 2 2 2 2 2 2 2 2 2 2 2 2
left_child=1 27 3 4 5 -3 -7 8 9 10 11 12 -5 14 15 -12 17 -6 -16 -20 21 24 23 -23 -21 -9 -27 28 -1 -30
right_child=-2 2 -4 7 16 6 -8 25 -10 -11 13 -13 -14 -15 18 -17 -18 -19 19 20 -22 22 -24 -25 -26 26 -28 -29 29 -31
leaf_value=-0.0020650891844807436 -5.1836736657596239e-06 0.012770600338353689 1.6971407893926921e-05 0.0029606523332544247 0.0068792515585664659 0.0042445727507583802 -0.0023696871682080782 -0.00014638799620002999 0.0060105485453360342 -0.00022330791792946915 0.01148194098308632 -0.00061056569954168736 0.010425990758064602 -0.00033089767381933857 -0.0028443518665718752 0.0016092795870333379 -0.00065213657711030637 0.001081914382607588 0.0057318282422122759 -0.0024045744245244274 -0.00011219744138111229 0.0032189941717660989 0.0017903185413543771 0.0086417979130055753 0.00079418480132257521 0.0039601862497875119 -0.00029020681960901129 2.1593986098176559e-05 -0.00022815546350461624 0.0035160826302599161
leaf_weight=87 191545 24 8788 26 25 20 22 1263 22 500 29 55 35 315 28 21 73 111 22 23 281 21 38 20 196 32 40 9963 3983 25
leaf_count=87 191545 24 8788 26 25 20 22 1263 22 500 29 55 35 315 28 21 73 111 22 23 281 21 38 20 196 32 40 9963 3983 25
internal_value=0 3.80599e-05 0.00014782 0.000502506 0.00212262 0.00514019 0.00077996 0.000352344 0.000683318 0.000610523 0.000986123 0.00351988 0.00724404 0.000690434 0.00116425 0.00733542 0.0011697 0.0021476 0.000673693 0.000837595 0.000651631 0.00137189 0.00390464 0.00586426 0.000458242 -5.22624e-05 0.00159886 -5.58659e-05 -0.000244323 -0.000204801
internal_weight=0 26088 12030 3242 275 66 42 2967 1632 1610 1110 116 61 994 679 50 209 136 629 601 579 298 79 41 219 1335 72 14058 4095 4008
internal_count=217633 26088 12030 3242 275 66 42 2967 1632 1610 1110 116 61 994 679 50 209 136 629 601 579 298 79 41 219 1335 72 14058 4095 4008
shrinkage=0.05


Tree=154
num_leaves=31
num_cat=0
split_feature=37 19 22 3 2 34 22 36 36 40 16 39 3 30 39 11 15 39 13 10 12 12 31 3 14 13 13 3 34 36
split_gain=0.0173068 0.104468 0.286833 0.0367469 0.0341249 0.0205108 0.0203724 0.089543 1.16505 0.569797 1.12889 1.12051 0.73389 0.631099 0.751229 0.488849 0.471053 0.446685 0.51339 0.437781 0.716887 0.718142 0.54635 0.376999 0.350648 0.313028 0.464017 0.358762 0.355627 0.327542
threshold=5.6849350000000003 3.0909850000000003 3.9071550000000004 -17.069699999999997 -3.0231799999999995 0.18048750000000005 5.8644050000000005 0.14973499999999998 -0.10081500000000009 -1.1537099999999991 5.2173100000000012e-08 -0.82558500000000012 -10.279999999999999 1.1210650000000002 -2.0405449999999985 0.0040917000000000011 5.4626650000000007e-05 3.0695900000000012 -1.0656299999999998e-05 -6.4036749999999993e-06 -5.525729999999999e-07 2.2656000000000001e-07 -0.024434799999999996 -11.976899999999999 -1.8508249999999996e-08 -7.0069149999999991e-06 -6.8546449999999991e-07 -9.1936899999999984 -0.076179349999999993 0.016888500000000004
decision_type=2 2 2 2 2 2 2 2 2 2 2 2 2 2 2 2 2 2 2 2 2 2 2 2 2 2 2 2 2 2
left_child=6 3 4 -2 -3 -5 -1 8 -8 12 11 -11 17 19 24 16 23 18 -10 20 22 -22 -12 -16 -15 27 29 -21 -28 -27
right_child=1 2 -4 5 -6 -7 7 -9 9 10 13 -13 -14 14 15 -17 -18 -19 -20 25 21 -23 -24 -25 -26 26 28 -29 -30 -31
leaf_value=4.6315169070475152e-06 0.0020303460706297002 0.0021798168408471005 0.0058900909982059664 -4.5538482756420116e-05 -3.9244765882055318e-05 -0.001670712943741819 3.3693154095818507e-05 6.064121318459219e-05 0.00088750785660176061 -0.0014920251527413106 0.0036443470668217001 -0.014660612323454447 -0.0010651334487810152 0.0057418903069836758 -0.015852098176255821 -0.0025205690882438305 -0.002727323848193919 0.00044237869125872593 0.011080657951533795 -8.3547332278434563e-05 -0.01073238550631616 -0.0024401742054290976 -0.0060059254756197333 -0.007795553328469396 -0.0017185711719913156 0.0010253217320182713 -0.0061291203617160634 -0.0070487573200933122 0.00053959809900575094 0.008417952348921268
leaf_weight=191925 21 21 29 663 99 20 12069 11279 21 30 55 35 495 21 20 76 32 57 30 51 39 79 20 53 63 29 22 29 219 31
leaf_count=191925 21 21 29 663 99 20 12069 11279 21 30 55 35 495 21 20 76 32 57 30 51 39 79 20 53 63 29 22 29 219 31
internal_value=0 0.000224777 0.00142754 -2.97855e-05 0.000349091 -9.31278e-05 -8.84466e-07 -4.34777e-05 -0.00012998 -0.00144078 -0.00223483 -0.0085828 -0.000250362 -0.00174303 -0.00376126 -0.00557483 -0.00778553 0.00348401 0.00688348 -0.00081127 -0.00275138 -0.00518082 0.00107094 -0.0100028 0.000146544 0.000171515 0.000910373 -0.00260844 -6.91646e-05 0.00484485
internal_weight=0 853 149 704 120 683 216780 24855 13576 1507 904 65 603 839 265 181 105 108 51 574 193 118 75 73 84 381 301 80 241 60
internal_count=217633 853 149 704 120 683 216780 24855 13576 1507 904 65 603 839 265 181 105 108 51 574 193 118 75 73 84 381 301 80 241 60
shrinkage=0.05


Tree=155
num_leaves=31
num_cat=0
split_feature=5 26 35 26 21 9 9 36 37 27 3 33 39 37 15 21 10 36 6 36 20 39 36 17 22 37 28 25 8 4
split_gain=0.0163592 0.0389748 0.0800885 0.047749 0.0972114 0.230561 0.0857886 0.0502536 0.514644 0.447761 0.408794 0.205508 0.163425 0.134057 0.128682 0.166317 0.127243 0.286425 0.18055 0.100021 0.148846 0.0983304 0.0958111 0.356552 0.202819 0.168778 0.0757094 0.219718 0.0681006 0.0663826
threshold=8.8143050000000017e-06 -0.11763599999999998 2.3303150000000001 0.34967900000000007 0.86341500000000015 -3.9555399999999991e-05 -4.4153649999999994e-05 0.02582950000000005 0.12358499999999996 0.0017982300000000003 -14.267049999999999 4.6105250000000002e-08 2.3174500000000009 0.057875000000000128 4.3286400000000006e-06 0.13403450000000003 1.1791850000000001e-06 -0.011175000000000155 -1.6374549999999998e-06 -0.040859549999999939 -8.8007399999999993 1.1065400000000005 0.056773999999999998 6.7384950000000012 0.50595050000000008 -0.039869999999999954 -0.043051549999999994 0.0060789300000000006 2.0760350000000002e-05 0.042230550000000013
decision_type=2 2 2 2 2 2 2 2 2 2 2 2 2 2 2 2 2 2 2 2 2 2 2 2 2 2 2 2 2 2
left_child=1 -1 3 4 7 -6 -5 8 9 11 -11 13 28 19 15 -15 29 18 -18 20 -3 26 23 24 -9 -26 27 -21 -12 -13
right_child=-2 2 -4 6 5 -7 -8 22 -10 10 12 16 -14 14 -16 -17 17 -19 -20 21 -22 -23 -24 -25 25 -27 -28 -29 -30 -31
leaf_value=-0.00030250169879831652 -3.693428067959568e-06 0.0060632989593570876 0.0027901303791656607 -0.0028856511654261601 0.0048244961140476847 0.00028734038987316866 -0.0002523940631240627 0.0023093098338588846 -1.8489211964596569e-05 0.0095522095794357102 0.0018671870871912689 0.0015609743101552564 -0.0012999116914302466 -0.00083298741552980727 0.0022348690761039808 -0.0061090627609519292 0.002518394925282337 0.0011645933890786883 0.0086514675128273669 -0.0050887709441927399 0.00011018978409646523 -0.0022280177687450001 -8.327055058447134e-06 -0.0066137247582306524 -0.0046277316414841249 0.00040534820630758379 0.00097908968109880912 0.00080525765897618848 0.0057816011526501824 -0.0016721518244594336
leaf_weight=741 202904 21 27 35 36 126 266 49 6030 28 20 77 21 59 21 20 20 65 30 21 21 30 6323 26 31 36 440 64 25 20
leaf_count=741 202904 21 27 35 36 126 266 49 6030 28 20 77 21 59 21 20 20 65 30 21 21 30 6323 26 31 36 440 64 25 20
internal_value=0 5.088e-05 6.96e-05 6.43386e-05 7.80649e-05 0.0012956 -0.000558587 6.34523e-05 0.00015595 0.00120468 0.00448987 0.000864952 0.00234221 0.000450329 -0.00124395 -0.0021687 0.00222812 0.00335313 0.00619824 0.000734128 0.00308674 0.000556092 -3.71724e-05 -0.0013216 -0.000135439 -0.00192339 0.000715184 -0.000650914 0.00404186 0.00089435
internal_weight=0 14729 13988 13961 13660 162 301 13498 7033 1003 94 909 66 697 100 79 212 115 50 597 42 555 6465 142 116 67 525 85 45 97
internal_count=217633 14729 13988 13961 13660 162 301 13498 7033 1003 94 909 66 697 100 79 212 115 50 597 42 555 6465 142 116 67 525 85 45 97
shrinkage=0.05


Tree=156
num_leaves=31
num_cat=0
split_feature=36 18 23 22 13 16 20 36 36 19 31 37 36 40 40 18 3 36 36 36 20 33 13 36 10 18 33 40 40 36
split_gain=0.0159488 0.647387 0.0339997 0.0192912 0.0836973 0.197863 0.211782 0.286246 0.556909 0.232376 0.183966 0.208104 0.716149 0.476396 1.0176 0.500889 0.448606 0.419807 0.3644 0.290607 0.27271 0.237636 0.225398 0.199672 0.149751 0.272463 0.14426 0.138947 0.162602 0.126257
threshold=5.6762150000000009 4.4724750000000002 -0.0037174099999999996 2.3108700000000004 8.2193200000000006e-07 0.00019909150000000002 -6.007039999999999 0.30085850000000008 -1.0422104999999997 0.57270450000000006 0.0059663500000000013 0.37828249999999997 0.327845 3.4180799999999998 1.5644200000000008 9.718770000000001 -8.1804699999999979 0.077348000000000056 0.056773999999999998 -0.079468000000000025 -9.5739449999999984 7.5042600000000009e-06 6.5238050000000013e-06 -5.2578599999999982 1.3411350000000002e-05 -15.424049999999998 0.000104555 -0.68809499999999957 1.4428800000000004 0.0045899999999999838
decision_type=2 2 2 2 2 2 2 2 2 2 2 2 2 2 2 2 2 2 2 2 2 2 2 2 2 2 2 2 2 2
left_child=3 2 -2 -1 -5 6 10 8 -8 -10 24 12 13 14 15 16 17 19 -17 -12 -21 22 -18 -13 25 -6 -14 -27 -29 -23
right_child=1 -3 -4 4 5 -7 7 -9 9 -11 11 23 26 -15 -16 18 21 -19 -20 20 -22 29 -24 -25 -26 27 -28 28 -30 -31
leaf_value=6.7882473262543322e-06 0.0019911353613549314 0.0091053933836519729 -4.6077425814904414e-05 -7.5503276325396848e-05 0.0053318079742643151 -4.2073977722434022e-05 -0.00056088955659920191 -0.0012686120996772228 0.011480539034874667 0.0045226864229334753 0.0063148969761581009 0.00446901565384178 -0.00014921383000695795 -0.0043802365060070193 0.012938658057479189 0.0030140804445922928 0.00035902832782994668 0.0082733183045332372 0.011391472674906256 -0.0019156525331630331 0.0042119138415000635 0.0060618143051397056 -0.0042003034585632567 -7.2257447350860561e-05 -0.00035483352276079942 -0.00015194576504693198 0.0035304156573537126 0.0025246561308304083 -0.00067858577001574908 0.00051088526490188785
leaf_weight=171666 21 20 828 31165 29 10200 38 37 21 28 30 25 547 22 25 27 80 38 25 46 30 20 41 761 1228 403 28 125 58 21
leaf_count=171666 21 20 828 31165 29 10200 38 37 21 28 30 25 547 22 25 27 80 38 25 46 30 20 41 761 1228 403 28 125 58 21
internal_value=0 0.000213774 4.313e-06 -8.57013e-07 -2.99588e-05 7.19141e-05 0.000383374 0.00241511 0.00398176 0.00750462 0.000313566 0.000678246 0.00116433 0.00277485 0.00318584 0.00250478 0.00173381 0.00376438 0.00704167 0.00214797 0.000503124 -7.11438e-05 -0.00118587 7.21851e-05 -3.5878e-05 0.000600996 2.99681e-05 0.000366877 0.00150942 0.00321866
internal_weight=0 869 849 216764 45098 13933 3733 124 87 49 3609 1766 980 405 383 358 306 144 52 106 76 162 121 786 1843 615 575 586 183 41
internal_count=217633 869 849 216764 45098 13933 3733 124 87 49 3609 1766 980 405 383 358 306 144 52 106 76 162 121 786 1843 615 575 586 183 41
shrinkage=0.05


Tree=157
num_leaves=31
num_cat=0
split_feature=3 34 35 5 16 16 39 13 30 21 22 13 33 4 21 4 3 36 30 35 37 37 39 39 10 16 32 36 20 3
split_gain=0.0157451 0.131267 0.2059 0.24061 0.065699 0.143058 0.0485552 0.0893922 0.0444236 0.0292532 0.0330114 0.02258 0.0317795 0.0180625 0.0553961 0.272298 0.368559 0.320246 0.105177 0.0729438 0.0814905 0.813841 0.165679 0.236426 0.275211 0.332332 0.168675 0.113269 0.0981167 0.0866835
threshold=-18.627349999999996 0.015434100000000001 0.00067619600000000011 1.5809250000000005e-05 0.0010528750000000002 0.0070645400000000011 -0.82558500000000012 -8.5618749999999992e-07 3.2423100000000002 0.44009350000000008 1.9823250000000001 1.8237450000000004e-06 -1.7368199999999998e-07 -1.4133199999999999 -1.4574199999999997 -2.6817999999999995 -8.9455249999999982 0.57364500000000007 18.825800000000005 0.00044455850000000007 0.22260499999999997 -0.27889399999999981 3.5499500000000008 -2.1822199999999996 0.00010299250000000001 0.00032567350000000007 -0.066940849999999982 -0.011175000000000155 -10.808649999999998 -11.746199999999998
decision_type=2 2 2 2 2 2 2 2 2 2 2 2 2 2 2 2 2 2 2 2 2 2 2 2 2 2 2 2 2 2
left_child=1 6 -3 4 8 -6 9 -8 -4 -1 -11 12 -9 14 15 -2 17 -17 -18 -16 21 -21 23 28 25 -25 -26 -28 -23 -24
right_child=13 2 3 -5 5 -7 7 11 -10 10 -12 -13 -14 -15 19 16 18 -19 -20 20 -22 22 29 24 26 -27 27 -29 -30 -31
leaf_value=7.9022494990556234e-06 -0.00023738571497012003 0.0062160152429714807 -0.0003128304089659651 0.0044231917316210458 0.0044130541061167608 -0.0008113080829341351 0.0040603708353592087 0.0022741157024483982 -0.0030338465888538244 -0.0025597676882864024 -0.00042980254441297755 -0.0007916252669709703 -0.00024899347918108108 5.0597176961321455e-06 -5.9796735464489021e-06 0.0081018990679264172 0.0018384007909494706 0.00040818041999868699 -0.0026589710735536827 -2.8987786566850805e-05 -1.720225907251319e-06 0.0016981354860875469 -0.0040435746579896665 -0.011136686467480931 -0.0053421018652443312 -0.0041784827549679162 0.0011156089344461051 -0.0024635291185889706 -0.0017569015148925543 -0.00055691037594930628
leaf_weight=1298 302 20 40 36 20 38 20 24 24 21 136 29 26 181793 27282 38 26 21 26 2904 2974 26 20 22 32 78 35 60 98 164
leaf_count=1298 302 20 40 36 20 38 20 24 24 21 136 29 26 181793 27282 38 26 21 26 2904 2974 26 20 22 32 78 35 60 98 164
internal_value=0 0.000150153 0.0014363 0.000831271 -0.000228641 0.000990196 2.83403e-06 0.0010743 -0.00133321 -7.00695e-05 -0.000714702 0.000318327 0.000962099 -1.20456e-06 -3.45927e-05 0.000540965 0.00265864 0.00536346 -0.000410285 -4.16473e-05 -0.000193383 -0.000359131 -0.00215116 -0.00278822 -0.00374732 -0.00570929 -0.00220246 -0.0011449 -0.00103246 -0.000935896
internal_weight=0 1732 178 158 122 58 1554 99 64 1455 157 79 50 215901 34108 413 111 59 52 33695 6413 3439 535 351 227 100 127 95 124 184
internal_count=217633 1732 178 158 122 58 1554 99 64 1455 157 79 50 215901 34108 413 111 59 52 33695 6413 3439 535 351 227 100 127 95 124 184
shrinkage=0.05


Tree=158
num_leaves=31
num_cat=0
split_feature=3 17 0 15 15 31 9 9 8 9 39 39 40 37 36 28 31 12 28 36 36 26 3 19 36 36 16 4 1 18
split_gain=0.0155751 0.0541284 0.309618 0.565396 0.229565 0.235611 0.0603777 0.0423913 0.156632 0.0376985 0.0372681 0.214298 0.144878 0.133968 0.313763 0.19315 0.374536 0.151872 0.137016 0.327495 0.184594 0.269745 0.130835 0.121305 0.108041 0.935039 0.550029 0.790865 0.410312 0.486719
threshold=-7.4497099999999987 16.002400000000005 10.302050000000003 -1.7388649999999999e-06 1.4722200000000002e-07 0.0011015450000000002 4.1028950000000006e-05 1.3123000000000001e-05 3.1349550000000005e-05 1.4690450000000003e-05 -0.12174999999999957 0.16841000000000064 -0.7296000000000008 -0.026150000000000003 -0.027530000000000051 -0.28778899999999996 0.026995850000000005 1.1195050000000002e-06 0.061239450000000008 -0.14969009999999991 -0.058960000000000005 -0.0018767349999999998 -5.8879799999999989 2.1923050000000006 -0.17527649999999997 0.14973499999999998 1.7836600000000004e-08 -0.060342799999999995 11.597950000000003 12.159000000000001
decision_type=2 2 2 2 2 2 2 2 2 2 2 2 2 2 2 2 2 2 2 2 2 2 2 2 2 2 2 2 2 2
left_child=-1 10 6 -4 9 -6 7 -3 -9 -5 -2 13 -13 15 18 16 -12 22 20 -20 -15 -22 -16 -17 -14 26 27 -26 29 -28
right_child=1 2 3 4 5 -7 -8 8 -10 -11 11 12 24 14 17 23 -18 -19 19 -21 21 -23 -24 -25 25 -27 28 -29 -30 -31
leaf_value=1.0822840327363062e-05 -0.00015522452166250603 -0.00014682876031626356 0.0084944638829197623 -0.00047419243998994158 -0.00096940263412596491 0.0057106649008567207 -0.002215302379431705 0.0047604154369634798 -0.00054970304428446446 -0.0032558812740067621 -0.0084029359772830516 -1.0413606982107205e-05 -3.1305104670354597e-05 -6.305509471067516e-05 0.0010680961993529815 -3.2617813090850288e-05 0.00077696668292628608 -0.0030571545580063354 -7.3814142730830717e-05 0.0065375302166033253 0.00073566470571138247 -0.006050366169074551 0.00495512233226858 0.003898737197450828 -0.011869988172068536 -5.6413090760694679e-05 -0.0015463087193247635 -0.0024076748090530085 -0.0061389959099081657 0.0055098649580031635
leaf_weight=131525 4812 444 31 29 22 33 32 21 41 21 20 71408 2518 955 1355 1037 25 22 67 26 27 32 22 20 34 2513 407 63 45 26
leaf_count=131525 4812 444 31 29 22 33 32 21 41 21 20 71408 2518 955 1355 1037 25 22 67 26 27 32 22 20 34 2513 407 63 45 26
internal_value=0 -1.65313e-05 0.000429789 0.00256124 0.000809524 0.00303864 -0.000109016 2.41876e-05 0.00124889 -0.0016425 -2.00523e-05 -1.19845e-05 -2.96286e-05 0.000364636 0.000566676 -9.48135e-05 -0.00330299 0.00106435 -6.22729e-05 0.00177452 -0.000230736 -0.00294489 0.0011302 4.17692e-05 -0.000274385 -0.000472596 -0.00229149 -0.00572436 -0.00159487 -0.00112261
internal_weight=0 86108 674 136 105 55 538 506 62 50 85434 80622 77014 3608 2506 1102 45 1399 1107 93 1014 59 1377 1057 5606 3088 575 97 478 433
internal_count=217633 86108 674 136 105 55 538 506 62 50 85434 80622 77014 3608 2506 1102 45 1399 1107 93 1014 59 1377 1057 5606 3088 575 97 478 433
shrinkage=0.05


Tree=159
num_leaves=31
num_cat=0
split_feature=4 21 3 10 34 4 39 36 21 36 10 3 4 3 36 36 3 15 4 1 39 3 27 36 36 36 5 36 36 21
split_gain=0.015557 0.0378979 0.0304337 0.0365401 0.0227594 0.39024 0.573422 0.75203 0.462251 0.432228 0.291359 0.261869 0.144119 0.5088 0.265485 0.414902 0.0695253 0.0532884 0.0632638 0.0465267 0.0575237 0.1229 0.0633126 0.114947 1.26579 0.132694 0.11418 0.114418 0.844396 0.0504629
threshold=5.1455300000000008 0.57845200000000008 -15.396099999999999 0.00010299250000000001 -0.26996899999999996 0.73862450000000013 -0.12174999999999957 -0.60254799999999997 1.5291850000000002 0.80350500000000014 8.055315000000001e-05 -15.396099999999999 1.5563800000000001 -7.3483349999999996 -0.68744999999999989 0.46240350000000002 -6.6044149999999986 0.00016883300000000004 0.61713700000000016 14.818150000000001 2.5758750000000012 -16.722199999999997 0.036175450000000005 -0.17527649999999997 0.14973499999999998 -0.040859549999999939 1.3748150000000002e-05 -0.19934349999999995 0.49120000000000014 0.77580800000000016
decision_type=2 2 2 2 2 2 2 2 2 2 2 2 2 2 2 2 2 2 2 2 2 2 2 2 2 2 2 2 2 2
left_child=4 -2 3 -3 5 17 7 -7 9 10 -9 -8 13 14 -13 -16 -15 18 19 20 22 -22 26 -24 25 -25 27 -1 -29 -23
right_child=1 2 -4 -5 -6 6 11 8 -10 -11 -12 12 -14 16 15 -17 -18 -19 -20 -21 21 29 23 24 -26 -27 -28 28 -30 -31
leaf_value=-0.00031204133784627894 -3.0226168035829122e-05 -0.0029922572342218788 -0.0002490674498785352 -0.00071108529339220124 1.041945361298469e-06 0.00015288326681911713 0.0053721546838060019 0.012031707409769297 0.012889912027185348 -0.0011214444157390279 0.0036933108666827061 -0.0004457762996342195 -0.00044920559632863138 -0.004516857228445588 0.0092682664229401523 0.00037844685665775271 -0.0008400631641456535 -0.0023457992792828009 0.0027302646428870505 0.0016733923766091845 0.003677478641823299 0.0022833762606751409 -0.00016183746344931808 -0.0065021698765287354 -0.00011869227027442577 -0.011993778750977735 -0.00088801846871080213 0.01132765582529828 -5.3820174089609783e-05 -2.2061249259783594e-05
leaf_weight=97 12647 21 725 107 200014 75 25 20 24 21 22 23 327 20 35 21 36 26 20 37 23 24 509 22 277 22 148 20 88 2157
leaf_count=97 12647 21 725 107 200014 75 25 20 24 21 22 23 327 20 35 21 36 26 20 37 23 24 509 22 277 22 148 20 88 2157
internal_value=0 -5.19828e-05 -0.000374557 -0.00108534 3.4378e-06 0.000119778 0.00124511 0.00382198 0.00698499 0.0047355 0.00766398 0.000387922 0.000118213 0.00149263 0.00407701 0.00593458 -0.0021532 -9.06959e-05 -7.36713e-05 -9.00494e-05 -0.000109313 4.16501e-05 -0.000390568 -0.000629113 -0.00137006 -0.00924797 0.000170318 0.000934385 0.00205386 3.30808e-06
internal_weight=0 13500 853 128 204133 4119 649 162 87 63 42 487 462 135 79 56 56 3470 3444 3424 3387 2204 1183 830 321 44 353 205 108 2181
internal_count=217633 13500 853 128 204133 4119 649 162 87 63 42 487 462 135 79 56 56 3470 3444 3424 3387 2204 1183 830 321 44 353 205 108 2181
shrinkage=0.05


Tree=160
num_leaves=31
num_cat=0
split_feature=37 18 22 36 36 39 16 39 3 18 18 39 28 33 16 39 34 29 4 8 39 10 28 22 20 18 5 40 13 0
split_gain=0.0153388 0.529799 0.0170442 0.0815118 1.06236 0.516273 1.10278 1.24512 0.637484 0.564856 0.613084 0.536502 0.856335 0.649718 0.569691 0.519766 0.514568 0.47792 0.664291 0.379494 0.371193 0.418425 0.3488 0.33474 0.293535 0.28925 0.229878 0.221941 0.231804 0.208248
threshold=5.6849350000000003 -3.7984549999999992 5.8644050000000005 0.14973499999999998 -0.10081500000000009 1.06199 5.2173100000000012e-08 -0.82558500000000012 -10.279999999999999 10.536600000000002 -8.2769249999999985 0.47541999999999979 -1.2009849999999997 2.9540450000000002e-06 0.00097729900000000027 0.23546500000000006 -0.017735749999999998 -6.6390649999999984e-05 0.28079350000000008 3.4116050000000007e-05 3.0695900000000012 1.3411350000000002e-05 1.3481400000000001 15.043350000000002 -20.320949999999996 1.4596200000000004 1.3813450000000001e-05 0.98037999999999992 1.1210250000000002e-06 3.1414700000000004
decision_type=2 2 2 2 2 2 2 2 2 2 2 2 2 2 2 2 2 2 2 2 2 2 2 2 2 2 2 2 2 2
left_child=2 -2 -1 4 -4 6 7 -6 20 10 22 14 -13 -14 17 16 -11 18 -12 -20 21 -7 26 -19 -22 -25 -8 28 -16 -24
right_child=1 -3 3 -5 5 8 9 -9 -10 15 11 12 13 -15 27 -17 -18 23 19 -21 24 -23 29 25 -26 -27 -28 -29 -30 -31
leaf_value=4.2126699735682741e-06 0.0063274143647183397 -4.2280657013924882e-05 3.3969706881405386e-05 5.9548362019046041e-05 -0.0013752540322214677 0.011902086157351733 -0.0053135794046102096 -0.015664168328681449 -0.0010120632239896566 -0.012377943207587427 -0.0070909649869837959 -0.011817148365438559 -0.0064476678380742669 0.0057040074009405963 -0.0016544337095128316 0.0011297306530953697 -0.0038458029696241368 0.0016447119381097501 -0.0024122857794282027 0.0057484999969441061 0.0050804451107978824 0.0027368266671670208 -0.0047365299912468933 0.0024635491955559701 -0.0023579033577536598 0.0099959777350774794 0.0015197234262814164 -0.00091731106339225279 -0.0079013667146985728 -0.010387415754730287
leaf_weight=191925 34 819 12069 11279 30 20 20 31 512 30 34 26 22 22 33 24 43 158 28 29 21 33 56 25 36 26 32 166 27 23
leaf_count=191925 34 819 12069 11279 30 20 20 31 512 30 34 26 22 22 33 24 43 158 28 29 21 33 56 25 36 26 32 166 27 23
internal_value=0 0.000211611 -8.32661e-07 -3.97916e-05 -0.000122324 -0.00137402 -0.00214987 -0.00863683 -0.00027012 -0.00166964 -0.00119146 -0.00051073 -0.00462295 -0.00037183 3.65237e-05 -0.00525355 -0.00735216 0.00146473 -0.00155967 0.00173969 0.00318329 0.00619542 -0.00428852 0.00278157 0.000382541 0.00630361 -0.00110847 -0.00185932 -0.00446555 -0.00638172
internal_weight=0 853 216780 24855 13576 1507 885 61 622 824 727 596 70 44 526 97 73 300 91 57 110 53 131 209 57 51 52 226 60 79
internal_count=217633 853 216780 24855 13576 1507 885 61 622 824 727 596 70 44 526 97 73 300 91 57 110 53 131 209 57 51 52 226 60 79
shrinkage=0.05


Tree=161
num_leaves=31
num_cat=0
split_feature=17 0 39 37 15 39 31 18 7 33 20 7 25 33 32 12 0 32 26 4 7 29 10 30 21 39 0 23 23 23
split_gain=0.0153117 0.0955042 0.138276 0.200981 0.343283 0.464488 0.202674 0.0448716 0.0401903 0.107129 0.0631917 0.0359049 0.286438 0.0681868 0.0982585 0.047895 0.031207 0.0459696 0.0298576 0.0757311 0.214896 0.328481 0.426837 0.0561322 0.0494599 0.133878 0.0530583 0.034847 0.0236571 0.0189824
threshold=-14.223749999999997 -8.8447699999999987 3.4885250000000001 -0.25176499999999996 -2.2122249999999998e-07 0.68409500000000023 -0.17054099999999997 -7.4922749999999985 -4.2176599999999992e-05 0.00019513800000000003 -11.970249999999998 -3.1845949999999996e-05 1.0121250000000004 1.8324750000000004e-05 0.14537000000000003 1.1038650000000002e-07 -6.333524999999999 -0.00040882949999999994 0.13068350000000004 -0.16366899999999998 8.0554100000000015e-06 1.9573100000000004e-05 7.5148700000000015e-05 7.9426800000000002 0.60591150000000005 -4.1528 3.4082400000000006 0.0010465900000000002 0.00049099350000000007 -0.013856449999999998
decision_type=2 2 2 2 2 2 2 2 2 2 2 2 2 2 2 2 2 2 2 2 2 2 2 2 2 2 2 2 2 2
left_child=1 2 3 7 5 -5 -6 -1 9 10 -3 12 13 14 -10 -15 17 -12 19 20 21 -13 -23 27 -21 -26 -27 -22 -8 -2
right_child=29 8 -4 4 6 -7 28 -9 11 -11 16 18 -14 15 -16 -17 -18 -19 -20 24 23 22 -24 -25 25 26 -28 -29 -30 -31
leaf_value=0.0019135555569664575 -0.00015029965536216211 -0.0039277636131737383 -0.00075227015800061225 0.00019450339630408133 0.004394825263505482 0.0093413929182237822 -0.00012228689414651826 -0.00074820831848563488 -0.00026541707043963535 0.0020645985109565249 -0.0036551792774844219 -0.00020519685330958851 0.0053816667868237088 -0.00035243605071209953 0.0037261651159496978 -0.0032984085650902919 -9.4060988218795197e-05 -0.00065022609446064705 -0.00015689030827821873 -0.00027355464408501039 -0.00028709459653782689 0.0092286506363551228 -3.6960446907739556e-06 -0.0023777421822025512 0.003948725236302751 0.001078233708890228 -0.0018809757022349265 0.0020014461823512604 -0.0022132451413199306 2.4134848500320444e-08
leaf_weight=20 2121 20 89 23 25 35 31 76 58 28 20 49 28 37 21 22 60 35 1159 473 80 31 21 27 27 33 28 21 24 212911
leaf_count=20 2121 20 89 23 25 35 31 76 58 28 20 49 28 37 21 22 60 35 1159 473 80 31 21 27 27 33 28 21 24 212911
internal_value=0 0.000120587 0.000925199 0.00156321 0.00278539 0.00571418 0.000662023 -0.000193674 6.50026e-06 -0.00075001 -0.00133378 6.48034e-05 0.000770704 -0.000164854 0.000795636 -0.00145093 -0.000882654 -0.00174294 4.68057e-06 0.000241719 0.00100795 0.00273224 0.0055002 -0.000352627 -7.10541e-05 0.00101739 -0.000280092 0.000188741 -0.00103471 -1.45861e-06
internal_weight=0 2601 323 234 138 58 80 96 2278 163 135 2115 166 138 79 59 115 55 1949 790 229 101 52 128 561 88 61 101 55 215032
internal_count=217633 2601 323 234 138 58 80 96 2278 163 135 2115 166 138 79 59 115 55 1949 790 229 101 52 128 561 88 61 101 55 215032
shrinkage=0.05


Tree=162
num_leaves=31
num_cat=0
split_feature=18 1 13 13 1 3 3 39 13 1 3 1 32 24 15 32 15 3 2 9 18 17 39 2 15 32 36 31 26 9
split_gain=0.0150833 0.106517 0.0672696 0.193574 0.311783 0.108872 0.0428934 0.119898 0.0508208 0.066485 0.0452498 0.04953 0.0368427 0.0271363 0.0454071 0.138009 0.0661376 0.0557107 0.0834791 0.0458826 0.117628 0.0298572 0.0875875 0.260787 0.568117 0.901374 0.101354 0.138881 0.0707486 0.138246
threshold=-19.754149999999996 -13.470699999999999 8.7195400000000012e-06 2.1581450000000003e-05 -2.5377799999999993 -13.897099999999998 -6.4965349999999988 0.97785500000000003 1.5560450000000002e-06 -2.7638649999999996 -6.0305299999999997 -5.2034849999999997 -0.96073299999999995 91.481750000000019 0.0042538100000000011 0.34392800000000007 0.0021193250000000005 -13.166999999999998 2.1355600000000003 -0.00010305049999999998 11.074800000000002 -14.223749999999997 0.55890500000000032 2.2570350000000006 -1.0730149999999997e-06 0.0043417000000000013 -0.058960000000000005 -0.21631099999999998 -0.067941949999999987 2.1571850000000003e-05
decision_type=2 2 2 2 2 2 2 2 2 2 2 2 2 2 2 2 2 2 2 2 2 2 2 2 2 2 2 2 2 2
left_child=1 -1 6 4 -4 -5 8 -8 12 -10 11 -9 -3 21 16 -16 17 18 -15 20 -19 22 28 -24 25 -25 -26 -28 29 -2
right_child=13 2 3 5 -6 -7 7 10 9 -11 -12 -13 -14 14 15 -17 -18 19 -20 -21 -22 -23 23 24 26 -27 27 -29 -30 -31
leaf_value=0.0037242661719487629 -0.00014817455530646839 0.0013974053141833848 0.0084680892538744959 0.0028903335332090916 -0.00015761167848144067 -0.00058343136948631831 0.0032384093520566684 0.0031036535190651195 -0.0035761330874265699 8.2096619070912515e-05 -0.000500104650187142 -2.5808577916133362e-06 -0.00034578411048725137 -0.00066090437595405437 0.0037618908834182161 -0.00023718822719293964 -0.0025757188059287728 -0.00012418458917004579 -0.0039365942986636501 -0.00023298412739277538 0.0042332892562886365 -1.3116177168993368e-06 0.00019930650473081862 0.014392443036724052 -0.0028197192642520266 0.00086806836646116745 0.0045645239416626281 -0.00047874167611616731 -0.00023170016438127584 0.0034519020967854887
leaf_weight=21 80 33 20 28 22 116 33 21 27 23 139 33 372 126 28 94 32 59 23 848 21 213503 737 22 22 28 20 43 1019 40
leaf_count=21 80 33 20 28 22 116 33 21 27 23 139 33 372 126 28 94 32 59 23 848 21 213503 737 22 22 28 20 43 1019 40
internal_value=0 0.000205648 0.000120422 0.000963149 0.00394986 9.20229e-05 -0.000109751 0.000453294 -0.000389417 -0.00189335 -2.29171e-05 0.0012054 -0.000203746 -8.42534e-07 -0.000234931 0.000680633 -0.000335651 -0.000269094 -0.00116655 -0.000124998 0.00101965 4.9456e-07 0.000192252 0.00056938 0.00258971 0.00681879 0.000102009 0.0011223 -9.64709e-05 0.00105185
internal_weight=0 888 867 186 42 144 681 226 455 50 193 54 405 216745 1231 122 1109 1077 149 928 80 215514 2011 872 135 50 85 63 1139 120
internal_count=217633 888 867 186 42 144 681 226 455 50 193 54 405 216745 1231 122 1109 1077 149 928 80 215514 2011 872 135 50 85 63 1139 120
shrinkage=0.05


Tree=163
num_leaves=31
num_cat=0
split_feature=18 1 39 39 11 13 4 25 40 34 21 15 21 7 32 22 36 36 13 32 32 39 39 39 13 39 32 16 39 40
split_gain=0.0147384 0.0719806 0.129735 0.208666 0.29597 0.168497 0.0954375 0.314244 0.0513111 0.0436657 0.0381095 0.0282261 0.0212467 0.0187317 0.0184785 0.0173951 0.0697928 0.773968 0.508879 1.11294 0.990986 1.02411 1.23316 0.806512 0.752631 0.837328 1.03554 0.722102 0.614142 0.965099
threshold=18.392150000000004 4.5221550000000006 0.51814999999999956 1.9902050000000007 0.00036183850000000008 -1.00264e-06 -0.68745799999999979 0.051198250000000008 0.23534999999999953 -0.39553799999999995 0.65909550000000017 -2.8839749999999998e-05 -0.82489099999999993 4.1898300000000005e-05 -2.2564299999999995 5.8644050000000005 -0.17527649999999997 0.14973499999999998 3.2990050000000008e-07 -0.018049799999999994 0.029614900000000003 1.9902050000000007 -0.82558500000000012 0.80790999999999979 -3.1157049999999994e-07 1.7675950000000007 -0.0071753399999999997 0.00049086500000000016 1.06199 1.3201050000000005
decision_type=2 2 2 2 2 2 2 2 2 2 2 2 2 2 2 2 2 2 2 2 2 2 2 2 2 2 2 2 2 2
left_child=15 6 8 4 -4 -5 7 -2 -3 -7 -10 -8 -9 14 -13 -1 -17 18 20 28 24 22 -22 27 -18 26 -26 -24 29 -20
right_child=1 2 3 5 -6 9 11 12 10 -11 -12 13 -14 -15 -16 16 17 -19 19 -21 21 -23 23 -25 25 -27 -28 -29 -30 -31
leaf_value=4.2386410353083906e-06 0.0050888319433267624 -0.0027139411664062543 0.001142757669785405 0.0046788035836514271 0.0091677781823091206 0.0011830332160838331 -0.0019454373703097349 -0.0019521970166824758 -0.00071810559341732496 -0.0010403605688239508 0.0018356594936146092 -0.0014913790521789523 -7.5369038064596495e-05 -0.0012910101640833697 -0.00010675158095165683 4.9342596358034979e-05 0.00068561264612628783 3.7262209634538085e-05 -0.013546448269335088 0.0010318174135258761 -0.0023738228750229805 -0.00053433646048531584 -0.016088740069729587 -0.0048094874524637517 -0.010664364489171671 -0.00038812684658829505 0.0023551500182672196 -0.0047806783288251616 -0.0011912373318312217 -0.0016886327428290169
leaf_weight=192638 35 22 27 21 20 34 29 25 48 63 21 26 38 45 329 11390 431 11002 32 561 152 174 48 60 56 116 21 20 112 37
leaf_count=192638 35 22 27 21 20 34 29 25 48 63 21 26 38 45 329 11390 431 11002 32 561 152 174 48 60 56 116 21 20 112 37
internal_value=0 0.000216537 0.000904369 0.00174027 0.00455766 0.000618096 -0.00011759 0.00129021 -0.000611285 -0.000261027 5.91273e-05 -0.000439185 -0.000820142 -0.000329981 -0.000208161 -7.81869e-07 -4.07266e-05 -0.000120737 -0.00107585 -6.81062e-05 -0.00176949 -0.00354678 -0.0054188 -0.00903471 -0.000476394 -0.00307134 -0.00711359 -0.0127628 -0.00347726 -0.00718791
internal_weight=0 783 256 165 47 118 527 98 91 97 69 429 63 400 355 216850 24212 12822 1820 742 1078 454 280 128 624 193 77 68 181 69
internal_count=217633 783 256 165 47 118 527 98 91 97 69 429 63 400 355 216850 24212 12822 1820 742 1078 454 280 128 624 193 77 68 181 69
shrinkage=0.05


Tree=164
num_leaves=31
num_cat=0
split_feature=37 36 4 21 4 23 17 9 36 21 21 15 39 23 36 17 1 18 26 5 3 9 40 30 12 12 18 20 5 12
split_gain=0.0147928 0.493097 0.368646 1.02088 1.31443 0.582542 0.404902 0.28505 0.306386 0.243768 0.231169 0.260656 0.21149 0.501356 0.199749 0.212212 0.478148 0.287995 0.278547 0.48344 0.228878 0.317945 0.434544 0.46321 0.400669 0.521913 0.425097 0.327315 0.447277 0.590922
threshold=-0.026150000000000003 -0.018010000000000078 -0.26743249999999991 0.30416600000000005 -1.3105149999999999 0.00033276500000000006 -7.3314749999999984 1.0617750000000002e-05 0.0045899999999999838 -0.62980599999999998 -0.62980599999999998 -0.00068733899999999981 -1.0505799999999998 0.00057196550000000008 0.24966499999999994 -11.463149999999997 1.8486 -9.1109899999999975 0.34967900000000007 2.1942650000000002e-05 -13.009399999999998 0.00031228800000000003 2.5130600000000003 1.8663100000000001 8.0184450000000021e-05 2.9766600000000004e-05 -6.488389999999999 -14.94685 9.9471450000000032e-06 -1.7138249999999995e-08
decision_type=2 2 2 2 2 2 2 2 2 2 2 2 2 2 2 2 2 2 2 2 2 2 2 2 2 2 2 2 2 2
left_child=14 -2 3 6 -5 9 12 -7 -9 -4 11 -8 -3 -14 15 16 17 -1 19 -18 21 22 24 -24 25 26 -17 28 29 -28
right_child=1 2 5 4 -6 7 10 8 -10 -11 -12 -13 13 -15 -16 20 18 -19 -20 -21 -22 -23 23 -25 -26 -27 27 -29 -30 -31
leaf_value=0.0048963880465042013 -1.2392743488613861e-05 0.00017077116012249305 -0.0048206230730284006 -0.0012437490193406122 -0.017397787565496401 -0.00078904023151639641 -0.00098848503649882642 -0.008158551223604104 -0.00094824401905778096 0.00071010575768416762 6.0611253958896093e-06 0.0057227647090211317 -0.010884681481706061 -0.00032686283441514459 7.0059641702139154e-06 0.0075124176979963 0.0093705345933230069 -0.0011044131572465977 -0.00056871704291552307 0.0002306477475465964 -0.00041642056153605352 -0.0016548461448891102 -0.00049009634146470165 0.0058454187563620509 -0.0050656599484765058 0.0095465629289503261 -0.008157150360570728 0.0025030260759926824 0.0012978290194749006 0.00057664128621884943
leaf_weight=23 106563 23 20 34 20 116 23 34 26 5166 529 39 23 22 96465 28 39 153 22 23 6711 191 753 30 22 21 34 246 189 45
leaf_count=23 106563 23 20 34 20 116 23 34 26 5166 529 39 23 22 96465 28 39 153 22 23 6711 191 753 30 22 21 34 246 189 45
internal_value=0 1.25856e-05 0.000450737 -0.000617384 -0.00722673 0.000592768 -7.57996e-05 -0.00223621 -0.00503408 0.000688776 0.000344601 0.00323311 -0.00372957 -0.00572308 -1.35018e-05 -0.000245422 0.0011611 -0.000320218 0.00426481 0.00597993 -0.000289641 0.000256103 0.00052291 -0.000247356 0.00155388 0.00181255 0.00151289 0.00118607 -2.27782e-05 -0.00318221
internal_weight=0 112638 6075 713 54 5362 659 176 60 5186 591 62 68 45 104995 8530 260 176 84 62 8270 1559 1368 783 585 563 542 514 268 79
internal_count=217633 112638 6075 713 54 5362 659 176 60 5186 591 62 68 45 104995 8530 260 176 84 62 8270 1559 1368 783 585 563 542 514 268 79
shrinkage=0.05


Tree=165
num_leaves=31
num_cat=0
split_feature=5 31 12 23 5 30 13 36 9 32 4 37 36 33 36 9 36 5 14 32 35 30 27 40 39 13 13 23 8 29
split_gain=0.0142878 0.0360048 0.0624838 0.0874335 0.0607678 0.052056 0.139051 0.16841 0.14366 0.272999 0.0555895 0.0445409 0.39032 0.340998 0.381943 0.340721 0.196233 0.550513 0.144432 0.129966 0.165751 0.26076 0.176074 0.134982 0.159521 0.128183 0.152232 0.120513 0.102453 0.0992729
threshold=8.8143050000000017e-06 0.098593250000000007 3.6456250000000008e-06 0.00090350500000000008 6.5656500000000012e-06 2.6849000000000003 4.3089250000000013e-06 -0.018010000000000078 -3.9555399999999991e-05 -0.028793999999999997 -0.40498649999999997 -0.039869999999999954 -0.10081500000000009 4.6105250000000002e-08 -0.040859549999999939 1.0617750000000002e-05 0.056773999999999998 8.1441900000000017e-06 4.0793000000000007e-08 0.013761450000000001 3.7521650000000007e-05 0.072496500000000005 0.00055968900000000004 -0.39412499999999978 -0.71725499999999964 -8.0791249999999992e-08 -5.3401899999999988e-07 -5.3010199999999996e-05 3.1918550000000006e-05 1.5789350000000005e-05
decision_type=2 2 2 2 2 2 2 2 2 2 2 2 2 2 2 2 2 2 2 2 2 2 2 2 2 2 2 2 2 2
left_child=1 5 4 -4 -3 11 8 -8 9 -7 -10 16 -13 19 15 -15 17 27 -16 20 22 -22 23 28 -25 26 -23 -1 -14 -26
right_child=-2 2 3 -5 -6 6 7 -9 10 -11 -12 12 13 14 18 -17 -18 -19 -20 -21 21 25 -24 24 29 -27 -28 -29 -30 -31
leaf_value=-0.0020019047631649302 -3.4516864899700127e-06 -0.002821222151683637 -0.0003244540792972354 0.0039434854486898986 -0.00035002586782826803 0.0070231899439146556 -1.8495603768542426e-07 0.0063392783078597865 -0.0022282459094033888 5.7378730404404146e-05 0.0001231303649391974 -1.9117765066323472e-05 -0.00018701519577184739 0.01142738204493764 0.0055639946035543376 0.0027065027956268751 -2.1901198444477101e-05 -0.0092117787889120263 0.0012935829187560072 0.0042836012710309171 -0.005867256103859594 -4.7783196371003415e-05 0.0053770663490286105 -0.00099856709008060043 0.0014693758346515542 0.0011891076057210042 -0.0054884298914112152 0.0033608113008085638 -0.004552072912920267 -0.0021420274273987162
leaf_weight=22 202904 26 30 20 576 22 20 22 27 39 364 6141 41 21 22 24 6352 22 198 22 24 36 20 93 392 73 20 20 20 20
leaf_count=22 202904 26 30 20 576 22 20 22 27 39 364 6141 41 21 22 24 6352 22 198 22 24 36 20 93 392 73 20 20 20 20
internal_value=0 4.75498e-05 -0.000315691 0.00138272 -0.000456755 6.43739e-05 0.000568553 0.00332049 0.000312842 0.00256964 -3.92409e-05 4.60374e-05 0.000131705 0.00103443 0.00257913 0.00677625 -4.96573e-05 -0.00280445 0.00172062 0.000496533 0.000383792 -0.00108169 0.000766417 0.000603496 0.000871858 -0.000191348 -0.00199087 0.00055177 -0.00161818 0.00129406
internal_weight=0 14729 652 50 602 14077 494 42 452 61 391 13583 7167 1026 265 45 6416 64 220 761 739 153 586 566 505 129 56 42 61 412
internal_count=217633 14729 652 50 602 14077 494 42 452 61 391 13583 7167 1026 265 45 6416 64 220 761 739 153 586 566 505 129 56 42 61 412
shrinkage=0.05


Tree=166
num_leaves=31
num_cat=0
split_feature=38 18 23 18 13 1 3 10 35 1 20 4 12 5 17 13 32 10 38 38 39 2 20 38 38 12 18 11 9 18
split_gain=0.0143054 0.581443 0.0297704 0.0146967 0.0965229 0.291619 0.144617 0.199079 0.0376962 0.1251 0.0365469 0.0341449 0.0508832 0.0313476 0.0934288 0.0652477 0.0278915 0.08117 0.0553275 0.244422 0.15489 0.0812806 0.0733712 0.041817 0.0389922 0.306496 0.104912 0.129623 0.0347181 0.0767155
threshold=5.6762150000000009 4.4724750000000002 -0.0037174099999999996 -19.754149999999996 6.5238050000000013e-06 -8.8547249999999984 -12.665349999999998 6.6841800000000008e-05 0.025835650000000005 -3.0563699999999998 -11.231549999999999 -1.3105149999999999 2.8964050000000007e-06 1.2468300000000002e-05 -19.608449999999998 2.1242850000000004e-06 1.20103 -7.5564699999999992e-05 -0.17527649999999997 0.016888500000000004 0.76755000000000007 0.45047650000000006 -5.7717399999999985 -0.25142799999999998 0.354709 -7.9465399999999986e-06 2.2931300000000006 0.00070374100000000013 -0.00028750249999999993 4.6976250000000013
decision_type=2 2 2 2 2 2 2 2 2 2 2 2 2 2 2 2 2 2 2 2 2 2 2 2 2 2 2 2 2 2
left_child=3 2 -2 4 8 -6 7 -7 9 -1 -8 -12 -13 14 -10 -15 -5 -18 22 20 -20 -22 23 28 25 -21 27 -27 29 -19
right_child=1 -3 -4 16 5 6 10 -9 13 -11 11 12 -14 15 -16 -17 17 18 19 24 21 -23 -24 -25 -26 26 -28 -29 -30 -31
leaf_value=0.0039222328196046874 0.0018631014497562622 0.0086290654540061955 -4.3197561314110467e-05 7.5625861215945667e-08 0.0058071505382721288 -0.00078185263682035338 -0.0021116789536759386 0.0055484117319186538 0.0032390705460935958 -0.00068878125400117021 -0.001381796160603699 -0.00063627205970326697 0.0023542312613571998 -0.00026312494606970993 -7.9894113666371567e-05 -0.0025809398009159577 -0.0026483902328464232 -0.00027087146444984003 -0.0063696638923138385 0.0032283199146707284 -0.0033364874327422253 0.00072474620432000272 0.0025548787317044726 0.0023041828223358605 -5.4437188133098165e-05 -0.0015065943342633546 -0.00051246429502498363 -0.006598222663626075 -8.3125615576393286e-05 0.0036766376694140493
leaf_weight=24 21 20 828 213930 29 23 29 27 24 38 32 33 25 380 182 33 33 32 25 31 28 22 30 20 770 25 36 25 858 20
leaf_count=24 21 20 828 213930 29 23 29 27 24 38 32 33 25 380 182 33 33 32 25 31 28 22 30 20 770 25 36 25 858 20
internal_value=0 0.000202461 3.95471e-06 -8.11661e-07 0.000203223 0.00117492 0.000380042 0.00263649 -7.92975e-05 0.00109613 -0.000568045 -7.06519e-05 0.000652738 -0.00019703 0.000306781 -0.000448326 -1.64241e-06 -0.000189642 -0.000147426 -0.000415412 -0.00315625 -0.00154954 0.000121118 4.26094e-05 -0.000183662 -0.00103411 -0.00257057 -0.00405241 -7.09551e-06 0.0012474
internal_weight=0 869 849 216764 879 198 169 50 681 62 119 90 58 619 206 413 215885 1955 1922 962 75 50 960 930 887 117 86 50 910 52
internal_count=217633 869 849 216764 879 198 169 50 681 62 119 90 58 619 206 413 215885 1955 1922 962 75 50 960 930 887 117 86 50 910 52
shrinkage=0.05


Tree=167
num_leaves=31
num_cat=0
split_feature=37 19 1 30 3 27 23 39 40 11 37 38 38 27 29 38 11 2 0 28 39 33 26 38 20 39 11 3 17 7
split_gain=0.0140569 0.0884432 0.239755 0.0782581 0.0322145 0.0212774 0.0147245 0.0145502 0.24625 0.194932 0.217667 0.349352 0.566182 0.46182 0.212242 0.212122 1.13144 0.770229 0.341128 0.299922 0.306822 0.270187 0.183066 0.179455 0.859384 0.192522 0.118017 0.125231 0.101529 0.316348
threshold=5.6849350000000003 3.0909850000000003 -0.89553799999999983 0.47864000000000007 -17.069699999999997 0.017781650000000003 0.00020610550000000003 -0.12174999999999957 -0.20255000000000042 0.0007810015000000002 0.17390849999999994 0.14973499999999998 0.077348000000000056 0.0061309900000000011 1.9573100000000004e-05 -0.040859549999999939 0.00010396350000000002 -1.8416399999999997 5.6987450000000015 0.25355600000000006 0.078545000000000101 -1.805765e-08 0.0027869200000000005 0.039429999999999972 -6.9476399999999989 0.078545000000000101 0.00019198350000000004 -6.0871149999999989 14.554100000000002 3.8012650000000006e-05
decision_type=2 2 2 2 2 2 2 2 2 2 2 2 2 2 2 2 2 2 2 2 2 2 2 2 2 2 2 2 2 2
left_child=7 4 3 6 -2 -6 -3 26 28 10 11 12 13 14 15 16 -10 -18 22 23 -21 -20 -19 -17 25 -25 -1 -28 -9 -30
right_child=1 2 -4 -5 5 -7 -8 8 9 -11 -12 -13 -14 -15 -16 19 17 18 21 20 -22 -23 -24 24 -26 -27 27 -29 29 -31
leaf_value=-0.00026017128921744455 0.0018972500183043026 1.9005194559294746e-05 0.0053038519334707721 0.003072114488930397 -2.2281052146119907e-05 -0.001225001276587789 -0.0015016846983780853 -1.3802524708446342e-05 -0.0067609126428142194 -5.0528220801628447e-05 -0.00012392916142702634 -9.1444701525800884e-05 0.0069276774743277777 -0.0067852686892729249 -0.0040590929470702333 0.00079133938928035736 -0.0038140528940130026 0.012768115690694408 0.0078821773175150166 0.00063899096394716588 -0.0071308315996551144 -0.00023807180114090445 0.0064914920655567022 0.010112841199868574 -0.0047392692205242143 0.0035877432813867928 -3.6580440526262475e-06 0.0037692540092393759 1.1436361571962727e-05 0.001923037592944485
leaf_weight=4718 21 78 30 21 644 39 20 124001 25 3369 1402 1357 38 20 22 3028 20 26 20 27 24 21 21 26 22 20 77307 22 965 279
leaf_count=4718 21 78 30 21 644 39 20 124001 25 3369 1402 1357 38 20 22 3028 20 26 20 27 24 21 21 26 22 20 77307 22 965 279
internal_value=0 0.000202575 0.00130925 0.000302211 -3.16503e-05 -9.09576e-05 -0.00029134 -7.97107e-07 9.31145e-06 0.000254903 0.000423068 0.000585648 0.000859105 0.000789687 0.000835568 0.000868398 0.0028243 0.0050431 0.0070561 0.000785737 -0.0030174 0.00372303 0.00996367 0.000848385 0.0033886 0.00727584 -1.73968e-05 -2.58466e-06 -9.29349e-06 0.000440164
internal_weight=0 853 149 119 704 683 98 216780 134733 9488 6119 4717 3360 3322 3302 3280 133 108 88 3147 51 41 47 3096 68 46 82047 77329 125245 1244
internal_count=217633 853 149 119 704 683 98 216780 134733 9488 6119 4717 3360 3322 3302 3280 133 108 88 3147 51 41 47 3096 68 46 82047 77329 125245 1244
shrinkage=0.05


Tree=168
num_leaves=31
num_cat=0
split_feature=17 39 3 0 10 15 11 40 2 34 2 22 9 36 36 34 34 4 4 23 22 26 9 16 26 36 36 29 29 25
split_gain=0.0140324 0.0893211 0.21648 0.792626 0.674584 0.158574 0.252434 0.103789 0.17834 0.199415 0.173283 0.151357 0.091298 0.0863285 0.113625 0.0851868 0.0844001 0.138021 0.159886 0.151891 0.150559 0.08366 0.212342 0.282467 0.067535 0.0805197 0.577924 0.345375 0.149504 0.111508
threshold=-8.175164999999998 -0.19603999999999996 -12.046299999999997 -4.3615599999999999 2.1772650000000002e-05 -0.0012949349999999999 0.041697100000000008 -0.47859499999999983 2.6628800000000008 -0.0049744299999999993 -3.0487399999999996 0.52741900000000008 -0.0001144375 0.10022550000000004 0.02582950000000005 -0.39553799999999995 -0.00064176049999999996 0.12998700000000005 0.92648250000000021 -0.00039100399999999997 1.2555050000000001 -0.58729449999999994 5.0670100000000008e-05 0.0017507150000000001 0.11680600000000001 -0.3562499999999999 0.14973499999999998 -4.1217849999999994e-05 1.1132650000000001e-05 -0.48753549999999996
decision_type=2 2 2 2 2 2 2 2 2 2 2 2 2 2 2 2 2 2 2 2 2 2 2 2 2 2 2 2 2 2
left_child=1 21 3 4 -3 6 -5 -4 10 -10 11 -9 -7 14 -11 -12 17 -17 19 -19 -21 22 -1 -24 -23 29 27 -27 -29 -26
right_child=-2 2 7 5 -6 12 -8 8 9 13 15 -13 -14 -15 -16 16 -18 18 -20 20 -22 24 23 -25 25 26 -28 28 -30 -31
leaf_value=-0.0001037829519303229 -4.6855280014587163e-06 0.010458372224074527 2.2916980859766732e-05 0.0068191343097714716 0.0010337974901336272 -0.0034796456785406919 -0.00078675386345518437 0.00069246598245808859 0.0056433710150416193 0.0012443517457987501 -0.002750384406070225 0.006528155794694613 -0.00022921480438400644 -0.00029832345652151614 0.0051806285674683749 6.0896053529050022e-06 5.0746248365063106e-05 0.0014225348318821793 -3.2133415265105155e-06 0.0027552933120561017 0.008686979520571186 -3.1452847435957077e-05 0.0066943663642779292 0.00068574937942582261 0.003505495183158432 -0.0095536303716590235 -0.00020918365178858628 0.00042596176779759979 -0.004066020756184471 -0.00010771921377859371
leaf_weight=195 191545 39 9758 20 37 25 24 25 26 220 25 20 159 83 20 186 1817 48 58 23 20 11586 31 53 22 23 733 27 59 726
leaf_count=195 191545 39 9758 20 37 25 24 25 26 220 25 20 159 83 20 186 1817 48 58 23 20 11586 31 53 22 23 733 27 59 726
internal_value=0 3.44024e-05 0.000129883 0.001448 0.00587009 -2.60338e-05 0.00267047 9.73819e-05 0.000380007 0.00143076 0.000214969 0.00328611 -0.000670849 0.00109167 0.00157237 0.000151486 0.000185198 0.000914446 0.00204837 0.00335597 0.00551422 -5.52451e-05 0.00080155 0.00290322 -7.33876e-05 -0.000378958 -0.000714322 -0.00411126 -0.00265575 -1.4482e-06
internal_weight=0 26088 12633 304 76 228 44 12329 2571 349 2222 45 184 323 240 2177 2152 335 149 91 43 13455 279 84 13176 1590 842 109 86 748
internal_count=217633 26088 12633 304 76 228 44 12329 2571 349 2222 45 184 323 240 2177 2152 335 149 91 43 13455 279 84 13176 1590 842 109 86 748
shrinkage=0.05


Tree=169
num_leaves=31
num_cat=0
split_feature=3 34 15 36 36 22 39 13 29 35 13 33 18 1 3 11 29 14 2 1 29 13 22 16 13 32 13 15 11 6
split_gain=0.0135927 0.113962 0.192842 0.249705 0.972187 0.0756281 0.0424352 0.0806859 0.0306241 0.025408 0.0200753 0.028815 0.0152263 0.0735406 0.237311 0.425702 0.105567 0.116392 0.0881023 0.0784858 0.0687161 0.0474054 0.198768 0.399213 0.043838 0.0395481 0.0445558 0.0539383 0.283872 0.0420293
threshold=-18.627349999999996 0.015434100000000001 4.305075000000001e-07 0.38220950000000015 -0.14969009999999991 7.8655400000000011 -0.82558500000000012 -8.5618749999999992e-07 -2.2972599999999993e-06 0.034433300000000007 1.8237450000000004e-06 -1.7368199999999998e-07 14.999250000000002 8.8482550000000018 -5.5710999999999995 8.9811050000000015e-05 -0.00090391799999999997 -8.4992649999999986e-08 1.2461500000000003 8.4878650000000011 -0.00016239399999999998 9.9131400000000028e-06 67.039100000000005 0.0035512250000000003 1.7917850000000003e-05 -0.96073299999999995 4.7861450000000004e-06 -2.3744499999999999e-05 0.0013992450000000001 -1.0441299999999996e-06
decision_type=2 2 2 2 2 2 2 2 2 2 2 2 2 2 2 2 2 2 2 2 2 2 2 2 2 2 2 2 2 2
left_child=1 6 3 4 5 -3 9 -8 -4 -1 11 -9 -2 19 16 20 -15 -18 -19 21 -16 25 24 -24 -23 29 27 28 -27 -14
right_child=12 2 8 -5 -6 -7 7 10 -10 -11 -12 -13 13 14 15 -17 17 18 -20 -21 -22 22 23 -25 -26 26 -28 -29 -30 -31
leaf_value=-3.7176561014492984e-05 -2.2614573560030787e-06 -0.001292020135308401 -0.0019435081772266691 -0.00079393643050300897 0.013450713167410523 0.0027422416524218751 0.0038408475631149484 0.0021420410948242838 0.00016499886975069269 -0.0015854257247324482 -0.0007608853423052693 -0.00026050712353585715 0.00016827474803398623 -0.0023849317040563062 0.0028976438737709034 0.008298464397429834 0.0036489002154339689 0.0025283080052467995 -0.00081512929184432859 -0.0031066828427719888 -0.00081655551828479275 0.0018014048963896528 0.0069422390772326094 -0.00033278197857229816 -0.00053220077284518849 0.0052826888196432263 -0.0019253607920008704 -0.00011392115651355266 -0.00010928274289355393 -0.0018258988523029984
leaf_weight=1428 214315 26 26 33 21 21 20 24 51 27 29 26 45 39 20 27 25 25 93 20 33 23 33 44 161 30 29 744 131 64
leaf_count=1428 214315 26 26 33 21 21 20 24 51 27 29 26 45 39 20 27 25 25 93 20 33 23 33 44 161 30 29 744 131 64
internal_value=0 0.000139513 0.00133788 0.00277485 0.00450676 0.000510522 2.2474e-06 0.00100391 -0.000546965 -6.5907e-05 0.000285698 0.000892716 -1.1192e-06 0.000153234 0.00091861 0.00318831 -7.90613e-05 0.000549812 -0.000106774 1.77679e-06 0.000585029 4.94526e-05 0.000652105 0.00278508 -0.0002405 -0.000101355 3.82422e-06 6.56434e-05 0.000895432 -0.00100262
internal_weight=0 1732 178 101 68 47 1554 99 77 1455 79 50 215901 1586 262 80 182 143 118 1324 53 1304 261 77 184 1043 934 905 161 109
internal_count=217633 1732 178 101 68 47 1554 99 77 1455 79 50 215901 1586 262 80 182 143 118 1324 53 1304 261 77 184 1043 934 905 161 109
shrinkage=0.05


Tree=170
num_leaves=31
num_cat=0
split_feature=3 17 0 20 3 0 12 8 8 14 7 9 3 37 18 32 13 13 36 36 3 17 3 13 21 13 0 16 7 23
split_gain=0.0133748 0.0429723 0.263478 0.398267 0.0607973 0.133045 0.0597017 0.0544163 0.143067 0.0336842 0.105108 0.0485931 0.0367804 0.0306247 0.857574 0.0315913 0.229117 0.366943 0.307198 0.709938 0.480638 0.303367 0.222165 0.0650107 0.225756 0.101527 0.248625 0.0565063 0.0539015 0.142797
threshold=-7.4497099999999987 16.002400000000005 12.423150000000001 -8.2009299999999978 -6.6293999999999995 10.006550000000002 -1.1362599999999997e-05 3.1555000000000012e-05 2.5919250000000001e-05 1.6342400000000002e-06 3.0195150000000005e-05 1.2675150000000002e-05 -6.0305299999999997 5.6849350000000003 -3.7984549999999992 -0.43959349999999991 -1.1710799999999998e-05 -4.7504049999999995e-05 0.80350500000000014 -0.49100999999999978 -14.176449999999997 1.0000000180025095e-35 -17.304849999999998 -7.7313249999999984e-06 1.0406250000000001 -4.2565349999999989e-06 -4.0528699999999995 3.865525000000001e-10 5.2649200000000011e-05 -0.0048905699999999995
decision_type=2 2 2 2 2 2 2 2 2 2 2 2 2 2 2 2 2 2 2 2 2 2 2 2 2 2 2 2 2 2
left_child=13 -2 4 -4 5 7 -6 8 -3 11 -11 -8 -13 15 -15 16 17 22 19 -19 -21 -22 -1 24 -18 26 -25 -27 -29 -30
right_child=1 2 3 -5 6 -7 9 -9 -10 10 -12 12 -14 14 -16 -17 23 18 -20 20 21 -23 -24 25 -26 27 -28 28 29 -31
leaf_value=0.0043721316377195764 -1.8456416250516234e-05 -0.00021300456380191936 -0.00027252949549750027 0.007509880871587102 -0.0025940485488368161 0.0039239635025672941 -6.1594029579123798e-05 -0.00057268957638258514 0.0048524432510771475 -0.00078474220994863687 0.0037966751118628534 -0.0034134671172068921 -0.00060606183292942917 0.0094279480502009391 -6.4942181568386603e-05 5.3533468930814183e-06 -0.0055845311517425051 -0.00019113638761470556 -0.00036897338045008006 0.0013702263700820152 0.0069339196283922161 0.014946705426665999 -0.00010585012558072989 -0.0020806237793611062 0.0015784463235335847 0.0019106773055682425 0.0045744608027841116 -0.00026745772302270103 0.0044904877309983769 -4.0294324546529568e-05
leaf_weight=30 85434 46 35 31 26 29 298 89 20 31 21 20 28 25 492 128873 22 49 47 21 27 21 361 23 22 33 36 1338 22 83
leaf_count=30 85434 46 35 31 26 29 298 89 20 31 21 20 28 25 492 128873 22 49 47 21 27 21 361 23 22 33 36 1338 22 83
internal_value=0 -1.53191e-05 0.000382356 0.00338285 5.66448e-05 0.000815632 -0.000272727 0.000234073 0.00132198 -0.000121083 0.00106545 -0.000299405 -0.00177581 1.00293e-05 0.000394095 8.51361e-06 0.000199273 0.00107215 0.00304948 0.00441107 0.0076793 0.0104395 0.000237729 -0.000108086 -0.00200304 -5.37678e-05 0.00198011 -0.000135068 -0.000181852 0.000909012
internal_weight=0 86108 674 66 608 184 424 155 66 398 52 346 48 131525 517 131008 2135 556 165 118 69 48 391 1579 44 1535 59 1476 1443 105
internal_count=217633 86108 674 66 608 184 424 155 66 398 52 346 48 131525 517 131008 2135 556 165 118 69 48 391 1579 44 1535 59 1476 1443 105
shrinkage=0.05


Tree=171
num_leaves=31
num_cat=0
split_feature=24 36 36 13 32 32 39 39 13 39 32 39 16 14 9 4 39 40 24 39 39 33 13 35 10 9 33 11 13 11
split_gain=0.0132526 0.0631631 0.816843 0.429125 0.930257 0.801766 1.01997 1.19956 0.608585 0.718453 0.871869 0.606219 0.738183 0.575543 0.574774 0.518577 0.467154 0.957457 0.417921 0.417462 0.46276 0.360015 0.603444 0.524859 0.520066 0.426953 0.340678 0.252813 0.474544 0.302567
threshold=5.817635000000001 -0.17527649999999997 0.14973499999999998 3.2990050000000008e-07 -0.018049799999999994 0.029614900000000003 1.8568299999999998 -0.82558500000000012 -3.1157049999999994e-07 1.7675950000000007 -0.0071753399999999997 0.23546500000000006 0.00036703250000000005 1.0102350000000002e-05 1.6735200000000005e-05 -1.7643199999999999 1.06199 1.3201050000000005 67.650400000000005 2.3174500000000009 0.97785500000000003 5.3317650000000004e-06 -1.4853299999999997e-05 0.005313420000000001 1.8732900000000002e-05 5.443675000000001e-05 4.1234850000000007e-07 0.0032042350000000002 7.6833350000000012e-05 0.0090263400000000025
decision_type=2 2 2 2 2 2 2 2 2 2 2 2 2 2 2 2 2 2 2 2 2 2 2 2 2 2 2 2 2 2
left_child=-1 -2 3 5 16 8 7 -7 15 10 14 12 -9 18 -10 -3 17 -5 27 20 21 23 -23 25 -24 -17 -21 -6 29 -29
right_child=1 2 -4 4 13 6 -8 11 9 -11 -12 -13 -14 -15 -16 19 -18 -19 -20 26 -22 22 24 -25 -26 -27 -28 28 -30 -31
leaf_value=4.4420893828211282e-06 4.9602935350831223e-05 -0.0039190154267747983 5.0875256431181468e-05 -0.012832437601173297 0.0013768568128827131 -0.0022584959492609742 -0.00040954827237592621 -0.018265256841249508 -0.013461477719750758 -0.0004207273238271904 0.0021784644838633194 -0.0060363961076195429 -0.005778894653776661 -0.0025222735384124377 -0.0031047651023116143 0.0022723207181843462 -0.0012367032039100709 -0.0012919494024727768 -0.0031911828524676996 -0.007420917286626286 0.0061508199004622717 0.0042849585397302043 -0.010220428678439931 0.0077882343929054007 -0.00019007757239575899 -0.0055699686137294134 -0.0001223743482277409 0.0040259247051949391 -0.0011008408349629589 0.010914177921367811
leaf_weight=192661 11821 58 11279 32 333 156 186 29 37 121 21 76 20 105 21 100 115 41 42 21 56 28 24 36 28 21 67 44 29 25
leaf_count=192661 11821 58 11279 32 333 156 186 29 37 121 21 76 20 105 21 100 115 41 42 21 56 28 24 36 28 21 67 44 29 25
internal_value=0 -3.42711e-05 -0.000109663 -0.00107692 -0.000167276 -0.00170693 -0.00328167 -0.00518278 -0.000556064 -0.00284217 -0.00655097 -0.00883229 -0.0131688 0.000826463 -0.00971163 0.000485445 -0.00322249 -0.00635079 0.00156984 0.00115594 0.00206297 0.00109707 -0.00163292 0.00248815 -0.00481947 0.000911262 -0.00186407 0.00203379 0.00426603 0.00652167
internal_weight=0 24972 13151 1872 766 1106 467 281 639 200 79 125 49 578 58 439 188 73 473 381 293 237 80 157 52 121 88 431 98 69
internal_count=217633 24972 13151 1872 766 1106 467 281 639 200 79 125 49 578 58 439 188 73 473 381 293 237 80 157 52 121 88 431 98 69
shrinkage=0.05


Tree=172
num_leaves=31
num_cat=0
split_feature=4 21 37 36 3 39 34 15 40 37 36 31 20 18 39 3 39 22 18 3 27 9 29 8 3 21 39 20 7 20
split_gain=0.013168 0.0358617 0.0285122 0.166394 0.0564076 0.0375361 0.0198357 0.413133 0.296126 0.460489 0.966736 0.613276 0.410697 0.429886 0.468575 0.391682 0.371536 0.487758 0.304482 0.374721 0.235891 0.429992 0.162608 0.138067 0.0801367 0.163497 0.0727898 0.233649 0.256402 0.12475
threshold=5.1455300000000008 0.57845200000000008 0.43359400000000009 0.24966499999999994 -15.396099999999999 2.6261900000000007 -0.092780149999999992 2.8533150000000003e-05 -4.7185699999999988 0.68231549999999996 0.40779500000000007 1.6674650000000002 -10.421199999999997 5.8567400000000012 -0.5126099999999999 -11.586999999999998 -0.82558500000000012 23.183300000000006 -5.8485049999999994 -13.353949999999999 0.053348600000000003 -4.6864649999999995e-05 -3.9040499999999993e-05 3.3048950000000005e-05 -11.746199999999998 1.5291850000000002 1.8568299999999998 -16.772999999999996 -6.226684999999999e-06 -16.164099999999994
decision_type=2 2 2 2 2 2 2 2 2 2 2 2 2 2 2 2 2 2 2 2 2 2 2 2 2 2 2 2 2 2
left_child=6 -2 3 4 -3 -6 7 26 24 10 11 12 13 14 -10 -14 -17 -18 -16 22 -12 -22 -20 -19 25 -9 27 28 -1 -29
right_child=1 2 -4 -5 5 -7 -8 8 9 -11 20 -13 15 -15 18 16 17 23 19 -21 21 -23 -24 -25 -26 -27 -28 29 -30 -31
leaf_value=-0.0078995164991023815 -2.6661133510396943e-05 -0.0046434132339940827 -3.9863782628375817e-05 -0.00012534188270545049 -0.0028256226160876742 -0.00067145238803604102 -1.1680458636433759e-08 -0.00030845446244785784 0.0088885653250950526 -0.00011368301569148224 -0.00037982792869198947 0.012586979707702995 -0.003294511217973195 0.010570232792487068 0.0074918802274623886 0.0079578923577043638 0.0073578879419390272 0.0010588237501937769 0.0068106345017440624 -0.0038421339696626472 -0.00093697989841530222 0.0074690553698897495 0.00043474021833389998 -0.0039589504094552606 -0.00029555671313464681 0.0046520406254925411 2.4890749721029338e-05 0.003588144862736781 -0.00078928229195298629 -0.00028395727555250171
leaf_weight=21 12647 22 381 369 42 39 196002 46 35 359 273 20 32 31 20 28 23 29 20 29 32 29 20 26 527 26 4256 21 32 2196
leaf_count=21 12647 22 381 369 42 39 196002 46 35 359 273 20 32 31 20 28 23 29 20 29 32 29 20 26 527 26 4256 21 32 2196
internal_value=0 -4.78252e-05 -0.000361614 -0.000621333 -0.00239823 -0.00178843 3.16284e-06 7.96864e-05 0.000798356 0.00132242 0.00211927 0.00411579 0.00353755 0.00530387 0.00398728 0.00155363 0.00301722 0.00124365 0.00205981 0.000485299 0.000248282 0.00305933 0.00362269 -0.00131321 -8.17934e-05 0.00148284 -9.70627e-05 -0.000325712 -0.00360654 -0.00024728
internal_weight=0 13500 853 472 103 81 204133 8131 1605 1006 647 313 293 155 124 138 106 78 89 69 334 61 40 55 599 72 6526 2270 53 2217
internal_count=217633 13500 853 472 103 81 204133 8131 1605 1006 647 313 293 155 124 138 106 78 89 69 334 61 40 55 599 72 6526 2270 53 2217
shrinkage=0.05


Tree=173
num_leaves=31
num_cat=0
split_feature=36 18 22 36 36 13 32 32 39 39 39 31 13 39 2 14 16 20 1 22 10 12 13 12 0 8 39 18 4 19
split_gain=0.0127515 0.518731 0.0148282 0.0647672 0.742706 0.384464 0.83148 0.717443 0.919843 1.08359 0.549584 0.669971 0.544482 0.651338 0.802023 0.516077 0.469774 0.439736 0.415271 0.379396 0.343195 0.323765 0.553251 0.432676 0.376703 0.357162 0.342717 0.290891 0.265162 0.310595
threshold=5.6762150000000009 2.9920850000000008 5.8644050000000005 -0.17527649999999997 0.14973499999999998 3.2990050000000008e-07 -0.018049799999999994 0.029614900000000003 1.8568299999999998 -0.82558500000000012 0.23546500000000006 -0.052110149999999994 -3.1157049999999994e-07 1.7675950000000007 -0.41341749999999994 1.0102350000000002e-05 3.0721050000000003e-05 -10.954249999999998 3.2122550000000003 67.039100000000005 2.9321100000000005e-06 -6.4763899999999986e-07 -3.2815349999999994e-05 3.6456650000000009e-05 -2.3470699999999995 1.4337500000000001e-05 -0.61387499999999962 -1.9516699999999998 -0.3422659999999999 -0.45388899999999993
decision_type=2 2 2 2 2 2 2 2 2 2 2 2 2 2 2 2 2 2 2 2 2 2 2 2 2 2 2 2 2 2
left_child=2 -2 -1 -4 5 7 17 12 9 -9 11 -11 16 14 -14 19 -5 28 -16 -8 -19 22 -18 25 -24 -23 -27 -17 -7 -30
right_child=1 -3 3 4 -6 6 15 8 -10 10 -12 -13 13 -15 18 27 21 20 -20 -21 -22 23 24 -25 -26 26 -28 -29 29 -31
leaf_value=3.9402081403793753e-06 -4.3808586943443329e-05 0.0065425906578199036 4.7652844837336208e-05 0.0029913854905700534 4.0584252119295279e-05 -0.0044466794737672904 0.0019108830121424957 -0.0021476123176655212 -0.00039405383753331479 -0.0065574052917024049 -0.0057334667445454552 -0.018252952601760627 -0.01322843681210307 -0.00040005053363356561 0.00092568709787883569 0.0010883930743913976 0.00049190685841942958 -0.0095354093738612457 -0.0082586465805070484 -0.0030674473038830221 -0.0031881793182324866 -0.0027580634585671849 -0.0032210632131397226 -0.0037625432645048331 -0.011738152205944062 0.008467312932014465 0.0018417097779194918 -0.004388077714855769 0.0056308691971935334 -0.0015310022274384321
leaf_weight=191907 838 31 11821 128 11164 32 431 156 186 24 76 25 27 121 32 38 67 34 20 42 57 31 37 42 20 25 89 67 24 41
leaf_count=191907 838 31 11821 128 11164 32 431 156 186 24 76 25 27 121 32 38 67 34 20 42 57 31 37 42 20 25 89 67 24 41
internal_value=0 0.000191149 -7.66311e-07 -3.71027e-05 -0.000113959 -0.0010356 -0.000174593 -0.00163193 -0.00312156 -0.00492695 -0.00839556 -0.0125245 -0.000543261 -0.00270562 -0.00623695 0.000764906 0.00044187 -0.00306305 -0.00260675 0.00146883 -0.00555967 -0.000607448 -0.00258859 0.000706247 -0.00620952 0.00200066 0.00329469 -0.00240612 -0.000720866 0.00111338
internal_weight=0 869 216764 24857 13036 1872 766 1106 467 281 125 49 639 200 79 578 439 188 52 473 91 311 124 187 57 145 114 105 97 65
internal_count=217633 869 216764 24857 13036 1872 766 1106 467 281 125 49 639 200 79 578 439 188 52 473 91 311 124 187 57 145 114 105 97 65
shrinkage=0.05


Tree=174
num_leaves=31
num_cat=0
split_feature=17 39 3 0 10 15 11 40 0 34 4 36 18 4 23 4 23 6 25 30 25 14 9 5 0 20 32 26 1 26
split_gain=0.0127641 0.0816955 0.192572 0.70606 0.664122 0.145857 0.225845 0.126829 0.195386 0.224775 0.195314 0.198631 0.149174 0.117641 0.136785 0.102548 0.11385 0.0998256 0.095739 0.0899127 0.0937797 0.0944897 0.0827411 0.0710388 0.068429 0.0983196 0.107466 0.127635 0.136052 0.0926195
threshold=-8.175164999999998 -0.026199999999999776 -12.203099999999997 -4.3615599999999999 2.1772650000000002e-05 -0.0012949349999999999 0.041697100000000008 -0.47859499999999983 -4.8003249999999991 -0.00064176049999999996 0.090019550000000018 0.039429999999999972 -9.853489999999999 -0.54650249999999989 0.00018073150000000004 0.078893300000000013 -8.3371299999999979e-05 -3.3864449999999993e-07 -0.0034260149999999997 0.017473500000000003 -0.0055929999999999999 5.2773400000000007e-08 -9.3323749999999985e-05 1.2904050000000002e-05 -4.0528699999999995 -10.576799999999997 3.8353050000000004 0.18537850000000003 -4.7501699999999989 -0.24353549999999999
decision_type=2 2 2 2 2 2 2 2 2 2 2 2 2 2 2 2 2 2 2 2 2 2 2 2 2 2 2 2 2 2
left_child=1 24 3 4 -3 6 -5 -4 9 10 -9 17 -11 14 -14 19 -17 23 -18 -15 -21 -22 -7 -12 25 -1 27 -27 -29 -26
right_child=-2 2 7 5 -6 22 -8 8 -10 12 11 -13 13 15 -16 16 18 -19 -20 20 21 -23 -24 -25 29 26 -28 28 -30 -31
leaf_value=-0.0018840108491144484 -4.4687595631937667e-06 0.010637853691088302 2.342798919933039e-05 0.0064732339163310823 0.00096537149236408182 -0.0032097930770962398 -0.00079167527716060213 0.00020611994838678322 -6.4873448635554922e-05 0.0048807628091162777 0.0023685640626354143 0.0076523680421255102 0.00023623270148589732 0.00071780946568101732 -0.0042293097149619522 0.000974864842754185 -0.0041526571125532858 0.0010427538257014627 -0.00050819163954269979 0.000275059563933783 0.0060728336982720068 0.0022549979923240527 -0.00019519808952470064 0.0065827913506655029 0.0010111957531013474 -0.00012995743268658262 0.0030829571705544368 -0.0040780354796584725 -0.00080931967803727484 -1.8036130900168301e-06
leaf_weight=87 191545 35 9772 20 36 27 23 56 928 20 20 26 47 364 27 137 21 45 127 42 21 71 145 20 231 3718 25 37 228 9732
leaf_count=87 191545 35 9772 20 36 27 23 56 928 20 20 26 47 364 27 137 21 45 127 42 21 71 145 20 231 3718 25 37 228 9732
internal_value=0 3.28108e-05 0.000128459 0.00141037 0.0057335 -1.72651e-05 0.00258735 9.7241e-05 0.000463012 0.000932243 0.0026135 0.00382804 0.000612094 0.000512475 -0.00139309 0.000692567 -6.38233e-05 0.00265825 -0.00102531 0.00112544 0.00223274 0.00312646 -0.000668419 0.00447568 -4.90394e-05 -0.000221106 -0.00018501 -0.000205522 -0.00126571 2.16836e-05
internal_weight=0 26088 12030 286 71 215 43 11744 1972 1044 167 111 877 857 74 783 285 85 148 498 134 92 172 40 14058 4095 4008 3983 265 9963
internal_count=217633 26088 12030 286 71 215 43 11744 1972 1044 167 111 877 857 74 783 285 85 148 498 134 92 172 40 14058 4095 4008 3983 265 9963
shrinkage=0.05


Tree=175
num_leaves=31
num_cat=0
split_feature=37 38 13 19 32 32 33 33 18 26 23 4 9 4 21 39 3 26 30 3 9 37 9 18 17 39 19 10 1 20
split_gain=0.0125028 0.466153 0.34197 0.573033 0.187759 0.257256 0.24509 0.183637 0.214757 0.197973 0.207026 0.473334 0.221157 0.204411 0.276784 0.213226 0.1829 0.172072 0.252365 0.231163 0.16642 0.165872 0.178187 0.285743 0.75002 0.954564 0.915271 0.412799 0.370457 0.312845
threshold=-0.016969000000000036 -0.018010000000000078 -1.3727349999999997e-06 3.0016000000000003 0.0052581350000000006 0.0027849950000000006 -6.173039999999999e-07 3.3001550000000009e-05 -13.876599999999998 0.21193400000000004 0.00036277200000000008 -0.17044799999999996 1.1475700000000001e-05 -0.3422659999999999 0.25546950000000007 0.93421999999999994 -10.279999999999999 0.010750750000000002 0.042894250000000009 -13.989599999999998 -8.0872649999999985e-05 -0.27889399999999981 -2.0367299999999997e-05 2.8035700000000001 -2.0176449999999995 0.027469999999999221 -2.3274699999999995 5.2534050000000007e-06 -4.1965899999999996 -8.9766299999999983
decision_type=2 2 2 2 2 2 2 2 2 2 2 2 2 2 2 2 2 2 2 2 2 2 2 2 2 2 2 2 2 2
left_child=21 -2 3 4 5 17 -6 8 -4 10 13 -12 -13 14 -10 -15 -17 -3 -19 -20 -21 -1 23 24 27 26 -26 -23 -28 -30
right_child=1 2 7 -5 6 -7 -8 -9 9 -11 11 12 -14 15 -16 16 -18 18 19 20 -22 22 -24 -25 25 -27 28 -29 29 -31
leaf_value=8.2983189871928908e-06 -1.08778536486504e-05 0.00024230139044738416 0.0058317097253166141 -0.0083034249883064109 0.0003486937875377721 0.0052832080204759475 -0.0060461300341440594 -0.0033997561250414168 -0.0002172062112597479 0.0051676716733103003 0.0021472349758902246 -0.0018028296063729453 -0.0072714930978314638 0.00087100018927955723 -0.0060594483025614987 0.0030059782821415474 -0.00068377867595088545 -0.0069474869116675116 -0.0056686246435024915 -0.0030367708742657369 0.0013957000010931453 0.0016557359235132897 -0.00033865166803984754 -0.00046786845458713635 0.016111491126939655 -0.0003077219454530448 0.0014429714160916561 -0.000268826545592688 0.011553358410795529 0.0030861458304570991
leaf_weight=95517 106563 470 20 23 29 22 31 28 171 24 58 51 29 3670 23 37 364 20 21 30 72 355 7234 1262 20 99 51 1295 24 20
leaf_count=95517 106563 470 20 23 29 22 31 28 171 24 58 51 29 3670 23 37 364 20 21 30 72 355 7234 1262 20 99 51 1295 24 20
internal_value=0 1.16648e-05 0.000474251 -0.000538702 -0.00028174 -2.91202e-05 -0.0029553 0.000636776 0.000662192 0.000638837 0.000614151 -0.00129187 -0.00378522 0.000675823 -0.000909843 0.000751387 -0.000343327 -0.000219775 -0.00173849 -0.000891495 9.20321e-05 -1.23125e-05 -0.00020234 0.000113105 0.000506447 0.0032914 0.00638978 0.000145246 0.00434311 0.00770463
internal_weight=0 111756 5193 718 695 635 60 4475 4447 4427 4403 138 80 4265 194 4071 401 613 143 123 102 105877 10360 3126 1864 214 115 1650 95 44
internal_count=217633 111756 5193 718 695 635 60 4475 4447 4427 4403 138 80 4265 194 4071 401 613 143 123 102 105877 10360 3126 1864 214 115 1650 95 44
shrinkage=0.05


Tree=176
num_leaves=31
num_cat=0
split_feature=15 34 4 37 36 17 4 40 40 22 4 36 36 5 4 39 15 0 29 3 21 18 36 33 36 22 36 8 40 17
split_gain=0.0124599 0.26477 0.241407 0.341052 1.45616 0.702645 0.65318 0.70362 0.679989 0.852291 0.712395 0.694758 0.694166 0.561401 0.533192 0.496311 0.54427 0.414121 0.382763 0.332465 0.681732 0.259382 0.251724 0.246175 0.389659 0.543589 0.36473 0.226815 0.225271 0.519126
threshold=-1.6062999999999998e-06 9.5270700000000009e-05 -1.4133199999999999 -0.33012499999999995 -0.25142799999999998 16.002400000000005 0.078893300000000013 -1.7773799999999997 3.0726850000000008 3.5039900000000004 -0.20278049999999997 -0.10081500000000009 0.12375499999999996 1.3024650000000002e-05 -0.68745799999999979 -1.4591200000000002 -6.7236599999999979e-05 -5.6117099999999995 0.00015643550000000002 -13.989599999999998 -0.46592299999999992 -0.16778899999999997 -0.058960000000000005 -2.7662949999999994e-07 0.039429999999999972 0.5654745000000001 -0.058960000000000005 3.4560700000000009e-05 -0.27579999999999932 -8.5876849999999987
decision_type=2 2 2 2 2 2 2 2 2 2 2 2 2 2 2 2 2 2 2 2 2 2 2 2 2 2 2 2 2 2
left_child=1 -1 -3 -4 -5 6 7 19 9 14 11 27 15 -14 17 -13 18 -9 -17 20 -6 -12 -18 24 26 -26 -16 -11 29 -25
right_child=-2 2 3 4 5 -7 -8 8 -10 10 21 12 13 -15 23 16 22 -19 -20 -21 -22 -23 -24 28 25 -27 -28 -29 -30 -31
leaf_value=-6.4050244511340914e-05 -9.2058522423247825e-06 -3.5280076320209925e-05 -4.7340560081867519e-06 5.9501831699549471e-06 0.0093422153534797516 0.0090783372712654204 -0.0021638482779310613 -0.0082782408480488821 -0.00048554472914893055 0.011620786273698815 0.0018233183543998168 0.010144689623709947 0.0022469935566186909 0.012863279184834523 0.0066360779569044504 0.001270495220887824 0.0084858793720531348 -0.00046209270644344096 -0.0050438618563930504 -0.0003835868510857655 -0.002936528539285064 -0.0056206985046155754 0.0031859858870401368 0.009275117660483655 0.012755490625568201 0.0035834236152281632 0.0013261011389630361 0.005560160256349124 0.0010345952387033736 0.0019224110143136895
leaf_weight=45606 136695 14841 8837 7691 26 28 145 20 348 38 22 21 20 33 36 96 26 111 32 705 20 25 162 26 20 84 318 26 1262 313
leaf_count=45606 136695 14841 8837 7691 26 28 145 20 348 38 22 21 20 33 36 96 26 111 32 705 20 25 162 26 20 84 318 26 1262 313
internal_value=0 1.55476e-05 0.000118291 0.000229518 0.000407147 0.00118575 0.00112959 0.00125559 0.00159426 0.00186322 0.00372364 0.00433028 0.00353793 0.00885713 0.00143762 0.00270138 0.00220673 -0.0016554 -0.000308094 -0.000114862 0.00400363 -0.00213627 0.00391895 0.00163441 0.00265659 0.00534728 0.0018661 0.00915866 0.00134199 0.00248634
internal_weight=0 80938 35332 20491 11654 3963 3935 3790 3039 2691 501 454 390 53 2190 337 316 131 128 751 46 47 188 2059 458 104 354 64 1601 339
internal_count=217633 80938 35332 20491 11654 3963 3935 3790 3039 2691 501 454 390 53 2190 337 316 131 128 751 46 47 188 2059 458 104 354 64 1601 339
shrinkage=0.05


Tree=177
num_leaves=31
num_cat=0
split_feature=22 36 36 13 32 32 39 40 39 16 13 39 32 18 14 4 39 40 39 39 39 7 4 18 22 33 18 3 5 22
split_gain=0.0128333 0.0575993 0.710435 0.33731 0.729185 0.631308 0.828081 0.97474 0.52896 0.536228 0.475951 0.588396 0.733611 0.531459 0.457458 0.416164 0.408341 0.847768 0.341276 0.413626 0.338361 0.480129 0.359861 0.659247 0.3332 0.296379 0.275496 0.274451 0.250666 0.229257
threshold=5.8644050000000005 -0.17527649999999997 0.14973499999999998 3.2990050000000008e-07 -0.018049799999999994 0.029614900000000003 1.8568299999999998 0.7622899999999998 0.23546500000000006 0.00014657100000000002 -3.1157049999999994e-07 1.7675950000000007 -0.0071753399999999997 -1.3000649999999998 1.0102350000000002e-05 -1.7643199999999999 1.06199 1.3201050000000005 2.3174500000000009 0.97785500000000003 0.35261000000000037 -1.9561949999999997e-05 -0.38361349999999994 1.9225850000000002 67.039100000000005 4.1396850000000002e-08 10.010650000000002 -12.585899999999999 2.7325850000000002e-05 16.451500000000003
decision_type=2 2 2 2 2 2 2 2 2 2 2 2 2 2 2 2 2 2 2 2 2 2 2 2 2 2 2 2 2 2
left_child=-1 -2 3 5 16 10 7 8 9 -7 15 12 13 -12 24 -3 17 -5 19 20 22 -22 23 -17 -6 -20 28 -24 29 -16
right_child=1 2 -4 4 14 6 -8 -9 -10 -11 11 -13 -14 -15 26 18 -18 -19 25 -21 21 -23 27 -25 -26 -27 -28 -29 -30 -31
leaf_value=4.3712540814216654e-06 4.6370180478030664e-05 -0.003569709230866685 4.3997623758423777e-05 -0.011930081601531129 0.0017555240280707444 -0.017876987575172362 -0.0003758034065740699 -0.0020783861842090441 -0.0054357635348998498 -0.0071738149521406742 -0.014321355989202859 -0.00037547458327747687 0.0020842571382499522 -0.0046565762033093381 0.00020142061621299947 0.011806280280209401 -0.0010496613926680649 -0.0010707536370141387 -0.0071044526540208616 0.005661428232477712 -0.0082844417669217709 0.0024195912928553298 -0.0033145385358530361 0.0013191073189212129 -0.0029098857425630003 -0.00018031354739592002 -0.0072816205210983753 0.0017331835698743147 0.0034496234820993697 -0.0059937419802216551
leaf_weight=192661 11821 58 11279 32 431 22 186 158 76 25 25 121 21 33 32 22 115 41 20 56 22 20 39 47 42 68 22 87 23 28
leaf_count=192661 11821 58 11279 32 431 22 186 158 76 25 25 121 21 33 32 22 115 41 20 56 22 20 39 47 42 68 22 87 23 28
internal_value=0 -3.37246e-05 -0.000105719 -0.00100778 -0.000201296 -0.00156634 -0.00296369 -0.00467666 -0.00801429 -0.0121838 -0.000545113 -0.00256682 -0.00592318 -0.00882243 0.000678516 0.000375938 -0.00290625 -0.00583101 0.000976588 0.00179669 0.000883503 -0.00318728 0.00176029 0.00466284 0.00134126 -0.00175398 -0.00230699 0.000170793 -0.000988409 -0.00268966
internal_weight=0 24972 13151 1872 766 1106 467 281 123 47 639 200 79 58 578 439 188 73 381 293 237 42 195 69 473 88 105 126 83 60
internal_count=217633 24972 13151 1872 766 1106 467 281 123 47 639 200 79 58 578 439 188 73 381 293 237 42 195 69 473 88 105 126 83 60
shrinkage=0.05


Tree=178
num_leaves=31
num_cat=0
split_feature=3 39 34 13 35 30 36 39 13 36 36 18 1 3 11 23 14 1 23 12 10 9 37 36 36 36 2 36 39 20
split_gain=0.0118174 0.10467 0.0980481 0.227562 0.0368475 0.14334 0.0245458 0.024311 0.0599535 0.0258778 0.031282 0.0141461 0.0663246 0.206657 0.369722 0.138391 0.0815984 0.0720843 0.063217 0.0612169 0.0531931 0.0431469 0.299837 0.65022 0.0739819 0.0608993 0.51804 0.134129 0.100736 0.0579642
threshold=-18.627349999999996 1.46871 0.30670150000000002 4.8253050000000006e-09 0.0078118450000000004 1.7130900000000002 -0.40968649999999995 -1.9691099999999999 -1.8737049999999999e-06 -0.10081500000000009 0.20129000000000011 14.999250000000002 8.8482550000000018 -5.5710999999999995 8.9811050000000015e-05 0.0058547700000000013 -4.5397049999999996e-08 8.4878650000000011 0.0085896400000000008 1.0316400000000001e-07 1.2472550000000001e-05 4.247685000000001e-05 -0.17681499999999981 0.77415 -0.30278099999999991 -0.079468000000000025 1.7176300000000002 0.354709 2.1254700000000009 -8.2009299999999978
decision_type=2 2 2 2 2 2 2 2 2 2 2 2 2 2 2 2 2 2 2 2 2 2 2 2 2 2 2 2 2 2
left_child=1 2 4 -4 5 7 -6 -1 -9 -10 -11 -2 17 15 18 16 -14 21 -15 -18 -17 25 23 -23 -24 26 -13 28 29 -27
right_child=11 -3 3 -5 6 -7 -8 8 9 10 -12 12 13 14 -16 20 19 -19 -20 -21 -22 22 24 -25 -26 27 -28 -29 -30 -31
leaf_value=-4.3793758967732573e-05 -2.144551295000137e-06 0.0031087093809940691 -0.0010439187767174603 0.0063252462859963998 -0.00027357830137286022 0.0040807238019955226 -0.0020147562613627608 0.003048246191081655 -0.0010927168836384101 0.0016675284937940516 -0.00029901217535336315 -9.4115674856797793e-05 0.003804128504790632 -0.00077778566109455748 0.0077549584227165694 -0.00094832100058619799 -0.0002953467039963774 -0.0029750978924130323 0.0027846982049959481 0.0028179604971228403 -0.0040370194493152675 0.0095288089121351258 2.8152727742038138e-05 -3.4982326962143332e-05 -0.0025712107993087793 -0.0060920317746058572 0.0078999083329021925 -0.00019627115539350466 0.0001675082853762433 -0.0023728416719346903
leaf_weight=1424 214315 29 22 20 48 22 35 22 29 39 42 580 21 33 27 46 75 20 20 20 20 27 234 52 31 20 21 297 20 22
leaf_count=1424 214315 29 22 20 48 22 35 22 29 39 42 580 21 33 27 46 75 20 20 20 20 27 234 52 31 20 21 297 20 22
internal_value=0 0.000130083 7.9361e-05 0.00246521 1.90326e-05 7.30427e-05 -0.00100781 1.63788e-05 0.000665513 0.000188966 0.000647841 -1.04355e-06 0.000147733 0.00087459 0.00299264 -5.6419e-05 0.000983577 3.89915e-06 0.000566548 0.000360086 -0.00188429 4.95893e-05 0.000530055 0.00323366 -0.000275924 -0.000122578 0.00018521 -0.000637843 -0.00275311 -0.00414388
internal_weight=0 1732 1703 42 1661 1578 83 1556 132 110 81 215901 1586 262 80 182 116 1324 53 95 66 1304 344 79 265 960 601 359 62 42
internal_count=217633 1732 1703 42 1661 1578 83 1556 132 110 81 215901 1586 262 80 182 116 1324 53 95 66 1304 344 79 265 960 601 359 62 42
shrinkage=0.05


Tree=179
num_leaves=31
num_cat=0
split_feature=22 4 21 4 36 37 37 5 15 2 20 36 15 20 20 36 19 14 8 18 29 32 34 15 4 17 36 36 6 10
split_gain=0.0119518 0.0538081 0.30367 0.642238 0.467865 0.820173 0.704423 0.583432 0.764899 0.501089 0.379516 0.300746 0.301613 0.402924 0.37282 0.259148 0.259035 0.221384 0.194246 0.18374 0.137528 0.119135 0.109588 0.125742 0.300231 0.327103 0.573279 0.513751 0.751278 0.533918
threshold=5.8644050000000005 -0.42458499999999993 -0.62980599999999998 -1.6465649999999996 0.80350500000000014 0.56931500000000013 0.12358499999999996 1.6368250000000004e-05 -0.00059694499999999988 2.4399850000000005 -7.2015399999999987 -0.011175000000000155 -0.00059694499999999988 -11.903199999999998 -8.5441749999999974 0.14973499999999998 2.9381050000000006 -1.1906449999999996e-06 1.1666750000000001e-05 2.8823700000000003 -0.00090391799999999997 0.5797365000000001 -0.092780149999999992 2.8533150000000003e-05 2.9223900000000005 -8.4049549999999993 -0.49100999999999978 1.2849435000000005 -4.0493649999999993e-07 2.6137250000000005e-05
decision_type=2 2 2 2 2 2 2 2 2 2 2 2 2 2 2 2 2 2 2 2 2 2 2 2 2 2 2 2 2 2
left_child=-1 2 3 18 5 6 9 8 -8 10 11 17 -13 19 15 -15 21 -5 -2 -14 -20 -7 23 -3 25 26 -25 28 -28 -30
right_child=1 22 -4 4 -6 16 7 -9 -10 -11 -12 12 13 14 -16 -17 -18 -19 20 -21 -22 -23 -24 24 -26 -27 27 -29 29 -31
leaf_value=4.2184641066490411e-06 0.0046859203027062382 -4.7291668490877506e-05 -0.00021315375298241329 -0.0051364636686803021 -0.00032138627945434704 -0.00037059946677768475 0.01181439768522978 0.012675472513203407 -0.00089590819565085538 0.0092568986332760405 0.0072501787803291029 0.0061362458160147074 0.0003512149842988168 0.0029389589609733475 -0.00090827632364594421 0.010286697212795844 0.0058166959262598537 0.001011227653361857 0.0031969327143936731 -0.0063451581832487149 -0.00022176022085466921 0.0035462471139908304 -0.00014906020642866072 -0.00039515547585040173 -0.00022668074931565105 0.00059142813715971801 0.00038922174269548403 0.0003730167805863461 0.0064517934780357585 0.016506268559833583
leaf_weight=192661 21 3817 3286 27 237 257 20 36 29 26 30 40 21 30 34 20 20 32 30 20 1516 21 13640 80 832 731 26 39 31 23
leaf_count=192661 21 3817 3286 27 237 257 20 36 29 26 30 40 21 30 34 20 20 32 30 20 1516 21 13640 80 832 731 26 39 31 23
internal_value=0 -3.25458e-05 0.000101603 0.000520852 0.00158535 0.00226695 0.00385596 0.00784263 0.00429197 0.00264572 0.00196899 0.00126169 0.00235723 0.00114795 0.00313121 0.00587805 0.000320675 -0.00180212 -9.054e-05 -0.00291531 -0.000155421 -7.47226e-05 -7.27017e-05 0.000113986 0.00046336 0.00108069 0.00287791 0.0050783 0.00737212 0.0107343
internal_weight=0 24972 5753 2467 900 663 365 85 49 280 254 224 165 125 84 50 298 59 1567 41 1546 278 19219 5579 1762 930 199 119 80 54
internal_count=217633 24972 5753 2467 900 663 365 85 49 280 254 224 165 125 84 50 298 59 1567 41 1546 278 19219 5579 1762 930 199 119 80 54
shrinkage=0.05


Tree=180
num_leaves=31
num_cat=0
split_feature=5 26 35 9 33 36 36 40 13 26 21 9 9 22 36 36 33 13 23 36 21 29 40 23 8 20 35 9 36 40
split_gain=0.0114966 0.0305268 0.0598163 0.0417805 0.0924581 0.0733792 0.183385 0.215181 0.0419235 0.0357334 0.0787561 0.188602 0.0751148 0.0380904 0.0364852 0.408292 0.384633 0.300433 0.155303 0.142956 0.203123 0.143081 0.314426 0.128439 0.0943056 0.120359 0.112483 0.0977588 0.0830829 0.053947
threshold=8.8143050000000017e-06 -0.11763599999999998 2.3303150000000001 1.6735200000000005e-05 1.8324750000000004e-05 -0.27744100000000016 0.51872500000000021 0.6060099999999996 9.6924450000000025e-07 0.34967900000000007 0.86341500000000015 -3.9555399999999991e-05 -4.4153649999999994e-05 4.6947250000000009 0.016888500000000004 -0.10081500000000009 3.4242650000000004e-07 9.7977450000000009e-08 0.00045620850000000006 -0.058960000000000005 0.13589850000000001 -5.4458249999999988e-06 0.31988499999999936 -8.9076349999999996e-05 3.7564000000000008e-05 -6.6508199999999995 6.7373650000000016e-07 -5.4981049999999991e-05 -0.040859549999999939 -1.2354849999999999
decision_type=2 2 2 2 2 2 2 2 2 2 2 2 2 2 2 2 2 2 2 2 2 2 2 2 2 2 2 2 2 2
left_child=1 3 9 -1 5 -5 7 -7 -6 10 14 -12 -11 -13 15 -3 18 -18 19 20 -17 22 23 -21 26 -26 -23 -28 -29 -25
right_child=-2 2 -4 4 8 6 -8 -9 -10 12 11 13 -14 -15 -16 16 17 -19 -20 21 -22 24 -24 29 25 -27 27 28 -30 -31
leaf_value=-8.6332783026675478e-06 -3.0962359836963897e-06 -1.0002687126698635e-05 0.0024103595851152531 -0.00010670676017594594 -0.00019250327748649885 -0.0016450230874504675 -4.4688187731748363e-05 -0.0079069189737429445 0.0023823281160439366 -0.0026616952558833878 0.0043541135772506498 0.0020427218906964601 -0.00019769288867388596 -0.00017117352836066858 -3.1131495682789448e-05 0.00069127971129048435 0.0085210608794780759 0.0017461488820723998 0.0048991547172709433 0.0043373622360753684 -0.0049320446497474156 -0.0026779205599070893 0.0076375671171421272 -0.0016732797079298291 -0.0045474392300820917 0.00075608385504101927 -0.0025123658178199549 0.0032647462121437858 0.00084627118403407552 0.0011192930683351706
leaf_weight=499 202904 6087 27 66 43 34 51 23 25 35 36 24 266 102 6561 42 30 36 23 29 26 23 23 21 20 23 20 39 397 98
leaf_count=499 202904 6087 27 66 43 34 51 23 25 35 36 24 266 102 6561 42 30 36 23 29 26 23 23 21 20 23 20 39 397 98
internal_value=0 4.26532e-05 5.92206e-05 -0.000270093 -0.000809219 -0.00142018 -0.00222286 -0.00417175 0.000754126 5.46736e-05 6.65479e-05 0.00116243 -0.000484205 0.000250521 5.33953e-05 0.000133341 0.00115985 0.00482565 0.000851246 0.000728905 -0.00145881 0.000943573 0.00219883 0.00135362 0.000532369 -0.00171067 0.000733727 0.000905806 0.0010626 0.000626486
internal_weight=0 14729 13988 741 242 174 108 57 68 13961 13660 162 301 126 13498 6937 850 66 784 761 68 693 171 148 522 43 479 456 436 119
internal_count=217633 14729 13988 741 242 174 108 57 68 13961 13660 162 301 126 13498 6937 850 66 784 761 68 693 171 148 522 43 479 456 436 119
shrinkage=0.05


Tree=181
num_leaves=31
num_cat=0
split_feature=36 18 1 22 13 32 16 37 36 39 40 5 1 13 18 39 29 11 39 16 15 26 16 33 23 18 31 0 32 37
split_gain=0.0114139 0.464495 0.0267628 0.0137657 0.0555674 0.204635 0.288357 0.35785 1.09085 0.491853 0.879556 0.374815 0.332461 0.443962 0.391303 0.449519 0.44387 0.32743 0.277327 0.228762 0.22145 0.294244 0.183168 0.147367 0.143314 0.124444 0.11748 0.148478 0.113927 0.145682
threshold=5.6762150000000009 4.4724750000000002 0.42337950000000008 2.3108700000000004 8.2193200000000006e-07 -0.0016410049999999999 0.0002560000000000001 0.40643499999999982 0.2761725000000001 -3.1159849999999993 1.5644200000000008 4.066120000000001e-05 10.154350000000003 5.8204250000000011e-06 -12.050999999999998 -0.23716000000000023 7.3850900000000001e-05 0.0025934100000000004 1.1065400000000005 7.3302800000000012e-05 8.913810000000002e-05 0.082377100000000023 6.4033200000000016e-05 1.0477650000000003e-06 -0.062701649999999984 -4.0828499999999996 0.039030700000000008 8.156525000000002 0.0034201800000000005 -0.27889399999999981
decision_type=2 2 2 2 2 2 2 2 2 2 2 2 2 2 2 2 2 2 2 2 2 2 2 2 2 2 2 2 2 2
left_child=3 2 -2 -1 28 -6 7 8 9 -7 11 12 14 -14 16 20 -11 18 26 23 21 25 -19 -20 -9 -16 -17 -28 -5 -30
right_child=1 -3 -4 4 5 6 -8 24 -10 10 -12 -13 13 -15 15 17 -18 22 19 -21 -22 -23 -24 -25 -26 -27 27 -29 29 -31
leaf_value=5.7332046663259673e-06 0.0015828342037471324 0.007712486432865262 -4.6474222661252442e-05 3.8030015610821514e-05 -0.00016967917749551769 -0.003153060231852578 2.382448046604217e-05 0.0039742921775706977 2.7848756922686647e-05 0.011601521437599634 0.011403892031540314 -0.0026921758416574449 0.010151968586266907 0.0010876560710709204 0.0053292612698256836 0.0025325015375885786 0.0027730764994131668 0.0072787314782746977 -0.0033922052212381881 -0.0071114078832033552 0.0010658654834954969 0.00081144053721800453 0.00096557106822729114 0.0020410916224136602 -0.0001037195901161671 0.0099384704459225762 -0.0024212171963881703 0.0027217257940007943 9.6199375498425358e-06 -0.00029001796099644876
leaf_weight=171666 26 20 823 14812 5786 32 5692 22 819 24 31 30 35 22 27 79 35 27 26 20 31 20 20 24 1040 32 36 23 7456 8897
leaf_count=171666 26 20 823 14812 5786 32 5692 22 819 24 31 30 35 22 27 79 35 27 26 20 31 20 20 24 1040 32 36 23 7456 8897
internal_value=0 0.000180846 3.42215e-06 -7.25006e-07 -2.53082e-05 5.76984e-05 0.000219182 0.000672125 0.00119921 0.00287054 0.00322618 0.00273008 0.00306826 0.00665346 0.00258629 0.0019756 0.00636431 0.000823143 -2.85375e-05 -0.00259199 0.0046472 0.00605253 0.00459228 -0.000784223 -1.9241e-05 0.00782917 0.00127176 -0.000416341 -6.24182e-05 -0.000153401
internal_weight=0 869 849 216764 45098 13933 8147 2455 1393 574 542 511 481 57 424 365 59 255 208 70 110 79 47 50 1062 59 138 59 31165 16353
internal_count=217633 869 849 216764 45098 13933 8147 2455 1393 574 542 511 481 57 424 365 59 255 208 70 110 79 47 50 1062 59 138 59 31165 16353
shrinkage=0.05


Tree=182
num_leaves=31
num_cat=0
split_feature=17 39 3 0 10 5 40 0 34 3 8 18 4 23 4 31 17 9 7 36 36 20 25 0 20 32 26 1 26 9
split_gain=0.0113134 0.0696556 0.168015 0.627495 0.714614 0.142657 0.107245 0.165638 0.206038 0.185911 0.262747 0.132479 0.0983284 0.115426 0.0867945 0.101856 0.0831221 0.182538 0.14828 0.0829177 0.114282 0.0808539 0.0802713 0.0604464 0.090365 0.0939226 0.120973 0.111696 0.0786714 0.145245
threshold=-8.175164999999998 -0.026199999999999776 -12.203099999999997 -4.5705949999999991 2.1772650000000002e-05 9.607735000000002e-06 -0.47859499999999983 -4.8003249999999991 -0.00064176049999999996 -8.0060399999999969 5.0113350000000004e-05 -9.853489999999999 -0.54650249999999989 0.00018073150000000004 0.078893300000000013 -0.00044723299999999995 -11.277699999999998 -0.00010305049999999998 -1.7427699999999996e-05 0.077348000000000056 0.02582950000000005 -8.9164399999999979 -0.0034260149999999997 -4.0528699999999995 -12.525949999999998 3.8353050000000004 0.18537850000000003 -4.7501699999999989 -0.24353549999999999 5.0670100000000008e-05
decision_type=2 2 2 2 2 2 2 2 2 2 2 2 2 2 2 2 2 2 2 2 2 2 2 2 2 2 2 2 2 2
left_child=1 23 3 4 -3 -5 -4 8 9 10 -8 -10 13 -13 19 -16 17 -7 -18 20 21 -14 -17 24 -1 26 -26 -28 29 -25
right_child=-2 2 6 5 -6 16 7 -9 11 -11 -12 12 14 -15 15 22 18 -19 -20 -21 -22 -23 -24 28 25 -27 27 -29 -30 -31
leaf_value=-0.0034778862142827295 -4.2071572123330368e-06 0.011700515109779579 2.2174426411983544e-05 0.0034641686485494053 0.00068075889648166457 -0.0053234800683249579 0.0023266738827223891 -5.9644555828721828e-05 0.0045746357089956292 0.00099794271408175893 0.0087839802448086077 0.00021260789810204439 0.0032212151537532917 -0.0038894919376751338 0.0010432237457490459 -0.0036150718414675164 0.0042379418028675982 -0.0001406516288093721 -0.00034628238178985169 -0.00057440933052151067 0.0047103237765638729 0.00085326974688429555 -0.00043254425789270435 -0.00013296562088970548 -0.0001337744246590069 0.0028657170683145522 -0.003769132571422331 -0.00082101162455072609 1.3488559882487277e-07 0.0024073506775822194
leaf_weight=21 191545 28 9772 28 31 23 50 928 20 94 23 47 40 27 119 23 22 65 89 70 23 365 143 134 3768 25 37 244 9732 97
leaf_count=21 191545 28 9772 28 31 23 50 928 20 94 23 47 40 27 119 23 22 65 89 70 23 365 143 134 3768 25 37 244 9732 97
internal_value=0 3.08901e-05 0.00011921 0.0013166 0.00591047 0.000122599 9.00497e-05 0.000426397 0.000858434 0.00246809 0.00436117 0.000551919 0.00045804 -0.0012841 0.000622687 -7.31819e-05 -0.000347572 -0.00149525 0.000562303 0.00102093 0.00128184 0.00108714 -0.000873497 -4.46885e-05 -0.000206408 -0.000189544 -0.000208409 -0.0012092 2.17814e-05 0.000933747
internal_weight=0 26088 12030 286 59 227 11744 1972 1044 167 73 877 857 74 783 285 199 88 111 498 428 405 166 14058 4095 4074 4049 281 9963 231
internal_count=217633 26088 12030 286 59 227 11744 1972 1044 167 73 877 857 74 783 285 199 88 111 498 428 405 166 14058 4095 4074 4049 281 9963 231
shrinkage=0.05


Tree=183
num_leaves=31
num_cat=0
split_feature=37 18 20 18 3 1 37 37 5 37 9 37 2 39 16 20 29 11 23 17 37 37 40 29 18 37 37 39 16 16
split_gain=0.0115626 0.407885 0.0126346 0.0393458 0.0924634 0.344027 0.27261 0.499207 0.213713 0.0807844 0.351045 0.298177 0.0802771 0.0409518 0.121691 0.303214 0.257713 0.218673 0.239909 0.124636 0.159455 0.319376 0.346998 0.139905 0.118756 0.1951 0.397379 0.105822 0.0820684 0.0745146
threshold=5.6849350000000003 -3.7984549999999992 -10.311099999999998 9.5666150000000023 -8.6206849999999999 4.8656050000000013 -0.25176499999999996 0.43359400000000009 1.4620550000000002e-05 -0.2029299999999998 6.2986800000000012e-05 0.09983149999999999 0.61674550000000006 0.72566000000000008 3.4128000000000006e-08 -16.164099999999994 -2.0917349999999997e-05 0.00034418150000000005 -7.2998349999999992e-05 2.6112300000000004 0.078754999999999922 -0.10141500000000002 0.31988499999999936 -3.5620349999999992e-05 -9.6904849999999971 -0.27889399999999981 0.43359400000000009 0.27381999999999979 1.1921100000000003e-10 0.0011496050000000004
decision_type=2 2 2 2 2 2 2 2 2 2 2 2 2 2 2 2 2 2 2 2 2 2 2 2 2 2 2 2 2 2
left_child=2 -2 3 13 5 9 -7 8 -8 10 -5 -11 -13 14 15 16 -1 18 -17 20 21 -19 27 -21 25 -16 -27 -23 -25 -26
right_child=1 -3 -4 4 -6 6 7 -9 -10 11 -12 12 -14 -15 24 17 -18 19 -20 23 -22 22 -24 28 29 26 -28 -29 -30 -31
leaf_value=0.0067969208801514471 0.0055499242509112643 -3.9046294102260014e-05 -1.0947700521334786e-05 -2.4970888775538029e-05 -0.00012124307822345415 0.00034806964223597399 0.0051668284237426374 0.00055970104925238821 0.012388742341718171 -0.0062132589367683982 0.0072632869466906424 -0.00012467389736810105 0.0031466234137405994 -7.2424237751334355e-06 1.7212625189434524e-05 0.0078256451424385896 0.00015016840470343597 -0.0001978337378015469 0.00096087730626875012 -0.0039179361470035347 -0.00019077094903077307 0.00094713661641706063 0.0071286992042183155 -0.0025357025145863843 0.00019092719250133648 -0.0070726964070490801 -0.00015434748866919465 0.0038105339743196966 1.9750147593769447e-05 -2.7384415272394672e-05
leaf_weight=35 34 819 126218 95 640 56 21 35 20 20 20 301 20 71502 150 20 25 185 35 28 334 121 36 35 6435 35 51 44 307 9956
leaf_count=35 34 819 126218 95 640 56 21 35 20 20 20 301 20 71502 150 20 25 185 35 28 334 121 36 35 6435 35 51 44 307 9956
internal_value=0 0.000183726 -7.22938e-07 1.35275e-05 0.000294624 0.000747268 0.00299515 0.00494563 0.00868971 9.65657e-05 0.00124255 -0.000289911 7.91452e-05 9.66351e-06 7.74522e-05 0.000562643 0.00402744 0.000381082 0.00345716 0.000225867 0.000609144 0.0013013 0.0026811 -0.000519969 4.22892e-05 -0.00107133 -0.00296995 0.00171071 -0.000241773 5.83233e-05
internal_weight=0 853 216780 90562 1228 588 132 76 41 456 115 341 321 89334 17832 1205 60 1145 55 1090 720 386 201 370 16627 236 86 165 342 16391
internal_count=217633 853 216780 90562 1228 588 132 76 41 456 115 341 321 89334 17832 1205 60 1145 55 1090 720 386 201 370 16627 236 86 165 342 16391
shrinkage=0.05


Tree=184
num_leaves=31
num_cat=0
split_feature=16 20 39 39 29 1 23 5 16 23 39 9 26 37 2 25 39 1 19 37 36 39 40 36 36 22 39 20 40 40
split_gain=0.0110796 0.0355211 0.120311 0.310364 0.239508 0.240376 0.212971 0.306576 0.0936424 0.115793 0.285746 0.0870709 0.144956 0.125564 0.184342 0.201394 0.306506 0.0732055 0.104912 0.0424624 0.0476307 0.0347266 0.126235 0.195788 1.17401 0.862486 0.705801 0.487716 0.0887417 0.145843
threshold=1.7836600000000004e-08 -10.311099999999998 0.72566000000000008 0.27381999999999979 -4.4498699999999991e-06 4.1385600000000009 5.3323100000000005e-05 1.0944500000000002e-05 1.1921100000000003e-10 5.4738650000000001e-05 -0.77143500000000065 7.0554250000000006e-05 -0.0093381699999999981 0.17390849999999994 -2.8220449999999997 0.0055462550000000008 -0.19603999999999996 -4.9833999999999987 -2.0083749999999996 0.017850000000000036 0.056773999999999998 -0.12174999999999957 0.87140500000000032 -0.10081500000000009 0.10022550000000004 2.0531150000000005 -0.41630000000000006 -7.3396999999999988 -0.16918499999999967 -0.39412499999999978
decision_type=2 2 2 2 2 2 2 2 2 2 2 2 2 2 2 2 2 2 2 2 2 2 2 2 2 2 2 2 2 2
left_child=1 2 3 8 5 6 7 -5 9 10 -1 13 -13 14 -10 17 -17 18 -16 20 -19 22 23 -3 25 26 -25 -28 29 -23
right_child=-2 21 -4 4 -6 -7 -8 -9 11 -11 -12 12 -14 -15 15 16 -18 19 -20 -21 -22 28 -24 24 -26 -27 27 -29 -30 -31
leaf_value=6.503355916467829e-05 4.4490023452162759e-06 -8.1374347338104212e-05 -1.144157114211843e-05 0.012210728517675308 9.0887233700549824e-05 -0.00012948641436066413 0.0026645334321429115 0.0036573556835223413 0.0055615672325391528 0.00034315996099466275 -0.0070695848814426483 -0.0045056808342570035 7.7773584094801825e-05 -0.00015084925416226615 -0.00016545069773287867 0.0080810527136276032 0.00040915088000474502 0.0012536981531462068 0.0048945491824997703 -0.002194076740415767 -0.0003471852741865287 -3.2479866135145795e-05 -4.4135059154480627e-05 -0.011655236861075868 -0.00012653212360953396 -0.015324455020017922 0.002316428938259681 -0.0061633594861874984 0.00035335026234482257 -0.0008416535972698739
leaf_weight=36 188342 700 11033 20 67 28 41 22 23 65 23 23 69 311 21 23 30 72 20 20 131 10203 3850 22 410 20 39 30 1350 589
leaf_count=36 188342 700 11033 20 67 28 41 22 23 65 23 23 69 311 21 23 30 72 20 20 131 10203 3850 22 410 20 39 30 1350 589
internal_value=0 -2.86072e-05 3.71248e-05 0.000549884 0.00245161 0.00387655 0.00522798 0.00773039 0.000159449 -0.00111253 -0.00271626 0.000371731 -0.00106809 0.000575208 0.00123934 0.000925737 0.00373847 0.000361061 0.00230284 4.0514e-06 0.000220616 -7.473e-05 -0.000184623 -0.000627604 -0.0013615 -0.0059231 -0.00385687 -0.00137044 -2.88341e-05 -7.66425e-05
internal_weight=0 29291 12078 1045 178 111 83 42 867 124 59 743 92 651 340 317 53 264 41 223 203 17213 5071 1221 521 111 91 69 12142 10792
internal_count=217633 29291 12078 1045 178 111 83 42 867 124 59 743 92 651 340 317 53 264 41 223 203 17213 5071 1221 521 111 91 69 12142 10792
shrinkage=0.05


Tree=185
num_leaves=31
num_cat=0
split_feature=37 36 13 19 21 32 13 20 32 7 39 17 36 22 36 11 3 7 29 31 3 16 30 12 39 20 2 18 18 30
split_gain=0.010968 0.361894 0.308451 0.51562 0.189277 0.267404 0.343351 0.197037 0.201183 0.215895 0.189306 0.224633 0.170787 0.206659 0.379707 0.328543 0.362695 0.355509 0.265851 0.256004 0.688491 0.58102 0.320681 0.306577 0.559306 0.384157 0.296642 0.295603 0.304921 0.274426
threshold=-0.016969000000000036 -0.018010000000000078 -1.3727349999999997e-06 3.0016000000000003 -0.17965999999999996 -0.0013312399999999998 -1.1710799999999998e-05 -13.010249999999997 0.00036375000000000009 -4.2830499999999996e-05 1.2296250000000011 -2.1023349999999996 -0.19934349999999995 6.6944750000000006 -0.058960000000000005 0.0090263400000000025 -7.1396099999999985 -1.7830049999999997e-05 -5.7789749999999992e-06 0.018029750000000001 -9.6022399999999983 0.0006688480000000001 1.8663100000000001 2.4676700000000005e-07 1.6830350000000001 -7.4524899999999992 -0.8195889999999999 -3.1868999999999996 4.6258850000000011 1.7130900000000002
decision_type=2 2 2 2 2 2 2 2 2 2 2 2 2 2 2 2 2 2 2 2 2 2 2 2 2 2 2 2 2 2
left_child=-1 12 3 4 5 -3 -7 10 -9 -10 11 -6 -2 19 -15 16 17 -16 -19 29 21 22 -21 24 -22 -25 -23 -28 -29 -14
right_child=1 2 -4 -5 7 6 -8 8 9 -11 -12 -13 13 14 15 -17 -18 18 -20 20 23 26 -24 25 -26 -27 27 28 -30 -31
leaf_value=-1.1532020299284459e-05 8.7530537109861921e-06 -0.00052293655298853994 0.00057286624544408953 -0.00790900099394924 0.0018278167758261268 -0.0011552408845655637 -0.0094387395476753077 0.00038589727763444799 -0.006070188123137794 -0.00092304527587032913 -0.00076081936498061022 0.007800092686666176 -0.00018094929764886689 -0.00034076711326205816 -0.0088253973123972266 0.0018787336927797535 -0.00067686814450037972 -0.0059660286756319019 -0.00037309794999947332 0.0045533944597448668 -0.008638781940982004 -0.0042556158115115506 0.011768019928131253 -0.00071093561851270242 -0.0006957834186478261 0.0068552040382991956 0.0074770408781478191 -0.0012340691217471896 0.0058138972115037704 -0.0030578007100432714
leaf_weight=105877 98843 146 4475 23 74 29 22 246 27 83 48 20 6304 680 42 34 75 43 42 67 29 23 20 62 94 23 20 57 21 84
leaf_count=105877 98843 146 4475 23 74 29 22 246 27 83 48 20 6304 680 42 34 75 43 42 67 29 23 20 62 94 23 20 57 21 84
internal_value=0 1.09254e-05 0.000418512 -0.000543518 -0.000299769 -0.00161169 -0.00472851 0.000219205 -0.000408924 -0.00218643 0.00179395 0.00309851 -8.93701e-06 -0.000235432 -0.000940487 -0.00266849 -0.00343387 -0.00506202 -0.00320246 -0.000140512 0.00106133 0.00309543 0.00621193 -0.000972772 -0.00256852 0.00133637 0.000854641 0.00205399 0.00066346 -0.000218779
internal_weight=0 111756 5193 718 695 197 51 498 356 110 142 94 106563 7720 916 236 202 127 85 6804 416 208 87 208 123 85 121 98 78 6388
internal_count=217633 111756 5193 718 695 197 51 498 356 110 142 94 106563 7720 916 236 202 127 85 6804 416 208 87 208 123 85 121 98 78 6388
shrinkage=0.05


Tree=186
num_leaves=31
num_cat=0
split_feature=16 20 39 39 29 19 37 16 7 10 37 25 7 39 15 2 37 37 37 39 0 37 37 39 40 37 37 10 39 11
split_gain=0.0104183 0.0325123 0.106521 0.280245 0.222487 0.120572 0.0941241 0.0842808 0.109985 0.0811726 0.145484 0.205924 0.170179 0.197078 0.0618117 0.0545249 0.0545453 0.269764 0.0610565 0.0533279 0.0471884 0.0409051 0.0702992 0.0305563 0.113812 0.176145 1.05743 0.856601 0.378843 0.299743
threshold=1.7836600000000004e-08 -10.311099999999998 0.72566000000000008 0.27381999999999979 -3.4237299999999992e-05 -1.7381749999999998 -0.01032849999999985 1.1921100000000003e-10 1.4399950000000003e-05 3.0213650000000005e-05 0.09983149999999999 0.0055462550000000008 -6.226684999999999e-06 -0.15760999999999911 -7.9974899999999992e-07 -2.8691749999999998 0.057875000000000128 0.37828249999999997 -0.10141500000000002 -0.27803499999999998 5.0877650000000001 0.027234499999999971 1.2229295000000002 -0.12174999999999957 0.87140500000000032 0.09983149999999999 -0.10141500000000002 7.7496350000000019e-06 -0.32314999999999999 0.00014492950000000003
decision_type=2 2 2 2 2 2 2 2 2 2 2 2 2 2 2 2 2 2 2 2 2 2 2 2 2 2 2 2 2 2
left_child=1 2 3 7 -5 6 -6 8 21 10 11 12 13 -9 -11 -16 18 -18 -17 -20 -7 -1 -23 24 25 26 -3 -28 -29 -30
right_child=-2 23 -4 4 5 20 -8 9 -10 14 -12 -13 -14 -15 15 16 17 -19 19 -21 -22 22 -24 -25 -26 -27 27 28 29 -31
leaf_value=0.00076610252922777863 4.3142006135931193e-06 -0.00011962891844388385 -1.0552418549531071e-05 0.0061740929294647959 0.0013605805726547261 5.1630200301233125e-05 0.0061533617385153084 0.0073895240518595529 -0.0043579774912186195 -0.0028078123454145045 -0.00027246417371892974 0.0056874906646165379 -1.2484624183343842e-05 0.00073050346090167302 0.002585020863234604 -0.00029677898771893755 -0.0061906996915058708 -5.5430518872272787e-05 0.0036583669616707735 0.00078074056265008487 0.0025723705061636796 -0.0036583095201422112 -1.2249742775776003e-05 -2.8814550330906438e-05 -4.15536339610077e-05 -7.7467267102162757e-05 -0.013767488613724711 -0.0077866951003670694 -0.0048971712999045852 0.0024612978190904668
leaf_weight=44 188342 410 11033 31 20 82 21 20 21 20 134 30 100 25 20 112 20 172 21 69 24 20 39 12142 3850 700 25 30 25 31
leaf_count=44 188342 410 11033 31 20 82 21 20 21 20 134 30 100 25 20 112 20 172 21 69 24 20 39 12142 3850 700 25 30 25 31
internal_value=0 -2.77404e-05 3.51461e-05 0.000517626 0.00232472 0.00151294 0.00381542 0.00014662 -0.0010601 0.000348012 0.000967376 0.00191674 0.00113658 0.00369007 -9.29639e-05 3.81882e-05 -9.10926e-05 -0.000694521 0.000482463 0.00145219 0.000622364 -0.000387723 -0.0012482 -7.18666e-05 -0.00017495 -0.000595571 -0.00129168 -0.00562087 -0.00325267 -0.000823733
internal_weight=0 29291 12078 1045 178 147 41 867 124 743 309 175 145 45 434 414 394 192 202 90 106 103 59 17213 5071 1221 521 111 86 56
internal_count=217633 29291 12078 1045 178 147 41 867 124 743 309 175 145 45 434 414 394 192 202 90 106 103 59 17213 5071 1221 521 111 86 56
shrinkage=0.05


Tree=187
num_leaves=31
num_cat=0
split_feature=17 0 35 15 13 17 8 2 2 39 17 22 22 36 36 36 21 10 28 2 0 29 3 15 26 6 9 13 36 36
split_gain=0.011006 0.0730649 0.128885 0.461578 0.116888 0.113764 0.0870034 0.0343862 0.0405124 0.0396163 0.0320674 0.0427057 0.0311417 0.0477998 0.134231 0.130091 0.0474665 0.0429868 0.468962 0.0368515 0.0364968 0.109144 0.073038 0.17419 0.0443492 0.143196 0.223563 0.029273 0.0289199 0.0251489
threshold=-14.223749999999997 -8.8447699999999987 0.00039785800000000007 -1.5425949999999997e-07 1.2179350000000004e-06 -19.608449999999998 3.0256700000000005e-05 -2.7519549999999997 -2.6524249999999996 -2.0405449999999985 -16.050999999999998 19.280350000000002 87.628850000000014 -0.3562499999999999 0.02582950000000005 -0.74380499999999983 1.0406250000000001 -4.4225099999999991e-05 -4.3985699999999994 2.9157100000000002 -5.3044499999999992 -0.00090391799999999997 -8.0858449999999973 -2.1824149999999994e-06 -0.18041899999999997 3.1916100000000005e-08 9.7538050000000017e-06 -9.5111699999999976e-06 0.327845 0.38220950000000015
decision_type=2 2 2 2 2 2 2 2 2 2 2 2 2 2 2 2 2 2 2 2 2 2 2 2 2 2 2 2 2 2
left_child=1 2 3 -1 6 -6 -4 9 -9 -3 11 -8 17 15 -15 -14 28 18 -10 20 21 -19 27 -24 25 26 -22 -23 -16 -29
right_child=-2 7 4 -5 5 -7 10 8 12 -11 -12 -13 13 14 16 -17 -18 19 -20 -21 24 22 23 -25 -26 -27 -28 29 -30 -31
leaf_value=0.0088615682100810639 -1.2366314180250664e-06 -3.6169357128262454e-05 0.0027124822324064253 -0.00041946267368542537 0.0054772505268920217 0.00037127463316816525 0.0013360369104607106 0.0021252770027469681 0.0078048653019193032 -0.0023836469390516868 -0.0015847529950183436 -0.00060822778161144183 -0.00023835046738454846 -0.0040835479855169457 -0.0024819737349753273 0.0039457991253584622 0.0015572928526024852 0.0041223140579642768 -0.00043622001181368606 -0.0015397312175587608 -0.00067219079658389089 0.00072839710088114121 0.0052441536509875396 0.00012075047169316891 -9.3656326557281662e-05 -0.00080024569808237922 0.0057798629699391318 -0.002442040150393344 -0.00047066897573347973 -0.00029480199527461085
leaf_weight=21 215032 41 24 37 20 24 38 23 21 32 49 110 161 28 20 21 27 21 97 36 25 21 21 79 1295 57 29 30 168 25
leaf_count=21 215032 41 24 37 20 24 38 23 21 32 49 110 161 28 20 21 27 21 97 36 25 21 21 79 1295 57 29 30 168 25
internal_value=0 0.000102236 0.000806004 0.00294091 0.000338742 0.00269217 -0.000129814 2.44767e-06 3.77938e-05 -0.0010652 -0.000476084 -0.000109025 1.57901e-05 -0.000368275 -0.000827178 0.000244436 -0.000403093 0.000108692 0.00103041 4.2332e-05 7.78618e-05 0.000715229 0.000308702 0.00119667 -1.14422e-05 0.000947723 0.0027928 -0.00085967 -0.000684638 -0.00146602
internal_weight=0 2601 323 58 265 44 221 2278 2205 73 197 148 2182 425 243 182 215 1757 118 1639 1603 197 176 100 1406 111 54 76 188 55
internal_count=217633 2601 323 58 265 44 221 2278 2205 73 197 148 2182 425 243 182 215 1757 118 1639 1603 197 176 100 1406 111 54 76 188 55
shrinkage=0.05


Tree=188
num_leaves=31
num_cat=0
split_feature=17 39 3 0 10 5 40 0 20 27 33 4 5 30 36 36 17 9 0 37 36 36 31 0 20 3 21 30 3 36
split_gain=0.010581 0.0635175 0.160464 0.60464 0.664492 0.120598 0.10684 0.156811 0.20131 0.215787 0.201459 0.107935 0.080514 0.0800636 0.113255 0.172948 0.0760403 0.162201 0.1317 0.0705579 0.0698062 0.241598 0.0634435 0.0569547 0.105952 0.238899 0.089898 0.0672805 0.0914627 0.0796031
threshold=-8.0887399999999996 -0.026199999999999776 -12.203099999999997 -4.5705949999999991 2.1772650000000002e-05 9.607735000000002e-06 -0.47859499999999983 -4.8003249999999991 -8.4588199999999976 0.0010772700000000002 1.0676000000000001e-07 -0.40498649999999997 1.2959500000000002e-05 0.012607850000000002 -0.040859549999999939 -0.25142799999999998 -11.277699999999998 -0.00010305049999999998 -2.8094699999999997 -0.039869999999999954 0.12375499999999996 0.02582950000000005 0.0013843400000000002 -5.8367999999999993 -8.9454249999999984 -9.7440149999999992 -1.1409399999999998 0.16380350000000002 -6.4965349999999988 -0.27744100000000016
decision_type=2 2 2 2 2 2 2 2 2 2 2 2 2 2 2 2 2 2 2 2 2 2 2 2 2 2 2 2 2 2
left_child=1 23 3 4 -3 -5 -4 8 9 -8 -11 12 -10 14 15 -13 17 -7 -18 -16 21 22 -15 24 25 -1 -26 -28 29 -29
right_child=-2 2 6 5 -6 16 7 -9 11 10 -12 13 -14 20 19 -17 18 -19 -20 -21 -22 -23 -24 -25 26 -27 27 28 -30 -31
leaf_value=-0.00068049162933069365 -4.1451472121073513e-06 0.011184620131449455 1.7828640986936302e-05 0.0030644225047823663 0.00065504719565186902 -0.0050437288151284603 0.001243900285723814 -5.3416601666622006e-05 -0.0039427065006839256 0.0080072091958114742 0.0019540204730479414 -0.00014713738398443508 -0.00033973176874444139 0.0019886769001605637 -0.00050272499857543921 -0.0052202315427989348 0.0039968995652584867 -0.00015813667463729733 -0.00031868972067156977 0.0010602262677111202 -1.7535726219150144e-05 0.0063972628093324603 0.00021662780190640857 1.3573593329453305e-06 0.0029924156424385728 -0.0064107301221652466 -0.00011543570596941752 -0.00017672330140797361 0.0019835603545895236 -0.0020103091836584487
leaf_weight=105 190678 29 10150 30 31 23 144 957 20 27 28 84 69 112 95 21 22 65 90 301 73 25 92 12148 22 22 1902 101 24 143
leaf_count=105 190678 29 10150 30 31 23 144 957 20 27 28 84 69 112 95 21 22 65 90 301 73 25 92 12148 22 22 1902 101 24 143
internal_value=0 2.93225e-05 0.000111934 0.00127434 0.00574434 0.000108251 8.42984e-05 0.000413726 0.000823493 0.00226145 0.00492559 0.000502693 -0.00114939 0.000685801 0.000298173 -0.00116176 -0.000335175 -0.00143505 0.000529015 0.000685276 0.00132885 0.00175805 0.00118952 -4.19881e-05 -0.000269052 -0.00167313 -0.000187702 -0.000219943 -0.000961634 -0.00125132
internal_weight=0 26955 12488 290 60 230 12198 2048 1091 199 55 892 89 803 501 105 200 88 112 396 302 229 204 14467 2319 127 2192 2170 268 244
internal_count=217633 26955 12488 290 60 230 12198 2048 1091 199 55 892 89 803 501 105 200 88 112 396 302 229 204 14467 2319 127 2192 2170 268 244
shrinkage=0.05


Tree=189
num_leaves=31
num_cat=0
split_feature=37 19 1 32 3 32 25 22 36 1 27 37 37 16 16 39 1 17 16 17 39 13 32 13 36 13 39 39 32 17
split_gain=0.0105379 0.0677144 0.201356 0.0664145 0.0274283 0.0290501 0.0175553 0.0110939 0.0514717 0.252443 0.100595 0.0459158 0.466648 0.398104 0.722707 0.530393 1.02962 0.53681 0.386639 0.368552 0.600166 0.321757 0.77649 0.550131 0.493991 0.472294 0.895666 0.325572 0.324931 0.401305
threshold=5.6849350000000003 3.0909850000000003 -0.89553799999999983 0.00020658150000000004 -17.069699999999997 -0.084377249999999987 0.0013842950000000002 2.3108700000000004 5.6762150000000009 0.63221400000000016 0.064526950000000013 0.22260499999999997 -0.10141500000000002 8.8529750000000019e-08 5.8709150000000007e-05 0.72566000000000008 -6.7241199999999983 11.827150000000001 3.3439600000000001e-09 -11.463149999999997 0.60048999999999852 8.2193200000000006e-07 0.046686200000000004 -4.5599799999999995e-07 -0.058960000000000005 -5.8728149999999988e-07 2.5222350000000002 1.5525100000000001 -0.0022923399999999999 -2.3663549999999995
decision_type=2 2 2 2 2 2 2 2 2 2 2 2 2 2 2 2 2 2 2 2 2 2 2 2 2 2 2 2 2 2
left_child=7 4 3 6 -2 -6 -3 -1 11 -10 -11 12 -9 15 19 16 -14 18 -18 20 -15 22 23 -21 27 26 -24 -23 29 -25
right_child=1 2 -4 -5 5 -7 -8 8 9 10 -12 -13 13 14 -16 -17 17 -19 -20 21 -22 24 25 28 -26 -27 -28 -29 -30 -31
leaf_value=5.1063916630310021e-06 0.0017503002209455839 1.1899706997179526e-05 0.0048045057407580319 0.0027011477631690055 -0.0019151272160732851 -2.6197716772114616e-05 -0.0016213173657888547 1.5981882371326855e-05 0.0049261945341112882 -0.00055925439499446836 0.0031744199030245435 2.9817996146046255e-05 -0.012063565072303667 -0.0011123519311659039 -0.00094135138510218277 -0.00068291114441849411 0.0035840521326683688 -0.0097018851412160861 -0.0027067202739070786 0.0019130252756386331 0.0093000031046329007 0.0062898878227171835 -0.012270153916324489 -0.0091802025688812149 0.00038341585077349626 -0.00077278618212609038 0.00034556724179613717 0.00020996450161140775 0.00042941956633947722 -0.0015400717394235968
leaf_weight=171690 21 76 30 22 21 662 21 21255 31 128 21 20182 33 25 1984 316 33 21 94 318 31 76 34 25 219 62 24 31 92 55
leaf_count=171690 21 76 30 22 21 662 21 21255 31 128 21 20182 33 25 1984 316 33 21 94 318 31 76 34 25 219 62 24 31 92 55
internal_value=0 0.000175396 0.00114374 0.000220857 -2.95515e-05 -8.42761e-05 -0.000341683 -6.9016e-07 -2.27618e-05 0.000821057 -3.30318e-05 -2.61438e-05 -7.18176e-05 -0.000609157 -0.000390392 -0.0019191 -0.00407732 -0.00229661 -0.00107211 0.000711527 0.00465163 0.000475795 -0.000201909 0.000680897 0.00174389 -0.0038067 -0.00704986 0.00452841 -0.00159711 -0.00392761
internal_weight=0 853 149 119 704 683 97 216780 45090 180 149 44910 24728 3473 2976 497 181 148 127 992 56 936 610 490 326 120 58 107 172 80
internal_count=217633 853 149 119 704 683 97 216780 45090 180 149 44910 24728 3473 2976 497 181 148 127 992 56 936 610 490 326 120 58 107 172 80
shrinkage=0.05


Tree=190
num_leaves=31
num_cat=0
split_feature=18 39 1 37 19 7 3 21 14 36 20 36 36 1 28 36 36 0 6 0 4 29 16 23 36 36 39 0 30 8
split_gain=0.0105915 0.110283 0.234415 0.269101 1.11617 0.344552 0.51869 0.112111 0.249022 0.0921414 0.0917312 0.0790522 0.175244 0.0771426 0.0887604 0.0849891 0.253187 0.0753036 0.170779 0.0894084 0.0534541 0.357724 0.555845 0.0317487 0.0282102 0.172001 0.176275 0.101368 0.0444244 0.0248179
threshold=-13.388899999999998 0.027469999999999221 -3.1361349999999999 0.46135450000000006 -0.75575599999999987 4.1938750000000006e-06 -8.1170399999999976 0.11369050000000001 -6.530729999999998e-08 -2.5580025499999994 -6.1887249999999989 0.354709 -0.10081500000000009 -6.5414749999999993 0.31163200000000008 -0.51801999999999981 0.14973499999999998 3.2402550000000008 1.2633750000000002e-06 4.2310700000000008 1.1247450000000001 -0.00058211249999999993 0.012037000000000001 -0.00011522749999999999 0.57364500000000007 -0.19934349999999995 -1.9691099999999999 6.3184950000000013 0.98241950000000011 2.7870500000000004e-05
decision_type=2 2 2 2 2 2 2 2 2 2 2 2 2 2 2 2 2 2 2 2 2 2 2 2 2 2 2 2 2 2
left_child=1 13 3 4 5 6 -3 8 -8 -4 17 12 -11 14 -1 -16 -17 18 -7 -19 24 22 -22 -10 25 27 28 -15 -27 -21
right_child=-2 2 9 -5 -6 10 7 -9 23 11 -12 -13 -14 20 15 16 -18 19 -20 29 21 -23 -24 -25 -26 26 -28 -29 -30 -31
leaf_value=-0.00021839849385996252 -1.4097810832044514e-06 0.0093511424352915058 0.0031911416303046281 -9.8711843138931743e-05 0.012090284530946521 -0.0055126837466377768 0.004543887926930828 0.0048437232733097822 -0.0017612245186597875 -0.00045461032958811818 0.0032411194462925088 -4.2643919892617088e-05 -0.0050530456163659651 -0.00019296638435587342 -0.00014689178801075126 -0.0065633708743068082 -0.00057846657906592621 0.0026003378750294147 0.000249873581116036 -0.0013866943609981619 0.010591767212220778 -8.132766246385881e-05 -0.00078084174793647523 0.00032927221105810966 -2.3674422446511885e-05 -0.0003620437912248899 -0.0056990248549953814 0.0029628297751644692 -0.0027556481633577538 0.00012746590763768886
leaf_weight=170 214135 27 20 307 25 20 35 24 32 102 21 738 26 279 39 30 43 34 36 36 21 323 22 42 791 63 27 28 28 109
leaf_count=170 214135 27 20 307 25 20 35 24 32 102 21 738 26 279 39 30 43 34 36 36 21 323 22 42 791 63 27 28 28 109
internal_value=0 8.63017e-05 0.000386157 0.00103794 0.00182921 0.00121256 0.00303273 0.00175004 0.00106887 -0.000164106 7.49592e-05 -0.000241594 -0.00138867 -0.000176554 -0.00093841 -0.00203129 -0.00303802 -0.000207974 -0.00180818 0.00029265 -4.07495e-05 0.000489016 0.00477322 -0.000574726 -0.000200202 -0.000528751 -0.00215119 9.48587e-05 -0.00109854 -0.000248464
internal_weight=0 3498 1634 748 441 416 160 133 109 886 256 866 128 1864 282 112 73 235 56 179 1582 366 43 74 1216 425 118 307 91 145
internal_count=217633 3498 1634 748 441 416 160 133 109 886 256 866 128 1864 282 112 73 235 56 179 1582 366 43 74 1216 425 118 307 91 145
shrinkage=0.05


Tree=191
num_leaves=31
num_cat=0
split_feature=3 39 34 33 35 30 39 35 30 39 40 39 23 18 39 36 19 16 12 11 1 14 4 12 36 8 39 1 9 23
split_gain=0.00996843 0.0899382 0.0856599 0.17725 0.0334232 0.128395 0.034023 0.0224586 0.0813259 0.0531986 0.0142871 0.0463955 0.0142319 0.012246 0.0599443 0.0947254 0.382407 0.24485 0.439265 0.311199 0.236651 0.329467 0.151653 0.146967 0.063225 0.0854822 0.0398805 0.0350602 0.0299954 0.0597603
threshold=-18.627349999999996 1.46871 0.30670150000000002 3.3001550000000009e-05 0.0060015500000000005 1.4642750000000004 -2.8634500000000003 0.00082751800000000007 0.66511650000000011 -4.7135349999999994 1.381785 -0.41630000000000006 0.011675600000000003 14.999250000000002 -1.7757399999999997 -0.68744999999999989 2.4316000000000004 8.2724850000000008e-05 -7.7047499999999992e-07 0.0006072295000000001 9.4357350000000029 1.2108000000000002e-07 0.12998700000000005 4.6826750000000007e-05 0.38220950000000015 2.9535100000000005e-05 0.93421999999999994 3.8749050000000005 5.466815000000001e-06 0.069955350000000013
decision_type=2 2 2 2 2 2 2 2 2 2 2 2 2 2 2 2 2 2 2 2 2 2 2 2 2 2 2 2 2 2
left_child=1 2 4 -4 5 7 12 8 10 -9 11 -1 -6 -2 27 -16 17 18 -17 20 22 26 -20 24 25 -19 -22 28 -15 -30
right_child=13 -3 3 -5 6 -7 -8 9 -10 -11 -12 -13 -14 14 15 16 -18 23 19 -21 21 -23 -24 -25 -26 -27 -28 -29 29 -31
leaf_value=0.0021781159778671987 -1.9828335080675618e-06 0.0028805389889949486 0.0053995012221011249 -0.0011042183692916297 -1.1308291906406621e-05 0.0037804189958083241 -0.0027194816639530476 -0.00013777055198147537 0.002692515633454354 -0.0028636961067439355 -2.1968877077714056e-05 -0.00030341655050657819 -0.0015580556643544697 -0.00047505682214663968 -0.00012266991917317074 0.0088173909648321582 0.0068622454036958522 -0.0046923485827510773 -0.00049439126382316725 0.0059663684086574782 0.0016584889863657908 0.0057020024431444147 -0.0055912189776427118 0.0026628888854192513 -0.00042900822247850592 -0.00083030662614251734 -0.00093799124409270004 -0.00095519620078731945 4.9632426060180688e-05 0.0026319592752350636
leaf_weight=31 214315 29 22 20 58 23 20 96 29 22 1314 48 20 198 522 20 25 23 54 28 21 36 20 33 184 38 50 146 162 26
leaf_count=31 214315 29 22 20 58 23 20 96 29 22 1314 48 20 198 522 20 25 23 54 28 21 36 20 33 184 38 50 146 162 26
internal_value=0 0.000119474 7.24567e-05 0.00230249 1.60681e-05 7.22302e-05 -0.000879659 1.68482e-05 7.18519e-05 -0.000645994 1.7294e-05 0.000670349 -0.00040791 -9.58446e-07 0.000137466 0.000355854 0.000825383 0.000527707 0.00173836 0.00106095 0.000302096 0.00180561 -0.00187191 -0.000469561 -0.000891482 -0.00228649 -0.000170018 -0.000295204 -4.55696e-05 0.000406763
internal_weight=0 1732 1703 42 1661 1563 98 1540 1422 118 1393 79 78 215901 1586 1054 532 507 229 209 181 107 74 278 245 61 71 532 386 188
internal_count=217633 1732 1703 42 1661 1563 98 1540 1422 118 1393 79 78 215901 1586 1054 532 507 229 209 181 107 74 278 245 61 71 532 386 188
shrinkage=0.05


Tree=192
num_leaves=31
num_cat=0
split_feature=1 18 9 14 25 34 36 31 12 25 36 26 6 12 18 20 23 39 39 8 3 30 25 36 36 39 4 39 39 36
split_gain=0.0101474 0.049656 0.16017 0.181256 0.26713 0.218574 0.174007 0.119674 0.177296 0.260534 0.105261 0.146344 0.107028 0.0977112 0.0918697 0.0927286 0.132008 0.0755452 0.153385 0.216755 0.119935 0.0823593 0.0718419 0.0720603 0.272703 0.240608 0.219477 0.079679 0.0606127 0.0837018
threshold=7.6571900000000008 13.390900000000002 2.3076350000000001e-05 -4.5397049999999996e-08 0.10445350000000002 -0.010271549999999999 -0.027530000000000051 -0.0010673699999999998 7.9739600000000016e-08 0.15361650000000002 0.039429999999999972 -0.0016011999999999999 1.6009700000000002e-06 1.8501250000000005e-08 11.074800000000002 -6.007039999999999 7.7908300000000021e-05 -0.026199999999999776 -0.56159999999999977 1.6453300000000004e-05 -7.9686699999999986 0.029684750000000006 0.13760400000000003 -0.22452634999999985 0.02582950000000005 2.7388300000000005 0.49902250000000004 1.06199 0.13650500000000013 -0.027530000000000051
decision_type=2 2 2 2 2 2 2 2 2 2 2 2 2 2 2 2 2 2 2 2 2 2 2 2 2 2 2 2 2 2
left_child=-1 14 3 4 -3 -6 -4 13 10 -10 11 -9 -13 -5 22 17 -17 18 -16 -20 -19 -21 -2 -24 25 26 27 -25 29 -22
right_child=1 2 6 7 5 -7 -8 8 9 -11 -12 12 -14 -15 15 16 -18 20 19 21 28 -23 23 24 -26 -27 -28 -29 -30 -31
leaf_value=4.7685523267264549e-06 -1.9596006955098909e-06 -0.00016242945393490742 -9.0585518079933542e-05 -9.3053371373181507e-05 0.0022670839378866217 0.0094140926058753401 -0.0052699688050779521 0.0054386097913084091 0.00028492196461328328 0.0080878489522729063 -0.00049310971841123321 -0.00011753053295015216 0.0039094287015142897 -0.0029821619996722361 -0.00021300315159820629 0.00012217971208883683 -0.0055537520975035264 0.0035520149938582275 -0.0059208138594723063 -0.00063555800121743819 -0.0023670102083997338 -0.0041533266419355643 4.9913391910775427e-05 -0.0078561427348176945 -0.00017513955026753376 -0.00081245702601790988 -0.00013210684759542348 -0.0039472611470211466 -0.00040902594280803101 0.0010834764039388794
leaf_weight=182108 32327 38 50 140 23 20 24 20 23 20 138 77 21 37 278 20 21 22 31 99 20 20 543 32 555 96 20 22 643 145
leaf_count=182108 32327 38 50 140 23 20 24 20 23 20 138 77 21 37 278 20 21 22 31 99 20 20 543 32 555 96 20 22 643 145
internal_value=0 -2.44445e-05 0.000415147 0.000705505 0.00289201 0.00559127 -0.00177039 0.000333433 0.000943416 0.00391419 0.000444419 0.00154085 0.000745389 -0.000696991 -3.23938e-05 -0.000444979 -0.002785 -0.000368714 -0.000908287 -0.00219688 -9.04765e-05 -0.00122678 -1.64406e-05 -0.000385626 -0.00071183 -0.00246397 -0.00460647 -0.00626364 -0.000189653 0.000665236
internal_weight=0 35525 631 557 81 43 74 476 299 43 256 118 98 177 34894 1299 41 1258 428 150 830 119 33595 1268 725 170 74 54 808 165
internal_count=217633 35525 631 557 81 43 74 476 299 43 256 118 98 177 34894 1299 41 1258 428 150 830 119 33595 1268 725 170 74 54 808 165
shrinkage=0.05


Tree=193
num_leaves=31
num_cat=0
split_feature=37 36 4 21 15 23 9 17 21 10 15 5 37 21 15 40 11 9 17 20 18 16 33 37 18 10 17 6 20 31
split_gain=0.0100656 0.319707 0.323325 0.484092 0.46777 0.45289 0.320321 0.256495 0.28474 0.267903 0.218028 0.179912 0.163608 0.1662 0.267101 0.452594 0.233191 0.196874 0.315516 0.259885 0.245647 0.743085 0.236382 0.19354 0.310093 0.585614 0.36363 0.338986 0.495303 0.662065
threshold=-0.016969000000000036 -0.018010000000000078 -0.26743249999999991 0.30416600000000005 -0.0012949349999999999 0.00033276500000000006 1.1475700000000001e-05 -7.3314749999999984 -0.66179549999999987 2.6751950000000004e-05 -6.0366299999999997e-07 1.5270200000000005e-05 -0.27889399999999981 -1.1409399999999998 -0.0010045799999999999 -2.7037449999999992 0.0030998800000000006 -2.0367299999999997e-05 3.8241100000000006 -7.7770649999999995 -6.705449999999999 4.2063200000000008e-08 -9.6009049999999977e-07 -0.078199999999999964 11.074800000000002 -1.0115749999999997e-05 -11.463149999999997 -1.6857599999999998e-06 -6.4694749999999983 -0.00017715349999999997
decision_type=2 2 2 2 2 2 2 2 2 2 2 2 2 2 2 2 2 2 2 2 2 2 2 2 2 2 2 2 2 2
left_child=12 -2 3 7 -5 -4 11 -3 9 -9 -8 -7 -1 14 -14 -16 -17 18 20 -20 21 -15 -23 -19 26 -26 -25 28 -28 -30
right_child=1 2 5 4 -6 6 10 8 -10 -11 -12 -13 13 17 15 16 -18 23 19 -21 -22 22 -24 24 25 -27 27 -29 29 -31
leaf_value=9.422196505158283e-06 -8.2025091929379993e-06 -0.0034152388473049251 0.00062537086906159058 -0.00036477424354026364 -0.010686177393148208 0.0012811553564492427 -0.0019281331631962374 0.00010457888962595133 -0.00030464932390567885 0.00799994146623032 -0.0086111650596229512 -0.0029060453597871266 0.0026586124469758945 0.009680507578188554 -0.0004254335893157619 -0.0081405221536682039 -0.0022435678999560573 -0.0001297413905470127 0.008043345582226049 0.00025014201295562092 -5.3628677982933618e-05 0.0050902145245345313 0.00026873545987562969 0.0057142871067575787 -0.0099017025811481297 -0.0014582380529305817 -0.0010967039980275433 -0.00018867896112981811 -0.013258679759455844 -0.0022871058860222215
leaf_weight=95517 106563 59 4459 21 23 58 23 22 435 21 26 46 32 25 119 38 30 4726 23 20 2673 28 276 23 25 115 623 1520 20 44
leaf_count=95517 106563 59 4459 21 23 58 23 22 435 21 26 46 32 25 119 38 30 4726 23 20 2673 28 276 23 25 115 623 1520 20 44
internal_value=0 1.04663e-05 0.00039356 -0.000718011 -0.00576005 0.000533591 -0.00214123 -0.000304883 7.90315e-05 0.00396045 -0.00547423 -0.000570876 -1.10475e-05 -0.000199773 -0.00156255 -0.00228488 -0.00553892 -0.000170344 0.000165964 0.0044186 0.00010505 0.00139425 0.000712819 -0.000314658 -0.000683399 -0.002966 -0.000540097 -0.000605276 -0.00152701 -0.00571572
internal_weight=0 111756 5193 581 44 4612 153 537 478 43 49 104 105877 10360 219 187 68 10141 3045 43 3002 329 304 7096 2370 140 2230 2207 687 64
internal_count=217633 111756 5193 581 44 4612 153 537 478 43 49 104 105877 10360 219 187 68 10141 3045 43 3002 329 304 7096 2370 140 2230 2207 687 64
shrinkage=0.05


Tree=194
num_leaves=31
num_cat=0
split_feature=15 34 4 37 37 17 4 40 27 40 38 4 0 40 33 17 29 18 26 13 30 14 5 18 11 20 40 16 14 40
split_gain=0.00993707 0.214722 0.198636 0.284879 1.23206 0.723707 0.576483 0.526443 0.475142 0.515998 0.689948 0.49563 0.546459 0.477056 0.70861 0.610315 0.607122 0.47033 0.401549 0.363616 0.326608 0.314422 0.314047 0.270503 0.858641 0.269051 0.294388 0.460871 0.260699 0.257424
threshold=-1.6062999999999998e-06 9.5270700000000009e-05 -1.4133199999999999 -0.33012499999999995 0.14791590000000002 16.002400000000005 0.019144700000000004 -2.0474100000000002 0.00068913250000000013 4.0845250000000011 -0.058960000000000005 -0.40498649999999997 -7.750214999999999 0.98037999999999992 6.3099400000000006e-06 5.8578400000000004 3.7829800000000008e-05 -12.635299999999999 0.028609250000000006 -2.4990899999999996e-06 0.31837600000000005 -1.1373949999999998e-07 1.2293000000000001e-05 6.4146550000000007 0.0012772050000000002 -15.921249999999999 0.92650999999999961 0.0035512250000000003 2.3116650000000003e-06 0.98037999999999992
decision_type=2 2 2 2 2 2 2 2 2 2 2 2 2 2 2 2 2 2 2 2 2 2 2 2 2 2 2 2 2 2
left_child=1 -1 -3 -4 5 6 7 23 11 10 20 12 -9 17 15 16 19 18 -12 -15 28 -21 -22 -5 -25 -8 27 -27 -10 -13
right_child=-2 2 3 4 -6 -7 25 8 9 -11 13 29 -14 14 -16 -17 -18 -19 -20 21 22 -23 -24 24 -26 26 -28 -29 -30 -31
leaf_value=-5.7796416099376567e-05 -8.2212275293421483e-06 -3.28947706449404e-05 -6.7901365536101834e-06 -0.00052795698046005288 2.4622764929419677e-05 0.009291041782125831 0.0020616353703411046 -0.0091229953054737835 0.010428913521305235 -0.0016151663821975014 0.0018778107821708545 0.0014947691492242128 -0.00056235915096009871 5.3244116828533481e-05 -0.0028773788201551026 -0.0017851071665063501 0.014200097722587762 0.001348471048716971 0.011897159235086293 0.011638454205708863 1.9000312533682664e-05 0.0040026011826349919 0.0060454226640733674 -0.0012107345644903945 0.011477656709030271 -0.0019531797323572011 -0.00068428162158415472 -0.010920627748608873 0.0039505918141609676 -0.00061790874986892663
leaf_weight=45606 136695 14841 8837 517 8035 27 37 21 44 84 20 1143 166 22 26 20 27 915 20 26 37 28 52 40 20 38 77 23 24 165
leaf_count=45606 136695 14841 8837 517 8035 27 37 21 44 84 20 1143 166 22 26 20 27 915 20 26 37 28 52 40 20 38 77 23 24 165
internal_value=0 1.38847e-05 0.00010641 0.000207303 0.000369646 0.00113568 0.00107438 0.00121772 0.00149746 0.0021793 0.00243207 0.000884035 -0.00152371 0.00199102 0.00462237 0.00620768 0.00775968 0.00158047 0.00688749 0.00547163 0.00553345 0.00767912 0.00354006 -0.000159151 0.00301873 -0.0017246 -0.00273975 -0.00533435 0.00814245 0.00122826
internal_weight=0 80938 35332 20491 11654 3619 3592 3417 2840 1345 1261 1495 187 1104 149 123 103 955 40 76 157 54 89 577 60 175 138 61 68 1308
internal_count=217633 80938 35332 20491 11654 3619 3592 3417 2840 1345 1261 1495 187 1104 149 123 103 955 40 76 157 54 89 577 60 175 138 61 68 1308
shrinkage=0.05


Tree=195
num_leaves=31
num_cat=0
split_feature=21 4 4 36 36 40 40 18 36 40 5 4 36 9 22 17 20 33 3 9 13 13 40 26 11 36 37 34 40 3
split_gain=0.0104743 0.327643 0.438905 0.367801 0.99095 0.47345 0.536547 0.707198 0.685216 0.38261 0.444477 0.365097 0.368401 0.356031 0.570129 0.348632 0.330494 0.306367 0.301693 0.507485 0.367278 0.356259 0.254644 0.251921 0.234286 0.293482 0.343705 0.629971 0.434108 0.290028
threshold=-0.35379549999999998 -0.20278049999999997 -1.5265699999999998 0.80350500000000014 -0.3562499999999999 -3.4537049999999998 4.0845250000000011 14.003250000000001 -0.079468000000000025 -0.47859499999999983 1.8127350000000005e-05 -0.38361349999999994 -0.12496499999999998 -7.2289149999999995e-05 13.887650000000002 -2.4468249999999996 -13.887899999999998 0.00046534500000000004 -15.993649999999997 0.00013888100000000001 1.7917850000000003e-05 -6.2705699999999993e-06 -0.47859499999999983 -0.049149049999999993 0.0039264450000000015 0.22528099999999995 -0.057539999999999918 0.08967940000000002 -0.77194499999999999 -8.2474849999999993
decision_type=2 2 2 2 2 2 2 2 2 2 2 2 2 2 2 2 2 2 2 2 2 2 2 2 2 2 2 2 2 2
left_child=1 2 -1 4 17 -6 7 8 9 10 -7 12 23 14 15 16 -10 -4 -15 20 21 22 -20 -11 25 26 27 29 -28 -23
right_child=-2 -3 3 -5 5 6 -8 -9 13 11 -12 -13 -14 18 -16 -17 -18 -19 19 -21 -22 24 -24 -25 -26 -27 28 -29 -30 -31
leaf_value=-0.00011544687533851209 4.2744256622577913e-06 -0.00013939355242634799 -3.8003384896589334e-05 -9.3517556050916133e-05 -4.253712765031167e-05 -0.0008986740628307943 -0.0013799818422457661 0.011018791509792208 0.0048205121904781358 0.0086133405915461477 0.0083101032348349684 0.0021485676616430287 0.0049507525208736629 -0.0019024364960372267 0.011474371005011641 0.0086482555477414274 -0.001639287740578187 0.0050641991679246231 -0.0057558444422902543 0.0087617334427777683 -0.0047055082755516359 0.0097512416976193589 0.0008512159181658977 0.016211494617164136 0.0068927014442160721 -0.00075612103230793899 0.0062402209093750912 -0.0020044792667031287 0.00079499278387030667 0.0037301559117622674
leaf_weight=4483 188942 20015 1526 1323 248 38 87 25 36 24 20 25 31 61 23 20 44 30 25 25 23 45 35 20 25 84 43 25 246 36
leaf_count=4483 188942 20015 1526 1323 248 38 87 25 36 24 20 25 31 61 23 20 44 30 25 25 23 45 35 20 25 84 43 25 246 36
internal_value=0 -2.81488e-05 0.000228486 0.000596206 0.000914152 0.00192518 0.00238296 0.00271735 0.00249981 0.00550753 0.00227677 0.00738138 0.00912565 0.0019028 0.0043763 0.00274375 0.00126762 6.03681e-05 0.00145074 0.00178496 0.00148782 0.00174038 -0.00190173 0.012067 0.00217397 0.00192769 0.00249842 0.00493377 0.00160518 0.0070752
internal_weight=0 28691 8676 4193 2870 1314 1066 979 954 158 58 100 75 796 123 100 80 1556 673 612 587 564 60 44 504 479 395 106 289 81
internal_count=217633 28691 8676 4193 2870 1314 1066 979 954 158 58 100 75 796 123 100 80 1556 673 612 587 564 60 44 504 479 395 106 289 81
shrinkage=0.05


Tree=196
num_leaves=31
num_cat=0
split_feature=37 36 36 4 23 9 34 17 5 3 39 16 21 31 23 16 21 27 3 11 23 37 8 39 5 36 8 21 17 37
split_gain=0.0104724 0.131472 0.285293 0.208874 0.39356 0.347027 0.298401 0.226147 0.205016 0.278888 0.724276 0.635896 0.252155 0.222091 0.325375 0.18855 0.187863 0.181368 0.176156 0.171105 0.166683 0.144706 0.199617 0.215006 0.163995 0.148287 0.140794 0.178231 0.336229 0.137853
threshold=0.32610899999999998 -0.018010000000000078 0.010257000000000018 -0.27873999999999993 0.00033276500000000006 1.1475700000000001e-05 -0.010271549999999999 -10.065 9.0806150000000018e-06 -14.267049999999999 -2.1822199999999996 8.793135000000002e-05 -0.74181699999999984 -0.052110149999999994 -0.00043562299999999995 9.7782250000000015e-08 0.3698105000000001 0.011952750000000002 -8.0858449999999973 0.00030683250000000005 -0.00022275099999999995 0.057875000000000128 2.6290250000000001e-05 0.23546500000000006 7.7170000000000025e-06 -0.040859549999999939 6.1212250000000014e-05 -0.15379599999999996 4.8193800000000007 -0.27889399999999981
decision_type=2 2 2 2 2 2 2 2 2 2 2 2 2 2 2 2 2 2 2 2 2 2 2 2 2 2 2 2 2 2
left_child=1 8 3 6 26 15 -3 -8 9 10 -1 -12 -11 19 16 -6 -15 -9 -7 -14 -16 22 25 -24 -25 -22 -5 28 -28 -4
right_child=-2 2 29 4 5 18 7 17 -10 12 11 -13 13 14 20 -17 -18 -19 -20 -21 21 -23 23 24 -26 -27 27 -29 -30 -31
leaf_value=-0.00026259015499315648 1.2501229646874197e-05 -0.0063135416675570676 1.0655183666541969e-05 0.00070872599535340506 -0.0041740841226948593 -0.0025174751464787518 -0.0055195912619819864 -0.00031982191346116443 -0.00023138164033194224 -0.0043489639774986341 0.010453117823252749 0.0019438764978986002 0.00074291920278814032 -0.0072936142796173782 0.0036718648490730432 0.0013028348263734106 -0.0014278583535857392 0.0045695998193696144 -0.008851373805563249 0.0071329008362954489 0.006178479568244747 -0.00032870462771928614 0.0019371716540600001 -0.0059758602419779415 -8.4513698540696948e-05 0.0017388723748701846 0.00018616285195739398 0.00012169286388897404 -0.0081291107472861775 -0.00017454587795920427
leaf_weight=134 94660 22 95517 3422 22 21 20 367 10874 31 38 52 22 21 36 55 39 20 23 20 26 440 54 21 27 68 31 301 20 11229
leaf_count=134 94660 22 95517 3422 22 21 20 367 10874 31 38 52 22 21 36 55 39 20 23 20 26 440 54 21 27 68 31 301 20 11229
internal_value=0 -9.62298e-06 7.30134e-06 0.000405454 0.000520785 -0.00228614 -0.000641661 -0.000335072 -0.000167548 0.000507015 0.00206747 0.00553667 7.28015e-05 0.000249901 4.7023e-05 -0.000261999 -0.00348087 -6.71386e-05 -0.00582838 0.00378577 0.000362014 0.000174664 0.00130467 -0.000227134 -0.00266198 0.00296685 0.000610779 -0.000341425 -0.00307473 -8.82679e-06
internal_weight=0 122973 111070 4324 3895 121 429 407 11903 1029 224 90 805 774 732 77 60 387 44 42 672 636 196 102 48 94 3774 352 51 106746
internal_count=217633 122973 111070 4324 3895 121 429 407 11903 1029 224 90 805 774 732 77 60 387 44 42 672 636 196 102 48 94 3774 352 51 106746
shrinkage=0.05


Tree=197
num_leaves=31
num_cat=0
split_feature=34 4 4 40 37 36 9 9 39 5 17 17 14 10 11 14 36 17 27 17 22 20 16 36 39 20 16 39 20 37
split_gain=0.0102506 0.171284 0.206867 0.287737 0.402953 0.801647 0.43668 0.37472 0.46278 0.445979 0.853684 0.567444 0.421482 0.343729 0.309092 0.403017 0.269474 0.264101 0.222541 0.562924 0.203918 0.174949 0.112147 0.129918 0.0565182 0.126312 0.177335 0.0633847 0.0494555 0.049734
threshold=-0.092780149999999992 0.17779150000000002 2.9223900000000005 -4.7185699999999988 0.68231549999999996 0.40779500000000007 5.8604700000000005e-05 2.3881450000000005e-05 -4.1528 1.1853100000000002e-05 0.19035450000000001 -6.2436999999999996 1.8209750000000002e-06 2.0437000000000004e-05 0.0067067750000000008 6.6737300000000016e-07 0.14973499999999998 1.4617650000000004 0.053348600000000003 -6.4328999999999992 15.043350000000002 -12.7784 0.0028249700000000004 0.60008550000000016 1.8568299999999998 -16.772999999999996 0.0030314700000000005 1.9461850000000005 -15.921249999999999 -0.27889399999999981
decision_type=2 2 2 2 2 2 2 2 2 2 2 2 2 2 2 2 2 2 2 2 2 2 2 2 2 2 2 2 2 2
left_child=1 24 3 22 5 6 7 8 -5 11 14 -10 -12 -9 15 -11 17 -8 -7 -20 -19 -13 -3 -24 25 26 -1 -26 -27 -30
right_child=-2 2 -4 4 -6 18 16 13 9 10 12 21 -14 -15 -16 -17 -18 20 19 -21 -22 -23 23 -25 27 28 -28 -29 29 -31
leaf_value=-0.005514662416168937 -2.2099359356656944e-06 -0.00029559909576416294 -0.0001808573283033415 -0.0036612194549802339 -0.00010380033376110652 -0.00045198652302394081 0.0098913140594959273 0.0035791775521647655 0.0072660187821990511 3.8589867075312543e-05 0.0066743128884263567 0.00093272724321729554 0.016816391729350604 -0.0049412692559818771 -0.0013584041028042084 0.008887248452106913 0.011546252158004791 0.0063900776008738143 0.0092772466721891596 -0.00077278040798295193 0.00055704988133642951 -0.0051697337875035981 0.0052888216280553031 -0.0004102474659885047 0.0020746267898888423 0.0020560551444878399 0.00069716779856207731 -4.7945803122851947e-06 4.4192731174542915e-05 -0.00047106945791365286
leaf_weight=27 208966 596 1023 21 374 272 21 20 24 22 20 23 21 29 27 31 20 29 22 38 31 24 20 20 37 23 20 3842 754 1236
leaf_count=27 208966 596 1023 21 374 272 21 20 24 22 20 23 21 29 27 31 20 29 22 38 31 24 20 20 37 23 20 3842 754 1236
internal_value=0 5.32827e-05 0.000381248 0.000718511 0.00121952 0.00193164 0.00355563 0.0024789 0.00338585 0.00415662 0.00600254 0.00101075 0.011869 -0.00146354 0.00299596 0.00521422 0.00634875 0.00506541 0.000156004 0.00291223 0.00337635 -0.00218342 -0.000123594 0.00243929 -9.73638e-05 -0.000309021 -0.00287133 1.50401e-05 -0.000249196 -0.000275839
internal_weight=0 8667 2728 1705 1069 695 363 262 213 192 121 71 41 49 80 53 101 81 332 60 60 47 636 40 5939 2060 47 3879 2013 1990
internal_count=217633 8667 2728 1705 1069 695 363 262 213 192 121 71 41 49 80 53 101 81 332 60 60 47 636 40 5939 2060 47 3879 2013 1990
shrinkage=0.05


Tree=198
num_leaves=31
num_cat=0
split_feature=37 36 36 4 23 9 34 19 21 12 13 5 3 39 6 21 31 23 21 21 10 23 37 8 39 36 5 32 13 39
split_gain=0.010019 0.120929 0.257481 0.188341 0.354134 0.313694 0.268902 0.210441 0.295098 0.272563 0.187316 0.184524 0.25152 0.653021 0.484711 0.227295 0.195281 0.258783 0.19434 0.186712 0.149097 0.144174 0.144046 0.197007 0.20799 0.163143 0.153826 0.142925 0.5002 0.65832
threshold=0.32610899999999998 -0.018010000000000078 0.010257000000000018 -0.27873999999999993 0.00033276500000000006 1.4690450000000003e-05 -0.010271549999999999 1.3330350000000004 -0.66179549999999987 -2.6601849999999995e-07 3.1167400000000004e-07 9.0806150000000018e-06 -14.267049999999999 -2.1822199999999996 3.1916100000000005e-08 -0.74181699999999984 -0.082060099999999983 -0.00043562299999999995 0.3698105000000001 -0.19906649999999998 -1.2004249999999998e-05 -0.00022275099999999995 0.057875000000000128 2.6489900000000002e-05 0.23546500000000006 -0.040859549999999939 7.7170000000000025e-06 -0.022925199999999996 -2.5610849999999994e-07 1.9002500000000004
decision_type=2 2 2 2 2 2 2 2 2 2 2 2 2 2 2 2 2 2 2 2 2 2 2 2 2 2 2 2 2 2
left_child=1 11 3 6 -5 20 -3 8 -8 -9 -7 12 13 -1 19 -14 -17 18 -18 -15 -6 -19 23 25 -25 -23 -26 28 -13 -30
right_child=-2 2 -4 4 5 10 7 9 -10 -11 -12 27 15 14 -16 16 17 21 -20 -21 -22 22 -24 24 26 -27 -28 -29 29 -31
leaf_value=-0.00025147151104851109 1.2227630291657035e-05 -0.0059934857777658515 -8.5026957323522201e-06 0.00057995044451363031 0.0027652941518821398 -0.0091872756369411942 0.0060551047923841647 -0.0072192105823143567 -8.650375176792998e-05 -0.00092647815334295303 -0.0024260523390867528 0.00045804833097714453 -0.0041314053652440055 0.0059737071616663825 0.0018986538144622038 0.0041899585141800351 -0.0069288230620302444 0.0033918499779837159 -0.0010139534363477695 0.01272400456829928 -0.0018432737076956849 0.0062066271176768675 -0.0003130515815987524 0.001871157631583903 -0.0060205967637011783 0.001640412798014053 -0.00018800278278202035 -0.00016403106575919857 -0.0039764245810292439 -0.00042326175036816411
leaf_weight=134 94660 22 106746 3774 26 20 21 22 285 79 21 442 31 21 49 30 21 37 41 20 54 27 448 53 20 71 26 9883 213 336
leaf_count=134 94660 22 106746 3774 26 20 21 22 285 79 21 442 31 21 49 30 21 37 41 20 54 27 448 53 20 71 26 9883 213 336
internal_value=0 -9.41237e-06 6.81917e-06 0.000385068 0.000494583 -0.00216803 -0.000609248 -0.000318208 0.000334979 -0.00229717 -0.00572421 -0.000160873 0.00047909 0.001961 0.00525513 6.67314e-05 0.000234874 7.53946e-05 -0.00301738 0.00926654 -0.000345489 0.000356556 0.000182438 0.00130924 -0.000263926 0.00289845 -0.00272391 -0.000221432 -0.000793882 -0.00180181
internal_weight=0 122973 111070 4324 3895 121 429 407 306 101 41 11903 1029 224 90 805 774 744 62 41 80 682 645 197 99 98 46 10874 991 549
internal_count=217633 122973 111070 4324 3895 121 429 407 306 101 41 11903 1029 224 90 805 774 744 62 41 80 682 645 197 99 98 46 10874 991 549
shrinkage=0.05


Tree=199
num_leaves=31
num_cat=0
split_feature=34 15 4 37 36 3 36 20 40 17 18 17 18 32 18 35 21 14 36 8 14 19 3 4 39 20 26 20 37 36
split_gain=0.00948919 0.15338 0.272842 0.281647 0.677118 0.471288 0.707062 0.50407 0.320677 0.517305 0.601542 0.492416 0.286283 0.269612 0.266072 0.226387 0.194728 0.145419 0.12644 0.124726 0.150533 0.118726 0.0935998 0.360939 0.0481184 0.195569 0.227164 0.103305 0.0584346 0.691572
threshold=-0.092780149999999992 2.8533150000000003e-05 2.9223900000000005 0.68231549999999996 0.40779500000000007 -7.4497099999999987 0.14973499999999998 -7.6703599999999996 1.7569350000000001 6.7384950000000012 5.8567400000000012 -8.5876849999999987 -6.488389999999999 0.14537000000000003 14.999250000000002 0.034433300000000007 1.2323400000000002 2.3116650000000003e-06 0.57364500000000007 2.0397950000000003e-05 4.5888800000000005e-06 1.2794000000000001 -16.413199999999996 5.3515400000000009 1.8568299999999998 -16.772999999999996 -0.012955199999999998 -16.164099999999994 -0.17681499999999981 -0.14969009999999991
decision_type=2 2 2 2 2 2 2 2 2 2 2 2 2 2 2 2 2 2 2 2 2 2 2 2 2 2 2 2 2 2
left_child=1 24 3 4 5 6 7 8 9 10 11 -3 -13 -8 18 19 17 -7 -6 -14 -21 -20 23 -4 25 26 -1 -27 -29 -30
right_child=-2 2 22 -5 14 16 13 -9 -10 -11 -12 12 15 -15 -16 -17 -18 -19 21 20 -22 -23 -24 -25 -26 27 -28 28 29 -31
leaf_value=-0.00060486284310172782 -2.1262720618641388e-06 0.0077064458653330814 0.0062496505450746137 -0.00011394819879549026 -0.0037267369984571512 0.0042901525314411387 0.014020464774442926 0.010570820651482791 -0.0025214213000920912 0.010062066688323799 0.0086354441924153692 0.0042043293656950651 0.0025956984219374138 0.0061845084976242942 0.0057044599507935353 -0.0065577220298688524 -0.0041975083042179112 -0.0010755067574125729 -0.00021287837074533667 -0.0053075252397684382 0.00082706773973768583 0.0036699439321334162 -0.00030031825520475977 -0.0012463588187507585 2.9994775931078729e-05 0.003306938057011437 -0.0072974302849615931 0.00010180772768260392 -6.8852798615264709e-05 -0.0040790891875631284
leaf_weight=32 208966 20 26 396 24 23 21 20 30 23 28 22 20 23 20 22 23 28 315 20 20 21 953 42 4256 21 21 870 1209 118
leaf_count=32 208966 20 26 396 24 23 21 20 30 23 28 22 20 23 20 22 23 28 315 20 20 21 953 42 4256 21 21 870 1209 118
internal_value=0 5.12656e-05 0.000418607 0.00095789 0.00154496 0.00315552 0.00412761 0.00299401 0.00225481 0.00307359 0.00201613 0.000521444 -0.000860287 0.0099244 9.12096e-05 -0.00221909 -0.000378154 0.0013443 -0.000220638 -0.000628253 -0.00224023 2.9798e-05 -0.000172438 0.00161976 -6.91744e-05 -0.000255024 -0.00325663 -0.000183299 -0.00021666 -0.000425453
internal_weight=0 8667 2140 1119 723 343 269 225 205 175 152 124 104 44 380 82 74 51 360 60 40 336 1021 68 6527 2271 53 2218 2197 1327
internal_count=217633 8667 2140 1119 723 343 269 225 205 175 152 124 104 44 380 82 74 51 360 60 40 336 1021 68 6527 2271 53 2218 2197 1327
shrinkage=0.05


Tree=200
num_leaves=31
num_cat=0
split_feature=36 18 37 36 36 22 18 23 4 7 4 27 27 4 34 33 26 39 37 34 4 29 17 39 11 20 39 4 39 3
split_gain=0.00945123 0.39894 0.0103332 0.107336 0.234043 0.170887 0.179793 0.151358 0.417708 0.472421 0.213335 0.160653 0.257716 0.146441 0.274262 0.206144 0.141573 0.180005 0.125862 0.144164 0.329481 0.320352 0.310016 0.29681 0.277554 0.275448 0.508235 0.471092 0.411036 0.323418
threshold=5.6762150000000009 2.9920850000000008 0.32610899999999998 -0.018010000000000078 0.010257000000000018 29.284250000000004 -13.876599999999998 0.00011582550000000002 0.083564450000000012 3.3645000000000007e-05 0.21050500000000003 0.011952750000000002 0.0046036700000000015 -0.29052249999999996 -0.0091349949999999982 2.2463100000000002e-07 1.0482150000000001 1.1065400000000005 -0.27889399999999981 0.065375400000000014 -0.38361349999999994 0.00010607400000000001 5.6979900000000017 2.7930350000000002 0.00010873100000000003 -8.2009299999999978 -1.1067849999999997 -2.3911599999999997 0.97785500000000003 -8.9455249999999982
decision_type=2 2 2 2 2 2 2 2 2 2 2 2 2 2 2 2 2 2 2 2 2 2 2 2 2 2 2 2 2 2
left_child=2 -2 3 16 5 6 -5 13 11 10 -10 12 -9 14 -8 -16 -1 -18 -6 21 25 -20 -23 24 -22 26 -21 -28 -29 -30
right_child=1 -3 -4 4 18 -7 7 8 9 -11 -12 -13 -14 -15 15 -17 17 -19 19 20 23 22 -24 -25 -26 -27 27 28 29 -31
leaf_value=-0.00013890682510927943 -4.1485842438767359e-05 0.0057345623766342484 1.1738962043254395e-05 0.0048003843257902268 9.1869011699827966e-06 -0.0034595857717594522 -0.0062774249899666765 0.00028732735617161838 -0.0057715430605458102 -0.0096942999421077303 0.00035637419858510248 0.0043870811731639234 -0.005534007549285889 0.00056542612176101019 -0.00068173742288633681 0.0040216956992970574 -0.0053983114027530595 -0.00042824097386352263 -0.00015522129171619407 0.0072780387295830647 0.0015873989226984912 0.00066384265605099445 0.0061120960139072478 -0.00061005994852793267 -0.0043579499020480984 -0.0032752425793709386 -0.0041582028279324645 -0.0027764313404137889 0.0079148525546770543 0.001050482935357109
leaf_weight=11825 838 31 94660 23 94648 29 20 385 20 23 49 22 20 3483 224 26 29 49 10535 31 23 79 39 209 134 37 43 30 32 37
leaf_count=11825 838 31 94660 23 94648 29 20 385 20 23 49 22 20 3483 224 26 29 49 10535 31 23 79 39 209 134 37 43 30 32 37
internal_value=0 0.000164564 -6.59733e-07 -1.02717e-05 5.13509e-06 0.0003657 0.000391528 0.000367791 -0.000432526 -0.00348845 -0.00141983 0.000225894 -1.45972e-07 0.000478467 -0.00064331 -0.00019258 -0.000152912 -0.00227609 -9.59032e-06 -0.000167861 -0.000938325 -0.000126203 0.00246454 -0.00184415 -0.00348698 0.000640394 0.00147784 0.000211602 0.0021096 0.00423396
internal_weight=0 869 216764 122104 110201 4324 4295 4272 519 92 69 427 405 3753 270 250 11903 78 105877 11229 576 10653 118 366 157 210 173 142 99 69
internal_count=217633 869 216764 122104 110201 4324 4295 4272 519 92 69 427 405 3753 270 250 11903 78 105877 11229 576 10653 118 366 157 210 173 142 99 69
shrinkage=0.05


Tree=201
num_leaves=31
num_cat=0
split_feature=37 18 23 4 4 9 31 19 0 17 39 13 39 18 13 31 33 3 9 9 36 37 29 18 3 9 39 20 0 0
split_gain=0.00935469 0.353231 0.00997058 0.0797603 0.124077 0.222246 0.598177 0.48463 0.242823 0.37966 0.192087 0.213859 0.309828 0.207373 0.150241 0.0826099 0.0734124 0.121145 0.0623175 0.0744185 0.0613407 0.50264 0.262508 0.201431 0.234556 0.190875 0.190171 0.356712 0.183057 0.188103
threshold=5.6849350000000003 -3.7984549999999992 0.0020748500000000005 -0.15847949999999997 -1.4133199999999999 -6.4452949999999984e-05 0.14260400000000004 1.8035450000000004 6.5600500000000013 16.002400000000005 1.0196000000000003 -2.2582199999999995e-06 -0.82558500000000012 -5.7481999999999989 1.8237450000000004e-06 -0.096387649999999978 -6.2538149999999987e-05 -11.101149999999999 0.00017205800000000003 0.00012707000000000004 -0.22452634999999985 -0.33012499999999995 -9.7463599999999976e-06 -10.950149999999999 -5.6211599999999988 5.443675000000001e-05 3.3691350000000004 -9.5298349999999985 8.9117650000000008 11.322650000000001
decision_type=2 2 2 2 2 2 2 2 2 2 2 2 2 2 2 2 2 2 2 2 2 2 2 2 2 2 2 2 2 2
left_child=2 -2 -1 4 16 6 -6 14 18 10 11 -10 15 -14 -8 -13 17 -4 19 -7 -5 -22 23 -23 25 -25 27 -24 -29 -30
right_child=1 -3 3 20 5 8 7 -9 9 -11 -12 12 13 -15 -16 -17 -18 -19 -20 -21 21 22 26 24 -26 -27 -28 28 29 -31
leaf_value=1.4822009649969682e-06 0.0051590159918893791 -4.2055061103025061e-05 0.0045968587840650886 9.7708396137967956e-06 -0.00024320722681327503 -0.00019917356619754097 -4.4107554692475664e-05 0.010422787393035834 0.0067374901175277224 0.0062898797670236997 -0.00061682116005789384 -0.0044395538761091303 0.0075787111125828234 0.0016333165151525527 0.0055505432163564759 -8.8525918393618977e-05 -0.00025494079798494862 -0.00023323504953141848 -0.0026341780271031895 0.0021233867331956289 4.2873397788725495e-06 0.0041118648722245285 -0.008123363682192148 -0.0020012757585594998 0.0033970892404405666 0.0030317002946546948 -0.00069623900514900706 -0.0013668816459564269 -0.0077636485794625653 -0.0024729450789025232
leaf_weight=208533 34 819 21 2667 114 822 28 30 21 36 124 20 20 55 21 24 1268 34 25 36 2313 22 34 183 28 21 91 119 28 42
leaf_count=208533 34 819 21 2667 114 822 28 30 21 36 124 20 20 55 21 24 1268 34 25 36 2313 22 34 183 28 21 91 119 28 42
internal_value=0 0.000165256 -6.50261e-07 -5.45715e-05 0.000168365 0.000500784 0.00207401 0.00541785 0.000244121 0.00147309 0.000816259 0.00208556 0.00126463 0.00321876 0.0023536 -0.00206627 -0.00017737 0.00161098 -0.000173424 -0.000101723 -0.000163026 -0.000322988 -0.00165571 -0.000460584 -0.000894178 -0.00148318 -0.00262247 -0.00340852 -0.00256034 -0.00458923
internal_weight=0 853 216780 8247 2699 1376 193 79 1183 300 264 140 119 75 49 44 1323 55 883 858 5548 2881 568 254 232 204 314 223 189 70
internal_count=217633 853 216780 8247 2699 1376 193 79 1183 300 264 140 119 75 49 44 1323 55 883 858 5548 2881 568 254 232 204 314 223 189 70
shrinkage=0.05


Tree=202
num_leaves=31
num_cat=0
split_feature=20 13 16 18 18 3 23 0 4 15 22 11 16 12 36 36 3 37 25 5 29 10 10 20 14 12 36 17 10 28
split_gain=0.00976551 0.0993978 0.226707 0.164172 0.136109 0.0300384 0.0180897 0.0176602 0.0276295 0.0161029 0.0135894 0.0384461 0.168574 0.156604 0.0526312 0.317382 0.140323 0.07723 0.0603834 0.0393168 0.0282891 0.0605521 0.0303459 0.0206885 0.066703 0.0239621 0.0210985 0.0187134 0.0487594 0.126181
threshold=-5.7717399999999985 2.5770550000000005e-06 0.00024544750000000004 2.1804450000000002 -19.754149999999996 -7.0441249999999993 -0.062701649999999984 8.0415850000000013 -0.075009849999999989 -0.00078172349999999986 87.628850000000014 0.022777000000000002 0.0035512250000000003 8.0636700000000017e-06 -0.17527649999999997 0.24966499999999994 -7.1133149999999992 0.29985500000000015 0.54025350000000005 1.7182950000000001e-05 0.00038371750000000001 0.00035752750000000007 0.00037732250000000004 -6.388704999999999 3.2692450000000004e-07 -3.5297349999999998e-06 0.77415 -14.223749999999997 -5.3688449999999996e-05 -2.1163149999999997
decision_type=2 2 2 2 2 2 2 2 2 2 2 2 2 2 2 2 2 2 2 2 2 2 2 2 2 2 2 2 2 2
left_child=10 7 3 -3 -4 6 -6 -2 -9 -8 27 14 13 -13 17 16 18 -12 -16 -18 21 -14 -22 25 -25 26 -17 28 29 -1
right_child=1 2 4 -5 5 -7 9 8 -10 -11 11 12 20 -15 15 23 19 -19 -20 -21 22 -23 -24 24 -26 -27 -28 -29 -30 -31
leaf_value=0.0047814270565868363 -5.9840655558312262e-05 0.0009375621962016854 0.0037623040288014202 0.0066861120052096714 -0.0011781173713925769 -0.0021809698951619793 0.0011385229609610784 -0.0022820980362060557 -0.00023726148838078482 -0.00024069575368122385 0.0029885099893859168 0.00025812045583734289 0.0028129672539944296 0.0065151916831382552 -0.0066392915914076618 -0.0023322727520107517 0.00013102446828270332 -3.435326027156339e-05 -0.0031924100151324332 -0.0028036383194072795 -0.0025339138245077004 -0.00033890959556970301 -0.00032551663992156439 0.0030665197284542958 -0.00088167084825766765 -2.7748848993737948e-05 -0.00049856915802152916 -1.0885963823364424e-06 9.5783394316202168e-05 0.00032981800487994828
leaf_weight=20 488 23 23 27 29 20 33 24 53 59 22 20 20 20 27 21 25 534 24 21 21 64 60 20 23 394 62 213396 1982 78
leaf_count=20 488 23 23 27 29 20 33 24 53 59 22 20 20 20 27 21 25 534 24 21 21 64 60 20 23 394 62 213396 1982 78
internal_value=0 0.000176714 0.00109443 0.00404178 0.000195844 -0.000385919 -8.92165e-05 -0.00017088 -0.000874613 0.000254024 -6.34805e-07 -0.000157152 0.000474596 0.00338666 -0.000267559 -0.000585494 -0.00321113 8.52564e-05 -0.00501723 -0.00120871 -0.000231358 0.000411537 -0.000898064 -9.57117e-05 0.000954697 -0.000190403 -0.000962518 3.66142e-07 0.000149614 0.00123831
internal_weight=0 779 214 50 164 141 121 565 77 92 216854 1378 205 40 1173 617 97 556 51 46 165 84 81 520 43 477 83 215476 2080 98
internal_count=217633 779 214 50 164 141 121 565 77 92 216854 1378 205 40 1173 617 97 556 51 46 165 84 81 520 43 477 83 215476 2080 98
shrinkage=0.05


Tree=203
num_leaves=31
num_cat=0
split_feature=16 20 39 39 29 19 36 16 23 39 9 26 36 2 25 39 1 17 17 36 36 36 3 11 27 40 4 34 25 1
split_gain=0.00894067 0.0295061 0.0880434 0.246995 0.197483 0.10197 0.0791374 0.0751695 0.103643 0.261158 0.07208 0.129401 0.0964371 0.153671 0.167948 0.273655 0.057797 0.104046 0.0432378 0.0344363 0.0344951 0.0311893 0.0278424 0.170471 0.0472453 0.0277758 0.0616152 0.380793 0.0576895 0.182222
threshold=1.7836600000000004e-08 -10.311099999999998 0.72566000000000008 0.27381999999999979 -3.4237299999999992e-05 -1.7381749999999998 0.010257000000000018 1.1921100000000003e-10 5.4738650000000001e-05 -0.77143500000000065 7.0554250000000006e-05 -0.0093381699999999981 -0.17527649999999997 -2.8220449999999997 0.0055462550000000008 -0.19603999999999996 -4.9833999999999987 -2.6904149999999993 6.4251500000000012 -0.018010000000000078 0.056773999999999998 0.010257000000000018 -14.605749999999999 0.0019309400000000001 0.0026438850000000003 -0.81248999999999982 -0.10392349999999999 -5.1418699999999989e-05 -0.010972499999999998 -8.7275699999999983
decision_type=2 2 2 2 2 2 2 2 2 2 2 2 2 2 2 2 2 2 2 2 2 2 2 2 2 2 2 2 2 2
left_child=1 2 3 7 -5 6 -6 8 9 -1 12 -12 -9 -14 16 -16 17 -15 -7 -18 21 -21 23 -4 -25 -3 27 -27 29 -28
right_child=-2 25 22 4 5 18 -8 10 -10 -11 11 -13 13 14 15 -17 19 -19 -20 20 -22 -23 -24 24 -26 26 28 -29 -30 -31
leaf_value=0.00012659371947039392 3.9965582347248094e-06 -7.5880471281066693e-06 0.0043690650122007353 0.0057959842011182303 0.0056657420015350608 8.361448750399765e-05 0.0012710524088470265 -0.00013642018379530978 0.00036212260562024312 -0.0066941559572866105 -0.0042431997552008086 8.7358162652995767e-05 0.0050282204345263462 -0.00057570511533413084 0.0074674288195598392 0.00021830955074013522 -0.0020168171467958018 0.0044633665479653119 0.0026172008603810226 0.00034659606667628397 -0.00032548098018349211 0.0026057335876182399 -1.4416871540085991e-05 0.00043061863703076686 -0.0025219878173629697 -0.0074646033061435448 -0.0020172336835126061 0.00061180896772178263 -6.5327095949211595e-05 -0.00020148726212175754
leaf_weight=36 188342 9075 25 31 21 85 20 311 65 23 23 69 23 20 23 30 20 21 21 50 131 22 10946 42 20 20 159 54 6850 1055
leaf_count=36 188342 9075 25 31 21 85 20 311 65 23 23 69 23 20 23 30 20 21 21 50 131 22 10946 42 20 20 159 54 6850 1055
internal_value=0 -2.5698e-05 3.42106e-05 0.000472852 0.00216936 0.00140456 0.00352199 0.00012455 -0.00101508 -0.00253234 0.000314744 -0.000995281 0.000499878 0.0010819 0.000795578 0.00336415 0.000279917 0.00200528 0.000585551 -3.73023e-05 0.000157724 0.00103689 -7.33565e-06 0.000883596 -0.000521835 -6.77346e-05 -0.000134806 -0.00157101 -0.000121627 -0.000439299
internal_weight=0 29291 12078 1045 178 147 41 867 124 59 743 92 651 340 317 53 264 41 106 223 203 72 11033 87 62 17213 8138 74 8064 1214
internal_count=217633 29291 12078 1045 178 147 41 867 124 59 743 92 651 340 317 53 264 41 106 223 203 72 11033 87 62 17213 8138 74 8064 1214
shrinkage=0.05


Tree=204
num_leaves=31
num_cat=0
split_feature=20 0 17 32 26 9 5 17 35 26 7 0 0 20 13 16 5 23 1 1 6 24 10 10 20 4 4 29 10 29
split_gain=0.00904181 0.0359348 0.128325 0.02426 0.0198459 0.0820024 0.134859 0.0197993 0.0177341 0.0137429 0.0464002 0.0510071 0.0366254 0.0141075 0.048785 0.121791 0.0305201 0.0227216 0.0825984 0.012558 0.0426885 0.0124342 0.0635538 0.0731844 0.0708871 0.0476364 0.185549 0.233422 0.375434 0.105973
threshold=-5.9633049999999992 -10.400999999999998 -12.464199999999998 -0.0011580799999999999 -1.2159399999999998 2.1571850000000003e-05 1.6368250000000004e-05 -7.7125999999999992 0.17438400000000001 -0.10712749999999999 5.2649200000000011e-05 9.313150000000002 6.2314700000000007 -5.7717399999999985 5.2573900000000008e-06 0.00026673250000000006 2.7325850000000002e-05 0.0010465900000000002 7.8334600000000005 -12.232849999999997 1.3540400000000001e-06 29.419400000000007 -7.1201799999999986e-05 -6.7776199999999983e-05 -15.138399999999999 -0.54650249999999989 -1.4133199999999999 0.0031288150000000005 1.27873e-05 -0.00014064699999999996
decision_type=2 2 2 2 2 2 2 2 2 2 2 2 2 2 2 2 2 2 2 2 2 2 2 2 2 2 2 2 2 2
left_child=21 2 -2 -3 5 -5 -7 -4 9 10 11 12 -6 17 -15 -16 -17 19 -19 20 -11 -1 24 -24 -23 26 -25 29 -29 -28
right_child=1 3 7 4 8 6 -8 -9 -10 13 -12 -13 -14 14 15 16 -18 18 -20 -21 -22 22 23 25 -26 -27 27 28 -30 -31
leaf_value=9.3276050555336152e-07 0.004271201854419854 0.0016957320633082418 0.0015967830543598648 -0.00048928398049611136 -8.0602232469573212e-05 -0.00023957045594453003 0.005374330563354306 -2.5362741072341559e-06 -0.0010106910443133785 -0.0002097021275858424 -0.0021733168665438521 0.0020989656819892844 -0.0020533129835880741 2.1007136356693708e-05 0.0047865362621450913 -0.00031080277351793487 0.0018899708655888627 4.9297004269606288e-05 -0.0036122371991223188 7.1226687919846703e-06 0.0025091119401291842 -0.0033073272809972347 0.0024592982555422453 -0.0001522992503395882 -0.00055713377657605739 -0.00013510422361429517 -0.00050194338440616307 0.0096568891027709464 -3.1170950387604533e-05 0.0014771425554379134
leaf_weight=209333 23 22 23 60 183 23 20 122 43 42 30 24 27 304 20 50 23 67 20 1274 22 29 29 911 122 4458 108 20 20 181
leaf_count=209333 23 22 23 60 183 23 20 122 43 42 30 24 27 304 20 50 23 67 20 1274 22 29 29 911 122 4458 108 20 20 181
internal_value=0 9.60684e-05 0.000801513 4.34886e-05 2.72031e-05 0.000705043 0.00237155 0.000251149 -5.59052e-06 1.51282e-05 -0.000322023 -8.46773e-05 -0.000334236 6.398e-05 0.000327572 0.00132968 0.000382592 -9.45585e-06 -0.000792435 4.14553e-05 0.00072489 -1.08116e-06 -7.28028e-05 -4.61066e-05 -0.00108532 -5.88578e-05 0.00021526 0.00123303 0.00481286 0.000737553
internal_weight=0 2422 168 2254 2232 103 43 145 2129 2086 264 234 210 1822 397 93 73 1425 87 1338 64 215211 5878 5727 151 5698 1240 329 40 289
internal_count=217633 2422 168 2254 2232 103 43 145 2129 2086 264 234 210 1822 397 93 73 1425 87 1338 64 215211 5878 5727 151 5698 1240 329 40 289
shrinkage=0.05


Tree=205
num_leaves=31
num_cat=0
split_feature=34 4 4 40 3 37 36 11 11 22 5 11 36 37 14 11 28 1 35 33 18 16 36 3 4 39 10 36 39 20
split_gain=0.00885528 0.141273 0.170089 0.247813 0.450841 0.257751 0.563339 0.407677 0.704795 0.532149 0.478309 0.487764 0.340782 0.344063 0.314573 0.28963 0.387632 0.215543 0.196829 0.172421 0.135684 0.0917277 0.10751 0.0833687 0.323445 0.0726859 0.0659221 0.0510139 0.0451747 0.0984691
threshold=-0.092780149999999992 0.17779150000000002 2.9223900000000005 -4.7185699999999988 -5.1152499999999987 0.68231549999999996 0.40779500000000007 0.0083088400000000014 0.0064150250000000004 44.542100000000012 1.0390250000000001e-05 0.00049938750000000007 -0.27744100000000016 0.078754999999999922 5.3722100000000007e-06 0.0022103100000000005 -2.9812749999999997 3.9525500000000005 0.17438400000000001 7.5042600000000009e-06 -2.6213749999999996 0.0028249700000000004 0.60008550000000016 -16.413199999999996 5.3515400000000009 0.31279500000000043 -5.3688449999999996e-05 0.57364500000000007 1.8568299999999998 -16.772999999999996
decision_type=2 2 2 2 2 2 2 2 2 2 2 2 2 2 2 2 2 2 2 2 2 2 2 2 2 2 2 2 2 2
left_child=1 28 3 21 5 6 7 8 10 14 19 -12 -13 15 -9 16 -14 20 26 -5 -16 -3 -23 24 -4 -17 -8 -28 29 -1
right_child=-2 2 23 4 -6 -7 18 9 -10 -11 11 12 13 -15 17 25 -18 -19 -20 -21 -22 22 -24 -25 -26 -27 27 -29 -30 -31
leaf_value=-0.0025388672423859852 -2.0540229734382819e-06 -0.00028387064861323217 0.0059120359333554428 0.0015840222207109699 0.008554593825392658 -9.4298245973839127e-05 0.0017613222277952556 0.0079713724724327535 -0.007219060482457281 0.012589340151420662 -0.001447950108143102 0.00023610499972294619 0.0031929043063428256 0.011853076760535656 0.0010592114223982208 0.0039808948524296282 0.012276525647662906 -0.0025377121777273716 0.0038423922474330832 -0.0043310372807484655 0.0067494793771766121 0.0047817161882994699 -0.00040264282100906709 -0.00028276315905471152 -0.0011839577447972261 -0.0002819065283983946 -0.0030367925769314752 -0.00040970880469962546 1.3202004985970426e-05 -0.00022369759254841325
leaf_weight=47 208966 596 26 22 20 366 33 30 20 21 35 28 24 23 22 20 23 20 31 28 20 20 20 955 42 20 20 243 3879 2013
leaf_count=47 208966 596 26 22 20 366 33 30 20 21 35 28 24 23 22 20 23 20 31 28 20 20 20 955 42 20 20 243 3879 2013
internal_value=0 4.95236e-05 0.000347376 0.000653192 0.00111815 0.000976364 0.0015501 0.00292634 0.00177252 0.00540757 0.00257893 0.00382383 0.00516088 0.00641446 0.00376825 0.00497666 0.00763808 0.00173448 5.18125e-05 -0.00172841 0.00376886 -0.00012831 0.00218954 -0.000162319 0.00152922 0.00184949 -0.000345174 -0.000609487 -8.72907e-05 -0.000276519
internal_weight=0 8667 2728 1705 1069 1049 683 356 243 113 223 173 138 110 92 87 47 62 327 50 42 636 40 1023 68 40 296 263 5939 2060
internal_count=217633 8667 2728 1705 1069 1049 683 356 243 113 223 173 138 110 92 87 47 62 327 50 42 636 40 1023 68 40 296 263 5939 2060
shrinkage=0.05


Tree=206
num_leaves=31
num_cat=0
split_feature=15 34 4 36 36 17 4 40 39 27 36 40 33 11 4 17 17 4 36 4 34 39 30 17 40 6 4 7 4 39
split_gain=0.00855964 0.180048 0.16175 0.235057 1.03869 0.534552 0.486058 0.516614 0.49589 0.572246 0.741216 0.682056 0.664125 0.69201 0.611358 0.452481 0.381605 0.344951 0.322982 0.477362 0.489276 0.440467 0.532106 0.440277 0.320856 0.31212 0.311928 0.303336 0.201295 0.435969
threshold=-1.6062999999999998e-06 9.5270700000000009e-05 -1.4133199999999999 0.327845 -0.25142799999999998 16.002400000000005 0.078893300000000013 -1.7773799999999997 -2.2545749999999996 0.00068913250000000013 -0.058960000000000005 1.03867 -6.480624999999999e-07 0.0017362250000000003 -0.40498649999999997 -7.5821849999999991 1.3891550000000004 -0.19656399999999996 0.056773999999999998 -0.16366899999999998 0.075559000000000015 0.80790999999999979 0.209427 -2.1740799999999996 0.31988499999999936 4.0934050000000005e-07 -0.45249949999999994 -3.3153449999999997e-05 -0.42458499999999993 -4.0456399999999988
decision_type=2 2 2 2 2 2 2 2 2 2 2 2 2 2 2 2 2 2 2 2 2 2 2 2 2 2 2 2 2 2
left_child=1 -1 -3 4 -4 6 7 -6 28 14 16 18 -13 -14 15 -10 17 26 21 20 23 22 24 27 -12 -25 -11 -20 29 -9
right_child=-2 2 3 -5 5 -7 -8 8 9 10 11 12 13 -15 -16 -17 -18 -19 19 -21 -22 -23 -24 25 -26 -27 -28 -29 -30 -31
leaf_value=-5.275232737738191e-05 -7.6301871280623536e-06 -2.809459719720584e-05 -2.4184903600250455e-06 -5.6804416681025814e-06 -0.00012297727375658738 0.0078786387108266357 -0.0019056422265243277 -0.00069840895927505129 -0.0092253018636256467 0.0020583782014860349 0.001103209321807988 0.01137236171002899 -0.0031850349640956629 0.0078486632059017822 0.0012465064969776774 -0.0010872141991843133 0.007830756710682181 -0.0024434641358398257 0.0039567533554509286 -0.0035921378374990567 -0.0011738998000510037 0.0046241736668791323 -0.0010771415023796847 0.0057123187274830244 0.0048830636649012486 -0.00018092171223356557 0.0076379079384344588 0.011675816714331242 -0.00095063149582919808 0.0055175990018544209
leaf_weight=45606 136695 14841 7691 8844 748 28 144 82 20 55 322 35 27 30 1226 117 80 21 20 23 36 74 286 53 68 39 46 35 298 43
leaf_count=45606 136695 14841 7691 8844 748 28 144 82 20 55 322 35 27 30 1226 117 80 21 20 23 36 74 286 53 68 39 46 35 298 43
internal_value=0 1.28865e-05 9.76121e-05 0.000188658 0.000336226 0.000994596 0.000945524 0.00105403 0.00134401 0.00160112 0.00237377 0.00183923 0.00595105 0.00262217 0.000892522 -0.00227526 0.00514704 0.00338723 0.00144353 0.00319712 0.00405041 0.000961877 0.000560975 0.00532983 0.00176226 0.0032141 0.00459955 0.00886888 -0.00024421 0.0014399
internal_weight=0 80938 35332 20491 11647 3956 3928 3784 3036 2613 1250 1048 92 57 1363 137 202 122 956 206 183 750 676 147 390 92 101 55 423 125
internal_count=217633 80938 35332 20491 11647 3956 3928 3784 3036 2613 1250 1048 92 57 1363 137 202 122 956 206 183 750 676 147 390 92 101 55 423 125
shrinkage=0.05


Tree=207
num_leaves=31
num_cat=0
split_feature=37 36 36 21 13 8 30 39 11 40 30 21 8 39 23 5 2 32 19 36 0 7 29 33 6 28 40 18 11 12
split_gain=0.0101054 0.10725 0.195805 0.163339 0.222692 0.217393 0.1823 0.1712 0.498181 0.296371 0.214154 0.466542 0.168974 0.271284 0.254594 0.162948 0.245983 0.26053 0.314037 0.20659 0.188911 0.19892 0.267554 0.16142 0.274712 0.152193 0.513307 0.210552 0.148463 0.144091
threshold=0.32610899999999998 -0.018010000000000078 0.010257000000000018 -0.17140849999999999 -2.9575949999999995e-06 6.4420400000000024e-05 0.14687100000000003 -0.56159999999999977 0.00028345200000000006 0.31988499999999936 0.047384050000000004 0.12547300000000003 4.0066100000000006e-05 -0.15760999999999911 0.00011948200000000001 9.0806150000000018e-06 2.9401200000000007 -0.0099885099999999973 -1.5785349999999998 -0.058960000000000005 6.8280300000000009 1.2988750000000002e-05 8.2108600000000019e-06 -2.7662949999999994e-07 2.2329450000000003e-07 -0.039215349999999989 1.151035 4.8336450000000006 0.00019198350000000004 -4.9253149999999993e-08
decision_type=2 2 2 2 2 2 2 2 2 2 2 2 2 2 2 2 2 2 2 2 2 2 2 2 2 2 2 2 2 2
left_child=1 15 3 4 12 29 -7 8 -5 -9 11 -11 13 -3 -15 16 17 18 -1 -19 21 -21 -23 24 -10 27 -27 -25 -22 -6
right_child=-2 2 -4 7 5 6 -8 9 23 10 -12 -13 -14 14 -16 -17 -18 19 -20 20 28 22 -24 25 -26 26 -28 -29 -30 -31
leaf_value=0.007143632591807194 1.2280186185842782e-05 -0.00025378131417021384 -7.5282274060765284e-06 -0.0082579115929547701 0.0011981060901626525 -0.0055226559947890745 0.0002817553466835913 0.00050469973390714551 -0.0025280490861769069 0.0008184627690554961 0.0013105159319149187 0.011003121056339958 0.00046902999108877137 -0.0026166849181248363 -0.010231281388162946 -0.00020899890589978662 -0.0038657704375850699 -0.00019704488115010189 0.001215802368369623 0.0014397607923546619 0.00072825193413088773 0.0094687334315676705 0.0012902009655954318 0.005640006621197245 0.0046794953721706776 -0.0089971605502068997 -0.00048268841878248704 -0.00048524075954969225 -0.0044672595035081036 -0.00031461439552035779
leaf_weight=31 94660 33 106746 20 260 31 24 3067 20 23 65 22 36 23 21 10874 32 621 80 161 44 20 20 20 39 20 154 47 20 399
leaf_count=31 94660 33 106746 20 260 31 24 3067 20 23 65 22 36 23 21 10874 32 621 80 161 44 20 20 20 39 20 154 47 20 399
internal_value=0 -9.45283e-06 5.83314e-06 0.000335683 -0.000296244 3.01628e-05 -0.00298982 0.000485127 -0.000617195 0.000596157 0.00314615 0.00579763 -0.00235868 -0.00368072 -0.00625092 -0.00015209 0.000449296 0.000587793 0.00287132 0.000301708 0.00147048 0.00222378 0.00537947 -0.000107814 0.00223626 -0.000681674 -0.00146136 0.00134319 -0.000895345 0.00028221
internal_weight=0 122973 111070 4324 827 714 55 3497 320 3177 110 45 113 77 44 11903 1029 997 111 886 265 201 40 300 59 241 174 67 64 659
internal_count=217633 122973 111070 4324 827 714 55 3497 320 3177 110 45 113 77 44 11903 1029 997 111 886 265 201 40 300 59 241 174 67 64 659
shrinkage=0.05


Tree=208
num_leaves=31
num_cat=0
split_feature=37 37 37 26 4 23 8 31 40 29 2 3 40 32 22 27 3 3 33 3 6 21 40 37 11 16 40 9 37 18
split_gain=0.0096454 0.131983 0.14582 0.243573 0.200381 0.459745 0.186988 0.188942 0.320284 0.170594 0.153677 0.24578 0.147943 0.340265 0.150083 0.218816 0.239351 0.210002 0.145583 0.277881 0.334044 0.170693 0.200839 0.333392 0.264398 0.186862 0.139787 0.128072 0.305602 0.499504
threshold=-0.35786749999999995 -0.026150000000000003 0.011134999999999897 -0.097607599999999989 -0.049405799999999993 -0.0007440124999999999 5.2494550000000007e-05 0.0034424250000000003 0.12029500000000005 -5.7789749999999992e-06 2.9891800000000006 -9.1449549999999977 -0.93924999999999936 0.046686200000000004 4.2979400000000005 0.0017435300000000003 -13.080499999999999 -10.2113 -2.7510949999999998e-05 -8.7018349999999973 -3.7361699999999995e-07 -1.1409399999999998 -2.7582999999999993 -0.17681499999999981 0.0030998800000000006 0.00055143100000000012 -1.1537099999999991 -2.0367299999999997e-05 -0.078199999999999964 10.697700000000001
decision_type=2 2 2 2 2 2 2 2 2 2 2 2 2 2 2 2 2 2 2 2 2 2 2 2 2 2 2 2 2 2
left_child=-1 18 3 4 5 -3 12 -8 -9 -6 -4 -12 13 14 15 16 -5 -17 19 20 -2 22 -20 25 -25 -24 -18 -23 -29 -30
right_child=1 2 10 6 9 -7 7 8 -10 -11 11 -13 -14 -15 -16 17 26 -19 21 -21 -22 27 23 24 -26 -27 -28 28 29 -31
leaf_value=1.219487098629709e-05 -0.00090267376275733114 -0.010006428427905554 -3.0717709046802207e-06 -0.0063733265060000131 0.0021653516767805234 -0.00059704938259314726 -0.000111351577118125 -0.00078540663427728748 -0.0074911787058226766 -0.0032768026883180333 -0.0046764176170108846 0.00060978955912422718 0.0005439189876004192 0.0056557627865748313 -0.0043282724642200203 0.0056269445543680385 -0.00043566457341479952 0.00017256738297874108 -0.00029274610727628365 -0.0012133524478396033 0.0072864627458550275 9.8262698270765498e-05 -0.0040951628540642562 -0.010191716136329848 -0.0024318896355994403 0.0022813471292869912 -0.0047625026619061836 -0.00010665677030486673 -0.00063569500609824336 -0.0041626084449957503
leaf_weight=92918 20 21 107330 20 36 34 672 69 24 24 45 43 3886 22 27 25 280 60 129 43 33 3487 20 23 21 27 20 6542 1625 107
leaf_count=92918 20 21 107330 20 36 34 672 69 24 24 45 43 3886 22 27 25 280 60 129 43 33 3487 20 23 21 27 20 6542 1625 107
internal_value=0 -9.0857e-06 7.75681e-06 0.000265828 -0.00200979 -0.00418972 0.000317091 -0.000403673 -0.00251593 -1.15101e-05 -4.78422e-06 -0.00209338 0.000444138 -0.000409937 -0.000718839 -0.00047821 -0.0010772 0.0017768 -0.00016617 0.00177318 0.00419622 -0.000181709 -0.00156159 -0.00336029 -0.00648816 -0.000432061 -0.00072412 -0.000155897 -0.000263011 -0.000853582
internal_weight=0 124715 112638 5220 115 55 5105 765 93 60 107418 88 4340 454 432 405 320 85 12077 96 53 11981 220 91 44 47 300 11761 8274 1732
internal_count=217633 124715 112638 5220 115 55 5105 765 93 60 107418 88 4340 454 432 405 320 85 12077 96 53 11981 220 91 44 47 300 11761 8274 1732
shrinkage=0.05


Tree=209
num_leaves=31
num_cat=0
split_feature=37 36 36 5 23 34 19 2 36 34 29 21 36 21 4 30 4 17 27 13 8 32 13 39 36 13 10 40 12 6
split_gain=0.0093618 0.0954998 0.163567 0.148602 0.219774 0.378413 0.326917 0.189756 0.252418 0.185447 0.198932 0.169333 0.153518 0.14096 0.606049 0.933779 0.225356 0.316715 0.242788 0.214454 0.226323 0.13407 0.424729 0.588417 1.20702 0.366838 0.453502 0.605123 0.45552 0.414071
threshold=0.32610899999999998 -0.018010000000000078 0.010257000000000018 9.0806150000000018e-06 -0.0011493749999999998 -0.0091349949999999982 -1.5785349999999998 2.9632050000000003 -0.058960000000000005 -7.6959649999999998e-05 -5.4458249999999988e-06 -0.15910999999999997 -0.040859549999999939 -0.17140849999999999 0.08589150000000001 0.068195050000000021 -0.19656399999999996 -8.4863549999999979 0.0021377100000000006 -3.4970049999999996e-06 2.3297600000000002e-05 -0.022925199999999996 -2.5610849999999994e-07 1.9002500000000004 -0.040859549999999939 -5.1967299999999993e-05 -5.1489599999999996e-05 -2.3840000000000008 1.1195050000000002e-06 6.6168600000000009e-07
decision_type=2 2 2 2 2 2 2 2 2 2 2 2 2 2 2 2 2 2 2 2 2 2 2 2 2 2 2 2 2 2
left_child=1 3 13 4 -1 6 -6 8 -7 10 -10 12 -11 14 19 -16 17 -15 -19 20 -3 22 25 24 -24 -5 -27 -28 29 -29
right_child=-2 2 -4 21 5 7 -8 -9 9 11 -12 -13 -14 16 15 -17 -18 18 -20 -21 -22 -23 23 -25 -26 26 27 28 -30 -31
leaf_value=-0.0026444177282444964 1.1819765382527134e-05 -0.005956062851301222 -6.886047011966652e-06 -0.0021165545236993765 0.0086306994777405645 -0.00012164596708209295 0.0017541973748588396 -0.0039014290660046615 0.006765156898618444 0.0051337084957385048 0.0019988587752047837 -0.0016474937530734611 0.0006071683738389142 -0.0069946106255520148 -0.013575730883021607 -0.0015262005442509248 0.0005619653717016522 2.5268052695735914e-05 -0.0054738306070000612 0.0005238848485280863 -0.00027521709649590775 -0.00014244705382048179 -0.0025255359865535717 -0.00037794897796608156 -0.015429504851636012 -0.005395543098226578 -0.0013670098674748053 0.0034568605210222058 0.0073069351538576468 -0.0025184093537226988
leaf_weight=55 94660 27 106746 109 25 609 56 26 30 26 81 54 67 20 20 82 3226 229 22 648 50 9883 193 336 20 24 104 113 53 39
leaf_count=55 94660 27 106746 109 25 609 56 26 30 26 81 54 67 20 20 82 3226 229 22 648 50 9883 193 336 20 24 104 113 53 39
internal_value=0 -9.09841e-06 5.32594e-06 -0.000143696 0.000430607 0.000604248 0.00387657 0.00030743 0.000433647 0.0017444 0.00328705 0.000579538 0.00187265 0.000306802 -0.000280242 -0.00388885 0.000445631 -0.000939225 -0.000456725 0.000227452 -0.0022672 -0.000198042 -0.000752473 -0.00168126 -0.00373718 0.00040115 0.00122526 0.0017395 0.00331549 0.00192373
internal_weight=0 122973 111070 11903 1029 974 81 893 867 258 111 147 93 4324 827 102 3497 271 251 725 77 10874 991 549 213 442 333 309 205 152
internal_count=217633 122973 111070 11903 1029 974 81 893 867 258 111 147 93 4324 827 102 3497 271 251 725 77 10874 991 549 213 442 333 309 205 152
shrinkage=0.05


Tree=210
num_leaves=31
num_cat=0
split_feature=37 37 33 3 0 21 39 6 36 37 17 30 8 5 30 39 32 39 28 34 33 8 4 14 23 22 2 3 17 13
split_gain=0.00923008 0.118157 0.131389 0.250788 0.321243 0.15405 0.181258 0.314061 0.304585 0.121102 0.268032 0.192292 0.174252 0.206156 0.148709 0.145751 0.230215 0.227105 0.156621 0.151812 0.13875 0.24641 0.247186 0.630707 0.143913 0.138472 0.131312 0.219086 0.135463 0.128916
threshold=-0.35786749999999995 -0.026150000000000003 -2.7510949999999998e-05 -8.7018349999999973 -3.0090749999999997 -1.1409399999999998 2.7388300000000005 -4.0493649999999993e-07 0.14973499999999998 0.011134999999999897 14.554100000000002 4.6183500000000004 5.2494550000000007e-05 1.7279250000000002e-05 2.3658200000000007 0.93421999999999994 0.036905850000000011 1.06199 -0.32370999999999994 -0.019831249999999998 -1.2517099999999998e-07 9.1550450000000007e-05 0.10312400000000001 1.2944550000000002e-07 0.00020610550000000003 1.0742750000000003 2.9891800000000006 -9.1449549999999977 -7.8361449999999992 -1.1786699999999996e-06
decision_type=2 2 2 2 2 2 2 2 2 2 2 2 2 2 2 2 2 2 2 2 2 2 2 2 2 2 2 2 2 2
left_child=-1 2 3 4 -2 6 7 -4 -9 10 11 12 14 29 15 18 17 -17 25 -19 21 22 23 -15 -22 -3 -11 28 -28 -14
right_child=1 9 5 -5 -6 -7 -8 8 -10 26 -12 -13 13 20 -16 16 -18 19 -20 -21 24 -23 -24 -25 -26 -27 27 -29 -30 -31
leaf_value=1.1929429721079266e-05 0.00030851682781108791 -0.0042944086508618457 0.0011029701447114349 -0.0011523404971105562 0.0081063832715153692 -0.00014775828766627817 -0.00027776450555421444 -0.0090626249852773216 -0.0020205306395997898 -2.7978195110729747e-06 -0.0049225326739251616 -0.0034807863288305648 -0.0020680579171098276 -0.00041642055636452094 0.0035715126634238768 -0.0053522401731461288 0.0047596988984150816 0.0034160403151569578 0.00055176475284698316 -0.00068892537083577296 -0.00013054664713674092 0.0011734972066908367 -0.00070791235326357724 -0.010423294034217179 -0.0033698327088802073 -0.000381354299053992 -0.0013066515710670502 0.00061713597604593396 -0.0068274468015879393 0.0012442203500507244
leaf_weight=92918 28 27 29 43 25 11761 129 28 34 107330 25 34 34 31 37 25 20 24 3735 366 351 39 47 32 38 139 20 43 25 216
leaf_count=92918 28 27 29 43 25 11761 129 28 34 107330 25 34 34 31 37 25 20 24 3735 366 351 39 47 32 38 139 20 43 25 216
internal_value=0 -8.88793e-06 -0.000157517 0.00168487 0.00398676 -0.00017228 -0.00148317 -0.00319193 -0.00520083 7.04803e-06 0.000242231 0.000267086 0.000291776 -0.000392637 0.000415105 0.000388171 -0.00047994 -0.000732452 0.000484974 -0.000436312 -0.000943932 -0.00224134 -0.00345206 -0.00549928 -0.000446981 -0.00101781 -4.38076e-06 -0.00193503 -0.00437376 0.000793751
internal_weight=0 124715 12077 96 53 11981 220 91 62 112638 5220 5195 5161 788 4373 4336 435 415 3901 390 538 149 110 63 389 166 107418 88 45 250
internal_count=217633 124715 12077 96 53 11981 220 91 62 112638 5220 5195 5161 788 4373 4336 435 415 3901 390 538 149 110 63 389 166 107418 88 45 250
shrinkage=0.05


Tree=211
num_leaves=31
num_cat=0
split_feature=15 34 34 4 37 37 4 39 27 15 18 24 11 37 5 37 27 39 39 40 30 31 31 36 39 21 4 27 17 21
split_gain=0.00906287 0.161777 0.151273 0.176418 0.146767 1.16142 0.782055 0.555487 0.794228 0.436289 0.798105 0.6116 0.611244 1.0185 1.108 0.733519 0.711191 0.563973 0.662261 1.01266 0.559416 0.549597 0.445168 0.425 0.338887 0.309609 0.328408 0.315217 0.29906 0.293815
threshold=-1.6062999999999998e-06 9.5270700000000009e-05 -5.1418699999999989e-05 -0.019882549999999995 0.19792950000000006 -0.10141500000000002 2.2539600000000006 2.5222350000000002 0.00047923150000000006 6.1692600000000016e-07 -5.4139599999999986 1.5357550000000002 0.00093504000000000015 0.078754999999999922 1.1160550000000001e-05 -0.057539999999999918 0.0040086650000000007 1.7247300000000003 -0.66712000000000005 2.9908550000000012 1.3837400000000002 0.013629200000000003 -0.0057124049999999994 -0.12496499999999998 -0.77143500000000065 0.3698105000000001 0.36048500000000006 0.0035869550000000006 -6.2436999999999996 0.65909550000000017
decision_type=2 2 2 2 2 2 2 2 2 2 2 2 2 2 2 2 2 2 2 2 2 2 2 2 2 2 2 2 2 2
left_child=1 -1 3 -2 5 -5 7 8 -7 10 11 -10 13 15 -15 16 -11 18 19 20 25 -16 28 -20 -17 26 -14 -27 -12 -26
right_child=2 -3 -4 4 -6 6 -8 -9 9 12 22 -13 17 14 21 24 -18 -19 23 -21 -22 -23 -24 -25 29 27 -28 -29 -30 -31
leaf_value=-4.8959334052599008e-05 -0.0001047985518218499 9.3571549453787308e-05 -5.6001032592098259e-05 1.4398276470461804e-05 -3.8476097968089216e-07 0.00068220182078290378 -0.0007604271578911955 -0.00016603129609974658 0.001350256616768258 0.012286629851319288 0.0015326406818348915 -0.009412328759913869 0.0087890993268229071 -0.00038043912314936857 0.017113887945379248 0.0074309758516028536 0.0011469572134639907 0.0077566233077751741 0.0070906394509537762 -0.0010962511529262549 -0.00074801687523722655 0.0068478557122447952 0.0032412176240289299 -1.0694678754392165e-05 0.0022268456479512875 0.013286744760379436 2.8531274869158591e-05 0.0067041315575889632 -0.007114028698997573 -0.0036915743490681056
leaf_weight=45606 14265 35332 74372 21274 21818 1969 645 716 22 38 20 33 20 22 32 30 23 35 22 76 25 22 130 498 448 31 23 44 20 22
leaf_count=45606 14265 35332 74372 21274 21818 1969 645 716 22 38 20 33 20 22 32 30 23 35 22 76 25 22 130 498 448 31 23 44 20 22
internal_value=0 1.32599e-05 -7.85128e-06 4.96073e-05 9.54395e-05 0.000175115 0.000863616 0.00110604 0.00135869 0.00217287 0.00012813 -0.00510729 0.00249893 0.00364606 0.00907799 0.00291018 0.00808643 0.00155484 0.00126111 0.00356755 0.00604621 0.0129314 0.00182194 0.000289746 0.00227868 0.00748567 0.00410321 0.00942495 -0.00279069 0.00194981
internal_weight=0 80938 136695 62323 48058 26240 4966 4321 3605 1636 225 55 1411 637 76 561 61 774 739 219 143 54 170 520 500 118 43 75 40 470
internal_count=217633 80938 136695 62323 48058 26240 4966 4321 3605 1636 225 55 1411 637 76 561 61 774 739 219 143 54 170 520 500 118 43 75 40 470
shrinkage=0.05


Tree=212
num_leaves=31
num_cat=0
split_feature=37 36 5 28 29 23 23 18 10 25 17 36 8 35 20 31 10 23 36 17 17 2 39 40 25 40 18 39 19 18
split_gain=0.0106613 0.100308 0.154152 0.2256 0.39737 0.254826 0.156215 0.150992 0.725061 0.191704 0.3836 0.431542 0.300186 0.363118 0.210336 0.217973 0.260566 0.265708 0.206182 0.242375 0.158827 0.395031 0.685064 0.403894 0.310409 0.409546 0.351352 0.567957 0.380101 0.301238
threshold=0.29985500000000015 -0.018010000000000078 9.0806150000000018e-06 0.56648000000000021 -4.7009049999999996e-07 -0.00043562299999999995 -0.00022275099999999995 -12.635299999999999 -1.3758149999999998e-05 -0.064774849999999981 -4.8420449999999997 -0.079468000000000025 4.1122800000000012e-05 0.010368050000000002 -10.667199999999999 0.0148068 -1.7544299999999997e-05 0.000125408 -0.079468000000000025 2.7591150000000004 0.19035450000000001 1.4821150000000003 -0.19603999999999996 3.6866600000000003 0.036329200000000013 -0.7296000000000008 5.7588600000000012 -0.32314999999999999 2.4063700000000003 5.9486050000000015
decision_type=2 2 2 2 2 2 2 2 2 2 2 2 2 2 2 2 2 2 2 2 2 2 2 2 2 2 2 2 2 2
left_child=1 2 3 5 -5 -1 -7 8 -4 10 11 12 13 -9 18 -16 -17 -18 -12 -20 24 -22 23 -23 -11 -26 27 -27 -28 -24
right_child=-2 -3 7 4 -6 6 -8 9 -10 20 14 -13 -14 -15 15 16 17 -19 19 -21 21 22 29 -25 25 26 28 -29 -30 -31
leaf_value=-0.0028535564939606017 1.2513043400282859e-05 4.5040900952428968e-06 0.0073631187653518289 0.00662072684096459 -0.00023993044736056145 0.0036206591980157397 0.00029658736892738664 0.0077414596086153049 -0.00015357422407936771 -0.00024008072361963919 -0.0015249503185088751 -0.00281910194786625 -0.00052212059583102378 0.0013046375772391913 -0.0016631408237070509 -0.0097242966730846092 -0.00095699467765775312 -0.0073860208869446073 -0.00035088546912778507 0.0057615772610955431 -7.3449376315709233e-05 0.0087560368481717898 -0.0028070565158419348 0.00057476224564280453 -0.00041316719458650314 -0.0031281444392422392 -0.0030882034328856712 -0.012055472592357548 0.0035823273405964882 0.0021186456293958459
leaf_weight=63 95516 111070 38 39 46 37 790 39 206 3763 229 57 57 50 175 20 45 25 55 23 4572 48 54 22 316 62 90 25 28 73
leaf_count=63 95516 111070 38 39 46 37 790 39 206 3763 229 57 57 50 175 20 45 25 55 23 4572 48 54 22 316 62 90 25 28 73
internal_value=0 -9.7873e-06 -0.000153477 0.000446837 0.0029079 0.000211791 0.000445306 -0.00021159 0.00101706 -0.000242093 -0.000996836 0.000870439 0.00231088 0.00412527 -0.00165952 -0.00269151 -0.00469112 -0.00325308 -0.000768717 0.00145151 -0.000177482 2.10115e-05 0.00221327 0.00618478 -0.000398448 -0.00154228 -0.00328276 -0.00569347 -0.00150537 2.42526e-05
internal_weight=0 122117 11047 975 85 890 827 10072 244 9828 775 203 146 89 572 265 90 70 307 78 9053 4769 197 70 4284 521 205 87 118 127
internal_count=217633 122117 11047 975 85 890 827 10072 244 9828 775 203 146 89 572 265 90 70 307 78 9053 4769 197 70 4284 521 205 87 118 127
shrinkage=0.05


Tree=213
num_leaves=31
num_cat=0
split_feature=37 36 5 20 39 29 23 19 37 27 15 23 23 16 28 17 36 8 35 40 11 22 17 10 18 9 30 36 1 9
split_gain=0.00968711 0.098752 0.132081 0.209155 0.512664 0.213372 0.181387 0.152932 0.16271 0.169806 0.201047 0.236767 0.160885 0.224839 0.131045 0.213131 0.495496 0.352941 0.582842 0.221238 0.408565 0.485324 0.382947 0.468719 0.339432 0.384266 0.338744 0.440186 0.245805 0.240778
threshold=0.27484500000000006 -0.018010000000000078 9.0806150000000018e-06 -17.289999999999996 4.9203450000000002 0.00015643550000000002 -0.0011493749999999998 3.0676500000000004 0.078754999999999922 0.00035776800000000006 -6.0366299999999997e-07 7.0577250000000016e-05 -2.2730149999999994e-05 1.8317000000000004e-07 0.31163200000000008 -4.8420449999999997 -0.079468000000000025 3.4769000000000005e-05 0.0066980350000000006 -0.68809499999999957 0.0013551600000000002 3.0293700000000006 0.6143630000000001 3.081705000000001e-05 -9.6904849999999971 1.6172700000000005e-05 0.33174250000000005 -0.10081500000000009 -4.6697349999999984 3.3947450000000005e-06
decision_type=2 2 2 2 2 2 2 2 2 2 2 2 2 2 2 2 2 2 2 2 2 2 2 2 2 2 2 2 2 2
left_child=1 2 3 4 -1 6 -5 8 9 -8 11 -11 13 -12 -4 16 17 18 -16 24 21 -21 23 -22 25 -17 29 -28 -25 -23
right_child=-2 -3 14 5 -6 -7 7 -9 -10 10 12 -13 -14 -15 15 19 -18 -19 -20 20 22 26 -24 28 -26 -27 27 -29 -30 -31
leaf_value=0.0081063802871383442 1.1835289590979544e-05 4.2788854184325806e-06 -0.00013847271107142681 -0.0026854735052961104 -0.00077251020413707412 -0.0048970693826413487 0.00026740676405218738 -0.0036943931862922566 -5.6688937185619451e-08 -0.0029655304790207151 0.010091581707820298 0.0026582063604422969 0.0008661650814642401 0.0035115623100962796 0.0095516244030670466 -0.00029397423322154013 -0.0025447487041154611 0.00011829188540951723 0.0010237036953399451 -0.009567647412859516 0.0053589648891757373 -0.003198940589436461 -0.0026092212145577315 -0.0037724181808099695 -0.00088135113429357946 0.0067452499681773291 -0.0010530710712456229 -0.011302187503024471 0.0017367504850699335 0.0031902381901404465
leaf_weight=29 96350 111070 8004 47 37 20 150 21 432 27 20 61 23 37 33 47 91 116 51 32 44 30 139 41 537 33 22 20 40 29
leaf_count=29 96350 111070 8004 47 37 20 150 21 432 27 20 61 23 37 33 47 91 116 51 32 44 30 139 41 537 33 22 20 40 29
internal_value=0 -9.40223e-06 -0.000158189 0.000418817 0.00312882 0.00020538 0.000330134 0.000513965 0.000631799 0.00149017 0.00258192 0.000932742 0.00439602 0.00582034 -0.000214222 -0.00067882 0.00051396 0.00190567 0.00437396 -0.00102113 -0.00194185 -0.00420171 -0.000803358 0.00120476 -0.000428702 0.00260971 -0.00250161 -0.0059336 -0.00105184 -5.84968e-05
internal_weight=0 121283 10213 904 66 838 818 771 750 318 168 88 80 57 9309 1305 291 200 84 1014 397 133 264 125 617 80 101 42 81 59
internal_count=217633 121283 10213 904 66 838 818 771 750 318 168 88 80 57 9309 1305 291 200 84 1014 397 133 264 125 617 80 101 42 81 59
shrinkage=0.05


Tree=214
num_leaves=31
num_cat=0
split_feature=37 37 33 3 6 21 39 6 36 3 26 30 20 23 26 36 18 11 3 33 39 11 14 19 4 34 25 4 4 39
split_gain=0.00903632 0.112185 0.119546 0.226636 0.297873 0.138469 0.163798 0.283408 0.274966 0.114946 0.329342 0.414863 0.365395 0.560024 0.268021 0.197 0.490095 0.454703 0.746891 0.245991 0.470186 0.347204 0.319748 0.34096 0.331748 0.537617 0.369094 0.265324 0.262713 0.262458
threshold=-0.35786749999999995 -0.026150000000000003 -2.7510949999999998e-05 -8.7018349999999973 -3.7361699999999995e-07 -1.1409399999999998 2.7388300000000005 -4.0493649999999993e-07 0.14973499999999998 -13.614249999999998 0.049175850000000007 2.6849000000000003 -11.167499999999999 -0.00024772449999999996 -0.24353549999999999 0.077348000000000056 10.697700000000001 0.00020887000000000002 -6.2207449999999991 -4.0145249999999993e-08 0.23546500000000006 0.0022103100000000005 5.6509050000000009e-08 -2.6579249999999996 -0.11001949999999998 -0.0016790549999999998 -0.013848249999999998 -0.68745799999999979 0.57834950000000018 0.35261000000000037
decision_type=2 2 2 2 2 2 2 2 2 2 2 2 2 2 2 2 2 2 2 2 2 2 2 2 2 2 2 2 2 2
left_child=-1 2 3 4 -2 6 7 -4 -9 10 14 12 13 -12 -7 16 19 18 -18 20 21 -11 23 -21 27 28 -27 -24 -26 -22
right_child=1 -3 5 -5 -6 9 -8 8 -10 15 11 -13 -14 -15 -16 -17 17 -19 -20 22 29 -23 24 -25 25 26 -28 -29 -30 -31
leaf_value=1.1803554959445835e-05 -0.0010229089111089707 6.7338041296270592e-06 0.0010450248626574618 -0.0010933639696896684 0.0067101494005218035 -0.004512215613976878 -0.00026464596087954101 -0.0086124747068554702 -0.0019215423240572873 0.0021705865049484346 -0.00054748216001638053 0.0070581926070657141 -0.0015892352456123465 0.0099000147888032002 0.00011002947177560869 -9.6419416323922547e-05 -0.014607759586180605 -0.0014033167197148465 -0.0015655414049473148 -0.0084224847650726919 -0.0049525005573004084 -0.0010614059312826743 -0.002795352372344068 -0.0019329053995232231 0.003076167676772457 -0.0062748197338331245 -0.0015035077670525485 0.0020361329641999312 -0.0016882694387320607 -0.00058239668355223966
leaf_weight=92918 20 112638 29 43 33 32 129 28 34 322 29 37 63 23 1573 7928 21 76 23 22 37 112 34 253 93 46 341 173 42 481
leaf_count=92918 20 112638 29 43 33 32 129 28 34 322 29 37 63 23 1573 7928 21 76 23 22 37 112 34 253 93 46 341 173 42 481
internal_value=0 -8.79415e-06 -0.000153618 0.00160377 0.00379201 -0.000167699 -0.00141052 -0.0030349 -0.00494325 -0.000144451 0.000228537 0.00245299 0.000971318 0.00407353 1.78726e-05 -0.000209959 -0.000643554 -0.00374519 -0.00779024 -0.00045327 0.000122559 0.00133652 -0.000999275 -0.00245207 -0.000451238 -0.00112291 -0.00207064 0.00124256 0.0015939 -0.000894547
internal_weight=0 124715 12077 96 53 11981 220 91 62 11761 1757 152 115 52 1605 10004 2076 120 44 1956 952 434 1004 275 729 522 387 207 135 518
internal_count=217633 124715 12077 96 53 11981 220 91 62 11761 1757 152 115 52 1605 10004 2076 120 44 1956 952 434 1004 275 729 522 387 207 135 518
shrinkage=0.05


Tree=215
num_leaves=31
num_cat=0
split_feature=26 1 9 9 36 3 0 18 20 36 36 0 9 9 6 36 10 17 13 29 9 0 17 35 20 9 2 17 0 27
split_gain=0.00941034 0.0698916 0.0658187 0.373923 0.268066 0.195273 0.307678 0.243954 0.245066 0.259241 0.490986 0.109368 0.0793616 0.102853 0.134433 0.226922 0.0881921 0.08779 0.0749501 0.0658556 0.0421999 0.063721 0.0426821 0.0390895 0.0380525 0.0359556 0.0755445 0.0874752 0.193731 0.030268
threshold=-0.58729449999999994 -14.712749999999998 9.9230750000000009e-05 0.00012039000000000002 0.077348000000000056 -11.746199999999998 5.616200000000001 -8.2769249999999985 -10.151399999999999 -0.32870999999999989 0.077348000000000056 4.3023300000000004 7.0554250000000006e-05 4.8912350000000013e-05 6.1484100000000015e-08 0.43531000000000003 -4.2631049999999996e-05 3.7530200000000007 1.8037350000000004e-08 0.00058287550000000012 3.2725900000000011e-05 5.3241200000000006 -5.7563499999999985 0.053913100000000005 -9.6131449999999976 1.6172700000000005e-05 1.1481900000000003 19.256550000000001 8.9117650000000008 0.019658500000000006
decision_type=2 2 2 2 2 2 2 2 2 2 2 2 2 2 2 2 2 2 2 2 2 2 2 2 2 2 2 2 2 2
left_child=1 -1 12 4 -4 6 7 11 9 -9 -11 -5 13 20 15 -15 -16 18 -14 -19 25 -22 -23 -24 -25 -3 27 29 -29 -27
right_child=-2 2 3 5 -6 -7 -8 8 -10 10 -12 -13 17 14 16 -17 -18 19 -20 -21 21 22 23 24 -26 26 -28 28 -30 -31
leaf_value=0.0030286256669205614 -1.329044398190849e-06 -6.5558405886169291e-05 0.0070165373412439504 -0.00023904251315600604 0.00010615749228948159 -0.00072698838845962344 0.0067028079217340318 -0.00081255881884135313 -0.00045721958051217373 0.011606144059915096 0.0018825661259659289 -0.0051701635865769773 -0.00082090058604080698 0.00589257425542173 0.0026015964463440471 -0.00057708575249821681 -0.00091626503805943482 -0.0017089966556662094 -0.0049653016589218174 0.001477420500258074 0.00036379687661504552 -0.0036088874949928144 -0.0025604460118241455 -0.0011850151874629473 0.0014361659138739926 -0.0019649268646229636 0.0031024873051837161 -0.00025753445707713197 0.0058170960794779519 9.465672775057898e-07
leaf_weight=20 214134 2171 36 23 23 295 23 25 80 20 37 22 20 33 25 23 62 34 24 31 75 20 30 45 20 22 26 35 21 178
leaf_count=20 214134 2171 36 23 23 295 23 25 80 20 37 22 20 33 25 23 62 34 24 31 75 20 30 45 20 22 26 35 21 178
internal_value=0 8.13357e-05 6.43924e-05 0.000548604 0.00432266 0.000124472 0.00121656 0.000606979 0.00151164 0.00343249 0.00529435 -0.00264981 -3.32862e-05 1.84952e-05 0.00132457 0.00323539 9.46147e-05 -0.0013568 -0.00308148 -0.000189321 -5.21702e-05 -0.000770046 -0.00150951 -0.00106753 -0.000378498 3.43367e-06 0.000534575 0.000273771 0.00202045 -0.0002153
internal_weight=0 3499 3479 584 59 525 230 207 162 82 57 45 2895 2786 143 56 87 109 44 65 2643 190 115 95 65 2453 282 256 56 200
internal_count=217633 3499 3479 584 59 525 230 207 162 82 57 45 2895 2786 143 56 87 109 44 65 2643 190 115 95 65 2453 282 256 56 200
shrinkage=0.05


Tree=216
num_leaves=31
num_cat=0
split_feature=26 1 9 9 3 3 0 1 35 36 9 9 4 9 23 17 13 29 14 39 9 0 36 36 5 39 9 14 16 13
split_gain=0.00849283 0.0630772 0.0594013 0.337466 0.257597 0.176234 0.277679 0.197007 0.293104 0.206556 0.0716238 0.0928246 0.198954 0.113736 0.143141 0.0792304 0.0676424 0.0594346 0.0512616 0.0468269 0.0380854 0.0575082 0.0396925 0.101223 0.03626 0.0332415 0.0324499 0.0735451 0.17395 0.0476941
threshold=-0.58729449999999994 -14.712749999999998 9.9230750000000009e-05 0.00012039000000000002 -8.4058999999999973 -11.746199999999998 5.616200000000001 -1.5747349999999998 0.34276850000000003 -0.14969009999999991 7.0554250000000006e-05 4.8912350000000013e-05 -0.54650249999999989 5.8604700000000005e-05 0.0085896400000000008 3.7530200000000007 1.8037350000000004e-08 0.00058287550000000012 -1.7488149999999997e-06 1.3507450000000001 3.2725900000000011e-05 5.3241200000000006 -0.10081500000000009 0.24966499999999994 2.1459700000000004e-05 3.3691350000000004 1.6172700000000005e-05 4.6606600000000007e-08 1.2683350000000002e-07 8.0155350000000022e-06
decision_type=2 2 2 2 2 2 2 2 2 2 2 2 2 2 2 2 2 2 2 2 2 2 2 2 2 2 2 2 2 2
left_child=1 -1 10 4 -4 6 7 9 18 -5 11 20 -13 -14 19 16 -12 -17 -9 -15 26 -22 25 -24 -20 -23 -3 28 -28 -29
right_child=-2 2 3 5 -6 -7 -8 8 -10 -11 15 12 13 14 -16 17 -18 -19 24 -21 21 22 23 -25 -26 -27 27 29 -30 -31
leaf_value=0.0028771943567971903 -1.2625919646398195e-06 -6.2280487514671299e-05 0.0065625482694533846 0.00010222246173102639 -0.00033770077750973761 -0.00069063897189014338 0.0063676675256473291 0.00230950813811037 0.0058588005357545206 -0.0056330518890172245 -0.00077985556767089291 0.0052145999236157745 -0.0012478597238311654 0.0019170454257982786 -0.0014699347769021104 -0.0016235467789502925 -0.0047170365282606028 0.0014035494740446373 -0.0014501328450933215 0.0053385527303908024 0.00034560703336713539 0.00094000837072962895 -0.0044395739200589219 -0.00057975117993120837 0.0011641978496863018 -0.0017948294561938383 0.00572944491267706 -0.00015361238498371677 0.00013346311903527437 0.0024072361147773336
leaf_weight=20 214134 2171 38 73 21 295 23 23 34 20 20 26 56 20 21 34 24 31 36 20 75 25 29 41 21 20 21 200 41 20
leaf_count=20 214134 2171 38 73 21 295 23 23 34 20 20 26 56 20 21 34 24 31 36 20 75 25 29 41 21 20 21 200 41 20
internal_value=0 7.72689e-05 6.11728e-05 0.000521174 0.00410653 0.000118248 0.00115573 0.00057663 0.00196984 -0.00113117 -3.16219e-05 1.75704e-05 0.00125834 0.000379173 0.00187284 -0.00128896 -0.00292741 -0.000179855 0.000317026 0.0036278 -4.95617e-05 -0.000731544 -0.00143403 -0.00217882 -0.000486958 -0.000275475 3.26198e-06 0.000507846 0.00202888 7.9192e-05
internal_weight=0 3499 3479 584 59 525 230 207 114 93 2895 2786 143 117 61 109 44 65 80 40 2643 190 115 70 57 45 2453 282 62 220
internal_count=217633 3499 3479 584 59 525 230 207 114 93 2895 2786 143 117 61 109 44 65 80 40 2643 190 115 70 57 45 2453 282 62 220
shrinkage=0.05


Tree=217
num_leaves=31
num_cat=0
split_feature=36 18 23 36 36 5 28 29 23 23 36 34 4 15 29 6 6 7 18 10 36 24 3 39 14 6 39 5 6 19
split_gain=0.00846779 0.360655 0.0218192 0.00920605 0.0812995 0.126046 0.204695 0.346582 0.21785 0.137053 0.133264 0.250388 0.257079 0.184867 0.149567 0.148137 0.13403 0.129003 0.456367 0.552184 0.19755 0.397335 0.485381 0.553586 0.361236 0.294931 0.577668 0.250601 0.237836 0.26276
threshold=5.6762150000000009 4.4724750000000002 -0.0037174099999999996 -0.30278099999999991 -0.018010000000000078 9.0806150000000018e-06 0.56648000000000021 -4.7009049999999996e-07 -0.00043562299999999995 -0.00022275099999999995 -0.058960000000000005 -7.6959649999999998e-05 1.0000000180025095e-35 -5.1821499999999985e-07 -5.4458249999999988e-06 3.8272700000000001e-07 8.812610000000001e-08 1.6205550000000003e-05 -12.635299999999999 -1.3758149999999998e-05 -0.10081500000000009 2.2852800000000006 -13.243349999999998 -0.19603999999999996 3.8904150000000004e-07 1.9804200000000007e-06 0.97785500000000003 1.0508700000000002e-05 6.0096700000000009e-07 -2.6823499999999991
decision_type=2 2 2 2 2 2 2 2 2 2 2 2 2 2 2 2 2 2 2 2 2 2 2 2 2 2 2 2 2 2
left_child=3 2 -2 -1 5 6 8 -8 -5 -10 -11 13 -13 -12 -15 -14 -16 20 19 -19 -7 -22 23 -23 25 27 -27 -24 29 -29
right_child=1 -3 -4 4 -6 17 7 -9 9 10 11 12 15 14 16 -17 -18 18 -20 -21 21 22 24 -25 -26 26 -28 28 -30 -31
leaf_value=1.0993805452342706e-05 0.0015910559835555478 0.0067923593893647188 -4.0939104959347504e-05 -0.0026538525581708246 3.2429441473723591e-06 -0.00011002035163216575 0.0062159903717633243 -0.00019125329957689799 0.0033704822557361646 -0.00019708884226881556 -0.00049149630743029 0.0012104160632245694 -0.00073426160635426643 0.0070984900054413477 -0.00023346274924140585 -0.0065075434696336741 0.0048775793657365165 0.0098459428059868518 -2.9585633701065495e-05 -0.00027318651721413645 -0.00033616372590248092 -0.0030571200780302159 -0.0061895116042621715 -0.012682878496125342 0.00045571159106295593 -0.011913319507783111 -0.0009047265357926686 0.0031606730908843813 0.0026907899483506171 -0.0025711994634405651
leaf_weight=95435 21 20 828 63 110201 3846 39 46 37 531 28 106 25 29 23 20 29 26 3860 28 1841 59 27 20 186 22 26 23 35 153
leaf_count=95435 21 20 828 63 110201 3846 39 46 37 531 28 106 25 29 23 20 29 26 3860 28 1841 59 27 20 186 22 26 23 35 153
internal_value=0 0.000155767 -5.71735e-07 -6.24466e-07 -9.76317e-06 -0.000138563 0.000404158 0.00274854 0.000180507 0.000396165 0.000257038 0.0011845 -0.000133797 0.00301077 0.00422144 -0.00330016 0.00261693 -0.00019074 3.42731e-05 0.00459899 -0.000331923 -0.000688711 -0.00186664 -0.00549402 -0.00125951 -0.00237501 -0.00595033 -0.00165394 -0.00107356 -0.00182215
internal_weight=0 869 849 216764 121329 11128 976 85 891 828 791 260 151 109 81 45 52 10152 3914 54 6238 2392 551 79 472 286 48 238 211 176
internal_count=217633 869 849 216764 121329 11128 976 85 891 828 791 260 151 109 81 45 52 10152 3914 54 6238 2392 551 79 472 286 48 238 211 176
shrinkage=0.05


Tree=218
num_leaves=31
num_cat=0
split_feature=37 18 23 4 4 9 31 19 0 17 39 21 19 4 8 1 36 15 20 33 3 36 37 1 4 39 40 39 16 33
split_gain=0.00841057 0.31877 0.00927255 0.0642016 0.0879858 0.195406 0.50553 0.415655 0.177519 0.217113 0.151004 0.155605 0.175132 0.121245 0.0631901 0.139739 0.199572 0.0672601 0.0649296 0.0617986 0.103273 0.0545639 0.445012 0.218244 0.275965 0.185416 0.370138 0.335713 0.317938 0.265994
threshold=5.6849350000000003 -3.7984549999999992 0.0020748500000000005 -0.12727799999999997 -1.4133199999999999 -6.4452949999999984e-05 0.14260400000000004 1.8035450000000004 7.6220800000000013 16.002400000000005 1.0196000000000003 -0.53669549999999988 -0.18541999999999997 -0.81164199999999986 5.6008650000000008e-05 1.3938950000000003 -1.1055550000000001 -0.00078172349999999986 -7.8621049999999988 -6.2538149999999987e-05 -11.101149999999999 -0.22452634999999985 -0.33012499999999995 10.651350000000003 0.20333750000000003 -2.7066499999999998 -0.89938499999999999 -0.41630000000000006 0.00014657100000000002 6.9448750000000015e-05
decision_type=2 2 2 2 2 2 2 2 2 2 2 2 2 2 2 2 2 2 2 2 2 2 2 2 2 2 2 2 2 2
left_child=2 -2 -1 4 19 6 -6 13 14 10 11 12 -10 -8 17 16 -16 -7 -17 20 -4 -5 -23 25 -25 29 -27 -28 -29 -24
right_child=1 -3 3 21 5 8 7 -9 9 -11 -12 -13 -14 -15 15 18 -18 -19 -20 -21 -22 22 23 24 -26 26 27 28 -30 -31
leaf_value=1.4398876006691944e-06 0.0049006072804331779 -4.0243849184912256e-05 0.0042337784243067118 1.055073323026121e-05 -0.00023426202255673857 0.0019333643735860409 0.0048528078371666864 0.0094441862932721828 0.0013309850266927648 0.0051121064899207064 -0.0004558663020749218 0.0001323707404512318 0.0065036333023696588 -0.00010737185884863721 3.8553163872363618e-05 -0.0028944064409006389 0.0068678385383827839 -0.00029746014239640694 0.00092778815742349256 -0.000235041910806657 -0.00022581829929121716 5.3212677145140793e-06 -0.001274816961134941 -0.0016221639765056106 0.0054243101483734792 -0.0012614203899122206 -0.0023375521861959863 -0.0043681843496046532 -0.011757419375301954 0.0051064798521110793
leaf_weight=208533 34 819 21 2572 118 35 22 31 36 33 122 58 30 28 23 20 20 976 25 1268 34 2226 89 33 24 243 79 37 24 20
leaf_count=208533 34 819 21 2572 118 35 22 31 36 33 122 58 30 28 23 20 20 976 25 1268 34 2226 89 33 24 243 79 37 24 20
internal_value=0 0.000156695 -6.16574e-07 -5.26161e-05 0.000136815 0.000389071 0.00185368 0.00489537 0.000177564 0.00130389 0.000793034 0.00202179 0.00368219 0.00207511 -0.000108374 0.00117671 0.00321496 -0.000220231 -0.000770965 -0.000163871 0.00147694 -0.000155356 -0.000309126 -0.0015841 0.00134477 -0.00192342 -0.00244123 -0.00448905 -0.00727542 -0.000103937
internal_weight=0 853 216780 8247 2900 1577 199 81 1378 279 246 124 66 50 1099 88 43 1011 45 1323 55 5347 2775 549 57 492 383 140 61 109
internal_count=217633 853 216780 8247 2900 1577 199 81 1378 279 246 124 66 50 1099 88 43 1011 45 1323 55 5347 2775 549 57 492 383 140 61 109
shrinkage=0.05


Tree=219
num_leaves=31
num_cat=0
split_feature=17 39 3 0 3 10 18 8 2 36 37 17 35 12 3 18 18 2 8 3 39 11 9 18 7 20 3 26 5 8
split_gain=0.00838567 0.0457218 0.123257 0.373173 0.268991 0.491775 0.417022 0.308176 0.193691 0.18786 0.244226 0.434391 0.631368 0.181993 0.158392 0.0756406 0.053724 0.227685 0.183019 0.452124 0.0866446 0.0836714 0.0532382 0.0645478 0.0492152 0.140907 0.355922 0.0439342 0.120902 0.255779
threshold=-8.0887399999999996 -0.026199999999999776 -8.4058999999999973 -3.5052499999999998 -12.203099999999997 2.1772650000000002e-05 -0.091024949999999979 3.5625200000000006e-05 3.0333000000000006 0.1751400000000001 0.19792950000000006 -10.065 0.011984750000000001 3.8317400000000007e-07 -9.9050449999999977 2.8823700000000003 -9.1109899999999975 -1.4562349999999997 6.4420400000000024e-05 -5.6211599999999988 0.47541999999999979 0.0010587900000000002 -2.7825149999999999e-05 -1.4816349999999998 -4.4425899999999991e-05 -8.9454249999999984 -9.949049999999998 0.0014605350000000002 1.1571150000000002e-05 2.0063250000000001e-05
decision_type=2 2 2 2 2 2 2 2 2 2 2 2 2 2 2 2 2 2 2 2 2 2 2 2 2 2 2 2 2 2
left_child=1 24 3 4 5 6 -3 -7 9 10 11 12 -6 14 -13 22 17 18 19 20 -4 -22 23 -16 25 26 -1 28 -26 -30
right_child=-2 2 16 -5 8 7 -8 -9 -10 -11 -12 13 -14 -15 15 -17 -18 -19 -20 -21 21 -23 -24 -25 27 -27 -28 -29 29 -31
leaf_value=-0.00077895915098016985 -3.6901659828257842e-06 0.0029629718593281252 0.0038652208718793612 -0.00014797687737831699 0.01081143749496815 0.0049376596176963564 0.012591954667798498 -0.0031383770737900504 0.005503121434301885 -0.00061685217651330504 6.784894953658035e-05 0.0051574895349663814 0.00027731317363213748 -0.0032881316012935719 0.003278804291621782 0.0035922565363580364 1.3132705995369568e-05 -0.00018857355035967177 -0.00057425681710229683 0.0089787124883094725 -0.00091069845467245619 0.0030501578101029738 -0.0016938507656539933 -0.00046887934602434851 -0.00065484286179783588 -0.00015268557517538565 -0.0080058278370415802 -2.0752805325634684e-05 0.0041271895022224015 0.00035252360724781582
leaf_weight=115 190678 23 26 895 33 21 22 27 23 160 175 28 25 20 20 20 10451 335 45 26 40 20 26 27 150 1304 20 12596 56 226
leaf_count=115 190678 23 26 895 33 21 22 27 23 160 175 28 25 20 20 20 10451 335 45 26 40 20 26 27 150 1304 20 12596 56 226
internal_value=0 2.6104e-05 9.61938e-05 0.000514249 0.00142608 0.00391533 0.00767047 0.000394889 0.00101046 0.000816959 0.00143035 0.00262854 0.00627087 0.00113027 0.00186059 0.000867972 3.71702e-05 0.000547772 0.00211895 0.00320105 0.00145431 0.000409587 0.000121592 0.00112588 -3.43979e-05 -0.000311882 -0.00184961 -3.74853e-06 0.000492052 0.0011021
internal_weight=0 26955 12488 1545 650 93 45 48 557 534 374 199 58 141 121 93 10943 492 157 112 86 60 73 47 14467 1439 135 13028 432 282
internal_count=217633 26955 12488 1545 650 93 45 48 557 534 374 199 58 141 121 93 10943 492 157 112 86 60 73 47 14467 1439 135 13028 432 282
shrinkage=0.05


Tree=220
num_leaves=31
num_cat=0
split_feature=20 0 17 32 19 0 13 13 33 33 12 13 28 36 3 6 15 15 23 1 28 8 24 11 16 11 13 0 13 29
split_gain=0.00824007 0.0327109 0.117006 0.0203673 0.0177661 0.0141705 0.0232126 0.0492401 0.0408914 0.0185158 0.0215038 0.0180962 0.0575022 0.189732 0.0330157 0.0532622 0.0156916 0.094254 0.0190264 0.0144125 0.0536504 0.0134116 0.0116402 0.0357696 0.166612 0.0393492 0.108198 0.260378 0.0990092 0.0238888
threshold=-5.9633049999999992 -10.400999999999998 -12.464199999999998 -0.0011580799999999999 2.2495850000000002 6.0594650000000003 1.5710250000000004e-05 5.8204250000000011e-06 9.5974100000000018e-07 9.0597550000000005e-07 -1.8360349999999999e-07 6.4843700000000005e-08 -3.4807049999999995 -0.43704099999999996 -6.3074049999999993 3.1919750000000004e-07 -0.00025226399999999993 -0.00059694499999999988 -0.0064295099999999985 12.027950000000002 -0.12163499999999998 1.6779400000000001e-05 91.481750000000019 0.022777000000000002 0.0035512250000000003 0.0011235450000000003 6.5238050000000013e-06 -2.9082999999999997 3.6544900000000005e-06 0.00038371750000000001
decision_type=2 2 2 2 2 2 2 2 2 2 2 2 2 2 2 2 2 2 2 2 2 2 2 2 2 2 2 2 2 2
left_child=22 2 -2 -3 -4 11 7 9 -8 -7 -11 19 13 -13 16 -16 17 18 -14 -5 -21 -20 -1 25 -25 26 28 -28 -24 -26
right_child=1 3 4 5 -6 6 8 -9 -10 10 -12 12 14 -15 15 -17 -18 -19 21 20 -22 -23 23 24 29 -27 27 -29 -30 -31
leaf_value=-1.3725201291132596e-07 0.0040778976558889868 0.001555437411364189 5.1680803552721404e-06 5.3346726919114321e-06 0.001547884941630235 1.2108383613483461e-05 7.8072578849350201e-06 0.0018369199790399195 -0.0022315583851460967 -0.0017381091327277117 -0.00029447498527588326 -0.00050056735681209836 -0.001410326613196438 0.0057074313299381174 2.323087316059313e-06 0.0024466891939552557 -0.00012361959031433365 0.003575262187606162 0.0014032117172945392 -0.0029149699206845979 0.00023142169186376991 -2.5388811672739754e-05 -7.7572068241675679e-05 0.0035966911023881821 0.00040499874276311198 -0.00065885147017786844 -0.0014308252937293479 0.0065406657230778365 -0.0035680562950888305 -0.0008570905442722602
leaf_weight=213944 23 22 123 875 22 313 47 32 36 36 91 32 21 20 52 39 443 21 20 20 42 92 624 35 74 396 21 20 21 76
leaf_count=213944 23 22 123 875 22 313 47 32 36 36 91 32 21 20 52 39 443 21 20 20 42 92 624 35 74 396 21 20 21 76
internal_value=0 9.17103e-05 0.000764767 4.15446e-05 0.000239235 2.66228e-05 -0.000192373 -5.6775e-05 -0.000963484 -0.000194498 -0.000703694 9.90989e-05 0.00028392 0.00188712 0.000162748 0.00104991 2.75186e-05 0.000462286 -2.92361e-05 -4.68643e-05 -0.000783543 0.000229718 -1.03211e-06 -0.000152137 0.000490353 -0.00026199 -3.28982e-05 0.00245771 -0.000191216 -0.00023446
internal_weight=0 2422 168 2254 145 2232 555 472 83 440 127 1677 740 52 688 91 597 154 133 937 62 112 215211 1267 185 1082 686 41 645 150
internal_count=217633 2422 168 2254 145 2232 555 472 83 440 127 1677 740 52 688 91 597 154 133 937 62 112 215211 1267 185 1082 686 41 645 150
shrinkage=0.05


Tree=221
num_leaves=31
num_cat=0
split_feature=31 12 12 37 37 31 39 39 4 9 4 9 12 18 15 5 16 17 39 15 39 39 4 21 39 39 23 37 5 4
split_gain=0.00810297 0.219407 0.214585 0.148069 1.19328 1.06918 1.33335 1.13576 0.918947 1.00653 0.828992 0.507663 0.838818 0.455078 0.444046 0.300488 0.292325 0.29147 0.283331 0.506282 1.26602 1.06955 0.222565 0.281913 0.766075 1.33416 0.202514 0.199372 0.197875 0.190983
threshold=1.8741500000000003e-05 -3.1922299999999996e-08 -3.0013349999999998e-08 0.19792950000000006 -0.15132349999999997 -0.0054261899999999983 1.8568299999999998 -1.4591200000000002 0.14503350000000001 1.6735200000000005e-05 1.8987000000000003 -0.00019804799999999998 1.9390250000000003e-07 -1.8600249999999996 -0.00011261149999999999 1.0064400000000003e-05 3.3848150000000009e-05 3.0677450000000004 1.3091549999999998 1.4722200000000002e-07 -0.77143500000000065 0.39187000000000044 -0.10392349999999999 0.11888900000000001 0.80790999999999979 -0.5126099999999999 0.00010195250000000001 -0.057539999999999918 1.2583550000000001e-05 0.43776750000000003
decision_type=2 2 2 2 2 2 2 2 2 2 2 2 2 2 2 2 2 2 2 2 2 2 2 2 2 2 2 2 2 2
left_child=1 -1 -2 4 -3 6 7 -6 9 11 13 -9 15 -10 -14 -13 17 22 19 26 -21 -22 23 -7 25 -25 -19 -11 -17 -24
right_child=2 3 -4 -5 5 16 -8 8 10 27 -12 12 14 -15 -16 28 -18 18 -20 20 21 -23 29 24 -26 -27 -28 -29 -30 -31
leaf_value=6.6799786708691378e-05 -6.8658226353101958e-05 -1.4644492178477406e-05 7.3510262108080743e-05 1.6276227655328648e-07 -0.0011635457826817009 -0.00035149645776159775 -0.00049077355010409727 0.00035532033303752541 -0.00848813627592542 -0.0052138623036444192 -0.0035432743952320566 0.0002825387759367004 -0.0077218591593555186 -0.017829784503192059 -0.017476488518462115 -0.010556464873000304 -4.087008228666953e-05 0.00035645498496973341 -0.00024087661055542165 -0.00029262814853306434 -0.016440405565149644 -0.003244247166211218 -0.00010445761084797877 -0.0015408644871786237 -0.0004362079151443747 -0.016846802920917982 -0.0049320892075427215 0.00030515860720899785 -0.0045050480381386088 -0.0043707044303527322
leaf_weight=50806 48106 23619 59211 31317 218 168 541 20 22 20 29 20 20 32 28 22 1863 85 117 60 34 28 923 35 90 24 23 90 35 27
leaf_count=50806 48106 23619 59211 31317 218 168 541 20 22 20 29 20 20 32 28 22 1863 85 117 60 34 28 923 35 90 24 23 90 35 27
internal_value=0 -9.51579e-06 9.78171e-06 -7.46694e-05 -0.000157793 -0.000896979 -0.00225794 -0.00397743 -0.00579231 -0.00430492 -0.010362 -0.00704097 -0.00822438 -0.0140239 -0.0134121 -0.0049905 -0.000467593 -0.000960148 -0.00224407 -0.00326309 -0.00547025 -0.0104809 -0.000608514 -0.00175572 -0.00333901 -0.00776701 -0.000769809 -0.0006983 -0.00684068 -0.000225709
internal_weight=0 110316 107317 59510 28193 4574 1097 556 338 255 83 145 125 54 48 77 3477 1614 347 230 122 62 1267 317 149 59 108 110 57 950
internal_count=217633 110316 107317 59510 28193 4574 1097 556 338 255 83 145 125 54 48 77 3477 1614 347 230 122 62 1267 317 149 59 108 110 57 950
shrinkage=0.05


Tree=222
num_leaves=31
num_cat=0
split_feature=18 40 37 36 3 17 4 29 3 25 20 28 1 9 20 29 27 3 39 6 23 20 3 23 3 8 22 18 1 32
split_gain=0.00818842 0.0668784 0.139972 0.295645 0.434587 0.222468 0.129383 0.153488 0.21409 0.0944161 0.0856892 0.0475847 0.0881425 0.204053 0.187424 0.0635403 0.063468 0.0396148 0.0317415 0.0301746 0.114404 0.0753797 0.0332984 0.114377 0.0241382 0.0226426 0.018307 0.0177662 0.13573 0.170228
threshold=13.390900000000002 -0.52047500000000058 0.46135450000000006 0.40779500000000007 -7.8588299999999993 12.319050000000002 -0.13885249999999996 -1.6545349999999999e-05 -5.7548799999999991 1.0121250000000004 -13.08405 -0.44443899999999997 6.2690350000000006 2.4577100000000002e-05 -7.1435249999999995 -1.7351949999999996e-05 0.16934650000000004 -5.946604999999999 0.72566000000000008 -1.1060999999999997e-06 0.0085896400000000008 -8.8365399999999976 -7.7574999999999994 -7.5441249999999975e-05 -17.495099999999997 2.1755500000000002e-05 87.628850000000014 12.474600000000001 10.651350000000003 -0.00097838749999999979
decision_type=2 2 2 2 2 2 2 2 2 2 2 2 2 2 2 2 2 2 2 2 2 2 2 2 2 2 2 2 2 2
left_child=27 2 3 4 -2 6 -6 8 -8 18 -3 12 24 14 -14 25 19 -9 -5 20 22 -21 26 -24 -12 -16 -13 -1 -29 -30
right_child=1 10 -4 9 5 -7 7 17 -10 -11 11 16 13 -15 15 -17 -18 -19 -20 21 -22 -23 23 -25 -26 -27 -28 28 29 -31
leaf_value=7.5979948324741718e-08 0.0074491040118219755 -0.0031277214506743528 -9.8542498533755936e-05 0.0016927002148850079 0.0037642713952144346 0.0059847599280107282 -0.00075618842146704321 -0.0032842546877440157 0.0059750797670511981 0.0032458915807572863 -0.0015450269635290045 -6.7883710777585715e-06 -0.0035940544766263991 -0.006057164937789951 -0.0011733209090380116 0.0030705915226214779 0.0028753585577110893 -0.00071120141146995876 -0.00037300499718092932 -0.0031189628898937376 0.0031781793788000614 -6.3667828453232575e-06 0.0039434830956755233 0.00014865547312760565 -7.3935473781477486e-05 0.0010061723939129893 -0.0013477691366931359 -2.0384084303058092e-05 -0.0054524668424467872 -0.00086369564949819735
leaf_weight=212731 36 23 668 20 28 23 27 21 21 21 29 208 36 21 26 22 21 52 265 20 35 709 24 115 725 22 29 1503 24 128
leaf_count=212731 36 23 668 20 28 23 27 21 21 21 29 208 36 21 26 22 21 52 265 20 35 709 24 115 725 22 29 1503 24 128
internal_value=0 7.8807e-05 0.000378739 0.000999019 0.00245348 0.00140789 0.000701392 -7.37384e-06 0.00218874 1.03641e-05 -9.28733e-05 -5.86904e-05 -0.00033577 -0.00155436 -0.000662297 0.000845464 0.000151565 -0.00145139 -0.000228043 0.00010139 0.000443985 -9.17604e-05 0.000189473 0.000803878 -0.000130516 -0.000174386 -0.000170875 -1.19358e-06 -0.00016438 -0.00158824
internal_weight=0 3247 1182 514 208 172 149 121 48 306 2065 2042 881 127 106 70 1161 73 285 1140 411 729 376 139 754 48 237 214386 1655 152
internal_count=217633 3247 1182 514 208 172 149 121 48 306 2065 2042 881 127 106 70 1161 73 285 1140 411 729 376 139 754 48 237 214386 1655 152
shrinkage=0.05


Tree=223
num_leaves=31
num_cat=0
split_feature=15 21 34 4 37 37 4 22 21 39 4 36 11 39 29 3 14 14 39 33 8 36 15 1 17 29 21 30 4 17
split_gain=0.00785898 0.166375 0.155202 0.135739 0.218825 1.08627 0.487417 0.447699 0.420501 0.377926 0.289697 0.283873 0.313302 0.356036 0.43729 0.331401 0.264588 0.289116 0.257327 0.252659 0.261057 0.248341 0.541741 0.529993 0.419409 0.388882 0.28924 0.287903 0.24832 0.247597
threshold=-1.0730149999999997e-06 -0.092714749999999985 -5.1418699999999989e-05 -1.4133199999999999 -0.25176499999999996 0.14791590000000002 0.019144700000000004 1.0917550000000003 -1.7211949999999998 -4.0456399999999988 -0.58642949999999983 -0.079468000000000025 0.00013551050000000002 2.7930350000000002 2.3224800000000005e-05 -6.3292149999999987 3.1672400000000012e-05 1.5863700000000005e-05 0.68409500000000023 2.9540450000000002e-06 3.0656350000000003e-05 0.077348000000000056 -2.6217499999999998e-05 4.8656050000000013 -2.3663549999999995 1.8894300000000003e-05 -1.0674849999999998 0.4236100000000001 -0.58642949999999983 -6.9945499999999994
decision_type=2 2 2 2 2 2 2 2 2 2 2 2 2 2 2 2 2 2 2 2 2 2 2 2 2 2 2 2 2 2
left_child=1 3 -2 -1 -5 6 7 10 -9 -10 29 19 13 14 -13 21 17 -8 -17 20 -11 26 23 25 -24 -23 -14 -26 -28 -6
right_child=2 -3 -4 4 5 -7 16 8 9 11 -12 12 15 -15 -16 18 -18 -19 -20 -21 -22 22 24 -25 27 -27 28 -29 -30 -31
leaf_value=-2.6389707840110115e-05 5.1533142190467296e-05 -5.2790414471730138e-05 -5.7172496121660993e-05 -6.8753793961250395e-06 -0.0063647507575271337 9.6940319494560464e-06 -0.001591023509099614 -0.0034863135604811962 -0.0011982550780571886 0.0090129502266063349 0.0008848044457482314 0.00392486651010889 0.0065464939323386971 -0.0012024061506963335 0.012427994449223791 0.0016134184930251651 0.001940591204956512 -0.007847159207317005 -0.0045488575028381694 0.0010894162577044751 0.0031858579280811387 0.011778199603036879 0.0052463375138740373 -0.00020530171043771719 0.0013912501633846358 0.0049610505323821252 -0.00054623589737763027 -0.0057256032777432773 0.0017996275136186526 -0.00051306705310582136
leaf_weight=15740 60335 45932 72039 10496 20 9317 115 36 87 40 2002 54 28 20 21 32 42 22 36 35 37 35 31 28 30 52 138 27 618 188
leaf_count=15740 60335 45932 72039 10496 20 9317 115 36 87 40 2002 54 28 20 21 32 42 22 36 35 37 35 31 28 30 52 138 27 618 188
internal_value=0 1.18392e-05 -7.62534e-06 8.73234e-05 0.000163206 0.000299573 0.00101521 0.001142 0.00184683 0.00198915 0.000700284 0.00220889 0.00197486 0.00472508 0.00630574 0.00172721 -0.00153129 -0.00259566 -0.00164896 0.00461182 0.00621292 0.00195981 0.00351845 0.00577794 0.000565712 0.00770358 0.00155624 -0.00197989 0.00137141 -0.00107573
internal_weight=0 85259 132374 39327 23587 13091 3774 3595 1385 1349 2210 1262 1150 95 75 1055 179 137 68 112 77 987 203 115 88 87 784 57 756 208
internal_count=217633 85259 132374 39327 23587 13091 3774 3595 1385 1349 2210 1262 1150 95 75 1055 179 137 68 112 77 987 203 115 88 87 784 57 756 208
shrinkage=0.05


Tree=224
num_leaves=31
num_cat=0
split_feature=37 37 33 3 0 21 39 37 10 16 32 17 3 30 36 32 13 37 13 40 37 21 22 1 36 18 10 21 17 9
split_gain=0.00860362 0.0999732 0.103988 0.196884 0.285219 0.122079 0.153338 0.247203 0.229165 0.162482 0.105741 0.12583 0.112096 0.29539 0.487925 0.577709 0.649782 0.181843 0.415057 0.393777 0.447612 0.393367 0.286497 0.187307 0.17329 0.413114 0.452736 0.469983 0.301367 0.428262
threshold=-0.35786749999999995 -0.026150000000000003 -2.7510949999999998e-05 -8.7018349999999973 -3.0090749999999997 -1.1409399999999998 2.7388300000000005 -0.17681499999999981 2.1335350000000006e-05 0.00055143100000000012 -2.2564299999999995 19.256550000000001 -13.614249999999998 1.9974350000000001 0.077348000000000056 -0.0057319549999999995 6.5238050000000013e-06 -0.078199999999999964 3.9398900000000012e-06 2.5130600000000003 -0.057539999999999918 0.13589850000000001 0.67852800000000013 -4.3929149999999995 0.077348000000000056 10.697700000000001 1.0876550000000002e-05 0.1103785 -11.463149999999997 -2.9434749999999998e-05
decision_type=2 2 2 2 2 2 2 2 2 2 2 2 2 2 2 2 2 2 2 2 2 2 2 2 2 2 2 2 2 2
left_child=-1 2 3 4 -2 6 7 9 -9 -4 -7 12 13 17 -15 -16 -17 -12 19 20 22 -20 -19 -22 25 28 27 -27 29 -14
right_child=1 -3 5 -5 -6 10 -8 8 -10 -11 11 -13 24 14 15 16 -18 18 21 -21 23 -23 -24 -25 -26 26 -28 -29 -30 -31
leaf_value=1.1517487594421921e-05 6.7444100776421171e-05 6.0774790013380223e-06 -0.0037913534638937562 -0.0010201109782386529 0.0074150944091379636 -0.0035997662005353378 -0.00021669900831561121 -0.0093667755125179178 -0.002142458014777335 0.0021546399412693939 -0.00023735263436755954 0.0027052400396804354 -0.0008938550736638717 -0.0038616437803615229 0.0095412825015099619 -0.0035947666425878801 0.0078727303294553654 0.012227756381034852 0.00040330655835402602 -0.00029688948128826575 0.006483121481142007 -0.0061520642234587711 0.0040452649432193974 0.0012503696409852235 -9.7673117650896348e-05 -0.0033653256330580918 0.00019030326363221953 -0.012333523733763114 -0.00054513903672334652 0.0078735552522210556
leaf_weight=92918 28 112638 20 43 25 22 129 21 23 27 1237 39 30 22 34 30 21 20 70 120 20 34 23 118 7886 48 49 21 1891 26
leaf_count=92918 28 112638 20 43 25 22 129 21 23 27 1237 39 30 22 34 30 21 20 70 120 20 34 23 118 7886 48 49 21 1891 26
internal_value=0 -8.58102e-06 -0.000145296 0.00149376 0.00353332 -0.000158429 -0.00132539 -0.00289704 -0.00559043 -0.00037557 -0.0001366 -0.00013011 -0.000139561 0.000229596 0.00277506 0.0044928 0.00112714 6.3722e-05 0.000983301 0.00192417 0.0033967 -0.0017398 0.00785107 0.00200874 -0.000204444 -0.000612192 -0.00348487 -0.00609478 -0.00043809 0.00317673
internal_weight=0 124715 12077 96 53 11981 220 91 44 47 11761 11739 11700 1749 107 85 51 1642 405 301 181 104 43 138 9951 2065 118 69 1947 56
internal_count=217633 124715 12077 96 53 11981 220 91 44 47 11761 11739 11700 1749 107 85 51 1642 405 301 181 104 43 138 9951 2065 118 69 1947 56
shrinkage=0.05


Tree=225
num_leaves=31
num_cat=0
split_feature=37 37 17 1 39 39 26 18 1 3 9 39 15 18 39 8 29 3 7 12 17 31 36 33 30 12 17 36 20 31
split_gain=0.00777789 0.115955 0.104774 0.431276 0.34837 0.175149 0.245954 0.151659 0.144141 0.124748 0.227274 0.260637 0.526179 0.401256 0.44026 0.790981 0.490123 0.403537 0.401509 0.394452 0.354403 0.322514 0.343788 0.304777 0.303808 0.296846 0.25455 0.235195 0.21163 0.207687
threshold=-0.27889399999999981 -0.026150000000000003 -11.463149999999997 4.0814950000000012 1.8131900000000003 0.80790999999999979 0.16279950000000001 -6.9314949999999991 -0.98331399999999991 -13.243349999999998 0.00031228800000000003 -2.5440100000000001 -0.00019488549999999998 -5.0750049999999991 -0.19603999999999996 2.5545350000000001e-05 -3.7334249999999996e-05 -15.867949999999999 -7.5483199999999991e-06 -4.3823949999999997e-07 3.3940200000000007 -0.0023238249999999994 0.12375499999999996 4.1234850000000007e-07 2.6849000000000003 1.6353050000000004e-05 -6.1474899999999986 0.077348000000000056 -13.328949999999997 -0.0011105199999999998
decision_type=2 2 2 2 2 2 2 2 2 2 2 2 2 2 2 2 2 2 2 2 2 2 2 2 2 2 2 2 2 2
left_child=-1 2 3 5 -5 6 -2 -7 -9 10 11 24 19 18 15 21 17 -16 -14 23 26 -15 -23 -13 -4 -21 -18 -17 -12 -28
right_child=1 -3 9 4 -6 7 -8 8 -10 -11 28 12 13 14 16 27 20 -19 -20 25 -22 22 -24 -25 -26 -27 29 -29 -30 -31
leaf_value=1.0687708044042223e-05 -0.00016590950000602432 5.7736049387329291e-06 -0.00028935015194295064 0.0082318740428754915 0.00046328860080393499 0.0049533531836156424 -0.0050444360444971336 -0.0013836488962459209 0.0033707126856315885 -0.00029049523009585707 -0.0039082570535387716 -0.0018935931792516533 0.011590881226584316 0.011863203793340786 0.00049825152661651375 0.0027412887531212504 0.0049031185009516774 -0.0081701649451259 0.0030157932375427768 -0.0088409238411113616 0.004795414231051052 0.0072835660413531726 -0.00059506742880330429 0.0059078010281414864 0.0056664756075902427 -0.0014638164936817098 -0.0050111104837722254 -0.0030934248938231184 -0.00034836274109278405 0.00018309692257308097
leaf_weight=95517 119 112638 801 31 27 24 33 44 25 7599 58 31 20 22 25 31 20 29 43 25 51 45 20 21 22 30 27 39 149 67
leaf_count=95517 119 112638 801 31 27 24 33 44 25 7599 58 31 20 22 25 31 20 29 43 25 51 45 20 21 22 30 27 39 149 67
internal_value=0 -8.35974e-06 -0.000176323 0.000738465 0.00461546 -0.000179355 -0.00122506 0.00152976 0.000338946 -0.000206533 0.000198308 0.000431788 0.0012788 0.0020451 0.00142634 0.00344704 -2.22945e-05 -0.00415701 0.00573804 -0.00186519 0.00133088 0.00663046 0.00485937 0.00125697 -0.000130142 -0.00481705 -0.000219036 -0.00050948 -0.00134582 -0.00130886
internal_weight=0 122116 9478 303 58 245 152 93 69 9175 1576 1369 546 439 376 157 219 54 63 107 165 87 65 52 823 55 114 70 207 94
internal_count=217633 122116 9478 303 58 245 152 93 69 9175 1576 1369 546 439 376 157 219 54 63 107 165 87 65 52 823 55 114 70 207 94
shrinkage=0.05


Tree=226
num_leaves=31
num_cat=0
split_feature=37 18 23 4 4 9 31 29 5 0 17 39 26 15 9 12 33 39 15 26 36 37 29 39 40 3 4 20 4 3
split_gain=0.00765912 0.288646 0.00873762 0.0545443 0.0758054 0.172637 0.442115 0.376094 0.250022 0.155735 0.277077 0.143558 0.149847 0.308318 0.0565432 0.0933315 0.0547637 0.0953465 0.051834 0.109348 0.0476684 0.385535 0.212469 0.188118 0.277534 0.295518 0.195631 0.161396 0.199375 0.137649
threshold=5.6849350000000003 -3.7984549999999992 0.0020748500000000005 -0.12727799999999997 -1.4133199999999999 -6.4452949999999984e-05 0.14260400000000004 8.2405400000000009e-05 2.0003650000000003e-05 6.5600500000000013 16.002400000000005 1.0196000000000003 -0.24353549999999999 -1.9113899999999997e-05 0.00017205800000000003 -9.0272649999999983e-06 -6.2538149999999987e-05 12.579930000000003 -5.8589749999999996e-05 -0.10712749999999999 -0.22452634999999985 -0.30357199999999979 -9.7463599999999976e-06 3.3691350000000004 0.98037999999999992 -7.3156099999999986 0.17779150000000002 -6.6695199999999994 0.41110300000000005 -5.5710999999999995
decision_type=2 2 2 2 2 2 2 2 2 2 2 2 2 2 2 2 2 2 2 2 2 2 2 2 2 2 2 2 2 2
left_child=2 -2 -1 4 16 6 -6 -8 -9 14 11 12 13 -11 15 -7 17 -4 -14 -20 -5 -22 27 24 25 26 -24 29 -29 -23
right_child=1 -3 3 20 5 9 7 8 -10 10 -12 -13 18 -15 -16 -17 -18 -19 19 -21 21 22 23 -25 -26 -27 -28 28 -30 -31
leaf_value=1.4078771379274029e-06 0.0046637311029960127 -3.7871401160974133e-05 -0.00024707010591501944 9.3057123268070366e-06 -0.0002182779322399672 0.0029889057669909864 0.00013661628521125142 0.010120936560366924 0.0030075933872943834 0.0064776202582935288 0.005163690790760558 -0.00052622540168522399 -0.0011313147557578333 -0.0012651671672938394 -0.0024989322331966835 -0.00016702134283521912 -0.00022255776746562639 0.0040379666552845658 0.0041992467283059592 -3.0794489925028759e-05 -5.8115114692731742e-06 -0.0016720698347600337 -0.0048176612505423169 -0.00045167070673501474 -0.0011485689476396 -0.0029389827994262458 -0.011642536845257772 -0.00062538463506855134 0.0055186997127273816 0.0022539295116215589
leaf_weight=208533 34 819 34 2572 118 24 30 30 21 36 37 150 33 20 25 981 1268 21 22 50 2253 158 21 84 87 71 21 31 23 26
leaf_count=208533 34 819 34 2572 118 24 30 30 21 36 37 150 33 20 25 981 1268 21 22 50 2253 158 21 84 87 71 21 31 23 26
internal_value=0 0.000149531 -5.88386e-07 -5.10657e-05 0.000123538 0.000357683 0.00173432 0.00457884 0.00719191 0.00015888 0.00107334 0.000586712 0.00162361 0.00371234 -0.000150085 -9.16559e-05 -0.00015556 0.00138903 0.000509622 0.00126172 -0.000145764 -0.000289489 -0.00151387 -0.00243732 -0.00327129 -0.00490559 -0.0082301 -0.00041194 0.00199154 -0.00111731
internal_weight=0 853 216780 8247 2900 1577 199 81 51 1378 348 311 161 56 1030 1005 1323 55 105 72 5347 2775 522 284 200 113 42 238 54 184
internal_count=217633 853 216780 8247 2900 1577 199 81 51 1378 348 311 161 56 1030 1005 1323 55 105 72 5347 2775 522 284 200 113 42 238 54 184
shrinkage=0.05


Tree=227
num_leaves=31
num_cat=0
split_feature=18 1 31 36 36 4 14 39 40 15 39 3 39 2 36 20 1 21 36 20 27 1 32 14 0 21 0 26 5 39
split_gain=0.00764555 0.0609745 0.120826 0.370313 0.689004 0.123386 0.111155 0.0639556 0.0682083 0.0497519 0.0421766 0.144515 0.338179 0.109676 0.217746 0.0722494 0.0634908 0.124215 0.199369 0.0447714 0.0373362 0.0357319 0.0295473 0.0293756 0.0260019 0.0258763 0.0241481 0.155779 0.0232611 0.0176305
threshold=13.390900000000002 10.154350000000003 0.0080513700000000021 0.2761725000000001 -0.3819765 0.43776750000000003 -4.5397049999999996e-08 0.31279500000000043 -0.7296000000000008 -1.1307749999999999e-07 0.55890500000000032 -7.9686699999999986 0.8945249999999999 1.7176300000000002 0.60008550000000016 -13.08405 6.2690350000000006 0.53020800000000012 0.38220950000000015 -7.2203449999999991 0.16934650000000004 7.2909700000000006 -0.96073299999999995 7.9464600000000009e-08 -0.76533949999999995 1.0406250000000001 8.7505950000000023 -0.28811899999999996 8.1441900000000017e-06 -0.41630000000000006
decision_type=2 2 2 2 2 2 2 2 2 2 2 2 2 2 2 2 2 2 2 2 2 2 2 2 2 2 2 2 2 2
left_child=-1 10 5 4 -4 6 -3 9 -9 -8 15 12 -12 21 -15 -2 20 19 -19 -18 22 -14 24 -11 -17 -5 -24 -28 -13 -21
right_child=1 2 3 25 -6 -7 7 8 -10 23 11 28 13 14 -16 16 17 18 -20 29 -22 -23 26 -25 -26 -27 27 -29 -30 -31
leaf_value=-1.1533333614065473e-06 -0.0029173538272911888 0.0034167654173668581 -0.00080704997642897067 -0.00081106776448602131 0.012160204523908241 -0.0036890197030152194 -0.00061471556383248368 -0.00016558371071490453 -0.0033564431605202574 0.0010174583035140214 0.0071246326149538748 0.0016122097241532175 -0.00018979444936357255 0.0067968459677649673 -0.00014256232887838939 -0.0001408827701445923 -0.0019304974018762421 -0.0066286580404266715 -0.00016138506941318226 -0.00019715034304161074 0.00179188201843223 0.0020726231303706301 -3.9069159384910077e-05 0.0036651148000964896 -0.0026318661507684742 0.0013295550125621957 0.004727153241983615 -0.00010278950698967933 -0.00011695291724592373 0.0011557231323030433
leaf_weight=214386 23 27 20 48 21 20 23 103 20 22 23 20 137 20 26 22 35 22 26 142 29 20 1482 20 20 20 20 101 706 29
leaf_count=214386 23 27 20 48 21 20 23 103 20 22 23 20 137 20 26 22 35 22 26 142 29 20 1482 20 20 20 20 101 706 29
internal_value=0 7.61498e-05 0.00070558 0.0020815 0.00583471 6.73881e-05 0.000416821 -1.40216e-05 -0.000684423 0.00125458 1.56361e-06 0.000274394 0.00137853 0.000727492 0.00287457 -0.000131565 -9.83323e-05 -0.000834934 -0.00312555 -0.000301198 1.34341e-05 9.84116e-05 -1.79185e-05 0.00227825 -0.00132707 -0.000181473 1.63823e-05 0.000695548 -6.93176e-05 3.22843e-05
internal_weight=0 3247 344 109 41 235 215 188 123 65 2903 952 226 203 46 1951 1928 254 48 206 1674 157 1645 42 42 68 1603 121 726 171
internal_count=217633 3247 344 109 41 235 215 188 123 65 2903 952 226 203 46 1951 1928 254 48 206 1674 157 1645 42 42 68 1603 121 726 171
shrinkage=0.05


Tree=228
num_leaves=31
num_cat=0
split_feature=25 36 37 17 2 19 11 8 37 19 31 25 18 4 32 21 39 39 4 37 13 6 18 33 39 39 9 13 4 1
split_gain=0.00761786 0.0438468 0.305988 0.227643 0.419093 0.486866 0.328332 0.253944 0.224404 0.277589 0.250392 0.254666 0.207991 0.198561 0.447124 0.358597 0.401006 0.410052 0.332028 0.462492 0.418682 0.296471 0.242562 0.204406 0.214318 0.276061 0.19961 0.234867 0.2348 0.231237
threshold=0.041210350000000007 -0.17527649999999997 -0.12554300000000002 -4.6868399999999992 1.8038550000000002 0.57270450000000006 0.00030683250000000005 2.0760350000000002e-05 -0.057539999999999918 2.9137900000000005 0.098593250000000007 0.34469700000000009 0.5292785000000001 0.17191050000000002 0.024751450000000005 0.29620600000000008 1.3895649999999999 -1.9072949999999993 2.2539600000000006 0.078754999999999922 6.5238050000000013e-06 -7.9179699999999979e-07 7.0074550000000011 5.3317650000000004e-06 0.76755000000000007 -0.32314999999999999 0.00014627600000000001 -1.0891499999999998e-06 -2.3911599999999997 3.3893400000000002
decision_type=2 2 2 2 2 2 2 2 2 2 2 2 2 2 2 2 2 2 2 2 2 2 2 2 2 2 2 2 2 2
left_child=-1 -2 3 4 5 -3 -7 -8 10 13 12 -12 -4 15 -15 26 17 -17 19 23 -21 -19 -23 24 25 -16 27 28 -10 -30
right_child=1 2 8 -5 -6 6 7 -9 9 -11 11 -13 -14 14 18 16 -18 21 -20 20 -22 22 -24 -25 -26 -27 -28 -29 29 -31
leaf_value=3.0419027106676808e-06 1.852826463673269e-05 -0.00048497935586846845 0.0025796251732014843 -8.640953584015883e-05 0.00033866670812255414 0.00091391422545050521 0.010874505082117111 0.0037343913897348105 -0.0027349395315013681 -0.0048335280058173736 -0.0020560175553649006 -0.00870372206211323 -0.0017877865679803166 -0.001488656260530847 0.0047991540626753709 -0.00093123813102033264 -0.00032639897128521831 -0.0032018399865773972 -0.0013912157248000768 0.009966473363872087 0.0011640091413772263 -0.0056021616308261522 -0.013034641112954843 -0.0017769653309369462 0.0060896784589015724 -0.0010615537839368228 -0.0039824230211048294 -0.0010469833022185373 0.0067113265940199861 0.0013171711889685314
leaf_weight=196821 14608 46 31 3921 599 22 33 20 32 35 34 25 226 171 32 61 144 40 64 35 22 23 21 40 29 54 29 188 22 205
leaf_count=196821 14608 46 31 3921 599 22 33 20 32 35 34 25 226 171 32 61 144 40 64 35 22 23 21 40 29 54 29 188 22 205
internal_value=0 -2.87676e-05 -0.000140131 6.36486e-05 0.00088084 0.00356482 0.0060487 0.00818012 -0.000745211 -0.000443621 -0.00193535 -0.00487284 -0.00126098 -0.00031685 0.000520375 -0.000806052 -0.00219536 -0.00405142 0.0017651 0.00271795 0.00656903 -0.00631727 -0.00914948 0.00130175 0.00237261 0.00111917 3.7454e-05 0.000298251 0.00127472 0.00183995
internal_weight=0 20812 6204 4641 720 121 75 53 1563 1247 316 59 257 1212 447 765 289 145 276 212 57 84 44 155 115 86 476 447 259 227
internal_count=217633 20812 6204 4641 720 121 75 53 1563 1247 316 59 257 1212 447 765 289 145 276 212 57 84 44 155 115 86 476 447 259 227
shrinkage=0.05


Tree=229
num_leaves=31
num_cat=0
split_feature=20 0 26 32 26 9 5 35 24 10 10 20 11 16 33 10 21 37 36 11 12 39 10 12 15 20 40 9 18 19
split_gain=0.00732326 0.0286294 0.107522 0.0177521 0.015608 0.0692506 0.104372 0.0162058 0.0112031 0.0484604 0.0626918 0.0600201 0.0381895 0.154072 0.358172 0.073696 0.0526568 0.0508183 0.554577 0.177192 0.390468 0.243512 0.271088 0.230828 0.176179 0.163507 0.111494 0.125815 0.108063 0.100544
threshold=-5.9633049999999992 -10.400999999999998 0.025872300000000004 -0.0011580799999999999 -1.2159399999999998 1.7182650000000001e-05 1.6368250000000004e-05 0.17438400000000001 29.419400000000007 -7.1201799999999986e-05 -6.7776199999999983e-05 -15.138399999999999 0.019024750000000003 0.0035512250000000003 -2.7510949999999998e-05 0.00030062600000000007 1.1195950000000001 0.17390849999999994 0.20129000000000011 0.0039264450000000015 -3.9387549999999988e-06 1.3091549999999998 3.162045000000001e-05 -1.3696599999999996e-07 3.1294150000000004e-07 -7.9172849999999988 -2.0033199999999987 2.6990100000000001e-05 -1.3000649999999998 -0.11638699999999998
decision_type=2 2 2 2 2 2 2 2 2 2 2 2 2 2 2 2 2 2 2 2 2 2 2 2 2 2 2 2 2 2
left_child=8 2 -2 -3 5 -5 -7 -6 -1 11 -11 -10 17 14 -14 16 -16 18 19 20 25 22 23 -22 28 -12 27 -23 -25 -21
right_child=1 3 -4 4 7 6 -8 -9 9 10 12 -13 13 -15 15 -17 -18 -19 -20 29 21 26 -24 24 -26 -27 -28 -29 -30 -31
leaf_value=9.3862189302758194e-07 7.8963611489354075e-05 0.0014528878797963527 0.0032272959628565283 -0.00051525154804353253 1.6318929804124498e-05 -0.00025646626701295055 0.0045607067824510695 -0.00096430235023225856 -0.0029978091787378272 0.0022731165396619652 -0.00032080936653073878 -0.00046718303470757365 0.0067760389007941874 -5.1513629842339436e-05 -0.00068415252285553658 0.003284022074894026 0.0016109567930323318 5.3438674335174409e-05 4.3476034826681336e-05 -0.0067982022681882456 -0.0091474763096172224 -0.00063282208392377364 0.0010240737889294646 -0.0081405350886052472 0.00011381845688447357 0.0057085267652797964 0.0025083793883095497 -0.0043378570925657793 -0.0029428658162942156 -0.0028595193549124306
leaf_weight=209333 134 22 34 58 2086 23 22 43 29 29 22 122 28 832 77 21 37 2265 2068 26 27 97 21 20 21 23 20 30 20 43
leaf_count=209333 134 22 34 58 2086 23 22 43 29 29 22 122 28 832 77 21 37 2265 2068 26 27 97 21 20 21 23 20 30 20 43
internal_value=0 8.6458e-05 0.000716126 3.95262e-05 2.55952e-05 0.000626721 0.0020986 -3.48695e-06 -9.73004e-07 -6.90517e-05 -4.574e-05 -0.000953197 -5.75418e-05 0.000223879 0.00162957 0.000562149 6.07514e-05 -0.000117081 -0.000275501 -0.00205833 -0.00153444 -0.00228948 -0.00408031 -0.00529841 -0.00359472 0.00276085 -0.000961577 -0.00150803 -0.0055417 -0.00434366
internal_weight=0 2422 168 2254 2232 103 45 2129 215211 5878 5727 151 5698 995 163 135 114 4703 2438 370 301 256 109 88 61 45 147 127 40 69
internal_count=217633 2422 168 2254 2232 103 45 2129 215211 5878 5727 151 5698 995 163 135 114 4703 2438 370 301 256 109 88 61 45 147 127 40 69
shrinkage=0.05


Tree=230
num_leaves=31
num_cat=0
split_feature=26 1 9 9 3 3 0 18 20 11 14 0 9 9 4 9 27 17 13 29 9 0 17 36 34 9 14 18 22 13
split_gain=0.0072809 0.0542733 0.0541531 0.289955 0.224982 0.153472 0.248835 0.208019 0.205245 0.221576 0.319357 0.0911143 0.0606965 0.0822296 0.161247 0.101214 0.134158 0.067321 0.0614435 0.0491478 0.0292076 0.0518056 0.0370647 0.0584933 0.0277661 0.0274863 0.0603287 0.275865 0.0418835 0.0487035
threshold=-0.58729449999999994 -14.712749999999998 9.9230750000000009e-05 0.00012039000000000002 -8.4058999999999973 -11.746199999999998 5.616200000000001 -8.2769249999999985 -10.151399999999999 0.082383900000000024 2.5901300000000006e-05 4.3023300000000004 7.0554250000000006e-05 4.8912350000000013e-05 -0.54650249999999989 5.8604700000000005e-05 0.087932350000000006 3.7530200000000007 1.8037350000000004e-08 0.00058287550000000012 3.2725900000000011e-05 5.3241200000000006 6.0034050000000008 0.354709 5.8699600000000016 1.6172700000000005e-05 4.6606600000000007e-08 4.2802450000000007 23.183300000000006 5.8204250000000011e-06
decision_type=2 2 2 2 2 2 2 2 2 2 2 2 2 2 2 2 2 2 2 2 2 2 2 2 2 2 2 2 2 2
left_child=1 -1 12 4 -4 6 7 11 9 10 -9 -5 13 20 -15 -16 -17 18 -14 -19 25 -22 23 -23 -7 -3 27 -27 -28 -30
right_child=-2 2 3 5 -6 24 -8 8 -10 -11 -12 -13 17 14 15 16 -18 19 -20 -21 21 22 -24 -25 -26 26 28 -29 29 -31
leaf_value=0.0026687317411415281 -1.1690392492268159e-06 -6.3950580383931638e-05 0.0061145044866287596 -0.00026465188352828945 -0.00033414663616678723 -0.00046035340027809505 0.006024326878073423 0.0021158390259044704 -0.00042413126885548996 -0.00090492183626338378 0.0099216059618629521 -0.0047654979846397929 -0.00065295662177959461 0.0047427873870429516 -0.0011452293487211917 0.0042618163860330743 -0.00043354011629617164 -0.001479914277949908 -0.0044053965113562297 0.0012727826909770469 0.00037523291532609929 -0.0033231960796118263 -0.00034300224621613284 -0.00014395941891606249 -0.0019993248263000915 -0.00063509141702525087 0.001917024120080492 0.0063355520635013825 -0.00045556903637930849 0.0021505280572819176
leaf_weight=20 214134 2171 38 23 21 262 23 38 80 24 20 22 20 26 56 29 32 34 24 31 75 39 53 23 33 40 27 22 173 20
leaf_count=20 214134 2171 38 23 21 262 23 38 80 24 20 22 20 26 56 29 32 34 24 31 75 39 53 23 33 40 27 22 173 20
internal_value=0 7.15436e-05 5.6613e-05 0.000495823 0.00381922 0.000122336 0.00109051 0.000542306 0.00137769 0.00313556 0.00480748 -0.00246507 -3.19877e-05 1.32969e-05 0.00118111 0.000389629 0.00179868 -0.00118944 -0.00269974 -0.00016709 -4.98879e-05 -0.000647118 -0.00131387 -0.0021438 -0.00063251 -3.6288e-06 0.000460763 0.00183836 7.25308e-05 -0.000185507
internal_weight=0 3499 3479 584 59 525 230 207 162 82 58 45 2895 2786 143 117 61 109 44 65 2643 190 115 62 295 2453 282 62 220 193
internal_count=217633 3499 3479 584 59 525 230 207 162 82 58 45 2895 2786 143 117 61 109 44 65 2643 190 115 62 295 2453 282 62 220 193
shrinkage=0.05


Tree=231
num_leaves=31
num_cat=0
split_feature=38 18 26 12 12 0 4 21 0 9 2 7 9 11 11 4 14 9 9 14 17 0 16 13 10 37 4 33 37 19
split_gain=0.00727371 0.317976 0.0100266 0.0612986 0.185037 0.178537 0.408009 0.214217 0.207735 0.152697 0.0922834 0.0220318 0.0724044 0.267696 0.0539847 0.0656822 0.0389698 0.0369631 0.0478879 0.0305438 0.0202234 0.0947747 0.0868187 0.0428871 0.157934 0.0732338 0.0898548 0.039402 0.0312893 0.103447
threshold=5.6762150000000009 2.9920850000000008 1.0482150000000001 -9.0272649999999983e-06 -2.0464649999999995e-06 -4.5705949999999991 2.9223900000000005 1.3511250000000004 -3.8805449999999992 -5.7102799999999991e-05 1.7176300000000002 -3.2223699999999994e-05 -0.00012512549999999997 0.060361600000000008 0.0029601150000000006 -2.6817999999999995 -4.4627499999999989e-06 -6.7024799999999989e-05 -3.8189799999999991e-05 4.6606600000000007e-08 -19.608449999999998 -10.244649999999998 0.00015321200000000004 3.6544900000000005e-06 -1.1378299999999997e-05 0.32610899999999998 -2.2787549999999999 0.00019513800000000003 -0.10141500000000002 0.57270450000000006
decision_type=2 2 2 2 2 2 2 2 2 2 2 2 2 2 2 2 2 2 2 2 2 2 2 2 2 2 2 2 2 2
left_child=2 -2 20 5 9 6 7 -4 -7 -5 -10 14 13 -13 16 -16 -6 -14 -19 -18 21 22 -1 28 -25 27 -27 -26 29 -23
right_child=1 -3 3 4 11 8 -8 -9 10 -11 -12 12 17 -15 15 -17 19 18 -20 -21 -22 23 -24 24 25 26 -28 -29 -30 -31
leaf_value=0.004758000692924147 -3.9589392240388956e-05 0.0051171373500819173 0.001904739993842668 -0.0060711935548486348 0.0019307402591221036 -0.0050444995559311276 -0.0008008869413897628 0.0088472748629283161 -0.00020910427637155801 -0.0011784709510091209 0.0034217837845790205 0.0061023349082374593 -0.0021329714718872727 -0.0014876930095152393 -0.00058156977562854695 -0.0042128496599616481 -0.0017024953382335499 0.0019768229379094142 -0.00012363053057334555 -9.2386086799302181e-05 -3.9626782871177724e-07 -0.00013587429889053113 0.00020628684374969454 0.0048657625484684972 -0.00010184784016538677 -0.00060597407587227375 0.0040768496462260375 -0.0028838751744478942 -0.00067047118658947733 0.0036743051831581402
leaf_weight=22 838 31 20 23 20 21 50 25 140 52 20 21 22 26 33 20 36 28 879 162 214660 163 20 21 35 21 20 20 164 20
leaf_count=22 838 31 20 23 20 21 50 25 140 52 20 21 22 26 33 20 36 28 879 162 214660 163 20 21 35 21 20 20 164 20
internal_value=0 0.000144367 -5.78765e-07 -0.00012536 -0.000266857 0.000552387 0.00230771 0.0057617 -0.000368914 -0.00267891 0.000244757 -0.000121786 -1.10415e-05 0.0019036 -0.000520629 -0.00195186 -0.000172668 -0.000107907 -5.87874e-05 -0.000385133 3.47967e-07 0.000316074 0.00259052 0.000110198 0.000938037 7.88475e-05 0.00167833 -0.00111349 -0.00016893 0.000280539
internal_weight=0 869 216764 1598 1322 276 95 45 181 75 160 1247 976 47 271 53 218 929 907 198 215166 506 42 464 117 96 41 55 347 183
internal_count=217633 869 216764 1598 1322 276 95 45 181 75 160 1247 976 47 271 53 218 929 907 198 215166 506 42 464 117 96 41 55 347 183
shrinkage=0.05


Tree=232
num_leaves=31
num_cat=0
split_feature=31 12 12 37 36 31 40 3 40 16 12 4 17 0 28 4 12 18 12 40 12 40 28 28 36 20 0 20 22 31
split_gain=0.00720995 0.189794 0.187361 0.129233 1.07371 0.880974 1.19378 0.827033 0.593934 0.498581 1.60388 0.478326 0.358534 0.306096 0.416694 0.277367 0.325794 0.274966 0.276606 0.295695 0.665763 1.46837 0.490963 0.609113 0.218978 0.342672 0.16222 0.22113 0.147675 0.131022
threshold=1.8741500000000003e-05 -3.1922299999999996e-08 -3.0013349999999998e-08 0.19792950000000006 0.10022550000000004 -0.0054261899999999983 -1.8234799999999993 -11.676349999999998 2.085900000000001 3.3848150000000009e-05 1.2625950000000003e-07 0.026035500000000007 0.27307350000000002 -4.5705949999999991 1.9738300000000002 1.6690850000000002 6.5735000000000015e-07 1.4596200000000004 7.2144500000000009e-06 -0.98309000000000013 -1.2418349999999998e-08 0.87140500000000032 -0.061843599999999992 -0.025103299999999999 -0.10081500000000009 -10.480799999999997 -2.7237549999999993 -12.100849999999999 0.66631150000000006 -0.0037410449999999997
decision_type=2 2 2 2 2 2 2 2 2 2 2 2 2 2 2 2 2 2 2 2 2 2 2 2 2 2 2 2 2 2
left_child=1 -1 -2 4 5 6 -3 13 9 10 -9 12 -11 -8 24 16 -13 29 19 -19 -21 22 28 -24 25 -15 -26 -28 -22 -7
right_child=2 3 -4 -5 -6 17 7 8 -10 11 -12 15 -14 14 -16 -17 -18 18 -20 20 21 -23 23 -25 26 -27 27 -29 -30 -31
leaf_value=6.2002771473651313e-05 -6.4068535015338127e-05 -0.00043909937273828618 6.8775917624674411e-05 3.370132665837774e-07 -2.0087710342594054e-05 0.0014227448732938677 0.0042444091790821408 -0.0046655853515258057 -0.00071617607882072144 -0.0065763203064253669 -0.019445967543388495 -0.0062825711024925117 0.00013460366923633653 -0.0092082540289266032 -0.0082749268775805847 -0.0036675495369127026 -0.015199373875345505 -0.00041928705153614857 9.7131090577064216e-05 -0.00054917305703080881 -0.0018669470855093096 -0.00032041078328245114 -0.018640451162884181 -0.0079631375402266936 -0.0043775432120310145 -0.00034659300533045707 0.0028752888913503756 -0.0017808241163912303 -0.0079430291015887642 -0.00029493323587926246
leaf_weight=50806 48106 470 59211 31317 24101 117 20 50 47 34 29 20 48 20 25 20 21 223 261 180 20 93 22 34 20 24 51 51 20 2172
leaf_count=50806 48106 470 59211 31317 24101 117 20 50 47 34 29 20 48 20 25 20 21 223 261 180 20 93 22 34 20 24 51 51 20 2172
internal_value=0 -8.97612e-06 9.22696e-06 -6.95736e-05 -0.000147231 -0.000896076 -0.00223029 -0.00398416 -0.00582229 -0.00690331 -0.0100913 -0.00514212 -0.00264797 -0.00164077 -0.00225701 -0.00849491 -0.0108497 -0.00049267 -0.00125889 -0.00185673 -0.00272543 -0.00479807 -0.00913579 -0.0121578 -0.0013507 -0.00437462 -0.000260108 0.000547232 -0.00490499 -0.000207136
internal_weight=0 110316 107317 59510 28193 4092 950 480 269 222 79 143 82 211 191 61 41 3142 853 592 369 189 96 56 166 44 122 102 40 2289
internal_count=217633 110316 107317 59510 28193 4092 950 480 269 222 79 143 82 211 191 61 41 3142 853 592 369 189 96 56 166 44 122 102 40 2289
shrinkage=0.05


Tree=233
num_leaves=31
num_cat=0
split_feature=18 37 39 1 37 19 7 12 21 14 15 36 1 28 36 36 36 36 16 4 29 4 22 6 23 26 2 1 36 36
split_gain=0.0070625 0.0869952 0.0777198 0.200298 0.190881 0.800223 0.286886 0.236151 0.206153 0.135955 0.0796233 0.126509 0.0614924 0.0774038 0.0730089 0.215812 0.0548603 0.135563 0.0522048 0.0470601 0.0305107 0.194283 0.0294854 0.029231 0.022091 0.0263259 0.0594811 0.0196718 0.0191636 0.0150338
threshold=-13.388899999999998 4.6270000000000016 0.027469999999999221 -3.1361349999999999 0.46135450000000006 -0.75575599999999987 4.1938750000000006e-06 2.8964050000000007e-06 0.11369050000000001 -6.530729999999998e-08 -6.7236599999999979e-05 0.016888500000000004 -6.5414749999999993 0.31163200000000008 -0.51801999999999981 0.14973499999999998 0.354709 -0.10081500000000009 2.4256350000000005e-08 -0.075009849999999989 -0.0025000549999999997 1.1247450000000001 5.3710200000000006 -1.0441299999999996e-06 0.069955350000000013 0.34967900000000007 -1.8667549999999997 -13.794199999999998 0.24966499999999994 -0.772536
decision_type=2 2 2 2 2 2 2 2 2 2 2 2 2 2 2 2 2 2 2 2 2 2 2 2 2 2 2 2 2 2
left_child=1 2 12 4 5 6 7 8 9 -4 -8 19 13 -1 -15 -16 17 29 22 -12 21 -14 -11 -20 25 -22 -27 -6 -13 -5
right_child=-2 -3 3 16 27 -7 10 -9 -10 18 11 28 20 14 15 -17 -18 -19 23 -21 24 -23 -24 -25 -26 26 -28 -29 -30 -31
leaf_value=-0.00018063043295275268 -1.1512060620665034e-06 0.0028463059364314956 0.004190243380920341 -3.107676823788097e-05 0.0014092772842527017 0.010256613526493312 -0.0022076378304128805 0.0070679434037838997 0.0057650791644981063 0.0025605569660547191 0.0044991420076985382 -0.0016071421865173918 -0.00046819661297616368 -0.00012703551154304594 -0.0060614213766530161 -0.00053588722131798724 -3.7678285444823459e-05 -0.004375195045633099 -0.0027049765779520387 0.001299153828855466 -7.1222162526536178e-05 0.0046130651440471409 -0.00012194995910942367 -6.3844560075019464e-05 0.0011322044351410503 -0.0031235532509922255 -0.0003231571386566901 -0.00017759030876334238 -5.7858125814200083e-05 -0.0013350120735412929
leaf_weight=170 214135 28 24 84 21 25 35 26 27 20 20 23 76 39 30 43 738 26 20 27 1302 25 21 22 35 23 108 279 151 30
leaf_count=170 214135 28 24 84 21 25 35 26 27 20 20 23 76 39 30 43 738 26 20 27 1302 25 21 22 35 23 108 279 151 30
internal_value=0 7.04727e-05 4.80741e-05 0.000301092 0.000906464 0.00156835 0.00104622 0.0027071 0.00186096 0.000875812 8.17118e-06 0.000359091 -0.000173231 -0.000853005 -0.00187357 -0.00280665 -0.000209821 -0.00111726 -8.25774e-05 0.00266085 -5.10536e-05 0.000789541 0.00118659 -0.00132153 -0.000108887 -0.0001392 -0.00081483 -6.65096e-05 -0.000262649 -0.000374218
internal_weight=0 3498 3470 1619 741 441 416 160 134 107 256 221 1851 282 112 73 878 140 83 47 1569 101 41 42 1468 1433 131 300 174 114
internal_count=217633 3498 3470 1619 741 441 416 160 134 107 256 221 1851 282 112 73 878 140 83 47 1569 101 41 42 1468 1433 131 300 174 114
shrinkage=0.05


Tree=234
num_leaves=31
num_cat=0
split_feature=25 5 36 36 25 20 28 12 5 39 6 7 18 1 13 12 9 1 20 37 28 0 13 13 36 32 37 9 17 36
split_gain=0.00696552 0.0407989 0.0975024 0.237238 0.277403 0.351584 0.254235 0.309289 0.340527 0.210392 0.190947 0.185606 0.167516 0.154029 0.106511 0.0904993 0.0837922 0.0702848 0.0676519 0.0555602 0.108533 0.0451149 0.0386718 0.0710785 0.245878 0.526867 0.589258 0.20382 0.458709 0.200915
threshold=0.041210350000000007 1.0838450000000003e-05 -0.17527649999999997 0.22528099999999995 0.07628225000000001 -10.262699999999999 -4.3985699999999994 -2.8013149999999996e-08 1.0064400000000003e-05 2.6836000000000007 -1.8838049999999998e-07 1.0417350000000001e-05 5.6987800000000011 3.8749050000000005 -6.8546449999999991e-07 1.0083500000000001e-05 -1.2385649999999997e-05 4.4568150000000015 -10.103949999999999 -0.33012499999999995 -2.9812749999999997 -1.6118199999999998 2.3811300000000004e-05 1.1210250000000002e-06 -0.25142799999999998 0.026744400000000005 0.078754999999999922 -4.858219999999999e-05 -8.280289999999999 0.2761725000000001
decision_type=2 2 2 2 2 2 2 2 2 2 2 2 2 2 2 2 2 2 2 2 2 2 2 2 2 2 2 2 2 2
left_child=-1 2 -2 4 5 9 14 8 13 10 -4 16 -7 -8 -6 19 -9 -13 -15 -5 -21 -16 23 -3 -25 -26 27 -27 -29 -30
right_child=1 22 3 15 6 12 7 11 -10 -11 -12 17 -14 18 21 -17 -18 -19 -20 20 -22 -23 -24 24 25 26 -28 28 29 -31
leaf_value=2.9087439995780397e-06 -7.5529010288208834e-06 -7.3049669818039646e-06 0.0017380852021378814 -6.1665812015198666e-05 0.0031267488922458141 -0.0060913341474675003 -0.0071479175298009073 -0.0013871892774477601 -0.0097341926875449125 -0.001084401283878833 0.0082054219596708819 0.0032286153570748864 -0.00059982339898408284 -0.00011690393870230763 0.00025408132560551165 0.0026197806968593796 -0.0059640942339319741 -0.00086681017419323327 -0.0037952711497200656 -0.0045391312887659296 -8.0664644333293655e-05 -0.0028143533933199134 -0.0001544042870802992 -1.2895231381010055e-06 -0.00059773599087033832 -0.00051429654400075939 0.0077630159404614698 0.009682960427890068 0.0030973131523933262 -0.0003179967480208103
leaf_weight=196821 2847 11459 25 773 20 21 20 20 31 24 21 20 41 25 25 30 20 22 25 21 39 23 3033 1672 233 78 46 20 105 73
leaf_count=196821 2847 11459 25 773 20 21 20 20 31 24 21 20 41 25 25 30 20 22 25 21 39 23 3033 1672 233 78 46 20 105 73
internal_value=0 -2.75083e-05 -0.000168997 -0.000537882 -0.00157352 0.000282042 -0.00254936 -0.00351938 -0.00537151 0.00271058 0.00469057 -0.00123809 -0.00245985 -0.00343947 6.11306e-05 -7.82641e-05 -0.00367564 0.00108339 -0.00195609 -0.000175433 -0.00164113 -0.00121621 7.12977e-06 4.29279e-05 0.0003014 0.00121329 0.00252375 0.00165054 0.00250335 0.00169665
internal_weight=0 20812 4093 1246 383 132 251 183 101 70 46 82 62 70 68 863 40 42 50 833 60 48 16719 13686 2227 555 322 276 198 178
internal_count=217633 20812 4093 1246 383 132 251 183 101 70 46 82 62 70 68 863 40 42 50 833 60 48 16719 13686 2227 555 322 276 198 178
shrinkage=0.05


Tree=235
num_leaves=31
num_cat=0
split_feature=15 21 34 4 37 37 4 24 21 20 39 38 11 20 30 3 4 39 4 39 33 9 9 5 39 33 25 18 39 12
split_gain=0.0070916 0.143468 0.130402 0.118321 0.197465 0.980105 0.41463 0.392505 0.350664 0.341048 0.319704 0.260953 0.277761 0.345077 0.455267 0.291632 0.260245 0.249497 0.352521 0.226321 0.222952 0.216222 0.376195 0.244485 0.363187 0.633562 0.431018 0.395531 0.327764 0.276114
threshold=-1.0730149999999997e-06 -0.092714749999999985 -5.1418699999999989e-05 -1.4133199999999999 -0.25176499999999996 0.14791590000000002 0.0092838900000000012 1.0089350000000004 -1.7211949999999998 -16.164099999999994 -4.0456399999999988 -0.079468000000000025 0.00013551050000000002 -8.6909799999999979 0.066349850000000016 -6.3292149999999987 -0.58642949999999983 -0.88227999999999918 0.14503350000000001 0.68409500000000023 2.9540450000000002e-06 0.00013338650000000002 0.00010408000000000001 1.0064400000000003e-05 -0.99152500000000054 -4.0691899999999991e-07 0.027297150000000003 -12.91935 -1.1067849999999997 1.9510050000000004e-06
decision_type=2 2 2 2 2 2 2 2 2 2 2 2 2 2 2 2 2 2 2 2 2 2 2 2 2 2 2 2 2 2
left_child=1 3 -2 -1 -5 6 7 16 -9 -8 -10 20 13 -13 -15 21 -6 -11 -19 -17 -12 22 23 28 25 -25 -27 -26 -14 -29
right_child=2 -3 -4 4 5 -7 9 8 10 17 11 12 15 14 -16 19 -18 18 -20 -21 -22 -23 -24 24 27 26 -28 29 -30 -31
leaf_value=-2.4825125755298732e-05 4.698282353793158e-05 -4.8769416945386576e-05 -5.2659804620899346e-05 -9.3784244630738987e-06 -0.0010496585461081795 6.3802309339371418e-06 0.0033746343786333457 -0.0031509291632877048 -0.0010884460125557729 -0.00041665893837182608 0.0058261236665436093 -0.0011505157103427969 -0.0054283741485877807 0.0029845974853708202 0.010692626448192945 0.0014767673224923784 0.00083160572020260753 -0.002289663184541805 -0.010080267962184735 -0.0043023408751145728 0.0010228879496987377 0.0062135870784038203 -0.0033391960691207916 0.0099637420785438739 0.0086038293538703813 -0.0011786892545569572 0.0076672347949906482 0.0020638865962015296 0.0010291216553785332 -0.00087199399775349869
leaf_weight=15740 60335 45932 72039 10496 203 9317 32 36 87 83 78 23 22 53 30 32 1947 53 20 36 35 27 36 40 21 40 21 541 184 94
leaf_count=15740 60335 45932 72039 10496 203 9317 32 36 87 83 78 23 22 53 30 32 1947 53 20 36 35 27 36 40 21 40 21 541 184 94
internal_value=0 1.12463e-05 -7.2435e-06 8.13418e-05 0.000152189 0.000281729 0.000961491 0.00108149 0.00172156 -0.0013274 0.00184685 0.00204135 0.00182504 0.00426887 0.00577063 0.00158826 0.000653979 -0.00229192 -0.00442408 -0.00158276 0.0043384 0.00179842 0.00167909 0.00186669 0.00228228 0.00507341 0.00186663 0.00185255 0.000339486 0.00162928
internal_weight=0 85259 132374 39327 23587 13091 3774 3586 1436 188 1400 1313 1200 106 83 1094 2150 156 73 68 113 1026 999 963 757 101 61 656 206 635
internal_count=217633 85259 132374 39327 23587 13091 3774 3586 1436 188 1400 1313 1200 106 83 1094 2150 156 73 68 113 1026 999 963 757 101 61 656 206 635
shrinkage=0.05


Tree=236
num_leaves=31
num_cat=0
split_feature=37 37 33 14 16 39 23 22 17 23 36 25 17 28 39 39 39 14 1 18 39 20 40 37 14 23 18 12 35 22
split_gain=0.00711709 0.0999219 0.0968568 0.259967 0.463455 0.443445 0.403444 0.383504 0.488354 0.382531 0.37342 0.245311 0.209978 0.496873 0.50431 0.185787 0.370428 0.313926 0.162608 0.157792 0.156659 0.437825 0.49487 0.627138 0.581894 0.525821 0.518729 0.421688 0.355733 0.560311
threshold=-0.27889399999999981 -0.026150000000000003 -1.1308749999999999e-07 2.1981950000000002e-08 1.9131000000000004e-05 0.64319500000000052 0.00045620850000000006 0.50595050000000008 -4.0204099999999992 0.00033276500000000006 0.10022550000000004 -0.038817099999999993 7.0124150000000007 0.25355600000000006 2.2683550000000001 0.51814999999999956 -0.77143500000000065 2.2932050000000003e-07 6.4432250000000009 -11.150349999999998 0.80790999999999979 -16.164099999999994 -0.20255000000000042 -0.15132349999999997 2.6933700000000002e-07 -0.00012987799999999997 10.335750000000003 -3.9387549999999988e-06 0.0013738800000000003 0.73645450000000012
decision_type=2 2 2 2 2 2 2 2 2 2 2 2 2 2 2 2 2 2 2 2 2 2 2 2 2 2 2 2 2 2
left_child=-1 2 3 4 5 6 7 8 -2 12 -8 -9 19 -14 -15 16 -11 -18 -13 -5 21 -4 23 -23 25 -25 -27 -26 29 -29
right_child=1 -3 20 9 -6 -7 10 11 -10 15 -12 18 13 14 -16 -17 17 -19 -20 -21 -22 22 -24 24 27 26 -28 28 -30 -31
leaf_value=1.0223623019173436e-05 -4.1004676168086009e-05 5.1231450027631984e-06 0.0045019801098617812 -0.0033813580608153104 -0.00026503157434498237 -0.00013560187429710659 0.0038753863820793892 0.0050331908577655052 0.010045637911728895 -0.0013999131707164018 0.012183323637804106 -0.00079563187912150583 2.748930357115131e-05 0.011137905709135037 0.00065743715352833867 -0.00087314507814502959 -0.011608718832611062 -0.00285583597031291 0.0034254102690691318 -8.3029374421796811e-05 -8.3253061026247326e-06 0.00021441091902727892 -0.00032080454515116369 -0.012072501244471859 -0.0071097496310593908 -0.0027567080077170298 -0.011624462787876837 -0.0025608059873900796 -0.0060816566734998067 0.0044833414124282591
leaf_weight=95517 20 112638 43 37 514 161 38 31 30 73 21 107 122 24 22 154 21 20 29 1815 2878 190 2825 27 27 94 20 58 22 55
leaf_count=95517 20 112638 43 37 514 161 38 31 30 73 21 107 122 24 22 154 21 20 29 1815 2878 190 2825 27 27 94 20 58 22 55
internal_value=0 -7.99674e-06 -0.000163915 5.79189e-05 0.000752722 0.00194981 0.00316629 0.0021695 0.00601098 -0.000230874 0.00683245 0.00101936 4.61311e-06 0.00169718 0.00612551 -0.00200581 -0.00353591 -0.00733902 0.000104443 -0.000148925 -0.000279082 -0.000510928 -0.000575894 -0.00203761 -0.00344977 -0.00579842 -0.00431245 -0.00140557 -0.000264736 0.000867761
internal_weight=0 122116 9478 3239 951 437 276 217 50 2288 59 167 2020 168 46 268 114 41 136 1852 6239 3361 3318 493 303 141 114 162 135 113
internal_count=217633 122116 9478 3239 951 437 276 217 50 2288 59 167 2020 168 46 268 114 41 136 1852 6239 3361 3318 493 303 141 114 162 135 113
shrinkage=0.05


Tree=237
num_leaves=31
num_cat=0
split_feature=37 18 31 12 12 36 36 18 36 16 11 20 39 30 28 5 35 20 19 39 36 37 30 3 18 39 1 14 33 14
split_gain=0.00687439 0.259047 0.00806741 0.175134 0.207493 0.258544 0.616206 0.417534 0.388382 0.346619 0.322954 0.223899 0.204754 0.305232 0.201104 0.315631 0.18762 0.168919 0.103607 0.0902518 0.100107 0.64128 0.334398 0.249842 0.230347 0.228043 0.365003 0.35422 0.310522 0.264932
threshold=5.6849350000000003 -3.7984549999999992 0.068482350000000011 2.8964050000000007e-06 2.5395100000000004e-05 -0.3562499999999999 0.38220950000000015 4.2802450000000007 0.12375499999999996 0.00086743600000000008 0.0052393350000000003 -10.195449999999999 -1.1067849999999997 1.7130900000000002 20.036400000000004 1.8784800000000004e-05 0.0038655250000000003 -12.7784 -3.0099549999999993 1.1065400000000005 0.43531000000000003 0.19792950000000006 1.9974350000000001 -6.280479999999999 0.099100950000000007 -1.6462299999999999 -3.1361349999999999 6.7803500000000016e-08 -4.3459899999999996e-07 4.0430350000000003e-07
decision_type=2 2 2 2 2 2 2 2 2 2 2 2 2 2 2 2 2 2 2 2 2 2 2 2 2 2 2 2 2 2
left_child=2 -2 -1 19 5 -5 7 9 10 12 -9 17 -7 16 -6 -16 -14 -11 -8 20 21 22 23 25 -24 -4 27 -27 -28 -30
right_child=1 -3 3 4 14 6 18 8 -10 11 -12 -13 13 -15 15 -17 -18 -19 -20 -21 -22 -23 24 -25 -26 26 28 -29 29 -31
leaf_value=1.7198904305456794e-06 0.0044181489878717594 -3.5870099039273385e-05 -0.00047670162129230401 -8.2928256722509234e-05 -0.00015494461120325821 0.0045091794493297734 0.0031090088856996906 0.0010264250092829267 0.012410236171091951 0.0058277202276512986 0.0092289946030359709 0.0094458887673681616 0.00043678338173776862 0.0027749976544227039 0.0062291957481647843 -0.00068938894968168299 -0.0058581819211871462 -0.00033724894514307384 -6.3963002929848459e-05 -1.9774906958439731e-05 -5.2417686743533856e-05 -9.8234394600268647e-05 -0.0021836147756477326 0.0035281301403301771 -0.0068218140334573617 -0.0021814111354095593 0.0038209251505101011 -0.010989989238791168 -0.0061597292117868269 -0.00024734809383517134
leaf_weight=205334 34 819 143 407 1501 24 28 30 21 25 20 20 20 36 32 34 29 20 317 5442 1569 1454 49 23 59 21 21 25 36 40
leaf_count=205334 34 819 143 407 1501 24 28 30 21 25 20 20 20 36 32 34 29 20 317 5442 1569 1454 49 23 59 21 21 25 36 40
internal_value=0 0.000141664 -5.57429e-07 -4.14111e-05 0.000322609 0.000886506 0.00155525 0.00347274 0.00670405 0.00215422 0.00430745 0.00504409 0.000430905 -0.000720608 -3.6169e-05 0.00266508 -0.00328881 0.00308773 0.000193554 -0.000146494 -0.000346961 -0.000593962 -0.00232247 -0.00148539 -0.00471745 -0.00188857 -0.00330045 -0.00696868 -0.00156087 -0.00304795
internal_weight=0 853 216780 11446 2564 997 590 245 71 174 50 65 109 85 1567 66 49 45 345 8882 3440 1871 417 309 108 286 143 46 97 76
internal_count=217633 853 216780 11446 2564 997 590 245 71 174 50 65 109 85 1567 66 49 45 345 8882 3440 1871 417 309 108 286 143 46 97 76
shrinkage=0.05


Tree=238
num_leaves=31
num_cat=0
split_feature=8 2 31 28 12 36 7 3 32 25 31 28 32 11 3 25 10 34 2 31 1 21 15 16 36 36 39 40 39 33
split_gain=0.00687682 0.0361382 0.0324362 0.0699635 0.216809 0.459763 0.23517 0.0786821 0.235222 0.0442353 0.0763368 0.0535634 0.03545 0.0807673 0.0345066 0.0321367 0.0798498 0.0322153 0.0815656 0.0585536 0.0593593 0.0421258 0.112319 0.224221 0.207917 0.332029 0.243323 0.0325798 0.0534522 0.0803801
threshold=1.6290050000000002e-05 3.0578500000000006 0.098593250000000007 3.1099700000000006 -4.3823949999999997e-07 0.354709 -2.0594849999999997e-06 -15.284849999999999 -0.17249249999999997 -0.22198749999999998 0.019909950000000006 2.6219150000000004 -2.2564299999999995 0.0067067750000000008 -19.074649999999995 1.9114100000000003 4.5233300000000006e-05 -0.16268899999999997 1.8666700000000003 -0.14027249999999997 -3.8531599999999995 0.62895050000000008 1.3181750000000001e-05 0.00097729900000000027 -0.25142799999999998 0.40779500000000007 -0.026199999999999776 0.46045500000000011 -0.36707999999999957 -5.1594099999999997e-07
decision_type=2 2 2 2 2 2 2 2 2 2 2 2 2 2 2 2 2 2 2 2 2 2 2 2 2 2 2 2 2 2
left_child=1 2 3 9 5 6 -5 8 -6 10 -1 15 13 -4 -14 17 -17 18 19 -11 -21 27 -23 24 -24 26 -26 28 29 -19
right_child=-2 -3 12 4 7 -7 -8 -9 -10 11 -12 -13 14 -15 -16 16 -18 21 -20 20 -22 22 23 -25 25 -27 -28 -29 -30 -31
leaf_value=-0.00032124407922986506 3.5121059329787848e-06 0.0020509333143049198 -0.00027703261259515643 0.0023606197667686503 0.0061586384632391859 -0.00044125938296828187 0.0096347737978212545 -0.00026179855769134183 -0.00031550175560146566 0.00015325424771671191 -0.0032481247095607355 0.0020928251087510338 -0.0019636630885307336 -0.0035743839223869147 -0.00015605981312311453 -0.00035622432018088504 0.0036960260674823078 -0.0036497061907657946 -0.0034455296288955573 -0.00011780264848355381 -0.0039239169599829893 -4.0854166376924525e-05 -0.00021295916466394709 -0.0010153232743335646 0.0036624810934342725 -0.00021359001111704857 0.01083862287812822 2.6817266083534598e-05 -7.0660138384808351e-05 -0.00052933473171331354
leaf_weight=109 188240 21 65 20 20 54 25 331 47 153 28 30 27 26 1192 31 20 23 23 21 20 420 38 59 27 26 21 13448 12867 201
leaf_count=109 188240 21 65 20 20 54 25 331 47 153 28 30 27 26 1192 31 20 23 23 21 20 420 38 59 27 26 21 13448 12867 201
internal_value=0 -2.24924e-05 -2.39748e-05 -1.26222e-05 0.000575337 0.00266923 0.00640182 5.44946e-05 0.00161708 -2.32232e-05 -0.000919439 -1.87467e-05 -0.000267163 -0.00121913 -0.000196097 -2.10588e-05 0.00123289 -2.33973e-05 -0.000630191 -0.000296414 -0.00197444 -1.85439e-05 0.000398967 0.00147923 0.00279332 0.00433709 0.00680204 -2.78415e-05 -8.39908e-05 -0.00084973
internal_weight=0 29393 29372 28062 497 99 45 398 67 27565 137 27428 1310 91 1219 27398 51 27347 217 194 41 27130 591 171 112 74 48 26539 13091 224
internal_count=217633 29393 29372 28062 497 99 45 398 67 27565 137 27428 1310 91 1219 27398 51 27347 217 194 41 27130 591 171 112 74 48 26539 13091 224
shrinkage=0.05


Tree=239
num_leaves=31
num_cat=0
split_feature=18 1 9 14 25 10 29 0 20 8 20 8 1 20 3 23 4 4 20 1 11 10 37 37 23 13 37 19 5 12
split_gain=0.0069953 0.0538511 0.138954 0.138543 0.236786 0.0979491 0.279684 0.0840567 0.0559161 0.0666556 0.0636294 0.0600634 0.0460614 0.0447933 0.0287121 0.0462813 0.0578878 0.08584 0.0388412 0.109348 0.285624 0.250165 0.0634984 0.0367527 0.0345443 0.14358 0.194753 0.0330695 0.0295678 0.0339975
threshold=13.390900000000002 8.7485050000000015 3.3784900000000002e-05 -8.4992649999999986e-08 0.10445350000000002 1.8732900000000002e-05 -5.5738299999999995e-06 -9.7972349999999988 -7.1435249999999995 4.6860650000000007e-05 -7.6924349999999988 3.2663050000000006e-05 8.267730000000002 -7.1062399999999988 -12.918299999999999 -0.0013306049999999997 -0.45249949999999994 -2.2787549999999999 -9.8578649999999985 3.2122550000000003 0.0013144900000000002 0.00010711200000000001 -0.66104499999999999 0.51323350000000023 -0.013856449999999998 2.1242850000000004e-06 -0.46632999999999997 -0.54752699999999999 7.9290400000000026e-06 -1.2418349999999998e-08
decision_type=2 2 2 2 2 2 2 2 2 2 2 2 2 2 2 2 2 2 2 2 2 2 2 2 2 2 2 2 2 2
left_child=-1 12 3 4 -3 7 -7 -5 10 11 -9 -10 14 -14 15 16 17 -2 19 22 -21 -22 -16 -24 25 -20 -27 -26 29 -29
right_child=1 2 -4 5 -6 6 -8 8 9 -11 -12 -13 13 -15 18 -17 -18 -19 24 20 21 -23 23 -25 27 26 -28 28 -30 -31
leaf_value=-1.1031990218893654e-06 -0.00050683410046748693 -0.00033382563751415702 -0.0026966083267853398 0.0032285443868659059 0.0058589874918459723 0.0063700134394457575 -0.00025264152320894276 -0.00029372512443056253 0.00048733008688390275 -0.0020139489844238955 -0.0028392091537875054 0.0034276522000982372 -0.0028452457814377601 -0.00010683905311026365 0.0021143852364275519 -6.642564155862399e-05 -0.00033264407857980889 -0.0049283132353420593 -0.00020568433103422361 -0.00032058518777846294 0.0091466705428319989 0.00150059510968909 -0.0022067983767060056 -5.6299229848641182e-05 -0.0014484502205600303 -0.00060265530536761857 0.0050149209111017027 0.0027578107722320056 -7.9898323877124514e-05 -9.0528332822776241e-05
leaf_weight=214386 23 29 31 20 33 25 44 118 132 23 31 20 28 32 32 442 75 21 162 58 20 23 22 205 43 27 36 20 1450 22
leaf_count=214386 23 29 31 20 33 25 44 118 132 23 31 20 28 32 32 442 75 21 162 58 20 23 22 205 43 27 36 20 1450 22
internal_value=0 7.28397e-05 0.00054676 0.000758432 0.00296235 0.000427578 0.00214687 8.27198e-05 -0.000111467 0.000494627 -0.000823322 0.000874215 -1.4648e-05 -0.00138476 1.60148e-05 -0.000302068 -0.00117731 -0.00261709 0.000100187 0.000573396 0.00196884 0.00505691 2.92256e-05 -0.000264718 3.3939e-06 0.000581976 0.00260739 -8.14146e-05 -4.20161e-05 0.00126582
internal_weight=0 3247 506 475 62 413 69 344 324 175 149 152 2741 60 2681 561 119 44 2120 360 101 43 259 227 1760 225 63 1535 1492 42
internal_count=217633 3247 506 475 62 413 69 344 324 175 149 152 2741 60 2681 561 119 44 2120 360 101 43 259 227 1760 225 63 1535 1492 42
shrinkage=0.05


Tree=240
num_leaves=31
num_cat=0
split_feature=26 1 9 4 12 36 21 17 31 3 12 22 4 36 15 19 18 5 13 1 11 9 10 3 36 9 2 17 0 7
split_gain=0.00679101 0.0471375 0.0477229 0.0890913 0.182557 0.341806 0.459425 0.611079 0.248897 0.244385 0.305133 0.0807353 0.160514 0.0866004 0.256962 0.0912253 0.0699534 0.0692218 0.0776189 0.0946955 0.0853595 0.0540299 0.05719 0.0737984 0.0342657 0.0248474 0.0562882 0.0628797 0.148014 0.0251551
threshold=-0.58729449999999994 -14.712749999999998 4.247685000000001e-05 -2.6817999999999995 -3.9387549999999988e-06 0.43531000000000003 -0.82489099999999993 7.0124150000000007 1.6674650000000002 -11.515449999999998 1.0083500000000001e-05 23.183300000000006 2.6533750000000005 -0.30278099999999991 -1.4018299999999999e-05 -0.4107754999999999 -0.5982734999999999 1.0887750000000003e-05 5.2573900000000008e-06 2.4449600000000005 0.004255295000000001 3.2725900000000011e-05 -3.058699999999999e-05 -7.7933949999999994 0.43531000000000003 1.6172700000000005e-05 1.1481900000000003 19.256550000000001 8.9117650000000008 3.235295000000001e-05
decision_type=2 2 2 2 2 2 2 2 2 2 2 2 2 2 2 2 2 2 2 2 2 2 2 2 2 2 2 2 2 2
left_child=1 -1 21 -4 5 6 7 -5 11 10 -10 12 -6 15 -15 -13 -11 -16 20 -20 -19 25 -23 -24 -21 -3 27 29 -29 -27
right_child=-2 2 3 4 8 -7 -8 -9 9 16 -12 13 -14 14 17 -17 -18 18 19 24 -22 22 23 -25 -26 26 -28 28 -30 -31
leaf_value=0.002489530408056453 -1.1290262448017686e-06 -5.9979169095333963e-05 -0.00055059748810890594 0.011341937219549438 0.0041825275631035093 -0.0012891689411087604 -0.00040435821222337457 0.0012275341199710966 9.9450716824440346e-05 0.0020417007780633867 0.0075130726097683833 0.0034417406716827485 -0.0014373063547585239 -0.0061833498017538503 0.0019065390747793271 -0.00012826971119353432 -0.0014212470505611107 -0.0010237921307755945 0.0029659995199402887 -0.0025340588091023082 -0.0044537029997137817 0.0011839216303601661 -0.00056145522165864422 -0.0033587349098918307 -0.00021518205564158657 0.00043820309167403004 0.0026555104306540812 -0.00029645784891077455 0.0050132657872468591 -0.00069289162333393314
leaf_weight=20 214134 2171 204 32 27 47 38 28 23 25 35 21 24 23 24 121 35 60 21 21 26 23 65 37 66 87 26 35 21 113
leaf_count=20 214134 2171 204 32 27 47 38 28 23 25 35 21 24 23 24 121 35 60 21 21 26 23 65 37 66 87 26 35 21 113
internal_value=0 6.90949e-05 5.51803e-05 0.000368426 0.000637409 0.00221625 0.00389742 0.00662188 0.000222676 0.00225885 0.00457319 -0.000330936 0.0015379 -0.000579789 -0.00115691 0.00039969 2.16479e-05 -0.000626597 -0.000939975 -4.75117e-05 -0.00206074 -5.42978e-05 -0.0010683 -0.00157615 -0.000774911 -2.62619e-06 0.00043891 0.000213787 0.00169469 -0.000200865
internal_weight=0 3499 3479 901 697 145 98 60 552 118 58 434 51 383 241 142 60 218 194 108 86 2578 125 102 87 2453 282 256 56 200
internal_count=217633 3499 3479 901 697 145 98 60 552 118 58 434 51 383 241 142 60 218 194 108 86 2578 125 102 87 2453 282 256 56 200
shrinkage=0.05


Tree=241
num_leaves=31
num_cat=0
split_feature=37 37 37 4 21 15 34 39 15 39 39 30 39 9 39 30 27 18 22 3 29 3 2 0 0 0 7 18 28 30
split_gain=0.00666847 0.0717131 0.0856518 0.199939 0.254107 0.581872 0.186484 0.231443 0.542621 0.130718 0.183006 0.13638 0.244084 0.125015 0.197305 0.623707 0.369196 0.17821 0.172302 0.167964 0.165353 0.136713 0.116064 0.207404 0.107811 0.141348 0.105561 0.292032 0.112143 0.163565
threshold=-0.35786749999999995 -0.026150000000000003 0.011134999999999897 -0.3422659999999999 0.31120700000000007 -0.0012949349999999999 0.010018650000000002 0.55890500000000032 -4.3908499999999996e-06 0.97785500000000003 1.3895649999999999 0.63863650000000016 5.5413300000000003 4.1028950000000006e-05 0.27381999999999979 0.010080700000000001 0.00024154950000000004 9.306535000000002 1.4856350000000003 -7.728794999999999 -1.0952499999999998e-06 -5.8879799999999989 3.0333000000000006 -8.4553549999999991 6.0594650000000003 -6.6224949999999998 -7.8930349999999975e-05 0.18529350000000003 -0.043051549999999994 0.0076036950000000006
decision_type=2 2 2 2 2 2 2 2 2 2 2 2 2 2 2 2 2 2 2 2 2 2 2 2 2 2 2 2 2 2
left_child=-1 -2 3 4 -3 -6 9 8 -8 13 -11 -12 -13 14 21 -16 -17 18 24 -15 -20 26 -4 -24 25 -18 27 -5 29 -28
right_child=1 2 22 6 5 -7 7 -9 -10 10 11 12 -14 19 15 16 17 -19 20 -21 -22 -23 23 -25 -26 -27 28 -29 -30 -31
leaf_value=1.013982097688144e-05 -0.00012334503503770531 -0.00040902280267332168 -3.663735385414754e-06 -0.0062552996032449988 0.0016150618236722603 -0.009896559994186923 0.0015712286107009276 -8.6440242124202394e-05 -0.0095800308520362417 -0.0031710410093957631 -0.00042260749712794978 0.0066497530505876066 -0.00031140994525391281 -0.00013028719081293358 -0.0067896131239831448 0.006735734467780809 0.0051536711356179286 0.0055303707127817552 -0.0045503659230788527 -0.0048153584193119069 0.0012696414035207665 0.0045511040236306142 0.00076265544842802529 -0.005881783941699921 0.0053487985511310402 0.00082242060809034146 -0.004446450634194272 0.0020832444380392274 0.0005958650971282487 2.8184215326104166e-05
leaf_weight=92918 12077 421 107371 21 21 23 20 90 24 54 371 20 34 440 20 41 22 26 23 20 26 20 24 23 20 131 21 21 2547 743
leaf_count=92918 12077 421 107371 21 21 23 20 90 24 54 371 20 34 440 20 41 22 26 23 20 26 20 24 23 20 131 21 21 2547 743
internal_value=0 -7.5546e-06 4.8604e-06 0.000202648 -0.000786889 -0.00440238 0.000299417 -0.00153937 -0.00451128 0.000352738 -0.000429262 -8.08947e-05 0.0022668 0.000443172 0.000540264 0.00174954 0.00234049 0.00161385 0.00115516 -0.000333986 -0.0014622 0.000429482 -4.75112e-06 -0.00248888 0.0018965 0.00144521 0.000404897 -0.00208603 0.000436495 -9.48097e-05
internal_weight=0 124715 112638 5220 465 44 4755 134 44 4621 479 425 54 4142 3682 309 289 248 222 460 49 3373 107418 47 173 153 3353 42 3311 764
internal_count=217633 124715 112638 5220 465 44 4755 134 44 4621 479 425 54 4142 3682 309 289 248 222 460 49 3373 107418 47 173 153 3353 42 3311 764
shrinkage=0.05


Tree=242
num_leaves=31
num_cat=0
split_feature=3 34 35 15 30 13 17 39 13 21 40 39 11 23 22 33 21 15 38 37 39 39 10 37 3 20 39 11 3 1
split_gain=0.00647433 0.0637803 0.127203 0.11507 0.178811 0.0473267 0.104176 0.0228225 0.0654796 0.0238961 0.0286711 0.0169357 0.014623 0.0203009 0.0114198 0.00848385 0.00836516 0.116684 0.168405 1.56039 0.915946 0.824375 0.745724 0.546294 0.538962 0.598163 0.520514 0.179477 0.125125 0.0994287
threshold=-18.627349999999996 0.015434100000000001 0.00067619600000000011 -0.00032340099999999991 2.6849000000000003 4.7861450000000004e-06 -5.7563499999999985 -0.82558500000000012 -8.5618749999999992e-07 0.44009350000000008 4.6343150000000017 -4.1528 0.011966550000000001 -6.1060649999999979e-05 38.031000000000013 -1.0243099999999997e-06 -0.35379549999999998 4.6772900000000005e-07 -0.3562499999999999 -0.2272394999999999 2.5222350000000002 -1.9691099999999999 6.6841800000000008e-05 0.19792950000000006 -9.3813899999999979 -13.010249999999997 -0.465335 0.00057278950000000004 -13.707299999999998 -5.3513949999999992
decision_type=2 2 2 2 2 2 2 2 2 2 2 2 2 2 2 2 2 2 2 2 2 2 2 2 2 2 2 2 2 2
left_child=1 7 -3 4 -4 6 -5 9 -9 15 -11 -8 13 -10 -12 -1 17 -2 -19 -20 21 -21 23 24 25 -23 -27 -26 -22 -24
right_child=16 2 3 5 -6 -7 11 8 12 10 14 -13 -14 -15 -16 -17 -18 18 19 20 28 22 29 -25 27 26 -28 -29 -30 -31
leaf_value=0.0010359181904459548 4.9932311976428431e-05 0.0047496321308426563 -0.00055295651785248383 0.0033395662880502646 0.0054891617717221378 -0.0022489582012685089 -0.00024331838057002833 0.0032838438299950218 0.0016939743887633087 -0.0018347166403193688 -3.7036769084993054e-05 -0.0020044552195395229 -0.0010137941741876686 -0.00024432125734165312 -0.0013469413260463626 -1.9053378556463052e-06 3.0618036137684172e-06 6.5573312792497067e-05 2.8253724329644334e-05 -0.0010062571192665437 -0.0040606678269493081 -0.0050479141845633946 0.0012601530163616796 -0.0011694248244263387 -0.003877588063073745 -0.0090329987946181339 -0.018944864882225243 -0.0081470339486622839 -0.00034965136555943334 -0.0024559660436150607
leaf_weight=20 18204 20 24 20 25 26 43 20 22 38 99 20 22 35 20 1278 187451 4555 4741 185 24 28 24 36 64 26 27 40 424 72
leaf_count=20 18204 20 24 20 25 26 43 20 22 38 99 20 22 35 20 1278 187451 4555 4741 185 24 28 24 36 64 26 27 40 424 72
internal_value=0 9.6285e-05 0.000992794 0.000517245 0.00252976 -0.000387462 0.000195657 -6.40396e-06 0.000728178 -5.63858e-05 -0.000639011 -0.000802409 8.11737e-05 0.000503793 -0.000257189 1.40858e-05 -7.72417e-07 -2.60353e-05 -0.000161006 -0.000342358 -0.0021919 -0.00365857 -0.00520645 -0.00680478 -0.00790139 -0.0109594 -0.0140824 -0.00551968 -0.000548456 -0.00152694
internal_weight=0 1732 178 158 49 109 83 1554 99 1455 157 63 79 57 119 1298 215901 28450 10246 5691 950 502 317 221 185 81 53 104 448 96
internal_count=217633 1732 178 158 49 109 83 1554 99 1455 157 63 79 57 119 1298 215901 28450 10246 5691 950 502 317 221 185 81 53 104 448 96
shrinkage=0.05


Tree=243
num_leaves=31
num_cat=0
split_feature=4 21 4 37 36 36 15 39 36 15 9 25 20 36 14 14 36 16 39 25 39 39 11 36 16 25 6 20 6 39
split_gain=0.00739245 0.221626 0.381907 0.470138 2.02976 0.544264 0.784236 1.20913 0.468102 0.551253 0.300109 0.29306 0.286202 0.758167 0.263045 0.442122 0.239672 0.235521 0.195669 0.265411 0.171982 0.354332 0.248807 0.450029 0.215957 0.295629 0.184939 0.221128 0.164297 0.148921
threshold=0.17191050000000002 0.20390150000000004 0.79460700000000006 0.19792950000000006 0.2761725000000001 -0.040859549999999939 2.4151150000000003e-05 2.3674900000000001 -0.058960000000000005 5.4423250000000013e-06 -8.4578999999999977e-05 -0.0320142 -8.6217649999999981 0.077348000000000056 1.7286400000000003e-06 4.5888800000000005e-06 0.12375499999999996 2.1832200000000004e-05 -1.9072949999999993 -0.11504399999999999 2.1254700000000009 0.76755000000000007 0.00096226550000000008 0.039429999999999972 1.5061950000000004e-06 0.059419700000000013 -1.8995799999999996e-06 -8.2009299999999978 -2.1736449999999996e-06 0.31279500000000043
decision_type=2 2 2 2 2 2 2 2 2 2 2 2 2 2 2 2 2 2 2 2 2 2 2 2 2 2 2 2 2 2
left_child=-1 -2 3 4 5 6 7 8 9 -3 -8 12 14 -14 16 -16 -7 -11 -12 -20 21 22 23 -13 -23 -26 -25 -28 -24 -21
right_child=1 2 -4 -5 -6 11 10 -9 -10 17 18 20 13 -15 15 -17 -18 -19 19 29 -22 24 28 26 25 -27 27 -29 -30 -31
leaf_value=-6.1015822445347477e-06 -3.8312274301989199e-05 0.017784951624205514 -2.1826529767134482e-05 -5.2522116493482798e-05 -4.8738774812918435e-05 0.0018964863636082394 -0.0042667669756338003 -0.00097101429250456449 0.0046960565252412191 0.0063996801900470428 -0.0019107645293526888 0.0011965720670890402 0.0026212000551859836 0.013976372120391933 0.0098916547112166894 0.00074357500707264998 -0.004186952835007105 0.012533029000042007 0.0080769393677738582 0.004241078109043883 -0.00059950550082976412 0.0090205948027274156 -0.0040868103458342377 0.001857341922974835 -0.00029128013154369346 0.0071281639058142906 0.011151678551964108 0.004626026433235144 0.00058069478764082309 0.00016583055600195246
leaf_weight=151301 50002 21 9868 2568 2468 85 20 44 51 45 23 253 49 21 25 28 20 24 22 40 100 22 20 24 29 25 21 34 329 51
leaf_count=151301 50002 21 9868 2568 2468 85 20 44 51 45 23 253 49 21 25 28 20 24 22 40 100 22 20 24 29 25 21 34 329 51
internal_value=0 1.39175e-05 0.000173844 0.000472648 0.000818985 0.00232077 0.00406319 0.00626506 0.00852313 0.0106918 0.00145199 0.00177315 0.0033663 0.00602775 0.00218718 0.00505871 0.000737736 0.00853302 0.00229298 0.00314861 0.0013493 0.00160674 0.00124536 0.00222524 0.00484487 0.00314365 0.00551957 0.00711764 0.000313216 0.00195715
internal_weight=0 66332 16330 6462 3894 1426 341 185 141 90 156 1085 228 70 158 53 105 69 136 113 857 757 681 332 76 54 79 55 349 91
internal_count=217633 66332 16330 6462 3894 1426 341 185 141 90 156 1085 228 70 158 53 105 69 136 113 857 757 681 332 76 54 79 55 349 91
shrinkage=0.05


Tree=244
num_leaves=31
num_cat=0
split_feature=25 36 37 17 2 19 11 37 19 18 31 8 11 6 27 22 18 10 17 18 39 18 39 39 13 18 27 18 27 39
split_gain=0.00684036 0.0405838 0.276614 0.195979 0.312665 0.471557 0.3389 0.187942 0.229447 0.219088 0.251257 0.206139 0.16245 0.153118 0.192686 0.20412 0.182785 0.1617 0.302134 0.380493 0.285328 0.189219 0.397576 0.37202 0.270705 0.270331 0.311946 0.246831 0.223506 0.264299
threshold=0.041210350000000007 -0.17527649999999997 -0.12554300000000002 -5.6544449999999999 1.8038550000000002 0.57270450000000006 0.00036183850000000008 -0.057539999999999918 2.9137900000000005 0.5292785000000001 0.098593250000000007 3.8126050000000004e-05 0.0019309400000000001 3.3806250000000003e-06 0.0026438850000000003 3.6432600000000006 8.8284250000000011 -1.3758149999999998e-05 -1.2822499999999997 1.0105000000000002 0.43278000000000022 6.4146550000000007 -0.086730000000000182 -0.23716000000000023 2.3811300000000004e-05 -0.43273099999999992 0.0035869550000000006 4.7688000000000015 0.0024282350000000004 -3.1159849999999993
decision_type=2 2 2 2 2 2 2 2 2 2 2 2 2 2 2 2 2 2 2 2 2 2 2 2 2 2 2 2 2 2
left_child=-1 -2 3 4 5 -3 -7 9 13 12 -11 -12 -4 17 15 -15 -16 18 19 -9 -21 23 28 25 -24 -19 27 -27 -23 -30
right_child=1 2 7 -5 -6 6 -8 8 -10 10 11 -13 -14 14 16 -17 -18 21 -20 20 -22 22 24 -25 -26 26 -28 -29 29 -31
leaf_value=2.8824935606615999e-06 1.8241962539587589e-05 -0.00043142427968430444 -0.001712705250776542 -6.5966456917024492e-05 0.00038310723562455431 0.0015002498547718544 0.0093771795671071037 -0.0056306597612211075 -0.0044248281422603342 -0.0016692736894237414 -0.0093806998782037278 -0.0025289216082940227 0.0042355875736878566 -0.00079173629721481127 -0.0017971463974660125 -0.0076311515063328741 0.0022347792697760987 0.006872685590362246 0.0052702943979008859 -0.00083578804094878295 0.0044698878423595385 -0.00087185712809993059 0.00055358878076846056 -0.00065820845687028398 -0.0055198508873581893 0.0076518584254059805 -0.00070778623409569266 0.00082628564895668001 -0.0011654868393573754 -0.0070187749686064548
leaf_weight=196821 14608 45 22 4040 498 22 36 23 35 226 21 23 24 20 108 24 38 27 38 58 45 57 222 320 20 27 75 26 30 54
leaf_count=196821 14608 45 22 4040 498 22 36 23 35 226 21 23 24 20 108 24 38 27 38 58 45 57 222 320 20 27 75 26 30 54
internal_value=0 -2.726e-05 -0.000134399 5.9352e-05 0.000901759 0.00340942 0.00638938 -0.000709704 -0.000433701 -0.00179886 -0.00234228 -0.00579909 0.00139075 -0.000318446 -0.00162186 -0.00452233 -0.000747741 -7.61291e-05 0.00136241 0.000183842 0.00148223 -0.000351095 -0.001178 0.000315654 5.16516e-05 0.00232621 0.00136718 0.00430346 -0.00328847 -0.00492831
internal_weight=0 20812 6204 4641 601 103 58 1563 1247 316 270 44 46 1212 190 44 146 1022 164 126 103 858 383 475 242 155 128 53 141 84
internal_count=217633 20812 6204 4641 601 103 58 1563 1247 316 270 44 46 1212 190 44 146 1022 164 126 103 858 383 475 242 155 128 53 141 84
shrinkage=0.05


Tree=245
num_leaves=31
num_cat=0
split_feature=8 31 28 12 36 18 3 32 25 31 28 32 11 39 14 39 21 7 18 36 36 1 33 20 20 12 20 33 36 12
split_gain=0.00668153 0.0292925 0.0619168 0.191123 0.413344 0.532039 0.0753827 0.203357 0.0386536 0.0686207 0.0470983 0.0317965 0.0720262 0.0341216 0.0863355 0.146064 0.0316687 0.0705797 0.0296137 0.0678692 0.339762 0.290661 0.357747 0.147349 0.0950971 0.227864 0.0768951 0.0592706 0.103417 0.267095
threshold=1.6290050000000002e-05 0.098593250000000007 3.1099700000000006 -5.1309549999999988e-07 0.354709 -5.4139599999999986 -15.284849999999999 -0.17249249999999997 -0.22198749999999998 0.019909950000000006 2.6219150000000004 -2.2564299999999995 0.0067067750000000008 1.4285350000000012 -9.510894999999998e-07 4.3741600000000007 -0.96093699999999993 -8.919119999999997e-06 6.8989050000000001 -0.079468000000000025 -0.027530000000000051 7.8334600000000005 -3.2722399999999995e-08 -14.447549999999998 -11.077049999999998 5.9976150000000007e-09 -12.100849999999999 -2.12674e-08 0.12375499999999996 -1.2418349999999998e-08
decision_type=2 2 2 2 2 2 2 2 2 2 2 2 2 2 2 2 2 2 2 2 2 2 2 2 2 2 2 2 2 2
left_child=1 2 8 4 5 -4 7 -5 9 -1 18 12 -3 16 15 -15 17 -13 -10 -20 21 -21 -23 -22 25 26 -25 28 29 -26
right_child=-2 11 3 6 -6 -7 -8 -9 10 -11 -12 13 -14 14 -16 -17 -18 -19 19 20 23 22 -24 24 27 -27 -28 -29 -30 -31
leaf_value=-0.00029354292235852472 3.4618772911976832e-06 -0.00026519782833929641 0.00089290959919956301 0.0058242826418245389 -0.00043964964185993181 0.012160731146668696 -0.00024137957512118037 -0.00014124307179736207 5.0020041399537748e-06 -0.0030659802742385575 0.0019628830805413599 -0.0030825103185083153 -0.0033790103638938703 0.0054111074475804346 -8.5480914974892227e-05 -0.0001431491352659891 -0.00022492988067376483 -0.00049917240711046793 -2.1698026579545419e-06 -0.00078206684038873819 0.0033194124720717687 -0.010758841448378834 -0.0018404028269604013 0.0016115816749030882 -0.0006351357739248026 -0.0064193563587434171 -0.001859597008467226 0.00014311777569841013 -4.9775156111914395e-05 -0.0052507815561315318
leaf_weight=110 188240 65 22 20 51 20 334 50 22489 28 30 33 26 20 453 29 551 133 3337 55 29 22 23 27 205 21 39 702 432 37
leaf_count=110 188240 65 22 20 51 20 334 50 22489 28 30 33 26 20 453 29 551 133 3337 55 29 22 23 27 205 21 39 702 432 37
internal_value=0 -2.21707e-05 -1.13902e-05 0.000541729 0.00258534 0.00625854 7.12939e-05 0.00156319 -2.13554e-05 -0.000856066 -1.71587e-05 -0.000253277 -0.00115486 -0.000185973 0.000130175 0.00212389 -0.000407321 -0.00101273 -1.93252e-05 -0.00013032 -0.000398937 -0.00322037 -0.00620053 -0.000209833 -0.000279791 -0.00188297 -0.000439569 -0.000178427 -0.00051333 -0.00134083
internal_weight=0 29393 28083 497 93 42 404 70 27586 138 27448 1310 91 1219 502 49 717 166 27418 4929 1592 100 45 1492 1463 87 66 1376 674 242
internal_count=217633 29393 28083 497 93 42 404 70 27586 138 27448 1310 91 1219 502 49 717 166 27418 4929 1592 100 45 1492 1463 87 66 1376 674 242
shrinkage=0.05


Tree=246
num_leaves=31
num_cat=0
split_feature=4 21 4 37 36 34 40 39 17 36 17 26 32 17 0 17 7 20 20 33 29 5 19 16 36 39 36 39 1 31
split_gain=0.00664878 0.199799 0.345611 0.426085 1.77852 0.511803 0.537139 0.750112 0.64668 0.650559 0.63907 0.626459 0.480375 0.461295 0.724102 0.440144 0.432427 0.312237 0.296099 0.292448 0.234306 0.220278 0.215744 0.192839 0.177171 0.165415 0.15639 0.228687 0.237478 0.206148
threshold=0.17191050000000002 0.20390150000000004 0.79460700000000006 0.24875600000000014 0.2761725000000001 -0.55203199999999986 2.9908550000000012 -0.61387499999999962 8.1756000000000011 -0.058960000000000005 -4.6868399999999992 0.017474100000000003 -0.0071753399999999997 -5.6544449999999999 -5.3044499999999992 4.2563050000000011 3.235295000000001e-05 -9.791624999999998 -7.829159999999999 -4.9754949999999999e-07 -4.1217849999999994e-05 2.1762900000000005e-05 -2.2092599999999996 2.8757950000000006e-06 0.039429999999999972 2.5222350000000002 -0.040859549999999939 0.76755000000000007 -4.4631249999999989 -0.0089637499999999978
decision_type=2 2 2 2 2 2 2 2 2 2 2 2 2 2 2 2 2 2 2 2 2 2 2 2 2 2 2 2 2 2
left_child=-1 -2 3 4 5 -3 7 10 13 -10 -7 15 -11 14 20 16 19 -13 22 -12 -9 -22 -15 -16 -20 26 29 -28 -29 -24
right_child=1 2 -4 -5 -6 6 -8 8 9 12 11 17 -14 18 23 -17 -18 -19 24 -21 21 -23 25 -25 -26 -27 27 28 -30 -31
leaf_value=-5.786543065904097e-06 -3.6392261844721801e-05 -0.0044277377266051443 -2.1094425284509891e-05 -5.8338037196136155e-05 -4.6564882659994143e-05 -0.0028565400652587414 -0.0017546050234858949 0.0059407594892504027 0.012366037850302679 0.010435796173987912 0.0089117048146284145 0.0071607430299211825 0.0017022005447919633 -0.0020178759708505824 0.012618332484825738 -0.00093399592841268285 0.012821944672614336 0.015509146665378164 0.0023638668739108539 0.0018675622716262119 0.0022739094289136118 -0.0025198411111165935 0.0078055702603887769 0.0062799697367674004 0.0070631550951576281 -0.00045184785826616762 0.0005201730225055961 0.0081375172805218474 0.0016254693142227121 0.0020496246780801032
leaf_weight=151301 50002 29 9868 2521 2468 20 78 35 27 20 23 21 74 65 21 27 20 24 78 41 138 29 20 28 27 150 345 21 42 70
leaf_count=151301 50002 29 9868 2521 2468 20 78 35 27 20 23 21 74 65 21 27 20 24 78 41 138 29 20 28 27 150 345 21 42 70
internal_value=0 1.31989e-05 0.000165046 0.000449297 0.000774023 0.00214891 0.00228099 0.00251143 0.00206083 0.0055253 0.00555809 0.00663689 0.00356041 0.00166869 0.00354372 0.00461946 0.0064045 0.0116132 0.00109334 0.00439905 0.00222104 0.00144146 0.000728279 0.00899641 0.00357226 0.00100374 0.00144217 0.00102602 0.00379615 0.00332872
internal_weight=0 66332 16330 6462 3941 1473 1444 1366 1190 121 176 156 94 1069 251 111 84 45 818 64 202 167 713 49 105 648 498 408 63 90
internal_count=217633 66332 16330 6462 3941 1473 1444 1366 1190 121 176 156 94 1069 251 111 84 45 818 64 202 167 713 49 105 648 498 408 63 90
shrinkage=0.05


Tree=247
num_leaves=31
num_cat=0
split_feature=37 37 21 12 4 30 15 3 26 20 26 40 15 4 18 5 39 8 6 7 20 23 15 12 36 29 5 21 8 36
split_gain=0.00728349 0.0870828 0.0888515 0.200614 0.29493 0.333243 0.118124 0.105832 0.288206 0.419074 0.161629 0.184095 0.464072 0.489917 0.407149 0.475 0.459743 0.294285 0.401901 0.254844 0.249479 0.247744 0.24599 0.205446 0.198092 0.170441 0.151703 0.146729 0.133455 0.126245
threshold=-0.27889399999999981 -0.026150000000000003 -1.1409399999999998 5.756625000000001e-06 -1.0382099999999996 4.6183500000000004 -7.2323849999999985e-06 -13.243349999999998 0.18537850000000003 -10.522449999999997 -0.20482949999999997 2.5130600000000003 -0.00019488549999999998 -0.24562099999999998 -5.0750049999999991 1.1114900000000003e-05 0.55890500000000032 2.5132750000000004e-05 6.3193550000000007e-07 8.0554100000000015e-06 -14.447549999999998 0.00022699600000000003 -3.7438549999999997e-06 -4.3823949999999997e-07 0.077348000000000056 -3.5620349999999992e-05 1.1973750000000002e-05 0.33996650000000006 2.4808900000000002e-05 0.077348000000000056
decision_type=2 2 2 2 2 2 2 2 2 2 2 2 2 2 2 2 2 2 2 2 2 2 2 2 2 2 2 2 2 2
left_child=-1 2 3 4 -2 -6 -7 8 10 -10 -4 12 21 20 15 -15 17 18 19 27 26 23 -20 -12 -19 -18 -14 -16 -27 -9
right_child=1 -3 7 -5 5 6 -8 29 9 -11 11 -13 13 14 16 -17 25 24 22 -21 -22 -23 -24 -25 -26 28 -28 -29 -30 -31
leaf_value=1.0342444604989647e-05 0.0042173806148388523 4.1583399533035885e-06 -0.0030708572407885911 -0.0041282060665414778 -0.0056283190899514869 0.0033244863443542272 -0.00079633552085430111 -0.00054435769767243174 0.0084214739626846651 9.0931876265029938e-05 -0.00116422429994584 -0.00023716021252490505 0.0007519464121170102 0.00057217590316819655 0.00034338006357540423 0.011005498422309757 -0.0059163747509391497 0.0013656612123082534 0.0033671698675607335 -0.0033132667774739472 0.0088182069644219523 0.0027637014226891791 0.011209209708176786 -0.0059889336534575304 -0.0032269370593638043 -0.0041725209485739467 0.005878408073126425 0.0063274245662614708 0.00048435010343382599 -8.5280801701782865e-05
leaf_weight=95517 29 112638 39 45 34 22 83 2037 26 36 57 929 31 24 21 20 29 59 20 23 29 23 20 36 39 25 27 20 40 5655
leaf_count=95517 29 112638 39 45 34 22 83 2037 26 36 57 929 31 24 21 20 29 59 20 23 29 23 20 36 39 25 27 20 40 5655
internal_value=0 -8.08968e-06 -0.000153647 -0.00116331 -0.000369143 -0.00132604 6.70748e-05 -0.000130435 0.000243254 0.00358439 0.000106159 0.000190333 0.000921716 0.00168358 0.000826864 0.0053146 0.000159769 0.00150399 0.00335656 0.000899287 0.00503167 -0.00188274 0.00728819 -0.00303185 -0.000462005 -0.00272887 0.0031384 0.00326243 -0.00130675 -0.000206854
internal_weight=0 122116 9478 213 168 139 105 9265 1573 62 1511 1472 543 427 340 44 296 202 104 64 87 116 40 93 98 94 58 41 65 7692
internal_count=217633 122116 9478 213 168 139 105 9265 1573 62 1511 1472 543 427 340 44 296 202 104 64 87 116 40 93 98 94 58 41 65 7692
shrinkage=0.05


Tree=248
num_leaves=31
num_cat=0
split_feature=22 37 37 4 21 21 39 39 36 4 39 17 4 4 4 39 39 4 11 8 15 20 3 39 18 18 12 39 17 17
split_gain=0.00682354 0.0381528 0.379449 0.311387 1.88399 1.22608 1.50379 1.32618 1.13807 0.840903 0.71216 0.824319 0.648724 0.634365 0.686605 0.564147 0.791222 0.544639 0.866784 0.436977 0.40118 0.34302 0.32373 0.449126 0.901546 0.466944 0.34699 0.320566 0.835607 0.58398
threshold=2.3108700000000004 0.22260499999999997 -0.10141500000000002 0.14946850000000003 0.25201650000000003 0.29620600000000008 1.8568299999999998 -0.99152500000000054 -0.079468000000000025 2.0063000000000004 0.27381999999999979 0.46527500000000005 -0.11642199999999998 -0.20278049999999997 -1.8861499999999998 2.1254700000000009 -1.3362800000000006 1.3297700000000001 0.00059245900000000015 3.0829950000000005e-05 6.9277650000000016e-07 -8.481284999999998 -16.266399999999997 -0.61387499999999962 -7.6068149999999983 6.6864550000000014 -1.0015049999999998e-05 -0.71725499999999964 -4.4743249999999994 3.3940200000000007
decision_type=2 2 2 2 2 2 2 2 2 2 2 2 2 2 2 2 2 2 2 2 2 2 2 2 2 2 2 2 2 2
left_child=-1 2 -2 5 15 13 7 -7 19 27 11 -10 -12 14 -4 16 -5 18 -18 -9 -15 -21 -16 24 -24 -26 -25 28 -6 -30
right_child=1 -3 3 4 9 6 -8 8 10 -11 12 -13 -14 20 22 -17 17 -19 -20 21 -22 -23 23 26 25 -27 -28 -29 29 -31
leaf_value=4.5377894994843937e-06 1.9773958652570712e-05 3.3479691080488865e-05 -0.0018265855026057627 -0.0016945442078171342 -0.0033781125145996441 -0.0018675701303385653 -0.00023146056573425866 -0.0073412507584887654 -0.0085947820200369916 -0.0017322480559992402 -0.014247948759002611 -0.020958491621838354 -0.0030710440103870794 -0.00097005224803016748 -0.0031769992990816455 -0.00037245154373739581 -0.0043219087088281023 -0.0036008811770273045 -0.016368025018891785 0.0049472485081059857 -0.0062297207208198068 -0.0036262187983084008 -0.005719981807633303 -0.0045361710900369175 0.00696853890528603 -0.00099918836389075632 0.0014013643922376629 0.0015540736476459358 0.0089648880775452452 0.0016138962184248321
leaf_weight=172355 21435 20370 190 122 29 214 385 36 26 181 20 28 37 515 34 134 28 48 32 20 39 28 20 26 112 22 459 574 70 44
leaf_count=172355 21435 20370 190 122 29 214 385 36 26 181 20 28 37 515 34 134 28 48 32 20 39 28 20 26 112 22 459 574 70 44
internal_value=0 -1.72735e-05 -5.878e-05 -0.000543607 8.30541e-05 -0.000901294 -0.00247423 -0.00458539 -0.00756802 0.00131302 -0.0108909 -0.0150056 -0.00699276 -1.99187e-05 0.000827707 -0.00295131 -0.00445377 -0.00757067 -0.0107465 -0.00317707 -0.00134032 -5.39408e-05 0.00157706 0.00183002 0.00418243 0.0056604 0.00108306 0.00208177 0.00419992 0.00612766
internal_weight=0 45278 24908 3473 1262 2211 794 409 195 898 111 54 57 1417 863 364 230 108 60 84 554 48 673 639 154 134 485 717 143 114
internal_count=217633 45278 24908 3473 1262 2211 794 409 195 898 111 54 57 1417 863 364 230 108 60 84 554 48 673 639 154 134 485 717 143 114
shrinkage=0.05


Tree=249
num_leaves=31
num_cat=0
split_feature=8 2 31 28 12 36 18 3 32 25 31 28 32 9 3 25 10 34 0 15 12 28 1 12 14 36 39 14 39 4
split_gain=0.00646105 0.0326395 0.0260831 0.0548885 0.171033 0.361077 0.515876 0.0610804 0.193313 0.0341041 0.0583534 0.0414025 0.0286195 0.0653308 0.0308698 0.0282155 0.0717054 0.0289656 0.0979056 0.037839 0.0314004 0.0299148 0.0650105 0.268533 0.052863 0.0743188 0.0266578 0.0751333 0.129607 0.0262826
threshold=1.6290050000000002e-05 3.0578500000000006 0.098593250000000007 3.1099700000000006 -4.3823949999999997e-07 0.354709 -4.9296999999999995 -15.284849999999999 -0.17249249999999997 -0.22198749999999998 0.019909950000000006 2.6219150000000004 -2.2564299999999995 1.4690450000000003e-05 -19.074649999999995 1.9114100000000003 4.5233300000000006e-05 -0.16268899999999997 -3.5052499999999998 0.0036590750000000003 -1.1660999999999999e-06 1.3481400000000001 -4.2653099999999986 -5.525729999999999e-07 8.5947450000000013e-08 0.1751400000000001 1.4285350000000012 -9.510894999999998e-07 4.3741600000000007 -0.24562099999999998
decision_type=2 2 2 2 2 2 2 2 2 2 2 2 2 2 2 2 2 2 2 2 2 2 2 2 2 2 2 2 2 2
left_child=1 2 3 9 5 6 -5 8 -6 10 29 15 13 -4 -14 17 -17 18 -11 20 -20 -19 23 -23 -25 -26 -16 28 -28 -1
right_child=-2 -3 12 4 7 -7 -8 -9 -10 11 -12 -13 14 -15 26 16 -18 21 19 -21 -22 22 -24 24 25 -27 27 -29 -30 -31
leaf_value=0.0011008805089939135 3.4042779515601699e-06 0.0019487006581454939 -0.00038560042427287074 0.00088703143666498362 0.0055390514298051131 -0.00038902122118829373 0.011660704303067178 -0.00023353313968045575 -0.00033008302878907345 -0.0038426974925511916 -0.0028453365437599134 0.0018379683557820199 -0.0018492589151450107 -0.0036208337690914051 -0.00034020859829715481 -0.00035145546467139221 0.0034885804077111971 -2.430194282700524e-05 0.0018659969221334904 -0.0021557861541742058 -0.00024068936289135833 0.0060596539399133086 -0.00015654888308340583 -0.00054260325645869175 0.0031501090505644831 -0.00031210139084343554 0.005094854649505578 -6.3367520110760875e-05 -0.00013714614141118264 -0.00072088119445707201
leaf_weight=26 188240 21 71 25 20 54 20 331 47 21 28 30 27 20 693 31 20 26758 20 23 153 24 209 77 31 31 20 450 29 83
leaf_count=26 188240 21 71 25 20 54 20 331 47 21 28 30 27 20 693 31 20 26758 20 23 153 24 209 77 31 31 20 450 29 83
internal_value=0 -2.18018e-05 -2.32107e-05 -1.30304e-05 0.000507747 0.0023675 0.00567533 4.51449e-05 0.0014219 -2.24201e-05 -0.000809341 -1.84895e-05 -0.000241286 -0.00109664 -0.000177432 -2.05223e-05 0.00115444 -2.27135e-05 -0.000598089 -0.000250452 2.85818e-06 -1.81113e-05 0.000427179 0.00117564 0.000332358 0.001419 -0.000139564 0.000139087 0.00199836 -0.000286333
internal_weight=0 29393 29372 28062 497 99 45 398 67 27565 137 27428 1310 91 1219 27398 51 27347 217 196 173 27130 372 163 139 62 1192 499 49 109
internal_count=217633 29393 29372 28062 497 99 45 398 67 27565 137 27428 1310 91 1219 27398 51 27347 217 196 173 27130 372 163 139 62 1192 499 49 109
shrinkage=0.05


Tree=250
num_leaves=31
num_cat=0
split_feature=31 12 12 36 37 24 39 40 37 13 5 12 12 13 31 31 16 39 29 22 32 3 3 13 30 4 25 4 4 0
split_gain=0.00666536 0.149228 0.144461 0.104852 0.785164 0.684282 0.63299 0.995599 0.653249 0.513702 0.5647 0.577352 0.50429 0.572496 0.472428 0.267308 0.258915 0.260232 0.371789 0.40589 0.604938 0.309317 0.524782 0.228451 0.219751 0.165127 0.261173 0.157836 0.139268 0.138174
threshold=1.8741500000000003e-05 -9.6356049999999989e-08 -3.0013349999999998e-08 0.2761725000000001 0.19792950000000006 1.3732500000000003 1.6830350000000001 1.9491550000000004 -0.15132349999999997 -3.2239999999999995e-06 3.4028100000000007e-05 -4.3823949999999997e-07 -1.2624199999999998e-05 -2.5610849999999994e-07 0.0087822150000000012 0.039030700000000008 8.167805000000002e-06 1.3091549999999998 -6.7813849999999989e-06 0.22983600000000001 0.0011454550000000003 -7.1133149999999992 -6.6876799999999994 1.4317750000000002e-06 0.19209600000000002 0.038924450000000006 0.025975700000000001 0.14946850000000003 -0.062481749999999996 1.2217400000000003
decision_type=2 2 2 2 2 2 2 2 2 2 2 2 2 2 2 2 2 2 2 2 2 2 2 2 2 2 2 2 2 2
left_child=1 -1 3 4 5 16 7 8 23 15 11 12 -11 -14 -13 -10 17 18 19 -2 -21 -20 -23 -7 -16 26 29 -17 -24 -18
right_child=2 -3 -4 -5 -6 6 -8 -9 9 10 -12 14 13 -15 24 27 25 -19 21 20 -22 22 28 -25 -26 -27 -28 -29 -30 -31
leaf_value=6.4349166885420769e-05 -5.377110350569378e-05 -5.4969997335380943e-05 6.1160592674287188e-05 1.4032091391727169e-05 8.6382889402257843e-06 -0.002392057807888019 -0.00049184099196991605 -0.00051317012958132556 -0.00014019025485972539 -0.0044948372154613022 0.00053777214023284622 -0.010155982888517752 -0.0090940125504857857 -0.018883905689498146 0.0015987223410601952 -0.00256041469565389 0.00059454295007789774 -0.00023847107696054354 -0.00019907595203893952 -0.012623461472685449 -0.0022299681991821024 -0.0083791537153299744 -0.0038764025318508582 0.0034555374925216518 -0.0052209689894139218 -0.00060190619941084009 0.0046454170806321075 -0.0088420615647919476 0.00046326922001397035 -0.00042786377840377249
leaf_weight=42843 28 67473 59211 25494 18325 61 492 252 47 20 20 31 32 28 21 20 748 423 230 28 28 36 29 23 27 967 33 20 51 592
leaf_count=42843 28 67473 59211 25494 18325 61 492 252 47 20 20 31 32 28 21 20 748 423 230 28 28 36 29 23 27 967 33 20 51 592
internal_value=0 -8.63047e-06 8.87165e-06 -5.54879e-05 -0.000133869 -0.000743021 -0.00182222 -0.00290951 -0.00463487 -0.00584874 -0.0073806 -0.00837662 -0.0113707 -0.0136626 -0.00534466 -0.00269699 -0.000373261 -0.00111899 -0.00198518 -0.00496907 -0.00742671 -0.00126077 -0.00336585 -0.000790931 -0.00223735 -0.00010142 0.000251072 -0.00570124 -0.00110986 0.000142853
internal_weight=0 110316 107317 48106 22612 4287 1094 602 350 266 179 159 80 60 79 87 3193 853 430 84 56 346 116 84 48 2340 1373 40 80 1340
internal_count=217633 110316 107317 48106 22612 4287 1094 602 350 266 179 159 80 60 79 87 3193 853 430 84 56 346 116 84 48 2340 1373 40 80 1340
shrinkage=0.05


Tree=251
num_leaves=31
num_cat=0
split_feature=26 1 3 0 14 9 16 17 7 17 9 9 8 34 8 9 3 15 9 3 0 9 1 6 9 36 36 1 36 20
split_gain=0.00650397 0.0322133 0.0332337 0.284135 0.252005 0.0488152 0.0598934 0.0629156 0.0466517 0.0526848 0.10894 0.161507 0.0949557 0.0450236 0.130133 0.0373396 0.116605 0.16047 0.0446437 0.0804877 0.144353 0.0773628 0.107998 0.0771528 0.0490782 0.0431958 0.107813 0.0316442 0.0448061 0.0307946
threshold=-0.44589049999999997 -14.712749999999998 -11.394249999999998 5.5506700000000011 6.9933600000000013e-06 0.00014627600000000001 0.0029219050000000002 13.501750000000001 5.2649200000000011e-05 1.3891550000000004 0.00010892050000000002 0.00017205800000000003 2.4628450000000003e-05 1.8271150000000003 1.8878250000000005e-05 9.9230750000000009e-05 -8.7018349999999973 0.00025725050000000005 6.2986800000000012e-05 -6.280479999999999 7.8324700000000016 4.8912350000000013e-05 -5.6681399999999993 -3.3864449999999993e-07 3.2725900000000011e-05 -0.10081500000000009 0.327845 -3.7200499999999992 0.68543200000000015 -11.167499999999999
decision_type=2 2 2 2 2 2 2 2 2 2 2 2 2 2 2 2 2 2 2 2 2 2 2 2 2 2 2 2 2 2
left_child=1 -1 3 8 -5 15 7 -7 9 10 13 -12 -13 -3 -15 18 17 -17 21 20 27 24 -23 -24 -4 -26 -27 -20 -29 -18
right_child=-2 2 5 4 -6 6 -8 -9 -10 -11 11 12 -14 14 -16 16 29 -19 19 -21 -22 22 23 -25 25 26 -28 28 -30 -31
leaf_value=0.0018151449701690582 -1.2360127056570718e-06 -0.00030100974948093579 4.9119109633659527e-05 0.0002376568671312431 0.0062006340995926501 -0.00088192290998543698 -0.00019594038508044824 -0.0038824955514282916 0.0018728112422728112 -0.00023921744595651069 0.0059165784896495531 0.0035371771837526471 -0.00075975380640455929 0.0044218573621557363 -0.00048257791882190906 0.0055322122289217079 -0.002102737950848504 -0.00039657033880108176 -0.00014445892340046596 -0.0034748705181991686 0.0029696388101438063 0.0043775394110828836 0.0028350589352339741 -0.0010578841422518184 7.703074006712996e-05 -0.0036407884974913626 -0.00024035934251197245 -0.0040426126279635355 -0.00073582962892639145 0.00036137663792032985
leaf_weight=26 213272 209 2442 34 37 58 207 25 35 679 21 20 36 21 38 25 21 21 27 25 25 24 20 35 77 37 63 20 21 32
leaf_count=26 213272 209 2442 34 37 58 207 25 35 679 21 20 36 21 38 25 21 21 27 25 25 24 20 35 77 37 63 20 21 32
internal_value=0 6.04464e-05 4.99223e-05 0.000283074 0.00334512 -3.22811e-05 -0.000650943 -0.00178571 7.77812e-05 1.64277e-05 0.000519567 0.00217715 0.000774864 4.33209e-05 0.00126307 2.92668e-05 0.000983676 0.00282559 -4.28667e-06 -0.000956236 -0.000279184 3.73479e-05 0.00157894 0.000357732 -9.15295e-06 -0.00081311 -0.00149852 -0.0014736 -0.00234889 -0.000614971
internal_weight=0 4361 4335 1130 71 3205 290 83 1059 1024 345 77 56 268 59 2915 99 46 2816 118 93 2698 79 55 2619 177 100 68 41 53
internal_count=217633 4361 4335 1130 71 3205 290 83 1059 1024 345 77 56 268 59 2915 99 46 2816 118 93 2698 79 55 2619 177 100 68 41 53
shrinkage=0.05


Tree=252
num_leaves=31
num_cat=0
split_feature=36 1 20 26 22 30 26 3 12 12 14 21 12 9 2 17 7 7 9 9 11 17 9 9 14 3 17 0 36 2
split_gain=0.00629093 0.157678 0.0581646 0.0326324 0.0226783 0.0217691 0.00820797 0.0573014 0.0928265 0.221175 0.341157 0.252376 0.170229 0.132815 0.0631761 0.0484887 0.047308 0.0229393 0.0957218 0.0480061 0.0836264 0.0601823 0.0332433 0.0451029 0.0232553 0.0210611 0.0169855 0.081436 0.0738779 0.0342627
threshold=5.6762150000000009 0.42337950000000008 -19.309399999999997 0.30041650000000003 17.806750000000005 1.5909750000000003 1.0482150000000001 -16.722199999999997 -9.0272649999999983e-06 -4.6146349999999992e-05 7.7830150000000009e-06 1.1195950000000001 -2.0464649999999995e-06 -5.7102799999999991e-05 2.5248350000000008 4.8193800000000007 -5.1806599999999991e-06 -3.2223699999999994e-05 -0.00012512549999999997 -9.3323749999999985e-05 0.00062372550000000006 -16.050999999999998 -6.7024799999999989e-05 -3.8189799999999991e-05 4.6606600000000007e-08 -9.095304999999998 -19.608449999999998 -10.244649999999998 -0.14969009999999991 -2.5264449999999994
decision_type=2 2 2 2 2 2 2 2 2 2 2 2 2 2 2 2 2 2 2 2 2 2 2 2 2 2 2 2 2 2
left_child=6 -2 -3 5 -5 -4 26 16 9 14 25 -12 13 -10 15 -9 -8 19 -19 21 24 -14 -20 -24 -21 -11 27 28 -1 -29
right_child=1 2 3 4 -6 -7 7 8 12 10 11 -13 17 -15 -16 -17 -18 18 22 20 -22 -23 23 -25 -26 -27 -28 29 -30 -31
leaf_value=0.00019859939580783249 0.0036960261850496564 0.0025438900349399776 -1.7003227822127032e-05 -0.0025542017084080725 -0.00050052157791536202 0.0016156626768947934 -0.0036003779344719079 -0.00028083247525947691 -0.0058646682184189565 -0.0012675895646680148 0.001802824293554295 0.0094078284421508836 -0.0036442667284366814 -0.0011242869520275336 -0.0024906855847851668 0.0023918872817012015 -0.00065691533437889447 0.0025178041446378228 -0.0020430588569503188 -0.0016610354447038846 0.0027415449247675263 -0.00058820422111276291 0.0020214096147810781 -9.2519498349601142e-05 -0.00018754048578557559 0.000777222470188623 -3.8181942494765468e-07 -0.0012631154053278375 0.0043974037985952405 0.00023435706976622755
leaf_weight=20 30 22 735 20 41 21 20 112 22 20 20 24 24 45 28 20 43 37 21 33 23 49 26 855 142 34 214660 42 22 422
leaf_count=20 30 22 735 20 41 21 20 112 22 20 20 24 24 45 28 20 43 37 21 33 23 49 26 855 142 34 214660 42 22 422
internal_value=0 0.000134261 6.90311e-06 -6.14123e-05 -0.00117386 2.83486e-05 -5.38247e-07 -0.000113438 -5.27811e-05 0.000812261 0.00268284 0.00595101 -0.000227551 -0.00268083 -0.000333467 0.000124125 -0.00159135 -9.17081e-05 2.52471e-05 -0.000496951 -9.28757e-05 -0.00159294 -7.69975e-05 -3.01334e-05 -0.0004654 1.98847e-05 3.0024e-07 0.00028965 0.00239797 9.881e-05
internal_weight=0 869 839 817 61 756 216764 1598 1535 258 98 44 1277 67 160 132 63 1210 939 271 198 73 902 881 175 54 215166 506 42 464
internal_count=217633 869 839 817 61 756 216764 1598 1535 258 98 44 1277 67 160 132 63 1210 939 271 198 73 902 881 175 54 215166 506 42 464
shrinkage=0.05


Tree=253
num_leaves=31
num_cat=0
split_feature=31 12 12 37 36 24 39 39 31 16 12 16 22 9 30 27 7 17 10 35 10 17 17 5 16 13 16 40 6 16
split_gain=0.00611817 0.135772 0.130039 0.106956 0.900783 0.683542 0.794569 0.734862 0.59143 0.476818 1.16779 0.520753 0.387377 0.386271 0.308766 0.322552 0.262169 0.297111 0.280124 0.220523 0.19894 0.177252 0.25807 0.428938 0.168002 0.273786 0.37196 0.2315 0.621067 0.753194
threshold=1.8741500000000003e-05 -3.1922299999999996e-08 -3.0013349999999998e-08 0.19792950000000006 0.10022550000000004 0.77166350000000017 1.8568299999999998 -1.7081299999999999 -0.0054261899999999983 0.00042279750000000005 1.9390250000000003e-07 3.0721050000000003e-05 0.81985550000000007 2.2232350000000001e-05 0.2810120000000001 0.0053263050000000008 2.8400100000000003e-05 -2.2833199999999994 -2.9523999999999997e-05 0.00012862450000000002 -1.7544299999999997e-05 4.7641500000000008 -2.4468249999999996 1.7279250000000002e-05 1.9131000000000004e-05 1.4045900000000002e-08 6.1128050000000005e-06 -0.77194499999999999 -9.7500849999999969e-07 2.6838200000000004e-09
decision_type=2 2 2 2 2 2 2 2 2 2 2 2 2 2 2 2 2 2 2 2 2 2 2 2 2 2 2 2 2 2
left_child=1 -1 -2 4 5 24 7 -7 9 10 14 -12 -10 21 19 -16 17 -11 -18 -9 -19 22 23 -14 25 26 -3 -27 29 -29
right_child=2 3 -4 -5 -6 6 -8 8 12 16 11 -13 13 -15 15 -17 18 20 -20 -21 -22 -23 -24 -25 -26 27 -28 28 -30 -31
leaf_value=5.176482568391237e-05 -5.25628406371664e-05 7.4237650102811916e-05 5.8109971736016322e-05 4.0785692099745849e-06 -1.3713526551778818e-05 -0.00071342510329703884 -0.00024042111998418675 -0.0027753428740349292 -0.0080846020629740615 -0.0058382257829758932 -0.017856290773488583 -0.0082965680622848967 -0.0092620382129791241 0.0044527460967569996 0.0035669708757528236 -0.0048386316429823639 -0.0095329381247910745 0.0041103745678600931 -0.0029868637941862374 -0.0095031515173292884 -0.0025225982812116855 -0.0052813249029868255 0.00081881055359778708 0.00062167810408383321 -4.3257994968565839e-05 -0.00044366769764632203 -0.0065344698644945647 -0.00076740390742832633 -0.0001854708992901072 -0.0073322925660520046
leaf_weight=50806 48106 661 59211 31317 24101 268 498 21 22 22 28 29 21 27 21 25 26 26 44 29 20 33 68 23 1578 244 22 77 158 101
leaf_count=50806 48106 661 59211 31317 24101 268 498 21 22 22 28 29 21 27 21 25 26 26 44 29 20 33 68 23 1578 244 22 77 158 101
internal_value=0 -8.26862e-06 8.49969e-06 -5.95215e-05 -0.000130169 -0.000816066 -0.00178992 -0.00281468 -0.00397579 -0.00540141 -0.00732359 -0.0129926 -0.00183735 -0.00103828 -0.00395764 -0.00100129 -0.0032703 -0.00105916 -0.00541826 -0.00667747 0.00122647 -0.00206075 -0.00111183 -0.00409555 -0.000387244 -0.000817022 -0.000138634 -0.00161588 -0.00246713 -0.00449243
internal_weight=0 110316 107317 59510 28193 4092 1251 753 485 291 153 57 194 172 96 46 138 68 70 50 46 145 112 44 2841 1263 683 580 336 178
internal_count=217633 110316 107317 59510 28193 4092 1251 753 485 291 153 57 194 172 96 46 138 68 70 50 46 145 112 44 2841 1263 683 580 336 178
shrinkage=0.05


Tree=254
num_leaves=31
num_cat=0
split_feature=18 37 39 1 37 19 7 3 21 14 15 36 3 1 28 36 36 9 29 4 36 36 23 23 31 36 36 11 3 36
split_gain=0.00648489 0.0756305 0.0641907 0.168253 0.162984 0.677652 0.247882 0.380499 0.0909563 0.156142 0.0683832 0.10561 0.0527978 0.0503952 0.0628504 0.0587695 0.173043 0.0407147 0.0246306 0.160696 0.0210502 0.0608715 0.0199622 0.0176232 0.0238785 0.0404437 0.122077 0.019794 0.0174928 0.0158263
threshold=-13.388899999999998 4.6270000000000016 0.027469999999999221 -3.1361349999999999 0.46135450000000006 -0.75575599999999987 4.1938750000000006e-06 -8.1170399999999976 0.11369050000000001 -6.530729999999998e-08 -6.7236599999999979e-05 0.016888500000000004 -11.976899999999999 -6.5414749999999993 0.31163200000000008 -0.51801999999999981 0.14973499999999998 6.7097500000000004e-06 -0.0025000549999999997 1.1247450000000001 0.354709 -0.10081500000000009 -0.00011522749999999999 0.069955350000000013 0.17102100000000001 0.43531000000000003 -0.19934349999999995 0.0069578350000000008 -5.0278399999999994 0.24966499999999994
decision_type=2 2 2 2 2 2 2 2 2 2 2 2 2 2 2 2 2 2 2 2 2 2 2 2 2 2 2 2 2 2
left_child=1 2 13 4 5 6 7 -4 9 -9 -8 17 -5 14 -1 -16 -17 -12 19 -15 21 -14 -11 24 -20 26 27 -26 -6 -13
right_child=-2 -3 3 12 28 -7 10 8 -10 22 11 29 20 18 15 16 -18 -19 23 -21 -22 -23 -24 -25 25 -27 -28 -29 -30 -31
leaf_value=-0.00016398890399453678 -1.1031254016494919e-06 0.0026557077320051446 0.0079180684427868717 -0.0018797314904077213 -0.00019253718687382206 0.0094382603336125616 -0.0020558175960364417 0.0035459242977334987 0.0041943549964950462 -0.0014480515550161499 0.0011593462901483117 -0.0014670413291162773 -0.00020019057613326636 -0.00043247540462217375 -0.00012250965473634633 -0.0054411227116361264 -0.00049330967561027773 0.0041357887710910292 -4.4083713329472969e-05 0.0041887446905020621 1.3652660789304126e-06 -0.0031587926216334813 0.00020958926105820518 0.0010126702184373114 0.00097653784941940111 -7.8646493281259364e-05 -0.0047900251789195908 -0.0010681204218317049 0.0010995035435967268 -5.9107746034854832e-05
leaf_weight=170 214135 28 27 44 271 25 35 35 24 32 27 23 101 76 39 30 43 20 1247 25 712 21 42 35 20 116 21 29 29 151
leaf_count=170 214135 28 27 44 271 25 35 35 24 32 27 23 101 76 39 30 43 20 1247 25 712 21 42 35 20 116 21 29 29 151
internal_value=0 6.75294e-05 4.66449e-05 0.000276588 0.000831426 0.00144304 0.000962553 0.00250641 0.0014078 0.000794243 -2.35434e-06 0.000322855 -0.000191674 -0.000154478 -0.000769865 -0.0016895 -0.00252666 0.00242592 -4.3873e-05 0.000711391 -0.000102616 -0.000709458 -0.000507228 -9.5836e-05 -0.00012291 -0.000651388 -0.0016005 -0.000233566 -6.76399e-05 -0.000245214
internal_weight=0 3498 3470 1619 741 441 416 160 133 109 256 221 878 1851 282 112 73 47 1569 101 834 122 74 1468 1433 186 70 49 300 174
internal_count=217633 3498 3470 1619 741 441 416 160 133 109 256 221 878 1851 282 112 73 47 1569 101 834 122 74 1468 1433 186 70 49 300 174
shrinkage=0.05


Tree=255
num_leaves=31
num_cat=0
split_feature=17 39 3 0 10 4 8 9 40 0 34 3 8 18 4 23 4 23 4 27 36 1 13 28 29 1 6 3 6 0
split_gain=0.00601856 0.0333378 0.0968803 0.383762 0.38024 0.103784 0.19299 0.0546724 0.0538152 0.0856472 0.129654 0.138649 0.228272 0.111882 0.0600504 0.0852332 0.0585919 0.0724782 0.0912373 0.0588657 0.0774188 0.0679864 0.10472 0.0494138 0.044405 0.0421908 0.0388187 0.0374734 0.0679849 0.0443408
threshold=-8.175164999999998 -0.026199999999999776 -12.046299999999997 -4.3615599999999999 2.1772650000000002e-05 -1.1200049999999997 2.0248200000000004e-05 -0.0001144375 -0.47859499999999983 -4.8003249999999991 -0.00064176049999999996 -8.0060399999999969 5.0113350000000004e-05 -9.853489999999999 -0.54650249999999989 0.00018073150000000004 0.078893300000000013 -8.3371299999999979e-05 0.095552850000000009 0.00017974950000000002 0.077348000000000056 -1.0953499999999996 -2.5610849999999994e-07 -0.053237499999999993 -4.9805199999999989e-06 4.3204200000000013 -4.7355299999999985e-06 -6.0574999999999983 1.3950750000000001e-06 -7.3054249999999987
decision_type=2 2 2 2 2 2 2 2 2 2 2 2 2 2 2 2 2 2 2 2 2 2 2 2 2 2 2 2 2 2
left_child=1 27 3 4 -3 6 -5 -7 -4 10 11 12 -10 -12 15 -15 19 -18 -19 -16 21 24 23 -23 -21 -13 -20 29 -29 -1
right_child=-2 2 8 5 -6 7 -8 -9 9 -11 13 25 -14 14 16 -17 17 18 26 20 -22 22 -24 -25 -26 -27 -28 28 -30 -31
leaf_value=-0.00031438833195628101 -3.0685904088798975e-06 0.0074862164290000997 1.2737882432406318e-05 0.0057463745656423275 0.00041046395356691371 -0.0027771640957798809 -0.00078665850451216108 -0.00025743142975120611 0.0016251195797412949 -5.0821145159020139e-05 0.0040633812847954689 -0.0001082280885043474 0.0076438998280892803 0.00020500217887023067 0.00028335262550233917 -0.0033200003962082082 0.0006659782410924957 -0.0040705381653401672 -0.0024625994375674053 0.0027679839764129036 -0.00086945377347547037 0.0031166514822204287 0.0055334252445027234 0.00024687161019149544 0.00016915526733310589 0.0021642100134825646 -6.4493424718050477e-05 0.0035713487503016951 -0.00045651155404894701 -5.9949377568575414e-06
leaf_weight=1283 191545 39 9758 20 37 25 26 155 50 926 20 64 23 47 294 27 137 20 20 22 32 30 25 30 65 30 108 20 22 12733
leaf_count=1283 191545 39 9758 20 37 25 26 155 50 926 20 64 23 47 294 27 137 20 20 22 32 30 25 30 65 30 108 20 22 12733
internal_value=0 2.25304e-05 8.36312e-05 0.000967858 0.00404144 -6.57372e-05 0.00205379 -0.000607394 6.08621e-05 0.000299235 0.000609726 0.00188662 0.00352145 0.000366578 0.000280305 -0.00108115 0.000408973 -0.000162769 -0.000929919 0.000736175 0.00138877 0.00180891 0.0028146 0.00168176 0.00082633 0.000617018 -0.000439197 -2.9756e-05 0.00146152 -3.42247e-05
internal_weight=0 26088 12030 302 76 226 46 180 11728 1970 1044 167 73 877 857 74 783 285 148 498 204 172 85 60 87 94 128 14058 42 14016
internal_count=217633 26088 12030 302 76 226 46 180 11728 1970 1044 167 73 877 857 74 783 285 148 498 204 172 85 60 87 94 128 14058 42 14016
shrinkage=0.05


Tree=256
num_leaves=31
num_cat=0
split_feature=31 12 36 36 12 17 13 33 13 3 5 0 3 7 18 16 28 32 36 36 39 32 15 12 3 11 36 3 18 32
split_gain=0.00627729 0.0363832 0.076087 0.240113 0.0478676 0.0260237 0.0744626 0.0180104 0.0663544 0.33187 0.0767968 0.0686811 0.067673 0.0687866 0.121956 0.0555175 0.0277642 0.0276515 0.0298235 0.0274567 0.0234815 0.0478267 0.104096 0.0559221 0.0570988 0.0343208 0.0177226 0.0169622 0.0166449 0.0157391
threshold=-4.3203749999999994 -4.8581699999999991e-06 0.24966499999999994 -0.68744999999999989 -1.5418149999999998e-06 16.002400000000005 3.6544900000000005e-06 0.00019513800000000003 1.8237450000000004e-06 -5.4431949999999993 1.0122450000000002e-05 -7.3054249999999987 -6.4469949999999994 -1.0145249999999997e-05 -19.754149999999996 0.00052909500000000015 7.7527300000000006 0.86690500000000015 -0.772536 -4.5263099999999996 15.924395000000002 0.86690500000000015 -5.194759999999999e-05 -2.6601849999999995e-07 -9.2899249999999984 0.00099716450000000021 1.2236470000000002 -15.624449999999998 -7.905149999999999 1.20103
decision_type=2 2 2 2 2 2 2 2 2 2 2 2 2 2 2 2 2 2 2 2 2 2 2 2 2 2 2 2 2 2
left_child=1 2 3 -1 -3 27 -7 29 19 10 -10 -12 13 28 -15 -16 17 -17 -19 -9 21 22 -21 -24 -25 -22 -4 -6 -13 -2
right_child=7 4 26 -5 5 6 -8 8 9 -11 11 12 -14 14 15 16 -18 18 -20 20 25 -23 23 24 -26 -27 -28 -29 -30 -31
leaf_value=-0.00026745290960787025 3.9327362922811874e-07 -0.0022798016833960369 -0.0019895939590545216 0.0049726422908861426 0.0011700480103172596 -0.00026112870792321003 -0.003680843122565421 0.0017134244456015455 0.0033935734137048716 0.0070373314667085659 0.0022382780495617126 -0.0020773800848662084 -0.0028133507347125226 0.0040827262457162799 0.0021601021098051985 0.00037840128081433223 0.00080979942489943209 -0.00018467121196656742 -0.0026447231479063966 0.0035497590737317559 -0.0001531401889885522 -0.00018499944468374272 -0.00139753848929197 0.0024616019476174449 -5.0151866778946898e-05 -0.0021484700710857397 -0.00023049733481861446 -0.00013667502622929893 -0.00051992089436334076 -0.00019293070647512006
leaf_weight=69 214457 29 21 32 26 78 20 22 20 20 36 29 21 23 28 29 37 22 28 28 66 623 39 35 64 32 45 554 42 1058
leaf_count=69 214457 29 21 32 26 78 20 22 20 20 36 29 21 23 28 29 37 22 28 28 66 623 39 35 64 32 45 554 42 1058
internal_value=0 -0.000133729 0.000530039 0.00139278 -0.000290517 -0.00020543 -0.00095903 5.39214e-07 0.000190241 0.000791767 0.000395223 0.000191945 -9.24877e-05 0.000147589 0.000701837 0.000161834 -0.000320507 -0.000849891 -0.0015623 -3.14434e-05 -7.47208e-05 1.59454e-05 0.000770094 0.000206104 0.000837842 -0.000804676 -0.00079021 -7.80978e-05 -0.00115607 -5.55787e-07
internal_weight=0 874 167 101 707 678 98 216759 1244 335 315 295 259 238 167 144 116 79 50 909 887 789 166 138 99 98 66 580 71 215515
internal_count=217633 874 167 101 707 678 98 216759 1244 335 315 295 259 238 167 144 116 79 50 909 887 789 166 138 99 98 66 580 71 215515
shrinkage=0.05


Tree=257
num_leaves=31
num_cat=0
split_feature=24 13 3 19 4 4 36 36 19 36 36 9 26 3 5 3 2 5 18 20 4 13 3 4 13 24 9 8 26 36
split_gain=0.0060369 0.0296958 0.140241 0.0982274 0.0904096 0.157318 0.271856 0.0932597 0.0839223 0.0615977 0.0300862 0.026198 0.0267486 0.0441845 0.0215064 0.0234631 0.0193526 0.0166819 0.0590038 0.0145992 0.0285638 0.026359 0.0176458 0.0170655 0.0269129 0.0137781 0.0556018 0.115489 0.222762 0.440331
threshold=91.481750000000019 6.5238050000000013e-06 -5.946604999999999 -2.2401749999999994 1.3297700000000001 2.9223900000000005 1.4792360000000002 -0.17527649999999997 -0.61801149999999982 0.40779500000000007 -1.3913339999999996 -6.4452949999999984e-05 1.0482150000000001 -13.009399999999998 1.7356700000000003e-05 -11.279499999999997 2.8579150000000006 2.5990900000000006e-05 18.392150000000004 -10.311099999999998 -2.0429399999999993 2.1242850000000004e-06 -13.443999999999997 -0.25665499999999991 1.8237450000000004e-06 44.65205000000001 -6.4452949999999984e-05 2.4808900000000002e-05 -0.58729449999999994 -0.68744999999999989
decision_type=2 2 2 2 2 2 2 2 2 2 2 2 2 2 2 2 2 2 2 2 2 2 2 2 2 2 2 2 2 2
left_child=25 11 3 -3 7 6 -6 8 -5 -9 -10 12 -2 -14 -7 -16 17 19 -19 21 -21 22 -13 -22 -25 -1 27 28 -27 -30
right_child=1 2 -4 4 5 14 -8 9 10 -11 -12 16 13 -15 15 -17 -18 18 -20 20 23 -23 -24 24 -26 26 -28 -29 29 -31
leaf_value=-6.3589497519190665e-07 -0.00026981751546069675 0.0033470666223105842 0.0039981977546024918 0.0023916277744319816 0.0071564302341853778 -0.0014583777823474976 -0.00061802804250518152 -0.0048993194497944344 -0.00044774015383920512 -0.0011912908909531932 -0.00258581575000703 -0.001532619682636679 -0.003167241221616188 -0.00057818524461860461 0.0015491461425699527 -0.00051628825026868571 0.0014223298207798507 -0.00025324858038163113 -0.0030807409451101973 0.0017455592060578056 -0.00074968962554748946 -0.0019614182121586057 -8.9701515997175869e-05 3.8970381563687257e-05 0.001870027929544449 -0.00028981943953271109 1.3130933591401902e-06 0.00022044303761693113 -0.00055441098917402673 0.0091445974392408962
leaf_weight=213586 105 21 24 24 22 32 23 21 76 24 21 23 26 45 20 44 20 152 21 25 64 23 269 452 21 46 1971 385 22 25
leaf_count=213586 105 21 24 24 22 32 23 21 76 24 21 23 26 45 20 44 20 152 21 25 64 23 269 452 21 46 1971 385 22 25
internal_value=0 -9.68252e-05 0.000308699 3.87359e-05 -0.000187567 0.00074344 0.00318282 -0.000978361 -0.000255631 -0.0029217 -0.000910622 -0.000211387 -0.00077669 -0.00152629 -0.000400019 0.00012916 -0.000118403 -0.00014775 -0.00059647 -5.92344e-05 9.34947e-05 -0.000331722 -0.000203356 1.6583e-05 0.000120265 7.16211e-07 0.000118638 0.00060242 0.00218372 0.00460464
internal_weight=0 1598 352 328 307 141 45 166 121 45 97 1246 176 71 96 64 1070 1050 173 877 562 315 292 537 473 216035 2449 478 93 47
internal_count=217633 1598 352 328 307 141 45 166 121 45 97 1246 176 71 96 64 1070 1050 173 877 562 315 292 537 473 216035 2449 478 93 47
shrinkage=0.05


Tree=258
num_leaves=31
num_cat=0
split_feature=25 5 37 36 25 28 28 12 6 3 5 1 14 12 12 8 37 28 34 3 36 3 30 40 13 37 23 36 36 10
split_gain=0.00604139 0.0346156 0.0833306 0.222387 0.229722 0.233753 0.190589 0.212538 0.269886 0.219915 0.316143 0.0991974 0.0952397 0.0747271 0.062698 0.0517572 0.0473494 0.09215 0.0374992 0.0345099 0.202455 0.0562668 0.103489 0.0500712 0.0300635 0.0509708 0.138254 0.269397 0.19431 0.103132
threshold=0.041210350000000007 1.0838450000000003e-05 0.12358499999999996 0.22528099999999995 0.068796600000000013 -0.44443899999999997 -4.3985699999999994 9.2565100000000011e-07 -6.3773499999999985e-07 -8.6206849999999999 1.0064400000000003e-05 4.7972850000000014 1.3649650000000004e-06 1.0083500000000001e-05 -1.0829649999999997e-06 2.6827800000000004e-05 -0.33012499999999995 -2.9812749999999997 0.012463850000000002 -18.627349999999996 0.010257000000000018 -18.305499999999995 2.3658200000000007 4.8674450000000027 2.3811300000000004e-05 0.37828249999999997 0.031042450000000003 0.24966499999999994 0.22528099999999995 0.00031977250000000008
decision_type=2 2 2 2 2 2 2 2 2 2 2 2 2 2 2 2 2 2 2 2 2 2 2 2 2 2 2 2 2 2
left_child=-1 2 3 4 5 12 14 8 15 10 11 -10 18 16 -6 -8 -5 -18 -2 20 23 22 -21 -3 -23 26 28 -28 29 -26
right_child=1 19 -4 13 6 -7 7 -9 9 -11 -12 -13 -14 -15 -16 -17 17 -19 -20 21 -22 24 -24 -25 25 -27 27 -29 -30 -31
leaf_value=2.7089274534708364e-06 -0.00030653203721158211 -0.0023626635386608543 -1.0216238210653214e-05 -6.0881762390869696e-05 0.0022336433855525686 -0.0031084931540296089 -4.4476502625911966e-05 0.0005933240978328255 -0.0070466859001581646 -0.0017097255563082098 -0.012022384522361276 -0.0021812860539648683 0.0047496261319056867 0.0023740793484709382 -0.0011810732616406934 -0.0031540286796845739 -0.0041892996806252216 -8.1102719335691433e-05 0.0024126244947269915 9.4237768888144112e-05 0.0054308568015585482 3.7560960708272395e-05 -0.0044638547584327174 0.00053225638446254041 -0.0022611110921637347 -4.3928393291530973e-06 0.0065934061609732447 -0.0008497218565729957 -3.8778266600858401e-05 -0.00025360964184504263
leaf_weight=196821 32 20 2888 773 20 34 32 29 22 24 23 20 21 30 41 23 21 39 21 33 20 13576 20 59 205 2112 20 31 530 93
leaf_count=196821 32 20 2888 773 20 34 32 29 22 24 23 20 21 30 41 23 21 39 21 33 20 13576 20 59 205 2112 20 31 530 93
internal_value=0 -2.56186e-05 -0.000155945 -0.000505211 -0.00158422 0.000323236 -0.00246458 -0.00331191 -0.00409838 -0.00580001 -0.00731027 -0.00472983 0.00189998 -7.76101e-05 -6.1494e-05 -0.00134483 -0.000165906 -0.00151897 0.00077087 6.28689e-06 0.00093704 7.42688e-07 -0.0016258 -0.000200635 5.9462e-06 -0.000137552 -0.000457496 0.00206915 -0.000613123 -0.00163461
internal_weight=0 20812 4093 1205 342 108 234 173 144 89 65 42 74 863 61 55 833 60 53 16719 99 16620 53 79 16567 2991 879 51 828 298
internal_count=217633 20812 4093 1205 342 108 234 173 144 89 65 42 74 863 61 55 833 60 53 16719 99 16620 53 79 16567 2991 879 51 828 298
shrinkage=0.05


Tree=259
num_leaves=31
num_cat=0
split_feature=18 40 37 36 3 17 4 29 3 25 20 28 36 36 8 27 2 0 3 39 6 23 20 3 23 14 22 37 5 39
split_gain=0.00608092 0.0472614 0.108718 0.252025 0.321984 0.189803 0.109051 0.108537 0.179207 0.0693807 0.0513673 0.0382073 0.0641032 0.311799 0.0538673 0.0476204 0.0410516 0.0407247 0.030528 0.0269604 0.0245876 0.0930317 0.0593101 0.0266272 0.0907329 0.0184973 0.0177974 0.0145619 0.0139964 0.023237
threshold=13.390900000000002 -0.52047500000000058 0.46135450000000006 0.40779500000000007 -7.8588299999999993 12.319050000000002 -0.13885249999999996 -1.6545349999999999e-05 -5.7548799999999991 1.0121250000000004 -13.08405 -0.44443899999999997 -0.12496499999999998 0.12375499999999996 1.3788000000000002e-05 0.16934650000000004 1.4160850000000003 3.0384450000000007 -5.946604999999999 0.72566000000000008 -1.1060999999999997e-06 0.0085896400000000008 -8.8365399999999976 -7.7574999999999994 -7.5441249999999975e-05 1.6583550000000004e-08 115.80600000000001 -0.38541124999999993 4.8105150000000005e-05 0.052215000000000351
decision_type=2 2 2 2 2 2 2 2 2 2 2 2 2 2 2 2 2 2 2 2 2 2 2 2 2 2 2 2 2 2
left_child=-1 2 3 4 -2 6 -6 8 -8 19 -3 12 16 -14 -15 20 -12 27 -9 -5 21 23 -22 26 -25 -21 -13 -16 29 -24
right_child=1 10 -4 9 5 -7 7 18 -10 -11 11 15 13 14 17 -17 -18 -19 -20 25 22 -23 28 24 -26 -27 -28 -29 -30 -31
leaf_value=-1.0285732131196963e-06 0.0065095980218352958 -0.002426135058656497 -0.00010058685605736921 0.0015197144389821917 0.0034689531304008727 0.0055371268267702806 -0.00084128213132283211 -0.0028169452442809765 0.0053172380353013679 0.0027274817764659284 -9.0769029220168993e-05 -1.5951078165725269e-05 -0.0052027559876945371 -0.0025092613451912866 -9.3761675309395534e-05 0.0024978131851336612 0.0021590374363031949 0.0018853374625323342 -0.00055818813013432263 -0.0012503064386764891 -0.0027645694548846227 0.0028698644143982429 -4.6284690001639815e-05 0.0035204938069606818 0.00014058285564987194 -0.00018262117976646126 -0.001574706358005642 -0.0014134529511162933 -0.00093713320403414975 0.00095541294359406952
leaf_weight=214386 36 23 668 20 28 23 27 21 21 21 588 217 37 24 162 21 21 25 52 50 20 35 607 24 115 215 20 24 38 64
leaf_count=214386 36 23 668 20 28 23 27 21 21 21 588 217 37 24 162 21 21 25 52 50 20 35 607 24 115 215 20 24 38 64
internal_value=0 6.79124e-05 0.000320048 0.000866709 0.0022096 0.0013096 0.000657023 6.3285e-06 0.00185307 -4.61028e-05 -7.64091e-05 -4.9943e-05 -0.000298224 -0.000936408 -0.000264686 0.00013846 -1.31895e-05 -9.37832e-06 -0.00120797 -0.000250472 9.49981e-05 0.000404255 -7.93564e-05 0.000174743 0.000724165 -0.000384071 -0.000147492 -0.000264044 -3.60993e-06 4.92573e-05
internal_weight=0 3247 1182 514 208 172 149 121 48 306 2065 2042 881 272 235 1161 609 211 73 285 1140 411 729 376 139 265 237 186 709 671
internal_count=217633 3247 1182 514 208 172 149 121 48 306 2065 2042 881 272 235 1161 609 211 73 285 1140 411 729 376 139 265 237 186 709 671
shrinkage=0.05


Tree=260
num_leaves=31
num_cat=0
split_feature=37 18 22 37 37 4 21 39 39 21 15 15 15 39 11 39 39 20 4 14 4 25 39 18 39 34 12 23 13 21
split_gain=0.00601779 0.228194 0.00631967 0.0289566 0.444393 0.32416 1.02062 1.44275 1.53936 0.813156 0.658761 0.988042 0.567954 1.26962 0.864038 0.471826 0.51056 0.46817 0.485646 0.449985 0.426725 0.271607 0.223968 0.539889 0.439697 0.484283 0.256578 0.194921 0.250131 0.178625
threshold=5.6849350000000003 -3.7984549999999992 2.3108700000000004 0.09983149999999999 -0.078199999999999964 0.14946850000000003 0.29620600000000008 1.8568299999999998 -1.1637600000000001 0.25201650000000003 -1.337395e-06 -0.00012715299999999997 -1.0730149999999997e-06 0.8945249999999999 0.00027562450000000004 2.1254700000000009 -1.4591200000000002 -7.3396999999999988 1.1247450000000001 3.9510600000000008e-05 -0.81164199999999986 -0.052625149999999996 -0.77143500000000065 6.3306750000000012 -2.7066499999999998 -0.051625349999999993 7.2144500000000009e-06 0.00049099350000000007 1.7917850000000003e-05 0.42697150000000006
decision_type=2 2 2 2 2 2 2 2 2 2 2 2 2 2 2 2 2 2 2 2 2 2 2 2 2 2 2 2 2 2
left_child=2 -2 -1 4 -4 6 12 8 -8 15 11 -10 20 14 -14 16 -7 18 -18 22 27 -12 23 24 -11 -26 -24 28 -6 -23
right_child=1 -3 3 -5 5 9 7 -9 10 19 21 -13 13 -15 -16 -17 17 -19 -20 -21 -22 29 26 -25 25 -27 -28 -29 -30 -31
leaf_value=3.8534265494133215e-06 0.0041462889708140322 -3.408239327646624e-05 1.4378572797771534e-05 2.5415154654645555e-05 -0.0013379835470259424 -0.0010914339847874807 -0.0016634714983976319 -0.00021611455759125949 -0.0046677854191511867 -0.00013349746029985989 -0.011045558260520921 -0.018397609296555043 -0.013855217921081931 -5.5628724834914126e-05 -0.00240815908764489 0.00076122891044914953 -0.01509924907796085 -0.0019195193285122516 -0.0046460085605212953 -0.0027898587141862666 0.0011406791367563043 -0.0073860524233896295 0.0012896746430275132 -0.0036530993141059304 0.0021280094666872177 0.012107509436957058 -0.003221900903565042 -0.00033608739617998709 -0.0071748924216833614 -0.00085715453182770454
leaf_weight=171690 34 819 21683 21168 50 59 111 215 20 23 20 38 34 159 32 63 25 25 20 72 535 20 431 20 20 31 34 131 29 22
leaf_count=171690 34 819 21683 21168 50 59 111 215 20 23 20 38 34 159 32 63 25 25 20 72 535 20 431 20 20 31 34 131 29 22
internal_value=0 0.000132544 -5.21544e-07 -1.71802e-05 -5.48718e-05 -0.000725509 -0.00118417 -0.00316382 -0.00590736 6.36322e-05 -0.00983295 -0.0136632 -0.000273937 -0.00247548 -0.00830513 -0.00278556 -0.00451771 -0.00740556 -0.0104534 0.00093058 0.00039096 -0.00624983 0.00140978 0.00363575 0.00560571 0.00819398 0.000959796 -0.00151904 -0.00348065 -0.00396615
internal_weight=0 853 216780 45090 23922 2239 1416 446 231 823 120 58 970 225 66 192 129 70 45 631 745 62 559 94 74 51 465 210 79 42
internal_count=217633 853 216780 45090 23922 2239 1416 446 231 823 120 58 970 225 66 192 129 70 45 631 745 62 559 94 74 51 465 210 79 42
shrinkage=0.05


Tree=261
num_leaves=31
num_cat=0
split_feature=24 13 3 19 4 4 36 36 19 36 36 9 10 21 5 5 3 2 13 14 15 36 24 13 19 32 40 37 36 6
split_gain=0.00590078 0.0263659 0.126779 0.0876852 0.0799887 0.139653 0.241508 0.0824571 0.075032 0.0539898 0.0276158 0.0236255 0.0245718 0.0203033 0.0253314 0.0199557 0.021161 0.0175649 0.0161307 0.0143977 0.0253068 0.027866 0.0121725 0.0513837 0.0812375 0.0817887 0.200319 0.3214 0.699233 0.0603501
threshold=91.481750000000019 6.5238050000000013e-06 -5.946604999999999 -2.2401749999999994 1.3297700000000001 2.9223900000000005 1.4792360000000002 -0.17527649999999997 -0.61801149999999982 0.40779500000000007 -1.3913339999999996 -6.4452949999999984e-05 -4.7934999999999994e-05 -1.7211949999999998 1.4696900000000002e-05 1.7356700000000003e-05 -11.279499999999997 2.8579150000000006 3.9398900000000012e-06 4.7046700000000012e-05 0.00010559900000000002 -0.25142799999999998 44.65205000000001 -4.2565349999999989e-06 2.9809550000000002 -0.96073299999999995 -6.1882099999999989 -0.60497499999999982 -0.3562499999999999 -1.3813599999999996e-07
decision_type=2 2 2 2 2 2 2 2 2 2 2 2 2 2 2 2 2 2 2 2 2 2 2 2 2 2 2 2 2 2
left_child=22 11 3 -3 7 6 -6 8 -5 -9 -10 12 -2 14 -14 -7 -17 18 19 20 -13 -22 -1 24 25 26 -24 -28 -29 -25
right_child=1 2 -4 4 5 15 -8 9 10 -11 -12 17 13 -15 -16 16 -18 -19 -20 -21 21 -23 23 29 -26 -27 27 28 -30 -31
leaf_value=-5.6279234128460688e-07 -0.0022272897593211384 0.0031554653203957495 0.0037943344084245233 0.0022547658635327632 0.0067352043306031688 -0.0014052387968831682 -0.00059248681152340677 -0.0046067275428434929 -0.00042420432364451702 -0.001135229393670064 -0.0024726224885809993 -8.2030871778492778e-05 -0.0027309728946420366 -0.00016040553541643023 -0.00021445678255986426 0.0014725228954193881 -0.00048896884879716461 0.0013524735918326769 -0.0012486869065924111 0.00085963606035039525 -0.00019042302895400098 -0.002418342373799533 -0.00054948241821292155 0.00025779410601961837 0.0030142843934534598 2.2797801674484763e-05 -0.00062501509251418504 -6.4266677310859617e-05 0.012853261358104646 -0.00031025024998108307
leaf_weight=213586 24 21 24 24 22 32 23 21 76 24 21 924 20 112 20 20 44 20 32 37 32 25 67 972 31 405 31 22 20 901
leaf_count=213586 24 21 24 24 22 32 23 21 76 24 21 924 20 112 20 20 44 20 32 37 32 25 67 972 31 405 31 22 20 901
internal_value=0 -9.57273e-05 0.000286384 2.9705e-05 -0.000184109 0.000691599 0.00298994 -0.000927934 -0.000248349 -0.00275526 -0.000867676 -0.000203675 -0.000740505 -0.00050575 -0.00147271 -0.000385748 0.000123997 -0.000115374 -0.000143333 -0.000108588 -0.000145106 -0.00116758 7.0809e-07 0.000111546 0.000524543 0.000382924 0.00142472 0.00323666 0.00608694 -1.54616e-05
internal_weight=0 1598 352 328 307 141 45 166 121 45 97 1246 176 152 40 96 64 1070 1050 1018 981 57 216035 2449 576 545 140 73 42 1873
internal_count=217633 1598 352 328 307 141 45 166 121 45 97 1246 176 152 40 96 64 1070 1050 1018 981 57 216035 2449 576 545 140 73 42 1873
shrinkage=0.05


Tree=262
num_leaves=31
num_cat=0
split_feature=8 2 31 28 12 18 12 17 3 9 25 31 28 32 11 3 12 2 13 18 36 36 1 17 39 29 36 17 21 18
split_gain=0.00581898 0.0287473 0.0237391 0.0507892 0.15302 0.329521 0.0961075 0.0777747 0.0565223 0.0597147 0.028967 0.047089 0.0372202 0.0260397 0.062119 0.0279091 0.0257616 0.0392662 0.0242882 0.0238265 0.0584999 0.29661 0.269431 0.114772 0.205135 0.150593 0.240532 0.126072 0.107295 0.0739664
threshold=1.6290050000000002e-05 3.0578500000000006 0.098593250000000007 3.1099700000000006 -4.3823949999999997e-07 -1.2295899999999997 -1.5416449999999997e-05 0.19035450000000001 -17.495099999999997 -3.8189799999999991e-05 -0.22198749999999998 0.019909950000000006 2.6219150000000004 -2.2564299999999995 0.0067067750000000008 -19.074649999999995 5.234035000000001e-08 -1.5877199999999998 1.9598050000000002e-06 6.8989050000000001 -0.079468000000000025 -0.027530000000000051 8.375135000000002 -3.4870349999999992 0.39187000000000044 1.201625e-05 0.38220950000000015 -3.0760849999999995 0.57845200000000008 7.2928950000000006
decision_type=2 2 2 2 2 2 2 2 2 2 2 2 2 2 2 2 2 2 2 2 2 2 2 2 2 2 2 2 2 2
left_child=1 2 3 10 5 6 -5 -8 -6 -10 11 18 19 14 -4 -15 -11 -18 -1 -12 -21 22 -22 24 -23 27 -27 -25 29 -29
right_child=-2 -3 13 4 8 -7 7 -9 9 16 12 -13 -14 15 -16 -17 17 -19 -20 20 21 23 -24 25 -26 26 -28 28 -30 -31
leaf_value=-0.00067334337410369807 3.2307024892920221e-06 0.0018285933762810947 -0.00021973961272613873 -0.0022726826050943187 0.0021012612342488982 0.0069583702735717115 0.003745514061817327 -0.0002016192487924575 0.0020553067871489851 2.7619023201211505e-05 2.193224169130894e-06 -0.002575526665688293 0.0017424851974161962 -0.0017587850363405004 -0.0031114827825849019 -0.00013314403538224393 -0.002565285759542517 -0.00041416299177812608 0.0011278727514005974 -3.2640898421762938e-07 -0.0010159905507328129 -9.4357823010998102e-05 -0.0063915355873571059 -0.0037323199788224883 0.0046662426197365157 -0.0072505655641271014 -1.6068829723668318e-05 -0.0015054335343299553 0.002971341600341812 -0.00010214736041479043
leaf_weight=85 188240 21 65 22 31 27 24 26 29 212 22472 28 30 27 26 1192 27 99 24 3337 63 72 37 25 33 20 27 102 27 1183
leaf_count=85 188240 21 65 22 31 27 24 26 29 212 22472 28 30 27 26 1192 27 99 24 3337 63 72 37 25 33 20 27 102 27 1183
internal_value=0 -2.06902e-05 -2.20124e-05 -1.23003e-05 0.000488653 0.00224775 0.000481267 0.001693 5.10889e-05 -0.000122086 -2.13326e-05 -0.000746569 -1.77101e-05 -0.000230058 -0.00104595 -0.000169151 -0.000308904 -0.000875118 -0.000276745 -1.96374e-05 -0.000119227 -0.000368926 -0.00300494 -0.000191893 0.00140183 -0.000312805 -0.00309458 -0.000215016 -0.000147994 -0.000213537
internal_weight=0 29393 29372 28062 497 99 72 50 398 367 27565 137 27428 1310 91 1219 338 126 109 27398 4926 1589 100 1489 105 1384 47 1337 1312 1285
internal_count=217633 29393 29372 28062 497 99 72 50 398 367 27565 137 27428 1310 91 1219 338 126 109 27398 4926 1589 100 1489 105 1384 47 1337 1312 1285
shrinkage=0.05


Tree=263
num_leaves=31
num_cat=0
split_feature=31 12 12 36 37 24 39 40 37 0 39 39 10 27 15 12 4 31 16 39 40 13 36 39 14 4 5 9 4 25
split_gain=0.00584658 0.119493 0.114093 0.0914581 0.682526 0.575405 0.540803 0.724663 0.413821 0.413283 0.584138 0.649739 0.482801 0.475596 0.468179 0.321927 0.259215 0.309446 0.233619 0.234758 0.345125 0.64058 0.429169 0.46759 0.713186 0.267842 0.34155 0.214219 0.148144 0.234941
threshold=1.8741500000000003e-05 -9.6356049999999989e-08 -3.0013349999999998e-08 0.2761725000000001 0.19792950000000006 1.3732500000000003 2.4693750000000008 1.9491550000000004 -0.15132349999999997 -3.4028749999999994 0.80790999999999979 -0.465335 8.8270500000000005e-06 0.0028284650000000005 -5.6792399999999992e-06 -2.8691299999999994e-07 1.7937450000000001 0.016228650000000004 8.167805000000002e-06 1.3091549999999998 0.87140500000000032 -8.0791249999999992e-08 0.077348000000000056 0.43278000000000022 6.063115000000001e-08 -0.041759549999999999 1.4907900000000002e-05 2.6226450000000004e-05 0.038924450000000006 0.025975700000000001
decision_type=2 2 2 2 2 2 2 2 2 2 2 2 2 2 2 2 2 2 2 2 2 2 2 2 2 2 2 2 2 2
left_child=1 -1 3 4 5 18 7 8 -7 14 11 13 -13 -11 -10 16 17 -16 19 20 21 22 23 24 -2 26 -23 -12 29 -20
right_child=2 -3 -4 -5 -6 6 -8 -9 9 10 27 12 -14 -15 15 -17 -18 -19 28 -21 -22 25 -24 -25 -26 -27 -28 -29 -30 -31
leaf_value=5.7222130924686296e-05 -0.017964657482558065 -4.9549507205343639e-05 5.4777909535413172e-05 1.604076360674806e-05 1.0775734097887749e-05 -0.0009684806032833577 -0.00027681628787754281 -0.00044089627762014782 0.0034358024417888372 0.00077315145654210937 0.00046106844938549331 -0.016667978738530955 -0.0076926621555861441 -0.0087421458655093185 -0.0028189605634127346 -0.00016407230757881498 -0.0021682476124089377 -0.010418127646443209 0.00013848984953098345 -0.00022301695676587666 -0.00022849181055929735 3.6696054135413412e-05 -0.0012724329279187848 -0.0030378671076975701 -0.0055760077544479061 0.00078191968263126906 -0.0084281622823751106 -0.0058651113923153149 -0.00056679642443024589 0.0044089582681684112
leaf_weight=42843 21 67473 59211 25494 18325 97 422 252 25 24 32 29 31 29 21 38 34 37 1340 423 182 26 34 29 26 90 22 23 967 33
leaf_count=42843 21 67473 59211 25494 18325 97 422 252 25 24 32 29 31 29 21 38 34 37 1340 423 182 26 34 29 26 90 22 23 967 33
internal_value=0 -8.08302e-06 8.3089e-06 -4.88872e-05 -0.000122091 -0.000690034 -0.00167966 -0.00256061 -0.00383244 -0.00469252 -0.00641044 -0.00846735 -0.0120307 -0.00443333 -0.00283051 -0.00403557 -0.00563467 -0.00766671 -0.000350964 -0.00105933 -0.00188203 -0.00309551 -0.00594177 -0.00803069 -0.0111114 -0.000826759 -0.00384303 -0.00218442 -9.27436e-05 0.00024113
internal_weight=0 110316 107317 48106 22612 4287 1094 672 420 323 168 113 60 53 155 130 92 58 3193 853 430 248 110 76 47 138 48 55 2340 1373
internal_count=217633 110316 107317 48106 22612 4287 1094 672 420 323 168 113 60 53 155 130 92 58 3193 853 430 248 110 76 47 138 48 55 2340 1373
shrinkage=0.05


Tree=264
num_leaves=31
num_cat=0
split_feature=26 2 2 8 9 28 9 18 1 3 3 18 9 15 12 24 2 3 3 30 37 10 36 0 9 2 23 2 28 3
split_gain=0.0060943 0.049402 0.0458472 0.195735 0.0481081 0.118198 0.0923034 0.1154 0.0857074 0.172621 0.0473913 0.0428609 0.0365785 0.109364 0.209707 0.0893656 0.0314453 0.0695825 0.0469529 0.0937048 0.0409617 0.0442147 0.0248414 0.0205193 0.0196887 0.016637 0.0806294 0.0327022 0.0332008 0.0148202
threshold=0.55826100000000012 -2.9738899999999995 -2.8455549999999996 5.7424400000000005e-05 -0.00027218349999999996 20.036400000000004 -0.00019804799999999998 -6.9314949999999991 0.72012600000000015 -13.897099999999998 -16.131449999999997 -2.0281699999999994 -0.000119502 -0.00032340099999999991 4.3407200000000007e-05 67.650400000000005 2.2570350000000006 -13.243349999999998 -5.5710999999999995 2.9757900000000004 -0.12554300000000002 -1.3758149999999998e-05 -0.30278099999999991 -12.520849999999998 -9.8516349999999987e-05 -2.6812799999999997 0.0041053400000000007 -2.5011349999999997 -0.50151349999999983 -18.627349999999996
decision_type=2 2 2 2 2 2 2 2 2 2 2 2 2 2 2 2 2 2 2 2 2 2 2 2 2 2 2 2 2 2
left_child=-1 11 3 -3 5 8 7 -6 10 -10 -4 -2 13 14 -8 -15 23 -18 20 -20 -19 -22 -11 -14 -25 26 -26 28 -27 -29
right_child=1 2 4 -5 6 -7 12 -9 9 22 -12 -13 16 15 -16 -17 17 18 19 -21 21 -23 -24 24 25 27 -28 29 -30 -31
leaf_value=1.0268025314386824e-06 -0.0026920667734829651 0.0036286943098514861 -0.0030166086120880214 -0.0017739503985891741 -0.0050489570524188737 0.0036535902977569939 0.0065135489025851716 -0.00049103111910304379 0.0042064961827374204 0.001439355711640515 -0.00031739982774503929 -0.00021354942004649815 0.0014591097774841316 -0.0021956421768360695 -0.00018997603583557066 0.0016096882205197797 -0.0030283818081241207 -0.00031083240925086912 0.0035498693181406932 -0.00049502290947000605 -0.00082527695036226176 -0.0037880322599085046 -0.00049356202794382728 0.0014137041905831378 -0.0013230917963664981 2.897274896019587e-06 0.0031666013986978215 -0.0012868237269576639 -0.0023953586752947058 -6.2541890629381154e-05
leaf_weight=214404 33 38 20 30 21 28 20 41 33 22 87 37 22 36 28 27 27 146 21 45 34 20 68 22 20 27 20 25 31 2200
leaf_count=214404 33 38 20 30 21 28 20 41 33 22 87 37 22 36 28 27 27 146 21 45 34 20 68 22 20 27 20 25 31 2200
internal_value=0 -6.81792e-05 -3.90665e-05 0.00124517 -6.7319e-05 0.000586328 -0.000126846 -0.00203484 0.000212922 0.00111315 -0.000821925 -0.00138199 -8.41556e-05 0.000805136 0.00260316 -0.000564786 -0.000121265 -0.000609886 -0.0003644 0.000791988 -0.000746008 -0.00192259 -2.1071e-05 -6.0781e-05 -7.50401e-05 -8.91392e-05 0.000921755 -0.000106851 -0.00127893 -7.62979e-05
internal_weight=0 3229 3159 68 3091 258 2833 62 230 123 107 70 2771 111 48 63 2660 293 266 66 200 54 90 2367 2345 2323 40 2283 58 2225
internal_count=217633 3229 3159 68 3091 258 2833 62 230 123 107 70 2771 111 48 63 2660 293 266 66 200 54 90 2367 2345 2323 40 2283 58 2225
shrinkage=0.05


Tree=265
num_leaves=31
num_cat=0
split_feature=26 1 3 7 20 9 9 3 16 9 35 19 7 16 9 3 3 39 9 23 19 9 9 38 37 1 16 16 37 37
split_gain=0.00603413 0.0271749 0.0296868 0.15665 0.140862 0.0409037 0.0728356 0.149157 0.0382576 0.143294 0.216736 0.0553213 0.0471037 0.100721 0.0378841 0.0712061 0.120135 0.150141 0.0660651 0.101781 0.0696683 0.0434529 0.0407797 0.0455968 0.0843877 0.0351792 0.0336321 0.080237 0.068937 0.0956121
threshold=-0.44589049999999997 -14.712749999999998 -11.394249999999998 5.2649200000000011e-05 -8.5818999999999992 0.00012039000000000002 9.9230750000000009e-05 -8.4058999999999973 0.012037000000000001 0.00024596600000000008 0.34276850000000003 1.1226900000000002 2.3322900000000003e-05 0.036703900000000005 6.2986800000000012e-05 -6.280479999999999 -9.1449549999999977 1.9002500000000004 4.8912350000000013e-05 0.019037100000000005 -0.57280449999999983 3.2725900000000011e-05 4.247685000000001e-05 0.46240350000000002 0.12358499999999996 1.0868900000000001 0.0029219050000000002 0.00047256250000000005 -0.27889399999999981 0.43359400000000009
decision_type=2 2 2 2 2 2 2 2 2 2 2 2 2 2 2 2 2 2 2 2 2 2 2 2 2 2 2 2 2 2
left_child=1 -1 3 8 -5 6 14 -8 9 11 25 -3 -10 -14 18 16 -16 -18 21 20 -20 -4 23 24 -23 -11 27 -7 -29 -30
right_child=-2 2 5 4 -6 26 7 -9 12 10 -12 -13 13 -15 15 -17 17 -19 19 -21 -22 22 -24 -25 -26 -27 -28 28 29 -31
leaf_value=0.0016698651175969506 -1.1905322443496996e-06 2.4664547944975387e-05 4.5979152119725157e-05 0.0051718434914558506 -0.00024537025565223302 0.00099300635939774426 0.004694835452362895 -0.000459642812711536 4.2812448723035294e-05 0.0019918308753403835 0.006888684869045392 0.0022175669541078 -0.0033940343778730109 0.00020001306003740121 -0.0027254910924966683 -0.0032501259727869187 0.0042457174934932727 -0.00087261358360257507 0.0027250301528034641 0.0045411985542159533 -0.0008634645295770545 -0.0037225365833413941 0.00036499413984446706 8.3745531127333824e-05 -0.00048268581945607868 -0.00071773518584845788 -0.0001833553500732388 9.2447160029594127e-05 -0.0044144570236452499 -0.0002297966376534619
leaf_weight=26 213272 696 2442 30 20 30 25 32 207 25 20 30 35 44 32 25 23 38 21 20 38 37 55 41 44 23 215 27 39 21
leaf_count=26 213272 696 2442 30 20 30 25 32 207 25 20 30 35 44 32 25 23 38 21 20 38 37 55 41 44 23 215 27 39 21
internal_value=0 5.82223e-05 4.85561e-05 0.000268916 0.00300496 -2.91369e-05 3.1584e-05 0.00180109 0.000142247 0.00032085 0.00251561 0.00011528 -0.000353596 -0.00139229 -4.23346e-06 -0.000881158 -0.000244339 0.00105725 3.41198e-05 0.00145871 0.000413796 -8.85174e-06 -0.000765332 -0.00127491 -0.00196262 0.000693497 -0.000554592 -0.00123678 -0.00200567 -0.00294983
internal_weight=0 4361 4335 1130 50 3205 2873 57 1080 794 68 726 286 79 2816 118 93 61 2698 79 59 2619 177 122 81 48 332 117 87 60
internal_count=217633 4361 4335 1130 50 3205 2873 57 1080 794 68 726 286 79 2816 118 93 61 2698 79 59 2619 177 122 81 48 332 117 87 60
shrinkage=0.05


Tree=266
num_leaves=31
num_cat=0
split_feature=31 3 12 1 9 13 13 36 1 3 33 13 18 5 36 36 7 17 28 36 36 1 5 10 15 12 35 36 17 7
split_gain=0.0059276 0.0304242 0.0944344 0.0273349 0.0500542 0.0397428 0.0894008 0.076743 0.0291055 0.018148 0.0142231 0.0563909 0.0790671 0.226703 0.109371 0.165361 0.0569528 0.107143 0.058271 0.0750996 0.0741197 0.238277 0.0854968 0.0336478 0.0896514 0.0322625 0.018698 0.0283221 0.0148135 0.146119
threshold=-4.3203749999999994 -14.267049999999999 -7.057509999999999e-07 -8.2705599999999979 1.9567750000000006e-05 2.7687200000000004e-06 2.6355450000000002e-05 -0.60254799999999997 6.2690350000000006 -15.867949999999999 0.00019513800000000003 8.0536650000000016e-08 -19.754149999999996 1.1794800000000003e-05 0.1751400000000001 -1.6969549999999998 -3.840849999999999e-05 -9.7539799999999968 -10.048129999999999 -0.027530000000000051 0.57364500000000007 -1.0953499999999996 1.4620550000000002e-05 -4.4225099999999991e-05 -4.0549399999999993e-06 1.2060150000000002e-06 2.3303150000000001 -0.40968649999999995 16.002400000000005 6.4682750000000014e-05
decision_type=2 2 2 2 2 2 2 2 2 2 2 2 2 2 2 2 2 2 2 2 2 2 2 2 2 2 2 2 2 2
left_child=1 2 -1 4 -3 -5 7 -7 -8 -4 28 23 13 -13 15 -15 17 -14 19 -18 21 22 25 24 -12 -20 -25 -28 -2 -30
right_child=10 3 9 5 -6 6 8 -9 -10 -11 11 12 16 14 -16 -17 18 -19 20 -21 -22 -23 -24 26 -26 -27 27 -29 29 -31
leaf_value=0.0027262605427191985 -1.4385968145242937e-06 1.5220944567219071e-05 -0.0013668862095895043 -0.00013649725118387192 0.0027253693858801855 -0.00035297569459847488 -0.00063927684621068999 -0.0039833196093929258 0.0012685853584790258 0.00046449888419980808 0.003684867433184991 0.0065991280679372731 0.0045661596615987256 -0.00091473572538234302 -0.0016566740900969075 0.0055149054958019408 -5.1758796254298731e-05 -0.00042688369907078924 -1.6953013027887209e-05 -0.0025588652063782543 -0.00036037473911005457 0.0056301259478830079 0.0020913787387574923 -0.00011800799397774733 -0.00084780386387137705 -0.0025391103735836668 -0.00014781835583878842 -0.0020848011697125915 2.5495682435904647e-05 0.0021985507143949964
leaf_weight=36 214294 115 31 483 20 24 77 37 27 24 20 20 21 20 31 20 155 22 32 37 97 27 38 581 24 21 46 32 1138 83
leaf_count=36 214294 115 31 483 20 24 77 37 27 24 20 20 21 20 31 20 155 22 32 37 97 27 38 581 24 21 46 32 1138 83
internal_value=0 -0.000129951 0.000735383 -0.00023052 0.000416724 -0.000365363 -0.00103531 -0.00255499 -0.000143966 -0.000567736 5.23979e-07 0.000169105 0.00055285 0.00189702 0.000572486 0.00230008 0.000281029 0.00201158 9.81941e-05 -0.000534899 0.000663561 0.00150527 0.000281413 -0.00012621 0.0012125 -0.0010163 -0.000215593 -0.000942478 -4.49105e-07 0.000173214
internal_weight=0 874 91 783 135 648 165 61 104 55 216759 1244 541 91 71 40 450 43 407 192 215 118 91 703 44 53 659 78 215515 1221
internal_count=217633 874 91 783 135 648 165 61 104 55 216759 1244 541 91 71 40 450 43 407 192 215 118 91 703 44 53 659 78 215515 1221
shrinkage=0.05


Tree=267
num_leaves=31
num_cat=0
split_feature=24 4 9 10 4 4 4 26 11 36 9 4 10 32 5 16 36 36 13 36 29 13 5 9 39 19 13 21 17 2
split_gain=0.00595818 0.0234389 0.0634647 0.124587 0.0463728 0.168519 0.0749082 0.100547 0.0676602 0.100602 0.0405932 0.0331957 0.0274952 0.0245865 0.0260811 0.0251701 0.0233802 0.0998033 0.118336 0.0687649 0.220879 0.0228256 0.0205167 0.0151163 0.022897 0.0138756 0.0176228 0.0136043 0.0116326 0.0414989
threshold=91.481750000000019 5.3515400000000009 -0.00035055549999999991 0.00035752750000000007 1.1247450000000001 1.4464300000000001 0.57834950000000018 -1.2159399999999998 0.030258200000000002 -0.43704099999999996 -0.00020968799999999995 0.43776750000000003 9.8903300000000019e-05 -0.60180299999999987 2.8947200000000003e-05 0.00090292850000000017 -0.17527649999999997 0.1751400000000001 3.9398900000000012e-06 -0.57440449999999987 0.0014581450000000003 -7.5536299999999985e-08 8.1441900000000017e-06 4.247685000000001e-05 -1.1637600000000001 -1.0073749999999999 6.4489550000000005e-07 1.1195950000000001 -14.223749999999997 2.1810100000000001
decision_type=2 2 2 2 2 2 2 2 2 2 2 2 2 2 2 2 2 2 2 2 2 2 2 2 2 2 2 2 2 2
left_child=28 2 3 -2 6 -6 10 -8 13 -10 -4 16 -3 -7 15 -15 19 18 21 25 -21 -18 -19 -24 -25 -12 -27 -28 29 -1
right_child=1 12 4 -5 5 8 7 -9 9 -11 11 -13 -14 14 -16 -17 17 22 -20 20 -22 -23 23 24 -26 26 27 -29 -30 -31
leaf_value=2.2729446857595731e-05 0.0041442399663187994 -0.0024820166637211862 -0.002147294149384834 -0.00048371237869353293 0.0049443282824358911 -0.0019963774532135133 0.00017445896291578918 -0.0044518383450849802 -0.00052573235117874689 0.0044292395017691893 0.0011808748962357641 0.0017696296760771912 -0.00037990584323779333 0.0012872726069700375 -0.0014126649856916629 -0.00042576927260276588 -0.0020209630529279821 0.0012091323558706792 -0.0051838730004171588 -0.00051537790826841959 0.0058170799391865291 0.0002076416578212822 -8.0095841672623983e-05 -8.4678523049622038e-05 -0.0017475129137400893 5.3285125637049493e-05 -0.0011091434087471238 -0.00020216594480144064 -4.3826646827043604e-07 0.00063725270913542219
leaf_weight=1776 26 21 25 33 20 21 23 24 21 20 20 23 60 37 30 51 20 27 22 40 21 27 405 47 37 326 70 101 213934 325
leaf_count=1776 26 21 25 33 20 21 23 24 21 20 20 23 60 37 30 51 20 27 22 40 21 27 405 47 37 326 70 101 213934 325
internal_value=0 -9.61918e-05 -5.19432e-05 0.00155572 -0.000117 0.00059021 -0.000229434 -0.00218791 0.000106419 0.00189133 -0.000153424 -0.000111394 -0.000924898 -0.000420065 -0.000139535 0.000294487 -0.000148594 -0.000371433 -0.00215736 7.69433e-05 0.00166465 -0.000740701 -0.000132616 -0.000206701 -0.000817117 -0.000110388 -0.00016235 -0.000573443 7.11526e-07 0.000117789
internal_weight=0 1598 1517 59 1458 200 1258 47 180 41 1211 1186 81 139 118 88 1163 585 69 578 61 47 516 489 84 517 497 171 216035 2101
internal_count=217633 1598 1517 59 1458 200 1258 47 180 41 1211 1186 81 139 118 88 1163 585 69 578 61 47 516 489 84 517 497 171 216035 2101
shrinkage=0.05


Tree=268
num_leaves=31
num_cat=0
split_feature=3 34 35 4 4 36 13 36 39 13 21 40 36 32 22 18 40 39 20 26 20 19 2 16 2 17 16 17 28 36
split_gain=0.00560204 0.0558706 0.110177 0.153355 0.303056 0.0552575 0.0698037 0.0635087 0.0190746 0.0545576 0.0214604 0.0262036 0.0133874 0.016289 0.00955585 0.00690036 0.0414738 0.101586 0.283516 0.13931 0.0479627 0.0365238 0.282577 0.048601 0.0784937 0.0406954 0.0922727 0.0325841 0.0312789 0.0494235
threshold=-18.627349999999996 0.015434100000000001 0.00067619600000000011 -1.2205099999999998 -4.6178049999999988 0.24966499999999994 1.8037350000000004e-08 -0.95020299999999991 -0.82558500000000012 -8.5618749999999992e-07 0.44009350000000008 4.6343150000000017 0.12375499999999996 -0.00035081549999999999 38.031000000000013 13.390900000000002 -0.52047500000000058 0.93421999999999994 -8.8793399999999973 -0.034806349999999993 -13.08405 2.3537500000000002 2.1574400000000007 5.4568300000000011e-05 1.6002350000000003 19.256550000000001 8.0243550000000009e-08 3.2523950000000004 -0.44443899999999997 -0.12496499999999998
decision_type=2 2 2 2 2 2 2 2 2 2 2 2 2 2 2 2 2 2 2 2 2 2 2 2 2 2 2 2 2 2
left_child=1 8 -3 4 -4 7 -7 -5 10 -10 -1 -12 13 -11 -13 -2 17 18 -17 -20 -18 23 -23 24 25 -19 -27 -21 29 -22
right_child=15 2 3 5 -6 6 -8 -9 9 12 11 14 -14 -15 -16 16 20 21 19 27 28 22 -24 -25 -26 26 -28 -29 -30 -31
leaf_value=1.454306096212996e-05 -1.8183729985983332e-06 0.0044250341062434017 -0.0012628328950432619 -0.00035950241607422823 0.0071345581784209413 0.0026969073072905304 -0.00087025180337150241 -0.0038249977672239772 0.0029978197370655836 0.0016562722419621425 -0.0017474712342893902 -3.7967442040098831e-05 -0.0008548700126434247 -0.00015208312172696403 -0.0012362121877958999 0.0070512702176347385 -0.0025011396984336901 -6.1937124710492123e-06 0.0036955708583506449 0.0002581205075743624 -1.4670012158609684e-05 -0.00017683021143743088 0.0056929746989626447 -0.00035873942865295917 0.0025232640744964861 -0.00078986637901315199 0.0037942888336661069 -0.0019776551406812358 0.00013091844672280525 -0.00082988405963943252
leaf_weight=1298 212681 20 21 39 22 24 32 20 20 20 38 99 26 33 20 20 20 353 30 88 602 114 25 448 39 21 23 20 1148 269
leaf_count=1298 212681 20 21 39 22 24 32 20 20 20 38 99 26 33 20 20 20 353 30 88 602 114 25 448 39 21 23 20 1148 269
internal_value=0 8.95641e-05 0.000928644 0.000486063 0.00303351 -0.000466459 0.000658531 -0.00153425 -6.54669e-06 0.000665015 -5.22406e-05 -0.000604375 7.44314e-05 0.000530315 -0.000239353 -7.18501e-07 7.1928e-05 0.000307711 0.00148768 0.000681367 -6.46388e-05 0.000125467 0.00087889 6.99899e-06 0.000382804 0.000172532 0.0016064 -0.000155912 -4.05031e-05 -0.000266441
internal_weight=0 1732 178 158 43 115 56 59 1554 99 1455 157 79 53 119 215901 3220 1181 158 138 2039 1023 139 884 436 397 44 108 2019 871
internal_count=217633 1732 178 158 43 115 56 59 1554 99 1455 157 79 53 119 215901 3220 1181 158 138 2039 1023 139 884 436 397 44 108 2019 871
shrinkage=0.05


Tree=269
num_leaves=31
num_cat=0
split_feature=18 39 2 2 19 3 22 3 11 4 8 23 22 36 3 1 12 16 3 13 16 15 13 3 1 29 16 25 0 6
split_gain=0.00555169 0.0634 0.111368 0.182879 0.354723 0.101112 0.0816423 0.221445 0.0810878 0.140744 0.134053 0.101687 0.074869 0.07226 0.057785 0.054297 0.0662837 0.107948 0.0399736 0.0603636 0.03451 0.0290542 0.0848219 0.0239909 0.0248562 0.0470789 0.0494281 0.0209579 0.0875532 0.0413825
threshold=-13.388899999999998 -0.23716000000000023 -0.51300099999999993 -0.66094299999999995 -0.64669949999999987 -13.166999999999998 7.3223450000000012 -7.5517599999999989 0.00011081300000000001 -0.10392349999999999 1.6979350000000002e-05 -0.00018615449999999999 11.782150000000001 -0.32870999999999989 -11.976899999999999 -14.127399999999998 -2.7784749999999993e-06 0.00069496500000000019 -9.1449549999999977 4.8253050000000006e-09 1.3049500000000003e-06 -2.6217499999999998e-05 2.1581450000000003e-05 -6.280479999999999 -6.5414749999999993 0.00010607400000000001 0.00059746150000000015 0.11940450000000001 5.9730150000000011 8.812610000000001e-08
decision_type=2 2 2 2 2 2 2 2 2 2 2 2 2 2 2 2 2 2 2 2 2 2 2 2 2 2 2 2 2 2
left_child=1 23 3 5 -5 -3 7 -7 9 -9 -11 -10 13 -8 -4 -14 17 -17 19 -18 -13 22 -20 24 25 -1 -27 -26 29 -29
right_child=-2 2 14 4 -6 6 12 8 11 10 -12 20 15 -15 -16 16 18 -19 21 -21 -22 -23 -24 -25 27 26 -28 28 -30 -31
leaf_value=-0.00027135270530511009 -1.0206722202499802e-06 0.0037178543290679045 -0.0019523904846755612 -7.8031274349016783e-05 0.0087790806339762637 0.0058041735574356013 -2.0424965028227731e-05 0.0053882033989975757 -0.0035337785607407568 0.0045241111429641023 -6.0309331049947097e-06 0.0020749327990494709 0.0024295700497952151 -0.0041729986137943346 -9.696608721527662e-06 0.0041901639423485909 0.00013929043827532871 -0.00041850574605093615 0.0033111349194465825 -0.0036166002438403665 -0.00014978196806825713 -0.00022855826726522248 -0.0005055151226819411 -0.0016264053330814932 -0.00011430233646268431 -0.0037504134830008053 -0.00035908140052924868 0.00065572685923689282 0.002702901409585528 -0.001140616411073227
leaf_weight=201 214135 24 40 26 20 23 22 20 20 20 89 23 26 20 889 24 23 27 24 20 72 235 37 27 1337 22 21 75 35 56
leaf_count=201 214135 24 40 26 20 23 22 20 20 20 89 23 26 20 889 24 23 27 24 20 72 235 37 27 1337 22 21 75 35 56
internal_value=0 6.24819e-05 0.000278412 0.000712827 0.00377289 0.000524893 0.000419195 0.00111412 0.000672021 0.00153263 0.000825188 -0.00029336 1.40774e-05 -0.00199784 -9.33433e-05 0.000217204 6.97127e-05 0.00175028 -0.000183116 -0.00160764 0.000388833 2.38243e-05 0.000996118 -0.000147362 -0.000124503 -0.000592589 -0.00209418 -4.85134e-05 0.000481365 -0.000112176
internal_weight=0 3498 1724 795 46 749 725 267 244 129 109 115 458 42 929 416 390 51 339 43 95 296 61 1774 1747 244 43 1503 166 131
internal_count=217633 3498 1724 795 46 749 725 267 244 129 109 115 458 42 929 416 390 51 339 43 95 296 61 1774 1747 244 43 1503 166 131
shrinkage=0.05


Tree=270
num_leaves=31
num_cat=0
split_feature=24 13 3 19 4 4 36 36 19 7 36 9 3 1 5 17 2 13 12 11 4 4 15 20 22 3 39 18 20 36
split_gain=0.00554559 0.0236276 0.111566 0.0763623 0.0660701 0.11485 0.208399 0.0665242 0.0599799 0.049986 0.0242582 0.0211811 0.0240555 0.0519643 0.0176969 0.0195597 0.0153707 0.0137838 0.0125573 0.0132973 0.0171736 0.0162728 0.0148469 0.0228005 0.0109878 0.0609515 0.189787 0.0593796 0.0641831 0.0854805
threshold=91.481750000000019 6.5238050000000013e-06 -5.946604999999999 -2.2401749999999994 1.3297700000000001 2.9223900000000005 1.4792360000000002 -0.17527649999999997 -0.61801149999999982 1.9011650000000006e-05 -1.3913339999999996 -6.4452949999999984e-05 -13.166999999999998 1.0868900000000001 1.7356700000000003e-05 3.2523950000000004 2.8579150000000006 3.9398900000000012e-06 -1.2070449999999998e-07 0.030258200000000002 1.5563800000000001 2.7715550000000007 1.5027300000000003e-05 -9.8578649999999985 53.742400000000011 -14.267049999999999 7.1099950000000005 14.003250000000001 -11.401999999999999 -0.71412249999999966
decision_type=2 2 2 2 2 2 2 2 2 2 2 2 2 2 2 2 2 2 2 2 2 2 2 2 2 2 2 2 2 2
left_child=24 11 3 -3 7 6 -6 8 -5 -9 -10 12 13 -2 -7 -16 17 18 -13 20 22 -22 -20 -24 -1 26 27 28 29 -26
right_child=1 2 -4 4 5 14 -8 9 10 -11 -12 16 -14 -15 15 -17 -18 -19 19 -21 21 -23 23 -25 25 -27 -28 -29 -30 -31
leaf_value=-3.1153118996902089e-07 -0.00023443226590037135 0.0029451086158154625 0.0035596823790304678 0.0020009953931245644 0.0061878399600655866 -0.0013125802034778646 -0.00061905345646664502 -0.0039792327588656917 -0.00037510078249588814 -0.00062560186270275162 -0.0022949563344896195 -0.00040068259252969672 -0.00029347098385896662 -0.0032565376989659857 -0.00046180775633812039 0.0014240104547934608 0.0012617261056948337 -0.0011593205799158568 -3.8709929828826265e-05 0.0011328322241897695 -0.0020507488572911827 -0.00011964029650168112 -0.00015256467234829198 0.0021557643653068227 -0.00016994474948527722 2.1123712476002818e-05 0.005456432732448559 -0.0018882608442254423 -6.299054163274948e-05 0.0037517905420496721
leaf_weight=214356 33 21 24 24 22 32 23 25 76 20 21 266 118 25 44 20 20 32 640 25 20 24 23 20 24 1491 21 24 86 33
leaf_count=214356 33 21 24 24 22 32 23 25 76 20 21 266 118 25 44 20 20 32 640 25 20 24 23 20 24 1491 21 24 86 33
internal_value=0 -9.28016e-05 0.000268924 2.8137e-05 -0.000171395 0.000624485 0.00270876 -0.000847414 -0.000237007 -0.00248873 -0.00079074 -0.000194991 -0.000703291 -0.00153706 -0.00035252 0.00012751 -0.000111382 -0.000137537 -0.000105418 -9.75524e-07 -3.99648e-05 -0.000997417 2.17159e-05 0.000921077 6.86449e-07 0.000128097 0.00097649 0.000413144 0.000799393 0.00210053
internal_weight=0 1598 352 328 307 141 45 166 121 45 97 1246 176 58 96 64 1070 1050 1018 752 727 44 683 43 216035 1679 188 167 143 57
internal_count=217633 1598 352 328 307 141 45 166 121 45 97 1246 176 58 96 64 1070 1050 1018 752 727 44 683 43 216035 1679 188 167 143 57
shrinkage=0.05


Tree=271
num_leaves=31
num_cat=0
split_feature=26 3 7 12 2 12 9 16 1 1 10 7 3 9 21 23 2 17 33 9 17 36 13 17 0 15 11 13 10 0
split_gain=0.0060304 0.056122 0.0670511 0.0614469 0.137773 0.106362 0.107361 0.0607434 0.037653 0.0737601 0.0416091 0.0327436 0.0734021 0.0678857 0.181201 0.326684 0.0772876 0.0674088 0.0413522 0.0400133 0.0312288 0.046011 0.0171591 0.0164764 0.0578118 0.142739 0.0463007 0.0437769 0.104569 0.342455
threshold=0.70424300000000006 -17.495099999999997 -7.9747199999999981e-06 -9.0272649999999983e-06 2.8579150000000006 -2.0464649999999995e-06 -5.9599849999999995e-05 0.00019909150000000002 6.1111750000000002 6.8996100000000009 -4.2631049999999996e-05 -5.4530299999999995e-05 -9.2417599999999975 -5.2550399999999997e-05 -2.2419299999999995 0.0085896400000000008 -2.7279399999999994 6.3381100000000012 0.000104555 -4.4153649999999994e-05 4.8193800000000007 -0.19934349999999995 6.5238050000000013e-06 -16.050999999999998 -10.400999999999998 -3.3509749999999996e-07 8.3817800000000016e-05 3.6544900000000005e-06 2.7325550000000001e-05 1.2217400000000003
decision_type=2 2 2 2 2 2 2 2 2 2 2 2 2 2 2 2 2 2 2 2 2 2 2 2 2 2 2 2 2 2
left_child=23 2 -2 4 7 6 -5 -3 10 -10 -9 12 -7 14 15 -13 -16 18 -18 -15 -12 -22 -8 24 25 -1 -27 -26 29 -29
right_child=1 3 -4 5 -6 11 22 8 9 -11 20 13 -14 19 16 -17 17 -19 -20 -21 21 -23 -24 -25 27 26 -28 28 -30 -31
leaf_value=0.0051410790113732216 -0.0039398353380238407 0.0021881428095689953 -0.00044825775586849142 -0.0037493001495022328 0.0035235809578443877 -0.0031555707861955929 -6.9727727192717546e-05 -0.0020910904588500099 0.0036352549774892398 -8.3618003061474168e-05 -0.00029102956317617599 -0.00073856279187566553 -0.00028604014140653768 -0.0021788401234832991 0.0024163087596995561 0.0081904093363499714 -0.00028805680120058246 0.002076129686927585 -0.0024147677417204251 -7.6645658424038607e-05 -0.00029301693418043819 0.0029541660994436827 -0.0016240604715466571 -1.2761144663006193e-07 -8.873584718194612e-05 -0.00063172232234095182 0.0022802350064739583 0.0076493600766601349 9.3604866378882438e-06 0.00010469168998995127
leaf_weight=20 20 36 44 39 35 26 56 27 20 40 196 20 156 23 30 21 80 23 32 1430 24 20 26 214066 808 43 20 21 178 53
leaf_count=20 20 36 44 39 35 26 56 27 20 40 196 20 156 23 30 21 80 23 32 1430 24 20 26 214066 808 43 20 21 178 53
internal_value=0 -7.84232e-05 -0.00153938 -3.88041e-05 0.00052766 -0.000153714 -0.00158969 0.000238797 2.41898e-05 0.00115601 -0.000230151 -5.93336e-05 -0.000695973 1.05087e-05 0.000859954 0.00383481 0.000120746 -0.000389379 -0.000895688 -0.000109922 -2.07953e-05 0.00118298 -0.000562565 8.83317e-07 0.000190214 0.00146099 0.000292709 9.07102e-05 0.000666077 0.00224575
internal_weight=0 2424 64 2360 398 1962 121 363 327 60 267 1841 182 1659 206 41 165 135 112 1453 240 44 82 215209 1143 83 63 1060 252 74
internal_count=217633 2424 64 2360 398 1962 121 363 327 60 267 1841 182 1659 206 41 165 135 112 1453 240 44 82 215209 1143 83 63 1060 252 74
shrinkage=0.05


Tree=272
num_leaves=31
num_cat=0
split_feature=33 40 36 36 29 0 18 21 8 0 4 32 15 30 39 37 15 4 21 34 36 18 18 39 25 12 39 12 37 0
split_gain=0.00552044 0.0642269 0.0675814 0.429823 0.178387 0.273642 0.253096 0.236624 0.216808 0.148749 0.143482 0.142954 0.222712 0.172658 0.138064 0.110032 0.284434 0.459942 0.268648 0.0808886 0.0759423 0.421618 0.37474 0.367096 0.278322 0.256833 0.242034 0.224685 0.120411 0.212059
threshold=6.710375000000001e-07 -0.52047500000000058 -0.14969009999999991 -0.0054100000000001361 -6.6390649999999984e-05 -1.6898849999999996 -0.16778899999999997 0.50944100000000014 2.0928800000000005e-05 -5.6766349999999992 -0.20992299999999997 0.014895500000000002 -3.6458549999999993e-05 0.92011300000000007 -1.39862 0.24875600000000014 -4.5779349999999994e-05 -2.1602949999999992 0.91519300000000003 -0.076179349999999993 0.14973499999999998 11.525150000000002 -5.4791549999999996 0.35261000000000037 -0.25901299999999999 1.4136750000000001e-08 -2.3298099999999988 3.9881800000000008e-05 -0.078199999999999964 -1.7863349999999998
decision_type=2 2 2 2 2 2 2 2 2 2 2 2 2 2 2 2 2 2 2 2 2 2 2 2 2 2 2 2 2 2
left_child=-1 -2 15 4 5 -4 -7 8 10 -10 -6 12 -11 14 -13 16 17 -3 -18 -8 21 22 25 24 -24 -5 -27 28 29 -26
right_child=1 2 3 20 7 6 19 -9 9 11 -12 13 -14 -15 -16 -17 18 -19 -20 -21 -22 -23 23 -25 27 26 -28 -29 -30 -31
leaf_value=3.0361540168377125e-06 3.2303488465127218e-05 -0.00051045573504996441 -0.0072173493195857325 -0.00018466000518579362 0.002772598876177462 0.0025056644444070436 -0.0054854973782009139 0.0032636456527850698 0.00090038380540835745 -0.0018967339254686523 -0.0019944690753753228 -0.0030907223475738787 -0.0076679934118042831 -0.0054729654797879253 0.0017811147277384547 -2.7550068693396808e-05 -0.0017359065374190664 0.009834642261690037 0.004313755710609257 -0.0015443103286721137 -5.6314274600717521e-05 -0.0061873036965897146 0.0063705121487146249 -0.0046016623810282908 -0.0046112255066294563 -0.0010726006560227168 -0.0079391548191338323 -0.0043517835065722465 0.0019340065898416612 0.0016196549793272023
leaf_weight=190012 18579 21 35 46 38 23 30 27 26 32 27 26 35 23 33 3930 69 22 25 23 4180 33 24 30 22 21 33 20 152 36
leaf_count=190012 18579 21 35 46 38 23 30 27 26 32 27 26 35 23 33 3930 69 22 25 23 4180 33 24 30 22 21 33 20 152 36
internal_value=0 -2.08865e-05 -0.000130178 -0.000253771 -0.0018745 -0.00355911 -0.00187439 -0.00117415 -0.00167341 -0.00258929 0.000792432 -0.00319822 -0.00491157 -0.0017983 -0.000365797 2.10074e-05 0.00141393 0.00478239 -0.000126954 -0.00377517 -0.000120502 -0.000763923 -0.000297851 0.000629001 0.0012468 -0.00293011 -0.00526883 0.000712148 0.00119443 -0.000743782
internal_weight=0 27621 9042 4975 378 111 76 267 240 175 65 149 67 82 59 4067 137 43 94 53 4597 417 384 284 254 100 54 230 210 58
internal_count=217633 27621 9042 4975 378 111 76 267 240 175 65 149 67 82 59 4067 137 43 94 53 4597 417 384 284 254 100 54 230 210 58
shrinkage=0.05


Tree=273
num_leaves=31
num_cat=0
split_feature=26 3 7 12 2 12 9 16 12 9 2 2 0 7 2 9 14 3 14 36 2 39 15 9 14 34 13 7 3 33
split_gain=0.00537882 0.0505532 0.0603555 0.055381 0.12378 0.0952246 0.0957691 0.0547548 0.0347215 0.0515377 0.050371 0.0443414 0.0442294 0.0302102 0.127125 0.0586175 0.223548 0.0396709 0.0971612 0.0836472 0.0332352 0.0277748 0.0745495 0.0235935 0.0210986 0.0252527 0.0154931 0.0142005 0.0133006 0.0122529
threshold=0.70424300000000006 -17.495099999999997 -7.9747199999999981e-06 -9.0272649999999983e-06 2.8579150000000006 -2.0464649999999995e-06 -5.9599849999999995e-05 0.00019909150000000002 -1.9150249999999998e-05 -2.5042349999999996e-05 2.2794050000000001 1.8439650000000001 -6.1513449999999992 -3.2223699999999994e-05 -2.6524249999999996 -0.000119502 -3.1717749999999993e-05 -9.2899249999999984 6.6737300000000016e-07 -0.058960000000000005 2.4399850000000005 1.9461850000000005 -4.1197899999999994e-05 -6.2059949999999982e-05 6.2770850000000025e-08 1.8271150000000003 6.5238050000000013e-06 -2.8596049999999995e-05 -11.746199999999998 -1.6329399999999996e-05
decision_type=2 2 2 2 2 2 2 2 2 2 2 2 2 2 2 2 2 2 2 2 2 2 2 2 2 2 2 2 2 2
left_child=29 2 -2 4 7 6 -5 -3 10 -10 11 -9 -12 17 -15 16 -16 18 19 28 23 22 -19 -17 25 -23 -8 -25 -7 -1
right_child=1 3 -4 5 -6 13 26 8 9 -11 12 -13 -14 14 15 20 -18 21 -20 -21 -22 24 -24 27 -26 -27 -28 -29 -30 -31
leaf_value=0.00012473744138001647 -0.0037380976867279966 0.0020782738168943779 -0.00042543500169048542 -0.0035439640711560152 0.0033410187880508605 -0.0020723519232706167 -6.5872846656540269e-05 -0.00013635039159733798 0.0032041547659446227 -0.00026631173930819271 -0.00025780534639995061 0.0020139265819495819 -0.0034728038441971879 0.0036599064528369733 -0.00049820286470801678 -0.0017037989904305766 0.0058549728928664994 0.0025194591980380212 0.0010125263694546096 -0.0048179215290355907 -0.0016479036138193669 -0.00055077169017749841 -0.00048678737150802245 0.0011657702479860746 -0.00014731323449209473 -0.0027013010876544286 -0.0015428214839910371 -3.7587256124415355e-05 -0.00034243095912825085 -3.1454679447337912e-07
leaf_weight=1977 20 36 44 39 35 20 56 214 20 23 23 27 20 24 45 21 20 32 31 23 33 43 58 25 154 20 26 1267 25 213232
leaf_count=1977 20 36 44 39 35 20 56 214 20 23 23 27 20 24 45 21 20 32 31 23 33 43 58 25 154 20 26 1267 25 213232
internal_value=0 -7.40654e-05 -0.00146064 -3.64633e-05 0.000501314 -0.000145554 -0.00150427 0.000227513 2.37595e-05 0.00134786 -0.00017672 0.000104552 -0.00175315 -5.62517e-05 5.14834e-05 -9.89303e-06 0.00145662 -0.00043704 -0.00130739 -0.002365 -8.07128e-05 -0.000156373 0.0005821 -4.13241e-05 -0.000462652 -0.00123348 -0.000534174 -1.43025e-05 -0.00111128 8.34233e-07
internal_weight=0 2424 64 2360 398 1962 121 363 327 43 284 241 43 1841 1435 1411 65 406 99 68 1346 307 90 1313 217 63 82 1292 45 215209
internal_count=217633 2424 64 2360 398 1962 121 363 327 43 284 241 43 1841 1435 1411 65 406 99 68 1346 307 90 1313 217 63 82 1292 45 215209
shrinkage=0.05


Tree=274
num_leaves=31
num_cat=0
split_feature=18 40 2 2 26 11 8 27 3 14 3 1 25 17 18 4 12 3 35 31 4 39 39 25 37 37 3 19 29 40
split_gain=0.00540926 0.0694904 0.106477 0.136901 0.333519 0.098322 0.13959 0.158841 0.386298 0.151374 0.149876 0.0876991 0.0899762 0.0677935 0.0577602 0.0723644 0.106955 0.0506555 0.0443366 0.0815067 0.0709842 0.14168 0.0847635 0.039901 0.087746 0.345488 0.189183 0.035159 0.0570602 0.0326754
threshold=-12.332599999999998 0.19419999999999996 -0.55943749999999992 -0.66094299999999995 -0.0037284449999999995 0.00019807550000000001 3.2287000000000004e-05 0.0067147150000000004 -6.8126799999999994 3.6649000000000006e-08 -12.74245 -10.666549999999999 -0.0041669849999999989 -11.277699999999998 -13.388899999999998 0.32420950000000004 -5.525729999999999e-07 -11.976899999999999 2.3826350000000003e-05 -0.00023088749999999997 -0.14345599999999994 1.9902050000000007 0.47541999999999979 -0.14368899999999998 -0.35786749999999995 0.17390849999999994 -10.911099999999999 -2.1597749999999993 0.0014581450000000003 0.23534999999999953
decision_type=2 2 2 2 2 2 2 2 2 2 2 2 2 2 2 2 2 2 2 2 2 2 2 2 2 2 2 2 2 2
left_child=1 2 3 5 -5 18 7 8 9 -7 -9 12 -3 -12 15 16 -15 -4 19 -1 21 -20 -22 24 -13 26 -26 -8 -29 -25
right_child=-2 11 17 4 -6 6 27 10 -10 -11 13 23 -14 14 -16 -17 -18 -19 20 -21 22 -23 -24 29 25 -27 -28 28 -30 -31
leaf_value=0.0032603323329240086 -1.3383795605238777e-06 -0.0048037179717357508 -0.0017233160255934557 0.0081465416651190035 -0.00013515592933301026 0.004097897768536184 -0.0014530980090175065 0.0049145188052318106 0.00031715692613106103 0.010175919958128362 0.0028658128020955095 -2.73936057793146e-05 -6.0927909398742489e-05 -0.0043794085268746138 0.0023882518423826177 0.0017909042522660458 -0.00020559986100896356 -9.7282394028895306e-07 0.0047287407175463161 0.00028406081675408736 -0.0027646882501788862 -0.00078124913045810127 -0.00025475055942565374 0.0020221120894257185 -0.0023216240032906494 -0.00011611239103517591 -0.0084680500129858654 -3.2910241179706647e-05 0.0021606305174120483 -6.4731863886006178e-06
leaf_weight=25 211535 20 44 20 31 21 31 21 44 20 24 447 20 20 21 27 66 1434 20 288 38 28 293 20 31 161 21 168 36 2658
leaf_count=25 211535 20 44 20 31 21 31 21 44 20 24 447 20 20 21 27 66 1434 20 288 38 28 293 20 31 161 21 168 36 2658
internal_value=0 4.64274e-05 0.000234525 0.000575789 0.00311257 0.000467161 0.00100215 0.00179115 0.00357093 0.00706279 0.000946002 -0.000105031 -0.00243232 0.000418541 -1.97766e-05 -0.000467286 -0.00117625 -5.22469e-05 8.13838e-05 0.000521782 -0.000282323 0.00151458 -0.000542901 -7.71426e-05 -0.000425361 -0.00126053 -0.00480383 0.000115778 0.000354185 8.67682e-06
internal_weight=0 6098 2720 1242 51 1191 499 264 85 41 179 3378 40 158 134 113 86 1478 692 313 379 48 331 3338 660 213 52 235 204 2678
internal_count=217633 6098 2720 1242 51 1191 499 264 85 41 179 3378 40 158 134 113 86 1478 692 313 379 48 331 3338 660 213 52 235 204 2678
shrinkage=0.05


Tree=275
num_leaves=31
num_cat=0
split_feature=18 1 14 13 23 32 13 32 4 14 39 3 39 2 11 1 21 20 20 28 12 7 20 36 36 1 13 16 18 26
split_gain=0.00537624 0.0417749 0.110833 0.209117 0.242061 0.0659314 0.124899 0.0791025 0.0861465 0.0375693 0.0259534 0.0969147 0.256546 0.0730965 0.310877 0.0428704 0.102858 0.041151 0.03442 0.0227603 0.150955 0.045721 0.0227932 0.0391255 0.0615132 0.0217248 0.0190852 0.0189279 0.0179589 0.0177611
threshold=13.390900000000002 10.154350000000003 2.4444200000000004e-06 1.0552950000000002e-06 0.00023966550000000002 0.026744400000000005 -5.8728149999999988e-07 0.00049241950000000008 0.071593750000000025 1.0181200000000001e-07 0.55890500000000032 -7.9686699999999986 0.8945249999999999 1.7176300000000002 0.0013144900000000002 6.8996100000000009 0.50944100000000014 -13.08405 -7.2203449999999991 7.7527300000000006 1.2644850000000001e-05 8.5475950000000023e-06 -8.8007399999999993 -0.71412249999999966 0.38220950000000015 7.2909700000000006 6.0361250000000016e-07 4.583365000000001e-06 18.392150000000004 -0.03981524999999999
decision_type=2 2 2 2 2 2 2 2 2 2 2 2 2 2 2 2 2 2 2 2 2 2 2 2 2 2 2 2 2 2
left_child=-1 10 3 5 -5 6 -3 9 -9 -8 15 12 -12 25 -15 17 18 -2 -17 22 21 27 23 -19 -25 -14 -13 -21 -28 -20
right_child=1 2 -4 4 -6 -7 7 8 -10 -11 11 26 13 14 -16 16 -18 19 29 20 -22 -23 -24 24 -26 -27 28 -29 -30 -31
leaf_value=-9.6714124400103203e-07 -0.0021238661909434168 0.0044027085788041842 -0.0023187044359898818 0.00044257389436963768 0.0081285656080581255 -0.00061309296225377729 0.00032227144008228448 8.7448851785587112e-05 0.0045168153823830102 -0.0017553043277075632 0.0061250862723682079 7.3154935305398477e-05 -0.0001850052584116908 -0.0014611277369549498 0.0067909504895353511 -0.0019548391795688076 -0.0031364595620528382 -4.191070175153531e-05 0.0014392981925630012 -0.0002922021083814679 0.003550329350047943 0.00095465253673157548 2.3657853707430778e-05 -0.00356742872184744 -0.00036552410601871089 0.001579090089944657 -0.0001783495831692595 -0.002212905596627087 -0.0012970991355514172 -0.00017204583977694081
leaf_weight=214386 23 23 30 21 20 106 68 23 21 32 23 562 137 25 21 25 38 123 20 23 33 36 1419 24 40 20 111 29 53 118
leaf_count=214386 23 23 30 21 20 106 68 23 21 32 23 562 137 25 21 25 38 123 20 23 33 36 1419 24 40 20 111 29 53 118
internal_value=0 6.38563e-05 0.000584848 0.000862258 0.00419184 0.000362211 0.000981266 0.000434786 0.00220146 -0.000342553 2.11978e-06 0.00021614 0.00112033 0.00055329 0.00230613 -0.000102312 -0.00079389 -2.28796e-05 -0.000247769 5.10114e-06 0.000666392 -0.000415084 -4.47222e-05 -0.000563606 -0.00156624 3.97203e-05 -6.53306e-05 -0.00136336 -0.000539897 6.14823e-05
internal_weight=0 3247 344 314 41 273 167 144 44 100 2903 952 226 203 46 1951 201 1750 163 1727 121 88 1606 187 64 157 726 52 164 138
internal_count=217633 3247 344 314 41 273 167 144 44 100 2903 952 226 203 46 1951 201 1750 163 1727 121 88 1606 187 64 157 726 52 164 138
shrinkage=0.05


Tree=276
num_leaves=31
num_cat=0
split_feature=31 12 12 37 36 24 39 39 31 4 9 4 23 18 4 12 22 9 14 11 14 12 7 29 16 13 16 36 32 39
split_gain=0.00529284 0.108057 0.100944 0.0922718 0.778538 0.5676 0.667507 0.649701 0.483091 0.487919 0.642837 0.566507 0.460337 0.436196 0.43573 0.773652 0.349713 0.349861 0.230621 0.210176 0.447651 0.226492 0.184044 0.155556 0.153258 0.246773 0.332942 0.231235 0.319282 0.360333
threshold=1.8741500000000003e-05 -3.1922299999999996e-08 -3.0013349999999998e-08 0.19792950000000006 0.10022550000000004 0.77166350000000017 1.8568299999999998 -1.7081299999999999 -0.0054261899999999983 0.14503350000000001 1.6735200000000005e-05 1.8987000000000003 -0.0010304099999999998 -1.8600249999999996 -1.2205099999999998 1.9390250000000003e-07 0.81985550000000007 2.2232350000000001e-05 6.2770850000000025e-08 0.00014912150000000003 8.2225800000000014e-08 3.8317400000000007e-07 2.8400100000000003e-05 3.6044750000000008e-05 1.9131000000000004e-05 1.4045900000000002e-08 6.1128050000000005e-06 -0.079468000000000025 9.7359250000000011e-06 0.80790999999999979
decision_type=2 2 2 2 2 2 2 2 2 2 2 2 2 2 2 2 2 2 2 2 2 2 2 2 2 2 2 2 2 2
left_child=1 -1 -2 4 5 24 7 -7 9 10 12 13 -9 -11 -14 18 -10 19 -16 20 -18 -21 -12 -24 25 26 -3 -27 29 -29
right_child=2 3 -4 -5 -6 6 -8 8 16 11 22 -13 14 -15 15 -17 17 -19 -20 21 -22 -23 23 -25 -26 27 -28 28 -30 -31
leaf_value=4.5866091388297223e-05 -4.5893861516193023e-05 6.9037727017984182e-05 5.1615068196281114e-05 5.6589065887973459e-06 -1.0767802337750438e-05 -0.00060762324352566139 -0.0002239070623693488 -0.000600136150124258 -0.0076782360366037632 -0.0061810145596973599 0.0021053811519507418 -0.00257956791901961 -0.0012219609459862115 -0.01592334769450611 -0.010556913036853076 -0.017420042331584475 -0.010101621417284367 0.0042426058845766992 -0.0037904426859527388 0.0013079327921635318 -0.0010866325898678043 -0.0044392530830615817 -0.00047483096649456361 -0.0059745665569789705 -3.7383141139338753e-05 -4.658680827964822e-05 -0.0061834505224727439 -0.0043255525746779449 0.00045533173093148939 -0.00084846374867209506
leaf_weight=50806 48106 661 59211 31317 24101 268 498 29 22 20 37 26 20 27 20 22 21 27 34 60 40 24 36 20 1578 180 22 189 88 123
leaf_count=50806 48106 661 59211 31317 24101 268 498 29 22 20 37 26 20 27 20 22 21 27 34 60 40 24 36 20 1578 180 22 189 88 123
internal_value=0 -7.69072e-06 7.90564e-06 -5.34143e-05 -0.000119033 -0.000756693 -0.00164412 -0.00258338 -0.00367513 -0.00496358 -0.00377882 -0.00850164 -0.00612078 -0.0117777 -0.00778847 -0.0095165 -0.00174246 -0.000983227 -0.00629654 -0.00195631 -0.00419015 -0.00033412 -0.000631034 -0.00243902 -0.000365927 -0.000776412 -0.00013236 -0.00153484 -0.00220455 -0.00295478
internal_weight=0 110316 107317 59510 28193 4092 1251 753 485 291 218 73 125 47 96 76 194 172 54 145 61 84 93 56 2841 1263 683 580 400 312
internal_count=217633 110316 107317 59510 28193 4092 1251 753 485 291 218 73 125 47 96 76 194 172 54 145 61 84 93 56 2841 1263 683 580 400 312
shrinkage=0.05


Tree=277
num_leaves=31
num_cat=0
split_feature=40 40 11 32 36 36 36 36 20 40 36 19 11 40 32 4 20 24 16 35 17 20 12 36 20 11 19 36 33 12
split_gain=0.00544787 0.0729118 0.121962 0.113521 0.102705 0.159049 0.92391 0.179403 0.418405 0.151923 0.124259 1.27426 0.558743 0.328289 0.226597 0.0753351 0.119636 0.0743625 0.0709128 0.257133 0.231419 0.282121 0.165355 0.137603 0.0928231 0.0757756 0.0705787 0.546015 0.0696677 0.145391
threshold=-0.20255000000000042 0.086360000000000006 0.00083188600000000011 0.0055718750000000013 -0.17527649999999997 0.14973499999999998 0.077348000000000056 0.039429999999999972 -6.9476399999999989 -0.052540000000000468 -0.040859549999999939 -1.9575299999999998 0.00011081300000000001 -0.052540000000000468 -0.013126049999999998 0.21856850000000003 -7.0788499999999992 1.4078700000000002 1.1521400000000002e-06 3.0867100000000008e-05 -1.2822499999999997 -12.599549999999999 2.2656000000000001e-07 0.039429999999999972 -15.0604 0.00085338750000000011 -2.6299349999999992 0.056773999999999998 1.3687350000000002e-07 -9.647814999999997e-09
decision_type=2 2 2 2 2 2 2 2 2 2 2 2 2 2 2 2 2 2 2 2 2 2 2 2 2 2 2 2 2 2
left_child=-1 2 3 4 -2 6 7 10 9 -9 11 -6 -13 -14 -12 28 -17 -5 19 22 -21 24 23 -4 -22 -20 27 -27 -16 -30
right_child=1 -3 18 17 5 -7 -8 8 -10 -11 14 12 13 -15 15 16 -18 -19 25 20 21 -23 -24 -25 -26 26 -28 -29 29 -31
leaf_value=-6.7592827752731619e-06 -8.3100165444923021e-05 -5.0927941518518113e-06 0.00028526955031014798 -0.0033478329824339157 -0.0092392769595608121 -6.0610509026327495e-05 0.010032435492254221 0.0026450447940078448 -0.00304322526906617 0.0081616856811496507 -0.004031021731290301 -0.0026308441057335589 0.0107928673705707 0.003835743355254332 0.000569515802545 0.00041944146139680271 -0.0044282381839002485 -0.0003084945853603968 -0.0028880412425243539 -9.189964949445523e-05 -0.0044587581910101497 -0.0086247289758690539 -0.0039686221662122989 0.0045270691508841826 0.00013904828988218113 0.0087291270119021647 -8.473705503934881e-05 5.8429880563459205e-05 -0.0044956491575811972 0.00030830722290187308
leaf_weight=125795 1082 83204 146 21 20 1071 26 24 20 26 28 20 30 39 2697 35 20 483 23 52 21 26 20 22 23 20 2358 197 21 63
leaf_count=125795 1082 83204 146 21 20 1071 26 24 20 26 28 20 30 39 2697 35 20 483 23 52 21 26 20 22 23 20 2358 197 21 63
internal_value=0 9.25852e-06 0.000147559 0.00028148 0.000350643 0.000464003 0.00064708 0.000566889 0.00306886 0.0055137 0.00050798 0.00216493 0.00472768 0.00686058 0.000444918 0.000489109 -0.00134335 -0.000435134 -0.000116137 -0.00083092 -0.0026185 -0.00449541 0.000329109 0.000840743 -0.00205536 -3.08475e-05 -5.32689e-06 0.000857572 0.00052535 -0.000892682
internal_weight=0 91838 8634 5726 5222 4140 3069 3043 70 50 2973 109 89 69 2864 2836 55 504 2908 310 122 70 188 168 44 2598 2575 217 2781 84
internal_count=217633 91838 8634 5726 5222 4140 3069 3043 70 50 2973 109 89 69 2864 2836 55 504 2908 310 122 70 188 168 44 2598 2575 217 2781 84
shrinkage=0.05


Tree=278
num_leaves=31
num_cat=0
split_feature=3 34 23 20 16 28 39 39 23 13 35 22 39 35 18 1 9 36 10 19 14 25 26 5 7 1 20 10 15 39
split_gain=0.00536634 0.0506641 0.110498 0.231699 0.0624328 0.0968375 0.0377914 0.0179263 0.0520058 0.0754112 0.0157423 0.0264608 0.0146678 0.010817 0.00643533 0.0369169 0.108829 0.133457 0.130706 0.349205 0.0743875 0.0861662 0.0509729 0.0544421 0.0422038 0.0359955 0.0346567 0.0309661 0.0290215 0.0288047
threshold=-18.627349999999996 0.015434100000000001 0.00014692550000000004 -11.469999999999999 0.0016856000000000002 -0.85855999999999988 -2.8634500000000003 -0.82558500000000012 -6.1060649999999979e-05 1.6837650000000001e-07 0.00088582400000000012 4.2979400000000005 -2.8634500000000003 0.034433300000000007 13.390900000000002 8.7485050000000015 2.2232350000000001e-05 -0.30278099999999991 1.8732900000000002e-05 1.3330350000000004 -4.5397049999999996e-08 0.04793780000000001 -0.0045627499999999991 1.2248200000000001e-05 -2.8966949999999995e-05 8.267730000000002 -7.1062399999999988 -9.0948349999999971e-06 -1.0730149999999997e-06 0.39187000000000044
decision_type=2 2 2 2 2 2 2 2 2 2 2 2 2 2 2 2 2 2 2 2 2 2 2 2 2 2 2 2 2 2
left_child=1 7 3 -3 5 -4 -6 10 9 -9 -1 -12 -7 -13 -2 25 18 -18 20 -20 21 -17 23 -22 -24 -16 -27 -26 -25 -29
right_child=14 2 4 -5 6 12 -8 8 -10 -11 11 13 -14 -15 15 16 17 -19 19 -21 22 -23 24 28 27 26 -28 29 -30 -31
leaf_value=3.7888448819323344e-06 -1.7653880758194511e-06 0.0061732826893253689 0.0037750519152640744 -0.0003815784816522085 -0.00018444691319722728 0.0005448254398100383 -0.0029722086168476381 0.0041796207381412393 -0.00044232551437324639 0.00012882746555583759 -0.0019331719531692215 0.0001004434130979828 -0.0011672688769811595 -0.0010626451237368639 2.3730282747166888e-05 -0.00029750934197744799 0.00065290086526858995 -0.0049317481482557927 0.0060789397326172206 -0.00058295792403528356 -0.0030099838406551335 0.0039393863635528497 0.0022915765004842704 -0.0018933523219443903 -0.00093388436088135622 -0.0024993506596469421 -9.0637365622114893e-05 0.0014876725831841628 0.00014665692768695799 1.2499613467298333e-06
leaf_weight=1323 212681 26 22 28 31 29 20 20 52 27 28 77 22 27 2654 21 23 20 37 42 22 28 29 22 43 28 32 55 84 80
leaf_count=1323 212681 26 22 28 31 29 20 20 52 27 28 77 22 27 2654 21 23 20 37 42 22 28 29 22 43 28 32 55 84 80
internal_value=0 8.76597e-05 0.000886687 0.00277447 6.45898e-05 0.00100234 -0.00127769 -3.86333e-06 0.00064717 0.00185257 -4.81604e-05 -0.000568834 -0.000193725 -0.000201512 -7.03224e-07 6.94527e-05 0.000461541 -0.00194461 0.000685007 0.00253717 0.000303962 0.00212357 3.78103e-05 -0.000746517 0.000522805 -3.64851e-06 -0.0012147 0.000234635 -0.000276741 0.00060683
internal_weight=0 1732 178 54 124 73 51 1554 99 47 1455 132 51 104 215901 3220 506 43 463 79 384 49 335 128 207 2714 60 178 106 135
internal_count=217633 1732 178 54 124 73 51 1554 99 47 1455 132 51 104 215901 3220 506 43 463 79 384 49 335 128 207 2714 60 178 106 135
shrinkage=0.05


Tree=279
num_leaves=31
num_cat=0
split_feature=18 37 1 4 22 39 1 36 19 2 36 4 4 2 36 1 30 1 28 36 36 29 4 33 6 17 23 25 32 14
split_gain=0.00534829 0.0601315 0.0554957 0.0814571 0.0797956 0.0307141 0.0965669 0.139302 0.652304 0.241912 0.108786 0.216954 0.0525707 0.0678792 0.0564115 0.0378598 0.0462516 0.0340959 0.048251 0.043238 0.129962 0.0170585 0.113143 0.0157246 0.0152884 0.01323 0.0122604 0.0160495 0.01082 0.0352428
threshold=-13.388899999999998 4.6270000000000016 -12.938099999999997 -0.11271049999999998 1.9823250000000001 0.078545000000000101 -3.1361349999999999 -0.40968649999999995 -0.75575599999999987 -2.1540499999999994 -0.018010000000000078 0.073687550000000004 -0.29052249999999996 -1.2990149999999998 0.039429999999999972 -1.6694349999999998 18.825800000000005 -6.5414749999999993 0.31163200000000008 -0.51801999999999981 0.14973499999999998 -0.0025000549999999997 1.1247450000000001 -1.2186099999999996e-07 -5.7203749999999994e-08 -14.223749999999997 0.069955350000000013 0.54025350000000005 1.20103 1.2024350000000002e-06
decision_type=2 2 2 2 2 2 2 2 2 2 2 2 2 2 2 2 2 2 2 2 2 2 2 2 2 2 2 2 2 2
left_child=1 2 3 -1 -5 17 7 25 9 -9 11 -11 13 -12 -14 16 -8 18 -4 -20 -21 22 -19 -16 -25 -7 27 -23 -2 -30
right_child=28 -3 5 4 -6 6 15 8 -10 10 12 -13 14 -15 23 -17 -18 21 19 20 -22 26 -24 24 -26 -27 -28 -29 29 -31
leaf_value=0.0037253643269650641 2.4288366352222696e-08 0.0023691194987934851 -0.00010883378508307423 0.0031885385329223936 -0.0004230412457903955 -0.0012415453579576155 -0.00026936178881745344 0.004607355935382253 0.0094397547614315288 -0.00020575039347932035 -0.0035188471136886317 0.006432676913827891 0.0020832463792897931 -6.6419567509521068e-05 -0.0012159665909260594 -7.6437128561736506e-05 -0.0031397739410116941 -0.00036843975296601698 -8.7031266146088743e-05 -0.0046121413316277246 -0.0003651797070931427 -8.2441906060094362e-05 0.0035092059449525551 0.0011822695208247753 -0.00020013840169121977 -9.3040387977036217e-05 0.00084438011559541349 -0.0014748809105228811 4.3179084506576556e-05 -0.00042166485740833783
leaf_weight=24 212365 28 175 20 65 28 36 36 23 32 24 20 34 35 29 810 23 76 39 31 43 1421 25 25 100 240 35 21 1133 637
leaf_count=24 212365 28 175 20 65 28 36 36 23 32 24 20 34 35 29 810 23 76 39 31 43 1421 25 25 100 240 35 21 1133 637
internal_value=0 6.13266e-05 4.27047e-05 0.00115304 0.000426742 6.69545e-06 0.000175561 0.000649024 0.00129436 0.000735127 0.000268906 0.00234749 -0.000168691 -0.0014708 0.000239948 -0.000165507 -0.00138834 -0.000128596 -0.000628886 -0.00143428 -0.00214431 -3.7288e-05 0.000591374 -0.000167014 7.63432e-05 -0.000213033 -8.0277e-05 -0.00010272 -1.0018e-06 -0.000124112
internal_weight=0 3498 3470 109 85 3361 1495 626 358 335 299 52 247 59 188 869 59 1866 288 113 74 1578 101 154 125 268 1477 1442 214135 1770
internal_count=217633 3498 3470 109 85 3361 1495 626 358 335 299 52 247 59 188 869 59 1866 288 113 74 1578 101 154 125 268 1477 1442 214135 1770
shrinkage=0.05


Tree=280
num_leaves=31
num_cat=0
split_feature=4 21 4 37 36 34 36 15 39 36 18 2 9 37 32 17 3 16 33 39 13 18 39 39 6 22 12 21 8 39
split_gain=0.00525908 0.151863 0.292875 0.358115 1.53411 0.485241 0.500631 0.667332 0.793025 0.394253 0.528015 0.619089 0.292959 0.284205 0.416365 0.509944 0.346859 0.404375 0.340366 0.33434 0.316161 0.257964 0.251621 0.398982 0.382764 0.234602 0.227496 0.189609 0.166163 0.203546
threshold=0.17191050000000002 0.20390150000000004 0.79460700000000006 0.19792950000000006 0.2761725000000001 -0.55203199999999986 -0.040859549999999939 2.4151150000000003e-05 2.3674900000000001 -0.058960000000000005 -5.0750049999999991 0.71624100000000002 -8.4578999999999977e-05 -0.057539999999999918 -0.0071753399999999997 2.9284200000000005 -15.040049999999999 0.0026916950000000005 -7.2225249999999991e-07 -0.71725499999999964 -7.383389999999999e-07 3.1442200000000002 2.1254700000000009 -0.88227999999999918 -1.8995799999999996e-06 3.1525300000000001 -4.4303949999999996e-06 0.39402150000000008 1.0226700000000002e-05 0.80790999999999979
decision_type=2 2 2 2 2 2 2 2 2 2 2 2 2 2 2 2 2 2 2 2 2 2 2 2 2 2 2 2 2 2
left_child=-1 -2 3 4 5 -3 7 8 9 10 -7 -12 -9 14 15 25 -16 20 -17 21 -18 -15 23 -22 -25 -8 -21 -14 -28 -30
right_child=1 2 -4 -5 -6 6 13 12 -10 -11 11 -13 27 19 16 18 17 -19 -20 26 22 -23 -24 24 -26 -27 28 -29 29 -31
leaf_value=-5.1463954631939686e-06 -3.1496124772297743e-05 -0.0047544222548962217 -2.7228523018587428e-05 -5.2560953583420585e-05 -4.6312634145845027e-05 0.01617287401535103 0.0055593352555346294 -0.0042444201867328961 -0.0003304077908615 0.0041338696329416167 0.0026574295955737507 0.012271061742847617 -0.00030764007134031151 0.0064407966390717776 -0.0043121869157237763 0.0056558402112806602 -0.0040666878617643806 0.0090400086706176799 0.01433185151545331 -0.0030903150042932894 -0.0020881516020215879 -0.00031798015907952504 -0.00097232995122351746 0.00010954785076054659 0.0080237243641167882 -0.00115748591040476 -0.0032828453420238064 0.0036417233583390129 0.00077141599243314772 0.0032999607910882802
leaf_weight=151301 50002 26 9868 2568 2468 23 26 20 40 51 34 33 47 48 22 26 22 20 20 36 22 20 39 22 50 26 22 86 552 93
leaf_count=151301 50002 26 9868 2568 2468 23 26 20 40 51 34 33 47 48 22 26 22 20 20 36 22 20 39 22 50 26 22 86 552 93
internal_value=0 1.17387e-05 0.000144123 0.00040579 0.000708062 0.00201367 0.00213936 0.00382852 0.00588334 0.00764611 0.00963637 0.0073925 0.00139765 0.00161011 0.00292996 0.00559323 0.00160508 0.00234897 0.00942802 0.00110511 0.00148561 0.00445292 0.00240403 0.00380486 0.0056055 0.00220092 0.000781286 0.00224608 0.000990248 0.001136
internal_weight=0 66332 16330 6462 3894 1426 1400 334 181 141 90 67 153 1066 295 98 197 175 46 771 155 68 133 94 72 52 703 133 667 645
internal_count=217633 66332 16330 6462 3894 1426 1400 334 181 141 90 67 153 1066 295 98 197 175 46 771 155 68 133 94 72 52 703 133 667 645
shrinkage=0.05


Tree=281
num_leaves=31
num_cat=0
split_feature=36 18 26 3 12 12 14 3 12 9 2 39 2 7 9 9 11 17 9 9 14 3 17 7 3 25 39 5 7 35
split_gain=0.00528786 0.275583 0.00819361 0.0423882 0.0605225 0.168144 0.276048 0.219393 0.121232 0.0928454 0.0621401 0.042161 0.0402523 0.0192687 0.0624384 0.04325 0.067036 0.0594628 0.0249554 0.032959 0.0214549 0.015681 0.0134675 0.0689764 0.184005 0.116832 0.0477065 0.0745028 0.0196357 0.0186628
threshold=5.6762150000000009 2.9920850000000008 1.0482150000000001 -16.870699999999996 -9.0272649999999983e-06 -4.6146349999999992e-05 7.7830150000000009e-06 -8.5493049999999986 -2.0464649999999995e-06 -5.7102799999999991e-05 2.5248350000000008 1.0196000000000003 1.3921450000000002 -3.2223699999999994e-05 -0.00012512549999999997 -9.3323749999999985e-05 0.00062372550000000006 -16.050999999999998 -6.7024799999999989e-05 -4.1101849999999997e-05 4.6606600000000007e-08 -9.095304999999998 -19.608449999999998 -2.9834549999999997e-05 -5.946604999999999 1.0121250000000004 -3.5525649999999991 1.6368250000000004e-05 -2.4137799999999998e-05 0.020672650000000004
decision_type=2 2 2 2 2 2 2 2 2 2 2 2 2 2 2 2 2 2 2 2 2 2 2 2 2 2 2 2 2 2
left_child=2 -2 22 11 5 10 21 -8 9 -6 12 -4 -5 15 -15 17 20 -10 -16 -20 -17 -7 23 24 25 29 27 -25 -28 -1
right_child=1 -3 3 4 8 6 7 -9 13 -11 -12 -13 -14 14 18 16 -18 -19 19 -21 -22 -23 -24 26 -26 -27 28 -29 -30 -31
leaf_value=0.00072333566524321216 -4.8163505962312127e-05 0.0047525261844237965 -0.00042463727315063461 -0.00027871470533682443 -0.0049233691647796981 -0.0012399474615813234 0.0084292197191340786 0.0013385532009124292 -0.0035388180715017373 -0.0009877376020588774 -0.0025030341194776286 -0.0032296115732086562 0.0021564504966954702 0.0020321498629699993 -0.0017669004499025289 -0.0015579241236220256 0.0024617636750917885 -0.00050107821143869009 0.0019837321546219756 -6.9373319693801625e-05 -0.00014261715407973125 0.00052446133768706423 -2.6305240011315999e-07 7.7201281480180732e-06 0.0049234605042363039 0.0034358354463145829 -0.0018130905649159105 0.0028381013999434451 -0.00033634312868641619 -0.0010367004322956821
leaf_weight=20 838 31 37 112 22 20 24 20 24 47 28 21 20 37 21 33 23 49 20 864 142 34 214660 93 27 23 25 31 226 61
leaf_count=20 838 31 37 112 22 20 24 20 24 47 28 21 20 37 21 33 23 49 20 864 142 34 214660 93 27 23 25 31 226 61
internal_value=0 0.000123092 -4.93474e-07 -0.000113294 -6.33188e-05 0.0006354 0.00226638 0.00520619 -0.000203935 -0.00224258 -0.000363575 -0.00144023 9.02497e-05 -8.79689e-05 1.8918e-05 -0.000459509 -7.59726e-05 -0.00149979 -6.3391e-05 -2.2923e-05 -0.000409504 -0.000129023 3.44279e-07 0.000257992 0.00124569 0.000290887 -8.70445e-05 0.000715315 -0.00048343 -0.000602124
internal_weight=0 869 216764 1598 1540 258 98 44 1282 69 160 58 132 1213 942 271 198 73 905 884 175 54 215166 506 131 104 375 124 251 81
internal_count=217633 869 216764 1598 1540 258 98 44 1282 69 160 58 132 1213 942 271 198 73 905 884 175 54 215166 506 131 104 375 124 251 81
shrinkage=0.05


Tree=282
num_leaves=31
num_cat=0
split_feature=15 21 4 38 38 24 39 40 15 38 17 6 3 20 39 12 27 20 3 12 22 20 3 33 38 38 4 17 4 15
split_gain=0.0052769 0.103183 0.0987505 0.161909 0.7873 0.285426 0.261229 0.330132 0.292871 0.363355 0.284468 0.280418 0.246752 0.266245 0.318394 0.230442 0.221811 0.218063 0.265726 0.239008 0.216437 0.215287 0.342676 0.220391 0.53133 0.215751 0.196541 0.225327 0.212151 0.206839
threshold=-1.0730149999999997e-06 -0.092714749999999985 -1.4133199999999999 0.2761725000000001 -0.12496499999999998 1.0089350000000004 -2.2545749999999996 1.9491550000000004 -5.8589749999999996e-05 -0.040859549999999939 13.501750000000001 -1.6857599999999998e-06 -16.131449999999997 -14.447549999999998 -0.27803499999999998 -8.2618699999999988e-07 0.0080523800000000013 -6.9659249999999995 -7.3836349999999991 1.2625950000000003e-07 2.8026550000000001 -10.354649999999998 -13.443999999999997 -1.2728799999999998e-06 0.039429999999999972 0.1751400000000001 -0.58642949999999983 -6.6230499999999992 0.083564450000000012 -1.5623199999999996e-05
decision_type=2 2 2 2 2 2 2 2 2 2 2 2 2 2 2 2 2 2 2 2 2 2 2 2 2 2 2 2 2 2
left_child=1 2 -1 4 -4 26 -7 8 11 17 21 -8 -13 16 15 -15 -14 18 19 -10 -21 22 -11 24 -23 -25 27 -6 -28 -30
right_child=-2 -3 3 -5 5 6 7 -9 9 10 -12 12 13 14 -16 -17 -18 -19 -20 20 -22 23 -24 25 -26 -27 28 -29 29 -31
leaf_value=-2.7843864383844318e-05 -6.2483545549961932e-06 -4.1195720805860293e-05 5.9345410856982749e-06 -1.354009430359746e-05 -0.006027834354317748 -0.00043293308508772521 -0.0039840300247306008 0.0075706955341561495 0.0025735370404660132 0.0044537189444904595 0.0069099201828066725 -0.003262523102902753 0.001733316423336941 0.00026338871463113246 -0.00069110330675487474 0.0053105661529116339 0.0086805734876543288 0.0090480295522138484 -0.00089139270938695919 0.0035755443979393351 0.010313961495222221 6.42158861054391e-05 -0.00082218128084262342 0.0019387446871860449 0.011064523937446731 -0.0018517204668236581 0.00074899920077546806 -0.00043204099877803149 0.0017232270293752662 -0.0038657708675600591
leaf_weight=15740 132374 45932 9415 10408 20 173 34 23 65 37 24 34 27 42 168 49 20 20 28 22 26 23 183 445 21 41 1986 179 25 49
leaf_count=15740 132374 45932 9415 10408 20 173 34 23 65 37 24 34 27 42 168 49 20 20 28 22 26 23 183 445 21 41 1986 179 25 49
internal_value=0 9.70126e-06 6.91464e-05 0.00013387 0.000250285 0.000861487 0.00139492 0.00163232 0.00152798 0.00200099 0.00155145 0.000345462 0.000778412 0.0012274 0.00059913 0.0029811 0.0046896 0.00416215 0.00346912 0.0045496 0.00722552 0.00137997 6.51292e-05 0.00192576 0.00531436 0.00161897 0.000506099 -0.000994432 0.000651054 -0.0019776
internal_weight=0 85259 39327 23587 13179 3764 1505 1332 1309 935 774 374 340 306 259 91 47 161 141 113 48 750 220 530 44 486 2259 199 2060 74
internal_count=217633 85259 39327 23587 13179 3764 1505 1332 1309 935 774 374 340 306 259 91 47 161 141 113 48 750 220 530 44 486 2259 199 2060 74
shrinkage=0.05


Tree=283
num_leaves=31
num_cat=0
split_feature=8 2 40 40 28 2 33 2 20 18 20 18 18 18 9 36 40 18 18 36 36 36 8 3 31 27 25 24 32 39
split_gain=0.00545022 0.0256111 0.0229396 0.0475927 0.118373 0.159065 0.0549996 0.0883416 0.0662071 0.123407 0.0869016 0.154355 0.169937 0.0635087 0.119778 0.12502 0.061869 0.205905 0.0766656 0.152981 0.0552726 0.149209 0.322734 0.0501981 0.0492303 0.0851632 0.354711 0.391463 0.146875 0.0646608
threshold=1.6290050000000002e-05 3.0578500000000006 0.46045500000000011 -1.1537099999999991 -4.3985699999999994 1.2193050000000003 -4.9754949999999999e-07 1.9944900000000001 -12.298649999999999 -6.7912899999999992 -11.077049999999998 7.1162100000000006 -6.9314949999999991 5.444160000000001 -1.0929449999999999e-05 0.0045899999999999838 0.15640499999999993 10.536600000000002 -8.5511699999999973 0.056773999999999998 -0.19934349999999995 1.0000000180025095e-35 1.3944750000000001e-05 -18.305499999999995 -2.4344349999999997e-05 0.00015521100000000002 0.0040724050000000012 0.25138700000000008 -0.00058609899999999997 0.23546500000000006
decision_type=2 2 2 2 2 2 2 2 2 2 2 2 2 2 2 2 2 2 2 2 2 2 2 2 2 2 2 2 2 2
left_child=1 2 3 23 5 -5 7 20 9 -8 11 12 -10 -11 -15 -16 24 18 19 -18 -6 22 -22 -1 25 26 28 -28 -12 -26
right_child=-2 -3 -4 4 6 -7 8 -9 10 13 16 -13 -14 14 15 -17 17 -19 -20 -21 21 -23 -24 -25 29 -27 27 -29 -30 -31
leaf_value=0.0018595159998060101 3.1266609142347602e-06 0.0017254737779564624 2.3168735708427399e-05 0.000852713832379474 0.00019561826701432409 -0.0043208494843640487 0.003842722185618186 -0.0039024756267463088 -0.0038378058216646119 2.3639087478867217e-05 -0.0043951800334616565 -0.0044107719333260319 -0.000153878412002868 -0.00070519684104977231 0.001115286675735011 0.0060708336607785893 -0.0044261346836719897 -0.0042157687676670913 -2.4651446354194679e-05 -0.00013266984553750156 -0.00063601296712376002 -0.00037811102605298874 -0.0081427066531475824 -1.0896613254566749e-05 0.00061254674899935792 9.0874198206237634e-05 -0.0083896765534700532 -0.00065618488630813472 -2.2841723522996442e-07 -0.00010484594276269571
leaf_weight=36 188240 21 14602 24 179 39 24 20 36 648 20 30 240 39 35 20 32 37 375 59 45 276 21 10070 542 726 30 36 384 747
leaf_count=36 188240 21 14602 24 179 39 24 20 36 648 20 30 240 39 35 20 32 37 375 59 45 276 21 10070 542 726 30 36 384 747
internal_value=0 -2.00239e-05 -2.12719e-05 -6.5207e-05 -0.000197324 -0.00234997 -0.000167849 -0.000641423 -0.000104745 0.000313959 -0.000202112 -0.00100462 -0.000634391 0.000199821 0.00141435 0.0029173 -0.000119927 -0.000625629 -0.000340575 -0.00164246 -0.000516239 -0.000888819 -0.00302451 -4.23375e-06 -1.75651e-05 -0.000248603 -0.000772988 -0.00417141 -0.0002178 0.000196804
internal_weight=0 29393 29372 14770 4664 63 4601 541 4060 766 3294 306 276 742 94 55 2988 503 466 91 521 342 66 10106 2485 1196 470 66 404 1289
internal_count=217633 29393 29372 14770 4664 63 4601 541 4060 766 3294 306 276 742 94 55 2988 503 466 91 521 342 66 10106 2485 1196 470 66 404 1289
shrinkage=0.05


Tree=284
num_leaves=31
num_cat=0
split_feature=37 18 23 4 4 9 31 36 16 36 0 18 40 39 18 19 36 36 14 12 6 26 14 16 11 36 36 29 16 7
split_gain=0.0052149 0.201007 0.00614663 0.0340188 0.0526807 0.129941 0.347212 0.298213 0.267447 0.168782 0.112781 0.130905 0.0825615 0.134081 0.210889 0.15196 0.0686095 0.104349 0.0454369 0.0471645 0.0433713 0.0609183 0.0576678 0.0404333 0.0621675 0.0761242 0.205398 0.0521954 0.100979 0.0364417
threshold=5.6849350000000003 -3.7984549999999992 0.0020748500000000005 -0.12727799999999997 -1.4133199999999999 -5.4981049999999991e-05 0.14260400000000004 0.77415 6.8566600000000009e-05 0.056773999999999998 6.5600500000000013 13.390900000000002 -1.69079 -0.82558500000000012 -8.4289549999999984 0.05815710000000001 0.14973499999999998 -0.10081500000000009 2.3892950000000003e-05 -1.2624199999999998e-05 1.1712600000000001e-06 -0.28811899999999996 -4.5397049999999996e-08 0.00055143100000000012 0.0016846400000000001 -0.40968649999999995 0.46240350000000002 -0.0025000549999999997 0.0061593000000000004 -5.5880499999999995e-05
decision_type=2 2 2 2 2 2 2 2 2 2 2 2 2 2 2 2 2 2 2 2 2 2 2 2 2 2 2 2 2 2
left_child=2 -2 -1 4 23 6 -6 8 -8 -10 18 12 20 15 -15 -14 17 -16 19 -7 22 -22 -12 24 -4 -26 -27 28 -25 -21
right_child=1 -3 3 -5 5 10 7 -9 9 -11 11 -13 13 14 16 -17 -18 -19 -20 29 21 -23 -24 27 25 26 -28 -29 -30 -31
leaf_value=1.1888173821993358e-06 0.0038904560948995986 -3.3000318782131506e-05 0.00013463426290540015 -0.00011760924353263539 -0.00019557594796733736 -0.0026394370320485909 0.0015024104498549537 -0.00042938080168237179 0.0046306325832847512 0.010977088773242114 -0.00051906470450506146 0.0039697283442834425 -0.0036207771398319615 0.0060484783373626503 -0.00043924778288783277 0.0014571222108556601 -0.0010256090480002709 0.0033351760786125791 0.0018065629407179326 0.0012026746940015679 -0.0032398813305637587 6.6787394171115015e-05 0.0026669527334161106 0.0043212304019834853 -0.00016791300186014269 -0.0062460638098418711 -0.00041057844673081205 -9.1923481079762406e-05 -0.00015618479900534593 -0.00025571675677542007
leaf_weight=208533 34 819 104 5347 147 20 26 31 20 22 49 31 26 27 30 34 28 47 28 45 26 30 20 20 54 25 38 1048 34 890
leaf_count=208533 34 819 104 5347 147 20 26 31 20 22 49 31 26 27 30 34 28 47 28 45 26 30 20 20 54 25 38 1048 34 890
internal_value=0 0.000123386 -4.85507e-07 -4.28224e-05 9.50692e-05 0.000290261 0.00134598 0.00363495 0.00548781 0.00795497 9.51392e-05 0.000868686 0.00056543 0.00121651 0.00210733 -0.000743301 0.00109389 0.00186462 -0.000178711 -0.000236918 -0.000434627 -0.00146845 0.000404419 -0.000137597 -0.000754837 -0.00154548 -0.00272625 -1.38126e-05 0.00150212 -0.000185527
internal_weight=0 853 216780 8247 2900 1577 246 99 68 42 1331 348 317 192 132 60 105 77 983 955 125 56 69 1323 221 117 63 1102 54 935
internal_count=217633 853 216780 8247 2900 1577 246 99 68 42 1331 348 317 192 132 60 105 77 983 955 125 56 69 1323 221 117 63 1102 54 935
shrinkage=0.05


Tree=285
num_leaves=31
num_cat=0
split_feature=25 5 37 36 25 22 36 11 37 39 6 12 11 5 28 11 3 3 36 3 30 40 18 12 36 19 32 0 2 36
split_gain=0.00521902 0.0283129 0.0663605 0.183293 0.195243 0.26018 0.182787 0.140582 0.13066 0.128381 0.120694 0.0643455 0.0637166 0.0551657 0.04329 0.080513 0.0338206 0.0305791 0.175878 0.0482882 0.0885618 0.0463336 0.0295901 0.0263928 0.0466559 0.0904889 0.0670735 0.0512211 0.0375902 0.0289408
threshold=0.041210350000000007 1.0838450000000003e-05 0.12358499999999996 0.22528099999999995 0.093819000000000013 6.6944750000000006 -0.011175000000000155 0.0017362250000000003 0.057875000000000128 -0.054875 -5.7203749999999994e-08 1.0083500000000001e-05 0.0030998800000000006 8.8800600000000022e-06 -10.048129999999999 0.0015288700000000001 -7.7574999999999994 -18.627349999999996 0.010257000000000018 -18.305499999999995 2.3658200000000007 4.8674450000000027 5.1273750000000007 2.7414300000000003e-05 -0.40968649999999995 2.4316000000000004 -0.046235849999999988 5.4701800000000009 0.56975150000000008 0.20129000000000011
decision_type=2 2 2 2 2 2 2 2 2 2 2 2 2 2 2 2 2 2 2 2 2 2 2 2 2 2 2 2 2 2
left_child=-1 2 3 4 7 -6 8 9 -7 -2 -9 14 16 -11 15 -5 -8 18 21 20 -19 -3 -23 -21 -25 27 -27 28 -26 -30
right_child=1 17 -4 11 5 6 12 10 -10 13 -12 -13 -14 -15 -16 -17 -18 19 -20 23 -22 22 -24 24 25 26 -28 -29 29 -31
leaf_value=2.5178124616812284e-06 -0.003892295979676419 -0.0022589569500996733 -1.1630865771413618e-05 -0.00014330799361535659 -0.0062639686392661114 -0.0064114031390860114 -0.0022345312460161307 -0.00015693308253373421 -0.0017028141564771754 0.0020974997935506207 0.00434042660076207 0.0022098658132745186 0.001481281840907676 -0.0010957222821736266 -4.398761695905965e-05 -0.0039350518335898718 0.00021695557152270342 8.4171173467907604e-05 0.0050696650100871925 3.1519103965841206e-05 -0.0041323984101472892 0.0020894523493552699 -0.00027604227710841 -6.7441407799447282e-06 0.001993897965585347 -0.0042760510020889344 -0.0010192170895564677 -0.0014567451298630443 -0.00093148348879757185 -3.386650095655476e-05
leaf_weight=196821 32 20 2888 42 37 26 34 35 34 21 26 30 35 38 770 21 24 33 20 14024 20 20 39 1806 20 25 43 84 112 453
leaf_count=196821 32 20 2888 42 37 26 34 35 34 21 26 30 35 38 770 21 24 33 20 14024 20 20 39 1806 20 25 43 84 112 453
internal_value=0 -2.38112e-05 -0.000141677 -0.000453357 -0.00143294 -0.00250148 -0.0015916 -9.72697e-05 -0.0037432 -0.00134224 0.00175997 -6.51559e-05 -0.000203465 4.08483e-05 -0.000147089 -0.00140722 -0.00122012 5.0438e-06 0.000881187 -1.75105e-07 -0.00150699 -0.000179187 0.00052582 4.64538e-06 -0.000143556 -0.000478811 -0.00221658 -0.000302177 -0.000136393 -0.000211801
internal_weight=0 20812 4093 1205 342 190 153 152 60 91 61 863 93 59 833 63 58 16719 99 16620 53 79 59 16567 2543 737 68 669 585 565
internal_count=217633 20812 4093 1205 342 190 153 152 60 91 61 863 93 59 833 63 58 16719 99 16620 53 79 59 16567 2543 737 68 669 585 565
shrinkage=0.05


Tree=286
num_leaves=31
num_cat=0
split_feature=11 40 40 40 8 36 36 17 13 30 4 17 16 36 25 36 34 4 30 28 9 36 17 4 0 19 36 37 18 17
split_gain=0.00527071 0.0518601 0.109205 0.0971761 0.119646 0.159811 1.49778 0.441834 0.687044 0.0743827 0.0830956 0.156835 0.0818685 0.0694411 0.130242 0.0950099 0.116363 0.183665 0.33546 0.134854 0.113434 0.152891 0.065837 0.160957 0.0692728 0.0607112 0.0995127 0.62209 0.630591 0.39148
threshold=0.00018327650000000005 0.086360000000000006 -0.16918499999999967 -0.68809499999999957 2.2759000000000004e-05 0.12375499999999996 -0.079468000000000025 -3.4270099999999997 1.4045900000000002e-08 0.0041322400000000014 -0.066674049999999985 8.6104250000000011 1.3260550000000003e-08 -0.079468000000000025 0.068796600000000013 0.077348000000000056 -0.00088039049999999984 0.15463500000000002 0.01182295 0.10550150000000001 -3.4539199999999996e-05 -0.040859549999999939 12.319050000000002 -0.11271049999999998 10.606500000000002 1.5774100000000002 0.22528099999999995 0.078754999999999922 8.9395400000000027 10.886100000000001
decision_type=2 2 2 2 2 2 2 2 2 2 2 2 2 2 2 2 2 2 2 2 2 2 2 2 2 2 2 2 2 2
left_child=1 2 3 -1 5 6 -5 -8 -9 10 11 12 -6 -4 15 16 -15 19 -19 20 -18 -22 -11 -24 -25 26 27 28 29 -3
right_child=-2 25 13 4 9 -7 7 8 -10 22 -12 -13 -14 14 -16 -17 17 18 -20 -21 21 -23 23 24 -26 -27 -28 -29 -30 -31
leaf_value=2.2650375175538155e-06 5.0589160130806802e-06 -0.0012250559553791923 -0.00018050731121918519 -0.00012348677746219094 -0.0029151454974480936 -3.037639933492813e-05 -0.0020209291212571162 -0.016502800894280276 -0.0052345342919110291 -5.3608462828459889e-05 -0.00019420978763327065 -0.0043079746195312163 -7.5637400304086355e-05 0.0037984989986931585 -0.0033959713255998477 -0.00010039119521293853 -0.0027156131914006952 -0.007400319583248347 0.0008543997113520164 -0.0023692336305975916 0.0051650360283383642 0.00076426817874641992 0.0046760184055019641 -0.00042807598317211863 0.0018903553395830386 0.00014338615936528246 -2.469341465461673e-05 -5.8111428591979947e-05 -0.010640509676357563 -0.0064551306053678079
leaf_weight=53685 152972 281 584 385 33 383 24 24 31 1982 373 39 110 29 22 548 23 20 32 35 20 1497 25 98 48 1138 1836 1293 22 41
leaf_count=53685 152972 281 584 385 33 383 24 24 31 1982 373 39 110 29 22 548 23 20 32 35 20 1497 25 98 48 1138 1836 1293 22 41
internal_value=0 -1.19681e-05 4.39993e-07 -1.44996e-05 -0.000267666 -0.000786324 -0.00141031 -0.00768152 -0.0101516 -0.000105442 -0.00062157 -0.00149742 -0.000730908 0.00030476 0.000432072 0.000470283 0.00065913 0.000603173 -0.00232049 0.0006997 0.000769449 0.000822288 2.76052e-05 0.000968924 0.000334148 -0.000173562 -0.000277416 -0.000560862 -0.00245056 -0.001891
internal_weight=0 64661 60050 57240 3555 847 464 79 55 2708 555 182 143 2810 2226 2204 1656 1627 52 1575 1540 1517 2153 171 146 4611 3473 1637 344 322
internal_count=217633 64661 60050 57240 3555 847 464 79 55 2708 555 182 143 2810 2226 2204 1656 1627 52 1575 1540 1517 2153 171 146 4611 3473 1637 344 322
shrinkage=0.05


Tree=287
num_leaves=31
num_cat=0
split_feature=20 0 26 32 21 0 26 0 9 36 26 9 21 24 10 20 10 1 14 3 13 13 39 21 2 36 2 19 32 26
split_gain=0.00527263 0.0199437 0.0794309 0.0146843 0.0104055 0.00917236 0.0197817 0.0558308 0.0627753 0.0126038 0.0116495 0.075006 0.00863465 0.00720661 0.0332641 0.0507177 0.0492063 0.024316 0.0786788 0.0260686 0.0428355 0.220457 0.240685 0.0940265 0.0556455 0.0883749 0.0715942 0.0639934 0.037548 0.034456
threshold=-5.9633049999999992 -10.400999999999998 0.025872300000000004 -0.0011580799999999999 -1.4574199999999997 7.8324700000000016 -0.057755649999999999 9.313150000000002 3.9633700000000006e-05 0.0045899999999999838 -1.2159399999999998 2.1571850000000003e-05 1.3511250000000004 29.419400000000007 -7.1201799999999986e-05 -15.138399999999999 -6.7776199999999983e-05 -14.127399999999998 4.8606200000000009e-08 -8.8220999999999972 -1.3281999999999998e-05 -3.5869249999999995e-05 4.8349600000000006 1.3511250000000004 2.2570350000000006 0.57364500000000007 2.1574400000000007 2.4622600000000006 -0.43959349999999991 2.0528200000000001
decision_type=2 2 2 2 2 2 2 2 2 2 2 2 2 2 2 2 2 2 2 2 2 2 2 2 2 2 2 2 2 2
left_child=13 2 -2 -3 -5 10 7 -7 9 -9 11 -6 -12 -1 15 -15 -16 18 -18 20 21 29 23 28 26 27 -22 -26 -23 -19
right_child=1 3 -4 4 5 6 -8 8 -10 -11 12 -13 -14 14 16 -17 17 19 -20 -21 24 22 -24 -25 25 -27 -28 -29 -30 -31
leaf_value=7.0758877103210481e-07 5.1261376080192483e-05 0.0013196396191688109 0.0027572590324459328 -0.00099282511463388802 -0.00046674952097638549 -0.002907246616329455 1.0347796038199504e-05 -0.00207333004083921 0.0022385611215941024 -0.0003390499104253567 6.3998529146831881e-05 0.0024909797545928196 -0.00077793345488082145 -0.0026674440216899308 0.0020182586720630786 -0.00034117935168397398 0.003519368960696738 0.00011461027022450029 -0.00029089475473960023 -0.00015365664747477151 4.2966187954815901e-06 0.0022656023624308764 0.0068105045240372426 0.0042918519038357772 -0.0046998835967748337 -0.00022254236328639101 0.0028758322001191453 -0.0012085767895249385 -0.00020187624852732028 -0.001134048226854897
leaf_weight=209333 134 22 34 25 58 24 272 20 20 22 1726 34 31 29 29 122 20 449 42 3129 1627 21 24 20 21 167 22 35 58 63
leaf_count=209333 134 22 34 25 58 24 272 20 20 22 1726 34 31 29 29 122 20 449 42 3129 1627 21 24 20 21 167 22 35 58 63
internal_value=0 7.33612e-05 0.000598904 3.41903e-05 2.15201e-05 3.30102e-05 -0.000198642 -0.000859633 -6.70077e-05 -0.0011649 7.78623e-05 0.000626324 4.91437e-05 -8.25612e-07 -5.54275e-05 -0.000787945 -3.61136e-05 -4.65694e-05 0.000938223 -5.74028e-05 6.27322e-05 0.000417595 0.00231836 0.00122935 -5.76407e-05 -0.000798934 4.2607e-05 -0.00251782 0.000454036 -3.90333e-05
internal_weight=0 2422 168 2254 2232 2207 358 86 62 42 1849 92 1757 215211 5878 151 5727 5698 62 5636 2507 635 123 99 1872 223 1649 56 79 512
internal_count=217633 2422 168 2254 2232 2207 358 86 62 42 1849 92 1757 215211 5878 151 5727 5698 62 5636 2507 635 123 99 1872 223 1649 56 79 512
shrinkage=0.05


Tree=288
num_leaves=31
num_cat=0
split_feature=26 16 11 16 9 32 8 11 3 31 4 34 5 7 36 36 9 13 9 6 17 10 1 10 36 20 16 7 9 17
split_gain=0.00505853 0.0245521 0.028458 0.0239422 0.0423555 0.151991 0.191261 0.113631 0.0769902 0.171988 0.0861245 0.134349 0.0666801 0.0539845 0.0489937 0.174033 0.0351263 0.0530761 0.0475657 0.101783 0.198791 0.0754718 0.180166 0.0448665 0.0910215 0.0318659 0.0314601 0.0937471 0.0246387 0.0414526
threshold=-0.44589049999999997 0.26217750000000006 0.35177850000000005 0.012037000000000001 9.9230750000000009e-05 -0.96073299999999995 2.8627100000000002e-05 0.0012772050000000002 -11.223199999999999 1.6674650000000002 -1.1200049999999997 0.30670150000000002 2.2730550000000002e-05 3.5897900000000007e-05 0.02582950000000005 -0.14969009999999991 6.7582950000000017e-05 7.2294100000000005e-06 4.8912350000000013e-05 6.1484100000000015e-08 4.394750000000001 1.0563300000000003e-05 -4.9009399999999994 2.6137250000000005e-05 -0.22452634999999985 -9.3498099999999997 0.017754250000000003 2.3322900000000003e-05 3.2725900000000011e-05 0.6143630000000001
decision_type=2 2 2 2 2 2 2 2 2 2 2 2 2 2 2 2 2 2 2 2 2 2 2 2 2 2 2 2 2 2
left_child=1 3 -3 4 16 6 -6 -7 9 10 11 -9 13 -12 15 -10 18 23 28 20 -20 22 -21 24 -18 -25 27 -5 -1 -30
right_child=-2 2 -4 26 5 7 -8 8 14 -11 12 -13 -14 -15 -16 -17 17 -19 19 21 -22 -23 -24 25 -26 -27 -28 -29 29 -31
leaf_value=5.2740363861138295e-05 -1.0900491588620135e-06 0.0026213924755211339 6.7644838585086603e-05 9.6658481418148085e-05 0.0065961037747911183 0.003448179939063266 0.0007090638405832186 -0.00063350232835546194 -0.00046066263606442826 0.004790973758170604 -0.00055178744527998225 0.0048426749880447805 0.0018236778583377599 -0.0035064457686199931 0.00014707901847041378 -0.0056068525237242288 -0.00022578432939813605 0.00089788980964970375 0.005597104703442061 0.0046872418843850036 1.3109196565032158e-05 -0.002448762722241764 -0.0010162644408410416 -0.0015640081234621528 -0.0048278757201677021 0.00084661285229510857 -8.0340704680661662e-05 -0.0029953405090894264 -0.0014599738887424081 -2.3057671532091591e-05
leaf_weight=2832 213272 20 24 66 22 25 37 24 92 23 52 21 20 22 99 20 21 35 28 20 37 26 45 29 22 26 404 39 74 156
leaf_count=2832 213272 20 24 66 22 25 37 24 92 23 52 21 20 22 99 20 21 35 28 20 37 26 45 29 22 26 404 39 74 156
internal_value=0 5.33082e-05 0.00122844 4.13309e-05 8.43808e-05 0.000535931 0.00290423 0.000184851 -3.3871e-05 0.000785946 0.000123244 0.00192205 -0.000737885 -0.0014302 -0.000663304 -0.00137963 2.27997e-05 -0.00077348 5.571e-05 0.000907366 0.00241852 -0.000172032 0.000738661 -0.0013704 -0.00258034 -0.000424442 -0.00028074 -0.0010518 1.23206e-05 -0.00048537
internal_weight=0 4361 44 4317 3808 457 59 398 373 162 139 45 94 74 211 112 3351 133 3218 156 65 91 65 98 43 55 509 105 3062 230
internal_count=217633 4361 44 4317 3808 457 59 398 373 162 139 45 94 74 211 112 3351 133 3218 156 65 91 65 98 43 55 509 105 3062 230
shrinkage=0.05


Tree=289
num_leaves=31
num_cat=0
split_feature=4 21 4 37 36 35 25 17 39 40 39 33 18 36 9 5 36 21 33 5 40 39 17 36 39 25 39 0 17 22
split_gain=0.00499097 0.138494 0.249141 0.310325 1.37073 0.454968 0.518024 0.591361 0.311536 0.383041 0.304509 0.340456 0.289427 0.334064 0.26509 0.295963 0.234732 0.345172 0.234347 0.185537 0.181042 0.359636 0.255203 0.258274 0.172002 0.165531 0.165498 0.146609 0.24746 0.150288
threshold=0.16470650000000003 0.165108 0.79460700000000006 0.19792950000000006 0.22528099999999995 0.053913100000000005 -0.021603249999999997 9.4321850000000023 4.7542650000000011 -1.91273 1.9902050000000007 -1.4028749999999999e-06 -1.5854549999999998 -0.079468000000000025 -8.0872649999999985e-05 2.0604250000000002e-05 0.056773999999999998 0.50944100000000014 7.5042600000000009e-06 1.1054200000000002e-05 1.5039450000000001 -0.27803499999999998 8.9118250000000021 -0.027530000000000051 -0.36707999999999957 -0.016158149999999996 -0.61387499999999962 6.0594650000000003 3.5952650000000004 0.62943300000000002
decision_type=2 2 2 2 2 2 2 2 2 2 2 2 2 2 2 2 2 2 2 2 2 2 2 2 2 2 2 2 2 2
left_child=-1 -2 3 4 5 6 7 8 9 -3 11 19 13 -11 -13 18 -15 -18 20 -8 21 27 25 -24 -21 -23 -17 28 29 -16
right_child=1 2 -4 -5 -6 -7 10 -9 -10 12 -12 14 -14 16 15 26 17 -19 -20 24 -22 22 23 -25 -26 -27 -28 -29 -30 -31
leaf_value=-5.060673577356981e-06 -3.5810906067044361e-05 0.0092829445176343707 -2.2754402997304106e-05 -4.0197682473511604e-05 -2.122200900194499e-05 -0.0043514412350001896 0.00078717429811755817 0.011391240246170624 -0.0012141844516827406 0.0070065583264093019 -0.00070259403517666449 -0.0012837122194263256 0.0079170205451562121 0.0011318905590912724 0.0066894210541520172 0.0078484728154514672 0.0090536923930048946 0.00035833734811084079 -0.0036794867730982929 0.010025341237778776 -0.0010005812376102372 -0.0030340944247135276 0.0082739400110490944 0.0017847261529506952 0.0042968055270122072 0.00092659105870105838 0.00307107444799469 0.0070134215260623028 -0.0016801823491484605 0.0025828563512342436
leaf_weight=150434 46950 26 12137 3280 3165 30 21 22 40 36 157 84 27 205 37 22 25 21 23 20 69 28 23 46 38 456 103 30 22 56
leaf_count=150434 46950 26 12137 3280 3165 30 21 22 40 36 157 84 27 205 37 22 25 21 23 20 69 28 23 46 38 456 103 30 22 56
internal_value=0 1.1329e-05 0.000120629 0.000335157 0.00058995 0.00175033 0.00186216 0.00342114 0.00295971 0.00345076 0.0013547 0.00165432 0.00296784 0.00250223 0.00140445 0.00165123 0.0018562 0.00508407 0.00129353 0.00481413 0.00144265 0.00168418 0.00110302 0.0039478 0.00627216 0.00069746 0.0039119 0.0039006 0.00308856 0.00421665
internal_weight=0 67199 20249 8112 4832 1667 1637 402 380 340 1235 1078 314 287 999 915 251 46 790 79 767 698 553 69 58 484 125 145 115 93
internal_count=217633 67199 20249 8112 4832 1667 1637 402 380 340 1235 1078 314 287 999 915 251 46 790 79 767 698 553 69 58 484 125 145 115 93
shrinkage=0.05


Tree=290
num_leaves=31
num_cat=0
split_feature=37 37 2 17 1 39 39 26 18 1 1 17 36 3 1 17 17 2 39 16 28 39 17 26 8 30 37 9 33 18
split_gain=0.00563519 0.0632049 0.083436 0.0789651 0.322255 0.279952 0.141114 0.176355 0.134826 0.110877 0.100219 0.166018 0.257697 0.121601 0.0879375 0.0979571 0.0838142 0.740353 0.871454 0.808236 0.382322 0.184411 0.234869 0.173106 0.137822 0.22388 0.198681 0.522039 0.256763 0.187701
threshold=-0.27889399999999981 -0.026150000000000003 3.0794900000000003 -11.463149999999997 4.0814950000000012 1.8131900000000003 0.80790999999999979 0.16279950000000001 -6.9314949999999991 -0.98331399999999991 6.5342350000000007 8.7615050000000014 0.077348000000000056 -11.334749999999998 6.351465000000001 -2.1023349999999996 -2.0176449999999995 -2.0077749999999996 0.93421999999999994 2.4445350000000004e-06 1.2345600000000003 3.5499500000000008 -3.3588049999999998 -0.0014087599999999998 2.2420400000000003e-05 0.87201550000000017 -0.078199999999999964 -2.0367299999999997e-05 -1.2154199999999998e-08 -11.282949999999998
decision_type=2 2 2 2 2 2 2 2 2 2 2 2 2 2 2 2 2 2 2 2 2 2 2 2 2 2 2 2 2 2
left_child=-1 3 -3 4 6 -6 7 -2 -8 -10 14 13 -13 -12 16 -16 20 18 19 -18 23 22 -22 -5 25 26 -25 -28 -29 -26
right_child=1 2 -4 10 5 -7 8 -9 9 -11 11 12 -14 -15 15 -17 17 -19 -20 -21 21 -23 -24 24 29 -27 27 28 -30 -31
leaf_value=9.097206256011776e-06 -0.00017209592826796273 3.9600843825599505e-06 -0.0028848896718118343 0.0034555593186241548 0.0072562705759229434 0.00029219715248069003 0.0046317660734833529 -0.0043030941506113978 -0.0012298308226904326 0.0029400076698511842 -0.0042368750883906613 -0.0065829999406425352 -0.0010342915488489712 -0.000315716070692766 0.0036703886438882562 -5.3256550793441041e-05 0.016365846703272492 -5.5915373945544962e-05 -0.00031847122530584697 0.0036615581341808839 -0.0051290113529392396 -0.00049205364446063503 -0.00046492690507875527 -0.00013190416088263587 0.0030952245667056864 -0.0058190376894675542 6.5568579234155438e-05 -0.0034835931524163071 -0.010750096970878077 -6.9442327460277593e-05
leaf_weight=95517 119 112613 25 33 31 27 24 33 44 25 20 27 93 1734 33 38 21 4308 53 31 83 77 40 415 48 22 85 31 20 1963
leaf_count=95517 119 112613 25 33 31 27 24 33 44 25 20 27 93 1734 33 38 21 4308 53 31 83 77 40 415 48 22 85 31 20 1963
internal_value=0 -7.11568e-06 3.3189e-06 -0.000131122 0.000663044 0.00401437 -0.000130333 -0.00106896 0.00140376 0.00028098 -0.000157349 -0.000483521 -0.00228275 -0.000360427 -7.36277e-05 0.00167745 -9.08236e-05 4.51912e-05 0.00419345 0.00879214 -0.000303899 -0.00241097 -0.00361224 -0.00014287 -0.000188825 -0.000872913 -0.000675427 -0.00233397 -0.0063332 6.09423e-06
internal_weight=0 122116 112638 9478 303 58 245 152 93 69 9175 1874 120 1754 7301 71 7230 4413 105 52 2817 200 123 2617 2584 573 551 136 51 2011
internal_count=217633 122116 112638 9478 303 58 245 152 93 69 9175 1874 120 1754 7301 71 7230 4413 105 52 2817 200 123 2617 2584 573 551 136 51 2011
shrinkage=0.05


Tree=291
num_leaves=31
num_cat=0
split_feature=36 37 2 39 17 19 18 6 5 30 9 36 4 21 14 17 23 17 27 24 21 4 34 4 21 20 39 39 20 4
split_gain=0.00509075 0.057581 0.0786044 0.213127 0.0984105 0.0707113 0.128697 0.206479 0.127024 0.0855571 0.0849191 0.07992 0.148322 0.449315 0.723825 0.191958 0.165577 0.190016 0.144942 0.128524 0.110849 0.726147 0.897406 0.289257 0.546199 0.661286 0.481148 0.930774 0.282622 0.436219
threshold=0.2761725000000001 -0.026150000000000003 3.0333000000000006 -0.086730000000000182 -7.8361449999999992 -2.9378149999999996 -0.96371899999999988 -6.9499049999999986e-07 1.4537250000000002e-05 0.032593450000000003 -4.1101849999999997e-05 -0.018010000000000078 -0.26743249999999991 0.30416600000000005 -1.4690199999999997e-06 -10.825549999999998 0.00033276500000000006 -9.3188649999999988 0.00085889000000000007 0.14428650000000001 -0.11556699999999999 0.044857050000000002 0.00016560650000000003 -0.079256599999999983 -0.07045934999999999 -11.231549999999999 1.5956900000000005 -1.1637600000000001 -11.548849999999998 0.73862450000000013
decision_type=2 2 2 2 2 2 2 2 2 2 2 2 2 2 2 2 2 2 2 2 2 2 2 2 2 2 2 2 2 2
left_child=1 -1 5 -4 -5 6 7 10 9 -8 -3 -7 13 15 -15 -13 20 -18 -19 -17 21 -14 -23 24 -22 -26 27 -27 -24 -30
right_child=-2 2 3 4 -6 11 8 -9 -10 -11 -12 12 16 14 -16 19 17 18 -20 -21 23 22 28 -25 25 26 -28 -29 29 -31
leaf_value=-0.0001256636837188144 8.6402146614695574e-06 -0.0029585822880527795 -0.0060055664434912615 0.0011313801900541876 -0.0022830173602819237 -3.7073437339770646e-06 -0.0001608144352565349 -0.0051867639432506022 -0.0019137751900229771 0.003387822752203127 0.00053010136070265877 -0.0048443030854243606 0.0005083115966125841 0.00038117144389876299 -0.01158978362528496 -0.0037378094577103513 0.00318273516549241 -0.0058581521279120353 -0.0012787546378245952 0.00015303810320176393 0.00051276097966805633 -0.012486655732936926 0.00012425502713817063 0.00065255313943912111 0.0011272540593591448 -0.00057854350382948057 -0.00033398065223501854 -0.013387178847364881 -0.0052261608495014532 0.00058554304182596793
leaf_weight=9399 95596 26 20 51 36 106433 33 36 39 35 53 21 1222 28 23 22 21 20 127 602 283 20 134 3076 52 23 26 37 88 51
leaf_count=9399 95596 26 20 51 36 106433 33 36 39 35 53 21 1222 28 23 22 21 20 127 602 283 20 134 3076 52 23 26 37 88 51
internal_value=0 -6.76819e-06 3.15296e-06 -0.0013514 -0.000281474 4.44093e-06 -0.000887034 -0.00204827 0.000361025 0.00166569 -0.000618073 6.2031e-06 0.000185713 -0.000499606 -0.00501749 -0.000142377 0.000277794 -0.00126623 -0.0019018 1.58608e-05 0.000329549 -2.77001e-05 -0.00226322 0.00048432 -0.000744862 -0.0033239 -0.0060153 -0.0084772 -0.00151425 -0.00309381
internal_weight=0 122037 112638 107 87 112531 222 115 107 68 79 112309 5876 696 51 645 5180 168 147 624 5012 1515 293 3497 421 138 86 60 273 139
internal_count=217633 122037 112638 107 87 112531 222 115 107 68 79 112309 5876 696 51 645 5180 168 147 624 5012 1515 293 3497 421 138 86 60 273 139
shrinkage=0.05


Tree=292
num_leaves=31
num_cat=0
split_feature=18 1 14 40 13 32 32 13 19 6 21 40 0 1 20 11 5 16 40 6 19 0 4 19 6 36 26 36 1 12
split_gain=0.0048912 0.0356519 0.0820778 0.108837 0.196886 0.286688 0.097125 0.206763 0.088378 0.0844696 0.0783292 0.0608337 0.0321687 0.0318895 0.0315179 0.028926 0.0255471 0.0222495 0.0190766 0.0189965 0.0804295 0.153181 0.0467123 0.0355519 0.0448633 0.0594351 0.0339912 0.0316059 0.0261184 0.0746384
threshold=13.390900000000002 8.7485050000000015 2.4444200000000004e-06 0.15640499999999993 1.0552950000000002e-06 0.10225450000000001 0.026744400000000005 -5.8728149999999988e-07 1.1470050000000003 -4.9728499999999993e-06 0.35850200000000004 -0.31477499999999997 -6.2295349999999994 8.267730000000002 -7.1062399999999988 0.00011081300000000001 1.7356700000000003e-05 3.7448700000000009e-07 -2.0474100000000002 -1.1060999999999997e-06 0.11295750000000002 5.4701800000000009 -0.63310749999999982 -0.54752699999999999 1.8865700000000001e-06 0.24966499999999994 2.0528200000000001 0.1751400000000001 7.2909700000000006 6.5735000000000015e-07
decision_type=2 2 2 2 2 2 2 2 2 2 2 2 2 2 2 2 2 2 2 2 2 2 2 2 2 2 2 2 2 2
left_child=-1 13 3 4 6 -6 7 -3 -4 -9 -5 15 -8 19 -15 -11 -13 -14 -19 20 21 22 -2 24 25 -21 28 -26 -25 -30
right_child=1 2 8 10 5 -7 12 9 -10 11 -12 16 17 14 -16 -17 -18 18 -20 23 -22 -23 -24 26 27 -27 -28 -29 29 -31
leaf_value=-9.2248269419849472e-07 0.0025588673501624731 0.0047564707978537107 0.0006640520869512801 -5.1754140993580227e-05 0.00037080093729309743 0.0081968503602018409 0.0011629677308519603 0.0027578261566411719 -0.0033451933045755924 -0.00023187474147388934 -0.003690621964467157 0.00040737362085984882 -0.00021769976446795242 -0.0023753901457114679 -7.8341101652767978e-05 -0.0022419644587498627 0.0027843147697421957 -0.00060205195702358412 -0.0026208279430866245 -0.0034809426200808958 1.409820900082473e-05 0.0044863084238022568 -0.00014967911176007385 -8.2971946069818043e-05 0.0016635183412952094 -0.00064222227654816514 0.0018565817163334942 -0.00055199226621274039 -0.00028688403319089654 0.0033081683076240801
leaf_weight=214386 20 35 27 50 25 22 24 34 28 63 21 26 59 28 32 25 20 22 25 28 835 30 78 1466 22 54 24 60 42 22
leaf_count=214386 20 35 27 50 25 22 24 34 28 63 21 26 59 28 32 25 20 22 25 28 835 30 78 1466 22 54 24 60 42 22
internal_value=0 6.09077e-05 0.000446519 0.000668901 0.00100465 0.00403406 0.00057707 0.00126041 -0.00137702 0.000532065 -0.00112804 -3.26807e-05 -0.000489992 -1.02777e-05 -0.0011503 -0.000802923 0.00144083 -0.000864246 -0.00167587 1.52356e-05 0.000193005 0.00136009 0.000403085 -8.44103e-05 -0.000784564 -0.00161154 -1.05202e-05 4.2413e-05 -3.9808e-05 0.000948915
internal_weight=0 3247 506 451 380 47 333 203 55 168 71 134 130 2741 60 88 46 106 47 2681 963 128 98 1718 164 82 1554 82 1530 64
internal_count=217633 3247 506 451 380 47 333 203 55 168 71 134 130 2741 60 88 46 106 47 2681 963 128 98 1718 164 82 1554 82 1530 64
shrinkage=0.05


Tree=293
num_leaves=31
num_cat=0
split_feature=3 18 1 14 14 17 7 30 17 9 18 18 33 18 13 31 1 18 6 36 3 4 31 39 5 39 39 40 25 8
split_gain=0.0050336 0.0405629 0.12991 0.223361 0.0409006 0.0332634 0.271611 0.0207436 0.0196728 0.0749338 0.104201 0.141642 0.0574182 0.027286 0.0191748 0.0175299 0.0150313 0.149807 0.132308 0.107484 0.300746 0.105828 0.0564553 0.034582 0.0245469 0.020018 0.0181559 0.0179409 0.0820142 0.0151665
threshold=-5.5710999999999995 -15.424049999999998 -11.052099999999998 4.6606600000000007e-08 4.5888800000000005e-06 19.256550000000001 4.1341400000000004e-05 4.6183500000000004 -12.926599999999999 -3.9082349999999992e-06 14.999250000000002 -6.0049649999999994 -9.0156449999999981e-08 18.392150000000004 1.4317750000000002e-06 -0.096387649999999978 11.597950000000003 11.729050000000003 5.099150000000001e-06 -0.0054100000000001361 -6.280479999999999 -0.070504949999999983 -0.00057298999999999989 -0.32314999999999999 2.5689050000000004e-05 0.55890500000000032 0.027469999999999221 -0.52047500000000058 0.051198250000000008 1.3179250000000001e-05
decision_type=2 2 2 2 2 2 2 2 2 2 2 2 2 2 2 2 2 2 2 2 2 2 2 2 2 2 2 2 2 2
left_child=16 2 3 -2 14 8 -7 -5 9 10 11 -3 -13 -11 -4 -14 -1 23 19 20 -19 -22 -21 -18 26 -23 -24 -25 29 -29
right_child=1 5 4 7 -6 6 -8 -9 -10 13 -12 12 15 -15 -16 -17 17 18 -20 22 21 25 24 27 -26 -27 -28 28 -30 -31
leaf_value=-9.0249621705035725e-07 0.0066814465740621517 0.0043469605955827077 -6.0582637252385514e-05 0.0015887564185777592 0.0021359246359497776 -0.00059403154422589554 0.0053263575124639414 -0.00066122632221474013 5.5310480769949795e-06 -3.2533209997794302e-05 0.004143099028384313 0.0023103580592512365 -0.001720853639594482 -0.0019101997737639717 -0.0017087432782864197 -0.00015236290280743652 0.0017348899454321196 -0.0065791298378566612 -0.0051312359665325862 -0.0020883916565870614 -0.0037081041462897705 0.0011374521680772886 -0.0012879490171326326 5.6340076278878782e-06 0.001871042078583623 -0.00079990978469140833 0.00039223677108899085 -0.00091147375796678709 -0.0029169360057306314 1.5068269489141662e-05
leaf_weight=183910 22 22 150 20 20 76 26 21 28814 246 25 22 23 21 20 79 28 28 20 28 20 40 20 3460 23 20 82 53 29 265
leaf_count=183910 22 22 150 20 20 76 26 21 28814 246 25 22 23 21 20 79 28 28 20 28 20 40 20 3460 23 20 82 53 29 265
internal_value=0 1.91628e-05 0.000649555 0.00261716 -2.86194e-06 1.37295e-05 0.000915087 0.000436326 1.05865e-05 0.000343162 0.00116036 0.000649621 -6.35827e-06 -0.000180215 -0.000254484 -0.000506042 -3.01742e-06 -9.75157e-05 -0.00121188 -0.000911549 -0.00211924 -0.000558277 -5.90625e-05 -1.58633e-05 0.000395507 0.000491665 6.27886e-05 -2.87398e-05 -0.000371487 -0.000139355
internal_weight=0 29607 253 63 190 29354 102 41 29252 438 171 146 124 267 170 102 188026 4116 281 261 108 80 153 3835 125 60 102 3807 347 318
internal_count=217633 29607 253 63 190 29354 102 41 29252 438 171 146 124 267 170 102 188026 4116 281 261 108 80 153 3835 125 60 102 3807 347 318
shrinkage=0.05


Tree=294
num_leaves=31
num_cat=0
split_feature=29 37 36 15 34 40 40 19 34 4 39 6 3 25 39 32 39 3 17 4 8 18 36 1 17 29 8 6 18 32
split_gain=0.00488406 0.0229513 0.0915688 0.217236 0.548557 0.633861 0.492145 0.468446 0.385937 0.378117 0.365855 0.352038 0.35767 0.365055 0.355247 0.330105 0.287302 0.497038 0.298474 0.293248 0.270425 0.266533 0.228673 0.216911 0.202318 0.182842 0.180394 0.178627 0.174544 0.166621
threshold=1.3939150000000002e-05 0.22260499999999997 0.2761725000000001 -1.0730149999999997e-06 0.0034638500000000005 -2.0033199999999987 2.3698949999999996 1.5157700000000001 -0.0024070099999999998 -1.0382099999999996 0.68409500000000023 9.7954900000000019e-07 -12.510449999999999 0.0079892800000000031 -1.0505799999999998 -0.11978799999999999 -0.27803499999999998 -12.74245 7.5325700000000007 -0.11271049999999998 1.5224150000000001e-05 10.536600000000002 0.039429999999999972 6.8996100000000009 -8.4863549999999979 2.2255350000000004e-05 2.1416250000000004e-05 6.1484100000000015e-08 8.2873200000000011 0.036905850000000011
decision_type=2 2 2 2 2 2 2 2 2 2 2 2 2 2 2 2 2 2 2 2 2 2 2 2 2 2 2 2 2 2
left_child=-1 2 3 8 28 -6 7 22 16 20 -9 12 13 -11 -14 -15 17 19 -18 -2 -10 23 -7 25 27 -16 -17 -22 -5 -24
right_child=1 -3 -4 4 5 6 -8 10 9 11 -12 -13 14 15 21 26 18 -19 -20 -21 24 -23 29 -25 -26 -27 -28 -29 -30 -31
leaf_value=3.6213036266925034e-06 -0.0042174519379235189 1.9725226027211154e-05 4.3745731180663241e-06 -1.6953233219583536e-05 -0.00046306020634476631 -0.0052512341980270154 -0.00051199261294547396 -0.013248187826684445 0.0031048762811512528 -0.00057877474274244361 -0.0046055323258042333 0.00024821480736944877 0.0082440242968556104 -0.0017419957290099855 -0.00082559906460422409 0.003227777760112076 -0.00092858869172416584 -0.010231849787471055 0.0052157867059577263 0.0019618187235209915 -0.0013129789992134371 0.0079969830997288233 -0.004202586935588083 -0.0029953836783533916 -0.00079661291338920274 0.0036250049934897105 0.008784988075595997 -0.0076911569728205613 0.0041255740905538777 -0.0001653548197484472
leaf_weight=176401 48 21801 14955 1156 523 88 116 24 41 179 25 972 33 23 30 40 336 22 21 32 23 20 43 20 428 100 23 21 26 63
leaf_count=176401 48 21801 14955 1156 523 88 116 24 41 179 25 972 33 23 30 40 336 22 21 32 23 20 43 20 428 100 23 21 26 63
internal_value=0 -1.54929e-05 -5.50065e-05 -0.000253408 -0.00062996 -0.00157359 -0.00319143 -0.0044705 6.88158e-05 0.000375432 -0.00883867 0.000790682 0.00191734 0.000707544 0.00349664 0.00338488 -0.0012358 -0.00357608 -0.000567155 -0.00174574 -0.000790182 0.00257509 -0.0033672 0.00185217 -0.00112852 0.00259794 0.0052566 -0.00435711 7.41683e-05 -0.0018031
internal_weight=0 41232 19431 4476 2064 882 359 243 2412 1953 49 1440 468 265 203 86 459 102 357 80 513 170 194 150 472 130 63 44 1182 106
internal_count=217633 41232 19431 4476 2064 882 359 243 2412 1953 49 1440 468 265 203 86 459 102 357 80 513 170 194 150 472 130 63 44 1182 106
shrinkage=0.05


Tree=295
num_leaves=31
num_cat=0
split_feature=4 21 4 37 36 40 39 17 36 17 28 17 6 33 21 25 7 17 20 8 39 7 39 6 5 22 22 2 20 13
split_gain=0.00481429 0.120582 0.227778 0.281312 1.23512 0.374401 0.600953 0.428197 0.559347 0.431818 0.429261 0.405099 0.331788 0.558682 0.288762 0.278204 0.272696 0.239196 0.219284 0.214591 0.250003 0.25914 0.196654 0.181753 0.174649 0.160514 0.225067 0.141202 0.140431 0.12408
threshold=0.17191050000000002 0.165108 0.79460700000000006 0.19792950000000006 0.2761725000000001 2.9908550000000012 -0.32314999999999999 8.9118250000000021 -0.058960000000000005 -5.9130249999999984 0.845916 -6.4328999999999992 -1.7906249999999997e-06 9.0834600000000011e-08 0.23066900000000004 -0.017673399999999995 -2.6758449999999998e-05 3.8922100000000004 -9.791624999999998 3.5411900000000006e-05 0.97785500000000003 -2.5862749999999999e-05 -0.61387499999999962 -3.2693399999999996e-06 1.0345100000000002e-05 2.3879650000000008 1.0742750000000003 3.0794900000000003 -7.6924349999999988 -2.0644449999999994e-06
decision_type=2 2 2 2 2 2 2 2 2 2 2 2 2 2 2 2 2 2 2 2 2 2 2 2 2 2 2 2 2 2
left_child=-1 -2 3 4 5 6 11 9 -9 10 19 -3 23 14 -14 -10 24 -15 25 20 21 -8 -20 -13 -11 26 -16 -6 -18 -21
right_child=1 2 -4 -5 27 -7 7 8 15 16 -12 12 13 17 18 -17 28 -19 22 29 -22 -23 -24 -25 -26 -27 -28 -29 -30 -31
leaf_value=-4.9239593772938918e-06 -3.3055827447738719e-05 -0.0022020681767921466 -2.1950588335866727e-05 -3.923933785553975e-05 -6.460143904496629e-05 -0.0014239350509489025 0.00059839320222996532 0.011232820161334846 0.0077319831983186302 -0.0060488405662908924 0.0092402265251924597 0.0050701816423679704 0.0003650932951131836 0.0017494121984720737 0.0033433785406509191 0.0010660005597957125 0.00060038148346188065 -0.0045779011631384495 0.010910022399826524 0.00356154532491928 0.0083948739489035987 0.0068607709131659547 0.0051334387801874153 0.011730234681661907 -0.00086153777658901803 0.00054682410314853779 0.0092901918580397397 0.0040497708896726275 0.0025728196474399459 -2.8951597718351533e-05
leaf_weight=151301 46335 26 12137 3181 2985 93 53 23 20 20 24 20 26 59 41 72 682 20 34 32 24 24 26 21 86 20 26 21 104 97
leaf_count=151301 46335 26 12137 3181 2985 93 53 23 20 20 24 20 26 59 41 72 682 20 34 32 24 24 26 21 86 20 26 21 104 97
internal_value=0 1.12314e-05 0.000113849 0.000323544 0.000570181 0.0016591 0.00184056 0.00135011 0.00425867 0.00105824 0.00287707 0.00377932 0.0043101 0.00363143 0.00522233 0.00251513 0.000540319 0.000147561 0.00608143 0.00221309 0.00393911 0.0025503 0.00840684 0.00848143 -0.00184027 0.0044777 0.0056511 -3.58583e-05 0.000861366 0.000861714
internal_weight=0 66332 19997 7860 4679 1673 1580 1261 115 1146 254 319 293 252 173 92 892 79 147 230 101 77 60 41 106 87 67 3006 786 129
internal_count=217633 66332 19997 7860 4679 1673 1580 1261 115 1146 254 319 293 252 173 92 892 79 147 230 101 77 60 41 106 87 67 3006 786 129
shrinkage=0.05


Tree=296
num_leaves=31
num_cat=0
split_feature=36 37 3 34 32 34 4 14 5 40 39 37 33 4 39 36 30 18 26 33 23 7 11 39 11 3 33 14 39 34
split_gain=0.00514024 0.0537027 0.0751872 0.2154 0.267049 0.132708 0.337319 0.313954 0.307503 0.265411 0.508354 0.246151 0.462206 0.22406 0.415739 0.459907 0.246203 0.300124 0.222414 0.21249 0.211174 0.157566 0.112469 0.175833 0.172831 0.1093 0.385561 0.102732 0.112191 0.15373
threshold=0.2761725000000001 -0.026150000000000003 -12.352299999999998 1.8271150000000003 -0.60180299999999987 0.00095371150000000016 -0.10727949999999999 -1.0118749999999999e-05 9.0154850000000027e-06 4.5286099999999996 -1.7757399999999997 -0.057539999999999918 2.0081650000000003e-07 -0.030647449999999996 -2.1087049999999987 0.056773999999999998 1.8663100000000001 -2.3555799999999993 0.062348250000000008 -1.5532149999999998e-06 -0.00017923199999999995 2.8400100000000003e-05 0.0022103100000000005 -1.3362800000000006 0.0015288700000000001 -12.203099999999997 2.4145250000000005e-07 5.2773400000000007e-08 -0.27803499999999998 0.0061275400000000008
decision_type=2 2 2 2 2 2 2 2 2 2 2 2 2 2 2 2 2 2 2 2 2 2 2 2 2 2 2 2 2 2
left_child=1 2 3 4 -1 13 7 -7 -9 10 -10 12 -12 14 -6 -16 18 -18 19 -15 -17 -14 23 -21 -25 26 -4 -8 29 -29
right_child=-2 -3 25 -5 5 6 27 8 9 -11 11 -13 21 16 15 20 17 -19 -20 22 -22 -23 -24 24 -26 -27 -28 28 -30 -31
leaf_value=0.0055584541602951036 8.68210735066677e-06 2.78021095919612e-06 -4.71644001369195e-05 -0.0047727597962048925 -9.8083695675072374e-05 -0.0013432855707818459 -0.0040106746846140595 -0.0011493374180149246 0.010640168343581117 -0.00090639610833022745 0.0092090962949441749 0.0010299512116083256 0.0043522894554569027 0.0051100655053944698 -0.0083127002214578999 -0.005125948465956754 0.0085502342134714127 0.00094799116392292691 -0.0040128603915218263 -9.7460175423437162e-05 -0.00038281956971001241 -0.0017158575798384848 -0.00015931158567743085 0.00057516338503254313 0.0053863005375023934 -0.00017554594734138509 -0.0080469634864130061 0.00061568731798166635 0.0014881713586454191 -0.0024029320563303458
leaf_weight=23 95596 112638 61 22 488 61 20 44 26 30 36 75 23 23 33 32 20 37 30 95 88 20 495 35 40 7288 20 81 65 88
leaf_count=23 95596 112638 61 22 488 61 20 44 26 30 36 75 23 23 33 32 20 37 30 95 88 20 495 35 40 7288 20 81 65 88
internal_value=0 -6.80101e-06 -0.000121623 0.000147814 0.000201725 0.000139657 0.000784588 0.00187778 0.00265134 0.00344768 0.00417335 0.00308155 0.00502928 -0.0001195 -0.00081108 -0.00308521 0.000452504 0.00361544 0.000201407 0.000385169 -0.00164765 0.0015299 0.000221752 0.00133132 0.0031411 -0.000195847 -0.00202242 -0.000571141 -0.000277163 -0.000956138
internal_weight=0 122037 9399 2030 2008 1985 569 315 254 210 180 154 79 1416 641 153 775 57 718 688 120 43 665 170 75 7369 81 254 234 169
internal_count=217633 122037 9399 2030 2008 1985 569 315 254 210 180 154 79 1416 641 153 775 57 718 688 120 43 665 170 75 7369 81 254 234 169
shrinkage=0.05


Tree=297
num_leaves=31
num_cat=0
split_feature=40 27 6 13 21 15 17 36 3 37 18 29 17 0 3 9 15 11 21 10 19 16 4 8 4 18 34 4 40 37
split_gain=0.00488094 0.0175918 0.0382435 0.0517697 0.0267551 0.147973 0.0283267 0.0219513 0.017406 0.0317423 0.711193 0.0316826 0.0302143 0.218943 0.0708701 0.0317199 0.0251485 0.132628 0.0912149 0.129911 0.16141 0.141917 0.143286 0.101097 0.0828237 0.0684969 0.066975 0.148469 0.149612 0.195146
threshold=-3.3334999999999999 0.35534200000000005 2.9326700000000003e-06 2.7687200000000004e-06 -2.2419299999999995 -0.00036585349999999998 -6.719924999999999 0.51872500000000021 -7.4497099999999987 5.6849350000000003 -3.7462599999999999 1.3939150000000002e-05 16.002400000000005 12.423150000000001 -7.1685999999999988 4.707400000000001e-05 -6.6614249999999995e-06 0.00023452650000000002 0.62895050000000008 4.7509250000000014e-06 2.3223600000000002 0.0015021400000000001 0.36048500000000006 2.8035900000000004e-05 0.019144700000000004 8.5720600000000022 0.0017433550000000003 -1.5265699999999998 2.014730000000001 0.37828249999999997
decision_type=2 2 2 2 2 2 2 2 2 2 2 2 2 2 2 2 2 2 2 2 2 2 2 2 2 2 2 2 2 2
left_child=-1 4 3 -3 5 -2 -7 -8 9 11 -11 -6 -10 14 -14 -16 17 -13 -18 20 21 22 24 -23 -20 -21 -19 -28 29 -29
right_child=1 2 -4 -5 8 6 7 -9 12 10 -12 16 13 -15 15 -17 18 26 19 25 -22 23 -24 -25 -26 -27 27 28 -30 -31
leaf_value=1.1203309072276555e-05 0.0042315259002255823 -0.00024212329432096643 0.0013636999112176932 -0.0026185912535187199 1.4968903732785213e-05 0.0012557626460745399 -0.0022194765237509274 -0.00010787786235368913 -3.6305082228141626e-05 0.0094066327171666297 -4.8899865062897645e-05 0.003506771796748109 0.0020644918280035762 0.0040076280317551116 -4.6249416018702489e-05 -0.0018269662825601968 -0.00016476821676146024 -0.00020354823077401295 0.0032188292999657839 -0.0003546916669731221 0.0044218859929012399 -0.0029105494941632061 0.0053737383347470316 0.00073303421891939664 -0.00032590420537518291 0.00219312227438485 -0.00021080506093800264 0.0011604573056247243 -9.309833030788221e-05 -0.00020050965628930727
leaf_weight=67200 24 75 21 33 92172 21 20 32 42346 21 375 27 39 38 339 27 7783 2567 26 292 38 32 25 47 45 29 1795 885 884 375
leaf_count=67200 24 75 21 33 92172 21 20 32 42346 21 375 27 39 38 339 27 7783 2567 26 292 38 32 25 47 45 29 1795 885 884 375
internal_value=0 -5.00464e-06 -0.000588644 -0.000968266 -4.50372e-06 0.000825629 -0.000294118 -0.000920031 -5.0398e-06 5.70261e-06 0.00045253 4.04927e-06 -3.20077e-05 0.000378777 3.82927e-05 -0.000177614 -6.37274e-05 9.68837e-06 -0.000121396 0.000510758 0.00146814 0.000826756 0.00211841 -0.000742848 0.000972167 -0.000124515 -4.82458e-06 0.000124681 0.000405557 0.000755408
internal_weight=0 150433 129 108 150304 97 73 52 150207 107418 396 107022 42789 443 405 366 14850 6533 8317 534 213 175 96 79 71 321 6506 3939 2144 1260
internal_count=217633 150433 129 108 150304 97 73 52 150207 107418 396 107022 42789 443 405 366 14850 6533 8317 534 213 175 96 79 71 321 6506 3939 2144 1260
shrinkage=0.05


Tree=298
num_leaves=31
num_cat=0
split_feature=30 39 27 2 32 13 16 36 13 39 16 20 36 36 29 37 13 3 36 16 32 2 26 36 36 31 17 2 18 15
split_gain=0.00493939 0.0311423 0.0842958 0.0740475 0.048217 0.142748 0.281005 0.250826 0.127372 0.0979327 0.0686934 0.115001 0.0544296 0.121533 0.496439 0.0792866 0.05232 0.180882 0.0695644 0.0553581 0.125689 0.185665 0.201194 0.151989 0.643641 0.258231 0.180117 0.362465 0.167562 0.239891
threshold=0.20270750000000001 0.80790999999999979 0.00070518350000000013 3.0794900000000003 -0.43959349999999991 -1.1710799999999998e-05 0.0006688480000000001 -0.3819765 -6.2705699999999993e-06 -0.23716000000000023 0.022140150000000004 -10.195449999999999 -0.058960000000000005 0.49120000000000014 0.00018972300000000001 0.40643499999999982 1.2179350000000004e-06 -6.0871149999999989 0.30085850000000008 0.0011496050000000004 0.0064979950000000003 -2.7703699999999993 0.021159550000000003 -0.3562499999999999 -0.079468000000000025 -0.020135299999999998 -10.825549999999998 -2.2715599999999996 -4.5569299999999986 -0.00019488549999999998
decision_type=2 2 2 2 2 2 2 2 2 2 2 2 2 2 2 2 2 2 2 2 2 2 2 2 2 2 2 2 2 2
left_child=-1 2 -2 4 5 6 7 -4 -7 10 11 -8 15 14 -14 -10 -6 19 -19 20 21 22 -18 -22 25 -25 -26 -28 29 -29
right_child=1 -3 3 -5 16 8 9 -9 12 -11 -12 -13 13 -15 -16 -17 17 18 -20 -21 23 -23 -24 24 26 -27 27 28 -30 -31
leaf_value=4.4997270037574686e-06 0.0029526526794380397 1.024311605572198e-05 0.00040030190200923249 0.00222074779979591 -0.00017125644773257308 -0.0034188524515359735 0.0038720635837540987 0.0076787763978025964 -0.0029714561761855812 -0.002339107515096354 -0.0002574141984255488 0.0001812736527031318 0.0076280913438844999 8.0478431824626286e-06 -0.0020518384574205375 -0.00016167523321605081 -0.00014389653733815067 0.004340024671336957 0.00060297050179542572 -0.00011598882977422747 -0.00017077732014531216 -0.00065940116933101644 0.0064221581984384105 0.0083676808143911107 -0.0019604463877814699 0.0028619079468690124 0.0055646536794180671 -0.0055770067738510828 0.0011154587398181967 -0.00013229543688317964
leaf_weight=160396 23 41358 20 35 9646 28 39 29 28 27 68 46 26 203 27 243 28 33 20 3632 461 515 20 34 71 57 36 23 293 168
leaf_count=160396 23 41358 20 35 9646 28 39 29 28 27 68 46 26 203 27 243 28 33 20 3632 461 515 20 34 71 57 36 23 293 168
internal_value=0 -1.26096e-05 -7.21313e-05 -7.65189e-05 -8.1601e-05 0.000300674 0.001351 0.00470797 -0.000132705 0.000437161 0.000927091 0.00187469 4.18911e-05 0.000564705 0.00269681 -0.000451985 -0.000101532 2.32241e-05 0.00292982 -5.63487e-06 0.000229304 -0.000382198 0.00259196 0.000530507 0.00100454 0.00491901 0.000401808 0.000724346 0.000364324 -0.000787941
internal_weight=0 57237 15879 15856 15821 784 229 49 555 180 153 85 527 256 53 271 15037 5391 53 5338 1706 563 48 1143 682 91 591 520 484 191
internal_count=217633 57237 15879 15856 15821 784 229 49 555 180 153 85 527 256 53 271 15037 5391 53 5338 1706 563 48 1143 682 91 591 520 484 191
shrinkage=0.05


Tree=299
num_leaves=31
num_cat=0
split_feature=39 34 15 36 3 26 33 8 32 36 2 6 36 36 32 3 34 36 36 11 3 5 4 18 31 4 34 19 18 36
split_gain=0.00496442 0.0247588 0.0992169 0.15681 0.0200464 0.116179 0.0965615 0.0793865 0.168543 0.0512151 0.0902035 0.0521206 0.0931085 0.0463725 0.0390212 0.0308302 0.0879388 0.131503 0.243987 0.0922334 0.0256582 0.18626 0.042464 0.0469275 0.0324638 0.0235458 0.0212334 0.020388 0.0176066 0.0443283
threshold=-2.1087049999999987 -1.0090899999999998 0.00082871750000000014 -0.60254799999999997 -18.015749999999997 0.24911750000000002 -4.2848749999999994e-06 1.0512900000000001e-05 -0.0049083749999999987 -0.10081500000000009 -1.4562349999999997 4.0934050000000005e-07 0.60008550000000016 -0.86218949999999983 -0.010945149999999999 -17.495099999999997 -0.0016790549999999998 -0.079468000000000025 0.30085850000000008 0.0039264450000000015 -17.304849999999998 2.1286450000000004e-05 0.095552850000000009 2.3968500000000001 -0.0047501849999999997 0.8580755000000001 0.0012040050000000002 1.2794000000000001 14.999250000000002 1.2849435000000005
decision_type=2 2 2 2 2 2 2 2 2 2 2 2 2 2 2 2 2 2 2 2 2 2 2 2 2 2 2 2 2 2
left_child=1 2 -1 -4 5 6 -2 8 -8 13 -11 14 -13 -9 -12 16 17 -6 -19 -18 21 22 23 -17 -24 -21 -10 -16 -22 -30
right_child=4 -3 3 -5 15 -7 7 9 26 10 11 12 -14 -15 27 20 19 18 -20 25 28 -23 24 -25 -26 -27 -28 -29 29 -31
leaf_value=-0.00015017558856289786 0.003731023344202682 1.1739855921430807e-05 -0.00034662173446122326 0.0059145709639415144 0.00059497602302233251 -0.0033043608108224969 0.0057418019368196838 -0.00039743804339572881 0.0013265073225808884 0.0026483142500326627 -0.0022951799120234611 0.0039024790291607918 -0.00019162490794636742 -0.0030826488298771439 -0.00048799169393624767 -0.0003473058145775415 0.0033599605198105656 -0.0062622019074737066 -0.00024871706711466585 3.8571362836050485e-05 -6.1284619483466511e-06 0.0041692159892894173 -0.0028285237758245785 0.0026734220559592359 -0.00035082436887210068 -0.0015588190699678049 -0.00071433036496455326 0.001181974433079038 0.00034630662331158887 -0.00047215291462608043
leaf_weight=103 22 51314 20 20 41 21 20 82 26 38 26 21 41 20 89 36 20 31 37 131 164192 30 20 20 39 28 25 23 894 203
leaf_count=103 22 51314 20 20 41 21 20 82 26 38 26 21 41 20 89 36 20 31 37 131 164192 30 20 20 39 28 25 23 894 203
internal_value=0 1.35707e-05 0.000670566 0.00278397 -4.20223e-06 0.00032759 0.000503735 0.000330985 0.00185165 1.34352e-05 0.000415172 -9.12544e-06 0.00119509 -0.00092395 -0.000550149 -5.11118e-06 -0.000521985 -0.00164162 -0.00299016 0.000159805 -4.21137e-06 0.000660616 -0.000254671 0.000731526 -0.00119072 -0.00024273 0.000326097 -0.000145052 -4.79459e-06 0.000194851
internal_weight=0 51457 143 40 166176 454 433 411 71 340 238 200 62 102 138 165722 288 109 68 179 165434 145 115 56 59 159 51 112 165289 1097
internal_count=217633 51457 143 40 166176 454 433 411 71 340 238 200 62 102 138 165722 288 109 68 179 165434 145 115 56 59 159 51 112 165289 1097
shrinkage=0.05


Tree=300
num_leaves=31
num_cat=0
split_feature=36 37 22 4 21 4 21 39 36 40 36 4 4 20 4 4 23 29 40 39 5 2 17 10 18 1 17 32 18 39
split_gain=0.00499027 0.0337939 0.124458 0.167884 0.973217 0.779872 0.583589 0.549235 0.767109 0.785153 0.698152 0.825046 1.07928 0.695674 0.490405 0.566705 0.489189 0.467091 0.407779 0.416645 0.496775 0.401075 0.359396 0.451958 0.413604 0.494705 0.44368 0.60747 0.400892 0.396033
threshold=0.46240350000000002 0.22260499999999997 2.3108700000000004 0.15938600000000003 0.25201650000000003 1.5563800000000001 0.29620600000000008 1.8568299999999998 0.10022550000000004 2.1563400000000006 -0.10081500000000009 -0.11642199999999998 -1.8861499999999998 -9.2399249999999977 -0.20278049999999997 -1.4133199999999999 -4.1290149999999996e-05 -2.1950299999999995e-05 3.6866600000000003 -0.71725499999999964 1.9150900000000003e-05 -0.26593299999999992 9.3032900000000023 -1.3473299999999999e-05 7.9020300000000008 6.1111750000000002 -6.5323449999999985 0.12161000000000001 -6.1725999999999992 0.64319500000000052
decision_type=2 2 2 2 2 2 2 2 2 2 2 2 2 2 2 2 2 2 2 2 2 2 2 2 2 2 2 2 2 2
left_child=1 2 -1 6 -5 18 14 8 9 10 -8 12 -12 -13 15 -4 17 -14 19 20 -6 -15 24 -24 26 -26 -21 28 -28 -30
right_child=-2 -3 3 4 5 -7 7 -9 -10 -11 11 13 16 21 -16 -17 -18 -19 -20 22 -22 -23 23 -25 25 -27 27 -29 29 -31
leaf_value=-8.2801116081732728e-07 9.0477545522877577e-06 7.8632629086094769e-06 -0.0007212570340253922 -0.0013344035886212258 0.0029623109865739633 -0.0008392454127088768 -0.0017336428137270793 -0.00024365028055757596 -0.00054176532169605894 -0.00076178702765148027 -0.00045724996016360819 0.0031604247346806989 -0.012075101468712093 -0.012411922722894816 -0.00073302784303075526 0.0014550058720328234 -0.0072331923851743337 -0.022326707313768568 -0.0021926825238199766 0.0028649333028057246 0.010155874310682218 -0.0037753611663924307 0.011021630889736116 0.0025966344960987701 0.0099035638091154402 0.0020552784792266274 0.0028454177670580831 -0.0058811095302782794 0.001036390191496791 -0.0033189340533840784
leaf_weight=23766 89633 98050 457 753 120 436 93 825 418 157 20 26 25 20 1079 866 20 20 62 133 30 41 20 78 25 102 102 46 113 97
leaf_count=23766 89633 98050 457 753 120 436 93 825 418 157 20 26 25 20 1079 866 20 20 62 133 30 41 20 78 25 102 102 46 113 97
internal_value=0 -6.33576e-06 -5.28204e-05 -0.000252635 0.000108456 0.00090499 -0.000440593 -0.00115999 -0.00205996 -0.00356376 -0.0052238 -0.00711092 -0.0106144 -0.00368801 5.80698e-05 0.000703266 -0.0137396 -0.0166314 0.00172448 0.00200492 0.00440102 -0.00660702 0.00150295 0.00431602 0.00105686 0.00360022 0.000399009 -0.000517103 0.000273744 -0.000975355
internal_weight=0 128000 29950 6184 2117 1364 4067 1665 840 422 265 172 85 87 2402 1323 65 45 928 866 150 61 716 98 618 127 491 358 312 210
internal_count=217633 128000 29950 6184 2117 1364 4067 1665 840 422 265 172 85 87 2402 1323 65 45 928 866 150 61 716 98 618 127 491 358 312 210
shrinkage=0.05


Tree=301
num_leaves=31
num_cat=0
split_feature=8 2 40 40 32 36 36 14 33 2 5 25 7 39 18 35 28 2 18 18 31 31 29 8 25 6 13 6 12 18
split_gain=0.0050061 0.0225481 0.02095 0.043762 0.109475 0.0657042 0.171045 0.0537863 0.0463742 0.0818728 0.0742563 0.0610442 0.0535378 0.062411 0.052995 0.0526746 0.0898716 0.152842 0.107834 0.315435 0.0729449 0.14848 0.152677 0.121097 0.0929406 0.0605297 0.111696 0.0558301 0.0500532 0.0677253
threshold=1.6290050000000002e-05 3.0578500000000006 0.46045500000000011 -1.1537099999999991 -0.11978799999999999 0.38220950000000015 -0.27744100000000016 5.4802900000000006e-08 -4.6526849999999994e-07 1.9944900000000001 9.4955250000000009e-06 0.34469700000000009 -1.4103749999999997e-05 0.35261000000000037 -9.6904849999999971 3.5181850000000013e-05 0.10550150000000001 -1.4120199999999998 -8.1735099999999985 -6.9314949999999991 -2.4344349999999997e-05 -0.00013444999999999996 1.9350450000000003e-06 1.5030250000000002e-05 -0.0050341699999999984 -2.1736449999999996e-06 1.8037350000000004e-08 -2.2961349999999994e-06 5.9976150000000007e-09 -7.4922749999999985
decision_type=2 2 2 2 2 2 2 2 2 2 2 2 2 2 2 2 2 2 2 2 2 2 2 2 2 2 2 2 2 2
left_child=1 2 3 -1 5 6 -5 -8 9 14 28 12 13 -12 -6 16 20 18 -18 -20 21 25 23 24 -23 26 -14 -17 -10 -30
right_child=-2 -3 -4 4 8 -7 7 -9 10 -11 11 -13 15 -15 -16 27 17 -19 19 -21 -22 22 -24 -25 -26 -27 -28 -29 29 -31
leaf_value=-3.8804129090508968e-06 2.9965615810221763e-06 0.00161860775856656 2.2108049482985223e-05 -0.0002506240013948021 -0.0027556744359268732 -8.4110961820856175e-05 -0.0066526482766494158 -0.0029856903385370968 -6.1780801039096228e-05 -0.0037177695144782774 2.0839501921727791e-05 -0.0028263885413748954 0.00012999197406609963 -0.0038818848196180106 -0.00035159693458368033 0.0021667245816830213 -0.00071859849286380324 0.00012476505068562113 -0.0090483262383800368 -0.00094180781872117746 8.5330448353988496e-05 -0.0036701834401901578 -0.0052732090506022082 -0.0036845852517695963 4.9516736002319747e-06 -8.6723399159284648e-05 -0.0046581328736595299 0.0001182658358918989 0.0021147020398337856 0.00042502500840577623
leaf_weight=10106 188240 21 14602 42 24 44 20 20 424 20 20 22 29 21 511 35 33 82 21 28 1155 20 26 38 123 784 21 670 71 360
leaf_count=10106 188240 21 14602 42 24 44 20 20 424 20 20 22 29 21 511 35 33 82 21 28 1155 20 26 38 123 784 21 670 71 360
internal_value=0 -1.91907e-05 -2.03617e-05 -6.23484e-05 -0.000189037 -0.00164281 -0.00247918 -0.00481917 -0.000148673 -0.000576861 -8.90079e-05 -0.000201879 -0.000183289 -0.00197812 -0.000459443 -0.00015928 -0.00027257 -0.00140164 -0.00292804 -0.00441603 -0.00018825 -0.000491791 -0.0016904 -0.00117574 -0.000509053 -0.000194295 -0.00188102 0.000219962 0.000323927 0.000703371
internal_weight=0 29393 29372 14770 4664 126 82 40 4538 555 3983 3128 3106 41 535 3065 2360 164 82 49 2196 1041 207 181 143 834 50 705 855 431
internal_count=217633 29393 29372 14770 4664 126 82 40 4538 555 3983 3128 3106 41 535 3065 2360 164 82 49 2196 1041 207 181 143 834 50 705 855 431
shrinkage=0.05


Tree=302
num_leaves=31
num_cat=0
split_feature=26 3 9 31 12 4 4 5 12 20 18 9 16 17 9 22 15 21 9 22 39 3 9 31 36 10 9 9 36 36
split_gain=0.00495338 0.0229513 0.0655511 0.155763 0.271049 0.103896 0.338169 0.0919255 0.0759032 0.0673724 0.033053 0.033011 0.044449 0.0541576 0.0246027 0.1013 0.198212 0.0604486 0.0319832 0.0620861 0.0831033 0.0594471 0.044643 0.0867343 0.124072 0.0425654 0.0375677 0.03498 0.0378185 0.0709957
threshold=-0.44589049999999997 -11.394249999999998 0.00010892050000000002 1.6674650000000002 -3.3937349999999994e-07 -1.1200049999999997 -2.6817999999999995 2.6996300000000004e-05 0.00015954750000000002 -13.748199999999999 -2.7107649999999999 0.00014627600000000001 0.0029219050000000002 13.501750000000001 9.9230750000000009e-05 38.031000000000013 0.00025725050000000005 -0.82489099999999993 6.2986800000000012e-05 26.434800000000003 1.9002500000000004 -8.5162499999999977 4.8912350000000013e-05 0.67406600000000017 0.51872500000000021 4.9502400000000009e-05 3.2725900000000011e-05 4.247685000000001e-05 0.46240350000000002 -0.32870999999999989
decision_type=2 2 2 2 2 2 2 2 2 2 2 2 2 2 2 2 2 2 2 2 2 2 2 2 2 2 2 2 2 2
left_child=1 2 -1 5 -5 6 -4 8 9 -7 -11 14 13 -13 18 17 -17 -16 22 -20 21 -21 26 24 -24 -22 -3 28 29 -28
right_child=-2 11 3 4 -6 7 -8 -9 -10 10 -12 12 -14 -15 15 16 -18 -19 19 20 25 -23 23 -25 -26 -27 27 -29 -30 -31
leaf_value=7.8710770428090404e-06 -1.0786598499996188e-06 5.850368089893737e-05 -0.00025614852150427302 -0.0010121808007473496 0.005810459840388315 -0.0041866996672267663 0.0060132044243315858 0.0019584101899696787 0.0010530485834654732 -0.0026614565050873686 -0.00031323124180260569 -0.00066308307728392944 -0.00013206592171486966 -0.0034469910524785523 -0.0026130536401372715 0.0055404064664617185 -0.00069497436620272668 0.00093567204045636268 -0.0028069848639806251 -0.00037962359288940206 -0.003156110495117239 0.0034754752010485394 0.0047875562277450052 -0.00084728588211169893 -0.00033676901027016964 -0.00019330305911993223 -9.6836489766636595e-05 0.00035126856451494283 6.9802946044790853e-05 -0.0030850773212833978
leaf_weight=811 213272 2468 76 24 37 23 30 30 30 22 47 58 207 25 24 25 26 24 29 20 22 20 27 31 21 27 35 55 41 46
leaf_count=811 213272 2468 76 24 37 23 30 30 30 22 47 58 207 25 24 25 26 24 29 20 22 20 27 31 21 27 35 55 41 46
internal_value=0 5.27512e-05 0.00024671 0.000853916 0.00312614 0.000316685 0.0015182 -0.000521212 -0.00113096 -0.00184313 -0.00106194 -1.50835e-05 -0.000524039 -0.00150161 3.51025e-05 0.000809936 0.00236158 -0.000838691 8.11147e-06 -0.000797789 -0.000143108 0.00154793 4.3022e-05 0.00121425 0.00254566 -0.00152354 8.04005e-06 -0.0006956 -0.00116755 -0.00179386
internal_weight=0 4361 1130 319 61 258 106 152 122 92 69 3231 290 83 2941 99 51 48 2842 118 89 40 2724 79 48 49 2645 177 122 81
internal_count=217633 4361 1130 319 61 258 106 152 122 92 69 3231 290 83 2941 99 51 48 2842 118 89 40 2724 79 48 49 2645 177 122 81
shrinkage=0.05


Tree=303
num_leaves=31
num_cat=0
split_feature=20 0 13 26 32 0 32 32 8 36 26 5 26 33 20 23 1 3 13 13 16 1 6 8 22 10 10 20 36 37
split_gain=0.00484014 0.0170188 0.0750599 0.176779 0.0128013 0.00970193 0.0197244 0.0309159 0.0217379 0.019784 0.0100185 0.0562807 0.0114001 0.00998119 0.00755341 0.0164375 0.039277 0.0159253 0.0406414 0.013379 0.0211 0.00851146 0.0332154 0.00669805 0.00627789 0.0282595 0.0449929 0.0443784 0.0227933 0.244347
threshold=-5.9633049999999992 -10.400999999999998 -9.1697599999999983e-08 0.0034266150000000005 -0.0011580799999999999 7.5113150000000006 0.061248100000000007 0.18330700000000003 5.8157500000000007e-05 0.12375499999999996 -1.2159399999999998 1.6368250000000004e-05 -2.4419499999999998 0.00046534500000000004 -5.7717399999999985 0.0010465900000000002 7.7500100000000005 -6.9186299999999994 2.5770550000000005e-06 0.00017885500000000004 0.054680650000000004 -12.232849999999997 1.3540400000000001e-06 2.3665400000000002e-05 29.284250000000004 -7.1201799999999986e-05 -6.7776199999999983e-05 -15.138399999999999 0.20129000000000011 0.17390849999999994
decision_type=2 2 2 2 2 2 2 2 2 2 2 2 2 2 2 2 2 2 2 2 2 2 2 2 2 2 2 2 2 2
left_child=24 2 -2 -4 -3 10 -7 -8 9 -9 11 12 -6 14 15 21 -17 19 -19 -16 -21 22 -12 -15 -1 27 -27 -26 29 -28
right_child=1 4 3 -5 5 6 7 8 -10 -11 13 -13 -14 23 17 16 -18 18 -20 20 -22 -23 -24 -25 25 26 28 -29 -30 -31
leaf_value=6.4746694181643947e-07 -0.00019155043352928457 0.001234308382977774 -4.3497776298156373e-05 0.0058194104549693301 0.00051683066121768209 3.8087426285559298e-05 -0.0023365864245230724 0.0010536136411246845 -0.0012602203469540632 -0.00075927318763138762 -0.00017867594286583103 0.0020866512595848936 -0.0009796001448246119 -3.8443173980340366e-05 -1.2724651526309234e-05 -9.3290300678095916e-05 -0.0026057346083689483 0.0002354417088047616 0.0026991407152805059 0.0021031322318458483 -0.00019360465039653719 1.7530981351550257e-05 0.0022970123392587992 -0.0012098061451419758 -0.0024830505452600534 0.0019307487371281304 -0.0012370506182094888 -0.00031039136275071106 6.7721549145910545e-05 4.0240071104443521e-05
leaf_weight=209273 112 22 36 20 20 267 24 34 39 27 42 37 35 23 335 70 20 70 22 20 20 1081 20 26 29 29 433 124 2555 2768
leaf_count=209273 112 22 36 20 20 267 24 34 39 27 42 37 35 23 335 70 20 70 22 20 20 1081 20 26 29 29 433 124 2555 2768
internal_value=0 7.02881e-05 0.000555766 0.0020504 3.41034e-05 2.22735e-05 -0.000203925 -0.000725034 -0.000338261 0.000251188 7.03146e-05 0.000578877 -0.000435443 4.35635e-05 6.38421e-05 -1.02041e-06 -0.000651611 0.000235096 0.000824587 9.04741e-05 0.000954764 5.02072e-05 0.000619933 -0.000659983 -7.91027e-07 -5.14879e-05 -3.3749e-05 -0.000722203 -4.36466e-05 -0.000132539
internal_weight=0 2422 168 56 2254 2232 391 124 100 61 1841 92 55 1749 1700 1233 90 467 92 375 40 1143 62 49 215211 5938 5785 153 5756 3201
internal_count=217633 2422 168 56 2254 2232 391 124 100 61 1841 92 55 1749 1700 1233 90 467 92 375 40 1143 62 49 215211 5938 5785 153 5756 3201
shrinkage=0.05


Tree=304
num_leaves=31
num_cat=0
split_feature=9 17 2 26 16 7 7 11 10 35 5 28 5 26 29 5 26 21 18 17 9 13 7 3 32 36 40 26 39 39
split_gain=0.00485531 0.0238025 0.101232 0.0428845 0.161272 0.215187 0.120396 0.150359 0.0324377 0.0357715 0.0299699 0.0177961 0.0742905 0.190964 0.0157304 0.0345951 0.0385354 0.0228052 0.0154 0.0125588 0.0505935 0.213787 0.210569 0.0476844 0.0474708 0.0585115 0.035896 0.0812004 0.1029 0.035171
threshold=-0.000119502 -19.608449999999998 2.6388200000000004 1.0482150000000001 0.0035512250000000003 -3.4021049999999988e-05 -6.2460399999999982e-05 0.016386000000000001 0.00031977250000000008 0.12384550000000001 2.3114150000000003e-05 11.695650000000002 1.8784800000000004e-05 -0.78911549999999997 -0.00020540699999999998 1.0944500000000002e-05 0.55826100000000012 -2.2419299999999995 -8.4289549999999984 -16.050999999999998 -3.6833449999999989e-05 2.886525000000001e-07 -3.103334999999999e-05 -4.8298799999999993 -0.066940849999999982 -0.27744100000000016 3.7911450000000002 -0.18041899999999997 -5.3152649999999992 -0.23716000000000023
decision_type=2 2 2 2 2 2 2 2 2 2 2 2 2 2 2 2 2 2 2 2 2 2 2 2 2 2 2 2 2 2
left_child=1 2 8 11 5 -5 -6 -8 9 -1 18 14 13 -13 15 -3 -17 -16 -9 20 21 24 -23 26 25 -2 -22 28 -28 -26
right_child=19 3 -4 4 6 -7 7 10 -10 -11 -12 12 -14 -15 17 16 -18 -19 -20 -21 23 22 -24 -25 29 -27 27 -29 -30 -31
leaf_value=-0.00078406068216146972 -0.00079018009861971702 -0.0017136187071293153 0.0021478058955399322 0.00066128319389570291 0.0024675102646032239 0.0071974029779084958 -0.0048935528867878018 -0.001494734429029955 -0.00021841784969313136 -0.0032380662946679601 0.001627128200198058 -0.00030558486172793664 -0.00024015760424663313 0.0059225382075965179 0.0016287662297806739 -1.3423680892665118e-05 -0.0017391539895574429 1.8292570932433197e-05 0.00010472663364934682 -4.0065780190422905e-06 -0.00014303711085014172 0.0063293950981460519 0.00058218517463982987 0.0023282276318323885 -6.1919668469807436e-05 0.0025868057884508746 0.00065124575496436311 -1.4681065802120208e-05 0.0050624521356076001 -0.001945427633566
leaf_weight=27 23 38 25 34 33 20 20 27 35 33 20 32 100 20 22 427 35 26761 34 188378 1043 30 34 22 68 29 39 165 20 39
leaf_count=27 23 38 25 34 33 20 20 27 35 33 20 32 100 20 22 427 35 26761 34 188378 1043 30 34 22 68 29 39 165 20 39
internal_value=0 1.95385e-05 -0.000683128 2.2591e-05 0.00077518 0.00308207 -0.000154461 -0.00101114 -0.00142811 -0.00213376 -5.25254e-05 1.74338e-05 0.000556949 0.00208985 1.44281e-05 -0.00026344 -0.000144161 1.96154e-05 -0.000603232 -2.85458e-06 0.000140672 0.000836041 0.00327619 2.03713e-05 -0.000146157 0.00109314 -1.9702e-05 0.000554577 0.00214657 -0.000748432
internal_weight=0 27743 120 27623 188 54 134 101 95 60 81 27435 152 52 27283 500 462 26783 61 189890 1512 223 64 1289 159 52 1267 224 59 107
internal_count=217633 27743 120 27623 188 54 134 101 95 60 81 27435 152 52 27283 500 462 26783 61 189890 1512 223 64 1289 159 52 1267 224 59 107
shrinkage=0.05


Tree=305
num_leaves=31
num_cat=0
split_feature=3 18 30 11 17 7 17 9 4 5 14 18 20 11 11 39 39 20 36 37 36 14 37 15 34 36 39 34 6 33
split_gain=0.00486341 0.0367546 0.120922 0.152232 0.026635 0.233954 0.0175294 0.0668377 0.0992811 0.08199 0.0600398 0.0246746 0.0155013 0.0140403 0.0135056 0.0358762 0.0938358 0.0957248 0.0761397 0.734748 0.414698 0.627491 0.849325 0.477183 0.725599 0.392581 0.284641 0.204606 0.149216 0.0986399
threshold=-5.5710999999999995 -15.424049999999998 0.34287850000000003 0.00022094500000000003 19.256550000000001 4.1341400000000004e-05 -12.926599999999999 -3.9082349999999992e-06 -0.13885249999999996 1.2076400000000002e-05 1.2494200000000003e-07 18.392150000000004 -8.364709999999997 0.00010606000000000001 0.00018327650000000005 -0.12174999999999957 0.16841000000000064 -7.4282149999999989 0.327845 0.09983149999999999 0.056773999999999998 2.7889400000000004e-07 -0.026150000000000003 8.6855700000000027e-09 3.7011550000000006e-05 -0.011175000000000155 0.43278000000000022 -3.5981499999999994e-05 3.6368750000000002e-06 1.8731150000000003e-09
decision_type=2 2 2 2 2 2 2 2 2 2 2 2 2 2 2 2 2 2 2 2 2 2 2 2 2 2 2 2 2 2
left_child=14 2 -2 13 6 12 7 8 -3 -10 -11 -9 -6 -4 15 -1 -17 -18 19 20 21 22 -19 24 -24 -26 -23 29 -28 -25
right_child=1 4 3 -5 5 -7 -8 11 9 10 -12 -13 -14 -15 -16 16 17 18 -20 -21 -22 26 23 27 25 -27 28 -29 -30 -31
leaf_value=-0.00016385664954574156 0.0042521662750438002 0.0044069676951039582 4.0777608815419214e-05 0.0038952078678658624 -0.0012759032158497483 0.0049143006642295333 6.0795186298284733e-06 -2.907076789161079e-05 0.0028612789757916646 0.0021125389820587804 -0.00057235974442676875 -0.0018146253867252244 0.00015275433626713397 -0.00099307206406459652 3.9211427802828609e-06 0.00025538923563119047 2.2495163748918857e-07 -0.012960249385475343 -1.5078331489733389e-05 -3.6202021266974574e-05 -0.00051019106855688143 0.0023302983374001002 -0.011527663932065481 -0.00061239762580953547 -0.0068582561081991754 0.0016029116304205925 -0.00039808346153459638 -0.0042706522260509104 -0.0063032524750451556 0.0041420705273048954
leaf_weight=4384 21 20 165 26 39 26 28814 246 33 27 91 21 37 41 148738 2997 26879 29 2180 2346 219 53 36 24 26 29 23 23 20 20
leaf_count=4384 21 20 165 26 39 26 28814 246 33 27 91 21 37 41 148738 2997 26879 29 2180 2346 219 53 36 24 26 29 23 23 20 20
internal_value=0 1.8836e-05 0.000618906 0.000290033 1.36641e-05 0.00082023 1.08516e-05 0.000324787 0.00109658 0.000658119 4.19815e-05 -0.000169508 -0.000580373 -0.000164989 -2.96597e-06 -2.90394e-05 -1.21062e-05 -3.72318e-05 -0.000237471 -0.000407701 -0.00214383 -0.00340802 -0.00509494 -0.00365131 -0.00600908 -0.00239691 -0.000122033 -0.000448972 -0.00314467 0.00154872
internal_weight=0 29607 253 232 29354 102 29252 438 171 151 118 267 76 206 188026 39288 34904 31907 5028 2848 502 283 187 158 91 55 96 67 43 44
internal_count=217633 29607 253 232 29354 102 29252 438 171 151 118 267 76 206 188026 39288 34904 31907 5028 2848 502 283 187 158 91 55 96 67 43 44
shrinkage=0.05


Tree=306
num_leaves=31
num_cat=0
split_feature=18 39 3 1 3 10 31 10 36 36 39 1 11 12 1 1 18 40 5 14 18 36 3 16 29 16 8 27 3 28
split_gain=0.00461392 0.0617319 0.150888 0.340489 0.396556 0.455706 0.449118 0.26502 0.359281 0.439707 0.524741 0.0850736 0.0912855 0.126724 0.0832153 0.0659974 0.168987 0.0721695 0.113942 0.0639425 0.145233 0.171955 0.0639184 0.0607149 0.218618 0.124051 0.145714 0.203899 0.0864528 0.0562541
threshold=-7.8035849999999991 -0.12174999999999957 -8.8592349999999982 -2.5377799999999993 -13.166999999999998 0.00014004150000000002 -0.27384599999999998 -3.9800399999999994e-06 0.24966499999999994 -0.17527649999999997 0.55890500000000032 -7.5633549999999987 0.00012656100000000005 5.5933850000000008e-08 -1.8753799999999998 -11.052099999999998 -11.282949999999998 0.65993499999999961 9.8246350000000015e-06 1.2108000000000002e-07 -10.569349999999998 -0.12496499999999998 -8.4434449999999988 8.4675100000000012e-07 -2.0917349999999997e-05 0.00064301250000000016 1.9215700000000003e-05 0.0061309900000000011 -9.5548399999999987 0.46144700000000005
decision_type=2 2 2 2 2 2 2 2 2 2 2 2 2 2 2 2 2 2 2 2 2 2 2 2 2 2 2 2 2 2
left_child=1 11 3 4 5 6 -3 8 9 -6 -11 12 13 -1 -5 16 -14 18 -17 20 21 -20 -22 24 -9 26 27 -25 -28 -13
right_child=-2 2 -4 14 7 -7 -8 23 -10 10 -12 29 15 -15 -16 17 -18 -19 19 -21 22 -23 -24 25 -26 -27 28 -29 -30 -31
leaf_value=-0.00039852259387190961 -2.8907530870282313e-06 0.0013509715057443829 4.3906743212748339e-05 -0.0024193709371059251 0.00015664499024852478 -0.0015388768119737506 0.010793593513645807 -0.0049479875323716754 -7.7195914058039418e-05 0.0033824166580176864 0.012709608968812972 2.6871302012821948e-05 -0.0011441754189504675 -0.0044409090788549016 -3.5265611891038078e-05 -0.0046954322755709656 0.0041369343969108741 -0.00017103870566224349 -0.00035451306030154228 -1.6137086164132166e-05 -0.0026153120279322258 -0.0055479362422153613 0.0003755248877405393 0.00075332317348511427 0.00031058048199647764 -0.00022456437295277425 -0.0019867709710855376 0.0078074731732374952 0.0025553400893750227 -0.00025405243191821652
leaf_weight=47 187993 20 12602 39 36 20 34 24 72 38 25 12369 33 33 595 20 28 888 28 141 23 37 80 20 112 131 22 21 20 2082
leaf_count=47 187993 20 12602 39 36 20 34 24 72 38 25 12369 33 33 595 20 28 888 28 141 23 37 80 20 112 131 22 21 20 2082
internal_value=0 1.83347e-05 9.54803e-05 0.000624309 0.00148338 0.00490843 0.00729633 0.000996909 0.00261025 0.00456476 0.00708368 -4.91585e-05 -0.000427526 -0.00206601 -0.000181922 -0.000324961 0.00127994 -0.000405404 -0.00103798 -0.000801248 -0.00146018 -0.00331077 -0.000292332 0.000208676 -0.000617402 0.00073366 0.00224604 0.00436642 0.000176139 -1.36022e-05
internal_weight=0 29640 13831 1229 595 74 54 521 171 99 63 15809 1358 80 634 1278 61 1217 329 309 168 65 103 350 136 214 83 41 42 14451
internal_count=217633 29640 13831 1229 595 74 54 521 171 99 63 15809 1358 80 634 1278 61 1217 329 309 168 65 103 350 136 214 83 41 42 14451
shrinkage=0.05


Tree=307
num_leaves=31
num_cat=0
split_feature=8 40 40 16 16 13 18 3 39 30 39 12 23 3 20 12 31 25 5 21 1 36 40 32 3 18 5 18 30 10
split_gain=0.00456027 0.0210637 0.040643 0.068786 0.0477114 0.139804 0.0367257 0.126347 0.0690994 0.1408 0.0765052 0.0694964 0.0867774 0.0588435 0.0397475 0.0991061 0.0344416 0.0720901 0.173177 0.0922588 0.0342797 0.0597517 0.0336825 0.108039 0.0581973 0.0517261 0.238574 0.0535115 0.0923446 0.0465281
threshold=1.6290050000000002e-05 0.46045500000000011 0.36284999999999995 0.0026916950000000005 9.5798550000000015e-06 -1.1598249999999999e-07 -8.4289549999999984 -12.585899999999999 -0.15760999999999911 0.0069692250000000008 0.10586500000000011 5.1874450000000018e-07 6.9056850000000016e-05 -8.7425699999999988 -6.4351849999999997 3.4111650000000002e-08 0.068482350000000011 -0.39445199999999997 1.2632800000000002e-05 0.86341500000000015 -9.191774999999998 -0.027530000000000051 -1.1537099999999991 -0.30938449999999995 -18.305499999999995 -7.7245449999999991 1.2026800000000001e-05 -7.1421249999999992 0.078737600000000005 2.2707500000000002e-05
decision_type=2 2 2 2 2 2 2 2 2 2 2 2 2 2 2 2 2 2 2 2 2 2 2 2 2 2 2 2 2 2
left_child=1 2 6 4 5 -4 7 -1 9 -9 13 14 -13 -10 -12 -16 17 18 19 -3 21 -15 24 29 -8 26 -25 28 -27 -24
right_child=-2 16 3 -5 -6 -7 22 8 10 -11 11 12 -14 20 15 -17 -18 -19 -20 -21 -22 -23 23 25 -26 27 -28 -29 -30 -31
leaf_value=0.0030140135740228478 2.860019068950085e-06 -0.00011460325004487746 -0.0039297315081057603 -0.0032331481375270721 0.00037416371265303148 -0.00011359764880959727 0.0021390084982774549 -0.0049431361888946411 0.0032776197927887555 -1.9562285384158457e-05 -1.6253954529945836e-05 0.00030631151961160312 0.0040291803135124099 0.0036896950987284072 -8.5729429604850573e-05 -0.0042386090254876762 -0.0003253646276704103 2.9019012348526018e-05 0.0052213626917695039 0.0035671860570437273 -0.00031379112497564746 0.00074622755453547149 -0.0012539697993659126 0.00028975734866069214 -3.0905455485739197e-05 0.00010126205186679727 -0.0045929907311498637 -0.00017211610031318418 0.0033044654869202835 -0.0043887841141258838
leaf_weight=39 188240 114 32 24 104 96 31 20 26 53 729 49 23 20 51 20 672 13782 22 20 55 125 29 82 9572 90 36 3427 30 20
leaf_count=39 188240 114 32 24 104 96 31 20 26 53 729 49 23 20 51 20 672 13782 22 20 55 125 29 82 9572 90 36 3427 30 20
internal_value=0 -1.83163e-05 -6.03946e-05 -0.000684919 -0.000421309 -0.00106763 -4.9389e-05 0.000214352 0.00012111 -0.00136849 0.000220145 7.66846e-06 0.00149556 0.00103996 -0.000126242 -0.00125555 2.42604e-05 4.1117e-05 0.00110993 0.000434918 0.000749069 0.00115222 -7.33529e-05 -0.000201218 -2.39006e-05 -0.000170036 -0.00119989 -0.000135775 0.000902063 -0.00253349
internal_weight=0 29393 14783 256 232 128 14527 1210 1171 73 1098 872 72 226 800 71 14610 13938 156 134 200 145 13317 3714 9603 3665 118 3547 120 49
internal_count=217633 29393 14783 256 232 128 14527 1210 1171 73 1098 872 72 226 800 71 14610 13938 156 134 200 145 13317 3714 9603 3665 118 3547 120 49
shrinkage=0.05


Tree=308
num_leaves=31
num_cat=0
split_feature=17 39 9 3 24 10 3 39 11 10 8 5 7 10 9 29 4 14 36 3 13 7 40 18 3 11 31 17 10 34
split_gain=0.00458607 0.0193204 0.0679643 0.139353 0.292717 0.245103 0.293563 0.195473 0.087239 0.167261 0.25254 0.341882 0.0785223 0.0634992 0.0597456 0.0885034 0.0387684 0.0353663 0.0313323 0.0300816 0.0592309 0.032182 0.0792721 0.332791 0.0418573 0.0286535 0.053886 0.0504933 0.0335128 0.0246808
threshold=-10.268199999999998 0.027469999999999221 -2.0937149999999997e-05 -7.4497099999999987 5.3277850000000013 6.9697650000000012e-05 -7.9686699999999986 0.85052500000000031 0.0009049345000000001 4.3872650000000008e-05 2.4273950000000005e-05 1.7744900000000004e-05 -1.3696949999999999e-05 9.0157500000000019e-05 -2.2589749999999998e-05 2.8332950000000005e-06 -0.3422659999999999 2.0915550000000003e-06 1.0000000180025095e-35 -6.0574999999999983 4.0775950000000005e-08 -4.2830499999999996e-05 0.55624500000000021 4.904135000000001 -7.7933949999999994 0.00042166850000000005 0.26880500000000002 -14.223749999999997 6.2308800000000016e-05 5.8699600000000016
decision_type=2 2 2 2 2 2 2 2 2 2 2 2 2 2 2 2 2 2 2 2 2 2 2 2 2 2 2 2 2 2
left_child=1 19 3 4 5 6 7 -3 16 10 -10 -12 13 -11 25 -16 -6 -18 -8 21 -21 22 23 24 -1 26 -5 28 -27 -15
right_child=-2 2 -4 14 8 -7 18 -9 9 12 11 -13 -14 29 15 -17 17 -19 -20 20 -22 -23 -24 -25 -26 27 -28 -29 -30 -31
leaf_value=-0.0023892957674185957 -1.8317320938697684e-06 0.0039942620825472244 6.3187804554961016e-06 7.5670254857889864e-06 0.0007927071370504564 -0.00041598204550609809 8.975860782811651e-05 0.0097911643800706293 -0.0018212314698892577 -0.0028120468308881039 0.0073316848228892522 0.0005746616178956361 0.0020711519047696271 0.00044226108709699476 8.2104673603882686e-05 0.004230476232528417 -0.00081556313719468969 -0.0031699866608092143 0.0025930496999867505 -0.00020606577755340064 0.0033067349865450527 4.0654776247946732e-06 -8.7104941785208764e-05 -0.0070458099449090443 1.633204437643845e-06 -0.0027926113254472837 0.0023393044056623088 -0.00016318550242535679 -0.00051954635280473613 -0.0016359946165175644
leaf_weight=22 204602 33 4284 301 25 40 25 26 27 33 36 39 26 50 36 20 58 22 25 30 20 6695 632 22 109 34 27 283 31 20
leaf_count=22 204602 33 4284 301 25 40 25 26 27 33 36 39 26 50 36 20 58 22 25 30 20 6695 632 22 109 34 27 283 31 20
internal_value=0 2.87603e-05 9.99908e-05 0.000429729 0.00108703 0.00293162 0.0041601 0.00654883 0.000269048 0.000812228 0.00232529 0.00381803 -0.000384143 -0.00100393 -5.78147e-06 0.00156367 -0.000925949 -0.00146303 0.0013414 -2.32767e-05 0.00119905 -3.14474e-05 -0.000334324 -0.00135552 -0.000399897 -0.000135795 0.000199509 -0.000451828 -0.00170853 -0.000151526
internal_weight=0 13031 5501 1217 485 149 109 59 336 231 102 75 129 103 732 56 105 80 50 7530 50 7480 785 153 131 676 328 348 65 70
internal_count=217633 13031 5501 1217 485 149 109 59 336 231 102 75 129 103 732 56 105 80 50 7530 50 7480 785 153 131 676 328 348 65 70
shrinkage=0.05


Tree=309
num_leaves=31
num_cat=0
split_feature=24 4 15 3 9 30 10 10 5 10 4 4 4 9 15 27 10 1 12 13 11 39 0 18 21 11 14 18 36 22
split_gain=0.00462063 0.0211498 0.0610402 0.151747 0.0284734 0.0472228 0.0461167 0.0473349 0.0272653 0.0431276 0.0223738 0.153744 0.0512318 0.0907903 0.0318587 0.0221459 0.0210349 0.0199645 0.144069 0.0405749 0.0532334 0.0216835 0.0193216 0.016808 0.0163324 0.0142538 0.012023 0.0181833 0.0108046 0.0107115
threshold=91.481750000000019 5.1455300000000008 0.0042538100000000011 -12.665349999999998 -0.00035055549999999991 14.135600000000002 0.00010299250000000001 9.4595700000000006e-05 1.4338400000000003e-05 0.00022778250000000003 1.1247450000000001 1.5563800000000001 0.57834950000000018 2.5254500000000004e-05 3.3339000000000007e-05 0.12582950000000004 3.0213650000000005e-05 -8.7275699999999983 -4.3823949999999997e-07 3.9398900000000012e-06 0.00039568100000000005 -0.32314999999999999 4.9393250000000011 6.1622250000000012 0.69957950000000013 0.00028345200000000006 -8.4992649999999986e-08 14.999250000000002 -1.1690384999999999 53.742400000000011
decision_type=2 2 2 2 2 2 2 2 2 2 2 2 2 2 2 2 2 2 2 2 2 2 2 2 2 2 2 2 2 2
left_child=29 2 4 -4 5 -2 7 10 9 -8 12 -12 14 -14 17 -13 -3 18 -6 26 -21 28 -5 -10 -17 -20 27 -19 -22 -1
right_child=1 16 3 22 6 -7 8 -9 23 -11 11 15 13 -15 -16 24 -18 19 25 20 21 -23 -24 -25 -26 -27 -28 -29 -30 -31
leaf_value=-3.5875649674883278e-07 -0.00036259271220539331 -0.0022636131470790133 0.0048342284357535065 -0.00054467717001292239 0.0043503015028181838 0.0029270724876550962 -0.0030855775955358463 0.0023549712260137311 -0.00083181581028517995 -0.00066194206138687963 0.0040025719311088323 0.00061438053147867323 -0.0041978297428050563 0.0004515509806099415 0.001790123224914582 -0.00019392390386201443 -0.00041896926192267153 -0.00023852573758631479 2.2542506104493772e-05 -0.0035005604873003904 -0.00062803848122712231 -0.001537728045492038 0.0013231064460705966 0.00075081766815856101 -0.0021285689103630527 -0.0014135310833808036 -3.5289778413241119e-05 -0.0017880822718143463 0.0010154767864150927 0.00012642488875597938
leaf_weight=214356 24 20 22 45 20 20 31 20 51 45 25 25 21 21 22 20 68 78 127 20 20 33 20 25 24 20 686 25 20 1679
leaf_count=214356 24 20 22 45 20 20 31 20 51 45 25 25 21 21 22 20 68 78 127 20 20 33 20 25 24 20 686 25 20 1679
internal_value=0 -8.47095e-05 -4.07971e-05 0.00124488 -0.000119401 0.00113271 -0.000159353 -5.75836e-05 -0.000980871 -0.00165053 -9.75596e-05 0.000643188 -0.000160121 -0.00187314 -9.29433e-05 -0.00057398 -0.000838207 -0.000132436 0.000368852 -0.000227351 -0.00121513 -0.00058899 3.00255e-05 -0.000311213 -0.00124918 -0.000172842 -0.00011092 -0.000614632 0.000193719 6.26592e-07
internal_weight=0 1598 1510 87 1423 44 1379 1227 152 76 1207 94 1113 42 1071 69 88 1049 167 882 93 73 65 76 44 147 789 103 40 216035
internal_count=217633 1598 1510 87 1423 44 1379 1227 152 76 1207 94 1113 42 1071 69 88 1049 167 882 93 73 65 76 44 147 789 103 40 216035
shrinkage=0.05


Tree=310
num_leaves=31
num_cat=0
split_feature=33 40 36 36 14 40 21 18 1 18 17 17 22 30 21 6 5 37 15 4 21 36 18 18 39 28 12 39 12 30
split_gain=0.00457027 0.0488544 0.0594633 0.3896 0.219904 0.321004 0.302817 0.207744 0.289573 0.259205 0.209517 0.199469 0.27998 0.153448 0.130662 0.122804 0.108412 0.0888216 0.241185 0.379515 0.205306 0.0707554 0.337517 0.279137 0.3234 0.263383 0.203072 0.19855 0.197845 0.110521
threshold=6.710375000000001e-07 -0.52047500000000058 -0.14969009999999991 -0.0054100000000001361 1.3942150000000003e-07 1.2627400000000006 0.35850200000000004 4.1442900000000007 3.7283150000000007 5.9486050000000015 5.531130000000001 -4.0204099999999992 4.5134100000000013 1.1210650000000002 0.31809300000000001 3.8272700000000001e-07 1.4208050000000002e-05 0.24875600000000014 -4.5779349999999994e-05 -2.1602949999999992 0.91519300000000003 0.14973499999999998 11.525150000000002 -5.4791549999999996 0.35261000000000037 2.2468500000000007 1.4136750000000001e-08 -2.3298099999999988 3.9881800000000008e-05 0.36930950000000001
decision_type=2 2 2 2 2 2 2 2 2 2 2 2 2 2 2 2 2 2 2 2 2 2 2 2 2 2 2 2 2 2
left_child=-1 -2 17 4 5 6 -4 8 10 -9 11 13 16 -6 -11 -12 -13 18 19 -3 -20 22 23 26 25 28 -5 -28 29 -25
right_child=1 2 3 21 7 -7 -8 9 -10 14 15 12 -14 -15 -16 -17 -18 -19 20 -21 -22 -23 -24 24 -26 -27 27 -29 -30 -31
leaf_value=2.7625355983170635e-06 2.7385685142239376e-05 -0.00042707219399744649 -0.0024570527723990383 -0.00013798272108112505 2.0992026111343876e-05 -0.0010511564889926822 -0.010027975573237721 -0.0078361194723666743 0.0043519745249068365 0.00092267292935243207 -0.0011078858748078348 0.0017453851799170178 0.0057224144959556206 -0.0054035260929429741 -0.0043687422369839621 -0.0063434973979989697 -0.0033983243748662061 -1.6135817482975549e-05 -0.0015464683460237028 0.0089701098252341835 0.0037421278327237819 -4.1418476057067284e-05 -0.0055768572751813657 -0.00022573560523109264 -0.0044169941575576861 0.0061749399181597097 -0.00085820303121138188 -0.0070774067086996663 -0.0041885207674931734 0.0020703851209219193
leaf_weight=190012 18579 21 25 46 32 57 28 22 30 28 21 21 28 22 20 24 20 3930 69 22 25 4180 33 97 30 23 21 33 20 114
leaf_count=190012 18579 21 25 46 32 57 28 22 30 28 21 21 28 22 20 24 20 3930 69 22 25 4180 33 97 30 23 21 33 20 114
internal_value=0 -1.90042e-05 -0.000114324 -0.000230255 -0.00177329 -0.00365569 -0.00645679 -0.00100066 -0.000172939 -0.00334192 -0.000980959 8.706e-05 0.00186832 -0.002189 -0.00128208 -0.00390021 -0.000763741 2.74913e-05 0.00127898 0.00438079 -0.000139927 -0.000103376 -0.000724435 -0.00030743 0.000492503 0.00107237 -0.00257924 -0.00465883 0.000564317 0.00101482
internal_weight=0 27621 9042 4975 378 110 53 268 198 70 168 123 69 54 48 45 41 4067 137 43 94 4597 417 384 284 254 100 54 231 211
internal_count=217633 27621 9042 4975 378 110 53 268 198 70 168 123 69 54 48 45 41 4067 137 43 94 4597 417 384 284 254 100 54 231 211
shrinkage=0.05


Tree=311
num_leaves=31
num_cat=0
split_feature=18 36 1 4 22 40 1 36 19 2 15 36 3 12 12 36 3 14 25 16 13 36 36 33 36 11 17 7 17 2
split_gain=0.00443367 0.0426417 0.0433943 0.0668527 0.0717493 0.0222046 0.0784552 0.116656 0.530895 0.201225 0.0897703 0.200484 0.375454 0.0905852 0.0529551 0.0385328 0.0363697 0.0263814 0.0685938 0.148579 0.126748 0.0334993 0.138095 0.16886 0.117735 0.018537 0.0124417 0.0255063 0.0123878 0.0118842
threshold=-13.388899999999998 -4.6213449999999989 -12.938099999999997 -0.11271049999999998 1.9823250000000001 -0.078939999999999774 -3.1361349999999999 -0.40968649999999995 -0.75575599999999987 -2.1540499999999994 -5.194759999999999e-05 0.039429999999999972 -6.7163849999999998 -1.6963049999999999e-06 3.1455100000000005e-08 0.24966499999999994 -11.976899999999999 4.3357350000000014e-06 0.11940450000000001 0.011340200000000002 4.3089250000000013e-06 0.354709 -0.19934349999999995 4.1234850000000007e-07 0.10022550000000004 0.00044451700000000001 16.002400000000005 3.4597700000000009e-05 -14.223749999999997 -1.4785599999999997
decision_type=2 2 2 2 2 2 2 2 2 2 2 2 2 2 2 2 2 2 2 2 2 2 2 2 2 2 2 2 2 2
left_child=1 -1 3 -3 -5 6 7 28 9 -9 13 12 -12 -11 -14 -13 -8 21 -19 20 -20 22 -7 25 -25 -24 -18 -28 -4 -23
right_child=-2 2 5 4 -6 17 16 8 -10 10 11 15 14 -15 -16 -17 26 18 19 -21 -22 29 23 24 -26 -27 27 -29 -30 -31
leaf_value=0.0019651649648259428 -9.1212762171429553e-07 0.0033520597717142664 -0.0012274670347256621 0.0029825894253735896 -0.00044206495240079954 -9.2496539033665376e-05 -0.0015733125409095137 0.0041959396387230502 0.0085172208015928449 -3.5625583747305965e-05 0.008108328967658885 -0.0020921162660950082 0.0024427260765584099 -0.004276358941442595 -0.00076911658927036278 1.559064974533382e-06 -3.0482197038616465e-05 -3.3950424496603686e-05 0.0008819391870236445 -0.0009123232480223206 0.0064436502784519694 0.0011572577045583221 -0.0016407870929635302 -0.0063622651114461151 -0.0016415055525139906 9.563330905959947e-05 1.7909734143519445e-05 -0.0022323678110842591 -9.7838569911298608e-05 -5.058003355363261e-05
leaf_weight=29 214135 24 27 20 65 406 43 36 23 34 23 26 21 20 33 142 772 565 21 33 20 21 22 28 25 51 34 20 240 674
leaf_count=29 214135 24 27 20 65 406 43 36 23 34 23 26 21 20 33 142 772 565 21 33 20 21 22 28 25 51 34 20 240 674
internal_value=0 5.58372e-05 3.98757e-05 0.00102172 0.000363736 8.02431e-06 0.000151673 0.000578917 0.00116884 0.000664327 0.000239117 0.000645854 0.00275855 -0.00160627 0.000479933 -0.000322462 -0.000155608 -0.000106987 0.000153529 0.00158496 0.00359497 -0.000242659 -0.000541268 -0.00198731 -0.00413549 -0.000427671 -8.18047e-05 -0.000815526 -0.000212071 -1.40842e-05
internal_weight=0 3498 3469 109 85 3360 1494 625 358 335 299 245 77 54 54 168 869 1866 639 74 41 1227 532 126 53 73 826 54 267 695
internal_count=217633 3498 3469 109 85 3360 1494 625 358 335 299 245 77 54 54 168 869 1866 639 74 41 1227 532 126 53 73 826 54 267 695
shrinkage=0.05


Tree=312
num_leaves=31
num_cat=0
split_feature=36 37 17 39 37 33 26 25 0 25 25 3 8 26 33 26 40 15 18 29 23 0 3 39 6 33 4 18 33 12
split_gain=0.00445964 0.0454196 0.0846438 0.176818 0.220866 0.282525 0.133963 0.130976 0.117514 0.110828 0.0882856 0.0867664 0.167048 0.177228 0.33465 0.170806 0.15507 0.351856 0.329871 0.280067 0.293646 0.216904 0.357911 0.355612 0.336808 0.352558 0.379419 0.249314 0.265487 0.216708
threshold=0.2761725000000001 -0.016969000000000036 -11.463149999999997 -0.026199999999999776 -0.10141500000000002 -6.4924899999999975e-08 0.16279950000000001 0.041210350000000007 -10.400999999999998 0.032205550000000006 0.059419700000000013 -13.353949999999999 5.3457800000000008e-05 0.18537850000000003 1.2277200000000002e-05 -0.029146949999999994 2.5130600000000003 -0.00019488549999999998 -6.488389999999999 -8.1044199999999979e-05 0.00026497250000000005 3.4977250000000004 -15.732949999999999 -0.23716000000000023 -1.8838049999999998e-07 -5.1594099999999997e-07 -0.11642199999999998 -5.0750049999999991 7.0494250000000013e-07 -4.3823949999999997e-07
decision_type=2 2 2 2 2 2 2 2 2 2 2 2 2 2 2 2 2 2 2 2 2 2 2 2 2 2 2 2 2 2
left_child=1 2 3 6 10 -6 9 8 -7 -1 -5 12 13 16 -15 -14 17 29 -19 -20 21 23 -23 24 -21 -26 -27 -25 -29 -4
right_child=-2 -3 11 4 5 7 -8 -9 -10 -11 -12 -13 15 14 -16 -17 -18 18 19 20 -22 22 -24 27 25 26 -28 28 -30 -31
leaf_value=-0.00061310111665252836 8.0869277507924702e-06 2.9170606479077513e-06 2.7667913132180009e-05 -0.00098796760512414043 0.0086278260580175334 0.00098181805263844913 -0.0035614894539673608 -0.0014125944767147303 0.006277386004803702 0.0035283901113143654 0.002107125525475971 -0.00019908253179480928 -0.0053695354600558466 0.00022933834601038448 0.0082959830947220339 -0.00068104629560984903 -0.00018801453014522453 0.0075750428828455152 -0.0036795309811298339 0.0008582383930191116 0.006632120544628169 0.004792744188480789 -0.002614389446804026 0.0048516183282897272 0.0117520873923786 0.0092885476158699031 0.00045532996422656239 -0.00095548628037338897 0.0050398090685207751 -0.004360812952456234
leaf_weight=84 95596 111756 78 64 21 22 31 20 20 20 36 8279 23 36 20 125 863 21 28 53 26 21 73 28 20 20 31 153 21 44
leaf_count=84 95596 111756 78 64 21 22 31 20 20 20 36 8279 23 36 20 125 863 21 28 53 26 21 73 28 20 20 31 153 21 44
internal_value=0 -6.33478e-06 -0.000106904 0.000696125 0.00170878 0.00361542 -0.000676584 0.00191767 0.00350352 0.00018334 0.000126266 -0.000132535 0.000194631 0.000349212 0.00311028 -0.00140966 0.000244739 0.000850033 0.0014428 0.00117112 0.00147565 0.00115644 -0.000959604 0.00176658 0.00387431 0.00612575 0.00391934 0.000472732 -0.000231916 -0.00155506
internal_weight=0 122037 10281 318 183 83 135 62 42 104 100 9963 1684 1536 56 148 1480 617 495 474 446 420 94 326 124 71 51 202 174 122
internal_count=217633 122037 10281 318 183 83 135 62 42 104 100 9963 1684 1536 56 148 1480 617 495 474 446 420 94 326 124 71 51 202 174 122
shrinkage=0.05


Tree=313
num_leaves=31
num_cat=0
split_feature=30 39 27 2 32 13 16 6 13 39 36 36 16 20 14 36 5 5 21 13 3 26 7 1 39 6 16 27 37 36
split_gain=0.00464093 0.0253094 0.0739864 0.065846 0.0403193 0.124966 0.248321 0.228975 0.114064 0.084443 0.0612139 0.236358 0.0483512 0.054694 0.055904 0.110301 0.0496122 0.062317 0.0471311 0.0417217 0.14677 0.0674205 0.0540355 0.070794 0.061776 0.144758 0.0726987 0.110331 0.15407 0.42497
threshold=0.20270750000000001 0.80790999999999979 0.00070518350000000013 3.0794900000000003 -0.43959349999999991 -1.1710799999999998e-05 0.0006688480000000001 7.2428000000000018e-07 -6.2705699999999993e-06 -0.23716000000000023 0.86046950000000011 -0.25142799999999998 3.3439600000000001e-09 -8.326019999999998 2.5810200000000002e-07 0.86046950000000011 1.3024650000000002e-05 1.2406650000000003e-05 1.3511250000000004 1.2179350000000004e-06 -6.0871149999999989 -0.03981524999999999 1.9508700000000002e-05 8.6177750000000017 0.68409500000000023 3.5548950000000005e-07 0.0011030500000000002 0.053348600000000003 0.40643499999999982 0.327845
decision_type=2 2 2 2 2 2 2 2 2 2 2 2 2 2 2 2 2 2 2 2 2 2 2 2 2 2 2 2 2 2
left_child=-1 2 -2 4 5 6 7 -4 -7 10 11 -8 -10 16 -15 -16 17 -14 -18 -6 22 -22 24 -24 26 -26 27 28 29 -21
right_child=1 -3 3 -5 19 8 9 -9 12 -11 -12 -13 13 14 15 -17 18 -19 -20 20 21 -23 23 -25 25 -27 -28 -29 -30 -31
leaf_value=4.3616612524544151e-06 0.0027679056496075962 8.3790046930339056e-06 0.0077621295712306171 0.0020963192833888963 -0.00015527346784849886 -0.0032404452401221663 -8.318273077228306e-06 0.00092479544036905281 0.0023290970220014888 -0.0021795165705110844 -0.0002073810368225774 0.005838695229962468 -2.2670472024232558e-05 -0.00031076748201207418 0.0050755509384907789 -1.5372240855156079e-06 -0.00050234978325967123 0.002853093213187614 -0.0025502679519404689 0.0025259222152176431 0.00095153760100531921 0.0045238941565621648 -0.00016044823548770715 -0.0025291372237916223 8.402661233940665e-05 -0.0049350121823408706 -3.1288212658794107e-05 -0.0014084468567177768 -2.0535369596279843e-05 -0.00021684119057688051
leaf_weight=160396 23 41358 25 35 9646 28 56 24 22 27 72 25 183 36 20 23 189 21 33 286 28 25 2215 32 51 20 1861 73 521 279
leaf_count=160396 23 41358 25 35 9646 28 56 24 22 27 72 25 183 36 20 23 189 21 33 286 28 25 2215 32 51 20 1861 73 521 279
internal_value=0 -1.22227e-05 -6.58815e-05 -6.9992e-05 -7.47845e-05 0.000274784 0.00125752 0.00441323 -0.000130704 0.000398462 0.000853399 0.00179632 3.45189e-05 -6.54429e-05 0.00114289 0.0023599 -0.000289523 0.000273364 -0.00080677 -9.30103e-05 1.83959e-05 0.00263661 -7.59984e-06 -0.000194181 0.000128035 -0.00132979 0.000162309 0.000473166 0.000599647 0.00117153
internal_weight=0 57237 15879 15856 15821 784 229 49 555 180 153 81 527 505 79 43 426 204 222 15037 5391 53 5338 2247 3091 71 3020 1159 1086 565
internal_count=217633 57237 15879 15856 15821 784 229 49 555 180 153 81 527 505 79 43 426 204 222 15037 5391 53 5338 2247 3091 71 3020 1159 1086 565
shrinkage=0.05


Tree=314
num_leaves=31
num_cat=0
split_feature=23 1 5 36 1 32 15 9 4 9 36 15 11 4 23 14 5 34 4 15 10 4 0 29 0 3 3 25 11 10
split_gain=0.00459945 0.0799025 0.028793 0.0487192 0.1316 0.040323 0.0729672 0.040679 0.036636 0.028928 0.0211542 0.0186599 0.0168526 0.0213174 0.0129021 0.06014 0.088833 0.162127 0.249907 0.0504724 0.0385251 0.0339327 0.105088 0.0287624 0.0268592 0.0326909 0.0143699 0.0105017 0.0876874 0.192568
threshold=-0.062701649999999984 -13.794199999999998 1.2194250000000001e-05 0.57364500000000007 0.72012600000000015 3.8353050000000004 -3.1532699999999995e-06 5.0670100000000008e-05 -0.45249949999999994 -5.7102799999999991e-05 0.12375499999999996 -0.00053704299999999996 0.0019309400000000001 -0.24562099999999998 -0.028182349999999998 4.8443000000000012e-06 2.7325850000000002e-05 -0.55203199999999986 2.9223900000000005 8.913810000000002e-05 -1.0950399999999997e-06 -0.20278049999999997 -7.4136349999999984 -0.00028142099999999996 8.7505950000000023 -14.703099999999997 -7.8588299999999993 -0.96676949999999995 0.030258200000000002 0.00039796900000000002
decision_type=2 2 2 2 2 2 2 2 2 2 2 2 2 2 2 2 2 2 2 2 2 2 2 2 2 2 2 2 2 2
left_child=1 -1 8 4 5 7 -7 11 10 -10 -3 -4 13 -13 15 19 17 18 -17 21 -21 22 -2 -18 25 -24 -27 28 -16 -30
right_child=14 2 3 -5 -6 6 -8 -9 9 -11 -12 12 -14 -15 27 16 23 -19 -20 20 -22 -23 24 -25 -26 26 -28 -29 29 -31
leaf_value=0.0032379293089616111 -0.0036714569246604311 -0.0029216621691739424 -0.0014695072975882796 -0.00018105966331753546 0.0037353580521084953 0.0039328648013179186 0.00010549997501639705 0.0018340634422761817 -0.0019540318289364223 3.6870134383312134e-05 -0.00067485287446205884 -0.0018409828308722353 0.00089461767258139195 -2.6690805564024178e-05 -0.000347899780685939 0.0064101411677741768 -0.002498832209106616 1.1598279117519963e-05 -0.00051729906146014723 -0.00069127812502025026 -0.0036918011142370237 -3.4168802365537193e-05 -0.002063700161743327 -0.00024722076351109363 -0.0018918559157520159 -0.00017781614002793187 0.00099222792671164778 1.0452830988463437e-06 0.003879272452095614 -0.00032612459298740236
leaf_weight=20 28 20 28 327 32 20 33 26 20 208 22 20 35 85 835 30 23 105 23 23 20 391 20 37 26 115 34 214905 41 81
leaf_count=20 28 20 28 327 32 20 33 26 20 208 22 20 35 85 835 30 23 105 23 23 20 391 20 37 26 115 34 214905 41 81
internal_value=0 0.000113051 4.17064e-05 0.000233047 0.000718398 0.000327536 0.00154979 -6.37789e-06 -0.000387747 -0.00013777 -0.00174476 -0.000291208 -5.55483e-05 -0.00037227 -4.67356e-07 -0.000192077 0.000527541 0.00114952 0.00340389 -0.000430855 -0.00208687 -0.00031488 -0.000807068 -0.00111034 -0.000395771 -0.000165604 8.91738e-05 3.09338e-07 -0.000164955 0.00108716
internal_weight=0 896 876 606 279 247 53 194 270 228 42 168 140 105 216737 875 218 158 53 657 43 614 223 60 195 169 149 215862 957 122
internal_count=217633 896 876 606 279 247 53 194 270 228 42 168 140 105 216737 875 218 158 53 657 43 614 223 60 195 169 149 215862 957 122
shrinkage=0.05


Tree=315
num_leaves=31
num_cat=0
split_feature=39 34 15 36 3 26 18 26 36 19 27 5 3 34 36 36 11 3 5 4 18 27 39 4 10 17 18 37 19 16
split_gain=0.00448047 0.019339 0.0749554 0.131524 0.0165749 0.107967 0.0929824 0.068785 0.102877 0.143687 0.21504 0.10623 0.0274581 0.0781796 0.116074 0.215881 0.0812131 0.022759 0.166556 0.0552528 0.0773617 0.0371065 0.0227411 0.0210627 0.0208452 0.0189446 0.0164602 0.0393841 0.216234 0.150266
threshold=-2.1087049999999987 -1.0090899999999998 0.00082871750000000014 -0.60254799999999997 -18.015749999999997 0.24911750000000002 5.7588600000000012 -0.0070766649999999993 0.20129000000000011 1.9437700000000002 0.0019666000000000002 1.2959500000000002e-05 -17.495099999999997 -0.0016790549999999998 -0.079468000000000025 0.30085850000000008 0.0039264450000000015 -17.304849999999998 2.4191200000000003e-05 0.095552850000000009 2.4716600000000004 0.0053263050000000008 -0.41630000000000006 0.92648250000000021 -4.5687299999999992e-05 0.53247600000000006 13.390900000000002 0.51323350000000023 2.4316000000000004 8.2724850000000008e-05
decision_type=2 2 2 2 2 2 2 2 2 2 2 2 2 2 2 2 2 2 2 2 2 2 2 2 2 2 2 2 2 2
left_child=1 2 -1 -4 5 6 7 24 9 10 11 22 13 14 25 -16 -15 18 19 20 -14 -21 -9 -18 -2 -6 -19 28 29 -28
right_child=4 -3 3 -5 12 -7 -8 8 -10 -11 -12 -13 17 16 15 -17 23 26 -20 21 -22 -23 -24 -25 -26 -27 27 -29 -30 -31
leaf_value=-0.00011982716234554582 0.0009332062353461794 1.1274198888940039e-05 -0.00043662616517394783 0.0052975658350624148 0.0016018856128972574 -0.0032035394103288473 0.0033664375157408917 0.0017334965880893703 -0.00038033086995436057 -0.00066381112344162025 0.0072340156594734827 0.0046611962505267003 -0.00033161188397128641 0.0031531345512485136 -0.0058930653505094889 -0.00023653495455447056 3.2787142487050556e-05 -6.3078193154618141e-06 0.0045250252668705328 -0.00031361586911872214 0.0035280959124793301 -0.002902009124773031 -0.00033689463788151548 -0.001499912603860678 -0.00075852778814792512 -0.00054832189751323316 0.00099669650399076865 -5.5697608311510375e-05 0.0052782043883449993 -0.00031157544213284111
leaf_weight=103 21 51314 20 20 21 21 26 21 106 45 21 20 37 20 31 37 132 163191 23 45 20 20 36 27 137 20 390 1184 22 502
leaf_count=103 21 51314 20 20 21 21 26 21 106 45 21 20 37 20 31 37 132 163191 23 45 20 20 36 27 137 20 390 1184 22 502
internal_value=0 1.28923e-05 0.000593543 0.00243047 -3.99216e-06 0.000297707 0.000467513 0.000282324 0.000800108 0.00167512 0.00274912 0.00152596 -4.81867e-06 -0.000492607 -0.00154829 -0.00281525 0.00015024 -3.96949e-06 0.000622172 -0.000113612 0.00102267 -0.00111004 0.000425881 -0.000227483 -0.000533677 0.000553004 -4.51878e-06 0.00013464 0.000381205 0.000260427
internal_weight=0 51457 143 40 166176 454 433 407 249 143 98 77 165722 288 109 68 179 165434 145 122 57 65 57 159 158 41 165289 2098 914 892
internal_count=217633 51457 143 40 166176 454 433 407 249 143 98 77 165722 288 109 68 179 165434 145 122 57 65 57 159 158 41 165289 2098 914 892
shrinkage=0.05


Tree=316
num_leaves=31
num_cat=0
split_feature=24 4 9 10 15 3 10 10 9 6 21 36 13 11 32 9 10 13 0 36 2 9 4 30 18 13 31 13 18 0
split_gain=0.00456579 0.0186427 0.0514424 0.103151 0.0388636 0.081608 0.0335019 0.0425484 0.0236043 0.0264752 0.0208973 0.0438998 0.0205176 0.158296 0.0473871 0.0223606 0.0192569 0.0178148 0.0169053 0.013261 0.0174054 0.0131902 0.0212847 0.0117831 0.0105709 0.0128783 0.0103258 0.0271826 0.0511063 0.230442
threshold=91.481750000000019 5.1455300000000008 -0.00035055549999999991 0.00035752750000000007 0.006463130000000001 -11.746199999999998 0.00010299250000000001 9.4595700000000006e-05 -5.9599849999999995e-05 1.1384700000000002e-06 0.97666950000000008 0.20129000000000011 6.5238050000000013e-06 0.0009049345000000001 1.8680450000000002 4.247685000000001e-05 3.0213650000000005e-05 3.9398900000000012e-06 5.3973250000000013 0.43531000000000003 -2.3472099999999996 6.7582950000000017e-05 0.92648250000000021 14.135600000000002 14.999250000000002 -6.2695799999999989e-07 -0.27384599999999998 9.4242300000000011e-09 18.392150000000004 4.648200000000001
decision_type=2 2 2 2 2 2 2 2 2 2 2 2 2 2 2 2 2 2 2 2 2 2 2 2 2 2 2 2 2 2
left_child=26 2 3 -2 6 -6 7 8 9 19 11 -8 17 -14 -15 -16 -3 21 -17 20 -4 22 24 -13 -10 -26 27 28 -1 -30
right_child=1 16 4 -5 5 -7 10 -9 12 -11 -12 23 13 14 15 18 -18 -19 -20 -21 -22 -23 -24 -25 25 -27 -28 -29 29 -31
leaf_value=0.0001374389069455213 0.0038398122584621889 -0.0021554680651752279 -0.00048615190167123831 -0.00041807859546900018 0.003655477246779594 -0.0002665701407952131 -0.0026007222498241715 0.0022235219724007038 3.5734382072538389e-05 -0.0019382752312915672 -0.00022105037663910573 0.00029125845943906765 0.0041256758116651323 0.0012508034861821217 -0.0025480561715085061 0.00052743164807907302 -0.00039050679543459627 -0.0012998880344093778 -0.001528371497988701 -0.00099037001101107049 0.0013727429442224094 -0.00079916766175174101 0.0015583993939106309 -0.0012862949201371521 -0.0014761360109938929 -0.00022868567164308239 -1.1127101370584664e-06 -4.3975732077713519e-05 0.00014026722846597557 0.0060923392398399305
leaf_weight=2557 25 20 34 33 21 36 39 20 684 34 77 29 25 30 20 20 68 30 20 41 20 57 21 20 24 150 210723 2648 87 20
leaf_count=2557 25 20 34 33 21 36 39 20 684 34 77 29 25 30 20 20 68 30 20 41 20 57 21 20 24 150 210723 2648 87 20
internal_value=0 -8.42052e-05 -4.29776e-05 0.00141722 -0.000101305 0.00117839 -0.000153594 -6.38495e-05 -0.000101657 -0.000740937 -0.000822597 -0.00134895 -2.53696e-05 0.000605966 -0.000371731 -0.001183 -0.000791634 -0.000100529 -0.00050047 -0.000312416 0.000202328 -6.20876e-05 -1.42906e-05 -0.000352641 -5.2783e-05 -0.000400748 6.22862e-07 6.94717e-05 0.000182238 0.0012528
internal_weight=0 1598 1510 58 1452 57 1395 1230 1210 129 165 88 1081 115 90 60 88 966 40 95 54 936 879 49 858 174 216035 5312 2664 107
internal_count=217633 1598 1510 58 1452 57 1395 1230 1210 129 165 88 1081 115 90 60 88 966 40 95 54 936 879 49 858 174 216035 5312 2664 107
shrinkage=0.05


Tree=317
num_leaves=31
num_cat=0
split_feature=31 3 3 1 36 36 6 12 12 36 29 4 36 4 36 21 17 12 30 17 0 11 7 5 0 0 10 3 0 0
split_gain=0.00449425 0.0242909 0.0766686 0.136334 0.0198009 0.0873795 0.0586655 0.0181175 0.0482797 0.018018 0.0122599 0.0684579 0.172193 0.217403 0.3489 0.0108845 0.0105396 0.0132543 0.0108086 0.00931051 0.15518 0.265045 0.067638 0.185733 0.0382691 0.153891 0.168155 0.150289 0.035956 0.0341598
threshold=-4.3203749999999994 -14.267049999999999 -16.131449999999997 2.1386600000000002 -0.17527649999999997 0.20129000000000011 3.8272700000000001e-07 -5.5152549999999989e-06 -1.9150249999999998e-05 -0.3819765 0.0031288150000000005 -0.22659549999999998 0.91906500000000002 -2.2787549999999999 -1.0422104999999997 -1.4574199999999997 -6.2436999999999996 -3.9387549999999988e-06 18.825800000000005 16.002400000000005 12.423150000000001 7.3840400000000026e-05 6.4682750000000014e-05 3.8309350000000006e-05 9.5649650000000026 8.3974050000000009 7.7496350000000019e-06 -6.5484699999999991 10.937750000000003 5.3241200000000006
decision_type=2 2 2 2 2 2 2 2 2 2 2 2 2 2 2 2 2 2 2 2 2 2 2 2 2 2 2 2 2 2
left_child=1 2 -1 -4 7 6 -6 8 -3 -9 19 12 13 -12 -15 -14 17 -7 -18 -2 22 -22 24 -24 25 29 -27 -26 -29 -21
right_child=10 4 3 -5 5 16 -8 9 -10 -11 11 -13 15 14 -16 -17 18 -19 -20 20 21 -23 23 -25 27 26 -28 28 -30 -31
leaf_value=-0.0010932371993328924 -9.5710875276853279e-07 -0.00015347829659979407 0.0041084675789655493 -0.00094747337886171099 -0.00028710446786135658 -0.0017207137178047562 -0.0037604700823008434 -3.2084298446437844e-05 0.0027604099630566671 -0.001539009991323664 -0.00021842340372839114 -0.00012630478931843628 -0.001625108988351982 0.00049297739143102347 0.0093004479720864616 -0.00025193476338303771 0.0010343906194902957 -0.0002798005534115666 -8.1683031959716866e-05 -0.00011922235109532002 -0.00066695137587697087 0.0061531233347653022 0.0042689923955053517 -0.00085838083694780897 0.0041784798336448143 0.00024531119876052758 -0.0056238043699032951 0.00085387204246217168 -0.0020448785597261083 0.00064197498189821293
leaf_weight=37 214829 44 30 24 20 20 31 358 21 21 36 344 27 22 23 31 25 79 164 1030 29 28 33 38 25 23 26 20 23 172
leaf_count=37 214829 44 30 24 20 20 31 358 21 21 36 344 27 22 23 31 25 79 164 1030 29 28 33 38 25 23 26 20 23 172
internal_value=0 -0.000113154 0.000660054 0.00186138 -0.000203016 -0.000490771 -0.00239837 1.66896e-05 0.000787932 -0.000115582 4.5625e-07 0.000252082 0.00118852 0.00267769 0.00499457 -0.000891171 -0.000152968 -0.000570894 6.59458e-05 -1.05696e-07 0.000126299 0.00268326 2.14456e-05 0.00152476 -5.9476e-05 -0.000122267 -0.00286891 0.00109569 -0.000696622 -1.02989e-05
internal_weight=0 874 91 54 783 339 51 444 65 379 216759 483 139 81 45 58 288 99 189 216276 1447 57 1390 71 1319 1251 49 68 43 1202
internal_count=217633 874 91 54 783 339 51 444 65 379 216759 483 139 81 45 58 288 99 189 216276 1447 57 1390 71 1319 1251 49 68 43 1202
shrinkage=0.05


Tree=318
num_leaves=31
num_cat=0
split_feature=8 36 21 15 12 28 13 36 29 32 13 31 25 23 29 18 36 36 1 30 28 10 34 36 36 30 30 25 22 11
split_gain=0.00447366 0.0206045 0.0172661 0.0392845 0.0391265 0.0235687 0.15193 0.244074 0.164778 0.0700068 0.036564 0.0523932 0.0272289 0.0197718 0.0289392 0.0163288 0.0539172 0.244752 0.233038 0.0849841 0.136031 0.156306 0.0937797 0.139083 0.0727537 0.295995 0.150941 0.124745 0.208924 0.194227
threshold=1.6290050000000002e-05 5.2590600000000007 1.3511250000000004 0.00034847100000000005 2.8964050000000007e-06 3.7022150000000003 6.5238050000000013e-06 0.327845 0.00058287550000000012 -0.60180299999999987 5.1445100000000014e-07 -0.35970249999999998 -0.25901299999999999 -0.0019040299999999999 -0.00020540699999999998 6.8989050000000001 -0.079468000000000025 -0.027530000000000051 8.375135000000002 7.9426800000000002 -3.4807049999999995 1.7245800000000004e-05 -0.032169599999999993 0.46240350000000002 0.12375499999999996 0.13562800000000003 0.026407200000000002 0.0044288650000000014 0.22169850000000002 0.00014136750000000003
decision_type=2 2 2 2 2 2 2 2 2 2 2 2 2 2 2 2 2 2 2 2 2 2 2 2 2 2 2 2 2 2
left_child=1 2 5 13 -5 15 9 8 -8 -7 12 -12 -11 -4 -15 -1 -17 18 -18 20 21 -19 23 -22 25 26 27 -24 -29 -30
right_child=-2 -3 3 4 -6 6 7 -9 -10 10 11 -13 -14 14 -16 16 17 19 -20 -21 22 -23 24 -25 -26 -27 -28 28 29 -31
leaf_value=-3.9866956167601448e-06 2.8327303544600484e-06 0.0013624639255508724 0.00019276194847923673 -0.0030731121227145198 -0.00010605023771859123 0.0023336886555106111 0.007211475202779251 -0.00030127983081224815 0.0013820692494680936 -0.00017289066426088613 0.00041534174838902394 -0.0027543585849571176 0.0017244186613243073 -0.00024037597705636859 -0.0021705320476321506 1.007800328058763e-05 -0.00085693811362568613 -0.00027230506379122813 -0.0058146584882419316 0.002709444168198388 0.0052145424851914868 -0.0059498718753192492 0.00039037905299625457 -0.00016836334873611728 3.0232236523916705e-05 -0.0049594985794484325 0.0011946301765370347 -0.0065243868107791071 -0.00371448636130061 -9.0771421491808729e-05
leaf_weight=23397 188240 27 162 25 20 28 27 53 22 347 22 32 20 87 25 3442 63 27 38 25 20 22 115 30 964 38 115 20 52 128
leaf_count=23397 188240 27 162 25 20 28 27 53 22 347 22 32 20 87 25 3442 63 27 38 25 20 22 115 30 964 38 115 20 52 128
internal_value=0 -1.81415e-05 -1.94109e-05 -0.000385258 -0.00175442 -1.53931e-05 0.000308501 0.00205047 0.00459419 -8.72235e-05 -0.000248234 -0.001463 -6.94951e-05 -0.000160396 -0.000671214 -2.16559e-05 -0.000102732 -0.000337066 -0.00272222 -0.000182246 -0.000229465 -0.00282142 -0.000143766 0.0019848 -0.000218087 -0.000729583 -0.000355776 -0.000921797 -0.0016763 -0.00113762
internal_weight=0 29393 29366 319 45 29047 551 102 49 449 421 54 367 274 112 28496 5099 1657 101 1556 1531 49 1482 50 1432 468 430 315 200 180
internal_count=217633 29393 29366 319 45 29047 551 102 49 449 421 54 367 274 112 28496 5099 1657 101 1556 1531 49 1482 50 1432 468 430 315 200 180
shrinkage=0.05


Tree=319
num_leaves=31
num_cat=0
split_feature=30 39 27 2 17 3 0 19 36 1 39 0 36 3 18 25 4 1 17 39 23 36 1 17 36 36 39 18 18 14
split_gain=0.00439268 0.02326 0.0650062 0.0598823 0.0409208 0.136049 0.413239 0.235959 0.269861 0.492397 0.100655 0.294073 0.246781 0.0381578 0.110704 0.223352 0.229844 0.178308 0.0874898 0.430773 0.0885763 0.121149 0.0819006 0.0624875 0.0639325 0.387978 0.389155 0.158807 0.0585335 0.0478686
threshold=0.20270750000000001 0.80790999999999979 0.00070518350000000013 3.0794900000000003 7.2203350000000013 -11.394249999999998 3.3228650000000006 -0.28109449999999997 0.010257000000000018 -1.0953499999999996 1.0196000000000003 6.733010000000001 0.039429999999999972 -15.396099999999999 5.2037050000000002 0.030456700000000003 -0.064768799999999987 3.3893400000000002 -5.2467099999999993 2.4693750000000008 -0.00062257399999999998 0.077348000000000056 -4.5868149999999988 5.3163050000000007 -0.32870999999999989 0.24966499999999994 2.0800550000000007 -4.9296999999999995 -1.7478799999999997 5.6453850000000008e-06
decision_type=2 2 2 2 2 2 2 2 2 2 2 2 2 2 2 2 2 2 2 2 2 2 2 2 2 2 2 2 2 2
left_child=-1 2 -2 -4 13 6 -6 -8 9 -9 11 -7 -13 14 18 -16 17 -17 19 -3 21 -20 -22 24 -24 26 27 -26 -21 -25
right_child=1 4 3 -5 5 10 7 8 -10 -11 -12 12 -14 -15 15 16 -18 -19 20 28 22 -23 23 29 25 -27 -28 -29 -30 -31
leaf_value=4.2434017855298588e-06 0.002592917142496647 0.0062170211057592604 -7.1755036559786035e-05 0.0019986967538092619 -0.00018997513010476016 -0.00015373886434992025 0.0072442948231127959 -0.0010361103880859447 -0.0022659189839468281 0.008539256958634913 2.0677056666629988e-05 0.0088764848972323323 0.0013562397340744308 2.6716121704618816e-07 0.0046186924735648616 -0.00082313309124610137 -0.0032391137261381826 0.0054856629069295849 -0.0055880706171765708 -0.0032909218933637021 0.0017234820396735909 -0.00027870310666251247 -0.00016094008927005634 0.0025383887968088788 0.0015635559964246805 -0.000402214836979538 -0.0085507107163721226 -0.0040902863217289216 1.0494411730303847e-05 -0.00071527445818446726
leaf_weight=160396 23 27 15821 35 199 97 32 25 24 29 3381 20 24 36537 33 24 36 21 21 25 38 22 256 26 23 330 32 27 29 20
leaf_count=160396 23 27 15821 35 199 97 32 25 24 29 3381 20 24 36537 33 24 36 21 21 25 38 22 256 26 23 330 32 27 29 20
internal_value=0 -1.18913e-05 -6.33318e-05 -6.71848e-05 7.8587e-06 0.000163519 0.00116947 0.00362883 0.00214556 0.00410622 7.52629e-05 0.00138416 0.00477453 -8.03213e-06 -0.000314326 0.00115134 -0.000261288 0.00212097 -0.000505063 0.00106038 -0.000664561 -0.00287165 -0.000538358 -0.000658736 -0.000781482 -0.00116706 -0.00424511 -0.00148952 -0.00151794 0.00112375
internal_weight=0 57237 15879 15856 41358 3831 309 110 78 54 3522 141 44 37527 990 114 81 45 876 81 795 43 752 714 668 412 82 50 54 46
internal_count=217633 57237 15879 15856 41358 3831 309 110 78 54 3522 141 44 37527 990 114 81 45 876 81 795 43 752 714 668 412 82 50 54 46
shrinkage=0.05


Tree=320
num_leaves=31
num_cat=0
split_feature=9 17 2 10 35 24 8 36 36 19 30 21 3 34 17 5 25 10 17 0 13 3 9 9 12 33 39 3 36 19
split_gain=0.00442205 0.0185748 0.0879684 0.0281683 0.0308409 0.0245532 0.0732347 0.149486 0.367061 0.0886517 0.038491 0.0192805 0.0907966 0.0241382 0.019183 0.0176388 0.0464205 0.0301784 0.011422 0.0542972 0.144992 0.112635 0.0541116 0.0729891 0.119141 0.0289987 0.0233803 0.0629087 0.0263062 0.220119
threshold=-0.000119502 -19.608449999999998 2.6388200000000004 0.00031977250000000008 0.12384550000000001 44.65205000000001 2.3297600000000002e-05 -0.40968649999999995 0.9482394999999999 2.7036350000000007 99.159650000000013 1.5291850000000002 -15.624449999999998 -1.0090899999999998 -14.223749999999997 2.6276900000000002e-05 1.9114100000000003 -2.0792399999999998e-05 -16.050999999999998 -9.9342699999999997 -2.6787349999999996e-08 -5.1152499999999987 -8.8703799999999996e-05 -6.4452949999999984e-05 2.0938650000000004e-08 3.6272750000000004e-06 -3.7428349999999995 -10.547549999999998 0.10022550000000004 0.7461000000000001
decision_type=2 2 2 2 2 2 2 2 2 2 2 2 2 2 2 2 2 2 2 2 2 2 2 2 2 2 2 2 2 2
left_child=1 2 3 4 -1 10 7 -7 -9 14 11 -3 -13 -14 -8 17 -17 -16 19 20 21 25 -21 24 -24 -2 27 -25 -28 -30
right_child=18 5 -4 -5 -6 6 9 8 -10 -11 -12 12 13 -15 15 16 -18 -19 -20 22 -22 -23 23 26 -26 -27 28 -29 29 -31
leaf_value=-0.00070088710509244936 0.0012076264009963434 1.4321533973930023e-05 0.0020368903811759085 -0.00016926932822181181 -0.0029794989364525081 -0.00036797619270925811 0.0009548674240028737 0.0087239561916794637 -0.0007407335530886139 0.0029616250764229338 -0.002177434258701396 0.0037224598493776281 -0.00057025091131247894 0.0014441253588302061 -0.0021794170029461385 -0.00028064850664354617 0.0020860518775477361 -0.00030901780769946891 -3.8228654991864571e-06 -0.0017969841925570601 0.0045242388136684892 0.0036270193219284661 -6.1015446132434344e-05 0.0002197990449631687 0.0049553081873455092 -0.00090403739270894035 -0.0003023404832484088 0.0031408992291835601 -0.00012282488598618316 0.00401180167399746
leaf_weight=27 21 27050 25 35 33 42 37 20 21 25 20 20 58 20 25 102 26 157 188378 39 25 21 29 235 20 72 594 20 401 35
leaf_count=27 21 27050 25 35 33 42 37 20 21 25 20 20 58 20 25 102 26 157 188378 39 25 21 29 235 20 72 594 20 401 35
internal_value=0 1.86464e-05 -0.00060208 -0.00129655 -0.00195412 2.13429e-05 0.000385603 0.00172854 0.00387619 8.59696e-05 1.52424e-05 1.68578e-05 0.00071691 -5.37442e-05 -0.00012121 -0.000249645 0.000200088 -0.000565941 -2.72424e-06 0.000134152 0.00107585 0.000319622 3.88166e-05 9.24869e-05 0.00198646 -0.00042721 2.02652e-05 0.000448905 -8.58543e-05 0.000209083
internal_weight=0 27743 120 95 60 27623 455 83 41 372 27168 27148 98 78 347 310 128 182 189890 1512 139 114 1373 1334 49 93 1285 255 1030 436
internal_count=217633 27743 120 95 60 27623 455 83 41 372 27168 27148 98 78 347 310 128 182 189890 1512 139 114 1373 1334 49 93 1285 255 1030 436
shrinkage=0.05


Tree=321
num_leaves=31
num_cat=0
split_feature=24 2 0 36 9 40 39 36 36 15 13 28 15 2 8 13 19 36 39 18 32 14 7 36 0 27 17 22 2 10
split_gain=0.00441863 0.0175654 0.0446009 0.0619278 0.0386059 0.0184791 0.0332318 0.0160305 0.0299097 0.0127781 0.04507 0.103211 0.0629273 0.0519262 0.0309646 0.0243229 0.0219059 0.022678 0.0171869 0.0152334 0.0282316 0.0228991 0.0144297 0.0153222 0.0107263 0.0102435 0.0094056 0.0381367 0.0502535 0.0389844
threshold=91.481750000000019 1.9944900000000001 -4.5705949999999991 1.190825 -0.00035055549999999991 10.167125 -8.4950449999999993 0.14973499999999998 0.65575499999999998 -0.00078172349999999986 6.5238050000000013e-06 20.036400000000004 0.00025725050000000005 1.3921450000000002 3.1709050000000001e-05 3.9398900000000012e-06 -0.14156099999999996 0.12375499999999996 -0.36707999999999957 14.999250000000002 -2.2564299999999995 -4.5397049999999996e-08 4.7675400000000008e-05 -0.80044776999999989 -12.520849999999998 0.12582950000000004 -14.223749999999997 0.33580650000000006 0.56975150000000008 -5.3688449999999996e-05
decision_type=2 2 2 2 2 2 2 2 2 2 2 2 2 2 2 2 2 2 2 2 2 2 2 2 2 2 2 2 2 2
left_child=26 4 7 -4 -2 6 -6 -3 -9 16 15 13 -13 14 -12 19 17 -8 -19 -11 -21 -22 23 -16 -10 -18 27 28 -1 -29
right_child=1 2 3 -5 5 -7 9 8 24 10 11 12 -14 -15 22 -17 25 18 -20 20 21 -23 -24 -25 -26 -27 -28 29 -30 -31
leaf_value=-5.1624783174536961e-05 0.0015853815801263509 0.0010236986144445837 -0.0039597223837336062 -0.0001554795860378679 0.0015385883738583124 -0.0014573103497715911 -0.0022913292041406609 -0.0016730130301285126 0.00097995368877573956 9.3220245802614609e-06 0.00087480930628121973 0.0049384220154024662 0.00097208445309661341 0.0022899756301326723 -0.00044360642059473323 -0.0014639113081263049 0.0010852949315449222 0.00038850566713706405 -0.0014504292565106882 -0.0022749191409093326 -0.0016838135675061494 -4.3617709858548162e-05 -0.00011388443254514697 -0.0022844134758298216 -0.00020079385000166904 -0.00024621092486016167 -4.211478594378011e-07 0.0010701928984088499 0.0034113682414590586 2.7878780164516407e-05
leaf_weight=22 37 25 20 23 33 23 26 34 22 681 35 20 20 22 20 34 20 27 24 20 25 143 33 26 153 52 213934 94 20 1965
leaf_count=22 37 25 20 23 33 23 26 34 22 681 35 20 20 22 20 34 20 27 24 20 25 143 33 26 153 52 213934 94 20 1965
internal_value=0 -8.28371e-05 -0.000444848 -0.00192489 -6.92715e-06 -5.28114e-05 -2.71941e-05 -0.000172874 -0.000316004 -6.92713e-05 -9.33539e-06 0.00072263 0.00295525 6.59759e-05 -0.000363217 -0.000152 -0.000503304 -0.00108955 -0.000476875 -0.000100671 -0.000499101 -0.000287694 -0.00091171 -0.00148406 -5.2357e-05 0.000123652 6.12742e-07 0.000105888 0.00159742 7.54638e-05
internal_weight=0 1598 277 43 1321 1284 1261 234 209 1228 1079 176 40 136 114 903 149 77 51 869 188 168 79 46 175 72 216035 2101 42 2059
internal_count=217633 1598 277 43 1321 1284 1261 234 209 1228 1079 176 40 136 114 903 149 77 51 869 188 168 79 46 175 72 216035 2101 42 2059
shrinkage=0.05


Tree=322
num_leaves=31
num_cat=0
split_feature=40 40 11 32 36 36 36 36 3 28 33 4 21 3 36 36 0 33 12 27 16 18 23 14 11 9 2 17 36 24
split_gain=0.00430652 0.0447465 0.0927066 0.100525 0.0770579 0.119007 0.835273 0.157147 0.379167 0.116082 0.121434 0.106004 0.43542 0.0973247 0.0886138 0.180834 1.33123 0.0917975 0.270328 0.0749043 0.0698699 0.159925 0.125101 0.17894 0.0949639 0.191547 0.0716858 0.273093 0.06985 0.0676023
threshold=-0.20255000000000042 0.086360000000000006 0.00083188600000000011 0.0055718750000000013 -0.17527649999999997 0.14973499999999998 0.077348000000000056 0.039429999999999972 -7.1133149999999992 0.29634600000000005 -4.8108399999999992e-07 0.21856850000000003 0.17307150000000002 -5.8879799999999989 -0.079468000000000025 -0.040859549999999939 -3.1104599999999993 1.3687350000000002e-07 -1.2418349999999998e-08 0.00070518350000000013 7.0271150000000011e-06 7.1162100000000006 0.00010974150000000001 3.0701000000000005e-08 0.004255295000000001 -8.0872649999999985e-05 -2.7703699999999993 -5.8330499999999992 0.02582950000000005 1.4078700000000002
decision_type=2 2 2 2 2 2 2 2 2 2 2 2 2 2 2 2 2 2 2 2 2 2 2 2 2 2 2 2 2 2
left_child=-1 2 3 4 -2 6 7 9 19 10 -6 13 -13 14 -12 16 -16 28 -19 -9 21 22 24 -24 25 -4 27 -22 -17 -5
right_child=1 -3 20 29 5 -7 -8 8 -10 -11 11 12 -14 -15 15 17 -18 18 -20 -21 26 -23 23 -25 -26 -27 -28 -29 -30 -31
leaf_value=-6.0096646330924377e-06 -7.728543531708349e-05 -3.0110105254956977e-06 -0.0050483873162011153 -0.0032181635920313146 0.0037871355342320857 -5.7184946428184006e-05 0.0094787768589762542 0.0077121174470944839 -0.0019667700295730567 -0.0033728075947146866 -0.002413191012951925 -0.0076851709047332413 0.0013503878237921185 0.0039377782662631941 -0.0068268814966792159 0.00040942490130412267 0.0089347174579932076 -0.0062884557095821943 0.00028249119196617462 0.0035861370495033707 0.0065309322309258276 -0.0042069129638063413 -0.00069976452957500144 -0.0062334991518929158 0.002632792481232779 -1.7576362731644831e-06 -6.1705151255584615e-05 -2.6759350702991769e-05 0.0017436047311753548 -0.00032026771268152989
leaf_weight=125795 1082 83204 20 21 27 1071 26 22 26 20 27 20 40 20 21 2567 37 20 72 22 20 30 48 21 30 314 2348 77 102 483
leaf_count=125795 1082 83204 20 21 27 1071 26 22 26 20 27 20 40 20 21 2567 37 20 72 22 20 30 48 21 30 314 2348 77 102 483
internal_value=0 8.23173e-06 0.000116576 0.000233335 0.000298419 0.000396611 0.000554973 0.000478727 0.00282037 0.000423592 0.000449304 0.000418504 -0.00166147 0.000462049 0.000437623 0.000464928 0.00322793 0.000406886 -0.00114598 0.00564913 -0.000113329 -0.000676534 -0.000431935 -0.00238394 -6.19117e-05 -0.000303951 -6.6771e-06 0.00132534 0.000460413 -0.000441013
internal_weight=0 91838 8634 5726 5222 4140 3069 3043 70 2973 2953 2926 60 2866 2846 2819 58 2761 92 44 2908 463 433 69 364 334 2445 97 2669 504
internal_count=217633 91838 8634 5726 5222 4140 3069 3043 70 2973 2953 2926 60 2866 2846 2819 58 2761 92 44 2908 463 433 69 364 334 2445 97 2669 504
shrinkage=0.05


Tree=323
num_leaves=31
num_cat=0
split_feature=36 37 2 17 1 26 5 39 36 18 26 23 4 16 18 1 23 5 14 15 4 15 17 39 39 39 6 40 21 10
split_gain=0.00468262 0.0439993 0.0775212 0.0739389 0.222321 0.201499 0.230411 0.131883 0.12836 0.138269 0.120853 0.0871114 0.277327 0.27194 0.357289 0.22116 0.232387 0.158435 0.153533 0.200413 0.221715 0.175523 0.148969 0.147706 0.143862 0.149616 0.148253 0.109848 0.172959 0.0959728
threshold=0.2761725000000001 -0.016969000000000036 3.0794900000000003 -11.463149999999997 4.0814950000000012 0.21193400000000004 1.6628950000000003e-05 0.80790999999999979 0.14973499999999998 -4.2610949999999992 0.16279950000000001 0.00052757850000000018 -0.13131799999999996 1.7135300000000002e-05 7.2928950000000006 3.7283150000000007 0.0012358850000000002 1.4907900000000002e-05 -1.1656349999999997e-05 -0.00078172349999999986 -0.88881949999999998 -9.7133699999999988e-05 16.002400000000005 0.27381999999999979 2.4693750000000008 -0.82558500000000012 -1.0441299999999996e-06 -0.39412499999999978 0.39402150000000008 1.2472550000000001e-05
decision_type=2 2 2 2 2 2 2 2 2 2 2 2 2 2 2 2 2 2 2 2 2 2 2 2 2 2 2 2 2 2
left_child=1 3 -3 4 7 6 -6 10 9 -9 -1 22 13 14 17 18 -17 23 -15 -20 -21 -22 -5 -13 25 26 -14 29 -29 -27
right_child=-2 2 -4 11 5 -7 -8 8 -10 -11 -12 12 24 15 -16 16 -18 -19 19 20 21 -23 -24 -25 -26 27 -28 28 -30 -31
leaf_value=-0.00014855499889669118 8.2866309454034421e-06 3.2122951829628281e-06 -0.0028998818251041131 -9.9344491279991924e-05 0.0088294683045453647 -0.00079921022232156249 0.0014143237656389831 0.0060284370569127568 -0.0006675398181472795 0.0008756064088083804 -0.0034613286963264857 0.0060018414192018104 0.0019408756128327428 -0.0019933731800544289 0.0085397566336074052 -0.0073066624352664117 -0.0006882655288791284 -0.0021884519461309536 0.005243787739443808 -0.0041268645539689298 0.0056025658734142787 0.00027401633423698301 0.003168874820195405 -2.0969980618073825e-06 -0.0002689038089821351 -0.00077667243647199403 -0.0019345655750172834 -0.0071416053403767629 -0.0016306383064754 -0.0040317130395963506
leaf_weight=129 95596 111733 23 9167 22 20 20 23 39 30 35 20 34 48 21 21 36 24 26 22 20 68 35 21 158 54 90 35 24 39
leaf_count=129 95596 111733 23 9167 22 20 20 23 39 30 35 20 34 48 21 21 36 24 26 22 20 68 35 21 158 54 90 35 24 39
internal_value=0 -6.49122e-06 2.61482e-06 -0.000105475 0.000645059 0.00333146 0.00529845 -5.55433e-06 0.00150965 0.00311174 -0.000855549 -0.000129431 -0.000643547 0.000456077 0.00286982 -0.000405259 -0.00312662 0.001038 0.000437772 0.00129582 0.000362667 0.00148505 -8.69138e-05 0.00292665 -0.00147207 -0.00216083 -0.000871945 -0.00321229 -0.00489986 -0.00214169
internal_weight=0 122037 111756 10281 318 62 42 256 92 53 164 9963 761 327 86 241 57 65 184 136 110 88 9202 41 434 276 124 152 59 93
internal_count=217633 122037 111756 10281 318 62 42 256 92 53 164 9963 761 327 86 241 57 65 184 136 110 88 9202 41 434 276 124 152 59 93
shrinkage=0.05


Tree=324
num_leaves=31
num_cat=0
split_feature=31 12 37 36 24 39 39 31 16 12 36 24 9 36 7 10 17 3 11 14 14 10 32 28 39 39 12 12 21 15
split_gain=0.0043014 0.0738873 0.0739256 0.652316 0.429108 0.559516 0.564016 0.372524 0.346779 0.869495 0.410722 0.287328 0.304645 0.264056 0.215348 0.237975 0.223544 0.180634 0.175139 0.359152 0.197672 0.143555 0.138028 0.136235 0.157742 0.399236 0.967583 1.12374 0.548414 0.303474
threshold=1.8741500000000003e-05 -3.1922299999999996e-08 0.19792950000000006 0.10022550000000004 0.77166350000000017 1.8568299999999998 -1.7081299999999999 -0.0054261899999999983 0.00042279750000000005 1.9390250000000003e-07 -0.040859549999999939 0.80528400000000011 2.2232350000000001e-05 0.039429999999999972 2.8400100000000003e-05 -2.9523999999999997e-05 -2.2833199999999994 -9.4732099999999981 0.00014912150000000003 8.2225800000000014e-08 1.9012050000000005e-07 -1.7544299999999997e-05 -0.0071753399999999997 -0.0010970549999999998 0.60048999999999852 -0.88227999999999918 1.0000000180025095e-35 1.7761700000000003e-06 -0.099479999999999985 1.4722200000000002e-07
decision_type=2 2 2 2 2 2 2 2 2 2 2 2 2 2 2 2 2 2 2 2 2 2 2 2 2 2 2 2 2 2
left_child=1 -1 3 4 22 6 -6 8 9 13 -11 -9 18 17 16 -16 -10 -8 19 -13 -20 -18 -3 24 25 -24 29 28 -28 -27
right_child=-2 2 -4 -5 5 -7 7 11 14 10 -12 12 -14 -15 15 -17 21 -19 20 -21 -22 -23 23 -25 -26 26 27 -29 -30 -31
leaf_value=3.7353569492051017e-05 7.1268492659273727e-06 0.0036912204240382254 8.132974134396643e-06 -4.3755298711202714e-06 -0.00047783062022768827 -0.00015850148802164623 0.0017281596190654317 -0.0068855282934078867 -0.0047913184368305588 -0.0065243652694065265 -0.01502475514697532 -0.00918187117727246 0.0039407540168853034 -0.0073942090917154457 -0.0083891674034440745 -0.0023556364861592144 0.0037864179229542896 -0.0035511019238985558 0.0013419284531534818 -0.0010714624871467002 -0.0038033520445294143 -0.0018480882454605309 0.00012071436780832124 -0.000151112451698109 -0.00014988226265120859 0.00021263479044037389 -0.0072406996740028264 -0.0015966707701980257 -0.018809584590295952 -0.0053871892725824025
leaf_weight=50806 107317 21 31317 24101 268 498 26 23 22 27 30 21 27 27 26 44 26 43 56 39 28 20 205 1980 376 146 20 43 21 29
leaf_count=50806 107317 21 31317 24101 268 498 26 23 22 27 30 21 27 27 26 44 26 43 56 39 28 20 205 1980 376 146 20 43 21 29
internal_value=0 -6.9331e-06 -4.47424e-05 -0.000103477 -0.000687161 -0.00145876 -0.00231869 -0.00333591 -0.00446735 -0.0061066 -0.0109983 -0.00163876 -0.000933052 -0.00320218 -0.00264993 -0.00459666 -0.00064594 -0.00156181 -0.00184689 -0.00391011 -0.000373165 0.00133663 -0.000347396 -0.000377471 -0.00091103 -0.00152782 -0.00283265 -0.00724372 -0.0131662 -0.000715336
internal_weight=0 110316 59510 28193 4092 1251 753 485 291 153 57 194 171 96 138 70 68 69 144 60 84 46 2841 2820 840 464 259 84 41 175
internal_count=217633 110316 59510 28193 4092 1251 753 485 291 153 57 194 171 96 138 70 68 69 144 60 84 46 2841 2820 840 464 259 84 41 175
shrinkage=0.05


Tree=325
num_leaves=31
num_cat=0
split_feature=18 40 2 3 12 36 16 36 19 16 1 1 25 3 22 36 39 29 23 3 36 13 36 40 3 23 14 33 29 25
split_gain=0.00436793 0.0454409 0.0721317 0.101096 0.124946 0.232102 0.0806137 0.0859883 0.475403 0.244938 0.328168 0.0674383 0.0727597 0.0663927 0.0616176 0.175772 0.147722 0.0801165 0.0459784 0.0397405 0.0348148 0.030929 0.0282442 0.0263165 0.0246965 0.0243957 0.0325351 0.0241032 0.0233378 0.0220491
threshold=-12.332599999999998 0.19419999999999996 -0.55943749999999992 -9.6563599999999976 5.234035000000001e-08 -0.3562499999999999 8.8529750000000019e-08 -0.22452634999999985 -1.0073749999999999 1.2759600000000001e-05 -11.632549999999998 -10.666549999999999 -0.0041669849999999989 -5.1152499999999987 1.3625700000000001 -0.079468000000000025 1.3091549999999998 -1.4746649999999997e-06 0.0014686500000000002 -11.976899999999999 0.10022550000000004 5.1445100000000014e-07 0.65575499999999998 0.23534999999999953 -5.2965599999999986 -0.013856449999999998 -2.7285799999999991e-07 0.000104555 8.233795000000001e-07 -0.14368899999999998
decision_type=2 2 2 2 2 2 2 2 2 2 2 2 2 2 2 2 2 2 2 2 2 2 2 2 2 2 2 2 2 2
left_child=1 2 3 4 -1 -6 14 13 9 10 24 12 -3 25 17 -16 -17 -5 20 27 21 -11 -20 -13 28 26 -8 -4 -9 -25
right_child=-2 11 19 6 5 -7 7 8 -10 18 -12 23 -14 -15 15 16 -18 -19 22 -21 -22 -23 -24 29 -26 -27 -28 -29 -30 -31
leaf_value=-9.0336430335550449e-05 -1.2026739036653819e-06 -0.0042540678256773393 -0.00029761303615357196 0.0034564856023644101 0.00083156434735024559 0.007938156290911139 -0.0027743152699258645 0.00049340843751623828 0.0077807460706972049 0.00032125780543981074 0.0065099402226985919 0.0015598481668857858 1.0895801315200517e-05 0.0024281636522433614 -0.00011808864163426083 -0.0068304014324166926 -0.00075336418696679173 7.0345244644092912e-05 -0.0029064571319031528 3.2078393255240562e-06 -0.00011858615631378806 0.0025475944816627399 -0.00046404461829987321 -0.00032834016352662452 -0.0006267470134480391 1.6717668024168606e-06 -0.00018767824184314738 -0.0026405484519352249 0.0023080407639046079 -4.4648244857914132e-06
leaf_weight=35 211535 20 21 20 27 20 20 37 25 39 37 25 20 26 175 20 20 138 20 1434 202 26 29 655 20 241 31 23 34 2658
leaf_count=35 211535 20 21 20 27 20 20 37 25 39 37 25 20 26 175 20 20 138 20 1434 202 26 29 655 20 241 31 23 34 2658
internal_value=0 4.17198e-05 0.000193825 0.000474708 0.00217139 0.00385565 0.000354771 0.000641725 0.00107208 0.000694342 0.00253955 -8.07571e-05 -0.00212159 7.01516e-06 -0.00025068 -0.000801585 -0.00379188 0.000498971 -5.30833e-05 -4.22073e-05 0.000205289 0.00121179 -0.00146095 -5.63014e-05 0.000925215 -0.000208567 -0.00120205 -0.00152233 0.00136239 -6.84969e-05
internal_weight=0 6098 2720 1242 82 47 1160 787 469 444 128 3378 40 318 373 215 40 158 316 1478 267 65 49 3338 91 292 51 44 71 3313
internal_count=217633 6098 2720 1242 82 47 1160 787 469 444 128 3378 40 318 373 215 40 158 316 1478 267 65 49 3338 91 292 51 44 71 3313
shrinkage=0.05


Tree=326
num_leaves=31
num_cat=0
split_feature=40 40 32 36 36 13 36 20 28 12 15 23 4 29 9 18 36 36 0 36 36 37 35 32 3 3 29 36 30 6
split_gain=0.00426452 0.0414918 0.0825777 0.165619 0.321149 0.890569 0.304188 0.158703 0.108366 0.0605966 0.059821 0.115487 0.090928 0.112425 0.134644 0.129321 0.104526 0.389364 1.20689 0.0953102 1.40321 0.233249 0.201887 0.0895813 0.143053 0.0885751 0.0758855 0.0751705 0.0816625 0.136173
threshold=-0.20255000000000042 0.086360000000000006 0.0055718750000000013 -0.079468000000000025 0.039429999999999972 6.4843700000000005e-08 -0.30278099999999991 -8.7640249999999984 -0.32370999999999994 3.828160000000001e-08 3.8326850000000012e-06 -0.00016755599999999999 -0.23603199999999996 -3.9040499999999993e-05 -0.00010305049999999998 0.5292785000000001 -0.079468000000000025 -0.040859549999999939 -2.1576199999999992 0.12375499999999996 0.056773999999999998 -0.039869999999999954 0.00012298350000000005 0.00040919750000000004 -7.8588299999999993 -5.8879799999999989 -5.8617499999999992e-05 0.02582950000000005 0.015714600000000006 -8.2047049999999982e-06
decision_type=2 2 2 2 2 2 2 2 2 2 2 2 2 2 2 2 2 2 2 2 2 2 2 2 2 2 2 2 2 2
left_child=-1 2 10 6 5 -5 -4 -8 9 -7 12 23 26 15 -15 -14 -16 18 -18 20 21 -19 25 -12 -25 27 -2 28 -23 -30
right_child=1 -3 3 4 -6 8 7 -9 -10 -11 11 -13 13 14 16 -17 17 19 -20 -21 -22 22 -24 24 -26 -27 -28 -29 29 -31
leaf_value=-5.9802896878748162e-06 0.0027914975947086616 -2.6346462171581279e-06 -2.1427187474357158e-05 -0.011488037102855743 -0.00014836865449416791 -0.0052048566663870591 0.0077320256757957397 0.0014331598102580757 -8.6906535278369736e-05 -0.0013592794304713607 0.00045616716280440445 -0.00029040973375093229 0.00017672398042181626 0.0043582198909591953 -0.00015833403129750909 -0.0047715879405744923 -0.0054206171818077563 0.0044157746273817289 0.0097537884684769736 -7.2709854520982157e-05 0.011109277425754455 0.00050150122353578863 -0.0045184296337538402 0.0059606302982761657 0.00012452221050071309 0.003717713652004022 -0.00016860927155429593 0.0016544898275520888 -0.0041712410445325079 6.8510820145123225e-06
leaf_weight=125795 22 83204 348 25 389 20 20 20 82 21 165 1303 31 21 845 23 20 36 38 852 31 1959 21 21 21 20 1366 111 20 783
leaf_count=125795 22 83204 348 25 389 20 20 20 82 21 165 1303 31 21 845 23 20 36 38 852 31 1959 21 21 21 20 1366 111 20 783
internal_value=0 8.1915e-06 0.000112521 -0.000333879 -0.000902579 -0.00288493 0.000453214 0.00458259 -0.00113633 -0.00323517 0.000166084 -0.000116125 0.000234826 0.000337684 0.000363436 -0.00193089 0.000345723 0.000455187 0.00452123 0.000393661 0.000526955 0.000415751 0.000366334 0.000980946 0.00304258 0.000401792 -0.000121691 0.000378708 0.000327437 -9.7211e-05
internal_weight=0 91838 8634 925 537 148 388 40 123 41 7709 1510 6199 4811 4757 54 4736 3891 58 3833 2981 2950 2914 207 42 2893 1388 2873 2762 803
internal_count=217633 91838 8634 925 537 148 388 40 123 41 7709 1510 6199 4811 4757 54 4736 3891 58 3833 2981 2950 2914 207 42 2893 1388 2873 2762 803
shrinkage=0.05


Tree=327
num_leaves=31
num_cat=0
split_feature=4 21 4 37 36 34 25 7 39 36 15 39 39 5 36 23 36 1 39 8 6 11 36 33 39 17 5 23 12 2
split_gain=0.00422087 0.0925477 0.194684 0.236078 1.03821 0.488518 0.369974 0.374942 0.263627 0.305284 0.514036 0.228642 0.430222 0.214189 0.201547 0.313559 0.239384 0.247403 0.219301 0.178851 0.176543 0.146267 0.219013 0.306699 0.174487 0.190136 0.158056 0.172367 0.157783 0.116006
threshold=0.17191050000000002 0.165108 0.79460700000000006 0.19792950000000006 0.22528099999999995 -0.55203199999999986 -0.021603249999999997 4.4916950000000007e-05 1.9902050000000007 -0.040859549999999939 2.4151150000000003e-05 4.7542650000000011 1.8568299999999998 1.1160550000000001e-05 0.056773999999999998 -0.00028195199999999997 -0.079468000000000025 -4.4631249999999989 -0.66712000000000005 2.7870500000000004e-05 6.6168600000000009e-07 0.0054400600000000009 0.056773999999999998 -4.8108399999999992e-07 -0.465335 3.5952650000000004 1.5198800000000003e-05 -0.00019299199999999998 -4.4303949999999996e-06 3.0794900000000003
decision_type=2 2 2 2 2 2 2 2 2 2 2 2 2 2 2 2 2 2 2 2 2 2 2 2 2 2 2 2 2 2
left_child=-1 -2 3 4 5 -3 7 11 9 10 13 12 14 -8 16 -16 17 -7 -18 -12 -15 22 24 -24 25 -11 -25 -28 -26 -6
right_child=1 2 -4 -5 29 6 8 -9 -10 21 19 -13 -14 20 15 -17 18 -19 -20 -21 -22 -23 23 26 28 -27 27 -29 -30 -31
leaf_value=-4.6105140540006638e-06 -2.8282446973854723e-05 -0.0055378516786731783 -2.5130336147286352e-05 -3.8057567006353184e-05 -4.8520797129987285e-05 0.0084147160138505015 0.002328026043559315 0.0096436385298147801 -0.0007127546102222574 0.0041577223272826012 0.00239569822132376 -0.0011142538342716541 0.0093379671880975366 0.0047728471145474993 0.00035878770949715374 0.0080466615049065004 0.0062022318504750731 0.001017811179626733 0.0007005860886560338 -0.0022096887186824066 0.0096947262343019258 -0.0010659025083037301 0.0072407420500359664 3.1285326067039644e-05 -0.0032282563551584292 -0.0010642359893688041 0.00084916187566705056 0.0074135875666979699 0.00076136761623981275 0.0035953901840416209
leaf_weight=151301 46335 24 12137 3181 3035 26 34 20 155 72 49 37 25 38 21 36 20 20 192 37 35 72 34 57 26 23 20 20 529 22
leaf_count=151301 46335 24 12137 3181 3035 26 34 20 155 72 49 37 25 38 21 36 20 20 192 37 35 72 34 57 26 23 20 20 529 22
internal_value=0 1.05164e-05 0.000100417 0.000294281 0.00052022 0.00154271 0.00164905 0.0029723 0.00121164 0.0014968 0.00329258 0.00261839 0.00302459 0.00560595 0.00252352 0.00521429 0.00192905 0.00519867 0.00121961 0.000414311 0.00713265 0.00109049 0.00128928 0.00315438 0.000913396 0.00289346 0.00172204 0.00413137 0.000574466 -2.2297e-05
internal_weight=0 66332 19997 7860 4679 1622 1598 397 1201 1046 193 377 340 107 315 57 258 46 212 86 73 853 781 131 650 95 97 40 555 3057
internal_count=217633 66332 19997 7860 4679 1622 1598 397 1201 1046 193 377 340 107 315 57 258 46 212 86 73 853 781 131 650 95 97 40 555 3057
shrinkage=0.05


Tree=328
num_leaves=31
num_cat=0
split_feature=38 37 2 17 33 8 32 17 23 3 32 17 11 0 17 19 18 39 39 16 37 37 30 17 33 8 4 11 32 11
split_gain=0.00474224 0.0422961 0.074094 0.18705 0.178602 0.0707266 0.26671 0.193272 0.108032 0.101882 0.199676 0.423223 0.861211 0.148355 0.212748 0.171626 0.24621 0.256507 0.16209 0.398232 0.20797 0.468143 0.469172 0.283437 0.251122 0.364411 0.205267 0.130955 0.106551 0.0958497
threshold=0.2761725000000001 -0.016969000000000036 3.0333000000000006 -8.175164999999998 -1.5934299999999997e-07 1.1666750000000001e-05 -0.036175849999999996 5.0058800000000003 -5.5022649999999994e-05 -13.443999999999997 -0.066940849999999982 -2.9298699999999998 0.010316650000000002 3.6588600000000002 2.9956450000000001 0.49316750000000004 1.9225850000000002 -1.9691099999999999 -2.5440100000000001 0.0078562650000000029 -0.10141500000000002 -0.057539999999999918 0.47864000000000007 1.0000000180025095e-35 1.2972450000000001e-08 1.5606650000000004e-05 -0.049405799999999993 0.0030998800000000006 -0.0013312399999999998 0.0035378750000000007
decision_type=2 2 2 2 2 2 2 2 2 2 2 2 2 2 2 2 2 2 2 2 2 2 2 2 2 2 2 2 2 2
left_child=1 5 -3 -4 -5 6 8 -8 -1 10 11 -7 -13 18 -15 16 -16 -18 -12 20 23 22 -22 26 28 -26 -20 -21 -23 -27
right_child=-2 2 3 4 -6 9 7 -9 -10 -11 13 12 -14 14 15 -17 17 -19 19 27 21 24 -24 -25 25 29 -28 -29 -30 -31
leaf_value=-0.0016790904861409218 8.3392150784131611e-06 3.6079109949717226e-06 0.00042464982605266971 -0.00066334405215457087 -0.0073454555834177888 -0.0016601520652115784 -0.00053863887606127043 0.0043875041267752869 -0.0062895525790130098 -0.00014283823141421614 -2.5361922312855494e-05 0.01330750208858046 0.00010550863575190307 -0.0048411832423880703 -0.00072031480520357125 -0.0040951501269903805 -0.00034310250861640921 0.0064872015079513569 0.0064710137329529981 0.002240846783970483 0.011573695201825884 -0.0029908975920989178 0.0016871335672303325 -0.0033192668963290223 0.0094078107481999768 0.0038315749672340016 -6.8401095923036344e-05 -0.0022610173501605114 0.00098053996604121805 -0.0003843850257648488
leaf_weight=24 95596 111657 59 20 20 34 384 21 27 8356 652 21 30 29 226 28 28 27 20 20 28 24 21 35 21 26 30 84 57 28
leaf_count=24 95596 111657 59 20 20 34 384 21 27 8356 652 21 30 29 226 28 28 27 20 20 28 24 21 35 21 26 30 84 57 28
internal_value=0 -6.53241e-06 2.39564e-06 -0.00136487 -0.0040044 -0.000103582 -0.000712315 -0.000283209 -0.00411992 -7.53289e-05 0.000308679 0.00266091 0.00554162 0.000164214 -0.000746456 -0.000362161 9.80934e-06 0.00300996 0.000458484 0.00125916 0.0022111 0.00307329 0.0073366 0.000131693 0.00173418 0.00381896 0.00254736 -0.00139527 -0.000196182 0.00164552
internal_weight=0 122037 111756 99 40 10281 456 405 51 9825 1469 85 51 1384 338 309 281 55 1046 394 290 205 49 85 156 75 50 104 81 54
internal_count=217633 122037 111756 99 40 10281 456 405 51 9825 1469 85 51 1384 338 309 281 55 1046 394 290 205 49 85 156 75 50 104 81 54
shrinkage=0.05


Tree=329
num_leaves=31
num_cat=0
split_feature=40 20 17 8 18 36 23 21 8 39 31 11 3 37 18 40 40 37 36 14 26 18 17 17 30 39 17 23 8 40
split_gain=0.00444506 0.0182131 0.179231 0.116451 0.142592 0.0947882 0.0476811 0.0392527 0.0581597 0.0539044 0.0200937 0.0231401 0.0165964 0.0271185 0.624119 0.0229616 0.0513073 0.0659363 0.833834 0.616572 0.439465 0.509844 0.421924 0.756383 0.385916 0.420238 0.358443 0.291381 0.233565 0.209823
threshold=-3.3334999999999999 -18.396099999999997 -6.0084349999999995 6.1899350000000009e-05 5.2037050000000002 0.24966499999999994 -0.00043562299999999995 0.49038950000000003 1.9042450000000003e-05 -0.23716000000000023 0.0011501050000000002 0.0028640250000000005 -7.4497099999999987 5.6849350000000003 -3.7462599999999999 -0.81248999999999982 -0.16918499999999967 -0.15132349999999997 -0.079468000000000025 2.6933700000000002e-07 -0.005431039999999999 -10.781899999999998 -5.9130249999999984 -2.6904149999999993 0.0042630950000000006 0.27381999999999979 -3.0760849999999995 0.00033276500000000006 3.4560700000000009e-05 -0.52047500000000058
decision_type=2 2 2 2 2 2 2 2 2 2 2 2 2 2 2 2 2 2 2 2 2 2 2 2 2 2 2 2 2 2
left_child=-1 2 -2 4 6 -5 -4 9 -9 -8 11 -11 13 -3 -15 -14 17 -17 -19 20 27 26 -23 -24 -25 -26 -22 -20 29 -21
right_child=1 12 3 5 -6 -7 7 8 -10 10 -12 -13 15 14 -16 16 -18 18 19 28 21 22 23 24 25 -27 -28 -29 -30 -31
leaf_value=1.0691367424419487e-05 0.0043768884001110569 5.3258470342001404e-06 0.0013463264875463211 -0.0052310658783178291 0.0030569382166797899 -0.00058964626183627519 0.0020431446714653813 -0.0039714184575132096 -0.00015829404695978156 -0.0024263877048118269 -0.00013052649162654278 -0.00069188574535920669 -2.9996385779690549e-06 0.0088077825981946224 -5.1276768400279909e-05 -9.9424669621898738e-06 1.3608360690896659e-06 -1.9943366887996009e-05 0.0013274185022274995 -0.0016500140182906763 0.0034796904835205245 -0.0025724239854607732 -0.015026743910757118 -0.010509971296414733 0.0021859900761311028 -0.0069781623804813318 -0.004270707502562021 -0.0056713009685336151 -0.0013764560510950382 0.0039601007086457682
leaf_weight=67200 20 106632 35 22 31 22 21 20 20 21 168 228 27740 21 373 2959 8502 3090 58 25 26 50 29 26 22 29 35 20 138 50
leaf_count=67200 20 106632 35 22 31 22 21 20 20 21 168 228 27740 21 373 2959 8502 3090 58 25 26 50 29 26 22 29 35 20 138 50
internal_value=0 -4.77595e-06 -0.000277882 -0.000436207 -0.000236092 -0.00291036 -0.000435086 -0.000565525 -0.00206486 -0.000428599 -0.000553076 -0.000838169 -3.66766e-06 6.85574e-06 0.000420907 -2.99832e-05 -7.96893e-05 -0.000184781 -0.000328569 -0.00220584 -0.003686 -0.00484301 -0.00635853 -0.00814443 -0.00555239 -0.003025 -0.000967259 -0.000467125 -0.000155851 0.00209006
internal_weight=0 150433 608 588 544 44 513 478 40 438 417 249 149825 107026 394 42799 15059 6557 3598 508 295 217 156 106 77 51 61 78 213 75
internal_count=217633 150433 608 588 544 44 513 478 40 438 417 249 149825 107026 394 42799 15059 6557 3598 508 295 217 156 106 77 51 61 78 213 75
shrinkage=0.05


Tree=330
num_leaves=31
num_cat=0
split_feature=31 9 5 12 3 6 36 36 15 12 4 16 10 40 15 32 29 15 36 4 9 21 17 7 14 12 34 34 16 7
split_gain=0.00417049 0.0248704 0.0252872 0.0242802 0.0266281 0.0761304 0.0191176 0.0958 0.0154817 0.0413573 0.0398389 0.0219223 0.0167687 0.0127457 0.0259084 0.012712 0.0116464 0.0648737 0.164789 0.197311 0.248159 0.0116814 0.00794652 0.0848105 0.195578 0.101307 0.251013 0.0870058 0.0781746 0.0315014
threshold=-4.3203749999999994 0.00040688200000000007 2.4954650000000003e-05 3.2364950000000003e-06 -14.267049999999999 -1.6203399999999995e-07 -0.3819765 0.22528099999999995 0.00034847100000000005 -3.211369999999999e-05 0.57834950000000018 0.0017507150000000001 -2.9523999999999997e-05 -0.31477499999999997 -0.00028306949999999995 3.8353050000000004 0.0031288150000000005 -9.6173349999999976e-06 0.91906500000000002 -2.1602949999999992 5.0539100000000007e-06 -1.4574199999999997 16.002400000000005 4.2640350000000002e-05 7.3437150000000007e-06 -4.0168599999999999e-07 0.0040290800000000009 -0.032169599999999993 4.555630000000001e-05 3.904965000000001e-05
decision_type=2 2 2 2 2 2 2 2 2 2 2 2 2 2 2 2 2 2 2 2 2 2 2 2 2 2 2 2 2 2
left_child=1 3 -3 4 5 -1 -5 -8 10 -10 11 12 -6 14 -14 -13 22 18 19 -18 -21 -20 -2 29 25 26 -25 28 -27 -24
right_child=16 2 -4 6 8 -7 7 -9 9 -11 -12 15 13 -15 -16 -17 17 -19 21 20 -22 -23 23 24 -26 27 -28 -29 -30 -31
leaf_value=-0.00090500696931722694 -8.9477476384321085e-07 0.0023637969211631575 -6.7151276538345914e-05 -0.0002582417017287762 0.0012620740241836759 0.0031631739384940134 -0.0042596323462203147 -0.0001766100412294013 -0.00032377734070807392 0.0024982914172142047 -0.0023898713930975649 -0.00035005583251606574 -0.0018017380137528315 0.0010774661875272971 -3.9335577417205062e-05 -0.0017566973375606127 -9.6689216428412463e-06 -0.00012824746131987827 -0.0016168556710389175 0.0086298821665960462 0.0011199095969046042 -0.00020794281322929648 9.7523562590102947e-06 -0.00079466673886161997 0.0046582721876420761 0.0030133437593646635 0.0065957697104022375 -0.0017524921390957588 -0.00065259397608425588 -0.0014339772747077335
leaf_weight=23 214829 20 23 102 25 23 20 51 37 20 20 36 22 23 400 29 39 341 28 22 22 31 1211 27 32 26 20 59 33 39
leaf_count=23 214829 20 23 102 25 23 20 51 37 20 20 36 22 23 400 29 39 341 28 22 22 31 1211 27 32 26 20 59 33 39
internal_value=0 -0.000109002 0.00106352 -0.000169674 -3.10922e-05 0.00112908 -0.000696765 -0.00132676 -0.000118295 0.000666422 -0.000198887 -0.000116982 2.04491e-06 -6.87432e-05 -0.000131214 -0.000977634 4.39509e-07 0.000245689 0.00114366 0.00257974 0.0048749 -0.000876579 -1.08196e-07 0.000116671 0.00108091 0.000387113 0.0023502 -0.000394794 0.000962904 -3.5292e-05
internal_weight=0 874 43 831 658 46 173 71 612 57 555 535 470 445 422 65 216759 483 142 83 44 59 216276 1447 197 165 47 118 59 1250
internal_count=217633 874 43 831 658 46 173 71 612 57 555 535 470 445 422 65 216759 483 142 83 44 59 216276 1447 197 165 47 118 59 1250
shrinkage=0.05


Tree=331
num_leaves=31
num_cat=0
split_feature=39 34 15 36 11 3 26 18 26 36 19 27 5 3 34 36 36 11 39 3 5 6 15 25 4 23 32 18 37 19
split_gain=0.00418258 0.0162078 0.0647785 0.114811 0.0154659 0.0155418 0.0997429 0.0897693 0.0598618 0.0926491 0.131484 0.184977 0.0909894 0.024252 0.0705431 0.104659 0.190114 0.073975 0.021595 0.021339 0.175831 0.0492784 0.0251776 0.0208611 0.0189051 0.0170136 0.0156531 0.0147103 0.0353087 0.191399
threshold=-2.1087049999999987 -1.0090899999999998 0.00082871750000000014 -0.60254799999999997 0.71230950000000004 -18.015749999999997 0.24911750000000002 5.7588600000000012 -0.0070766649999999993 0.20129000000000011 1.9437700000000002 0.0019666000000000002 1.2959500000000002e-05 -17.495099999999997 -0.0016790549999999998 -0.079468000000000025 0.30085850000000008 0.0039264450000000015 -0.41630000000000006 -17.304849999999998 2.4191200000000003e-05 -5.6979949999999981e-07 -0.00015077349999999997 -0.064774849999999981 0.8580755000000001 -9.2922699999999984e-05 -0.0016410049999999999 13.390900000000002 0.51323350000000023 2.4316000000000004
decision_type=2 2 2 2 2 2 2 2 2 2 2 2 2 2 2 2 2 2 2 2 2 2 2 2 2 2 2 2 2 2
left_child=1 2 -1 -4 5 6 7 8 23 10 11 12 18 14 15 25 -17 -16 -10 20 21 -15 -23 -2 -19 -7 -24 -21 29 -29
right_child=4 -3 3 -5 -6 13 -8 -9 9 -11 -12 -13 -14 19 17 16 -18 24 -20 27 -22 22 26 -25 -26 -27 -28 28 -30 -31
leaf_value=-0.00011915111285860389 0.00075228305982558857 1.0975017736162727e-05 -0.0004270445843576454 0.0049304492457304151 -0.0004657935968921441 0.0015736121038207784 -0.003071341197106189 0.0034289677484290828 0.0017235102318227291 -0.00035758974285351124 -0.00064401038763125227 0.0068038120511032286 0.0043677511985879399 0.0014956366848470199 0.0030140278569888326 -0.0055567209503703547 -0.00024848868736109973 3.9634145202280918e-05 -0.00034705451579718693 -5.5607395531063414e-06 0.0049536932806950066 0.00024730990684879042 -0.0025703555482323283 -0.00075438193256900383 -0.0013917083839520015 -0.0004640624419109719 -0.00075210112627246419 0.00024760269276467801 -5.2448502494511302e-05 0.0049685035064943482
leaf_weight=103 28 51314 20 20 181 20 21 24 20 104 44 21 20 34 20 31 37 131 34 163027 20 36 20 128 28 21 29 891 1184 22
leaf_count=103 28 51314 20 20 181 20 21 24 20 104 44 21 20 34 20 31 37 131 34 163027 20 36 20 128 28 21 29 891 1184 22
internal_value=0 1.24564e-05 0.000544025 0.0022517 -3.85716e-06 -3.35347e-06 0.000292071 0.000459049 0.000280408 0.00077111 0.0016156 0.00266216 0.00148683 -4.14578e-06 -0.000462572 -0.00146537 -0.00266842 0.000148071 0.000419821 -3.3469e-06 0.000615904 -0.000113136 -0.000756646 -0.000483955 -0.000212426 0.000529925 -0.00149425 -3.86818e-06 0.000127717 0.000361359
internal_weight=0 51457 143 40 166176 165995 444 423 399 243 139 95 74 165551 288 109 68 179 54 165263 139 119 85 156 159 41 49 165124 2097 913
internal_count=217633 51457 143 40 166176 165995 444 423 399 243 139 95 74 165551 288 109 68 179 54 165263 139 119 85 156 159 41 49 165124 2097 913
shrinkage=0.05


Tree=332
num_leaves=31
num_cat=0
split_feature=40 30 2 26 3 35 13 39 8 3 30 15 34 4 37 36 36 40 25 22 14 14 36 36 11 11 18 18 36 2
split_gain=0.00421754 0.0168379 0.036208 0.107933 0.0304262 0.161805 0.0570339 0.116802 0.238825 0.0869183 0.11445 0.030394 0.137965 0.27 0.234562 0.39815 0.343086 0.353909 0.307959 0.372452 0.304795 0.32878 0.299972 0.444807 0.310212 0.382391 0.249551 0.316425 0.309377 0.219945
threshold=-3.3334999999999999 0.20270750000000001 3.0794900000000003 0.18537850000000003 -5.5710999999999995 0.00047625050000000001 7.5631600000000019e-07 1.46871 5.1976050000000002e-05 -5.2965599999999986 1.8663100000000001 -2.1298199999999995e-05 -0.0043154599999999993 -1.5265699999999998 -0.71931549999999989 -0.3819765 -0.079468000000000025 3.886415 -0.96676949999999995 38.031000000000013 -3.0819049999999996e-06 -9.510894999999998e-07 0.077348000000000056 0.22528099999999995 0.0018558900000000002 0.0030998800000000006 5.1273750000000007 -7.375894999999999 -0.12496499999999998 2.4399850000000005
decision_type=2 2 2 2 2 2 2 2 2 2 2 2 2 2 2 2 2 2 2 2 2 2 2 2 2 2 2 2 2 2
left_child=-1 -2 4 -4 11 -6 -7 8 -8 -9 -11 12 -3 -14 -15 -16 17 20 -18 22 -17 -22 29 24 -24 -26 27 -23 -29 -20
right_child=1 2 3 -5 5 6 7 9 -10 10 -12 -13 13 14 15 16 18 -19 19 -21 21 26 23 -25 25 -27 -28 28 -30 -31
leaf_value=1.0414159684772347e-05 2.8636901485794794e-06 -0.00020138326132408343 -0.00026047665579244497 0.0038186978603941195 0.0042703718493233593 -5.2018883441462552e-05 0.0072060441842768351 -0.0017231844987606545 0.00019796292270315933 0.00015352527271018988 0.0042485548226144001 -9.7361485672712528e-05 -0.00017116719375936617 -0.00016041572888203536 2.6759771069019617e-05 -1.9261788111180067e-05 -0.0042764022294431922 -0.0015752175281738381 -3.3872100662728882e-05 0.0076277411466909827 0.011145710467320422 0.0077301798347869646 0.0090408947869119322 0.00043907518559527177 -0.0026793667860329153 0.005524813849003796 0.0088608940461805726 -0.00355299188914891 0.0046479761620740528 0.0037065927248807968
leaf_weight=67200 125166 3762 50 24 24 896 20 43 31 91 21 15879 2264 678 644 28 25 27 368 23 23 23 33 107 20 49 24 23 23 44
leaf_count=67200 125166 3762 50 24 24 896 20 43 31 91 21 15879 2264 678 644 28 25 27 368 23 23 23 33 107 20 49 24 23 23 44
internal_value=0 -4.65211e-06 -4.18834e-05 0.0010625 -4.51273e-05 0.000208909 0.000120456 0.000870637 0.00294623 0.0001877 0.000921343 -5.70127e-05 2.12358e-05 0.000210457 0.000610086 0.000962107 0.00167921 0.0036779 0.00116833 0.00137969 0.00466286 0.00579303 0.00114828 0.00269119 0.00505371 0.00314679 0.00446925 0.00294172 0.000547492 0.000365595
internal_weight=0 150433 25267 74 25193 1126 1102 206 51 155 112 24067 8188 4426 2162 1484 840 171 669 644 144 116 621 209 102 69 93 69 46 412
internal_count=217633 150433 25267 74 25193 1126 1102 206 51 155 112 24067 8188 4426 2162 1484 840 171 669 644 144 116 621 209 102 69 93 69 46 412
shrinkage=0.05


Tree=333
num_leaves=31
num_cat=0
split_feature=36 37 17 1 13 18 1 17 36 3 23 4 30 9 17 8 20 39 4 39 39 39 6 17 40 18 3 0 16 31
split_gain=0.00448395 0.0428399 0.0869611 0.158766 0.162208 0.148338 0.0814708 0.279195 0.546821 0.232911 0.0927159 0.225146 0.159574 0.166973 0.174152 0.317544 0.217537 0.289694 0.187843 0.138127 0.188572 0.263949 0.167337 0.102446 0.101789 0.273582 0.215931 0.247864 0.206648 0.183768
threshold=0.24966499999999994 -0.016969000000000036 -11.463149999999997 4.0814950000000012 -2.6787349999999996e-08 -9.1109899999999975 6.5342350000000007 8.6104250000000011 0.056773999999999998 -11.334749999999998 0.00052757850000000018 -0.13131799999999996 0.090098850000000022 -0.00018837999999999995 3.2523950000000004 2.8239150000000006e-05 -9.5298349999999985 1.1890849999999997 -0.88881949999999998 2.4693750000000008 -0.88227999999999918 -0.086730000000000182 -1.0441299999999996e-06 16.002400000000005 -0.47859499999999983 8.2873200000000011 -6.2207449999999991 3.9279950000000006 1.1921100000000003e-10 -0.17054099999999997
decision_type=2 2 2 2 2 2 2 2 2 2 2 2 2 2 2 2 2 2 2 2 2 2 2 2 2 2 2 2 2 2
left_child=1 2 3 5 -5 -1 10 9 -9 -8 23 12 -12 -14 16 -16 17 -15 -17 20 22 -22 -13 24 25 -4 28 -28 -26 -30
right_child=-2 -3 6 4 -6 -7 7 8 -10 -11 11 19 13 14 15 18 -18 -19 -20 -21 21 -23 -24 -25 26 -27 27 -29 29 -31
leaf_value=0.0038628689711913467 8.0435389592959234e-06 2.2242424939404998e-06 -0.00027693544309124557 0.005310003470752717 -5.8776742419771237e-05 -0.00029944302570372819 -0.0052718400454108165 -0.010330715933814646 -0.0012344154027079258 -0.00020702265272038581 0.0040387831829893578 0.0023997205135950434 0.0035597974271914957 -0.0075189408838170872 0.0057378597902134065 -0.0035929424837591152 0.001318475929418065 -0.00045160556864143949 0.0008873938815765238 -0.00015400333417089147 -0.0083147727428004147 -0.0024109761045577054 -0.002072808375155243 0.0027727890147644127 -0.0045219207515638914 0.0051972237876211497 -0.0070789084431122657 0.00026857094884083689 0.0032125313138571007 0.00018939559918999677
leaf_weight=24 96465 111756 2984 34 24 198 23 20 95 1733 27 29 29 29 25 34 29 29 75 113 25 78 75 33 23 23 22 24 51 3504
leaf_count=24 96465 111756 2984 34 24 198 23 20 95 1733 27 29 29 29 25 34 29 29 75 113 25 78 75 33 23 23 22 24 51 3504
internal_value=0 -6.40367e-06 -0.00010885 0.000759102 0.00308844 0.000150537 -0.000135462 -0.000429667 -0.00281638 -0.000273361 -5.96522e-05 -0.00065659 0.000387048 -7.33971e-06 -0.000475426 0.00065553 -0.00221736 -0.00398527 -0.000510142 -0.00155999 -0.00232751 -0.00384394 -0.000825661 -6.17502e-06 -2.00049e-05 -0.000235065 0.00015844 -0.00324544 0.000202202 0.000232765
internal_weight=0 121168 9412 280 58 222 9132 1871 115 1756 7261 597 277 250 221 134 87 58 109 320 207 103 104 6664 6631 3007 3624 46 3578 3555
internal_count=217633 121168 9412 280 58 222 9132 1871 115 1756 7261 597 277 250 221 134 87 58 109 320 207 103 104 6664 6631 3007 3624 46 3578 3555
shrinkage=0.05


Tree=334
num_leaves=31
num_cat=0
split_feature=28 12 12 5 1 3 5 16 30 36 3 19 37 39 6 6 36 11 13 37 9 36 14 23 9 18 2 33 24 1
split_gain=0.00441428 0.0276469 0.0802319 0.144068 0.178804 0.057905 0.123152 0.0506447 0.0241354 0.0225148 0.0931752 0.118225 0.0625403 0.109211 0.0280236 0.0300414 0.0175302 0.0156456 0.0136169 0.0182883 0.0148289 0.01439 0.0131541 0.0119628 0.0107566 0.0173703 0.0129875 0.00764409 0.0063992 0.0483861
threshold=-10.048129999999999 -9.0272649999999983e-06 -2.0464649999999995e-06 1.7537650000000003e-05 3.7283150000000007 -13.897099999999998 2.2519950000000001e-05 0.015646000000000004 5.3516150000000016 0.22528099999999995 -12.126699999999998 1.4271150000000004 0.32610899999999998 0.76755000000000007 -5.6979949999999981e-07 3.1505950000000005e-06 -5.4467549999999987 0.0019309400000000001 5.2573900000000008e-06 1.0020695000000002 -6.4452949999999984e-05 -0.49100999999999978 7.2522850000000019e-08 0.069955350000000013 -6.7024799999999989e-05 7.466355000000001 1.1973950000000002 0.000104555 44.65205000000001 -14.127399999999998
decision_type=2 2 2 2 2 2 2 2 2 2 2 2 2 2 2 2 2 2 2 2 2 2 2 2 2 2 2 2 2 2
left_child=1 5 3 4 27 6 7 -1 -7 12 11 -11 13 -4 -15 -16 -14 22 20 -20 -18 -22 -12 24 25 -10 -26 -3 -2 -30
right_child=28 2 9 -5 -6 8 -8 -9 23 10 17 -13 16 14 15 -17 18 -19 19 -21 21 -23 -24 -25 26 -27 -28 -29 29 -31
leaf_value=0.0022576389090681916 -3.5689131734416397e-07 5.0314021573285577e-05 -0.0042571894533466525 0.0014165093973258929 -0.0057792504101285141 0.0012407292532963876 0.0049253523044171747 -0.00096956421051389409 -9.6270227206534604e-05 -2.0054674876684493e-05 0.0012705773934223025 0.0052915177319664518 -0.0014963699549844023 -0.0017232284873663899 0.0010098094449571555 -0.001171479927358666 0.0011273474431646086 -0.0010930792315162541 -0.0017779876221625489 -0.00020918169484163927 5.1665942592256558e-06 0.0012755274777072889 -8.4232114475854051e-05 -0.0013759473192476437 -0.00015333715438990312 0.0015984508870003215 -0.0015479352901820677 -0.0013155270827285546 0.0020724766512770052 5.3804368520505949e-05
leaf_weight=20 213042 20 24 29 29 33 20 31 54 22 21 20 20 31 38 27 33 33 21 161 724 23 122 20 101 21 20 21 30 2822
leaf_count=20 213042 20 24 29 29 33 20 31 54 22 21 20 20 31 38 27 33 33 21 161 724 23 122 20 101 21 20 21 30 2822
internal_value=0 -7.93429e-05 -0.000174016 -0.00154686 -0.00277454 0.000340474 0.00160005 0.000296006 -1.86818e-05 -7.10528e-05 0.000393226 0.00250927 -0.000162897 -0.00124042 -0.000486222 0.000103735 -3.12252e-05 -0.000111738 -7.64845e-07 -0.000390198 9.01028e-05 4.42808e-05 0.000114726 -0.000211092 -9.2229e-05 0.000378252 -0.000383849 -0.000649263 6.39098e-07 7.50386e-05
internal_weight=0 1739 1419 99 70 320 71 51 249 1320 218 42 1102 120 96 65 982 176 962 182 780 747 143 216 196 75 121 41 215894 2852
internal_count=217633 1739 1419 99 70 320 71 51 249 1320 218 42 1102 120 96 65 982 176 962 182 780 747 143 216 196 75 121 41 215894 2852
shrinkage=0.05


Tree=335
num_leaves=31
num_cat=0
split_feature=36 36 17 28 10 6 28 17 3 15 1 36 39 33 5 3 2 31 34 30 17 0 37 32 10 36 19 10 39 40
split_gain=0.00425614 0.0496186 0.0797529 0.242208 0.171176 0.12301 0.0797725 0.275386 0.407084 0.257843 0.231693 0.208271 0.196967 0.32721 0.156331 0.26941 0.246838 0.158756 0.149796 0.138601 0.127087 0.148337 0.156174 0.100495 0.0891885 0.0863658 0.0778072 0.0836275 0.0737471 0.125819
threshold=-0.40968649999999995 -0.018010000000000078 16.002400000000005 -4.3985699999999994 1.0260100000000002e-05 1.8381350000000001e-06 -1.0750649999999997 3.8241100000000006 -12.046299999999997 7.6262450000000016e-07 5.2820750000000007 -0.17527649999999997 0.27381999999999979 -1.8701649999999998e-06 3.4028100000000007e-05 -13.353949999999999 2.2358750000000005 -0.070123049999999978 0.045442600000000007 0.45987150000000004 -16.050999999999998 -8.7098249999999968 0.22260499999999997 0.14537000000000003 -3.9290249999999995e-05 -0.14969009999999991 -2.9623449999999996 5.2534050000000007e-06 -0.56159999999999977 -0.77194499999999999
decision_type=2 2 2 2 2 2 2 2 2 2 2 2 2 2 2 2 2 2 2 2 2 2 2 2 2 2 2 2 2 2
left_child=-1 2 6 -4 5 -5 7 14 9 -9 11 -10 13 -12 15 16 18 -16 23 25 21 -8 -23 -2 -21 -17 27 -22 -26 -30
right_child=1 -3 3 4 -6 -7 20 8 10 -11 12 -13 -14 -15 17 19 -18 -19 -20 24 26 22 -24 -25 28 -27 -28 -29 29 -31
leaf_value=8.1692783516585095e-06 0.000910435730932347 5.3856652786926184e-06 0.0047571406826190307 0.0045175838680006561 -0.0033427119608326209 -0.00061654352539335382 0.0056429174076765773 0.0079329746377911296 -4.6978893307303749e-05 0.00084395403233508627 0.0082572958091900323 -0.0057767998192816625 -0.00046454255615418485 -0.00028893130220239985 0.0045454550332025339 -0.0014991764920593527 -0.007869410900049844 -0.00058058359538170571 -0.0050109029473627319 0.0027530001997365617 0.00038578024765369124 -0.0015600198345697104 0.0035878106597990083 -0.0029988694927587569 0.0011382567219920838 -0.0058695462596369914 -7.6633815521850445e-05 -0.0032750714713564288 -0.0006501025689644327 -0.0042111677895903732
leaf_weight=92022 35 111070 34 20 29 28 20 29 35 23 21 29 77 24 23 26 25 44 34 20 26 34 26 31 49 20 13408 39 305 27
leaf_count=92022 35 111070 34 20 29 28 20 29 35 23 21 29 77 24 23 26 25 44 34 20 26 34 26 31 49 20 13408 39 305 27
internal_value=0 -5.98477e-06 -9.28367e-05 0.00124228 -0.000309743 0.00152268 -0.000103107 -0.000565255 0.000886533 0.00479745 -0.000206841 -0.0026433 0.0010713 0.00369931 -0.00110598 -0.00137364 -0.00342565 0.0011791 -0.0023147 -0.000799816 -7.32017e-05 0.00191376 0.000670707 -0.000925753 -0.000501617 -0.00339934 -8.49999e-05 -0.00181073 -0.000672463 -0.000939707
internal_weight=0 125611 14541 111 77 48 14430 877 238 52 186 64 122 45 639 572 125 67 100 447 13553 80 60 66 401 46 13473 65 381 332
internal_count=217633 125611 14541 111 77 48 14430 877 238 52 186 64 122 45 639 572 125 67 100 447 13553 80 60 66 401 46 13473 65 381 332
shrinkage=0.05


Tree=336
num_leaves=31
num_cat=0
split_feature=31 9 36 12 3 6 36 36 15 12 4 13 4 12 5 29 15 36 0 4 21 12 4 21 10 4 14 23 4 3
split_gain=0.00395444 0.02184 0.0236474 0.0213453 0.0227397 0.0679761 0.0173641 0.0846986 0.0142275 0.0368358 0.0354001 0.0201399 0.0153801 0.026071 0.0277067 0.0104906 0.0591672 0.148037 0.179786 0.0964607 0.0103765 0.00653922 0.00631622 0.00602019 0.0618786 0.0505682 0.160244 0.0325512 0.0344755 0.029432
threshold=-4.3203749999999994 0.00040688200000000007 -0.058960000000000005 3.2364950000000003e-06 -14.267049999999999 -1.6203399999999995e-07 -0.3819765 0.22528099999999995 0.00034847100000000005 -3.211369999999999e-05 0.57834950000000018 2.1581450000000003e-05 -0.81164199999999986 -9.0825849999999997e-07 1.6804400000000005e-05 0.0031288150000000005 -9.6173349999999976e-06 0.91906500000000002 -4.5031199999999991 -2.2787549999999999 -1.4574199999999997 -3.3937349999999994e-07 0.61713700000000016 -1.7211949999999998 -6.7776199999999983e-05 -1.0382099999999996 -3.7416649999999998e-06 0.0085896400000000008 -2.1602949999999992 -14.389699999999999
decision_type=2 2 2 2 2 2 2 2 2 2 2 2 2 2 2 2 2 2 2 2 2 2 2 2 2 2 2 2 2 2
left_child=1 3 -3 4 5 -1 -5 -8 10 -10 11 12 -6 14 -14 23 17 18 -17 -20 -19 22 -18 24 -2 26 27 28 -26 -27
right_child=15 2 -4 6 8 -7 7 -9 9 -11 -12 -13 13 -15 -16 16 21 20 19 -21 -22 -23 -24 -25 25 29 -28 -29 -30 -31
leaf_value=-0.00088300395449471616 -0.0021000580687828723 0.0021382112841820343 -0.00020750453335321732 -0.0002392776095838795 0.00093596153483549893 0.0029611368139740081 -0.004015322519408073 -0.00017615341405639902 -0.00029589075731220534 0.0023674503021175043 -0.0022562264403677545 -0.0014992934289621189 -0.002659397993120365 -8.2113539814667157e-06 -5.905845582241281e-05 0.0063268059122492566 -0.0011824564367088897 -0.0015217483482501848 -0.0011041557474267651 0.0028858549735036147 -0.00019385713420624304 -5.6720967655861166e-06 -0.00021535427574865306 4.9443384255279003e-07 5.1113071906281849e-05 -0.0010489513741988284 0.003749407316697346 0.0016798484422906768 -0.0021275114377865313 -0.00010572104945669094
leaf_weight=23 38 22 21 102 37 23 20 51 37 20 20 25 20 432 21 22 25 28 28 33 31 264 52 215213 104 93 35 24 22 747
leaf_count=23 38 22 21 102 37 23 20 51 37 20 20 25 20 432 21 22 25 28 28 33 31 264 52 215213 104 93 35 24 22 747
internal_value=0 -0.000106141 0.000992629 -0.000162997 -3.30603e-05 0.00103907 -0.000657206 -0.00125761 -0.000113645 0.000638615 -0.000190904 -0.000113696 -4.57743e-05 -0.00012257 -0.00132752 4.27974e-07 0.00023319 0.00109076 0.00245189 0.00105437 -0.000824043 -0.000123922 -0.000529348 -9.18437e-08 -0.000118789 -4.53366e-05 0.000703006 -7.82086e-06 -0.000329282 -0.00021015
internal_weight=0 874 43 831 658 46 173 71 612 57 555 535 510 473 41 216759 483 142 83 61 59 341 77 216276 1063 1025 185 150 126 840
internal_count=217633 874 43 831 658 46 173 71 612 57 555 535 510 473 41 216759 483 142 83 61 59 341 77 216276 1063 1025 185 150 126 840
shrinkage=0.05


Tree=337
num_leaves=31
num_cat=0
split_feature=4 21 4 37 36 40 39 18 22 17 9 17 0 3 17 17 39 14 18 18 1 1 39 29 39 30 39 9 31 39
split_gain=0.00400363 0.0831323 0.174709 0.212721 0.938405 0.318354 0.494315 0.483412 0.314511 0.362464 0.606253 0.329231 0.490236 0.305729 0.386318 0.270098 0.389646 0.363214 0.253417 0.391791 0.328028 0.216833 0.192506 0.186827 0.168304 0.1667 0.165724 0.41223 0.15121 0.135225
threshold=0.17191050000000002 0.165108 0.79460700000000006 0.19792950000000006 0.2761725000000001 2.9908550000000012 -0.23716000000000023 -12.332599999999998 29.284250000000004 8.9118250000000021 5.2422100000000008e-05 -5.9130249999999984 -5.3044499999999992 -9.6022399999999983 5.3893600000000008 -4.6868399999999992 -1.2170650000000005 1.1464000000000004e-06 -6.1725999999999992 6.8372650000000013 -5.5871249999999995 6.351465000000001 -0.99152500000000054 -4.1217849999999994e-05 -0.77143500000000065 0.20270750000000001 0.39187000000000044 -4.858219999999999e-05 0.0056032300000000007 3.7486700000000006
decision_type=2 2 2 2 2 2 2 2 2 2 2 2 2 2 2 2 2 2 2 2 2 2 2 2 2 2 2 2 2 2
left_child=-1 -2 3 4 5 6 13 -8 9 11 -11 12 23 14 15 -3 17 -17 20 26 -13 -21 -15 -9 -24 -18 -20 -28 -29 -30
right_child=1 2 -4 -5 -6 -7 7 8 -10 10 -12 18 -14 22 -16 16 25 -19 19 21 -22 -23 24 -25 -26 -27 27 28 29 -31
leaf_value=-4.4902971978073832e-06 -2.6530115825234236e-05 -0.0014537412920176533 -2.3485164518212472e-05 -3.637410193972004e-05 -3.4685244218702401e-05 -0.0014001983475252693 0.0086253892114785107 0.0051820782013237482 -0.0050922830899556484 0.0018776544720055088 0.011051404630289535 0.0012427718515448018 0.0078215168224738188 0.00062645204132422811 -0.0043353221959218256 0.0027289231620009312 0.0037540436302261229 0.011537768650799991 0.00026965454787890531 0.006892044848895499 0.0080208433348508117 0.0014103906492664465 0.010108057440957056 0.00083627709936557779 0.0050372458818472091 0.00047837710857219127 -0.0077970044954175435 -0.00015200883487816467 -0.0045350041134161467 -0.00047470302544408351
leaf_weight=151301 46335 33 12137 3181 3006 93 21 29 21 83 23 119 36 20 21 22 83 25 233 21 21 128 20 168 90 73 24 183 46 37
leaf_count=151301 46335 33 12137 3181 3006 93 21 29 21 83 23 119 36 20 21 22 83 25 233 21 21 128 20 168 90 73 24 183 46 37
internal_value=0 1.02422e-05 9.54473e-05 0.000279097 0.000493568 0.00144272 0.00161006 0.00110635 0.00097162 0.00108226 0.00386819 0.000799665 0.00245644 0.00316283 0.00216332 0.00274159 0.00342358 0.00741448 0.000324261 -7.89099e-05 0.00225948 0.00218297 0.00513879 0.00147601 0.00595921 0.0022212 -0.000723309 -0.0015211 -0.000954856 -0.00272499
internal_weight=0 66332 19997 7860 4679 1673 1580 1193 1172 1151 106 1045 233 387 257 236 203 47 812 672 140 149 130 197 110 156 523 290 266 83
internal_count=217633 66332 19997 7860 4679 1673 1580 1193 1172 1151 106 1045 233 387 257 236 203 47 812 672 140 149 130 197 110 156 523 290 266 83
shrinkage=0.05


Tree=338
num_leaves=31
num_cat=0
split_feature=37 36 5 3 39 16 31 28 17 36 8 35 37 20 8 17 25 26 26 3 40 30 29 6 35 40 11 40 11 39
split_gain=0.00442644 0.0631035 0.0931966 0.145881 0.385052 0.400222 0.122791 0.112506 0.227813 0.285675 0.280496 0.367422 0.214569 0.796662 0.172725 0.161361 0.329894 0.326378 0.313974 0.500129 0.284611 0.230249 0.219115 0.161261 0.140683 0.279842 0.530865 0.382471 0.385087 0.297003
threshold=0.29985500000000015 -0.018010000000000078 9.0806150000000018e-06 -14.267049999999999 -2.1822199999999996 8.793135000000002e-05 0.22099200000000002 0.26698650000000007 -4.8420449999999997 -0.079468000000000025 3.4769000000000005e-05 0.0066980350000000006 0.027234499999999971 -9.4947349999999986 2.3813350000000005e-05 -1.3693099999999998 0.023372950000000003 0.00029728800000000004 0.030416150000000003 -10.2113 -1.2354849999999999 1.8663100000000001 4.8167950000000007e-05 -3.3520449999999996e-06 1.0927500000000002e-05 -1.4363049999999993 0.0009049345000000001 1.2627400000000006 6.7528100000000015e-05 -0.15760999999999911
decision_type=2 2 2 2 2 2 2 2 2 2 2 2 2 2 2 2 2 2 2 2 2 2 2 2 2 2 2 2 2 2
left_child=1 2 3 4 -1 -6 -5 15 9 10 11 -9 13 -10 -13 16 17 -4 24 22 -18 -22 -20 -11 -17 -26 27 28 -27 -30
right_child=-2 -3 7 6 5 -7 -8 8 12 23 -12 14 -14 -15 -16 18 20 -19 19 -21 21 -23 -24 -25 25 26 -28 -29 29 -31
leaf_value=-0.00026836480571595771 8.0627827784659767e-06 5.0288350373756947e-06 0.0056647198898038681 0.00012236338760900065 0.0078932685431362584 0.001142578968966308 -0.0038482803234364837 0.007396784362507066 0.00044380353701430872 0.0013936638264098176 0.00013015890634388025 -0.0015013895774609409 -0.0007174448055917833 -0.01092735190759413 0.0041894699999829752 -0.00026622960528214248 -0.00041319140588949019 -0.0001904031873198581 0.0029344126185169447 0.00010933027002758388 -0.0020817595050729048 -0.0064348074780511012 0.0094305575618313427 -0.0029381010559986214 -0.0002532677343162924 -0.00293924031055732 1.144476340617827e-06 -0.00081676705752958237 0.0052725294804028969 0.0022238968652839568
leaf_weight=129 95516 111070 24 736 38 52 20 39 43 31 135 30 1133 24 24 2311 303 2865 25 87 230 35 27 70 1302 28 831 94 114 267
leaf_count=129 95516 111070 24 736 38 52 20 39 43 31 135 30 1133 24 24 2311 303 2865 25 87 230 35 27 70 1302 28 831 94 114 267
internal_value=0 -6.30645e-06 -0.000120275 0.000346495 0.00148283 0.00399287 1.73199e-05 -0.00016546 -0.000560464 0.000605131 0.00158575 0.00369871 -0.000880032 -0.00362945 0.00102788 -9.47631e-05 -0.000358337 -0.000141762 8.43907e-05 0.00242804 -0.00145989 -0.00265669 0.00630741 -0.00160855 1.85393e-05 0.000268198 0.000777155 0.00205919 0.00272017 0.00313609
internal_weight=0 122117 11047 975 219 90 756 10072 1529 329 228 93 1200 67 54 8543 3457 2889 5086 139 568 265 52 101 4947 2636 1334 503 409 381
internal_count=217633 122117 11047 975 219 90 756 10072 1529 329 228 93 1200 67 54 8543 3457 2889 5086 139 568 265 52 101 4947 2636 1334 503 409 381
shrinkage=0.05


Tree=339
num_leaves=31
num_cat=0
split_feature=39 30 2 36 0 3 35 4 29 6 15 34 4 37 36 36 39 4 25 24 10 14 36 0 36 36 23 11 29 39
split_gain=0.00443969 0.0159265 0.0338114 0.207248 0.0281173 0.0275567 0.144142 0.0410212 0.219499 0.308453 0.0308945 0.126818 0.241754 0.221549 0.385612 0.357073 0.350676 0.3955 0.286158 0.313262 0.237447 0.381187 0.271543 0.187032 0.184744 0.386653 0.437514 0.255462 0.236115 0.219851
threshold=3.3061900000000009 0.20270750000000001 3.0578500000000006 5.4411200000000006 -12.293649999999998 -5.5710999999999995 0.00047625050000000001 0.17779150000000002 -4.1217849999999994e-05 6.3193550000000007e-07 -2.1298199999999995e-05 -0.0043154599999999993 -1.8861499999999998 -0.71931549999999989 -0.43704099999999996 -0.079468000000000025 -5.5958699999999988 -1.1200049999999997 -0.96676949999999995 38.008700000000012 -5.5913199999999999e-05 1.9864300000000001e-06 -0.25142799999999998 -9.9342699999999997 0.077348000000000056 0.22528099999999995 0.00052757850000000018 0.0025934100000000004 3.0144100000000005e-05 -0.99152500000000054
decision_type=2 2 2 2 2 2 2 2 2 2 2 2 2 2 2 2 2 2 2 2 2 2 2 2 2 2 2 2 2 2
left_child=1 -1 5 4 -4 10 -7 -8 9 -9 11 -3 -13 -14 23 16 -16 -18 -17 24 -19 22 -22 -15 29 26 28 -28 -26 -20
right_child=-2 2 3 -5 -6 6 7 8 -10 -11 -12 12 13 14 15 18 17 20 19 -21 21 -23 -24 -25 25 -27 27 -29 -30 -31
leaf_value=2.5234051143109288e-06 1.0641700324169372e-05 -0.00019190331526144943 0.0017608733116139773 0.0054433181750937372 -0.00025609361999545579 0.0040302891997271223 -1.3022161545038163e-05 5.2997325635967885e-05 -0.00069028909695110195 0.0070501916227970335 -9.7987391570246207e-05 -0.00018706701555736672 -0.00016957704707855838 0.0047615978404246563 -0.0024395573112364535 -0.0041250914118091501 0.0085084844235097986 -0.0017673538987646284 0.0031074969821929701 0.0070888433573682887 -0.0022979078032076359 0.0085596607090631174 0.0038209140290167525 -0.00014501592961574755 0.010077713206109982 0.00015042313251908862 0.0041056750828157304 -0.0035218831539774935 0.0040442281861460825 -7.3528207960159325e-05
leaf_weight=124869 67577 3746 20 20 127 24 932 36 93 28 15759 2083 725 20 23 26 40 23 64 22 25 31 66 672 31 114 23 21 34 359
leaf_count=124869 67577 3746 20 20 127 24 932 36 93 28 15759 2083 725 20 23 26 40 23 64 22 25 31 66 672 31 114 23 21 34 359
internal_value=0 -4.79244e-06 -4.1062e-05 0.000668024 1.83236e-05 -4.57949e-05 0.0001974 0.000112929 0.000860614 0.00311427 -5.7117e-05 2.19302e-05 0.000203898 0.000555075 0.000884668 0.00156583 0.00338299 0.00410688 0.00102121 0.00122151 0.00289264 0.00377116 0.00213992 -3.20628e-06 0.0010217 0.00218624 0.00431545 0.00046525 0.00692174 0.000407762
internal_weight=0 150056 25187 167 147 25020 1113 1089 157 64 23907 8148 4402 2319 1594 902 208 185 694 668 145 122 91 692 646 223 109 44 65 423
internal_count=217633 150056 25187 167 147 25020 1113 1089 157 64 23907 8148 4402 2319 1594 902 208 185 694 668 145 122 91 692 646 223 109 44 65 423
shrinkage=0.05


Tree=340
num_leaves=31
num_cat=0
split_feature=39 20 23 9 16 7 0 21 4 36 1 14 1 6 7 5 31 36 36 26 11 16 33 4 39 14 32 13 9 32
split_gain=0.00476212 0.0152745 0.0248506 0.0705371 0.203793 0.0374957 0.0637339 0.0283587 0.0535437 0.105054 0.0598296 0.116235 0.0837384 0.0350815 0.0239407 0.0168997 0.0508684 0.0154842 0.162785 0.242615 0.278586 0.211562 0.418061 1.09131 0.406454 0.141639 0.197229 0.13094 0.260339 0.154307
threshold=-2.1087049999999987 -7.0549999999999988 0.011675600000000003 -2.6900849999999998e-05 0.00037934750000000005 6.4682750000000014e-05 9.313150000000002 0.73617500000000013 -0.20278049999999997 -0.14969009999999991 3.8749050000000005 1.6342400000000002e-06 -1.2762649999999998 3.5448700000000006e-06 5.3889600000000007e-05 7.2568900000000009e-06 0.0011015450000000002 0.20129000000000011 0.016888500000000004 0.0059064900000000012 4.8137750000000008e-05 1.7135300000000002e-05 -1.4149849999999998e-08 -0.062481749999999996 -0.026199999999999776 5.0776450000000009e-08 -0.00077332949999999985 1.3156850000000004e-07 -1.0199649999999998e-05 0.0052581350000000006
decision_type=2 2 2 2 2 2 2 2 2 2 2 2 2 2 2 2 2 2 2 2 2 2 2 2 2 2 2 2 2 2
left_child=-1 -2 7 4 -4 14 -7 15 9 -9 12 13 -10 -12 -5 16 -3 18 -17 21 -21 22 25 -24 -25 -20 -27 29 -29 -22
right_child=1 2 3 5 -6 6 -8 8 10 -11 11 -13 -14 -15 -16 17 -18 -19 19 20 27 -23 23 24 -26 26 -28 28 -30 -31
leaf_value=1.3291372545171894e-05 1.9918453123007812e-06 0.00010445126344895743 0.0044907085726057028 -3.1519787549227385e-05 -0.00031455326488388606 0.0035133358319944818 -0.00010696454471232551 -0.00029333934056921865 -7.6482684643623713e-05 -0.0045341966143535939 0.00068836221401498844 -0.004444931499019731 0.0035009260468844639 -0.0018284150598628915 -0.0016924009478721611 -3.4971497667407699e-05 0.0026429700966969986 -2.1255127153801281e-07 0.0010739614266738599 0.0063911084944265895 0.00015103837252224497 -0.00039148041538409793 -0.011870379266661726 -0.0059695356807699714 0.0009389806713685782 -0.0057632080027057477 -0.00059521914010474575 -0.00036779668585546057 0.0067470807434074232 -0.0042497692178003494
leaf_weight=51457 142968 139 36 383 57 20 31 40 74 23 45 20 21 20 23 11680 23 9695 74 20 98 373 35 33 60 24 80 36 20 25
leaf_count=51457 142968 139 36 383 57 20 31 40 74 23 45 20 21 20 23 11680 23 9695 74 20 98 373 35 33 60 24 80 36 20 25
internal_value=0 -4.11572e-06 -4.17401e-05 0.000290345 0.00154555 3.49092e-05 0.00131276 -4.98011e-05 -0.000587041 -0.00184159 -0.000147949 -0.00111165 0.000714313 -8.60308e-05 -0.000125609 -4.39769e-05 0.000464858 -4.76812e-05 -8.43279e-05 -0.000740913 0.000794375 -0.00119087 -0.0021653 -0.00434468 -0.00151243 -0.000598098 -0.00178783 0.000169042 0.00217323 -0.000743435
internal_weight=0 166176 23208 550 93 457 51 22658 243 63 180 85 95 65 406 22415 162 22253 12558 878 199 679 306 128 93 178 104 179 56 123
internal_count=217633 166176 23208 550 93 457 51 22658 243 63 180 85 95 65 406 22415 162 22253 12558 878 199 679 306 128 93 178 104 179 56 123
shrinkage=0.05


Tree=341
num_leaves=31
num_cat=0
split_feature=23 39 7 12 5 37 37 2 12 21 15 0 31 33 11 14 23 2 14 40 39 34 10 3 10 4 4 4 16 15
split_gain=0.00465562 0.0318071 0.0381708 0.0282149 0.049044 0.0613396 0.0275591 0.139781 0.0418201 0.0280968 0.0281074 0.015353 0.0354115 0.0132601 0.0257316 0.0156959 0.0105876 0.0363592 0.0281039 0.0425739 0.133235 0.237873 0.0544465 0.0449794 0.0289388 0.0505207 0.029879 0.0234877 0.0309306 0.0281939
threshold=-0.062701649999999984 4.524210000000001 -1.2791099999999999e-05 -8.2618699999999988e-07 1.2137100000000001e-05 -0.74906549999999983 -0.60497499999999982 -0.17274099999999995 -7.832789999999998e-08 -1.7211949999999998 -0.00053704299999999996 2.0124900000000006 -0.27384599999999998 0.000104555 0.00085338750000000011 -4.5397049999999996e-08 -0.013856449999999998 -2.9939399999999998 3.4775650000000005e-06 2.014730000000001 -0.15760999999999911 -0.16268899999999997 3.4207850000000005e-05 -11.746199999999998 2.6137250000000005e-05 1.8987000000000003 0.23828700000000003 0.53444550000000013 0.00031424650000000008 3.3339000000000007e-05
decision_type=2 2 2 2 2 2 2 2 2 2 2 2 2 2 2 2 2 2 2 2 2 2 2 2 2 2 2 2 2 2
left_child=1 3 -3 4 5 -1 -5 8 -8 -10 -11 12 -6 14 -12 -15 17 -2 27 20 21 -20 -23 -22 26 -26 -25 29 -29 -19
right_child=16 2 -4 6 11 -7 7 -9 9 10 13 -13 -14 15 -16 -17 -18 18 19 -21 23 22 -24 24 25 -27 -28 28 -30 -31
leaf_value=-0.00020491106881915285 -0.0021427783979478675 -5.2709575465996754e-05 0.0030364156359792109 -9.8860256974796055e-05 0.0021646161816368643 -0.0035583561714738611 0.002364067656781117 0.0034431624750141058 0.0012581917751172237 -0.0015079244886187049 -9.6075040275492242e-05 -0.00055922943446266925 -0.00011670394476338212 -0.0012522002522488156 0.0020914934042957612 6.6346664611791563e-05 5.2713248154956322e-07 -0.00020053589323365263 0.0071173021596041518 -0.00026047906644382444 0.0019010983938351274 0.0028040461496129866 -0.00048369221705583834 -0.00041543780847253702 0.0023029740006181368 -0.000498099953426087 -0.0026072196864887426 -0.0021120341333674309 -0.00016055594043387424 0.0015676528584584089
leaf_weight=30 22 20 20 326 22 25 20 37 37 36 41 73 75 31 20 83 214986 1138 20 234 25 20 34 48 22 60 23 37 45 23
leaf_count=30 22 20 20 326 22 25 20 37 37 36 41 73 75 31 20 83 214986 1138 20 234 25 20 34 48 22 60 23 37 45 23
internal_value=0 0.000113739 0.00149185 4.9341e-05 -0.000431383 -0.0017292 0.000220756 0.000562379 0.000164659 -1.2713e-05 -0.000235573 -1.14999e-05 0.000400709 2.61678e-05 0.000621161 -0.000292206 -4.70201e-07 -0.000122922 -9.72209e-05 0.000225163 0.000676116 0.00245921 0.000733989 -6.51695e-05 -0.000386455 0.000253408 -0.00112545 -0.00022327 -0.0010411 -0.000165507
internal_weight=0 896 40 856 225 55 631 305 268 248 211 170 97 175 61 114 216737 1751 1729 486 252 74 54 178 153 82 71 1243 82 1161
internal_count=217633 896 40 856 225 55 631 305 268 248 211 170 97 175 61 114 216737 1751 1729 486 252 74 54 178 153 82 71 1243 82 1161
shrinkage=0.05


Tree=342
num_leaves=31
num_cat=0
split_feature=9 28 8 18 5 3 17 10 18 29 10 19 5 28 26 0 26 15 26 26 3 31 8 11 26 6 9 16 36 36
split_gain=0.00439616 0.0191237 0.187594 0.0436375 0.130798 0.0252789 0.014163 0.0489956 0.0441066 0.0117521 0.0648149 0.174584 0.339319 0.0948965 0.0510956 0.074569 0.0393582 0.128713 0.0386964 0.018115 0.0488512 0.0995017 0.0441126 0.0254788 0.0230514 0.0507886 0.0227135 0.0396694 0.0314303 0.123785
threshold=-0.000119502 11.695650000000002 2.0928800000000005e-05 4.9794500000000008 1.8904150000000004e-05 -13.897099999999998 -16.050999999999998 -8.0191649999999986e-06 -8.6662999999999979 9.2365500000000009e-05 8.055315000000001e-05 2.2495850000000002 1.7744900000000004e-05 -2.1163149999999997 0.30041650000000003 -2.7237549999999993 1.0482150000000001 7.6735600000000018e-05 0.70424300000000006 0.11680600000000001 -16.558299999999999 0.17102100000000001 1.7987700000000004e-05 0.00096226550000000008 0.099917750000000013 1.9315000000000005e-06 -0.00018837999999999995 0.00031424650000000008 -0.22452634999999985 -0.040859549999999939
decision_type=2 2 2 2 2 2 2 2 2 2 2 2 2 2 2 2 2 2 2 2 2 2 2 2 2 2 2 2 2 2
left_child=1 6 -3 5 -5 -4 7 -1 -9 16 11 14 -13 -14 15 -11 18 -18 19 24 21 -21 -22 -24 -8 -26 27 -25 -28 -30
right_child=-2 2 3 4 -6 -7 9 8 -10 10 -12 12 13 -15 -16 -17 17 -19 -20 20 22 -23 23 26 25 -27 28 -29 29 -31
leaf_value=0.0019346930232859449 -2.7162523042472001e-06 0.0047559579334515356 -0.0017342035226647569 0.0042889668811334387 -0.0006279710592934862 -0.00013073344292728129 1.4628889084269398e-05 -0.0024964483404931216 -0.00033122368840354994 1.3278992047162321e-05 -8.6047814961556773e-05 0.0071884821985544736 0.0023582076350460225 -0.0013921087146539527 -0.0018498227749425438 0.0030801767649625781 -0.0010170536561469946 0.003185539782096289 -0.0017575005442561254 -3.9718845621699577e-05 -0.0021725136791246771 0.0038910032029629556 0.00144123222541696 0.0020215750712759477 0.00010845996106018249 0.0027289930486440427 5.9537500296315676e-05 -0.00025040637154263813 -0.0048993971745949242 -0.00052746311992557505
leaf_weight=20 189890 23 32 21 38 106 25221 28 147 200 740 28 37 31 31 22 35 38 31 69 32 21 21 20 71 25 62 488 20 85
leaf_count=20 189890 23 32 21 38 106 25221 28 147 200 740 28 37 31 31 22 35 38 31 69 32 21 21 20 71 25 62 488 20 85
internal_value=0 1.85917e-05 0.00048291 -1.59739e-05 0.00112213 -0.000502553 1.48802e-05 -0.000409726 -0.00067766 1.791e-05 0.000178857 0.000740547 0.002556 0.000648505 5.16806e-05 0.000317206 1.12302e-05 0.0011706 7.99573e-06 1.00899e-05 -0.000221494 0.00087745 -0.000357352 -0.000273896 1.75724e-05 0.00079089 -0.000327256 -0.000160958 -0.00083312 -0.00136021
internal_weight=0 27743 220 197 59 138 27523 195 175 27328 1089 349 96 68 253 222 26239 73 26166 26135 818 90 728 696 25317 96 675 508 167 105
internal_count=217633 27743 220 197 59 138 27523 195 175 27328 1089 349 96 68 253 222 26239 73 26166 26135 818 90 728 696 25317 96 675 508 167 105
shrinkage=0.05


Tree=343
num_leaves=31
num_cat=0
split_feature=39 34 15 36 11 20 23 9 16 7 4 34 36 37 13 7 0 18 35 40 39 16 36 37 39 17 33 39 15 34
split_gain=0.00431898 0.0143648 0.054228 0.0973375 0.0137432 0.0140218 0.0225341 0.0640808 0.183686 0.0338399 0.0603823 0.0226672 0.0509595 0.349953 0.0651925 0.0220007 0.041702 0.0198021 0.0182929 0.0174021 0.0727838 0.0942105 0.192868 0.950915 0.456578 0.41146 0.208044 0.0588634 0.0518513 0.0572595
threshold=-2.1087049999999987 -1.0090899999999998 0.00082871750000000014 -0.60254799999999997 0.71230950000000004 -7.0549999999999988 0.011675600000000003 -2.6900849999999998e-05 0.00037934750000000005 6.4682750000000014e-05 -0.11642199999999998 -0.051625349999999993 0.12375499999999996 0.14791590000000002 9.6924450000000025e-07 4.5854250000000009e-05 10.788850000000002 -19.754149999999996 0.0035259200000000005 -0.16918499999999967 0.47541999999999979 3.7480150000000004e-05 -0.12496499999999998 -0.10141500000000002 0.31279500000000043 -2.2833199999999994 1.8731150000000003e-09 -0.026199999999999776 1.1699350000000001e-06 4.1001850000000008e-05
decision_type=2 2 2 2 2 2 2 2 2 2 2 2 2 2 2 2 2 2 2 2 2 2 2 2 2 2 2 2 2 2
left_child=1 2 -1 -4 5 -2 11 8 -8 15 -11 12 13 -7 -14 18 -17 -13 -9 20 21 22 -19 -24 25 -25 -27 -21 -29 -30
right_child=4 -3 3 -5 -6 6 7 9 -10 10 -12 17 14 -15 -16 16 -18 19 -20 27 -22 -23 23 24 -26 26 -28 28 29 -31
leaf_value=-9.3679464248673625e-05 2.4139354903278899e-06 1.126326599043633e-05 -0.00039096574240829793 0.004542022115783766 -0.00043936927541730241 -0.0061399773203967408 0.0042692177836215709 0.0014788916184261325 -0.00029284036824416638 0.0033891644758841724 -0.0001346590492175892 0.0014249987223276708 -0.00021154881611945838 -8.0782943171300311e-05 0.0028728480265098849 -0.0027142451195273187 0.00036434744017076973 -1.2526789796572166e-05 -7.6851114601318764e-05 -5.0760546824051719e-05 -2.8104285837419357e-05 -3.5330864846297661e-05 -4.3136311940629863e-05 -0.0080043625676651207 -0.0097901923511495917 0.0016804950321758433 -0.0047121416993422833 0.00037680058823942624 9.4290475686366023e-05 -0.001278083124029719
leaf_weight=103 142787 51314 20 20 181 28 36 20 57 20 31 23 93 160 21 22 22 441 342 10198 8324 970 315 29 38 35 20 1570 290 103
leaf_count=103 142787 51314 20 20 181 28 36 20 57 20 31 23 93 160 21 22 22 441 342 10198 8324 970 315 29 38 35 20 1570 290 103
internal_value=0 1.26579e-05 0.000513092 0.00207553 -3.91955e-06 -3.44474e-06 -3.94902e-05 0.000276738 0.00147312 3.32732e-05 0.00124723 -4.71663e-05 -0.000477447 -0.000983216 0.00035663 -0.000119219 -0.00117495 -4.13538e-05 9.10152e-06 -4.28639e-05 -9.11229e-05 -0.00037498 -0.000750218 -0.00149466 -0.00524245 -0.00318514 -0.0006441 -2.49794e-06 0.000248232 -0.00026539
internal_weight=0 51457 143 40 166176 165995 23208 550 93 457 51 22658 302 188 114 406 44 22356 362 22333 10172 1848 878 437 122 84 55 12161 1963 393
internal_count=217633 51457 143 40 166176 165995 23208 550 93 457 51 22658 302 188 114 406 44 22356 362 22333 10172 1848 878 437 122 84 55 12161 1963 393
shrinkage=0.05


Tree=344
num_leaves=31
num_cat=0
split_feature=24 4 15 3 15 9 39 9 26 8 6 1 4 4 15 4 18 4 10 21 36 36 12 13 2 4 19 36 17 17
split_gain=0.00446236 0.0167527 0.0397078 0.102939 0.0263374 0.0209786 0.0367268 0.0251145 0.036943 0.0296852 0.0222503 0.0196063 0.0187841 0.081047 0.0256747 0.0231624 0.0174735 0.0169224 0.0151253 0.0124962 0.00930967 0.0741812 0.119852 0.0290584 0.0150951 0.0137512 0.0179168 0.0106625 0.0148326 0.0114778
threshold=91.481750000000019 5.1455300000000008 0.0042538100000000011 -12.665349999999998 0.0027682350000000004 -0.00035055549999999991 -2.1087049999999987 -5.9599849999999995e-05 0.70424300000000006 2.3665400000000002e-05 1.0000000180025095e-35 -4.5317299999999987 0.92648250000000021 1.4464300000000001 0.00010559900000000002 0.46668750000000003 0.93373450000000013 0.34232900000000005 3.0213650000000005e-05 1.5291850000000002 -0.17527649999999997 -0.57440449999999987 -5.4793599999999992e-08 9.9131400000000028e-06 -1.5877199999999998 -0.54650249999999989 0.8476410000000002 0.1751400000000001 -3.0760849999999995 -3.3588049999999998
decision_type=2 2 2 2 2 2 2 2 2 2 2 2 2 2 2 2 2 2 2 2 2 2 2 2 2 2 2 2 2 2
left_child=-1 2 4 -4 5 6 -2 8 11 -10 -11 -7 14 -14 15 17 -15 20 -3 -5 21 25 -23 24 -22 26 -9 28 -26 -29
right_child=1 18 3 19 -6 7 -8 12 9 10 -12 -13 13 16 -16 -17 -18 -19 -20 -21 23 22 -24 -25 27 -27 -28 29 -30 -31
leaf_value=6.1576651655724463e-07 -0.00042667904816057889 -0.0019625616399571301 0.0039490768742160244 -0.0005036745695221281 -0.0018241340768079019 0.0013824272266356275 0.0025671633216188643 -0.0019250317074527793 -0.0030135487227446658 0.00035630407560940675 -0.0016140640167960603 -0.00035949739003193656 0.003216504436188742 0.00069067205721512438 -0.0018575375596992672 0.001636165855888976 -0.001073545271083276 -0.0013939426866272698 -0.00039835716862559342 0.0009614378787690921 0.0012450431621982717 0.0049250199670495933 4.7093792989685694e-05 -0.0016118194101556371 2.4462997680529954e-05 1.6109489325996644e-05 -0.00022764199225351167 -0.00033418065322458125 -0.0019011896329175215 0.00018218161574080883
leaf_weight=216035 21 20 22 43 22 20 20 22 22 23 38 84 23 25 20 20 32 24 68 22 20 20 34 34 20 375 53 223 20 208
leaf_count=216035 21 20 22 43 22 20 20 22 22 23 38 84 23 25 20 20 32 24 68 22 20 20 34 34 20 375 53 223 20 208
internal_value=0 -8.3246e-05 -4.4164e-05 0.000992797 -0.000107562 -8.06067e-05 0.00103373 -0.000114201 -0.000652336 -0.00143901 -0.000871138 -2.45119e-05 -2.84111e-05 0.000711162 -8.25427e-05 -4.9458e-05 -0.000299766 -8.14736e-05 -0.000753858 -7.79036e-06 -5.08621e-05 0.000102633 0.00185373 -0.000198217 -0.00010033 -0.000107499 -0.000725543 -0.000157459 -0.000938363 -8.49849e-05
internal_weight=0 1598 1510 87 1423 1401 41 1360 187 83 61 104 1173 80 1093 1073 57 1053 88 65 1029 504 54 525 491 450 75 471 40 431
internal_count=217633 1598 1510 87 1423 1401 41 1360 187 83 61 104 1173 80 1093 1073 57 1053 88 65 1029 504 54 525 491 450 75 471 40 431
shrinkage=0.05


Tree=345
num_leaves=31
num_cat=0
split_feature=23 1 5 12 36 36 1 21 9 12 19 4 23 14 0 31 32 34 10 8 6 36 36 14 15 33 6 11 34 4
split_gain=0.00443934 0.0610021 0.0220249 0.0405386 0.0534645 0.0352057 0.105012 0.0418836 0.032382 0.0152534 0.0358879 0.00952295 0.00913996 0.0304732 0.0424096 0.153368 0.0502956 0.0317068 0.082818 0.0261742 0.0457055 0.0675356 0.209187 0.115056 0.0429207 0.0220102 0.0214864 0.0247936 0.0729133 0.0220313
threshold=-0.062701649999999984 -13.794199999999998 1.2194250000000001e-05 -7.7047499999999992e-07 0.9482394999999999 0.57364500000000007 0.72012600000000015 -1.4574199999999997 5.0670100000000008e-05 7.7511400000000007e-07 -1.6898149999999998 -0.36598199999999997 -0.013856449999999998 3.4775650000000005e-06 -4.8765649999999985 -0.93075499999999989 -2.2564299999999995 -0.55203199999999986 5.8318900000000008e-05 3.1709050000000001e-05 -1.3171099999999997e-06 0.5456565000000001 -0.30278099999999991 -3.7416649999999998e-06 3.3339000000000007e-05 0.000104555 5.099150000000001e-06 0.0075758350000000004 0.22632500000000003 -0.42458499999999993
decision_type=2 2 2 2 2 2 2 2 2 2 2 2 2 2 2 2 2 2 2 2 2 2 2 2 2 2 2 2 2 2
left_child=1 -1 3 4 -3 6 7 -4 9 -9 -11 -5 13 19 15 -15 -16 18 -18 26 24 22 25 -24 -21 -22 27 29 -29 -2
right_child=12 2 5 11 -6 -7 -8 8 -10 10 -12 -13 -14 14 16 -17 17 -19 -20 20 21 -23 23 -25 -26 -27 -28 28 -30 -31
leaf_value=0.0028414613935819947 0.0010258757366601559 -0.0031207469809386469 0.0017831446563692365 -0.0009518851123373126 -0.0001594462246937058 -0.0001359450095682494 0.0033236674476938791 8.3879169363475136e-05 0.0016128562998750972 -0.0026235848577925939 -4.0122402885860605e-05 0.0001269069367137146 4.6749578562409571e-07 0.0046978422359603908 0.0017990386653268201 0.00020111308834590025 -0.0031781338006840092 9.0924166736430397e-06 0.00029715351954109795 -0.00019778978921314826 -0.0001670618108809045 -4.1980660122338141e-05 -0.0011816282920162416 -0.0058887585845214373 0.0020516074533035232 -0.0019642149354331196 0.0015165181916513989 -0.00011769960405003718 -0.0034077841827335458 -4.2185482543662773e-05
leaf_weight=20 54 27 39 23 35 327 32 120 27 20 41 185 214986 23 33 108 30 255 40 272 115 139 21 34 23 20 22 85 21 456
leaf_count=20 54 27 39 23 35 327 32 120 27 20 41 185 214986 23 33 108 30 255 40 272 115 139 21 34 23 20 22 85 21 456
internal_value=0 0.000111066 4.87278e-05 -0.000326875 -0.00144904 0.000216076 0.000628659 0.000279508 -2.42353e-06 -0.000243377 -0.000887159 7.61743e-06 -4.5915e-07 -0.000114232 0.000220858 0.000990615 -6.08129e-05 -0.000249659 -0.00119226 -0.000244072 -0.00047432 -0.000879525 -0.00149225 -0.00409149 -2.24131e-05 -0.000433307 -1.88775e-05 -7.3713e-05 -0.000769509 7.09034e-05
internal_weight=0 896 876 270 62 606 279 247 208 181 61 208 216737 1751 489 131 358 325 70 1262 624 329 190 55 295 135 638 616 106 510
internal_count=217633 896 876 270 62 606 279 247 208 181 61 208 216737 1751 489 131 358 325 70 1262 624 329 190 55 295 135 638 616 106 510
shrinkage=0.05


Tree=346
num_leaves=31
num_cat=0
split_feature=24 4 15 3 15 9 34 9 0 4 4 15 14 15 34 4 10 7 1 11 13 29 34 13 13 5 13 13 35 31
split_gain=0.00430715 0.0154032 0.0355553 0.0922446 0.0237433 0.0189942 0.0398539 0.0227116 0.0156109 0.0146908 0.0889795 0.0355485 0.0683188 0.0260105 0.021006 0.0155534 0.0134328 0.0104308 0.00971315 0.0174618 0.0504407 0.147637 0.0204656 0.0152781 0.0167561 0.0131014 0.0152157 0.0119395 0.00956223 0.00914082
threshold=91.481750000000019 5.1455300000000008 0.0042538100000000011 -12.665349999999998 0.0027682350000000004 -0.00035055549999999991 0.6802760000000001 -0.00020968799999999995 4.9393250000000011 1.1247450000000001 1.5563800000000001 7.6735600000000018e-05 2.7737300000000002e-06 3.3339000000000007e-05 -0.26996899999999996 0.34232900000000005 3.0213650000000005e-05 3.6972250000000008e-05 -3.7200499999999992 0.0059042550000000015 6.5238050000000013e-06 0.0014581450000000003 1.0252250000000003 5.8204250000000011e-06 3.6618400000000008e-05 8.1441900000000017e-06 3.1357800000000004e-08 1.1210250000000002e-06 0.17438400000000001 -0.27384599999999998
decision_type=2 2 2 2 2 2 2 2 2 2 2 2 2 2 2 2 2 2 2 2 2 2 2 2 2 2 2 2 2 2
left_child=29 2 4 -4 5 6 -2 -7 -5 11 -11 13 -13 15 -12 18 -3 -16 19 20 -9 -22 28 25 -25 26 -20 -27 -21 -1
right_child=1 16 3 8 -6 7 -8 9 -10 10 14 12 -14 -15 17 -17 -18 -19 23 22 21 -23 -24 24 -26 27 -28 -29 -30 -31
leaf_value=6.5382937184066278e-05 -0.00061576393258292231 -0.0018638912949245424 0.0037354380246886819 -0.0005268320401389954 -0.0017341465816240421 -0.0014269545311890398 0.0025029281262374885 2.3899932391427829e-05 0.0011520450294483454 0.0028907212501508186 -0.0015068833971911642 -0.0036831850692396989 0.0002374936966225505 0.0015917511262080594 0.0010480328996588166 -0.0013935358703905799 -0.00038979766871788716 -0.00054746802572481102 -0.00015632577948660281 -0.00082243327831912959 -0.001075344760796394 0.0047172258417545396 -0.0019396690134834945 -0.0021715217606106305 -0.00014932368870913273 -0.00014655886282030693 0.0017110087292167009 -0.0011114507209961577 0.00060684626130387196 -1.0279891780446203e-06
leaf_weight=5312 20 20 22 45 22 32 21 347 20 28 28 20 25 23 21 23 68 20 24 22 22 22 21 20 21 562 20 34 25 210723
leaf_count=5312 20 20 22 45 22 32 21 347 20 28 28 20 25 23 21 23 68 20 24 22 22 22 21 20 21 562 20 34 25 210723
internal_value=0 -8.17855e-05 -4.43107e-05 0.000936932 -0.000104302 -7.87088e-05 0.000981615 -0.000110674 -1.02545e-05 -7.89568e-05 0.000513472 -0.000125639 -0.00150503 -7.33011e-05 -0.000451209 -0.00010623 -0.000724819 0.00026974 -8.02579e-05 9.75147e-05 0.000226124 0.00182094 -0.000641992 -0.000200078 -0.00113576 -0.000140136 0.000692463 -0.000201603 -6.21782e-05 6.04963e-07
internal_weight=0 1598 1510 87 1423 1401 41 1360 65 1328 97 1231 45 1186 69 1163 88 41 1140 459 391 44 68 681 41 640 44 596 47 216035
internal_count=217633 1598 1510 87 1423 1401 41 1360 65 1328 97 1231 45 1186 69 1163 88 41 1140 459 391 44 68 681 41 640 44 596 47 216035
shrinkage=0.05


Tree=347
num_leaves=31
num_cat=0
split_feature=8 2 21 15 12 28 4 36 12 32 4 1 22 17 3 23 23 29 32 36 36 18 19 36 18 21 15 16 9 25
split_gain=0.00425862 0.0187561 0.0165701 0.0378063 0.0342849 0.0219968 0.103791 0.289585 0.108 0.066953 0.0263551 0.0499798 0.0223683 0.0213104 0.0181206 0.0322689 0.0157913 0.0354227 0.0152577 0.0256421 0.0817761 0.0188747 0.0227429 0.0492093 0.0182829 0.0156443 0.0766755 0.31311 0.0289223 0.0224192
threshold=1.6290050000000002e-05 3.0578500000000006 1.3511250000000004 0.00034847100000000005 2.8964050000000007e-06 3.7022150000000003 -0.58642949999999983 0.327845 -4.3823949999999997e-07 -0.60180299999999987 -0.18994349999999996 -3.8531599999999995 6.2236100000000008 -4.3220249999999991 -15.396099999999999 -0.0016081899999999998 -0.0016081899999999998 -0.00020540699999999998 0.18330700000000003 -0.22452634999999985 -0.027530000000000051 14.999250000000002 1.4271150000000004 0.30085850000000008 -9.6904849999999971 0.69957950000000013 0.00019448050000000003 0.00013951500000000002 -6.7024799999999989e-05 -0.25901299999999999
decision_type=2 2 2 2 2 2 2 2 2 2 2 2 2 2 2 2 2 2 2 2 2 2 2 2 2 2 2 2 2 2
left_child=1 2 5 16 -5 18 7 8 -7 -8 11 -11 -12 -9 15 -14 -4 -18 25 24 -21 22 23 -22 -20 29 28 -28 -27 -1
right_child=-2 -3 3 4 -6 6 9 13 -10 10 12 -13 14 -15 -16 -17 17 -19 19 20 21 -23 -24 -25 -26 26 27 -29 -30 -31
leaf_value=-0.0014889719006112921 2.7638098350522623e-06 0.0014760430303535292 0.00014331592481313672 -0.0029545101614203307 -0.00017708377182771076 0.0067960004657506949 0.0024018791334618492 -0.0016466839359189315 0.0021933257210408697 -0.0027795051597144672 0.0014964445394897749 0.00010194235997272807 0.00017004955458105542 0.00018067191699512293 2.55837944187471e-06 -0.0024555565881945025 -0.00019438579537415726 -0.0025305306725203992 0.0011182478567518827 -0.0030005094882653797 -0.0024642738098918926 -0.0017443908749902176 0.0013895869061040381 -5.1596785011230369e-05 -9.7917780055362959e-05 -0.001378966445796929 0.0063479273165576167 -7.2319164720755898e-05 8.6665076012186872e-05 -2.0043847078604855e-05
leaf_weight=26 188240 21 169 25 20 25 26 27 26 27 22 34 25 39 278 22 86 20 35 32 24 21 21 177 264 36 25 79 518 27243
leaf_count=26 188240 21 169 25 20 25 26 27 26 27 22 34 25 39 278 22 86 20 35 32 24 21 21 177 264 36 25 79 518 27243
internal_value=0 -1.77001e-05 -1.87681e-05 -0.000376599 -0.0017201 -1.48267e-05 0.000298081 0.00161976 0.00444954 -5.82252e-05 -0.000214997 -0.00117345 -4.65072e-05 -0.000566883 -0.000150953 -0.00105896 -0.000156754 -0.000635168 -2.0876e-05 -0.000276052 -0.000624518 -0.00031163 -0.000176099 -0.000339678 4.44427e-05 -1.56312e-05 0.000225281 0.00147101 -8.57452e-06 -2.14444e-05
internal_weight=0 29393 29372 320 45 29052 551 117 51 434 408 61 347 66 325 47 275 106 28501 574 275 243 222 201 299 27927 658 104 554 27269
internal_count=217633 29393 29372 320 45 29052 551 117 51 434 408 61 347 66 325 47 275 106 28501 574 275 243 222 201 299 27927 658 104 554 27269
shrinkage=0.05


Tree=348
num_leaves=31
num_cat=0
split_feature=36 37 2 33 14 36 11 39 26 32 13 14 4 23 33 25 23 4 39 36 21 39 39 31 16 10 35 26 36 24
split_gain=0.0041434 0.0405274 0.0703809 0.0681593 0.214002 0.312364 0.560059 0.757048 1.44161 0.65718 0.588562 0.175945 0.285808 0.295467 0.278953 0.297638 0.237376 0.211351 0.195876 0.158515 0.262571 0.353582 0.481203 0.147459 0.144176 0.134448 0.17809 0.229906 0.146935 0.195131
threshold=0.24966499999999994 -0.016969000000000036 3.0794900000000003 -3.5500949999999992e-08 5.2773400000000007e-08 0.056773999999999998 0.0013551600000000002 0.97785500000000003 0.0034266150000000005 -0.00020651999999999997 1.0000000180025095e-35 2.1981950000000002e-08 -0.75155249999999996 0.00033276500000000006 -1.5532149999999998e-06 -0.038817099999999993 0.00033276500000000006 -0.16366899999999998 -0.32314999999999999 0.10022550000000004 0.15353800000000004 1.9902050000000007 -0.71725499999999964 0.12005900000000001 2.4445350000000004e-06 -1.7544299999999997e-05 0.0060015500000000005 -0.052900399999999993 0.14973499999999998 1.3732500000000003
decision_type=2 2 2 2 2 2 2 2 2 2 2 2 2 2 2 2 2 2 2 2 2 2 2 2 2 2 2 2 2 2
left_child=1 3 -3 11 5 6 7 8 9 -5 -11 12 -1 14 24 -16 17 19 -15 20 -13 22 -22 -7 -14 26 27 -19 29 -29
right_child=-2 2 -4 4 -6 23 -8 -9 -10 10 -12 16 13 18 15 -17 -18 25 -20 -21 21 -23 -24 -25 -26 -27 -28 28 -30 -31
leaf_value=-0.00029657463325582405 7.7320564748980492e-06 2.8054129782755688e-06 -0.0027633593285155138 0.0035521057677333767 -2.2646129717081894e-05 -0.00021683067427217398 0.0004267762669650304 -0.00014995944915184131 -0.01778579883925293 -0.013371280523715541 -0.0027252547011861732 -0.00023637883160231409 -0.0059166696943893015 0.0063312931047403258 0.0054553033578688178 0.00075061876210226518 -0.0016023137830365082 -0.0045551085638137357 0.0020277664805269944 -0.00030654820641240867 -0.0024549749155388175 -0.00047752855784410442 -0.012818921483787044 -0.0024966872225999589 -0.00031291569781994135 -6.5319443435747204e-05 0.0041596210866889638 0.00074309205996894994 -0.0005102353638639593 0.0036237094397054883
leaf_weight=577 96465 111733 23 23 3490 1062 122 75 23 20 37 73 22 40 36 508 263 21 78 230 24 33 21 76 24 1983 37 286 154 74
leaf_count=577 96465 111733 23 23 3490 1062 122 75 23 20 37 73 22 40 36 508 263 21 78 230 24 33 21 76 24 1983 37 286 154 74
internal_value=0 -6.15569e-06 2.23612e-06 -0.000105798 -0.000234146 -0.000747453 -0.00218272 -0.00397125 -0.00675374 -0.00358202 -0.0064607 3.52587e-05 0.000529434 0.00120261 0.000745811 0.00106196 -0.000163246 -3.43372e-05 0.00348659 -0.00113291 -0.0023916 -0.00440866 -0.00729148 -0.000369088 -0.00299297 0.000129481 0.00080481 0.000572795 0.000782301 0.00133522
internal_weight=0 121168 111756 9412 4928 1438 300 178 103 80 57 4484 1285 708 590 544 3199 2936 118 381 151 78 45 1138 46 2555 572 535 514 360
internal_count=217633 121168 111756 9412 4928 1438 300 178 103 80 57 4484 1285 708 590 544 3199 2936 118 381 151 78 45 1138 46 2555 572 535 514 360
shrinkage=0.05


Tree=349
num_leaves=31
num_cat=0
split_feature=23 1 5 12 36 36 2 4 18 13 4 12 5 4 17 12 24 40 36 36 13 4 13 13 2 36 21 17 11 11
split_gain=0.00409856 0.0540036 0.0205941 0.0373344 0.0590508 0.0302153 0.088248 0.184979 0.0385798 0.107718 0.0253148 0.016906 0.0109626 0.00980049 0.00895624 0.0103985 0.00851729 0.0280195 0.0165263 0.0929213 0.0494182 0.171973 0.0190769 0.0278897 0.0287891 0.023583 0.0138063 0.0103319 0.0361852 0.0192735
threshold=-0.062701649999999984 -13.794199999999998 1.1794800000000003e-05 -7.7047499999999992e-07 0.9482394999999999 0.57364500000000007 -0.17274099999999995 0.026035500000000007 -0.5982734999999999 3.6544900000000005e-06 -0.96247749999999999 -1.1660999999999999e-06 1.0122450000000002e-05 -0.20992299999999997 -8.5876849999999987 2.6249650000000004e-07 91.481750000000019 9.0515450000000026 0.20129000000000011 0.077348000000000056 2.5770550000000005e-06 2.5139300000000007 2.3057600000000002e-06 9.9131400000000028e-06 -0.43964599999999993 -0.54531499999999988 -1.0674849999999998 -11.277699999999998 0.019024750000000003 0.0067067750000000008
decision_type=2 2 2 2 2 2 2 2 2 2 2 2 2 2 2 2 2 2 2 2 2 2 2 2 2 2 2 2 2 2
left_child=1 -1 3 4 -3 6 8 -8 10 -10 -4 -12 14 -14 -5 -16 -2 18 19 22 27 -22 -18 24 -24 -25 -23 -20 29 -29
right_child=16 2 5 12 -6 -7 7 -9 9 -11 11 -13 13 -15 15 -17 17 -19 20 -21 21 26 23 25 -26 -27 -28 28 -30 -31
leaf_value=0.0026757195632671938 2.4541468557570212e-07 -0.0034991137656933541 -0.0014603210323204823 -0.00021335157285736896 -0.00011200935039068423 -0.000120527962527577 -0.00047207471603046133 0.0061719282122794546 -2.600975323347436e-05 0.003601807543600444 0.001343279262904876 -0.00023390325639799782 -0.0013604634924766809 -0.0001247303061759072 0.00025911883628420608 0.0016741826916404534 -2.7778888638979236e-05 0.001388719686555901 -0.00081307927576128888 -0.0029675159241378426 0.0037663546185462515 -8.6463772928372268e-05 -0.0006762970653770965 -0.00054933356248768929 -0.0031094727751042228 0.001333058258460369 -0.001771455934504047 -0.00010782029129255864 0.0019453841730137358 -0.0016468822057662614
leaf_weight=20 215702 22 36 41 31 344 22 20 76 28 21 89 21 68 37 20 436 29 62 32 36 31 31 99 20 20 20 176 20 23
leaf_count=20 215702 22 36 41 31 344 22 20 76 28 21 89 21 68 37 20 436 29 62 32 36 31 31 99 20 20 20 176 20 23
internal_value=0 0.000106718 4.80645e-05 -0.000346586 -0.00151798 0.000196989 0.00057105 0.00269174 0.000214775 0.00095071 -0.000309453 6.71952e-05 -1.45869e-05 -0.000416308 0.000350241 0.000755632 -4.41175e-07 -0.000143532 -0.000187702 -0.000341614 7.91342e-05 0.00112045 -0.000202952 -0.000652221 -0.00163048 -0.000232965 -0.000747245 -0.000243267 -8.19497e-05 -0.000285702
internal_weight=0 896 876 240 53 636 292 42 250 104 146 110 187 89 98 57 216737 1035 1006 638 368 87 606 170 51 119 51 281 219 199
internal_count=217633 896 876 240 53 636 292 42 250 104 146 110 187 89 98 57 216737 1035 1006 638 368 87 606 170 51 119 51 281 219 199
shrinkage=0.05


Tree=350
num_leaves=31
num_cat=0
split_feature=14 32 3 31 14 3 34 11 32 14 14 15 8 5 15 5 19 0 15 3 21 14 36 36 33 34 34 7 35 18
split_gain=0.00403902 0.0460427 0.132701 0.0563746 0.094391 0.0312434 0.0241996 0.0170957 0.0128412 0.0479002 0.0568002 0.0331799 0.0311567 0.0221614 0.0172464 0.0244603 0.0253984 0.0241822 0.0238683 0.0183565 0.0119881 0.111565 0.121156 0.280395 0.0429901 0.0191646 0.016503 0.019181 0.0389134 0.0146751
threshold=2.5901300000000006e-05 -2.2564299999999995 -15.624449999999998 5.1900100000000009 6.1187250000000013e-05 -11.676349999999998 5.8699600000000016 0.012476400000000002 -2.2564299999999995 1.8285550000000003e-05 1.0770700000000002e-05 0.00010559900000000002 2.9157150000000003e-05 8.0350100000000025e-06 -1.2604899999999999e-05 1.1221950000000002e-05 1.9824050000000002 -1.1353549999999999 -6.6614249999999995e-06 -13.166999999999998 1.5291850000000002 8.9200350000000011e-05 -0.40968649999999995 0.57364500000000007 -2.7510949999999998e-05 -3.2628099999999995 -0.012723849999999998 0.00020299950000000002 0.010368050000000002 8.0248800000000013
decision_type=2 2 2 2 2 2 2 2 2 2 2 2 2 2 2 2 2 2 2 2 2 2 2 2 2 2 2 2 2 2
left_child=8 2 -2 5 -5 -4 20 -8 9 10 11 13 -13 -1 15 -15 19 -18 -16 -17 26 22 -22 -24 -23 -26 27 29 -29 -3
right_child=1 6 3 4 -6 -7 7 -9 -10 -11 -12 12 -14 14 18 16 17 -19 -20 -21 21 24 23 -25 25 -27 -28 28 -30 -31
leaf_value=0.0013615133965383091 0.0039321331974171139 -8.1863973144303881e-05 -0.002328959240218286 0.0039596865801805898 -0.00058741493348497906 -2.9802135864479674e-05 -0.0021642642420192713 -0.00041324296249987806 -1.9689260247297869e-06 -0.0026262536026479214 0.0024816464843979702 -0.0030047813963847148 -0.00035709256539121273 -0.0020013280647757574 0.0015983878295545849 0.0013076824580860811 -0.0024945783876793703 -0.00028831767865456105 -9.4102499080542425e-05 -0.00026188891566487991 -0.00040152872255670708 -0.0019259126710284573 0.0076009906997734859 -0.00013868695398559794 0.0011503240701651002 -0.00044707426772730657 2.3583256108450115e-05 -1.4244167498743213e-05 0.0025095923329770033 -0.000431846216983337
leaf_weight=24 29 2363 22 21 25 45 20 46 185724 20 20 20 25 26 22 23 23 27 392 98 35 39 22 25 28 57 27992 56 21 343
leaf_count=24 29 2363 22 21 25 45 20 46 185724 20 20 20 25 26 22 23 23 27 392 98 35 39 22 25 28 57 27992 56 21 343
internal_value=0 1.6654e-05 0.000914942 0.000140618 0.00148844 -0.000784749 1.25455e-05 -0.000943855 -2.78594e-06 -0.000213535 -0.0001446 -0.000221843 -0.00153384 -0.000128866 -0.000187408 -0.000572502 -0.000355253 -0.0013032 -4.1634e-06 3.64594e-05 1.4583e-05 0.00039474 0.00182562 0.00348414 -0.00055149 7.91275e-05 1.20383e-05 -0.000104083 0.000674075 -0.000126226
internal_weight=0 31189 142 113 46 67 31047 66 186444 720 700 680 45 635 611 197 171 50 414 121 30981 206 82 47 124 85 30775 2783 77 2706
internal_count=217633 31189 142 113 46 67 31047 66 186444 720 700 680 45 635 611 197 171 50 414 121 30981 206 82 47 124 85 30775 2783 77 2706
shrinkage=0.05


Tree=351
num_leaves=31
num_cat=0
split_feature=40 20 32 35 3 36 33 39 16 32 39 8 31 32 36 36 3 36 0 33 29 8 21 15 10 15 9 39 36 4
split_gain=0.00393397 0.0169425 0.0849085 0.0712796 0.0987147 0.147472 0.0363738 0.060175 0.0381795 0.0645936 0.0344147 0.0266646 0.0314375 0.0235034 0.0307461 0.118149 0.0133219 0.0241054 0.181281 0.0281411 0.0380863 0.0289621 0.0203479 0.051065 0.0660927 0.0476195 0.039967 0.0585881 0.12873 0.0441334
threshold=-3.3334999999999999 -18.396099999999997 0.14537000000000003 0.0024846250000000003 -16.722199999999997 -0.30278099999999991 -1.8701649999999998e-06 -0.19603999999999996 0.00010273900000000001 -0.0099885099999999973 2.5758750000000012 1.3379750000000002e-05 -0.00051517049999999997 0.00070885400000000008 0.20129000000000011 -0.17527649999999997 -7.4497099999999987 -5.6825599999999996 -9.4930899999999987 1.7767500000000002e-06 2.1416600000000004e-05 2.6635100000000002e-05 0.69957950000000013 0.00034847100000000005 3.2426150000000008e-05 0.00016883300000000004 2.6226450000000004e-05 1.5525100000000001 -0.40968649999999995 0.32420950000000004
decision_type=2 2 2 2 2 2 2 2 2 2 2 2 2 2 2 2 2 2 2 2 2 2 2 2 2 2 2 2 2 2
left_child=-1 2 3 6 5 -5 -2 -8 9 -9 11 -11 -13 -10 15 -15 17 18 -3 20 21 -20 -18 25 -25 26 29 28 -28 -24
right_child=1 16 -4 4 -6 -7 7 8 13 10 -12 12 -14 14 -16 -17 22 -19 19 -21 -22 -23 23 24 -26 -27 27 -29 -30 -31
leaf_value=1.0057966915741059e-05 -0.001877004998383008 0.0036320702336804693 -0.0028614658189083761 -0.00053241055772689709 -0.00097802905237538078 0.0042497724023537317 0.0024148970551686947 0.0028423699162279568 -0.00033851494624994102 -0.00050634671075386003 -0.0014550625639887787 -8.2406420551706114e-05 0.0027210521312190394 -0.00025664819820251853 -0.00046488607516393884 -0.0048698349815347926 -2.1251914176208532e-05 4.5581543178543276e-06 0.0018621484473918656 0.0018174833261929008 -0.0021309066082245581 -5.9868924007641258e-05 -0.00013612285320514406 -0.0038559808128047733 -0.00068150006520007302 0.0020758850623527297 2.6391789354172285e-05 -4.4290224667003552e-05 -0.0045397623876663696 0.0014545420603336307
leaf_weight=67200 38 39 30 28 38 38 20 21 162 40 36 20 20 35 59 23 41641 106630 21 21 21 294 838 20 91 24 33 77 29 46
leaf_count=67200 38 39 30 28 38 38 20 21 162 40 36 20 20 35 59 23 41641 106630 21 21 21 294 838 20 91 24 33 77 29 46
internal_value=0 -4.493e-06 -0.0002679 -0.000133286 0.0010521 0.00222097 -0.000393372 -0.000264064 -0.000392861 0.000290705 -0.000171235 0.000406488 0.00131932 -0.000728518 -0.00126852 -0.00208602 -3.42407e-06 6.00423e-06 0.000395385 4.17977e-05 -6.91827e-05 6.82656e-05 -2.70011e-05 -0.000233739 -0.00125348 -0.000125629 -0.000177277 -0.000965414 -0.00210939 -5.33507e-05
internal_weight=0 150433 608 578 104 66 474 436 416 137 116 80 40 279 117 58 149825 107026 396 357 336 315 42799 1158 111 1047 1023 139 62 884
internal_count=217633 150433 608 578 104 66 474 436 416 137 116 80 40 279 117 58 149825 107026 396 357 336 315 42799 1158 111 1047 1023 139 62 884
shrinkage=0.05


Tree=352
num_leaves=31
num_cat=0
split_feature=20 0 26 13 6 6 8 5 1 36 22 33 13 3 21 33 13 9 26 16 13 1 3 10 31 4 27 26 3 7
split_gain=0.00394265 0.0120228 0.0539197 0.131438 0.00814479 0.0376128 0.0073043 0.0554693 0.0100806 0.0224746 0.0108543 0.04837 0.0737449 0.0125536 0.0329604 0.00925072 0.0224532 0.0346443 0.0398226 0.0241089 0.0171334 0.00841211 0.00721467 0.00717438 0.00995742 0.0084036 0.00632057 0.005127 0.0356343 0.0478627
threshold=-5.9633049999999992 -9.6465949999999978 0.025872300000000004 -1.0292349999999999e-07 -1.6456299999999997e-05 -3.5738149999999993e-05 3.2100050000000004e-05 2.6996300000000004e-05 12.027950000000002 0.1751400000000001 87.628850000000014 1.8324750000000004e-05 8.0536650000000016e-08 -6.4713699999999994 -0.12207249999999999 9.5974100000000018e-07 2.3811300000000004e-05 5.0670100000000008e-05 -0.10712749999999999 0.0010118250000000003 5.1445100000000014e-07 9.4357350000000029 -6.6876799999999994 9.8903300000000019e-05 -1.5367699999999997 -0.23603199999999996 0.0076529550000000003 0.70424300000000006 -17.495099999999997 -7.9747199999999981e-06
decision_type=2 2 2 2 2 2 2 2 2 2 2 2 2 2 2 2 2 2 2 2 2 2 2 2 2 2 2 2 2 2
left_child=27 2 -2 -4 5 -3 7 8 10 -10 11 13 -13 22 -15 -8 17 20 -19 -18 26 -16 -6 24 -12 -26 -17 -1 29 -29
right_child=1 4 3 -5 6 -7 15 -9 9 -11 23 12 -14 14 21 16 19 18 -20 -21 -22 -23 -24 -25 25 -27 -28 28 -30 -31
leaf_value=8.8356067889975802e-08 3.3253866951983789e-05 -0.00017665574731254906 -0.00057381309882697205 0.0049684354045894004 1.3375470811578646e-05 0.0020944930668450141 5.1169526212814998e-06 0.0026374674461424417 -0.0017760606580850436 0.00014197924617855321 0.00078394676473484055 -0.00019442935524199606 0.0039037290794935657 0.002284133987136143 -7.7044708866952838e-05 -0.00096974682521249649 -0.002461813880021826 0.0026541536356407135 -0.00029092555809408319 -0.00042074029688359211 -0.0013657353066886763 0.0010035735883004394 -0.00094868785352446132 -0.00092143405915546314 -0.0012374360660336002 -8.6938714733920432e-05 -6.5389755070769614e-07 -0.0032765424321405594 -4.3029672629164068e-05 -0.000268060004134149
leaf_weight=212910 180 61 23 20 760 26 654 21 24 42 24 23 21 22 83 20 23 22 24 39 38 23 20 37 21 65 106 20 2242 39
leaf_count=212910 180 61 23 20 760 26 654 21 24 42 24 23 21 22 83 20 23 22 24 39 38 23 20 37 21 65 106 20 2242 39
internal_value=0 6.34376e-05 0.000413259 0.00200398 2.79623e-05 0.000502078 8.43197e-06 9.05948e-05 4.46855e-05 -0.00055549 8.07288e-05 0.000142475 0.00176151 6.40199e-05 0.000522956 -9.68004e-05 -0.000341852 -9.50144e-05 0.00111759 -0.00117791 -0.000435135 0.000157429 -1.12928e-05 -0.000319153 -0.000116568 -0.000367874 -0.000154478 -7.13931e-07 -7.4949e-05 -0.00128788
internal_weight=0 2422 223 43 2199 87 2112 1186 1165 66 1099 952 44 908 128 926 272 210 46 62 164 106 780 147 110 86 126 215211 2301 59
internal_count=217633 2422 223 43 2199 87 2112 1186 1165 66 1099 952 44 908 128 926 272 210 46 62 164 106 780 147 110 86 126 215211 2301 59
shrinkage=0.05


Tree=353
num_leaves=31
num_cat=0
split_feature=23 1 5 12 36 36 2 4 21 13 18 37 13 13 5 14 17 12 23 14 5 8 18 15 2 10 29 3 1 1
split_gain=0.00397724 0.0487049 0.0188988 0.0331034 0.0531386 0.026981 0.079029 0.16369 0.0370119 0.0458183 0.0199977 0.0402594 0.0260581 0.0276177 0.00982517 0.00988801 0.00806382 0.0092882 0.0078825 0.0409234 0.0760323 0.116894 0.0909754 0.0438215 0.0332921 0.0312578 0.0228239 0.0182939 0.0138443 0.0189842
threshold=-0.062701649999999984 -13.794199999999998 1.1794800000000003e-05 -7.7047499999999992e-07 0.9482394999999999 0.57364500000000007 -0.17274099999999995 0.026035500000000007 -1.4574199999999997 1.4049800000000004e-07 -0.5982734999999999 0.56931500000000013 2.1242850000000004e-06 3.6618400000000008e-05 1.0122450000000002e-05 2.4231800000000001e-08 -8.5876849999999987 2.6249650000000004e-07 -0.028182349999999998 4.8443000000000012e-06 2.8166850000000003e-05 4.8753150000000003e-05 14.999250000000002 7.6735600000000018e-05 -2.7519549999999997 -1.0950399999999997e-06 -0.00028142099999999996 -14.947699999999999 3.2122550000000003 -1.2762649999999998
decision_type=2 2 2 2 2 2 2 2 2 2 2 2 2 2 2 2 2 2 2 2 2 2 2 2 2 2 2 2 2 2
left_child=1 -1 3 4 -3 6 8 -8 9 -4 12 -12 -10 -14 16 -16 -5 -18 19 23 21 22 28 24 -2 -25 -22 -26 29 -21
right_child=18 2 5 14 -6 -7 7 -9 10 -11 11 -13 13 -15 15 -17 17 -19 -20 20 26 -23 -24 25 27 -27 -28 -29 -30 -31
leaf_value=0.0025448430236428977 -0.0016513931940351494 -0.0033109991721258589 -8.9860072475858035e-05 -0.00020540620657479074 -9.7925418888353903e-05 -0.00010795433590300131 -0.00042376164929009975 0.0058262278628535575 8.9045277223033888e-05 0.0032946020920644513 0.002367625559748955 -9.7562583372320068e-05 -0.0027533263832862889 -0.00027045215486699213 -0.0013752232611295768 -0.00011258213776602424 0.00024477611177890388 0.0015821642719674855 1.7249176224510509e-07 -9.2414831975474963e-05 -0.0023310448570713484 0.0045812653124448844 0.0036168903616635366 -0.00065478925832091297 -0.0015233128176275743 -0.0033312147384276613 -0.0003034513563865663 -8.4050756721083659e-05 -0.00066098003915249139 0.0017302865991769068
leaf_weight=20 39 22 20 41 31 344 22 20 76 20 22 67 21 24 20 69 37 20 215862 50 23 20 20 24 23 20 35 551 50 20
leaf_count=20 39 22 20 41 31 344 22 20 76 20 22 67 21 24 20 69 37 20 215862 50 23 20 20 24 23 20 35 551 50 20
internal_value=0 0.000105126 4.94249e-05 -0.000328633 -0.00143165 0.000192088 0.000545563 0.00255242 0.000208411 0.00160237 -5.71057e-05 0.00051181 -0.000475564 -0.00142913 -1.60122e-05 -0.000396322 0.000329371 0.000714035 -4.34596e-07 -0.000150203 0.000443414 0.00100562 0.000494813 -0.000347172 -0.000237769 -0.00187135 -0.0011075 -0.000141722 -2.55334e-05 0.000428357
internal_weight=0 896 876 240 53 636 292 42 250 40 210 89 121 45 187 89 98 57 216737 875 218 160 140 657 613 44 58 574 120 70
internal_count=217633 896 876 240 53 636 292 42 250 40 210 89 121 45 187 89 98 57 216737 875 218 160 140 657 613 44 58 574 120 70
shrinkage=0.05


Tree=354
num_leaves=31
num_cat=0
split_feature=18 37 1 5 31 40 1 36 19 9 3 16 9 15 36 3 1 29 36 36 32 36 17 0 3 0 36 23 17 7
split_gain=0.00399664 0.0346328 0.0292289 0.0516936 0.0553873 0.0162002 0.057134 0.088219 0.436624 0.181664 0.345873 0.0665961 0.0729876 0.048299 0.0735891 0.0308262 0.022505 0.033477 0.046182 0.127496 0.0185678 0.013601 0.0110038 0.0107982 0.0147299 0.011348 0.119551 0.011898 0.0107363 0.021237
threshold=-13.388899999999998 4.6270000000000016 -12.938099999999997 3.0894650000000004e-05 -0.00055351899999999993 -0.02750999999999992 -3.1361349999999999 -0.40968649999999995 -0.75575599999999987 1.4356050000000002e-06 -8.1170399999999976 7.1928800000000011e-08 -1.0199649999999998e-05 -6.7236599999999979e-05 -0.018010000000000078 -11.976899999999999 -6.5414749999999993 2.0457650000000006e-05 0.14973499999999998 -0.51801999999999981 -0.066940849999999982 0.8902650000000002 -14.223749999999997 -10.766699999999998 -6.3074049999999993 5.9730150000000011 -0.19934349999999995 0.0017607100000000002 16.002400000000005 3.4597700000000009e-05
decision_type=2 2 2 2 2 2 2 2 2 2 2 2 2 2 2 2 2 2 2 2 2 2 2 2 2 2 2 2 2 2
left_child=1 2 3 4 -1 6 7 22 9 10 -9 -12 -13 -11 -15 21 17 -7 19 -19 -16 -8 -4 -18 25 -25 -27 -28 -17 -30
right_child=-2 -3 5 -5 -6 16 15 8 -10 13 11 12 -14 14 20 28 23 18 -20 -21 -22 -23 -24 24 -26 26 27 -29 29 -31
leaf_value=0.0030843943268444168 -8.6600711301967681e-07 0.0018044305131687515 -0.0011256212603517012 -0.00070585685405401624 0.00032340408299485438 -0.00013072776157959826 -0.0022955835061359473 0.0079764748213901407 0.0076735831898353674 -0.0018943067940295135 -0.00089050622255479751 0.00027235442703386073 0.0038022646068215922 0.0027095975678252137 -0.0015088492459013922 -1.1401560806547923e-05 0.0010629264918901279 -6.7033812735774385e-05 7.3816182281772961e-06 -0.0051534593867307368 -7.4252708002919184e-05 -0.00053742366223807707 -7.8644387836199965e-05 -7.3179481925003361e-05 -0.0013766035126900557 0.0031023951141061403 -4.3832209364426107e-06 -0.0012804027563925048 2.0075737847946587e-05 -0.0020332562415569556
leaf_weight=34 214135 28 28 36 39 194 22 21 23 38 34 32 27 23 27 780 23 28 38 22 137 22 242 1262 20 33 211 20 34 20
leaf_count=34 214135 28 28 36 39 194 22 21 23 38 34 32 27 23 27 780 23 28 38 22 137 22 242 1262 20 33 211 20 34 20
internal_value=0 5.30138e-05 3.88814e-05 0.000844691 0.00160934 1.27483e-05 0.000134286 0.000496794 0.00100697 0.000554663 0.00218075 0.000872035 0.00188774 -0.00026922 6.10117e-05 -0.000126654 -8.63992e-05 -0.000497637 -0.00130651 -0.00230506 -0.000310436 -0.0014165 -0.00018722 -1.24864e-05 -2.84854e-05 -1.08168e-05 0.000287296 -0.000114861 -5.8604e-05 -0.000740418
internal_weight=0 3498 3470 109 73 3361 1510 632 362 339 114 93 59 225 187 878 1851 282 88 50 164 44 270 1569 1546 1526 264 231 834 54
internal_count=217633 3498 3470 109 73 3361 1510 632 362 339 114 93 59 225 187 878 1851 282 88 50 164 44 270 1569 1546 1526 264 231 834 54
shrinkage=0.05


Tree=355
num_leaves=31
num_cat=0
split_feature=31 12 36 37 24 39 40 8 31 17 36 39 39 36 31 16 39 40 13 36 39 14 17 4 17 32 28 3 15 28
split_gain=0.00393524 0.0606971 0.064893 0.496581 0.385689 0.418837 0.607991 0.311622 0.326762 0.380877 0.385208 0.436382 0.769644 0.47829 0.371404 0.176745 0.195592 0.314211 0.488244 0.345542 0.354353 0.556061 0.217587 0.176555 0.153179 0.134072 0.113518 0.267158 0.149447 0.10885
threshold=1.8741500000000003e-05 -3.0013349999999998e-08 0.2761725000000001 0.19792950000000006 1.3732500000000003 2.4693750000000008 1.9491550000000004 6.6343400000000013e-05 0.0026038850000000007 -5.0875749999999984 0.12375499999999996 0.80790999999999979 -0.465335 -0.040859549999999939 0.039030700000000008 9.5798550000000015e-06 1.3091549999999998 0.87140500000000032 -8.0791249999999992e-08 0.077348000000000056 0.43278000000000022 6.063115000000001e-08 9.609650000000002 -0.039029899999999999 5.3893600000000008 -0.0071753399999999997 -0.12163499999999998 -15.510599999999998 -4.1197899999999994e-05 -0.060554749999999991
decision_type=2 2 2 2 2 2 2 2 2 2 2 2 2 2 2 2 2 2 2 2 2 2 2 2 2 2 2 2 2 2
left_child=-1 2 3 4 15 6 7 8 -6 23 11 12 14 -14 -11 16 17 18 19 20 21 -2 -20 -10 -9 -25 27 28 -17 -28
right_child=1 -3 -4 -5 5 -7 -8 24 9 10 -12 -13 13 -15 -16 26 -18 -19 22 -21 -22 -23 -24 25 -26 -27 29 -29 -30 -31
leaf_value=-6.6314493257726989e-06 -0.015595414732921531 4.071040881714185e-05 1.9790460437070133e-05 1.6768258443091295e-05 0.0019411401674998077 -0.00015666364822728693 -0.00022490410879776219 -0.0019155092732398773 0.0013640963747942199 0.00043444636030471885 -0.0022350140826708251 -0.003006970208254643 -0.0079112224718395248 -0.016916191775041323 -0.0083619059529155496 0.0065788886296981475 -0.00015654643990279342 -9.5969452715409623e-05 2.5520743190263138e-05 -0.0010619938676587907 -0.0027214106327690013 -0.0048867350202743652 -0.0053943562837296425 -0.0059931011598867677 0.0030148973815021635 -0.0015889025296928596 -0.00098942076581564221 0.00020154304842765139 0.00091987332416465506 -4.3319711347256351e-05
leaf_weight=110316 22 59211 25494 18325 22 422 252 50 30 24 63 50 29 30 24 28 430 185 117 34 29 27 22 27 23 48 375 298 20 1606
leaf_count=110316 22 59211 25494 18325 22 422 252 50 30 24 63 50 29 30 24 28 430 185 117 34 29 27 22 27 23 48 375 298 20 1606
internal_value=0 6.81677e-06 -3.4901e-05 -9.65632e-05 -0.000581004 -0.00139122 -0.0021665 -0.00333145 -0.00395613 -0.00435533 -0.00553784 -0.00686318 -0.00866514 -0.01249 -0.00396373 -0.000303403 -0.000913197 -0.00165944 -0.00281179 -0.00526848 -0.00710208 -0.00969471 -0.000832302 -0.0018777 -0.000362093 -0.00317441 -7.64667e-05 0.000759151 0.00422097 -0.000222415
internal_weight=0 107317 48106 22612 4287 1094 672 420 347 325 220 157 107 59 48 3193 866 436 251 112 78 49 139 105 73 75 2327 346 48 1981
internal_count=217633 107317 48106 22612 4287 1094 672 420 347 325 220 157 107 59 48 3193 866 436 251 112 78 49 139 105 73 75 2327 346 48 1981
shrinkage=0.05


Tree=356
num_leaves=31
num_cat=0
split_feature=17 2 20 19 26 7 23 10 7 9 16 7 21 14 2 21 2 33 18 0 36 2 36 1 29 29 5 34 4 2
split_gain=0.00390741 0.0437074 0.127434 0.0242568 0.0220879 0.0325449 0.0438499 0.0666745 0.0516447 0.0566444 0.0634311 0.0435126 0.147931 0.0690264 0.0342239 0.0529384 0.0253334 0.0666579 0.0269795 0.40179 0.0831838 0.165233 0.0545382 0.0210863 0.0204151 0.0163186 0.0136805 0.0134983 0.170517 0.0119642
threshold=-10.268199999999998 3.0333000000000006 -9.4627199999999991 2.8297800000000004 0.70424300000000006 -3.5381799999999994e-05 0.031042450000000003 1.1548300000000001e-05 -9.1337949999999995e-05 -9.3323749999999985e-05 0.0018801250000000003 -2.9422049999999997e-05 -1.7211949999999998 1.5924600000000002e-07 1.9944900000000001 -1.4574199999999997 -3.0487399999999996 -9.0156449999999981e-08 -8.6662999999999979 -11.801599999999999 -0.17527649999999997 -2.0077749999999996 0.30085850000000008 0.63221400000000016 0.0014581450000000003 -0.00020540699999999998 1.4620550000000002e-05 -0.55203199999999986 0.49902250000000004 3.0123700000000002
decision_type=2 2 2 2 2 2 2 2 2 2 2 2 2 2 2 2 2 2 2 2 2 2 2 2 2 2 2 2 2 2
left_child=1 4 -3 -4 16 6 8 -8 -6 10 -10 12 -7 -14 -13 -16 17 -1 19 -18 21 -21 -22 -5 26 -17 -11 28 -20 -29
right_child=-2 2 3 23 5 11 7 -9 9 24 -12 14 13 -15 15 25 18 -19 27 20 22 -23 -24 -25 -26 -27 -28 29 -30 -31
leaf_value=0.0033945656666037397 -1.6907765933145176e-06 0.0045784385455772281 -0.00016015769806961212 0.00021893918825438821 0.00044480180935707034 0.004761743538838346 -0.0010403630713811324 0.0027996020665159451 -0.0050955296121537692 -0.0023473791744618214 -0.0014603125100741939 -6.0087828091229508e-05 -0.0025023800815688448 0.0013860724600963294 -0.0031842154840452837 -0.0011887038788093683 0.0073409755071588735 0.00022983487667601129 -0.00035542601269428686 -0.00053916348365686754 -0.0022706976787078255 0.0047558668728855157 -5.4223799881995396e-05 0.0022741828324797098 0.00044544183911057191 0.00065512792380104665 -0.00073895909559980333 1.279791680741085e-05 0.0047435148881049827 -0.00073324569818430105
leaf_weight=20 204602 20 93 26 41 20 26 20 20 20 30 704 21 25 23 24 20 99 91 34 31 26 265 24 24 24 39 11147 20 54
leaf_count=20 204602 20 93 26 41 20 26 20 20 20 30 704 21 25 23 24 20 99 91 34 31 26 265 24 24 24 39 11147 20 54
internal_value=0 2.65472e-05 0.000840165 0.00031733 1.6241e-05 -0.000202285 -0.000743713 0.000629187 -0.00110666 -0.00158493 -0.0029144 -6.06515e-05 0.00117177 -0.000389091 -0.000165606 -0.00121187 3.58782e-05 0.000761722 2.84881e-05 0.000445158 5.77529e-05 0.00175535 -0.000286355 0.00120546 -0.000784053 -0.000266788 -0.00128419 1.46384e-05 0.000563302 9.20124e-06
internal_weight=0 13031 163 143 12868 1061 220 46 174 133 50 841 66 46 775 71 11807 119 11688 376 356 60 296 50 83 48 59 11312 111 11201
internal_count=217633 13031 163 143 12868 1061 220 46 174 133 50 841 66 46 775 71 11807 119 11688 376 356 60 296 50 83 48 59 11312 111 11201
shrinkage=0.05


Tree=357
num_leaves=31
num_cat=0
split_feature=17 40 3 0 19 36 36 3 23 21 18 0 11 20 12 4 13 15 17 23 23 36 34 34 37 18 33 8 23 29
split_gain=0.00388556 0.0603676 0.174703 0.292258 0.385563 0.865179 0.439406 0.179227 0.152488 0.244819 0.126166 0.116768 0.139452 0.140416 0.110212 0.193574 0.0984908 0.143157 0.157334 0.10248 0.0803656 0.141722 0.0633442 0.0527932 0.129597 0.05202 0.0517691 0.0698761 0.0454418 0.0963048
threshold=7.2203350000000013 0.23534999999999953 -8.7781499999999983 4.2310700000000008 -0.50150699999999981 0.22528099999999995 0.039429999999999972 -15.040049999999999 -0.00011522749999999999 0.23832950000000003 3.5621850000000004 7.1107950000000004 6.2945500000000009e-05 -9.1724949999999978 -7.385929999999999e-08 -0.63310749999999982 1.4049800000000004e-07 2.6286550000000006e-06 9.0309850000000029 -0.0007440124999999999 0.00078813450000000008 -0.12496499999999998 0.0016467000000000003 0.012463850000000002 -0.17681499999999981 -2.7816549999999993 -2.7510949999999998e-05 2.7183000000000004e-05 5.3788250000000005e-05 4.1163000000000007e-06
decision_type=2 2 2 2 2 2 2 2 2 2 2 2 2 2 2 2 2 2 2 2 2 2 2 2 2 2 2 2 2 2
left_child=-1 2 3 -2 5 6 -5 -6 9 -9 20 26 -13 -14 15 -12 19 -18 -19 -11 28 -22 -16 -15 -25 -7 27 -3 29 -10
right_child=1 11 -4 4 7 25 -8 8 10 16 14 12 13 23 22 -17 17 18 -20 -21 21 -23 -24 24 -26 -27 -28 -29 -30 -31
leaf_value=-2.901498766878455e-06 1.6880195406145364e-05 0.0035372891605220504 2.6390479111169171e-05 0.0043940603419850097 0.0050680206215474762 -0.00048270416378929639 0.014505576506384055 0.0058546629060592459 -8.4659315015832786e-05 -0.0022955489948799368 0.00032188978640822988 -0.0034588432293060725 -0.003777533929763498 -0.000254227269084431 0.0019428612166484526 0.007033183334680785 0.00012801561639709438 0.0014089374427151467 0.00654375546414835 0.0016983438418374762 0.00093647791130933909 -0.0046166820656691459 -0.0020365925369696925 -0.00015656265036244457 -0.0047369615613918189 0.0024403673947666037 -1.4951053201229026e-05 -0.00027814221321023071 0.00043094600249894623 -0.0039951118210592535
leaf_weight=183098 1094 24 15233 21 24 45 22 31 74 36 22 38 30 1388 20 21 58 35 26 29 20 27 20 47 23 23 15873 24 187 20
leaf_count=183098 1094 24 15233 21 24 45 22 31 74 36 22 38 30 1388 20 21 58 35 26 29 20 27 20 47 23 23 15873 24 187 20
internal_value=0 1.53832e-05 8.21802e-05 0.000540318 0.0012928 0.00401626 0.00956739 0.000827719 0.000665152 0.0017441 0.000100737 -5.00394e-05 -0.000467849 -0.000391466 0.00184221 0.0035995 0.00105156 0.00190652 0.00359755 -0.000513658 -0.000339942 -0.00225364 -4.68657e-05 -0.000321794 -0.00166155 0.000505982 -9.993e-06 0.00162957 -1.98581e-05 -0.00091667
internal_weight=0 34535 17088 1855 761 111 43 650 626 215 411 17447 1526 1488 83 43 184 119 61 65 328 47 40 1458 70 68 15921 48 281 94
internal_count=217633 34535 17088 1855 761 111 43 650 626 215 411 17447 1526 1488 83 43 184 119 61 65 328 47 40 1458 70 68 15921 48 281 94
shrinkage=0.05


Tree=358
num_leaves=31
num_cat=0
split_feature=39 11 3 25 3 26 18 21 31 31 23 34 3 34 36 36 11 3 5 4 25 27 13 4 23 12 28 18 3 3
split_gain=0.00378051 0.0126139 0.016726 0.0159497 0.0151882 0.088413 0.093115 0.0562844 0.0648394 0.0437532 0.0935765 0.0351473 0.0220218 0.0647037 0.0994917 0.15909 0.0669902 0.0185609 0.150363 0.0509074 0.0631065 0.0327619 0.0175199 0.0157321 0.014801 0.0139408 0.0154862 0.0135025 0.0372839 0.0543459
threshold=-2.1087049999999987 0.2963320000000001 -15.040049999999999 -0.071195649999999985 -18.015749999999997 0.21193400000000004 5.7588600000000012 0.73617500000000013 -0.0015474249999999996 0.00096694450000000013 -6.1060649999999979e-05 0.016571850000000003 -17.495099999999997 -0.0016790549999999998 -0.079468000000000025 0.30085850000000008 0.0040917000000000011 -17.304849999999998 2.4191200000000003e-05 0.095552850000000009 0.006384845000000001 0.0053263050000000008 -8.137874999999998e-09 0.92648250000000021 -9.2922699999999984e-05 -1.0015049999999998e-05 0.33893100000000004 13.390900000000002 -13.707299999999998 -12.665349999999998
decision_type=2 2 2 2 2 2 2 2 2 2 2 2 2 2 2 2 2 2 2 2 2 2 2 2 2 2 2 2 2 2
left_child=-1 4 3 -3 5 6 7 8 -2 10 -10 -11 13 14 24 -16 -15 18 19 20 -14 -21 -12 25 -6 -18 -27 -19 -29 -30
right_child=1 2 -4 -5 12 -7 -8 -9 9 11 22 -13 17 16 15 -17 23 27 -20 21 -22 -23 -24 -25 -26 26 -28 28 29 -31
leaf_value=1.1842541225517282e-05 -0.00074852265391322668 -0.0016092534322524445 -3.9995913149387132e-05 -0.00037551626220684369 0.0014700533563882347 -0.0028655883781279305 0.0037036394949869385 0.0025288122363585552 0.0044457570233914466 -0.00021917711301514009 -0.00034737226867166882 0.0019995126497676773 -0.00036210513222143957 0.0026615449100854281 -0.0052302749110235561 -0.00024208257341480491 0.0012008621851782664 -4.7632471948626263e-06 0.004583899505378213 -0.00028889246497696845 0.0032403313994291238 -0.0027476234012283386 0.0013780768456032799 -0.001382976322900504 -0.00043051108687428669 8.023416934292982e-05 -0.0014176775513492018 -0.0018789291071184184 0.0025622529327096267 0.00011816531371938434
leaf_weight=51457 134 29 620 271 20 21 21 26 21 119 28 21 31 23 31 33 20 162334 20 42 20 20 31 25 21 80 22 23 23 2046
leaf_count=51457 134 29 620 271 20 21 21 26 21 119 28 21 31 23 31 33 20 162334 20 42 20 20 31 25 21 80 22 23 23 2046
internal_value=0 -3.66709e-06 -0.000188294 -0.000494778 -2.63924e-06 0.00029694 0.000462559 0.000283446 0.000118533 0.000646648 0.00157944 0.000113626 -3.40621e-06 -0.000450468 -0.00142635 -0.00265824 0.000152284 -2.65911e-06 0.00058777 -0.00011951 0.00105062 -0.00108203 0.00055922 -0.000240322 0.000496594 -6.17155e-06 -0.000242845 -3.1367e-06 0.00012308 0.000145335
internal_weight=0 166176 920 300 165256 422 401 380 354 220 80 140 164834 275 105 64 170 164559 133 113 51 62 59 147 41 122 102 164426 2092 2069
internal_count=217633 166176 920 300 165256 422 401 380 354 220 80 140 164834 275 105 64 170 164559 133 113 51 62 59 147 41 122 102 164426 2092 2069
shrinkage=0.05


Tree=359
num_leaves=31
num_cat=0
split_feature=8 36 40 40 16 13 29 18 9 26 2 26 17 9 39 17 39 36 13 21 31 36 28 13 40 28 2 18 5 18
split_gain=0.00381903 0.0174731 0.0152148 0.0379427 0.0610253 0.0406573 0.131848 0.0278335 0.068151 0.171838 0.0689932 0.0896276 0.0608886 0.189445 0.0435005 0.0973422 0.0643578 0.112378 0.0377096 0.0432646 0.0352697 0.0835187 0.031573 0.0671264 0.027243 0.0759737 0.120663 0.0518539 0.217515 0.0436501
threshold=1.6290050000000002e-05 5.2590600000000007 0.46045500000000011 0.36284999999999995 0.0026916950000000005 -1.1598249999999999e-07 1.3416450000000002e-07 -8.4289549999999984 -1.285335e-05 0.021159550000000003 -1.9349399999999999 0.0034266150000000005 6.5101600000000008 3.8335300000000011e-06 -0.15760999999999911 1.4617650000000004 0.10586500000000011 -0.018010000000000078 -1.3727349999999997e-06 0.165108 0.009633835000000002 0.0045899999999999838 11.695650000000002 -2.9575949999999995e-06 -1.1537099999999991 -4.3985699999999994 1.2193050000000003 -7.7245449999999991 1.2026800000000001e-05 -7.1421249999999992
decision_type=2 2 2 2 2 2 2 2 2 2 2 2 2 2 2 2 2 2 2 2 2 2 2 2 2 2 2 2 2 2
left_child=1 2 3 7 5 6 -5 8 9 -1 11 -10 14 -14 15 -12 17 -16 19 -18 -20 -22 24 -24 -9 26 -26 28 -27 -29
right_child=-2 -3 -4 4 -6 -7 -8 22 10 -11 12 -13 13 -15 16 -17 18 -19 20 -21 21 -23 23 -25 25 27 -28 29 -30 -31
leaf_value=0.00013456948783554945 2.6172807884232718e-06 0.0012546116609411439 1.8260870808959597e-05 -0.003638441523381677 -0.0030573125357477695 1.7372442836148833e-05 0.00076490327140645074 -1.2403621346214665e-05 0.00030033067405047073 0.0050338295554975057 0.00024288446622651666 -0.0038543797086458653 5.4667756188280244e-05 0.0048332490276412239 0.0037460556678221716 -0.0041077085144752348 0.00015522019068157534 0.00041770006228700153 -5.2474218273530218e-05 0.0030033974125399255 -0.003225805306611883 -7.1818692262100883e-05 -0.0035387102561071516 -0.00030411596776109856 0.0010812814439123031 0.0002283883592498591 -0.0037871473445557063 0.00083115966922760144 -0.0044799382375952388 -0.00014303131174961352
leaf_weight=63 188240 27 14601 34 24 164 34 9500 27 25 36 25 80 28 30 20 40 164 556 20 31 65 20 81 20 82 35 119 35 3407
leaf_count=63 188240 27 14601 34 24 164 34 9500 27 25 36 25 80 28 30 20 40 164 556 20 31 65 20 81 20 82 35 119 35 3407
internal_value=0 -1.67617e-05 -1.79306e-05 -5.37202e-05 -0.000657136 -0.000408841 -0.00143677 -4.30734e-05 0.000186516 0.0015264 8.14268e-05 -0.00169713 0.000167861 0.00129356 4.14834e-05 -0.0013109 0.000125074 0.000932394 -9.48976e-05 0.00110461 -0.000205282 -0.00109029 -6.39624e-05 -0.00094463 -5.7223e-05 -0.000172362 -0.00201681 -0.000144515 -0.00118009 -0.000110153
internal_weight=0 29393 29366 14765 256 232 68 14509 1210 88 1122 52 1070 108 962 56 906 194 712 60 652 96 13299 101 13198 3698 55 3643 117 3526
internal_count=217633 29393 29366 14765 256 232 68 14509 1210 88 1122 52 1070 108 962 56 906 194 712 60 652 96 13299 101 13198 3698 55 3643 117 3526
shrinkage=0.05


Tree=360
num_leaves=31
num_cat=0
split_feature=19 2 37 2 18 34 4 4 38 37 22 14 35 39 39 37 37 31 13 39 18 39 28 18 13 17 37 37 20 14
split_gain=0.00370417 0.0897149 0.0295615 0.0112867 0.00549657 0.0043274 0.0561797 0.118413 0.179498 0.544556 0.29579 0.351222 0.408069 0.336979 1.0423 0.288172 0.386466 0.287101 0.268176 0.22852 0.233517 0.279069 0.366876 0.316768 0.30083 0.283446 0.184137 0.258047 0.226795 0.182979
threshold=-3.0951399999999993 3.0333000000000006 -0.10141500000000002 2.9401200000000007 5.2037050000000002 -0.0032491299999999998 0.17779150000000002 1.4464300000000001 0.38220950000000015 0.24875600000000014 1.2242750000000002 2.4444200000000004e-06 0.029330700000000005 -3.5525649999999991 -1.5836399999999993 -0.10141500000000002 0.078754999999999922 0.044432700000000006 -1.0656299999999998e-05 -2.4699349999999991 -11.282949999999998 -0.61387499999999962 0.56648000000000021 7.3737850000000007 1.4317750000000002e-06 -9.9085449999999984 -0.12554300000000002 0.078754999999999922 -7.0549999999999988 2.1981950000000002e-08
decision_type=2 2 2 2 2 2 2 2 2 2 2 2 2 2 2 2 2 2 2 2 2 2 2 2 2 2 2 2 2 2
left_child=1 2 3 4 -1 6 -2 8 9 10 -8 18 13 -13 -15 17 -17 -16 -12 -20 -21 22 24 25 -22 -23 -25 28 -28 -27
right_child=5 -3 -4 -5 -6 -7 7 -9 -10 -11 11 12 -14 14 15 16 -18 -19 19 20 21 23 -24 26 -26 29 27 -29 -30 -31
leaf_value=-5.7072775595563778e-06 -6.0277570674096587e-05 0.0028799340825961346 0.0014865416416689522 0.00094273605387687931 -0.00059191929918908019 2.4983056064304601e-06 -0.00019518019235240927 -8.1400746265737804e-05 -0.00013864636717490997 -2.6543672916749205e-05 -0.0039580717963802348 -0.0018342669637640939 -0.0013605664828387292 0.013545307427368784 0.003453131557242679 0.00096780549703648182 0.0066534499080980348 0.010742322950814428 -0.0022954827958317258 0.0064189660383145442 -0.0023090580012649297 0.0042133641766237189 0.0088579906813370506 0.0075397374713793404 0.0047912067427699056 -0.0044581795569974929 0.0027691776294675439 0.0070319533118024654 -0.0034724566418762232 -1.1435273385535355e-05
leaf_weight=1619 23558 28 34 31 41 181404 264 5673 1908 2082 26 25 46 27 35 140 38 22 43 23 26 38 26 20 35 25 43 21 22 310
leaf_count=1619 23558 28 34 31 41 181404 264 5673 1908 2082 26 25 46 27 35 140 38 22 43 23 26 38 26 20 35 25 43 21 22 310
internal_value=0 7.23883e-05 2.68165e-05 -2.53339e-06 -2.0186e-05 -5.87811e-07 -1.68262e-05 7.69298e-05 0.00024818 0.000469357 0.00129204 0.00168823 0.0030114 0.00371213 0.00424137 0.0031724 0.00218159 0.0062665 0.0010186 0.00122334 0.00148023 0.00127954 0.00388465 0.000806377 0.00176486 0.000120934 0.00321836 0.00221339 0.000656624 -0.000343282
internal_weight=0 1753 1725 1691 1660 215880 34476 10918 5245 3337 1255 991 333 287 262 235 178 57 658 632 589 566 87 479 61 373 106 86 65 335
internal_count=217633 1753 1725 1691 1660 215880 34476 10918 5245 3337 1255 991 333 287 262 235 178 57 658 632 589 566 87 479 61 373 106 86 65 335
shrinkage=0.05


Tree=361
num_leaves=31
num_cat=0
split_feature=40 20 17 8 18 36 11 23 36 21 15 39 2 30 15 13 12 15 18 32 13 29 14 16 32 18 21 22 20 14
split_gain=0.00385664 0.0223438 0.126329 0.0925556 0.0991989 0.0776526 0.0422153 0.0450209 0.0414798 0.0304748 0.0466723 0.0353259 0.0147282 0.0146168 0.0406997 0.0447531 0.0297106 0.0257071 0.0207074 0.0145903 0.0254279 0.0142576 0.0802842 0.127824 0.176665 0.0485211 0.0767186 0.0403251 0.0175554 0.0147131
threshold=-3.6478300000000004 -18.396099999999997 -6.0084349999999995 6.1899350000000009e-05 5.2037050000000002 0.24966499999999994 0.0027461200000000003 -0.00043562299999999995 0.46240350000000002 0.49038950000000003 -2.0136749999999994e-06 -0.23716000000000023 -2.0077749999999996 34.706300000000006 -0.00019488549999999998 2.9426600000000004e-05 3.2364950000000003e-06 -0.0027125949999999995 1.4596200000000004 0.00065488200000000019 -1.6712999999999997e-05 0.0014581450000000003 -5.1007699999999989e-07 0.00018145150000000004 1.8680450000000002 -2.6213749999999996 -1.2617699999999996 87.628850000000014 -13.237099999999998 -3.1088599999999993e-08
decision_type=2 2 2 2 2 2 2 2 2 2 2 2 2 2 2 2 2 2 2 2 2 2 2 2 2 2 2 2 2 2
left_child=-1 2 -2 4 6 -5 8 -8 -4 11 -11 -9 -13 21 17 16 18 -15 -16 -14 -21 -3 23 24 -23 27 -27 -25 -24 -30
right_child=1 13 3 5 -6 -7 7 9 -10 10 -12 12 19 14 15 -17 -18 -19 -20 20 -22 22 28 25 -26 26 -28 -29 29 -31
leaf_value=1.0439586487436012e-05 0.0034395489794075149 -3.4764039485805418e-06 -0.0033593827060900841 -0.0046297163833989305 0.0023747740175809563 -0.00052106654671344745 0.0014507376355634603 0.0017264858931975186 -0.00024591945308202414 0.00012096646982668477 -0.0029814813734480631 0.00049501703889001712 -0.00019415062880934658 -0.00069023356859801313 0.00089927322838682293 0.0019719626507139765 -0.0019665188801203234 -0.0029250505693860099 -0.0005421377874308351 -0.0020347614546314136 -0.00051451270065222662 0.0069634370211861104 0.0010997084573084008 0.00048642317052015544 0.00065869861782994127 0.002903957836507984 -0.00093976855770008458 -0.0020142615621028068 -0.0011004238594371904 -5.552942364573981e-05
leaf_weight=62899 22 153078 23 23 34 23 35 21 20 22 27 44 217 31 39 24 24 22 69 34 144 20 31 38 25 34 21 28 36 525
leaf_count=62899 22 153078 23 23 34 23 35 21 20 22 27 44 217 31 39 24 24 22 69 34 144 20 31 38 25 34 21 28 36 525
internal_value=0 -4.24367e-06 -0.000288343 -0.000411302 -0.000250999 -0.00257539 -0.000403088 -0.000283876 -0.00191126 -0.000403152 -0.00158855 -0.000276881 -0.000372714 -2.97297e-06 -0.00042083 -1.41359e-05 -0.000375245 -0.00161789 -2.16283e-05 -0.000469373 -0.000804897 -2.40527e-06 0.000213909 0.00118566 0.0034608 0.000339539 0.00143635 -0.000574473 -5.85764e-05 -0.000122581
internal_weight=0 154734 689 667 621 46 587 544 43 509 49 460 439 154045 209 156 132 53 108 395 178 153836 758 166 45 121 55 66 592 561
internal_count=217633 154734 689 667 621 46 587 544 43 509 49 460 439 154045 209 156 132 53 108 395 178 153836 758 166 45 121 55 66 592 561
shrinkage=0.05


Tree=362
num_leaves=31
num_cat=0
split_feature=38 37 18 37 3 39 10 39 20 16 35 40 32 17 33 39 6 32 17 3 2 12 37 27 3 16 28 11 34 39
split_gain=0.00377715 0.0365101 0.0745477 0.216939 0.25548 0.532921 0.256244 0.159033 0.196427 0.102957 0.205482 0.0858605 0.366964 0.22192 0.552102 0.205425 0.373517 0.636135 0.419812 0.401887 0.476496 0.36758 0.292073 0.248616 0.241539 0.247156 0.19454 0.180783 0.230966 0.179765
threshold=0.24966499999999994 -0.026150000000000003 10.697700000000001 -0.10141500000000002 -7.2257499999999988 0.31279500000000043 6.9850100000000007e-06 0.10586500000000011 -7.317664999999999 4.555630000000001e-05 0.00058542150000000009 -0.20255000000000042 -0.43959349999999991 -12.926599999999999 6.710375000000001e-07 0.80790999999999979 -2.0703899999999994e-06 -0.0022923399999999999 7.3475050000000008 -7.1396099999999985 -0.43964599999999993 1.2625950000000003e-07 -0.078199999999999964 0.0095837200000000022 -12.352299999999998 8.4675100000000012e-07 0.053248700000000003 0.00010396350000000002 -9.7604799999999984e-05 0.16841000000000064
decision_type=2 2 2 2 2 2 2 2 2 2 2 2 2 2 2 2 2 2 2 2 2 2 2 2 2 2 2 2 2 2
left_child=1 2 11 9 7 6 -6 8 -5 10 -4 13 -13 14 -1 16 17 -15 23 20 -20 22 -19 24 25 -18 -23 28 -14 -29
right_child=-2 -3 3 4 5 -7 -8 -9 -10 -11 -12 12 27 15 -16 -17 18 21 19 -21 -22 26 -24 -25 -26 -27 -28 29 -30 -31
leaf_value=0.0095958466653246442 7.3824263258733557e-06 1.6755702063518651e-06 -0.0001681898809911932 -0.0051588045663568975 -0.012248674202710391 -0.00057025745873733502 -0.0042448564362712205 0.0032730538999506589 0.00021964912373042698 -0.00062074676478353688 0.0042767947089324037 0.0064139946485343192 -0.0054527598421290433 -0.0093067755817724963 -0.00053714186282510432 -0.00011709983988357988 0.0058045470287375481 -0.0013616942208979957 0.011521816407330335 -0.0013279901551294117 0.0018962286257369163 -0.00065442924148609403 -0.0073117175257665984 -0.0060328161608291945 -0.0016854900578867468 -6.8531693448025142e-05 0.0055602270242525271 9.2703562201199192e-05 -0.00027486861783414029 0.0030842476271608771
leaf_weight=20 96465 112638 78 24 20 52 20 24 58 167 39 23 33 33 41 3924 23 55 20 38 36 34 33 24 224 81 20 3273 62 51
leaf_count=20 96465 112638 78 24 20 52 20 24 58 167 39 23 33 33 41 3924 23 55 20 38 36 34 33 24 224 81 20 3273 62 51
internal_value=0 -5.87734e-06 -0.000105613 -0.000709608 -0.00198001 -0.00390787 -0.00824677 -0.000306777 -0.00135453 0.000176097 0.00131347 -6.94393e-05 0.000119481 -0.000210617 0.00278515 -0.000250824 -0.00109581 -0.00305343 -0.000327684 0.00264082 0.00533394 -0.00160018 -0.00359295 -0.00112041 -0.000760964 0.00123032 0.0016473 7.71373e-05 -0.0020735 0.000138603
internal_weight=0 121168 8530 482 198 92 40 106 82 284 117 8048 3442 4606 61 4545 621 175 446 94 56 142 88 352 328 104 54 3419 95 3324
internal_count=217633 121168 8530 482 198 92 40 106 82 284 117 8048 3442 4606 61 4545 621 175 446 94 56 142 88 352 328 104 54 3419 95 3324
shrinkage=0.05


Tree=363
num_leaves=31
num_cat=0
split_feature=9 28 8 18 5 19 17 18 39 10 16 4 26 11 5 21 39 39 36 28 20 36 22 26 22 3 36 36 33 25
split_gain=0.00370796 0.0175273 0.163617 0.0370468 0.114435 0.0230424 0.0125407 0.0429692 0.0448589 0.0211272 0.0111724 0.0729802 0.0698463 0.119283 0.087786 0.0590363 0.047311 0.046723 0.023436 0.0614188 0.0189513 0.0995916 0.0128673 0.0108043 0.0492719 0.0570284 0.128945 0.491487 0.0409224 0.037973
threshold=-0.000119502 11.695650000000002 2.0928800000000005e-05 4.9794500000000008 1.8904150000000004e-05 -2.3549649999999995 -16.050999999999998 -8.6662999999999979 6.0173949999999996 4.9502400000000009e-05 0.00015321200000000004 -2.0429399999999993 0.062348250000000008 0.0059042550000000015 3.2672850000000007e-05 0.42697150000000006 0.35261000000000037 -2.4699349999999991 1.0000000180025095e-35 0.10139500000000003 -16.647599999999994 -0.63161949999999989 0.19290500000000002 0.075079500000000007 4.6947250000000009 -12.203099999999997 0.039429999999999972 -0.10081500000000009 0.00019513800000000003 1.0121250000000004
decision_type=2 2 2 2 2 2 2 2 2 2 2 2 2 2 2 2 2 2 2 2 2 2 2 2 2 2 2 2 2 2
left_child=1 6 -3 5 -5 -4 7 -1 9 -9 11 -8 18 14 16 -15 17 -14 20 22 21 -13 -20 -12 25 26 27 -25 29 -26
right_child=-2 2 3 4 -6 -7 10 8 -10 -11 23 12 13 15 -16 -17 -18 -19 19 -21 -22 -23 -24 24 28 -27 -28 -29 -30 -31
leaf_value=-0.0020611642411495269 -2.4945999165969561e-06 0.0044522207161998787 -0.0019362357601163571 0.0040064580573969241 -0.00059265372811320336 -0.00017128187990175353 0.002539504566565513 -0.0015723399041172375 0.0021607938950182872 -6.0842474547889812e-05 1.6060668787746309e-05 -8.24548133313152e-05 -0.00063287848677599616 0.0053862815807588053 0.0030312076848729151 0.0015445277597973474 -0.0020916924255320267 0.0023395671448088249 0.0012636948791623583 0.0031385415023708323 9.7096743018973707e-06 -0.0038649154861923312 -0.00016989894322452732 -0.00012672270601218441 5.2758686001940554e-05 -8.92075648407438e-05 -8.6134838997301225e-05 -0.0095798301533795913 0.0021158118296981505 -0.0011890092460760992
leaf_weight=32 189890 23 22 21 38 116 31 29 20 114 23838 134 39 20 23 20 29 20 20 21 1449 20 72 44 1165 193 82 20 23 65
leaf_count=32 189890 23 22 21 38 116 31 29 20 114 23838 134 39 20 23 20 29 20 20 21 1449 20 72 44 1165 193 82 20 23 65
internal_value=0 1.70746e-05 0.000461591 -4.32034e-06 0.00104432 -0.000452651 1.35214e-05 -0.000386027 -5.71658e-05 -0.00036737 1.63724e-05 0.000133394 9.34422e-05 0.0011244 0.000280791 0.0034654 -0.000438068 0.00037473 2.72297e-06 0.000698677 -4.63368e-05 -0.000573683 0.000141752 7.63837e-06 -0.000118474 -0.000653252 -0.00139887 -0.00308082 2.62106e-05 -1.28632e-05
internal_weight=0 27743 220 197 59 138 27523 195 163 143 27328 1898 1867 151 111 40 88 59 1716 113 1603 154 92 25430 1592 339 146 64 1253 1230
internal_count=217633 27743 220 197 59 138 27523 195 163 143 27328 1898 1867 151 111 40 88 59 1716 113 1603 154 92 25430 1592 339 146 64 1253 1230
shrinkage=0.05


Tree=364
num_leaves=31
num_cat=0
split_feature=29 37 19 25 37 15 21 40 22 16 17 39 4 40 31 39 20 10 17 20 39 23 20 30 39 21 4 5 14 14
split_gain=0.00381777 0.0196461 0.101154 0.157662 0.0732238 0.266825 0.323828 0.472585 0.424846 0.335028 0.243192 0.249193 0.22885 0.224961 0.253202 0.395093 0.337442 0.316044 0.216354 0.203518 0.242427 0.180327 0.213918 0.179328 0.176629 0.273871 0.258312 0.174095 0.22749 0.161333
threshold=1.8894300000000003e-05 0.22260499999999997 2.9137900000000005 0.068796600000000013 -0.15132349999999997 -4.0549399999999993e-06 -0.34389449999999994 -2.0033199999999987 6.2236100000000008 0.0012391700000000002 -5.0223249999999995 3.129045000000001 -0.51868499999999995 2.014730000000001 0.0048012500000000008 2.8998450000000005 -14.137299999999998 -4.2631049999999996e-05 -7.2112649999999991 -7.0549999999999988 -1.9691099999999999 -0.0022709099999999997 -9.9037999999999986 1.3837400000000002 -0.15760999999999911 -0.45225049999999994 -2.6817999999999995 1.1630300000000001e-05 9.0015350000000007e-07 6.6005750000000014e-05
decision_type=2 2 2 2 2 2 2 2 2 2 2 2 2 2 2 2 2 2 2 2 2 2 2 2 2 2 2 2 2 2
left_child=-1 2 4 -4 -2 12 7 -7 9 -9 11 -8 18 14 29 16 -16 -18 -6 20 -10 -12 -23 -22 25 26 -20 -19 -29 -14
right_child=1 -3 3 -5 5 6 10 8 19 -11 21 -13 13 -15 15 -17 17 27 24 -21 23 22 -24 -25 -26 -27 -28 28 -30 -31
leaf_value=2.9110408176607572e-06 3.3834248588156362e-06 2.0509628992671807e-05 -0.00055378542863644589 -0.0056693740113405514 -0.0031248139579817518 -0.00041579974434155205 0.005419110254948273 -0.01029276788030984 -0.00022630447269099334 -0.0035361132588573236 0.004069480397315188 -0.00010836670581242784 0.00022149816376865794 -0.0017557614563619484 0.008426670000699233 -0.0016128268379404854 -0.0026197512330406389 0.00094725818996648165 -0.001248826992163873 0.00011977022331974594 -0.007331395185051057 -0.00035316527342581623 -0.0044616222399120244 -0.0022811067596194335 -0.00076563545691319421 -0.0014365376015796627 0.0038590098015137612 0.0098993110097944734 0.0032806165916750814 0.0031017135821188009
leaf_weight=182390 13687 18470 61 20 69 342 38 32 41 43 22 44 488 79 32 42 23 31 34 72 39 794 33 32 403 70 91 20 37 54
leaf_count=182390 13687 18470 61 20 69 342 38 32 41 43 22 44 488 79 32 42 23 31 34 72 39 794 33 32 403 70 91 20 37 54
internal_value=0 -1.50653e-05 -5.42394e-05 -0.00181689 -4.56859e-05 -0.000269184 -0.000731175 -0.00163594 -0.00324709 -0.00641895 -0.000147111 0.00245315 0.000211312 0.000778254 0.00105362 0.00265078 0.00390303 0.00259892 -0.00047378 -0.00195421 -0.00328748 -0.000398255 -0.000517106 -0.00505521 -0.000167891 0.00106745 0.00246968 0.00396289 0.00560297 0.000508457
internal_weight=0 35243 16773 81 16692 3005 1532 601 259 75 931 82 1473 806 727 185 143 111 667 184 112 849 827 71 598 195 125 88 57 542
internal_count=217633 35243 16773 81 16692 3005 1532 601 259 75 931 82 1473 806 727 185 143 111 667 184 112 849 827 71 598 195 125 88 57 542
shrinkage=0.05


Tree=365
num_leaves=31
num_cat=0
split_feature=3 17 18 10 2 37 14 14 18 1 4 22 17 7 20 10 13 1 18 14 36 26 39 36 39 36 35 39 28 13
split_gain=0.00358186 0.0264208 0.112693 0.299371 0.0447355 0.197636 0.0128806 0.0371678 0.0120261 0.0868729 0.164157 0.0862369 0.0139375 0.16327 0.0146789 0.0226175 0.0108524 0.00961817 0.108984 0.139019 0.17968 0.0997437 0.131254 0.31621 0.0575135 0.0244062 0.0131977 0.0113423 0.0408647 0.110219
threshold=-5.6211599999999988 -12.926599999999999 -9.1109899999999975 6.9850100000000007e-06 2.2570350000000006 -0.25176499999999996 -2.7285799999999991e-07 2.4231800000000001e-08 -13.876599999999998 -8.8547249999999984 -0.12727799999999997 4.5134100000000013 19.256550000000001 4.1341400000000004e-05 -8.364709999999997 4.282900000000001e-06 2.3057600000000002e-06 11.597950000000003 11.881850000000002 1.7113350000000004e-07 0.077348000000000056 -0.00037051449999999996 0.23546500000000006 -0.079468000000000025 0.052215000000000351 0.10022550000000004 4.9228400000000002e-07 0.51814999999999956 -0.10597649999999999 4.8253050000000006e-09
decision_type=2 2 2 2 2 2 2 2 2 2 2 2 2 2 2 2 2 2 2 2 2 2 2 2 2 2 2 2 2 2
left_child=17 2 3 -2 6 -6 -4 -8 9 10 -3 -12 -10 14 15 -14 -11 -1 26 21 -21 25 24 -24 -23 -20 -19 28 29 -28
right_child=1 8 4 -5 5 -7 7 -9 12 16 11 -13 13 -15 -16 -17 -18 18 19 20 -22 22 23 -25 -26 -27 27 -29 -30 -31
leaf_value=-9.8239537772374536e-07 -0.00063094897899039406 0.0051435381290502848 -0.0010415162859477706 0.0063339049800695789 -0.00081933530624106379 0.0052537080855385981 0.0020699898959719576 -0.00015283689897178048 4.4680215004251257e-06 -8.1798993930161406e-05 0.0032591893558037558 -0.00053998382618528453 -8.5652392313239118e-05 0.0038622186522843552 0.00011457983138825513 -0.0024350654135923836 -0.0010955474602087633 0.0011822048887552229 0.0017679126516572741 -0.0059092573499462259 0.00012098773853116047 -0.0019122772693993862 0.00024043689458527035 -0.0076718162120137691 0.0013001076524041741 2.8764751542164667e-05 -0.0033965866679864123 1.1121114594433945e-05 -3.5732706482320503e-05 0.00065980467863317412
leaf_weight=182488 36 24 34 27 37 21 20 315 30357 220 20 59 21 28 40 20 30 23 38 30 21 22 28 23 38 43 34 3196 307 33
leaf_count=182488 36 24 34 27 37 21 20 315 30357 220 20 59 21 28 40 20 30 23 38 30 21 22 28 23 38 43 34 3196 307 33
internal_value=0 1.56481e-05 0.000379915 0.00235399 8.86583e-05 0.00137953 -0.000114242 -2.01308e-05 9.85653e-06 0.000300021 0.00152204 0.000421832 6.49449e-06 0.000570874 -0.000566874 -0.00123171 -0.000203449 -2.62944e-06 -8.09832e-05 -0.00110578 -0.00342622 -0.000489417 -0.00146293 -0.00332783 0.000122233 0.000844661 -1.16745e-05 -1.93662e-05 -0.000279894 -0.00139866
internal_weight=0 31309 490 63 427 58 369 335 30819 353 103 79 30466 109 81 41 250 186324 3836 243 51 192 111 51 60 81 3593 3570 374 67
internal_count=217633 31309 490 63 427 58 369 335 30819 353 103 79 30466 109 81 41 250 186324 3836 243 51 192 111 51 60 81 3593 3570 374 67
shrinkage=0.05


Tree=366
num_leaves=31
num_cat=0
split_feature=14 32 9 23 39 34 15 11 32 14 14 15 8 5 15 4 5 19 0 28 11 27 36 21 11 33 15 35 30 8
split_gain=0.00354938 0.041216 0.0994417 0.0598662 0.101906 0.0209841 0.0180437 0.0148925 0.0114114 0.0421659 0.0512493 0.0292742 0.0279279 0.0195721 0.0154631 0.0218463 0.0216042 0.0235124 0.0235879 0.0163654 0.0104959 0.0584716 0.113463 0.018132 0.0175105 0.0581868 0.0432363 0.305859 0.0234295 0.0206157
threshold=2.5901300000000006e-05 -2.2564299999999995 0.00023337100000000004 -0.0016081899999999998 6.7593250000000014 5.8699600000000016 0.0036590750000000003 0.013786650000000003 -2.2564299999999995 1.8285550000000003e-05 1.0770700000000002e-05 0.00010559900000000002 2.9157150000000003e-05 8.0350100000000025e-06 -1.2604899999999999e-05 -0.20278049999999997 1.1221950000000002e-05 1.9824050000000002 -1.1353549999999999 -22.304899999999996 0.0024307550000000006 0.043133650000000003 0.327845 0.42697150000000006 0.0086891900000000011 -2.7510949999999998e-05 0.0036590750000000003 0.029330700000000005 1.7130900000000002 1.4525850000000001e-05
decision_type=2 2 2 2 2 2 2 2 2 2 2 2 2 2 2 2 2 2 2 2 2 2 2 2 2 2 2 2 2 2
left_child=8 2 3 6 -5 20 -2 -7 9 10 11 13 -13 -1 16 -16 -15 19 -19 -18 21 -3 -23 -22 25 -25 27 28 -26 -28
right_child=1 5 -4 4 -6 7 -8 -9 -10 -11 -12 12 -14 14 15 -17 17 18 -20 -21 23 22 -24 24 26 -27 29 -29 -30 -31
leaf_value=0.0012779672714714216 -0.0021770530481868872 6.3219967423188182e-05 0.0032237224142163006 0.0040824836722458714 -0.00027091644553321401 -0.0019783289778778062 -0.00021724854064497938 -0.00036579129040344724 -1.8414340144344305e-06 -0.0024649797011807098 0.0023580157052492724 -0.0028349753362999766 -0.00032822844112524767 -0.0018851178348995746 0.0015290245648595208 -9.0191600414685558e-05 0.00089814543251984453 -0.0024268483555794735 -0.00024786596071930104 -0.0003546926458380241 1.5722736679086754e-05 0.0040525732332887992 -0.00018659794929925212 -0.0025948097795272982 0.0001558294911693281 -0.0002542415281717914 -0.00074343023970438991 0.0052962980584986032 -0.0012162966678650785 -8.4619793416083617e-05
leaf_weight=24 24 4247 34 20 41 21 23 45 185724 20 20 20 25 26 22 392 38 23 27 83 23981 27 38 28 120 514 127 30 42 1827
leaf_count=24 24 4247 34 20 41 21 23 45 185724 20 20 20 25 26 22 392 38 23 27 83 23981 27 38 28 120 514 127 30 42 1827
internal_value=0 1.5612e-05 0.000865512 0.000123112 0.00115643 1.17248e-05 -0.001218 -0.000878871 -2.61162e-06 -0.000201282 -0.000136605 -0.000209976 -0.00144234 -0.000122643 -0.000177659 -4.1463e-06 -0.000542299 -0.000338128 -0.0012502 3.87606e-05 1.3622e-05 8.59981e-05 0.00157429 1.91984e-06 -0.000121223 -0.000375156 -5.70885e-05 0.000658875 -0.000199907 -0.000127439
internal_weight=0 31189 142 108 61 31047 47 66 186444 720 700 680 45 635 611 414 197 171 50 121 30981 4312 65 26669 2688 542 2146 192 162 1954
internal_count=217633 31189 142 108 61 31047 47 66 186444 720 700 680 45 635 611 414 197 171 50 121 30981 4312 65 26669 2688 542 2146 192 162 1954
shrinkage=0.05


Tree=367
num_leaves=31
num_cat=0
split_feature=40 20 17 8 18 36 11 23 36 25 27 6 13 16 13 39 32 36 36 3 7 13 32 13 16 36 29 36 0 39
split_gain=0.00358504 0.0204076 0.113997 0.0826749 0.0885959 0.0693227 0.037823 0.0403665 0.0372001 0.0253062 0.0152364 0.0285903 0.0321356 0.0128663 0.0204422 0.0134487 0.016187 0.015077 0.0642879 0.0555053 0.0138926 0.0120595 0.0118377 0.0946787 0.111622 0.157319 0.318 0.281427 0.177935 0.121014
threshold=-3.6478300000000004 -18.396099999999997 -6.0084349999999995 6.1899350000000009e-05 5.2037050000000002 0.24966499999999994 0.0027461200000000003 -0.00043562299999999995 0.46240350000000002 0.07628225000000001 0.35534200000000005 2.9326700000000003e-06 2.7687200000000004e-06 6.3553350000000007e-07 1.4045900000000002e-08 -0.32314999999999999 0.00065488200000000019 0.327845 -0.30278099999999991 -18.305499999999995 4.2640350000000002e-05 -9.5111699999999976e-06 -0.022925199999999996 -2.8874799999999993e-07 5.4568300000000011e-05 -0.25142799999999998 3.7829800000000008e-05 0.38220950000000015 -6.6224949999999998 -3.0299649999999994
decision_type=2 2 2 2 2 2 2 2 2 2 2 2 2 2 2 2 2 2 2 2 2 2 2 2 2 2 2 2 2 2
left_child=-1 2 -2 4 6 -5 8 -8 -4 13 22 12 21 14 -9 -15 20 18 -18 -20 -17 -12 23 24 25 -3 28 -28 -27 -30
right_child=1 10 3 5 -6 -7 7 9 -10 -11 11 -13 -14 15 -16 16 17 -19 19 -21 -22 -23 -24 -25 -26 26 27 -29 29 -31
leaf_value=1.0065271415137826e-05 0.0032656690666706049 -0.00014176020125969212 -0.0031835743075530249 -0.0043787378795019797 0.0022405782082333806 -0.00049670798218120701 0.0013707094661991246 -0.00044962801062930726 -0.00023509886879764962 -0.0021280020258382139 -0.0011440696851221018 0.00107184638428684 -0.0021197827122146659 0.00086670060583855964 0.0015870796783763745 -0.00029297168541341515 -0.00024492162014375123 -0.00031110741167160515 -0.0009155139439099004 -0.0046406090329401198 0.0010882123188639525 0.00016726319080044051 1.1087268029469698e-06 -0.0001892090513565004 -1.7160636666393107e-05 0.0042967888734197273 0.0090743305875271886 0.0010685080881341405 -0.0013481568280843625 0.00090447112091863752
leaf_weight=62899 22 390 23 23 34 23 35 28 20 20 27 23 35 20 22 203 67 89 20 20 20 50 144592 5521 2886 34 23 21 71 372
leaf_count=62899 22 390 23 23 34 23 35 28 20 20 27 23 35 20 22 203 67 89 20 20 20 50 144592 5521 2886 34 23 21 71 372
internal_value=0 -4.09151e-06 -0.000275602 -0.000392406 -0.000240901 -0.00243772 -0.000384632 -0.000271792 -0.00181219 -0.000384734 -2.87712e-06 -0.000533827 -0.000863564 -0.000313435 0.000446523 -0.00039999 -0.000460453 -0.000791943 -0.00119189 -0.00277806 -0.000169099 -0.000292555 -2.4114e-06 -5.7035e-05 0.000135152 0.000617669 0.00118615 0.00525337 0.000810975 0.00054344
internal_weight=0 154734 689 667 621 46 587 544 43 509 154045 135 112 489 50 439 419 196 107 40 223 77 153910 9318 3797 911 521 44 477 443
internal_count=217633 154734 689 667 621 46 587 544 43 509 154045 135 112 489 50 439 419 196 107 40 223 77 153910 9318 3797 911 521 44 477 443
shrinkage=0.05


Tree=368
num_leaves=31
num_cat=0
split_feature=9 28 8 18 5 3 17 10 18 10 11 16 4 30 12 7 36 36 17 30 20 36 37 18 20 17 0 11 16 9
split_gain=0.00346273 0.0161569 0.146769 0.0334133 0.102345 0.0222579 0.0106865 0.0420274 0.034417 0.0109582 0.0130897 0.0100333 0.0658736 0.0503381 0.100298 0.0376627 0.0193305 0.0743022 0.0289652 0.0248455 0.0208539 0.0858261 0.0198656 0.128141 0.0307763 0.00933219 0.0365191 0.118919 0.11427 0.0448674
threshold=-0.000119502 11.695650000000002 2.0928800000000005e-05 4.9794500000000008 1.8904150000000004e-05 -13.897099999999998 -16.050999999999998 -8.0191649999999986e-06 -8.6662999999999979 0.00015586950000000003 0.0098803550000000021 0.00015321200000000004 -2.0429399999999993 1.7130900000000002 6.3536550000000009e-06 -5.7594049999999995e-05 1.0000000180025095e-35 0.039429999999999972 -4.4743249999999994 0.090098850000000022 -16.647599999999994 -0.63161949999999989 0.17390849999999994 -1.3000649999999998 -10.103949999999999 -16.050999999999998 -9.9342699999999997 8.3817800000000016e-05 0.00023548400000000002 -8.8703799999999996e-05
decision_type=2 2 2 2 2 2 2 2 2 2 2 2 2 2 2 2 2 2 2 2 2 2 2 2 2 2 2 2 2 2
left_child=1 6 -3 5 -5 -4 7 -1 -9 10 -10 12 -8 16 15 -15 20 -18 19 -19 21 -14 23 24 -22 26 27 -2 -29 -28
right_child=25 2 3 4 -6 -7 11 8 9 -11 -12 -13 13 14 -16 -17 17 18 -20 -21 22 -23 -24 -25 -26 -27 29 28 -30 -31
leaf_value=0.0018155754093459109 -0.00023704938904647234 0.0042228789221869945 -0.001579478416897473 0.0037991922570481187 -0.00055018262862990689 -7.4870018202005366e-05 0.002412576870682965 -0.0022105269363627096 -5.6549992008023351e-05 3.1088542721502767e-05 -0.0016145444159129903 7.4438533494342357e-06 -7.8392204647700849e-05 0.0017497786317233416 0.0035232426111178939 -0.00041202684645654566 0.0026157696216079574 -3.1766061255211754e-06 0.0016333572842995637 -0.0020221402622701136 -0.0020519720298969851 -0.0036521501060633454 -1.940643995249371e-05 0.0039152557683258277 0.00046138597219772963 -3.4037480352846488e-06 -0.0016285256213543623 0.0052211069762706759 0.00052987736772694102 9.1998070817605519e-05
leaf_weight=20 87 23 32 21 38 106 31 28 26 93 28 25430 105 29 31 66 34 64 20 20 21 20 1405 23 29 188378 39 25 27 1334
leaf_count=20 87 23 32 21 38 106 31 28 26 93 28 25430 105 29 31 66 34 64 20 20 21 20 1405 23 29 188378 39 25 27 1334
internal_value=0 1.65003e-05 0.000443285 2.01303e-06 0.0009979 -0.000423765 1.30889e-05 -0.000355741 -0.000603892 -0.000297866 -0.000864399 1.57207e-05 0.000126616 8.86593e-05 0.00105373 0.000247893 1.88148e-05 0.000586646 -7.67208e-05 -0.000483882 -3.0069e-05 -0.000650193 2.23773e-05 0.000826571 -0.000594224 -2.4107e-06 0.000121312 0.000893605 0.00278528 4.31267e-05
internal_weight=0 27743 220 197 59 138 27523 195 175 147 54 27328 1898 1867 126 95 1741 138 104 84 1603 125 1478 73 50 189890 1512 139 52 1373
internal_count=217633 27743 220 197 59 138 27523 195 175 147 54 27328 1898 1867 126 95 1741 138 104 84 1603 125 1478 73 50 189890 1512 139 52 1373
shrinkage=0.05


Tree=369
num_leaves=31
num_cat=0
split_feature=28 12 12 6 36 10 10 36 16 36 5 13 12 36 13 36 36 16 11 2 9 17 22 36 16 13 9 10 20 23
split_gain=0.00348853 0.0197556 0.0653348 0.122316 0.130994 0.0492097 0.0454357 0.0418025 0.101848 0.0255533 0.0200582 0.0329613 0.0714174 0.127549 0.0333964 0.0229303 0.0291051 0.0149146 0.016232 0.0551329 0.0150513 0.0134613 0.0111404 0.023657 0.0108164 0.00979308 0.0089984 0.00814064 0.00700399 0.00661299
threshold=-10.048129999999999 -9.0272649999999983e-06 -2.0464649999999995e-06 3.1505950000000005e-06 -0.32870999999999989 -6.3741049999999988e-05 -1.1714349999999999e-05 -0.68744999999999989 0.0024905200000000004 0.1751400000000001 2.5689050000000004e-05 -4.2565349999999989e-06 1.6353050000000004e-05 0.010257000000000018 -1.8737049999999999e-06 -0.63161949999999989 0.077348000000000056 3.865525000000001e-10 0.0064150250000000004 1.2880000000000003 -6.4452949999999984e-05 -7.3314749999999984 26.434800000000003 -0.32870999999999989 0.0019525250000000003 0.00017885500000000004 -5.9599849999999995e-05 4.9502400000000009e-05 -15.0604 0.00090350500000000008
decision_type=2 2 2 2 2 2 2 2 2 2 2 2 2 2 2 2 2 2 2 2 2 2 2 2 2 2 2 2 2 2
left_child=1 5 3 4 -3 -1 -7 -8 -9 -10 11 12 13 -4 -13 26 -17 -16 20 24 -19 -14 23 -22 -20 -26 -12 -24 -18 -11
right_child=-2 2 10 -5 -6 6 7 8 9 29 15 14 21 -15 17 16 28 18 19 -21 22 -23 27 -25 25 -27 -28 -29 -30 -31
leaf_value=0.0026239700116483227 5.6814385749506934e-07 -0.00035482181747062077 -0.00017277789052708953 0.001997709497854452 -0.0044582867774659325 -0.0014714046415881454 -0.00013841318837164539 0.00333585864739559 0.0012710897501771493 -0.00014972295190091245 -0.00099427910990925752 -0.0015153494022486396 -0.00092752825455843591 0.0046906261700384606 0.0012019581393105938 -0.0025181710876899565 -0.001073668543540407 0.0012014014802709293 -0.00077910439049446725 -0.0029829440871253611 8.1826175411468566e-05 0.00047054382016402526 -4.5046596229967513e-05 0.0018506649389261538 0.0012217300482699927 -0.00018608158216617692 -2.081440933439948e-05 -0.00096548667410388588 0.00023373587020961126 -0.0014355093281483277
leaf_weight=21 215894 41 28 21 37 39 161 35 24 20 28 38 36 26 25 27 20 27 32 20 89 33 614 24 21 30 156 25 21 20
leaf_count=21 215894 41 28 21 37 39 161 35 24 20 28 38 36 26 25 27 20 27 32 20 89 33 614 24 21 30 156 25 21 20
internal_value=0 -7.05341e-05 -0.000150563 -0.00138942 -0.00230134 0.000284346 0.000120024 0.000358739 0.00116724 -1.87264e-05 -5.76493e-05 3.70275e-05 0.000806955 0.00216886 -6.31853e-05 -0.000458898 -0.00124346 -2.34491e-06 -3.64805e-05 -0.000626372 4.15155e-05 -0.000258885 -1.29373e-07 0.000457509 -5.85236e-05 0.000393606 -0.00016895 -8.10576e-05 -0.000404022 -0.000792616
internal_weight=0 1739 1419 99 78 320 299 260 99 64 1320 1068 123 54 945 252 68 907 882 103 779 69 752 113 83 51 184 639 41 40
internal_count=217633 1739 1419 99 78 320 299 260 99 64 1320 1068 123 54 945 252 68 907 882 103 779 69 752 113 83 51 184 639 41 40
shrinkage=0.05


Tree=370
num_leaves=31
num_cat=0
split_feature=36 36 17 25 32 2 28 17 3 1 13 0 17 35 5 3 7 18 9 4 30 17 36 32 4 3 30 25 3 17
split_gain=0.00344789 0.0427834 0.0709997 0.288473 0.100254 0.0824836 0.0730034 0.224584 0.332654 0.205361 0.196333 0.191017 0.168131 0.139707 0.134964 0.232596 0.207857 0.152762 0.319782 0.140052 0.111327 0.107363 0.12608 0.137247 0.0974644 0.142665 0.101496 0.0961151 0.256129 0.167221
threshold=-0.40968649999999995 -0.018010000000000078 16.002400000000005 0.69707500000000011 0.0070919350000000006 -0.53849999999999987 -1.0750649999999997 3.8241100000000006 -12.046299999999997 5.2820750000000007 6.4843700000000005e-08 7.1107950000000004 9.3032900000000023 0.0032291700000000004 3.4028100000000007e-05 -13.353949999999999 -2.1386699999999996e-05 11.881850000000002 -1.0627499999999998e-05 0.12649250000000004 0.45987150000000004 -16.050999999999998 -0.30278099999999991 0.27368000000000009 -1.5265699999999998 -14.605749999999999 2.3658200000000007 -0.071195649999999985 -17.304849999999998 -4.8420449999999997
decision_type=2 2 2 2 2 2 2 2 2 2 2 2 2 2 2 2 2 2 2 2 2 2 2 2 2 2 2 2 2 2
left_child=-1 2 6 4 -4 -6 7 14 10 11 -9 -10 13 -11 15 16 -2 20 -19 -16 -17 22 -8 -24 -18 26 -26 28 -23 -30
right_child=1 -3 3 -5 5 -7 21 8 9 12 -12 -13 -14 -15 19 17 24 18 -20 -21 -22 27 23 -25 25 -27 -28 -29 29 -31
leaf_value=7.3527912448111435e-06 -0.0075931773288175465 5.1716431133056973e-06 0.0020343495815593219 0.006450510002850067 0.00089512744984265576 -0.00303038288911921 0.0051971845276420937 0.006939544607885182 -0.0058113244935297055 0.0035957312833963203 0.00072089510014682837 -0.00024949871888231047 0.0051799641460820575 -0.00083220234679819323 -0.00078109616089932392 -0.003571064558491344 0.00080009333517712866 0.0065618574175806271 -0.0015397845076975125 0.0038794870404267896 -0.00078942186258727288 0.0034442037724287593 0.0025656947203161612 -0.0023156508053943981 -0.00033272552624111999 -0.0066895490000024446 -0.004560855456458574 -3.8775794090339959e-05 0.0004383294233482312 -0.0010458842377255582
leaf_weight=92022 22 111070 35 21 23 32 20 30 26 23 22 38 20 79 40 40 21 21 29 27 357 39 36 24 40 20 22 12405 251 778
leaf_count=92022 22 111070 35 21 23 32 20 30 26 23 22 38 20 79 40 40 21 21 29 27 357 39 36 24 40 20 22 12405 251 778
internal_value=0 -5.38662e-06 -8.60349e-05 0.00117368 -5.75787e-05 -0.00138881 -9.5725e-05 -0.000537831 0.000773226 -0.000215152 0.00430858 -0.00250899 0.000988173 0.000166253 -0.00102614 -0.00127484 -0.00318149 -0.000741658 0.00186291 0.00109705 -0.00106969 -6.71168e-05 0.00175916 0.000613157 -0.00223919 -0.00301755 -0.00183303 -7.79609e-05 -0.000533102 -0.000683846
internal_weight=0 125611 14541 111 90 55 14430 877 238 186 52 64 122 102 639 572 125 447 50 67 397 13553 80 60 103 82 62 13473 1068 1029
internal_count=217633 125611 14541 111 90 55 14430 877 238 186 52 64 122 102 639 572 125 447 50 67 397 13553 80 60 103 82 62 13473 1068 1029
shrinkage=0.05


Tree=371
num_leaves=31
num_cat=0
split_feature=31 37 37 5 5 3 35 3 5 10 10 39 1 2 35 36 8 11 32 37 39 39 36 21 30 8 11 8 34 3
split_gain=0.00340127 0.0123951 0.128506 0.152483 0.0933198 0.11768 0.106414 0.248438 0.317141 0.325319 0.53394 0.208029 0.205669 0.159428 0.13326 0.191407 0.189206 0.447124 0.204167 0.162256 0.183713 0.319495 0.334238 0.246428 0.146885 0.136446 0.201344 0.179995 0.130212 0.21087
threshold=1.8741500000000003e-05 0.19792950000000006 0.027234499999999971 6.9938750000000009e-06 3.4653000000000009e-05 -12.352299999999998 0.00015995400000000002 -14.389699999999999 1.1571150000000002e-05 3.8976100000000001e-05 -5.5913199999999999e-05 -0.77143500000000065 -2.8529549999999992 2.8579150000000006 1.9415700000000001e-05 -0.079468000000000025 1.8878250000000005e-05 0.00018327650000000005 0.00078813700000000006 0.078754999999999922 -1.1067849999999997 1.2296250000000011 -0.058960000000000005 0.22465500000000002 0.0030810800000000004 2.9944150000000004e-05 0.00014136750000000003 3.2478650000000008e-05 -0.092780149999999992 -12.046299999999997
decision_type=2 2 2 2 2 2 2 2 2 2 2 2 2 2 2 2 2 2 2 2 2 2 2 2 2 2 2 2 2 2
left_child=1 2 -1 -4 6 -6 14 8 12 10 -10 -11 -8 28 15 -5 17 -17 -19 20 -16 22 -22 -24 -18 26 -26 -27 29 -9
right_child=-2 -3 3 4 5 -7 7 13 9 11 -12 -13 -14 -15 19 16 24 18 -20 -21 21 -23 23 -25 25 27 -28 -29 -30 -31
leaf_value=-3.416745035591394e-06 6.3374311242011071e-06 1.2101797858754365e-05 0.0032929144407309405 -9.367331841580686e-05 0.0034837626235197866 0.00012765497936845894 0.0041070530128887511 0.0058280038111843168 -0.0020957410145042974 -0.0046371063217520714 -0.013111633735322606 0.0016560090201285977 -0.0025858761653277424 -0.0049506335594924171 -0.0015998808247285506 -0.0084803425614593617 -0.0038287969977116318 0.00043190713154867157 -0.0050023665339685979 -0.00034514359101006008 0.0084223108151211187 -0.00031808453347375096 0.0039041345343984839 -0.00085533053558698835 0.0048377437281160382 -0.0047104995290510494 -0.00015969949092253116 -0.0006338789393577249 -0.00068331237906301193 0.00012180189001168509
leaf_weight=56438 107317 50421 29 888 28 389 22 20 22 29 22 24 24 20 49 29 36 56 25 394 26 107 74 43 25 32 104 176 679 85
leaf_count=56438 107317 50421 29 888 28 389 22 20 22 29 22 24 24 20 49 29 36 56 25 394 26 107 74 43 25 32 104 176 679 85
internal_value=0 -6.16514e-06 -2.15427e-05 -0.000317462 -0.000348004 0.000353005 -0.000445089 -0.000883916 -0.0028042 -0.00442571 -0.00760369 -0.00178739 0.00061509 -0.000542374 -0.000243747 -0.000529383 -0.00133044 -0.00315275 -0.00124534 0.000321343 0.00119959 0.00174829 0.00329445 0.00215493 -0.000793031 -0.000468735 0.000808797 -0.00126105 -0.000429918 0.0012087
internal_weight=0 110316 59895 3457 3428 417 3011 947 143 97 44 53 46 804 2064 1371 483 110 81 693 299 250 143 117 373 337 129 208 784 105
internal_count=217633 110316 59895 3457 3428 417 3011 947 143 97 44 53 46 804 2064 1371 483 110 81 693 299 250 143 117 373 337 129 208 784 105
shrinkage=0.05


Tree=372
num_leaves=31
num_cat=0
split_feature=20 0 26 13 14 14 23 37 1 21 18 25 13 21 18 11 13 3 26 13 37 23 1 13 24 10 10 20 37 37
split_gain=0.0034171 0.0103678 0.0470838 0.112044 0.00795474 0.030003 0.0182343 0.0691731 0.0220264 0.0403579 0.0225995 0.00954757 0.0161956 0.00625087 0.0118384 0.0419864 0.00881748 0.031806 0.0111774 0.0104772 0.0264662 0.00671688 0.0186763 0.00860657 0.00495374 0.024098 0.0329931 0.0326288 0.0182107 0.172893
threshold=-5.9633049999999992 -9.6465949999999978 0.025872300000000004 -1.0292349999999999e-07 4.6606600000000007e-08 4.270425000000001e-08 0.0085896400000000008 0.48750300000000008 -9.3239949999999983 -0.22123499999999999 14.999250000000002 0.13760400000000003 -7.8838099999999994e-07 1.3511250000000004 -19.754149999999996 0.0027461200000000003 1.2311050000000001e-05 -6.6573699999999993 -0.44589049999999997 5.8204250000000011e-06 -0.2272394999999999 0.00057196550000000008 9.9822400000000027 5.1445100000000014e-07 29.419400000000007 -7.1201799999999986e-05 -6.7776199999999983e-05 -15.138399999999999 -0.2029299999999998 0.17390849999999994
decision_type=2 2 2 2 2 2 2 2 2 2 2 2 2 2 2 2 2 2 2 2 2 2 2 2 2 2 2 2 2 2
left_child=24 2 -2 -4 5 6 8 -8 9 -3 11 -10 -13 14 15 -6 19 18 -18 21 -21 -16 23 -23 -1 27 -27 -26 -28 -30
right_child=1 4 3 -5 13 -7 7 -9 10 -11 -12 12 -14 -15 16 -17 17 -19 -20 20 -22 22 -24 -25 25 26 28 -29 29 -31
leaf_value=6.0651320312070661e-07 2.8811090820555468e-05 0.0025858128893146803 -0.00050964784282057181 0.0046074096788652243 -0.00056446429600607825 0.0019381196596757789 0.0025575248216816418 -0.00024090639942894794 2.2809961801489436e-05 0.00012210263912359497 -0.0017709127269336024 -0.0017687183760461353 -3.8531536464640683e-05 -0.00091889470786554739 2.6925855704184574e-05 0.002482739516963193 -0.0011215296937152745 -0.0019460325094112505 2.0940377738471857e-06 -0.00037025940492572707 0.0019117290864945364 6.235385642703067e-05 -0.0017058025251442035 -0.00079979603117838428 -0.0021769316181046729 0.0016527152192730714 6.2680965293854333e-05 -0.00031106685026550799 -0.0010498999376347435 2.8019435414968424e-05
leaf_weight=209333 180 22 23 20 26 23 34 63 442 68 20 21 38 20 915 20 25 27 193 27 24 133 21 37 29 29 2510 122 430 2758
leaf_count=209333 180 22 23 20 26 23 34 63 442 68 20 21 38 20 915 20 25 27 193 27 24 133 21 37 29 29 2510 122 430 2758
internal_value=0 5.90584e-05 0.000383912 0.00187038 2.61151e-05 0.000160879 0.000103144 0.000739987 2.04145e-06 0.000724343 -0.000122732 -5.69367e-05 -0.000654361 -4.09916e-05 -2.88659e-05 0.000760407 -5.47622e-05 -0.000327253 -0.000126762 2.93899e-06 0.000703618 -2.93708e-05 -0.000299064 -0.000125291 -6.64647e-07 -4.59344e-05 -2.94956e-05 -0.000669412 -3.80572e-05 -0.000117371
internal_weight=0 2422 223 43 2199 731 708 97 611 90 521 501 59 1468 1448 46 1402 245 218 1157 51 1106 191 170 215211 5878 5727 151 5698 3188
internal_count=217633 2422 223 43 2199 731 708 97 611 90 521 501 59 1468 1448 46 1402 245 218 1157 51 1106 191 170 215211 5878 5727 151 5698 3188
shrinkage=0.05


Tree=373
num_leaves=31
num_cat=0
split_feature=40 30 1 13 10 37 18 32 11 15 12 13 21 39 21 2 21 10 11 37 37 20 13 11 33 30 2 19 4 34
split_gain=0.00343445 0.0133381 0.050047 0.0421105 0.0695538 0.03395 0.0164351 0.0151991 0.0936254 0.0659327 0.0355185 0.0191724 0.0191579 0.0634347 0.0148465 0.0542429 0.0195368 0.0661483 0.129229 0.206768 0.396663 0.047948 0.052859 0.0191325 0.0160224 0.0120927 0.0305013 0.188667 0.026896 0.121969
threshold=-3.3334999999999999 34.706300000000006 4.3945300000000005 2.7687200000000004e-06 5.2821900000000003e-05 -1.3278044999999998 -7.7245449999999991 -2.2564299999999995 0.037495750000000008 0.00010559900000000002 2.4676700000000005e-07 -7.383389999999999e-07 -2.2419299999999995 0.93421999999999994 2.1521500000000002 1.2461500000000003 1.5291850000000002 1.6488300000000006e-05 0.026901650000000003 0.62690650000000014 -0.43858299999999995 -13.887899999999998 6.9009750000000011e-07 0.0016273450000000003 -6.2538149999999987e-05 0.20270750000000001 3.0578500000000006 -2.2679949999999995 -0.29052249999999996 -0.0046234549999999994
decision_type=2 2 2 2 2 2 2 2 2 2 2 2 2 2 2 2 2 2 2 2 2 2 2 2 2 2 2 2 2 2
left_child=-1 7 3 6 -5 -4 -3 8 9 10 11 -2 13 -9 16 -16 24 21 19 20 -19 -18 23 -23 -14 -26 28 -28 29 -27
right_child=1 2 5 4 -6 -7 -8 12 -10 -11 -12 -13 14 -15 15 -17 17 18 -20 -21 -22 22 -24 -25 25 26 27 -29 -30 -31
leaf_value=9.3977333452959863e-06 -0.0025466055296419657 0.00076314319319256663 -0.00019324158875742403 -0.0041909283836416549 -0.00053108346354051989 0.0026234869746258483 -0.00060683823931519587 0.0021618079527232457 0.0022636776387630758 -0.0037639618734829129 0.00098908797262993171 -0.00046964072476839651 -0.0013850509596999301 -0.0012285623791368299 0.00024342913404563576 -0.0029202889358566613 0.0018297928922402209 0.00038700207749990602 -0.00063610209937240737 1.7231227999358313e-05 0.0095092856706204751 0.00017352698091938816 -0.0028052074567173034 -0.0015560912911453109 2.4319205741980493e-06 -0.00018496868641890119 0.0051947425957769161 3.1663223139081053e-06 -7.5165913642385383e-05 0.00022353590407419487
leaf_weight=67200 20 30 23 21 34 20 81 37 23 21 24 25 21 22 42 20 20 26 67 52 22 67 26 21 125166 3330 20 140 16963 4049
leaf_count=67200 20 30 23 21 34 20 81 37 23 21 24 25 21 22 42 20 20 26 67 52 22 67 26 21 125166 3330 20 140 16963 4049
internal_value=0 -4.19807e-06 -0.000403353 -0.000797144 -0.00192848 0.00111686 -0.000236573 -3.64274e-06 -0.000583306 -0.00131087 -0.000564276 -0.00139274 -3.20638e-06 0.000897602 -3.56058e-06 -0.000777125 -3.24082e-06 0.000399177 0.00106313 0.00220162 0.00456805 -0.000428292 -0.000824447 -0.000239223 -4.05001e-06 -3.85624e-06 -3.59787e-05 0.000652113 -4.05015e-05 3.91857e-05
internal_weight=0 150433 209 166 55 43 111 150224 113 90 69 45 150111 59 150052 62 149990 301 167 100 48 134 114 88 149689 149668 24502 160 24342 7379
internal_count=217633 150433 209 166 55 43 111 150224 113 90 69 45 150111 59 150052 62 149990 301 167 100 48 134 114 88 149689 149668 24502 160 24342 7379
shrinkage=0.05


Tree=374
num_leaves=31
num_cat=0
split_feature=39 34 15 37 8 7 25 16 37 28 37 37 37 37 37 16 17 3 3 40 17 7 20 11 11 12 30 15 37 37
split_gain=0.00340843 0.0124582 0.0391442 0.0733302 0.0117201 0.0534151 0.0422745 0.0330238 0.0764779 0.0254587 0.109703 0.130833 0.0297944 0.0265603 0.128225 0.130813 0.0969673 0.0227611 0.0224995 0.0136588 0.0465548 0.0901537 0.162298 0.3563 0.105819 0.138964 0.0869843 0.119581 0.108052 0.348815
threshold=-2.1087049999999987 -1.0090899999999998 0.00082871750000000014 0.91305500000000017 9.5296300000000015e-06 -7.1286049999999993e-06 -0.39445199999999997 0.0018801250000000003 0.17390849999999994 -0.27584949999999991 0.078754999999999922 -0.27889399999999981 0.56931500000000013 -0.12554300000000002 0.14791590000000002 0.0001142435 -1.1948249999999998 -14.389699999999999 -10.778799999999999 0.086360000000000006 6.0977500000000004 2.5975450000000002e-05 -11.018649999999999 0.0011630900000000001 6.2945500000000009e-05 -1.47898e-08 0.15993500000000002 3.940980000000001e-05 0.40643499999999982 -0.026150000000000003
decision_type=2 2 2 2 2 2 2 2 2 2 2 2 2 2 2 2 2 2 2 2 2 2 2 2 2 2 2 2 2 2
left_child=1 2 -1 -4 5 -2 -7 9 -9 10 11 -8 -12 -11 15 16 -15 -18 -19 -6 -21 -22 23 -23 25 -24 -26 28 29 -28
right_child=4 -3 3 -5 19 6 7 8 -10 13 12 -13 -14 14 -16 -17 17 18 -20 20 21 22 24 -25 26 -27 27 -29 -30 -31
leaf_value=-3.8235330387940905e-05 0.0020500717407533858 9.9459221069124064e-06 0.0039455822971649476 -0.00033607132907491181 2.3715347168663172e-06 -0.0016977228814084812 -0.00012747109080269833 0.00354457434708741 -0.00018854571899282747 -8.9001376703030704e-05 0.0020380992513824346 -0.0052169234247032917 -1.8671349946523211e-05 0.0042443062458187341 -5.9460111449967348e-05 0.005537928213889245 -0.0011035918840207159 0.0019596739972117714 4.0390035271254448e-05 1.4271197050407237e-06 -2.8574540614022855e-05 -0.0083040665977750904 5.0989062051835041e-05 -0.00093344907108985355 -0.00012298634148930212 -0.0051185267794957891 -0.00082551637345650822 0.00046249869045990343 -0.00013319179613063172 -0.0060393545321700088
leaf_weight=103 36 51314 20 20 133598 32 28 23 34 424 21 23 109 20 323 20 20 26 37 23366 5629 20 26 91 1914 26 106 98 80 46
leaf_count=103 36 51314 20 20 133598 32 28 23 34 424 21 23 109 20 323 20 20 26 37 23366 5629 20 26 91 1914 26 106 98 80 46
internal_value=0 1.12447e-05 0.000477287 0.00180476 -3.48195e-06 0.000153804 9.39216e-05 0.000145666 0.0013178 8.20962e-05 -0.000457423 -0.00242271 0.000313576 0.000194341 0.000463707 0.00183755 0.00111903 0.000365953 0.000832475 -4.60297e-06 -3.42756e-05 -0.000138087 -0.000394193 -0.00226149 -0.000303919 -0.00253377 -0.000252247 -0.00100196 -0.00162056 -0.00240339
internal_weight=0 51457 143 40 166176 1176 1140 1108 57 1051 181 51 130 870 446 123 103 83 63 165000 31402 8036 2407 111 2296 52 2244 330 232 152
internal_count=217633 51457 143 40 166176 1176 1140 1108 57 1051 181 51 130 870 446 123 103 83 63 165000 31402 8036 2407 111 2296 52 2244 330 232 152
shrinkage=0.05


Tree=375
num_leaves=31
num_cat=0
split_feature=17 40 3 0 19 36 4 1 1 12 19 7 18 36 40 7 33 17 3 2 0 20 11 18 18 33 40 30 19 36
split_gain=0.00371229 0.0528988 0.157443 0.261004 0.334904 0.755123 0.423354 0.180564 0.25281 0.219675 0.162627 0.138751 0.212807 0.193098 0.223917 0.155842 0.135526 0.112475 0.09871 0.201434 0.0987004 0.117197 0.120289 0.0693641 0.0467533 0.0455 0.0677111 0.0452748 0.0529276 0.123066
threshold=7.2203350000000013 0.23534999999999953 -8.7781499999999983 4.2310700000000008 -0.50150699999999981 0.22528099999999995 -0.11271049999999998 -1.0953499999999996 -0.50917349999999983 3.5843050000000008e-07 0.82375900000000002 3.3645000000000007e-05 -2.8615649999999997 0.22528099999999995 -0.27579999999999932 5.6286850000000008e-05 -8.5509449999999993e-07 9.3032900000000023 -10.603549999999998 -0.31697849999999994 7.1107950000000004 -9.1724949999999978 6.2945500000000009e-05 3.6376800000000005 -2.7816549999999993 -2.7510949999999998e-05 2.9060500000000005 0.15993500000000002 0.47223950000000009 0.30085850000000008
decision_type=2 2 2 2 2 2 2 2 2 2 2 2 2 2 2 2 2 2 2 2 2 2 2 2 2 2 2 2 2 2
left_child=-1 2 3 -2 5 6 -5 18 9 -9 11 16 -13 14 15 17 -10 -14 19 -6 25 -22 -23 -18 -7 26 -3 -24 29 -29
right_child=1 20 -4 4 7 24 -8 8 10 -11 -12 12 13 -15 -16 -17 23 -19 -20 -21 21 22 27 -25 -26 -27 -28 28 -30 -31
leaf_value=-2.8360676882343295e-06 1.782359355859479e-05 0.0031838815736894809 2.4602682364804231e-05 0.0036275923810899259 7.5801718623501487e-05 -0.00045488455202050522 0.013574248809954557 0.0018249820014461877 -0.0038927074298650646 0.0088554046579520217 0.0045790614944617751 -0.0031743738015609872 0.0046653476035912874 -0.00015591338249817195 0.00049231999461577902 0.0015065437595781295 -0.00036925313226757997 0.0095393164851702763 0.00025246809977238631 -0.0061826060953535491 -0.0035245897394876619 -0.0031454603512477333 -0.00018968589162995312 0.0025639726750378033 0.0023162678276944268 -1.4035660958958848e-05 -0.00060166837592121394 -0.0032504262023697571 0.00012231820456883304 -4.8006119948110405e-05
leaf_weight=183098 1094 27 15233 20 36 45 23 25 24 20 29 21 29 59 42 21 104 20 175 20 30 38 1273 25 23 15873 21 60 65 60
leaf_count=183098 1094 27 15233 20 36 45 23 25 24 20 29 21 29 59 42 21 104 20 175 20 30 38 1273 25 23 15873 21 60 65 60
internal_value=0 1.50363e-05 7.75648e-05 0.000512482 0.00122359 0.00376184 0.0089479 0.000790141 0.00140891 0.00494961 0.000982889 0.000680602 0.00157571 0.00215905 0.00337854 0.00511027 -0.000442667 0.00665472 -0.000332214 -0.00215934 -4.62056e-05 -0.000430335 -0.000368284 0.000199201 0.000482417 -9.38749e-06 0.0015277 -0.000295902 -0.00102679 -0.00164922
internal_weight=0 34535 17088 1855 761 111 43 650 419 45 374 345 192 171 112 70 153 49 231 56 17447 1526 1496 129 68 15921 48 1458 185 120
internal_count=217633 34535 17088 1855 761 111 43 650 419 45 374 345 192 171 112 70 153 49 231 56 17447 1526 1496 129 68 15921 48 1458 185 120
shrinkage=0.05


Tree=376
num_leaves=31
num_cat=0
split_feature=14 32 3 31 4 5 34 3 14 34 36 18 29 10 13 36 18 36 3 15 32 30 11 11 2 19 18 36 1 26
split_gain=0.00344749 0.0365396 0.108598 0.0451656 0.0864035 0.0291718 0.0174381 0.0132481 0.0103528 0.0512455 0.0489869 0.0287239 0.0315617 0.0442515 0.0771761 0.119608 0.309269 0.468951 0.0415076 0.0261252 0.0512615 0.0229061 0.0711735 0.0227093 0.0191126 0.0782462 0.0150562 0.018388 0.0309029 0.0145336
threshold=2.5901300000000006e-05 -2.2564299999999995 -15.624449999999998 5.1900100000000009 3.2200950000000002 1.5508550000000002e-05 5.8699600000000016 -13.166999999999998 1.5863700000000005e-05 1.8271150000000003 -0.27744100000000016 -15.424049999999998 1.1132650000000001e-05 -3.2904449999999993e-05 -8.6326249999999977e-06 -0.27744100000000016 -2.0281699999999994 0.02582950000000005 -15.993649999999997 -0.00036585349999999998 0.0046927250000000009 2.3658200000000007 0.015505300000000001 0.00066001700000000005 2.7316900000000004 2.4063700000000003 0.35508750000000006 0.12375499999999996 3.7283150000000007 -0.15264749999999996
decision_type=2 2 2 2 2 2 2 2 2 2 2 2 2 2 2 2 2 2 2 2 2 2 2 2 2 2 2 2 2 2
left_child=8 2 -2 5 -5 -4 -3 -8 -1 11 -11 -10 21 14 26 -16 18 -18 -17 20 -15 29 -23 -20 -21 -26 -14 28 -28 -13
right_child=1 6 3 4 -6 -7 7 -9 9 10 -12 12 13 19 15 16 17 -19 23 24 -22 22 -24 -25 25 -27 27 -29 -30 -31
leaf_value=-4.1929576684800295e-07 0.0035450802132392465 1.3455767904445874e-05 -0.0021561735527306472 0.0035848900704877453 -0.00075318973637574047 4.1173287767874586e-05 -0.0018744738784153014 -0.0003330403390978261 0.0014891704879119061 -0.00013134149339748548 -0.0033605003572555019 0.00083530110166773553 -0.00019881943653959563 1.7091145138692812e-05 -3.2544583942316842e-05 -0.0024793524536410889 -0.0094528340834899461 -0.00020522263114868954 -0.0013939706909825743 -4.5072406376458253e-05 0.0030122148233931514 -0.00013423491399207276 -0.0031032356448122303 0.0002688358742619 5.2486488574510058e-06 -0.0034925599295612692 0.0028652887904900125 -0.00013437536917715052 0.0001496744491470798 1.0040892165164329e-05
leaf_weight=180411 29 30981 23 22 24 44 20 46 30 24 23 54 95 50 148 24 29 26 28 661 20 127 24 77 67 21 20 33 22 4430
leaf_count=180411 29 30981 23 22 24 44 20 46 30 24 23 54 95 50 148 24 29 26 28 661 20 127 24 77 67 21 20 33 22 4430
internal_value=0 1.53863e-05 0.00081562 0.000115139 0.00132154 -0.00071314 1.17262e-05 -0.000800141 -2.57387e-06 -6.70042e-05 -0.00171157 -5.40916e-05 -6.1865e-05 -0.000277464 -0.000647099 -0.00109072 -0.00194187 -0.00508124 -0.000603374 -5.08988e-05 0.000872841 -4.1814e-07 -0.000606129 -0.000174579 -0.00013723 -0.000829456 0.000219273 0.000748856 0.00144282 1.99794e-05
internal_weight=0 31189 142 113 46 67 31047 66 186444 6033 47 5986 5956 1321 502 332 184 55 129 819 70 4635 151 105 749 88 170 75 42 4484
internal_count=217633 31189 142 113 46 67 31047 66 186444 6033 47 5986 5956 1321 502 332 184 55 129 819 70 4635 151 105 749 88 170 75 42 4484
shrinkage=0.05


Tree=377
num_leaves=31
num_cat=0
split_feature=23 1 5 12 36 36 2 4 21 13 18 13 13 5 5 14 17 36 24 39 13 18 4 4 21 15 19 12 23 13
split_gain=0.00338086 0.0394282 0.0168281 0.0263661 0.0417408 0.024944 0.0685874 0.14306 0.0329881 0.0408688 0.0173174 0.0353473 0.0222696 0.0254812 0.00798569 0.00847645 0.00745966 0.00828749 0.00716324 0.023247 0.0128085 0.0235497 0.0193891 0.0495573 0.0751455 0.0198532 0.0150422 0.0138778 0.0481558 0.0262003
threshold=-0.062701649999999984 -13.794199999999998 1.1794800000000003e-05 -7.7047499999999992e-07 0.9482394999999999 0.57364500000000007 -0.17274099999999995 0.026035500000000007 -1.4574199999999997 1.4049800000000004e-07 -0.5982734999999999 3.6544900000000005e-06 2.1242850000000004e-06 1.7356700000000003e-05 1.0122450000000002e-05 2.4231800000000001e-08 -8.5876849999999987 0.38220950000000015 91.481750000000019 -8.7558049999999987 -4.6602349999999998e-06 18.392150000000004 3.5685900000000004 1.1247450000000001 0.86341500000000015 7.6735600000000018e-05 -2.2401749999999994 -2.7784749999999993e-06 0.069955350000000013 3.9398900000000012e-06
decision_type=2 2 2 2 2 2 2 2 2 2 2 2 2 2 2 2 2 2 2 2 2 2 2 2 2 2 2 2 2 2
left_child=1 -1 3 4 -3 6 8 -8 9 -4 12 -12 -10 -14 16 -16 -5 -18 -2 -20 21 -21 23 25 -25 26 -22 28 -28 -29
right_child=18 2 5 14 -6 -7 7 -9 10 -11 11 -13 13 -15 15 -17 17 -19 19 20 22 -23 -24 24 -26 -27 27 29 -30 -31
leaf_value=0.0022920365887694064 2.2896278950320601e-07 -0.0029599757769822399 -7.5001690565841268e-05 -0.00023391368600064974 -0.00011226456422704242 -0.00010706530370043766 -0.00039143919680513636 0.0054514447832480079 8.9086565659320186e-05 0.0031214327429188414 -0.00010226817892709566 0.0021739140459154124 -0.0026446286337159109 -0.00025020329887047411 -0.0012801434203174723 -0.00011109511355955517 0.0012639840949434837 5.8001729610560725e-05 0.0012640462752736721 -0.0003405391363993212 0.00091668182817686891 -0.0020846094978465277 -0.00095316718012327338 -0.00062199452142050623 0.002911180619027137 -0.0016911798308137807 -0.00083820426530459942 -8.8044834042202286e-05 0.0022676931036888465 -0.0010818127440822872
leaf_weight=20 215702 22 20 41 31 344 22 20 76 20 66 23 20 25 20 69 28 29 29 161 35 22 60 27 34 20 26 521 24 76
leaf_count=20 215702 22 20 41 31 344 22 20 76 20 66 23 20 25 20 69 28 29 29 161 35 22 60 27 34 20 26 521 24 76
internal_value=0 9.69246e-05 4.68079e-05 -0.000309937 -0.00129433 0.000181429 0.000521298 0.00239089 0.000207207 0.00152322 -4.34607e-05 0.000485959 -0.000432868 -0.00131439 -3.09374e-05 -0.000373803 0.00028044 0.000650414 -4.0069e-07 -0.000131625 -0.000171858 -0.000550209 -8.77294e-05 -1.9674e-05 0.00134732 -0.000138458 -9.29237e-05 -0.000147539 0.000652626 -0.000214555
internal_weight=0 896 876 240 53 636 292 42 250 40 210 89 121 45 187 89 98 57 216737 1035 1006 183 823 763 61 702 682 647 50 597
internal_count=217633 896 876 240 53 636 292 42 250 40 210 89 121 45 187 89 98 57 216737 1035 1006 183 823 763 61 702 682 647 50 597
shrinkage=0.05


Tree=378
num_leaves=31
num_cat=0
split_feature=17 40 3 0 19 37 4 1 1 12 6 19 9 33 32 0 11 21 3 2 10 11 31 0 30 32 5 9 30 18
split_gain=0.00333189 0.0478447 0.14237 0.235613 0.301495 0.682193 0.382091 0.162968 0.227312 0.196901 0.154702 0.166269 0.176653 0.159461 0.152903 0.090026 0.106484 0.0892204 0.0889464 0.182483 0.071713 0.0642465 0.0788927 0.0505985 0.05056 0.0777325 0.0755721 0.053099 0.0775354 0.045645
threshold=7.2203350000000013 0.23534999999999953 -8.7781499999999983 4.2310700000000008 -0.50150699999999981 -0.2029299999999998 -0.11271049999999998 -1.0953499999999996 -0.50917349999999983 3.5843050000000008e-07 2.8636100000000006e-07 0.82375900000000002 5.2422100000000008e-05 -4.9754949999999999e-07 0.016813700000000004 7.8324700000000016 6.2945500000000009e-05 -0.24039599999999997 -10.603549999999998 -0.34235099999999991 5.8318900000000008e-05 0.00026773650000000009 0.00092776350000000013 5.4701800000000009 0.17303750000000004 0.033124950000000007 1.3994750000000002e-05 1.4690450000000003e-05 0.0076036950000000006 3.0686450000000005
decision_type=2 2 2 2 2 2 2 2 2 2 2 2 2 2 2 2 2 2 2 2 2 2 2 2 2 2 2 2 2 2
left_child=-1 2 3 -2 5 -5 -7 18 9 -9 11 12 13 -10 17 -3 -17 -14 19 -6 -12 22 -15 -22 27 26 -26 28 -18 -23
right_child=1 15 -4 4 7 6 -8 8 10 -11 20 -13 14 21 -16 16 24 -19 -20 -21 23 29 -24 -25 25 -27 -28 -29 -30 -31
leaf_value=-2.6868328453000905e-06 1.7304294979052183e-05 -1.571062436900468e-05 2.3348415582630945e-05 0.00045419816296865013 0.00024691030564687985 0.0034461180790094658 0.012895617200790542 0.0017386725139222109 -0.0040261258726241068 0.0083947082837403288 -0.0029719328088470289 0.0057078615936916322 0.0039349317802619532 0.00071471378018724777 0.0066335810547960665 -0.0031708934593350732 0.00015178234472841724 0.00043008264287693792 0.00024040634165534616 -0.0055972833379531626 0.0021148495188321077 -0.00095564538843453711 0.0045301532816665714 -0.00081861165482984455 -0.0053392132612862042 -0.00044891233308401034 -0.00099260172235517532 -0.00018425725283768266 -0.004250926724926103 0.0018270419380860402
leaf_weight=183098 1094 16428 15233 68 34 20 23 25 20 20 27 22 30 42 21 36 20 46 175 22 21 56 20 49 20 77 20 826 20 20
leaf_count=183098 1094 16428 15233 68 34 20 23 25 20 20 27 22 30 42 21 36 20 46 175 22 21 56 20 49 20 77 20 826 20 20
internal_value=0 1.42451e-05 7.37115e-05 0.000487286 0.00116292 0.00357123 0.0085005 0.000751658 0.0013395 0.00469691 0.000935537 0.0015373 0.00117749 0.00014635 0.00285708 -4.39977e-05 -0.000500033 0.00181358 -0.000314607 -0.00204902 -0.00078291 0.000751056 0.0019455 6.14267e-05 -0.00040222 -0.0013778 -0.00316591 -0.000270415 -0.00204957 -0.000223359
internal_weight=0 34535 17088 1855 761 111 43 650 419 45 374 277 255 158 97 17447 1019 76 231 56 97 138 62 70 983 117 40 866 40 76
internal_count=217633 34535 17088 1855 761 111 43 650 419 45 374 277 255 158 97 17447 1019 76 231 56 97 138 62 70 983 117 40 866 40 76
shrinkage=0.05


Tree=379
num_leaves=31
num_cat=0
split_feature=39 34 15 36 11 36 36 20 25 18 18 34 6 20 11 35 9 26 21 20 6 4 4 39 6 30 9 16 31 0
split_gain=0.00339725 0.0112943 0.0340494 0.0636195 0.0111186 0.0133167 0.0772604 0.0110304 0.161325 0.0466839 0.0299253 0.0169509 0.0546863 0.0147027 0.0392149 0.0137386 0.024914 0.0239061 0.0190541 0.0958563 0.330377 0.029098 0.14407 0.272387 0.032262 0.0208691 0.0249691 0.0199871 0.0180161 0.0599487
threshold=-2.1087049999999987 -1.0090899999999998 0.00082871750000000014 -0.60254799999999997 0.71230950000000004 0.354709 -0.54531499999999988 -13.656999999999998 -0.25901299999999999 7.3737850000000007 -6.1725999999999992 -0.022319999999999996 -1.8838049999999998e-07 -13.597549999999998 0.010823350000000001 0.12384550000000001 -0.00012512549999999997 0.30041650000000003 -0.88671549999999988 -12.040949999999999 5.6989500000000011e-07 -0.42458499999999993 -1.6465649999999996 -3.9444949999999994 -5.7203749999999994e-08 5.3516150000000016 5.0670100000000008e-05 0.0013311500000000003 0.96084200000000008 3.0384450000000007
decision_type=2 2 2 2 2 2 2 2 2 2 2 2 2 2 2 2 2 2 2 2 2 2 2 2 2 2 2 2 2 2
left_child=1 2 -1 -4 -2 6 -6 8 -3 10 -10 12 -12 14 -9 18 17 -17 19 20 -15 22 27 24 -24 28 -27 -21 -20 -30
right_child=4 7 3 -5 5 -7 -8 13 9 -11 11 -13 -14 15 -16 16 -18 -19 25 21 -22 -23 23 -25 -26 26 -28 -29 29 -31
leaf_value=-2.5839604509686958e-05 -3.0491622273412974e-06 0.0037118388029809394 -0.00030100974894594403 0.0036870812764391303 3.6086280999433222e-05 -2.1931739147211137e-05 -0.0035677652890444738 -0.00027331182207490206 -0.0020891007383484284 -0.0025601088717601009 -0.0010862169399323259 -0.00024627587441373972 0.0018259114355571099 -0.00076661966995743573 0.0025849684173044809 -0.00037385310931767893 -5.5761420442264138e-05 -0.0021381566450145331 9.6429636812519683e-06 -0.0017665758908492536 0.0073774356521244047 -7.4510902777237667e-05 0.0014230226647123346 0.0059771128977093128 -0.0012480941380580101 -8.3905234551538948e-05 -0.0023803472828149101 -7.2903882488996419e-05 -0.00011325701872171041 0.0022979221713014977
leaf_weight=103 165995 26 20 20 58 103 20 30 21 22 28 730 38 33 20 48 231 32 49044 20 20 588 20 31 26 29 20 135 85 37
leaf_count=103 165995 26 20 20 58 103 20 30 21 22 28 730 38 33 20 48 231 32 49044 20 20 588 20 31 26 29 20 135 85 37
internal_value=0 1.12262e-05 0.000454965 0.00169304 -3.47624e-06 -0.000395145 -0.000887978 9.98961e-06 -0.000167048 -0.000287252 -0.000226049 -0.000176898 0.000590463 1.30251e-05 0.00087 1.21749e-05 -0.000319122 -0.00107957 1.4232e-05 0.000245779 0.00230661 0.000112579 0.000586754 0.00235455 -8.6739e-05 1.01247e-05 -0.00102123 -0.000291442 1.11525e-05 0.000618002
internal_weight=0 51457 143 40 166176 181 78 51314 865 839 817 796 66 50449 50 50399 311 80 50088 873 53 820 232 77 46 49215 49 155 49166 122
internal_count=217633 51457 143 40 166176 181 78 51314 865 839 817 796 66 50449 50 50399 311 80 50088 873 53 820 232 77 46 49215 49 155 49166 122
shrinkage=0.05


Tree=380
num_leaves=31
num_cat=0
split_feature=17 2 20 14 20 19 26 2 19 2 16 32 36 19 36 26 2 5 2 2 2 17 13 18 36 3 12 20 18 2
split_gain=0.00328537 0.0202302 0.0778715 0.14962 0.0505783 0.0359795 0.0349783 0.0141411 0.0638478 0.0332186 0.12362 0.0281726 0.0279747 0.0218705 0.0183392 0.010114 0.054752 0.0624735 0.0267187 0.0354381 0.0259768 0.0605274 0.0478454 0.021414 0.0991082 0.226627 0.0433032 0.0586368 0.029577 0.0185099
threshold=-8.175164999999998 3.0333000000000006 -9.5739449999999984 9.0015350000000007e-07 -9.1724949999999978 2.8297800000000004 0.014392250000000002 -3.0487399999999996 3.0438950000000005 -2.9939399999999998 4.9504050000000005e-09 -6.4303699999999992e-05 0.0045899999999999838 -2.9892949999999998 -0.17527649999999997 0.18537850000000003 2.9632050000000003 1.6719450000000001e-05 -2.9738899999999995 -2.8979349999999995 -2.7519549999999997 -14.223749999999997 -5.0028699999999995e-08 -9.1109899999999975 0.14973499999999998 -5.7274249999999993 -1.3937899999999998e-06 -7.272854999999999 -10.360699999999998 2.8304750000000003
decision_type=2 2 2 2 2 2 2 2 2 2 2 2 2 2 2 2 2 2 2 2 2 2 2 2 2 2 2 2 2 2
left_child=1 7 3 -3 -4 -6 -7 8 12 10 -9 14 -1 -13 -12 23 18 -18 -17 -20 21 22 -21 24 25 26 -11 -28 -29 -22
right_child=-2 2 4 -5 5 6 -8 9 -10 15 11 13 -14 -15 -16 16 17 -19 19 20 29 -23 -24 -25 -26 -27 27 28 -30 -31
leaf_value=-3.2777642607268519e-05 -2.2671724467393969e-06 -0.00088481147548009171 -0.0022612408331562101 0.0049173043172340844 -8.6252830465249371e-05 0.00056669888721157084 0.0029970132463495247 -0.0036439763044874215 0.0030990464155911468 -0.00092557215657507186 -0.00035509730556533846 0.0017139215121763603 0.0019293777900747954 9.0357289479272027e-06 -0.0019709570278646426 -0.001704550118423261 -0.0031090912546196414 0.00037479261968242515 0.0015522304519566075 -0.0006226644602325645 -4.4237075670603596e-05 0.0003955528823838862 -0.0040397630914230835 1.6767917071926652e-05 -2.1752260400908045e-05 0.0063867865725660529 0.0034029567924849487 0.0015448137897938314 -0.00041656444725049371 0.0007173237034116827
leaf_weight=198 191545 20 21 25 187 57 20 29 20 32 59 24 20 87 25 24 31 22 35 21 2957 43 20 21380 529 20 23 37 40 82
leaf_count=198 191545 20 21 25 187 57 20 29 20 32 59 24 20 87 25 24 31 22 35 21 2957 43 20 21380 529 20 23 37 40 82
internal_value=0 1.66462e-05 0.000405646 0.00233859 0.000100445 0.000288306 0.00119795 1.16625e-05 0.000395288 8.08479e-06 -0.000598124 -0.000145151 0.000147237 0.00037766 -0.000836008 1.34529e-05 -6.91093e-05 -0.00166295 -4.25619e-05 -2.99312e-05 -4.76628e-05 -0.000915029 -0.00228954 2.55597e-05 0.000301577 0.00142685 0.000675343 0.00118764 0.000525916 -2.36882e-05
internal_weight=0 26088 330 45 285 264 77 25758 238 25520 224 195 218 111 84 25296 3235 53 3182 3158 3123 84 41 22061 681 152 132 100 77 3039
internal_count=217633 26088 330 45 285 264 77 25758 238 25520 224 195 218 111 84 25296 3235 53 3182 3158 3123 84 41 22061 681 152 132 100 77 3039
shrinkage=0.05


Tree=381
num_leaves=31
num_cat=0
split_feature=17 22 15 10 1 7 0 2 39 2 25 5 0 4 2 2 2 26 0 4 2 4 7 7 6 28 36 36 17 36
split_gain=0.00335432 0.0346374 0.0475002 0.027033 0.0992542 0.0212683 0.0805452 0.0261442 0.0488999 0.0445416 0.0345971 0.0249771 0.0200444 0.0203974 0.0194827 0.0274381 0.0154593 0.0247245 0.0174373 0.0152061 0.0134998 0.10793 0.0206067 0.0171579 0.0429805 0.0124889 0.0282887 0.0506963 0.0264398 0.0160739
threshold=-14.223749999999997 0.33580650000000006 -1.1307749999999999e-07 -5.3688449999999996e-05 4.3945300000000005 -6.6968199999999987e-05 -12.520849999999998 -2.8979349999999995 0.93421999999999994 -2.7519549999999997 -0.013848249999999998 2.3352400000000004e-05 -10.580349999999997 -0.084020649999999988 -2.6524249999999996 -2.5803049999999996 2.8579150000000006 0.34967900000000007 -10.077899999999998 -0.17714399999999997 2.6388200000000004 -0.15279949999999998 -4.9083349999999995e-05 -3.5921449999999995e-05 4.705465000000001e-06 -4.3985699999999994 -0.40968649999999995 0.039429999999999972 -19.608449999999998 0.57364500000000007
decision_type=2 2 2 2 2 2 2 2 2 2 2 2 2 2 2 2 2 2 2 2 2 2 2 2 2 2 2 2 2 2
left_child=1 2 -1 4 -3 11 -7 8 -8 10 -9 -5 13 -11 -14 -16 18 -18 -17 -13 22 -22 -20 24 -24 26 -25 -28 -29 -27
right_child=-2 3 -4 5 -6 6 7 9 -10 12 -12 19 14 -15 15 16 17 -19 20 -21 21 -23 23 25 -26 29 27 28 -30 -31
leaf_value=0.0032442362319125098 -6.8269756364967109e-07 -0.00013728022050556667 -0.00012255337523211406 -0.0017611759575083853 0.0030989601442839064 0.0024857945532527417 9.1690345303504727e-05 -0.002933051899763877 0.0029668280960149355 -0.0022078123805113138 -0.00029411623275976771 0.00088766695660827595 0.0015070429026805372 -0.00023509681060731008 -0.0017451446958644244 0.0014874872675309668 0.0002193515996395945 -0.0017786429317978522 -0.0014719651552656181 -0.0005537469161015009 0.0037825131257704925 -0.00069769465282173244 -0.00012142088337379784 -3.1954723874510402e-05 0.0027554949988552839 0.00028013492970933293 -0.0027880883729916868 -0.0010032041582079339 0.0012757281908125152 -6.4808607902442313e-05
leaf_weight=20 215032 84 22 35 33 33 50 23 21 20 27 24 22 38 22 21 32 30 23 77 20 41 37 359 20 585 28 35 20 799
leaf_count=20 215032 84 22 35 33 33 50 23 21 20 27 24 22 38 22 21 32 30 23 77 20 41 37 359 20 585 28 35 20 799
internal_value=0 5.64405e-05 0.00148068 3.3065e-05 0.000775506 -2.5065e-06 3.33282e-05 -2.27736e-06 0.000942083 -3.27268e-05 -0.00150803 -0.000610115 1.55065e-06 -0.000915344 2.6947e-05 1.12316e-05 3.00806e-05 -0.00074742 5.43286e-05 -0.000211233 3.90279e-05 0.000771226 1.55945e-05 3.37644e-05 0.000888023 7.09806e-06 -0.000224289 -0.00105619 -0.000174501 8.09948e-05
internal_weight=0 2601 42 2559 117 2442 2306 2273 71 2202 50 136 2152 58 2094 2072 2050 62 1988 101 1967 61 1906 1883 57 1826 442 83 55 1384
internal_count=217633 2601 42 2559 117 2442 2306 2273 71 2202 50 136 2152 58 2094 2072 2050 62 1988 101 1967 61 1906 1883 57 1826 442 83 55 1384
shrinkage=0.05


Tree=382
num_leaves=31
num_cat=0
split_feature=8 36 40 40 16 13 16 39 18 3 3 39 30 39 12 36 5 36 34 25 20 39 28 11 15 16 9 36 2 3
split_gain=0.00322749 0.0153262 0.0129485 0.0342134 0.0538139 0.0397407 0.11738 0.032579 0.024775 0.12405 0.158227 0.0558089 0.121923 0.0531078 0.0530439 0.0750266 0.045909 0.0716062 0.0497429 0.0297141 0.0294443 0.0788322 0.0275728 0.0825017 0.0256823 0.0328076 0.0684013 0.0734584 0.0590184 0.0754199
threshold=1.6290050000000002e-05 5.2590600000000007 0.46045500000000011 0.36284999999999995 0.0030314700000000005 -1.1598249999999999e-07 2.4445350000000004e-06 -0.41630000000000006 -8.2769249999999985 -12.585899999999999 -14.947699999999999 -0.15760999999999911 0.0065849050000000011 0.10586500000000011 5.1874450000000018e-07 0.14973499999999998 1.1630300000000001e-05 -0.018010000000000078 -8.7744849999999984e-05 -0.026643299999999998 -6.4351849999999997 0.23546500000000006 11.695650000000002 0.0067067750000000008 -0.00011261149999999999 8.4675100000000012e-07 -5.0036299999999994e-06 -0.040859549999999939 -1.3674949999999997 -8.1170399999999976
decision_type=2 2 2 2 2 2 2 2 2 2 2 2 2 2 2 2 2 2 2 2 2 2 2 2 2 2 2 2 2 2
left_child=1 2 3 8 5 6 -5 -8 9 10 -1 12 -11 16 20 -16 19 -18 -19 -13 24 -22 -10 -24 -15 26 27 -26 29 -27
right_child=-2 -3 -4 4 -6 -7 7 -9 22 11 -12 13 -14 14 15 -17 17 18 -20 -21 21 -23 23 -25 25 28 -28 -29 -30 -31
leaf_value=-0.00023208212151075715 2.4060571011995371e-06 0.001175298626131499 1.6883655785798373e-05 -0.0046414115079915072 -0.0030475681858314649 1.7699931993389108e-05 0.0012736991989304837 -0.0012871150815044531 -5.3227471593723108e-05 -0.0045802250101405666 0.0060573386459145699 -0.0015856941359379561 -3.2324365890547472e-05 -0.001311406242948087 0.0031043191004414441 -6.2633969808100818e-05 0.0042126761673682176 0.003093850387917233 0.00030986853134356142 0.00052375244736005226 -0.0036628936693887228 -2.296068082703677e-05 -0.00016855328195106267 -0.0037589424895850248 -4.6040747147344522e-05 0.0039037278527454568 -4.93011309140112e-05 -0.0042801119352502397 1.6396141207562906e-05 0.00060261164855341309
leaf_weight=20 188240 27 14601 20 21 165 23 27 13154 20 20 20 56 37 32 45 21 21 68 101 21 51 80 20 20 24 330 21 265 62
leaf_count=20 188240 27 14601 20 21 165 23 27 13154 20 20 20 56 37 32 45 21 21 68 101 21 51 80 20 20 24 330 21 265 62
internal_value=0 -1.5409e-05 -1.65038e-05 -4.95203e-05 -0.000622514 -0.000405808 -0.00140408 -0.000109141 -3.94103e-05 0.000172919 0.00291263 8.27229e-05 -0.00122914 0.000170257 -1.94965e-06 0.0012535 0.000847157 0.00158644 0.000966763 0.000175084 -0.000118279 -0.00108461 -5.95154e-05 -0.000886631 -2.66116e-05 3.92297e-05 -0.000288605 -0.00221471 0.000385745 0.00152385
internal_weight=0 29393 29366 14765 256 235 70 50 14509 1255 40 1215 76 1139 908 77 231 110 89 121 831 72 13254 100 759 722 371 41 351 86
internal_count=217633 29393 29366 14765 256 235 70 50 14509 1255 40 1215 76 1139 908 77 231 110 89 121 831 72 13254 100 759 722 371 41 351 86
shrinkage=0.05


Tree=383
num_leaves=31
num_cat=0
split_feature=40 20 17 32 11 5 36 28 33 11 36 36 39 21 11 36 25 27 6 13 21 15 17 32 1 15 15 36 28 20
split_gain=0.00318076 0.0179982 0.102576 0.0703085 0.0382724 0.032671 0.0307959 0.0278526 0.0456753 0.01965 0.0339854 0.0853512 0.121696 0.04029 0.0258865 0.0229226 0.0204974 0.0116144 0.0256254 0.0250942 0.0111869 0.0759235 0.0189446 0.0161316 0.0631113 0.0394975 0.016534 0.0159255 0.0134838 0.045799
threshold=-3.6478300000000004 -18.396099999999997 -6.0084349999999995 0.14537000000000003 0.0027461200000000003 7.5984950000000007e-06 0.46240350000000002 -2.1163149999999997 -3.2260049999999996e-06 0.019024750000000003 0.056773999999999998 -0.10081500000000009 1.1890849999999997 -0.22123499999999999 0.026901650000000003 0.30085850000000008 -0.010972499999999998 0.35534200000000005 2.9326700000000003e-06 2.7687200000000004e-06 -2.2419299999999995 -0.00036585349999999998 -6.719924999999999 -2.2564299999999995 -4.9833999999999987 0.00046136400000000008 -0.0010045799999999999 0.51872500000000021 5.9680600000000004 -16.772999999999996
decision_type=2 2 2 2 2 2 2 2 2 2 2 2 2 2 2 2 2 2 2 2 2 2 2 2 2 2 2 2 2 2
left_child=-1 2 -2 4 6 -6 -4 -7 -9 10 11 16 13 -13 -11 -12 -10 20 19 -19 21 -3 -23 24 -22 26 -26 -24 -25 -30
right_child=1 17 3 -5 5 7 -8 8 9 14 15 12 -14 -15 -16 -17 -18 18 -20 -21 23 22 27 28 25 -27 -28 -29 29 -31
leaf_value=9.4807838627636731e-06 0.0031003637175837703 0.0029825870894759042 -0.002831098190508783 -0.0026948229004178318 0.0014057068090096436 -0.0018681905604898928 -0.00023383437600430279 0.0018833310719436178 -0.0018263114461162678 -0.0023772883764468134 -0.0021802113999729047 -0.00093198927259072672 0.0050996988324914132 0.001967724966917835 -0.00047128540037440876 -0.0003539993048330185 -9.6810027313157693e-05 -0.00027386314068753091 0.0010538624323089608 -0.0018885424355643669 -0.0030032245016627713 0.00091738413949497052 -0.0018681310274405406 -3.6109777589934712e-06 -0.0016741489145003828 0.0019441101996926593 -2.6202202995288345e-05 -9.9450623716360764e-05 0.0023204209656493432 0.00011633429222607591
leaf_weight=62899 22 24 25 31 32 25 21 26 21 20 20 25 20 23 163 122 93 77 23 35 22 25 20 152360 23 20 45 35 24 1312
leaf_count=62899 22 24 25 31 32 25 21 26 21 20 20 25 20 23 163 122 93 77 23 35 22 25 20 152360 23 20 45 35 24 1312
internal_value=0 -3.85392e-06 -0.000258834 -0.000369632 -0.000256297 -0.000147995 -0.00164539 -0.000237096 -0.000160591 -0.000265407 -3.14694e-05 0.000420857 0.00182282 0.000457457 -0.000679592 -0.000611212 -0.000415402 -2.71346e-06 -0.000466279 -0.00077845 -2.30685e-06 0.000516089 -0.00022386 -2.65738e-06 -0.000607939 -9.11727e-06 -0.000583596 -0.000742607 -2.22418e-06 0.000155929
internal_weight=0 154734 689 667 636 590 46 558 533 507 324 182 68 48 183 142 114 154045 135 112 153910 104 80 153806 110 88 68 55 153696 1336
internal_count=217633 154734 689 667 636 590 46 558 533 507 324 182 68 48 183 142 114 154045 135 112 153910 104 80 153806 110 88 68 55 153696 1336
shrinkage=0.05


Tree=384
num_leaves=31
num_cat=0
split_feature=18 1 31 36 36 4 14 12 39 14 0 16 14 1 32 1 16 20 35 5 7 16 36 2 19 21 1 9 21 17
split_gain=0.00323277 0.0275807 0.0790205 0.231368 0.434512 0.0971196 0.0536713 0.0734079 0.034463 0.0231463 0.0171697 0.01679 0.0167018 0.0422797 0.0866737 0.0298048 0.0839596 0.0322453 0.0359849 0.0248514 0.0189502 0.0730467 0.0287916 0.0431287 0.0266682 0.0178975 0.0640697 0.0397049 0.0160004 0.0145769
threshold=13.390900000000002 10.154350000000003 0.0080513700000000021 0.2761725000000001 -0.3819765 0.43776750000000003 1.6498650000000003e-07 -1.1433699999999999e-07 0.35261000000000037 7.4882450000000013e-08 0.26643300000000009 9.7599650000000017e-05 7.4882450000000013e-08 8.7485050000000015 -0.00019584199999999997 8.267730000000002 2.1832200000000004e-05 -7.9797249999999993 0.0035259200000000005 7.9290400000000026e-06 5.6286850000000008e-05 0.00013149400000000004 0.10022550000000004 1.4821150000000003 -0.64669949999999987 1.1195950000000001 4.8656050000000013 0.00012707000000000004 -0.13729099999999997 7.745845000000001
decision_type=2 2 2 2 2 2 2 2 2 2 2 2 2 2 2 2 2 2 2 2 2 2 2 2 2 2 2 2 2 2
left_child=-1 12 5 4 -4 6 7 -3 10 -10 -9 -5 13 19 -15 25 -17 -18 -19 -2 22 -22 23 24 -21 29 27 -27 -8 -14
right_child=1 2 3 11 -6 -7 28 8 9 -11 -12 -13 15 14 -16 16 17 18 -20 20 21 -23 -24 -25 -26 26 -28 -29 -30 -31
leaf_value=-7.4995904564130294e-07 0.0013489843313928343 0.0031754315444871926 -0.00072217084933072332 0.00032198960641138954 0.0095754763865399939 -0.0033759454787650614 -0.0020484418383239244 0.00043666580999202916 0.00017331066737050549 -0.0018233632552783958 0.0023345691580537033 -0.0013785655711433806 -2.7756796171750649e-05 0.0036277792913586801 -0.00011871545872341622 -0.0029982123539825396 -0.0011800472612819813 -0.0002064569953755952 0.0023606928749359216 0.0013487673175798076 0.0033584551862441006 -0.00032731523139618065 -0.00059894101101297045 0.0022910166940825795 -3.0696043804089803e-05 -0.00034090323874408032 0.0026893703443757085 0.0020744296372868123 -0.00038432051165168213 -0.00048721961574843553
leaf_weight=214386 37 27 20 47 21 20 20 26 47 21 22 21 1347 26 38 33 42 43 20 37 20 41 178 22 660 114 27 20 52 198
leaf_count=214386 37 27 20 47 21 20 20 26 47 21 22 21 1347 26 38 33 42 43 20 37 20 41 178 22 660 114 27 20 52 198
internal_value=0 4.95167e-05 0.000472844 0.00158555 0.00455223 -4.32636e-05 0.000266753 0.000827311 0.000280766 -0.000443309 0.00130654 -0.000203182 -6.46748e-07 0.00015761 0.0014033 -9.15326e-05 -0.00079831 -0.000106912 0.000608511 7.74849e-05 2.83769e-05 0.000881134 -2.96144e-05 0.000111332 4.25323e-05 -3.43606e-05 0.000467321 1.95942e-05 -0.000846576 -8.66394e-05
internal_weight=0 3247 344 109 41 235 215 143 116 68 48 68 2903 1059 64 1844 138 105 63 995 958 61 897 719 697 1706 161 134 72 1545
internal_count=217633 3247 344 109 41 235 215 143 116 68 48 68 2903 1059 64 1844 138 105 63 995 958 61 897 719 697 1706 161 134 72 1545
shrinkage=0.05


Tree=385
num_leaves=31
num_cat=0
split_feature=37 37 2 39 17 3 9 37 33 4 21 21 4 30 20 20 1 23 4 8 23 26 19 21 20 23 30 33 33 30
split_gain=0.00322855 0.0270249 0.0664793 0.177879 0.0831616 0.0607015 0.1067 0.0595866 0.159233 0.208306 0.266539 0.15244 0.411252 0.995103 0.147814 0.105905 0.104431 0.180357 0.141571 0.101014 0.0888938 0.067416 0.066865 0.106082 0.147209 0.0633735 0.0628873 0.104083 0.062519 0.0746806
threshold=-0.33012499999999995 -0.016969000000000036 3.0333000000000006 -0.086730000000000182 -7.8361449999999992 -19.074649999999995 -1.5376899999999998e-06 0.011134999999999897 -4.2848749999999994e-06 -0.26743249999999991 0.30416600000000005 -0.18228499999999997 0.08589150000000001 0.062021250000000007 -7.4524899999999992 -17.728849999999998 10.829750000000002 8.1704800000000004e-05 -0.086314049999999989 6.4420400000000024e-05 0.00012263650000000003 -0.027444349999999996 -2.9378149999999996 -0.20795049999999998 -8.421034999999998 0.00033276500000000006 1.8663100000000001 5.3354450000000012e-07 -2.0787049999999996e-06 0.34287850000000003
decision_type=2 2 2 2 2 2 2 2 2 2 2 2 2 2 2 2 2 2 2 2 2 2 2 2 2 2 2 2 2 2
left_child=-1 5 7 -4 -5 6 -2 8 -3 10 15 12 14 -14 19 -10 28 18 -18 25 -16 -15 23 -9 -25 -11 27 -17 -13 -30
right_child=1 2 3 4 -6 -7 -8 22 9 11 -12 16 13 21 20 26 17 -19 -20 -21 -22 -23 -24 24 -26 -27 -28 -29 29 -31
leaf_value=6.9976595640629974e-06 0.0044746384750760631 0.0034976824741331965 -0.0055049594004231046 0.0010773709315950934 -0.0022449637295663236 -8.3109834569297276e-05 -0.00047027188217422622 0.0018603549796601081 -0.0039757584221661096 0.00018050740214148255 -0.0051810895438503595 -0.0021260624326279631 -0.013052452413692317 -0.0032615241785110397 0.00048484301216376478 -0.00048571843450190505 -0.0041624071569822266 -0.0052244072669418535 0.00031251248659062091 -0.0037203258160297993 0.0038395681639369103 -3.9833819155612749e-05 -2.5112449239355977e-06 -0.00057158170344211677 -0.0049345700804882715 -0.0025039127946304991 -0.0029963697064279891 0.0021008949286293833 0.00044573802119492808 0.0018415437351454831
leaf_weight=93794 20 36 20 48 31 12039 24 22 21 262 33 23 21 22 40 335 20 20 152 20 39 62 107262 58 29 24 21 44 2992 99
leaf_count=93794 20 36 20 48 31 12039 24 22 21 262 33 23 21 22 40 335 20 20 152 20 39 62 107262 58 29 24 21 44 2992 99
internal_value=0 -5.29993e-06 2.38032e-06 -0.00129272 -0.00022633 -7.63348e-05 0.00177741 3.52861e-06 0.000186347 0.000158298 -0.000853892 0.000279355 -0.000543664 -0.00331738 0.000212804 -0.000514705 0.000401339 -0.000730387 -0.000207827 -0.000284992 0.00214097 -0.00088361 -3.76906e-06 -0.00124153 -0.00202591 -4.47586e-05 -0.000333 -0.000185426 0.000471118 0.000490444
internal_weight=0 123839 111756 99 79 12083 44 111657 4286 4250 454 3796 490 105 385 421 3306 192 172 306 79 84 107371 109 87 286 400 379 3114 3091
internal_count=217633 123839 111756 99 79 12083 44 111657 4286 4250 454 3796 490 105 385 421 3306 192 172 306 79 84 107371 109 87 286 400 379 3114 3091
shrinkage=0.05


Tree=386
num_leaves=31
num_cat=0
split_feature=14 32 3 31 14 5 34 11 14 30 3 18 29 6 16 5 39 39 36 36 12 16 30 31 14 3 11 11 26 0
split_gain=0.00323066 0.0320026 0.0953826 0.0402547 0.079253 0.0265874 0.015019 0.0125756 0.00923857 0.0460194 0.0619084 0.0375151 0.0237756 0.0380184 0.0437418 0.0726077 0.153114 0.0552118 0.0837588 0.278134 0.0339124 0.0390706 0.030994 0.0208546 0.0202607 0.0256415 0.0178261 0.0365969 0.0144893 0.0576843
threshold=2.5901300000000006e-05 -2.2564299999999995 -15.624449999999998 5.1900100000000009 6.1187250000000013e-05 1.5508550000000002e-05 5.8699600000000016 0.013786650000000003 1.5863700000000005e-05 4.1501900000000012 -15.732949999999999 -15.424049999999998 1.1132650000000001e-05 -2.1612149999999997e-07 0.0039594400000000007 2.1459700000000004e-05 -0.27803499999999998 0.64319500000000052 0.24966499999999994 -0.14969009999999991 7.2144500000000009e-06 0.0095771650000000003 2.3658200000000007 -0.030074999999999994 2.2171350000000002e-05 -10.726899999999999 0.00074079700000000018 0.0010587900000000002 -0.15264749999999996 3.5805150000000006
decision_type=2 2 2 2 2 2 2 2 2 2 2 2 2 2 2 2 2 2 2 2 2 2 2 2 2 2 2 2 2 2
left_child=8 2 -2 5 -5 -4 -3 -8 -1 11 -11 -10 28 22 -15 17 -17 20 19 -19 23 -22 -14 -16 -12 -26 -25 -28 29 -13
right_child=1 6 3 4 -6 -7 7 -9 9 10 24 12 13 14 15 16 -18 18 -20 -21 21 -23 -24 26 25 -27 27 -29 -30 -31
leaf_value=-4.5628487969268128e-07 0.0033218009357244291 1.3074354087960647e-05 -0.0020522614708486644 0.0035106860776154681 -0.00065586972940946003 4.5495185688857673e-05 -0.0017523065810867895 -0.00027050094952250626 0.002074648312589575 -0.0027475164355674872 -9.5989353138901536e-05 -0.00021698363609872065 5.2233309015167051e-05 -3.1800814231614736e-05 0.0014671799444321162 -0.0050285204080331644 -0.0003488742563854947 -0.00016171298178194681 -6.0642747332243141e-05 -0.0073317596550623422 6.358181186078582e-05 -0.0028255189239809464 0.0019425664820870306 -0.0012386555085104193 -0.002229002496751491 -0.00024974706777559024 0.0021971249807393178 -9.1453955642266567e-05 -7.2061608517403397e-07 0.0029890820697619346
leaf_weight=180411 29 30981 23 21 25 44 21 45 21 33 148 47 379 372 28 29 44 38 60 21 25 22 23 25 30 36 20 138 4474 20
leaf_count=180411 29 30981 23 21 25 44 21 45 21 33 148 47 379 372 28 29 44 38 60 21 25 22 23 25 30 36 20 138 4474 20
internal_value=0 1.48945e-05 0.0007638 0.000107322 0.00124625 -0.00067463 1.14692e-05 -0.000741985 -2.49161e-06 -6.33559e-05 -0.000731722 -3.48239e-05 -4.2508e-05 -0.000238087 -0.00043296 -0.000764586 -0.00220791 -0.000485109 -0.00137606 -0.00271376 -7.41681e-05 -0.00128876 0.000160387 0.000196382 -0.000420876 -0.00114941 1.94244e-06 0.00019824 1.02091e-05 0.000740051
internal_weight=0 31189 142 113 46 67 31047 66 186444 6033 247 5786 5765 1224 822 450 73 377 119 59 258 47 402 211 214 66 183 158 4541 67
internal_count=217633 31189 142 113 46 67 31047 66 186444 6033 247 5786 5765 1224 822 450 73 377 119 59 258 47 402 211 214 66 183 158 4541 67
shrinkage=0.05


Tree=387
num_leaves=31
num_cat=0
split_feature=20 32 3 8 13 3 3 2 36 40 13 11 34 32 3 18 30 6 18 9 36 36 34 36 35 39 3 8 26 35
split_gain=0.00311343 0.0162415 0.103874 0.0247816 0.0119033 0.0225527 0.068763 0.145607 0.391826 0.0227452 0.0228689 0.0787944 0.0472336 0.0225845 0.0525187 0.0197005 0.0189236 0.0911036 0.017627 0.027297 0.0138253 0.0169438 0.0208129 0.0137589 0.0137524 0.012419 0.0100193 0.0120851 0.0257167 0.00943685
threshold=-6.1276249999999992 -0.0013312399999999998 -6.0035249999999989 6.4420400000000024e-05 -1.7618249999999997e-07 -6.4713699999999994 -6.2531049999999988 0.59066500000000011 0.2761725000000001 -0.16918499999999967 8.0155350000000022e-06 0.00032556500000000004 -0.0011478749999999998 0.0090210700000000026 -5.8362949999999989 -11.494499999999999 2.1557050000000006 -1.1517499999999998e-06 -13.876599999999998 2.2434500000000001e-06 -0.079468000000000025 0.10022550000000004 -0.00012940199999999995 -0.63161949999999989 0.00067619600000000011 0.027469999999999221 -7.3483349999999996 1.8878250000000005e-05 0.0019893050000000007 0.044881000000000004
decision_type=2 2 2 2 2 2 2 2 2 2 2 2 2 2 2 2 2 2 2 2 2 2 2 2 2 2 2 2 2 2
left_child=-1 2 3 -2 26 16 7 15 -9 18 11 13 -12 14 20 -7 29 -18 19 -8 -11 22 -22 -17 25 -15 -3 28 -28 -6
right_child=1 4 -4 -5 5 6 9 8 -10 10 12 -13 -14 24 -16 23 17 -19 -20 -21 21 -23 -24 -25 -26 -27 27 -29 -30 -31
leaf_value=-1.0502298783491083e-06 -0.00011093638519875977 2.7612688688536286e-05 -0.002956521374438489 0.0018255163013600397 7.4206288831802041e-06 -0.0011826472399938529 -0.00024712809974351493 0.0084618308060684776 -0.00052737940064549477 -0.00018671449866177234 -0.0024139508686771265 0.0035292062507193932 0.00049028214780264532 -9.1121261135887596e-05 0.0028313546086137648 -1.2024649770051168e-05 0.0032520014364272355 -0.00048381122741897775 -8.6361441936308643e-05 0.0023051375694922173 0.0023022155555815476 -0.00017888725893776017 0.00065457278645661302 0.0016081748053329648 0.00020547606075044234 -0.0017947264525241737 -5.1009781822131123e-05 -0.00013989731669288954 -0.0023365502087540338 -0.00058105842211911556
leaf_weight=211122 95 1565 33 20 2543 23 22 22 27 67 21 21 42 23 25 38 25 47 700 20 23 46 115 20 89 20 32 697 20 70
leaf_count=211122 95 1565 33 20 2543 23 22 22 27 67 21 21 42 23 25 38 25 47 700 20 23 46 115 20 89 20 32 697 20 70
internal_value=0 3.40542e-05 -0.000483742 0.000225838 4.60978e-05 9.77966e-05 0.000263358 0.00135713 0.00350859 0.000148131 0.000411751 0.000542383 -0.000477796 0.00038865 0.000645913 5.56256e-05 1.36899e-05 0.000813346 -2.66672e-05 0.000968237 0.00042824 0.000652163 0.00092918 0.000546665 -0.000149265 -0.000883496 -4.43638e-05 -0.000194755 -0.000930064 -8.34421e-06
internal_weight=0 6511 148 115 6363 4049 1364 130 49 1234 492 429 63 408 276 81 2685 72 742 42 251 184 138 58 132 43 2314 749 52 2613
internal_count=217633 6511 148 115 6363 4049 1364 130 49 1234 492 429 63 408 276 81 2685 72 742 42 251 184 138 58 132 43 2314 749 52 2613
shrinkage=0.05


Tree=388
num_leaves=31
num_cat=0
split_feature=2 36 17 19 1 6 39 29 39 31 26 34 1 18 11 6 33 17 8 36 18 25 30 39 9 39 1 39 20 23
split_gain=0.00312452 0.0252605 0.21429 0.225292 0.209977 0.181032 0.211038 0.252601 0.168391 0.159466 0.143195 0.0809006 0.0731334 0.325597 0.420541 0.115168 0.0931758 0.068041 0.127071 0.126079 0.117312 0.230854 0.326075 0.388273 0.215528 0.19657 0.295838 0.152097 0.184623 0.159839
threshold=1.2880000000000003 -0.0054100000000001361 3.7530200000000007 1.3589400000000003 0.80539150000000015 8.2329800000000007e-07 1.6830350000000001 -1.4746649999999997e-06 -0.82558500000000012 -0.00034293899999999995 -0.005431039999999999 0.065375400000000014 2.2474600000000007 2.9920850000000008 0.0021460700000000004 2.7956050000000007e-06 1.0676000000000001e-07 0.46527500000000005 9.5296300000000015e-06 -0.14969009999999991 5.9486050000000015 0.021051200000000003 0.2810120000000001 -0.66712000000000005 -5.3658449999999993e-06 -0.32314999999999999 5.3828400000000007 1.06199 -7.4815899999999989 5.7794950000000001e-05
decision_type=2 2 2 2 2 2 2 2 2 2 2 2 2 2 2 2 2 2 2 2 2 2 2 2 2 2 2 2 2 2
left_child=-1 2 3 -2 8 6 7 -4 -5 -10 11 -6 13 15 -15 16 -12 19 -19 -14 21 -21 23 -23 25 -22 -27 28 -26 -30
right_child=1 -3 5 4 10 -7 -8 -9 9 -11 12 -13 17 14 -16 -17 -18 18 -20 20 24 22 -24 -25 27 26 -28 -29 29 -31
leaf_value=3.8583276969159413e-06 -0.0045898557557458326 4.2841749997559422e-06 0.0018386362818235188 0.00081453567236167146 -0.0010723488210180006 -0.00045751598459148606 -0.00051214012491982428 0.0079205421647319807 -0.008004026038397569 -0.0018993921870234139 -0.00015750214253695816 -0.0049635974925794557 -3.2504988215223993e-05 0.0093584826044009438 7.6914173643252489e-05 0.0028386973071409839 -0.0037735836813953942 0.0043174871851945117 0.00033042048473789452 -0.00045490073381985086 -0.00086116030142475378 -0.00083016669806333394 -0.001196369343425532 -0.0094043129698313296 -0.0061163184165100885 0.0054041967308148739 0.00058725257734827609 0.00022373994713458502 -0.0002528447441691838 -0.0054036437622562517
leaf_weight=153830 28 53774 38 20 34 58 29 31 20 23 163 22 7480 23 26 29 20 21 413 565 216 23 144 31 30 35 357 69 61 20
leaf_count=153830 28 53774 38 20 34 58 29 31 20 23 163 22 7480 23 26 29 20 21 413 565 216 23 144 31 30 35 357 69 61 20
internal_value=0 -9.30249e-06 -8.21521e-05 -0.000111204 -9.84667e-05 0.00175652 0.00306687 0.00457109 -0.00297581 -0.00473876 -7.99355e-05 -0.00260105 -6.54195e-05 0.00076024 0.00443357 -8.87844e-05 -0.000552702 -8.81873e-05 0.000523343 -0.000117575 -0.000527844 -0.000969756 -0.00243891 -0.00575236 -9.99524e-05 0.000349976 0.00101734 -0.00161971 -0.00276564 -0.00152465
internal_weight=0 63803 10029 9873 9845 156 98 69 63 43 9782 56 9726 261 49 212 183 9465 434 9031 1551 763 198 54 788 608 392 180 111 81
internal_count=217633 63803 10029 9873 9845 156 98 69 63 43 9782 56 9726 261 49 212 183 9465 434 9031 1551 763 198 54 788 608 392 180 111 81
shrinkage=0.05


Tree=389
num_leaves=31
num_cat=0
split_feature=9 21 5 17 6 17 16 26 0 12 15 0 26 7 20 9 26 3 32 3 22 23 17 9 13 16 2 40 39 27
split_gain=0.00313895 0.0148372 0.120062 0.0499998 0.0267336 0.023192 0.0459267 0.0248204 0.0845369 0.159852 0.182611 0.0579145 0.0126993 0.0608863 0.0331232 0.0437114 0.0174348 0.141056 0.0421005 0.0296479 0.0257261 0.0183771 0.00965452 0.0783644 0.186555 0.0396438 0.0350561 0.0263538 0.0567868 0.0250687
threshold=-0.000119502 -2.2419299999999995 1.7003450000000004e-05 -9.7539799999999968 6.3193550000000007e-07 -19.608449999999998 0.0028249700000000004 1.0482150000000001 -4.3615599999999999 -0.00011548149999999998 -0.00041911749999999995 -3.2929599999999994 0.70424300000000006 -5.0134299999999992e-05 -8.2950649999999992 -0.00022371799999999997 0.41922450000000006 -16.870699999999996 -0.96073299999999995 -13.799749999999998 21.272000000000002 0.0033062250000000007 -19.608449999999998 -3.9555399999999991e-05 2.886525000000001e-07 0.00077348800000000013 -2.6029249999999995 3.7911450000000002 -4.7135349999999994 0.064526950000000013
decision_type=2 2 2 2 2 2 2 2 2 2 2 2 2 2 2 2 2 2 2 2 2 2 2 2 2 2 2 2 2 2
left_child=1 2 -1 -4 -5 6 -3 12 9 -9 -11 -10 16 -14 15 -15 -7 -18 -19 20 -20 -21 23 24 25 -2 -25 -28 29 -29
right_child=22 5 3 4 -6 7 -8 8 11 10 -12 -13 13 14 -16 -17 17 18 19 21 -22 -23 -24 26 -26 -27 27 28 -30 -31
leaf_value=0.0029349724427447654 0.0010483961275895126 -0.0021452283601566045 -0.0017918963753916801 -0.00050843302352322187 0.0020173579273523499 1.1223999025530247e-05 6.7725868302659367e-05 -0.0012636508650353386 -0.0024798676063745428 0.00093893636211370396 0.0071944057918153703 0.00063549097802024341 -0.0026310933379975793 -0.00033268015529756671 -0.0013935901495405352 0.0026416024420454747 0.0043556421788664354 0.0021064382379832255 -0.0026660085904586595 -0.00019718320562759869 -0.00021405627004518783 0.001139335421466967 -3.0051694050975862e-06 -0.0017229135419193913 0.0044886626161100788 -0.0014126387313899615 -0.00010130998340563193 -0.000686057150661428 0.0028447826944757258 0.00096504787115338068
leaf_weight=37 36 37 39 22 20 27070 64 27 26 28 20 35 26 30 23 21 21 22 20 97 23 35 189140 29 34 30 504 45 25 47
leaf_count=37 36 37 39 22 20 27070 64 27 26 28 20 35 26 30 23 21 21 22 20 97 23 35 189140 29 34 30 504 45 25 47
internal_value=0 1.57099e-05 0.000575184 -0.000502745 0.000694325 1.33201e-05 -0.00074296 1.60953e-05 0.000689893 0.00181413 0.00354538 -0.000692367 1.27495e-05 -0.000549678 0.000181631 0.000892024 1.48105e-05 0.000460168 4.49144e-05 -0.000214249 -0.0013545 0.000157197 -2.29523e-06 0.000176743 0.00147978 -7.02561e-05 -2.37238e-05 5.56264e-05 0.00073166 0.000157442
internal_weight=0 27743 118 81 42 27625 101 27524 136 75 48 61 27388 100 74 51 27288 218 197 175 43 132 189890 750 100 66 650 621 117 92
internal_count=217633 27743 118 81 42 27625 101 27524 136 75 48 61 27388 100 74 51 27288 218 197 175 43 132 189890 750 100 66 650 621 117 92
shrinkage=0.05


Tree=390
num_leaves=31
num_cat=0
split_feature=40 30 2 36 3 35 13 39 8 3 26 15 21 22 5 15 37 36 36 31 13 15 5 15 20 30 0 8 29 16
split_gain=0.00314529 0.0127293 0.0244021 0.16601 0.0213933 0.122006 0.0409287 0.0872394 0.186091 0.0767612 0.0910575 0.0246859 0.0900616 0.108657 0.0893425 0.199838 0.197836 0.310182 0.462998 0.446549 0.341481 0.282717 0.299036 0.227871 0.247102 0.202782 0.156036 0.113694 0.0901633 0.0925576
threshold=-3.3334999999999999 0.20270750000000001 3.0578500000000006 5.4411200000000006 -5.5710999999999995 0.00047625050000000001 7.5631600000000019e-07 1.46871 5.1976050000000002e-05 -5.2965599999999986 -0.18041899999999997 -2.1298199999999995e-05 -0.62980599999999998 2.5401000000000002 1.1853100000000002e-05 -0.0017212399999999997 -0.71931549999999989 -0.71412249999999966 -0.17527649999999997 -0.14027249999999997 -1.3727349999999997e-06 -0.00032340099999999991 1.6804400000000005e-05 -0.00053704299999999996 -11.401999999999999 0.92011300000000007 -9.1205449999999981 1.5224150000000001e-05 -8.1044199999999979e-05 0.00086743600000000008
decision_type=2 2 2 2 2 2 2 2 2 2 2 2 2 2 2 2 2 2 2 2 2 2 2 2 2 2 2 2 2 2
left_child=-1 -2 4 -4 11 -6 -7 8 -8 -9 -11 12 13 -3 28 27 -17 26 19 -19 21 -20 -23 -22 -25 -24 -18 -16 29 -15
right_child=1 2 3 -5 5 6 7 9 -10 10 -12 -13 -14 14 15 16 17 18 20 -21 23 22 25 24 -26 -27 -28 -29 -30 -31
leaf_value=8.9934261195075131e-06 2.517382352582993e-06 0.0039596258073288483 -1.358202882323206e-05 0.0048398223868571224 0.0036994165428041017 -5.0009215566447303e-05 0.0062857244187034672 -0.0016833375954385184 9.9551421965682715e-05 0.002894611187932444 -0.00015805150919851786 -8.6875267967300148e-05 -8.1717182891223789e-05 -0.004974675773883064 0.003417163761111459 -7.0160084519647485e-05 0.0044057327757764143 0.011379910739308869 6.4914360189357328e-06 0.0029204576814663599 0.0035103498382822555 0.0016982491805472158 0.0043764339776403392 -0.0052258780783241881 0.00023164935621025506 0.01110427934757657 -0.00020276378343745216 -0.00022707019457871857 -0.00010361573202309777 -0.00048693251756048994
leaf_weight=67200 125166 20 148 20 24 896 20 42 31 36 76 15808 5932 20 22 302 20 26 37 39 34 33 21 28 80 24 225 788 488 27
leaf_count=67200 125166 20 148 20 24 896 20 42 31 36 76 15808 5932 20 22 302 20 26 37 39 34 33 21 28 80 24 225 788 488 27
internal_value=0 -4.01746e-06 -3.63893e-05 0.000564204 -4.04094e-05 0.000172686 9.58095e-05 0.000733144 0.0025255 0.000139571 0.000823162 -5.04091e-05 2.01833e-05 0.000290762 0.00025762 0.000436912 0.000963555 0.00151414 0.00253424 0.00630424 0.00158074 0.003606 0.00531346 -5.94419e-05 -0.00118327 0.00796462 0.00017344 -0.000128091 -0.000305056 -0.00239661
internal_weight=0 150433 25267 168 25099 1125 1101 205 51 154 112 23974 8166 2234 2214 1679 869 567 322 65 257 115 78 142 108 45 245 810 535 47
internal_count=217633 150433 25267 168 25099 1125 1101 205 51 154 112 23974 8166 2234 2214 1679 869 567 322 65 257 115 78 142 108 45 245 810 535 47
shrinkage=0.05


Tree=391
num_leaves=31
num_cat=0
split_feature=40 33 39 20 6 36 36 3 5 23 1 19 17 17 28 39 40 25 36 36 26 30 30 20 3 18 39 39 32 36
split_gain=0.00312745 0.0243256 0.0511143 0.0505475 0.103087 0.151241 0.501437 0.0696641 0.0600344 0.0569566 0.0884908 0.0498235 0.0462395 0.0842893 0.0363718 0.0314464 0.0266978 0.0362357 0.0335588 0.129748 0.0827173 0.146618 0.0925158 0.026327 0.0222225 0.112651 0.0544741 0.0232211 0.0995005 0.104346
threshold=0.81788000000000027 9.5974100000000018e-07 -2.0405449999999985 -12.729499999999998 -5.7203749999999994e-08 -0.27744100000000016 0.24966499999999994 -11.394249999999998 8.6368500000000018e-06 0.0058547700000000013 5.0179900000000011 -2.8256249999999992 0.36276400000000003 3.1622300000000005 -1.3507849999999997 -1.7757399999999997 0.87140500000000032 0.07628225000000001 0.327845 -0.19934349999999995 0.21193400000000004 0.35804150000000007 0.87201550000000017 -15.368899999999998 -18.627349999999996 4.6976250000000013 -0.465335 -0.27803499999999998 -0.17249249999999997 -0.30278099999999991
decision_type=2 2 2 2 2 2 2 2 2 2 2 2 2 2 2 2 2 2 2 2 2 2 2 2 2 2 2 2 2 2
left_child=24 -2 -3 4 14 -6 -7 8 -5 10 12 -9 15 -14 -4 -10 17 -13 19 -18 21 -21 -23 -16 25 26 -1 28 29 -26
right_child=1 2 3 7 5 6 -8 11 9 -11 -12 16 13 -15 23 -17 18 -19 -20 20 -22 22 -24 -25 27 -27 -28 -29 -30 -31
leaf_value=0.0022620565416714687 1.7494259538901542e-05 8.5249252792130957e-08 -0.0012314333096756379 0.0030739280672389129 -1.7312362223702411e-05 -0.009807991016317498 -0.00063011135949320467 -0.0021560963420154461 -0.0026353437727299968 0.0024998990655428948 0.0024982394768167365 0.0021414083344861866 0.0026250492253517416 -0.00058746938051679513 0.0021509863689425403 -0.000590912059335331 -0.0002833780462566858 -0.0004775419382245413 -5.1069272606892126e-05 -0.0047034177502306802 -0.0050326587410051034 0.0020935385244089189 -0.0023684726072436511 9.0705796205641138e-05 -0.00027792577251943839 0.0040021363967320039 -0.00050182132705386007 4.2816074946932164e-07 -0.00010279053155245414 0.0023087698065720279
leaf_weight=22 63976 4107 42 21 52 22 46 39 27 26 31 25 29 69 20 62 406 28 392 24 22 26 21 69 70 21 94 138630 9126 88
leaf_count=22 63976 4107 42 21 52 22 46 39 27 26 31 25 29 69 20 62 406 28 392 24 22 26 21 69 70 21 94 138630 9126 88
internal_value=0 8.74299e-06 -9.1127e-05 -0.000341033 -0.000988458 -0.00204718 -0.00359943 -0.000210822 0.000508662 0.000287881 2.40625e-05 -0.000404782 -0.000386095 0.000363174 -1.86395e-05 -0.00121113 -0.000332429 0.000757812 -0.000397281 -0.000669254 -0.00235383 -0.00152377 9.9874e-05 0.00055369 -4.10909e-06 0.000632401 2.23624e-05 -4.69863e-06 -8.12526e-05 0.00116277
internal_weight=0 69582 5606 1499 251 120 68 1248 265 244 218 983 187 98 131 89 944 53 891 499 93 71 47 89 148051 137 116 147914 9284 158
internal_count=217633 69582 5606 1499 251 120 68 1248 265 244 218 983 187 98 131 89 944 53 891 499 93 71 47 89 148051 137 116 147914 9284 158
shrinkage=0.05


Tree=392
num_leaves=31
num_cat=0
split_feature=4 34 15 39 37 37 27 36 36 39 39 15 0 31 4 7 39 39 9 39 39 8 3 17 34 11 7 29 34 37
split_gain=0.0030786 0.104857 0.122599 0.215253 0.322128 1.05191 0.502981 0.438417 0.491609 0.490914 0.351073 0.345119 0.403492 0.305219 0.28487 0.490428 0.27171 0.429805 0.427386 0.235352 0.234888 0.223556 0.208856 0.196063 0.347922 0.176814 0.158566 0.173201 0.130929 0.126901
threshold=0.10312400000000001 -0.00015868999999999999 6.4264150000000017e-05 1.9002500000000004 0.19792950000000006 -0.15132349999999997 0.024062950000000003 0.039429999999999972 -0.040859549999999939 -1.6462299999999999 -0.93682499999999969 2.4151150000000003e-05 5.4701800000000009 0.013629200000000003 0.17191050000000002 -7.9747199999999981e-06 0.47541999999999979 0.85052500000000031 3.3784900000000002e-05 -0.32314999999999999 1.1890849999999997 2.6489900000000002e-05 -11.101149999999999 -4.0797899999999991 -0.00057645649999999988 0.00036183850000000008 -2.1801549999999998e-05 -2.8033549999999995e-05 -0.0091349949999999982 -0.057539999999999918
decision_type=2 2 2 2 2 2 2 2 2 2 2 2 2 2 2 2 2 2 2 2 2 2 2 2 2 2 2 2 2 2
left_child=-1 2 3 4 5 -2 7 8 9 -7 -9 12 14 -14 15 -11 18 -18 22 23 -21 -13 -12 -10 26 -16 -25 -28 -27 -24
right_child=1 -3 -4 -5 -6 6 -8 10 19 11 16 21 13 -15 25 -17 17 -19 -20 20 -22 -23 29 24 -26 28 27 -29 -30 -31
leaf_value=-4.5732799260438764e-06 -1.0928469461474701e-05 -3.7440330146869113e-05 -1.0140897334020009e-05 -1.814096095355113e-05 -5.6902258363296183e-05 -0.0010670554206610593 -0.0060117613238451842 0.0003521531318315805 -0.00071511189861619073 -0.0048229779374947693 0.00080568052246235324 0.0037033951666671783 0.011687969811310088 0.0045904851834555824 0.0020201796890372257 0.0056191451609431007 -0.0026470602981539236 0.0061944485404248038 0.01277029686549213 0.00056264071351391418 0.0060267543327063326 -0.0026731288552077279 0.0081069912075212129 0.0061941700081502944 0.0094489762093871842 0.0095820262465470783 -0.0025837976299226285 0.0025263916559759817 0.0048143577658467827 0.0039643657204578636
leaf_weight=136755 2725 49631 17179 6633 2742 57 22 61 38 23 25 28 33 28 30 22 27 28 20 1185 20 27 38 23 20 24 20 97 36 36
leaf_count=136755 2725 49631 17179 6633 2742 57 22 61 38 23 25 28 33 28 30 22 27 28 20 1185 20 27 38 23 20 24 20 97 36 36
internal_value=0 7.73287e-06 7.94835e-05 0.000188927 0.00037366 0.000625226 0.00150608 0.00159107 0.00131294 0.00312181 0.00361611 0.00407307 0.00505521 0.00843011 0.00353025 0.00028206 0.00476037 0.00185407 0.00610362 0.000915837 0.000653331 0.000573102 0.00475682 0.00251341 0.00328018 0.00515434 0.00239893 0.00165286 0.00672143 0.00609166
internal_weight=0 80878 31247 14068 7435 4693 1968 1946 1711 308 235 251 196 61 135 45 174 55 119 1403 1205 55 99 198 160 90 140 117 60 74
internal_count=217633 80878 31247 14068 7435 4693 1968 1946 1711 308 235 251 196 61 135 45 174 55 119 1403 1205 55 99 198 160 90 140 117 60 74
shrinkage=0.05


Tree=393
num_leaves=31
num_cat=0
split_feature=36 36 17 25 32 5 28 17 3 15 1 0 39 22 39 5 30 1 27 9 36 11 17 0 37 25 3 17 8 40
split_gain=0.00353845 0.0365736 0.066522 0.23733 0.0942766 0.0716771 0.0672076 0.179676 0.273728 0.184344 0.177083 0.165674 0.153369 0.210387 0.116526 0.179116 0.197926 0.197627 0.125408 0.205855 0.12836 0.172596 0.0947988 0.110025 0.104694 0.0910185 0.219646 0.146408 0.313827 0.176538
threshold=-0.40968649999999995 -0.018010000000000078 16.002400000000005 0.69707500000000011 0.0070919350000000006 1.8306700000000002e-05 -1.0750649999999997 3.8241100000000006 -12.046299999999997 7.6262450000000016e-07 5.2820750000000007 7.1107950000000004 0.27381999999999979 23.183300000000006 2.1254700000000009 3.4653000000000009e-05 1.8663100000000001 3.3893400000000002 0.011952750000000002 -4.4153649999999994e-05 -0.22452634999999985 0.0036550950000000006 -16.050999999999998 -8.7098249999999968 0.22260499999999997 -0.071195649999999985 -17.304849999999998 -4.8420449999999997 1.5224150000000001e-05 -0.68809499999999957
decision_type=2 2 2 2 2 2 2 2 2 2 2 2 2 2 2 2 2 2 2 2 2 2 2 2 2 2 2 2 2 2
left_child=-1 2 6 4 -4 -6 7 14 9 -9 11 -10 13 -12 15 16 18 -18 19 -2 -21 -22 23 -8 -25 26 -24 28 -28 -29
right_child=1 -3 3 -5 5 -7 22 8 10 -11 12 -13 -14 -15 -16 -17 17 -19 -20 20 21 -23 25 24 -26 -27 27 29 -30 -31
leaf_value=7.4487248851682113e-06 0.0019076767082039554 4.305096238291208e-06 0.0020511368622205088 0.0059255846909114299 -0.0027421848530965777 0.00094227016300217007 0.004865806424058974 0.0065172922040801495 -0.0054430368789606014 0.00052319808417688248 0.0066945272143295216 -0.00026328219805451993 -0.00047533712892694089 -0.00014474840020778609 -0.00031319521206679658 0.0023867851314134897 -0.0083501090714707977 -0.0027053110643991854 0.00068581196102854855 -0.00062635379581479358 -0.0067048750264802953 -0.0014165024674083625 0.0031681138781818729 -0.0012428420373266015 0.0029719889849030342 -3.401121400840551e-05 0.0059618632005446637 -0.00037712129925930333 -0.00016615930681406388 -0.0019138888313754692
leaf_weight=92022 26 111070 35 21 33 22 20 29 26 23 22 38 77 23 338 25 20 69 64 34 36 27 39 34 26 12405 23 466 228 312
leaf_count=92022 26 111070 35 21 33 22 20 29 26 23 22 38 77 23 338 25 20 69 64 34 36 27 39 34 26 12405 23 466 228 312
internal_value=0 -5.4569e-06 -8.00229e-05 0.00113932 2.25293e-05 -0.0012684 -8.94025e-05 -0.000513596 0.000659079 0.00386606 -0.000237496 -0.00236756 0.000879913 0.0031989 -0.000950367 -0.00166586 -0.00203295 -0.0039738 -0.00110923 -0.00204323 -0.00310224 -0.00443843 -6.19534e-05 0.00165414 0.000583585 -7.21432e-05 -0.000515053 -0.000654649 0.000395373 -0.000993409
internal_weight=0 125611 14541 111 90 55 14430 877 238 52 186 64 122 45 639 301 276 89 187 123 97 63 13553 80 60 13473 1068 1029 251 778
internal_count=217633 125611 14541 111 90 55 14430 877 238 52 186 64 122 45 639 301 276 89 187 123 97 63 13553 80 60 13473 1068 1029 251 778
shrinkage=0.05


Tree=394
num_leaves=31
num_cat=0
split_feature=14 21 14 11 20 10 38 3 32 28 3 20 21 37 10 39 6 34 7 23 28 37 29 10 18 30 17 5 19 1
split_gain=0.00338966 0.0289548 0.0938883 0.189089 0.0758061 0.0742266 0.0759054 0.0466211 0.018644 0.0225905 0.115438 0.0218729 0.0295638 0.0270248 0.0215467 0.0204954 0.013407 0.0116278 0.01642 0.0354862 0.0120338 0.042796 0.0106963 0.0105266 0.045932 0.0841094 0.0573246 0.046499 0.0448552 0.0928302
threshold=2.5901300000000006e-05 1.5291850000000002 8.9200350000000011e-05 0.022777000000000002 -21.129099999999998 -1.7544299999999997e-05 0.97758200000000006 -15.284849999999999 1.20103 5.9680600000000004 -15.867949999999999 -15.138399999999999 1.1195950000000001 0.48750300000000008 -5.8484999999999993e-05 -7.1836700000000002 1.8853450000000003e-07 -0.012723849999999998 0.00020299950000000002 -0.0019040299999999999 3.1099700000000006 -0.17681499999999981 0.0031288150000000005 2.4792000000000003e-05 0.35508750000000006 2.3658200000000007 1.6364150000000002 1.2356950000000002e-05 2.1326650000000007 2.0321700000000003
decision_type=2 2 2 2 2 2 2 2 2 2 2 2 2 2 2 2 2 2 2 2 2 2 2 2 2 2 2 2 2 2
left_child=-1 8 3 5 -4 6 -3 -6 9 17 -11 -10 15 -14 -12 -13 -7 18 20 -20 23 -22 -19 24 25 27 -27 -2 -26 -30
right_child=1 2 4 -5 7 16 -8 -9 11 10 14 12 13 -15 -16 -17 -18 22 19 -21 21 -23 -24 -25 28 26 -28 -29 29 -31
leaf_value=-2.5521865122037361e-06 0.002173243449120761 0.0041792571234691425 0.002492344939465901 0.00493737023489009 -0.0027875469090244938 -0.0017457485860480422 -0.00017692759742203636 -0.0003082926783564391 -0.0015193435151702847 0.0040552382069152029 0.0016577530434733489 0.0015569383533494104 -0.0024984780907592115 -0.0001925342270709507 -9.2911761836650601e-05 -0.00011085038629729146 -9.1283443151041863e-05 1.9511728277920351e-05 0.0024433165361665492 -1.6110179428572088e-05 -5.2322897791559376e-05 -0.0020476386614771201 0.0010341289837155134 -0.00014488275222932938 -3.5485161450562361e-05 0.00075638082867953934 0.004542032912941067 -8.3958921688997996e-06 -0.00022302679501427477 -0.0043617926115985034
leaf_weight=186444 27 20 21 31 23 24 20 108 38 21 20 21 24 27 145 150 25 27812 20 55 106 36 26 1811 220 20 20 256 42 20
leaf_count=186444 27 20 21 31 23 24 20 108 38 21 20 21 24 27 145 150 25 27812 20 55 106 36 26 1811 220 20 20 256 42 20
internal_value=0 1.52567e-05 0.000528879 0.00157438 -0.000296513 0.000402995 0.00200116 -0.000743582 1.07379e-05 1.43137e-05 0.000563671 -0.00041088 -0.000221143 -0.00127768 0.00011929 9.39658e-05 -0.000901634 1.09603e-05 -8.94709e-05 0.000639737 -0.000110851 -0.000558178 2.04594e-05 -8.45596e-05 9.60112e-05 0.000503085 0.00264921 0.000199746 -0.000370247 -0.00155811
internal_weight=0 31189 272 120 152 89 40 131 30917 30657 186 260 222 51 165 171 49 30471 2633 75 2558 142 27838 2416 605 323 40 283 282 62
internal_count=217633 31189 272 120 152 89 40 131 30917 30657 186 260 222 51 165 171 49 30471 2633 75 2558 142 27838 2416 605 323 40 283 282 62
shrinkage=0.05


Tree=395
num_leaves=31
num_cat=0
split_feature=36 36 5 2 36 26 12 3 33 23 5 24 25 31 39 39 28 18 29 40 16 17 10 36 5 18 2 39 7 18
split_gain=0.00324499 0.0438705 0.0738977 0.122152 0.118676 0.171219 0.153416 0.191496 0.288188 0.146258 0.124511 0.141726 0.115387 0.106674 0.103781 0.144512 0.0930572 0.171741 0.333087 0.172066 0.299248 0.362779 0.51084 0.314086 0.402862 0.292951 0.205964 0.324918 0.137489 0.328648
threshold=-0.30278099999999991 -0.018010000000000078 9.0806150000000018e-06 2.9632050000000003 -0.12496499999999998 0.075079500000000007 -4.7338599999999997e-07 -14.176449999999997 7.3111000000000014e-09 0.00052757850000000018 7.8319400000000015e-06 0.18787850000000003 0.016788100000000004 0.0021782100000000003 1.1890849999999997 0.10586500000000011 0.31163200000000008 2.0101650000000002 -1.9094999999999996e-05 -0.68809499999999957 6.3553350000000007e-07 0.53247600000000006 -1.104705e-05 -0.14969009999999991 1.3813450000000001e-05 -2.0281699999999994 -1.1333049999999998 -1.1067849999999997 -1.7427699999999996e-05 -3.7984549999999992
decision_type=2 2 2 2 2 2 2 2 2 2 2 2 2 2 2 2 2 2 2 2 2 2 2 2 2 2 2 2 2 2
left_child=-1 2 3 4 -2 6 12 8 -8 10 11 -9 -6 -13 15 -12 -4 19 -19 -18 23 22 -22 -21 -25 26 27 -23 -24 -30
right_child=1 -3 16 -5 5 -7 7 9 -10 -11 14 13 -14 -15 -16 -17 17 18 -20 20 21 25 28 24 -26 -27 -28 -29 29 -31
leaf_value=6.9086383367936364e-06 -0.00017158477372643569 4.0871984082619176e-06 -7.8974050536352629e-05 -0.0028255770689186951 -0.00016869736794319578 0.0046773420138975031 0.00082814440845443949 -0.0047670863302690563 0.0070350081618926197 0.004726735014119186 0.00073278420680413978 0.00096926800244641765 -0.0044147752238495744 -0.0032748977853043469 -0.00086258689079841142 0.0044419183855337148 -0.00018943377105626585 0.0061162239855288396 -0.00036341303091509924 -0.00090570570296572093 0.0074651574643212378 -0.0010448152588348118 -0.0013387940436541989 -0.011381986777996645 -0.0027617121400632613 -0.0079393318277739353 -0.00013698649521150705 -0.0076780100347968979 -0.00058433830387965668 0.0061199498260393745
leaf_weight=95435 451 111070 8733 30 80 29 45 21 32 20 85 57 20 20 48 38 782 28 68 52 24 48 121 23 33 21 96 30 68 25
leaf_count=95435 451 111070 8733 30 80 29 45 21 32 20 85 57 20 20 48 38 782 28 68 52 24 48 121 23 33 21 96 30 68 25
internal_value=0 -5.39555e-06 -0.000100044 0.00031551 0.000415122 0.000949677 0.000717698 0.00119191 0.00340762 0.000601563 0.000294858 -0.00112611 -0.00101791 -0.000133113 0.00110921 0.0018787 -0.000139995 -0.000515538 0.00152648 -0.000663712 -0.00134927 -0.000761974 0.00054804 -0.00370388 -0.00630218 -0.00236086 -0.0016876 -0.00359604 -0.000227712 0.00121789
internal_weight=0 122198 11128 976 946 495 466 366 77 289 269 98 100 77 171 123 10152 1419 96 1323 541 433 238 108 56 195 174 78 214 93
internal_count=217633 122198 11128 976 946 495 466 366 77 289 269 98 100 77 171 123 10152 1419 96 1323 541 433 238 108 56 195 174 78 214 93
shrinkage=0.05


Tree=396
num_leaves=31
num_cat=0
split_feature=40 20 17 8 18 36 18 5 21 32 3 5 33 20 17 9 16 29 17 0 1 18 9 29 29 10 26 29 10 36
split_gain=0.00318086 0.0118627 0.100841 0.0752791 0.0756847 0.0621108 0.0315942 0.0337762 0.0630303 0.0359722 0.0736746 0.0359457 0.0223044 0.0112184 0.229629 0.260062 0.108777 0.174894 0.0638567 0.184092 0.0550499 0.25171 0.136253 0.0544255 0.0485629 0.0894227 0.0671074 0.0459161 0.0394184 0.0567885
threshold=-3.3334999999999999 -18.396099999999997 -6.0084349999999995 6.1899350000000009e-05 5.2037050000000002 0.24966499999999994 -5.7481999999999989 1.3371950000000002e-05 0.49038950000000003 0.0015972550000000001 -17.729749999999996 1.2356950000000002e-05 8.5918100000000008e-07 -16.164099999999994 -6.9945499999999994 -2.3352799999999993e-06 3.0639350000000006e-08 -5.1110149999999994e-05 6.1764750000000008 3.7602350000000002 -4.4631249999999989 -4.4014699999999989 3.4880500000000006e-05 -2.0917349999999997e-05 8.2405400000000009e-05 -4.2631049999999996e-05 0.13068350000000004 -0.00016239399999999998 -3.3894799999999993e-05 0.12375499999999996
decision_type=2 2 2 2 2 2 2 2 2 2 2 2 2 2 2 2 2 2 2 2 2 2 2 2 2 2 2 2 2 2
left_child=-1 2 -2 4 6 -5 -4 8 11 12 -11 -8 -9 14 15 -3 17 -16 20 -20 21 22 -18 -19 26 -26 27 -22 29 -29
right_child=1 13 3 5 -6 -7 7 9 -10 10 -12 -13 -14 -15 16 -17 18 23 19 -21 24 -23 -24 -25 25 -27 -28 28 -30 -31
leaf_value=9.0441278352219089e-06 0.003267043724190444 0.007895210353890434 0.0014063353794626892 -0.0042110372683964673 0.0022168107097968459 -0.0004538988625757735 -0.00021409907532153849 -0.00016593581843635013 -0.0027040022677062331 0.0033662621767937464 -6.6371914619122875e-05 -0.0018929993293376789 -0.0019705473136127694 -4.8577758006584671e-06 0.0052952847403503261 -7.1445368268455029e-05 0.00140871889191961 0.0021899062493217314 -0.00022549065414260929 0.0052307053598765795 0.0016777784702652653 -0.00012829634948677385 0.0069235783110863335 -0.00021369679046693413 -0.0033453202329623956 -0.00026659819260829238 -0.0025145672414635493 0.00079897221358162733 -0.00028510256189825722 -0.00029680923079619486
leaf_weight=67200 20 20 25 22 31 22 198 119 37 22 54 38 20 147515 24 21 24 35 52 22 36 216 21 72 34 77 29 239 1154 234
leaf_count=67200 20 20 25 22 31 22 198 119 37 22 54 38 20 147515 24 21 24 35 52 22 36 216 21 72 34 77 29 239 1154 234
internal_value=0 -4.04011e-06 -0.00022445 -0.000343208 -0.000182312 -0.00233247 -0.000327288 -0.000416101 -0.000785252 5.26343e-05 0.000927285 -0.00048443 -0.000425592 -3.14567e-06 0.000106188 0.00381473 3.91763e-05 0.00143777 -4.65184e-05 0.00139662 -9.82589e-05 0.000580431 0.00398232 0.000572529 -0.000196505 -0.00120963 -0.000130041 -8.8459e-05 -0.00012754 0.000256873
internal_weight=0 150433 608 588 544 44 513 488 273 215 76 236 139 149825 2310 41 2269 131 2138 74 2064 261 45 107 1803 111 1692 1663 1627 473
internal_count=217633 150433 608 588 544 44 513 488 273 215 76 236 139 149825 2310 41 2269 131 2138 74 2064 261 45 107 1803 111 1692 1663 1627 473
shrinkage=0.05


Tree=397
num_leaves=31
num_cat=0
split_feature=40 27 28 16 29 39 10 5 40 36 4 4 5 3 39 2 19 33 27 36 0 5 18 39 28 18 20 36 28 1
split_gain=0.0033463 0.0232404 0.0307674 0.133041 0.0208693 0.0883886 0.0654273 0.0306075 0.0842396 0.0906059 0.0626851 0.347016 0.291151 0.16076 0.0515715 0.0471154 0.1236 0.0350691 0.0327752 0.0671228 0.0293914 0.029805 0.0272574 0.026993 0.0235324 0.182365 0.0253647 0.028544 0.0218682 0.0333487
threshold=0.81788000000000027 0.16934650000000004 20.036400000000004 0.00017333600000000004 4.3248150000000007e-05 -1.1067849999999997 -3.169029999999999e-05 1.6804400000000005e-05 1.2052499999999997 0.2761725000000001 -0.42458499999999993 -1.4133199999999999 1.9415700000000001e-05 -12.510449999999999 -2.1087049999999987 2.1355600000000003 1.7591800000000002 -1.1844749999999999e-05 0.043133650000000003 0.38220950000000015 8.3974050000000009 1.5352250000000005e-05 -7.7245449999999991 -2.1822199999999996 5.9680600000000004 0.69234250000000008 -17.289999999999996 0.24966499999999994 4.7390700000000008 -3.7730749999999995
decision_type=2 2 2 2 2 2 2 2 2 2 2 2 2 2 2 2 2 2 2 2 2 2 2 2 2 2 2 2 2 2
left_child=-1 2 4 -4 24 7 -7 8 9 -6 11 18 -13 -14 23 17 -17 -16 -9 -20 21 -19 -8 -10 26 -26 27 -2 -28 -30
right_child=1 -3 3 -5 5 6 22 10 14 -11 -12 12 13 -15 15 16 -18 20 19 -21 -22 -23 -24 -25 25 -27 28 -29 29 -31
leaf_value=-4.2504311882349526e-06 0.0022850545754548807 -0.00054612514177569346 -0.0017626490769907834 0.0036616008079503309 0.0036925178395277136 -0.0031123197635734515 -0.0019375252429666501 -0.00029186903935990102 -0.00011061674905929571 -0.00037232590940010807 -0.0001299767748049004 0.0082005541721324945 -0.00089067112038416487 0.0043771860509878024 0.001087799049365722 -0.0001684246369310835 -0.0052100355166476223 -0.0003275432857414919 0.0033417107243440118 -0.00042349955632556074 -0.0022851802280946195 -0.0018695212648405385 -0.00043595632119280601 0.0014846629941732518 -0.00048866273107004343 0.0040057512378083512 1.4643468080498788e-05 -0.00016203480190597476 -0.0024760813402033158 -0.00016033687088136777
leaf_weight=148051 26 188 20 26 29 33 37 271 1481 26 639 24 30 28 31 31 20 242 20 29 26 36 165 27 83 31 65886 22 22 53
leaf_count=148051 26 188 20 26 29 33 37 271 1481 26 639 24 30 28 31 31 20 242 20 29 26 36 165 27 83 31 65886 22 22 53
internal_value=0 9.04373e-06 1.05478e-05 0.00130323 9.69031e-06 -0.000114509 -0.0010482 -4.11246e-05 -0.000158039 0.00177096 0.000177767 0.000666942 0.00356896 0.00165243 -0.000214055 -0.000729749 -0.00214553 -0.000514212 -7.66993e-05 0.00111332 -0.000677575 -0.000527224 -0.000710996 -8.2054e-05 1.57478e-05 0.000733502 1.45082e-05 0.00116347 1.36721e-05 -0.000839622
internal_weight=0 69582 69394 46 69348 3225 235 2990 1949 55 1041 402 82 58 1894 386 51 335 320 49 304 278 202 1508 66123 114 66009 48 65961 75
internal_count=217633 69582 69394 46 69348 3225 235 2990 1949 55 1041 402 82 58 1894 386 51 335 320 49 304 278 202 1508 66123 114 66009 48 65961 75
shrinkage=0.05


Tree=398
num_leaves=31
num_cat=0
split_feature=18 39 3 1 3 39 20 36 36 16 16 6 23 1 20 11 11 20 1 18 19 9 31 39 33 20 26 24 12 36
split_gain=0.00315362 0.0444456 0.115276 0.238393 0.358212 0.205666 0.228798 0.36628 0.700089 0.102048 0.226906 0.187374 0.113754 0.0648363 0.092198 0.149089 0.0893816 0.121761 0.0497325 0.139821 0.0476588 0.0502316 0.0429333 0.0399604 0.0376893 0.0917288 0.036904 0.0357341 0.0660011 0.0956095
threshold=-7.8035849999999991 -0.12174999999999957 -8.7425699999999988 -3.9714549999999993 -13.799749999999998 2.4693750000000008 -10.808649999999998 0.14973499999999998 -0.079468000000000025 1.1521400000000002e-06 0.00010273900000000001 -6.6513949999999992e-07 8.8122200000000022e-05 -7.5633549999999987 -8.1725499999999975 0.00064251500000000008 0.00012656100000000005 -6.3564549999999995 -11.052099999999998 -11.282949999999998 -2.6299349999999992 -2.9434749999999998e-05 -0.45169549999999997 14.207395000000002 -4.0691899999999991e-07 -7.1435249999999995 -0.0024656149999999996 19.241100000000003 2.3836250000000008e-06 0.60008550000000016
decision_type=2 2 2 2 2 2 2 2 2 2 2 2 2 2 2 2 2 2 2 2 2 2 2 2 2 2 2 2 2 2
left_child=1 13 3 4 -3 6 7 8 -6 12 11 -11 -8 14 15 -1 17 -16 19 -18 21 -5 -7 27 25 -20 -12 -22 -29 -30
right_child=-2 2 -4 20 5 22 9 -9 -10 10 26 -13 -14 -15 16 -17 18 -19 24 -21 23 -23 -24 -25 -26 -27 -28 28 29 -31
leaf_value=-0.0048777916409123686 -2.3899042555725007e-06 0.0063033310725158498 3.3808638195874313e-05 -0.0034729959891410551 0.001373112611383931 -0.0022547241330118659 0.00050694035944858721 -0.00034822266534320081 0.012540177030721682 0.0017148790643145536 0.0016598422364350362 0.0083321591501589864 -0.0037370052618098271 -1.1070517543746932e-05 -0.004096421858266695 -0.00044729758023591285 -0.00097254267052586808 -0.00016428011055419727 -0.0035518374510973916 0.0038312643857872381 0.00019556641573375487 -0.0001921570265039918 -0.00011935277093725747 0.0019195973466724224 -0.00017114248459009022 0.00074513061092306007 -0.00013173115178141096 3.203922888521766e-05 -0.0044334493878219897 -0.00019944645813666287
leaf_weight=29 187993 34 12515 20 32 29 75 33 25 23 47 20 20 14451 35 55 33 45 27 28 532 28 125 28 1083 23 74 117 24 30
leaf_count=29 187993 34 12515 20 32 29 75 33 25 23 47 20 20 14451 35 55 33 45 27 28 532 28 125 28 1083 23 74 117 24 30
internal_value=0 1.51581e-05 8.06173e-05 0.000525762 0.00133629 0.00100055 0.00167216 0.00384392 0.00627095 0.000917492 0.00167287 0.00479268 -0.000386522 -4.2111e-05 -0.000372424 -0.00197687 -0.000266636 -0.00188459 -0.000158231 0.00123248 -3.29754e-05 -0.00155917 -0.000521468 6.724e-05 -0.000233106 -0.00157523 0.000564169 -6.53806e-06 -0.000635308 -0.00208123
internal_weight=0 29640 13831 1316 537 503 349 90 57 259 164 43 95 15809 1358 84 1274 80 1194 61 779 48 154 731 1133 50 121 703 171 54
internal_count=217633 29640 13831 1316 537 503 349 90 57 259 164 43 95 15809 1358 84 1274 80 1194 61 779 48 154 731 1133 50 121 703 171 54
shrinkage=0.05


Tree=399
num_leaves=31
num_cat=0
split_feature=40 27 28 16 18 37 1 3 36 25 1 9 23 17 36 14 3 10 15 3 3 14 4 3 13 18 30 25 11 26
split_gain=0.00325264 0.0209594 0.0277587 0.12007 0.0200525 0.0514865 0.0488483 0.116102 0.167788 0.223499 0.0432248 0.0338859 0.0354099 0.0887609 0.248763 0.0518521 0.11594 0.0352272 0.0602908 0.0337743 0.0281433 0.0327708 0.0281634 0.02418 0.113299 0.257828 0.04152 0.0234294 0.0399804 0.0231778
threshold=0.81788000000000027 0.16934650000000004 20.036400000000004 0.00017333600000000004 -12.91935 4.6270000000000016 -3.2275299999999993 -8.8592349999999982 -0.51801999999999981 -0.65584149999999986 -3.5464499999999997 -1.0627499999999998e-05 0.00070136550000000008 8.0730100000000018 -0.25142799999999998 4.6606600000000007e-08 -5.5440799999999983 -3.058699999999999e-05 -5.6792399999999992e-06 -13.166999999999998 -6.7859549999999986 7.2680000000000008e-07 -0.22659549999999998 -18.627349999999996 1.8037350000000004e-08 3.1442200000000002 1.5909750000000003 -0.048971099999999997 0.00011615350000000002 0.03925105000000001
decision_type=2 2 2 2 2 2 2 2 2 2 2 2 2 2 2 2 2 2 2 2 2 2 2 2 2 2 2 2 2 2
left_child=4 2 -2 -4 5 6 7 8 -1 -10 11 29 13 15 -15 16 -13 -14 -19 -8 21 -17 -22 24 25 -6 -26 28 -24 -9
right_child=1 -3 3 -5 23 -7 19 10 9 -11 -12 12 17 14 -16 20 -18 18 -20 -21 22 -23 27 -25 26 -27 -28 -29 -30 -31
leaf_value=-0.00046807619063739286 9.5301309297672656e-06 -0.00051830516181616208 -0.0016743971065443473 0.0034786568515510923 -0.00018464674657160367 0.0026673390896758066 -0.0015997997367473244 -8.2056905174473138e-05 0.00089880329970684321 0.006796928759781465 0.002492004063442437 0.00041614655770697738 0.0015085485741673482 -0.00036200126239290355 0.0063708228310924431 0.0021618147559950428 0.004005321346960921 -0.002901759060972836 -0.00015923762159020206 -4.595822297327838e-05 -0.0017875358586934454 -0.000105386914082054 -0.00021343670818428759 -7.1324481691617784e-06 0.00014196710006492038 0.0067518219814311515 -0.0024419597351383843 0.00025407326886771391 -0.0027225445583462719 -0.0012517307643671908
leaf_weight=44 69348 188 20 26 37 20 36 144 36 29 20 135 21 34 23 28 27 25 101 1224 28 37 77 145589 53 21 22 160 20 60
leaf_count=44 69348 188 20 26 37 20 36 144 36 29 20 135 21 34 23 28 27 25 101 1224 28 37 77 145589 53 21 22 160 20 60
internal_value=0 8.91626e-06 1.03446e-05 0.0012382 -4.19052e-06 0.000141364 0.000119485 0.000371531 0.00191626 0.00353027 0.000192408 0.000142417 0.00030439 0.000483113 0.00235475 0.000274746 0.00101434 -0.000387398 -0.000703389 -9.03537e-05 -6.75809e-05 0.000871254 -0.000281701 -6.51685e-06 0.000667349 0.00232683 -0.000615985 -0.000117641 -0.000730779 -0.000426079
internal_weight=0 69582 69394 46 148051 2329 2309 1049 109 65 940 920 716 569 57 512 162 147 126 1260 350 65 285 145722 133 58 75 257 97 204
internal_count=217633 69582 69394 46 148051 2329 2309 1049 109 65 940 920 716 569 57 512 162 147 126 1260 350 65 285 145722 133 58 75 257 97 204
shrinkage=0.05


Tree=400
num_leaves=31
num_cat=0
split_feature=40 20 17 32 18 18 5 21 32 3 5 16 29 32 13 16 20 36 36 17 17 12 19 17 26 15 20 17 3 18
split_gain=0.00327135 0.011553 0.0913267 0.0683501 0.0760253 0.0338697 0.0221546 0.0520427 0.0385091 0.0709503 0.0319407 0.0271691 0.0344864 0.0114746 0.0689664 0.0878103 0.0875691 0.0801144 0.192885 0.287828 0.271922 0.29583 0.28998 0.214014 0.180983 0.199516 0.158366 0.150525 0.131519 0.131091
threshold=-3.3334999999999999 -18.396099999999997 -6.0084349999999995 0.14537000000000003 5.2037050000000002 -5.2839149999999995 1.3371950000000002e-05 0.49038950000000003 0.0015972550000000001 -18.015749999999997 1.2356950000000002e-05 0.00097729900000000027 -4.1217849999999994e-05 -0.022925199999999996 -2.8874799999999993e-07 0.00051133100000000018 -17.289999999999996 -0.22452634999999985 0.40779500000000007 -10.065 -4.4743249999999994 -1.6870249999999996e-07 -1.9575299999999998 -2.1740799999999996 -0.24353549999999999 -0.00036585349999999998 -13.597549999999998 -1.1948249999999998 -9.5166249999999977 3.9993550000000009
decision_type=2 2 2 2 2 2 2 2 2 2 2 2 2 2 2 2 2 2 2 2 2 2 2 2 2 2 2 2 2 2
left_child=-1 2 -2 4 5 -4 7 10 11 -10 -7 12 -8 14 15 16 -3 -18 19 -19 21 28 23 -22 -24 -26 -27 -28 -21 -29
right_child=1 13 3 -5 -6 6 8 -9 9 -11 -12 -13 -14 -15 -16 -17 17 18 -20 20 22 -23 24 -25 25 26 27 29 -30 -31
leaf_value=9.171872541316164e-06 0.0031010860460810364 0.0036996319888567089 0.0014801026237667733 -0.0027454534624536922 0.0021925030801925932 -0.00023724917147869987 -0.0028349232547916475 -0.0026528109669015977 0.0031276276284504844 -0.00011697984486494938 -0.0018429963325812622 -9.6121574354707996e-05 -0.00030083347376383814 2.7819652127354481e-07 -0.00017375887073949248 -8.6419292767117597e-05 -9.8741226159991324e-05 0.0069071766636941744 -2.8327270967995581e-05 -0.0048847219012187505 0.0022183944506105036 0.0031755779691073783 0.0053918399459992848 0.0095329988328739998 -0.0034826994204195218 0.0049022904019457875 0.0034324149630265313 0.001494488790206286 -0.0004561290450510569 -0.0017711134183870552
leaf_weight=67200 20 20 24 28 31 190 25 32 23 63 37 106 29 140851 5288 2255 557 23 457 38 20 28 24 20 24 27 40 63 30 60
leaf_count=67200 20 20 24 28 31 190 25 32 23 63 37 106 29 140851 5288 2255 557 23 457 38 20 28 24 20 24 27 40 63 30 60
internal_value=0 -4.09717e-06 -0.000221611 -0.000334628 -0.000214087 -0.000355116 -0.000442334 -0.000765089 -0.000102522 0.000750764 -0.000498979 -0.000561163 -0.00147402 -3.21449e-06 -5.80337e-05 0.000107988 0.000414338 0.000367771 0.000672042 0.00147826 0.0011444 -0.00114987 0.00193666 0.0058757 0.00127464 0.000812896 0.0013555 0.000767991 -0.00293093 -9.84879e-05
internal_weight=0 150433 608 588 560 529 505 259 246 86 227 160 54 149825 8974 3686 1431 1411 854 397 374 96 278 40 238 214 190 163 68 123
internal_count=217633 150433 608 588 560 529 505 259 246 86 227 160 54 149825 8974 3686 1431 1411 854 397 374 96 278 40 238 214 190 163 68 123
shrinkage=0.05


Tree=401
num_leaves=31
num_cat=0
split_feature=36 36 17 11 1 5 39 1 26 39 32 11 18 22 17 10 39 21 4 4 18 3 19 17 0 20 26 0 18 26
split_gain=0.00334061 0.0380612 0.0687313 0.172373 0.121442 0.104852 0.0926344 0.128799 0.104861 0.0694318 0.204181 0.16496 0.151083 0.146424 0.291388 0.285912 0.215612 0.304637 0.897209 0.430349 0.1791 0.56329 0.19674 0.183146 1.22848 0.172866 0.183468 0.307093 0.18059 0.174045
threshold=0.24966499999999994 0.016888500000000004 -11.463149999999997 4.4272650000000011e-05 4.7972850000000014 1.7836500000000001e-05 0.8945249999999999 -0.98331399999999991 0.14443800000000004 -0.41630000000000006 -0.30938449999999995 9.9237900000000007e-05 14.003250000000001 9.4910900000000016 13.501750000000001 -1.4988849999999998e-06 -0.27803499999999998 -0.14722649999999995 -0.049405799999999993 -0.094599799999999984 -7.0365699999999984 -12.585899999999999 -2.5049849999999996 5.0058800000000003 4.7888100000000007 -7.3979749999999997 0.016625200000000003 -9.6465949999999978 9.8452300000000026 -0.010645149999999997
decision_type=2 2 2 2 2 2 2 2 2 2 2 2 2 2 2 2 2 2 2 2 2 2 2 2 2 2 2 2 2 2
left_child=1 -1 3 -3 6 -6 8 -8 -5 10 -4 -12 -13 14 16 -16 17 19 -19 -11 21 -18 -23 -24 -25 28 -27 -28 -22 -30
right_child=-2 2 9 4 5 -7 7 -9 -10 13 11 12 -14 -15 15 -17 20 18 -20 -21 25 22 23 24 -26 26 27 -29 29 -31
leaf_value=2.6108159707126226e-06 6.9427160541341476e-06 0.0050264037652162927 0.0041789347294252368 -0.00011596354768479269 0.0052805093075481381 0.00022196369245648385 -0.00029719978282671599 0.0042356200516223911 -0.0032384645572996564 0.0045117527572790901 -0.0043827102622128137 0.00010088224554145485 -0.0035899475279230889 -0.0010775949716655085 0.0077531261895985712 -0.00031623570996868822 0.0082821861678815407 -0.010912856307501594 -0.00048440535898910671 -0.0046443542805805231 -0.00018826868361277845 0.0047917965947514556 -0.00016231575204735484 0.012650787030262026 -0.00043591558972263194 -0.00080122531597307607 -0.00018606558921116327 -0.0083644382044440139 0.0052990739410493657 0.00067093485348458356
leaf_weight=111744 96465 21 30 116 21 20 42 25 35 33 21 2847 28 461 23 21 23 30 66 21 4131 24 605 22 97 513 24 22 28 74
leaf_count=111744 96465 21 30 116 21 20 42 25 35 33 21 2847 28 461 23 21 23 30 66 21 4131 24 605 22 97 513 24 22 28 74
internal_value=0 -5.52728e-06 -0.000102024 0.000669623 0.000316371 0.00281293 -0.000153165 0.00139415 -0.000839722 -0.000125653 7.51963e-05 3.26852e-05 6.49368e-05 -0.000220166 -0.000151506 0.00390184 -0.000182724 -0.00205333 -0.0037433 0.000951044 -0.000132285 0.000575001 0.000338015 0.000190376 0.00198347 -0.000246082 -0.00107247 -0.00409746 -0.000136951 0.0019414
internal_weight=0 121168 9424 280 259 41 218 67 151 9144 2926 2896 2875 6218 5757 44 5713 150 96 54 5563 771 748 724 119 4792 559 46 4233 102
internal_count=217633 121168 9424 280 259 41 218 67 151 9144 2926 2896 2875 6218 5757 44 5713 150 96 54 5563 771 748 724 119 4792 559 46 4233 102
shrinkage=0.05


Tree=402
num_leaves=31
num_cat=0
split_feature=8 2 21 4 12 28 13 36 29 32 13 31 25 20 11 11 10 2 17 25 1 3 31 39 28 12 12 2 36 36
split_gain=0.00323258 0.0146336 0.0124279 0.028097 0.0532177 0.0155402 0.105487 0.173445 0.117277 0.0503582 0.030407 0.0452748 0.0203655 0.0139238 0.0314586 0.0306855 0.0183111 0.0152792 0.0136143 0.0123836 0.0325329 0.0490102 0.0644759 0.0683636 0.0189045 0.0638971 0.0481851 0.151122 0.021006 0.0740671
threshold=1.6290050000000002e-05 3.0578500000000006 1.3511250000000004 0.53444550000000013 2.8964050000000007e-06 3.7022150000000003 6.5238050000000013e-06 0.327845 0.00058287550000000012 -0.60180299999999987 5.1445100000000014e-07 -0.35970249999999998 -0.25901299999999999 -11.401999999999999 0.013786650000000003 0.012476400000000002 2.6751950000000004e-05 -1.5877199999999998 -0.7494814999999998 -0.22198749999999998 -5.8353149999999987 -7.3483349999999996 -0.030074999999999994 -1.5196849999999988 1.3481400000000001 1.8224600000000005e-05 -5.525729999999999e-07 -1.3472649999999997 0.1751400000000001 -0.17527649999999997
decision_type=2 2 2 2 2 2 2 2 2 2 2 2 2 2 2 2 2 2 2 2 2 2 2 2 2 2 2 2 2 2
left_child=1 2 5 -4 -5 19 9 8 -8 -7 12 -12 13 15 16 17 -15 -11 -9 20 21 22 -1 -24 -21 26 27 -26 29 -28
right_child=-2 -3 3 4 -6 6 7 18 -10 10 11 -13 -14 14 -16 -17 -18 -19 -20 24 -22 -23 23 -25 25 -27 28 -29 -30 -31
leaf_value=0.00051648284266279508 2.4079527393861533e-06 0.0013039919392516218 -0.00010350301698444236 -0.0024279984799872377 0.00070833659453044338 0.0019735755115367023 0.0060539191079981352 -0.0010381543946745555 0.0011360052329109748 -0.001117597895707669 0.00042206522947791118 -0.0025244510767151954 0.00149819210091664 0.00014525817426842559 0.0019933815892554346 -0.0021555124746595066 -0.0014815558642033721 6.9703694134659602e-05 0.00056714871653821316 -2.0269149633461683e-05 9.0509233998304481e-05 0.0003140338525712571 -0.00057183212894332508 -0.0042162507225105899 0.003929107730289468 -0.0023545754073645434 -0.00024137735963888126 5.6986969501320099e-05 -0.00013139458790962 0.0022598862887879597
leaf_weight=22 188240 21 261 38 21 28 27 28 22 35 22 32 20 128 21 23 20 120 25 27677 179 46 22 31 37 22 83 79 257 46
leaf_count=22 188240 21 261 38 21 28 27 28 22 35 22 32 20 128 21 23 20 120 25 27677 179 46 22 31 37 22 83 79 257 46
internal_value=0 -1.54211e-05 -1.63645e-05 -0.00032626 -0.00131168 -1.2951e-05 0.000250054 0.00170155 0.00384588 -7.96846e-05 -0.000216243 -0.00132402 -5.32466e-05 -0.000142667 0.000182384 -0.000451282 -7.45816e-05 -0.000198397 -0.000280936 -1.80356e-05 -0.000337582 -0.000970875 -0.00175895 -0.00270347 -1.46363e-05 0.000282882 0.000398468 0.00129206 0.000129928 0.000650546
internal_weight=0 29393 29372 320 59 29052 551 102 49 449 421 54 367 347 169 178 148 155 53 28501 300 121 75 53 28201 524 502 116 386 129
internal_count=217633 29393 29372 320 59 29052 551 102 49 449 421 54 367 347 169 178 148 155 53 28501 300 121 75 53 28201 524 502 116 386 129
shrinkage=0.05


Tree=403
num_leaves=31
num_cat=0
split_feature=37 36 25 40 18 17 8 20 16 18 3 15 29 23 16 36 4 23 26 18 2 17 6 40 40 18 26 1 18 1
split_gain=0.00318143 0.0549387 0.107955 0.159073 0.294484 0.222561 0.187915 0.169311 0.197849 0.155149 0.179017 0.272488 0.146663 0.18548 0.154581 0.140073 0.134703 0.224108 0.129664 0.371615 0.287192 0.222379 0.206328 0.27896 0.320184 0.424894 0.428476 0.487016 0.276237 0.243882
threshold=0.22260499999999997 -0.018010000000000078 -0.071195649999999985 -0.68809499999999957 -4.9296999999999995 1.1470250000000002 3.6038200000000003e-05 -9.5739449999999984 0.0015021400000000001 -7.905149999999999 -10.496249999999998 2.0913500000000003e-06 -4.8226049999999992e-05 -0.0016081899999999998 2.1832200000000004e-05 -0.12496499999999998 0.22808000000000003 -0.00016755599999999999 -0.0086682099999999974 -7.375894999999999 -0.46437999999999996 1.8064750000000001 -1.5427749999999998e-06 -1.1537099999999991 1.0949350000000011 2.7053200000000004 -0.088797299999999982 3.3893400000000002 -3.1868999999999996 -1.9933749999999997
decision_type=2 2 2 2 2 2 2 2 2 2 2 2 2 2 2 2 2 2 2 2 2 2 2 2 2 2 2 2 2 2
left_child=1 2 3 9 7 6 12 8 -5 10 -1 -12 -6 -14 -15 -9 17 -17 19 20 21 -4 23 -21 25 26 -25 -28 29 -24
right_child=-2 -3 18 4 5 -7 -8 15 -10 -11 11 -13 13 14 -16 16 -18 -19 -20 22 -22 -23 28 24 -26 -27 27 -29 -30 -31
leaf_value=0.0055178483842279425 6.6762073638016348e-06 3.9084384429539946e-06 0.006538504067602844 -0.0084418290379779572 -0.0010226887920871377 -0.0032862891549041541 -0.0021789820592719921 0.00017055562055518633 -0.0021463314789192129 -0.00075026512232211637 -0.00075230024355355798 0.005631012439871917 -0.00012563550034942834 0.0024268180586486349 0.0084935383034116102 -0.0015359862597809602 -0.0003733106786385179 -0.0084428046931229218 -0.00018921498431011935 -0.00022415906868907492 0.0075403571173083038 0.00080689000631537053 0.00027104524209667531 -0.0003850119659909979 -0.00058734022731305629 0.0012695811806616491 0.0045911030769780663 0.014172265297245412 -0.00082388344811969985 0.0039383814503707983
leaf_weight=22 98050 111070 20 26 25 39 33 47 24 239 82 21 23 21 21 24 25 23 5942 325 25 110 238 20 92 137 36 21 796 56
leaf_count=22 98050 111070 20 26 25 39 33 47 24 239 82 21 23 21 21 24 25 23 5942 325 25 110 238 20 92 137 36 21 796 56
internal_value=0 -5.47404e-06 -0.000127888 -0.00072507 -0.00151832 4.93187e-06 0.00104849 -0.00297849 -0.00541999 -3.73093e-06 0.00142364 0.000549152 0.0022319 0.00348366 0.00546018 -0.00195265 -0.00333862 -0.00491592 -7.48003e-05 0.000287594 0.0026325 0.00168868 7.6403e-05 0.000795947 0.00187939 0.00293986 0.00591165 0.008121 -0.00034014 0.000969585
internal_weight=0 119583 8513 695 331 162 123 169 50 364 125 103 90 65 42 119 72 47 7818 1876 155 130 1721 631 306 214 77 57 1090 294
internal_count=217633 119583 8513 695 331 162 123 169 50 364 125 103 90 65 42 119 72 47 7818 1876 155 130 1721 631 306 214 77 57 1090 294
shrinkage=0.05


Tree=404
num_leaves=31
num_cat=0
split_feature=9 26 11 3 28 18 11 9 28 12 10 16 20 18 16 17 26 17 25 16 22 6 18 32 32 10 10 18 26 29
split_gain=0.00317749 0.0130428 0.0554554 0.166087 0.239028 0.174235 0.128192 0.0628276 0.0593514 0.0441717 0.0363417 0.0359361 0.0302202 0.0568261 0.0258594 0.0228241 0.0220008 0.0440805 0.0713649 0.0438389 0.0642905 0.0764756 0.021975 0.0471403 0.0210132 0.0168785 0.0163036 0.0144246 0.0140003 0.0427996
threshold=-0.000119502 0.18537850000000003 0.0061690100000000008 -11.223199999999999 0.93154100000000006 -0.25801749999999996 0.0069578350000000008 -0.00013151599999999998 20.036400000000004 -3.9387549999999988e-06 -2.3829049999999998e-05 0.00013951500000000002 -11.621199999999998 4.7688000000000015 0.00040781450000000006 9.8666800000000006 0.11680600000000001 -1.4620799999999998 0.13760400000000003 0.0045184900000000009 4.9136550000000012 4.7923500000000012e-07 -9.1109899999999975 0.069832100000000022 -0.046235849999999988 2.6751950000000004e-05 6.2308800000000016e-05 5.2853500000000002 0.099917750000000013 -8.1044199999999979e-05
decision_type=2 2 2 2 2 2 2 2 2 2 2 2 2 2 2 2 2 2 2 2 2 2 2 2 2 2 2 2 2 2
left_child=1 16 3 4 5 -3 -4 8 10 -6 -8 -5 27 -14 -12 22 28 19 -19 20 21 -18 23 -16 -22 -24 -27 -13 -1 -30
right_child=-2 2 6 11 9 -7 7 -9 -10 -11 14 12 13 -15 15 -17 17 18 -20 -21 24 -23 25 -25 -26 26 -28 -29 29 -31
leaf_value=1.2237717428585418e-05 -2.3092728666018428e-06 0.0072475457867507689 -0.0033389949732476713 0.0015377560042543338 0.0011387533677770989 0.0019558478540732593 0.001464312811690939 0.0021738623046050113 0.0019128139870306954 -0.0021079316044051665 0.001274671350377806 -0.00024606199084976037 -0.00034869257988426474 -0.0034933477282174867 -0.0028057206625817345 0.0012293918069469958 -0.00076274454011581849 -0.00016718106172581922 0.0032122581306750705 -9.9358673113407223e-05 -0.0017460712906419455 -0.0051352613125345671 -0.001307823821750184 -0.0002502962728859699 -0.00019954299017760008 0.0011943171325543992 -0.0001651077200276259 0.0013792758494673763 0.0025512344532630364 7.3859446924221385e-05
leaf_weight=26071 189890 28 28 25 20 35 36 35 39 22 30 43 51 20 26 26 20 61 21 198 30 20 31 59 82 23 537 20 22 84
leaf_count=26071 189890 28 28 25 20 35 36 35 39 22 30 43 51 20 26 26 20 61 21 198 30 20 31 59 82 23 537 20 22 84
internal_value=0 1.58061e-05 0.000181874 0.00081661 0.00235987 0.00430771 -1.07352e-05 9.99432e-05 9.99632e-06 -0.000561891 -8.66311e-05 -0.000202525 -0.000527205 -0.00123451 -0.000162907 -0.000224342 8.72872e-06 -0.000345182 0.000698285 -0.000589651 -0.00122832 -0.002949 -0.000280255 -0.00103196 -0.000613792 -0.000172142 -0.000109274 0.000269918 1.45693e-05 0.000588032
internal_weight=0 27743 1134 264 105 63 870 842 807 42 768 159 134 71 732 702 26609 432 82 350 152 40 676 85 112 591 560 63 26177 106
internal_count=217633 27743 1134 264 105 63 870 842 807 42 768 159 134 71 732 702 26609 432 82 350 152 40 676 85 112 591 560 63 26177 106
shrinkage=0.05


Tree=405
num_leaves=31
num_cat=0
split_feature=28 23 36 3 1 5 1 40 36 36 1 23 19 37 37 39 17 14 11 11 36 5 36 33 18 5 36 36 1 7
split_gain=0.00317362 0.0166051 0.0297849 0.0209019 0.0489956 0.0726825 0.0567805 0.0448542 0.0915875 0.17274 0.0350424 0.0346848 0.0284225 0.0203367 0.0840596 0.102772 0.0611036 0.0204842 0.020531 0.0135083 0.012965 0.0095091 0.00858152 0.0126947 0.00529801 0.0213839 0.0389459 0.110274 0.0326437 0.0957024
threshold=-10.048129999999999 -0.028182349999999998 -0.32870999999999989 -12.046299999999997 4.4568150000000015 1.1508200000000001e-05 4.0814950000000012 5.2253350000000003 -0.14969009999999991 1.0064425000000004 1.0868900000000001 0.0085896400000000008 2.0667800000000005 -0.55014000000000018 0.32610899999999998 1.269409999999999 -12.926599999999999 -5.1007699999999989e-07 0.00093504000000000015 0.00034418150000000005 -0.49100999999999978 2.3787600000000002e-05 -4.7245149999999994 0.00019513800000000003 13.390900000000002 4.5981050000000003e-05 -0.19934349999999995 0.24966499999999994 8.7485050000000015 4.1341400000000004e-05
decision_type=2 2 2 2 2 2 2 2 2 2 2 2 2 2 2 2 2 2 2 2 2 2 2 2 2 2 2 2 2 2
left_child=1 2 -1 4 6 -6 7 8 11 -10 -9 21 -13 16 15 -15 -5 -17 19 -19 22 -3 23 -16 -2 28 -27 -28 -26 -30
right_child=24 3 -4 13 5 -7 -8 10 9 -11 -12 12 -14 14 20 17 -18 18 -20 -21 -22 -23 -24 -25 25 26 27 -29 29 -31
leaf_value=-0.00011909538866672978 -3.8726737371641639e-07 -0.00019123943239157012 -0.0018380639951727871 0.0026178686382571379 -0.00060201404239272789 0.0031608217022783889 -0.0021707890266463021 4.9728615418384184e-05 0.0045550104504560726 -0.0011310274972030048 -0.0026522145969682331 0.0025092742391279901 -9.5077963123912923e-05 -0.0038167953435350346 -0.00010197631551049059 -0.0018569056817796083 -1.8628691067930615e-05 -0.00033986748309525612 -0.00165248433695524 0.0011036629505854633 0.0010315792714993284 -0.0013235131352716551 5.4501197589975528e-06 -0.0014730301720555872 3.6532345078019513e-05 0.00011031860204349703 -0.0043475849481876055 -0.00030610514205716831 0.00033028598240041323 0.0035843356115795666
leaf_weight=84 212898 118 36 26 21 33 26 28 34 22 21 22 20 31 52 28 142 71 24 21 29 22 803 25 2303 176 21 86 386 24
leaf_count=84 212898 118 36 26 21 33 26 28 34 22 21 22 20 31 52 28 142 71 24 21 29 22 803 25 2303 176 21 86 386 24
internal_value=0 -6.72753e-05 -0.000634786 -2.52115e-05 0.000306613 0.0016975 6.6652e-05 0.000269347 0.000552969 0.00232121 -0.00110825 8.89523e-06 0.00126911 -0.000122479 -0.000201811 -0.0012053 0.000389401 -0.000643102 -0.000350115 -1.0366e-05 -8.62077e-06 -0.000369168 -4.29001e-05 -0.000547124 5.41894e-07 6.65688e-05 -0.000347026 -0.00109929 0.000109712 0.000520767
internal_weight=0 1739 120 1619 367 54 313 287 238 56 49 182 42 1252 1084 175 168 144 116 92 909 140 880 77 215894 2996 283 107 2713 410
internal_count=217633 1739 120 1619 367 54 313 287 238 56 49 182 42 1252 1084 175 168 144 116 92 909 140 880 77 215894 2996 283 107 2713 410
shrinkage=0.05


Tree=406
num_leaves=31
num_cat=0
split_feature=40 20 17 8 18 36 36 18 32 28 1 39 39 2 36 26 4 36 30 4 13 4 12 18 32 12 8 5 29 4
split_gain=0.00311219 0.0150011 0.0733721 0.060989 0.0581544 0.157989 0.0509109 0.0235324 0.0309998 0.0200519 0.0296812 0.0512873 0.0254009 0.0185623 0.0190533 0.0639061 0.0117682 0.0114299 0.00983748 0.0368091 0.0376348 0.0289212 0.0180694 0.0151371 0.0144237 0.0686608 0.0792506 0.0271454 0.0160238 0.0556708
threshold=-3.6478300000000004 -18.396099999999997 -6.0084349999999995 6.1899350000000009e-05 4.6976250000000013 -0.10081500000000009 0.24966499999999994 -5.7481999999999989 0.046686200000000004 0.33893100000000004 -1.7695349999999996 1.6830350000000001 -0.23716000000000023 -0.17274099999999995 0.40779500000000007 -0.0024656149999999996 -0.12399149999999999 -0.10081500000000009 34.706300000000006 -0.48550749999999993 2.9426600000000004e-05 -3.0070999999999999 3.2364950000000003e-06 -7.4922749999999985 -2.2564299999999995 2.8964050000000007e-06 1.6453300000000004e-05 1.6461450000000005e-05 0.0014581450000000003 -0.30653749999999996
decision_type=2 2 2 2 2 2 2 2 2 2 2 2 2 2 2 2 2 2 2 2 2 2 2 2 2 2 2 2 2 2
left_child=-1 2 -2 4 7 -6 -5 -4 9 12 11 -11 -9 17 15 -15 -17 -14 24 21 22 -20 23 -21 25 26 -3 -28 -26 -30
right_child=1 18 3 6 5 -7 -8 8 -10 10 -12 -13 13 14 -16 16 -18 -19 19 20 -22 -23 -24 -25 28 -27 27 -29 29 -31
leaf_value=9.3780252272691015e-06 0.0026044435248794885 -0.0040382313265581614 0.0010347682855228475 -0.0037504117986511282 -0.0013190424651319129 0.0039924888721933329 -0.00042361340374159429 0.001515414908395282 -0.0022655302804196254 -0.00058805056897020256 -0.00021538407686896236 -0.003796836348046782 -0.0001154819214908847 -0.00350131224417551 -0.00022995428918025549 -0.00094747005769022516 0.00059785352155317518 0.00085239797444023105 -0.00040924616798292845 0.0010324172536666785 0.001870132225061146 -0.0027118998630903664 -0.001590954855584476 -0.00035213379115902639 -2.99337550882871e-06 0.0014330880640045507 0.0003529521323266303 -0.0016887794087071799 0.00096533923099108201 -2.7842974978250792e-05
leaf_weight=62899 22 20 29 23 28 28 23 21 22 33 67 20 140 22 122 28 22 39 30 26 24 25 22 82 152985 32 41 27 191 540
leaf_count=62899 22 20 29 23 28 28 23 21 22 33 67 20 140 22 122 28 22 39 30 26 24 25 22 82 152985 32 41 27 191 540
internal_value=0 -3.81214e-06 -0.000236596 -0.000330304 -0.000200177 0.00133672 -0.00208701 -0.000352507 -0.000427565 -0.000348897 -0.000914776 -0.00179891 -0.000176548 -0.000271806 -0.000610617 -0.00125563 -0.000267528 9.53969e-05 -2.77097e-06 -0.000345573 5.09743e-05 -0.00145591 -0.00028487 -1.88159e-05 -2.30524e-06 -0.000550265 -0.00127148 -0.000457735 -1.87747e-06 0.000231662
internal_weight=0 154734 689 667 621 56 46 565 536 514 120 53 394 373 194 72 50 179 154045 209 154 55 130 108 153836 120 88 68 153716 731
internal_count=217633 154734 689 667 621 56 46 565 536 514 120 53 394 373 194 72 50 179 154045 209 154 55 130 108 153836 120 88 68 153716 731
shrinkage=0.05


Tree=407
num_leaves=31
num_cat=0
split_feature=14 21 4 36 36 18 3 7 32 14 36 39 28 3 10 21 7 34 37 36 28 18 15 30 4 39 36 36 3 4
split_gain=0.00304686 0.0245959 0.119008 0.104692 0.295645 0.116615 0.0433254 0.0179187 0.016807 0.0194234 0.0261447 0.0211297 0.0184442 0.0994057 0.0174928 0.0102706 0.0184411 0.0306437 0.0135334 0.0767024 0.0560704 0.0674289 0.0641241 0.123962 0.14238 0.0269403 0.0516741 0.0214561 0.00997992 0.0114445
threshold=2.5901300000000006e-05 1.5291850000000002 4.1822950000000008 -0.40968649999999995 0.02582950000000005 2.4716600000000004 -14.605749999999999 -1.3228999999999998e-05 1.20103 4.3084450000000007e-05 0.86046950000000011 -7.3750299999999998 5.9680600000000004 -15.867949999999999 -5.8484999999999993e-05 0.54950250000000012 0.00020299950000000002 -0.13745849999999996 -0.52314599999999989 -0.43704099999999996 3.1099700000000006 8.1649450000000012 0.0036590750000000003 0.7542350000000001 0.49902250000000004 2.2194399999999996 0.20129000000000011 -0.10081500000000009 -10.660099999999998 3.7069200000000007
decision_type=2 2 2 2 2 2 2 2 2 2 2 2 2 2 2 2 2 2 2 2 2 2 2 2 2 2 2 2 2 2
left_child=-1 8 3 -3 -5 7 -4 -6 12 10 -10 -11 15 -14 -15 -2 18 -18 -17 -20 21 22 23 -21 -25 26 27 -24 29 -13
right_child=1 2 6 4 5 -7 -8 -9 9 11 -12 28 13 14 -16 16 17 -19 19 20 -22 -23 25 24 -26 -27 -28 -29 -30 -31
leaf_value=-2.4196916893960638e-06 1.815275875745479e-05 -0.00035595430248885917 -0.0027382260340908988 0.0078237311122939003 0.00030773576680803673 0.0033709285163269903 -0.00024218991946885456 -0.0016734354788652474 -0.0026230511626982619 0.0011418828324307329 -0.00018291364717499717 -0.001670613195948625 0.0037501318826495358 0.0014839171559287935 -9.3486563208239993e-05 2.7423402209568715e-05 0.0023587687117924364 -3.8249479621299544e-05 2.5143015920049404e-05 -0.0024601585222408175 -0.0030896859890263942 -0.0030781507839155557 -0.0015816754232218955 -0.00063695152173750104 0.0038416148092235546 -0.00022059967183755866 -0.00010598087881196596 -0.0034594211143798774 -7.8762785878765969e-05 -0.00038164439713856313
leaf_weight=186444 28570 53 21 20 25 31 101 21 21 26 23 26 21 20 145 784 20 40 751 25 27 27 32 35 36 58 37 29 113 51
leaf_count=186444 28570 53 21 20 25 31 101 21 21 26 23 26 21 20 145 784 20 40 751 25 27 27 32 35 36 58 37 29 113 51
internal_value=0 1.44646e-05 0.00048785 0.00143106 0.00240747 0.00100065 -0.000671835 -0.000596712 1.02999e-05 -0.000390008 -0.00134752 -0.000194959 1.36949e-05 0.000510084 9.77139e-05 1.06648e-05 -0.000101871 0.000760757 -0.000129984 -0.000246737 -0.000913999 -0.000703448 -0.000449016 0.000567717 0.00163387 -0.0010747 -0.00158018 -0.00247437 -0.000377895 -0.000816881
internal_weight=0 31189 272 150 97 77 122 46 30917 260 44 216 30657 186 165 30471 1901 60 1841 1057 306 279 252 96 71 156 98 61 190 77
internal_count=217633 31189 272 150 97 77 122 46 30917 260 44 216 30657 186 165 30471 1901 60 1841 1057 306 279 252 96 71 156 98 61 190 77
shrinkage=0.05


Tree=408
num_leaves=31
num_cat=0
split_feature=37 36 25 3 6 37 6 10 36 17 13 23 13 30 39 4 18 6 10 16 26 18 19 20 6 39 39 18 19 0
split_gain=0.00292887 0.041158 0.0815996 0.123545 0.137522 0.257417 0.159394 0.157511 0.164111 0.134042 0.178272 0.125165 0.115558 0.106764 0.132162 0.118382 0.103446 0.110217 0.100894 0.0914366 0.0820824 0.296689 0.265265 0.332141 0.178854 0.238787 0.289238 0.452528 0.898562 0.258079
threshold=0.27484500000000006 -0.018010000000000078 -0.071195649999999985 -17.304849999999998 1.5327350000000001e-07 0.040430000000000084 2.0371800000000005e-06 -2.0286099999999995e-05 -0.12496499999999998 -6.8177199999999987 -5.3401899999999988e-07 -2.2730149999999994e-05 -5.9166999999999996e-08 0.4236100000000001 -0.71725499999999964 0.79460700000000006 -12.332599999999998 2.3526650000000005e-06 2.3721450000000003e-05 4.5569750000000002e-09 -0.0086682099999999974 -7.375894999999999 -0.57280449999999983 -6.9062749999999991 -1.5427749999999998e-06 1.1470050000000007 -1.1067849999999997 1.0804400000000001 0.27517900000000006 9.437870000000002
decision_type=2 2 2 2 2 2 2 2 2 2 2 2 2 2 2 2 2 2 2 2 2 2 2 2 2 2 2 2 2 2
left_child=1 2 3 -1 9 -6 7 -7 -9 10 -5 19 -12 14 -13 -15 -8 -18 -14 -11 21 22 -4 -24 25 26 -23 28 -28 -29
right_child=-2 -3 20 4 5 6 16 8 -10 11 12 13 18 15 -16 -17 17 -19 -20 -21 -22 24 23 -25 -26 -27 27 29 -30 -31
leaf_value=0.0026307055689514906 6.5077626117021748e-06 3.6624127605291732e-06 0.00096398057603229058 0.0040456751255987912 -0.0056564567959867425 -0.0053596228195601728 0.0030502808183276407 0.00043662551592876157 -0.0036281452416336507 -0.0026043338897999584 -0.0024889660655753689 -0.0010647582099772991 0.0041516083723399785 -3.1926181868695452e-06 -0.0068128480997984298 -0.0039957634663248124 0.0029562738339882345 -0.0010392146286557406 -0.00070416952797171218 0.0005644383250095257 -0.00014149129578093297 -0.00052000879367605432 0.01003371408164856 0.0017769960132588089 -0.00031629851771186059 -0.00018686210449686769 -0.0010384185898692523 0.0024720942162644323 0.012944441043806296 -0.0020544229853840081
leaf_weight=29 96350 111070 131 40 33 32 24 57 44 26 30 20 20 82 20 24 20 126 23 183 7159 108 21 29 1307 390 20 148 27 40
leaf_count=29 96350 111070 131 40 33 32 24 57 44 26 30 20 20 82 20 24 20 126 23 183 7159 108 21 29 1307 390 20 148 27 40
internal_value=0 -5.16992e-06 -0.000101225 -0.000575484 -0.000691131 -0.00146289 -0.00100616 -0.0023027 -0.00133417 -0.000137048 0.00136278 -0.000614458 -0.000107297 -0.00173776 -0.0039388 -0.000907171 8.18337e-06 -0.000491887 0.00155433 0.000170237 -5.91075e-05 0.000206442 0.00214653 0.00524482 3.43065e-05 0.000659464 0.00162176 0.00260606 0.00699429 0.00150901
internal_weight=0 121283 10213 833 804 336 303 133 101 468 113 355 73 146 40 106 170 146 43 209 9380 2221 181 50 2040 733 343 235 47 188
internal_count=217633 121283 10213 833 804 336 303 133 101 468 113 355 73 146 40 106 170 146 43 209 9380 2221 181 50 2040 733 343 235 47 188
shrinkage=0.05


Tree=409
num_leaves=31
num_cat=0
split_feature=40 3 21 3 19 0 18 17 24 25 18 1 37 37 37 3 37 10 30 28 21 10 8 4 21 4 16 15 4 22
split_gain=0.0029592 0.0126119 0.0785962 0.169584 0.0755669 0.0473605 0.0473439 0.0445948 0.0578963 0.0453295 0.0648365 0.0356997 0.0278245 0.421864 0.16648 0.0462999 0.0271552 0.0134993 0.0118231 0.0113536 0.0106112 0.075726 0.0163437 0.0198878 0.0135101 0.0769666 0.209771 0.068298 0.0424504 0.0683443
threshold=-3.2113799999999997 -13.353949999999999 1.0406250000000001 -16.722199999999997 1.0128700000000002 1.9180150000000002 8.8284250000000011 -11.463149999999997 53.953100000000013 -0.25901299999999999 -6.7912899999999992 -1.4776249999999997 0.24875600000000014 -0.10141500000000002 0.040430000000000084 -14.176449999999997 0.35345999999999994 9.0157500000000019e-05 14.135600000000002 -1.2009849999999997 2.1521500000000002 -3.6340149999999998e-05 1.7819450000000001e-05 1.3297700000000001 1.5291850000000002 0.8580755000000001 0.0032667350000000002 3.940980000000001e-05 -0.25665499999999991 26.434800000000003
decision_type=2 2 2 2 2 2 2 2 2 2 2 2 2 2 2 2 2 2 2 2 2 2 2 2 2 2 2 2 2 2
left_child=1 2 6 -4 5 17 7 -1 9 11 -11 -9 13 18 -15 -16 -14 -5 19 -12 24 -22 -23 -24 -2 27 -27 28 -26 -30
right_child=20 -3 3 4 -6 -7 -8 8 -10 10 12 -13 16 14 15 -17 -18 -19 -20 -21 21 22 23 -25 25 26 -28 -29 29 -31
leaf_value=-0.0024180943070556777 -4.2574653528396375e-06 1.1801465566822657e-05 0.0050323950356952005 -0.00028158396948128943 0.0022613971612317429 -0.0020741262898241078 0.0020056984915003263 -0.0033651506927396568 0.0021400787897146076 0.0023379481216882899 0.001100776042749203 -0.0004134698468260467 0.0017833769082608343 -0.0080345221894926253 -0.0041649838667415845 -0.0008410039947193582 -9.2153298395097622e-05 0.0013954217260470614 -0.001306287463521585 -0.00011037974185576197 -0.0031339629192106339 -0.0010231118914816762 -0.00021424522255089319 0.00124297358576625 -0.00065014751475030044 0.0046599421852186107 -0.00033599863440858004 -0.002946008631552104 0.0032593867302487278 0.00017557905031833577
leaf_weight=24 148236 67375 22 30 33 32 23 21 25 24 20 20 20 21 22 20 551 20 20 595 22 28 61 38 101 34 55 20 22 98
leaf_count=24 148236 67375 22 30 33 32 23 21 25 24 20 20 20 21 22 20 551 20 20 595 22 28 61 38 101 34 55 20 22 98
internal_value=0 8.56458e-06 -0.000132774 0.00101042 0.000241 -0.000572087 -0.000244166 -0.000281583 -0.000243852 -0.000288528 -0.000236627 -0.00192531 -0.000285319 -0.000497079 -0.0043996 -0.00258214 -2.64605e-05 0.000389218 -0.000109899 -7.09926e-05 -3.96903e-06 -0.000425707 4.34402e-05 0.000345091 -3.54606e-06 0.000316019 0.00157256 -0.000148016 0.000105196 0.000740944
internal_weight=0 68918 1543 137 115 82 1406 1383 1359 1334 1293 41 1269 698 63 42 571 50 635 615 148715 149 127 99 148566 330 89 241 221 120
internal_count=217633 68918 1543 137 115 82 1406 1383 1359 1334 1293 41 1269 698 63 42 571 50 635 615 148715 149 127 99 148566 330 89 241 221 120
shrinkage=0.05


Tree=410
num_leaves=31
num_cat=0
split_feature=5 32 13 32 19 3 39 31 17 0 19 32 36 36 39 39 39 39 37 11 39 3 33 36 20 28 5 12 22 10
split_gain=0.00296832 0.0189281 0.0572415 0.0289445 0.104084 0.0458734 0.180306 0.0141422 0.0137638 0.0309475 0.0128422 0.0584288 0.0141849 0.0950895 0.0433673 0.0616148 0.0471284 0.11004 0.0314477 0.111217 0.185037 0.0727371 0.0153799 0.0154972 0.0132816 0.0131039 0.0106896 0.00807964 0.00781231 0.013179
threshold=7.5984950000000007e-06 -0.17249249999999997 -2.7102299999999998e-07 -0.0061896949999999994 -2.7041249999999994 -14.389699999999999 -1.8432249999999992 -0.070123049999999978 13.501750000000001 5.0081900000000008 -2.9623449999999996 -0.00035081549999999999 -0.027530000000000051 0.077348000000000056 1.1065400000000005 0.31279500000000043 -0.15760999999999911 -0.93682499999999969 0.22260499999999997 0.00083188600000000011 0.47541999999999979 -15.284849999999999 7.5042600000000009e-06 0.12375499999999996 -13.148399999999997 0.014929350000000003 6.9938750000000009e-06 1.3231850000000003e-06 4.1232750000000005 7.2975750000000002e-06
decision_type=2 2 2 2 2 2 2 2 2 2 2 2 2 2 2 2 2 2 2 2 2 2 2 2 2 2 2 2 2 2
left_child=1 2 -1 4 -3 6 27 -7 10 -10 11 -5 18 14 15 16 17 -14 19 20 -12 -21 23 -15 -18 -26 -22 -6 -9 -30
right_child=-2 3 -4 8 5 7 -8 28 9 -11 12 -13 13 22 -16 -17 24 -19 -20 21 26 -23 -24 -25 25 -27 -28 -29 29 -31
leaf_value=-0.0027053471581893977 -8.3295059186991547e-07 0.0039682597565115427 -3.0428239042521455e-05 -0.0029732930918225978 6.573124380901433e-05 -0.0011546727997447305 0.0042276450725639179 -5.0534527216871134e-05 -4.7880209298548445e-05 0.0023712634221010379 -0.0044152796510995053 -1.5278424411399733e-05 -0.00036447785419618919 -0.0012806518783327193 -0.00092373292002594109 0.0037219149799531566 -0.00076330487296218065 0.0038102458412571367 -2.0873670836038908e-05 -0.0009718480489391368 0.00096519830377391467 0.0031109113575742715 0.00099952516321637729 -2.5722198961697495e-05 0.00033264088278771493 0.0016421585137723013 -0.00047590809593994862 -0.0011354316522123381 8.4407692693910281e-05 0.0016379836410305871
leaf_weight=25 213293 20 100 20 42 25 33 231 39 20 39 101 27 25 25 23 20 38 1622 20 22 24 36 1542 81 25 31 21 43 20
leaf_count=25 213293 20 100 20 42 25 33 231 39 20 39 101 27 25 25 23 20 38 1622 20 22 24 36 1542 81 25 31 21 43 20
internal_value=0 4.09361e-05 -0.000565412 5.89179e-05 0.000445156 0.000275368 0.00123363 -1.30128e-05 1.44698e-05 0.000772168 2.45581e-06 -0.000504206 1.94853e-05 0.000116446 0.00104682 0.00127703 0.000982619 0.00207613 -8.21086e-05 -0.000812425 -0.00180125 0.00125511 -2.22689e-05 -4.57434e-05 0.000418506 0.000641489 0.000122287 -0.000334656 8.40671e-05 0.000577606
internal_weight=0 4340 125 4215 435 415 96 319 3780 59 3721 121 3600 1842 239 214 191 65 1758 136 92 44 1603 1567 126 106 53 63 294 63
internal_count=217633 4340 125 4215 435 415 96 319 3780 59 3721 121 3600 1842 239 214 191 65 1758 136 92 44 1603 1567 126 106 53 63 294 63
shrinkage=0.05


Tree=411
num_leaves=31
num_cat=0
split_feature=40 29 39 11 15 32 15 23 18 5 40 31 3 39 39 36 36 1 35 12 12 9 27 15 30 16 12 16 36 28
split_gain=0.00308457 0.0199243 0.0609836 0.0523376 0.21544 0.0384603 0.0812952 0.0466659 0.0384543 0.0347821 0.0758918 0.121198 0.0546349 0.0534844 0.0511168 0.042617 0.189785 0.14635 0.0350727 0.0295983 0.149477 0.227014 0.0368726 0.0253518 0.0515972 0.0423152 0.0279038 0.0538654 0.0981689 0.024997
threshold=0.81788000000000027 4.3248150000000007e-05 -1.1067849999999997 0.0025138000000000005 -1.4018299999999999e-05 -0.60180299999999987 0.00014095500000000004 -0.00019299199999999998 8.2873200000000011 1.6804400000000005e-05 1.2052499999999997 0.0056032300000000007 -18.627349999999996 -2.1087049999999987 -2.1822199999999996 0.354709 -0.32870999999999989 -4.1345949999999991 0.010368050000000002 -3.5297349999999998e-06 -2.1368049999999996e-05 4.8912350000000013e-05 0.013857300000000001 -1.4018299999999999e-05 7.9426800000000002 0.0019525250000000003 -9.0272649999999983e-06 0.0045184900000000009 1.3170840000000001 4.7390700000000008
decision_type=2 2 2 2 2 2 2 2 2 2 2 2 2 2 2 2 2 2 2 2 2 2 2 2 2 2 2 2 2 2
left_child=-1 5 9 4 -4 6 7 -2 -5 10 11 -3 -11 14 23 16 -15 -18 -19 20 -14 22 -22 24 26 -26 27 28 -12 -7
right_child=1 2 3 8 -6 29 -8 -9 -10 12 13 -13 19 15 -16 -17 17 18 -20 -21 21 -23 -24 -25 25 -27 -28 -29 -30 -31
leaf_value=-4.0808233855075493e-06 0.0018868946084209409 -0.00018503072912126833 -0.0057518123398331228 -0.0005482855168046849 -0.00051132420730737262 1.4021501012795311e-05 0.002963926990859738 -0.00039998064865609073 0.0018420549195161584 0.0027652371712611058 0.0043864887818926947 0.0046461119689497751 2.9546923471143371e-05 -0.00032956242097816616 0.0019879444801361012 -0.00012424199027074274 -0.00026850354730744254 -0.0038651068409672009 -0.006826217779889703 -8.2440338802852869e-05 0.002401522418804234 0.0069045816573807747 -0.00035214371572721813 2.0076766172546609e-05 -0.0034442168678045469 -0.00055875223630142432 -0.00047614787942927214 -0.00029229909983937948 -0.00045362095615101601 -0.00084397235436293105
leaf_weight=148051 30 34 25 106 91 65954 34 87 20 20 20 21 353 177 29 168 22 20 20 657 20 21 31 999 24 27 368 97 22 85
leaf_count=148051 30 34 25 106 91 65954 34 87 20 20 20 21 353 177 29 168 22 20 20 657 20 21 31 999 24 27 368 97 22 85
internal_value=0 8.68285e-06 -0.000109507 -0.000874392 -0.00164074 1.47397e-05 0.000811802 0.000186398 -0.000168866 -5.07446e-05 -0.000172621 0.00165959 0.000175755 -0.000223183 -9.19708e-05 -0.000734493 -0.00116346 -0.00354409 -0.00534566 0.00012789 0.000453036 0.00252931 0.000727725 -0.00013071 -0.000400668 -0.00191662 -0.000248176 0.000355375 0.00185119 1.29172e-05
internal_weight=0 69582 3392 242 116 66190 151 117 126 3150 2048 55 1102 1993 1586 407 239 62 40 1082 425 72 51 1557 558 51 507 139 42 66039
internal_count=217633 69582 3392 242 116 66190 151 117 126 3150 2048 55 1102 1993 1586 407 239 62 40 1082 425 72 51 1557 558 51 507 139 42 66039
shrinkage=0.05


Tree=412
num_leaves=31
num_cat=0
split_feature=17 2 2 9 2 16 37 9 37 9 40 39 27 11 2 14 16 6 15 35 3 29 3 8 12 1 35 4 4 4
split_gain=0.00294024 0.0390532 0.0304344 0.0267196 0.0781099 0.276943 0.0596674 0.0395571 0.0352132 0.0317283 0.0248762 0.0530511 0.0219835 0.0344971 0.013717 0.0104669 0.0111974 0.00946899 0.0323963 0.00735491 0.00673656 0.00604357 0.0328111 0.0822147 0.0290559 0.0513899 0.014536 0.0326048 0.0124921 0.0464109
threshold=-19.608449999999998 2.9401200000000007 -2.9738899999999995 -0.00010809399999999999 -2.4792649999999994 2.562600000000001e-07 -0.66104499999999999 -7.2289149999999995e-05 0.32610899999999998 -3.9555399999999991e-05 3.7911450000000002 -4.7135349999999994 0.064526950000000013 0.0090263400000000025 -2.4013349999999996 1.3649650000000004e-06 0.0002560000000000001 4.3472000000000005e-06 1.7140900000000006e-08 0.034433300000000007 -5.1863649999999994 -0.00090391799999999997 -16.558299999999999 2.5716400000000003e-05 -2.6601849999999995e-07 10.319000000000001 0.034433300000000007 0.065295950000000005 1.3297700000000001 0.46668750000000003
decision_type=2 2 2 2 2 2 2 2 2 2 2 2 2 2 2 2 2 2 2 2 2 2 2 2 2 2 2 2 2 2
left_child=1 2 -1 6 5 -5 -4 -6 -8 -9 15 12 19 -14 -10 17 -17 20 -19 -12 -11 22 23 -2 25 -24 27 -26 29 -28
right_child=21 -3 3 4 7 -7 8 9 14 10 11 -13 13 -15 -16 16 -18 18 -20 -21 -22 -23 24 -25 26 -27 28 -29 -30 -31
leaf_value=-0.0018034823365848174 -0.00039939909699439476 0.0019635832064388392 0.0009496161138089613 -0.00077258964606285606 -0.0020387349174019287 0.0066838480334263295 -0.0029061655410461957 0.00162738528778198 -0.0015509990020787386 -1.7630733421946966e-05 1.0137617804999041e-05 0.00278609168951031 -0.00026314017035205059 0.0024766258779345667 0.00016085659130476418 -0.0014205684027196637 -0.00026801009272882462 -0.00028569485755522488 0.0022241409527487123 -0.001268623981108565 -0.00079527837036537884 3.1694531885809128e-07 -0.0003600470300130115 0.003557866511844276 -0.00041449417211962021 -0.0027884078832120518 -4.8987614704515795e-05 0.0023748966409766585 -0.00049150616465759903 0.0017422319095777841
leaf_weight=22 35 27 39 33 22 20 27 33 22 274 22 24 27 20 25 27 96 36 20 23 31 215313 413 21 22 23 748 20 130 38
leaf_count=22 35 27 39 33 22 20 27 33 22 274 22 24 27 20 25 27 96 36 20 23 31 215313 413 21 22 23 748 20 130 38
internal_value=0 9.17343e-05 3.17818e-05 8.09606e-05 0.000194916 0.00204116 -0.000633027 4.55255e-05 -0.00146712 0.000117964 3.49461e-05 0.000692574 0.000146439 0.000902718 -0.000640438 -0.000122667 -0.000521011 1.30564e-05 0.000610675 -0.000643452 -9.66703e-05 -3.68185e-07 -0.000102104 0.00108458 -0.000149776 -0.000488149 4.22269e-06 0.000913787 -3.74822e-05 3.76108e-05
internal_weight=0 870 843 821 708 53 113 655 74 633 600 116 92 47 47 484 123 361 56 45 305 216763 1450 56 1394 436 958 42 916 786
internal_count=217633 870 843 821 708 53 113 655 74 633 600 116 92 47 47 484 123 361 56 45 305 216763 1450 56 1394 436 958 42 916 786
shrinkage=0.05


Tree=413
num_leaves=31
num_cat=0
split_feature=40 3 21 3 32 36 16 18 31 17 24 25 18 1 36 37 36 3 37 30 28 3 0 21 15 37 36 15 17 0
split_gain=0.00290114 0.0114592 0.070554 0.151559 0.0704342 0.0749392 0.048775 0.0426344 0.0423259 0.0394086 0.0523785 0.0411499 0.0585292 0.031899 0.0250613 0.38098 0.149831 0.041973 0.0245505 0.0104896 0.0102521 0.0101519 0.0226226 0.0196761 0.0412235 0.0606894 0.180324 0.0343945 0.0287116 0.190331
threshold=-3.2113799999999997 -13.353949999999999 1.0406250000000001 -16.722199999999997 0.18330700000000003 -1.0735979999999996 0.0020341900000000004 8.8284250000000011 0.33249250000000002 -11.463149999999997 53.953100000000013 -0.25901299999999999 -6.7912899999999992 -1.4776249999999997 -0.25142799999999998 -0.10141500000000002 -0.011175000000000155 -14.176449999999997 0.35345999999999994 14.135600000000002 -1.2009849999999997 -7.4497099999999987 -10.244649999999998 0.69957950000000013 0.00034847100000000005 0.17390849999999994 0.49120000000000014 0.00016883300000000004 16.002400000000005 12.423150000000001
decision_type=2 2 2 2 2 2 2 2 2 2 2 2 2 2 2 2 2 2 2 2 2 2 2 2 2 2 2 2 2 2
left_child=1 2 7 -4 6 -6 -5 9 -8 -1 11 13 -13 -11 18 19 17 -17 -14 20 -16 22 -2 28 27 26 -26 -25 -23 -30
right_child=21 -3 3 4 5 -7 8 -9 -10 10 -12 12 14 -15 15 16 -18 -19 -20 -21 -22 23 -24 24 25 -27 -28 -29 29 -31
leaf_value=-0.0022757291614349624 0.0012403630400267258 1.1565555849309143e-05 0.0047591094747820705 0.00071383138825750043 -0.00015287827654074965 0.0040759765834081918 -0.00025653724243056785 0.0019032481768195082 -0.0035094564914470538 -0.0031948536292128711 0.0020356641847174613 0.0022212806160799422 0.0016953889112119214 -0.00040471516479556163 0.0010459670647105668 -0.0039635769546624618 -0.0076290796028583175 -0.0007987239430076444 -8.7921860248068947e-05 -0.0012310575750962016 -0.00010493902674032815 -2.2911611562525134e-05 3.8034072966402786e-06 -0.00017736260746509835 -0.0061149426142219458 -2.8439119112016142e-05 -6.2808415100334977e-05 0.001738285327034343 9.2127339535957476e-05 0.0045522243277026486
leaf_weight=24 37 67375 22 33 22 20 20 23 20 21 25 24 20 20 20 22 21 20 551 20 595 40299 106932 989 20 57 32 24 299 26
leaf_count=24 37 67375 22 33 22 20 20 23 20 21 25 24 20 20 20 22 21 20 551 20 595 40299 106932 989 20 57 32 24 299 26
internal_value=0 8.48014e-06 -0.000126244 0.000956885 0.000229502 0.00186086 -0.000709088 -0.000231784 -0.001883 -0.000267291 -0.000231822 -0.000274316 -0.000224865 -0.00183381 -0.000271128 -0.000472098 -0.0041807 -0.0024565 -2.54591e-05 -0.000104158 -6.75112e-05 -3.92989e-06 4.23113e-06 -2.48415e-05 -0.000231393 -0.00115532 -0.00239055 -0.000131977 -1.91367e-05 0.000448935
internal_weight=0 68918 1543 137 115 42 73 1406 40 1383 1359 1334 1293 41 1269 698 63 42 571 635 615 148715 106969 41746 1122 109 52 1013 40624 325
internal_count=217633 68918 1543 137 115 42 73 1406 40 1383 1359 1334 1293 41 1269 698 63 42 571 635 615 148715 106969 41746 1122 109 52 1013 40624 325
shrinkage=0.05


Tree=414
num_leaves=31
num_cat=0
split_feature=18 37 1 10 35 39 36 10 19 3 36 35 14 36 37 29 37 36 1 39 15 2 14 19 36 36 13 12 36 37
split_gain=0.00292056 0.0261727 0.0186719 0.0804834 0.0172173 0.042508 0.127024 0.341549 0.11115 0.0409278 0.0453452 0.03863 0.0272244 0.0649685 0.225424 0.208425 0.0418097 0.125342 0.103618 0.0923823 0.080481 0.0678286 0.0367274 0.0303783 0.0252588 0.020569 0.0194598 0.0166109 0.0262176 0.0143678
threshold=-13.388899999999998 4.6270000000000016 -13.794199999999998 2.5140300000000008e-06 0.0020372800000000003 0.027469999999999221 0.2761725000000001 -1.104705e-05 -1.8649249999999997 -6.1678749999999996 -0.058960000000000005 7.7272000000000015e-05 4.8443000000000012e-06 0.077348000000000056 0.59721000000000013 0.0002933525000000001 -0.25176499999999996 -0.12496499999999998 -10.189349999999999 3.0695900000000012 -5.5547949999999988e-07 -1.8039399999999997 2.9436800000000002e-06 -2.1597749999999993 -0.22452634999999985 0.46240350000000002 6.5238050000000013e-06 2.1189900000000004e-07 -0.68744999999999989 0.51323350000000023
decision_type=2 2 2 2 2 2 2 2 2 2 2 2 2 2 2 2 2 2 2 2 2 2 2 2 2 2 2 2 2 2
left_child=1 2 3 -1 5 -4 7 -7 -9 10 -10 -11 16 14 15 -14 21 22 -19 20 -20 -6 23 -18 27 -15 -23 29 -29 -25
right_child=-2 -3 4 -5 12 6 -8 8 9 11 -12 -13 13 25 -16 -17 17 18 19 -21 -22 26 -24 24 -26 -27 -28 28 -30 -31
leaf_value=-0.00077723862104383959 -7.4029796588649087e-07 0.0015678637160947671 -4.6062635456711103e-05 0.0027212484403618523 0.0026134949460392821 0.0077720130579837137 -2.8033513222482918e-05 0.0042769127997598841 -9.4526060750537843e-05 0.00029482950186440646 0.0028878607742954046 -0.0021230488505049531 0.0068105852955745328 -0.0015046422434453336 -0.00021907480323924184 0.00047488021652679894 -0.0018698139164674407 0.00047227720823138955 -0.0068965480511126642 -0.00071832726561379707 -0.0024647101352456959 4.08354589300937e-05 -0.002316894172690809 0.0010354564116278199 0.001468638887252802 -6.0479292732080975e-05 -0.0009223149821832124 -0.00023098949974427539 -0.0018528443530216937 -4.1027338870343961e-05
leaf_weight=35 214135 28 1044 31 25 20 357 20 26 53 25 24 27 27 112 25 24 25 21 22 20 656 20 35 26 284 57 127 31 271
leaf_count=35 214135 28 1044 31 25 20 357 20 26 53 25 24 27 27 112 25 24 25 21 22 20 656 20 35 26 284 57 127 31 271
internal_value=0 4.53184e-05 3.30327e-05 0.00086599 1.68825e-05 0.000138491 0.00050549 0.00163923 0.000810472 0.000268841 0.00136743 -0.000458795 -8.70979e-05 0.000238779 0.00104403 0.00376457 -0.000200915 -0.000502891 -0.00225134 -0.00333214 -0.00473468 5.35955e-05 -0.000214757 -0.000132961 -4.78912e-05 -0.000185857 -3.61625e-05 -0.000132869 -0.000549202 8.20999e-05
internal_weight=0 3498 3470 66 3404 1569 525 168 148 128 51 77 1835 475 164 52 1360 622 88 63 41 738 534 514 490 311 713 464 158 306
internal_count=217633 3498 3470 66 3404 1569 525 168 148 128 51 77 1835 475 164 52 1360 622 88 63 41 738 534 514 490 311 713 464 158 306
shrinkage=0.05


Tree=415
num_leaves=31
num_cat=0
split_feature=17 2 17 19 14 2 26 26 7 2 9 16 3 2 4 2 33 18 0 1 8 2 1 4 0 10 36 4 2 0
split_gain=0.00289178 0.0341912 0.114498 0.0175292 0.0170606 0.0165131 0.0418817 0.0116301 0.0256623 0.0351307 0.118687 0.0308246 0.0445783 0.0275204 0.037277 0.0212915 0.0594396 0.0203555 0.293699 0.0370102 0.024383 0.0500624 0.0201582 0.0414273 0.0165619 0.0149409 0.0132126 0.0476432 0.0124847 0.0120612
threshold=-10.268199999999998 3.0333000000000006 -10.617499999999998 2.8297800000000004 2.3833200000000002e-07 2.9891800000000006 0.16279950000000001 0.70424300000000006 -4.6142999999999988e-05 -2.6524249999999996 -6.2059949999999982e-05 0.0078562650000000029 -9.2417599999999975 -2.1751149999999995 -0.088954349999999988 -3.0487399999999996 -9.0156449999999981e-08 -6.9314949999999991 -11.801599999999999 -12.640099999999999 1.5224150000000001e-05 -1.2990149999999998 -4.5317299999999987 -0.29052249999999996 -10.244649999999998 -6.0913899999999993e-05 0.60008550000000016 0.49902250000000004 -2.7519549999999997 -7.2224499999999994
decision_type=2 2 2 2 2 2 2 2 2 2 2 2 2 2 2 2 2 2 2 2 2 2 2 2 2 2 2 2 2 2
left_child=1 5 3 -3 -5 7 -7 15 11 10 -10 12 -9 14 -11 16 -1 18 -17 -20 21 -21 23 -22 -15 -26 27 -24 -14 -27
right_child=-2 2 -4 4 -6 6 -8 8 9 13 -12 -13 28 24 -16 17 -18 -19 19 20 22 -23 26 -25 25 29 -28 -29 -30 -31
leaf_value=0.0031852324167266489 -1.4545358823521732e-06 -0.00026393361861260526 0.0036522474972506256 7.3912831838242717e-05 0.0020331552876450588 -2.3994808752638377e-05 -0.0021182451759159449 -0.0032231354697917903 0.0040717302300479442 -0.002859075352760209 -0.0010270988289266824 0.00079281222692225133 -0.001718288795451545 0.0012765055522322656 -0.00013071473937499481 0.0052171573958636648 0.00019676283841133662 1.0704157611755581e-05 0.0019928816399594025 0.0028419449858946878 -0.0021678779009534715 -0.00020186756902798413 -1.7637473577981007e-05 -0.00016928550833631751 -0.0013130415873699045 -0.0010288858376831438 -8.0079895697178038e-05 0.0027632128819823267 -0.00031857940431853589 -6.137164673112926e-06
leaf_weight=20 204602 90 28 25 20 94 32 21 21 21 25 25 21 23 31 29 99 10934 24 22 33 35 67 121 24 30 293 20 66 737
leaf_count=20 204602 90 28 25 20 94 32 21 21 21 25 25 21 23 31 29 99 10934 24 22 33 35 67 121 24 30 293 20 66 737
internal_value=0 2.28379e-05 0.000742453 0.00013894 0.000944687 1.37225e-05 -0.000555868 1.93549e-05 -0.000140462 -4.58409e-05 0.00130063 -0.000789292 -0.00115552 -0.000117362 -0.00123255 3.36328e-05 0.000699027 2.67938e-05 0.000299969 6.81011e-05 -1.00625e-05 0.000972937 -0.000114989 -0.000597555 -4.61217e-05 -8.45799e-05 8.05767e-05 0.000621638 -0.00065644 -4.61404e-05
internal_weight=0 13031 163 135 45 12868 126 12742 1045 912 46 133 108 866 52 11697 119 11578 644 615 591 57 534 154 814 791 380 87 87 767
internal_count=217633 13031 163 135 45 12868 126 12742 1045 912 46 133 108 866 52 11697 119 11578 644 615 591 57 534 154 814 791 380 87 87 767
shrinkage=0.05


Tree=416
num_leaves=31
num_cat=0
split_feature=17 2 2 10 7 8 31 11 2 39 39 36 19 36 7 0 33 19 11 24 10 20 9 36 37 8 11 39 17 21
split_gain=0.00306888 0.0360298 0.0263594 0.0246454 0.0684445 0.221169 0.058066 0.187636 0.036635 0.0267739 0.0560963 0.0215771 0.0685747 0.0409954 0.0206615 0.0109861 0.0107912 0.00979331 0.00483303 0.00380234 0.0163835 0.0295559 0.0168298 0.0499092 0.129416 0.191275 0.127376 0.158425 0.0732139 0.0480017
threshold=-19.608449999999998 2.9401200000000007 -2.9738899999999995 4.6620650000000009e-05 -2.9834549999999997e-05 3.3048950000000005e-05 -0.93075499999999989 0.00036183850000000008 -2.5264449999999994 -3.7428349999999995 -4.7135349999999994 -0.25142799999999998 0.57270450000000006 0.46240350000000002 -2.4137799999999998e-05 -3.7117899999999997 6.9448750000000015e-05 -1.5001349999999998 0.00075811550000000013 29.419400000000007 -7.1201799999999986e-05 -15.0604 -7.4798149999999981e-05 0.80350500000000014 0.51323350000000023 2.3474250000000003e-05 0.0040917000000000011 1.2296250000000011 -11.277699999999998 1.1195950000000001
decision_type=2 2 2 2 2 2 2 2 2 2 2 2 2 2 2 2 2 2 2 2 2 2 2 2 2 2 2 2 2 2
left_child=1 2 -1 4 5 -4 -7 17 -5 10 16 12 -10 -13 -11 -14 -6 -8 -16 -2 21 -21 23 24 25 -22 27 -27 -28 -30
right_child=19 -3 3 8 9 6 7 -9 11 14 -12 13 15 -15 18 -17 -18 -19 -20 20 22 -23 -24 -25 -26 26 28 -29 29 -31
leaf_value=-0.0016718512115238065 7.2789206822023161e-07 0.0018916514546920855 0.0059825090109370651 -0.0021033104553890344 0.00091682769219914918 -0.0014166796239123869 0.00030656072571714918 0.0052474141446873547 0.0026797021284000952 -0.001560209721299963 0.0030280910929929763 -0.0026017553317138837 -0.0013158593905973248 -0.00016290505910774301 9.8399342782331048e-06 1.5047861367181043e-05 -0.00053908953218394478 -0.0011031482676376722 -0.0004292168468487856 -0.0020900559177859509 0.0049495778608081098 -0.00023329392817507397 -6.5301578141498492e-05 -0.00029001424775581272 -3.5721453360271273e-05 0.0056398954496835359 0.0021609492427766479 -0.00025100297643803059 -0.00013480992411496118 -0.0028551522996470642
leaf_weight=22 210901 27 21 26 20 32 22 20 25 26 21 21 20 96 256 69 35 28 83 26 34 122 4750 372 414 25 24 21 50 24
leaf_count=22 210901 27 21 26 20 32 22 20 25 26 21 21 20 96 256 69 35 28 83 26 34 122 4750 372 414 25 24 21 50 24
internal_value=0 9.37196e-05 3.61346e-05 8.19028e-05 0.000266827 0.00130978 0.000347752 0.00115435 -0.000323923 -2.4066e-05 0.000829715 -0.000123645 0.000365909 -0.000600647 -0.00020184 -0.000284032 -9.66509e-06 -0.000482876 -9.76577e-05 -3.76153e-07 -4.00971e-05 -0.000559482 -2.66444e-05 0.000163835 0.000449024 0.00157646 0.000780034 0.00295057 -0.000238789 -0.00101708
internal_weight=0 870 843 821 564 123 102 70 257 441 76 231 114 117 365 89 55 50 339 216763 5862 148 5714 964 592 178 144 46 98 74
internal_count=217633 870 843 821 564 123 102 70 257 441 76 231 114 117 365 89 55 50 339 216763 5862 148 5714 964 592 178 144 46 98 74
shrinkage=0.05


Tree=417
num_leaves=31
num_cat=0
split_feature=31 12 12 18 36 36 36 30 0 9 36 16 19 3 5 0 36 19 9 12 14 20 8 12 12 4 30 9 19 15
split_gain=0.00304464 0.0528348 0.163968 0.172613 0.133287 0.431529 0.398551 0.197145 0.188712 0.174944 0.105959 0.0500624 0.0293573 0.0373363 0.0971108 0.0258366 0.0387724 0.0236536 0.0248269 0.0217884 0.115439 0.0591178 0.0408019 0.0249676 0.0187711 0.037878 0.083411 0.0332051 0.163382 0.0286592
threshold=-0.27384599999999998 -3.9387549999999988e-06 -2.6163199999999997e-05 18.392150000000004 0.354709 -0.51801999999999981 -0.14969009999999991 1.1855600000000002 -4.3615599999999999 8.6507750000000016e-05 -0.32870999999999989 0.00017333600000000004 3.0251000000000006 -16.558299999999999 2.1286450000000004e-05 -7.750214999999999 0.80350500000000014 -3.0611199999999994 -3.1060299999999996e-06 -2.5159149999999997e-06 2.207875e-06 -9.205079999999997 3.7564000000000008e-05 -2.2530999999999997e-06 5.5700600000000008e-07 -0.54650249999999989 5.3516150000000016 -4.4153649999999994e-05 -2.2092599999999996 -6.7236599999999979e-05
decision_type=2 2 2 2 2 2 2 2 2 2 2 2 2 2 2 2 2 2 2 2 2 2 2 2 2 2 2 2 2 2
left_child=1 2 11 4 5 -4 10 -8 -9 -10 -7 -1 13 14 -13 -6 -17 18 -3 20 22 -22 -19 -21 25 26 -25 28 -27 -29
right_child=-2 17 3 -5 15 6 7 8 9 -11 -12 12 -14 -15 -16 16 -18 19 -20 23 21 -23 -24 24 -26 27 -28 29 -30 -31
leaf_value=0.0022438090524949739 -1.0078236737082173e-06 -0.0024345666785285133 -0.00025837330569231657 0.0052585635729053108 0.001349199979052752 0.005170736572472379 0.00608576117637789 0.0037635551508644533 -0.0042126777283847333 0.0019777256596301284 0.010317546995356679 -0.00040397547402028217 -0.0018601047669071704 -0.00021386377409250381 0.0039204202048131265 -0.0023769617559003605 -0.00015485460480432715 -0.0044545504543930291 -0.00017717243563624677 0.0014466168395552688 -0.00044898508825200331 0.0028181318913584621 -0.0012607329376623966 -0.00061233853008636058 -0.00015434544105886972 0.004441603887127713 0.0036940437469721397 -0.0017324850923311414 6.0446252716685669e-05 3.227810214599819e-06
leaf_weight=22 211491 21 164 23 22 20 21 29 25 21 20 37 25 753 20 23 134 20 29 29 45 20 20 23 1744 25 22 24 143 2618
leaf_count=22 211491 21 164 23 22 20 21 29 25 21 20 37 25 753 20 23 134 20 29 29 45 20 20 23 1744 25 22 24 143 2618
internal_value=0 3.4703e-05 0.000309819 0.00102741 0.000824245 0.00146851 0.00355092 0.00180374 0.000604779 -0.00138662 0.00774414 -0.000110522 -0.000172552 -0.000120467 0.00111336 -0.000255521 -0.000480386 -4.3466e-05 -0.00112528 -3.20376e-05 -0.000744261 0.000556282 -0.00285764 -1.58787e-05 -2.51008e-05 5.38493e-05 0.001493 3.08024e-05 0.000712404 -1.25395e-05
internal_weight=0 6142 1359 502 479 300 136 96 75 46 40 857 835 810 57 179 157 4783 50 4733 105 65 40 4628 4599 2855 45 2810 168 2642
internal_count=217633 6142 1359 502 479 300 136 96 75 46 40 857 835 810 57 179 157 4783 50 4733 105 65 40 4628 4599 2855 45 2810 168 2642
shrinkage=0.05


Tree=418
num_leaves=31
num_cat=0
split_feature=10 28 8 3 10 29 4 22 5 10 6 17 9 39 10 9 39 11 37 39 6 30 14 0 1 30 9 22 26 9
split_gain=0.00290471 0.0145647 0.0807411 0.0264368 0.0370291 0.0105208 0.0135136 0.0149706 0.0191112 0.00854149 0.00946928 0.00734024 0.0351208 0.15296 0.222576 0.0954044 0.0416167 0.0345396 0.0306448 0.0257669 0.0603539 0.0180158 0.015186 0.0309226 0.0103411 0.0086698 0.0112574 0.0076489 0.0237493 0.104376
threshold=0.00014699600000000001 20.036400000000004 2.0928800000000005e-05 -11.825449999999998 0.00035752750000000007 0.00091355850000000014 3.2200950000000002 87.628850000000014 1.4696900000000002e-05 0.00021504100000000004 3.8272700000000001e-07 -19.608449999999998 -3.9555399999999991e-05 1.9002500000000004 4.6620650000000009e-05 -5.2550399999999997e-05 -0.56159999999999977 0.0075758350000000004 4.6270000000000016 -3.7428349999999995 -1.4472899999999998e-06 2.6849000000000003 6.6737300000000016e-07 -10.244649999999998 7.4613150000000008 4.1501900000000012 -1.0199649999999998e-05 26.434800000000003 -0.58729449999999994 9.9230750000000009e-05
decision_type=2 2 2 2 2 2 2 2 2 2 2 2 2 2 2 2 2 2 2 2 2 2 2 2 2 2 2 2 2 2
left_child=11 5 -3 -4 -5 -2 7 9 -9 10 -7 12 13 15 -15 16 17 -1 19 20 -14 -22 23 -21 -24 -25 -27 28 29 -13
right_child=1 2 3 4 -6 6 -8 8 -10 -11 -12 27 18 14 -16 -17 -18 -19 -20 22 21 -23 24 25 -26 26 -28 -29 -30 -31
leaf_value=0.0004902819285210147 1.340172286911196e-05 0.003095807055477053 -0.0011409853794297354 0.002270521723455334 -0.00022414822384841197 0.0011164718525651551 0.00012552540048124718 -0.0024717557462281547 -0.0004480801938046041 -0.00049808294728184894 -0.00040371050334735105 8.421360673980296e-05 0.0032478707110567481 0.0057216822750389487 -0.00094516248652888916 0.0027551906775624959 -0.0030184078859054439 -0.0020887123845750467 -0.0019454283782397398 0.0020001744560431689 -0.00059657826943868334 0.0010748909514534586 -0.0003467239500818422 -0.00036259833736871852 -0.0015431736647986414 0.0013090492028277369 4.7176216508142642e-05 -6.1360990402970988e-05 -2.3504034548741545e-06 0.0024931824715577915
leaf_weight=37 36798 25 37 21 51 20 135 20 28 120 21 380 20 31 21 20 21 20 20 20 38 28 129 118 21 20 152 5492 173718 51
leaf_count=37 36798 25 37 21 51 20 135 20 28 120 21 380 20 31 21 20 21 20 20 20 38 28 129 118 21 20 152 5492 173718 51
internal_value=0 1.27061e-05 0.000533046 -5.47437e-05 0.000503464 1.08288e-05 -0.000264401 -0.000516267 -0.00129128 -0.000285208 0.000337842 -2.62607e-06 0.000157147 0.000837381 0.0030293 -0.000325679 -0.00111565 -0.000414628 -2.31264e-05 4.72876e-05 0.000841679 0.00011253 -0.000101229 9.86086e-05 -0.000514227 -3.25339e-05 0.000193906 -3.26289e-06 -1.43069e-06 0.000369266
internal_weight=0 37276 134 109 72 37142 344 209 48 161 41 180357 716 150 52 98 78 57 566 546 86 66 460 310 150 290 172 179641 174149 431
internal_count=217633 37276 134 109 72 37142 344 209 48 161 41 180357 716 150 52 98 78 57 566 546 86 66 460 310 150 290 172 179641 174149 431
shrinkage=0.05


Tree=419
num_leaves=31
num_cat=0
split_feature=31 12 12 18 36 36 37 30 17 35 1 2 3 5 0 36 2 7 12 15 17 4 8 21 2 10 34 14 12 14
split_gain=0.00285867 0.0474117 0.146817 0.156576 0.119811 0.38678 0.365464 0.173103 0.189264 0.158247 0.123519 0.0289034 0.0261451 0.0791945 0.0230184 0.0349732 0.0228741 0.0254797 0.0189507 0.028723 0.0969347 0.0603509 0.0512862 0.033732 0.0274305 0.0262645 0.0943837 0.0243934 0.0224498 0.0309529
threshold=-0.27384599999999998 -3.9387549999999988e-06 -2.6163199999999997e-05 18.392150000000004 0.354709 -0.51801999999999981 0.14791590000000002 1.1855600000000002 -6.2436999999999996 0.044881000000000004 1.3938950000000003 2.9632050000000003 -16.558299999999999 2.1286450000000004e-05 -7.750214999999999 0.80350500000000014 -2.7959499999999995 -4.9083349999999995e-05 5.5700600000000008e-07 -6.7236599999999979e-05 -0.8551494999999999 -0.48550749999999993 1.7656850000000004e-05 -1.4574199999999997 -2.9738899999999995 6.9697650000000012e-05 -0.16268899999999997 1.301295e-05 -2.5159149999999997e-06 2.207875e-06
decision_type=2 2 2 2 2 2 2 2 2 2 2 2 2 2 2 2 2 2 2 2 2 2 2 2 2 2 2 2 2 2
left_child=1 2 11 4 5 -4 7 -7 -9 -10 -8 12 13 -1 -6 -16 17 -14 19 20 22 -21 -3 -22 -20 27 -27 28 29 -23
right_child=-2 18 3 -5 14 6 10 8 9 -11 -12 -13 16 -15 15 -17 -18 -19 24 21 23 25 -24 -25 -26 26 -28 -29 -30 -31
leaf_value=-0.00038515130153108339 -9.7655878476046945e-07 0.0026756555208703506 -0.00024429616500927341 0.0050030760464521698 0.0012707143416429807 0.0057924282248131937 0.0099857416342101282 0.0047223959304392342 -0.0041209654437135102 0.0013162947947421345 0.0044953346764668818 -0.0016280758177526879 0.0023015251137985617 0.0035200106389675061 -0.0022574678744169195 -0.00014703762257367863 -0.00019015082358152171 -0.00016432050794140776 -0.0014992926691009319 0.002331501323903373 -0.004036182610052493 -0.0022495232370042337 -0.0008621802937731056 -0.0012285118616368299 -0.00014124289756356519 0.0036843780904415656 -0.00041143116880751525 0.0017571998009225356 2.6659542696194221e-05 -3.3490587993583178e-05
leaf_weight=37 211491 20 164 23 22 20 21 20 23 32 20 30 20 20 23 134 728 22 38 29 20 26 21 23 1729 22 39 20 2756 40
leaf_count=37 211491 20 164 23 22 20 21 20 23 32 20 30 20 20 23 134 728 22 38 29 20 26 21 23 1729 22 39 20 2756 40
internal_value=0 3.36264e-05 0.000294241 0.000973267 0.000779769 0.00139059 0.00336208 0.00165932 0.000557162 -0.000957469 0.00730749 -0.000103509 -4.8204e-05 0.000985081 -0.000243961 -0.000456209 -0.000124694 0.00100989 -4.04223e-05 3.57568e-05 -0.000875858 6.1874e-05 0.000863593 -0.00253441 -0.000170448 3.92012e-05 0.00106575 1.71677e-05 4.83574e-06 -0.000906473
internal_weight=0 6142 1359 502 479 300 136 95 75 55 41 857 827 57 179 157 770 42 4783 3016 84 2932 41 43 1767 2903 61 2842 2822 66
internal_count=217633 6142 1359 502 479 300 136 95 75 55 41 857 827 57 179 157 770 42 4783 3016 84 2932 41 43 1767 2903 61 2842 2822 66
shrinkage=0.05


Tree=420
num_leaves=31
num_cat=0
split_feature=40 3 34 5 4 8 30 17 36 2 18 36 36 27 37 39 36 34 13 30 2 32 32 13 20 39 13 18 1 2
split_gain=0.00287752 0.01051 0.0607461 0.116618 0.104239 0.0519419 0.092348 0.039305 0.0578026 0.130234 0.0414439 0.0356286 0.371274 0.0916418 0.0559301 0.0868619 0.0295864 0.0276126 0.0187093 0.0104084 0.0225099 0.0880177 0.014946 0.0457833 0.0601548 0.103505 0.0785318 0.080954 0.195237 0.088388
threshold=-3.2113799999999997 -13.353949999999999 -1.0090899999999998 1.4208050000000002e-05 0.12649250000000004 5.8844850000000006e-05 3.5771350000000006 6.4251500000000012 0.056773999999999998 -0.87238249999999995 8.8284250000000011 0.14973499999999998 -0.10081500000000009 0.0017982300000000003 -0.25176499999999996 9.5801650000000027 -0.19934349999999995 0.6802760000000001 1.4860450000000004e-07 0.20270750000000001 3.0794900000000003 -0.0036820849999999994 0.010705600000000001 -1.1598249999999999e-07 -13.887899999999998 -2.7863399999999992 7.0201950000000013e-05 5.8567400000000012 0.80539150000000015 1.1973950000000002
decision_type=2 2 2 2 2 2 2 2 2 2 2 2 2 2 2 2 2 2 2 2 2 2 2 2 2 2 2 2 2 2
left_child=1 2 3 18 -5 7 -7 10 9 -9 11 12 16 -14 15 17 -4 -13 -1 -2 22 -22 -21 -24 25 -25 27 29 -29 -27
right_child=19 -3 5 4 -6 6 -8 8 -10 -11 -12 14 13 -15 -16 -17 -18 -19 -20 20 21 -23 23 24 -26 26 -28 28 -30 -31
leaf_value=0.00029574058091384357 2.0096349730225564e-06 1.1400432298409713e-05 -0.0001147255584088713 0.0003522146829969383 0.0051758707256036969 -0.00017617077801206608 -0.0044136882898601478 -0.00057444820581405934 -0.00056343853545566915 0.0049940361070357972 0.0018588048376538308 -9.9091650569823914e-05 -0.0025457484476646645 -0.0071142056425426 0.0026284047856461258 0.0031844416309286319 -0.0020700373876024968 -0.0019035308539142452 -0.0018669703332125209 -7.4549209228805878e-05 0.0031775527056127507 -0.00044805514511647335 -0.00011595007097061304 0.0030786222158176793 3.8016093524201753e-05 0.00083177653432142153 -0.00064314169285869301 -0.00045099358473883267 0.0063747344623334354 -0.0011093442873561159
leaf_weight=20 123874 67375 592 21 24 36 20 21 34 21 24 584 21 23 20 20 20 22 20 12489 26 47 4870 38 6780 337 141 22 20 71
leaf_count=20 123874 67375 592 21 24 36 20 21 34 21 24 584 21 23 20 20 20 22 20 12489 26 47 4870 38 6780 337 141 22 20 71
internal_value=0 8.44556e-06 -0.000120579 0.00117874 0.00292483 -0.000196328 -0.00168957 -0.000136683 0.000969137 0.00220979 -0.000200064 -0.000238015 -0.00049757 -0.00493381 2.55569e-05 -5.76012e-05 -0.000178625 -0.000164599 -0.000785615 -3.91387e-06 -3.34524e-05 0.000843257 -3.60364e-05 3.13503e-06 8.14107e-05 0.000549162 0.000386523 0.000709151 0.00279935 0.000493983
internal_weight=0 68918 1543 85 45 1458 56 1402 76 42 1326 1302 656 44 646 626 612 606 40 148715 24841 73 24768 12279 7409 629 591 450 42 408
internal_count=217633 68918 1543 85 45 1458 56 1402 76 42 1326 1302 656 44 646 626 612 606 40 148715 24841 73 24768 12279 7409 629 591 450 42 408
shrinkage=0.05


Tree=421
num_leaves=31
num_cat=0
split_feature=9 21 5 17 9 17 16 26 4 15 29 0 26 5 10 4 26 3 32 3 22 14 4 6 9 29 3 33 26 22
split_gain=0.00290272 0.0123077 0.10072 0.0417938 0.0232656 0.0165762 0.0328463 0.0193926 0.0709646 0.11884 0.1129 0.0504337 0.0105129 0.0503309 0.0467713 0.0338527 0.0134117 0.112206 0.0341938 0.0245266 0.0220314 0.0127247 0.0305152 0.00962601 0.00878687 0.0480255 0.0832828 0.0339323 0.0143104 0.0475947
threshold=-0.000119502 -2.2419299999999995 1.7003450000000004e-05 -9.7539799999999968 -0.00040717649999999999 -19.608449999999998 0.0028249700000000004 1.0482150000000001 5.566250000000001 7.6735600000000018e-05 3.1155900000000011e-05 -5.1561799999999991 0.70424300000000006 1.8904150000000004e-05 0.00011169250000000001 -1.2205099999999998 0.41922450000000006 -16.870699999999996 -0.96073299999999995 -13.799749999999998 21.272000000000002 -7.6164049999999991e-06 1.6690850000000002 1.7355800000000002e-06 -0.00010809399999999999 -0.00012302899999999995 -11.150049999999998 -4.2848749999999994e-06 0.0050660950000000005 0.26482700000000009
decision_type=2 2 2 2 2 2 2 2 2 2 2 2 2 2 2 2 2 2 2 2 2 2 2 2 2 2 2 2 2 2
left_child=1 2 -1 -4 -5 6 -3 12 9 11 -11 -9 16 15 -15 -14 -7 -18 -19 20 -20 -21 -23 -8 25 26 -2 -27 -29 -30
right_child=24 5 3 4 -6 7 23 8 -10 10 -12 -13 13 14 -16 -17 17 18 19 21 -22 22 -24 -25 -26 27 -28 28 29 -31
leaf_value=0.0026860275422222915 -0.003866921087208776 -0.0018123280918508821 -0.0016412516322303326 -0.00049022290503754372 0.0018660498465760613 1.1049027159779593e-05 -0.00036938513082934027 0.0013864518162985664 -0.001683982254110527 0.0053882445581257344 0.0003481465333607048 -0.0014429210866284039 -0.00071238075564906468 -0.0031531632770262757 -0.00025225167644913948 0.0021003108643724219 0.0038791576444747902 0.0018923229588174518 -0.0024499092910264153 -0.00047018215259763221 -0.00018084884840114366 0.0022259013535222039 -2.9284716232117112e-05 0.00093660322461454652 -1.1758473231168059e-06 0.0015480590792549265 -3.5511960182653594e-05 8.898399380657942e-07 -0.0017520099513463859 -0.0001524374277855662
leaf_weight=37 23 37 39 22 20 27070 43 28 27 25 20 36 20 24 33 23 21 22 20 52 23 20 60 21 188160 32 37 1146 52 440
leaf_count=37 23 37 39 22 20 27070 43 28 27 25 20 36 20 24 33 23 21 22 20 52 23 20 60 21 188160 32 37 1146 52 440
internal_value=0 1.51072e-05 0.000524664 -0.000462626 0.000631812 1.29307e-05 -0.000626446 1.52769e-05 0.00061086 0.00117931 0.0031482 -0.00020507 1.23194e-05 -0.000499407 -0.00147369 0.000792082 1.41947e-05 0.000404804 3.4441e-05 -0.000199121 -0.00123623 0.000138723 0.000534512 5.91423e-05 -2.20717e-06 -0.000114377 -0.00150422 -6.44427e-05 -9.59446e-05 -0.000321498
internal_weight=0 27743 118 81 42 27625 101 27524 136 109 45 64 27388 100 57 43 27288 218 197 175 43 132 80 64 189890 1730 60 1670 1638 492
internal_count=217633 27743 118 81 42 27625 101 27524 136 109 45 64 27388 100 57 43 27288 218 197 175 43 132 80 64 189890 1730 60 1670 1638 492
shrinkage=0.05


Tree=422
num_leaves=31
num_cat=0
split_feature=19 2 2 2 20 2 36 5 20 26 17 31 12 37 36 12 10 20 27 36 37 39 39 31 40 11 36 27 15 37
split_gain=0.00280075 0.0749173 0.0235262 0.00874805 0.00504941 0.00454652 0.0533317 0.0177646 0.0301517 0.0115156 0.0139378 0.00307911 0.0435804 0.0523723 0.322309 0.273215 0.326124 0.3066 0.278033 0.25475 0.447579 0.284724 0.225961 0.277136 0.465102 0.322516 0.296531 0.396478 0.72416 0.33179
threshold=-3.0951399999999993 3.0333000000000006 -3.0231799999999995 2.9401200000000007 -20.320949999999996 3.0794900000000003 0.016888500000000004 5.8886400000000006e-05 -8.326019999999998 0.027036700000000004 -6.9945499999999994 1.8741500000000003e-05 -3.0013349999999998e-08 0.17390849999999994 0.14973499999999998 7.2144500000000009e-06 4.1067850000000004e-05 -10.954249999999998 0.008423845000000001 -0.018010000000000078 -0.057539999999999918 0.68409500000000023 1.1470050000000007 0.0030676250000000005 -0.81248999999999982 7.3840400000000026e-05 -0.040859549999999939 0.0010772700000000002 7.6262450000000016e-07 -0.057539999999999918
decision_type=2 2 2 2 2 2 2 2 2 2 2 2 2 2 2 2 2 2 2 2 2 2 2 2 2 2 2 2 2 2
left_child=1 2 -1 4 -4 11 -7 9 -9 -8 -11 -2 -13 14 15 16 18 19 22 21 -21 -18 23 -14 -25 -26 27 28 -27 -28
right_child=5 -3 3 -5 -6 6 7 8 -10 10 -12 12 13 -15 -16 -17 17 -19 -20 20 -22 -23 -24 24 25 26 29 -29 -30 -31
leaf_value=0.0013235189070281411 -5.9619015695011425e-06 0.0026285258843407582 -0.00081008893670514231 0.00082731612778696876 -1.079340952116343e-05 -0.002492089301813394 -3.673634159759002e-05 -9.3857307459102509e-05 0.0023664638765831117 -0.0014198645222599487 -0.00016435663794860981 -2.9606990967753908e-05 0.00046427457008047299 -1.0626911403050841e-05 -6.4210778298521009e-07 -0.00028691063601755761 0.0035155005304135776 0.00031478936802217659 -0.0012365684447760705 0.0067633335855478774 0.00058452632905277985 0.010083603154370478 -0.00014164617402403039 0.0068746672438768051 -0.004987854559440166 0.0012358024002700721 0.0035500253833221232 0.0018631470424907094 0.01407802033105067 0.00037594362059118874
leaf_weight=34 109118 28 20 31 1640 23 636 33 20 35 60 47443 2137 30389 22492 1094 66 187 230 37 141 22 898 39 20 23 99 128 21 489
leaf_count=34 109118 28 20 31 1640 23 636 33 20 35 60 47443 2137 30389 22492 1094 66 187 230 37 141 22 898 39 20 23 99 128 21 489
internal_value=0 6.29448e-05 2.13006e-05 -4.88242e-06 -2.04235e-05 -5.11128e-07 -0.000118968 -4.93482e-05 0.000834566 -0.000113435 -0.000626912 -6.66526e-08 6.00458e-06 3.48793e-05 8.40522e-05 0.000422348 0.000593371 0.0018662 0.000452188 0.00295686 0.00186889 0.00515753 0.00055297 0.000763986 0.00154602 0.00127959 0.00144452 0.00327061 0.00736504 0.000910355
internal_weight=0 1753 1725 1691 1660 215880 807 784 53 731 95 215073 105955 58512 28123 5631 4537 453 4084 266 178 88 3854 2956 819 780 760 172 44 588
internal_count=217633 1753 1725 1691 1660 215880 807 784 53 731 95 215073 105955 58512 28123 5631 4537 453 4084 266 178 88 3854 2956 819 780 760 172 44 588
shrinkage=0.05


Tree=423
num_leaves=31
num_cat=0
split_feature=38 2 18 39 34 39 18 37 20 28 16 16 30 30 4 39 19 27 38 38 13 2 5 5 4 8 23 14 31 37
split_gain=0.00325417 0.0308654 0.0926489 0.194582 0.0840276 0.384825 0.083287 0.140277 0.079811 0.107771 0.169459 0.128549 0.0493111 0.0330069 0.0508266 0.0342453 0.0275282 0.0750072 0.0225055 0.0486061 0.0806438 0.271753 0.133982 0.125254 0.118405 0.104318 0.096769 0.186177 0.0993256 0.108828
threshold=-0.40968649999999995 -2.9192849999999999 0.77184100000000011 0.43278000000000022 -0.0083346849999999997 1.1890849999999997 -2.0281699999999994 -0.016969000000000036 -9.709209999999997 0.0052994200000000009 1.0077000000000001e-08 1.8317000000000004e-07 0.062021250000000007 0.080091700000000016 0.36048500000000006 0.97785500000000003 3.1185250000000004 0.0011742500000000002 -0.018010000000000078 0.010257000000000018 -1.3727349999999997e-06 2.9891800000000006 3.7492450000000011e-05 4.8105150000000005e-05 0.30910700000000008 5.6008650000000008e-05 0.00011948200000000001 3.8906650000000017e-06 0.00061983350000000003 0.0053949999999999285
decision_type=2 2 2 2 2 2 2 2 2 2 2 2 2 2 2 2 2 2 2 2 2 2 2 2 2 2 2 2 2 2
left_child=-1 2 4 -4 5 -2 7 12 13 -10 -11 -12 -6 15 -15 -8 18 -18 -3 20 21 22 26 -24 -22 -26 28 -28 29 -20
right_child=1 16 3 -5 6 -7 8 -9 9 10 11 -13 -14 14 -16 -17 17 -19 19 -21 24 -23 23 -25 25 -27 27 -29 -30 -31
leaf_value=7.1432514693904253e-06 -0.00702724324259907 -6.2462457976644061e-05 0.0052683761039092631 -0.00084008763958536297 0.0013606840501200748 0.0010949481276929874 0.0017469562554891271 -0.00016996237533340456 -3.2707137298067938e-06 -0.0058873477723581941 0.00098831200236872987 -0.003339347916944708 0.0047910529150976804 1.378517681000484e-05 -0.0026961768826974249 -0.00039006176627259955 0.00029715508611415694 -0.0035617487053968945 0.00019540298181757528 -1.9320839239952395e-06 0.00032865761215044513 -0.0059671503026038413 0.005191724054540308 0.00033277082096800671 -0.00044358386015105043 -0.0036620253316178952 -0.00068144671034436519 -0.0060320055699862899 0.0011785164853790775 -0.0018206341221626975
leaf_weight=92022 25 14075 22 32 22 35 38 211 61 29 32 37 20 62 24 37 34 20 171 106574 3439 21 21 36 191 29 72 21 110 110
leaf_count=92022 25 14075 22 32 22 35 38 211 61 29 32 37 20 62 24 37 34 20 171 106574 3439 21 21 36 191 29 72 21 110 110
internal_value=0 -5.23311e-06 -0.000339456 0.00164855 -0.000509049 -0.0022893 -0.000322635 0.000355312 -0.000858637 -0.00165322 -0.00268023 -0.00133232 0.00299419 -7.39224e-05 -0.000742483 0.000692694 -3.3951e-06 -0.00113207 -2.90701e-06 4.6587e-06 0.000171066 -0.000386583 -0.000169962 0.00212291 0.000256718 -0.000867833 -0.00043999 -0.00188964 -9.51893e-05 -0.000593793
internal_weight=0 125611 687 54 633 60 573 253 320 159 98 69 42 161 86 75 124924 54 124870 110795 4221 562 541 57 3659 220 484 93 391 281
internal_count=217633 125611 687 54 633 60 573 253 320 159 98 69 42 161 86 75 124924 54 124870 110795 4221 562 541 57 3659 220 484 93 391 281
shrinkage=0.05


Tree=424
num_leaves=31
num_cat=0
split_feature=38 37 0 17 2 28 28 39 17 29 4 0 38 20 18 40 1 4 18 11 32 17 19 18 32 18 32 18 18 12
split_gain=0.00333812 0.0371656 0.0631085 0.143114 0.512384 0.426162 0.155367 0.17889 0.142741 0.176633 0.136154 0.134382 0.197828 0.160098 0.127029 0.23622 0.455982 0.201804 0.198789 0.312681 0.191136 0.172842 0.968182 0.725453 0.210088 0.17848 0.364872 0.433303 0.248581 0.236249
threshold=0.24966499999999994 -0.016969000000000036 2.8590650000000006 4.023365000000001 -1.2057699999999998 1.7034250000000002 1.3481400000000001 1.8568299999999998 -2.9298699999999998 0.00023007250000000004 0.092842600000000011 3.2402550000000008 0.056773999999999998 -11.970249999999998 6.0533600000000005 -0.13697500000000049 5.6580450000000004 -0.084020649999999988 6.2342700000000013 0.0029601150000000006 -0.09986109999999998 -4.2474399999999992 -2.1850249999999996 -5.8485049999999994 0.00057969850000000008 -4.0190399999999995 0.041913150000000003 2.6109550000000001 -2.1347299999999998 -2.3552749999999996e-08
decision_type=2 2 2 2 2 2 2 2 2 2 2 2 2 2 2 2 2 2 2 2 2 2 2 2 2 2 2 2 2 2
left_child=1 2 3 6 5 -5 14 8 9 10 -8 12 13 -4 15 -1 20 -18 19 -16 -17 -22 23 -23 -25 -24 27 28 -27 -29
right_child=-2 -3 11 4 -6 -7 7 -9 -10 -11 -12 -13 -14 -15 18 16 17 -19 -20 -21 21 22 25 24 -26 26 -28 29 -30 -31
leaf_value=-0.00019673538708108243 6.9401309338013534e-06 2.5110069657887409e-06 -0.0012034249196731254 0.0094885928335535375 -0.00021958375869040279 0.0013933578817601744 -0.008833247197326274 2.0521754869453921e-05 -0.00068363770495183894 -0.00055304027717703813 -0.0035417994574433371 -0.00019558335830371964 -0.00046180199904228447 -0.0066634064600983606 -0.0069755590723592125 0.0047484391443431383 0.0071585029420997252 0.0021656329827383163 -0.00028771924180267725 0.0012099813103122869 -0.00013023936068322974 0.014347869253688259 -0.00018657211877795788 0.00049039094047921322 0.0064109973697762564 0.0028126922919182108 -0.0039445549463077139 -0.00078081829291697818 0.010434516437817365 0.0048463550082837731
leaf_weight=2089 96465 111756 25 29 175 37 20 150 62 26 31 3561 114 29 28 25 34 50 1286 20 881 20 501 31 29 20 24 66 23 26
leaf_count=2089 96465 111756 25 29 175 37 20 150 62 26 31 3561 114 29 28 25 34 50 1286 20 881 20 501 31 29 20 24 66 23 26
internal_value=0 -5.52522e-06 -0.000100946 3.93143e-06 0.00119625 0.00495036 -4.88706e-05 -0.00117698 -0.00246925 -0.00390701 -0.00561688 -0.000260778 -0.00164268 -0.00413564 1.4398e-05 0.00016112 0.000593235 0.00418656 -0.000405639 -0.00356492 0.000409858 0.000342945 0.000906291 0.00610098 0.00335202 0.000276632 0.00173616 0.00274607 0.00688948 0.00080947
internal_weight=0 121168 9412 5683 241 66 5442 289 139 77 51 3729 168 54 5153 3819 1730 84 1334 48 1646 1621 740 80 60 660 159 135 43 92
internal_count=217633 121168 9412 5683 241 66 5442 289 139 77 51 3729 168 54 5153 3819 1730 84 1334 48 1646 1621 740 80 60 660 159 135 43 92
shrinkage=0.05


Tree=425
num_leaves=31
num_cat=0
split_feature=40 3 21 3 0 4 18 17 24 28 18 1 36 37 36 3 31 37 18 40 3 18 21 11 20 36 36 22 5 11
split_gain=0.00322538 0.009633 0.056005 0.135343 0.060805 0.0522211 0.0361284 0.0335398 0.0449174 0.035308 0.0566635 0.0307741 0.0211524 0.323009 0.125708 0.0378011 0.0199877 0.00952009 0.328057 0.00963237 0.0257464 0.0844184 0.0330426 0.0226053 0.125491 0.038753 0.360066 0.384123 0.267601 0.300083
threshold=-3.2113799999999997 -13.353949999999999 1.0406250000000001 -16.722199999999997 3.9279950000000006 0.12649250000000004 8.8284250000000011 -11.463149999999997 53.953100000000013 5.9680600000000004 -6.7912899999999992 -1.4776249999999997 -0.25142799999999998 -0.10141500000000002 -0.011175000000000155 -14.176449999999997 -0.35970249999999998 5.6849350000000003 -3.7462599999999999 0.81788000000000027 -18.627349999999996 3.9993550000000009 0.25201650000000003 0.0016273450000000003 -17.067199999999996 -0.14969009999999991 0.10022550000000004 2.3108700000000004 8.7409800000000018e-06 0.0022103100000000005
decision_type=2 2 2 2 2 2 2 2 2 2 2 2 2 2 2 2 2 2 2 2 2 2 2 2 2 2 2 2 2 2
left_child=1 2 6 -4 5 -5 7 -1 9 10 -9 -11 16 -14 15 -15 -12 19 -19 20 21 22 -2 24 -22 -25 27 -27 -29 -30
right_child=17 -3 3 4 -6 -7 -8 8 -10 11 12 -13 13 14 -16 -17 -18 18 -20 -21 23 -23 -24 25 -26 26 -28 28 29 -31
leaf_value=-0.0020941621963478005 -0.00058875045404420238 1.1770375367910189e-05 0.0044434985345684587 -0.00028420693946399673 -0.0020183732032310218 0.0021463011269448684 0.0017567775822143355 0.0023137226073727522 0.0018912115760613233 -0.0030961604627373165 0.0015325884317280724 -0.00035566101862405917 -9.1902925254227499e-05 -0.0036961464952169499 -0.0070038458155024623 -0.00069269545434508478 -7.6444215894209426e-05 0.0057998880892992022 -6.0273605293141608e-05 8.6709694120932576e-06 0.0032324646429333402 0.0033672773225892649 0.0013950829376323871 1.2145672047725698e-05 -2.2352638657699882e-06 -0.00036353936379325216 -6.301913598380668e-07 0.0027240683524204154 -0.0052149313591684952 -0.0017086946255100582
leaf_weight=24 65 67375 22 51 25 39 23 22 25 20 20 21 636 22 21 20 552 25 534 69343 30 24 31 10564 55099 1670 10880 28 74 348
leaf_count=24 65 67375 22 51 25 39 23 22 25 20 20 21 636 22 21 20 552 25 534 69343 30 24 31 10564 55099 1670 10880 28 74 348
internal_value=0 8.94147e-06 -0.000114582 0.000850429 0.00016306 0.000769013 -0.000208613 -0.000241298 -0.000208577 -0.000247928 -0.000202122 -0.00169249 -0.000245669 -0.000430186 -0.00384524 -0.00226593 -2.01843e-05 -4.14369e-06 0.000201809 -4.92076e-06 -1.68793e-05 0.000714945 5.18624e-05 -1.79953e-05 -4.75011e-07 -5.89848e-05 -0.000116786 -0.000712909 -0.00200946 -0.00232353
internal_weight=0 68918 1543 137 115 90 1406 1383 1359 1334 1293 41 1271 699 63 42 572 148715 559 148156 78813 120 96 78693 55129 23564 13000 2120 450 422
internal_count=217633 68918 1543 137 115 90 1406 1383 1359 1334 1293 41 1271 699 63 42 572 148715 559 148156 78813 120 96 78693 55129 23564 13000 2120 450 422
shrinkage=0.05


Tree=426
num_leaves=31
num_cat=0
split_feature=10 28 39 6 0 16 29 4 22 5 3 10 16 25 16 36 1 10 36 28 16 36 17 9 39 10 9 39 7 2
split_gain=0.00313674 0.0121114 0.0656955 0.10445 0.012304 0.0115627 0.0095666 0.0123311 0.0150059 0.0166699 0.00945984 0.00745615 0.00890836 0.00725926 0.0539472 0.196989 0.00906854 0.00900826 0.00867671 0.00790055 0.0471793 0.116694 0.0069184 0.0328786 0.135157 0.19786 0.0847473 0.0371932 0.0321108 0.0294694
threshold=0.00014699600000000001 20.036400000000004 -0.5126099999999999 7.5851700000000007e-07 4.865495000000001 1.2683350000000002e-07 0.00091355850000000014 3.2200950000000002 87.628850000000014 1.4696900000000002e-05 -11.586999999999998 0.00021504100000000004 0.0011929550000000001 0.42036700000000005 0.0028249700000000004 -0.43704099999999996 4.6513400000000003 0.00027347750000000006 -1.4898784999999999 -2.4309499999999997 0.0016272200000000002 -0.68744999999999989 -19.608449999999998 -3.9555399999999991e-05 1.9002500000000004 4.6620650000000009e-05 -5.2550399999999997e-05 -0.56159999999999977 -3.9552949999999995e-05 -2.6029249999999995
decision_type=2 2 2 2 2 2 2 2 2 2 2 2 2 2 2 2 2 2 2 2 2 2 2 2 2 2 2 2 2 2
left_child=22 5 3 -3 10 -2 13 8 11 -10 -4 12 -8 19 15 18 17 -16 -15 20 21 -7 23 24 26 -26 27 28 -1 -25
right_child=1 2 4 -5 -6 6 7 -9 9 -11 -12 -13 -14 14 16 -17 -18 -19 -20 -21 -22 -23 -24 29 25 -27 -28 -29 -30 -31
leaf_value=0.00093128054991561493 0.00097673788037178793 -0.00019971140680591698 -0.0014432272148868915 0.0047408872237429027 0.00082210810825927199 1.8087564671458137e-06 -0.00040134797421463494 0.00011997377399960966 -0.0023737869903561661 -0.00046925354852444596 -0.00019517819289051528 -0.00046310599613207158 0.0010731227411451983 7.5573066242852081e-05 0.00080690194560080085 0.0042851573652920444 -0.00043093151450865786 -6.4364197212586472e-06 -0.0011348591130808927 1.3136502847628715e-05 -7.5619487331785995e-06 -0.0046210910030640663 -3.3471917645267385e-06 -0.0015745517675331312 0.0054094572604123144 -0.0008763297757555154 0.0026209663327972522 -0.0028260724713271932 -0.0014513963465428643 6.1802605983550735e-05
leaf_weight=26 31 23 22 20 20 43 21 135 20 27 49 120 20 57 38 35 115 327 20 35649 464 20 179641 29 31 21 20 21 31 537
leaf_count=26 31 23 22 20 20 43 21 135 20 27 49 120 20 57 38 35 115 327 20 35649 464 20 179641 29 31 21 20 21 31 537
internal_value=0 1.32038e-05 0.0004877 0.00209824 -0.000273325 1.14919e-05 1.06856e-05 -0.000252151 -0.000493674 -0.00127969 -0.000581898 -0.000264215 0.000317906 1.31376e-05 0.00018681 0.00117492 -4.37491e-05 7.82399e-05 -0.000238825 1.02955e-05 -0.000181884 -0.00146578 -2.72895e-06 0.000152386 0.000810547 0.00287097 -0.000282737 -0.00102728 -0.000364561 -2.20389e-05
internal_weight=0 37276 134 43 91 37142 37111 343 208 47 71 161 41 36768 592 112 480 365 77 36176 527 63 180357 716 150 52 98 78 57 566
internal_count=217633 37276 134 43 91 37142 37111 343 208 47 71 161 41 36768 592 112 480 365 77 36176 527 63 180357 716 150 52 98 78 57 566
shrinkage=0.05


Tree=427
num_leaves=31
num_cat=0
split_feature=3 17 18 2 2 37 12 14 15 18 1 35 12 17 7 18 16 13 1 18 23 14 5 36 27 4 15 30 40 36
split_gain=0.00297164 0.0190889 0.0873108 0.244856 0.0337105 0.161711 0.0114085 0.0120389 0.00946957 0.00773974 0.0649705 0.133756 0.0594747 0.00969373 0.132963 0.0137869 0.010681 0.00920094 0.00764593 0.0952125 0.154248 0.167312 0.181578 0.0760619 0.0224106 0.017008 0.0130719 0.0124792 0.00966633 0.0365782
threshold=-5.6511299999999993 -12.926599999999999 -9.1109899999999975 -1.0833449999999998 2.2570350000000006 -0.25176499999999996 1.4493050000000002e-06 -8.4992649999999986e-08 -4.0500549999999989e-08 -13.876599999999998 -8.8547249999999984 0.00077178350000000012 2.7206550000000005e-08 19.256550000000001 4.1341400000000004e-05 14.999250000000002 5.8709150000000007e-05 2.3057600000000002e-06 11.597950000000003 11.881850000000002 -4.6143649999999993e-05 1.0181200000000001e-07 2.2914500000000002e-05 -0.0054100000000001361 0.00061938400000000006 0.090019550000000018 1.3420800000000003e-07 0.0019604250000000004 -0.52047500000000058 0.10022550000000004
decision_type=2 2 2 2 2 2 2 2 2 2 2 2 2 2 2 2 2 2 2 2 2 2 2 2 2 2 2 2 2 2
left_child=18 2 3 -2 6 -6 7 -4 -5 10 11 -3 -13 -11 15 16 -15 -12 -1 27 25 23 -23 -22 -25 26 -21 -20 -29 -30
right_child=1 9 4 8 5 -7 -8 -9 -10 13 17 12 -14 14 -16 -17 -18 -19 19 20 21 22 -24 24 -26 -27 -28 28 29 -31
leaf_value=-9.8604698699222619e-07 0.0066320538637228317 0.0040423730037160103 0.00091691560782266842 -0.00074112040532307464 -0.00076546805625854952 0.0047017292720435457 -0.0010397549001694036 -0.00011503994568741405 0.00072742646415939645 4.8622538347857231e-06 -8.344011446226634e-05 0.0023956920832417729 -0.00074019480810050113 0.00031418411250342618 0.0034499244681293409 -0.0016822448087623343 -0.0010574262719852746 -0.0010156296076941848 0.0011063367591559656 0.00047863609322051231 -0.0025601601692206051 -0.0017992898449908049 -0.007779697023215704 0.00110830182772285 -0.0009469904639575231 -0.00071086262441461998 0.001956686856456578 1.4289974532580296e-05 -0.0010303937191136156 6.4334902279090158e-05
leaf_weight=181783 20 31 31 23 38 21 30 320 21 31183 225 21 54 40 28 20 22 30 25 52 37 30 22 36 21 21 21 3059 108 260
leaf_count=181783 20 31 31 23 38 21 30 320 21 31183 225 21 54 40 28 20 22 30 25 52 37 30 22 36 21 21 21 3059 108 260
internal_value=0 1.40315e-05 0.000319323 0.00204486 6.83352e-05 0.00118048 -0.000103887 -2.38986e-05 -4.0223e-05 9.1706e-06 0.000239362 0.00127974 0.000137854 6.51509e-06 0.000475063 -0.000540743 -0.000172516 -0.000193109 -2.43281e-06 -7.3667e-05 -0.00103664 -0.00205374 -0.00432946 -0.000794828 0.000351089 0.0005431 0.000903829 -6.71611e-06 -1.48358e-05 -0.000256944
internal_weight=0 32158 504 64 440 59 381 351 44 31654 361 106 75 31293 110 82 62 255 185475 3692 240 146 52 94 57 94 73 3452 3427 368
internal_count=217633 32158 504 64 440 59 381 351 44 31654 361 106 75 31293 110 82 62 255 185475 3692 240 146 52 94 57 94 73 3452 3427 368
shrinkage=0.05


Tree=428
num_leaves=31
num_cat=0
split_feature=8 36 33 2 39 25 36 26 12 16 28 16 3 32 33 16 36 18 1 32 13 5 20 32 10 36 36 2 11 36
split_gain=0.00289319 0.0130326 0.0125935 0.0525725 0.0845646 0.0329924 0.0512073 0.0534111 0.021237 0.0763139 0.0210827 0.0936921 0.03048 0.0425115 0.0353587 0.0279358 0.0329226 0.0276568 0.0607658 0.0233149 0.0592115 0.0151157 0.0362379 0.0575316 0.177372 0.0417488 0.331979 0.122951 0.0549766 0.0418249
threshold=1.6290050000000002e-05 5.2590600000000007 -4.8108399999999992e-07 2.2358750000000005 0.078545000000000101 -0.65584149999999986 0.38220950000000015 -0.44589049999999997 6.7475600000000015e-05 0.010726100000000001 3.7022150000000003 0.0010528750000000002 -17.495099999999997 -0.09986109999999998 -5.1594099999999997e-07 8.4675100000000012e-07 0.43531000000000003 -9.853489999999999 -7.8777949999999999 -0.96073299999999995 -4.4589499999999997e-08 7.8319400000000015e-06 -10.712249999999999 -0.020572749999999997 2.0892350000000003e-05 0.077348000000000056 -0.10081500000000009 1.4398750000000002 0.0022785850000000005 0.30085850000000008
decision_type=2 2 2 2 2 2 2 2 2 2 2 2 2 2 2 2 2 2 2 2 2 2 2 2 2 2 2 2 2 2
left_child=1 2 3 5 -5 6 7 -1 10 -10 12 15 13 -7 -15 -12 -17 18 -14 20 -19 22 23 24 -4 26 -25 28 -28 -27
right_child=-2 -3 21 4 -6 8 -8 -9 9 -11 11 -13 17 14 -16 16 -18 19 -20 -21 -22 -23 -24 25 -26 29 27 -29 -30 -31
leaf_value=-0.00057026649148957359 2.2780444495236843e-06 0.001083413809343862 -0.00020636921471062875 -0.0042145421259192515 0.00018766167856180499 -0.0020982874172324572 -6.1089073140118715e-05 -0.004180646688910202 0.0034269870313437425 -0.0001393803175596986 -0.0011249594120415981 0.0036162152268280762 -0.0026948124362470775 -0.0002123512113494637 -0.0023279172246735212 0.0022664330995758064 -0.00019831800844778108 0.0031212746340315792 -0.00014538744092533308 -3.285159254965017e-05 -0.00063771609156075028 -1.2806643877765425e-05 -3.4910296330702716e-05 -0.00012012178426613613 0.0057277388293005063 -0.0023039605925511014 0.0043471272028650027 0.0070653296820819382 0.00096283058810513471 1.4491862713863625e-05
leaf_weight=21 188240 27 34 20 24 38 63 20 20 60 38 21 31 332 21 20 42 20 95 3481 22 23148 1148 273 20 21 21 20 28 264
leaf_count=21 188240 27 34 20 24 38 63 20 20 60 38 21 31 332 21 20 42 20 95 3481 22 23148 1148 273 20 21 21 20 28 264
internal_value=0 -1.45892e-05 -1.55987e-05 -9.37091e-05 -0.00181334 -7.62951e-05 -0.000956126 -0.00233143 -5.47194e-05 0.000752212 -7.02336e-05 0.000580094 -8.97112e-05 -0.000509263 -0.000338206 -5.74915e-05 0.000596763 -4.47552e-05 -0.000772627 -1.87229e-05 0.00115228 -1.873e-06 0.000136504 0.000425467 0.00199145 0.000290598 0.000663048 0.00376167 0.00241324 -0.000156341
internal_weight=0 29393 29366 4389 44 4345 104 41 4241 80 4161 121 4040 391 353 100 62 3649 126 3523 42 24977 1829 681 54 627 342 69 49 285
internal_count=217633 29393 29366 4389 44 4345 104 41 4241 80 4161 121 4040 391 353 100 62 3649 126 3523 42 24977 1829 681 54 627 342 69 49 285
shrinkage=0.05


Tree=429
num_leaves=31
num_cat=0
split_feature=40 21 15 36 3 21 36 18 1 36 36 36 3 17 10 13 5 9 12 37 18 37 37 39 16 21 31 22 12 18
split_gain=0.00287314 0.0131404 0.0637572 0.0194378 0.0121851 0.111247 0.136164 0.0466856 0.0945131 0.0685015 0.0638881 0.190428 0.0112296 0.0235775 0.105607 0.2162 0.0477107 0.0402115 0.0298124 0.021445 0.546868 0.0214026 0.324634 0.252754 0.258663 0.417539 0.211204 0.434633 0.323786 0.200352
threshold=-2.4873949999999994 -2.2419299999999995 -0.00032340099999999991 0.38220950000000015 -15.732949999999999 0.91519300000000003 -0.14969009999999991 -0.69128549999999989 4.0157350000000003 -0.32870999999999989 0.46240350000000002 -0.22452634999999985 -7.4497099999999987 16.002400000000005 -1.7032199999999996e-05 9.7977450000000009e-08 8.6368500000000018e-06 8.6507750000000016e-05 -3.9387549999999988e-06 5.6849350000000003 -3.7462599999999999 -0.12554300000000002 -0.026150000000000003 1.06199 3.4128000000000006e-08 0.11179850000000001 0.0011868900000000001 5.3710200000000006 -8.3748499999999991e-08 11.074800000000002
decision_type=2 2 2 2 2 2 2 2 2 2 2 2 2 2 2 2 2 2 2 2 2 2 2 2 2 2 2 2 2 2
left_child=4 2 -2 -4 5 7 -7 10 9 -9 11 -1 19 21 15 -15 -16 18 -18 -3 -21 -14 23 24 25 -23 28 -28 -26 -30
right_child=1 12 3 -5 -6 6 -8 8 -10 -11 -12 -13 13 14 16 -17 17 -19 -20 20 -22 22 -24 -25 26 -27 27 -29 29 -31
leaf_value=-0.00023099426418568891 0.002692483165390933 2.1752742894263692e-06 -0.0012603322839519629 0.00046738895269344345 8.9066108727454178e-06 -0.0013038856682175285 0.0035951645888712236 -0.00015673747309582117 -0.0024238768584010275 0.0023282206657033663 -0.00039878301820363944 -0.0055542918472513397 1.0082594854672223e-05 -0.00033407549689635981 0.002394855567981722 0.0065247460853424854 -0.0020601392227862646 0.0020274612836146846 -0.00013636001123962948 0.0084249851293861869 -7.5225153722725032e-05 -0.0017673115908669738 -2.8290069985543241e-05 9.4856355829860914e-07 -0.00023984557859360245 -0.0092552131025827149 0.0037613459073995454 -0.0045703931605321881 -0.002879840032568541 -0.0082214318465308432
leaf_weight=42 26 102115 27 41 79731 23 37 96 33 39 102 28 15565 27 20 20 22 20 238 20 351 52 18300 295 134 29 49 23 107 21
leaf_count=42 26 102115 27 41 79731 23 37 96 33 39 102 28 15565 27 20 20 22 20 238 20 351 52 18300 295 134 29 49 23 107 21
internal_value=0 -4.38563e-06 0.00058658 -0.000218618 7.52559e-06 -0.000267751 0.0017172 -0.000618035 -2.52031e-05 0.000561139 -0.00119708 -0.00236031 -4.78991e-06 -2.92765e-05 0.00038082 0.00258457 3.55653e-05 -0.000132955 -0.000299141 3.55389e-06 0.000383007 -3.33923e-05 -6.89887e-05 -0.00111798 -0.00191337 -0.00444817 -0.00129864 0.00109982 -0.00195776 -0.00375619
internal_weight=0 137502 94 68 80131 400 60 340 168 135 172 70 137408 34922 347 47 300 280 260 102486 371 34575 19010 710 415 81 334 72 262 128
internal_count=217633 137502 94 68 80131 400 60 340 168 135 172 70 137408 34922 347 47 300 280 260 102486 371 34575 19010 710 415 81 334 72 262 128
shrinkage=0.05


Tree=430
num_leaves=31
num_cat=0
split_feature=18 1 31 36 36 4 14 12 39 14 29 0 6 6 0 33 6 7 36 23 13 6 19 6 36 36 36 33 36 17
split_gain=0.00282531 0.0266459 0.066868 0.196947 0.374671 0.0780606 0.0464258 0.0644143 0.0297133 0.0197611 0.0195766 0.0168945 0.0167374 0.0481698 0.0324632 0.0667514 0.024257 0.0840862 0.198686 0.0277703 0.128499 0.0550539 0.0215079 0.0286063 0.0394134 0.0214825 0.0166006 0.0399302 0.0345395 0.0152418
threshold=13.390900000000002 10.154350000000003 0.0080513700000000021 0.2761725000000001 -0.3819765 0.43776750000000003 1.6498650000000003e-07 -1.1433699999999999e-07 0.35261000000000037 7.4882450000000013e-08 1.2966450000000002e-06 0.26643300000000009 -5.5476599999999992e-06 -5.2628399999999992e-06 7.1107950000000004 3.3001550000000009e-05 -1.1060999999999997e-06 4.5854250000000009e-05 -0.60254799999999997 -0.00031763949999999994 2.1242850000000004e-06 -1.2331049999999998e-06 -0.54752699999999999 1.8865700000000001e-06 0.60008550000000016 0.1751400000000001 -0.27744100000000016 2.7091200000000009e-07 0.327845 -12.926599999999999
decision_type=2 2 2 2 2 2 2 2 2 2 2 2 2 2 2 2 2 2 2 2 2 2 2 2 2 2 2 2 2 2
left_child=-1 12 5 4 -4 6 7 -3 11 -10 -8 -9 14 -14 -2 -16 17 19 -19 20 -15 26 23 24 -18 -25 -21 -28 -29 -5
right_child=1 2 3 29 -6 -7 10 8 9 -11 -12 -13 13 16 15 -17 22 18 -20 21 -22 -23 -24 25 -26 -27 27 28 -30 -31
leaf_value=-7.0110582919382128e-07 -7.6561269509871845e-05 0.0029864862476070239 -0.00067468109133187685 0.00099531695770565436 0.0088876179109017069 -0.0030002154479734601 -0.00018691784530346924 0.00036452675480037357 0.00017234898494937993 -0.0016725469370396156 -0.0019358743025804871 0.0022471570334429004 0.0021413331073105199 -7.4911320573465358e-05 -0.00017620398163747573 -0.0033623889705631884 -0.0025801854701164892 -9.25222957473832e-05 0.0061230593654909172 -4.0385573418634516e-05 0.0033557162205189736 0.0020305571428190011 -2.2269157696764782e-05 0.0013797329833985053 -0.00038244232300534278 -0.00043144279356965853 0.00020424197628815088 -0.0030610592674347576 -0.00059720517299204166 -0.00064756579158711249
leaf_weight=214386 265 27 20 20 21 20 48 26 47 21 24 22 27 124 48 25 34 36 20 339 35 29 1669 22 51 64 57 25 33 48
leaf_count=214386 265 27 20 20 21 20 48 26 47 21 24 22 27 124 48 25 34 36 20 339 35 29 1669 22 51 64 57 25 33 48
internal_value=0 4.62911e-05 0.000462382 0.00148596 0.00422308 -1.23836e-05 0.000265554 0.000786903 0.000274932 -0.000397398 -0.000769903 0.0012274 -3.01485e-06 4.05669e-05 -0.000333746 -0.00126736 1.82183e-05 0.00026919 0.00212733 0.000107109 0.000680258 -8.15673e-05 -7.69871e-05 -0.000611047 -0.00126154 3.18812e-05 -0.000216483 -0.000735587 -0.00165921 -0.000164365
internal_weight=0 3247 344 109 41 235 215 143 116 68 72 48 2903 2565 338 73 2538 698 56 642 159 483 1840 171 85 86 454 115 58 68
internal_count=217633 3247 344 109 41 235 215 143 116 68 72 48 2903 2565 338 73 2538 698 56 642 159 483 1840 171 85 86 454 115 58 68
shrinkage=0.05


Tree=431
num_leaves=31
num_cat=0
split_feature=14 32 9 23 39 3 32 14 14 23 37 32 10 15 20 0 34 8 21 8 5 3 3 5 27 39 33 1 14 37
split_gain=0.00279953 0.0198334 0.0780051 0.0419475 0.0585351 0.0214809 0.0120898 0.0244087 0.0239216 0.0567554 0.021533 0.0159815 0.0615078 0.0168354 0.0142768 0.00811206 0.00823456 0.0138501 0.0221812 0.0648201 0.0479714 0.0959189 0.0519806 0.0143328 0.0139958 0.0134523 0.0166568 0.013446 0.0174899 0.0120646
threshold=2.5901300000000006e-05 -2.2564299999999995 0.00023337100000000004 -0.0016081899999999998 6.7593250000000014 -11.676349999999998 1.20103 4.7046700000000012e-05 8.0974050000000018e-05 -0.0048905699999999995 -0.81049899999999986 0.86690500000000015 -5.5913199999999999e-05 0.0036590750000000003 -18.251349999999999 14.717250000000002 -0.012723849999999998 1.4525850000000001e-05 1.2323400000000002 2.0397950000000003e-05 3.2063550000000006e-05 -11.042399999999999 -15.624449999999998 8.6368500000000018e-06 0.016485500000000004 -0.12174999999999957 -1.1844749999999999e-05 -0.98331399999999991 5.1692800000000001e-05 0.43359400000000009
decision_type=2 2 2 2 2 2 2 2 2 2 2 2 2 2 2 2 2 2 2 2 2 2 2 2 2 2 2 2 2 2
left_child=-1 2 3 5 -5 -2 11 10 9 -9 -8 15 -13 -14 -10 16 17 24 23 -20 22 -22 -21 -19 -3 26 -25 29 -29 -24
right_child=1 6 -4 4 -6 -7 7 8 14 -11 -12 12 13 -15 -16 -17 -18 18 19 20 21 -23 27 25 -26 -27 -28 28 -30 -31
leaf_value=-2.3194073931944273e-06 -0.0022231210595540082 -0.00033408793941735798 0.0026920536681941218 0.0030284976324765015 -0.00027091235531814876 -8.4786351710689541e-05 -0.00020224796661006458 0.0029808555688941854 -0.0012737643466607552 -0.00043549778413087608 -0.0019704779216327653 0.0031145736639155079 0.0011017005647033784 -0.00023753181623763195 -0.00013173742551035028 0.00095067542160113996 1.947825961218729e-05 0.0011761603026322768 0.0029295486931716925 -0.0022062012822910526 0.0041650338109684533 5.6058633241004173e-05 -0.001236459161513127 -0.0013747554083579417 -0.0017007292779769913 -9.3267387660058066e-06 -0.00021387783394632154 0.0017612115543505008 2.0939777147889672e-05 0.00014704772040204263
leaf_weight=186444 24 101 34 20 41 23 33 20 32 31 36 20 32 88 189 23 27791 22 23 30 20 49 26 32 23 1423 899 22 42 40
leaf_count=186444 24 101 34 20 41 23 33 20 32 31 36 20 32 88 189 23 27791 22 23 30 20 49 26 32 23 1423 899 22 42 40
internal_value=0 1.38651e-05 0.000603432 -5.40967e-05 0.000810861 -0.0011767 1.11686e-05 -0.000284908 -7.18461e-05 0.000904249 -0.0011248 1.44566e-05 0.000547451 0.000119597 -0.000297099 1.20154e-05 1.13086e-05 -7.1193e-05 -4.68278e-05 0.000399211 0.000145073 0.00124707 -0.000330162 -9.4135e-05 -0.000587578 -0.000106007 -0.000253779 0.00010277 0.000619158 -0.00039797
internal_weight=0 31189 142 108 61 47 31047 341 272 51 69 30706 140 120 221 30566 30543 2752 2628 252 229 69 160 2376 124 2354 931 130 64 66
internal_count=217633 31189 142 108 61 47 31047 341 272 51 69 30706 140 120 221 30566 30543 2752 2628 252 229 69 160 2376 124 2354 931 130 64 66
shrinkage=0.05


Tree=432
num_leaves=31
num_cat=0
split_feature=3 17 18 9 2 37 14 14 11 20 40 36 36 17 27 39 25 39 8 2 7 39 15 32 22 28 22 28 3 36
split_gain=0.00264463 0.0172242 0.0788081 0.234666 0.0299945 0.144865 0.0113612 0.0295139 0.00704484 0.0235674 0.0515234 0.062977 0.769131 0.441759 0.34425 0.520011 0.349993 0.305843 0.320165 0.121494 0.0697466 0.057188 0.0746307 0.101173 0.169826 0.0580103 0.0792424 0.0549951 0.0505607 0.0425804
threshold=-5.6511299999999993 -12.926599999999999 -9.1109899999999975 -3.1060299999999996e-06 2.2570350000000006 -0.25176499999999996 -2.7285799999999991e-07 2.4231800000000001e-08 0.00018327650000000005 -7.1062399999999988 -0.16918499999999967 0.14973499999999998 -0.10081500000000009 12.598300000000002 9.1676100000000015e-05 0.47541999999999979 -0.025004749999999996 0.27381999999999979 3.1709050000000001e-05 -1.2781099999999996 3.4054600000000004e-05 -0.054875 1.1699350000000001e-06 -0.00030699449999999995 0.81985550000000007 0.10550150000000001 1.3881450000000002 0.061239450000000008 -6.2531049999999988 -0.040859549999999939
decision_type=2 2 2 2 2 2 2 2 2 2 2 2 2 2 2 2 2 2 2 2 2 2 2 2 2 2 2 2 2 2
left_child=8 2 3 -2 6 -6 -4 -8 9 -1 11 12 -11 14 15 -14 -16 19 -19 -18 -20 -12 25 24 -24 27 -27 29 -29 -23
right_child=1 -3 4 -5 5 -7 7 -9 -10 10 21 -13 13 -15 16 -17 17 18 20 -21 -22 22 23 -25 -26 26 -28 28 -30 -31
leaf_value=-5.9635467141459787e-08 0.005724132307106629 8.6195703245800634e-06 -0.00096993146697005772 -0.00048145416137860875 -0.00072796187452791195 0.004446631561898228 0.0018523580810733621 -0.00012624675605748498 2.6066941232664075e-06 -1.7349588280318565e-05 -0.00011053972728055488 -1.2554237209895436e-05 -0.013224536647215825 0.0022744324279141011 -0.0083509185537695898 -0.0020848041982389986 -0.0024313607485964895 -0.0076801940748867179 0.0007375823005779901 0.0018827769935051812 -0.0033421322854701434 -0.00017585629658469772 -0.0062299005502609367 -3.0461529706826696e-05 6.9906914296038664e-05 -0.0036062525027591623 -0.00012681695654818113 0.00086320717299796258 0.0037989027654641012 0.00050905825478898001
leaf_weight=28882 25 31654 34 39 38 21 20 327 148021 1431 3770 1425 22 34 25 20 25 35 22 47 20 288 20 119 23 20 90 44 22 1070
leaf_count=28882 25 31654 34 39 38 21 20 327 148021 1431 3770 1425 22 34 25 20 25 35 22 47 20 288 20 119 23 20 90 44 22 1070
internal_value=0 1.3237e-05 0.000303234 0.0019426 6.47807e-05 0.00111384 -9.76724e-05 -1.22061e-05 -2.29505e-06 -2.16671e-05 -9.447e-05 -0.000257087 -0.000464379 -0.00302318 -0.00385706 -0.0079199 -0.00287637 -0.00195783 -0.00414835 0.000384812 -0.00120514 -2.06471e-06 0.000239062 -0.000781575 -0.00286024 0.000346848 -0.000759442 0.000432305 0.00184177 0.000363804
internal_weight=0 32158 504 64 440 59 381 347 185475 37454 8572 3106 1681 250 216 42 174 149 77 72 42 5466 1696 162 43 1534 110 1424 66 1358
internal_count=217633 32158 504 64 440 59 381 347 185475 37454 8572 3106 1681 250 216 42 174 149 77 72 42 5466 1696 162 43 1534 110 1424 66 1358
shrinkage=0.05


Tree=433
num_leaves=31
num_cat=0
split_feature=18 1 14 14 20 4 15 1 36 12 3 29 1 8 39 3 39 2 36 34 20 36 36 1 37 22 5 39 11 7
split_gain=0.00261779 0.0242253 0.0618248 0.0739114 0.06021 0.110221 0.0459263 0.0308075 0.0599477 0.0479829 0.0181006 0.0151204 0.0353935 0.021755 0.0166176 0.0805029 0.176642 0.0626366 0.139712 0.0424506 0.0293623 0.0505372 0.121922 0.0196099 0.0509057 0.12955 0.0194961 0.0175916 0.0146832 0.0146297
threshold=13.390900000000002 10.154350000000003 2.4444200000000004e-06 6.6737300000000016e-07 -7.1790999999999991 0.20333750000000003 1.1699350000000001e-06 12.302700000000002 0.10022550000000004 -7.832789999999998e-08 -6.4166599999999994 -0.00090391799999999997 8.0544250000000019 1.2745350000000003e-05 0.55890500000000032 -7.9686699999999986 0.97785500000000003 1.3149000000000004 0.14973499999999998 -0.55203199999999986 -8.8007399999999993 -0.30278099999999991 0.38220950000000015 7.7500100000000005 -0.12554300000000002 3.0293700000000006 8.6368500000000018e-06 -0.465335 8.198710000000002e-05 4.4110450000000007e-05
decision_type=2 2 2 2 2 2 2 2 2 2 2 2 2 2 2 2 2 2 2 2 2 2 2 2 2 2 2 2 2 2
left_child=-1 11 3 4 6 7 10 8 -6 -9 -3 12 13 -2 19 16 -16 -18 -19 -13 21 -21 -23 -22 27 -26 -17 -25 -11 -15
right_child=1 2 -4 -5 5 -7 -8 9 -10 28 -12 14 -14 29 15 26 17 18 -20 20 23 22 -24 24 25 -27 -28 -29 -30 -31
leaf_value=-6.7486617622584779e-07 -0.0017802445383858869 0.0011526341991266236 -0.0017272838496137412 0.0032566831200965679 0.002696027411631705 0.0044092337634148342 -0.0026381628302624451 -0.0021699622795928182 -0.0002592963375718682 -3.7123538719685252e-05 -0.00041178609908584666 0.0018842650876779643 -0.002310843419261454 6.8463420870824287e-05 0.0055972190963802862 0.0014975493567453669 -0.00013064653395295045 0.0050461946499787951 -0.00012983750830244389 -9.313793872996909e-06 4.5822035987526716e-05 -0.004907480273063162 -0.0004176025321444117 -0.0001847190890519256 -1.5905148247838953e-05 -0.0049444563947326978 -8.9138036745387304e-05 0.0015915197033245935 0.001531452141382033 -0.00099906779505545286
leaf_weight=214386 20 25 30 25 37 21 20 21 32 37 71 28 21 242 20 20 101 22 32 116 1438 21 54 46 40 20 605 20 25 37
leaf_count=214386 20 25 30 25 37 21 20 21 32 37 71 28 21 242 20 20 101 22 32 116 1438 21 54 46 40 20 605 20 25 37
internal_value=0 4.45586e-05 0.0004413 0.00064849 0.000422868 0.00101383 -0.000458485 0.000544731 0.00132544 -0.000104295 -4.38498e-06 -2.45451e-06 -0.000326656 -0.000187298 3.77098e-05 0.000227041 0.00117492 0.000604298 0.00197892 -4.72398e-05 -7.80558e-05 -0.000663288 -0.00167477 -6.58563e-06 -0.000604699 -0.00165876 -3.8364e-05 0.000353535 0.000595367 -7.31088e-05
internal_weight=0 3247 344 314 289 173 116 152 69 83 96 2903 320 299 2583 800 175 155 54 1783 1755 191 75 1564 126 60 625 66 62 279
internal_count=217633 3247 344 314 289 173 116 152 69 83 96 2903 320 299 2583 800 175 155 54 1783 1755 191 75 1564 126 60 625 66 62 279
shrinkage=0.05


Tree=434
num_leaves=31
num_cat=0
split_feature=6 31 12 12 39 4 30 3 32 3 20 32 8 20 29 14 34 11 32 36 36 17 36 36 1 17 6 33 22 31
split_gain=0.00260355 0.00882148 0.0397655 0.0629983 0.174214 0.245351 0.117209 0.0668506 0.116104 0.0275611 0.0189681 0.0464255 0.0566485 0.0226648 0.0177084 0.0175973 0.0497475 0.017385 0.0162948 0.035212 0.0599752 0.0146636 0.0126223 0.0702017 0.0109347 0.00928249 0.00854623 0.0254505 0.0233775 0.0294092
threshold=-2.2416949999999993e-06 -0.034275499999999993 -1.2833349999999995e-07 -2.6163199999999997e-05 1.1470050000000007 -0.40498649999999997 0.18345600000000004 -9.4267299999999974 -0.022925199999999996 -10.726899999999999 -8.9766299999999983 -0.055004599999999994 2.4628450000000003e-05 -9.0544499999999974 0.0014581450000000003 5.7099050000000007e-05 -0.39553799999999995 0.0014874650000000001 0.046686200000000004 -0.25142799999999998 0.20129000000000011 -12.188449999999998 -0.19934349999999995 0.327845 -14.127399999999998 12.598300000000002 -2.6132299999999998e-06 0.00019513800000000003 7.0520850000000008 0.00061983350000000003
decision_type=2 2 2 2 2 2 2 2 2 2 2 2 2 2 2 2 2 2 2 2 2 2 2 2 2 2 2 2 2 2
left_child=1 2 3 15 5 -5 -7 17 -9 -6 13 12 -12 24 21 18 -17 -8 -1 -20 -21 -11 -14 -24 -4 -23 -3 28 29 -28
right_child=-2 26 10 4 9 6 7 8 -10 14 11 -13 22 -15 -16 16 -18 -19 19 20 -22 25 23 -25 -26 -27 27 -29 -30 -31
leaf_value=-3.1804262367495225e-06 -3.3949132369650315e-06 -2.6484936651118993e-06 0.0010249989419077923 0.0054022490243275968 0.0017184583894469634 0.0041144292906280426 -0.00015054799815698061 0.0043748571469526118 0.00020692947831280024 0.001298426069697598 -0.0030197960536692599 -5.5976053201866761e-05 -8.0059051955079972e-06 0.0015297389808088507 0.0011703344160747346 0.0025035132307039023 6.7467340007601321e-05 -0.0018947897205362097 -8.8638751575755042e-05 -0.0035994529167352168 -0.00034808009873518747 -3.4266662958824469e-05 -0.003437414264217729 -3.9129986808719968e-05 2.9890103900031662e-05 -0.0010867350691114552 -7.8134959110856908e-06 0.0016268625779328153 -0.00043589402270989715 0.000258838085967323
leaf_weight=289 157094 51136 28 39 26 26 50 24 55 20 28 886 60 26 33 23 236 20 110 23 37 439 21 55 1963 22 3044 26 228 1566
leaf_count=289 157094 51136 28 39 26 26 50 24 55 20 28 886 60 26 33 23 236 20 110 23 37 439 21 55 1963 22 3044 26 228 1566
internal_value=0 8.80954e-06 7.585e-05 0.000289472 0.000608668 0.00181597 0.00101674 0.000476205 0.00147314 0.000130219 -2.66775e-05 -0.000199016 -0.000971783 6.30379e-05 4.988e-05 -4.5728e-05 0.000283796 -0.000648903 -0.000231668 -0.000620098 -0.00159444 -2.69911e-05 -0.000550134 -0.00097813 4.38846e-05 -8.44929e-05 3.37567e-06 6.67086e-05 5.83242e-05 8.27671e-05
internal_weight=0 60539 4539 1472 754 214 175 149 79 540 3067 1050 164 2017 514 718 259 70 459 170 60 481 136 76 1991 461 56000 4864 4838 4610
internal_count=217633 60539 4539 1472 754 214 175 149 79 540 3067 1050 164 2017 514 718 259 70 459 170 60 481 136 76 1991 461 56000 4864 4838 4610
shrinkage=0.05


Tree=435
num_leaves=31
num_cat=0
split_feature=28 16 3 3 18 7 2 36 3 8 37 37 30 17 11 12 11 11 2 36 19 2 18 8 37 28 11 16 36 30
split_gain=0.00263535 0.0148775 0.0354585 0.0144472 0.0380869 0.0877548 0.0939332 0.173925 0.0480439 0.0275324 0.0197473 0.0831545 0.0838243 0.0501965 0.0213591 0.0306 0.0211875 0.0187021 0.0105115 0.00964334 0.00664683 0.00779671 0.00589257 0.00692918 0.005764 0.00476123 0.0226682 0.0834815 0.20176 0.0392864
threshold=-10.048129999999999 3.865525000000001e-10 -18.305499999999995 -12.046299999999997 5.5200300000000011 -3.1845949999999996e-05 2.0823550000000006 -0.3562499999999999 -16.722199999999997 1.5224150000000001e-05 0.32610899999999998 -0.55014000000000018 7.9426800000000002 -16.050999999999998 0.0030998800000000006 -4.4025599999999992e-08 0.0006072295000000001 0.00028345200000000006 1.8666700000000003 -0.46506469999999994 3.0909850000000003 1.7597100000000003 -19.754149999999996 5.5414800000000003e-05 0.73791050000000025 -4.3985699999999994 0.0078496150000000025 0.0011496050000000004 -0.27744100000000016 6.2013600000000011
decision_type=2 2 2 2 2 2 2 2 2 2 2 2 2 2 2 2 2 2 2 2 2 2 2 2 2 2 2 2 2 2
left_child=1 -1 -3 4 5 -4 7 -7 -6 -10 11 13 -13 -5 15 16 -14 -17 -11 20 21 22 23 -12 -24 26 -2 28 29 -28
right_child=25 2 3 10 8 6 -8 -9 9 18 19 12 14 -15 -16 17 -18 -19 -20 -21 -22 -23 24 -25 -26 -27 27 -29 -30 -31
leaf_value=0.0011032359414255351 -1.7882467941622492e-05 -0.0017284332771851042 0.0028103311552273996 0.0023527778492559897 -0.0025302637122323456 -3.4938773415254248e-05 -0.0020841332241567168 0.0043693964408400158 0.0016616895702827605 -8.3699894743264084e-05 -0.00018159977758543068 -0.0035620426454941834 -0.00045399018080330433 -2.129289673663856e-05 -0.0017153440192580608 -0.00025994770634861199 -0.0023970385827124119 0.0017913880676496776 -0.001370422957032653 0.00098375222241884339 -0.00091079662905983814 0.0008978237817127198 -0.00071018027327361915 -0.0012421177228679882 3.3035368084105538e-05 -3.290184602236701e-07 -0.00046343363398391069 6.3978180733368433e-05 0.0048470829969808234 0.0020122552003489216
leaf_weight=27 1959 32 38 26 23 132 37 27 20 65 67 31 47 155 39 25 20 20 21 24 21 23 27 20 772 213275 59 546 33 22
leaf_count=27 1959 32 38 26 23 132 37 27 20 65 67 31 47 155 39 25 20 20 21 24 21 23 27 20 772 213275 59 546 33 22
internal_value=0 -6.13052e-05 -7.96712e-05 -4.82662e-05 0.000231019 0.000611288 0.000184943 0.000712967 -0.000458772 -9.29796e-06 -0.000125244 -0.000439116 -0.0011938 0.000319734 -0.0007076 -0.00035669 -0.001034 0.000651757 -0.0003979 -5.81534e-06 -3.13526e-05 -1.10354e-05 -3.46288e-05 -0.000425397 7.92045e-06 4.93806e-07 6.74995e-05 0.000320929 0.00155159 0.000208976
internal_weight=0 1739 1712 1680 363 234 196 159 129 106 1317 363 182 181 151 112 67 45 86 954 930 909 886 87 799 215894 2619 660 114 81
internal_count=217633 1739 1712 1680 363 234 196 159 129 106 1317 363 182 181 151 112 67 45 86 954 930 909 886 87 799 215894 2619 660 114 81
shrinkage=0.05


Tree=436
num_leaves=31
num_cat=0
split_feature=10 16 26 28 10 10 21 39 32 36 27 17 36 7 0 3 39 28 39 39 27 9 31 7 26 24 26 9 9 14
split_gain=0.00258939 0.0104459 0.0102377 0.0197424 0.0571471 0.124575 0.0114796 0.0367818 0.0262773 0.0106961 0.0156068 0.0059768 0.0288303 0.0444074 0.0908679 0.0735779 0.035059 0.0204896 0.018468 0.0574619 0.0106579 0.0155227 0.00974204 0.0266276 0.00987048 0.00661374 0.0204655 0.0889635 0.155732 0.0226114
threshold=0.00014699600000000001 1.2683350000000002e-07 2.0528200000000001 20.036400000000004 0.00037732250000000004 0.00025762050000000008 -2.2419299999999995 7.347125000000001 -2.2564299999999995 -0.27744100000000016 0.35534200000000005 -19.608449999999998 -4.7245149999999994 -2.9834549999999997e-05 -5.7641099999999996 -5.946604999999999 1.9002500000000004 0.56648000000000021 -3.7428349999999995 -4.7135349999999994 0.064526950000000013 3.6265250000000003e-05 -1.5367699999999997 -2.2309399999999997e-05 -0.18041899999999997 26.374400000000005 -0.58729449999999994 9.9230750000000009e-05 0.00018270900000000003 2.0915550000000003e-06
decision_type=2 2 2 2 2 2 2 2 2 2 2 2 2 2 2 2 2 2 2 2 2 2 2 2 2 2 2 2 2 2
left_child=11 -2 3 6 5 -5 7 -3 -8 -4 -11 12 -1 14 15 16 17 -14 19 20 -15 -22 -20 -24 -25 26 27 29 -29 -13
right_child=1 2 9 4 -6 -7 8 -9 -10 10 -12 25 13 18 -16 -17 -18 -19 22 -21 21 -23 23 24 -26 -27 -28 28 -30 -31
leaf_value=-0.00123723441433362 0.00092944405974600564 0.0022230275738062727 -8.0675108874057403e-05 -0.00035805471550422511 -0.00026826812451926187 0.004754157463586043 -0.001802191338792909 -0.00027723176726316242 1.0663975651366004e-05 -0.00019365851817540185 -0.0019173525551498946 0.00028976150842377745 -0.0022391204623720394 -0.00063328031183351795 0.0030671974124791297 0.0021941387079218782 0.00075794003994240867 -0.00036231600697095875 0.00027053205503762 0.0028434510612648659 -0.00040191419724248012 0.0015227377304108814 -0.0019451416271571678 -0.00095127436266516775 -6.5971214442912303e-05 -5.7261556573982777e-05 -2.2097227686559061e-06 0.0051212763942312459 -0.00040568897171537041 -0.0006282166316881997
leaf_weight=36 31 24 91 26 68 22 20 38 36903 29 24 293 26 39 38 37 38 33 95 22 22 20 23 36 251 5456 173754 25 26 87
leaf_count=36 31 24 91 26 68 22 20 38 36903 29 24 293 26 39 38 37 38 33 95 22 22 20 23 36 251 5456 173754 25 26 87
internal_value=0 1.19966e-05 1.1233e-05 1.28661e-05 0.000664136 0.00198504 1.08235e-05 0.000690611 9.68201e-06 -0.000409542 -0.000974199 -2.47945e-06 0.000141694 0.000214696 0.000909098 0.000297099 -0.000426514 -0.00118938 -2.04168e-05 0.000577385 -3.809e-05 0.000514587 -0.00017245 -0.000308203 -0.00017702 -3.05408e-06 -1.35614e-06 0.000342759 0.00230361 7.95928e-05
internal_weight=0 37276 37245 37101 116 48 36985 62 36923 144 53 180357 716 680 172 134 97 59 508 103 81 42 405 310 287 179641 174185 431 51 380
internal_count=217633 37276 37245 37101 116 48 36985 62 36923 144 53 180357 716 680 172 134 97 59 508 103 81 42 405 310 287 179641 174185 431 51 380
shrinkage=0.05


Tree=437
num_leaves=31
num_cat=0
split_feature=18 39 36 1 3 36 12 30 17 19 0 13 15 13 23 36 36 3 39 36 36 0 26 12 34 7 8 36 36 1
split_gain=0.00252313 0.021072 0.0537743 0.0420896 0.0850472 0.13824 0.192269 0.0461112 0.162042 0.079252 0.165538 0.0429763 0.14997 0.0628764 0.031538 0.0291114 0.0946841 0.0211634 0.0147594 0.0296827 0.116304 0.016167 0.0649685 0.0134454 0.0187257 0.0132161 0.0129182 0.0172288 0.0618786 0.0136508
threshold=-13.388899999999998 -0.5126099999999999 -4.5263099999999996 -3.1361349999999999 -8.8592349999999982 -0.51801999999999981 1.5700050000000004e-06 0.52499700000000005 8.0730100000000018 -1.8123449999999999 -1.6898849999999996 7.2294100000000005e-06 -9.7133699999999988e-05 2.1242850000000004e-06 -0.00024772449999999996 0.354709 -0.10081500000000009 -7.2857699999999985 -1.7757399999999997 0.2761725000000001 -0.17527649999999997 5.9730150000000011 -0.44589049999999997 8.4719750000000013e-08 -4.3778049999999997e-05 5.3889600000000007e-05 2.2609900000000005e-05 -0.40968649999999995 0.24966499999999994 -12.232849999999997
decision_type=2 2 2 2 2 2 2 2 2 2 2 2 2 2 2 2 2 2 2 2 2 2 2 2 2 2 2 2 2 2
left_child=1 18 -3 4 5 -4 -7 8 9 10 -6 13 17 25 -11 16 -5 -13 21 20 -20 -1 -23 24 -16 26 29 -28 -29 -9
right_child=-2 2 3 15 7 6 -8 11 -10 14 -12 12 -14 -15 23 -17 -18 -19 19 -21 -22 22 -24 -25 -26 -27 27 28 -30 -31
leaf_value=-6.371131841046084e-05 -6.8808678937181778e-07 0.0026164836043872956 -0.00048390347294263996 -9.1267357305468977e-05 0.0049504667996538611 0.00091083856443826031 0.0070647994268008265 -0.00060096474283936386 0.0043777800766595957 -0.0014874315249991405 -0.00028525792513897207 -0.0012264257955980759 0.0046649801067542287 -0.0029046829311561813 0.0016553614439908416 2.8598519307212801e-05 -0.0030949882225479227 0.00055582339377401198 -0.00024796840473360475 -3.0952302617843962e-05 -0.0039568957482585499 0.0028735825691304246 -9.8923478249378696e-06 -0.00049005013215405757 0.00013679620561493652 0.00088338662440387106 -0.00011113490382823246 -0.0027111696794985193 4.2584209352878367e-05 0.00066083188862178538
leaf_weight=1151 214135 22 37 128 26 30 22 34 27 35 36 31 20 23 25 818 33 36 113 251 26 24 105 58 108 26 110 34 51 58
leaf_count=1151 214135 22 37 128 26 30 22 34 27 35 36 31 20 23 25 818 33 36 113 251 26 24 105 58 108 26 110 34 51 58
internal_value=0 4.21222e-05 0.000159418 0.000129487 0.000392113 0.00185221 0.00351444 0.000216031 0.000674025 0.000326798 0.00191037 -0.000125028 0.000865403 -0.000381479 -0.000107633 -9.23629e-05 -0.000706937 -0.000268799 -8.62714e-05 -0.000355561 -0.000941725 -4.22222e-06 0.000526568 0.00014521 0.000422241 -0.000196068 -0.000293858 -0.000524271 -0.00105892 0.000194516
internal_weight=0 3498 1828 1806 827 89 52 738 315 288 62 423 87 336 226 979 161 67 1670 390 139 1280 129 191 133 313 287 195 85 92
internal_count=217633 3498 1828 1806 827 89 52 738 315 288 62 423 87 336 226 979 161 67 1670 390 139 1280 129 191 133 313 287 195 85 92
shrinkage=0.05


Tree=438
num_leaves=31
num_cat=0
split_feature=37 36 30 36 3 17 12 31 39 39 39 31 40 20 33 7 39 17 12 3 23 26 29 2 11 33 13 29 27 6
split_gain=0.0025085 0.0441055 0.0863965 0.261506 0.472797 0.443228 0.108922 0.252421 0.331932 0.471743 0.290598 0.175747 0.141723 0.259986 0.163097 0.137287 0.153853 0.421617 0.319807 0.306909 0.241549 0.21944 0.250294 0.294728 0.185155 0.178776 0.323581 0.298494 0.487941 0.182138
threshold=0.22260499999999997 -0.018010000000000078 0.0037330700000000002 -0.058960000000000005 -6.8388149999999994 1.0000000180025095e-35 -3.3937349999999994e-07 0.0064595250000000016 2.1254700000000009 -0.56159999999999977 0.85052500000000031 -0.0075462849999999989 -2.7582999999999993 -15.368899999999998 2.3922400000000003e-05 1.6205550000000003e-05 1.1470050000000007 3.0677450000000004 2.6249650000000004e-07 -13.989599999999998 0.00026497250000000005 -0.0047028699999999988 2.2255350000000004e-05 0.35244550000000008 0.00011889250000000002 1.5018450000000004e-08 7.4656150000000005e-08 -2.3034999999999995e-05 0.00049555400000000015 -3.3520449999999996e-06
decision_type=2 2 2 2 2 2 2 2 2 2 2 2 2 2 2 2 2 2 2 2 2 2 2 2 2 2 2 2 2 2
left_child=1 2 3 -1 -5 -6 7 -4 9 -9 -11 12 -8 -14 -15 -13 17 21 20 -18 25 22 23 -17 -20 -19 -27 -28 29 -29
right_child=-2 -3 6 4 5 -7 11 8 -10 10 -12 15 13 14 -16 16 19 18 24 -21 -22 -23 -24 -25 -26 26 27 28 -30 -31
leaf_value=-6.8680507751196272e-05 5.9282332004946998e-06 3.5459265529906834e-06 -0.00014443723316447744 -0.00042660467477617208 -0.0023946008535567671 -0.012380908662453295 9.5684381747421964e-05 -0.00092546409244274289 0.00016868909564172479 -0.0089630474402115513 -0.0030029050153030385 -5.2721691224033522e-05 -0.006882061222568155 -0.0013300983616551638 0.0026395267985727909 0.011755370524571679 0.0054211377245374026 0.0002632038789417121 -0.0049106779263820496 -0.00020859073034322148 0.0065600832236668797 -0.00012871531798737125 0.0019643790344707666 0.0037433423337157969 -1.3133121989085342e-05 -0.00079587346257903855 -0.0013555930264937204 0.00046770148469614943 0.011562584231243185 0.0055770012933223645
leaf_weight=350 98050 111070 2116 80 25 20 316 121 154 39 43 3029 20 341 28 22 25 176 20 765 24 26 35 24 550 50 21 33 23 37
leaf_count=350 98050 111070 2116 80 25 20 316 121 154 39 43 3029 20 341 28 22 25 176 20 765 24 26 35 24 550 50 21 33 23 37
internal_value=0 -4.86075e-06 -0.000114544 -0.000769789 -0.00273289 -0.00683296 -7.58223e-05 -0.000351927 -0.00158176 -0.00290968 -0.00583761 4.68745e-05 -0.000690868 -0.00132981 -0.00102888 0.000153893 0.000495692 0.000894962 0.00055438 -3.04348e-05 0.00171216 0.0038679 0.00515076 0.00757518 -0.000184977 0.00136996 0.00255769 0.00402855 0.00524433 0.00316833
internal_weight=0 119583 8513 475 125 45 8038 2473 357 203 82 5565 705 389 369 4860 1831 1041 934 790 364 107 81 46 570 340 164 114 93 70
internal_count=217633 119583 8513 475 125 45 8038 2473 357 203 82 5565 705 389 369 4860 1831 1041 934 790 364 107 81 46 570 340 164 114 93 70
shrinkage=0.05


Tree=439
num_leaves=31
num_cat=0
split_feature=33 14 14 34 39 39 36 37 39 37 21 33 37 39 39 20 18 16 17 23 18 30 20 18 14 12 6 6 21 39
split_gain=0.00257172 0.0222079 0.0242506 0.0642202 0.152248 0.194951 0.197313 0.429591 0.379366 0.292374 0.881721 0.208718 0.140558 0.370837 0.267408 0.180416 0.292225 0.183108 0.165368 0.134761 0.131532 0.124252 0.0859285 0.0963198 0.0796747 0.186824 0.0988451 0.175763 0.188298 0.123335
threshold=-1.1071149999999997e-08 3.4718200000000011e-08 -3.0819049999999996e-06 0.00017319450000000003 1.269409999999999 -2.2545749999999996 0.2761725000000001 -0.057539999999999918 0.35261000000000037 -0.10141500000000002 -0.43859649999999994 -2.8870249999999995e-07 0.37828249999999997 -0.27803499999999998 0.85052500000000031 -8.9164399999999979 -4.6981599999999988 6.3553350000000007e-07 9.7253800000000012 0.00078813450000000008 3.3144750000000003 0.45987150000000004 -14.447549999999998 -4.5569299999999986 -1.7488149999999997e-06 1.1195050000000002e-06 -1.9548899999999994e-06 -1.6857599999999998e-06 -0.21777849999999996 0.27381999999999979
decision_type=2 2 2 2 2 2 2 2 2 2 2 2 2 2 2 2 2 2 2 2 2 2 2 2 2 2 2 2 2 2
left_child=1 2 -1 -4 5 -5 7 8 9 10 -7 -12 13 15 18 20 -17 -18 19 24 21 22 -9 -24 -15 26 29 28 -28 -26
right_child=-2 -3 3 4 -6 6 -8 12 -10 -11 11 -13 -14 14 -16 16 17 -19 -20 -21 -22 -23 23 -25 25 -27 27 -29 -30 -31
leaf_value=-7.078173174712894e-07 -6.0757667485237175e-06 -8.9270250503574854e-06 3.7599450359896752e-06 -0.00011574602281969318 -5.0176034192416323e-05 0.011504237180841821 -5.9417036889435561e-05 0.00066402662429027265 -0.0007767482542375446 0.0085984138940917703 -0.0045604187640405835 0.0024084585221068912 -3.0195277916092748e-06 0.0033891019309521654 0.004657386113448363 0.0010429016903799493 0.010160532760589074 0.0042563821285072885 0.003888616560470837 -0.0030647859508947783 -0.00094705146188581646 -0.00021284674274890376 0.0016257841361775286 0.0057415290587497034 0.00066560960417774272 -0.0032465274174076821 -0.0066618814269895667 0.00028240350688262759 4.1449111251329833e-05 0.0033490091063868022
leaf_weight=18804 96744 85493 10140 1087 3060 21 628 20 36 39 21 22 451 21 38 35 24 29 32 30 35 30 21 44 267 36 20 332 22 51
leaf_count=18804 96744 85493 10140 1087 3060 21 628 20 36 39 21 22 451 21 38 35 24 29 32 30 35 30 21 44 267 36 20 332 22 51
internal_value=0 4.86226e-06 3.81679e-05 8.22265e-05 0.000205545 0.000436237 0.000696543 0.000979633 0.00364159 0.00518587 0.00310635 -0.000994947 0.000739053 0.00104694 0.000557972 0.0027912 0.00458852 0.00692996 0.000365891 0.000221184 0.00173678 0.0025536 0.00352999 0.00441183 0.000352798 0.000265212 0.000447904 -0.000103122 -0.00315061 0.00109597
internal_weight=0 120889 35396 16592 6452 3392 2305 1677 139 103 64 43 1538 1087 849 238 88 53 811 779 150 115 85 65 749 728 692 374 42 318
internal_count=217633 120889 35396 16592 6452 3392 2305 1677 139 103 64 43 1538 1087 849 238 88 53 811 779 150 115 85 65 749 728 692 374 42 318
shrinkage=0.05


Tree=440
num_leaves=31
num_cat=0
split_feature=40 20 20 17 22 8 13 22 18 3 36 36 31 6 36 36 11 20 11 34 39 16 14 23 26 18 36 1 36 26
split_gain=0.00268216 0.0154146 0.0135655 0.179989 0.0862102 0.115864 0.112871 0.109193 0.073923 0.0429361 0.0513709 0.36111 0.0229449 0.0267729 0.0302946 0.085866 0.0259055 0.0180874 0.161025 0.190564 0.0812902 0.121794 0.184077 0.0716121 0.0445785 0.0883816 0.196476 0.0494956 0.0842489 0.0475991
threshold=-2.4873949999999994 -20.320949999999996 -17.728849999999998 -6.091804999999999 2.3879650000000008 1.3587550000000002e-05 1.1618000000000001e-07 1.7215100000000003 5.0477900000000009 -16.870699999999996 -0.30278099999999991 0.20129000000000011 0.0080513700000000021 9.362525000000001e-07 0.14973499999999998 -0.17527649999999997 0.010823350000000001 -16.164099999999994 0.0020033100000000008 -0.0021506599999999996 1.1470050000000007 4.2063200000000008e-08 3.4718200000000011e-08 -0.00062257399999999998 -0.0044322199999999997 -3.7462599999999999 0.0045899999999999838 -3.8531599999999995 -0.43704099999999996 0.14443800000000004
decision_type=2 2 2 2 2 2 2 2 2 2 2 2 2 2 2 2 2 2 2 2 2 2 2 2 2 2 2 2 2 2
left_child=-1 -2 3 -3 7 -6 -7 8 9 12 -11 -12 13 -5 15 -15 -14 18 19 -4 21 22 -20 -22 27 26 -26 28 -23 -27
right_child=1 2 17 4 5 6 -8 -9 -10 10 11 -13 16 14 -16 -17 -18 -19 20 -21 23 24 -24 -25 25 29 -28 -29 -30 -31
leaf_value=7.2711679779769078e-06 0.0012372054879087957 0.0043492096639792662 0.0066374344350151665 -0.00021119962087522474 0.0010975352894747629 -0.0053029121718801827 -0.0010952867896923783 0.0028549035458754275 0.0024972330939540964 -3.7293002719707147e-05 -0.0077955211338121451 -0.00032828646046897014 -0.002462210723717276 -6.4635409245283881e-05 -0.00045361354345610982 0.004111671558348462 -7.0521601793933033e-06 -5.1533391187794957e-06 -0.00012727299611772953 0.00086260204966220042 -0.0031513098367819715 -0.00013467436403971078 0.0062827675432864842 -0.00034455215015046105 0.0049198494119028673 0.0003300633281498857 0.00030802865443951713 9.5989777774947303e-05 -0.0034651892625020241 -0.0016323231792793034
leaf_weight=80131 25 21 20 291 25 28 37 29 23 75 20 85 21 32 30 20 22 135302 24 50 24 55 21 428 34 339 72 286 29 34
leaf_count=80131 25 21 20 291 25 28 37 29 23 75 20 85 21 32 30 20 22 135302 24 50 24 55 21 428 34 339 72 286 29 34
internal_value=0 -4.23736e-06 -4.46312e-06 -0.00021526 -0.000345144 -0.00179521 -0.0029078 -0.000143746 -0.000284232 -0.00039157 -0.00103673 -0.00175062 -0.000112413 1.36665e-05 0.000811667 0.00154164 -0.00120608 -3.29286e-06 0.00017448 0.00251255 5.28861e-05 0.000329177 0.00286408 -0.000493584 0.000194819 0.000513247 0.00178729 -0.000217418 -0.00128449 0.000151186
internal_weight=0 137502 137477 759 738 90 65 648 619 596 180 105 416 373 82 52 43 136718 1416 70 1346 894 45 452 849 479 106 370 84 373
internal_count=217633 137502 137477 759 738 90 65 648 619 596 180 105 416 373 82 52 43 136718 1416 70 1346 894 45 452 849 479 106 370 84 373
shrinkage=0.05


Tree=441
num_leaves=31
num_cat=0
split_feature=9 33 29 36 8 17 32 8 31 3 21 15 12 3 13 18 29 3 10 37 22 10 9 36 31 19 31 31 11 13
split_gain=0.00266193 0.01202 0.0598768 0.117503 0.0178068 0.016786 0.0154204 0.0699905 0.0187411 0.0519312 0.020311 0.0802268 0.167038 0.0309461 0.0151707 0.0114576 0.00918377 0.0722469 0.0462104 0.159551 0.0929398 0.0411282 0.0305922 0.0388696 0.0142185 0.0194959 0.0128963 0.0196212 0.0323518 0.00917735
threshold=-0.000119502 0.00046534500000000004 0.0031288150000000005 0.91906500000000002 5.3913950000000009e-05 -19.608449999999998 3.8353050000000004 3.8126050000000004e-05 1.6674650000000002 -15.867949999999999 1.5291850000000002 8.913810000000002e-05 -0.00019216049999999996 -13.080499999999999 3.9398900000000012e-06 1.6414900000000003 9.2365500000000009e-05 -18.305499999999995 -1.9421199999999996e-05 -0.2272394999999999 7.3223450000000012 -1.4988849999999998e-06 -0.00013151599999999998 -1.4243359999999996 0.96084200000000008 2.0667800000000005 -1.5367699999999997 -0.60082499999999983 0.0078496150000000025 0.00014956900000000003
decision_type=2 2 2 2 2 2 2 2 2 2 2 2 2 2 2 2 2 2 2 2 2 2 2 2 2 2 2 2 2 2
left_child=1 2 6 -4 5 -3 8 -8 10 -10 16 13 -13 -12 15 -11 26 -18 19 -19 -21 -20 24 -24 -23 -26 -1 28 -28 -16
right_child=-2 4 3 -5 -6 -7 7 -9 9 14 11 12 -14 -15 29 -17 17 18 21 20 -22 22 23 -25 25 -27 27 -29 -30 -31
leaf_value=0.0010984058130782581 -2.1136428673216376e-06 -0.001983382551518914 0.0045560871453268368 -0.00067277939193776228 0.00040605325301709986 -0.00038757628806504528 0.0030244173531952714 -0.0010111329235686836 -0.0027974800480561417 -0.00035530539673094734 -0.0022316538084851344 -0.00131987863208886 0.0041653415268852511 0.00019819900488456419 -0.0014429260079431025 0.00099754374859912782 0.0031305356355733243 -8.8531398020775162e-05 -0.0022815878488472662 0.0058230917157960083 0.0013110805822070689 -6.4855284408348618e-06 -0.00012175139606618112 0.0029238524712854996 -0.0020817833294859158 3.1935619820918269e-05 -0.0022578959697857502 7.6782618958778922e-06 -0.00015442642239470256 -0.00010122108110226691
leaf_weight=27 189890 26 21 22 35 45 21 22 22 29 20 23 35 38 26 34 20 121 20 21 25 829 22 20 20 24 25 26057 68 25
leaf_count=27 189890 26 21 22 35 45 21 22 22 29 20 23 35 38 26 34 20 121 20 21 25 829 22 20 20 24 25 26057 68 25
internal_value=0 1.44671e-05 1.65053e-05 0.00188085 -0.000516953 -0.000971956 1.36001e-05 0.000959717 1.21234e-05 -0.000573372 1.50279e-05 0.000675243 0.00199017 -0.000639681 -0.000144158 0.000374804 1.22225e-05 0.000152301 9.82493e-05 0.000864369 0.00337091 -3.85871e-05 1.04402e-05 0.00132854 -5.29733e-05 -0.000928846 6.21848e-06 5.09079e-06 -0.000719875 -0.000785228
internal_weight=0 27743 27637 43 106 71 27594 43 27551 136 27415 116 58 58 114 63 27299 1122 1102 167 46 935 915 42 873 44 26177 26150 93 51
internal_count=217633 27743 27637 43 106 71 27594 43 27551 136 27415 116 58 58 114 63 27299 1122 1102 167 46 935 915 42 873 44 26177 26150 93 51
shrinkage=0.05


Tree=442
num_leaves=31
num_cat=0
split_feature=36 19 33 18 16 32 19 18 37 28 13 9 31 37 17 39 24 30 39 11 6 6 39 26 27 17 17 10 8 39
split_gain=0.00265408 0.0322363 0.0861218 0.0864553 0.0827667 0.192237 0.0663412 0.0512154 0.0535208 0.0462519 0.0904067 0.0424327 0.0407014 0.0265188 0.0712911 0.175364 0.248933 0.479178 0.102597 0.0937238 0.101071 0.112198 0.0936221 0.176592 0.259494 0.506231 0.161773 0.677399 0.740348 0.227413
threshold=0.24966499999999994 -2.9623449999999996 1.2925450000000003e-06 -2.0281699999999994 1.0077000000000001e-08 -6.4303699999999992e-05 -3.0365249999999997 0.26237100000000008 -0.057539999999999918 0.017895950000000004 -3.870074999999999e-07 -6.4452949999999984e-05 0.0011015450000000002 -0.026150000000000003 -10.825549999999998 -0.026199999999999776 3.0030300000000003 0.011056800000000002 -1.0505799999999998 0.00012967350000000005 -1.0755299999999999e-06 2.2995100000000005e-06 -0.465335 0.14443800000000004 0.024062950000000003 -3.4870349999999992 7.1058900000000014 -1.7032199999999996e-05 3.2100050000000004e-05 1.4285350000000012
decision_type=2 2 2 2 2 2 2 2 2 2 2 2 2 2 2 2 2 2 2 2 2 2 2 2 2 2 2 2 2 2
left_child=1 2 3 6 5 -5 -1 9 -9 -6 -11 -12 -7 14 15 18 17 -17 -3 -18 -21 -22 23 -16 25 -25 29 28 -28 -24
right_child=-2 13 -4 4 7 12 -8 8 -10 10 11 -13 -14 -15 22 16 19 -19 -20 20 21 -23 26 24 -26 -27 27 -29 -30 -31
leaf_value=0.0032722695378722094 6.1883387469985522e-06 0.00010692153135166266 -0.0032272766577079895 -0.0056485767311969543 8.0713154735955573e-05 0.00052899697971625778 0.00022453979306686833 -0.00038731789605993652 0.0030622322365398639 -0.0043736600512056618 0.001309952246637771 -0.0017387809520587325 -0.0021230081260791454 2.9655886282768238e-06 4.172850349847519e-05 -0.00069821381892489973 -0.0020779683202919032 0.0092426307544681337 -0.0032121225542505274 -0.0014300517796073109 0.0043459838425571268 -0.00032913498913070987 -0.00084831956031863756 -0.00015841641019505916 -0.0015422312590731857 0.0080143628974231728 0.012560315309092402 -0.00021550128762688896 0.0021095749697656379 -0.00010121665934744607
leaf_weight=26 96465 104 26 25 120 39 57 22 23 20 21 25 23 112460 2506 22 27 27 30 23 33 21 1538 40 34 36 20 693 111 3016
leaf_count=26 96465 104 26 25 120 39 57 22 23 20 21 25 23 112460 2506 22 27 27 30 23 33 21 1538 40 34 36 20 693 111 3016
internal_value=0 -4.9267e-06 -0.000438599 -0.000257787 -0.000632863 -0.00194727 0.00117925 -0.000137826 0.00137579 -0.000504022 -0.00156718 -0.000346968 -0.000454811 -3.39302e-06 -8.9746e-05 0.000684515 0.00184117 0.00477939 -0.000636148 0.00045682 0.00134564 0.00252788 -0.000117543 0.000127797 0.00208859 0.0037129 -0.000236883 0.000407799 0.00370511 -0.000353532
internal_weight=0 121168 427 401 318 87 83 231 45 186 66 46 62 120741 8281 287 153 49 134 104 77 54 7994 2616 110 76 5378 824 131 4554
internal_count=217633 121168 427 401 318 87 83 231 45 186 66 46 62 120741 8281 287 153 49 134 104 77 54 7994 2616 110 76 5378 824 131 4554
shrinkage=0.05


Tree=443
num_leaves=31
num_cat=0
split_feature=4 21 4 36 36 40 39 36 17 36 17 25 28 5 18 18 22 39 18 18 12 36 18 2 23 23 35 39 10 35
split_gain=0.00263856 0.0364898 0.125015 0.134136 0.56273 0.231789 0.445062 0.253785 0.301912 0.271358 0.391658 0.262614 0.290073 0.232143 0.209176 0.223868 0.193823 0.216198 0.171739 0.25986 0.160783 0.146251 0.175822 0.122603 0.220183 0.126127 0.0979029 0.213855 0.275274 0.156431
threshold=0.19669200000000001 0.20390150000000004 0.79460700000000006 -0.25142799999999998 0.20129000000000011 1.7569350000000001 -0.61387499999999962 0.056773999999999998 -5.4217549999999992 -0.040859549999999939 8.3060300000000016 -0.021603249999999997 0.71537950000000017 1.8044950000000004e-05 -8.4289549999999984 8.0248800000000013 8.9552950000000013 1.3507450000000001 -2.2047999999999992 0.60038750000000018 -4.4303949999999996e-06 0.077348000000000056 4.904135000000001 0.35244550000000008 -0.00015089299999999995 -0.00020306899999999998 0.0078118450000000004 0.80790999999999979 3.4207850000000005e-05 0.00058542150000000009
decision_type=2 2 2 2 2 2 2 2 2 2 2 2 2 2 2 2 2 2 2 2 2 2 2 2 2 2 2 2 2 2
left_child=-1 -2 3 -3 5 6 13 9 -9 10 14 12 -10 23 -8 16 17 -16 -7 -20 -11 -13 -23 25 -25 -5 27 -22 29 -29
right_child=1 2 -4 4 -6 18 7 8 11 20 -12 21 -14 -15 15 -17 -18 -19 19 -21 26 22 -24 24 -26 -27 -28 28 -30 -31
leaf_value=-3.5110497892849715e-06 -1.313831078576184e-05 -4.3761276365173737e-05 -3.2068829365953625e-05 0.0079082208196632562 -2.5274868965325872e-05 -0.0039653197040245168 0.0061689071700952594 0.0071568956543855812 0.0082137657462024224 -0.0031559711971291989 0.0070814732305838598 0.0028594938609915388 0.0010701361748700342 0.0082954910937054396 0.0025853276407064568 0.00465506110477316 -0.0035125755861497906 -0.001270071414146803 0.0052104244910879064 -0.0016163788417306144 0.00016047516619302493 -0.0048548198598639472 0.0011465994377431344 -0.0022704385221004489 0.0049782582849729811 0.002669498993566743 -0.003002358917146921 -0.0011241585880546181 0.0074449361648779204 0.0044798392755910762
leaf_weight=154710 47420 2182 9868 20 2198 33 21 34 27 33 35 28 30 29 86 34 29 63 20 46 472 23 26 22 20 27 20 33 24 20
leaf_count=154710 47420 2182 9868 20 2198 33 21 34 27 33 35 28 30 29 86 34 29 63 20 46 472 23 26 22 20 27 20 33 24 20
internal_value=0 8.63269e-06 7.5225e-05 0.000263118 0.000457039 0.00130176 0.00150061 0.00116983 0.00294897 0.000826273 0.00214974 0.00188129 0.00445396 0.00441039 0.00140892 0.000937411 0.000227298 0.000955192 -0.00102021 0.000452349 0.00023709 -2.31616e-05 -0.00167039 0.00314445 0.00118132 0.00489874 0.000433875 0.000559057 0.00300231 0.000990558
internal_weight=0 62923 15503 5635 3453 1255 1156 1038 168 870 268 134 57 118 233 212 178 149 99 66 602 77 49 89 42 47 569 549 77 53
internal_count=217633 62923 15503 5635 3453 1255 1156 1038 168 870 268 134 57 118 233 212 178 149 99 66 602 77 49 89 42 47 569 549 77 53
shrinkage=0.05


Tree=444
num_leaves=31
num_cat=0
split_feature=36 36 35 35 36 4 14 35 10 13 13 32 16 4 9 34 36 30 11 13 39 39 9 0 39 36 36 0 39 6
split_gain=0.0027245 0.0260668 0.041842 0.110569 0.242982 0.226941 0.201903 0.28134 0.170067 0.147686 0.221094 0.175497 0.144599 0.12659 0.132136 0.122608 0.103241 0.191157 0.376673 0.443352 0.213116 0.442672 0.742525 0.436762 0.327279 0.335588 0.904048 1.17019 0.271866 0.914236
threshold=-0.40968649999999995 -0.018010000000000078 0.00010995650000000002 2.0374000000000002e-05 -0.079468000000000025 -0.24562099999999998 4.270425000000001e-08 3.0867100000000008e-05 2.0892350000000003e-05 6.4843700000000005e-08 4.8253050000000006e-09 0.0011048550000000003 0.0002560000000000001 0.36048500000000006 -5.7102799999999991e-05 0.0009041190000000001 -0.079468000000000025 0.0037330700000000002 0.00020309050000000004 8.0536650000000016e-08 -0.23716000000000023 -0.61387499999999962 1.6735200000000005e-05 -2.4311799999999999 0.27381999999999979 -0.058960000000000005 -0.040859549999999939 -3.0090749999999997 0.93421999999999994 8.2329800000000007e-07
decision_type=2 2 2 2 2 2 2 2 2 2 2 2 2 2 2 2 2 2 2 2 2 2 2 2 2 2 2 2 2 2
left_child=-1 2 3 16 -5 12 7 -7 -9 10 13 -11 -6 14 -8 -14 -2 18 19 -18 21 -19 23 -23 25 -22 27 -27 29 -26
right_child=1 -3 -4 4 5 6 9 8 -10 11 -12 -13 15 -15 -16 -17 17 20 -20 -21 24 22 -24 -25 28 26 -28 -29 -30 -31
leaf_value=6.5361025227200242e-06 -1.0842383296852972e-05 3.4530476925792829e-06 -0.0001914987455926146 -2.5785847293291248e-05 0.0011449478555783878 0.008295059238783627 0.0048836625006515536 0.00018492092029824246 0.005074060598693403 0.00053835236941757517 -0.0042221886185288895 0.0033727556870523944 -0.004087557151915216 -0.0017060359030784595 0.00080625709837576869 -0.00041610284430227415 -0.0021270917001594276 -0.00046369649609929499 -0.00019021218391469894 -0.010788015676238999 -0.0051893486999324522 -0.0042866942032402299 0.0009853221130359806 -0.014389635540428573 -1.6867042803722951e-05 -0.0018739743623882533 0.00057520602230622271 0.013543386250967161 -0.0001486866208060037 -0.01053151242065661
leaf_weight=92022 5656 111070 4647 1932 71 24 23 46 29 104 25 115 37 42 146 59 45 367 107 22 20 23 33 20 72 20 372 32 423 29
leaf_count=92022 5656 111070 4647 1932 71 24 23 46 29 104 25 115 37 42 146 59 45 367 107 22 20 23 33 20 72 20 372 32 423 29
internal_value=0 -4.78832e-06 -6.77392e-05 -9.61194e-06 0.00026653 0.00104982 0.00153686 0.00358319 0.00207539 0.00109162 0.000223854 0.00202674 -0.000565859 0.000750636 0.00136117 -0.00183114 -0.000110786 -0.000467432 -0.00203108 -0.00497098 -0.000274608 -0.00118295 -0.0046562 -0.00898574 0.000141091 0.00113986 0.00143841 0.00761363 -0.000705196 -0.00303592
internal_weight=0 125611 14541 9894 2653 721 554 99 75 455 236 219 167 211 169 96 7241 1585 174 67 1411 443 76 43 968 444 424 52 524 101
internal_count=217633 125611 14541 9894 2653 721 554 99 75 455 236 219 167 211 169 96 7241 1585 174 67 1411 443 76 43 968 444 424 52 524 101
shrinkage=0.05


Tree=445
num_leaves=31
num_cat=0
split_feature=10 20 3 28 8 39 37 38 10 7 22 25 2 39 10 20 30 3 33 25 18 34 3 14 8 14 34 3 20 2
split_gain=0.002749 0.00935013 0.0433375 0.0177459 0.0745364 0.083545 0.00741225 0.0206781 0.00726982 0.00700897 0.00648856 0.0106178 0.0145365 0.00986778 0.00649384 0.00794663 0.0064751 0.0272064 0.0140212 0.0269276 0.00813146 0.00809202 0.0831367 0.0132053 0.0189465 0.0173232 0.00694283 0.0154953 0.0290987 0.00820596
threshold=0.00014699600000000001 -21.129099999999998 -16.870699999999996 20.036400000000004 3.0656350000000003e-05 -0.5126099999999999 0.078754999999999922 0.40779500000000007 0.00044355650000000001 3.7539700000000009e-05 87.628850000000014 1.9114100000000003 -0.4875334999999999 -7.5750250000000001 0.00020297300000000004 -5.7717399999999985 10.726400000000002 -15.732949999999999 -2.7510949999999998e-05 0.69707500000000011 18.392150000000004 -0.39553799999999995 -15.993649999999997 3.6790900000000007e-05 2.2923450000000005e-05 0.00012097400000000001 -0.21186449999999998 -15.396099999999999 -13.148399999999997 -2.6812799999999997
decision_type=2 2 2 2 2 2 2 2 2 2 2 2 2 2 2 2 2 2 2 2 2 2 2 2 2 2 2 2 2 2
left_child=-1 2 -2 10 5 -5 7 -4 -6 -8 11 16 -13 -12 -15 -16 18 -18 19 -3 -19 22 -20 24 -24 -25 27 28 -23 -29
right_child=1 3 6 4 8 -7 9 -9 -10 -11 13 12 -14 14 15 -17 17 20 21 -21 -22 26 23 25 -26 -27 -28 29 -30 -31
leaf_value=-2.5547179640794663e-06 -0.0025150185297025019 0.00013745730570524669 -0.0016985805041864904 0.0044028399875969629 -0.0012417304615068828 0.00013712261146186694 2.7836240251880076e-06 -8.2581098355648171e-05 -9.2897157956031164e-05 0.00099419489464101698 0.00065581632230896515 -0.00012471367888338138 0.0017816250906616917 -0.0011040169946292216 -0.00010743921111272417 -0.0011034115973416192 -0.0014865948666812148 3.9608281623804942e-05 0.0030296458492812236 0.0019868605088469433 -0.0009630600630771369 -0.0025053527419913735 0.0017180310601543171 -0.0017927534112823198 5.665443543312861e-06 -0.00010372376538783548 1.3850352433956952e-05 -0.00099895022093815814 3.1436486887497058e-05 1.0714580133997332e-05
leaf_weight=180357 20 81 24 22 21 24 118 113 40 21 25 20 20 28 121 24 37 250 25 26 22 20 20 20 84 63 35703 22 26 236
leaf_count=180357 20 81 24 22 21 24 118 113 40 21 25 20 20 28 121 24 37 250 25 26 22 20 20 20 84 63 35703 22 26 236
internal_value=0 1.23608e-05 -0.000267539 1.46012e-05 0.000657581 0.00217725 -0.000104678 -0.000365676 -0.000488397 0.000152565 1.27354e-05 1.42765e-05 0.000828456 -0.000272723 -0.000406905 -0.00027229 1.33875e-05 -0.000214528 1.53263e-05 0.000586845 -4.14899e-05 1.36378e-05 0.000321642 -4.03912e-05 0.000334967 -0.000510719 1.18244e-05 -0.000226112 -0.00107152 -7.53809e-05
internal_weight=0 37276 296 36980 107 46 276 137 61 139 36873 36675 40 198 173 145 36635 309 36326 107 272 36219 212 187 104 83 36007 304 46 258
internal_count=217633 37276 296 36980 107 46 276 137 61 139 36873 36675 40 198 173 145 36635 309 36326 107 272 36219 212 187 104 83 36007 304 46 258
shrinkage=0.05


Tree=446
num_leaves=31
num_cat=0
split_feature=39 3 18 2 6 36 17 1 12 36 36 17 32 18 36 3 40 39 36 36 14 26 18 17 18 11 39 23 26 7
split_gain=0.00278782 0.0170218 0.0728923 0.159786 0.0750198 0.0919737 0.0714299 0.0806932 0.133181 0.0733806 0.591293 0.0470986 0.0358196 0.0178722 0.0381871 0.0151245 0.0177498 0.0534756 0.0700618 0.780201 0.531046 0.293758 0.322191 0.405274 0.495092 0.540793 0.775417 0.217186 0.179954 0.176498
threshold=1.6830350000000001 -15.510599999999998 4.5505850000000008 1.9944900000000001 1.0000000180025095e-35 -0.3562499999999999 8.3915400000000009 -4.5317299999999987 5.9976150000000007e-09 -0.27744100000000016 0.077348000000000056 -1.9409599999999998 0.082812500000000011 -5.8485049999999994 0.40779500000000007 -7.0771999999999986 -0.16918499999999967 0.76755000000000007 -0.10081500000000009 0.12375499999999996 2.6933700000000002e-07 -0.005431039999999999 -12.332599999999998 -5.9130249999999984 12.832950000000002 8.5822300000000013e-05 0.43278000000000022 0.00010974150000000001 -0.019959349999999997 3.4597700000000009e-05
decision_type=2 2 2 2 2 2 2 2 2 2 2 2 2 2 2 2 2 2 2 2 2 2 2 2 2 2 2 2 2 2
left_child=15 2 6 4 11 -6 7 8 -2 -9 -11 -4 13 -12 -15 -1 17 18 -17 20 21 28 -23 27 25 -25 -27 -24 -20 -22
right_child=1 -3 3 -5 5 -7 -8 9 -10 10 12 -13 -14 14 -16 16 -18 -19 19 -21 29 22 23 24 -26 26 -28 -29 -30 -31
leaf_value=2.9727543963400908e-06 0.0045320005365874754 8.3554258380329e-06 -0.003191118809109553 0.0048573568407889638 -0.00016509306132063967 0.0040053337981225921 0.0019437641215821107 -1.7770496249088159e-05 -0.00077166150806768762 -0.0071513803436647405 0.00098740890401434944 5.1269033307714076e-05 -0.0024578612013664543 -0.0023844016351453638 -0.00025243832861926706 -4.3425592908901343e-06 3.2853500089559788e-05 -4.7438142048336359e-06 -0.0045909280012849541 -2.823061901950853e-05 0.00089854215318072505 -0.0004765516425777605 0.00083165510866540268 -0.0033431707828726976 -0.0018592823017388582 -0.019620826583274683 -0.0070175059515839595 -0.0060988184784218904 0.001204080079529573 -0.0024373463216057472
leaf_weight=101813 20 94160 21 21 39 20 30 225 29 37 24 24 21 23 242 2402 5553 10148 21 2378 110 32 26 21 25 23 26 20 37 62
leaf_count=101813 20 94160 21 21 39 20 30 225 29 37 24 24 21 23 242 2402 5553 10148 21 2378 110 32 26 21 25 23 26 20 37 62
internal_value=0 6.43342e-06 -0.000226783 0.000879116 7.58174e-05 0.00124861 -0.000439129 -0.000554245 0.0013931 -0.000721063 -0.00117709 -0.00146185 -0.000464028 -0.000319147 -0.000437477 -4.97782e-06 -4.37382e-05 -7.14802e-05 -0.000202146 -0.000372993 -0.00240735 -0.00397353 -0.00500593 -0.00603387 -0.00789919 -0.0100563 -0.0129334 -0.00218159 -0.000894113 -0.000303929
internal_weight=0 94936 776 125 104 59 651 621 49 572 347 45 310 289 265 122697 20884 15331 5183 2781 403 231 173 141 95 70 49 46 58 172
internal_count=217633 94936 776 125 104 59 651 621 49 572 347 45 310 289 265 122697 20884 15331 5183 2781 403 231 173 141 95 70 49 46 58 172
shrinkage=0.05


Tree=447
num_leaves=31
num_cat=0
split_feature=3 17 18 10 2 37 1 13 15 18 17 9 3 1 10 18 8 39 1 13 17 1 18 23 14 5 36 21 4 30
split_gain=0.00265037 0.0146812 0.0704037 0.225895 0.0259958 0.129464 0.0101585 0.0160092 0.0120468 0.0141295 0.00678415 0.140816 0.0165714 0.016967 0.0136626 0.00730046 0.052199 0.0499718 0.0156594 0.0108766 0.00810028 0.00564167 0.0776385 0.130682 0.144926 0.158684 0.0632212 0.018287 0.0134119 0.0111498
threshold=-5.6511299999999993 -12.926599999999999 -9.1109899999999975 6.9850100000000007e-06 2.2570350000000006 -0.25176499999999996 14.818150000000001 3.6544900000000005e-06 -4.0549399999999993e-06 18.392150000000004 19.256550000000001 1.6735200000000005e-05 -5.1863649999999994 8.0544250000000019 8.4862800000000007e-06 -13.876599999999998 1.6979350000000002e-05 0.97785500000000003 -13.470699999999999 2.3057600000000002e-06 7.1058900000000014 11.597950000000003 11.881850000000002 -4.6143649999999993e-05 1.0181200000000001e-07 2.2914500000000002e-05 -0.0054100000000001361 0.1103785 0.090019550000000018 0.0019604250000000004
decision_type=2 2 2 2 2 2 2 2 2 2 2 2 2 2 2 2 2 2 2 2 2 2 2 2 2 2 2 2 2 2
left_child=21 2 3 -2 6 -6 7 8 -4 -10 15 12 14 -14 -12 16 -3 -18 -19 20 -20 -1 29 28 26 -26 -25 -28 -24 -23
right_child=1 10 4 -5 5 -7 -8 -9 9 -11 11 -13 13 -15 -16 -17 17 18 19 -21 -22 22 23 24 25 -27 27 -29 -30 -31
leaf_value=-1.0547842555438854e-06 -0.00070707339213726841 0.0022298077819626391 0.0011072127190709579 0.0053078603285922768 -0.00070890741331631471 0.0041828896295988847 0.00083922009243569517 -0.0015058881678019784 -5.3217022551076589e-05 -0.0012302932491365937 -0.00035624576709311889 0.0040263263513969092 -0.00035956860585046295 0.0014396299861255102 -0.0019530100146463764 4.9698781906005001e-06 0.0017650250780354476 -0.0011817023683605449 -5.4928430518254347e-05 -0.00088720125711530063 0.00078342033504408661 0.0010490671516745352 0.00084133404716962954 -0.0023070126897781285 -0.0016219550511353494 -0.0072126635509035131 0.0010055887254861158 -0.0008709721513878322 -0.00059252959905452805 -1.0704937012018721e-05
leaf_weight=181783 37 30 20 27 38 21 27 21 285 28 37 22 38 20 21 31183 37 35 163 33 35 25 73 37 30 22 37 20 21 3427
leaf_count=181783 37 30 20 27 38 21 27 21 285 28 37 22 38 20 21 31183 37 35 163 33 35 25 73 37 30 22 37 20 21 3427
internal_value=0 1.32513e-05 0.000280987 0.00183048 5.56061e-05 0.00103224 -9.56313e-05 -0.000166934 -8.24949e-05 -0.000158515 8.9884e-06 0.000358796 -0.00033677 0.000260845 -0.000934385 7.45669e-06 0.000240328 4.33501e-05 -0.000196131 -4.6802e-05 9.32645e-05 -2.29754e-06 -6.34871e-05 -0.000933063 -0.00186924 -0.00398725 -0.000697576 0.000347146 0.000521003 -3.02988e-06
internal_weight=0 32158 504 64 440 59 381 354 333 313 31654 138 116 58 58 31516 333 303 266 231 198 185475 3692 240 146 52 94 57 94 3452
internal_count=217633 32158 504 64 440 59 381 354 333 313 31654 138 116 58 58 31516 333 303 266 231 198 185475 3692 240 146 52 94 57 94 3452
shrinkage=0.05


Tree=448
num_leaves=31
num_cat=0
split_feature=20 32 3 6 9 9 13 36 36 29 3 25 35 3 4 13 7 36 10 3 26 19 36 1 35 30 0 2 29 21
split_gain=0.00257975 0.0136652 0.0887306 0.0216436 0.0092145 0.0317064 0.0128536 0.0220775 0.126888 0.131227 0.207679 0.0629949 0.0693801 0.0498984 0.0623236 0.0666111 0.0292234 0.0254215 0.0192231 0.010743 0.0475786 0.0508371 0.0403645 0.00856323 0.00876461 0.00982994 0.011599 0.00679039 0.00866342 0.00654457
threshold=-6.1276249999999992 -0.0013312399999999998 -6.0035249999999989 -4.5011399999999994e-06 2.2232350000000001e-05 2.1571850000000003e-05 -9.1697599999999983e-08 -0.3562499999999999 0.10022550000000004 -3.9251049999999994e-06 -6.2207449999999991 -0.064774849999999981 7.9992950000000015e-05 -6.4469949999999994 0.054536750000000002 4.9552750000000007e-08 3.8435000000000007e-05 0.0045899999999999838 -5.7078899999999985e-06 -7.4119349999999988 -0.032883099999999992 0.77858100000000008 0.1751400000000001 -9.3239949999999983 0.034433300000000007 2.6849000000000003 3.8423200000000004 2.9401200000000007 -0.00090391799999999997 -0.072564049999999977
decision_type=2 2 2 2 2 2 2 2 2 2 2 2 2 2 2 2 2 2 2 2 2 2 2 2 2 2 2 2 2 2
left_child=-1 2 3 -2 5 6 -3 -8 9 10 -9 -11 13 18 16 -16 17 29 -13 23 21 22 -21 -6 -25 26 -26 28 -10 -15
right_child=1 4 -4 -5 19 -7 7 8 27 11 -12 12 -14 14 15 -17 -18 -19 -20 20 -22 -23 -24 24 25 -27 -28 -29 -30 -31
leaf_value=-9.5599005784390832e-07 0.0017068310828926771 -2.6640778351155042e-05 -0.0027293878743269791 -0.00010287083770699132 0.0010400888177628076 0.001894701672123252 -1.622636946395018e-05 0.0073988487737369733 -0.0010327099367887491 0.0028199836477693736 0.00019331567455083132 -0.0015761789166429917 -0.002120687713360657 0.00081780367596365981 0.004597332620102426 0.0012204220581770644 -0.0011319419394898102 0.002159906442726164 0.00018789996032323193 -0.003552024348547483 -2.3139368642433277e-05 0.00065870158099901998 -0.00078789404110284522 2.7828707869131775e-05 -0.0018636064592283221 0.00018578285867768116 -0.00033763855701016095 0.00065314151205663959 -5.999551013477626e-06 -0.00013342546859128175
leaf_weight=211122 20 1873 33 95 20 24 1135 20 21 33 20 23 23 40 23 40 22 28 47 28 337 21 25 1452 20 33 33 38 951 33
leaf_count=211122 20 1873 33 95 20 24 1135 20 21 33 20 23 23 40 23 40 22 28 47 28 337 21 25 1452 20 33 33 38 951 33
internal_value=0 3.09984e-05 -0.000443959 0.00021186 4.20456e-05 8.23236e-05 7.23701e-05 0.000146638 0.000282359 0.00109984 0.00379608 0.000754173 0.00050983 0.000746166 0.0011744 0.00245326 0.00051938 0.000879074 -0.000391726 -4.78383e-05 -0.000275229 -0.00142326 -0.00224819 1.21474e-05 -1.21982e-06 -0.000491667 -0.000913476 -2.54763e-06 -2.81816e-05 0.000387796
internal_weight=0 6511 148 115 6363 4394 4370 2497 1362 352 40 312 279 256 186 63 123 101 70 1969 411 74 53 1558 1538 86 53 1010 972 73
internal_count=217633 6511 148 115 6363 4394 4370 2497 1362 352 40 312 279 256 186 63 123 101 70 1969 411 74 53 1558 1538 86 53 1010 972 73
shrinkage=0.05


Tree=449
num_leaves=31
num_cat=0
split_feature=14 32 9 36 12 16 32 14 3 14 23 32 10 4 2 36 32 14 14 15 21 5 15 5 4 18 3 25 18 37
split_gain=0.00255039 0.0165849 0.0690573 0.0375997 0.0348049 0.0323072 0.0111237 0.0217292 0.020798 0.0201803 0.049181 0.0138697 0.0546988 0.0202235 0.0111116 0.00779558 0.00753463 0.0304218 0.0403127 0.0241662 0.0199253 0.0156718 0.0125365 0.0200225 0.0192617 0.011324 0.0277583 0.0150435 0.00818982 0.0429258
threshold=2.5901300000000006e-05 -2.2564299999999995 0.00023337100000000004 0.22528099999999995 -2.1368049999999996e-05 0.0019525250000000003 1.20103 4.7046700000000012e-05 -11.976899999999999 8.0974050000000018e-05 -0.0048905699999999995 0.86690500000000015 -5.5913199999999999e-05 2.2539600000000006 2.5460950000000007 0.86046950000000011 -2.2564299999999995 1.8285550000000003e-05 1.0770700000000002e-05 0.00010559900000000002 0.86341500000000015 8.0350100000000025e-06 -1.1273899999999999e-05 1.1221950000000002e-05 -0.19656399999999996 -2.0281699999999994 -13.522749999999998 -0.39445199999999997 18.392150000000004 0.68231549999999996
decision_type=2 2 2 2 2 2 2 2 2 2 2 2 2 2 2 2 2 2 2 2 2 2 2 2 2 2 2 2 2 2
left_child=16 2 3 5 -5 -2 11 8 -8 10 -9 -3 -13 -14 -11 -10 17 18 19 21 -21 -1 23 -23 -24 27 -27 -25 -18 -30
right_child=1 6 -4 4 -6 -7 7 9 15 14 -12 12 13 -15 -16 -17 28 -19 -20 20 -22 22 24 25 -26 26 -28 -29 29 -31
leaf_value=0.0011588734496967865 -0.00074240310073253656 1.1647654927364416e-05 0.0025175447341205335 0.00050859954984237745 -0.0021454262628200619 0.0017253202051708489 -0.0024244367983919804 0.0027573925157912526 -0.0012705133104464039 -0.00014130694274475293 -0.0004228322552168515 0.0029313191746041414 0.0015583946094557179 -0.00018330639023770345 -0.0011913445863746316 1.2639202533795596e-05 -2.1941454369035842e-06 -0.002086429771879921 0.0021037798872566783 -0.0002644839696586132 -0.002369250415623273 -0.0017610970383080153 0.0015287660217836675 -5.7462041721529592e-05 -6.2302017345140773e-05 0.0015182778394470613 -0.00038090871640193171 -0.0017115756707089197 0.00061740763853931685 -0.00021761217311174364
leaf_weight=24 21 30566 34 21 30 36 20 20 20 192 31 20 20 100 29 29 185107 20 20 23 22 26 20 28 389 24 97 27 294 323
leaf_count=24 21 30566 34 21 30 36 20 20 20 192 31 20 20 100 29 29 185107 20 20 23 22 26 20 28 389 24 97 27 294 323
internal_value=0 1.32338e-05 0.000552362 -6.63068e-05 -0.00105259 0.000816159 1.0768e-05 -0.000273233 -0.00106569 -7.22054e-05 0.000824315 1.39219e-05 0.000510455 0.000106977 -0.000279095 -0.000511097 -2.2138e-06 -0.000163648 -0.000108711 -0.000173784 -0.00129348 -9.44357e-05 -0.000143666 -0.000465938 1.55008e-05 -0.000274608 -4.21056e-06 -0.000869481 -1.58796e-06 0.000180274
internal_weight=0 31189 142 108 51 57 31047 341 69 272 51 30706 140 120 221 49 186444 720 700 680 45 635 611 202 409 176 121 55 185724 617
internal_count=217633 31189 142 108 51 57 31047 341 69 272 51 30706 140 120 221 49 186444 720 700 680 45 635 611 202 409 176 121 55 185724 617
shrinkage=0.05


Tree=450
num_leaves=31
num_cat=0
split_feature=39 39 18 36 9 31 17 17 20 7 17 2 17 20 30 10 25 36 25 37 19 36 22 34 31 18 26 33 13 33
split_gain=0.00252368 0.0137246 0.0546843 0.0819891 0.255576 0.0585901 0.104056 0.0496211 0.10677 0.186421 0.311391 0.121104 0.0515531 0.140649 0.408334 0.0876006 0.126556 0.0718494 0.17337 0.0636605 0.481472 0.343656 0.325417 0.302409 0.432675 0.265839 0.254424 0.251372 0.267014 0.245689
threshold=1.6830350000000001 0.35261000000000037 14.003250000000001 -0.19934349999999995 6.3446200000000008e-06 -0.070123049999999978 -1.1948249999999998 7.2203350000000013 -11.018649999999999 2.1866400000000001e-05 9.0309850000000029 -0.19896649999999996 -9.0227099999999982 -9.4947349999999986 0.068195050000000021 -2.1286349999999997e-05 0.016125400000000002 -0.011175000000000155 0.0079892800000000031 0.29985500000000015 2.7783350000000007 0.20129000000000011 2.3879650000000008 0.0076879600000000006 -0.0069601449999999992 8.6910200000000017 -0.018122999999999997 2.9738650000000005e-07 3.6544900000000005e-06 2.3922400000000003e-05
decision_type=2 2 2 2 2 2 2 2 2 2 2 2 2 2 2 2 2 2 2 2 2 2 2 2 2 2 2 2 2 2
left_child=1 -1 7 -4 5 -5 -7 12 9 -9 11 -11 13 14 -3 16 -16 18 -17 20 21 22 23 24 -14 29 -26 -28 -29 -24
right_child=-2 2 3 4 -6 6 -8 8 -10 10 -12 -13 19 -15 15 17 -18 -19 -20 -21 -22 -23 25 -25 26 -27 27 28 -30 -31
leaf_value=4.2416600235362675e-06 6.1210558023744505e-06 0.0074525551728584112 -5.9286769155093208e-05 -0.0016972376049293584 0.0052930480598554243 0.0032049840134277478 -0.00047590855233465846 -3.7253830942737067e-05 4.4344647058189352e-05 -0.0014043107962347027 0.0076435843679355468 0.0028830923237865135 -0.0056683050000063354 1.1779225560992346e-05 -4.1771185533434621e-05 0.00402266654275536 0.0053847808008348312 -0.0010043149684142807 -0.00048474396274968969 -5.9351500412314423e-06 -0.0045511421928249689 -2.4468063137890251e-05 -0.0029428688801575831 0.0026302941246524967 -0.0040025619389483357 0.0015708823884117672 -0.00052842608224754073 0.0035874316031320056 -0.001918632387852056 0.002308831773310279
leaf_weight=95245 94936 24 199 27 34 32 48 135 5293 28 25 40 41 3023 22 32 21 81 64 8102 63 8201 309 76 49 44 1308 76 31 24
leaf_count=95245 94936 24 199 27 34 32 48 135 5293 28 25 40 41 3023 22 32 21 81 64 8102 63 8201 309 76 49 44 1308 76 31 24
internal_value=0 -4.73613e-06 -3.58847e-05 0.000594282 0.0015167 0.000316733 0.000996448 -4.37873e-05 8.998e-05 0.0011494 0.00287196 0.00111769 -7.79927e-05 0.000104984 0.00125973 0.000584153 0.00260841 9.23853e-05 0.00101773 -0.000110616 -0.000193586 -0.000166563 -0.000761723 -0.000446956 -0.000602352 -0.00208174 -0.000460478 -0.000337819 0.00199222 -0.00256437
internal_weight=0 122697 27452 340 141 107 80 27112 5521 228 93 68 21591 3267 244 220 43 177 96 18324 10222 10159 1958 1581 1505 377 1464 1415 107 333
internal_count=217633 122697 27452 340 141 107 80 27112 5521 228 93 68 21591 3267 244 220 43 177 96 18324 10222 10159 1958 1581 1505 377 1464 1415 107 333
shrinkage=0.05


Tree=451
num_leaves=31
num_cat=0
split_feature=28 23 36 13 8 18 10 36 16 8 36 11 16 30 8 8 13 37 4 7 21 37 17 23 19 14 2 28 37 37
split_gain=0.00252483 0.013603 0.0272482 0.0135666 0.054612 0.029351 0.0400196 0.0239076 0.0149364 0.0162358 0.0694003 0.0802986 0.100232 0.0835754 0.0442815 0.0351883 0.0262553 0.018473 0.0515496 0.062639 0.0797755 0.0351224 0.023035 0.0117535 0.00975309 0.00688757 0.00534128 0.00413572 0.0220734 0.173583
threshold=-10.048129999999999 -0.028182349999999998 -0.32870999999999989 -2.6594849999999998e-05 1.5224150000000001e-05 2.0101650000000002 -1.5788349999999999e-05 -0.25142799999999998 3.865525000000001e-10 3.1191600000000001e-05 -0.3562499999999999 0.0011235450000000003 0.00042279750000000005 10.726400000000002 2.2609900000000005e-05 3.1709050000000001e-05 -1.1710799999999998e-05 0.14791590000000002 0.49902250000000004 -4.6142999999999988e-05 0.97666950000000008 0.73791050000000025 -11.277699999999998 -0.0013306049999999997 2.8798550000000005 9.0015350000000007e-07 1.6435150000000003 -4.3985699999999994 -0.057539999999999918 -0.12554300000000002
decision_type=2 2 2 2 2 2 2 2 2 2 2 2 2 2 2 2 2 2 2 2 2 2 2 2 2 2 2 2 2 2
left_child=1 2 -1 4 -3 6 -6 -7 -5 10 26 25 -13 -14 -15 -11 -17 18 22 -20 -21 -19 -18 -8 -23 -12 -10 28 29 -2
right_child=27 3 -4 8 5 7 23 -9 9 15 11 12 13 14 -16 16 17 21 19 20 -22 24 -24 -25 -26 -27 -28 -29 -30 -31
leaf_value=-8.0418067327194711e-05 2.1393402827475834e-05 0.0027658422481701048 -0.0017245584303357949 0.0011308947445359081 0.0027021830651210621 -6.8995498991539902e-06 0.0010749816734460184 -0.0016609013764067523 6.3893029202472561e-06 0.0018317289471505554 -0.00025577844529135079 -0.0046123371962624206 0.0013970008195863795 -0.00077886716753710066 -0.0038490249901888488 0.0013263747916789726 -0.0015251992805466281 -0.0016943960287455031 -0.0007016525757665348 0.00050401664366723879 0.0049163872141798496 -5.9158176374567544e-05 0.00014382869649816254 -0.00021896164375229327 -0.0011385144909251143 0.00076773737402452923 0.00082256725373944001 -2.8353199788201206e-07 0.00014735747573220719 -0.003337641000582996
leaf_weight=84 621 21 36 25 20 74 26 31 441 27 65 28 23 24 23 35 28 38 21 21 20 430 79 54 22 22 21 213275 1957 41
leaf_count=84 621 21 36 25 20 74 26 31 441 27 65 28 23 24 23 35 28 38 21 21 20 430 79 54 22 22 21 213275 1957 41
internal_value=0 -6.00059e-05 -0.00057366 -2.1934e-05 0.000337405 8.86378e-05 0.000701693 -0.000495224 -8.0233e-05 -0.000102366 -0.000284202 -0.00110254 -0.00208403 -0.00107271 -0.00228128 6.08068e-05 -8.09076e-06 -7.89653e-05 0.0003718 0.00151899 0.00265639 -0.000234433 -0.000292926 0.00020157 -0.000111693 3.04165e-06 4.34883e-05 4.83341e-07 6.29326e-05 -0.000186643
internal_weight=0 1739 120 1619 226 205 100 105 1393 1368 647 185 98 70 47 721 694 659 169 62 41 490 107 80 452 87 462 215894 2619 662
internal_count=217633 1739 120 1619 226 205 100 105 1393 1368 647 185 98 70 47 721 694 659 169 62 41 490 107 80 452 87 462 215894 2619 662
shrinkage=0.05


Tree=452
num_leaves=31
num_cat=0
split_feature=33 14 6 36 36 4 36 39 18 18 3 12 17 39 39 23 16 37 17 20 34 3 39 4 37 37 34 39 39 14
split_gain=0.00248773 0.0200692 0.0224145 0.0352124 0.305022 0.242455 0.208935 0.172616 0.252626 0.4346 0.28243 0.110191 0.0866995 0.0686548 0.286597 0.0804899 0.0622224 0.0397768 0.0334607 0.0283634 0.0275664 0.150161 0.0208569 0.0203307 0.0422509 0.386435 0.278917 0.610585 0.610644 0.447642
threshold=-1.1071149999999997e-08 3.4718200000000011e-08 -1.9548899999999994e-06 -0.12496499999999998 0.10022550000000004 -0.42458499999999993 0.056773999999999998 -0.32314999999999999 -4.6981599999999988 4.2802450000000007 -10.156199999999998 1.0214300000000003e-06 9.7253800000000012 1.1890849999999997 0.27381999999999979 0.00012263650000000003 1.9131000000000004e-05 -0.026150000000000003 14.554100000000002 -8.104359999999998 1.8271150000000003 -13.353949999999999 2.6261900000000007 -0.13528899999999996 -0.2029299999999998 0.09983149999999999 -0.00031063599999999993 2.1697850000000001 -1.1637600000000001 1.6945850000000003e-05
decision_type=2 2 2 2 2 2 2 2 2 2 2 2 2 2 2 2 2 2 2 2 2 2 2 2 2 2 2 2 2 2
left_child=1 2 3 18 5 16 7 8 -7 10 -10 12 13 14 17 -16 -5 19 -1 -9 -4 -22 -15 24 -3 26 27 28 -26 -30
right_child=-2 23 20 4 -6 6 -8 11 9 -11 -12 -13 -14 22 15 -17 -18 -19 -20 -21 21 -23 -24 -25 25 -27 -28 -29 29 -31
leaf_value=1.4748406008297996e-07 -5.9757236547001082e-06 1.1814052372133401e-05 7.0054652614184531e-06 -0.0024621681264012725 2.0680444845154956e-05 -0.0012373185009219806 0.0051374070766394509 0.00080534378459560694 0.0039675350370816887 4.6997279309834997e-05 0.012370356388855726 -0.0022348240772351764 0.0039147044926022105 -0.0018556466221343725 0.0062602998632549619 0.0025328217458861352 -0.00010687616338259433 0.00050244860341646584 0.0019997868371796185 0.0034363168014568237 0.004668675063003321 -0.00042931114157209566 4.9478635385942959e-05 2.128448899385366e-06 -0.00095632717575215283 -4.0141371748443713e-06 -0.00029409701661225514 -6.1471193155246173e-05 -0.0083995490956036215 -0.00098796826073171192
leaf_weight=5525 96744 7607 24415 34 4486 23 37 20 20 28 20 26 26 20 30 28 160 333 21 21 20 52 51 72216 86 4893 404 177 83 27
leaf_count=5525 96744 7607 24415 34 4486 23 37 20 20 28 20 26 26 20 30 28 160 333 21 21 20 52 51 72216 86 4893 404 177 83 27
internal_value=0 4.7822e-06 3.64436e-05 9.60554e-05 0.000187406 0.00104023 0.00148331 0.00127402 0.00329248 0.00482461 0.00816895 0.000943064 0.00109925 0.000953724 0.00119054 0.00446083 -0.000519659 0.000683382 7.71914e-06 0.00215292 9.88638e-06 0.000986796 -0.000487176 -8.32631e-06 -6.51916e-05 -0.000168504 -0.00120435 -0.00219025 -0.00411266 -0.00658034
internal_weight=0 120889 35396 10909 5363 877 683 646 91 68 40 555 529 503 432 58 194 374 5546 41 24487 72 71 85493 13277 5670 777 373 196 110
internal_count=217633 120889 35396 10909 5363 877 683 646 91 68 40 555 529 503 432 58 194 374 5546 41 24487 72 71 85493 13277 5670 777 373 196 110
shrinkage=0.05


Tree=453
num_leaves=31
num_cat=0
split_feature=3 18 30 11 11 23 18 1 20 0 13 27 12 40 25 23 13 36 18 23 9 1 5 13 9 11 40 5 39 19
split_gain=0.00246367 0.00968148 0.0755171 0.077147 0.0108177 0.0106571 0.0102305 0.114361 0.103833 0.010597 0.00953193 0.00874076 0.0217665 0.00737653 0.0072791 0.0168853 0.0587368 0.13161 0.0128429 0.00721796 0.0219342 0.00675666 0.00662944 0.00621325 0.00618461 0.0056754 0.0211323 0.060696 0.192161 0.0479163
threshold=-5.6511299999999993 -15.424049999999998 0.34287850000000003 0.00022094500000000003 0.00011615350000000002 -0.062701649999999984 18.392150000000004 8.8482550000000018 -8.2009299999999978 13.257850000000003 4.1207450000000003e-07 0.064526950000000013 -1.5418149999999998e-06 -1.2755000000000003 -0.064774849999999981 -0.0037174099999999996 6.4489550000000005e-07 0.327845 -13.876599999999998 -0.0090542049999999975 1.4690450000000003e-05 2.1386600000000002 9.0806150000000018e-06 2.6510250000000001e-08 -1.7190199999999997e-05 0.00010202100000000002 0.086360000000000006 1.8532800000000003e-05 -0.15760999999999911 2.9584000000000006
decision_type=2 2 2 2 2 2 2 2 2 2 2 2 2 2 2 2 2 2 2 2 2 2 2 2 2 2 2 2 2 2
left_child=25 2 -2 4 13 10 11 9 -9 -8 -3 14 -13 21 15 16 24 -18 -17 20 -16 23 -20 -4 -7 26 -1 29 -29 -28
right_child=1 5 3 -5 -6 6 7 8 -10 -11 -12 12 -14 -15 19 18 17 -19 22 -21 -22 -23 -24 -25 -26 -27 27 28 -30 -31
leaf_value=-1.3332474882785068e-05 0.0029285819091892339 -0.00025196571279712904 -0.0002652919319715645 0.0024663918440888544 -0.0012158918555575872 0.00086982009583845782 -0.00035380581257228117 6.1644261586479853e-06 0.0050400746786700831 -0.0017195592929783743 -0.0015097989898640663 -0.0014211877533567272 -0.00010705215288683725 0.0005731559381820262 -7.0491250694149372e-05 0.00098983666265060801 0.0051662149346520898 -7.0072358454732858e-05 0.0006894222459059644 8.1394983133836473e-06 -0.0017644277627012978 7.7985760222847814e-05 2.1908038336032554e-05 -0.0011448254699086735 -4.8676058912475483e-05 8.4928760854245261e-07 -0.00016205044907152284 -0.00026546291179002792 -0.0056539004533555101 0.0023044825681881776
leaf_weight=18889 25 61 57 29 27 21 49 20 21 20 20 35 316 30 113 36 20 30 38 29162 23 72 1758 31 144 165196 1271 78 21 20
leaf_count=18889 25 61 57 29 27 21 49 20 21 20 20 35 316 30 113 36 20 30 38 29162 23 72 1758 31 144 165196 1271 78 21 20
internal_value=0 1.27761e-05 0.000310366 4.42874e-05 -0.000279404 1.02469e-05 1.17056e-05 0.000493065 0.00258451 -0.000749676 -0.000562542 1.00351e-05 -0.000238091 -0.000146324 1.28136e-05 0.000103969 0.000523158 0.00202444 5.47743e-05 6.4447e-06 -0.000356966 -0.000281227 3.60314e-05 -0.000575128 6.82235e-05 -2.21514e-06 -2.71784e-05 -0.000215334 -0.00140846 -0.000123839
internal_weight=0 32158 271 246 217 31887 31806 110 41 69 81 31696 351 190 31345 2047 215 50 1832 29298 136 160 1796 88 165 185475 20279 1390 99 1291
internal_count=217633 32158 271 246 217 31887 31806 110 41 69 81 31696 351 190 31345 2047 215 50 1832 29298 136 160 1796 88 165 185475 20279 1390 99 1291
shrinkage=0.05


Tree=454
num_leaves=31
num_cat=0
split_feature=11 20 1 25 10 33 28 39 6 3 3 20 3 25 36 17 17 9 39 10 9 39 11 37 39 6 30 7 7 4
split_gain=0.00245948 0.00849075 0.0126764 0.00718862 0.00297148 0.00907863 0.0235826 0.143361 0.00921587 0.00683828 0.00567481 0.00543503 0.0490976 0.00612076 0.0405659 0.00579336 0.00520918 0.0272902 0.117012 0.177257 0.0742753 0.0341081 0.0285046 0.0264513 0.0206222 0.0509427 0.0154743 0.013111 0.0315647 0.0626869
threshold=0.71230950000000004 -14.053899999999997 -4.2653099999999986 0.010025000000000001 0.00014699600000000001 0.00046534500000000004 20.036400000000004 0.16841000000000064 -5.390634999999999e-07 -10.279999999999999 -13.799749999999998 -20.320949999999996 -16.870699999999996 1.9114100000000003 -0.43704099999999996 12.319050000000002 -19.608449999999998 -3.9555399999999991e-05 1.9002500000000004 4.6620650000000009e-05 -5.2550399999999997e-05 -0.56159999999999977 0.0075758350000000004 4.6270000000000016 -3.7428349999999995 -1.4472899999999998e-06 2.6849000000000003 -4.1568899999999994e-05 -2.8966949999999995e-05 0.078893300000000013
decision_type=2 2 2 2 2 2 2 2 2 2 2 2 2 2 2 2 2 2 2 2 2 2 2 2 2 2 2 2 2 2
left_child=4 2 -2 -4 16 6 11 -8 -9 -10 -7 12 -6 -13 -15 -14 17 18 20 -20 21 22 -1 24 25 -19 -27 -26 29 -29
right_child=1 -3 3 -5 5 10 7 8 9 -11 -12 13 15 14 -16 -17 -18 23 19 -21 -22 -23 -24 -25 27 26 -28 28 -30 -31
leaf_value=0.00047433796046518825 -0.0014440885814256035 -5.7352016941791824e-06 -3.468613718806327e-05 -0.00090785812305208913 -0.0025247016960444554 -0.0010768683039932513 0.0045447928132489324 0.00048338659955492322 -0.0014264379453379661 -0.00011893278198840564 -0.00024162142547146513 1.3881613141324779e-05 1.5863153404046854e-05 -0.00020733928276045396 0.0021434828392229975 -0.00077284466431592602 -2.841023655025048e-06 0.0029601172912225595 0.0050517428452299257 -0.00089779276722332557 0.0024330528412247077 -0.0027049379456522212 -0.0018685364630073309 -0.0018125580175546931 -0.0009361835846946287 -0.000577606757848882 0.00097148297219454044 -0.00059988876372309673 -0.0001527367005028113 0.0033114539395319299
leaf_weight=37 25 656 110 30 21 25 20 23 20 20 109 35759 339 69 25 25 179641 20 31 21 20 21 20 20 42 38 28 21 377 20
leaf_count=37 25 656 110 30 21 25 20 23 20 20 109 35759 339 69 25 25 179641 20 31 21 20 21 20 20 42 38 28 21 377 20
internal_value=0 -8.63773e-05 -0.000406991 -0.000221794 3.27084e-07 1.33468e-05 1.48624e-05 0.000856703 -0.000314119 -0.000772685 -0.000397451 1.29342e-05 -0.000173928 1.49408e-05 0.000417879 -3.83063e-05 -2.30456e-06 0.000132292 0.000731917 0.00264905 -0.000285335 -0.000982358 -0.000347723 -2.6619e-05 3.88e-05 0.000749475 7.95828e-05 -9.40653e-05 -9.45053e-06 0.00130808
internal_weight=0 821 165 140 216812 36455 36321 83 63 40 134 36238 385 35853 94 364 180357 716 150 52 98 78 57 566 546 86 66 460 418 41
internal_count=217633 821 165 140 216812 36455 36321 83 63 40 134 36238 385 35853 94 364 180357 716 150 52 98 78 57 566 546 86 66 460 418 41
shrinkage=0.05


Tree=455
num_leaves=31
num_cat=0
split_feature=20 22 33 14 36 39 39 13 36 29 36 39 9 7 4 23 8 29 16 36 39 20 40 19 18 2 27 21 13 31
split_gain=0.00239783 0.00919987 0.00797679 0.024885 0.0494518 0.00720846 0.0260866 0.0305833 0.0392623 0.0587869 0.0323477 0.0282662 0.0204525 0.0267223 0.0169261 0.0512031 0.0712949 0.0169669 0.0253217 0.0510597 0.0158001 0.0152664 0.015115 0.0109739 0.009939 0.0115816 0.00983806 0.00881683 0.00830737 0.00743853
threshold=-6.1276249999999992 0.15637350000000003 -1.2728799999999998e-06 -3.1088599999999993e-08 -0.14969009999999991 0.027469999999999221 -0.32314999999999999 -7.0293049999999989e-08 -0.14969009999999991 -5.4458249999999988e-06 0.1751400000000001 -0.12174999999999957 -4.2280249999999992e-06 3.2804350000000011e-05 0.15938600000000003 0.00013131250000000003 4.0835050000000008e-05 -1.6520249999999999e-06 2.9805550000000004e-09 -0.27744100000000016 0.16841000000000064 -5.9061699999999986 0.36284999999999995 1.9654450000000001 -13.876599999999998 2.6628800000000008 0.00017196500000000002 1.2323400000000002 1.6837650000000001e-07 -0.0022115449999999992
decision_type=2 2 2 2 2 2 2 2 2 2 2 2 2 2 2 2 2 2 2 2 2 2 2 2 2 2 2 2 2 2
left_child=-1 -2 3 4 -3 6 22 12 -9 -10 11 -11 -8 -14 17 29 -17 18 19 -7 21 -19 -4 -20 -22 -26 -13 -24 -29 -16
right_child=1 2 5 -5 -6 14 7 8 9 10 -12 26 13 -15 15 16 -18 20 23 -21 24 -23 27 -25 25 -27 -28 28 -30 -31
leaf_value=-9.216664441400364e-07 0.00085020754945349742 -3.6976406786577533e-05 -0.0011309947156656437 -1.3908824863383279e-05 0.0024777321477920528 -3.6955048162781171e-05 0.00023283012864140336 -6.4343344477974293e-05 0.0037203111048438584 0.0027750769851471496 -6.9569466149639061e-07 0.00037562547789629885 -0.0024467432645155895 7.8510094551182373e-05 -0.00097913355970376866 -0.0041141430272199657 -0.00031562682595298006 0.0003845865181997075 -2.1302619174311683e-05 -0.0032984630676219243 0.00081563306128963316 0.0018407245620354928 2.1504056495991234e-05 -0.0011192115751327946 -9.2813475032053007e-05 0.00081165378994084772 0.0016622653080654954 -0.00011221801446638361 -0.001436821592214983 4.7410002101969439e-05
leaf_weight=211122 34 46 29 197 34 30 82 102 20 28 66 39 20 22 20 21 30 99 254 20 37 22 4457 25 516 38 24 29 20 150
leaf_count=211122 34 46 29 197 34 30 82 102 20 28 66 39 20 22 20 21 30 99 254 20 37 22 4457 25 516 38 24 29 20 150
internal_value=0 2.98854e-05 2.55793e-05 0.000288094 0.00103177 1.38508e-05 4.1106e-05 0.000426619 0.000717001 0.00116727 0.000842038 0.00145325 -0.000226738 -0.00112399 -9.27944e-05 -0.000490213 -0.00187972 -8.42416e-06 -0.000305377 -0.00134156 0.000128791 0.000649339 6.84762e-06 -0.000119682 2.22158e-05 -3.07742e-05 0.000865774 1.41706e-05 -0.000652873 -7.33598e-05
internal_weight=0 6511 6477 277 80 6200 4938 403 279 177 157 91 124 42 1262 221 51 1041 329 50 712 121 4535 279 591 554 63 4506 49 170
internal_count=217633 6511 6477 277 80 6200 4938 403 279 177 157 91 124 42 1262 221 51 1041 329 50 712 121 4535 279 591 554 63 4506 49 170
shrinkage=0.05


Tree=456
num_leaves=31
num_cat=0
split_feature=8 29 5 26 9 17 28 28 16 32 5 36 36 13 28 22 32 22 9 28 17 11 3 28 6 36 28 2 30 20
split_gain=0.00237183 0.0284988 0.0326674 0.0296158 0.103202 0.039109 0.0232316 0.0350681 0.0408144 0.0264665 0.078432 0.0765683 0.180507 0.051918 0.0269072 0.0488766 0.0193048 0.0808758 0.0795988 0.0445827 0.0171574 0.0157472 0.0152389 0.0141366 0.0106979 0.0185917 0.0117138 0.0508268 0.0172598 0.0558613
threshold=1.0512900000000001e-05 -7.2437099999999978e-05 6.9938750000000009e-06 0.089515950000000025 -2.8598349999999994e-05 0.53247600000000006 7.7527300000000006 2.6219150000000004 3.3848150000000009e-05 -0.028793999999999997 8.8143050000000017e-06 0.327845 -0.3819765 -3.351065e-07 -0.54512899999999986 1.8789550000000002 0.0064979950000000003 0.87448250000000016 -2.7423149999999998e-06 0.60516900000000018 4.3273800000000007 0.0034134750000000004 -18.305499999999995 -1.0750649999999997 8.9452500000000013e-07 -0.65889149999999985 -0.12903099999999998 1.8038550000000002 0.086996850000000014 -10.576799999999997
decision_type=2 2 2 2 2 2 2 2 2 2 2 2 2 2 2 2 2 2 2 2 2 2 2 2 2 2 2 2 2 2
left_child=1 2 -1 6 -5 -6 7 9 -9 10 13 12 -12 -3 15 -11 19 18 -18 24 -17 -8 -4 -15 26 -26 27 28 29 -16
right_child=-2 3 22 4 5 -7 21 8 -10 14 11 -13 -14 23 16 20 17 -19 -20 -21 -22 -23 -24 -25 25 -27 -28 -29 -30 -31
leaf_value=-0.0022261594761706269 -8.1488626497826796e-07 0.0018129854774186342 -0.0015504947921726854 0.0038932714091887729 -3.6937392104341064e-05 0.002269781147645387 -0.00016613546232249412 0.00024503118753533014 0.0030332511744096077 0.0024000098301899821 -1.7490790577583193e-05 3.7821724394997284e-05 -0.0066546905334689656 -0.0015979837144619695 0.0030331544552473135 -0.0002463507582852742 -0.0046330245204444509 -3.9321890421417532e-05 -0.00047128187370954378 0.0024242774268986977 0.0014314092699351023 -0.0021024551434536643 -0.00017199294635092562 -2.6904687806058472e-05 -1.7154916054880296e-05 0.0019644351338320119 1.8324611198569535e-05 0.0020961988592565223 -0.00010960776908727749 0.00013355108959952917
leaf_weight=24 212455 37 22 22 147 21 21 35 21 34 21 31 20 21 20 64 20 367 27 20 20 21 226 45 29 20 3440 36 248 98
leaf_count=24 212455 37 22 22 147 21 21 35 21 34 21 31 20 21 20 64 20 367 27 20 20 21 226 45 29 20 3440 36 248 98
internal_value=0 3.3435e-05 -0.000464739 6.1055e-05 0.000673093 0.000251402 3.6397e-05 4.69167e-05 0.00129061 3.1835e-05 -0.000571295 -0.00183734 -0.00325515 0.00031371 5.5591e-05 0.000800526 3.52668e-05 -0.000289411 -0.00224224 6.96356e-05 0.000153116 -0.0011343 -0.000294279 -0.000526793 5.75326e-05 0.000791657 4.81698e-05 0.000303561 0.000127236 0.000625009
internal_weight=0 5178 272 4906 190 168 4716 4674 56 4618 175 72 41 103 4443 118 4325 414 47 3911 84 42 248 66 3891 49 3842 402 366 118
internal_count=217633 5178 272 4906 190 168 4716 4674 56 4618 175 72 41 103 4443 118 4325 414 47 3911 84 42 248 66 3891 49 3842 402 366 118
shrinkage=0.05


Tree=457
num_leaves=31
num_cat=0
split_feature=8 2 33 2 10 25 36 26 12 22 40 10 20 4 10 23 6 1 22 0 36 36 10 20 27 5 10 33 36 40
split_gain=0.00242299 0.012274 0.0118551 0.0460427 0.0826926 0.0285714 0.0436487 0.0457779 0.0194212 0.072005 0.0185588 0.0416824 0.0380341 0.0648332 0.141884 0.0516859 0.0667435 0.0480944 0.159899 0.0454311 0.0422044 0.0844089 0.030006 0.0294952 0.0276629 0.0543013 0.0216049 0.0225267 0.046939 0.0191503
threshold=1.6290050000000002e-05 3.0578500000000006 -4.8108399999999992e-07 2.2358750000000005 -2.3564349999999995e-06 -0.65584149999999986 0.38220950000000015 -0.44589049999999997 6.7475600000000015e-05 0.88623800000000008 -1.1537099999999991 -4.5687299999999992e-05 -15.138399999999999 0.115275 -2.6125849999999997e-05 0.00018073150000000004 -5.7203749999999994e-08 -7.6550599999999998 2.8026550000000001 -1.9752349999999999 -0.12496499999999998 0.46240350000000002 -3.7996599999999988e-05 -16.421799999999994 0.021592100000000003 1.1571150000000002e-05 -5.8484999999999993e-05 -1.1844749999999999e-05 0.10022550000000004 -2.0474100000000002
decision_type=2 2 2 2 2 2 2 2 2 2 2 2 2 2 2 2 2 2 2 2 2 2 2 2 2 2 2 2 2 2
left_child=1 2 3 5 -5 6 7 -1 10 -10 11 -7 13 14 -12 16 23 18 -14 -20 -21 -22 -15 -16 26 -26 -19 28 -28 -13
right_child=-2 -3 -4 4 -6 8 -8 -9 9 -11 12 29 17 22 15 -17 -18 24 19 20 21 -23 -24 -25 25 -27 27 -29 -30 -31
leaf_value=-0.00053118015209855957 2.0847283314989461e-06 0.0011950147515606313 -8.9547474728128696e-07 -0.0038822267402958293 0.00032088489286252302 0.0023031920061112035 -6.5554044577145268e-05 -0.0038736322987824681 0.0033167731693538372 -0.00014744842226112573 -0.0050422865143880946 -4.226104810485498e-05 -0.0041359474683450841 0.0016758330732700418 -0.00042998494493152366 -0.0027061442717375168 0.0017290473013539063 -0.0016366681392485458 0.0014538329039086504 0.0001854421679831097 -0.0042554973332153169 6.5076196915470066e-05 -0.00027537350440354045 -0.0027153969205392058 -0.00019091418484201901 0.0029547273617936301 -6.9290535270274443e-05 2.3660206963119416e-05 -0.0029436990067188162 0.00042502461522864822
leaf_weight=21 188240 21 24980 22 25 20 63 20 20 60 23 1952 31 25 48 27 30 21 33 62 20 26 93 20 34 23 49 1357 20 247
leaf_count=21 188240 21 24980 22 25 20 63 20 20 60 23 1952 31 25 48 27 30 21 33 62 20 26 93 20 34 23 49 1357 20 247
internal_value=0 -1.33511e-05 -1.42151e-05 -8.99717e-05 -0.00164653 -7.31343e-05 -0.000891897 -0.00216164 -5.30562e-05 0.000718607 -6.78923e-05 3.08929e-05 -0.000180768 -0.000736196 -0.0014332 -0.000769134 -0.000235467 -9.26152e-05 -0.000884642 -0.000169816 -0.000665931 -0.00181343 0.000138018 -0.00110216 -2.0377e-06 0.00107838 -4.45973e-05 -2.11517e-05 -0.000902452 1.02262e-05
internal_weight=0 29393 29372 4392 47 4345 104 41 4241 80 4161 2219 1942 266 148 125 98 1676 172 141 108 46 118 68 1504 57 1447 1426 69 2199
internal_count=217633 29393 29372 4392 47 4345 104 41 4241 80 4161 2219 1942 266 148 125 98 1676 172 141 108 46 118 68 1504 57 1447 1426 69 2199
shrinkage=0.05


Tree=458
num_leaves=31
num_cat=0
split_feature=18 39 3 1 5 22 36 19 36 20 22 18 23 1 20 11 36 1 33 16 12 33 39 40 36 39 1 21 25 36
split_gain=0.00244109 0.035329 0.086756 0.255891 0.226495 0.307568 0.116713 0.242541 0.148955 0.235559 0.52399 0.140336 0.124677 0.053093 0.106709 0.0605674 0.0960252 0.0347362 0.136124 0.0324905 0.129581 0.0418082 0.0302372 0.0303047 0.110908 0.0300417 0.0438194 0.0430606 0.0304955 0.0293068
threshold=-8.9484099999999973 -0.12174999999999957 -8.1461699999999979 -3.2275299999999993 9.2265950000000021e-06 6.2236100000000008 -0.3562499999999999 -0.90610399999999991 0.22528099999999995 -10.421199999999997 5.8644050000000005 -9.9964049999999975 8.2883200000000013e-05 -7.5633549999999987 -8.1725499999999975 0.00012656100000000005 -0.040859549999999939 -11.052099999999998 -3.2722399999999995e-08 0.00013149400000000004 1.1195050000000002e-06 -4.0691899999999991e-07 -0.27803499999999998 0.65993499999999961 -0.058960000000000005 0.10586500000000011 -10.479449999999998 0.12697400000000003 -0.18761549999999996 0.327845
decision_type=2 2 2 2 2 2 2 2 2 2 2 2 2 2 2 2 2 2 2 2 2 2 2 2 2 2 2 2 2 2
left_child=1 13 3 4 5 -3 -6 8 9 10 -8 -11 -13 14 -1 16 -16 18 -17 20 21 -19 23 24 -23 26 27 -4 -28 -5
right_child=-2 2 25 29 6 -7 7 -9 -10 11 -12 12 -14 -15 15 17 -18 19 -20 -21 -22 22 -24 -25 -26 -27 28 -29 -30 -31
leaf_value=-0.0030865778227910467 -1.7660704684063742e-06 0.0091281201302384329 0.00061296595752562578 -0.00092271915288976109 -0.00016736569223660771 0.00046433768467977641 0.011285039494978263 0.0066227270967581069 -0.00015442032770911061 0.0033570400819084366 0.0010856551880030619 0.00082542690775128363 -0.0037526420661015436 -7.4192339249080878e-06 0.00017203719046977184 0.0042161795543506743 -0.0035059189355605563 -0.0025273178801095736 -0.00084922455008482859 1.1824373508825711e-06 -0.0040051365616818662 0.00013048433963939757 0.001345721257718781 -0.00013635277593040731 -0.0043197895757094516 3.8011256703949072e-06 -0.0015307352081955676 0.0025260883941561644 0.00016198858526093182 -2.9535651587789212e-05
leaf_weight=35 195849 21 218 115 142 20 20 22 122 38 34 58 20 11117 35 21 36 21 36 540 26 42 28 273 21 7670 28 34 535 456
leaf_count=35 195849 21 218 115 142 20 20 22 122 38 34 58 20 11117 35 21 36 21 36 540 26 42 28 273 21 7670 28 34 535 456
internal_value=0 1.58779e-05 8.79268e-05 0.000512634 0.0013422 0.00490188 0.00102214 0.00156007 0.00117864 0.00213531 0.0048632 0.000865426 -0.000348437 -4.03959e-05 -0.000369481 -0.000281346 -0.00169284 -0.000181925 0.00101698 -0.000253783 -0.000588775 -0.00035806 -0.00023291 -0.000364463 -0.00135294 3.44692e-05 0.000323088 0.000871086 7.78034e-05 -0.000209424
internal_weight=0 21784 9553 1068 497 41 456 314 292 170 54 116 78 12231 1114 1079 71 1008 57 951 411 385 364 336 63 8485 815 252 563 571
internal_count=217633 21784 9553 1068 497 41 456 314 292 170 54 116 78 12231 1114 1079 71 1008 57 951 411 385 364 336 63 8485 815 252 563 571
shrinkage=0.05


Tree=459
num_leaves=31
num_cat=0
split_feature=36 36 30 36 3 9 12 31 39 39 32 31 40 22 28 22 39 31 3 29 15 19 21 3 26 18 39 1 17 39
split_gain=0.00237983 0.044674 0.0769974 0.201094 0.394238 0.372331 0.0991016 0.201516 0.285573 0.419531 0.299163 0.18141 0.194469 0.305546 0.203181 0.256201 0.181464 0.190849 0.154762 0.348189 0.277812 0.279391 0.181153 0.174825 0.163547 0.36299 0.270077 0.256243 0.208854 0.268016
threshold=-0.19934349999999995 -0.018010000000000078 0.0037330700000000002 -0.058960000000000005 -6.8388149999999994 1.0000000180025095e-35 -4.7338599999999997e-07 0.0064595250000000016 2.1254700000000009 -0.32314999999999999 -0.014259749999999998 -0.014707899999999998 -2.7582999999999993 2.3108700000000004 0.65138850000000015 23.183300000000006 -0.77143500000000065 -0.060375999999999992 -13.522749999999998 -5.1110149999999994e-05 -3.6054949999999992e-07 0.62215600000000015 1.0406250000000001 -13.443999999999997 -0.011286199999999998 -12.635299999999999 1.1065400000000005 -6.7241199999999983 2.8522150000000006 -0.99152500000000054
decision_type=2 2 2 2 2 2 2 2 2 2 2 2 2 2 2 2 2 2 2 2 2 2 2 2 2 2 2 2 2 2
left_child=-1 2 3 -2 -5 -6 7 -4 9 -9 -11 12 -8 -14 -15 16 -16 -18 19 20 -13 -22 23 -20 25 -25 27 -27 -29 -30
right_child=1 -3 6 4 5 -7 11 8 -10 10 -12 18 13 14 15 -17 17 -19 22 -21 21 -23 -24 24 -26 26 -28 28 29 -31
leaf_value=5.7318858710187739e-06 -7.3231921736123697e-05 3.3144430987793061e-06 -0.00017161298849502926 -0.0003542266747734857 -0.0021362532970961184 -0.01128909848514013 0.00017004584623121419 -0.00090943380628066893 0.00029075630258915678 -0.010246421221643688 -0.003424659539790203 -0.0005079421913251281 -0.0069226339808665218 -0.00017045398060375571 -0.0010006006252730178 0.0012472982804562587 -0.01024312437628396 -0.0035647587239509451 -0.0043921017757384108 0.00046665613235654329 0.010750153461205107 0.0026872856161472471 -0.0027158060351818378 0.0073927011748310184 -7.8821781295751805e-05 -0.001927909208170604 -0.00053550030650253543 0.0063997564172950661 -0.00065405901618002349 0.0024872296903877527
leaf_weight=98843 300 111070 1786 80 25 20 246 110 123 25 45 20 26 161 21 24 20 23 22 647 21 22 60 20 3157 50 314 24 96 232
leaf_count=98843 300 111070 1786 80 25 20 246 110 123 25 45 20 26 161 21 24 20 23 22 647 21 22 60 20 3157 50 314 24 96 232
internal_value=0 -4.7694e-06 -0.000121074 -0.000775285 -0.00246021 -0.00620418 -8.29604e-05 -0.000373885 -0.00156615 -0.00283504 -0.005861 3.37783e-05 -0.000851305 -0.00176495 -0.0012264 -0.00315829 -0.00481038 -0.00667098 0.000132205 0.000812171 0.00436055 0.00662497 1.07518e-05 5.25381e-05 7.76555e-05 0.00074885 0.000563267 0.00142151 0.00189728 0.00156783
internal_weight=0 118790 7720 425 125 45 7295 2089 303 180 70 5206 521 275 249 88 64 43 4685 710 63 43 3975 3915 3893 736 716 402 352 328
internal_count=217633 118790 7720 425 125 45 7295 2089 303 180 70 5206 521 275 249 88 64 43 4685 710 63 43 3975 3915 3893 736 716 402 352 328
shrinkage=0.05


Tree=460
num_leaves=31
num_cat=0
split_feature=3 17 18 2 2 37 14 14 15 17 10 2 18 36 18 18 8 39 11 10 17 11 40 40 5 23 39 39 32 20
split_gain=0.00235963 0.0131959 0.0639658 0.20678 0.0227543 0.113293 0.0100678 0.023402 0.007619 0.00624225 0.131653 0.0385167 0.0385834 0.0356858 0.00557811 0.00530885 0.0466773 0.0431292 0.0118715 0.0112474 0.00705233 0.00497759 0.0188494 0.0555865 0.176645 0.100487 0.0435856 0.0567316 0.0585894 0.149735
threshold=-5.6511299999999993 -12.926599999999999 -9.1109899999999975 -1.0833449999999998 2.2570350000000006 -0.25176499999999996 -2.7285799999999991e-07 2.4231800000000001e-08 -4.0500549999999989e-08 19.256550000000001 -1.8365149999999998e-05 0.52314650000000007 5.8567400000000012 -0.74380499999999983 18.392150000000004 -13.876599999999998 1.6979350000000002e-05 0.97785500000000003 0.00012403000000000004 -5.7078899999999985e-06 7.1058900000000014 0.00010202100000000002 0.086360000000000006 0.15640499999999993 1.8532800000000003e-05 -0.00013337999999999997 0.16841000000000064 0.68409500000000023 -0.004571089999999999 -6.5919899999999991
decision_type=2 2 2 2 2 2 2 2 2 2 2 2 2 2 2 2 2 2 2 2 2 2 2 2 2 2 2 2 2 2
left_child=21 2 3 -2 6 -6 -4 -8 -5 15 -11 13 -13 -12 -9 16 -3 -18 20 -20 -19 22 26 24 25 -24 -1 28 29 -28
right_child=1 9 4 8 5 -7 7 14 -10 10 11 12 -14 -15 -16 -17 17 18 19 -21 -22 -23 23 -25 -26 -27 27 -29 -30 -31
leaf_value=0.00025639073081010064 0.0059587487930548378 0.0020868908275588184 -0.00091109817502215546 -0.00080153411545325071 -0.00066356298819683667 0.0039125475633357259 0.0016507823964639103 -4.4252749831524382e-05 0.00051572696483206189 0.0039892685806123722 -0.00021752853135694752 -0.00051681930768688255 0.002485975912422873 -0.0025390119036746914 -0.00074920680706254059 4.8719660785849865e-06 0.0016187693579185352 -0.00014695331068967631 -0.0017006399548749455 -0.00033082700603235355 0.0006271614204403402 7.0199460206445107e-07 -0.0035808303137442143 -8.2857404155485442e-05 -0.005337162015105909 6.7159189940415445e-05 -0.00057294298725331448 -3.733102545486208e-06 -0.00022238975809438016 -0.0051943105764145174
leaf_weight=1396 20 30 34 23 38 21 20 296 21 21 49 23 20 25 31 31183 37 161 22 47 36 165196 22 1214 21 133 106 15725 1641 21
leaf_count=1396 20 30 34 23 38 21 20 296 21 21 49 23 20 25 31 31183 37 161 22 47 36 165196 22 1214 21 133 106 15725 1641 21
internal_value=0 1.25034e-05 0.000266334 0.00174328 5.1505e-05 0.000965222 -8.99893e-05 -9.5348e-06 -0.000172841 8.46188e-06 0.000344008 -0.000310269 0.00087983 -0.00100181 -0.000111083 6.99261e-06 0.000205575 1.93064e-05 -0.000203175 -0.000767579 -5.49072e-06 -2.16786e-06 -2.55462e-05 -0.000203248 -0.00103367 -0.00045062 -1.24695e-05 -3.39254e-05 -0.000302463 -0.00133711
internal_weight=0 32158 504 64 440 59 381 347 44 31654 138 117 43 74 327 31516 333 303 266 69 197 185475 20279 1390 176 155 18889 17493 1768 127
internal_count=217633 32158 504 64 440 59 381 347 44 31654 138 117 43 74 327 31516 333 303 266 69 197 185475 20279 1390 176 155 18889 17493 1768 127
shrinkage=0.05


Tree=461
num_leaves=31
num_cat=0
split_feature=28 23 36 3 1 15 1 40 36 36 11 1 37 37 30 17 14 12 39 11 17 36 0 36 33 28 37 37 31 36
split_gain=0.00234731 0.0123142 0.0250156 0.0138704 0.0356231 0.0562916 0.0452129 0.0317432 0.0615453 0.130994 0.0307534 0.0290048 0.0147089 0.0657136 0.0810993 0.0429085 0.0162698 0.0157579 0.0168538 0.0142315 0.013667 0.00986613 0.00891403 0.00633605 0.00941903 0.00377727 0.0202762 0.155733 0.146508 0.120092
threshold=-10.048129999999999 -0.028182349999999998 -0.32870999999999989 -11.895549999999998 4.4568150000000015 -2.0136749999999994e-06 4.0814950000000012 5.2253350000000003 -0.14969009999999991 0.83132200000000001 0.0011990500000000003 1.0868900000000001 0.32610899999999998 -0.55014000000000018 7.9426800000000002 -12.926599999999999 -5.1007699999999989e-07 -4.4025599999999992e-08 6.9941450000000005 0.00070374100000000013 1.0555450000000002 -0.49100999999999978 -2.8094699999999997 -4.7245149999999994 0.00019513800000000003 -4.3985699999999994 -0.057539999999999918 -0.12554300000000002 -0.21631099999999998 1.0000000180025095e-35
decision_type=2 2 2 2 2 2 2 2 2 2 2 2 2 2 2 2 2 2 2 2 2 2 2 2 2 2 2 2 2 2
left_child=1 2 -1 4 6 -6 7 8 10 -10 -3 -9 13 15 -15 -5 -16 19 -19 -18 22 23 -12 24 -14 26 27 -2 -29 -28
right_child=25 3 -4 12 5 -7 -8 11 9 -11 20 -13 21 14 16 -17 17 18 -20 -21 -22 -23 -24 -25 -26 -27 29 28 -30 -31
leaf_value=-7.3969357694771869e-05 1.7998028585611169e-05 0.0018562425298841844 -0.0016493138100486249 0.0021913740593635547 0.0032378535543102771 7.5132696485311236e-05 -0.0019615119608575836 9.1545342503854168e-05 0.0037975287357611322 -0.0010599632749913128 -0.0012388105221706894 -0.0023484059742518836 -7.2735363367018197e-05 -0.0034290226412122139 -0.0017009911984832097 -1.9192683351027252e-05 -0.00032729062967267424 0.0014819661968795118 -0.00040473676763840249 -0.001892929205427035 0.00061206277007984583 0.00092725948592747701 -0.00024088774579078228 1.5324526534675528e-05 -0.0012574802725575866 -2.6684669566322718e-07 9.2191574881017097e-05 -0.00024679877401684368 -0.006226341657165904 0.0032802158594131474
leaf_weight=84 621 20 36 26 24 34 26 29 35 23 29 21 51 30 26 141 47 20 29 21 38 28 98 798 25 213275 1927 21 20 30
leaf_count=84 621 20 36 26 24 34 26 29 35 23 29 21 51 30 26 141 47 20 29 21 38 28 98 798 25 213275 1927 21 20 30
internal_value=0 -5.7858e-05 -0.000546573 -2.16345e-05 0.000243998 0.00138384 3.67525e-05 0.000214073 0.000450144 0.00187128 4.59855e-06 -0.000933234 -0.000102265 -0.000382527 -0.00106548 0.000324967 -0.000569636 -0.000318224 0.000365346 -0.000810797 -0.000219843 3.37664e-06 -0.00046876 -2.62214e-05 -0.000462454 4.66039e-07 6.01477e-05 -0.000179053 -0.00316365 0.000141063
internal_weight=0 1739 120 1619 377 58 319 293 243 58 185 50 1242 340 173 167 143 117 49 68 165 902 127 874 76 215894 2619 662 41 1957
internal_count=217633 1739 120 1619 377 58 319 293 243 58 185 50 1242 340 173 167 143 117 49 68 165 902 127 874 76 215894 2619 662 41 1957
shrinkage=0.05


Tree=462
num_leaves=31
num_cat=0
split_feature=28 18 39 39 37 36 20 19 1 10 0 0 20 3 36 39 1 23 37 18 37 37 1 36 29 40 33 15 4 39
split_gain=0.00235098 0.0184401 0.0760695 0.147926 0.106777 0.586445 0.322112 0.224492 0.267448 0.15192 0.149169 0.0707621 0.0407917 0.0401905 0.0808752 0.0328468 0.127566 0.187737 0.0264988 0.0543892 0.0247683 0.100733 0.221057 0.17421 0.0909166 0.145771 0.125551 0.155053 0.254272 0.278718
threshold=-0.040480049999999997 0.18529350000000003 -0.15760999999999911 -0.23716000000000023 0.27484500000000006 -0.040859549999999939 -10.062099999999999 2.3818600000000001 0.98335600000000012 2.1335350000000006e-05 6.4712700000000014 -9.3712599999999977 -13.237099999999998 -15.040049999999999 -0.3819765 0.16841000000000064 1.9322400000000004 -0.0011493749999999998 5.6849350000000003 -1.6594799999999996 0.22260499999999997 0.040430000000000084 0.98335600000000012 -0.12496499999999998 -3.9040499999999993e-05 -3.5832099999999993 2.1076050000000003e-07 -3.4631599999999995e-06 -2.0429399999999993 3.129045000000001
decision_type=2 2 2 2 2 2 2 2 2 2 2 2 2 2 2 2 2 2 2 2 2 2 2 2 2 2 2 2 2 2
left_child=1 2 3 4 5 6 -1 10 -9 -8 12 -6 -7 14 -4 16 -15 -18 -17 -20 21 -3 23 -23 25 -24 -26 28 -28 -30
right_child=-2 20 13 -5 11 7 9 8 -10 -11 -12 -13 -14 15 -16 18 17 -19 19 -21 -22 22 24 -25 26 -27 27 -29 29 -31
leaf_value=0.0093491490893065927 3.6824737755165276e-06 -2.2117668149706703e-05 -8.2269551123979252e-05 0.0034259414656102501 0.0029510508879684494 0.0019493235938940557 0.00013594837228377018 -0.00082386702922155599 0.0057209363759407224 0.0049425143063958135 -0.0037342743552341872 -4.7688926296977755e-05 -9.083004147183177e-05 0.00046622148585724653 -0.0032132529414957388 2.6398413614756296e-05 -0.0059631452600721483 -0.00015122308744167006 -0.0031531084974994886 -0.00013594396359159442 5.8558014977400668e-06 -0.0011103071798760748 5.0453372636159301e-05 -0.0073173342602240151 -0.00039794443882426616 -0.0021216849115195903 -0.0014241629448446 -0.00020025776278191824 0.0042971070878074996 -0.0011773502072291225
leaf_weight=25 144883 18782 66 38 20 26 31 27 37 35 28 1202 425 84 30 3443 24 33 20 59 46108 26 146 20 1427 164 46 254 93 31
leaf_count=25 144883 18782 66 38 20 26 31 27 37 35 28 1202 425 84 30 3443 24 33 20 59 46108 26 146 20 1427 164 46 254 93 31
internal_value=0 -7.33372e-06 7.93919e-05 0.000337786 0.000274558 0.000801075 0.00451573 0.000178545 0.00295985 0.00268488 -0.000193069 1.39029e-06 2.67841e-05 -5.08017e-05 -0.0010607 -2.43343e-05 -0.000772647 -0.00259835 5.62376e-06 -0.000899783 -1.46404e-05 -5.9666e-05 -0.00037921 -0.00380901 -0.000306201 -0.00109868 -0.00017348 0.000581972 0.00175072 0.00292849
internal_weight=0 72750 5653 1894 1856 634 91 543 64 66 479 1222 451 3759 96 3663 141 57 3522 79 67097 20989 2207 46 2161 310 1851 424 170 124
internal_count=217633 72750 5653 1894 1856 634 91 543 64 66 479 1222 451 3759 96 3663 141 57 3522 79 67097 20989 2207 46 2161 310 1851 424 170 124
shrinkage=0.05


Tree=463
num_leaves=31
num_cat=0
split_feature=23 1 5 5 12 36 36 1 21 1 31 4 37 13 34 18 23 36 36 10 3 26 1 12 9 12 36 25 39 36
split_gain=0.00242172 0.0235006 0.0128986 0.0245463 0.0228028 0.0294897 0.0147809 0.0548711 0.028381 0.0159399 0.0199854 0.0183749 0.0301413 0.00641787 0.00552441 0.00546217 0.00545663 0.0194457 0.0715216 0.0624309 0.0953384 0.0702798 0.0448621 0.0183444 0.0205051 0.0157368 0.012821 0.0076688 0.0409423 0.0294857
threshold=-0.062701649999999984 -13.794199999999998 1.2137100000000001e-05 1.2406650000000003e-05 -7.7047499999999992e-07 0.9482394999999999 0.57364500000000007 0.72012600000000015 -1.4574199999999997 -9.613249999999999 0.48186100000000004 -0.24562099999999998 0.79508350000000017 9.9131400000000028e-06 1.0252250000000003 12.159000000000001 -0.028182349999999998 0.327845 -0.30278099999999991 -1.7937199999999998e-05 -8.0858449999999973 -0.067941949999999987 -0.79518899999999981 2.2039450000000004e-06 -0.00017480399999999995 1.1129000000000003e-05 0.5456565000000001 -0.96676949999999995 -6.5061649999999993 -0.19934349999999995
decision_type=2 2 2 2 2 2 2 2 2 2 2 2 2 2 2 2 2 2 2 2 2 2 2 2 2 2 2 2 2 2
left_child=1 -1 4 -4 5 -3 7 8 -5 10 -10 12 -11 -6 -13 -8 17 18 23 -20 21 -21 -22 24 -2 -25 -19 28 -18 -30
right_child=16 2 3 6 13 -7 15 -9 9 11 -12 14 -14 -15 -16 -17 27 26 19 20 22 -23 -24 25 -26 -27 -28 -29 29 -31
leaf_value=0.0017767307022586464 0.0015362600369441611 -0.0023759589217101727 0.0017712098259084008 0.0013561047411682328 9.334993440764569e-05 -0.00010892938134929864 -1.609427498062194e-05 0.0023580950339237463 0.0017397440442278901 -0.0026432951528113334 -0.00042139096665778203 -0.00014723115972147379 -0.00016893711999728113 -0.00082953050178253933 0.00077636697445996109 -0.00052086082235238047 0.0020974290760932489 0.0013475743987891335 0.0011726239684503527 -0.0019403006015208495 0.0013324797042119116 -0.0056756195201887755 -0.0017273442149162294 -0.0016654078554263554 6.5813486885569813e-05 -0.0001810322788323423 7.6019235880292626e-05 7.9487776612647115e-07 0.00029049073166609877 -0.00035296532625344018
leaf_weight=20 26 26 23 39 183 32 253 31 23 20 20 85 32 21 20 68 20 21 20 34 23 20 25 26 269 57 354 214905 239 698
leaf_count=20 26 26 23 39 183 32 253 31 23 20 20 85 32 21 20 68 20 21 20 34 23 20 25 26 269 57 354 214905 239 698
internal_value=0 8.20317e-05 4.33399e-05 0.00016867 -0.000250373 -0.00112518 0.000106304 0.000378949 0.000122239 -0.000118365 0.000734565 -0.000351969 -0.00112061 -1.65246e-06 2.86923e-05 -0.000123023 -3.39123e-07 -0.000124948 -0.000329079 -0.00138169 -0.00188254 -0.00332375 -0.000261179 1.06538e-05 0.000195412 -0.000646017 0.000147226 1.65982e-07 -0.000141059 -0.000188839
internal_weight=0 896 876 614 262 58 591 270 239 200 43 157 52 204 105 321 216737 875 500 122 102 54 48 378 295 83 375 215862 957 937
internal_count=217633 896 876 614 262 58 591 270 239 200 43 157 52 204 105 321 216737 875 500 122 102 54 48 378 295 83 375 215862 957 937
shrinkage=0.05


Tree=464
num_leaves=31
num_cat=0
split_feature=40 30 2 36 35 22 15 30 3 39 30 22 11 30 5 3 3 23 10 36 33 16 33 17 36 36 36 3 36 2
split_gain=0.00238203 0.00957535 0.020258 0.142401 0.0154964 0.123336 0.119717 0.0307177 0.0286932 0.136539 0.031486 0.0247939 0.0527337 0.134775 0.0495393 0.0769059 0.120232 0.04902 0.0950018 0.116915 0.0494827 0.157484 0.0701869 0.033945 0.0333615 0.230402 0.115394 0.0600966 0.122462 0.060462
threshold=-3.2113799999999997 0.20270750000000001 3.0578500000000006 5.4411200000000006 0.0018288850000000001 2.3108700000000004 -2.6695749999999999e-07 1.7130900000000002 -5.6511299999999993 0.97785500000000003 0.41015900000000005 6.2236100000000008 0.0016273450000000003 1.5909750000000003 1.4478550000000002e-05 -10.340399999999997 -11.456749999999998 -0.0010304099999999998 8.7262050000000009e-05 -0.14969009999999991 5.3317650000000004e-06 0.00020669100000000003 4.353285000000001e-06 -1.6961599999999997 -0.10081500000000009 -0.30278099999999991 -0.040859549999999939 -16.131449999999997 0.354709 -1.8039399999999997
decision_type=2 2 2 2 2 2 2 2 2 2 2 2 2 2 2 2 2 2 2 2 2 2 2 2 2 2 2 2 2 2
left_child=-1 -2 4 -4 7 6 -6 8 -3 -10 -11 12 13 14 -7 16 -16 18 19 -14 22 -22 24 -23 25 -19 -26 28 -28 -29
right_child=1 2 3 -5 5 11 -8 -9 9 10 -12 -13 17 -15 15 -17 -18 20 -20 -21 21 23 -24 -25 26 -27 27 29 -30 -31
leaf_value=7.6840909124731178e-06 2.1205327524764434e-06 -9.2327132405968797e-05 -2.3407582926192347e-05 0.0044753202050924297 0.0053623854886696099 -0.0001042001504124578 0.00028664122510235757 -0.0019495758765101943 0.0043133645820836097 -0.00012320391794749715 0.0017976737308345037 -3.2830785396931819e-05 -0.00016501533010831248 0.0037740193764682663 0.00018864000594476238 6.6024123741719389e-05 0.0051431695596547804 -0.0001100423857653492 -0.00066124248751293642 0.0042890383239249366 -0.0041716790756133075 0.00082515795194304487 0.0021224980334899066 -0.0010779228751343476 -0.0031640469696316304 0.0040059381824807802 -0.0035266895828369471 -0.0019114693586618223 -0.00015228696092106414 0.00047866823654338993
leaf_weight=68918 123874 9818 146 20 21 182 26 22 21 192 24 13079 26 33 24 62 25 323 46 34 30 53 39 42 33 38 35 29 116 302
leaf_count=68918 123874 9818 146 20 21 182 26 22 21 192 24 13079 26 33 24 62 25 323 46 34 30 53 39 42 33 38 35 29 116 302
internal_value=0 -3.56099e-06 -3.18929e-05 0.000518608 -3.55964e-05 -2.6751e-06 0.00255453 -8.32876e-05 -7.92042e-05 0.000464429 9.02269e-05 -1.09349e-05 0.000183614 0.000744719 0.000403535 0.00123604 0.00271646 2.39979e-05 0.0010483 0.00235895 -8.04021e-05 -0.00101352 4.70728e-05 -1.62041e-05 -4.53263e-05 0.000323219 -0.000303666 -0.00010783 -0.000934433 0.00026926
internal_weight=0 148715 24841 166 24675 14598 47 10077 10055 237 216 14551 1472 326 293 111 49 1146 106 60 1040 125 915 95 876 361 515 482 151 331
internal_count=217633 148715 24841 166 24675 14598 47 10077 10055 237 216 14551 1472 326 293 111 49 1146 106 60 1040 125 915 95 876 361 515 482 151 331
shrinkage=0.05


Tree=465
num_leaves=31
num_cat=0
split_feature=9 33 29 36 28 5 8 17 31 3 18 21 14 18 4 11 2 16 29 5 4 34 16 29 8 16 19 36 3 20
split_gain=0.00233418 0.0101651 0.0516798 0.101528 0.0175074 0.098201 0.0153004 0.0140546 0.0130754 0.0330833 0.0166758 0.0137205 0.0678004 0.0887218 0.200967 0.0253455 0.0136802 0.00896612 0.0708392 0.117694 0.0471634 0.0220857 0.0124566 0.012098 0.0291336 0.0124366 0.0174536 0.0463859 0.0531352 0.0191687
threshold=-0.000119502 0.00046534500000000004 0.0031288150000000005 0.91906500000000002 20.036400000000004 1.9575400000000006e-05 5.3913950000000009e-05 -19.608449999999998 1.6674650000000002 -15.510599999999998 -8.2769249999999985 1.5291850000000002 0.00031285800000000006 2.9920850000000008 0.79460700000000006 0.011360800000000002 2.2570350000000006 0.00015321200000000004 -0.00012302899999999995 2.6996300000000004e-05 -2.0429399999999993 0.30670150000000002 3.0721050000000003e-05 -6.6390649999999984e-05 1.2934400000000001e-05 0.00032567350000000007 -1.9814899999999998 0.20129000000000011 -13.614249999999998 -12.599549999999999
decision_type=2 2 2 2 2 2 2 2 2 2 2 2 2 2 2 2 2 2 2 2 2 2 2 2 2 2 2 2 2 2
left_child=1 2 4 -4 8 -6 7 -3 11 -10 -11 17 13 15 -15 -13 -12 18 19 22 -20 -22 -1 24 -19 -26 27 28 -27 -30
right_child=-2 6 3 -5 5 -7 -8 -9 9 10 16 12 -14 14 -16 -17 -18 23 20 -21 21 -23 -24 -25 25 26 -28 -29 29 -31
leaf_value=-0.00039055636696300807 -1.9792486922013783e-06 -0.0018224057292592572 0.0042341968305187215 -0.0006262383515687279 0.0036777418509882408 -0.00078847299305380154 0.00038043205455843627 -0.00036219560075551272 -0.0023088350993930363 -0.0014338675772887655 -0.00023865823884989371 -0.0013095104045143151 -0.0019616022508258044 -0.00024602551606949419 0.0064783836221613466 0.00088081762036381402 0.0011534744026866974 -0.0019950455029001681 0.0019596015521528899 0.0048124070003506773 3.0841292886645018e-06 0.0015624879479140003 0.001255790050199721 1.100824235520573e-05 0.0010101494948685287 -0.0032633876261220747 -3.1850832799631334e-06 -8.5930146320966152e-05 -0.00010384712503987689 -0.0017028035072144121
leaf_weight=27 189890 26 21 22 20 32 35 45 21 20 60 28 22 25 20 25 25 21 32 21 1774 23 20 24147 24 26 798 301 53 29
leaf_count=27 189890 26 21 22 20 32 35 45 21 20 60 28 22 25 20 25 25 21 32 21 1774 23 20 24147 24 26 798 301 53 29
internal_value=0 1.35472e-05 1.54216e-05 0.00174746 1.27225e-05 0.000929302 -0.000475153 -0.00089692 1.0992e-05 -0.000497187 -0.000134857 1.33275e-05 0.000546799 0.00110991 0.0027426 -0.000276337 0.000170793 1.09822e-05 0.000115839 0.00170046 5.69249e-05 2.30431e-05 0.000310017 3.15066e-06 -0.000148396 -0.000116894 -0.000139304 -0.000404886 -0.00129383 -0.000669332
internal_weight=0 27743 27637 43 27594 52 106 71 27542 126 105 27416 120 98 45 53 85 27296 1897 68 1829 1797 47 25399 1252 1231 1207 409 108 82
internal_count=217633 27743 27637 43 27594 52 106 71 27542 126 105 27416 120 98 45 53 85 27296 1897 68 1829 1797 47 25399 1252 1231 1207 409 108 82
shrinkage=0.05


Tree=466
num_leaves=31
num_cat=0
split_feature=23 1 14 1 14 13 0 40 40 13 13 18 19 8 3 28 11 23 14 5 8 18 15 2 10 29 12 10 32 11
split_gain=0.00236867 0.0211496 0.0129276 0.0522499 0.0420322 0.0773762 0.034002 0.0200398 0.0699221 0.0132001 0.012428 0.0110471 0.00618241 0.0174725 0.00657084 0.00994817 0.0056999 0.00497878 0.022509 0.0546564 0.0870158 0.0554843 0.0294268 0.0263548 0.0243945 0.02042 0.0134716 0.0204377 0.0256547 0.0100166
threshold=-0.062701649999999984 -13.794199999999998 -4.5397049999999996e-08 -9.3239949999999983 -1.7471999999999995e-05 5.8204250000000011e-06 -6.8175399999999993 4.3053000000000017 4.9851950000000018 2.6355450000000002e-05 1.5560450000000002e-06 14.999250000000002 0.47223950000000009 4.0563250000000008e-05 -5.946604999999999 -2.4309499999999997 0.00011081300000000001 -0.028182349999999998 4.8443000000000012e-06 2.8166850000000003e-05 4.8753150000000003e-05 14.999250000000002 7.6735600000000018e-05 -2.7519549999999997 -1.0950399999999997e-06 -0.00028142099999999996 -1.5418149999999998e-06 0.00027347750000000006 0.18330700000000003 0.0036550950000000006
decision_type=2 2 2 2 2 2 2 2 2 2 2 2 2 2 2 2 2 2 2 2 2 2 2 2 2 2 2 2 2 2
left_child=1 -1 3 -3 6 11 -5 12 -9 10 -10 -6 14 -14 15 -4 -16 18 22 20 21 29 23 -2 -24 -21 27 28 -25 -20
right_child=17 2 7 4 5 -7 -8 8 9 -11 -12 -13 13 -15 16 -17 -18 -19 19 25 -22 -23 24 26 -26 -27 -28 -29 -30 -31
leaf_value=0.0016888242680579424 -0.0014335400187962641 0.0018288125767587469 0.0012381383079281521 0.0019862611184916683 -0.00025003345808447474 -0.0039554992536847879 -0.0002933384452852487 0.0034201726780156609 0.00021728184175152785 -0.00071964785361810103 0.0015895201063055237 -0.0015938228750019335 -0.0012517807195763454 0.00053289919433154866 -7.8733974030336347e-05 0.00011339196101395723 -0.00095597489998908722 1.4709383233248998e-07 0.00055084501152371319 -0.0021513819755257474 0.0038825746186194015 0.0027950218212208712 -0.00043971631290939213 -0.002638302666891832 -0.002804118511558045 -0.00023353622980461556 1.82187001243684e-05 0.00037716349684298182 -0.00047072752982616254 -0.00039711101602326953
leaf_weight=20 39 26 21 21 65 21 74 20 77 28 21 20 32 24 95 308 23 215862 44 23 20 20 24 20 20 35 478 33 43 76
leaf_count=20 39 26 21 21 65 21 74 20 77 28 21 20 32 24 95 308 23 215862 44 23 20 20 24 20 20 35 478 33 43 76
internal_value=0 8.11283e-05 4.44229e-05 -0.000280355 -0.000553182 -0.00123768 0.000210573 0.00015802 0.000673726 0.000237782 0.000511333 -0.000566219 8.33216e-06 -0.000486918 7.03769e-05 0.000185184 -0.000249722 -3.35388e-07 -0.000119363 0.000320886 0.000797554 0.000356837 -0.000265443 -0.000175792 -0.00151444 -0.000994061 -9.03352e-05 -0.000630843 -0.00115885 -4.95271e-05
internal_weight=0 896 876 227 201 106 95 649 146 126 98 85 503 56 447 329 118 216737 875 218 160 140 657 613 44 58 574 96 63 120
internal_count=217633 896 876 227 201 106 95 649 146 126 98 85 503 56 447 329 118 216737 875 218 160 140 657 613 44 58 574 96 63 120
shrinkage=0.05


Tree=467
num_leaves=31
num_cat=0
split_feature=40 21 4 31 20 6 16 13 32 1 16 25 32 12 8 7 25 9 25 27 2 40 36 37 21 17 28 13 25 10
split_gain=0.00226677 0.0143707 0.0209186 0.00870734 0.03378 0.162768 0.0271614 0.0127999 0.0289138 0.0149919 0.0182172 0.0130143 0.00868402 0.0238601 0.00830061 0.0432586 0.0345307 0.0213221 0.0254911 0.0237933 0.0230185 0.0232574 0.0390327 0.126366 0.114467 0.0698828 0.0146168 0.0183877 0.0362468 0.012773
threshold=2.4429550000000004 -1.7211949999999998 -0.19656399999999996 0.48186100000000004 -11.548849999999998 3.5548950000000005e-07 1.0077000000000001e-08 7.2294100000000005e-06 1.8680450000000002 2.8816950000000006 0.0035512250000000003 0.42036700000000005 -0.14294799999999999 2.4676700000000005e-07 9.5296300000000015e-06 -7.1286049999999993e-06 -0.39445199999999997 -4.6864649999999995e-05 0.19726850000000004 0.019658500000000006 2.0367550000000008 -0.89938499999999999 0.12375499999999996 0.24875600000000014 0.22693550000000004 -0.94259349999999986 2.6219150000000004 1.8237450000000004e-06 0.020065300000000005 8.8270500000000005e-06
decision_type=2 2 2 2 2 2 2 2 2 2 2 2 2 2 2 2 2 2 2 2 2 2 2 2 2 2 2 2 2 2
left_child=14 2 -2 -3 5 -5 -6 12 9 10 -9 -11 13 -8 15 -1 -17 -18 20 -20 21 26 23 24 25 -23 27 -19 -29 -27
right_child=1 3 -4 4 6 -7 7 8 -10 11 -12 -13 -14 -15 -16 16 17 18 19 -21 -22 22 -24 -25 -26 29 -28 28 -30 -31
leaf_value=0.0017873613404318395 -0.0015133884237576766 8.3404121786200414e-06 1.1099048718103422e-06 -0.00084151594055583703 0.0014827681103545757 0.0049440181417185168 4.6181490793565494e-05 0.0016326768869112129 -0.0018981762294200824 -7.0071864544073688e-05 -8.3976665294304602e-05 -0.0017665862856665626 5.5655819112177115e-05 0.0021217702078865845 -3.6406472898139684e-06 -0.0015465796747548667 0.0016255805322978869 1.8544039011611464e-05 -0.0023691274659358896 1.3717812345765362e-05 -0.0015053100803925192 0.0038100164205025068 -0.00011982323140015882 -7.6784174971974073e-05 0.0047061903972242932 3.7699620948982418e-05 0.0011933195743371141 -0.00024212816081684377 -0.0026446627270343016 0.0013073341840026842
leaf_weight=38 38 46763 57 31 33 20 45 20 26 26 68 20 351 20 168882 32 23 418 20 22 21 20 219 192 29 52 22 73 20 32
leaf_count=38 38 46763 57 31 33 20 45 20 26 26 68 20 351 20 168882 32 23 418 20 22 21 20 219 192 29 52 22 73 20 32
internal_value=0 9.65503e-06 -0.000604689 1.08857e-05 0.000191228 0.00142732 8.77127e-05 7.78769e-06 -0.000372269 -7.61975e-05 0.000306172 -0.000807687 0.000153963 0.000684824 -2.69693e-06 0.000126563 7.3751e-05 0.000118334 8.79251e-05 -0.00112097 0.000134167 0.000166135 0.000396123 0.000743792 0.00192838 0.0011538 -6.86007e-05 -0.00012293 -0.000758802 0.00052137
internal_weight=0 47518 95 47423 660 51 609 576 160 134 88 46 416 65 170115 1233 1195 1163 1140 42 1098 1077 544 325 133 104 533 511 93 84
internal_count=217633 47518 95 47423 660 51 609 576 160 134 88 46 416 65 170115 1233 1195 1163 1140 42 1098 1077 544 325 133 104 533 511 93 84
shrinkage=0.05


Tree=468
num_leaves=31
num_cat=0
split_feature=40 21 10 8 22 3 21 4 15 5 15 4 36 33 13 33 36 36 9 29 36 32 5 2 36 2 36 36 12 9
split_gain=0.00225874 0.0093055 0.0595627 0.0125234 0.0158306 0.0108331 0.0100279 0.0554608 0.15879 0.0944354 0.0539807 0.0357124 0.0579614 0.0204422 0.0142509 0.0105407 0.033901 0.22453 0.268218 0.0700868 0.0228047 0.0149132 0.0490188 0.0472311 0.232416 0.16428 0.0512995 0.178225 0.14071 0.0715983
threshold=-3.2113799999999997 2.1521500000000002 -3.6340149999999998e-05 1.7819450000000001e-05 67.039100000000005 -11.042399999999999 1.5291850000000002 0.8580755000000001 0.0073236350000000011 1.7744900000000004e-05 3.940980000000001e-05 -0.019882549999999995 -0.22452634999999985 -6.2538149999999987e-05 6.5238050000000013e-06 -1.6329399999999996e-05 -0.079468000000000025 0.38220950000000015 1.6735200000000005e-05 9.2365500000000009e-05 -0.30278099999999991 -0.14294799999999999 1.1571150000000002e-05 -2.1751149999999995 -0.3562499999999999 -1.9860649999999997 0.38220950000000015 -0.079468000000000025 -3.3937349999999994e-07 -3.9555399999999991e-05
decision_type=2 2 2 2 2 2 2 2 2 2 2 2 2 2 2 2 2 2 2 2 2 2 2 2 2 2 2 2 2 2
left_child=-1 6 -3 -4 -5 -6 13 10 9 -9 11 14 -13 -2 -8 16 20 18 19 -18 -15 22 23 24 -17 -25 27 29 -29 -27
right_child=1 2 3 4 5 -7 7 8 -10 -11 -12 12 -14 15 -16 21 17 -19 -20 -21 -22 -23 -24 25 -26 26 -28 28 -30 -31
leaf_value=7.4825849271432699e-06 -0.0013545564421552367 -0.0028003037994494663 -0.00091594573490770678 0.0013411637959786905 -0.00050871921784710139 0.00080245219135616469 -3.7842322587190821e-05 0.0059638635837472977 -0.00084550666340578061 0.0013938789769711618 -0.0026091515532971244 -6.6576607898696246e-05 0.0030415157092951025 -1.7608182204104175e-05 -0.001160246031606614 -0.00017123019383928438 -0.0007683913774179439 -0.00011838130482150986 0.0077603768601658797 0.0028367247436628016 -0.0013415555856125948 -2.1842867635188335e-06 1.4316940881990752e-05 0.0040463013547802499 -0.0060070014855062425 0.002696502991166199 -1.2087654300514607e-05 -0.0059657712848857044 -0.0015611202733866363 -0.00043116725880894974
leaf_weight=68918 28 22 28 26 50 23 120 20 43 26 20 40 24 337 37 76 26 277 21 28 36 144762 1940 21 22 20 336 25 66 215
leaf_count=68918 28 22 28 26 50 23 120 20 43 26 20 40 24 337 37 76 26 277 21 28 36 144762 1940 21 22 20 336 25 66 215
internal_value=0 -3.4676e-06 -0.000398406 1.7671e-05 0.000281724 -9.56104e-05 -3.07151e-06 0.000272247 0.00133889 0.00338083 -0.000121659 0.000103453 0.00109896 -3.68442e-06 -0.000302358 -3.42921e-06 0.000186754 0.000538711 0.00296557 0.00110093 -0.000145389 -4.36411e-06 -0.000120335 -0.000454809 -0.0014813 -0.000307523 -0.000445635 -0.000892482 -0.00277119 -0.000164983
internal_weight=0 148715 149 127 99 73 148566 330 89 46 241 221 64 148236 157 148208 725 352 75 54 373 147483 2721 781 98 683 662 326 91 235
internal_count=217633 148715 149 127 99 73 148566 330 89 46 241 221 64 148236 157 148208 725 352 75 54 373 147483 2721 781 98 683 662 326 91 235
shrinkage=0.05


Tree=469
num_leaves=31
num_cat=0
split_feature=17 5 2 20 36 39 3 2 0 3 32 17 36 36 36 3 16 16 5 20 36 20 26 9 3 7 21 5 40 28
split_gain=0.00225247 0.0164961 0.0398913 0.125888 0.0248066 0.0227963 0.0675732 0.206432 0.0891779 0.232713 0.0809495 0.0946385 0.1819 0.279561 0.107578 0.256131 0.0335543 0.061627 0.0354576 0.0325541 0.070066 0.0313513 0.0260432 0.104344 0.0263737 0.0350969 0.0247363 0.110055 0.0640177 0.0266345
threshold=-8.175164999999998 1.6804400000000005e-05 3.0333000000000006 -9.5739449999999984 0.10022550000000004 -0.19603999999999996 -7.6887249999999989 -3.0487399999999996 -4.429314999999999 -12.126699999999998 0.013761450000000001 -9.9085449999999984 0.14973499999999998 0.016888500000000004 -0.46506469999999994 -8.3639349999999979 4.5569750000000002e-09 4.2063200000000008e-08 8.3578700000000013e-06 -13.148399999999997 -0.71412249999999966 -5.9061699999999986 -0.067941949999999987 1.8993000000000003e-05 -15.284849999999999 -2.3611749999999996e-05 0.86341500000000015 1.5430850000000002e-05 0.87140500000000032 -0.75845349999999989
decision_type=2 2 2 2 2 2 2 2 2 2 2 2 2 2 2 2 2 2 2 2 2 2 2 2 2 2 2 2 2 2
left_child=1 2 5 -4 -5 19 7 -7 9 -9 11 12 13 14 -11 -16 -13 -18 -19 20 -1 -8 23 -10 -24 -26 29 28 -28 -21
right_child=-2 -3 3 4 -6 6 21 8 22 10 -12 16 -14 -15 15 -17 17 18 -20 26 -22 -23 24 -25 25 -27 27 -29 -30 -31
leaf_value=-0.00024503247911906648 -1.8772497083583253e-06 -3.1835622905544239e-05 0.0040542728595901285 0.001172981912378945 -6.0585534023872002e-05 0.0052143325552936985 8.2067075978778752e-06 0.0047779192804149979 0.0034140884291935856 -0.00058196142603147538 -0.00083553572926469983 0.0018348110547688726 -0.00050219162483699619 0.0082065486193945002 0.0073880110917213778 0.00018829074770716639 -0.0019946731073545265 0.002049473492557549 0.0001409565623456269 -0.0005418738356463876 0.0035508505449979564 0.0014693114234850745 -0.0016163449293414419 -0.00079368827162611805 0.0020188532565260263 -5.2476291486348666e-05 0.0026629586174584056 0.0034180504363965679 -0.0001732678854864389 -2.2567675319385854e-05
leaf_weight=31 191545 11262 25 57 143 22 4752 35 26 31 86 31 55 21 21 30 31 28 186 255 20 37 26 34 21 782 22 28 208 7782
leaf_count=31 191545 11262 25 57 143 22 4752 35 26 31 86 31 55 21 21 30 31 28 186 255 20 37 26 34 21 782 22 28 208 7782
internal_value=0 1.37833e-05 4.84359e-05 0.000709125 0.000290981 3.82547e-05 0.000110421 0.00040745 0.000334215 0.000831517 0.000565893 0.000843596 0.00181945 0.00305916 0.00174093 0.00315288 0.000284955 8.88503e-05 0.000390669 -1.58313e-05 0.00124355 1.94953e-05 2.37518e-05 0.00102968 -4.90537e-05 1.69297e-06 -2.35743e-05 0.000458336 9.80233e-05 -3.90444e-05
internal_weight=0 26088 14826 225 200 14601 6255 1466 1444 555 520 434 158 103 82 51 276 245 214 8346 51 4789 889 60 829 803 8295 258 230 8037
internal_count=217633 26088 14826 225 200 14601 6255 1466 1444 555 520 434 158 103 82 51 276 245 214 8346 51 4789 889 60 829 803 8295 258 230 8037
shrinkage=0.05


Tree=470
num_leaves=31
num_cat=0
split_feature=40 30 39 6 9 26 18 17 17 36 36 27 7 20 17 31 18 1 36 18 25 13 2 36 36 25 1 36 26 40
split_gain=0.00232336 0.0194992 0.0329885 0.050244 0.0783665 0.171289 0.0397246 0.0447168 0.0438553 0.045255 0.123598 0.0590328 0.0368945 0.0265987 0.051657 0.0735437 0.0498326 0.124985 0.0889892 0.0738824 0.0743124 0.12392 0.155996 0.0538867 0.0966767 0.105035 0.0440381 0.0670991 0.14808 0.0342183
threshold=0.81788000000000027 0.2399415 -1.0505799999999998 1.3950750000000001e-06 3.7226350000000003e-05 -0.049149049999999993 14.999250000000002 -3.4870349999999992 3.8922100000000004 0.10022550000000004 -0.25142799999999998 0.0043669250000000007 -1.5957649999999998e-05 -13.148399999999997 7.745845000000001 -0.93075499999999989 3.4051250000000004 3.3893400000000002 -0.22452634999999985 -2.3555799999999993 -0.052625149999999996 -1.3281999999999998e-05 -1.1556049999999998 0.30085850000000008 -0.22452634999999985 -0.045639949999999992 3.7283150000000007 0.30085850000000008 0.032325400000000004 1.0949350000000011
decision_type=2 2 2 2 2 2 2 2 2 2 2 2 2 2 2 2 2 2 2 2 2 2 2 2 2 2 2 2 2 2
left_child=-1 -2 13 6 -5 -6 7 12 9 10 -9 -12 -4 14 15 -3 19 -18 -19 23 21 -21 -23 24 -17 -26 -22 28 -28 -15
right_child=1 2 3 4 5 -7 -8 8 -10 -11 11 -13 -14 29 -16 16 17 18 -20 20 26 22 -24 -25 25 -27 27 -29 -30 -31
leaf_value=-3.541676975775343e-06 1.8015678239367331e-05 0.0027086624821614745 -0.0024340974866765251 -0.00030842927289432312 -0.0053667988726499912 -0.00029270972225229995 0.0020604273834396738 -0.00027670972321055094 -0.00065335192757374561 -0.00038536106987723749 0.0051410669479413336 0.0014348573982715608 -0.00046793831811669406 0.0010294812261454815 -0.0021471102666611032 -0.00035296815037708578 -0.00017933054402704724 -0.00045094287876660632 -0.0045906614520765075 -0.0016494178846533898 -0.0003901517116598067 0.0050110215682902248 3.9409111975276445e-06 -0.00016751640913453705 -0.0060823310923296958 -0.0010758069597861985 0.0054957192151778153 -0.00048207446445964954 -0.00018064877297513672 -1.6342574657300827e-05
leaf_weight=148051 60152 21 34 113 29 39 20 53 107 63 22 21 80 79 36 62 134 21 34 21 216 35 28 173 20 22 20 44 27 7856
leaf_count=148051 60152 21 34 113 29 39 20 53 107 63 22 21 80 79 36 62 134 21 34 21 216 35 28 173 20 22 20 44 27 7856
internal_value=0 7.5357e-06 -5.93139e-05 -0.000424282 -0.0011155 -0.00245666 -0.000111506 -0.000225818 0.000129261 0.000655925 0.00133927 0.00333106 -0.00105434 -3.53512e-05 -0.00029077 -0.000214656 -0.00028629 -0.00100308 -0.00301004 -8.34844e-05 0.000359108 0.00167688 0.00278565 -0.000708226 -0.00160768 -0.00345987 -1.45661e-06 0.00092116 0.00223483 -5.93047e-06
internal_weight=0 69582 9430 581 181 68 400 380 266 159 96 43 114 8849 914 878 857 189 55 668 391 84 63 277 104 42 307 91 47 7935
internal_count=217633 69582 9430 581 181 68 400 380 266 159 96 43 114 8849 914 878 857 189 55 668 391 84 63 277 104 42 307 91 47 7935
shrinkage=0.05


Tree=471
num_leaves=31
num_cat=0
split_feature=40 3 6 3 18 2 17 1 12 36 36 37 0 36 36 3 37 37 39 12 12 21 4 4 2 27 39 11 4 18
split_gain=0.00225911 0.0191205 0.111825 0.0197471 0.0756415 0.193822 0.0749726 0.0740474 0.111223 0.0773645 0.515507 0.207727 0.0350342 0.0226188 0.0218 0.0136366 0.0185306 0.264174 0.281442 0.37741 0.33154 0.434916 0.600433 0.363486 0.181399 0.145399 0.139936 0.113298 0.0984528 0.0455658
threshold=-1.6465599999999998 -18.305499999999995 1.0000000180025095e-35 -15.510599999999998 4.5505850000000008 1.9944900000000001 8.3915400000000009 -4.5317299999999987 5.9976150000000007e-09 -0.3819765 0.12375499999999996 0.09983149999999999 3.0384450000000007 -0.19934349999999995 0.40779500000000007 -7.0771999999999986 -0.12554300000000002 -0.026150000000000003 0.80790999999999979 -1.2070449999999998e-07 7.4920800000000015e-08 0.070966350000000025 -0.057950149999999992 0.038924450000000006 -0.53849999999999987 0.00014643750000000003 0.13650500000000013 0.00027562450000000004 -0.10727949999999999 -9.1109899999999975
decision_type=2 2 2 2 2 2 2 2 2 2 2 2 2 2 2 2 2 2 2 2 2 2 2 2 2 2 2 2 2 2
left_child=1 2 -1 4 6 12 7 8 -3 -9 11 -11 13 -6 -12 -2 -17 18 19 25 21 22 -21 -23 -22 -18 -26 28 -27 -20
right_child=15 3 -4 -5 5 -7 -8 9 -10 10 14 -13 -14 -15 -16 16 17 -19 29 20 24 23 -24 -25 26 27 -28 -29 -30 -31
leaf_value=-0.0015076232318408855 2.9997119018013683e-06 0.0040407888448195685 0.0036523227313799522 7.3016479278654021e-06 -5.4692250318537929e-05 0.0051556335889141672 0.0021679410643768138 2.3311033779604122e-05 -0.00070361376073075623 -0.0092489672514299553 -0.0018900213315171878 -0.0027982382073157802 0.0016456761546247767 -0.0020622954179998487 -0.00028804705420854313 1.177488732618576e-05 -0.0031535600309523393 -3.6068858092032042e-05 0.0019982176297186952 0.002916303634321174 0.0012774669136361857 -0.013542517819239396 -0.0079362186336657033 -0.0045528210233896976 -0.0063071673238565308 0.00061842101768845516 -0.0012182347672725364 -0.00086197367863860563 0.005404692237392407 -2.5607101257004877e-05
leaf_weight=21 101525 21 21 94830 47 22 26 208 30 24 23 26 22 20 277 9044 23 11008 37 26 38 23 25 22 22 21 35 32 22 112
leaf_count=21 101525 21 21 94830 47 22 26 208 30 24 23 26 22 20 277 9044 23 11008 37 26 38 23 25 22 22 21 35 32 22 112
internal_value=0 5.75457e-06 0.00107235 5.28587e-06 -0.000250956 0.000953265 -0.000461458 -0.000573714 0.00124996 -0.000740395 -0.00119425 -0.00589459 -8.55232e-05 -0.000653977 -0.000410865 -4.50962e-06 -4.17173e-05 -8.39838e-05 -0.0012882 -0.00219827 -0.00349253 -0.00556481 -0.00240356 -0.00914755 -0.00139844 0.000324235 -0.00318238 0.00139076 0.00306721 0.000476953
internal_weight=0 95618 42 95576 746 111 635 609 51 558 350 50 89 67 300 122015 20490 11446 438 289 191 96 51 45 95 98 57 75 43 149
internal_count=217633 95618 42 95576 746 111 635 609 51 558 350 50 89 67 300 122015 20490 11446 438 289 191 96 51 45 95 98 57 75 43 149
shrinkage=0.05


Tree=472
num_leaves=31
num_cat=0
split_feature=28 14 1 36 17 0 37 36 14 11 3 13 4 10 36 3 40 10 36 12 3 17 36 18 37 13 19 26 24 11
split_gain=0.00222925 0.0126015 0.0388548 0.0295399 0.0972567 0.173039 0.0484797 0.047843 0.041849 0.12604 0.0189923 0.0171844 0.080417 0.0166218 0.0525071 0.0516021 0.013052 0.0118865 0.015107 0.0231408 0.0117368 0.0208507 0.00755674 0.0170965 0.00986803 0.00565285 0.00517359 0.00492519 0.00483508 0.00480437
threshold=-10.048129999999999 1.3092400000000001e-06 8.1525150000000028 0.22528099999999995 -6.2436999999999996 -3.2929599999999994 0.32610899999999998 -0.46506469999999994 -4.4627499999999989e-06 0.00070374100000000013 -16.870699999999996 -2.3178849999999996e-05 1.3297700000000001 -4.9573549999999992e-05 -0.32870999999999989 -14.818499999999998 -0.10641999999999906 -4.083924999999999e-05 -0.57440449999999987 5.1880700000000008e-06 -7.7933949999999994 -16.050999999999998 -4.7245149999999994 -4.4014699999999989 4.5331850000000005 -1.6712999999999997e-05 2.7036350000000007 2.0528200000000001 53.953100000000013 0.00037336950000000003
decision_type=2 2 2 2 2 2 2 2 2 2 2 2 2 2 2 2 2 2 2 2 2 2 2 2 2 2 2 2 2 2
left_child=1 3 10 6 5 -5 8 22 -1 28 -3 12 -12 14 -13 -15 25 -17 26 20 21 -20 23 -8 -24 -6 -19 -14 -10 -27
right_child=-2 2 -4 4 16 -7 7 -9 9 -11 11 13 27 15 -16 17 -18 18 19 -21 -22 -23 24 -25 -26 29 -28 -29 -30 -31
leaf_value=0.00055793594219721854 4.5416825453063736e-07 -0.0012918698782039644 -0.0019333190936777101 0.0001374140666044813 0.00085515905753709388 0.0061027051019482319 -0.0016851148593732867 0.0023684935101879424 0.00014365900487367227 -0.004501461041134182 0.0033488875129842203 3.7668395869820037e-05 9.5167965834686607e-05 0.0023112020938285804 -0.003087239414744545 0.00094422300811856984 -0.001244152586282739 -0.0001009444904080558 -0.0021313557156827302 -0.0021410691091264394 0.00041078816693698175 -0.00031690854680403534 1.3712277503036655e-05 3.0892945087930944e-05 0.00092487425989078945 0.0001670436435697233 0.00073316722175929632 -0.0006833824106251996 -0.00078791717958385838 -0.00073154265839894795
leaf_weight=30 215894 34 32 31 20 20 21 22 30 26 20 41 74 21 20 20 22 162 20 23 32 76 717 47 31 51 21 28 26 21
leaf_count=30 215894 34 32 31 20 20 21 22 30 26 20 41 74 21 20 20 22 162 20 23 32 76 717 47 31 51 21 28 26 21
internal_value=0 -5.63842e-05 -0.000236303 4.43057e-05 0.000661834 0.00247674 -6.29492e-05 6.76303e-05 -0.00103996 -0.00162456 -0.000144572 -7.46653e-05 0.000449881 -0.000221442 -0.000986892 -9.69289e-05 -0.0001501 -0.000239784 -0.000310683 -0.000680871 -0.000418492 -0.000694918 5.59726e-06 -0.000499051 5.14743e-05 0.000111522 -5.22675e-06 -0.000118552 -0.000288859 -9.5044e-05
internal_weight=0 1739 624 1115 165 51 950 838 112 82 592 558 122 436 61 375 114 354 334 151 128 96 816 68 748 92 183 102 56 72
internal_count=217633 1739 624 1115 165 51 950 838 112 82 592 558 122 436 61 375 114 354 334 151 128 96 816 68 748 92 183 102 56 72
shrinkage=0.05


Tree=473
num_leaves=31
num_cat=0
split_feature=20 32 3 6 9 9 22 13 3 25 36 17 4 21 36 13 6 33 3 19 36 3 22 3 22 3 8 30 4 32
split_gain=0.00224426 0.01188 0.0780967 0.0201899 0.00838745 0.0275652 0.0114365 0.0115135 0.0308615 0.0742084 0.199154 0.0483606 0.0187132 0.0358095 0.0234874 0.0293449 0.0120159 0.0113074 0.0430506 0.0328809 0.0653266 0.02103 0.0108281 0.00802511 0.00945951 0.0074319 0.0114308 0.00706707 0.00652618 0.006454
threshold=-6.1276249999999992 -0.0013312399999999998 -6.0035249999999989 -4.5011399999999994e-06 2.2232350000000001e-05 2.1571850000000003e-05 0.15637350000000003 1.8765050000000003e-07 -6.9186299999999994 -0.064774849999999981 0.43531000000000003 13.012750000000002 0.13767700000000002 0.47318500000000002 0.077348000000000056 1.0552950000000002e-06 -1.0086999999999998e-05 3.7614450000000006e-08 -7.4119349999999988 0.77858100000000008 0.327845 -7.9298599999999988 115.80600000000001 -7.197614999999999 1.9309500000000004 -9.1936899999999984 3.3439650000000008e-05 0.030373650000000006 -0.18994349999999996 0.0025121700000000006
decision_type=2 2 2 2 2 2 2 2 2 2 2 2 2 2 2 2 2 2 2 2 2 2 2 2 2 2 2 2 2 2
left_child=-1 2 3 -2 5 6 -3 29 16 10 -10 12 28 14 15 -14 -9 -6 21 20 -20 25 23 -18 -25 -19 -27 -16 -11 -8
right_child=1 4 -4 -5 17 -7 7 8 9 11 -12 -13 13 -15 27 -17 22 18 19 -21 -22 -23 -24 24 -26 26 -28 -29 -30 -31
leaf_value=-8.9166411280856094e-07 0.0016452262311941015 0.0011568283573145286 -0.0025580462343482812 -0.00010264553260557969 2.4673825886984045e-05 0.0017675214489524178 7.0793590301653341e-05 0.00099244859187004705 0.0061988446759642102 -0.00034673755952512953 -5.5718692845922694e-05 0.0025692745681226373 0.0022685390023980292 0.0025806141158682297 6.689170041941647e-05 -8.8272667533601635e-05 3.559213929750379e-05 -6.4794811538920139e-06 -0.0032204627357517697 0.0001215673257292744 -0.00010883492539051077 0.0011506901123876951 -0.0010094913281729337 -3.5008206486963901e-05 -0.0013643806604269903 -0.0013043908174128569 -0.00011855945107858503 -0.00099883794493507596 0.00013081651211676706 -7.8013987198098197e-05
leaf_weight=211122 20 24 33 95 1455 24 1704 29 20 123 35 22 28 20 70 25 723 288 37 33 31 35 28 32 23 31 59 20 171 1273
leaf_count=211122 20 24 33 95 1455 24 1704 29 20 123 35 22 28 20 70 25 723 288 37 33 31 35 28 32 23 31 59 20 171 1273
internal_value=0 2.89126e-05 -0.000413935 0.000201332 3.9213e-05 7.76409e-05 6.83601e-05 6.23492e-05 0.000182359 0.000479217 0.00221867 0.000279489 0.000169258 0.000598958 0.000321804 0.00115684 -7.4882e-06 -4.65424e-05 -0.000248137 -0.00117346 -0.00180193 -2.18476e-05 -4.34661e-05 -8.6991e-06 -0.000590928 -0.000130416 -0.000527012 -0.000169937 -6.89765e-05 7.16173e-06
internal_weight=0 6511 148 115 6363 4394 4370 4346 1369 534 55 479 457 163 143 53 835 1969 514 101 68 413 806 778 55 378 90 90 294 2977
internal_count=217633 6511 148 115 6363 4394 4370 4346 1369 534 55 479 457 163 143 53 835 1969 514 101 68 413 806 778 55 378 90 90 294 2977
shrinkage=0.05


Tree=474
num_leaves=31
num_cat=0
split_feature=11 32 29 20 36 36 10 16 26 28 8 36 36 27 21 39 32 32 16 8 8 17 32 5 18 7 9 18 4 0
split_gain=0.0022145 0.0074103 0.00758337 0.00303575 0.00625867 0.0265378 0.0026874 0.00926519 0.0074448 0.0132785 0.0623193 0.101361 0.0103037 0.01496 0.00983115 0.0338024 0.0222949 0.00529543 0.119666 0.0152197 0.010599 0.0241703 0.0105775 0.0305782 0.00537657 0.00579535 0.00627975 0.00504764 0.0390104 0.205874
threshold=0.71230950000000004 -0.046235849999999988 2.7659950000000003e-05 -14.053899999999997 0.10022550000000004 -1.0422104999999997 0.00014699600000000001 1.2683350000000002e-07 2.0528200000000001 20.036400000000004 3.0656350000000003e-05 1.5492540000000004 -0.27744100000000016 0.35534200000000005 -2.2419299999999995 7.347125000000001 -2.2564299999999995 -0.43959349999999991 0.00074690950000000009 1.4337500000000001e-05 2.0608650000000005e-05 -3.5695999999999994 -0.30938449999999995 1.2523200000000001e-05 18.392150000000004 -6.226684999999999e-06 0.00029283300000000005 18.392150000000004 -0.30653749999999996 7.1107950000000004
decision_type=2 2 2 2 2 2 2 2 2 2 2 2 2 2 2 2 2 2 2 2 2 2 2 2 2 2 2 2 2 2
left_child=6 2 -2 4 5 -3 27 -8 9 14 11 -11 -10 -14 15 -9 -16 18 -18 -20 21 -21 23 -19 -24 -26 -27 -1 29 -29
right_child=1 3 -4 -5 -6 -7 7 8 12 10 -12 -13 13 -15 16 -17 17 22 19 20 -22 -23 24 -25 25 26 -28 28 -30 -31
leaf_value=-2.6863713429149081e-06 -0.0011947684758367894 0.00012317335742983759 7.0798506785649804e-05 4.1695805477067945e-06 1.3312101018527755e-05 -0.0021269687189487741 0.00087672756691913934 0.0022108946609726197 -2.4067901860369925e-05 0.0040384816122241316 -0.00043537864075372438 -0.0005728629350910938 -0.00013685308513231576 -0.0018244510357665906 -0.0016583134216489272 -0.00025183111911725349 0.0038672572768215711 -0.0020917783838028657 -0.0011473019932896865 0.0021066697945207125 -1.7415060379676748e-05 -0.00013731893884444919 1.2048912361929106e-05 -9.4664541088604898e-05 0.000108401431710566 -0.0013103618618818778 -0.00020816727270097808 -4.8842523527889366e-05 -3.846597334522324e-05 0.005583117473433959
leaf_weight=179730 29 38 20 624 90 20 31 22 91 26 67 22 29 24 20 38 21 23 27 20 354 30 35407 115 36 24 28 86 521 20
leaf_count=179730 29 38 20 624 90 20 31 22 91 26 67 22 29 24 20 38 21 23 27 20 354 30 35407 115 36 24 28 86 521 20
internal_value=0 -8.19625e-05 -0.000678211 -4.41177e-05 -0.000247707 -0.000652738 3.10366e-07 1.26921e-05 1.19568e-05 1.33809e-05 0.000549801 0.00192495 -0.000346845 -0.000901048 1.16751e-05 0.000651168 1.06124e-05 1.15374e-05 0.000181602 2.0226e-06 7.88339e-05 0.000760277 9.38017e-06 -0.000427517 1.10788e-05 -0.00037926 -0.000716872 -2.19232e-06 0.000139428 0.00101379
internal_weight=0 821 49 772 148 58 216812 36455 36424 36280 115 48 144 53 36165 60 36105 36085 452 431 404 50 35633 138 35495 88 52 180357 627 106
internal_count=217633 821 49 772 148 58 216812 36455 36424 36280 115 48 144 53 36165 60 36105 36085 452 431 404 50 35633 138 35495 88 52 180357 627 106
shrinkage=0.05


Tree=475
num_leaves=31
num_cat=0
split_feature=6 6 25 25 4 36 32 36 39 39 29 36 36 12 36 37 39 6 1 22 16 1 26 2 25 9 20 33 39 3
split_gain=0.00222686 0.00948945 0.0205438 0.103121 0.026695 0.0918194 0.0129942 0.0395497 0.00864194 0.0441192 0.090177 0.0809255 0.142896 0.408653 0.0732075 0.203887 0.196788 0.178664 0.138554 0.126558 0.064797 0.0742811 0.0916475 0.0536489 0.0492876 0.0478444 0.0380029 0.0329593 0.0321247 0.0288103
threshold=2.8692150000000002e-06 2.7311750000000006e-06 0.006384845000000001 0.0068628400000000011 -0.3422659999999999 -0.058960000000000005 0.0085105150000000015 0.20129000000000011 0.64319500000000052 -0.19603999999999996 3.6365400000000005e-06 -0.12496499999999998 -0.040859549999999939 6.6406850000000019e-08 0.22528099999999995 -0.039869999999999954 0.35261000000000037 6.8029550000000002e-06 7.9497400000000011 0.7753040000000001 1.7135300000000002e-05 12.027950000000002 0.001680775 -2.7703699999999993 0.0038386900000000005 -6.7024799999999989e-05 -16.542649999999998 -6.6903649999999996e-06 0.27381999999999979 -15.624449999999998
decision_type=2 2 2 2 2 2 2 2 2 2 2 2 2 2 2 2 2 2 2 2 2 2 2 2 2 2 2 2 2 2
left_child=1 -1 6 -4 5 -5 -3 -8 9 26 20 -12 13 -13 15 17 18 19 25 -14 24 23 -23 -22 -11 -17 -2 -25 -27 -10
right_child=8 2 3 4 -6 -7 7 -9 29 10 11 12 14 -15 -16 16 -18 -19 -20 -21 21 22 -24 27 -26 28 -28 -29 -30 -31
leaf_value=-1.529306272665632e-06 0.0018649013066789376 3.6374261523514617e-05 -0.0038289680151267803 1.1083474539259871e-06 -6.5564572283624797e-05 -0.0039055497743642528 -0.0021558247868337537 7.7193673337998999e-06 -0.00072456202603311381 0.00055271361761697333 -0.00010025105070050496 0.0079364210683852444 -0.0013066348753636705 -0.00071919233227769538 -8.4612381614371548e-06 -0.0017908821519952091 0.004069110561211251 0.0071770765995924279 -0.0028991267930025297 0.0038634674671780447 0.0020234486533230334 0.00018279137530910142 -0.0045465159434445474 -0.0019318825501076474 0.0037168147217198563 0.00054373841041440926 -1.2880422558673701e-05 1.0685012795791938e-05 0.0022604350430152284 -3.1256694925907736e-06
leaf_weight=166883 27 1132 21 53 363 21 28 86 139 32 403 25 20 30 331 21 38 22 31 29 33 21 20 22 20 452 13055 2922 29 31324
leaf_count=166883 27 1132 21 53 363 21 28 86 139 32 403 25 20 30 331 21 38 22 31 29 33 21 20 22 20 452 13055 2922 29 31324
internal_value=0 -2.728e-06 -0.000120123 -0.000406476 -0.000242009 -0.00110754 -1.48664e-05 -0.000523677 9.37701e-06 3.74525e-05 0.000172479 0.000500282 0.000735705 0.00321518 0.00059555 0.000906964 0.000592762 0.00343385 0.000344917 0.00175322 1.96825e-05 -1.04697e-05 -0.00212419 1.86409e-05 0.00176968 0.000545247 -9.00486e-06 -3.83146e-06 0.00064724 -6.31289e-06
internal_weight=0 168587 1704 458 437 74 1246 114 49046 17583 4501 1431 1028 55 973 642 571 71 533 49 3070 3018 41 2977 52 502 13082 2944 481 31463
internal_count=217633 168587 1704 458 437 74 1246 114 49046 17583 4501 1431 1028 55 973 642 571 71 533 49 3070 3018 41 2977 52 502 13082 2944 481 31463
shrinkage=0.05


Tree=476
num_leaves=31
num_cat=0
split_feature=40 3 6 3 32 3 3 33 3 22 3 10 18 17 3 37 37 39 12 12 21 4 4 31 2 39 12 16 32 31
split_gain=0.00223482 0.017436 0.101091 0.0173593 0.0234637 0.0140515 0.0204146 0.0361643 0.0189384 0.0932148 0.0311245 0.0542971 0.0693438 0.0371976 0.0125169 0.0171831 0.241997 0.256953 0.33405 0.298794 0.390427 0.54067 0.327646 0.199901 0.163098 0.124295 0.107739 0.106985 0.0428351 0.0530336
threshold=-1.6465599999999998 -18.305499999999995 1.0000000180025095e-35 -17.495099999999997 0.0013930150000000003 -17.304849999999998 -16.870699999999996 -2.9794199999999998e-07 -16.558299999999999 2.0531150000000005 -16.131449999999997 4.8217100000000003e-05 -0.85462799999999983 -3.4870349999999992 -7.0771999999999986 -0.12554300000000002 -0.026150000000000003 0.80790999999999979 -1.2070449999999998e-07 7.4920800000000015e-08 0.070966350000000025 -0.057950149999999992 0.038924450000000006 -0.0033035399999999993 -0.53849999999999987 0.13650500000000013 -6.4763899999999986e-07 0.00015966750000000004 0.0010248850000000003 0.0005343940000000001
decision_type=2 2 2 2 2 2 2 2 2 2 2 2 2 2 2 2 2 2 2 2 2 2 2 2 2 2 2 2 2 2
left_child=1 2 -1 4 -3 -5 7 -7 9 -8 11 12 -10 -13 -2 -16 17 18 23 20 21 -20 -22 26 -21 -26 -17 -25 29 -19
right_child=14 3 -4 5 -6 6 8 -9 10 -11 -12 13 -14 -15 15 16 -18 28 19 24 22 -23 -24 27 25 -27 -28 -29 -30 -31
leaf_value=-0.0014287644043742191 2.7091103455738315e-06 0.00014200391874923793 0.0034772720320948533 0.0011061691893826657 -0.0021945818500257916 0.00038198710659123733 -0.00055206921951375318 -0.0018670014222152533 -0.0033405891843679408 0.0027900156789281241 6.4974853776013136e-06 0.0019507902761027006 -0.00026930324256682072 -0.00046963668266567101 1.1378004689206788e-05 0.00053270077821798625 -3.4973776746657464e-05 0.0004023853152191166 0.0027554747286978039 0.0012047068251329045 -0.012855120709054577 -0.0075428016937803474 -0.0043201186789453708 -0.0040998203993345113 -0.0059691724896600304 -0.0011730612883444078 0.0054562436221749526 0.00039383676722300827 -0.00072196677516045632 0.0031071964042591088
leaf_weight=21 101525 22 21 29 21 33 54 39 34 34 95191 22 40 57 9044 25 11008 74 26 38 23 25 22 26 22 35 20 27 51 24
leaf_count=21 101525 22 21 29 21 33 54 39 34 34 95191 22 40 57 9044 25 11008 74 26 38 23 25 22 26 22 35 20 27 51 24
internal_value=0 5.72355e-06 0.00102425 5.27597e-06 -0.000999119 5.72806e-06 5.3939e-06 -0.000836215 6.02887e-06 0.000739191 5.35218e-06 -0.000707216 -0.00168043 0.000204406 -4.48531e-06 -4.01326e-05 -8.08335e-05 -0.0012334 -0.00210297 -0.00332062 -0.0052879 -0.0022927 -0.00868245 0.000270211 -0.00133263 -0.00302419 0.00272094 -0.0018106 0.000453214 0.00106479
internal_weight=0 95618 42 95576 43 95533 95504 72 95432 88 95344 153 74 79 122015 20490 11446 438 289 191 96 51 45 98 95 57 45 53 149 98
internal_count=217633 95618 42 95576 43 95533 95504 72 95432 88 95344 153 74 79 122015 20490 11446 438 289 191 96 51 45 98 95 57 45 53 149 98
shrinkage=0.05


Tree=477
num_leaves=31
num_cat=0
split_feature=29 37 19 39 37 15 21 39 1 17 4 39 39 39 6 22 11 39 22 18 18 39 11 4 17 39 23 17 18 31
split_gain=0.00221687 0.0133533 0.0683856 0.103939 0.0484467 0.210281 0.246247 0.385041 0.363831 0.214495 0.212831 0.207348 0.191416 0.381305 0.239177 0.20778 0.206097 0.19279 0.190807 0.334055 0.201735 0.183106 0.176308 0.211544 0.174896 0.150501 0.135635 0.129968 0.132069 0.143628
threshold=1.8894300000000003e-05 0.19792950000000006 2.9137900000000005 1.46871 -0.15132349999999997 -4.0549399999999993e-06 -0.34389449999999994 2.0339700000000001 4.9424050000000008 -5.0223249999999995 -0.45249949999999994 3.129045000000001 -2.0405449999999985 -0.99152500000000054 9.7954900000000019e-07 0.60130050000000013 0.0013144900000000002 -0.61387499999999962 23.183300000000006 -7.2793899999999994 6.3306750000000012 -2.39771 0.00013551050000000002 1.6690850000000002 -7.2112649999999991 -0.054875 -0.0022709099999999997 -6.091804999999999 3.8437450000000006 0.0016231600000000002
decision_type=2 2 2 2 2 2 2 2 2 2 2 2 2 2 2 2 2 2 2 2 2 2 2 2 2 2 2 2 2 2
left_child=-1 2 4 -4 -2 10 7 8 21 11 24 -8 -12 -14 15 -15 -17 -16 19 -19 27 -7 -23 -24 25 -6 -11 -21 -29 -30
right_child=1 -3 3 -5 5 6 9 -9 -10 26 12 -13 13 14 17 16 -18 18 -20 20 -22 22 23 -25 -26 -27 -28 28 29 -31
leaf_value=2.218265571794595e-06 1.8692257297205827e-06 1.7604901135280246e-05 -0.0034858717379393058 0.00026327058750259889 -0.0061175820498686776 -0.00012122522480701489 0.0050904103120587574 -0.00032336863915021402 -0.0081203340901993219 0.003505071874083528 -0.0017796428209056522 -0.00010278304995154031 0.0066701143658880529 0.0008255510088929441 -0.0041812515230444467 0.0017514263632737342 0.0073883485581438223 0.0060088416129084575 -0.0042706433931016365 0.003105950722238049 0.0041841055267468619 -0.00070019388019674177 -0.0059216934748526134 -0.00077941670897416779 -0.00015529851909625657 -0.0011456560416910281 -0.00047476330837046009 0.00024727870773486098 -0.00066658764993375607 -0.0056403523347052266
leaf_weight=182390 13687 18617 36 38 23 69 37 319 30 22 65 40 29 74 23 31 34 28 20 32 32 46 70 28 616 45 796 288 47 21
leaf_count=182390 13687 18617 36 38 23 69 37 319 30 22 65 40 29 74 23 31 34 28 20 32 32 46 70 28 616 45 796 288 47 21
internal_value=0 -1.148e-05 -4.40479e-05 -0.00156064 -3.72676e-05 -0.000224236 -0.00064533 -0.00146562 -0.00296513 -0.000130242 0.000211512 0.00239265 0.000809023 0.00106435 0.000806311 0.00263733 0.00469997 0.000287957 0.000507598 0.000720912 0.000368383 -0.00223904 -0.00325383 -0.00445247 -0.00042094 -0.00282734 -0.000367726 5.36847e-05 -0.000220676 -0.0022026
internal_weight=0 35243 16626 74 16552 2865 1457 562 243 895 1408 77 724 659 630 139 65 491 468 448 420 213 144 98 684 68 818 388 356 68
internal_count=217633 35243 16626 74 16552 2865 1457 562 243 895 1408 77 724 659 630 139 65 491 468 448 420 213 144 98 684 68 818 388 356 68
shrinkage=0.05


Tree=478
num_leaves=31
num_cat=0
split_feature=20 6 23 32 3 7 26 22 7 39 40 3 34 12 36 36 30 21 13 20 32 8 30 8 26 35 7 8 3 12
split_gain=0.00241436 0.0093814 0.0376419 0.020132 0.0477542 0.0121095 0.0154488 0.0183081 0.0139394 0.0129696 0.0356684 0.0100918 0.0198554 0.0401631 0.0399042 0.184837 0.148761 0.0200126 0.0129611 0.0119837 0.00682677 0.00872346 0.00604423 0.0506277 0.0079982 0.00618063 0.00857706 0.00520402 0.00489116 0.00551628
threshold=-6.007039999999999 -1.4992549999999998e-05 0.0020748500000000005 -0.0013312399999999998 -6.4166599999999994 3.7539700000000009e-05 -0.34874949999999993 87.628850000000014 3.5897900000000007e-05 0.20156999999999983 -0.47859499999999983 -6.4713699999999994 -0.0029691849999999996 -4.3823949999999997e-07 0.12375499999999996 -0.079468000000000025 0.0069692250000000008 0.45480950000000003 3.8630400000000007e-07 -5.7717399999999985 3.8353050000000004 2.5716400000000003e-05 2.1557050000000006 2.0928800000000005e-05 0.70424300000000006 0.044881000000000004 3.7525900000000004e-06 7.2751550000000007e-05 -6.0871149999999989 -6.6367399999999991e-09
decision_type=2 2 2 2 2 2 2 2 2 2 2 2 2 2 2 2 2 2 2 2 2 2 2 2 2 2 2 2 2 2
left_child=-1 2 27 4 -3 8 7 -7 11 28 -11 20 13 -13 15 19 -17 -15 -19 -14 22 -22 24 -24 25 -5 -27 -2 -8 -30
right_child=1 3 -4 5 -6 6 9 -9 -10 10 -12 12 14 17 -16 16 -18 18 -20 -21 21 -23 23 -25 -26 26 -28 -29 29 -31
leaf_value=-6.4730360451637667e-07 0.00083468488386902867 -5.842014982844092e-05 0.0024493116635130718 1.7302047187230917e-05 -0.002873810272431001 -0.0018594672807271959 -2.4598285278020063e-05 4.4387315139592041e-05 0.0011446181564356412 -2.8873045995750858e-05 -0.0023772862034423851 0.0017532722221486356 -8.2442212411384347e-05 -0.0017967656469758929 -0.00010075185650748608 0.0010560877839845882 0.0058865844917331094 2.3934837310496899e-05 -0.0012869175927941493 0.0011323622660632322 9.2141852448029182e-05 -0.0013669465055863839 0.0024071635184910799 -0.00046590340242128942 0.0008103916138239701 -4.3073882903520238e-05 -0.0013479873813048472 -2.6861628406977017e-05 7.0607609152582227e-07 0.0011480444530025124
leaf_weight=214394 21 61 20 1636 20 28 343 23 31 61 22 22 173 26 209 37 28 88 24 23 21 20 23 46 31 34 20 106 22 20
leaf_count=214394 21 61 20 1636 20 28 343 23 31 61 22 22 173 26 209 37 28 88 24 23 21 20 23 46 31 34 20 106 22 20
internal_value=0 4.28459e-05 0.000433111 2.4292e-05 -0.000753578 4.52177e-05 -0.000174502 -0.00100087 9.0978e-05 -8.44494e-05 -0.000651344 7.77058e-05 0.000250318 -0.000230773 0.000414094 0.000826366 0.00313692 -0.00054707 -0.000256962 6.01114e-05 1.83142e-05 -0.000619609 3.29258e-05 0.000491786 1.45288e-05 -6.98878e-08 -0.000526375 0.000115599 3.77642e-05 0.000547058
internal_weight=0 3239 147 3092 81 3011 519 51 2492 468 83 2461 630 160 470 261 65 138 112 196 1831 41 1790 69 1721 1690 54 127 385 42
internal_count=217633 3239 147 3092 81 3011 519 51 2492 468 83 2461 630 160 470 261 65 138 112 196 1831 41 1790 69 1721 1690 54 127 385 42
shrinkage=0.05


Tree=479
num_leaves=31
num_cat=0
split_feature=26 17 3 8 9 22 12 12 4 5 8 36 23 2 19 31 30 8 9 9 19 40 20 20 36 3 2 40 2 25
split_gain=0.00225405 0.0413746 0.106212 0.0787081 0.132999 0.131669 0.0629334 0.166664 0.107157 0.120119 0.0322732 0.0244213 0.0231961 0.0216033 0.348275 0.0450831 0.0161387 0.0237522 0.0168605 0.0738685 0.014961 0.0148426 0.0765148 0.101065 0.0754176 0.0487579 0.118541 0.0391877 0.0768233 0.0608921
threshold=0.030416150000000003 3.0677450000000004 -18.305499999999995 2.7034150000000006e-05 -9.8468249999999987e-06 6.6944750000000006 1.8224600000000005e-05 1.9390250000000003e-07 0.18998850000000003 1.1853100000000002e-05 1.0512900000000001e-05 -5.4467549999999987 0.0010465900000000002 -3.0487399999999996 2.9809550000000002 -0.21631099999999998 3.5771350000000006 2.8428900000000005e-05 -0.00022371799999999997 -0.00013151599999999998 -2.9378149999999996 -0.98309000000000013 -17.289999999999996 -16.772999999999996 0.056773999999999998 -5.5710999999999995 -1.5435349999999997 -0.5618949999999997 -2.9192849999999999 0.27127250000000008
decision_type=2 2 2 2 2 2 2 2 2 2 2 2 2 2 2 2 2 2 2 2 2 2 2 2 2 2 2 2 2 2
left_child=-1 13 -3 4 5 -4 7 8 12 -10 -6 -5 -7 14 15 -2 18 -18 -13 -20 -17 -15 24 -24 -23 27 -27 28 -25 -30
right_child=1 2 3 11 10 6 -8 -9 9 -11 -12 16 -14 21 -16 20 17 -19 19 -21 -22 22 23 25 -26 26 -28 -29 29 -31
leaf_value=-1.829277120616626e-06 -0.0023815482209708235 0.0037049429784846407 0.0055568702585151192 -0.0016311649732718555 0.0020967235639545835 -0.0022538450343745353 -0.00073018078237510056 0.0049141761096166197 -0.00015229567783308086 0.0040054573024175819 3.695709368282672e-05 -0.00061336514951582783 -4.0438473496547453e-05 2.5229072472435414e-05 0.006453093863886105 0.0013601192922214978 -0.0019636918517062442 -0.00019006506422599554 0.0030556199315200996 0.00010382440553199647 -9.8673027222785409e-05 -0.0041135311661333702 0.0026741830017058153 -0.0033229901449224352 8.4655772297992371e-05 0.0041094670843752588 2.2159688063873228e-05 -3.7072461258848425e-05 -0.00020442093844333525 -0.0020282649135452279
leaf_weight=192726 21 22 20 24 20 20 32 32 32 38 387 69 29 13737 22 20 20 336 22 579 145 23 34 22 20 24 68 8347 693 49
leaf_count=192726 21 22 20 24 20 20 32 32 32 38 387 69 29 13737 22 20 20 336 22 579 145 23 34 22 20 24 68 8347 693 49
internal_value=0 1.41546e-05 0.000253619 0.000207879 0.000659584 0.00170497 0.001284 0.00171085 0.000849448 0.00210477 0.000138174 -5.45408e-05 -0.00094387 -3.18786e-06 0.000504088 -0.000199558 -1.76607e-05 -0.000289707 0.000126889 0.000211877 7.81503e-05 -7.77201e-06 -5.66229e-05 -4.68271e-05 -0.00216089 -5.68797e-05 0.00108841 -6.84446e-05 -0.000411197 -0.000324863
internal_weight=0 24907 1682 1660 610 203 183 151 119 70 407 1050 49 23225 208 186 1026 356 670 601 165 23017 9280 9237 43 9203 92 9111 764 742
internal_count=217633 24907 1682 1660 610 203 183 151 119 70 407 1050 49 23225 208 186 1026 356 670 601 165 23017 9280 9237 43 9203 92 9111 764 742
shrinkage=0.05


Tree=480
num_leaves=31
num_cat=0
split_feature=8 36 2 36 21 18 36 36 11 15 17 29 36 17 36 39 2 2 4 31 20 2 36 33 39 28 36 37 12 1
split_gain=0.00216729 0.0109449 0.0105814 0.0444045 0.095212 0.0107189 0.0426796 0.212154 0.171157 0.22709 0.0785379 0.146917 0.200706 0.071186 0.0605702 0.129221 0.0459106 0.0454061 0.125574 0.0362799 0.0310179 0.198635 0.0513213 0.0206043 0.0194518 0.0488806 0.15097 0.469301 0.34614 0.313354
threshold=1.6290050000000002e-05 5.2590600000000007 2.1810100000000001 0.10022550000000004 0.14200800000000002 6.4146550000000007 -0.079468000000000025 -0.027530000000000051 0.00085338750000000011 -7.2403999999999991e-09 -3.4870349999999992 1.201625e-05 0.38220950000000015 -3.0760849999999995 0.65575499999999998 0.23546500000000006 1.0444150000000001 1.1724700000000003 -0.11271049999999998 -0.00014573699999999998 -11.548849999999998 1.4398750000000002 0.10022550000000004 -5.8160249999999995e-09 0.027469999999999221 -0.15089949999999999 -0.27744100000000016 -0.10141500000000002 8.5142800000000005e-07 5.5238250000000013
decision_type=2 2 2 2 2 2 2 2 2 2 2 2 2 2 2 2 2 2 2 2 2 2 2 2 2 2 2 2 2 2
left_child=1 2 5 4 -4 24 -7 8 9 -8 14 13 -13 -12 15 23 -15 18 -18 -10 21 -19 -23 -9 25 26 -1 -28 29 -29
right_child=-2 -3 3 -5 -6 6 7 10 19 -11 11 12 -14 16 -16 -17 17 20 -20 -21 -22 22 -24 -25 -26 -27 27 28 -30 -31
leaf_value=-5.5788684651793093e-05 1.9716598426492477e-06 0.00099359614498637362 2.9533173524972274e-05 -4.7157824048860001e-05 -0.0043424830652770653 2.164329568406972e-05 -0.0008198459009041213 0.0010968038404826075 -0.0024181189412774986 -0.0078105582822060498 -0.0027829569978912332 -0.0054033408356190197 -0.00019912410239571315 -0.0024136268711161049 -0.00021017745064252975 0.004188205062596621 -0.0011991603157366628 -0.0054161103328806345 0.0044038273721525916 0.00017941224540686009 -3.9732610744287573e-05 0.0022669027394191031 -0.00058167880692963083 -0.00075143248634412883 -4.2306620847839425e-05 1.5087253301821053e-05 -0.00020790540056793059 0.00029363529879779758 0.009193193741763632 0.0050041273444695706
leaf_weight=804 188240 27 33 292 20 3970 21 38 20 26 25 32 44 21 72 34 20 20 20 41 1313 21 64 25 11231 10732 262 82 21 62
leaf_count=804 188240 27 33 292 20 3970 21 38 20 26 25 32 44 21 72 34 20 20 20 41 1313 21 64 25 11231 10732 262 82 21 62
internal_value=0 -1.2627e-05 -1.35521e-05 -0.000288827 -0.00162028 -1.02797e-05 -7.0905e-05 -0.00026876 -0.00241942 -0.00468705 -0.000135958 -0.000245537 -0.00239037 -0.000137154 0.000888514 0.00170404 -9.24317e-05 -5.89988e-05 0.00160233 -0.000672237 -0.000105863 -0.000932807 0.000122088 0.000363377 4.95113e-06 4.93172e-05 0.000347738 0.00110754 0.00319631 0.00232176
internal_weight=0 29393 29366 345 53 29021 5827 1857 108 47 1749 1580 76 1504 169 97 1479 1458 40 61 1418 105 85 63 23194 11963 1231 427 165 144
internal_count=217633 29393 29366 345 53 29021 5827 1857 108 47 1749 1580 76 1504 169 97 1479 1458 40 61 1418 105 85 63 23194 11963 1231 427 165 144
shrinkage=0.05


Tree=481
num_leaves=31
num_cat=0
split_feature=16 35 32 10 36 36 20 36 25 39 39 18 33 14 14 34 39 39 36 37 36 21 22 20 37 40 10 39 39 11
split_gain=0.00216375 0.0403985 0.103656 0.0649907 0.0348786 0.174817 0.0264999 0.00890073 0.00471385 0.00348398 0.00857153 0.00744874 0.00256798 0.0176965 0.0214889 0.0507171 0.16304 0.218104 0.146125 0.55769 0.207473 0.191255 0.221291 0.115043 0.116442 0.382156 0.158803 0.222423 0.158449 0.139586
threshold=1.1921100000000003e-10 2.0374000000000002e-05 0.0013930150000000003 1.1791850000000001e-06 -0.079468000000000025 0.22528099999999995 -14.667549999999997 -0.40968649999999995 -0.0072584449999999997 -0.93682499999999969 0.43278000000000022 3.7733500000000002 -1.1071149999999997e-08 3.6649000000000006e-08 -3.0819049999999996e-06 0.00036695550000000009 0.55890500000000032 -2.2545749999999996 0.2761725000000001 -0.057539999999999918 0.20129000000000011 -0.29593199999999992 2.4608900000000005 -14.564499999999997 0.37828249999999997 0.31988499999999936 2.0892350000000003e-05 -0.56159999999999977 -0.93682499999999969 0.00013551050000000002
decision_type=2 2 2 2 2 2 2 2 2 2 2 2 2 2 2 2 2 2 2 2 2 2 2 2 2 2 2 2 2 2
left_child=1 2 3 -1 7 -6 -5 -3 -8 -10 11 -11 13 14 -2 -16 17 -17 19 20 21 22 -19 -21 25 29 27 -27 -28 -25
right_child=12 4 -4 6 5 -7 8 -9 9 10 -12 -13 -14 -15 15 16 -18 18 -20 23 -22 -23 -24 24 -26 26 28 -29 -30 -31
leaf_value=-0.0029176579096028515 -1.9632599593986264e-06 -1.5997470182849296e-05 -0.0032921792272363431 -0.0017964102613838068 0.003870709998787985 -8.633718187546172e-06 -0.0005101686232248196 -0.0010953812850251173 -2.4455165940515491e-05 0.00030469317446529332 -0.00011960804346783431 0.0014958302723243834 -5.769769852985847e-06 -7.2376120437459189e-06 1.5573472290077399e-05 -0.00014353979729144132 -3.2754534756657723e-05 0.000221207860740833 -3.7837825306226304e-05 -0.00050601379107884613 0.00091486870240057932 0.0098227555888866919 0.006925668545045483 0.0037382782325481203 5.2220630594562825e-05 -0.001028034440241754 0.0081589737934991725 0.005186066665919498 0.0035548547363047165 0.00046940557568393802
leaf_weight=21 18804 211 29 21 37 135 37 21 241 35 57 21 96334 84817 11348 806 3154 20 339 145 27 23 32 35 236 36 25 24 74 488
leaf_count=21 18804 211 29 21 37 135 37 21 241 35 57 21 96334 84817 11348 806 3154 20 339 145 27 23 32 35 236 36 25 24 74 488
internal_value=0 -7.88768e-05 -0.000398224 -0.000204403 0.000286317 0.000825876 -6.61056e-05 -0.0001137 2.68264e-05 8.29529e-05 0.000312027 0.00075137 3.15118e-07 5.1824e-06 3.47598e-05 7.5834e-05 0.000200987 0.000520131 0.000875795 0.00114165 0.00467324 0.00602625 0.00434703 0.000802777 0.0010095 0.00134076 0.00348736 0.00145761 0.00471751 0.000688164
internal_weight=0 866 462 433 404 172 412 232 391 354 113 56 216767 120433 35616 16812 5464 2310 1504 1165 102 75 52 1063 918 682 159 60 99 523
internal_count=217633 866 462 433 404 172 412 232 391 354 113 56 216767 120433 35616 16812 5464 2310 1504 1165 102 75 52 1063 918 682 159 60 99 523
shrinkage=0.05


Tree=482
num_leaves=31
num_cat=0
split_feature=36 19 33 18 16 32 19 25 22 29 0 23 37 19 17 39 18 17 2 22 39 39 29 29 36 18 9 16 21 39
split_gain=0.00226367 0.0307209 0.0715441 0.0755466 0.0745471 0.171522 0.0576106 0.0456842 0.0373659 0.0361267 0.0322099 0.0473483 0.0209989 0.060996 0.556988 0.82983 0.257115 0.357759 0.387114 0.170509 0.174889 0.647748 0.101875 0.164089 0.323519 0.135157 0.164242 0.330468 0.213193 0.194369
threshold=0.24966499999999994 -2.9623449999999996 1.2925450000000003e-06 -2.0281699999999994 1.0077000000000001e-08 -6.4303699999999992e-05 -3.0365249999999997 -0.0051454299999999986 0.27692750000000005 -9.1244649999999997e-06 -9.2506749999999993 0.000125408 -0.016969000000000036 -2.1362749999999995 -1.6961599999999997 0.052215000000000351 -6.1725999999999992 -3.5695999999999994 -2.5508599999999997 0.7592015000000002 1.7247300000000003 0.23546500000000006 -6.5683749999999988e-06 -7.4518449999999993e-06 0.056773999999999998 5.5200300000000011 3.2725900000000011e-05 2.0550550000000007e-06 0.62895050000000008 -0.19603999999999996
decision_type=2 2 2 2 2 2 2 2 2 2 2 2 2 2 2 2 2 2 2 2 2 2 2 2 2 2 2 2 2 2
left_child=1 2 3 6 5 -5 -1 -6 -7 -9 11 -11 13 14 16 -16 17 18 -3 -18 21 -21 23 25 -25 -15 29 -28 -29 -27
right_child=-2 12 -4 4 7 8 -8 9 -10 10 -12 -13 -14 22 15 -17 19 -19 -20 20 -22 -23 -24 24 -26 26 27 28 -30 -31
leaf_value=0.00303065669778824 5.7150974512367829e-06 0.0055507652969228934 -0.0029696314031473145 -0.0053573524145176634 0.0017888620011271322 0.00045891675661550839 0.00019053924610361401 -0.002034231962320989 -0.0021065258944872769 -0.00016393731094174627 0.00048649849278869324 -0.0029790445708204063 2.9163575085888164e-06 -0.00060034129644443552 0.0095245820207473571 -0.00038973238452340216 3.5543236258933161e-05 0.0073158968973571483 7.9019518017005241e-06 -0.00084093357430447223 -0.00012876113122636197 -0.0084080692619790103 -2.3921619301409844e-05 -0.0073492539369035513 -0.00072308524779925523 -0.0025718570737210452 0.0056574236236673859 -0.00044458493644860213 0.0049353025903904136 0.00034432282120157824
leaf_weight=26 96465 36 26 25 27 40 57 29 22 59 96 20 111596 1336 39 46 483 22 252 120 127 37 6042 25 70 73 39 113 22 263
leaf_count=26 96465 36 26 25 27 40 57 29 22 59 96 20 111596 1336 39 46 483 22 252 120 127 37 6042 25 70 73 39 113 22 263
internal_value=0 -4.54994e-06 -0.000427907 -0.000263106 -0.000613722 -0.00186116 0.00108021 -0.000143908 -0.000451402 -0.000399716 -0.000128853 -0.000876623 -3.05274e-06 -7.58933e-05 0.000262568 0.00415919 -4.4965e-05 0.00117022 0.00070076 -0.000536109 -0.00150832 -0.00262427 -0.00012516 -0.000440296 -0.00246681 -0.000336006 0.00035645 0.00160332 0.000432137 -0.000289252
internal_weight=0 121168 427 401 318 87 83 231 62 204 175 79 120741 9145 1162 85 1077 310 288 767 284 157 7983 1941 95 1846 510 174 135 336
internal_count=217633 121168 427 401 318 87 83 231 62 204 175 79 120741 9145 1162 85 1077 310 288 767 284 157 7983 1941 95 1846 510 174 135 336
shrinkage=0.05


Tree=483
num_leaves=31
num_cat=0
split_feature=40 3 6 3 18 2 17 1 12 36 36 37 6 37 36 21 15 11 3 37 37 39 12 12 21 4 16 2 39 28
split_gain=0.00225711 0.0153835 0.0901642 0.016152 0.0664598 0.171068 0.0650938 0.0654494 0.0997719 0.0679202 0.459563 0.236458 0.0327756 0.0289879 0.0218627 0.0119857 0.0616501 0.0154444 0.0109864 0.016021 0.219917 0.235246 0.300107 0.270472 0.350066 0.482841 0.324037 0.144107 0.135038 0.133313
threshold=-1.6465599999999998 -18.305499999999995 1.0000000180025095e-35 -15.510599999999998 4.5505850000000008 1.9944900000000001 8.3915400000000009 -4.5317299999999987 5.9976150000000007e-09 -0.3819765 0.077348000000000056 0.09983149999999999 6.3193550000000007e-07 -0.30357199999999979 -0.71412249999999966 -2.2419299999999995 -0.00032340099999999991 0.0046153250000000009 -7.0771999999999986 -0.12554300000000002 -0.026150000000000003 0.80790999999999979 -1.2070449999999998e-07 7.4920800000000015e-08 0.070966350000000025 -0.057950149999999992 1.2143300000000003e-08 -0.4875334999999999 0.13650500000000013 -0.095748199999999992
decision_type=2 2 2 2 2 2 2 2 2 2 2 2 2 2 2 2 2 2 2 2 2 2 2 2 2 2 2 2 2 2
left_child=1 2 -1 4 6 12 7 8 -3 -9 11 -11 14 -12 -6 16 -2 -18 -17 -20 21 22 29 24 25 -24 -26 -25 -29 -21
right_child=15 3 -4 -5 5 -7 -8 9 -10 10 13 -13 -14 -15 -16 18 17 -19 19 20 -22 -23 23 27 26 -27 -28 28 -30 -31
leaf_value=-0.0013542065597167017 0.0029261350143878237 0.0038294698754769 0.0032791159725526261 7.1546907704780998e-06 -7.3772914016224223e-05 0.0048503457187590278 0.0020263223612206416 3.0542899764021481e-05 -0.00066407446982945362 -0.0098552609048783782 -0.00027594335736140095 -0.0026238356943045242 0.0010906742604169671 -0.0022453753155423327 -0.0021687916381051765 1.8485291525434517e-06 0.00051852287329454377 -0.0011773127304622903 1.1447156748326681e-05 0.0037722873250632324 -3.3874007770453932e-05 0.00043748484566204573 0.002572532929480076 0.0010124470543814823 -0.0037126799889457677 -0.0071594321748998484 -0.012217361626001851 -0.0060842285276434963 -0.00098469770232708568 -0.00072203524830840324
leaf_weight=21 21 21 21 94830 33 22 26 208 30 20 284 26 36 20 20 101450 29 25 9044 21 11008 149 26 40 21 25 24 21 34 77
leaf_count=21 21 21 21 94830 33 22 26 208 30 20 284 26 36 20 20 101450 29 25 9044 21 11008 149 26 40 21 25 24 21 34 77
internal_value=0 5.75203e-06 0.000962455 5.33162e-06 -0.000226414 0.000902356 -0.000423727 -0.000528326 0.00118621 -0.000685031 -0.00111029 -0.00576793 -7.35513e-05 -0.000405511 -0.000864346 -4.50762e-06 0.000627376 -0.000266586 -4.89627e-06 -3.82911e-05 -7.75915e-05 -0.00117632 -0.00200835 -0.00316248 -0.0050342 -0.00219804 -0.00824851 -0.00127106 -0.00293179 0.000241034
internal_weight=0 95618 42 95576 746 111 635 609 51 558 350 46 89 304 53 122015 75 54 121940 20490 11446 438 289 191 96 51 45 95 55 98
internal_count=217633 95618 42 95576 746 111 635 609 51 558 350 46 89 304 53 122015 75 54 121940 20490 11446 438 289 191 96 51 45 95 55 98
shrinkage=0.05


Tree=484
num_leaves=31
num_cat=0
split_feature=27 12 8 10 11 3 5 9 12 11 3 14 14 4 23 8 29 1 4 15 6 23 20 15 10 14 15 8 14 4
split_gain=0.00228079 0.0257318 0.0644708 0.0429985 0.0316807 0.0281234 0.0247114 0.0230185 0.0196876 0.0160323 0.0223525 0.0142677 0.0205717 0.0155919 0.00814998 0.00487704 0.0044753 0.0324698 0.0194206 0.0816537 0.313997 0.165428 0.0761176 0.0731682 0.0312492 0.0153042 0.0114933 0.0467672 0.0325565 0.0160136
threshold=0.35534200000000005 1.1129000000000003e-05 2.0248200000000004e-05 2.4198950000000003e-05 0.0029601150000000006 -12.352299999999998 1.0508700000000002e-05 -6.2059949999999982e-05 9.3811500000000008e-05 0.03977975000000001 -14.605749999999999 6.9933600000000013e-06 3.8906650000000017e-06 0.34232900000000005 -0.062701649999999984 6.5349850000000006e-05 0.0014581450000000003 -13.794199999999998 -3.3078599999999994 -0.00028306949999999995 8.812610000000001e-08 -0.0048905699999999995 -10.576799999999997 -0.00015077349999999997 -6.7776199999999983e-05 -3.7416649999999998e-06 -2.6217499999999998e-05 1.9215700000000003e-05 1.4977250000000001e-06 -0.20992299999999997
decision_type=2 2 2 2 2 2 2 2 2 2 2 2 2 2 2 2 2 2 2 2 2 2 2 2 2 2 2 2 2 2
left_child=16 4 -3 -4 7 -5 -6 -2 -7 10 -8 12 13 14 -9 -16 -1 -18 -19 20 21 -20 -22 -21 -25 -26 27 -27 -29 -28
right_child=1 2 3 5 6 8 9 11 -10 -11 -12 -13 -14 -15 15 -17 17 18 19 23 22 -23 -24 24 25 26 29 28 -30 -31
leaf_value=-2.3914674299011265e-07 0.001267381210527674 0.0025745819067621296 0.001643722606046746 -0.0018928811374482595 -0.0022603624265264861 0.00091684028684539958 -0.0020580867300442809 0.00063456991478792941 -0.00078764928124049538 0.000360230928468167 -0.00037634548974188701 -0.00128121090028435 0.0014737231065131105 -0.0013157461570629564 -5.8743623013102503e-05 -0.00063990905303110525 0.0020929156109923499 -0.00051358329426125758 0.0014348553843112977 -0.0029190534498498202 -0.0032040202893549581 0.0074995030059337459 0.00087928546542700905 0.0019267684118610554 0.0012422258587321267 0.0013710167434692268 0.00090562414875967076 -0.0027986681839744661 -0.00013579140107718889 -1.5709429488877956e-05
leaf_weight=215584 32 30 30 27 26 32 29 39 36 34 62 25 21 26 302 41 20 131 22 21 25 23 21 22 25 20 50 24 22 831
leaf_count=215584 32 30 30 27 26 32 29 39 36 34 62 25 21 26 302 41 20 131 22 21 25 23 21 22 25 20 50 24 22 831
internal_value=0 -8.46951e-05 0.000493064 -6.50078e-06 -0.00022528 -0.000527624 -0.000857878 -2.87323e-05 1.44635e-05 -0.000566161 -0.000912285 -0.000120088 -5.24239e-05 -0.000130976 -5.03367e-05 -0.000128212 3.09344e-07 9.43793e-05 6.20667e-05 0.000130249 0.00156505 0.00453456 -0.0013399 1.61181e-06 6.3316e-05 2.11391e-05 -1.10966e-05 -0.000647502 -0.00152512 3.65796e-05
internal_weight=0 792 155 125 637 95 151 486 68 125 91 454 429 408 382 343 216841 1257 1237 1106 91 45 46 1015 994 972 947 66 46 881
internal_count=217633 792 155 125 637 95 151 486 68 125 91 454 429 408 382 343 216841 1257 1237 1106 91 45 46 1015 994 972 947 66 46 881
shrinkage=0.05


Tree=485
num_leaves=31
num_cat=0
split_feature=14 33 15 15 34 4 34 14 3 30 3 15 4 36 36 17 26 25 15 25 26 29 31 4 4 3 22 34 40 8
split_gain=0.00218369 0.0112231 0.0557106 0.0301645 0.0228843 0.0588327 0.0171602 0.012796 0.0123947 0.0109426 0.0253085 0.00766464 0.0268109 0.00630187 0.00972124 0.00609191 0.00625359 0.00749867 0.00470966 0.0714109 0.00520684 0.00438624 0.00782267 0.0142671 0.0336894 0.0235673 0.0123186 0.00560055 0.00726458 0.00981873
threshold=6.1187250000000013e-05 -2.7510949999999998e-05 0.00014095500000000004 0.0073236350000000011 -3.2628099999999995 3.8631150000000005 -1.0090899999999998 0.00023692700000000003 -11.586999999999998 6.2013600000000011 -17.304849999999998 -4.1197899999999994e-05 -2.5331249999999996 -0.74380499999999983 1.7195840000000002 -19.608449999999998 1.0482150000000001 1.0121250000000004 0.014310250000000002 -0.041208949999999994 0.027036700000000004 9.2365500000000009e-05 -0.17054099999999997 2.2539600000000006 -1.1200049999999997 -16.413199999999996 7.3223450000000012 -0.0154986 -2.3840000000000008 6.2725750000000019e-05
decision_type=2 2 2 2 2 2 2 2 2 2 2 2 2 2 2 2 2 2 2 2 2 2 2 2 2 2 2 2 2 2
left_child=18 2 -2 -4 5 -3 13 8 -5 15 -11 12 -12 -6 -15 -8 17 21 -1 -20 -21 27 26 24 -24 -26 -23 28 -17 -30
right_child=1 4 3 7 6 -7 9 -9 -10 10 11 -13 -14 14 -16 16 -18 -19 19 20 -22 22 23 -25 25 -27 -28 -29 29 -31
leaf_value=-1.9110430200155242e-06 -0.0025193816957583366 0.0031756985606625678 0.0013492353021320016 -0.0018959984204477886 -0.00014665795368438755 -0.00040222834666363066 -0.00060243128766614975 1.9922532590351548e-05 -0.00021761204030057839 0.0018985998201811608 -0.00042514932616281192 9.1956314714359958e-05 0.0021328058213839541 -0.0017168745398521423 -0.00036230862827290331 5.9925551827894848e-05 0.00074892935990019706 -0.00078927155184922823 0.0030710625627762057 1.0309342787426019e-05 -0.00085176679371215872 -0.0012414818933889778 -0.00039227508180374572 0.00013343094544420876 0.00053559772699372842 0.0028824193290505639 1.6751669680897541e-05 1.8557660590600361e-05 -8.0139867217612459e-05 -0.00046822204237503769
leaf_weight=195557 26 20 32 22 33 27 40 74 22 23 21 288 20 26 27 565 29 29 20 141 20 22 30 399 20 23 168 18971 728 210
leaf_count=195557 26 20 32 22 33 27 40 74 22 23 21 288 20 26 27 565 29 29 20 141 20 22 30 399 20 23 168 18971 728 210
internal_value=0 1.4975e-05 -0.000382691 -1.23309e-05 1.81975e-05 0.00112029 1.58074e-05 -0.000381569 -0.00105681 1.86157e-05 0.000295111 0.000183013 0.000822634 -0.000689079 -0.00102681 1.40322e-05 1.51957e-05 1.41903e-05 -1.67509e-06 0.000253257 -9.67809e-05 1.52927e-05 0.000141964 0.000251013 0.00089369 0.00179087 -0.000128939 1.1197e-05 -8.17103e-05 -0.000167024
internal_weight=0 21895 176 150 21719 47 21672 118 44 21586 352 329 41 86 53 21234 21194 21165 195738 181 161 21136 662 472 73 43 190 20474 1503 938
internal_count=217633 21895 176 150 21719 47 21672 118 44 21586 352 329 41 86 53 21234 21194 21165 195738 181 161 21136 662 472 73 43 190 20474 1503 938
shrinkage=0.05


Tree=486
num_leaves=31
num_cat=0
split_feature=20 1 36 36 1 34 32 3 7 26 39 39 39 37 36 36 3 33 3 36 3 16 9 23 19 31 15 26 3 15
split_gain=0.0021795 0.0152503 0.0512966 0.103083 0.010557 0.0349035 0.00921815 0.0148182 0.00861032 0.012021 0.015278 0.00958539 0.0325541 0.0086862 0.0450012 0.0608721 0.0478398 0.0398351 0.0313627 0.0223422 0.0177244 0.0127185 0.0217251 0.00814515 0.00720441 0.00581344 0.00907524 0.00498475 0.00457828 0.00711276
threshold=-6.007039999999999 12.027950000000002 0.039429999999999972 -0.14969009999999991 9.8382400000000008 -0.0007663809999999999 -0.0019802249999999995 -8.216879999999998 3.7539700000000009e-05 -0.34874949999999993 -1.5196849999999988 0.20156999999999983 0.39187000000000044 0.56931500000000013 0.10022550000000004 0.0045899999999999838 -6.8388149999999994 1.8324750000000004e-05 -6.3074049999999993 -0.058960000000000005 -7.0771999999999986 1.091555e-08 1.3919400000000003e-05 -0.0007440124999999999 0.82375900000000002 0.67406600000000017 -6.9566899999999985e-07 -1.2159399999999998 -6.0871149999999989 3.706590000000001e-08
decision_type=2 2 2 2 2 2 2 2 2 2 2 2 2 2 2 2 2 2 2 2 2 2 2 2 2 2 2 2 2 2
left_child=-1 4 3 -3 6 -6 7 -2 13 10 -10 28 -13 14 15 17 -17 18 20 -20 23 22 -16 -8 -4 -23 -27 -15 -11 -30
right_child=1 2 24 -5 5 -7 8 -9 9 11 -12 12 -14 27 21 16 -18 -19 19 -21 -22 25 -24 -25 -26 26 -28 -29 29 -31
leaf_value=-6.150137359086223e-07 -0.00011371889238282827 0.00023055347019880382 -5.8749474393274815e-05 -0.0045440922247507844 0.001758186770576942 -2.9631611683366279e-05 0.00090145954415096318 0.0017667464498663321 -0.00017087196555461132 -1.8696258966984259e-05 -0.0018618805946475317 -0.0023077455624297728 -4.0563534089400091e-05 -0.00050052693461391474 -9.1934152693158537e-05 0.0008617652451820587 0.0042405696178320794 0.002094230415945452 0.00010748759690873808 0.0020277551126624037 -0.0015395325885730841 -1.6824806067717294e-05 0.0020501432442688382 -0.00014646808201439977 0.00096269476288441758 0.00013557595433667303 -0.0013526411627286248 7.5849392334259105e-07 -1.3417490923269986e-05 0.0012211522443976719
leaf_weight=214394 22 26 97 20 39 91 22 20 34 362 22 20 76 52 29 22 20 31 28 33 21 833 20 118 21 20 21 1071 28 20
leaf_count=214394 22 26 97 20 39 91 22 20 34 362 22 20 76 52 29 22 20 31 28 33 21 833 20 118 21 20 21 1071 28 20
internal_value=0 4.07086e-05 -0.000429083 -0.00184538 6.57642e-05 0.000506714 4.62995e-05 0.000781741 3.56593e-05 -0.000140088 -0.000835197 -6.3159e-05 -0.000512893 7.78506e-05 0.000170331 0.000707917 0.00247072 0.000415278 0.00018083 0.00114632 -0.000184977 -1.48671e-06 0.000782383 1.82063e-05 0.000123033 -4.54336e-05 -0.000626682 -2.24533e-05 4.21447e-05 0.000500987
internal_weight=0 3239 164 46 3075 130 2945 42 2903 562 56 506 96 2341 1218 295 42 253 222 61 161 923 49 140 118 874 41 1123 410 48
internal_count=217633 3239 164 46 3075 130 2945 42 2903 562 56 506 96 2341 1218 295 42 253 222 61 161 923 49 140 118 874 41 1123 410 48
shrinkage=0.05


Tree=487
num_leaves=31
num_cat=0
split_feature=29 3 6 18 1 0 10 36 25 23 36 18 36 20 18 36 2 17 40 11 36 2 1 36 23 36 36 1 14 25
split_gain=0.00215912 0.0123658 0.024737 0.0457647 0.0648985 0.106137 0.0427282 0.124131 0.211626 0.355395 0.157608 0.144465 0.128817 0.15731 0.069429 0.110737 0.108551 0.0598736 0.234894 0.0631688 0.0900127 0.052199 0.0518655 0.0654528 0.0397364 0.0787355 0.174763 0.056691 0.203714 0.0390963
threshold=1.8894300000000003e-05 -13.080499999999999 -3.7361699999999995e-07 3.8437450000000006 4.2601300000000011 -2.8094699999999997 -3.3894799999999993e-05 -0.079468000000000025 0.0079892800000000031 -0.00024772449999999996 -0.040859549999999939 3.0686450000000005 -0.19934349999999995 -14.667549999999997 -1.8600249999999996 0.12375499999999996 -0.24170749999999999 5.2392200000000004 -0.47859499999999983 0.0064150250000000004 0.10022550000000004 -1.1333049999999998 -4.6697349999999984 -0.30278099999999991 7.2090200000000023e-05 -0.30278099999999991 0.1751400000000001 3.1034450000000002 1.4872500000000002e-05 1.9114100000000003
decision_type=2 2 2 2 2 2 2 2 2 2 2 2 2 2 2 2 2 2 2 2 2 2 2 2 2 2 2 2 2 2
left_child=-1 2 29 6 24 -6 7 12 10 -10 -9 -11 22 -14 17 16 -16 19 -19 21 -21 -12 -4 -24 27 -26 -27 -5 -29 -2
right_child=1 -3 3 4 5 -7 -8 8 9 11 14 -13 13 -15 15 -17 -18 18 -20 20 -22 -23 23 -25 25 26 -28 28 -30 -31
leaf_value=2.1891810084873504e-06 -0.00022275501777268615 2.5298211550701988e-06 0.0022550909797825047 -9.8661524403753843e-05 -0.0035474853915123585 -0.00056493679466369546 -3.4274639843535439e-05 0.0039549055478225155 -0.0025641277909016938 0.0070451861887704586 0.0022365397247283356 0.0018529483158047134 -0.0062700088700512434 -0.0002067819399678189 0.0051193937245342467 -0.00018548782491316029 0.0010365022701657059 0.0058712616638513281 -0.00045635222121890445 -0.0044628661059375315 -0.0001947463418764528 -0.00023418771563871152 -1.6299539718293182e-06 -0.0028159680335944439 -0.00011254224683168004 0.0041546470410570406 -0.00052511272477290944 -0.00024102459619565966 -0.0059628952257844503 0.0018487967345762351
leaf_weight=182390 2342 28912 22 334 36 174 2023 30 20 37 23 21 20 23 27 69 41 20 55 21 30 303 203 23 241 38 42 70 20 23
leaf_count=182390 2342 28912 22 334 36 174 2023 30 20 37 23 21 20 23 27 69 41 20 55 21 30 303 203 23 241 38 42 70 20 23
internal_value=0 -1.13295e-05 -7.46212e-05 1.70021e-06 -0.000299887 -0.00107623 9.73547e-05 0.000366875 0.000729003 0.00318335 0.000419731 0.00516524 -0.000500489 -0.00302689 0.000239671 0.0012257 0.00265765 -5.91929e-05 0.00123101 -0.000315865 -0.00195221 -5.98726e-05 -6.24441e-05 -0.000288045 -8.10515e-05 0.000338627 0.00169777 -0.00039878 -0.00151255 -0.000202609
internal_weight=0 35243 6331 3966 955 210 3011 988 697 78 619 58 291 43 589 137 68 452 75 377 51 326 248 226 745 321 80 424 90 2365
internal_count=217633 35243 6331 3966 955 210 3011 988 697 78 619 58 291 43 589 137 68 452 75 377 51 326 248 226 745 321 80 424 90 2365
shrinkage=0.05


Tree=488
num_leaves=31
num_cat=0
split_feature=28 14 8 14 1 8 13 37 36 39 16 17 9 3 6 3 15 36 17 13 14 7 36 0 17 36 17 36 18 36
split_gain=0.00220403 0.0112092 0.06885 0.0266273 0.056393 0.0166665 0.110768 0.0258837 0.066691 0.0980604 0.0289207 0.0181719 0.0152995 0.0367349 0.0801541 0.025675 0.02237 0.0144203 0.014108 0.0181802 0.0148305 0.0207144 0.0246775 0.0226369 0.0171431 0.0142341 0.00710939 0.00659364 0.0155377 0.0104839
threshold=-10.048129999999999 1.3092400000000001e-06 1.3179250000000001e-05 7.2680000000000008e-07 4.8656050000000013 1.5224150000000001e-05 -2.7228099999999994e-06 0.35345999999999994 0.2761725000000001 3.4885250000000001 1.9131000000000004e-05 -1.3693099999999998 -0.0005162264999999999 -15.867949999999999 5.0712000000000011e-07 -12.352299999999998 -0.00028306949999999995 -0.51801999999999981 12.319050000000002 9.9131400000000028e-06 7.7830150000000009e-06 -3.4021049999999988e-05 -0.17527649999999997 -5.018114999999999 -19.608449999999998 -0.68744999999999989 -7.7125999999999992 -4.7245149999999994 -4.4014699999999989 -4.5263099999999996
decision_type=2 2 2 2 2 2 2 2 2 2 2 2 2 2 2 2 2 2 2 2 2 2 2 2 2 2 2 2 2 2
left_child=1 3 -3 5 -5 6 -1 8 9 -7 -10 -11 15 14 -14 -4 -15 27 20 -20 24 22 -22 -23 -18 -25 -12 28 -9 -29
right_child=-2 2 12 4 -6 7 -8 17 10 11 26 -13 13 16 -16 -17 18 -19 19 -21 21 23 -24 25 -26 -27 -28 29 -30 -31
leaf_value=0.0039197936997516078 4.5159125454370688e-07 -0.0031119982560630886 0.0020869108839542609 -0.00014077656467737331 0.0024681668474359495 -0.0038347168614563999 -9.6988005585324358e-05 -0.0015997428183687761 0.0019366927095688881 -0.0012826360579046812 -0.00092052693412963146 0.00042936558006218662 -0.0035709074686261981 0.0012507794960401953 0.00047443597222445534 -0.00038836467931766742 -0.0014917176900278971 0.0013601484726677882 -0.00028838818224081162 -0.0020940956322010608 1.6456577650387772e-05 -0.0015850719243462664 0.002500277948420262 -4.0484212324705744e-05 -0.00017232913275949582 0.0011076761595391232 8.923238609036667e-05 0.001012685213720909 4.7352699653452473e-05 4.1613027232278511e-06
leaf_weight=20 215894 20 20 53 34 32 121 21 20 31 23 31 24 30 25 22 29 20 46 20 20 20 20 131 163 34 72 27 45 565
leaf_count=20 215894 20 20 53 34 32 121 21 20 31 23 31 24 30 25 22 29 20 46 20 20 20 20 131 163 34 72 27 45 565
internal_value=0 -5.60643e-05 -0.000225753 3.89003e-05 0.000878811 -3.21816e-05 0.000472768 -0.00011245 -0.000598928 -0.00158683 0.000208578 -0.000426635 -0.000130182 -0.000198975 -0.00150696 0.000790338 -7.4041e-05 3.75116e-05 -0.000156328 -0.000835572 -4.88217e-05 0.000226626 0.00125837 3.54659e-06 -0.000371612 0.000196106 -0.000155236 -2.69011e-06 -0.000476723 5.01582e-05
internal_weight=0 1739 624 1115 87 1028 141 887 209 94 115 62 604 562 49 42 513 678 483 66 417 225 40 185 192 165 95 658 66 592
internal_count=217633 1739 624 1115 87 1028 141 887 209 94 115 62 604 562 49 42 513 678 483 66 417 225 40 185 192 165 95 658 66 592
shrinkage=0.05


Tree=489
num_leaves=31
num_cat=0
split_feature=4 21 4 19 36 37 40 39 37 18 18 33 20 20 22 29 18 20 18 18 39 36 20 1 3 5 14 39 37 28
split_gain=0.00212258 0.0304033 0.109773 0.117682 0.131885 0.467485 0.223371 0.309546 0.257177 0.390449 0.360923 0.215123 0.177829 0.224203 0.153537 0.226105 0.147812 0.185155 0.117342 0.140001 0.13945 0.294251 0.116287 0.113147 0.133466 0.103927 0.0884764 0.150044 0.11453 0.112977
threshold=0.19669200000000001 0.20390150000000004 0.79460700000000006 -3.0951399999999993 0.38220950000000015 0.19792950000000006 2.829940000000001 -0.61387499999999962 0.078754999999999922 -5.7481999999999989 7.3737850000000007 1.5720100000000002e-06 -9.3498099999999997 -8.1389049999999994 23.183300000000006 -0.00012302899999999995 1.0000000180025095e-35 -12.158349999999999 -7.6068149999999983 5.1273750000000007 -0.026199999999999776 0.056773999999999998 -9.5298349999999985 3.9525500000000005 -10.603549999999998 1.5656100000000004e-05 1.7113350000000004e-07 0.80790999999999979 -0.057539999999999918 -0.41682949999999991
decision_type=2 2 2 2 2 2 2 2 2 2 2 2 2 2 2 2 2 2 2 2 2 2 2 2 2 2 2 2 2 2
left_child=-1 -2 3 -3 5 6 7 11 14 -10 16 12 -5 -14 15 25 17 -11 22 20 21 -20 -17 -22 -25 -9 -21 28 -28 -30
right_child=1 2 -4 4 -6 -7 -8 8 9 10 -12 -13 13 -15 -16 18 -18 -19 19 26 23 -23 -24 24 -26 -27 27 -29 29 -31
leaf_value=-3.1490920709304296e-06 -1.2129778724901462e-05 0.00331677844321436 -3.201272836539935e-05 0.0027297513691155475 -9.3748582516258412e-05 -3.3368587301413336e-05 -0.0013327330569700281 0.0068819973468115291 0.0090631894817899752 -0.00070306852217722089 0.0077863675588741897 -0.00068893514539080649 0.010172215349081418 0.0035617876613255718 -0.0030406334580710299 0.0056240230730812378 -0.0026497475969206011 0.0055958238782477564 0.00049015809516538228 -0.00019867790448616315 -6.5843192126372577e-05 0.0064941622944467746 0.0014145260800578398 -0.0052102755382657058 -0.00057510932042865407 0.0020655661384807902 0.0048958469968056308 0.0053140829378530577 -0.0014559154385367307 0.0019773261797929403
leaf_weight=154710 47420 31 9868 80 2034 2228 85 21 23 28 20 27 23 29 26 21 28 20 181 51 335 23 75 25 41 24 20 31 37 68
leaf_count=154710 47420 31 9868 80 2034 2228 85 21 23 28 20 27 23 29 26 21 28 20 181 51 335 23 75 25 41 24 20 31 37 68
internal_value=0 7.74273e-06 6.8528e-05 0.000244595 0.0002276 0.000410688 0.00114791 0.00131566 0.00101708 0.00321192 0.00181005 0.00337756 0.00420934 0.00648563 0.00075029 0.000853715 0.000237337 0.00192147 0.000682263 0.000486824 0.000102794 0.00116708 0.00233535 -0.000438638 -0.00233085 0.00431323 0.00160923 0.00220027 0.00142805 0.000767517
internal_weight=0 62923 15503 5635 5604 3570 1342 1257 1098 119 96 159 132 52 979 953 76 48 908 812 605 204 96 401 66 45 207 156 125 105
internal_count=217633 62923 15503 5635 5604 3570 1342 1257 1098 119 96 159 132 52 979 953 76 48 908 812 605 204 96 401 66 45 207 156 125 105
shrinkage=0.05


Tree=490
num_leaves=31
num_cat=0
split_feature=40 21 4 34 3 4 22 22 23 0 40 4 12 16 14 30 20 17 20 36 36 0 23 4 36 39 20 28 40 33
split_gain=0.00230189 0.0120305 0.0173502 0.00848696 0.0653361 0.131736 0.0241922 0.029581 0.0221711 0.0654775 0.0198462 0.0567931 0.0145803 0.0223845 0.0148256 0.0131922 0.0220089 0.0406643 0.0177287 0.0163154 0.086201 0.0109818 0.0296725 0.0402063 0.0119614 0.0109831 0.0318374 0.0110616 0.0376683 0.0153828
threshold=2.4429550000000004 -1.7211949999999998 -0.38361349999999994 0.08967940000000002 -18.627349999999996 -0.23603199999999996 7.8655400000000011 10.786550000000002 -0.062701649999999984 3.0384450000000007 3.0726850000000008 -0.96247749999999999 2.3836250000000008e-06 0.0003933880000000001 0.00081001800000000013 0.21701850000000003 -15.138399999999999 -0.41059849999999992 -13.656999999999998 -0.32870999999999989 0.354709 -6.2295349999999994 -0.0048905699999999995 0.087890700000000016 -5.4467549999999987 -2.5440100000000001 -11.077049999999998 5.9680600000000004 4.8674450000000027 -2.7510949999999998e-05
decision_type=2 2 2 2 2 2 2 2 2 2 2 2 2 2 2 2 2 2 2 2 2 2 2 2 2 2 2 2 2 2
left_child=-1 2 -2 8 5 -5 -6 -8 9 -3 11 -9 -12 -14 -15 -10 17 -17 19 -18 -21 22 23 -20 -23 27 -27 29 -29 -26
right_child=1 3 -4 4 6 -7 7 10 15 -11 12 -13 13 14 -16 16 18 -19 21 20 -22 24 -24 -25 25 26 -28 28 -30 -31
leaf_value=-2.7177357887657822e-06 -0.0015469921088030487 -6.8741118229809214e-05 -9.3317078538418107e-05 0.0048983022825615039 -0.0015000971356433487 -0.00057910655428397302 0.0014567000756449909 0.0022849055509694253 1.5165557046886287e-05 0.0024710352788436772 0.00010085908539496812 3.0390423796090643e-05 -0.0014658376291998522 -0.00027868718169620188 0.0011439871518814473 -0.00023466637655604117 -4.7499864914433416e-05 0.002717243652441539 8.7154230806680239e-06 -0.0034047856867632448 -0.0001475384112359834 -0.0010400770316437047 -1.8765470058316463e-05 0.0031062439875495333 -0.0013292107778252104 0.0016970385550902232 -0.00011639074876154069 -0.00046343212778992892 0.0018803448678954737 -8.5410420879760619e-05
leaf_weight=170115 30 86 65 21 24 23 39 37 41097 36 596 114 38 217 20 28 91 20 22 27 82 32 151 20 25 34 84 40 30 4389
leaf_count=170115 30 86 65 21 24 23 39 37 41097 36 596 114 38 217 20 28 91 20 22 27 82 32 151 20 25 34 84 40 30 4389
internal_value=0 9.72953e-06 -0.000552372 1.08556e-05 0.000146302 0.00203511 6.97049e-05 0.000105214 7.55235e-06 0.000680701 5.36407e-05 0.000582821 -3.81001e-05 -0.000339263 -0.00015863 5.77369e-06 -7.0281e-05 0.000995296 -8.04556e-05 -0.000541749 -0.000954379 -6.13426e-05 0.000308202 0.00148373 -7.67336e-05 -7.0035e-05 0.000406123 -8.25655e-05 0.000541044 -9.24551e-05
internal_weight=0 47518 95 47423 1129 44 1085 1061 46294 122 1022 151 871 275 237 46172 5075 48 5027 200 109 4827 193 42 4634 4602 118 4484 70 4414
internal_count=217633 47518 95 47423 1129 44 1085 1061 46294 122 1022 151 871 275 237 46172 5075 48 5027 200 109 4827 193 42 4634 4602 118 4484 70 4414
shrinkage=0.05


Tree=491
num_leaves=31
num_cat=0
split_feature=40 3 6 3 32 3 3 32 17 3 22 3 32 14 33 36 40 39 18 36 2 17 22 17 3 0 6 29 22 4
split_gain=0.00234306 0.0137109 0.0810739 0.0147847 0.0209183 0.0121672 0.0168467 0.0343185 0.0211281 0.01677 0.0809995 0.0269463 0.0419371 0.0126331 0.0401508 0.0336316 0.0119377 0.0104003 0.0478314 0.0697496 0.242589 0.0493544 0.0877402 0.0454464 0.110897 0.152491 0.118791 0.0620502 0.144712 0.103054
threshold=-1.6465599999999998 -18.305499999999995 1.0000000180025095e-35 -17.495099999999997 0.0013930150000000003 -17.304849999999998 -16.870699999999996 0.0052581350000000006 0.89163350000000008 -16.558299999999999 2.0531150000000005 -16.131449999999997 0.0090210700000000026 8.7740650000000005e-06 6.3729050000000018e-07 -0.079468000000000025 -2.5924899999999993 0.35261000000000037 14.003250000000001 -0.19934349999999995 1.0444150000000001 -0.8551494999999999 11.782150000000001 7.2203350000000013 -11.042399999999999 4.5621600000000013 4.0934050000000005e-07 7.8844400000000031e-06 0.33937050000000007 -0.11271049999999998
decision_type=2 2 2 2 2 2 2 2 2 2 2 2 2 2 2 2 2 2 2 2 2 2 2 2 2 2 2 2 2 2
left_child=1 2 -1 4 -3 -5 7 8 -7 10 -8 12 13 14 16 -15 -11 -2 23 -20 -21 22 -22 -19 25 -25 -27 -26 -29 -30
right_child=17 3 -4 5 -6 6 9 -9 -10 11 -12 -13 -14 15 -16 -17 -18 18 19 20 21 -23 -24 24 27 26 -28 28 29 -31
leaf_value=-0.0012877177264142251 3.1464212402398929e-06 0.00015598828560376373 0.0031058354979558362 0.0010298814963758121 -0.0020502181181828272 -0.00087875751300998679 -0.00050762307613088828 -0.0025191345837083648 0.001192870199738536 6.7589670780922895e-06 0.0026077936117123021 6.5755996410954192e-06 -0.0024457524805459093 0.0006733865093251336 0.0020591165428368186 -0.0019181361804986672 -0.0015327172377146781 -7.2740518188720582e-05 -4.6951594804833112e-05 0.0062373184297030097 0.0042527155079005756 -0.00041903248551307116 3.1078091842573487e-05 9.7874190133380413e-05 -1.1791389622486556e-05 0.0056775021020439454 0.00084032085697716965 0.0046884356741247763 0.0012348412972367617 -7.4932848903357596e-05
leaf_weight=21 95245 22 21 29 21 32 54 20 20 34 34 95191 27 21 20 31 20 21061 194 22 20 64 32 74 4563 30 22 20 228 440
leaf_count=21 95245 22 21 29 21 32 54 20 20 34 34 95191 27 21 20 31 20 21061 194 22 20 64 32 74 4563 30 22 20 228 440
internal_value=0 5.86052e-06 0.000909059 5.46362e-06 -0.000921461 5.88083e-06 5.56989e-06 -0.000758966 -8.19776e-05 6.14671e-06 0.000696061 5.50994e-06 -0.000657507 -0.000274312 0.000145376 -0.00087156 -0.000563417 -4.59264e-06 -3.21275e-05 0.000564287 0.00142356 0.00051061 0.00165478 -3.9617e-05 9.01233e-05 0.00155599 0.003631 5.49491e-05 0.00049759 0.000372116
internal_weight=0 95618 42 95576 43 95533 95504 72 52 95432 88 95344 153 126 74 52 54 122015 26770 332 138 116 52 26438 5377 126 52 5251 688 668
internal_count=217633 95618 42 95576 43 95533 95504 72 52 95432 88 95344 153 126 74 52 54 122015 26770 332 138 116 52 26438 5377 126 52 5251 688 668
shrinkage=0.05


Tree=492
num_leaves=31
num_cat=0
split_feature=36 36 5 8 23 34 17 28 40 11 18 20 11 18 15 32 17 0 11 3 40 40 10 28 17 25 40 18 4 37
split_gain=0.00231351 0.0419993 0.0914633 0.13712 0.132226 0.174107 0.204945 0.0939434 0.147556 0.336585 0.277393 0.205917 0.425939 0.253655 0.242215 0.737707 0.158568 0.265336 0.148074 0.146178 0.133307 0.130635 0.123352 0.107593 0.129994 0.18281 0.189883 0.192624 0.292877 0.385819
threshold=-0.19934349999999995 -0.018010000000000078 9.0806150000000018e-06 3.7564000000000008e-05 -0.0011493749999999998 -0.0091349949999999982 -2.5244499999999994 0.31163200000000008 -0.68809499999999957 0.00015638100000000001 2.6109550000000001 -7.7495449999999995 0.0013992450000000001 -7.375894999999999 1.3181750000000001e-05 0.013761450000000001 0.70659250000000007 -2.1576199999999992 0.00047127200000000006 -14.703099999999997 2.3698949999999996 0.7622899999999998 -5.1489599999999996e-05 0.11598700000000002 -1.3693099999999998 0.023372950000000003 -1.2354849999999999 6.6102700000000008 -0.19656399999999996 0.09983149999999999
decision_type=2 2 2 2 2 2 2 2 2 2 2 2 2 2 2 2 2 2 2 2 2 2 2 2 2 2 2 2 2 2
left_child=-1 2 3 4 -2 6 -6 23 -9 -10 11 12 14 20 15 -11 17 19 -13 -15 -14 -19 -18 24 25 -4 -27 28 -28 -30
right_child=1 -3 7 -5 5 -7 -8 8 9 10 -12 18 13 16 -16 -17 22 21 -20 -21 -22 -23 -24 -25 -26 26 27 -29 29 -31
leaf_value=5.6514561622733638e-06 -0.0020281660060509636 3.1356314407753153e-06 -0.0002507717494610124 -0.0030719886495110889 0.0074958351824898272 0.0005040418484648072 0.0010038414496868369 -7.9738008305261739e-05 -0.0073300561063330289 -0.013511885359669882 0.0035663319321634669 0.003730743240858256 -0.0071014568897052894 -0.0044931052002357324 -0.00056495174331675196 -0.0022562429327769458 0.00075934071157296955 0.0010808981361887641 -0.00055836956440382692 0.00074220272942511663 -0.0013976535372785294 0.0063830453179364744 -0.0041042111219212534 0.00051476545929781401 3.2282691949036962e-05 -0.00030921609717875681 -0.0012201341582403985 -0.00093890253911548124 -0.010472752257744012 -0.0020847658044658604
leaf_weight=98843 46 111070 1770 27 20 587 31 559 22 24 31 27 21 20 22 37 22 21 79 40 20 26 32 641 3194 194 50 102 29 26
leaf_count=98843 46 111070 1770 27 20 587 31 559 22 24 31 27 21 20 22 37 22 21 79 40 20 26 32 641 3194 194 50 102 29 26
internal_value=0 -4.70247e-06 -0.000117472 0.000422882 0.000560837 0.000747505 0.00354972 -0.000172286 -0.000620223 -0.0013007 -0.000986372 -0.00134733 -0.0020471 -0.000808064 -0.00506259 -0.00668469 8.60546e-05 0.00120079 0.00053414 -0.0010029 -0.00431911 0.004014 -0.00212276 -9.74803e-05 -0.00017063 -0.000469158 -0.00143311 -0.00248642 -0.00398972 -0.00650752
internal_weight=0 118790 7720 711 684 638 51 7009 1003 444 422 391 285 202 83 61 161 107 106 60 41 47 54 6006 5365 2171 401 207 105 55
internal_count=217633 118790 7720 711 684 638 51 7009 1003 444 422 391 285 202 83 61 161 107 106 60 41 47 54 6006 5365 2171 401 207 105 55
shrinkage=0.05


Tree=493
num_leaves=31
num_cat=0
split_feature=14 33 14 22 18 36 26 22 8 4 31 11 11 15 2 8 32 6 17 0 29 25 36 12 29 16 34 25 23 21
split_gain=0.00224829 0.0133334 0.0754175 0.0217517 0.0271004 0.015872 0.00718425 0.0202582 0.0111617 0.019494 0.0106613 0.037846 0.0285539 0.0698106 0.0117304 0.00919246 0.00845476 0.00805121 0.00782152 0.0164045 0.00787682 0.00908092 0.0129699 0.0158985 0.0110849 0.041431 0.01468 0.0098503 0.021829 0.0086318
threshold=2.5901300000000006e-05 -6.2538149999999987e-05 5.7099050000000007e-05 44.542100000000012 1.8274200000000003 -0.17527649999999997 -1.2159399999999998 38.031000000000013 3.6244450000000012e-05 2.6533750000000005 -0.93075499999999989 0.0025138000000000005 0.0069578350000000008 0.0073236350000000011 2.1810100000000001 2.8428900000000005e-05 1.8680450000000002 -5.0878949999999982e-07 -19.608449999999998 -4.6333449999999994 0.0031288150000000005 0.69707500000000011 -0.25142799999999998 -4.6146349999999992e-05 -0.00058211249999999993 0.0059260250000000006 -1.0090899999999998 0.54025350000000005 -0.0048905699999999995 0.54950250000000012
decision_type=2 2 2 2 2 2 2 2 2 2 2 2 2 2 2 2 2 2 2 2 2 2 2 2 2 2 2 2 2 2
left_child=-1 2 -2 4 -4 -5 7 -3 15 -10 11 -8 -13 -14 16 17 -15 -9 19 -12 21 24 -23 -24 25 -20 -26 29 -29 -28
right_child=1 6 3 5 -6 -7 10 8 9 -11 18 12 13 14 -16 -17 -18 -19 20 -21 -22 22 23 -25 26 -27 27 28 -30 -31
leaf_value=-2.0785495033730009e-06 0.0024005798578544176 -0.0017165154468040619 -0.00055644515188127441 -0.0001500789580484921 0.0019278930727436785 -0.0018294820497127757 0.0021566605542410306 -0.00077368819352002533 0.0013524097820005283 -0.0002102826036264105 -0.0017297449185571169 -0.0012637136385291667 0.0025958215797737497 -0.00017689522111033834 -0.0012262929641846791 -0.0012000489451419261 0.00099258403846761204 0.00034576767458121242 0.0023863927590908767 1.0088747694680933e-05 0.00083465756996984372 -5.2159584526595176e-05 -0.00023771631106595331 -0.0019518447763327157 -0.0012803469848057087 -0.0001621827059788818 1.6930561396470569e-05 0.0018644482254192398 6.4739840349324772e-05 -9.5715261104080347e-05
leaf_weight=186444 38 22 23 34 21 24 26 29 29 64 20 31 29 68 21 31 20 36 23 42 29 115 31 24 22 52 28390 23 63 1809
leaf_count=186444 38 22 23 34 21 24 26 29 29 64 20 31 29 68 21 31 20 36 23 42 29 115 31 24 22 52 28390 23 63 1809
internal_value=0 1.24253e-05 0.000499281 -0.000209046 0.000629262 -0.000845004 1.02301e-05 -0.000280533 -0.000113381 0.000277009 1.22195e-05 0.000380757 0.000107541 0.000415576 -0.000164489 -0.000491571 8.88955e-05 -0.000153682 9.87431e-06 -0.000551148 1.10117e-05 1.02299e-05 -0.000354187 -0.0009857 1.2269e-05 0.00061938 1.07666e-05 1.17045e-05 0.000546057 1.01828e-05
internal_weight=0 31189 140 102 44 58 31049 211 189 93 30838 195 169 138 109 96 88 65 30643 62 30581 30552 170 55 30382 75 30307 30285 86 30199
internal_count=217633 31189 140 102 44 58 31049 211 189 93 30838 195 169 138 109 96 88 65 30643 62 30581 30552 170 55 30382 75 30307 30285 86 30199
shrinkage=0.05


Tree=494
num_leaves=31
num_cat=0
split_feature=17 5 7 0 39 39 25 39 3 0 5 0 20 12 29 20 14 10 7 10 3 13 37 37 28 21 10 13 39 21
split_gain=0.00225345 0.0141195 0.0366507 0.0450021 0.229723 0.0260294 0.0410551 0.0177965 0.0934321 0.457618 0.0648981 0.029429 0.0754696 0.0745349 0.0331825 0.0282216 0.0658043 0.0276615 0.0345559 0.0237593 0.0273575 0.0682769 0.0976155 0.265223 0.1603 0.1902 0.0490943 0.0340251 0.0260989 0.0390686
threshold=-8.175164999999998 1.6804400000000005e-05 -5.3289399999999992e-05 -9.1205449999999981 0.052215000000000351 0.43278000000000022 0.0031871250000000003 -0.19603999999999996 -12.203099999999997 -4.9447499999999991 9.607735000000002e-06 -7.750214999999999 -7.6401149999999989 -2.3552749999999996e-08 -1.3458149999999998e-05 -13.148399999999997 8.3123850000000019e-07 -2.1286349999999997e-05 -1.0652899999999999e-05 -2.3243949999999996e-05 -7.6205499999999988 -1.2403199999999998e-07 -0.12554300000000002 -0.039869999999999954 -0.014208499999999997 0.40640400000000004 -2.3564349999999995e-06 -9.7727699999999997e-08 0.55890500000000032 -0.32302649999999994
decision_type=2 2 2 2 2 2 2 2 2 2 2 2 2 2 2 2 2 2 2 2 2 2 2 2 2 2 2 2 2 2
left_child=1 2 3 5 -5 6 -1 11 9 -9 -11 12 13 -4 -14 16 -13 -12 -19 -10 21 22 -21 -24 -25 26 -26 -23 29 -29
right_child=-2 -3 7 4 -6 -7 -8 8 19 10 17 15 14 -15 -16 -17 -18 18 -20 20 -22 27 23 24 25 -27 -28 28 -30 -31
leaf_value=0.00029958767590156354 -1.8776592652739247e-06 -2.8418726869535872e-05 -0.00027585802678368055 -0.00010056286095569693 0.0047965374316417562 -0.00018191605658794869 0.0025605093949707227 0.0067466493998278657 -0.00054788355019075926 0.0022033096242200282 0.001054866162245162 -0.00041710791633704504 -0.0020136608442835099 -0.0040995100559135054 -5.2923763217074048e-05 -9.1911576730684132e-07 0.0032370884748202534 -0.0026056841455144985 -0.00031428722939046182 -0.00023950317717907443 2.2496707240282949e-05 -0.0018411055420874619 0.0068051277333870536 3.0111169845640245e-05 0.00273119598769929 0.006427183698257938 0.00039422168115296779 0.001880957294633845 -0.00019313385001763154 0.00017129978198064628
leaf_weight=102 191545 11262 25 81 34 188 25 31 155 29 25 28 23 26 349 7869 22 21 76 173 4496 25 20 205 38 23 55 40 439 203
leaf_count=102 191545 11262 25 81 34 188 25 31 155 29 25 28 23 26 349 7869 22 21 76 173 4496 25 20 205 38 23 55 40 439 203
internal_value=0 1.37863e-05 4.58457e-05 0.000500714 0.00134728 0.000191652 0.000744651 3.2259e-05 9.75165e-05 0.00121323 7.72347e-05 -1.51e-05 -0.000421438 -0.00222517 -0.000174152 6.60493e-06 0.00119074 -0.000428144 -0.000810363 6.29353e-05 7.94959e-05 0.00028938 0.000727887 0.00121868 0.00087061 0.00235597 0.00134911 -2.94219e-05 3.69888e-05 0.000452725
internal_weight=0 26088 14826 430 115 315 127 14396 6054 182 151 8342 423 51 372 7919 50 122 97 5872 5717 1221 514 341 321 116 93 707 682 243
internal_count=217633 26088 14826 430 115 315 127 14396 6054 182 151 8342 423 51 372 7919 50 122 97 5872 5717 1221 514 341 321 116 93 707 682 243
shrinkage=0.05


Tree=495
num_leaves=31
num_cat=0
split_feature=9 26 24 9 18 21 2 3 17 20 21 10 9 18 3 35 12 2 10 29 33 23 18 4 4 7 26 17 28 16
split_gain=0.00223635 0.00969854 0.0408567 0.0358896 0.110063 0.0477636 0.0304226 0.0628218 0.108543 0.0784856 0.0456449 0.142708 0.0407224 0.0427067 0.0431259 0.0556895 0.0512562 0.0362886 0.0437613 0.0580197 0.0272898 0.025921 0.024494 0.0244811 0.0228983 0.0306779 0.0165406 0.0370659 0.0606183 0.0370977
threshold=-0.000119502 0.18537850000000003 5.0963000000000003 -0.00013975599999999997 -2.1347299999999998 -1.0674849999999998 2.9632050000000003 -16.558299999999999 3.0677450000000004 -14.94685 -2.2419299999999995 0.00014699600000000001 -0.00015845699999999995 -2.1347299999999998 -12.288549999999999 0.034433300000000007 -2.1368049999999996e-05 2.8304750000000003 3.162045000000001e-05 8.2405400000000009e-05 6.9448750000000015e-05 -0.028182349999999998 3.9993550000000009 0.61713700000000016 0.15463500000000002 -5.2094699999999994e-05 0.11680600000000001 -1.5525549999999997 -1.0750649999999997 0.0045184900000000009
decision_type=2 2 2 2 2 2 2 2 2 2 2 2 2 2 2 2 2 2 2 2 2 2 2 2 2 2 2 2 2 2
left_child=1 26 -3 6 -5 -6 7 8 9 -4 11 -9 13 14 15 -12 -17 18 19 -15 -20 -16 -14 -7 -8 -26 -1 29 -29 -28
right_child=-2 2 3 4 5 23 24 10 -10 -11 12 -13 22 17 21 16 -18 -19 20 -21 -22 -23 -24 -25 25 -27 27 28 -30 -31
leaf_value=1.2221561883830857e-05 -1.9373302054244591e-06 0.0018635363243554499 0.002768183036649767 0.0032772817702581441 -0.0021359736390531045 -0.00040107293233242148 -1.4682266960984895e-05 0.00469126192474505 0.0044887860721376334 -0.00080904460860240402 -9.2706037456082415e-05 -0.00072604038050192159 -0.00067016259276282946 1.5827614962208001e-05 0.0014246163036799632 -0.00088336245695747246 -0.0038561172439146724 -0.001368261994139175 8.7676660839688166e-05 0.0036074331126418773 0.0018310363286824821 -0.00030369948856141566 -0.0028419711975584509 0.0016716661818871469 -0.003157370823901147 -0.00042115763450662299 -0.0011179372932826862 0.0029670659483166505 -0.00012879644173153794 -7.5159378129497715e-05
leaf_weight=26177 189890 34 23 35 21 28 35 20 21 46 50 31 37 22 26 29 29 32 347 23 24 131 20 29 20 21 151 21 64 196
leaf_count=26177 189890 34 23 35 21 28 35 20 21 46 50 31 37 22 26 29 29 32 347 23 24 131 20 29 20 21 151 21 64 196
internal_value=0 1.32603e-05 0.000156464 0.0001037 0.000947767 -9.75278e-05 7.06408e-06 8.72424e-05 0.0013413 0.000383365 -5.023e-05 0.00139839 -0.000146178 -4.3368e-05 -0.000546509 -0.00131556 -0.00236974 0.000254249 0.000379057 0.00185154 0.000200455 -1.74816e-05 -0.0014322 0.000653479 -0.000954021 -0.0017559 7.15733e-06 -0.000299709 0.000636064 -0.000528933
internal_weight=0 27743 1134 1100 113 78 987 911 90 69 821 51 770 713 265 108 58 448 416 45 371 157 57 57 76 41 26609 432 85 347
internal_count=217633 27743 1134 1100 113 78 987 911 90 69 821 51 770 713 265 108 58 448 416 45 371 157 57 57 76 41 26609 432 85 347
shrinkage=0.05


Tree=496
num_leaves=31
num_cat=0
split_feature=28 14 8 14 1 8 13 37 36 39 13 14 17 6 8 1 24 36 1 1 24 22 36 36 23 36 37 36 36 0
split_gain=0.00229705 0.0109097 0.0621239 0.0242482 0.051069 0.0148922 0.0988801 0.0231662 0.0600535 0.0893905 0.026127 0.0295991 0.016294 0.0137346 0.0214455 0.0172833 0.0326944 0.0329371 0.0316282 0.019855 0.0180897 0.0189155 0.0130629 0.0125308 0.0106453 0.0119859 0.00988135 0.0360476 0.00623435 0.00606936
threshold=-10.048129999999999 1.3092400000000001e-06 1.3179250000000001e-05 7.2680000000000008e-07 4.8656050000000013 1.5224150000000001e-05 -2.7228099999999994e-06 0.35345999999999994 0.2761725000000001 3.4885250000000001 -4.4589499999999997e-08 7.2522850000000019e-08 -1.3693099999999998 -1.2130949999999998e-05 0.00020275500000000002 3.4787100000000004 44.65205000000001 0.5456565000000001 2.8816950000000006 2.1386600000000002 115.54050000000002 87.628850000000014 -0.51801999999999981 0.38220950000000015 -0.0064295099999999985 0.68543200000000015 -0.60497499999999982 -0.30278099999999991 -0.30278099999999991 -12.520849999999998
decision_type=2 2 2 2 2 2 2 2 2 2 2 2 2 2 2 2 2 2 2 2 2 2 2 2 2 2 2 2 2 2
left_child=1 3 -3 5 -5 6 -1 8 9 -7 24 -12 -11 14 -4 18 17 -17 19 26 21 23 29 -18 -10 -26 -15 -28 -8 -9
right_child=-2 2 13 4 -6 7 28 22 10 12 11 -13 -14 15 -16 16 20 -19 -20 -21 -22 -23 -24 -25 25 -27 27 -29 -30 -31
leaf_value=0.0037027472535555717 4.6102318337344321e-07 -0.002966282335110009 0.00186814605355418 -0.00013230280878729592 0.0023504361155466864 -0.0036511565613182029 0.00010454887884720018 -0.00083999822277941612 0.00056381704385525416 -0.0012077874985885913 0.0025807640272250865 -4.9290790680654187e-05 0.00041334474379020267 -0.00088981834642254398 -0.00039151397733283902 -0.0030478671821280541 -0.00087182397880550375 -0.00030048974884266504 0.0015967706303074789 -0.0015686368193279993 -0.0011482272433516172 0.0015036102183373823 0.0012934643370681445 0.00058634930073122422 -0.0016899231126271412 -0.00013245471285093421 -0.00011283762524950173 0.0019847206258088012 -0.00074646704872845606 2.3924796993682954e-05
leaf_weight=20 215894 20 21 53 34 32 93 21 21 31 20 23 31 32 21 24 34 20 28 23 35 21 20 26 21 30 297 22 28 637
leaf_count=20 215894 20 21 53 34 32 93 21 21 31 20 23 31 32 21 24 34 20 28 23 35 21 20 26 21 30 297 22 28 637
internal_value=0 -5.72353e-05 -0.000224641 3.64521e-05 0.000837963 -3.138e-05 0.000445936 -0.000107255 -0.000567488 -0.00150494 0.00019878 0.00117399 -0.000397221 -0.000133859 0.000738316 -0.000199039 -0.000638548 -0.00179906 -2.41099e-05 -0.000145459 -0.000198354 0.000212085 3.46157e-05 -0.000239949 -0.000383637 -0.000773765 -5.22026e-05 3.18216e-05 -9.23804e-05 -3.64721e-06
internal_weight=0 1739 624 1115 87 1028 141 887 209 94 115 43 62 604 42 562 160 44 402 374 116 81 678 60 72 51 351 319 121 658
internal_count=217633 1739 624 1115 87 1028 141 887 209 94 115 43 62 604 42 562 160 44 402 374 116 81 678 60 72 51 351 319 121 658
shrinkage=0.05


Tree=497
num_leaves=31
num_cat=0
split_feature=3 17 2 1 15 9 5 4 2 19 1 34 17 7 12 15 37 36 22 3 0 11 34 39 16 22 10 17 39 40
split_gain=0.00220418 0.0108068 0.0588497 0.167606 0.0289982 0.111002 0.037722 0.086936 0.0195604 0.0143025 0.00909269 0.00545844 0.0198552 0.136311 0.0101833 0.0071444 0.00501291 0.0355214 0.178795 0.180165 0.298971 0.212027 0.29641 0.154008 0.335685 0.505714 0.434859 0.496728 0.309456 0.204895
threshold=-5.6511299999999993 -12.926599999999999 -2.5508599999999997 -5.0594749999999991 -1.2507399999999998e-06 -3.9082349999999992e-06 1.1853100000000002e-05 0.081083500000000017 1.8439650000000001 1.5434200000000002 14.818150000000001 -0.55203199999999986 19.256550000000001 4.1341400000000004e-05 -2.5159149999999997e-06 -3.6054949999999992e-07 -0.33012499999999995 -0.19934349999999995 2.3108700000000004 -11.042399999999999 6.5600500000000013 0.00068272250000000014 -0.017735749999999998 1.06199 0.00016688000000000003 4.6947250000000009 -1.4146449999999999e-05 5.3163050000000007 -1.3362800000000006 2.9908550000000012
decision_type=2 2 2 2 2 2 2 2 2 2 2 2 2 2 2 2 2 2 2 2 2 2 2 2 2 2 2 2 2 2
left_child=16 2 3 -2 5 -4 7 -6 10 -10 -8 14 -13 15 -3 -14 -1 -18 -19 20 21 22 -20 28 25 -25 27 -26 29 -23
right_child=1 11 4 -5 6 -7 8 -9 9 -11 -12 12 13 -15 -16 -17 17 18 19 -21 -22 23 -24 24 26 -27 -28 -29 -30 -31
leaf_value=7.4171627568673591e-06 0.0051922937835721921 -0.0012563774597808897 0.0040193551014887077 -0.0011248353974051065 -0.00021400058043784359 -0.00057882567044414046 -0.000179463956752548 0.0036820607540513656 -0.00034566414239969547 -0.0017572622915502185 0.00080452262240074705 8.4099805403284659e-06 -0.0011126006924314425 0.004182388751756993 -0.00012020979699156213 -3.5242272133473309e-06 5.6991552403206594e-06 6.1792008229715407e-06 0.0079441762529313571 -0.00056041469909022708 0.0060404009651392702 0.0017318962705566696 3.1914286905546385e-05 0.0088712086761370303 0.00037523109155396619 0.00032843510455610918 -0.0021358280796531207 0.009310065814116527 -0.0016212711305145723 -0.00023262667949691063
leaf_weight=79291 21 21 21 21 45 35 242 21 38 34 26 31214 20 22 324 53 83915 17747 20 3094 21 171 29 30 60 41 110 21 332 593
leaf_count=79291 21 21 21 21 45 35 242 21 38 34 26 31214 20 22 324 53 83915 17747 20 3094 21 171 29 30 60 41 110 21 332 593
internal_value=0 1.20845e-05 0.000241791 0.00203373 7.88874e-05 0.00114549 -6.82305e-05 0.00102566 -0.000280573 -0.00101225 -8.40026e-05 8.42709e-06 1.06066e-05 0.000732355 -0.000189368 -0.000307381 -2.09523e-06 -9.19845e-06 -6.53362e-05 -0.000346005 0.000118549 3.01634e-05 0.00326141 -8.64279e-05 0.00100262 0.00393806 -8.85646e-05 0.00269167 -0.000346766 0.000207077
internal_weight=0 32158 504 42 462 56 406 66 340 72 268 31654 31309 95 345 73 185475 106184 22269 4522 1428 1407 49 1358 262 71 191 81 1096 764
internal_count=217633 32158 504 42 462 56 406 66 340 72 268 31654 31309 95 345 73 185475 106184 22269 4522 1428 1407 49 1358 262 71 191 81 1096 764
shrinkage=0.05


Tree=498
num_leaves=31
num_cat=0
split_feature=26 17 3 8 9 22 6 10 36 28 8 8 36 2 19 31 8 40 9 3 9 25 28 3 17 7 18 2 1 2
split_gain=0.0022194 0.0346067 0.0925373 0.0678825 0.112435 0.117375 0.0620608 0.101526 0.123843 0.130753 0.0401244 0.0287317 0.0224522 0.0192662 0.316255 0.0392507 0.0181503 0.0140115 0.033526 0.019301 0.0138149 0.027908 0.0509527 0.188673 0.0755991 0.131494 0.0596687 0.144769 0.363083 0.0603145
threshold=0.030416150000000003 3.0677450000000004 -18.305499999999995 2.7183000000000004e-05 -9.8468249999999987e-06 6.6944750000000006 -1.3813599999999996e-07 2.3721450000000003e-05 -0.0054100000000001361 -3.4807049999999995 2.1278050000000002e-05 1.0512900000000001e-05 -5.4467549999999987 -3.0487399999999996 2.9809550000000002 -0.21631099999999998 1.5958700000000004e-05 5.9270900000000006 -0.000119502 -14.818499999999998 -1.0627499999999998e-05 -0.083375999999999992 0.77684100000000011 -15.284849999999999 -6.4328999999999992 -2.8966949999999995e-05 -6.705449999999999 -2.6812799999999997 -2.3990449999999996 2.8304750000000003
decision_type=2 2 2 2 2 2 2 2 2 2 2 2 2 2 2 2 2 2 2 2 2 2 2 2 2 2 2 2 2 2
left_child=-1 13 -3 4 5 -4 7 -7 9 -9 16 -6 -5 14 15 -2 -8 19 -19 -14 21 -15 26 -24 25 -25 27 28 -23 -29
right_child=1 2 3 12 11 6 10 8 -10 -11 -12 -13 17 20 -16 -17 -18 18 -20 -21 -22 22 23 24 -26 -27 -28 29 -30 -31
leaf_value=-1.8151625965459022e-06 -0.0022292453241312786 0.0034545513239705051 0.0052046813261404168 -0.0015662706605022931 0.0019787341252958872 -0.00040558825973581914 0.00031729841798748922 0.0041664808279496032 0.0060089461396880019 -0.0014194376995874337 0.0014248397469017596 3.5632656770245285e-05 0.0014589009844475304 -0.00021390099357194309 0.0061461799148343167 6.5839706024262617e-05 -0.0015940978757161821 -0.00243251338666596 5.4722882792443017e-05 -7.1918920919686346e-06 2.5527178387615502e-05 0.0072482939657325359 0.0047234788284028512 -0.00034959475210052915 -0.00021719856220835947 0.0050897110460209659 -6.7912770358509103e-05 -0.00010744004813599252 -0.00082442032493418088 0.0018287087540034494
leaf_weight=192726 21 22 20 24 20 29 23 22 24 20 39 390 23 2096 22 165 27 20 42 937 13795 26 26 25 185 20 6488 279 30 47
leaf_count=192726 21 22 20 24 20 29 23 22 24 20 39 390 23 2096 22 165 27 20 42 937 13795 26 26 25 185 20 6488 279 30 47
internal_value=0 1.40454e-05 0.000233051 0.000190356 0.000607683 0.00156689 0.00117148 0.00206028 0.00314377 0.00150652 0.000222764 0.000130418 -5.46142e-05 -1.81538e-06 0.000477237 -0.000193283 -0.000714856 -1.91154e-05 -0.000747611 2.79332e-05 -6.14448e-06 -5.35215e-05 -6.34836e-06 0.000686262 0.000229881 0.00206787 -3.21574e-05 0.000575122 0.00292363 0.000171698
internal_weight=0 24907 1682 1660 614 204 184 95 66 42 89 410 1046 23225 208 186 50 1022 62 960 23017 9222 7126 256 230 45 6870 382 56 326
internal_count=217633 24907 1682 1660 614 204 184 95 66 42 89 410 1046 23225 208 186 50 1022 62 960 23017 9222 7126 256 230 45 6870 382 56 326
shrinkage=0.05


Tree=499
num_leaves=31
num_cat=0
split_feature=5 29 12 36 17 31 3 9 0 36 36 23 13 15 19 28 3 17 36 1 31 32 15 14 11 16 23 8 35 13
split_gain=0.00224669 0.0175251 0.120716 0.156858 0.0391523 0.0208088 0.0230114 0.0434012 0.0401611 0.0235008 0.133434 0.074569 0.0558835 0.0212824 0.0187074 0.0160653 0.089914 0.064908 0.0803606 0.0213051 0.0257512 0.0152321 0.0557545 0.139983 0.0167319 0.0205988 0.0166501 0.0488945 0.0124331 0.0122999
threshold=1.0004950000000002e-05 0.0002933525000000001 5.1880700000000008e-06 -0.43704099999999996 19.256550000000001 0.098593250000000007 -8.9455249999999982 3.1686600000000003e-05 7.4151700000000007 0.51872500000000021 -0.32870999999999989 -0.0029059199999999998 4.5156700000000009e-08 2.4151150000000003e-05 2.8556750000000002 3.1099700000000006 -15.624449999999998 -8.280289999999999 1.0995585000000003 -4.9833999999999987 -0.17054099999999997 -0.14294799999999999 -6.7236599999999979e-05 -3.0819049999999996e-06 0.0028640250000000005 0.0013311500000000003 -0.013856449999999998 3.0256700000000005e-05 0.0027520250000000004 7.2294100000000005e-06
decision_type=2 2 2 2 2 2 2 2 2 2 2 2 2 2 2 2 2 2 2 2 2 2 2 2 2 2 2 2 2 2
left_child=1 5 4 -4 14 15 8 13 9 10 -7 -12 -13 28 29 21 -17 18 -18 20 -19 22 23 -1 -24 -26 27 -23 -8 -3
right_child=-2 2 3 -5 -6 6 7 -9 -10 -11 11 12 -14 -15 -16 16 17 19 -20 -21 -22 26 24 -25 25 -27 -28 -29 -30 -31
leaf_value=0.00041030978702890155 2.0734894866145837e-06 5.7440395368826537e-05 -0.00096343872282886886 0.0046482025432245189 0.0017185753327794374 -2.2058045331195514e-05 -0.0010232123806080953 0.0023093567230534971 -0.0025791414598903169 -2.4020870628750378e-05 0.00030903827171728369 -0.0018260130511694832 -0.004712793648359366 -0.0014057228071968505 -0.0015545706082775723 0.0029057640232138279 0.0041357910603983328 -0.0025038719965695322 -7.9899830766058026e-05 -4.1584478449237498e-05 -0.00019938670158336645 0.00010536622040692439 7.3803734168514785e-05 -0.0049899760446610996 -0.0019841685673782196 -3.8980852846650339e-06 -7.7045989018305955e-06 -0.0028658591753628572 8.4416530351124426e-05 -0.00098323889644234461
leaf_weight=28 186555 530 20 33 33 235 27 20 21 285 21 38 30 28 20 31 20 22 26 159 27 45 261 21 24 29 28583 20 411 30
leaf_count=28 186555 530 20 33 33 235 27 20 21 285 21 38 30 28 20 31 20 22 26 159 27 45 261 21 24 29 28583 20 411 30
internal_value=0 -1.24467e-05 0.000241276 0.0025306 4.33406e-05 -1.80031e-05 -0.000229909 2.85913e-05 -0.000429324 -0.000355192 -0.0006465 -0.00229531 -0.00309959 -6.92957e-05 -5.19744e-05 -9.93074e-06 0.000363637 5.33774e-05 0.00175301 -0.000322503 -0.00123405 -1.36006e-05 -0.000335458 -0.0019041 -9.06698e-05 -0.000900624 -9.52235e-06 -0.000808857 1.6138e-05 1.68972e-06
internal_weight=0 31078 666 53 613 30412 1116 486 630 609 324 89 68 466 580 29296 285 254 46 208 49 29011 363 49 314 53 28648 65 438 560
internal_count=217633 31078 666 53 613 30412 1116 486 630 609 324 89 68 466 580 29296 285 254 46 208 49 29011 363 49 314 53 28648 65 438 560
shrinkage=0.05


Tree=500
num_leaves=31
num_cat=0
split_feature=6 6 25 25 4 4 32 17 39 39 29 14 36 36 12 17 2 20 16 1 10 17 28 17 7 1 2 19 18 11
split_gain=0.00220379 0.0084371 0.0179766 0.0916613 0.0238565 0.0834908 0.0114953 0.0537685 0.00785811 0.0407276 0.080484 0.0737758 0.0822408 0.260121 0.291932 0.0898231 0.142802 0.299158 0.0560544 0.0620616 0.076903 0.0490431 0.081563 0.116751 0.057007 0.13469 0.0486095 0.0461389 0.0453674 0.036538
threshold=2.8692150000000002e-06 2.7311750000000006e-06 0.006384845000000001 0.0068628400000000011 -0.3422659999999999 -1.1200049999999997 0.0085105150000000015 6.5101600000000008 0.64319500000000052 -0.19603999999999996 3.6365400000000005e-06 2.2932050000000003e-07 -0.12496499999999998 -0.040859549999999939 6.6406850000000019e-08 8.3060300000000016 -0.43964599999999993 -7.317664999999999 1.7135300000000002e-05 12.027950000000002 -1.0414799999999999e-05 -7.8361449999999992 -0.077820299999999995 -9.0227099999999982 -3.4021049999999988e-05 7.3888600000000002 -2.7703699999999993 2.6370650000000002 9.1952100000000012 0.00010202100000000002
decision_type=2 2 2 2 2 2 2 2 2 2 2 2 2 2 2 2 2 2 2 2 2 2 2 2 2 2 2 2 2 2
left_child=1 -1 6 -4 5 -5 -3 -8 9 -2 18 29 -13 14 -14 21 17 -17 28 26 -21 22 23 -15 25 27 -20 -23 -11 -12
right_child=8 2 3 4 -6 -7 7 -9 -10 10 11 12 13 15 -16 16 -18 -19 19 20 -22 24 -24 -25 -26 -27 -28 -29 -30 -31
leaf_value=-1.5835581070423205e-06 -8.5356835624843908e-06 3.3247076567694088e-05 -0.0036079931067347173 4.7971287995096648e-05 -5.9413267735814749e-05 -0.0036264760917798741 7.3653475607336976e-06 -0.0028476423545362194 -5.6331372871889482e-06 0.00048157862034940995 -0.0024287258438016584 -0.00011403353105351674 0.0083362081468900829 0.00077720088063506414 0.00068898575308804335 0.0083138889676774852 0.00037237233376984389 0.00083109757534283049 0.0019283746837269672 -0.0041575518516401644 0.0001746531270674452 0.00046185921232238364 0.00041164687374629173 0.0059025372724863705 0.00053612469140966402 -0.0043981143045675707 -1.3447041081266173e-06 -0.001886425434629648 0.0035172425814380404 -0.0001802330405564164
leaf_weight=166883 13082 1132 21 52 363 22 94 20 31463 32 20 289 24 25 26 22 69 34 33 20 21 107 83 20 479 20 2944 26 20 187
leaf_count=166883 13082 1132 21 52 363 22 94 20 31463 32 20 289 24 25 26 22 69 34 33 20 21 107 83 20 479 20 2944 26 20 187
internal_value=0 -2.71383e-06 -0.000113408 -0.000381273 -0.000226213 -0.00104443 -1.49477e-05 -0.000493513 9.32832e-06 3.61003e-05 0.000165833 0.000475518 0.000623157 0.000851016 0.00435965 0.000652788 0.00189485 0.00377077 2.1482e-05 -6.56255e-06 -0.00193862 0.000448501 0.001341 0.00305513 0.000267743 -0.000572486 2.00462e-05 2.79605e-06 0.00164914 -0.000397479
internal_weight=0 168587 1704 458 437 74 1246 114 49046 17583 4501 1431 1224 935 50 885 125 56 3070 3018 41 760 128 45 632 153 2977 133 52 207
internal_count=217633 168587 1704 458 437 74 1246 114 49046 17583 4501 1431 1224 935 50 885 125 56 3070 3018 41 760 128 45 632 153 2977 133 52 207
shrinkage=0.05


Tree=501
num_leaves=31
num_cat=0
split_feature=20 32 3 8 9 9 10 24 33 3 0 19 29 3 13 3 37 36 29 12 5 33 13 25 21 4 27 1 36 6
split_gain=0.00217176 0.00952013 0.0639598 0.0180924 0.00762783 0.0247023 0.046714 0.0104031 0.00986045 0.0371662 0.030709 0.0533267 0.0494952 0.0185381 0.00833428 0.0149275 0.0229683 0.102229 0.0876071 0.0581686 0.108846 0.0271806 0.0330697 0.0218651 0.018916 0.0117018 0.010204 0.00768597 0.0318777 0.0076664
threshold=-6.1276249999999992 -0.0013312399999999998 -6.0035249999999989 6.4420400000000024e-05 2.2232350000000001e-05 2.0886150000000003e-05 8.0771300000000014e-06 0.13946850000000002 3.7614450000000006e-08 -7.4119349999999988 11.577900000000001 0.77858100000000008 1.3939150000000002e-05 -7.9298599999999988 -1.7618249999999997e-07 -6.9186299999999994 -0.2272394999999999 -0.14969009999999991 -3.9251049999999994e-06 -7.385929999999999e-08 1.8904150000000004e-05 -6.991929999999999e-09 1.0372650000000001e-07 -0.010000319999999998 -0.55552099999999982 -0.064768799999999987 6.7298050000000009e-05 -9.4683649999999986 -0.027530000000000051 -1.0086999999999998e-05
decision_type=2 2 2 2 2 2 2 2 2 2 2 2 2 2 2 2 2 2 2 2 2 2 2 2 2 2 2 2 2 2
left_child=-1 2 3 -2 5 7 -7 -3 -6 13 11 12 -11 -10 27 29 -17 24 -19 20 -20 23 -23 -21 -18 -25 -27 28 -9 -16
right_child=1 4 -4 -5 8 6 -8 14 9 10 -12 -13 -14 -15 15 16 17 18 19 21 -22 22 -24 25 -26 26 -28 -29 -30 -31
leaf_value=-8.7714254764108102e-07 -9.8942375759514503e-05 0.0011002268694331482 -0.0023083603105712399 0.0015556487793219277 2.2386227563124867e-05 -0.00017057466611731799 0.0030436107297282435 1.3127265798023775e-05 -0.00012404947086993304 -0.0045693030531401748 0.00024912138798147983 9.0416508330101221e-05 -0.0012014188253639682 0.0010787635947157729 0.00069031329799623849 -3.7799019620129355e-05 0.0015338586924190168 0.0037955206044114616 0.004646027696995029 0.0024760682544729207 7.0883263833820817e-05 -0.0016585496715614918 0.00050549268976015705 -0.00013567348585403975 -3.0121973481472792e-05 0.0004449530644894273 0.0018233806741482115 1.6916698113371533e-06 -0.0017212504439425283 -3.0220264023196093e-05
leaf_weight=211122 95 24 33 20 1455 26 20 120 378 20 30 27 24 35 38 520 20 29 26 20 26 27 51 31 580 29 25 1453 34 1295
leaf_count=211122 95 24 33 20 1455 26 20 120 378 20 30 27 24 35 38 520 20 29 26 20 26 27 51 31 580 29 25 1453 34 1295
internal_value=0 2.84417e-05 -0.000367989 0.000188813 3.76625e-05 7.4309e-05 0.0012269 6.21151e-05 -4.41174e-05 -0.000232372 -0.00109213 -0.00165886 -0.00273228 -2.21162e-05 5.63532e-05 0.000109739 0.000224757 0.000382777 0.0012027 0.000882735 0.00235846 0.000463404 -0.000243599 0.000988606 2.20107e-05 0.000638615 0.00108311 -3.39074e-05 -0.000369787 -9.67992e-06
internal_weight=0 6511 148 115 6363 4394 46 4348 1969 514 101 71 44 413 4324 2717 1384 864 264 235 52 183 78 105 600 85 54 1607 154 1333
internal_count=217633 6511 148 115 6363 4394 46 4348 1969 514 101 71 44 413 4324 2717 1384 864 264 235 52 183 78 105 600 85 54 1607 154 1333
shrinkage=0.05


Tree=502
num_leaves=31
num_cat=0
split_feature=40 21 15 36 3 12 33 12 32 36 36 31 11 18 12 21 20 30 22 17 37 40 17 3 7 36 18 7 0 17
split_gain=0.0021608 0.0198429 0.0856225 0.0159658 0.0144229 0.0584568 0.122757 0.250777 0.0614358 0.0608303 0.25493 0.219607 0.0526906 0.108177 0.0509101 0.0496559 0.0282252 0.0182112 0.01644 0.0140405 0.0167078 0.0130461 0.0466649 0.120416 0.627964 0.3449 0.0915542 0.0844464 0.0411875 0.0318413
threshold=-1.3566450000000001 -2.2419299999999995 -0.00028306949999999995 0.51872500000000021 -15.510599999999998 6.6406850000000019e-08 -2.7948149999999997e-06 -2.7784749999999993e-06 -2.2564299999999995 -0.3819765 0.12375499999999996 -0.00065239849999999984 0.020162700000000002 5.2037050000000002 -2.9419199999999994e-05 0.62895050000000008 -21.129099999999998 1.1855600000000002 5.5910550000000008 4.1736500000000012 -0.52314599999999989 -0.35442999999999975 11.063450000000001 -7.0771999999999986 3.8012650000000006e-05 0.12375499999999996 9.8452300000000026 3.0195150000000005e-05 4.7206650000000012 -9.0227099999999982
decision_type=2 2 2 2 2 2 2 2 2 2 2 2 2 2 2 2 2 2 2 2 2 2 2 2 2 2 2 2 2 2
left_child=4 2 -2 -4 5 6 7 -1 -7 -10 11 -11 13 15 -14 16 -8 -18 19 20 -12 22 29 24 27 -26 -25 28 -24 -3
right_child=1 21 3 -5 -6 8 12 -9 9 10 18 -13 14 -15 -16 -17 17 -19 -20 -21 -22 -23 23 26 25 -27 -28 -29 -30 -31
leaf_value=-2.5438386215589561e-06 0.0035978253948269409 0.0001060123982850094 -0.0013300464155950719 0.00050815875947591855 7.0962268026121308e-06 0.002104279506020248 -0.0020911340939346701 0.0068838672654965198 -9.6338004066034671e-05 -0.0085152838099747906 -0.00014767765795645487 -0.001704811193209527 -0.00052250751492955219 0.0032206528662105226 -0.0032770596347245374 0.002095331383043231 -0.00029453735101413458 0.0012025055406885933 -0.0016168044569897216 0.00095946323090174708 -0.0016618316933586772 2.6525488652777295e-06 -5.5619546059145272e-05 -3.1021066486591562e-05 0.010304499747927857 0.0015708871915921917 0.0032294253413882954 -0.0031739916210790399 0.0024012266678437302 -8.4713293601060253e-05
leaf_weight=39 20 2513 21 27 100751 20 20 20 199 20 106 29 104 28 20 24 174 23 24 22 22 95235 116 1010 26 20 22 20 20 16938
leaf_count=39 20 2513 21 27 100751 20 20 20 199 20 106 29 104 28 20 24 174 23 24 22 22 95235 116 1010 26 20 22 20 20 16938
internal_value=0 -4.66393e-06 0.000849203 -0.000296056 5.32205e-06 -0.000194622 0.000205194 0.00233183 -0.000603484 -0.000731814 -0.0012989 -0.0044846 -0.000114072 0.000279003 -0.00096679 -6.2766e-05 -0.00030145 -0.000119756 -0.000401777 -0.000207373 -0.000407923 -5.16482e-06 -4.11564e-05 0.000257005 0.0013734 0.00650728 3.84846e-05 -0.000140431 0.000305681 -6.00722e-05
internal_weight=0 115988 68 48 101645 894 452 59 442 422 223 49 393 269 124 241 217 197 174 150 128 115920 20685 1234 202 46 1032 156 136 19451
internal_count=217633 115988 68 48 101645 894 452 59 442 422 223 49 393 269 124 241 217 197 174 150 128 115920 20685 1234 202 46 1032 156 136 19451
shrinkage=0.05


Tree=503
num_leaves=31
num_cat=0
split_feature=31 9 5 36 36 13 14 28 12 36 37 3 4 19 37 29 15 36 0 16 3 1 11 32 15 14 13 11 36 36
split_gain=0.00219326 0.0153407 0.0148871 0.0128297 0.0306426 0.0624372 0.0114885 0.00953043 0.0574307 0.0142539 0.00752454 0.0113616 0.0105488 0.00750296 0.00549115 0.00498564 0.0312463 0.104148 0.106867 0.0615409 0.00779071 0.00773739 0.00597937 0.00477515 0.050736 0.0700219 0.0355056 0.0525318 0.0495607 0.158025
threshold=-4.3203749999999994 0.00040688200000000007 2.4954650000000003e-05 -0.17527649999999997 0.20129000000000011 3.6544900000000005e-06 9.4821800000000005e-07 20.036400000000004 -3.3937349999999994e-07 -0.46506469999999994 -0.38541124999999993 -11.150049999999998 -0.63310749999999982 3.0909850000000003 0.68231549999999996 0.0031288150000000005 -9.6173349999999976e-06 0.91906500000000002 -4.5031199999999991 0.0011496050000000004 -5.7274249999999993 2.0321700000000003 7.8713900000000012e-05 -2.2564299999999995 0.006463130000000001 0.00018436750000000004 -1.0891499999999998e-06 0.03977975000000001 -0.51801999999999981 0.30085850000000008
decision_type=2 2 2 2 2 2 2 2 2 2 2 2 2 2 2 2 2 2 2 2 2 2 2 2 2 2 2 2 2 2
left_child=1 3 -3 7 5 6 -5 9 -9 13 11 12 -6 14 -1 23 17 18 -17 -20 -18 -19 -22 24 26 -26 27 28 -2 -30
right_child=15 2 -4 4 10 -7 -8 8 -10 -11 -12 -13 -14 -15 -16 16 20 21 19 -21 22 -23 -24 -25 25 -27 -28 -29 29 -31
leaf_value=0.00085485748842031514 3.8592334252685906e-05 0.0018395074114960154 -2.5712203173695703e-05 -0.001061804229830159 -0.001740780479522073 -0.0035812329949944152 0.00063293333096225979 0.0028656083950772885 -0.00020395463546947213 -0.0013273401878818516 0.00072573764482513074 -3.018399183111442e-05 -0.00037402617072075374 -0.00084296237740394051 2.0544077319811305e-05 0.0049131299948467965 1.6142175222624834e-05 -0.001564646684379444 0.0028200837384550446 -0.00043086799827555345 -0.00024615505618775 -0.00038056691838711553 -0.0012636952118059114 3.4993853561668181e-07 0.0036698708758922298 -0.00051408267157967199 -2.5909020798393936e-06 0.0015289582693367267 -0.0048116412610867097 -0.00046229084946389779
leaf_weight=21 52 20 23 20 20 21 20 20 64 21 23 205 48 24 324 22 277 22 24 37 42 37 22 215683 20 20 386 20 31 64
leaf_count=21 52 20 23 20 20 21 20 20 64 21 23 205 48 24 324 22 277 22 24 37 42 37 22 215683 20 20 386 20 31 64
internal_value=0 -7.9047e-05 0.000841832 -0.000126698 -0.000353075 -0.0013735 -0.000214435 4.38019e-05 0.000526894 -6.02486e-05 -0.000142786 -0.000215958 -0.000776013 1.18623e-05 7.13284e-05 3.18728e-07 0.000160781 0.000783983 0.00192565 0.000848195 -9.87344e-05 -0.000822088 -0.000595934 -3.96256e-08 -0.00014173 0.00157789 -0.000266115 -0.000875219 -0.00120232 -0.00188155
internal_weight=0 874 43 831 357 61 40 474 84 390 296 273 68 369 345 216759 483 142 83 61 341 59 64 216276 593 40 553 167 147 95
internal_count=217633 874 43 831 357 61 40 474 84 390 296 273 68 369 345 216759 483 142 83 61 341 59 64 216276 593 40 553 167 147 95
shrinkage=0.05


Tree=504
num_leaves=31
num_cat=0
split_feature=18 39 3 1 5 22 37 36 3 10 18 31 28 8 1 20 11 1 33 1 33 1 37 3 2 19 39 10 17 36
split_gain=0.00214945 0.0322554 0.078944 0.223082 0.202033 0.271062 0.105999 0.2185 0.305587 0.563983 0.198425 0.147751 0.131453 0.0776319 0.0457291 0.0930766 0.0497092 0.0277416 0.0948954 0.0675863 0.0263271 0.0896424 0.0355603 0.0251299 0.036332 0.0275009 0.0246985 0.0444988 0.0668926 0.0364279
threshold=-8.9484099999999973 -0.12174999999999957 -8.1461699999999979 -3.2275299999999993 9.2265950000000021e-06 6.2236100000000008 0.35345999999999994 0.22528099999999995 -9.3813899999999979 -8.4323699999999987e-06 -9.853489999999999 0.00010467350000000001 0.23890650000000005 2.4443700000000001e-05 -7.5633549999999987 -8.1725499999999975 9.3239650000000011e-05 -11.052099999999998 -3.6955849999999995e-08 -10.856449999999997 -1.8701649999999998e-06 -5.1343699999999997 4.6270000000000016 -13.614249999999998 -0.17274099999999995 -2.6579249999999996 0.10586500000000011 1.9951700000000004e-05 -5.0223249999999995 0.1751400000000001
decision_type=2 2 2 2 2 2 2 2 2 2 2 2 2 2 2 2 2 2 2 2 2 2 2 2 2 2 2 2 2 2
left_child=1 14 3 4 5 -3 7 8 9 -6 13 -11 -12 -10 15 -1 -17 18 -18 -19 21 -16 -22 24 -5 -25 27 29 -29 -4
right_child=-2 2 26 23 6 -7 -8 -9 10 11 12 -13 -14 -15 20 16 17 19 -20 -21 22 -23 -24 25 -26 -27 -28 28 -30 -31
leaf_value=-0.0028818910449211091 -1.6572170018262141e-06 0.0085929147860345743 0.00073708805682346998 -0.0028653894063609187 0.010827148128818307 0.00045951923413667828 -0.00016666950015186322 -0.00015453317377279983 0.0051864471402950588 -0.00099741672020172713 0.00063133596841825326 0.0048214887711219498 -0.0042574778856942427 0.0013922387800578561 -0.0036613857272760428 -0.0022687740645778833 0.003298552259911958 -0.0029502239319338952 -0.0006260003891860157 -0.00020750193016383971 -1.5296676064464812e-06 -0.00021882615204432164 0.002057970188235188 -0.0016403399227643744 -0.00037068674379649261 3.00749087815896e-05 4.9413986931257353e-06 -0.0027073385936611368 3.2513712920580133e-05 -2.5152900954792629e-05
leaf_weight=35 195849 21 432 20 27 20 143 124 26 24 44 20 20 28 21 30 24 23 43 959 10885 190 21 26 54 471 7670 28 109 246
leaf_count=35 195849 21 432 20 27 20 143 124 26 24 44 20 20 28 21 30 24 23 43 959 10885 190 21 26 54 471 7670 28 109 246
internal_value=0 1.48992e-05 8.37428e-05 0.000488878 0.00126344 0.0046254 0.000961159 0.00147643 0.00254648 0.00513838 0.000986945 0.00164754 -0.000896418 0.00321908 -3.8871e-05 -0.000344283 -0.00026197 -0.000204578 0.00077981 -0.000271741 -8.26654e-06 -0.000561451 2.43599e-06 -0.000185304 -0.00104493 -5.7311e-05 3.27488e-05 0.000294445 -0.000527456 0.000460523
internal_weight=0 21784 9553 1068 497 41 456 313 189 71 118 44 64 54 12231 1114 1079 1049 67 982 11117 211 10906 571 74 497 8485 815 137 678
internal_count=217633 21784 9553 1068 497 41 456 313 189 71 118 44 64 54 12231 1114 1079 1049 67 982 11117 211 10906 571 74 497 8485 815 137 678
shrinkage=0.05


Tree=505
num_leaves=31
num_cat=0
split_feature=9 26 24 2 10 10 16 8 20 19 2 28 1 8 8 18 39 18 18 10 23 5 10 33 22 26 22 10 13 18
split_gain=0.00218448 0.00957017 0.0362331 0.0322112 0.0444981 0.170215 0.210323 0.0659171 0.0436257 0.0346123 0.0331736 0.031258 0.10291 0.0367218 0.025432 0.022382 0.0186001 0.0173202 0.0177451 0.0222105 0.0741636 0.115683 0.0391395 0.0245684 0.0219101 0.0145047 0.0354736 0.0462797 0.0784911 0.0189332
threshold=-0.000119502 0.18537850000000003 5.0963000000000003 2.9632050000000003 -1.7544299999999997e-05 -4.5687299999999992e-05 0.0049635200000000008 3.7806450000000008e-05 -14.35675 1.9824050000000002 2.8304750000000003 11.695650000000002 -2.8529549999999992 4.4539100000000009e-05 4.5652150000000006e-05 -0.43273099999999992 -1.0505799999999998 -15.424049999999998 -11.746099999999997 8.055315000000001e-05 -0.0013306049999999997 1.8661550000000004e-05 0.00012676650000000003 1.5720100000000002e-06 16.451500000000003 0.11680600000000001 4.9136550000000012 0.00012676650000000003 -2.2582199999999995e-06 8.1649450000000012
decision_type=2 2 2 2 2 2 2 2 2 2 2 2 2 2 2 2 2 2 2 2 2 2 2 2 2 2 2 2 2 2
left_child=1 25 -3 4 5 7 -7 -4 -9 -10 11 17 -13 -14 -12 -5 -17 -6 -19 20 23 -22 24 -20 -21 -1 27 28 -27 -28
right_child=-2 2 3 15 10 6 -8 8 9 -11 14 12 13 -15 -16 16 -18 18 19 22 21 -23 -24 -25 -26 26 29 -29 -30 -31
leaf_value=1.1785487100568702e-05 -1.9147288256302945e-06 0.0017629393586917907 -0.0028442570286642877 9.884547862904065e-05 0.0012357134600668881 0.00073261274501970608 0.0071335480978069387 0.002041832178432602 0.00061152351476705699 -0.0020922434730164243 -0.0025474931257555172 0.0031994876162515897 -0.0016472994122455863 0.0011404962074309532 -0.00016489128611283377 -0.00043263084284262733 -0.0024608052532690077 -0.001398260134484862 -0.0018240927353165009 -0.0003882355689503519 0.0041159329054764769 -5.398146359090252e-05 3.3505492557297756e-05 0.00030890952675016942 -0.0021984097903441579 -0.00044018010561120281 -0.00016445999275025965 -0.00012446814493912448 -0.004515947791930687 0.0009969295463451999
leaf_weight=26177 189890 34 20 35 28 33 21 26 29 20 21 33 27 21 24 20 26 23 27 35 29 39 504 27 32 27 286 58 21 40
leaf_count=26177 189890 34 20 35 28 33 21 26 29 20 21 33 27 21 24 20 26 23 27 35 29 39 504 27 32 27 286 58 21 40
internal_value=0 1.31056e-05 0.000155358 0.00010567 0.000181953 0.000980353 0.00322187 -0.00029377 0.000386359 -0.000492055 4.5216e-05 0.000117324 0.00105008 -0.000427639 -0.00127677 -0.000854 -0.00157899 1.57745e-05 -3.19326e-05 1.34145e-05 0.000625794 0.00172436 -0.000117427 -0.000757592 -0.0012528 7.04316e-06 -0.000280318 -0.0010749 -0.00222333 -2.19582e-05
internal_weight=0 27743 1134 1100 1019 149 54 95 75 49 870 825 81 48 45 81 46 744 716 693 122 68 571 54 67 26609 432 106 48 326
internal_count=217633 27743 1134 1100 1019 149 54 95 75 49 870 825 81 48 45 81 46 744 716 693 122 68 571 54 67 26609 432 106 48 326
shrinkage=0.05


Tree=506
num_leaves=31
num_cat=0
split_feature=27 12 8 10 11 3 13 13 3 5 12 11 3 16 11 8 31 12 14 9 14 21 36 11 18 21 9 9 29 19
split_gain=0.00219081 0.0218515 0.0557842 0.0370198 0.0286797 0.0269742 0.0266246 0.0362698 0.0239954 0.0203614 0.0170197 0.0139956 0.0183801 0.00860299 0.00762908 0.00350958 0.00321489 0.0327571 0.0271873 0.073238 0.0753174 0.125966 0.171526 0.0965116 0.0548563 0.0366496 0.0362726 0.0555033 0.047349 0.0270503
threshold=0.35534200000000005 1.1129000000000003e-05 2.0248200000000004e-05 2.4198950000000003e-05 0.0025138000000000005 -13.166999999999998 1.1066350000000001e-05 2.7687200000000004e-06 -12.352299999999998 1.0508700000000002e-05 8.6027300000000002e-05 0.03977975000000001 -14.605749999999999 0.0017507150000000001 0.0011990500000000003 7.4769000000000015e-05 -0.27384599999999998 5.5700600000000008e-07 -2.4916349999999997e-05 7.9041350000000015e-05 -3.4453399999999998e-07 -0.82489099999999993 0.43531000000000003 0.0094329700000000006 -8.4289549999999984 -1.1409399999999998 5.443675000000001e-05 4.8912350000000013e-05 0.00038371750000000001 -3.0611199999999994
decision_type=2 2 2 2 2 2 2 2 2 2 2 2 2 2 2 2 2 2 2 2 2 2 2 2 2 2 2 2 2 2
left_child=16 4 -3 -4 5 -2 7 13 -5 -6 -10 12 -11 14 15 -7 17 18 -1 26 21 22 23 -21 -22 -26 27 -20 -28 -19
right_child=1 2 3 8 9 6 -8 -9 10 11 -12 -13 -14 -15 -16 -17 -18 29 19 20 24 -23 -24 -25 25 -27 28 -29 -30 -31
leaf_value=-0.00034482557091296533 0.0015181778617530924 0.0023856257857308568 0.0015159207597995798 -0.0017599064387872607 -0.0020133233325655706 6.3907165107184936e-06 0.0016739846180371387 -0.0017593103911220918 0.00089217546881021313 -0.0018400796592833368 -0.00070094227397164916 0.00034553937054143343 -0.0003744005255546232 0.00095309710479341459 -0.00099345666138738733 -0.00047108987683631395 -7.076213471974339e-07 -0.001853440721764776 9.5623831493501306e-05 0.00298103210627067 0.0018736700666017389 8.2576748670306898e-06 -0.000105284630072951 0.007780111891916023 -0.0019759476565350607 0.00016494132081103775 -0.00010208865254893541 0.0020424826191801177 -0.0024768701865292724 -0.00012673687747712938
leaf_weight=302 27 30 30 27 28 307 20 34 30 31 38 34 69 20 23 44 211024 23 3466 22 36 49 23 20 27 77 65 37 31 1639
leaf_count=302 27 30 30 27 28 307 20 34 30 31 38 34 69 20 23 44 211024 23 3466 22 36 49 23 20 27 77 65 37 31 1639
internal_value=0 -8.30077e-05 0.000449409 -1.52831e-05 -0.00021256 -1.66308e-05 -0.00010913 -0.000192454 -0.000498821 -0.000787042 1.90379e-06 -0.000530804 -0.000828761 -5.72426e-05 -0.000111271 -5.34644e-05 3.03181e-07 3.69722e-05 0.000112014 0.000147821 0.000968386 0.00192253 0.00336559 0.00526631 0.000191443 -0.000390866 8.99098e-05 0.000116187 -0.000868945 -0.000150632
internal_weight=0 792 155 125 637 475 448 428 95 162 68 134 100 394 374 351 216841 5817 4155 3853 254 114 65 42 140 104 3599 3503 96 1662
internal_count=217633 792 155 125 637 475 448 428 95 162 68 134 100 394 374 351 216841 5817 4155 3853 254 114 65 42 140 104 3599 3503 96 1662
shrinkage=0.05


Tree=507
num_leaves=31
num_cat=0
split_feature=24 10 10 20 18 2 39 39 39 15 4 6 37 37 13 35 3 6 9 26 6 37 34 13 17 38 3 12 7 9
split_gain=0.00218715 0.0135797 0.0169221 0.0164103 0.0130521 0.0123556 0.0119557 0.0678465 0.0411248 0.0616745 0.117734 0.0219085 0.0335909 0.137271 0.187971 0.0532034 0.0350309 0.0301628 0.0922147 0.136536 0.0447319 0.058026 0.0399638 0.0283703 0.0347264 0.0282709 0.076936 0.0351007 0.0256473 0.0234596
threshold=29.419400000000007 -7.1201799999999986e-05 -6.7776199999999983e-05 -15.138399999999999 11.320900000000002 -3.0795949999999999 -0.19603999999999996 -0.23716000000000023 -0.82558500000000012 -6.7236599999999979e-05 -3.3078599999999994 3.1916100000000005e-08 -0.33012499999999995 0.057875000000000128 1.9598050000000002e-06 0.053913100000000005 -14.818499999999998 -5.0878949999999982e-07 -6.9454799999999977e-05 0.41922450000000006 -3.3864449999999993e-07 0.27484500000000006 -0.39553799999999995 -1.4949049999999998e-06 -9.3188649999999988 -0.32870999999999989 -6.9704649999999999 4.7226350000000001e-07 3.3645000000000007e-05 -4.4153649999999994e-05
decision_type=2 2 2 2 2 2 2 2 2 2 2 2 2 2 2 2 2 2 2 2 2 2 2 2 2 2 2 2 2 2
left_child=-1 3 -3 -2 -5 -4 7 8 -7 10 -10 17 23 14 15 -14 -15 -8 19 -19 21 -20 -22 24 -13 -18 27 -27 -17 -25
right_child=1 2 5 4 -6 6 11 -9 9 -11 -12 12 13 16 -16 28 25 18 20 -21 22 -23 -24 29 -26 26 -28 -29 -30 -31
leaf_value=8.8080287550725039e-07 -0.0015575784366931124 0.0011677352189144586 -0.0011103160831016094 -2.1141695056890918e-05 -0.0013298337257330551 -3.1323944868663526e-05 -2.5697014706581925e-05 0.0029667262376460715 7.4069483343919276e-06 0.00018028527934443793 0.0040093192974488961 -0.0015565814589665805 -0.0031182229665864727 0.0018804195203951429 -0.0047658503031692452 0.00017689796207107707 -7.1489015076848535e-05 -0.00015222702728351578 0.0028507882931600244 0.0056902119223377666 -0.001817582969831872 -0.00067541984255512942 0.00018083556135867939 0.0011444211763119441 -0.00010510002552115484 -0.0039711909439314958 0.00038300727562217416 -0.0011983343129977585 -0.0016754502857802434 8.5304799996795082e-05
leaf_weight=211114 29 30 26 111 23 2209 1751 20 40 223 34 56 20 21 39 74 642 20 28 20 36 20 82 57 156 21 49 25 25 632
leaf_count=211114 29 30 26 111 23 2209 1751 20 40 223 34 56 20 21 39 74 642 20 28 20 36 20 82 57 156 21 49 25 25 632
internal_value=0 -2.85243e-05 -1.69678e-05 -0.000479158 -0.000245768 -2.2586e-05 -1.8097e-05 6.60953e-05 4.29458e-05 0.000595343 0.00184612 -7.44482e-05 -0.000199472 -0.000412687 -0.00175334 -0.000766053 -0.000133236 4.16318e-05 0.000613927 0.00276899 9.46338e-05 0.00138153 -0.000428851 1.72924e-05 -0.00048851 -0.000190613 -0.000995642 -0.0024642 -0.000290867 0.000172924
internal_weight=0 6519 6356 163 134 6326 6300 2526 2506 297 74 3774 1817 916 158 119 758 1957 206 40 166 48 118 901 212 737 95 46 99 689
internal_count=217633 6519 6356 163 134 6326 6300 2526 2506 297 74 3774 1817 916 158 119 758 1957 206 40 166 48 118 901 212 737 95 46 99 689
shrinkage=0.05


Tree=508
num_leaves=31
num_cat=0
split_feature=6 31 12 12 39 10 19 36 3 16 20 19 27 14 26 9 20 32 5 1 16 29 19 5 20 1 26 7 6 33
split_gain=0.00215257 0.00788932 0.0318396 0.0494443 0.165276 0.330602 0.132986 0.0566063 0.0451985 0.0622261 0.0842732 0.0187439 0.0174173 0.0156107 0.042477 0.0159108 0.0150953 0.0370425 0.0554995 0.0225045 0.0154765 0.0118468 0.0131876 0.0100355 0.0267538 0.00806589 0.00722304 0.0172331 0.00745359 0.0316274
threshold=-2.2961349999999994e-06 -0.034275499999999993 -1.2833349999999995e-07 -2.6163199999999997e-05 -0.41630000000000006 2.4792000000000003e-05 -0.81200999999999979 0.12375499999999996 -7.8286749999999996 1.7356400000000002e-06 -12.940099999999997 0.88875850000000012 0.0061309900000000011 5.7099050000000007e-05 0.55826100000000012 -0.00030544199999999995 -9.0094299999999983 -0.055004599999999994 1.1054200000000002e-05 8.7485050000000015 1.1921100000000003e-10 4.8167950000000007e-05 -0.90610399999999991 1.3994750000000002e-05 -8.481284999999998 -14.127399999999998 2.0528200000000001 -2.8596049999999995e-05 -2.6132299999999998e-06 0.000104555
decision_type=2 2 2 2 2 2 2 2 2 2 2 2 2 2 2 2 2 2 2 2 2 2 2 2 2 2 2 2 2 2
left_child=1 2 3 13 5 6 -5 11 9 12 -11 -7 -6 15 -15 -1 20 18 -18 -20 -4 -17 -23 24 -10 -22 28 -28 -3 -30
right_child=-2 26 16 4 8 7 -8 -9 23 10 -12 -13 -14 14 -16 21 17 -19 19 -21 25 22 -24 -25 -26 -27 27 -29 29 -31
leaf_value=-0.0013855146036466639 -3.0565529912299444e-06 -1.4197247485971829e-06 0.001350118783596807 0.0086062799459059973 0.0011944614682038381 -0.0019655220328422727 0.0030435662954749372 0.00237060368010134 -9.7869196485623474e-05 0.00041754929148301776 0.0046529463927309622 5.4016859963599862e-05 -0.0001024536346838951 8.6289261296029654e-05 0.0024350114574190232 6.280570994931622e-05 -0.0032067416907838459 -4.7538214915049859e-05 -0.00020967030836605943 -0.0018942291460765166 0.00088801787037157609 -0.0014451293212977331 -0.00026253948705945933 -0.00011411019255189585 0.0019384582678511559 3.3240538510491597e-05 -0.0012820829233041386 1.0689016902795309e-05 5.8659139606661594e-05 0.0019596039740215269
leaf_weight=27 157954 51027 23 21 39 20 22 20 54 24 23 27 77 231 21 275 22 882 114 24 28 29 126 391 23 1925 37 85 4040 22
leaf_count=27 157954 51027 23 21 39 20 22 20 54 24 23 27 77 231 21 275 22 882 114 24 28 29 126 391 23 1925 37 85 4040 22
internal_value=0 8.08986e-06 7.19949e-05 0.000264558 0.000550158 0.00233864 0.00576024 0.000142688 0.000238378 0.000955423 0.00249019 -0.000805361 0.000333578 -3.39323e-05 0.000282016 -0.000208153 -2.05221e-05 -0.000174511 -0.000874451 -0.000502637 6.06808e-05 -0.000134226 -0.000483798 -1.13621e-05 0.000510384 4.54954e-05 2.91828e-06 -0.000381381 3.76935e-06 6.89548e-05
internal_weight=0 59679 4468 1450 741 110 43 67 631 163 47 47 116 709 252 457 3018 1042 160 138 1976 430 155 468 77 1953 55211 122 55089 4062
internal_count=217633 59679 4468 1450 741 110 43 67 631 163 47 47 116 709 252 457 3018 1042 160 138 1976 430 155 468 77 1953 55211 122 55089 4062
shrinkage=0.05


Tree=509
num_leaves=31
num_cat=0
split_feature=24 4 9 10 9 15 4 1 15 17 13 36 36 40 14 4 4 34 15 15 4 5 17 8 7 39 15 26 5 7
split_gain=0.00223463 0.00958212 0.0230907 0.0562612 0.0184361 0.0235768 0.0359153 0.0231898 0.0143997 0.0130513 0.0171135 0.0104263 0.0211964 0.0101922 0.0158839 0.00903886 0.0490967 0.0152035 0.0121319 0.0164669 0.0120211 0.00734324 0.00515762 0.0258003 0.0668222 0.152835 0.0422741 0.0292528 0.0254399 0.0281199
threshold=91.481750000000019 5.1455300000000008 -0.00035055549999999991 0.00035752750000000007 -5.9599849999999995e-05 0.006463130000000001 3.3436750000000006 -6.0798549999999993 0.0027682350000000004 -19.608449999999998 1.3186150000000004e-06 -0.25142799999999998 1.5146325 -5.5113749999999992 -3.7416649999999998e-06 0.92648250000000021 1.4464300000000001 -0.26996899999999996 0.00010559900000000002 3.3339000000000007e-05 0.34232900000000005 1.1508200000000001e-05 -19.608449999999998 4.8753150000000003e-05 -2.9834549999999997e-05 1.8568299999999998 -7.9974899999999992e-07 -1.0000000180025095e-35 3.5498450000000002e-05 -4.7071399999999991e-05
decision_type=2 2 2 2 2 2 2 2 2 2 2 2 2 2 2 2 2 2 2 2 2 2 2 2 2 2 2 2 2 2
left_child=22 2 3 -2 7 8 -7 -4 15 10 -9 -3 -13 -11 -15 18 -17 -18 19 20 -6 -16 23 24 25 26 -1 -26 29 -25
right_child=1 11 4 -5 5 6 -8 9 -10 13 -12 12 -14 14 21 16 17 -19 -20 -21 -22 -23 -24 28 27 -27 -28 -29 -30 -31
leaf_value=-0.0020082115082186648 0.0027380948131904008 7.2878643078257558e-05 0.00077097957001833785 -0.00040647757775855793 -3.0258483062855071e-05 0.0027013968280516568 -0.00025918623404799123 -0.0004968378583033059 -0.0013017622894536049 0.0003735904143208505 -0.0025404873103980208 -0.0019906849634868128 5.1515455925255087e-05 -0.0017026707851167382 -0.0011658332350807973 0.0024523567453877109 -0.0013143993345279756 0.00036298980250389187 -0.0012683205906068907 0.0012980109154064534 -0.001238680807762735 -9.2358575674359486e-05 4.7583803784023938e-08 -0.0022006021662491549 0.0017208130497844349 0.0041167915695612982 0.0011043135324143806 -8.9473914795807182e-05 0.00034354187228018422 -0.00018891985547318322
leaf_weight=20 25 37 31 33 1029 20 21 21 22 28 20 27 24 29 21 23 22 35 20 23 21 66 215491 32 24 35 24 318 53 38
leaf_count=20 25 37 31 33 1029 20 21 21 22 28 20 27 24 29 21 23 22 35 20 23 21 66 215491 32 24 35 24 318 53 38
internal_value=0 -5.89094e-05 -2.9352e-05 0.000948942 -6.84299e-05 6.05007e-06 0.001185 -0.000494621 -3.43993e-05 -0.000706694 -0.00149374 -0.000566087 -0.00102965 -0.000482605 -0.000689273 -1.06295e-05 0.000502401 -0.000284424 -4.81797e-05 -2.54371e-05 -5.44269e-05 -0.000351473 4.3575e-07 0.000154197 0.000340318 0.00165097 -0.000310471 3.75638e-05 -0.00048285 -0.00110855
internal_weight=0 1598 1510 58 1452 1236 41 216 1195 185 41 88 51 144 116 1173 80 57 1093 1073 1050 87 216035 544 421 79 44 342 123 70
internal_count=217633 1598 1510 58 1452 1236 41 216 1195 185 41 88 51 144 116 1173 80 57 1093 1073 1050 87 216035 544 421 79 44 342 123 70
shrinkage=0.05


Tree=510
num_leaves=31
num_cat=0
split_feature=3 17 9 4 5 20 19 26 37 36 22 3 0 11 34 40 16 22 10 17 40 27 36 19 40 15 33 6 5 17
split_gain=0.002129 0.00975135 0.052783 0.0833633 0.123081 0.0352186 0.00910806 0.00717495 0.0048713 0.0346352 0.162156 0.164491 0.264091 0.191067 0.267593 0.139059 0.299864 0.453234 0.377492 0.425206 0.27692 0.203065 0.181567 0.178284 0.177294 0.298376 0.301543 0.334054 0.174474 0.164908
threshold=-5.6511299999999993 -12.926599999999999 -3.9082349999999992e-06 -0.13885249999999996 1.2076400000000002e-05 -6.3147749999999991 2.3818600000000001 -0.24353549999999999 -0.33012499999999995 -0.19934349999999995 2.3108700000000004 -11.042399999999999 6.5600500000000013 0.00068272250000000014 -0.017735749999999998 -1.0681750000000003 0.00016688000000000003 4.6947250000000009 -1.4146449999999999e-05 5.3163050000000007 1.3201050000000005 0.011952750000000002 0.14973499999999998 2.3223600000000002 2.9908550000000012 0.00029248800000000009 -2.0787049999999996e-06 1.5327350000000001e-07 1.4620550000000002e-05 -8.175164999999998
decision_type=2 2 2 2 2 2 2 2 2 2 2 2 2 2 2 2 2 2 2 2 2 2 2 2 2 2 2 2 2 2
left_child=8 2 3 -2 -5 6 -6 -4 -1 -10 -11 12 13 14 -12 16 17 -15 19 23 22 -20 29 -18 25 26 27 -22 -19 -17
right_child=1 -3 7 4 5 -7 -8 -9 9 10 11 -13 -14 15 -16 20 18 28 21 -21 24 -23 -24 -25 -26 -27 -28 -29 -30 -31
leaf_value=7.3178811654762765e-06 0.0035700366656528787 8.4024010348153907e-06 -0.00088527081352367536 0.0029852214199644024 -0.0003128275908900171 0.0013299045710092677 -0.0012845357739455436 -9.4512187778957591e-05 5.6492383445506174e-06 3.6120707779883099e-06 0.0075457345333416019 -0.00053665546705559876 0.0056778040282162174 0.0083977737285507222 2.7920960665455666e-05 -0.0062453977181576199 -0.0015581904150894844 -0.00303185448050499 -0.0050656152297354623 0.0086356493843985464 -0.0001850783419997796 -0.00048718302269982225 0.00094455831509549176 0.0042235209618229422 -0.00022028285504261991 0.0057210745136918768 -0.0010290016709385735 0.0085372275212735309 0.0034934821560801497 -0.0017278049255043224
leaf_weight=79291 25 31654 32 38 66 28 38 277 83915 17747 20 3094 21 30 29 22 40 20 36 21 23 74 60 20 593 35 95 21 21 247
leaf_count=79291 25 31654 32 38 66 28 38 277 83915 17747 20 3094 21 30 29 22 40 20 36 21 23 74 60 20 593 35 95 21 21 247
internal_value=0 1.18766e-05 0.000230078 0.000874193 0.000477746 -0.000244103 -0.000667875 -0.000176403 -2.05919e-06 -9.06135e-06 -6.44944e-05 -0.000331785 0.000112102 2.9032e-05 0.00309642 -8.16468e-05 0.000953195 0.0037276 -7.8127e-05 0.00251224 -0.000329027 -0.00198558 -0.00154253 0.000369047 0.000191499 0.00159487 0.000555898 0.00397784 0.000310391 -0.00209727
internal_weight=0 32158 504 195 170 132 104 309 185475 106184 22269 4522 1428 1407 49 1358 262 71 191 81 1096 110 329 60 767 174 139 44 41 269
internal_count=217633 32158 504 195 170 132 104 309 185475 106184 22269 4522 1428 1407 49 1358 262 71 191 81 1096 110 329 60 767 174 139 44 41 269
shrinkage=0.05


Tree=511
num_leaves=31
num_cat=0
split_feature=26 17 3 8 9 32 36 13 8 8 26 36 2 19 31 30 2 36 15 29 3 39 19 17 19 2 2 18 28 29
split_gain=0.00233805 0.0309166 0.0813459 0.0610078 0.0994597 0.110374 0.164557 0.121157 0.147673 0.0267496 0.0210425 0.0204785 0.0178904 0.286544 0.0359832 0.0168431 0.0222698 0.0813925 0.0183172 0.0439976 0.0136239 0.0502652 0.0753467 0.0120756 0.0120144 0.0119016 0.0118101 0.0359055 0.0513651 0.0881588
threshold=0.030416150000000003 3.0677450000000004 -18.305499999999995 2.5919250000000001e-05 -9.8468249999999987e-06 -0.025848749999999997 -0.12496499999999998 6.9009750000000011e-07 2.1587450000000003e-05 1.0512900000000001e-05 0.16279950000000001 -5.4467549999999987 -3.0487399999999996 2.9809550000000002 -0.21631099999999998 3.5771350000000006 -2.4290249999999998 -0.30278099999999991 1.3181750000000001e-05 -0.00037994999999999994 -18.305499999999995 -2.7066499999999998 -1.7659849999999999 5.6979900000000017 -2.9378149999999996 -1.6619399999999998 -2.9192849999999999 0.18529350000000003 0.20273150000000004 -1.436935e-05
decision_type=2 2 2 2 2 2 2 2 2 2 2 2 2 2 2 2 2 2 2 2 2 2 2 2 2 2 2 2 2 2
left_child=-1 12 -3 4 5 6 -4 10 -9 -6 -7 -5 13 14 -2 16 17 -13 -17 -20 21 -14 -23 -12 -16 -11 27 28 29 -22
right_child=1 2 3 11 9 7 -8 8 -10 25 23 15 20 -15 24 18 -18 -19 19 -21 26 22 -24 -25 -26 -27 -28 -29 -30 -31
leaf_value=-1.8630537763207615e-06 -0.0021265698917670222 0.0032418380105148324 0.00050774597241442013 -0.0014813469073487796 0.0019214564337198684 -0.0015486936235834881 0.0063137265457883663 0.00067333917374656142 0.0060591724151163361 0.00084523517885472547 0.0010626207597934727 -2.9481900615532402e-05 -1.5186267550168991e-05 0.0058571467747573153 0.0012197183904936537 -6.9247763758704579e-05 4.1617693389836303e-05 0.0036863835407712031 -0.00219350035553553 -4.6588913392042743e-06 -0.0039260476092480264 0.00014537225210073371 -0.0035900109652343588 -0.00045910146645837817 -8.7545646044951547e-05 -5.9417157255982728e-05 4.89476121794941e-06 0.00023490319005779587 -6.1778591518918269e-05 -0.00065995492903115607
leaf_weight=192726 21 22 23 24 20 27 26 35 20 41 22 56 214 22 20 276 621 20 38 58 27 27 27 32 145 321 22237 225 172 88
leaf_count=192726 21 22 23 24 20 27 26 35 20 41 22 56 214 22 20 276 621 20 38 58 27 27 27 32 145 321 22237 225 172 88
internal_value=0 1.4416e-05 0.000221416 0.000181386 0.000602236 0.00155382 0.00358847 0.00082075 0.00263182 0.00014139 -0.000408992 -3.6932e-05 -5.75363e-07 0.000461055 -0.000177192 -4.50359e-06 0.00014049 0.000948377 -0.000276171 -0.000871075 -4.74703e-06 -0.000359161 -0.00172232 0.000160859 7.09106e-05 4.30435e-05 -5.71771e-07 -0.000237992 -0.000608729 -0.00142678
internal_weight=0 24907 1682 1660 567 185 49 136 55 382 81 1093 23225 208 186 1069 697 76 372 96 23017 268 54 54 165 362 22749 512 287 115
internal_count=217633 24907 1682 1660 567 185 49 136 55 382 81 1093 23225 208 186 1069 697 76 372 96 23017 268 54 54 165 362 22749 512 287 115
shrinkage=0.05


Tree=512
num_leaves=31
num_cat=0
split_feature=6 6 32 35 25 25 20 30 18 17 12 5 23 17 13 0 7 36 36 20 12 13 13 8 10 28 12 18 19 0
split_gain=0.00215953 0.00747636 0.0162857 0.132551 0.0117381 0.0874041 0.00965585 0.0242285 0.00725183 0.00706596 0.106658 0.0179332 0.0118485 0.0290352 0.11258 0.288542 0.013457 0.013096 0.0799876 0.0489848 0.158095 0.0974835 0.0212337 0.0144713 0.0104543 0.00977575 0.0555097 0.00880831 0.0864789 0.16179
threshold=2.8692150000000002e-06 2.7311750000000006e-06 0.0085105150000000015 0.00014957700000000005 0.006384845000000001 0.0068628400000000011 -9.2844749999999987 0.058777350000000006 7.1162100000000006 -19.608449999999998 -2.5159149999999997e-06 1.1571150000000002e-05 0.0041053400000000007 16.002400000000005 5.1445100000000014e-07 8.2756850000000011 3.5461000000000012e-05 0.30085850000000008 -0.22452634999999985 -8.0446299999999979 -3.3937349999999994e-07 2.5770550000000005e-06 3.1357800000000004e-08 5.3457800000000008e-05 -7.7087449999999976e-06 20.036400000000004 2.8964050000000007e-06 -10.569349999999998 -0.90610399999999991 5.8791150000000014
decision_type=2 2 2 2 2 2 2 2 2 2 2 2 2 2 2 2 2 2 2 2 2 2 2 2 2 2 2 2 2 2
left_child=1 -1 4 -4 -3 -6 7 -7 -9 10 -2 -12 13 25 16 -16 -15 18 -14 21 -21 23 -22 -20 -13 27 -27 28 -11 -30
right_child=9 2 3 -5 5 6 -8 8 -10 12 11 24 17 14 15 -17 -18 -19 19 20 22 -23 -24 -25 -26 26 -28 -29 29 -31
leaf_value=-1.6224632237325912e-06 0.0035009906993566445 3.1525604073122002e-05 -0.0043882197788718711 -0.00012561890343437446 -0.0034276147361933479 -0.0016846573707783006 0.00023019509389169717 3.7625039057351848e-05 -0.00093794890099988242 2.6210927787196335e-05 0.0012107688624729193 -0.00010317449750436936 -1.9584885819567577e-05 8.8555706187090164e-05 8.4527504341994327e-05 0.0073276083281962195 -0.0010696094479044405 3.0461240696797734e-05 -0.0019989636418904408 0.0032629127823747698 -0.0010957920150152253 -0.0050819814832886384 -0.0033017053920775656 -0.00017788153054425495 -0.0011180918038007804 -0.00011788352895651671 0.0028552845455124044 3.076927193551371e-06 2.7767045236001567e-05 0.0033905560636071641
leaf_weight=166883 23 1132 20 207 21 28 132 142 22 2542 21 100 511 116 44 20 32 555 20 20 24 22 20 24 34 73 20 44670 99 56
leaf_count=166883 23 1132 20 207 21 28 132 142 22 2542 21 100 511 116 44 20 32 555 20 20 24 22 20 24 34 73 20 44670 99 56
internal_value=0 -2.68644e-06 -0.000106888 -0.000501178 -4.62896e-05 -0.000301614 -9.90024e-05 -0.000325326 -9.32446e-05 9.23416e-06 0.000323687 -0.000147783 8.08878e-06 1.19884e-05 0.000595832 0.00234799 -0.000161858 -0.000147348 -0.000301302 -0.00140867 -0.000423045 -0.00236442 -0.00209848 -0.00100565 -0.000360691 9.38042e-06 0.000521507 8.37491e-06 9.61247e-05 0.00124271
internal_weight=0 168587 1704 227 1477 345 324 192 164 49046 178 155 48868 47672 212 64 148 1196 641 130 64 66 44 44 134 47460 93 47367 2697 155
internal_count=217633 168587 1704 227 1477 345 324 192 164 49046 178 155 48868 47672 212 64 148 1196 641 130 64 66 44 44 134 47460 93 47367 2697 155
shrinkage=0.05


Tree=513
num_leaves=31
num_cat=0
split_feature=28 27 37 36 39 33 16 6 39 8 2 11 33 30 37 28 35 22 39 16 6 0 14 39 36 39 10 39 39 11
split_gain=0.00216483 0.0149726 0.0467532 0.224793 0.202213 0.265247 0.239607 0.134527 0.0929551 0.066746 0.0544432 0.0544417 0.0474905 0.0377657 0.0284642 0.140696 0.130706 0.0891383 0.0915962 0.133459 0.0906206 0.0905099 0.120889 0.112362 0.0899782 0.0622877 0.0544754 0.0456183 0.0283118 0.033652
threshold=-0.12163499999999998 0.0011509850000000002 0.14791590000000002 -0.0054100000000001361 1.3895649999999999 2.7091200000000009e-07 4.1454950000000006e-07 -2.6802149999999995e-06 0.13650500000000013 1.3944750000000001e-05 2.2358750000000005 0.0039264450000000015 -1.2186099999999996e-07 0.11295550000000001 -0.10141500000000002 -0.32370999999999994 9.1330750000000006e-05 2.0531150000000005 0.8945249999999999 1.5812550000000003e-08 3.6997300000000003e-06 -3.7117899999999997 5.6509050000000009e-08 -0.36707999999999957 0.039429999999999972 -0.36707999999999957 1.4744150000000002e-05 2.0800550000000007 -0.27803499999999998 0.0064150250000000004
decision_type=2 2 2 2 2 2 2 2 2 2 2 2 2 2 2 2 2 2 2 2 2 2 2 2 2 2 2 2 2 2
left_child=1 2 3 4 5 6 7 -1 -7 11 13 -8 -9 28 -5 -16 17 18 19 -17 21 -21 23 -23 25 -24 -25 -20 29 -11
right_child=-2 -3 -4 14 -6 8 9 12 -10 10 -12 -13 -14 -15 15 16 -18 -19 27 20 -22 22 24 26 -26 -27 -28 -29 -30 -31
leaf_value=0.0056561381071285151 -2.4890340178412429e-06 -1.0798512351488246e-05 -7.1454865653458705e-06 -5.6398596873092458e-06 -9.1035724785903114e-05 0.0030126492330164183 0.0028644779098134388 1.9374732139774347e-06 0.0072827196113044368 -0.00270560349621519 0.0020864802635125151 -0.00026094122638989413 0.0029354444358850253 -0.0026563796328264288 -0.0030526584729419224 0.0049751825106795879 0.0034488178143726907 -0.0022757270395716961 -0.0026425806228706442 -0.0021101001845372303 0.0032437830581670823 -0.0034163925516342997 0.0033724803952447308 0.0022997863797572789 0.0042073144043538848 0.0003468562462949194 -0.00079447613732719965 -0.00014062249316931178 0.00057140135089593972 -0.00010639281015645599
leaf_weight=38 174228 28914 10162 3246 215 25 38 22 26 20 21 22 37 20 28 20 37 30 22 31 32 26 22 25 29 75 33 106 50 33
leaf_count=38 174228 28914 10162 3246 215 25 38 22 26 20 21 22 37 20 28 20 37 30 22 31 32 26 22 25 29 75 33 106 50 33
internal_value=0 9.991e-06 5.14725e-05 0.000189074 0.00111715 0.00185511 0.00129014 0.00333595 0.00518955 0.000317377 -0.00026642 0.00171849 0.00184159 -0.000668135 4.91955e-05 0.000394148 0.000591916 0.000357536 0.000545179 0.00103264 0.000743808 0.000411861 0.000784151 -0.00068511 0.00176366 0.00103308 0.000539258 -0.000570647 -0.000282068 -0.00108723
internal_weight=0 43405 14491 4329 567 352 301 97 51 204 144 60 59 123 3762 516 488 451 421 293 273 241 210 84 126 97 58 128 103 53
internal_count=217633 43405 14491 4329 567 352 301 97 51 204 144 60 59 123 3762 516 488 451 421 293 273 241 210 84 126 97 58 128 103 53
shrinkage=0.05


Tree=514
num_leaves=31
num_cat=0
split_feature=10 16 26 28 8 36 16 36 21 10 32 16 29 16 29 29 39 34 14 36 39 34 3 8 10 16 3 40 36 36
split_gain=0.00218474 0.00820424 0.0067311 0.0111918 0.0512614 0.0872036 0.00880679 0.0116057 0.00706005 0.0274017 0.0192202 0.00488408 0.0318594 0.00759531 0.116973 0.0216414 0.0761607 0.00740344 0.00996352 0.00969924 0.0126356 0.00834748 0.0370665 0.00930548 0.0398269 0.00856516 0.00737495 0.0278396 0.0219259 0.204351
threshold=0.00014699600000000001 1.2683350000000002e-07 2.0528200000000001 20.036400000000004 3.0656350000000003e-05 1.5492540000000004 0.016458250000000004 -0.27744100000000016 -2.2419299999999995 0.00030062600000000007 -2.2564299999999995 6.4033200000000016e-05 -3.9040499999999993e-05 0.00051133100000000018 -0.00014064699999999996 -3.7334249999999996e-05 0.31279500000000043 -1.0090899999999998 6.6005750000000014e-05 -0.74380499999999983 6.2200000000000006 -0.39553799999999995 -16.413199999999996 2.3297600000000002e-05 0.00027347750000000006 0.0024010250000000006 -14.947699999999999 2.9060500000000005 -0.40968649999999995 0.056773999999999998
decision_type=2 2 2 2 2 2 2 2 2 2 2 2 2 2 2 2 2 2 2 2 2 2 2 2 2 2 2 2 2 2
left_child=-1 -2 3 8 5 -5 7 -4 9 -3 -10 12 -12 14 -13 16 -16 18 -15 -20 -21 22 -19 24 -24 -25 27 28 -23 -30
right_child=1 2 6 4 -6 -7 -8 -9 10 -11 11 13 -14 17 15 -17 -18 21 19 20 -22 26 23 25 -26 -27 -28 -29 29 -31
leaf_value=-2.2774832032619872e-06 0.00082408880053046771 0.0020664907310037959 -0.0002442022092873231 0.0037149749124252523 -0.00039684721591244729 -0.00051156297837303061 0.00012526947330563238 -0.0014947024269661468 -0.001540356279547268 -0.00018212438668732439 -0.0020807447201583447 0.0032831529178738179 1.7060288117844381e-05 7.596687140297339e-05 0.003203739050513832 -3.4032028711451038e-05 -0.00091122934968948164 0.0022025792410599737 -0.00014816963424285254 -0.0019540534361731261 -0.00026793003547936678 -2.302965739347954e-05 0.0024891606158735161 -0.00098871127980105079 -0.00018345240050225784 5.6407834483454482e-05 1.6930077112695019e-05 1.1908192726378822e-05 -0.0027769116190675819 -0.00010772665228675908
leaf_weight=180357 31 20 55 26 67 23 61 28 20 42 21 29 131 81 22 637 23 23 42 25 20 495 20 22 46 180 30294 4182 83 527
leaf_count=180357 31 20 55 26 67 23 61 28 20 42 21 29 131 81 22 637 23 23 42 25 20 495 20 22 46 180 30294 4182 83 527
internal_value=0 1.10194e-05 1.03427e-05 1.16669e-05 0.000502023 0.00173109 -0.000330843 -0.000666058 1.0129e-05 0.000543235 9.2338e-06 1.00736e-05 -0.000272768 1.12434e-05 0.000173076 4.08293e-05 0.00110053 8.05078e-06 -0.000323094 -0.000694633 -0.00120467 9.60164e-06 0.000276308 0.000110993 0.00062643 -5.7417e-05 7.42038e-06 -4.70693e-05 -0.000270276 -0.000470911
internal_weight=0 37276 37245 37101 116 49 144 83 36985 62 36923 36903 152 36751 711 682 45 36040 168 87 45 35872 291 268 66 202 35581 5287 1105 610
internal_count=217633 37276 37245 37101 116 49 144 83 36985 62 36923 36903 152 36751 711 682 45 36040 168 87 45 35872 291 268 66 202 35581 5287 1105 610
shrinkage=0.05


Tree=515
num_leaves=31
num_cat=0
split_feature=40 20 16 14 6 33 23 5 17 36 36 0 1 9 5 29 16 17 11 22 22 22 5 18 13 16 33 30 32 14
split_gain=0.00218431 0.0171362 0.162762 0.130461 0.0671784 0.121455 0.079819 0.0637329 0.0623734 0.0614667 0.19945 0.196304 0.056857 0.186936 0.0465747 0.0485979 0.044772 0.0379096 0.0275251 0.0256934 0.0872281 0.0567918 0.0331393 0.0335388 0.053471 0.0265296 0.0391648 0.0252558 0.0754247 0.0208432
threshold=-1.3566450000000001 -15.921249999999999 4.2063200000000008e-08 3.0701000000000005e-08 8.9452500000000013e-07 4.353285000000001e-06 -9.4049749999999992e-05 1.4537250000000002e-05 -5.8330499999999992 -0.10081500000000009 0.10022550000000004 1.3093650000000003 4.2601300000000011 3.0643750000000003e-05 7.4666350000000006e-06 1.8894300000000003e-05 0.0030314700000000005 6.669455000000001 0.0037958600000000003 2.5401000000000002 1.9823250000000001 3.0293700000000006 4.3974200000000003e-05 -4.3345499999999992 3.0231500000000004e-06 0.0024010250000000006 -4.1753649999999992e-07 1.0464450000000001 -0.013126049999999998 3.4285950000000007e-05
decision_type=2 2 2 2 2 2 2 2 2 2 2 2 2 2 2 2 2 2 2 2 2 2 2 2 2 2 2 2 2 2
left_child=-1 2 3 -2 8 6 16 -5 -4 -8 11 -11 14 -14 15 -10 -6 19 -13 20 22 -21 23 24 -16 26 -23 28 -25 -27
right_child=1 -3 4 7 5 -7 9 -9 12 10 -12 18 13 -15 17 -17 -18 -19 -20 21 -22 25 -24 27 -26 29 -28 -29 -30 -31
leaf_value=5.3509194644132913e-06 0.00033248730534046999 -6.9979260925691135e-06 -0.0025357358240095593 0.0063412217091263299 -0.0031363418325088877 0.0035854116796643562 -0.00013901303724738452 0.0023973845858563437 4.6140296829187059e-05 0.0057164046927171419 -0.00018904199728281921 0.0022637627719502367 -0.00026102888956767517 -0.0051540761435361401 -0.00031724032168225775 0.0034516109284595587 -0.00036833353754749023 0.0018849575330568769 -0.00014982702796933827 -0.003205652518518036 0.0029207016061991455 -0.0007599363503370273 0.0013979109211908914 0.00299532695353264 -0.0029578166165335393 -0.0021577697848324138 0.0022653983726195295 -0.0014584277872927488 -5.6959862469486164e-05 -0.00017119621306553581
leaf_weight=101645 41 114338 27 20 21 31 141 21 22 38 109 21 129 23 73 20 48 25 27 20 25 23 36 21 26 23 20 29 559 31
leaf_count=101645 41 114338 27 20 21 31 141 21 22 38 109 21 129 23 73 20 48 25 27 20 25 23 36 21 26 23 20 29 559 31
internal_value=0 -4.68923e-06 0.000155294 0.00232685 4.17303e-05 0.000569072 0.000338191 0.00432121 -0.00016138 0.000656282 0.00123134 0.00303159 -0.000103364 -0.00100142 3.98733e-05 0.00166779 -0.00121077 -3.51789e-05 0.000906119 -8.93589e-05 1.56664e-05 -0.000779653 -8.1949e-05 -0.000157196 -0.00101073 -0.000279447 0.000647196 -1.84452e-05 5.3554e-05 -0.00101733
internal_weight=0 115988 1650 82 1568 436 405 41 1132 336 195 86 1105 152 953 42 69 911 48 886 769 117 744 708 99 97 43 609 580 54
internal_count=217633 115988 1650 82 1568 436 405 41 1132 336 195 86 1105 152 953 42 69 911 48 886 769 117 744 708 99 97 43 609 580 54
shrinkage=0.05


Tree=516
num_leaves=31
num_cat=0
split_feature=26 17 3 8 7 32 36 13 8 8 14 30 2 36 40 2 19 31 40 7 8 39 20 20 36 22 39 20 17 39
split_gain=0.00215608 0.027772 0.0725738 0.0550036 0.0894989 0.137948 0.241075 0.0722808 0.121309 0.0499967 0.0214157 0.0187486 0.0266708 0.0882381 0.021734 0.0161185 0.258656 0.0326607 0.0119947 0.0670862 0.12886 0.171565 0.137228 0.0725072 0.0737836 0.0419905 0.106712 0.0761034 0.0841458 0.115184
threshold=0.030416150000000003 3.0677450000000004 -18.305499999999995 2.5919250000000001e-05 -9.3061799999999994e-06 0.020652350000000003 -0.17527649999999997 6.9009750000000011e-07 2.1587450000000003e-05 1.0512900000000001e-05 2.7688750000000005e-05 1.3837400000000002 -2.4290249999999998 -0.3562499999999999 5.9270900000000006 -3.0487399999999996 2.9809550000000002 -0.21631099999999998 -0.98309000000000013 -5.5880499999999995e-05 5.8157500000000007e-05 -0.77143500000000065 -14.758849999999999 -17.193949999999997 0.02582950000000005 1.8789550000000002 -0.19603999999999996 -9.6620099999999969 -2.3663549999999995 -0.99152500000000054
decision_type=2 2 2 2 2 2 2 2 2 2 2 2 2 2 2 2 2 2 2 2 2 2 2 2 2 2 2 2 2 2
left_child=-1 15 -3 4 5 6 -4 -7 -9 -6 -11 12 13 -5 -13 16 17 -2 -17 20 21 -20 -22 24 -21 26 -24 -27 -29 -30
right_child=1 2 3 11 9 7 -8 8 -10 10 -12 14 -14 -15 -16 18 -18 -19 19 23 22 -23 25 -25 -26 27 -28 28 29 -31
leaf_value=-1.7890828122403171e-06 -0.0020257816907750174 0.0030629535637589555 -0.00040433488196867985 -0.0001716626471898053 0.0023536175665261304 -0.00014104030932230672 0.00678308344629061 -0.0001911222987638956 0.0051892853621393446 -0.00013014579497739036 0.0011547386653849875 -0.00016026498937768972 5.7715115409782234e-05 0.0038958489429205658 -0.0017270935340607336 2.5342006787078033e-05 0.00556458852036237 6.7787889994785179e-05 0.00028827831082162451 -0.0042498233374707135 0.0043181349126098214 0.0065013317990951702 -0.00072116048343013976 -7.2241439989895837e-05 -6.3929787211236556e-06 -0.0015837299073767929 0.0040535233918820848 -5.3868363066145609e-05 0.0050796097342390573 -1.1201893561519682e-05
leaf_weight=192726 21 22 20 40 24 90 28 22 20 327 36 587 423 20 23 13737 22 165 25 21 20 20 25 8684 20 69 22 329 20 25
leaf_count=192726 21 22 20 40 24 90 28 22 20 327 36 587 423 20 23 13737 22 165 25 21 20 20 25 8684 20 69 22 329 20 25
internal_value=0 1.38436e-05 0.000210034 0.000172224 0.000571829 0.00149293 0.00378833 0.000658238 0.00237098 0.00014341 -2.71924e-06 -3.50729e-05 0.000197648 0.00118417 -0.000219342 -3.64876e-07 0.00043781 -0.000168583 -4.32458e-06 -4.82394e-05 0.000484787 0.00304964 0.000258477 -8.21454e-05 -0.00217986 9.27767e-05 0.0015138 -5.79862e-05 0.000223501 0.00225138
internal_weight=0 24907 1682 1660 567 180 48 132 42 387 363 1093 483 60 610 23225 208 186 23017 9280 555 45 510 8725 41 490 47 443 374 45
internal_count=217633 24907 1682 1660 567 180 48 132 42 387 363 1093 483 60 610 23225 208 186 23017 9280 555 45 510 8725 41 490 47 443 374 45
shrinkage=0.05


Tree=517
num_leaves=31
num_cat=0
split_feature=24 14 14 15 21 4 36 37 14 39 36 15 17 14 21 7 19 3 13 14 19 32 13 18 36 25 12 13 18 36
split_gain=0.00217064 0.0120557 0.0378501 0.0544207 0.0288766 0.0578727 0.102616 0.30395 0.131644 0.0297748 0.0255415 0.0253901 0.0604945 0.0249793 0.0751066 0.0193242 0.0466956 0.0555543 0.0280291 0.153005 0.0606817 0.107146 0.0425732 0.0292636 0.0634184 0.0244297 0.0330068 0.0170712 0.0322931 0.0603359
threshold=29.419400000000007 1.1464000000000004e-06 3.6875050000000006e-06 0.00034847100000000005 1.5291850000000002 4.1822950000000008 -0.68744999999999989 -0.43858299999999995 1.0770700000000002e-05 0.13650500000000013 -0.17527649999999997 2.8533150000000003e-05 -19.608449999999998 5.4117700000000011e-07 0.97666950000000008 -2.9834549999999997e-05 -2.7774649999999994 -7.4119349999999988 6.5238050000000013e-06 -2.1912049999999994e-06 -2.2401749999999994 0.34392800000000007 3.6544900000000005e-06 6.8989050000000001 -0.57440449999999987 -0.96676949999999995 -2.9419199999999994e-05 1.9598050000000002e-06 0.69234250000000008 -0.22452634999999985
decision_type=2 2 2 2 2 2 2 2 2 2 2 2 2 2 2 2 2 2 2 2 2 2 2 2 2 2 2 2 2 2
left_child=-1 11 3 27 -4 6 -6 9 -9 -8 -7 15 -13 -14 -15 16 17 -2 22 20 21 -20 -17 25 -25 26 -22 -3 -29 -30
right_child=1 2 4 -5 5 10 7 8 -10 -11 -12 12 13 14 -16 18 -18 -19 19 -21 23 -23 -24 24 -26 -27 -28 28 29 -31
leaf_value=8.7747332647987114e-07 -0.0036602390237108228 -0.00020982186234024718 -9.9628202701038939e-05 -0.0024774505181085261 -0.00050831206892160651 -1.8380658858168991e-05 0.0015809190600703006 0.0014056627865647899 0.0065179305147680944 -0.00060659787780813147 -0.0018010475356277313 0.0030206791393786927 -1.093938593366631e-05 -0.00066612089541801358 0.0033322988949847695 1.7654501277420795e-05 -0.00012920528900246499 -0.00013880142781393565 -0.0006695628122542985 0.0037646440162575345 0.00010758971249742901 0.0044440227508034912 -0.0018171027383004912 -0.00016183849496596132 0.0026591917168978536 -0.00014240268247076843 -0.002551898330317012 -0.00020807370467028068 -0.00022724442994028019 -0.0038970982648953351
leaf_weight=211114 21 424 1460 32 88 54 20 20 34 70 32 22 171 24 23 2641 846 24 20 32 20 21 32 76 27 145 28 67 24 21
leaf_count=211114 21 424 1460 32 88 54 20 20 34 70 32 22 171 24 23 2641 846 24 20 32 20 21 32 76 27 145 28 67 24 21
internal_value=0 -2.84165e-05 -0.000119101 -0.000474431 -5.5879e-06 0.000426169 0.000836845 0.00165888 0.0046245 -0.000120483 -0.000681699 2.25653e-05 0.000521834 0.000269658 0.00129055 -7.90113e-06 -0.000212687 -0.00178214 5.20805e-05 0.000460571 0.000146831 0.00194959 -4.31042e-06 -0.000102876 0.000577655 -0.000466061 -0.00144378 -0.000354848 -0.000903874 -0.00193984
internal_weight=0 6519 2346 568 1778 318 232 144 54 90 86 4173 240 218 47 3933 891 45 3042 369 337 41 2673 296 103 193 48 536 112 45
internal_count=217633 6519 2346 568 1778 318 232 144 54 90 86 4173 240 218 47 3933 891 45 3042 369 337 41 2673 296 103 193 48 536 112 45
shrinkage=0.05


Tree=518
num_leaves=31
num_cat=0
split_feature=24 3 3 0 13 40 18 36 1 29 19 16 15 27 5 9 33 9 13 36 9 15 29 3 36 36 13 26 13 35
split_gain=0.00215715 0.0101822 0.0173377 0.0540087 0.0149962 0.0208806 0.0195657 0.0249232 0.0126427 0.0207504 0.0190672 0.0148572 0.00929637 0.0103452 0.00922287 0.0126342 0.0199958 0.0168586 0.0146206 0.0180549 0.0133389 0.0100975 0.00847722 0.00815633 0.018003 0.0407841 0.0177164 0.0422947 0.0367123 0.00871611
threshold=91.481750000000019 -13.009399999999998 -11.515449999999998 5.4701800000000009 -5.1699099999999993e-06 5.9270900000000006 -19.754149999999996 -0.65889149999999985 2.7855300000000005 -0.00090391799999999997 -0.90610399999999991 0.0043173400000000011 0.0073236350000000011 0.35534200000000005 8.1441900000000017e-06 6.0793300000000006e-05 0.00019513800000000003 5.0670100000000008e-05 -1.1710799999999998e-05 0.60008550000000016 0.00013888100000000001 -0.0101368 0.00091355850000000014 -8.9021549999999987 0.51872500000000021 -0.60254799999999997 1.3884700000000001e-05 0.34967900000000007 3.9398900000000012e-06 0.8356380000000001
decision_type=2 2 2 2 2 2 2 2 2 2 2 2 2 2 2 2 2 2 2 2 2 2 2 2 2 2 2 2 2 2
left_child=-1 4 3 12 5 -2 7 -6 10 -10 -8 -12 13 -3 -4 17 20 21 -18 -20 -17 -16 -22 24 25 -23 28 -28 -25 -26
right_child=1 2 14 -5 6 -7 8 -9 9 -11 11 -13 -14 -15 15 16 18 -19 19 -21 22 23 -24 26 29 -27 27 -29 -30 -31
leaf_value=4.2812850400207167e-07 -0.0018103265492956982 6.3661108151200695e-05 0.0007242910950784184 0.0029301920672878626 -0.00038522021910466722 -5.4953896142251328e-05 -0.0012241322617046536 0.0021109354292275385 -0.0021784064391712574 -0.00012640433352706688 -0.00019078555865451648 0.0013300498416356278 -0.00083348172206786423 0.00133999933837913 0.00091844212841421654 -0.00065980991853899066 -0.00019856275504186191 0.0012363736759792888 -0.0023710341080380925 -0.00053747520502656705 2.7384612595024347e-05 -0.00021814676607413366 0.001366832139042561 2.4402567764434167e-06 -0.00017606265511527786 -0.0023962905617422783 0.0022064391673634891 -0.00034382418901234793 -0.0016827219781322023 0.00090763957789801819
leaf_weight=216035 36 77 36 20 20 32 25 20 22 28 42 26 21 20 26 36 34 26 29 25 27 83 21 654 55 29 29 37 34 28
leaf_count=216035 36 77 36 20 20 32 25 20 22 28 42 26 21 20 26 36 34 26 29 25 27 83 21 654 55 29 29 37 34 28
internal_value=0 -5.78791e-05 -3.39682e-06 0.000527555 -0.00035026 -0.000984269 -0.000114672 0.000862858 -0.000388107 -0.00102929 -4.33871e-05 0.00039071 0.000120329 0.000326824 -6.40018e-05 -8.81949e-05 -0.00048406 -2.01741e-05 -0.00101077 -0.00152216 6.77346e-05 -5.36821e-05 0.000613393 -8.03156e-05 -0.000368555 -0.00078213 -5.77106e-06 0.000776746 -8.08381e-05 0.000189524
internal_weight=0 1598 1347 138 251 68 183 40 143 50 93 68 118 97 1209 1173 172 1001 88 54 84 975 48 949 195 112 754 66 688 83
internal_count=217633 1598 1347 138 251 68 183 40 143 50 93 68 118 97 1209 1173 172 1001 88 54 84 975 48 949 195 112 754 66 688 83
shrinkage=0.05


Tree=519
num_leaves=31
num_cat=0
split_feature=4 21 4 36 36 40 40 17 18 1 13 17 17 36 22 17 8 18 39 36 20 0 20 17 20 1 39 36 9 26
split_gain=0.00215675 0.0274498 0.0967553 0.107972 0.392345 0.227253 0.28474 0.347491 0.28779 0.620035 0.264612 0.284441 0.237391 0.375482 0.2561 0.239697 0.209392 0.188263 0.193602 0.25242 0.193138 0.160234 0.159566 0.210722 0.157542 0.27214 0.147363 0.146596 0.132962 0.155282
threshold=0.19669200000000001 0.20390150000000004 1.0072750000000001 0.38220950000000015 -0.22452634999999985 2.9908550000000012 0.55624500000000021 -4.5635999999999983 7.7901800000000012 6.1111750000000002 1.0372650000000001e-07 3.2523950000000004 8.1756000000000011 -0.058960000000000005 23.183300000000006 -10.617499999999998 2.8627100000000002e-05 -7.1421249999999992 0.13650500000000013 0.056773999999999998 -10.712249999999999 7.9432600000000013 -9.9556199999999979 -6.4328999999999992 -12.599549999999999 -5.2034849999999997 0.85052500000000031 -0.058960000000000005 2.1571850000000003e-05 -0.031026849999999998
decision_type=2 2 2 2 2 2 2 2 2 2 2 2 2 2 2 2 2 2 2 2 2 2 2 2 2 2 2 2 2 2
left_child=-1 -2 3 4 -3 6 8 -8 12 -10 24 16 14 -14 15 -6 -12 20 19 27 -17 -15 23 26 -9 -26 -20 -19 29 -11
right_child=1 2 -4 -5 5 -7 7 10 9 28 11 -13 13 21 -16 17 -18 18 22 -21 -22 -23 -24 -25 25 -27 -28 -29 -30 -31
leaf_value=-3.1743394817064659e-06 -1.1077798202515044e-05 -1.5284568944519895e-05 -3.7358714164284036e-05 -5.5144731969872761e-05 0.00427205346730681 -0.0013589463032794334 -0.0020475939090829343 0.0030447427498837636 0.0091947702645894993 0.0058821042755707389 0.001777360922741619 -0.00092351651426566682 0.0080147459297082758 0.004400393788595326 -0.0050224162077277222 0.0064166643534831341 0.0079153310662756372 0.0041663235295951988 0.00036955036838272858 0.0051204572373535484 0.001176113291965656 -0.00032334886418539099 -0.0035048673570639479 -0.00082738875903407482 0.0043721772044331636 0.01190183584528443 0.0059889615689280619 7.8140969529294678e-05 -0.0023239724404577698 0.0010862803534702073
leaf_weight=154710 47420 2453 9234 2303 39 95 31 31 31 21 33 46 26 26 22 21 24 24 28 32 108 58 46 341 28 21 20 254 21 86
leaf_count=154710 47420 2453 9234 2303 39 95 31 31 31 21 33 46 26 26 22 21 24 24 28 32 108 58 46 341 28 21 20 254 21 86
internal_value=0 7.80481e-06 6.55622e-05 0.000217161 0.000375285 0.00100851 0.00116712 0.00284771 0.000868408 0.00285018 0.00367697 0.00200135 0.000566875 0.00276399 0.00030839 0.000436843 0.00436177 0.000265707 -3.96545e-05 0.000915143 0.00202923 0.00113876 -0.000720085 -0.000390779 0.00583433 0.00759917 0.00271097 0.000431078 0.0013136 0.00202752
internal_weight=0 62923 15503 6269 3966 1513 1418 214 1204 159 183 103 1045 110 935 913 57 874 745 310 129 84 435 389 80 49 48 278 128 107
internal_count=217633 62923 15503 6269 3966 1513 1418 214 1204 159 183 103 1045 110 935 913 57 874 745 310 129 84 435 389 80 49 48 278 128 107
shrinkage=0.05


Tree=520
num_leaves=31
num_cat=0
split_feature=36 36 5 3 39 12 10 8 32 27 34 15 36 6 23 28 40 11 17 39 20 16 33 9 40 39 6 40 9 40
split_gain=0.0023943 0.0399897 0.0805052 0.130564 0.262412 0.272141 0.38509 0.0973265 0.091949 0.121563 0.0928318 0.105623 0.142173 0.153666 0.129476 0.0811135 0.125938 0.296726 0.246667 0.267118 0.350946 0.283514 0.218246 0.278589 0.167783 0.42039 0.216945 0.157371 0.144983 0.128566
threshold=-0.19934349999999995 -0.018010000000000078 9.0806150000000018e-06 -14.092499999999999 -2.1822199999999996 -1.6963049999999999e-06 8.8270500000000005e-06 3.7564000000000008e-05 0.0055718750000000013 0.0022754050000000007 -8.2807199999999982e-05 -5.1821499999999985e-07 -0.12496499999999998 1.2112450000000003e-07 -0.00012641899999999998 0.31163200000000008 -0.68809499999999957 0.00015638100000000001 0.70659250000000007 -0.71725499999999964 -7.7770649999999995 6.3553350000000007e-07 -1.0243099999999997e-06 -4.2495899999999994e-05 2.5888900000000006 -0.15760999999999911 -5.7203749999999994e-08 1.151035 -2.1646949999999998e-05 1.9491550000000004
decision_type=2 2 2 2 2 2 2 2 2 2 2 2 2 2 2 2 2 2 2 2 2 2 2 2 2 2 2 2 2 2
left_child=-1 2 3 4 -2 -6 -7 8 10 -10 11 -5 -13 14 -14 -4 -17 -18 19 22 21 -21 23 -19 25 26 -20 -24 -22 -29
right_child=1 -3 15 7 5 6 -8 -9 9 -11 -12 12 13 -15 -16 16 17 18 24 20 28 -23 27 -25 -26 -27 -28 29 -30 -31
leaf_value=5.7492867388185872e-06 -0.0003253279215335098 2.8644142601516614e-06 -9.6738020924794295e-05 -0.00053839664267735351 -0.0015618836076464505 0.0016094039962303618 0.0092796886463960022 -0.0029203901981452 -0.0047540253464831046 -0.00028815412607343662 -0.0002279769329218477 -0.00055882115460311377 0.0041408959981897074 0.0057931905842534357 -0.0002953125867000046 -8.3149738361295376e-05 -0.0068722393993415273 0.00066761030995456333 -0.0031861249656815619 -0.0085562948242295534 -0.0006915250502061099 -0.0018370213694627277 0.0040292807078609865 0.0088212264401954597 -0.00056632301626393657 -0.00011958666291320697 -0.0099089876133283336 -0.0041842358053794928 0.005328928803210147 0.0004511177150002018
leaf_weight=98843 89 111070 6006 58 20 36 30 27 20 64 228 39 29 33 38 559 22 22 21 20 20 73 21 20 64 40 28 21 20 52
leaf_count=98843 89 111070 6006 58 20 36 30 27 20 64 228 39 29 33 38 559 22 22 21 20 20 73 21 20 64 40 28 21 20 52
internal_value=0 -4.78388e-06 -0.000114822 0.000392129 0.00157793 0.00354758 0.0050959 4.97522e-06 0.000160152 -0.00135146 0.000458917 0.0012539 0.00200177 0.00300039 0.00162484 -0.000166248 -0.000582475 -0.00121113 -0.000916002 -4.32848e-06 -0.0015976 -0.00328203 0.00155379 0.00455028 -0.00251888 -0.00392296 -0.00702776 0.000214937 0.0023187 -0.00088234
internal_weight=0 118790 7720 711 175 86 66 536 509 84 425 197 139 100 67 7009 1003 444 422 269 133 93 136 42 153 89 49 94 40 73
internal_count=217633 118790 7720 711 175 86 66 536 509 84 425 197 139 100 67 7009 1003 444 422 269 133 93 136 42 153 89 49 94 40 73
shrinkage=0.05


Tree=521
num_leaves=31
num_cat=0
split_feature=5 29 12 37 0 4 12 34 36 36 26 31 3 9 0 4 36 36 23 13 10 28 3 19 18 10 32 13 16 23
split_gain=0.00238004 0.0153777 0.102587 0.15049 0.0274451 0.0851049 0.0202586 0.0392895 0.033805 0.0594054 0.0272893 0.0190474 0.0209527 0.0371903 0.0361068 0.023364 0.0216371 0.121698 0.0647596 0.0501311 0.0146302 0.0129812 0.077926 0.0405305 0.0174989 0.0192959 0.0137295 0.0510536 0.0977407 0.0150428
threshold=1.0004950000000002e-05 0.0002933525000000001 5.1880700000000008e-06 0.43359400000000009 8.7505950000000023 -0.11971949999999999 -6.4763899999999986e-07 0.42223950000000005 1.1294060000000001 -0.71412249999999966 -0.15264749999999996 0.098593250000000007 -8.9455249999999982 3.1686600000000003e-05 7.4151700000000007 0.43776750000000003 0.51872500000000021 -0.32870999999999989 -0.0029059199999999998 4.5156700000000009e-08 -2.7794449999999996e-05 3.1099700000000006 -15.624449999999998 -2.4279499999999996 -10.569349999999998 6.4449800000000021e-05 -0.14294799999999999 -2.2582199999999995e-06 0.00051133100000000018 -0.013856449999999998
decision_type=2 2 2 2 2 2 2 2 2 2 2 2 2 2 2 2 2 2 2 2 2 2 2 2 2 2 2 2 2 2
left_child=1 11 4 -4 6 -6 7 10 9 -9 -3 21 14 15 16 -14 17 -13 -19 -20 -8 26 -23 -24 -25 -26 27 28 -1 -28
right_child=-2 2 3 -5 5 -7 20 8 -10 -11 -12 12 13 -15 -16 -17 -18 18 19 -21 -22 22 23 24 25 -27 29 -29 -30 -31
leaf_value=-0.003753790663151825 2.1341402893687168e-06 -0.00079726654498483106 0.0044936405559383276 -0.00095360982730718609 0.0037208245649890158 5.508918897679618e-05 0.0013864265329357297 -0.00020763557608006523 -4.9611231086851934e-05 -0.0038636203836649656 0.0016957137185786648 -2.3918860346665055e-05 1.7797794369011487e-05 0.0021371861951774919 -0.0024494584217401492 -0.0015840433386983934 -2.2981621214217229e-05 0.00023211176642992846 -0.0017381657285640312 -0.0044723363676651686 -1.1161487757416913e-06 0.0026921082956476079 0.0020877249388087712 -0.0014994446058567107 -0.00018536130879841619 0.0013493530826805078 -0.00076949422043981041 -1.1485351603426295e-05 -7.730041659594159e-05 -7.9916950931261477e-06
leaf_weight=29 186555 21 32 21 20 76 20 20 29 25 23 235 442 20 21 24 285 21 38 30 379 31 22 22 187 23 65 286 48 28583
leaf_count=29 186555 21 32 21 20 76 20 20 29 25 23 235 442 20 21 24 285 21 38 30 379 31 22 22 187 23 65 286 48 28583
internal_value=0 -1.28108e-05 0.000224859 0.0023353 4.23909e-05 0.000818784 -0.000101775 -0.000677315 -0.00138084 -0.00223874 0.000505882 -1.80156e-05 -0.000220755 2.59122e-05 -0.00041104 -6.47005e-05 -0.00034075 -0.000620268 -0.0021949 -0.00294442 6.84349e-05 -1.02925e-05 0.000325509 3.66721e-05 -0.000157824 -1.72735e-05 -1.35914e-05 -0.00031916 -0.00146195 -9.71948e-06
internal_weight=0 31078 666 53 613 96 517 118 74 45 44 30412 1116 486 630 466 609 324 89 68 399 29296 285 254 232 210 29011 363 77 28648
internal_count=217633 31078 666 53 613 96 517 118 74 45 44 30412 1116 486 630 466 609 324 89 68 399 29296 285 254 232 210 29011 363 77 28648
shrinkage=0.05


Tree=522
num_leaves=31
num_cat=0
split_feature=40 34 4 18 10 8 10 0 26 23 13 15 12 10 13 20 30 15 7 13 36 39 3 15 3 2 18 39 8 39
split_gain=0.00225385 0.0101019 0.0152702 0.007282 0.0292432 0.0218641 0.0255334 0.067939 0.148016 0.0489304 0.115656 0.0453322 0.0490149 0.0411526 0.0373698 0.0327002 0.0281523 0.0275843 0.0259101 0.0128161 0.0125293 0.011461 0.0110463 0.0134785 0.0104809 0.00990028 0.00900681 0.00786182 0.0361141 0.0318737
threshold=2.4429550000000004 1.8271150000000003 -0.38361349999999994 14.999250000000002 -5.5913199999999999e-05 0.00012201000000000002 1.8732900000000002e-05 8.7505950000000023 -0.24353549999999999 -0.0090542049999999975 9.9131400000000028e-06 7.6735600000000018e-05 -2.0464649999999995e-06 2.2707500000000002e-05 3.3134750000000005e-06 -6.388704999999999 7.9426800000000002 -2.3744499999999999e-05 3.5461000000000012e-05 1.0552950000000002e-06 -0.30278099999999991 0.27381999999999979 -5.4168649999999987 4.8129750000000003e-06 -5.5710999999999995 -0.13256349999999997 18.392150000000004 0.85052500000000031 1.0226700000000002e-05 0.64319500000000052
decision_type=2 2 2 2 2 2 2 2 2 2 2 2 2 2 2 2 2 2 2 2 2 2 2 2 2 2 2 2 2 2
left_child=3 -2 -3 27 -5 6 11 9 -9 10 -8 12 -6 -11 17 18 -13 -14 20 22 -15 -22 23 24 -19 -24 -27 28 -1 -30
right_child=1 2 -4 4 5 -7 7 8 -10 13 -12 16 14 15 -16 -17 -18 19 -20 -21 21 -23 25 -25 -26 26 -28 -29 29 -31
leaf_value=0.00026160164127454755 1.0659303613952136e-05 -0.0015381378647781766 -0.00011632470460439884 0.0016137583180352523 0.0019039800614657851 -0.00073779533490060689 1.9923840977220664e-05 0.0053309110341139051 -0.00060558676942448417 0.0020332765553393983 0.0038262564102830043 -0.0004048046427752442 0.0016883507528897706 -4.3136657973455006e-05 -0.0020709108978983503 -0.0022632518737736975 -0.0029967449617106469 1.0802689824653214e-05 0.0014360837284703334 0.0011355734931633131 -8.371056627947837e-05 -0.0014621547144519067 -3.6817329849949793e-05 -0.001032732048055362 0.00099909052045530126 -0.00045500867968455524 -0.00188722350922901 4.2220906571016178e-06 -1.3487790335098789e-05 -0.0001567630858334458
leaf_weight=1128 47423 26 69 32 34 76 64 21 21 20 29 22 24 119 22 20 20 358 23 22 25 38 38 29 29 23 21 111367 52297 4193
leaf_count=1128 47423 26 69 32 34 76 64 21 21 20 29 22 24 119 22 20 20 358 23 22 25 38 38 29 29 23 21 111367 52297 4193
internal_value=0 9.62747e-06 -0.000505453 -2.68923e-06 0.000123816 8.03934e-05 0.000141237 0.000466081 0.00236266 0.000230411 0.00120684 -5.10381e-05 6.01235e-05 -0.000140235 -5.06382e-05 -0.000333436 -0.00163906 3.1064e-05 -0.000145161 -4.54261e-05 -0.000344988 -0.000915153 -9.75988e-05 6.95134e-06 8.48604e-05 -0.000627999 -0.00113857 -3.53517e-06 -1.85288e-05 -2.41225e-05
internal_weight=0 47518 95 170115 1130 1098 1022 380 42 338 93 642 600 245 566 225 42 544 205 520 182 63 498 416 387 82 44 168985 57618 56490
internal_count=217633 47518 95 170115 1130 1098 1022 380 42 338 93 642 600 245 566 225 42 544 205 520 182 63 498 416 387 82 44 168985 57618 56490
shrinkage=0.05


Tree=523
num_leaves=31
num_cat=0
split_feature=5 29 14 16 17 5 4 26 25 11 1 1 28 2 3 7 33 3 20 5 21 36 3 33 5 26 7 2 26 5
split_gain=0.00228997 0.0139615 0.0637518 0.0433826 0.0515657 0.0187167 0.0173277 0.0242729 0.0150395 0.0488861 0.0388221 0.0351401 0.0185392 0.0552472 0.106164 0.0148581 0.0125289 0.0469555 0.0493884 0.0872018 0.0645616 0.0570366 0.0367296 0.0435521 0.0193496 0.0181609 0.066726 0.020186 0.0177177 0.150751
threshold=1.0004950000000002e-05 0.0002933525000000001 -6.3032849999999992e-06 0.0056758050000000008 19.256550000000001 6.5656500000000012e-06 -0.16366899999999998 -0.78911549999999997 -0.48753549999999996 0.0090263400000000025 -5.6681399999999993 -4.1345949999999991 3.7022150000000003 -1.2057699999999998 -11.334749999999998 -3.0612349999999988e-05 -3.892934999999999e-07 -14.947699999999999 -15.138399999999999 9.657510000000001e-06 -0.41616849999999994 0.38220950000000015 -14.703099999999997 -8.5509449999999993e-07 7.4666350000000006e-06 0.24911750000000002 -3.2223699999999994e-05 2.5248350000000008 0.13068350000000004 6.9938750000000009e-06
decision_type=2 2 2 2 2 2 2 2 2 2 2 2 2 2 2 2 2 2 2 2 2 2 2 2 2 2 2 2 2 2
left_child=1 8 -3 4 5 -4 7 -7 9 10 -1 -12 16 14 -14 -16 17 18 19 20 21 -10 23 -19 -22 28 -27 -28 -18 -30
right_child=-2 2 3 -5 -6 6 -8 -9 12 -11 11 -13 13 -15 15 -17 25 22 -20 -21 24 -23 -24 -25 -26 26 27 -29 29 -31
leaf_value=-0.0015953017659076315 2.0933703938285471e-06 0.0021753608004357189 -0.0016244630036817401 0.0017770330357355609 0.0019412774516240463 -0.0017417000486816773 7.2672449238071938e-05 -0.00011706090068580291 -0.0033712804836354086 -0.002136653533192917 0.002105577604552742 -7.2243637908628257e-05 0.0038950933149517995 -0.00024900923176279257 0.00096683018646217536 -0.00077487332792952656 -3.2317122747952472e-06 0.0026865391178775844 -0.00013112633968076091 -0.0032262235142961554 0.00095411789377741968 -0.00027962616737708094 -4.0862240738443119e-05 -0.00024079335770087106 -0.00040607222365138739 -0.0028698243025282867 -1.419408767250654e-05 -0.0015393203543074682 0.0044653284044692387 8.6042079990078662e-05
leaf_weight=37 186555 39 20 36 32 34 434 71 35 35 21 157 29 108 24 25 24302 27 470 37 31 26 4255 24 167 25 226 24 21 306
leaf_count=37 186555 39 20 36 32 34 434 71 35 35 21 157 29 108 24 25 24302 27 470 37 31 26 4255 24 167 25 226 24 21 306
internal_value=0 -1.25661e-05 0.000213896 9.18908e-05 -1.07575e-05 -0.000122502 -6.67705e-05 -0.000643135 -1.75254e-05 -0.000403737 -0.000121634 0.00018469 -1.43243e-05 0.000483316 0.00149731 7.82059e-05 -1.74121e-05 -8.90403e-05 -0.00044974 -0.000955648 -0.00063128 -0.00205353 -2.48749e-05 0.00130897 -0.000193113 -2.82418e-06 -0.000406899 -0.000160606 1.68759e-06 0.000367281
internal_weight=0 31078 666 627 591 559 539 105 30412 250 215 178 30162 186 78 49 29976 5072 766 296 259 61 4306 51 198 24904 275 250 24629 327
internal_count=217633 31078 666 627 591 559 539 105 30412 250 215 178 30162 186 78 49 29976 5072 766 296 259 61 4306 51 198 24904 275 250 24629 327
shrinkage=0.05


Tree=524
num_leaves=31
num_cat=0
split_feature=33 19 36 12 39 6 11 2 0 18 19 37 18 5 0 29 0 14 14 39 31 23 2 12 28 7 39 9 0 2
split_gain=0.00219719 0.0115492 0.0902234 0.190305 0.275054 0.08099 0.0982571 0.0779354 0.0839955 0.0625893 0.0121825 0.0756747 0.150652 0.133727 0.0385012 0.0366167 0.0942642 0.0373165 0.0621316 0.0385692 0.0123973 0.0109162 0.0435965 0.0240654 0.0416975 0.0198894 0.0175681 0.0134163 0.0140503 0.0100576
threshold=5.735360000000001e-08 -2.7774649999999994 0.2761725000000001 1.9390250000000003e-07 0.93421999999999994 -4.3754449999999995e-07 0.0025934100000000004 -2.7703699999999993 -9.1205449999999981 -0.96371899999999988 -2.5336099999999995 -0.33012499999999995 -6.9314949999999991 3.2672850000000007e-05 -4.5705949999999991 -0.00012302899999999995 -7.8686199999999991 1.1291000000000001e-07 2.4653500000000006e-07 -0.026199999999999776 -0.012144499999999997 0.011675600000000003 -2.7703699999999993 2.8964050000000007e-06 1.7034250000000002 8.2391300000000012e-05 2.84389 -5.9599849999999995e-05 -4.5031199999999991 3.0333000000000006
decision_type=2 2 2 2 2 2 2 2 2 2 2 2 2 2 2 2 2 2 2 2 2 2 2 2 2 2 2 2 2 2
left_child=21 2 3 5 -5 7 -7 8 -2 -10 11 -3 -13 14 15 16 -14 19 -19 -17 -20 -1 -23 25 26 27 -25 28 -24 -4
right_child=1 10 29 4 -6 6 -8 -9 9 -11 -12 12 13 -15 -16 17 -18 18 20 -21 -22 22 23 24 -26 -27 -28 -29 -30 -31
leaf_value=2.4891411016155464e-06 -0.0008197741983828812 -8.4167583458949306e-06 7.0344037745665457e-07 -0.0081010159107834292 -0.001003392389154611 -0.0044822950358502566 1.2823795940118631e-05 -0.0013878682010302632 0.0011998585833719953 0.005024365319404752 -8.1890267749148716e-06 0.0039099766783848673 -0.00058003818162630878 0.0035495562262469558 -0.0017102136564399524 -0.0023105388134286773 0.0041134811774827546 0.0024871821947840544 -0.0011975645902566612 -8.5971561015217701e-05 0.00026859680925237785 0.0024084131204290316 -0.00016436296076183983 -0.00011997753527324559 0.0027471416752880696 0.001424523813023949 0.0015842540736775844 -4.7968514806059089e-06 -0.0018279382089862008 -0.00098974202478879867
leaf_weight=152003 22 1979 1808 21 39 20 31 30 23 20 60745 35 23 31 27 27 20 32 21 70 46 22 30 62 22 22 20 334 22 26
leaf_count=152003 22 1979 1808 21 39 20 31 30 23 20 60745 35 23 31 27 27 20 32 21 70 46 22 30 62 22 22 20 334 22 26
internal_value=0 -7.69045e-06 -0.00012478 -0.00111694 -0.00348756 -0.000142708 -0.00174997 0.000720137 0.00169306 0.0029787 -3.90236e-06 0.000108773 0.000807326 0.000441694 7.94994e-05 0.000281685 0.00160299 -8.19454e-06 0.000674711 -0.000705181 -0.000190946 3.28194e-06 0.000228952 0.000135304 0.000814265 -3.77651e-05 0.000295689 -0.000121108 -0.000868183 -1.33378e-05
internal_weight=0 65096 2040 206 60 146 51 95 65 43 63056 2311 332 297 266 239 43 196 99 97 67 152537 534 512 104 408 82 386 52 1834
internal_count=217633 65096 2040 206 60 146 51 95 65 43 63056 2311 332 297 266 239 43 196 99 97 67 152537 534 512 104 408 82 386 52 1834
shrinkage=0.05


Tree=525
num_leaves=31
num_cat=0
split_feature=25 1 1 36 9 36 36 6 3 11 1 36 10 39 10 36 15 36 23 5 14 36 16 12 2 33 28 10 9 8
split_gain=0.00232193 0.0274028 0.0181753 0.0155495 0.110839 0.0827855 0.03333 0.05027 0.0653746 0.0494596 0.0407644 0.0370263 0.0465311 0.0276883 0.0217781 0.0705621 0.0421853 0.0196559 0.0175052 0.00999139 0.007514 0.00665295 0.00656756 0.0169524 0.0399574 0.00698799 0.00598297 0.0415473 0.24121 0.0254725
threshold=-0.96676949999999995 -14.127399999999998 -13.190849999999999 -0.19934349999999995 4.247685000000001e-05 -0.12496499999999998 0.24966499999999994 4.5607050000000006e-06 -10.547549999999998 0.0022103100000000005 -9.3239949999999983 0.49120000000000014 9.4595700000000006e-05 5.3602800000000004 9.4595700000000006e-05 -0.68744999999999989 -1.4018299999999999e-05 0.60008550000000016 -0.028182349999999998 2.1459700000000004e-05 -4.2326149999999998e-07 -0.40968649999999995 0.0082071400000000017 4.6826750000000007e-05 0.81543250000000012 -6.2538149999999987e-05 5.9680600000000004 -5.1489599999999996e-05 0.00010892050000000002 1.1104050000000003e-05
decision_type=2 2 2 2 2 2 2 2 2 2 2 2 2 2 2 2 2 2 2 2 2 2 2 2 2 2 2 2 2 2
left_child=1 -1 -3 4 14 -5 7 8 -7 10 -10 12 13 -8 16 19 18 -13 -4 -16 -19 -18 23 -22 -25 -24 -2 28 -28 -29
right_child=26 2 3 5 -6 6 11 -9 9 -11 -12 17 -14 -15 15 -17 21 20 -20 -21 22 -23 25 24 -26 -27 27 29 -30 -31
leaf_value=0.0016576798559902314 -2.4601796431911522e-07 -0.0015781209809938449 -0.0024976951997814469 -0.0031192304818313974 0.002985396706869572 -0.0030778591008856892 0.0012324739100222359 0.0012731910161876484 0.00011159459342403959 0.0014101651725165235 -0.002773321234388277 -0.0013885926262186591 0.0031370928688556885 -0.0011040585933923945 -0.0005183717315184309 0.0032641836832044652 0.00015000133112108831 -0.00032448884543592071 -0.00071134138861452814 0.00081593743147095671 5.8451814966269579e-06 -0.00065886824660741825 -0.0011441724530992692 -0.00019575369864469397 0.0026894591012387539 -0.00014436271208978724 -0.00035818301039398649 -0.00093285341137044073 0.0056872219894351234 7.9273784430425995e-05
leaf_weight=23 214280 20 24 23 33 35 32 23 24 24 25 28 20 21 47 20 206 198 32 20 711 29 22 30 20 85 66 65 22 1425
leaf_count=23 214280 20 24 23 33 35 32 23 24 24 25 28 20 21 47 20 206 198 32 20 711 29 22 30 20 85 66 65 22 1425
internal_value=0 -5.69531e-05 -7.94625e-05 -6.2157e-05 0.00020643 -0.000145722 -9.30325e-05 -0.000849256 -0.00130126 -0.000449463 -0.0013603 -8.14372e-06 0.00108213 0.000306678 -3.61787e-05 0.000657919 -0.000243692 -8.08954e-05 -0.00147692 -0.00012007 -4.65468e-05 5.01834e-05 1.68547e-05 6.84264e-05 0.000958331 -0.000349931 4.68325e-07 9.74705e-05 0.00115317 3.51206e-05
internal_weight=0 1775 1752 1732 411 1321 1298 131 108 73 49 1167 73 53 378 87 291 1094 56 67 1066 235 868 761 50 107 215858 1578 88 1490
internal_count=217633 1775 1752 1732 411 1321 1298 131 108 73 49 1167 73 53 378 87 291 1094 56 67 1066 235 868 761 50 107 215858 1578 88 1490
shrinkage=0.05


Tree=526
num_leaves=31
num_cat=0
split_feature=27 12 12 36 3 15 10 15 9 39 31 14 9 0 16 23 4 39 12 3 7 31 12 14 9 0 21 14 6 17
split_gain=0.00217361 0.0170379 0.0415958 0.055542 0.0990445 0.0143539 0.0280819 0.0126352 0.0229909 0.0136962 0.0126901 0.0114412 0.020876 0.0107804 0.0088702 0.00594828 0.00507177 0.00490003 0.00386678 0.00361091 0.00332875 0.00303323 0.0283357 0.0244556 0.0643114 0.0821994 0.109833 0.151488 0.155262 0.0982358
threshold=0.35534200000000005 1.1129000000000003e-05 0.00010275800000000001 -0.46506469999999994 -9.3415399999999984 7.6735600000000018e-05 1.2159700000000003e-05 -5.8589749999999996e-05 -5.9599849999999995e-05 5.9225950000000012 5.1900100000000009 6.9933600000000013e-06 5.0670100000000008e-05 4.9393250000000011 0.016458250000000004 -0.062701649999999984 -0.12727799999999997 5.1853450000000008 -1.1433699999999999e-07 -5.5201199999999995 -2.8596049999999995e-05 -0.27384599999999998 5.5700600000000008e-07 -2.4916349999999997e-05 7.9041350000000015e-05 8.9117650000000008 -0.82489099999999993 -2.7285799999999991e-07 8.812610000000001e-08 2.7591150000000004
decision_type=2 2 2 2 2 2 2 2 2 2 2 2 2 2 2 2 2 2 2 2 2 2 2 2 2 2 2 2 2 2
left_child=21 5 3 -3 -5 7 -7 9 -9 -2 -11 12 15 -12 -4 17 18 -10 -17 -18 -21 22 23 -1 -25 26 27 28 -26 -29
right_child=1 2 14 4 -6 6 -8 8 11 10 13 -13 -14 -15 -16 16 19 -19 -20 20 -22 -23 -24 24 25 -27 -28 29 -30 -31
leaf_value=-0.00032756772933415607 -0.0016489759533821298 -0.00022429172390828805 -0.0012015406909278792 0.0041557022299717316 -0.00032741204486228529 -0.0021590686754699656 -0.00025540824689845691 0.0016338929863801848 0.0010452360811177642 0.00061208388618139847 -0.0014993458370251272 -0.0011988954280414397 0.0015728513523936274 5.1890977608439113e-05 3.3322881790809333e-05 -0.001124781566031743 4.79386346404342e-05 -6.1564756470033907e-05 -0.00029470541243852575 -0.000879173235973047 -0.00012870824415585959 -6.7983923422865501e-07 -0.00013856479520097479 8.5406960585076165e-05 0.0072856687598687134 -0.0012032972146512177 4.525520927233732e-05 0.0036516055307583882 0.0018051684873561108 -0.00054581930352192701
leaf_weight=302 24 46 33 28 22 26 76 21 20 26 24 21 20 21 26 20 204 20 47 22 45 211024 1662 3599 24 39 97 20 28 46
leaf_count=302 24 46 33 28 22 26 76 21 20 26 24 21 20 21 26 20 204 20 47 22 45 211024 1662 3599 24 39 97 20 28 46
internal_value=0 -8.26812e-05 0.00038745 0.00102957 0.00218313 -0.000197077 -0.000740655 -9.34419e-05 1.94646e-05 -0.000616377 -0.00026733 -6.14495e-05 -1.4335e-06 -0.000775435 -0.000657364 -8.4729e-05 -0.000152961 0.000491836 -0.000542489 -5.66576e-05 -0.00037513 3.01988e-07 3.59199e-05 0.000105714 0.000139675 0.000908608 0.0012917 0.00231632 0.00433463 0.000726128
internal_weight=0 792 155 96 50 637 102 535 440 95 71 419 398 45 59 378 338 40 67 271 67 216841 5817 4155 3853 254 215 118 52 66
internal_count=217633 792 155 96 50 637 102 535 440 95 71 419 398 45 59 378 338 40 67 271 67 216841 5817 4155 3853 254 215 118 52 66
shrinkage=0.05


Tree=527
num_leaves=31
num_cat=0
split_feature=25 1 1 36 9 36 36 6 1 5 36 10 4 36 14 13 15 36 7 3 3 18 11 3 20 9 11 12 28 10
split_gain=0.00227905 0.0248985 0.0163582 0.0145819 0.0814689 0.079818 0.0322082 0.0519931 0.0688019 0.0423953 0.033004 0.0410524 0.0260185 0.018049 0.0144761 0.0385311 0.0311683 0.0295614 0.0125844 0.0075623 0.0335392 0.0121312 0.00924904 0.00750133 0.00747393 0.00893081 0.00732893 0.00935347 0.00540081 0.0373022
threshold=-0.96676949999999995 -14.127399999999998 -13.190849999999999 -0.17527649999999997 4.247685000000001e-05 -0.10081500000000009 0.24966499999999994 4.5607050000000006e-06 -3.9714549999999993 1.5962300000000005e-05 0.49120000000000014 3.3176100000000009e-05 -0.17714399999999997 0.60008550000000016 1.0000000180025095e-35 2.6355450000000002e-05 -9.7133699999999988e-05 -1.0735979999999996 3.1090750000000007e-05 -12.918299999999999 -12.510449999999999 14.999250000000002 0.0006072295000000001 -15.284849999999999 -13.953099999999997 -7.4798149999999981e-05 0.019024750000000003 -1.1660999999999999e-06 5.9680600000000004 -5.1489599999999996e-05
decision_type=2 2 2 2 2 2 2 2 2 2 2 2 2 2 2 2 2 2 2 2 2 2 2 2 2 2 2 2 2 2
left_child=1 -1 -3 4 14 -5 7 8 9 12 11 18 -7 -12 15 16 -4 -17 -8 24 -21 -22 -23 -16 25 -15 27 -25 -2 -30
right_child=28 2 3 5 -6 6 10 -9 -10 -11 13 -13 -14 19 23 17 -18 -19 -20 20 21 22 -24 26 -26 -27 -28 -29 29 -31
leaf_value=0.0015779850598767594 -2.1472024210551244e-07 -0.0014996533060912043 -0.0029313802259275691 -0.0031296535349114988 0.0025048640383673569 -0.0010471782846642392 -0.00092650842620059851 0.0013512316297485749 -0.00395905106124701 -0.0020155127629238579 -0.0013325246654858347 0.0023607509286705411 0.0012994293899585806 -0.0016191809853938009 0.0011131683316125418 -0.00048861861133546979 -0.00055083993522037588 0.0020475881881429812 0.00082597309110930101 0.0019412049307323865 3.9798061134120797e-05 -0.0001075724841016449 -0.00098695269240394097 0.00092393831826582853 -9.8995944417287033e-05 -0.00036593523798273965 -0.00070537363292532979 5.4994507917351592e-05 0.0010929380366261202 3.3547317848357527e-05
leaf_weight=23 214280 20 20 22 35 21 20 22 20 35 28 32 27 21 20 27 44 20 21 22 744 67 54 37 114 44 25 190 88 1490
leaf_count=23 214280 20 20 22 35 21 20 22 20 35 28 32 27 21 20 27 44 20 21 22 744 67 54 37 114 44 25 190 88 1490
internal_value=0 -5.64247e-05 -7.7881e-05 -6.14633e-05 0.000195762 -0.00014329 -9.24384e-05 -0.000855224 -0.00132651 -0.000692158 -1.07347e-05 0.00101862 0.000272789 -7.94211e-05 -1.52527e-05 -0.000496446 -0.00129476 0.000590618 -2.88959e-05 -4.65066e-05 1.33184e-05 -3.57145e-05 -0.000500023 0.000181117 -0.000342958 -0.00077083 0.000107144 0.000196629 4.6398e-07 9.26261e-05
internal_weight=0 1775 1752 1732 418 1314 1292 125 103 83 1167 73 48 1094 383 111 64 47 41 1066 887 865 121 272 179 65 252 227 215858 1578
internal_count=217633 1775 1752 1732 418 1314 1292 125 103 83 1167 73 48 1094 383 111 64 47 41 1066 887 865 121 272 179 65 252 227 215858 1578
shrinkage=0.05


Tree=528
num_leaves=31
num_cat=0
split_feature=10 16 33 28 39 6 3 11 3 27 3 40 39 3 37 37 36 3 21 25 9 5 30 22 11 20 20 29 34 36
split_gain=0.00221024 0.00715224 0.00637463 0.0153525 0.0988615 0.0073224 0.00517989 0.00497131 0.00954517 0.00766956 0.00464243 0.0190218 0.0316034 0.0210306 0.0148945 0.156825 0.0966632 0.0898928 0.0235717 0.014253 0.0101376 0.00999002 0.00985815 0.0208082 0.0240489 0.0636231 0.0181941 0.0169583 0.176612 0.0157598
threshold=0.00014699600000000001 1.2683350000000002e-07 0.00046534500000000004 20.036400000000004 0.16841000000000064 -5.390634999999999e-07 -10.279999999999999 0.11011050000000001 -11.101149999999999 0.35534200000000005 -12.585899999999999 -0.31477499999999997 0.20156999999999983 -18.305499999999995 0.37828249999999997 -0.10141500000000002 -0.058960000000000005 -13.614249999999998 0.20684300000000003 1.9114100000000003 0.00033284050000000005 8.0350100000000025e-06 0.2810120000000001 3.3858250000000005 0.020162700000000002 -11.469999999999999 -15.687599999999998 -3.1324499999999988e-05 0.0018141400000000003 -0.12496499999999998
decision_type=2 2 2 2 2 2 2 2 2 2 2 2 2 2 2 2 2 2 2 2 2 2 2 2 2 2 2 2 2 2
left_child=-1 -2 3 10 -5 -6 -7 8 -4 -10 11 13 19 -3 15 21 18 -18 20 22 -17 -15 27 29 25 -25 -26 28 -13 -24
right_child=1 2 7 4 5 6 -8 -9 9 -11 -12 12 -14 14 -16 16 17 -19 -20 -21 -22 -23 23 24 26 -27 -28 -29 -30 -31
leaf_value=-2.2907386336594315e-06 0.00077023703657511274 -0.0015781675100907497 -0.0013431738833551881 0.0037536205134529156 0.00042955100459790715 -0.00125905966386199 -0.00012109157454688103 6.094776323880069e-05 -0.00066174776962725458 0.00052962402643805197 2.2477975000059267e-05 -0.00011926303014168314 0.001431383561234375 0.0010652368291812311 1.8827683051838833e-05 -0.00083664638201088779 -0.0057099217262405622 -0.0012512070203956683 -0.0020529476891449753 0.0011526298551837466 0.00064038810281393432 -6.5511485401577009e-05 -9.5704978774707486e-05 0.0032703099867649149 0.0011793404371991498 -0.0001983045493681437 -8.8981936156214581e-05 1.4292004119274772e-05 0.0049252312450713022 -0.00071851796288149427
leaf_weight=180357 31 26 27 20 23 20 20 50 35 22 24966 131 39 20 770 26 26 20 26 27 21 837 195 20 29 39 1132 8446 20 212
leaf_count=180357 31 26 27 20 23 20 20 50 35 22 24966 131 39 20 770 26 26 20 26 27 21 837 195 20 29 39 1132 8446 20 212
internal_value=0 1.10836e-05 1.04517e-05 1.16947e-05 0.000690953 -0.000281323 -0.000690076 -0.000333789 -0.000568752 -0.00020192 1.01721e-05 -1.52987e-05 1.07574e-05 -0.000166607 -0.000145587 -0.000275299 -0.00197616 -0.00377135 -0.000844949 5.35263e-06 -0.000176695 -3.9123e-05 2.32285e-06 -0.000110536 -7.25767e-06 0.000977497 -5.73012e-05 2.36817e-05 0.000548882 -0.000420119
internal_weight=0 37276 37245 37111 83 63 40 134 84 57 37028 12062 10290 1772 1746 976 119 46 73 10251 47 857 10224 1627 1220 59 1161 8597 151 407
internal_count=217633 37276 37245 37111 83 63 40 134 84 57 37028 12062 10290 1772 1746 976 119 46 73 10251 47 857 10224 1627 1220 59 1161 8597 151 407
shrinkage=0.05


Tree=529
num_leaves=31
num_cat=0
split_feature=16 18 37 13 14 10 36 36 36 1 4 39 16 16 36 36 18 21 20 18 39 39 37 6 33 12 14 39 29 10
split_gain=0.00212534 0.0154956 0.0771293 0.201391 0.123781 0.0683782 0.0377797 0.117389 0.0244264 0.0231027 0.11059 0.0224266 0.0178194 0.0164637 0.0300458 0.191876 0.234621 0.365782 0.200265 0.0769253 0.0944032 0.0797693 0.0562182 0.0991778 0.12611 0.111424 0.0884333 0.0831375 0.180788 0.0808856
threshold=3.3848150000000009e-05 13.390900000000002 -0.10141500000000002 1.2179350000000004e-06 -3.4453399999999998e-07 -9.7102499999999991e-06 0.039429999999999972 0.0045899999999999838 0.24966499999999994 10.319000000000001 0.115275 0.39187000000000044 1.2143300000000003e-08 5.3661700000000008e-06 -0.10081500000000009 -0.011175000000000155 6.7480350000000007 0.094254500000000005 -7.1062399999999988 -5.0750049999999991 0.10586500000000011 -0.61387499999999962 -0.2272394999999999 6.1484100000000015e-08 2.9540450000000002e-06 -1.6963049999999999e-06 -6.4438349999999989e-07 -0.27803499999999998 2.4576150000000004e-07 2.4198950000000003e-05
decision_type=2 2 2 2 2 2 2 2 2 2 2 2 2 2 2 2 2 2 2 2 2 2 2 2 2 2 2 2 2 2
left_child=1 13 3 4 -3 -4 7 9 -6 -7 11 -11 -13 -1 -15 16 18 -18 19 20 -16 -21 -17 24 26 -25 -24 28 -27 -28
right_child=-2 2 5 -5 8 6 -8 -9 -10 10 -12 12 -14 14 15 22 17 -19 -20 21 -22 -23 23 25 -26 27 29 -29 -30 -31
leaf_value=4.1348260023417145e-07 3.7714771994665642e-06 0.0041520261007826778 -0.0029108542313042562 0.0048993052615671712 0.0014080679442626067 -8.5527055990730942e-05 -0.0018018701544928331 0.0036234358736217716 -0.00025534724821862828 0.0010433963412112832 0.0036120327557437127 -6.8198241197023888e-05 -0.0018668304431706758 1.3114169057911989e-05 -0.0039014861283552214 -1.384966116272388e-05 -0.001054085310392515 -0.0091262843524379175 -0.0039687120300443031 0.002861888128791179 -0.0001326428892854084 -2.8355010138685876e-05 0.00011034351956167685 0.0028172572609679158 -0.003839520501001184 0.00028854687239158121 -0.0031421479333571542 0.00016011458898416487 -0.0056119346386930419 -0.00080269708444451009
leaf_weight=67011 137515 20 20 29 26 815 27 23 146 27 25 40 21 6168 24 4684 36 23 39 32 54 94 154 34 37 34 54 283 21 117
leaf_count=67011 137515 20 20 29 26 815 27 23 146 27 25 40 21 6168 24 4684 36 23 39 32 54 94 154 34 37 34 54 283 21 117
internal_value=0 -6.47339e-06 0.000170433 0.00101561 0.000429008 -1.67254e-05 4.24592e-05 9.48219e-05 -3.90077e-06 7.36703e-06 0.000677355 -0.00015636 -0.000687399 -9.20661e-06 -6.34337e-05 -0.000145977 -0.00137257 -0.00420087 -0.000685856 -5.82516e-05 -0.00129229 0.000705675 -7.76068e-05 -0.000484471 -0.00107365 8.88687e-05 -0.000758765 -0.000185585 -0.00196436 -0.00154147
internal_weight=0 80118 1219 221 192 998 978 951 172 928 113 88 61 78899 11888 5720 302 59 243 204 78 126 5418 734 362 372 325 338 55 171
internal_count=217633 80118 1219 221 192 998 978 951 172 928 113 88 61 78899 11888 5720 302 59 243 204 78 126 5418 734 362 372 325 338 55 171
shrinkage=0.05


Tree=530
num_leaves=31
num_cat=0
split_feature=18 39 3 1 36 36 1 22 1 3 23 34 1 20 11 17 36 20 18 40 36 36 39 23 15 19 20 1 35 36
split_gain=0.00212878 0.0290759 0.0721806 0.19174 0.18343 0.347265 0.480044 0.910142 0.182929 0.123885 0.127871 0.0603675 0.0409165 0.0840242 0.0577397 0.034355 0.0515783 0.0293396 0.0282994 0.0462304 0.129879 0.322153 0.0335217 0.032586 0.0224669 0.0221627 0.0264886 0.0901942 0.0340318 0.0329439
threshold=-8.9484099999999973 -0.12174999999999957 -8.1461699999999979 -3.2275299999999993 -0.079468000000000025 0.2761725000000001 -7.7478249999999997 4.2979400000000005 -6.154374999999999 -8.3639349999999979 8.3892650000000007e-05 -0.55203199999999986 -7.9738099999999994 -8.1725499999999975 9.3239650000000011e-05 -5.0875749999999984 -0.19934349999999995 -9.205079999999997 -9.853489999999999 0.4120049999999989 0.077348000000000056 -0.079468000000000025 -0.27803499999999998 -5.5533449999999996e-05 -0.0011457799999999997 2.9381050000000006 -9.9556199999999979 -5.5871249999999995 0.8356380000000001 0.24966499999999994
decision_type=2 2 2 2 2 2 2 2 2 2 2 2 2 2 2 2 2 2 2 2 2 2 2 2 2 2 2 2 2 2
left_child=1 12 3 4 11 6 9 -8 -9 10 17 -3 13 -1 -15 -13 -17 -6 19 20 21 -16 -20 -22 -7 26 27 -14 29 -29
right_child=-2 2 -4 -5 5 24 7 8 -10 -11 -12 15 25 14 18 16 -18 -19 22 -21 23 -23 -24 -25 -26 -27 -28 28 -30 -31
leaf_value=-0.0035618518467526884 -1.6492283812541636e-06 0.0026596397908406292 3.1429251220619469e-05 -0.00015744870635887984 0.0029559605121903588 0.0015340796281055769 0.014843761044270968 -0.00037286340375430882 0.0061018050042912367 0.0040854015913619488 -0.0032726799642387051 0.0013844528294742174 -0.0034686873014320358 -0.0026547358890529759 -0.00024207290607261133 -0.0001636133784785855 -0.0028234372935479601 0.00040869534462287379 3.4055857392656837e-05 -0.00016553930488328773 0.0024550875277964228 -0.0069963031005150144 0.0019011571916053072 -0.00027760729359821803 -0.00021895430273275452 0.001476970036579587 2.7535707814692786e-07 -0.0011668264487209102 0.0015063824911731691 -2.9686389344546566e-05
leaf_weight=20 195849 20 8485 571 20 22 23 24 20 27 20 28 23 25 55 138 21 26 121 602 20 26 30 24 108 25 10935 92 26 207
leaf_count=20 195849 20 8485 571 20 22 23 24 20 27 20 28 23 25 55 138 21 26 121 602 20 26 30 24 108 25 10935 92 26 207
internal_value=0 1.48274e-05 8.019e-05 0.000467582 0.00118568 0.00199722 0.00355682 0.00678349 0.00257017 0.00123223 6.50256e-05 4.87278e-05 -3.62239e-05 -0.00035632 -0.000285323 -0.000230514 -0.000514911 0.0015162 -0.000217856 -0.000347226 -0.00122223 -0.0024101 0.000405003 0.000964527 7.7713e-05 -1.00965e-05 -1.33915e-05 -0.000442836 -0.000228699 -0.000379576
internal_weight=0 21784 9553 1068 497 290 160 67 44 93 66 207 12231 923 903 187 159 46 878 727 125 81 151 44 130 11308 11283 348 325 299
internal_count=217633 21784 9553 1068 497 290 160 67 44 93 66 207 12231 923 903 187 159 46 878 727 125 81 151 44 130 11308 11283 348 325 299
shrinkage=0.05


Tree=531
num_leaves=31
num_cat=0
split_feature=20 32 3 8 9 9 22 33 3 19 36 3 13 3 25 36 17 4 32 29 33 17 34 18 27 3 8 32 40 40
split_gain=0.00220388 0.00846288 0.0577646 0.0160203 0.00715028 0.0230434 0.00930862 0.00897284 0.0316613 0.0265736 0.053014 0.015652 0.00812363 0.0221825 0.0597041 0.158588 0.042748 0.0137963 0.0261098 0.0177832 0.0239676 0.00920042 0.0119293 0.00880923 0.00848661 0.00652606 0.0133002 0.00601827 0.00514027 0.00527794
threshold=-6.1276249999999992 -0.0013312399999999998 -6.0035249999999989 6.4420400000000024e-05 2.2232350000000001e-05 2.1571850000000003e-05 0.15637350000000003 3.7614450000000006e-08 -7.4119349999999988 0.77858100000000008 0.327845 -7.9298599999999988 1.8765050000000003e-07 -6.9186299999999994 -0.064774849999999981 0.43531000000000003 13.012750000000002 -0.18994349999999996 0.12161000000000001 -1.9758899999999995e-05 4.383050000000001e-08 -16.050999999999998 -0.16268899999999997 -12.332599999999998 0.0012725100000000004 -8.9455249999999982 3.6038200000000003e-05 -0.0012103199999999998 10.684025000000002 8.5166700000000013
decision_type=2 2 2 2 2 2 2 2 2 2 2 2 2 2 2 2 2 2 2 2 2 2 2 2 2 2 2 2 2 2
left_child=-1 2 3 -2 5 6 -3 -6 11 10 -10 25 27 21 15 -15 17 23 19 -19 24 -14 -23 -16 -21 28 -27 -8 29 -9
right_child=1 4 -4 -5 7 -7 12 8 9 -11 -12 -13 13 14 16 -17 -18 18 -20 20 -22 22 -24 -25 -26 26 -28 -29 -30 -31
leaf_value=-8.8360517750337488e-07 -8.674604257976171e-05 0.0010463393965134552 -0.0021891233186717286 0.0014702133601531388 2.1606248226919084e-05 0.0016178952869571124 0.00085601020074959483 -4.4531136887745684e-05 -0.0028578195518364101 0.00014925950040240864 -5.4722883355533404e-05 0.000984206321466315 -0.00089225211413577208 0.0055233832084923057 -0.0012307292791691989 -5.7943657432458304e-05 0.0023850696677320893 -0.0011242285923193172 0.0020469842792954296 7.1197131000347834e-05 0.0019188654321277727 0.0011780096360863273 -2.4971473174838619e-06 -0.00012660099183260245 0.0010057926698546335 -0.0014257935094603993 -5.3395999002889005e-05 6.5686468258057867e-06 -0.00055049760457432761 0.00052681115918676378
leaf_weight=211122 95 24 33 20 1455 24 21 211 37 33 31 35 28 20 22 35 22 24 20 242 21 22 785 101 27 27 51 2956 39 50
leaf_count=211122 95 24 33 20 1455 24 21 211 37 33 31 35 28 20 22 35 22 24 20 242 21 22 785 101 27 27 51 2956 39 50
internal_value=0 2.86513e-05 -0.000345119 0.00018403 3.7345e-05 7.28258e-05 6.43403e-05 -4.18336e-05 -0.000221415 -0.00101495 -0.00157994 -2.73543e-05 5.89174e-05 0.000159724 0.000411402 0.00197163 0.000232253 0.000128616 0.000295331 0.00018376 0.000292008 -1.23007e-06 2.96852e-05 -0.000324087 0.000165004 -0.000121017 -0.000528457 1.25607e-05 -1.50831e-05 6.49214e-05
internal_weight=0 6511 148 115 6363 4394 4370 1969 514 101 68 413 4346 1369 534 55 479 457 334 314 290 835 807 123 269 378 78 2977 300 261
internal_count=217633 6511 148 115 6363 4394 4370 1969 514 101 68 413 4346 1369 534 55 479 457 334 314 290 835 807 123 269 378 78 2977 300 261
shrinkage=0.05


Tree=532
num_leaves=31
num_cat=0
split_feature=24 13 9 4 39 39 3 40 18 4 4 4 18 4 4 37 13 13 37 12 4 20 1 17 29 2 17 11 0 37
split_gain=0.00220294 0.00942398 0.0126718 0.0369069 0.0188655 0.0126232 0.0112118 0.0236371 0.0127988 0.0074563 0.0126694 0.0107289 0.010515 0.00690863 0.024808 0.0642527 0.0254438 0.0117195 0.05233 0.00661652 0.00594616 0.00707051 0.00599451 0.00511026 0.00506364 0.00489833 0.00445233 0.0248286 0.0291676 0.0275005
threshold=91.481750000000019 -1.0656299999999998e-05 -0.00035055549999999991 5.1455300000000008 -10.150264999999997 -8.4950449999999993 -13.009399999999998 4.1935850000000015 18.392150000000004 -2.1602949999999992 -1.4133199999999999 -0.96247749999999999 -19.754149999999996 2.9223900000000005 1.1247450000000001 -1.2960724999999997 1.3884700000000001e-05 3.9398900000000012e-06 0.37828249999999997 2.8964050000000007e-06 -0.25665499999999991 -8.8365399999999976 -13.794199999999998 19.256550000000001 0.00091355850000000014 2.8579150000000006 -19.608449999999998 4.1558050000000008e-05 -10.077899999999998 4.9603200000000003
decision_type=2 2 2 2 2 2 2 2 2 2 2 2 2 2 2 2 2 2 2 2 2 2 2 2 2 2 2 2 2 2
left_child=26 6 3 -3 -4 -6 7 -2 23 12 -11 -12 -7 14 16 -16 17 19 -19 20 21 -13 -22 -8 -14 -24 27 -1 -29 -30
right_child=1 2 4 -5 5 9 8 -9 -10 10 11 13 24 -15 15 -17 -18 18 -20 -21 22 -23 25 -25 -26 -27 -28 28 29 -31
leaf_value=-0.001230824115792795 -0.0021100659957737663 0.0020066963825633543 -0.0014237384971541665 -0.00082714681353536447 0.0010608445643878507 -0.0014886029441549908 -0.00013761128798654013 -0.00011988676186946749 -0.0013461904844007224 0.0010711990068321701 -0.0011725172121077776 2.2261914493741864e-05 0.00024130437878364534 -0.00044016840437117414 -0.00064642096880230713 0.0024080225454074229 0.0017305222654249519 -0.0026640755670748399 0.0005037123547481315 0.00068938889373619592 -0.00076215487766043795 -0.00099787582127776526 3.1147168991751513e-05 0.00057141977456687471 -0.00065805484492588657 -0.00074320156404393772 7.1998063516667887e-08 0.0015986955192703236 0.00020623735872025035 -0.0016037801483352353
leaf_weight=31 25 27 24 20 27 20 141 37 20 27 20 33 34 84 33 36 20 22 32 31 26 35 743 31 29 21 215491 36 455 22
leaf_count=31 25 27 24 20 27 20 141 37 20 27 20 33 34 84 33 36 20 22 32 31 26 35 743 31 29 21 215491 36 455 22
internal_value=0 -5.84902e-05 -5.7045e-06 0.000800806 -3.49304e-05 -8.74704e-06 -0.000337797 -0.000922378 -0.000149026 -3.19244e-05 7.51086e-07 -2.46909e-05 -0.000489775 -4.12053e-06 3.13717e-05 0.000947202 -3.42485e-05 -7.16773e-05 -0.000786868 -2.82349e-05 -5.41631e-05 -0.000502809 -1.55455e-05 -9.82081e-06 -0.000172686 9.86271e-06 4.32649e-07 0.000143295 0.000226331 0.000122756
internal_weight=0 1598 1344 47 1297 1273 254 62 192 1246 1163 1136 83 1116 1032 69 963 943 54 889 858 68 790 172 63 764 216035 544 513 477
internal_count=217633 1598 1344 47 1297 1273 254 62 192 1246 1163 1136 83 1116 1032 69 963 943 54 889 858 68 790 172 63 764 216035 544 513 477
shrinkage=0.05


Tree=533
num_leaves=31
num_cat=0
split_feature=27 13 13 36 3 3 10 16 11 31 3 16 12 3 36 19 17 4 4 21 13 5 2 11 11 16 26 1 2 23
split_gain=0.00212584 0.0160194 0.0592601 0.036985 0.0346648 0.0262105 0.0209889 0.0190592 0.0719948 0.0139873 0.0116754 0.0109741 0.0102013 0.00772392 0.00532903 0.00453629 0.00296726 0.0250227 0.0679476 0.0317548 0.0683435 0.0221523 0.0412978 0.032573 0.0840767 0.018045 0.0171687 0.0091014 0.00860365 0.00847303
threshold=0.35534200000000005 1.1066350000000001e-05 2.7687200000000004e-06 -0.57440449999999987 -12.665349999999998 -15.164099999999999 1.4393350000000002e-05 0.0026916950000000005 0.010823350000000001 5.1900100000000009 -13.166999999999998 0.0070645400000000011 4.0828900000000013e-06 -9.2417599999999975 -5.2578599999999982 -0.23203099999999996 -19.608449999999998 0.081083500000000017 0.097742300000000018 0.65909550000000017 2.5770550000000005e-06 1.4404800000000001e-05 -2.1984249999999999 0.0023552050000000004 0.0083088400000000014 0.00043921550000000008 0.55826100000000012 -3.3144899999999997 1.6691300000000002 -0.00046379649999999994
decision_type=2 2 2 2 2 2 2 2 2 2 2 2 2 2 2 2 2 2 2 2 2 2 2 2 2 2 2 2 2 2
left_child=16 2 5 -4 -3 9 -6 10 -9 -2 -7 -10 14 -8 -12 -15 17 21 -19 28 25 22 -1 27 -25 26 -21 -23 -20 -24
right_child=1 4 3 -5 6 7 13 8 11 -11 12 -13 -14 15 -16 -17 -18 18 19 20 -22 23 29 24 -26 -27 -28 -29 -30 -31
leaf_value=-0.0020581960865658604 -0.00029266299330629411 0.0016669848723372873 -0.00028238082962596546 -0.0029473748093005272 0.0012678458994069726 0.00086066959897101297 -0.0010481141286618368 0.0030525321561071907 -0.0010834351629786067 -0.0021196489793841133 -0.00087016755060176365 0.00033400555475964215 -0.00098876178998387227 -0.00045404675521797713 -3.3015547806532668e-05 0.0004847383642548018 -2.5016407718871275e-08 0.003280728501267731 1.1619895172771067e-05 -0.00036263968257117091 0.0029991377018600833 0.00030835872174874465 -0.00059537882996770299 0.0038416429335484284 -0.00012879427266852873 -0.0010892775410783625 0.0016843023980419231 -0.00052173111654530444 -0.00089605024991077232 0.00014469213429864876
leaf_weight=36 20 39 23 30 23 31 32 24 22 22 20 36 33 31 384 22 216179 20 125 20 29 54 69 20 40 22 21 85 33 88
leaf_count=36 20 39 23 30 23 31 32 24 22 22 20 36 33 31 384 22 216179 20 125 20 29 54 69 20 40 22 21 85 33 88
internal_value=0 -8.17675e-05 -0.000189119 -0.00179087 0.000389265 -4.57193e-05 -7.21334e-05 4.62176e-05 0.000749383 -0.00124966 -7.69865e-05 -0.000203644 -0.000143502 -0.000434716 -7.44587e-05 -6.43624e-05 2.98651e-07 0.000105994 0.000476392 0.000252045 0.000990527 -0.000149127 -0.000530794 0.000221032 0.00119468 6.59278e-05 0.000685794 -0.00019925 -0.000177957 -0.000180562
internal_weight=0 792 645 53 147 592 108 550 82 42 468 58 437 85 404 53 216841 662 270 250 92 392 193 199 60 63 41 139 158 157
internal_count=217633 792 645 53 147 592 108 550 82 42 468 58 437 85 404 53 216841 662 270 250 92 392 193 199 60 63 41 139 158 157
shrinkage=0.05


Tree=534
num_leaves=31
num_cat=0
split_feature=16 29 30 10 10 29 0 18 8 31 36 36 33 14 14 34 39 39 26 36 37 23 23 30 39 40 36 11 16 3
split_gain=0.00213018 0.0449372 0.0622916 0.100628 0.0285754 0.0287367 0.0543858 0.0413438 0.00924526 0.00651327 0.00422602 0.0133972 0.00264805 0.016003 0.0193356 0.0457573 0.147278 0.196574 0.137049 0.141407 0.739185 0.409415 0.240439 0.123444 0.138055 0.160466 0.519471 0.290014 0.135419 0.132218
threshold=1.1921100000000003e-10 -3.1324499999999988e-05 0.98241950000000011 2.8023750000000001e-05 1.1791850000000001e-06 -5.1285049999999996e-06 3.9279950000000006 -5.7481999999999989 1.1104050000000003e-05 -0.052110149999999994 -0.058960000000000005 0.327845 -1.1071149999999997e-08 3.6649000000000006e-08 -3.0819049999999996e-06 0.00036695550000000009 0.55890500000000032 -1.5196849999999988 -0.20482949999999997 0.20129000000000011 -0.057539999999999918 0.00011948200000000001 0.00033276500000000006 0.11577400000000002 0.35261000000000037 0.31988499999999936 -0.12496499999999998 0.0012328350000000003 2.6963350000000004e-08 -9.5548399999999987
decision_type=2 2 2 2 2 2 2 2 2 2 2 2 2 2 2 2 2 2 2 2 2 2 2 2 2 2 2 2 2 2
left_child=1 2 3 -1 -3 6 7 -6 -9 -4 -10 -12 13 14 -2 -16 17 -17 -19 20 21 -20 -23 24 25 -22 -27 -28 -25 -26
right_child=12 4 9 -5 5 -7 -8 8 10 -11 11 -13 -14 -15 15 16 -18 18 19 -21 23 22 -24 28 29 26 27 -29 -30 -31
leaf_value=0.00024703296156595962 -1.4527677978978241e-06 -0.0015443825612907727 -0.0012369891186426686 0.004450584474398056 -0.0021134696330991575 4.6409272753508902e-05 -0.0024187716755780762 -0.00084525395866529886 -2.2416329092462262e-05 3.9066224271664399e-05 0.0015995065494020572 -1.5997105935749654e-05 -5.8663549495088925e-06 -6.5555379316608041e-06 1.5105572807395241e-05 -5.2418453083428555e-05 -3.0936574003640676e-05 0.0047100864497580282 0.012201566239818933 -0.00017417508778649904 0.00047184122784829896 -0.00013319839702241801 0.0071782557582280235 -0.0031161474477812592 0.0014441056703687468 -0.00024634522166038604 0.0082777075196911656 0.0013571846210955604 0.00029871241604646764 0.006851557525515091
leaf_weight=35 18804 38 20 24 25 542 36 21 51 20 21 33 96334 84817 11348 960 3154 23 20 283 440 22 23 32 26 83 41 24 313 20
leaf_count=35 18804 38 20 24 25 542 36 21 51 20 21 33 96334 84817 11348 960 3154 23 20 283 440 22 23 32 26 83 41 24 313 20
internal_value=0 -7.82625e-05 0.00092426 0.00195695 -0.000207662 -0.000137984 -0.00067243 -0.000256083 0.000112446 -0.000598961 0.000303986 0.000612254 3.12665e-07 5.25524e-06 3.33818e-05 7.23438e-05 0.00019122 0.000494545 0.000883497 0.000817174 0.0010859 0.00624924 0.00360377 0.000743085 0.00115726 0.000950888 0.00237508 0.00572244 -1.80282e-05 0.00379517
internal_weight=0 866 99 59 767 729 187 151 126 40 105 54 216767 120433 35616 16812 5464 2310 1350 1327 1044 65 45 979 634 588 148 65 345 46
internal_count=217633 866 99 59 767 729 187 151 126 40 105 54 216767 120433 35616 16812 5464 2310 1350 1327 1044 65 45 979 634 588 148 65 345 46
shrinkage=0.05


Tree=535
num_leaves=31
num_cat=0
split_feature=36 19 21 18 39 19 39 5 15 15 3 2 30 33 22 19 17 39 17 39 9 28 7 16 16 21 10 39 23 2
split_gain=0.00220343 0.0199992 0.0780005 0.0564966 0.0515895 0.0697276 0.0571976 0.051411 0.0362792 0.10386 0.0273191 0.0251018 0.0272603 0.0185899 0.0183479 0.013194 0.161373 0.297127 0.0630916 0.444603 0.306929 0.0718569 0.0660745 0.0567809 0.0792734 0.0595003 0.117111 0.164738 0.0895711 0.0785511
threshold=0.46240350000000002 -2.9623449999999996 0.91519300000000003 -2.0281699999999994 -0.56159999999999977 -3.0611199999999994 0.27381999999999979 7.4666350000000006e-06 1.4722200000000002e-07 5.1095850000000008e-07 -13.443999999999997 -2.9939399999999998 0.032593450000000003 -3.0004549999999999e-08 0.78834350000000009 -2.3737349999999995 1.9841050000000002 1.5956900000000005 -3.4870349999999992 0.68409500000000023 -6.9454799999999977e-05 0.29634600000000005 -1.2306999999999998e-05 3.7775550000000009e-08 4.2063200000000008e-08 0.60591150000000005 6.9697650000000012e-05 4.524210000000001 -0.00055385149999999991 -2.7519549999999997
decision_type=2 2 2 2 2 2 2 2 2 2 2 2 2 2 2 2 2 2 2 2 2 2 2 2 2 2 2 2 2 2
left_child=1 2 3 4 -1 -6 -7 -5 11 -10 -11 12 -9 14 -12 16 18 -18 22 20 21 -20 23 -3 -25 28 27 -27 29 -26
right_child=-2 15 -4 7 5 6 -8 8 9 10 13 -13 -14 -15 -16 -17 17 -19 19 -21 -22 -23 -24 24 25 26 -28 -29 -30 -31
leaf_value=-0.00079125275522715251 6.0121230056224175e-06 0.00026294346139190349 -0.003206689617879668 -0.0029058883620018561 0.0039913104379957079 0.0026100339555414397 -0.00032901442725363143 -3.9016707160044464e-05 -0.0035387030883672803 -0.0016289595008428853 -2.2672274818387925e-05 -0.00023285155027827676 0.0018866530677769334 0.001186544950741336 -0.0016542618136597975 -5.4552294015565457e-06 0.007603799762582639 -0.00064796576765123372 0.0039606360480247535 -0.000401194862069278 0.0084525339674437466 0.00049063787147453103 0.0026534596814203923 -0.0032502751362699202 -0.0047306103189293939 0.0047548878098358262 -0.0013302873668726534 -0.00020426633129639362 -0.00016735927464210456 -0.0007361518959442038
leaf_weight=39 89633 1035 22 20 20 25 49 40 30 34 96 199 34 25 21 123956 20 24 25 238 25 37 23 21 20 33 35 34 1788 32
leaf_count=39 89633 1035 22 20 20 25 49 40 30 34 96 199 34 25 21 123956 20 24 25 238 25 37 23 21 20 33 35 34 1788 32
internal_value=0 -4.21004e-06 -0.000279998 -0.000178119 0.000737568 0.00137187 0.000663907 -0.00042218 -0.000318476 -0.000819408 -0.000355892 5.95168e-05 0.00084575 -5.10733e-05 -0.000315522 -2.7937e-06 9.45258e-05 0.00310284 5.49664e-05 0.000716918 0.00377566 0.00188983 -1.62466e-05 -3.6728e-05 -0.000194731 -0.00016169 0.00101379 0.0022383 -0.000226852 -0.00227248
internal_weight=0 128000 654 632 133 94 74 499 479 206 176 273 74 142 117 127346 3390 44 3346 325 87 62 3021 2998 1963 1942 102 67 1840 52
internal_count=217633 128000 654 632 133 94 74 499 479 206 176 273 74 142 117 127346 3390 44 3346 325 87 62 3021 2998 1963 1942 102 67 1840 52
shrinkage=0.05


Tree=536
num_leaves=31
num_cat=0
split_feature=36 36 5 3 39 12 10 7 14 5 31 26 39 7 26 6 8 17 18 8 36 18 19 22 17 1 17 9 30 39
split_gain=0.00237538 0.0347983 0.0723865 0.117249 0.232645 0.243904 0.344842 0.091275 0.0786599 0.164682 0.0875322 0.0958886 0.0917078 0.0688216 0.12208 0.206027 0.194524 0.0977776 0.114788 0.0937229 0.125616 0.1088 0.642945 0.238969 0.223176 0.225519 0.153682 0.151832 0.140578 0.198418
threshold=-0.19934349999999995 -0.018010000000000078 9.0806150000000018e-06 -14.092499999999999 -2.1822199999999996 -1.6963049999999999e-06 8.8270500000000005e-06 -3.6403899999999992e-05 1.8209750000000002e-06 7.5984950000000007e-06 -0.052110149999999994 -0.020824299999999997 0.20156999999999983 1.6205550000000003e-05 -0.0080053399999999979 1.9804200000000007e-06 1.2548900000000003e-05 -3.5695999999999994 -12.635299999999999 1.9379050000000005e-05 -0.079468000000000025 -0.5982734999999999 0.22982800000000003 6.6944750000000006 1.0555450000000002 -1.4776249999999997 9.3032900000000023 6.7582950000000017e-05 0.2399415 3.6173500000000005
decision_type=2 2 2 2 2 2 2 2 2 2 2 2 2 2 2 2 2 2 2 2 2 2 2 2 2 2 2 2 2 2
left_child=-1 2 3 4 -2 -6 -7 -5 10 -10 -9 12 -12 14 15 16 -4 -15 -19 20 -20 22 24 -24 -21 -26 27 -27 -23 -30
right_child=1 -3 13 7 5 6 -8 8 9 -11 11 -13 -14 17 -16 -17 -18 18 19 21 -22 28 23 -25 25 26 -28 -29 29 -31
leaf_value=5.7265240266506592e-06 -0.00029505635770108081 2.369659726521814e-06 -0.004117857444578329 -0.0030072346511587967 -0.0014855514164082706 0.0015181026778413476 0.0087764939727882543 0.002859403165473071 -0.0048020436114672091 -3.8909641291464271e-05 -0.004396545384661295 0.00057380057995798112 -0.00010573668546523109 -0.0022692927086286042 -0.0002058034561882387 -0.0046321192803682213 -0.00021860406244956986 0.0028852184996038788 -0.00032582969504541589 0.0039441578283692033 0.0038526995867770794 -1.141132665259761e-05 0.010242399521389632 0.0026056527116452345 -0.00024319508199122984 0.0074509017303353176 -0.00058253405092857852 0.0020436933290880377 -0.0022986321864316311 6.6658192928621454e-05
leaf_weight=98843 89 111070 37 24 20 36 30 35 23 86 20 315 33 45 3999 39 236 36 35 37 37 1125 21 20 902 20 28 37 183 172
leaf_count=98843 89 111070 37 24 20 36 30 35 23 86 20 315 33 45 3999 39 236 36 35 37 37 1125 21 20 902 20 28 37 183 172
internal_value=0 -4.76494e-06 -0.000107413 0.000373298 0.001497 0.00335158 0.00481737 6.41644e-06 0.000147681 -0.00104397 0.00046999 0.000242736 -0.00172491 -0.000156176 -0.000280123 -0.0012327 -0.000747074 4.18726e-05 8.10745e-05 4.25001e-05 0.00182147 -7.82836e-06 0.000377558 0.00651716 0.000131734 -1.11836e-05 0.00245087 0.00394096 -0.00028515 -0.00115263
internal_weight=0 118790 7720 711 175 86 66 536 512 109 403 368 53 7009 4311 312 273 2698 2653 2617 72 2545 1065 41 1024 987 85 57 1480 355
internal_count=217633 118790 7720 711 175 86 66 536 512 109 403 368 53 7009 4311 312 273 2698 2653 2617 72 2545 1065 41 1024 987 85 57 1480 355
shrinkage=0.05


Tree=537
num_leaves=31
num_cat=0
split_feature=16 18 37 13 12 36 36 1 4 14 16 17 36 37 18 12 36 8 18 39 13 33 3 29 17 25 25 26 21 3
split_gain=0.00233693 0.0141658 0.0689204 0.181718 0.113456 0.0623511 0.0329948 0.0210211 0.0972118 0.0182525 0.0145068 0.0358831 0.0281785 0.178363 0.152386 0.301278 0.35732 0.133837 0.0888779 0.111497 0.138075 0.146108 0.119379 0.180679 0.10874 0.127303 0.088809 0.0883312 0.0839511 0.0715363
threshold=3.3848150000000009e-05 13.390900000000002 -0.10141500000000002 1.2179350000000004e-06 -2.4511349999999994e-07 0.039429999999999972 0.0045899999999999838 10.319000000000001 0.087890700000000016 8.2225800000000014e-08 5.3661700000000008e-06 19.256550000000001 -0.10081500000000009 -0.2272394999999999 6.8989050000000001 -7.832789999999998e-08 -0.018010000000000078 1.2120050000000001e-05 -2.9336349999999993 1.9461850000000005 -1.0656299999999998e-05 1.0000000180025095e-35 -7.1685999999999988 -2.4058549999999997e-05 -3.3002899999999995 -0.017673399999999995 -0.020444849999999997 0.0014605350000000002 -0.17140849999999999 -11.394249999999998
decision_type=2 2 2 2 2 2 2 2 2 2 2 2 2 2 2 2 2 2 2 2 2 2 2 2 2 2 2 2 2 2
left_child=1 10 3 4 -3 6 7 -4 9 -9 -1 12 -12 -14 18 -16 -17 -18 19 20 -15 24 23 -23 25 -22 29 -19 -28 -26
right_child=-2 2 5 -5 -6 -7 -8 8 -10 -11 11 -13 13 14 15 16 17 27 -20 -21 21 22 -24 -25 26 -27 28 -29 -30 -31
leaf_value=-3.7099483468745679e-07 3.9547598495033258e-06 0.0032285012493957765 -8.218009005149785e-05 0.0046504290553676933 -0.00011896352817631043 -0.0022990545358284021 0.0018109220512157595 0.00014227853269467393 0.0028355569367496565 -0.0015532156580155226 9.6591947098859134e-06 0.0016963470905842579 -1.3236624099404282e-05 -0.0049492099656490611 0.0005953036052528365 -0.0082404359320082301 -0.0057107775317854249 -0.00015491014145236622 0.00014687960034034161 0.00040917424644669329 -0.005060255721400609 -0.0013470931165751867 -0.00018864031465324975 -0.0070272360464774218 -0.00028391551123881391 -0.00017462795369889742 -0.0033531822285360912 -0.0035301020495743228 0.00010808039959831445 0.0033485907736714136
leaf_weight=67011 137515 30 829 29 162 29 26 57 35 22 6150 29 4676 25 77 29 20 63 370 119 24 28 28 28 23 30 22 28 86 33
leaf_count=67011 137515 30 829 29 162 29 26 57 35 22 6150 29 4676 25 77 29 20 63 370 119 24 28 28 28 23 30 22 28 86 33
internal_value=0 -6.78797e-06 0.000162357 0.000961291 0.000404078 -1.45614e-05 5.38084e-05 5.36196e-06 0.000641962 -0.000329884 -9.40128e-06 -6.03038e-05 -6.45995e-05 -0.000144594 -0.000739201 -0.00191683 -0.0032985 -0.00200737 -0.000426033 -0.000901319 -0.00137823 -0.00108262 -0.00285432 -0.00418716 -0.000399939 -0.00234602 0.000240844 -0.00119343 -0.000596992 0.00185667
internal_weight=0 80118 1219 221 192 998 969 943 114 79 78899 11888 11859 5709 1033 217 140 111 816 446 327 302 84 56 218 54 164 91 108 56
internal_count=217633 80118 1219 221 192 998 969 943 114 79 78899 11888 11859 5709 1033 217 140 111 816 446 327 302 84 56 218 54 164 91 108 56
shrinkage=0.05


Tree=538
num_leaves=31
num_cat=0
split_feature=40 34 4 31 0 15 30 5 13 23 11 35 34 4 20 32 26 26 22 26 15 21 40 19 13 32 32 25 40 17
split_gain=0.0022581 0.00979352 0.0120284 0.00714524 0.0322639 0.0814654 0.0134752 0.056592 0.0798401 0.0233441 0.0250339 0.014596 0.0133058 0.071739 0.0115043 0.0293772 0.0372691 0.00978976 0.02574 0.0202907 0.00973193 0.021159 0.00921157 0.00903613 0.0086067 0.0175381 0.00845477 0.00769073 0.00693152 0.0446466
threshold=2.4429550000000004 1.8271150000000003 -0.38361349999999994 0.96084200000000008 3.0384450000000007 6.9277650000000016e-07 7.9426800000000002 1.8306700000000002e-05 5.2573900000000008e-06 0.011675600000000003 0.0094329700000000006 0.053913100000000005 0.30670150000000002 -1.1200049999999997 -13.504999999999997 0.12161000000000001 -0.052900399999999993 -0.014467949999999999 1.7215100000000003 -0.011720299999999998 0.00014095500000000004 0.82362200000000019 6.2266800000000009 2.7036350000000007 1.9598050000000002e-06 1.20103 -0.032913249999999998 0.036329200000000013 0.086360000000000006 6.0977500000000004
decision_type=2 2 2 2 2 2 2 2 2 2 2 2 2 2 2 2 2 2 2 2 2 2 2 2 2 2 2 2 2 2
left_child=28 3 -3 6 24 -6 11 9 -9 10 -8 12 14 -14 15 16 -2 18 -18 -19 23 22 -22 -13 -5 -26 -21 -28 -1 -30
right_child=1 2 -4 4 5 -7 7 8 -10 -11 -12 20 13 -15 -16 -17 17 19 -20 26 21 -23 -24 -25 25 -27 27 -29 29 -31
leaf_value=2.5083795059607747e-06 -0.0021837759360399406 -0.0014140600174029645 -0.00015215877490160328 0.00014190203122251983 -0.00017480228333235055 0.0030687880724144636 0.00013356398817818813 -9.3985909396516426e-05 0.0043201721960213031 0.00094279480127283937 -0.0018687937374192256 -0.00024613708044040673 0.0030475148527488193 -4.6581699816760205e-05 1.1826337804694697e-05 0.0015315587991911648 -0.00020867054246888794 -0.0016395835258081208 0.0018964781366958051 -0.00097483788205181558 -0.00061224324734225513 -0.0016397580829783322 0.00074007622490171346 0.0008135621428664308 0.00019359450213111512 -0.0014586259680197994 -0.00010236997300160334 -0.0011012128314905566 1.0511412330998077e-05 -0.00011766150229853424
leaf_weight=134429 24 26 69 155 49 32 37 21 20 32 27 235 23 101 45784 24 53 25 20 32 34 39 20 22 36 29 529 20 26556 9130
leaf_count=134429 24 26 69 155 49 32 37 21 20 32 27 235 23 101 45784 24 53 25 20 32 34 39 20 22 36 29 529 20 26556 9130
internal_value=0 9.63655e-06 -0.000497521 1.06525e-05 0.000253488 0.00110662 9.10135e-06 0.00050426 0.00205926 -0.000159856 -0.000711181 7.65756e-06 1.00718e-05 0.000527323 8.69281e-06 -0.000188646 -0.000247373 -0.000178928 0.000368083 -0.000244822 -0.000314026 -0.000752315 -0.000111384 -0.000155424 -6.06179e-05 -0.00054355 -0.000184807 -0.000138758 -2.69176e-06 -2.22807e-05
internal_weight=0 47518 95 47423 301 81 47122 137 41 96 64 46985 46635 124 46511 727 703 679 73 606 350 93 54 257 220 65 581 549 170115 35686
internal_count=217633 47518 95 47423 301 81 47122 137 41 96 64 46985 46635 124 46511 727 703 679 73 606 350 93 54 257 220 65 581 549 170115 35686
shrinkage=0.05


Tree=539
num_leaves=31
num_cat=0
split_feature=29 1 5 8 5 3 5 35 6 3 13 13 36 10 33 12 39 14 15 18 15 26 8 12 15 32 15 36 19 14
split_gain=0.00223386 0.017012 0.01411 0.0196978 0.017239 0.0623454 0.0633454 0.0191141 0.0168184 0.0144568 0.0127044 0.0407777 0.0435948 0.0310312 0.0206613 0.0247696 0.0112137 0.0156986 0.0633207 0.01357 0.0150952 0.0108341 0.00959709 0.0206359 0.0157802 0.0635305 0.0122748 0.0104791 0.00918313 0.0082046
threshold=-0.00090391799999999997 14.319400000000002 3.3381050000000008e-05 5.3913950000000009e-05 1.6117600000000003e-05 -15.993649999999997 1.6461450000000005e-05 0.034433300000000007 8.812610000000001e-08 -15.284849999999999 6.5238050000000013e-06 1.8237450000000004e-06 -0.60254799999999997 4.2516950000000003e-05 0.00019513800000000003 2.8964050000000007e-06 1.46871 5.1045150000000002e-06 6.4264150000000017e-05 -2.9957599999999993 1.5907400000000004e-07 0.028609250000000006 2.7870500000000004e-05 8.0636700000000017e-06 0.00016883300000000004 -0.14294799999999999 2.9789650000000003e-06 -0.32870999999999989 1.9437700000000002 -1.9423899999999999e-05
decision_type=2 2 2 2 2 2 2 2 2 2 2 2 2 2 2 2 2 2 2 2 2 2 2 2 2 2 2 2 2 2
left_child=1 2 4 8 10 -6 -7 -8 -4 -9 11 22 -13 -12 21 -16 19 18 29 -11 -21 -15 24 -24 26 -26 -1 -28 -5 -18
right_child=-2 -3 3 28 5 6 7 9 -10 16 13 12 -14 14 15 -17 17 -19 -20 20 -22 -23 23 -25 25 -27 27 -29 -30 -31
leaf_value=6.7138687022602801e-06 4.5805076172792403e-07 0.0013256743295642082 -0.0024119795441427932 -0.00037245838703475553 0.0026445291878189892 0.0024039414833428707 0.0013372178519299874 -0.0014246754138730468 -0.00043375478231940761 4.3999673146296696e-05 -0.001828045036244156 0.00013973523600725458 0.0031155038512952161 -0.0015843657970738907 -0.00051183708938365078 0.0018086589919656271 0.0010120496990566608 -0.00056256956868021497 0.0028167566433852619 -0.00023185158030638946 -0.0016303722424865037 -0.00018818528844735051 -0.00024183735920162947 -0.0016568315938067309 0.0030594272734015254 -0.00033924839366363815 -0.00021068379266320596 -0.0015358680742792786 0.0005426410117334771 -5.3993728066121263e-05
leaf_weight=282 215868 22 21 162 25 28 24 20 22 89 37 32 20 24 23 23 20 63 23 43 35 33 323 28 20 44 35 26 33 185
leaf_count=282 215868 22 21 162 25 28 24 20 22 89 37 32 20 24 23 23 20 63 23 43 35 33 323 28 20 44 35 26 33 185
internal_value=0 -5.60218e-05 -7.34615e-05 -0.000431199 -1.68891e-05 0.000204509 8.94134e-05 -3.96838e-05 -0.00139986 -0.000108817 -0.000146232 -7.02157e-05 0.00128426 -0.00058604 -0.000139883 0.000648411 -5.13559e-05 0.000136068 0.000329112 -0.000377944 -0.000859393 -0.000776051 -0.000163135 -0.000354714 2.08458e-06 0.000722838 -0.0001324 -0.000775516 -0.000217595 5.00105e-05
internal_weight=0 1765 1743 238 1505 555 530 502 43 478 950 810 52 140 103 46 458 291 228 167 78 57 758 351 407 64 343 61 195 205
internal_count=217633 1765 1743 238 1505 555 530 502 43 478 950 810 52 140 103 46 458 291 228 167 78 57 758 351 407 64 343 61 195 205
shrinkage=0.05


Tree=540
num_leaves=31
num_cat=0
split_feature=5 29 14 16 17 31 3 0 11 10 36 36 39 36 5 15 4 26 35 28 37 14 27 30 3 36 2 26 0 8
split_gain=0.00212716 0.0129642 0.057172 0.0383705 0.0461711 0.0165239 0.0194122 0.0321378 0.0259445 0.0220956 0.0199118 0.109912 0.05883 0.0543593 0.0165135 0.0139873 0.0139284 0.0202597 0.0110877 0.0108756 0.0361771 0.0996501 0.0566365 0.02237 0.120001 0.271179 0.0581455 0.0229705 0.054629 0.014627
threshold=1.0004950000000002e-05 0.0002933525000000001 -6.3032849999999992e-06 0.0056758050000000008 19.256550000000001 0.098593250000000007 -8.9455249999999982 7.4151700000000007 0.0017362250000000003 2.2707500000000002e-05 0.51872500000000021 -0.32870999999999989 -2.8634500000000003 -0.011175000000000155 6.5656500000000012e-06 1.5027300000000003e-05 -0.16366899999999998 -0.78911549999999997 0.0027520250000000004 -2.1163149999999997 0.27484500000000006 3.4718200000000011e-08 0.008423845000000001 2.6849000000000003 -14.605749999999999 0.40779500000000007 -2.8455549999999996 0.30041650000000003 -3.4028749999999994 2.0248200000000004e-05
decision_type=2 2 2 2 2 2 2 2 2 2 2 2 2 2 2 2 2 2 2 2 2 2 2 2 2 2 2 2 2 2
left_child=1 5 -3 4 14 19 7 10 9 15 11 -7 -13 -14 -4 18 17 -16 -8 20 21 -1 -23 27 25 -25 -26 -21 -29 -28
right_child=-2 2 3 -5 -6 6 8 -9 -10 -11 -12 12 13 -15 16 -17 -18 -19 -20 23 -22 22 -24 24 26 -27 29 28 -30 -31
leaf_value=-0.0032545987862891597 2.0175816723370568e-06 0.0020636001352007344 -0.0015224927452800331 0.0016753858063364331 0.0018411474886192991 -2.3971022850518954e-05 -0.0010649101631715894 -0.0023120006970116049 0.0014819227457462997 -0.0015705637433237154 -1.772839561326372e-05 -0.00028437960660085084 -0.0047136325534665961 -0.0016566754385800748 -0.0015797440169233777 0.0012785139056740308 6.5668245988574354e-05 -9.547627784074945e-05 2.1466277689796698e-05 -7.643474299136229e-06 3.4812774008352668e-05 -0.002451527605868857 0.00021489679515630436 0.0065077867754553161 0.0024951020366286644 -0.00073515862001970948 -0.00062596025590954188 -0.0022946655301525056 9.2710767691695612e-05 0.00010285359867919931
leaf_weight=34 186555 39 20 36 32 235 25 21 29 23 285 30 26 33 34 21 434 71 388 28241 407 24 117 24 22 28 110 37 68 184
leaf_count=34 186555 39 20 36 32 235 25 21 29 23 285 30 26 33 34 21 434 71 388 28241 407 24 117 24 22 28 110 37 68 184
internal_value=0 -1.21111e-05 0.000206113 9.05752e-05 -5.96147e-06 -1.68901e-05 -0.000205722 -0.000388879 3.17032e-05 -6.03239e-05 -0.000322565 -0.000590708 -0.00208715 -0.00300381 -0.000111699 1.97119e-05 -5.93508e-05 -0.000576096 -4.4295e-05 -9.69671e-06 -0.000223679 -0.000824858 -0.000238963 -5.35953e-06 0.000381968 0.00260774 1.57015e-05 -1.0388e-05 -0.000748555 -0.000169832
internal_weight=0 31078 666 627 591 30412 1116 630 486 457 609 324 89 59 559 434 539 105 413 29296 582 175 141 28714 368 52 316 28346 105 294
internal_count=217633 31078 666 627 591 30412 1116 630 486 457 609 324 89 59 559 434 539 105 413 29296 582 175 141 28714 368 52 316 28346 105 294
shrinkage=0.05


Tree=541
num_leaves=31
num_cat=0
split_feature=24 14 14 15 21 36 36 4 37 39 4 19 1 5 2 36 19 0 18 36 36 18 11 12 23 21 36 36 34 4
split_gain=0.00212473 0.0110945 0.0323011 0.049258 0.0254542 0.0494967 0.153176 0.0773048 0.135476 0.023106 0.022157 0.0430137 0.135756 0.0355015 0.0155616 0.0292232 0.015231 0.0844077 0.0146982 0.014423 0.045041 0.0615378 0.0536226 0.0640035 0.0266972 0.0139026 0.0312498 0.138615 0.0126152 0.033608
threshold=29.419400000000007 1.1464000000000004e-06 3.6875050000000006e-06 0.00034847100000000005 1.5291850000000002 -0.68744999999999989 -0.22452634999999985 4.0006250000000012 -0.43858299999999995 0.13650500000000013 0.46668750000000003 0.8476410000000002 5.9655550000000011 1.3371950000000002e-05 2.6388200000000004 0.57364500000000007 2.6187600000000004 -6.2295349999999994 10.010650000000002 0.51872500000000021 -0.65889149999999985 -5.2191299999999989 0.00027562450000000004 -5.1309549999999988e-07 -0.0064295099999999985 1.2323400000000002 -0.49100999999999978 0.22528099999999995 0.6802760000000001 -0.54650249999999989
decision_type=2 2 2 2 2 2 2 2 2 2 2 2 2 2 2 2 2 2 2 2 2 2 2 2 2 2 2 2 2 2
left_child=-1 10 3 19 16 -6 -7 8 9 -8 14 13 -13 -12 28 -16 25 -18 -15 20 -3 24 -23 -24 -22 -4 -27 -28 -2 -30
right_child=1 2 4 -5 5 6 7 -9 -10 -11 11 12 -14 18 15 -17 17 -19 -20 -21 21 22 23 -25 -26 26 27 -29 29 -31
leaf_value=8.6814324967955682e-07 -4.9678728001555152e-05 -6.5835043069960707e-05 -8.015040862970807e-05 -0.0023490032875997714 -0.00030826126871683562 0.0049588064591045535 0.0014426582897431217 -0.0016983541392191375 0.0036264442228379525 -0.00049066201786712661 0.0019713592346670343 -0.00026467616704134607 0.0042299655860655811 -4.392967675812543e-05 -0.0020294947434404795 -0.00018583016547733767 0.0033997425323468635 -0.00025601368100130155 -0.0014714139026843689 -4.0459331523311163e-05 -0.0011157820594962686 -0.00045195551044473962 -0.0050222737185928665 -0.0013312111180984294 0.0014082848524677421 0.0001593701852852749 -0.0041250760265808947 8.2974351557473164e-05 0.00055895469948600326 -1.8142499563807361e-05
leaf_weight=211114 2563 180 1191 32 140 21 20 34 35 68 20 42 28 100 26 124 20 75 22 239 20 28 24 23 22 81 28 65 351 897
leaf_count=211114 2563 180 1191 32 140 21 20 34 35 68 20 42 28 100 26 124 20 75 22 239 20 28 24 23 22 81 28 65 351 897
internal_value=0 -2.81143e-05 -0.000115109 -0.00044336 -1.02458e-05 0.00039512 0.00094834 0.000411909 0.000995233 -5.1271e-05 2.07929e-05 0.000518801 0.00153318 1.87543e-05 -5.86143e-06 -0.000505399 -9.85378e-05 0.000513619 -0.000301345 -0.000329591 -0.000562259 -0.00132599 -0.0021841 -0.00321601 0.000206348 -0.000141142 -0.00055862 -0.00118397 1.38002e-05 0.000144166
internal_weight=0 6519 2346 568 1778 318 178 157 123 88 4173 212 70 142 3961 150 1460 95 122 536 297 117 75 47 42 1365 174 93 3811 1248
internal_count=217633 6519 2346 568 1778 318 178 157 123 88 4173 212 70 142 3961 150 1460 95 122 536 297 117 75 47 42 1365 174 93 3811 1248
shrinkage=0.05


Tree=542
num_leaves=31
num_cat=0
split_feature=20 27 21 32 11 40 13 8 36 36 32 14 36 36 11 36 0 21 36 14 0 21 36 36 23 0 0 33 0 29
split_gain=0.0020844 0.00806614 0.0167419 0.0153601 0.0978605 0.0145955 0.054892 0.115566 0.129886 0.207642 0.0531545 0.0139947 0.026609 0.153734 0.154385 0.0313304 0.0348332 0.031326 0.02272 0.0284007 0.010173 0.0118162 0.0322483 0.0373459 0.00982494 0.0357008 0.0234135 0.00847376 0.0750493 0.0101631
threshold=-6.3564549999999995 0.0010524150000000003 0.29620600000000008 -0.0019802249999999995 8.0324000000000012e-05 -0.31477499999999997 3.2990050000000008e-07 0.00012201000000000002 -0.19934349999999995 0.43531000000000003 0.0027849950000000006 4.6606600000000007e-08 -0.040859549999999939 0.2761725000000001 0.0011990500000000003 -0.25142799999999998 2.3918500000000003 0.91519300000000003 -0.57440449999999987 -3.4453399999999998e-07 -12.293649999999998 0.91519300000000003 -0.027530000000000051 0.60008550000000016 0.00038441350000000002 -10.580349999999997 9.7069050000000008 3.7614450000000006e-08 10.006550000000002 -3.1705049999999995e-06
decision_type=2 2 2 2 2 2 2 2 2 2 2 2 2 2 2 2 2 2 2 2 2 2 2 2 2 2 2 2 2 2
left_child=-1 2 3 4 -2 6 10 8 -8 -10 -3 12 15 14 -14 18 -17 -15 -7 -20 -13 -22 -23 -24 27 -26 -27 29 -29 -5
right_child=1 5 -4 24 -6 11 7 -9 9 -11 -12 20 13 17 -16 16 -18 -19 19 -21 21 22 23 -25 25 26 -28 28 -30 -31
leaf_value=-1.2824470245390527e-06 -0.0037574062224121005 0.0022964624894181423 -0.0014475412774481811 -0.0002491934574958565 -1.8411936367946122e-05 -1.0055454787450986e-05 -0.00010510934164183429 -0.00037522537955753208 0.0080586343142204 0.00094002223070544606 -0.00014017150345281776 0.00094529902562499055 0.0061028350971948546 -1.6660328493177981e-05 0.00065798580258463833 -4.0928439702838666e-05 -0.0028404749790206553 0.0018592556244887721 0.0025689012208385976 -7.3594706760638438e-06 -7.5064587116382765e-06 2.4116461721373131e-05 -0.0030824298305170881 -0.00046710965898222263 -0.0023336449268936124 7.8453085633395614e-05 -0.0014982622773560353 2.9558543648480699e-05 0.0030917965447852941 1.7804501773464708e-05
leaf_weight=203645 20 24 20 370 140 468 26 59 20 21 332 26 23 306 30 25 20 24 20 23 1626 127 21 39 20 184 27 221 22 9704
leaf_count=203645 20 24 20 370 140 468 26 59 20 21 332 26 23 306 30 25 20 24 20 23 1626 127 21 39 20 184 27 221 22 9704
internal_value=0 1.86706e-05 -2.25969e-06 4.39752e-07 -0.000485786 8.75478e-05 0.000341536 0.00123843 0.00265941 0.00441252 2.4096e-05 4.34794e-05 0.000200531 0.000521224 0.00302084 -2.03775e-05 -0.00128517 0.00011977 9.10035e-05 0.0011909 -3.67119e-05 -5.07948e-05 -0.000427195 -0.00138247 7.81519e-06 -0.000314678 -0.000123307 1.50359e-05 0.000306798 7.99814e-06
internal_weight=0 13988 10728 10708 160 3260 482 126 67 41 356 2778 939 383 53 556 45 330 511 43 1839 1813 187 60 10548 231 211 10317 243 10074
internal_count=217633 13988 10728 10708 160 3260 482 126 67 41 356 2778 939 383 53 556 45 330 511 43 1839 1813 187 60 10548 231 211 10317 243 10074
shrinkage=0.05


Tree=543
num_leaves=31
num_cat=0
split_feature=16 18 37 13 4 36 10 2 19 36 6 6 14 17 12 19 36 11 21 6 18 18 36 33 22 8 25 36 37 30
split_gain=0.00208571 0.0125807 0.0617672 0.160477 0.105403 0.215389 0.0619973 0.0310783 0.077729 0.0583921 0.0275254 0.0167633 0.0510917 0.0278586 0.0131569 0.0247776 0.151258 0.223137 0.230059 0.0329633 0.0321362 0.0238421 0.0211617 0.0191467 0.0171056 0.0270606 0.0295171 0.0406426 0.0588232 0.052631
threshold=3.3848150000000009e-05 13.390900000000002 -0.10141500000000002 1.2179350000000004e-06 -0.15847949999999997 0.77415 -9.7102499999999991e-06 0.99685600000000008 1.3589400000000003 -0.27744100000000016 4.4498500000000004e-07 -1.4101549999999999e-06 7.4882450000000013e-08 1.7182000000000002 1.1195050000000002e-06 -2.7551599999999996 0.077348000000000056 0.0014416350000000004 -0.24490649999999997 -1.1549749999999999e-07 -5.3419649999999992 -15.424049999999998 0.056773999999999998 0.00019513800000000003 6.2236100000000008 3.7564000000000008e-05 -0.48753549999999996 -0.46506469999999994 -0.43858299999999995 1.2911250000000003
decision_type=2 2 2 2 2 2 2 2 2 2 2 2 2 2 2 2 2 2 2 2 2 2 2 2 2 2 2 2 2 2
left_child=1 14 3 4 5 -3 -4 9 -9 -8 11 13 -13 -10 -1 16 17 18 -16 -19 -18 22 -17 24 -23 26 -26 -28 -29 -30
right_child=-2 2 6 -5 -6 -7 7 8 10 -11 -12 12 -14 -15 15 21 20 19 -20 -21 -22 23 -24 -25 25 -27 27 28 29 -31
leaf_value=-3.5029717146300755e-06 3.7361509269893573e-06 0.0060325585695946678 -0.0027702830429188908 0.004376148859617012 -0.00025307438142661072 -0.0009640202479204163 -2.6144854035005383e-05 0.0030913226142594663 -0.00010522362906288305 -0.0025836509723297283 0.0017101918871048839 0.00027474692623061361 -0.002608025716009169 0.0020687173317128328 -0.0012564529989322181 -0.0019850886150864729 0.0019962706226942829 -0.0012125398095205048 -0.0088402963615953935 0.0015569406786068744 -8.1689950644765351e-05 -1.6797210103069974e-05 -0.00010706995264627041 0.0014285707679598338 0.0010036218324903925 3.5815025498759715e-05 -0.00024294973323252386 -9.4561736875675717e-05 -0.0037248158444478912 -0.00080535687268890727
leaf_weight=73790 137515 22 20 29 148 22 753 27 56 23 26 51 22 20 20 30 20 22 20 21 267 4159 30 22 23 253 118 40 38 26
leaf_count=73790 137515 22 20 29 148 22 753 27 56 23 26 51 22 20 20 30 20 22 20 21 267 4159 30 22 23 253 118 40 38 26
internal_value=0 -6.41275e-06 0.000152988 0.000909326 0.000385692 0.00253427 -1.44977e-05 4.18579e-05 0.000594297 -0.000101947 0.000209042 -5.29037e-05 -0.000594034 0.000466866 -8.87552e-06 -8.64719e-05 -0.000480543 -0.00236042 -0.00504837 0.000139997 6.31157e-05 -5.57046e-05 -0.00104608 -4.30048e-05 -4.99566e-05 -0.000326884 -0.000701427 -0.000878076 -0.0015987 -0.00253879
internal_weight=0 80118 1219 221 192 44 998 978 202 776 175 149 73 76 78899 5109 370 83 40 43 287 4739 60 4679 4657 498 245 222 104 64
internal_count=217633 80118 1219 221 192 44 998 978 202 776 175 149 73 76 78899 5109 370 83 40 43 287 4739 60 4679 4657 498 245 222 104 64
shrinkage=0.05


Tree=544
num_leaves=31
num_cat=0
split_feature=40 31 6 36 36 34 18 36 7 18 34 4 20 4 3 17 15 36 23 0 36 36 11 20 18 28 36 36 18 20
split_gain=0.00204945 0.00952735 0.0115231 0.00970404 0.0279182 0.00831442 0.0205335 0.0356417 0.00758167 0.00648233 0.0114633 0.0685436 0.34976 0.0456655 0.0435088 0.0476574 0.0273257 0.0529155 0.0163781 0.0469346 0.0113228 0.017572 0.027533 0.0108777 0.0150094 0.0134742 0.00827764 0.0994147 0.0338329 0.00783019
threshold=2.4429550000000004 -1.5367699999999997 -3.9944899999999989e-06 0.20129000000000011 -0.43704099999999996 -1.0090899999999998 4.9794500000000008 -0.60254799999999997 -2.4994749999999995e-06 14.999250000000002 0.08967940000000002 -1.2205099999999998 -12.040949999999999 -1.8861499999999998 -18.305499999999995 -1.9409599999999998 -0.00025226399999999993 0.68543200000000015 -0.062701649999999984 3.0384450000000007 -0.51801999999999981 0.43531000000000003 0.011360800000000002 -13.504999999999997 -6.1725999999999992 1.1329200000000001 -0.22452634999999985 0.30085850000000008 0.77184100000000011 -10.914099999999999
decision_type=2 2 2 2 2 2 2 2 2 2 2 2 2 2 2 2 2 2 2 2 2 2 2 2 2 2 2 2 2 2
left_child=-1 2 -2 4 -4 6 7 -3 -8 10 18 12 -12 -14 15 -13 17 -16 19 -7 -11 22 -22 24 -20 26 -26 28 -28 -18
right_child=1 5 3 -5 -6 9 8 -9 -10 20 11 14 13 -15 16 -17 29 -19 23 -21 21 -23 -24 -25 25 -27 27 -29 -30 -31
leaf_value=-2.5643899618024344e-06 -0.001243574280544698 1.9643116124475807e-05 -0.00024238493356361606 -0.00065267943444528756 0.0017471134479689811 -9.4733560949357022e-05 -0.00081364592725339429 0.0028271871869219468 0.00039383622911722904 4.0286241758787421e-05 0.0058841404231873553 8.1156822416232914e-05 -0.00020056218083208796 0.0020297875536252159 0.0031526655514608135 -0.0033705609248136171 -0.00043185606736027268 -0.00036388419191454255 -0.0015050360604488692 0.0028163331269752236 -0.00040116433053501372 -0.00013779870074492274 -0.0027149585265215138 9.7800011376259156e-06 -9.5785205269543715e-06 0.00096844591906189567 -0.001321128718518594 -2.2898259926891612e-06 -0.0039378329645842316 4.3373116611001054e-05
leaf_weight=170115 29 26 110 70 21 45 26 20 26 220 31 20 153 27 20 20 102 23 21 20 36 109 20 45064 319 26 30 286 21 577
leaf_count=170115 29 26 110 70 21 45 26 20 26 220 31 20 153 27 20 20 102 23 21 20 36 109 20 45064 319 26 30 286 21 577
internal_value=0 9.18055e-06 -0.000311844 -0.000177416 7.65423e-05 1.0742e-05 0.00047081 0.00124031 -0.000209905 9.78652e-06 1.14672e-05 0.000181294 0.000978799 0.00013399 -3.95369e-05 -0.0016447 4.93919e-05 0.00127172 7.86186e-06 0.000800979 -0.000194541 -0.000507643 -0.00122752 6.73544e-06 -0.000188428 -0.000147887 -0.000192132 -0.000364935 -0.0023986 -2.80162e-05
internal_weight=0 47518 230 201 131 47288 98 46 52 47190 46805 973 211 180 762 40 722 43 45832 65 385 165 56 45767 703 682 656 337 51 679
internal_count=217633 47518 230 201 131 47288 98 46 52 47190 46805 973 211 180 762 40 722 43 45832 65 385 165 56 45767 703 682 656 337 51 679
shrinkage=0.05


Tree=545
num_leaves=31
num_cat=0
split_feature=29 4 15 15 3 4 17 35 15 20 15 37 37 3 4 35 19 2 28 37 37 37 37 11 15 18 13 33 3 37
split_gain=0.00213182 0.0137112 0.0356738 0.018264 0.0373969 0.0358482 0.0994038 0.141912 0.0685733 0.0242051 0.0214133 0.0202984 0.0410134 0.0170747 0.0176472 0.0423335 0.0212006 0.0117326 0.0117522 0.00989813 0.0251391 0.00758345 0.0374869 0.0293543 0.00694217 0.00551582 0.00529326 0.00491044 0.00698667 0.00470093
threshold=-0.00090391799999999997 2.9223900000000005 0.0042538100000000011 0.0011059200000000003 -11.223199999999999 0.46668750000000003 -1.7634149999999997 0.34276850000000003 0.00010559900000000002 -9.7498999999999985 4.8129750000000003e-06 0.35345999999999994 -1.1385849999999997 -17.304849999999998 0.08589150000000001 0.069372400000000015 -2.6299349999999992 2.2091250000000007 -22.304899999999996 1.1279770000000002 -0.43858299999999995 0.22260499999999997 -0.17681499999999981 0.00074079700000000018 1.177705e-07 0.5292785000000001 -4.6602349999999998e-06 3.3001550000000009e-05 -8.8220999999999972 4.5331850000000005
decision_type=2 2 2 2 2 2 2 2 2 2 2 2 2 2 2 2 2 2 2 2 2 2 2 2 2 2 2 2 2 2
left_child=1 2 3 5 -5 10 7 -7 -8 -10 13 12 -12 -1 16 -16 -15 18 -3 20 -20 22 27 -24 -17 29 -27 28 -18 -23
right_child=-2 17 -4 4 -6 6 8 -9 9 -11 11 -13 -14 14 15 24 21 -19 19 -21 -22 25 23 -25 -26 26 -28 -29 -30 -31
leaf_value=0.0011740175420809778 4.4746740696727524e-07 0.00048670221354442242 0.001832623682513748 -0.0026521950581809509 0.00010393374741397566 0.0046123887522093532 0.0015529892529836313 8.0116052534625254e-05 -0.00059682241752108736 -0.0029422771249135787 -0.00024792196260162971 -0.00012804598581068503 -0.0032596116740023721 0.0012736738144737431 0.0020167864219040369 0.00081069838791154338 -0.0012830025177787653 -0.0013339800215626677 -0.000118019223167642 -8.4053070168010897e-06 -0.0019429146293987289 -0.00013340031720456835 -0.000479141344978165 -0.0028170852238545195 -9.7980537452024177e-05 0.00082108559339152043 4.3156014321428353e-05 -8.2734939376195954e-05 -0.00013268380099554743 -0.00079495301431355386
leaf_weight=29 215868 39 26 20 32 31 24 39 22 22 26 54 20 26 33 25 22 31 46 59 32 256 29 25 132 24 246 332 33 30
leaf_count=29 215868 39 26 20 32 31 24 39 22 22 26 54 20 26 33 25 22 31 46 59 32 256 29 25 132 24 246 332 33 30
internal_value=0 -5.47274e-05 -3.93058e-06 -3.50993e-05 -0.000956116 -2.73921e-06 0.000764639 0.00208727 -0.000596889 -0.00176955 -8.16499e-05 -0.000785527 -0.00155735 -2.4977e-05 -5.36422e-05 0.000388884 -0.000135832 -0.000437053 -0.000279072 -0.000497066 -0.000866694 -0.000172589 -0.000327426 -0.00156152 4.67136e-05 -4.97781e-05 0.000112305 -0.000155226 -0.000592811 -0.000202794
internal_weight=0 1765 1558 1532 52 1480 138 70 68 44 1342 100 46 1242 1213 190 1023 207 176 137 78 997 441 54 157 556 270 387 55 286
internal_count=217633 1765 1558 1532 52 1480 138 70 68 44 1342 100 46 1242 1213 190 1023 207 176 137 78 997 441 54 157 556 270 387 55 286
shrinkage=0.05


Tree=546
num_leaves=31
num_cat=0
split_feature=40 21 15 11 1 37 37 18 12 32 36 4 36 39 19 39 36 36 39 12 36 25 35 3 36 18 39 31 13 37
split_gain=0.00203724 0.0163993 0.0687677 0.0142687 0.0136096 0.0484832 0.150792 0.23361 0.19652 0.0787348 0.170928 0.367853 0.239514 0.220166 0.0467217 0.0455764 0.3033 0.0363937 0.0253963 0.0253926 0.0354477 0.0218345 0.0356338 0.0126005 0.0540198 0.0485124 0.101908 0.0436607 0.0999093 0.134978
threshold=-1.3566450000000001 -2.2419299999999995 -0.00028306949999999995 0.0046153250000000009 10.651350000000003 -0.10141500000000002 -0.026150000000000003 10.536600000000002 -6.5679299999999979e-08 -0.00025274999999999994 -0.10081500000000009 -0.097676349999999981 -0.011175000000000155 0.078545000000000101 1.1226900000000002 0.20156999999999983 -0.079468000000000025 -0.058960000000000005 -0.054875 -3.1572649999999994e-07 -0.32870999999999989 0.27127250000000008 0.013816900000000002 -15.510599999999998 4.6184500000000002 6.1622250000000012 4.1559750000000006 0.018029750000000001 -1.0656299999999998e-05 0.17390849999999994
decision_type=2 2 2 2 2 2 2 2 2 2 2 2 2 2 2 2 2 2 2 2 2 2 2 2 2 2 2 2 2 2
left_child=23 2 -2 -4 -3 21 7 -7 -9 10 -8 -12 -13 -14 -11 17 -17 19 -19 -16 -21 -6 -23 24 25 27 -27 -1 -29 -30
right_child=1 4 3 -5 5 6 9 8 -10 14 11 12 13 -15 15 16 -18 18 -20 20 -22 22 -24 -25 -26 26 -28 28 29 -31
leaf_value=-0.00051877724973778459 0.0032349991878436418 -2.1781522854180542e-06 0.00053834225219851265 -0.0011918136445108925 4.9834855436304174e-06 0.0016632168556679973 0.00011566050481815337 -0.001315240953117609 -0.0081633609253913171 0.0024276007350999863 0.0013636327175519025 -0.0087456250781542625 -0.0062375676685145929 0.00084348977467490604 0.0013203692771323562 1.9466820796740775e-05 -0.0053891365050471257 0.0025146737461909652 0.00071010030494562677 1.1316203953659474e-05 -0.002196411454497138 0.0026917792938183993 -0.00013975669509454748 6.8259491377852529e-06 0.0023242482021617306 0.0034684524186349552 -0.00084246318699021281 -0.0013731440345955495 0.0029762138445221355 -0.00057940185118544223
leaf_weight=658 20 112892 26 22 1996 20 148 20 22 20 39 24 21 23 23 349 28 23 128 75 24 20 25 100751 21 26 29 53 56 51
leaf_count=658 20 112892 26 22 1996 20 148 20 22 20 39 24 21 23 23 349 28 23 128 75 24 20 25 100751 21 26 29 53 56 51
internal_value=0 -4.52862e-06 0.00077172 -0.000254646 -4.98397e-06 -0.000109593 -0.0003973 -0.00278443 -0.00490235 -0.000237298 -0.000985036 -0.0025075 -0.0047277 -0.00253611 4.72892e-05 -2.59511e-05 -0.000382233 0.000466057 0.000984969 -0.000176202 -0.000523891 2.95388e-05 0.0011187 5.16764e-06 -0.000181718 -0.000241999 0.00119542 -0.000338647 0.000402137 0.00128148
internal_weight=0 115988 68 48 115920 3028 987 62 42 925 255 107 68 44 670 650 377 273 151 122 99 2041 45 101645 894 873 55 818 160 107
internal_count=217633 115988 68 48 115920 3028 987 62 42 925 255 107 68 44 670 650 377 273 151 122 99 2041 45 101645 894 873 55 818 160 107
shrinkage=0.05


Tree=547
num_leaves=31
num_cat=0
split_feature=24 13 9 4 39 3 13 39 15 11 18 14 4 6 13 21 36 36 16 4 18 36 32 15 13 22 20 1 17 22
split_gain=0.00202478 0.0086653 0.0131688 0.0332759 0.0155306 0.0117853 0.01748 0.0114977 0.0188687 0.0126966 0.0316343 0.0179268 0.0556295 0.0264613 0.0177714 0.0260815 0.018649 0.0261602 0.0144857 0.0114195 0.0108996 0.00843099 0.0058843 0.0058489 0.0210834 0.00559562 0.0060109 0.00506839 0.00396239 0.026453
threshold=91.481750000000019 -5.7111899999999989e-06 -0.00035055549999999991 5.1455300000000008 -10.150264999999997 -13.009399999999998 -0.00011856649999999998 -3.2877999999999998 0.00061356150000000016 0.0014874650000000001 18.392150000000004 -2.2078049999999998e-07 0.46668750000000003 3.5548950000000005e-07 0.00010587350000000002 -2.2419299999999995 -1.1998556 0.74319900000000005 0.0017507150000000001 -1.4133199999999999 18.392150000000004 -0.12496499999999998 -0.60180299999999987 -2.1298199999999995e-05 3.3134750000000005e-06 115.80600000000001 -5.7717399999999985 -13.794199999999998 -14.223749999999997 0.33580650000000006
decision_type=2 2 2 2 2 2 2 2 2 2 2 2 2 2 2 2 2 2 2 2 2 2 2 2 2 2 2 2 2 2
left_child=28 5 3 -3 -4 6 -2 8 19 11 14 13 23 21 15 -11 -17 18 -18 -6 22 -9 -7 -13 27 -21 -27 -25 29 -1
right_child=1 2 4 -5 7 20 -8 9 -10 10 -12 12 -14 -15 -16 16 17 -19 -20 25 -22 -23 -24 24 -26 26 -28 -29 -30 -31
leaf_value=0.0013109634545149427 -5.4272892509376819e-06 0.002008253924521761 -0.0013492989094877638 -0.00070451238171699527 0.00098254636432102424 0.00078582197449923979 -0.0016150106651538583 0.0005056854382928577 0.0014001492616337013 0.00035213091168477534 0.0012981382247138149 0.00083939750038553029 0.0021292548782184894 -0.0019033477608273047 0.00011971921801951044 -0.00027700045784513351 -0.0032478847245399193 -0.00059047404886974442 -0.0014580335773644038 0.00025195164344040679 -0.001179059265467169 -0.00079185401865299271 -0.00010133405963535873 -0.00072516049668510361 -0.0016273262636968867 -4.1958561851060948e-06 -0.00089036492093826742 4.6913534919258095e-05 -2.5627254071856733e-07 4.3406038952267963e-05
leaf_weight=42 31 26 22 20 32 21 37 31 34 31 24 20 32 29 57 32 26 31 20 77 22 21 170 22 20 50 31 629 213934 2059
leaf_count=42 31 26 22 20 32 21 37 31 34 31 24 20 32 29 57 32 26 31 20 77 22 21 170 22 20 50 31 629 213934 2059
internal_value=0 -5.60751e-05 -2.29356e-06 0.00082879 -3.23721e-05 -0.00030814 -0.00088123 -9.17565e-06 0.000315338 -8.00938e-05 -0.000415742 1.21678e-05 9.11932e-05 -0.000693207 -0.00062454 -0.000927559 -0.00129151 -0.00171312 -0.00246969 0.000121214 -0.000125182 -1.83209e-05 -3.79334e-06 -3.18885e-06 -2.83032e-05 -5.32331e-05 -0.000343347 2.08219e-05 4.14785e-07 6.87451e-05
internal_weight=0 1598 1317 46 1271 281 68 1249 224 1025 221 804 723 81 197 140 109 77 46 190 213 52 191 691 671 158 81 651 216035 2101
internal_count=217633 1598 1317 46 1271 281 68 1249 224 1025 221 804 723 81 197 140 109 77 46 190 213 52 191 691 671 158 81 651 216035 2101
shrinkage=0.05


Tree=548
num_leaves=31
num_cat=0
split_feature=4 21 4 18 36 9 19 17 7 0 32 36 3 12 36 36 14 36 5 7 26 3 40 5 22 10 36 36 29 10
split_gain=0.00200863 0.0191019 0.0673079 0.126684 0.286557 0.861722 0.257754 0.121587 0.166375 0.102146 0.0911972 0.155016 0.0637946 0.0793057 0.116738 0.184044 0.0932559 0.0904256 0.0566874 0.0997099 0.117621 0.0638896 0.104348 0.128952 0.0667751 0.0584769 0.0971868 0.127108 0.103045 0.0554526
threshold=0.24725400000000003 0.62895050000000008 1.8987000000000003 7.0074550000000011 -0.3819765 4.247685000000001e-05 1.7847250000000001 -10.065 -3.2648249999999994e-05 1.2217400000000003 0.10225450000000001 0.46240350000000002 -7.4119349999999988 5.756625000000001e-06 0.354709 -0.018010000000000078 4.8443000000000012e-06 -0.63161949999999989 1.0390250000000001e-05 -1.6993899999999997e-05 0.13068350000000004 -14.605749999999999 -1.39714 2.2148600000000003e-05 3.5039900000000004 3.8018750000000006e-05 0.43531000000000003 -0.22452634999999985 -1.7351949999999996e-05 6.2308800000000016e-05
decision_type=2 2 2 2 2 2 2 2 2 2 2 2 2 2 2 2 2 2 2 2 2 2 2 2 2 2 2 2 2 2
left_child=-1 -2 3 7 -5 6 9 8 -3 -6 11 -10 13 18 15 16 -15 -18 19 20 -9 -20 24 25 -23 26 27 -24 -29 -21
right_child=1 2 -4 4 5 -7 -8 12 10 -11 -12 -13 -14 14 -16 -17 17 -19 21 29 -22 22 23 -25 -26 -27 -28 28 -30 -31
leaf_value=-2.8881636463666985e-06 6.8641620259400019e-07 0.0043854146360995643 -8.5664128970259872e-05 -0.00029017131273181092 -0.0010010085935508676 0.012258478624391415 0.0057848596088588243 -0.00023561793596202059 0.0054160274178138941 0.0026030574074476526 -0.00091452640777822799 -0.00054421118053748314 -0.0005426485884876737 -0.0015836223381484162 -0.00054860554053855844 0.0058006537353826899 4.8922121131909079e-05 0.0042604940764319433 -0.00068178636404901032 -0.0003876642969246766 -0.0046273529028985653 0.0016990417010573665 -0.0003457152719006858 0.0043149426496313483 -0.00069583554728691718 -0.00044852577820277302 -0.00034045929143238548 0.0067183634181591598 0.0018217378118563267 0.0024806437757069946
leaf_weight=159846 54284 38 1853 138 66 21 25 31 20 28 53 24 376 24 58 27 25 26 129 107 30 36 22 32 152 57 42 22 21 20
leaf_count=159846 54284 38 1853 138 66 21 25 31 20 28 53 24 376 24 58 27 25 26 129 107 30 36 22 32 152 57 42 22 21 20
internal_value=0 7.98902e-06 0.000121153 0.000353416 0.00132671 0.00292049 0.00127261 0.000156203 0.001581 7.2543e-05 0.000482367 0.00216499 7.07673e-07 0.000237992 0.00124242 0.00226085 0.00098652 0.002196 8.73576e-06 -0.000734 -0.00239549 0.000280927 0.000604339 0.00141157 -0.000237242 0.000845058 0.00153416 0.00274546 0.00432699 6.40378e-05
internal_weight=0 57787 3503 1650 278 140 119 1372 135 94 97 44 1237 861 160 102 75 51 701 188 61 513 384 196 188 164 107 65 43 127
internal_count=217633 57787 3503 1650 278 140 119 1372 135 94 97 44 1237 861 160 102 75 51 701 188 61 513 384 196 188 164 107 65 43 127
shrinkage=0.05


Tree=549
num_leaves=31
num_cat=0
split_feature=24 10 3 34 18 10 5 4 7 34 36 36 39 4 3 4 4 28 36 36 18 5 34 36 36 6 4 10 32 1
split_gain=0.00208834 0.0119063 0.0145123 0.0285734 0.0136756 0.0132086 0.00891038 0.0152596 0.0821551 0.0534183 0.0756009 0.200894 0.139352 0.14319 0.108372 0.0471703 0.0435565 0.0346174 0.0617692 0.195142 0.0211771 0.0209783 0.0279012 0.0294343 0.0890179 0.0188505 0.0171235 0.0146977 0.0143947 0.0142028
threshold=29.419400000000007 -7.1201799999999986e-05 -16.131449999999997 0.6802760000000001 11.074800000000002 -6.7776199999999983e-05 3.1472150000000003e-05 -0.54650249999999989 5.6286850000000008e-05 0.6802760000000001 0.80350500000000014 -0.51801999999999981 -0.27803499999999998 -1.3105149999999999 -9.8562249999999967 -1.0382099999999996 -0.25665499999999991 -1.3507849999999997 0.51872500000000021 -0.12496499999999998 14.003250000000001 2.8947200000000003e-05 0.18048750000000005 0.12375499999999996 -0.19934349999999995 8.575480000000001e-07 -2.6817999999999995 1.0000000180025095e-35 -0.60180299999999987 14.818150000000001
decision_type=2 2 2 2 2 2 2 2 2 2 2 2 2 2 2 2 2 2 2 2 2 2 2 2 2 2 2 2 2 2
left_child=-1 2 3 -2 -4 -3 7 8 9 21 11 15 -13 14 -14 26 17 20 19 -19 28 22 -7 24 -24 -25 -11 -12 -9 -8
right_child=1 5 4 -5 -6 6 29 16 -10 10 27 12 13 -15 -16 -17 -18 18 -20 -21 -22 -23 23 25 -26 -27 -28 -29 -30 -31
leaf_value=8.6067665135159382e-07 -0.00014905970061330923 0.0010296181544314702 0.00010515051184292564 -0.002623505349038169 -0.0013333683065138758 -3.4692265529025063e-05 -0.00020348762815119577 -0.0011074137193454112 0.0027937740922488016 -0.00021933266883879146 0.00090212521783541901 0.0061671968963006897 0.0022845341029592834 0.0043024844835599652 -0.0028008882363792509 0.0018897456757258624 4.8364704966056691e-06 -0.00049772415216450512 -0.00016611423875368675 -0.0058723025227664042 0.0014597138941462619 0.0014142854588239321 -0.00036701694008014688 -0.00063790725266285749 -0.004376091771700885 0.0011230425810416428 -0.0016439548630695492 -0.0005713914185782249 4.5781375979942751e-05 0.00085287954339450644
leaf_weight=211114 28 30 95 20 20 576 889 38 29 66 20 24 22 32 20 22 3971 57 86 24 20 21 45 55 20 21 31 110 94 33
leaf_count=211114 28 30 95 20 20 576 889 38 29 66 20 24 22 32 20 22 3971 57 86 24 20 21 45 55 20 21 31 110 94 33
internal_value=0 -2.78725e-05 -0.000449827 -0.00118008 -0.000145027 -1.70515e-05 -2.20151e-05 2.49591e-06 0.000167377 9.7178e-05 0.000608817 0.00118005 0.00285647 0.00178272 -0.000137096 -0.000200539 -4.03193e-05 -0.000602431 -0.00109935 -0.00209019 -5.64736e-05 -0.000143389 -0.000189012 -0.000819423 -0.00160058 -0.000151329 -0.000674624 -0.000344697 -0.000286199 -0.000165678
internal_weight=0 6519 163 48 115 6356 6326 5404 1114 1085 347 217 98 74 42 119 4290 319 167 81 152 738 717 141 65 76 97 130 132 922
internal_count=217633 6519 163 48 115 6356 6326 5404 1114 1085 347 217 98 74 42 119 4290 319 167 81 152 738 717 141 65 76 97 130 132 922
shrinkage=0.05


Tree=550
num_leaves=31
num_cat=0
split_feature=36 36 5 26 4 5 36 4 11 27 17 6 28 28 26 10 40 15 5 5 35 22 13 32 40 29 37 39 36 25
split_gain=0.00203842 0.0294227 0.0675941 0.129547 0.214395 0.176605 0.193574 0.154241 0.149164 0.0992426 0.208294 0.138582 0.134072 0.223512 0.22033 0.203167 0.168198 0.1844 0.165342 0.121714 0.116634 0.196907 0.119679 0.175432 0.120439 0.211141 0.114294 0.147634 0.229113 0.24751
threshold=-0.19934349999999995 -0.018010000000000078 1.2137100000000001e-05 -0.049149049999999993 -0.18381849999999997 8.8800600000000022e-06 -0.10081500000000009 0.044857050000000002 0.00027562450000000004 0.00043582050000000007 7.8420150000000008 -1.5427749999999998e-06 -1.0750649999999997 -0.50151349999999983 -0.019959349999999997 -1.8862399999999994e-05 -2.1380549999999996 -1.7388649999999999e-06 6.9938750000000009e-06 1.0838450000000003e-05 0.020672650000000004 10.229550000000001 3.6544900000000005e-06 -0.0034555399999999996 -2.9215450000000001 -4.8226049999999992e-05 0.09983149999999999 -1.1067849999999997 -0.040859549999999939 -0.0320142
decision_type=2 2 2 2 2 2 2 2 2 2 2 2 2 2 2 2 2 2 2 2 2 2 2 2 2 2 2 2 2 2
left_child=-1 2 3 4 5 -2 -7 8 -6 -5 12 -12 -11 19 15 -15 -17 -18 -16 -14 21 22 24 -24 -20 -26 27 -27 29 -29
right_child=1 -3 -4 9 7 6 -8 -9 -10 10 11 -13 13 14 18 16 17 -19 20 -21 -22 -23 23 -25 25 26 -28 28 -30 -31
leaf_value=5.304832727535763e-06 0.00060349776564786839 2.1463634714503141e-06 -0.00020049330167386831 -8.3066079460786835e-05 0.00017503996542390352 -0.0013079030174677347 -0.0075275782379321757 -0.0010803036331651584 0.0051438131324096541 -0.0015444588768949883 0.0058830295540874119 0.0013190126451006973 0.0018837285035988316 0.0024071060262609869 0.0050347982981682957 6.9309906224849078e-05 -0.0010520338724018077 -0.00725014537882089 -0.00025011794329222304 0.0065844582286358451 0.0040406211051563527 -0.0038482599282780522 -0.0052945694733352866 0.00012415451465747507 0.006295208333176561 -0.0013046320422757001 -0.00029466477513339891 -0.00073224304430186756 0.00064434640763075951 0.0048983478303240048
leaf_weight=98843 21 111070 5243 1138 44 22 29 128 23 81 29 39 40 22 21 28 20 30 184 21 23 26 20 59 20 39 116 25 140 89
leaf_count=98843 21 111070 5243 1138 44 22 29 128 23 81 29 39 40 22 21 28 20 30 184 21 23 26 20 59 20 39 116 25 140 89
internal_value=0 -4.41405e-06 -9.88008e-05 0.000116449 -0.000923856 -0.00325556 -0.00484458 -6.292e-05 0.00188074 0.000242133 0.000587354 0.00326543 0.00040597 0.000577134 0.000370153 -0.00183648 -0.00303339 -0.0047709 0.000659738 0.00350201 0.000535748 0.000423475 0.000583974 -0.00124767 0.000820026 0.00127902 0.00103373 0.00155964 0.00199943 0.00366357
internal_weight=0 118790 7720 2477 267 72 51 195 67 2210 1072 68 1004 923 862 100 78 50 762 61 741 718 692 79 613 429 409 293 254 114
internal_count=217633 118790 7720 2477 267 72 51 195 67 2210 1072 68 1004 923 862 100 78 50 762 61 741 718 692 79 613 429 409 293 254 114
shrinkage=0.05


Tree=551
num_leaves=31
num_cat=0
split_feature=14 33 15 10 34 1 34 30 3 14 3 10 7 7 29 16 14 19 2 36 36 19 3 8 15 28 33 15 16 16
split_gain=0.00208053 0.00841039 0.0488618 0.022864 0.0188067 0.0445067 0.0126579 0.00891709 0.0237199 0.00881965 0.00935535 0.00805048 0.00514631 0.00494175 0.00488221 0.00885772 0.00945975 0.012743 0.00696136 0.00531705 0.0259643 0.00464272 0.0161584 0.00965737 0.00389634 0.0566222 0.00407329 0.0913211 0.0176563 0.0569423
threshold=6.1187250000000013e-05 -2.7510949999999998e-05 0.00014095500000000004 0.00021504100000000004 -3.2628099999999995 -1.0953499999999996 -1.0090899999999998 6.2013600000000011 -17.304849999999998 0.00023692700000000003 -11.279499999999997 -8.7538749999999986e-05 1.1207750000000001e-05 -1.2306999999999998e-05 -0.00020540699999999998 0.0045184900000000009 0.00018436750000000004 1.0128700000000002 0.69140900000000005 0.38220950000000015 -0.25142799999999998 1.9654450000000001 -15.867949999999999 5.8844850000000006e-05 0.014310250000000002 0.53085600000000011 -1.6329399999999996e-05 0.006463130000000001 0.0019525250000000003 0.0024905200000000004
decision_type=2 2 2 2 2 2 2 2 2 2 2 2 2 2 2 2 2 2 2 2 2 2 2 2 2 2 2 2 2 2
left_child=24 2 -2 -4 5 -3 12 14 -9 10 -5 -10 13 -6 15 18 17 -17 -8 20 -18 22 -13 -23 26 -26 27 28 -1 -30
right_child=1 4 3 9 6 -7 7 8 11 -11 -12 21 -14 -15 -16 16 19 -19 -20 -21 -22 23 -24 -25 25 -27 -28 -29 29 -31
leaf_value=-3.504449118143862e-05 -0.0023306772058066809 -0.00042685905622784045 0.0012781570954569456 -0.0016402555126114752 -0.00051756772907083357 0.0026566870298913936 -0.00031814330790028535 0.0018195965711999198 0.0011059417202237197 5.5212375957273403e-05 -0.00021349191222354961 -0.0013662500565988012 -0.00011182155927492527 -0.00151946233221679 1.6374611562107124e-05 -3.3589310836153651e-06 -5.6755516202865197e-05 0.0014988276271469658 -0.001514625677955337 3.5511217010068884e-05 -0.0020162644555305385 5.4770951862528189e-05 0.00011676709745370319 0.0013846752150129761 -8.1450172021550041e-05 0.0027393660516827367 -2.6484152435523339e-06 0.0034276693022547988 0.0017321457099823139 9.7569315439959662e-05
leaf_weight=1865 26 25 29 20 32 22 31 23 21 74 27 20 34 20 20936 48 73 20 20 84 22 43 225 20 161 20 193190 20 61 421
leaf_count=1865 26 25 29 20 32 22 31 23 21 74 27 20 34 20 20936 48 73 20 20 84 22 43 225 20 161 20 193190 20 61 421
internal_value=0 1.46171e-05 -0.000329629 1.72192e-05 1.74067e-05 0.0010165 1.52399e-05 1.76519e-05 0.000267249 -0.000284989 -0.000820625 0.000158727 -0.000590155 -0.000902912 1.35142e-05 -0.000187442 -6.35737e-05 0.000438461 -0.000787352 -0.000254291 -0.000510537 9.41437e-05 -4.29553e-06 0.000476963 -1.63505e-06 0.000230242 -1.84966e-06 6.3343e-05 3.46739e-05 0.000304435
internal_weight=0 21895 176 150 21719 47 21672 21586 352 121 47 329 86 52 21234 298 247 68 51 179 95 308 245 63 195738 181 195557 2367 2347 482
internal_count=217633 21895 176 150 21719 47 21672 21586 352 121 47 329 86 52 21234 298 247 68 51 179 95 308 245 63 195738 181 195557 2367 2347 482
shrinkage=0.05


Tree=552
num_leaves=31
num_cat=0
split_feature=26 2 32 2 8 2 4 9 10 9 3 17 10 28 2 18 2 2 18 2 19 9 17 37 17 9 30 4 12 15
split_gain=0.00214559 0.0292206 0.0341998 0.0278198 0.0773209 0.0233258 0.0397929 0.0350912 0.0925219 0.0409459 0.0427964 0.0372346 0.0305959 0.017035 0.0154111 0.0333239 0.0158603 0.0394954 0.0220923 0.0170606 0.0152732 0.0143281 0.0629089 0.0341686 0.0300491 0.0145575 0.0194012 0.0200258 0.0392756 0.02949
threshold=0.55826100000000012 -2.9738899999999995 0.18330700000000003 -2.8455549999999996 5.7424400000000005e-05 2.9632050000000003 0.17779150000000002 -0.00027218349999999996 -5.5566899999999992e-07 -0.00019804799999999998 -12.288549999999999 5.0058800000000003 -1.4988849999999998e-06 20.036400000000004 2.8060500000000004 -4.6981599999999988 -2.7279399999999994 -2.6524249999999996 -5.5781649999999994 -2.6029249999999995 2.4316000000000004 -0.00010305049999999998 -1.3693099999999998 -0.66104499999999999 -12.464199999999998 -1.7778499999999996e-05 99.159650000000013 0.8580755000000001 -1.3871299999999999e-05 3.940980000000001e-05
decision_type=2 2 2 2 2 2 2 2 2 2 2 2 2 2 2 2 2 2 2 2 2 2 2 2 2 2 2 2 2 2
left_child=-1 2 -2 4 -3 7 12 8 -5 10 -9 13 20 -10 16 -16 18 -18 -11 -19 -7 22 23 -21 -25 26 27 29 -29 -23
right_child=1 3 -4 5 -6 6 -8 9 11 14 -12 -13 -14 -15 15 -17 17 19 -20 21 -22 25 -24 24 -26 -27 -28 28 -30 -31
leaf_value=6.0925364968990456e-07 -0.0022552260510565248 0.0024803937858827773 -3.6701783966763238e-05 0.0038295396790181259 -0.00091523817565757797 -0.00021900214497177136 -0.0023177005899682021 -0.0031819343256453674 -0.00018129843150235949 -0.0021358627015225858 -0.00035590146647803989 0.0019296487678918219 -0.0016327960694483903 0.0013350249961062912 0.00059925984666430549 -0.0018197325850737149 0.0020610177431397304 -0.0014394754388680061 -6.4164529562574535e-06 0.0012858680342544867 0.0016702525860819153 -0.00021344739840482624 0.0027542374220211061 0.00049310482365854118 -0.0018634655607075409 2.071993090567604e-05 -0.0012863973851522639 -0.00038908112214163079 0.0022707102903159865 -0.0021561299988423432
leaf_weight=214404 32 38 38 20 30 23 30 21 157 21 37 29 22 21 24 35 23 21 29 29 20 280 25 24 31 2045 45 35 23 21
leaf_count=214404 32 38 38 20 30 23 30 21 157 21 37 29 22 21 24 35 23 21 29 29 20 280 25 24 31 2045 45 35 23 21
internal_value=0 -4.04541e-05 -0.00105088 -1.80641e-05 0.000982321 -4.00719e-05 -0.000811416 -1.56134e-05 0.000582036 -6.46082e-05 -0.00137912 0.000268268 -0.000116208 -2.40634e-06 -3.64851e-05 -0.000835736 -1.87039e-05 -1.75385e-06 -0.000900784 -2.015e-05 0.000659721 -8.49802e-06 0.000552415 -0.00010289 -0.000835144 -3.34631e-05 -0.000307731 -0.000185057 0.000665664 -0.000348983
internal_weight=0 3229 70 3159 68 3091 95 2996 227 2769 58 207 65 178 2711 59 2652 2602 50 2579 43 2558 109 84 55 2449 404 359 58 301
internal_count=217633 3229 70 3159 68 3091 95 2996 227 2769 58 207 65 178 2711 59 2652 2602 50 2579 43 2558 109 84 55 2449 404 359 58 301
shrinkage=0.05


Tree=553
num_leaves=31
num_cat=0
split_feature=40 3 6 3 34 3 36 37 40 3 33 30 40 29 39 8 30 13 33 39 36 21 29 30 5 39 14 17 4 21
split_gain=0.00203812 0.010488 0.0627665 0.0117545 0.0162362 0.0084488 0.0147614 0.12383 0.332736 0.311385 0.359136 0.303878 0.411629 0.249586 0.236912 0.219585 0.233767 0.194219 0.195582 0.298025 0.246999 0.41988 0.193225 0.18018 0.142081 0.140932 0.487315 0.461241 0.165242 0.509334
threshold=-1.6465599999999998 -18.305499999999995 1.0000000180025095e-35 -17.495099999999997 0.0086255750000000016 -7.0771999999999986 -0.12496499999999998 -0.12554300000000002 -0.16918499999999967 -5.6211599999999988 -3.5934549999999993e-07 0.0042630950000000006 -0.47859499999999983 -3.5620349999999992e-05 0.72566000000000008 1.8691000000000005e-05 0.0096317150000000008 -3.2239999999999995e-06 -2.2249199999999998e-07 -0.19603999999999996 0.039429999999999972 -0.15667699999999998 1.3446100000000002e-05 0.19727550000000002 9.4955250000000009e-06 -0.19603999999999996 4.5743450000000006e-07 1.6364150000000002 0.15463500000000002 0.14812050000000002
decision_type=2 2 2 2 2 2 2 2 2 2 2 2 2 2 2 2 2 2 2 2 2 2 2 2 2 2 2 2 2 2
left_child=1 2 -1 4 -3 -2 -7 -8 9 10 14 12 -12 -10 -9 16 -13 -15 19 -19 25 -22 24 -11 -17 26 27 -20 -27 -30
right_child=5 3 -4 -5 -6 6 7 8 13 23 11 15 -14 17 -16 22 -18 18 20 -21 21 -23 -24 -25 -26 28 -28 -29 29 -31
leaf_value=-0.0011374879464884067 1.627414276791226e-06 -0.0017273789146439293 0.0027283112806755876 5.4907503042807941e-06 0.00022052479216654321 1.3974584158209743e-05 1.2713344800831921e-05 -0.0097464639124651021 -0.0051246588797252829 -1.1293874316227932e-05 -0.00099196191728223387 -0.0079173940815962848 -0.0082388441179520877 -0.0034055637583246846 -0.0025631330293739061 0.0024635839990799508 -0.0017314943055680488 0.0065288336738012738 -9.5161127521552975e-06 0.00051848683386086845 0.0027330994443036617 -0.0062172485599723201 -0.0035083364113233984 0.0047821851563639942 -0.00049987637064525679 0.00051729580822284127 0.0050839770858874551 -0.0084040047763846819 -0.0087370505195576691 0.00014132520857185142
leaf_weight=21 101525 23 21 95533 20 9086 9044 22 23 180 43 21 36 38 24 46 56 30 36 66 20 38 48 22 335 1122 20 30 20 84
leaf_count=21 101525 23 21 95533 20 9086 9044 22 23 180 43 21 36 38 24 46 56 30 36 66 20 38 48 22 335 1122 20 30 20 84
internal_value=0 5.46587e-06 0.000795412 5.11874e-06 -0.000821377 -4.28337e-06 -3.35705e-05 -7.14514e-05 -0.000393988 -0.00119781 -0.00174477 -0.00141028 -0.00429434 4.45096e-05 -0.00599864 -0.000960006 -0.00341856 0.000123559 0.000215037 0.00239672 6.21603e-05 -0.00313092 -0.000518727 0.000510768 -0.000142083 0.000203318 -0.00175329 -0.00382519 0.000340568 -0.00156605
internal_weight=0 95618 42 95576 43 122015 20490 11404 2360 833 631 585 79 1527 46 506 77 1504 1466 96 1370 58 429 202 381 1312 86 66 1226 104
internal_count=217633 95618 42 95576 43 122015 20490 11404 2360 833 631 585 79 1527 46 506 77 1504 1466 96 1370 58 429 202 381 1312 86 66 1226 104
shrinkage=0.05


Tree=554
num_leaves=31
num_cat=0
split_feature=1 17 1 14 6 3 29 3 8 2 19 37 37 3 2 7 7 37 23 9 8 26 27 28 27 39 39 18 39 17
split_gain=0.00204178 0.00730904 0.0658691 0.0171394 0.0248948 0.0118414 0.00616515 0.0114462 0.0451979 0.0144614 0.0119869 0.016712 0.0268453 0.0265104 0.0126074 0.0125645 0.0309595 0.0204342 0.0255806 0.0150156 0.0132065 0.010404 0.0100601 0.00594689 0.0350866 0.242466 0.0230231 0.0957294 0.0849525 0.118609
threshold=5.9655550000000011 -19.608449999999998 6.8996100000000009 2.4653500000000006e-07 2.4187900000000002e-06 -6.7163849999999998 -0.00090391799999999997 -16.558299999999999 2.5716400000000003e-05 -1.0112149999999998 -2.6299349999999992 0.24875600000000014 0.37828249999999997 -15.732949999999999 -1.5220949999999998 2.7580050000000004e-05 3.4978950000000008e-05 -0.43858299999999995 0.011675600000000003 -7.7868449999999985e-05 4.4826950000000006e-05 0.70424300000000006 0.12582950000000004 -0.32370999999999994 0.0011044700000000002 0.052215000000000351 -0.41630000000000006 8.5720600000000022 -0.12174999999999957 -4.4743249999999994
decision_type=2 2 2 2 2 2 2 2 2 2 2 2 2 2 2 2 2 2 2 2 2 2 2 2 2 2 2 2 2 2
left_child=6 2 -2 4 -4 -5 7 8 9 -1 -9 13 -13 -12 -15 17 -17 19 -19 21 -18 -16 -22 24 25 -3 27 -26 29 -28
right_child=1 23 3 5 -6 -7 -8 10 -10 -11 11 12 -14 14 15 16 20 18 -20 -21 22 -23 -24 -25 26 -27 28 -29 -30 -31
leaf_value=0.00043441771730006926 0.0022167246032433864 -0.0057646621268975743 -0.00011569690551883709 1.3781930361541788e-05 0.0017760756134521218 -0.0013571988406410028 -1.8378556041797774e-06 0.00075607633455850498 0.002382577283821196 -0.0013860431266948582 -0.0021096241411710666 0.001409290836196423 -9.1637354164019255e-05 -0.0011963654416735825 -0.00037273393623763699 -0.0019391773462463309 0.00068900355846077826 0.0021436987979210533 -0.00032702261627036932 3.9798422883806017e-05 -0.00010710109795704863 -0.001672982762567699 -0.0014772702867741742 1.368689506832436e-05 0.00068538307725172869 0.00015567731061866876 0.00092375338974519806 -0.00048003404225713437 -2.3122312423710088e-05 -0.0020612169236093841
leaf_weight=24 37 21 83 28 22 36 164535 36 22 20 22 31 764 38 40 34 30 22 20 147 37 25 21 45485 459 98 47 286 5049 114
leaf_count=24 37 21 83 28 22 36 164535 36 22 20 22 31 764 38 40 34 30 22 20 147 37 25 21 45485 459 98 47 286 5049 114
internal_value=0 8.66913e-06 0.000305905 -0.00011244 0.000280674 -0.000757395 -2.70551e-06 -0.000109802 0.000532149 -0.000393064 -0.000143242 -0.000169542 -3.31106e-05 -0.000418311 -0.000328434 -0.000240718 -0.000657765 -4.04041e-05 0.000967165 -0.000240017 -0.000162674 -0.00087283 -0.000603197 7.48155e-06 -3.8987e-05 -0.000889088 -2.19993e-05 0.000237988 -5.9176e-05 -0.00118983
internal_weight=0 51765 206 169 105 64 165868 1333 66 44 1267 1231 795 436 414 376 122 254 42 212 88 65 58 51559 6074 119 5955 745 5210 161
internal_count=217633 51765 206 169 105 64 165868 1333 66 44 1267 1231 795 436 414 376 122 254 42 212 88 65 58 51559 6074 119 5955 745 5210 161
shrinkage=0.05


Tree=555
num_leaves=31
num_cat=0
split_feature=24 3 3 0 6 18 13 12 39 25 11 14 9 13 18 13 13 13 25 7 8 3 13 8 16 18 14 35 36 1
split_gain=0.00198826 0.00768491 0.013032 0.0406633 0.012692 0.0108383 0.0210953 0.0124245 0.0136217 0.0182283 0.013203 0.00886831 0.00842456 0.0131995 0.0614279 0.019403 0.015497 0.0218511 0.0113013 0.019849 0.0182016 0.010197 0.00818013 0.0102557 0.00734242 0.00597501 0.00838291 0.00717471 0.00531598 0.005069
threshold=91.481750000000019 -13.009399999999998 -11.515449999999998 5.4701800000000009 2.3526650000000005e-06 -15.424049999999998 2.1242850000000004e-06 4.3407200000000007e-05 -6.3399599999999987 -1.7331449999999997 0.0078496150000000025 1.3966850000000002e-05 6.0793300000000006e-05 2.9426600000000004e-05 10.191550000000001 1.7917850000000003e-05 8.7195400000000012e-06 3.9398900000000012e-06 -1.7331449999999997 3.0195150000000005e-05 2.9157150000000003e-05 -8.5848799999999983 -9.5111699999999976e-06 2.8035900000000004e-05 0.0021987950000000003 14.999250000000002 -4.5397049999999996e-08 0.12384550000000001 -0.86218949999999983 -13.794199999999998
decision_type=2 2 2 2 2 2 2 2 2 2 2 2 2 2 2 2 2 2 2 2 2 2 2 2 2 2 2 2 2 2
left_child=-1 5 3 4 11 6 -2 8 9 -7 -11 -3 13 15 21 16 17 25 19 -14 -20 -15 -10 28 -22 29 -27 -28 -24 -4
right_child=1 2 12 -5 -6 7 -8 -9 22 10 -12 -13 18 14 -16 -17 -18 -19 20 -21 24 -23 23 -25 -26 26 27 -29 -30 -31
leaf_value=4.1102768386000421e-07 -0.00044294013651535085 0.0001128752649929556 -0.00065930845606393027 0.0025368593882012648 0.0012466077783028597 0.0011530638570548036 0.0014235327102748367 -0.0015408453550189733 -0.0016695971728768199 0.00025106136910898357 -0.0013951414037451503 -0.0010462984733749182 -0.0022293475122933163 0.00060445678095372081 0.0030167435732437299 -0.0014375596783356742 0.00122805004066322 -0.0013860043710640943 0.0010098588461655059 -0.0002742838119219586 -0.00097766840879462283 -0.00059100107272652995 -0.00037005882724770343 0.00039324663514326815 -5.5618908489122996e-05 -0.0010995360464081526 -0.00098865996170345517 5.3160254017019554e-06 -0.0014963737538147889 8.0475115372941335e-05
leaf_weight=216035 41 77 24 20 20 28 24 25 20 29 21 21 20 30 20 25 24 30 28 37 38 44 20 21 50 26 21 134 22 658
leaf_count=216035 41 77 24 20 20 28 24 25 20 29 21 21 20 30 20 25 24 30 28 37 38 44 20 21 50 26 21 134 22 658
internal_value=0 -5.55672e-05 -8.23526e-06 0.00045209 9.87397e-05 -0.000309576 0.000246219 -0.000503805 -0.000342774 0.000131649 -0.000440344 -0.000135519 -6.07786e-05 -6.84326e-06 0.000558133 -6.3221e-05 -2.57526e-05 -5.94494e-05 -0.000383767 -0.000960271 -0.000100485 -0.000106356 -0.000788616 -0.00050894 -0.000453777 -1.33351e-05 -0.000268715 -0.000129352 -0.000960033 5.44417e-05
internal_weight=0 1598 1347 138 118 251 65 186 161 78 50 98 1209 1036 94 942 917 893 173 57 116 74 83 63 88 863 181 155 42 682
internal_count=217633 1598 1347 138 118 251 65 186 161 78 50 98 1209 1036 94 942 917 893 173 57 116 74 83 63 88 863 181 155 42 682
shrinkage=0.05


Tree=556
num_leaves=31
num_cat=0
split_feature=5 8 23 34 3 18 24 16 3 27 17 19 20 31 18 33 11 18 12 36 11 18 18 36 8 17 19 13 39 32
split_gain=0.00198433 0.0256356 0.0113329 0.0133694 0.0483404 0.00966978 0.00883407 0.00916891 0.0408635 0.00857691 0.0195878 0.0106321 0.00818001 0.00698733 0.022889 0.00739532 0.00639339 0.00621761 0.00814199 0.0148964 0.00616883 0.00576047 0.00641658 0.00942764 0.00550368 0.0287833 0.0273696 0.113778 0.00963742 0.0298824
threshold=3.4653000000000009e-05 2.5132750000000004e-05 -0.028182349999999998 -3.2628099999999995 -9.949049999999998 -19.754149999999996 115.54050000000002 3.865525000000001e-10 -7.4804449999999987 0.064526950000000013 19.256550000000001 -2.4751799999999995 -18.396099999999997 0.48186100000000004 -5.4791549999999996 -6.2538149999999987e-05 0.00099716450000000021 12.159000000000001 9.2565100000000011e-07 0.51872500000000021 0.00021556200000000001 18.392150000000004 14.999250000000002 -0.19934349999999995 7.791410000000002e-05 16.002400000000005 3.0438950000000005 -1.2815949999999998e-06 1.5525100000000001 -0.09986109999999998
decision_type=2 2 2 2 2 2 2 2 2 2 2 2 2 2 2 2 2 2 2 2 2 2 2 2 2 2 2 2 2 2
left_child=24 -2 17 4 -4 -5 7 8 -7 10 13 -11 -13 15 -15 -9 20 18 -3 -20 -14 22 -17 -24 -1 26 28 -28 29 -26
right_child=1 2 3 5 -6 6 -8 9 -10 11 -12 12 16 14 -16 21 -18 -19 19 -21 -22 -23 23 -25 25 -27 27 -29 -30 -31
leaf_value=-2.873242423249888e-07 0.00180173321725988 1.3474062535141667e-06 0.0027901270912843758 -0.00058367534564989485 2.3559665728801824e-05 -0.0024874124393409148 0.00091727020303046134 0.0009295778752196137 2.4520514221368264e-05 -0.0010896528518060222 0.0012730820262907899 0.00036139359476237585 -0.00030039996873352777 0.0016287244317936711 0.00010553717032795636 1.302065469187468e-05 3.8704600709693867e-06 -0.00093229347847817413 -0.0014976091371742466 4.1830773856914182e-05 -0.001129410366240122 0.00077112355072313232 -7.3461813349240409e-05 -0.0013234000176783991 -0.0016231466643865024 0.0013058891305729797 -0.0042500104465943876 -6.7703003495828842e-05 2.4973332167080645e-06 -0.00010633715077237249
leaf_weight=182765 20 130 20 68 75 20 27 22 85 34 31 60 66 28 207 27455 87 37 30 33 34 25 48 22 33 39 20 87 4000 2025
leaf_count=182765 20 130 20 68 75 20 27 22 85 34 31 60 66 28 207 27455 87 37 30 33 34 25 48 22 33 39 20 87 4000 2025
internal_value=0 1.22586e-05 1.10091e-05 1.38387e-05 0.000605995 1.18523e-05 1.32857e-05 1.24209e-05 -0.000453943 1.41624e-05 1.69368e-05 -0.000260691 -0.000146583 1.55364e-05 0.000287023 1.32225e-05 -0.00030957 -0.000338555 -0.000224729 -0.000691236 -0.000582264 1.24907e-05 1.18017e-05 -0.0004663 -1.85946e-06 -4.81734e-05 -5.67393e-05 -0.000849443 -4.27381e-05 -0.000130659
internal_weight=0 28664 28644 28414 95 28319 28251 28224 105 28119 27838 281 247 27807 235 27572 187 230 193 63 100 27550 27525 70 188969 6204 6165 107 6058 2058
internal_count=217633 28664 28644 28414 95 28319 28251 28224 105 28119 27838 281 247 27807 235 27572 187 230 193 63 100 27550 27525 70 188969 6204 6165 107 6058 2058
shrinkage=0.05


Tree=557
num_leaves=31
num_cat=0
split_feature=5 33 3 3 20 3 4 25 27 30 6 36 11 39 39 8 8 2 30 19 7 31 22 23 22 19 9 18 30 26
split_gain=0.00197192 0.0124663 0.0283763 0.0438004 0.07923 0.0280724 0.0441849 0.0225092 0.0642074 0.0273101 0.038338 0.0662091 0.020734 0.0239982 0.0408016 0.0630739 0.0148203 0.0435738 0.0539938 0.029942 0.0697201 0.024545 0.0670594 0.0295461 0.0637491 0.0481867 0.0254327 0.028379 0.0234964 0.0160039
threshold=1.0004950000000002e-05 -3.892934999999999e-07 -14.947699999999999 -15.040049999999999 -15.138399999999999 -14.703099999999997 0.15463500000000002 -0.22198749999999998 0.017781650000000003 1.2911250000000003 -3.7361699999999995e-07 -0.22452634999999985 0.0017362250000000003 -0.71725499999999964 0.078545000000000101 1.2315000000000002e-05 2.6827800000000004e-05 -2.9481199999999999 0.038827750000000008 3.0909850000000003 -3.5381799999999994e-05 -0.93075499999999989 38.031000000000013 -0.0011493749999999998 4.9136550000000012 -2.8256249999999992 2.5254500000000004e-05 -0.52329599999999987 99.159650000000013 2.0528200000000001
decision_type=2 2 2 2 2 2 2 2 2 2 2 2 2 2 2 2 2 2 2 2 2 2 2 2 2 2 2 2 2 2
left_child=1 2 3 7 -5 6 -4 8 -1 12 -11 -12 -9 -14 15 -15 17 18 -3 21 -21 22 -18 24 -23 -26 -27 -28 29 -19
right_child=-2 16 5 4 -6 -7 -8 9 -10 10 11 -13 13 14 -16 -17 19 28 -20 20 -22 23 -24 -25 25 26 27 -29 -30 -31
leaf_value=0.0029541735273960514 1.9425647020989304e-06 -2.940400179637515e-05 -8.5284953857467382e-05 -0.004222768688928227 -0.00010234798714269086 -4.6220906456736143e-05 0.0028255507347156794 0.0013442790983217061 -0.00072835796133309994 -8.6229375316476346e-07 -0.00021878746854546934 -0.0034610137294293964 -6.023417031242949e-05 -0.00022531400269223882 -0.00026651954877882111 -0.0039700885792792011 0.0024422619102453511 2.4714612976363699e-05 0.003522796264878707 -0.0033975495740047666 -0.00017067135698198399 -0.0028273610957883109 -0.00015329925502699458 -2.782712870543879e-05 -0.0026174880739528732 0.00010204469246966416 -4.4669951214903423e-05 -0.0020780421088602455 0.0016618063613350388 0.0013742351044294828
leaf_weight=20 186555 23 32 20 28 4506 22 21 29 49 31 32 422 23 109 22 37 15532 20 22 70 27 76 9532 21 239 37 32 22 22
leaf_count=20 186555 23 32 20 28 4506 22 21 29 49 31 32 422 23 109 22 37 15532 20 22 70 27 76 9532 21 239 37 32 22 22
internal_value=0 -1.16608e-05 -8.09801e-05 -0.000354468 -0.00181919 -3.264e-05 0.00110061 -0.000261715 0.000774716 -0.000333344 -0.0010498 -0.00186563 -0.000198934 -0.000255197 -0.000789447 -0.00205609 2.80585e-06 3.33209e-05 0.00162278 -4.44165e-05 -0.000942316 -3.61567e-05 0.000696575 -4.45303e-05 -0.000491763 -0.000300087 -0.000142083 -0.000987683 2.8933e-05 2.66234e-05
internal_weight=0 31078 5366 806 48 4560 54 758 49 709 112 63 597 576 154 45 25712 15619 43 10093 92 10001 113 9888 356 329 308 69 15576 15554
internal_count=217633 31078 5366 806 48 4560 54 758 49 709 112 63 597 576 154 45 25712 15619 43 10093 92 10001 113 9888 356 329 308 69 15576 15554
shrinkage=0.05


Tree=558
num_leaves=31
num_cat=0
split_feature=33 19 36 12 39 15 10 2 18 13 19 36 18 5 3 30 10 14 14 0 13 21 23 2 13 13 23 2 19 11
split_gain=0.00203855 0.00981746 0.0764843 0.161735 0.239929 0.0695598 0.0876517 0.0511917 0.0745449 0.0376746 0.0106373 0.0658147 0.137151 0.118806 0.0389292 0.0388812 0.1 0.0390637 0.0601288 0.0696811 0.0321435 0.0173538 0.00922406 0.0389391 0.0191977 0.0752683 0.106352 0.0126575 0.0128814 0.00910326
threshold=5.735360000000001e-08 -2.7774649999999994 0.2761725000000001 1.9390250000000003e-07 0.93421999999999994 4.6049500000000007e-05 3.4207850000000005e-05 -2.7703699999999993 -0.43273099999999992 -2.5610849999999994e-07 -2.5336099999999995 0.327845 -6.9314949999999991 3.2672850000000007e-05 -14.818499999999998 1.5909750000000003 1.8732900000000002e-05 1.1291000000000001e-07 4.7377400000000004e-07 -8.0865099999999988 -8.6382099999999991e-08 0.29620600000000008 0.011675600000000003 -2.7703699999999993 -2.4990899999999996e-06 -2.6594849999999998e-05 0.031042450000000003 2.2358750000000005 1.5434200000000002 0.00048506450000000007
decision_type=2 2 2 2 2 2 2 2 2 2 2 2 2 2 2 2 2 2 2 2 2 2 2 2 2 2 2 2 2 2
left_child=22 2 3 5 -5 7 -7 8 9 -2 11 12 -3 14 -14 17 -17 20 19 -19 -16 -20 -1 -24 25 -25 -27 -26 -29 -12
right_child=1 10 -4 4 -6 6 -8 -9 -10 -11 29 -13 13 -15 15 16 -18 18 21 -21 -22 -23 23 24 27 26 -28 28 -30 -31
leaf_value=2.4324747120674414e-06 0.0018801292245916555 0.0037620855045080296 -1.2755546559738294e-05 -0.0075231214235481321 -0.00089417144703568356 -0.0038074616728408731 0.00024651007008894037 -0.001077742658994144 0.0039273489161305844 -0.0010870893842682406 1.4424778708528684e-05 -7.7242943306094447e-06 -0.0018978779803981761 0.0033389671270744126 -0.002540127275278792 -0.00063014893095659445 0.0042040700966026632 0.00034272034997762796 0.00018307601665472966 0.0041790126959676856 -0.00029331267994096448 -0.001683448292751564 0.002270361595054221 -0.00014597939302899598 4.554854078942737e-05 0.004906555939149777 -0.00018805009516654537 -5.672975074020315e-05 -0.0017524032044006856 -2.4686964218530276e-05
leaf_weight=152003 20 34 1834 21 39 24 30 28 21 23 26040 1980 23 31 20 23 20 29 33 20 78 20 22 94 332 21 20 24 21 34705
leaf_count=152003 20 34 1834 21 39 24 30 28 21 23 26040 1980 23 31 20 23 20 29 33 20 78 20 22 94 332 21 20 24 21 34705
internal_value=0 -7.40762e-06 -0.000115362 -0.00102886 -0.0032143 -0.000130731 -0.00155526 0.000705403 0.00148553 0.000293012 -3.91505e-06 0.000101373 0.000753977 0.000409615 6.82238e-05 0.000254316 0.00161833 -3.89462e-05 0.000645997 0.00190855 -0.000751846 -0.000521273 3.16124e-06 0.000210604 0.000122099 0.000633738 0.00242138 -6.11137e-05 -0.000848044 -7.92065e-06
internal_weight=0 65096 2040 206 60 146 54 92 64 43 63056 2311 331 297 266 243 43 200 102 49 98 53 152537 534 512 135 41 377 45 60745
internal_count=217633 65096 2040 206 60 146 54 92 64 43 63056 2311 331 297 266 243 43 200 102 49 98 53 152537 534 512 135 41 377 45 60745
shrinkage=0.05


Tree=559
num_leaves=31
num_cat=0
split_feature=26 2 2 8 25 25 9 25 9 3 1 3 3 2 36 20 11 9 2 2 18 2 9 17 23 36 12 9 25 12
split_gain=0.00202404 0.0262094 0.0448006 0.122374 0.0229734 0.0367829 0.0217794 0.0503955 0.0420597 0.0380985 0.0352825 0.0647184 0.0247179 0.0225594 0.0627442 0.0471186 0.0196795 0.0173594 0.0149311 0.0355745 0.0195641 0.0156373 0.0127969 0.055779 0.0313125 0.0238934 0.0146902 0.0129391 0.0178276 0.0220392
threshold=0.55826100000000012 -2.9481199999999999 -2.8455549999999996 5.7424400000000005e-05 -0.064774849999999981 0.69707500000000011 -0.00027218349999999996 -1.7331449999999997 -0.00019804799999999998 -12.288549999999999 0.72012600000000015 -15.624449999999998 -15.624449999999998 2.8060500000000004 0.12375499999999996 -7.8892249999999988 0.0010925600000000002 -0.00035055549999999991 -2.7279399999999994 -2.6524249999999996 -5.5781649999999994 -2.6029249999999995 -0.00010305049999999998 -1.3693099999999998 0.019037100000000005 0.46240350000000002 2.0364650000000005e-05 -1.7778499999999996e-05 1.9114100000000003 -1.5418149999999998e-06
decision_type=2 2 2 2 2 2 2 2 2 2 2 2 2 2 2 2 2 2 2 2 2 2 2 2 2 2 2 2 2 2
left_child=-1 4 3 -3 -2 -6 7 -4 9 -8 12 -12 -9 18 -15 16 -16 -13 20 -20 -10 -21 23 24 25 26 -23 28 -24 -30
right_child=1 2 6 -5 5 -7 8 10 13 -11 11 17 -14 14 15 -17 -18 -19 19 21 -22 22 27 -25 -26 -27 -28 -29 29 -31
leaf_value=5.91745243048186e-07 -0.00010873443230672782 0.0037402315688302261 0.0024035280436822048 -0.0012834161292465235 -0.0032130733609110826 -0.00028753311311117036 -0.0029267041682032868 -0.0021003186782763807 -0.0020382153845968703 -0.00038208606335836908 0.0032563083965907848 -0.00015015952640169418 -0.00014667317079489724 -0.0032040090388840156 -0.00031223220722984902 0.0016811223928089023 -0.0021257705055177213 0.0013615557243465447 0.0019540502907108496 -0.0013799473630136899 -3.431665114978136e-05 -0.0023430991423083469 -0.00015888782126940093 0.0025934331433963963 0.0016299707130383468 0.00061065106613871953 -0.00042670851471484641 1.7528545020263721e-05 -0.0024006657557384598 -0.00035177720236658519
leaf_weight=214404 46 27 28 22 21 22 24 20 21 38 21 79 85 21 52 25 21 25 23 21 29 20 348 25 20 24 20 2045 21 35
leaf_count=214404 46 27 28 22 21 22 24 20 21 38 21 79 85 21 52 25 21 25 23 21 29 20 348 25 20 24 20 2045 21 35
internal_value=0 -3.92916e-05 -1.53091e-05 0.00148472 -0.000885416 -0.00171629 -3.90882e-05 0.000400713 -7.91407e-05 -0.0013671 0.000156892 0.00072447 -0.000518796 -5.03231e-05 -0.00072381 -0.000192339 -0.000833935 0.000213234 -2.01026e-05 -3.65653e-06 -0.000875954 -2.11157e-05 -9.96034e-06 0.000520135 -9.6918e-05 -0.000636571 -0.0013849 -3.35538e-05 -0.000292127 -0.00112011
internal_weight=0 3229 3140 49 89 43 3091 258 2833 62 230 125 105 2771 119 98 73 104 2652 2602 50 2579 2558 109 84 64 40 2449 404 56
internal_count=217633 3229 3140 49 89 43 3091 258 2833 62 230 125 105 2771 119 98 73 104 2652 2602 50 2579 2558 109 84 64 40 2449 404 56
shrinkage=0.05


Tree=560
num_leaves=31
num_cat=0
split_feature=16 29 27 10 6 10 22 25 28 11 36 36 27 33 40 36 36 40 4 15 21 17 17 39 6 14 18 18 23 23
split_gain=0.00196416 0.039671 0.0532029 0.112783 0.0262371 0.0278478 0.0148134 0.010838 0.0369247 0.00770836 0.00407668 0.0289756 0.00259072 0.00224222 0.0172002 0.0333989 0.208373 0.185397 0.222101 0.277845 0.729699 0.191899 0.374137 0.207975 0.275983 0.170445 0.272007 0.230337 0.271408 0.455168
threshold=1.1921100000000003e-10 -2.8033549999999995e-05 0.0080523800000000013 2.8023750000000001e-05 -4.6037899999999992e-06 1.1791850000000001e-06 0.15866050000000001 -0.013260849999999999 0.18430900000000003 0.00085338750000000011 -0.058960000000000005 0.056773999999999998 0.0013120100000000004 6.710375000000001e-07 -0.52047500000000058 -0.14969009999999991 0.14973499999999998 0.55624500000000021 -1.3105149999999999 -1.0730149999999997e-06 -0.22518599999999997 5.7713600000000005 -4.0797899999999991 -2.3298099999999988 1.0000000180025095e-35 -6.530729999999998e-08 4.6258850000000011 -3.9665599999999999 -0.00029873799999999994 -0.0019040299999999999
decision_type=2 2 2 2 2 2 2 2 2 2 2 2 2 2 2 2 2 2 2 2 2 2 2 2 2 2 2 2 2 2
left_child=1 2 3 -1 -3 -6 -7 8 -8 -4 -9 -12 -10 -2 -15 -16 17 18 -17 -20 -21 22 -19 -23 -25 -24 27 -27 29 -29
right_child=13 4 9 -5 5 6 7 10 12 -11 11 -13 -14 14 15 16 -18 21 19 20 -22 23 25 24 -26 26 -28 28 -30 -31
leaf_value=0.0001734302520007321 2.2383434374269141e-06 -0.0016796787792529733 8.1174034723382527e-05 0.0045479131555151509 -0.0014823059391002628 -0.0011247390227936195 -0.0024226124072811218 -3.9058676871263748e-05 0.00046645502479805148 -0.0012139255429792686 0.0014876199212985261 -4.2957268072379787e-05 -0.0001867268667872792 1.4496734245242839e-05 3.6998462987889943e-05 -0.0068745931587181983 -1.542530662788389e-05 -0.0020246818685714144 0.0001425744491474082 -0.011088315269064522 -0.0015562140913602833 -0.00015023417918336469 -0.0010656199356085284 -0.00060658644591361126 -0.0081130156917497524 -4.8228585943340871e-05 -0.0021677660838966923 0.0022214167860511226 0.0023763423581371055 0.012760987381140391
leaf_weight=41 189274 29 27 23 37 32 20 350 20 20 38 166 63 18515 4031 20 4157 106 150 23 158 67 47 24 25 39 28 20 62 21
leaf_count=41 189274 29 27 23 37 32 20 350 20 20 38 166 63 18515 4031 20 4157 106 150 23 158 67 47 24 25 39 28 20 62 21
internal_value=0 -7.51509e-05 0.00080744 0.00174551 -0.000204909 -0.000146 -7.42387e-05 -2.30728e-05 -0.000494048 -0.000469932 6.44912e-05 0.00024215 -2.93336e-05 3.00233e-07 -1.30426e-05 -6.98359e-05 -0.000156889 -0.000901271 -0.00175789 -0.00144872 -0.00276748 -0.000216368 0.000410104 -0.00196077 -0.0044364 0.00159945 0.00233626 0.00322438 0.00446352 0.00761973
internal_weight=0 866 111 64 755 726 689 657 103 47 554 204 83 216767 27493 8978 4947 790 351 331 181 439 323 116 49 217 170 142 103 41
internal_count=217633 866 111 64 755 726 689 657 103 47 554 204 83 216767 27493 8978 4947 790 351 331 181 439 323 116 49 217 170 142 103 41
shrinkage=0.05


Tree=561
num_leaves=31
num_cat=0
split_feature=40 31 6 15 30 39 34 15 21 3 0 27 16 3 29 29 32 11 17 12 8 40 9 20 39 32 3 16 29 31
split_gain=0.00191359 0.00853227 0.00978835 0.00899869 0.0133654 0.00882229 0.0077157 0.0156281 0.00703805 0.00633686 0.0358548 0.100766 0.0237824 0.119305 0.165788 0.0585303 0.0583135 0.0386621 0.0503313 0.0422254 0.0416653 0.0318724 0.0545563 0.11729 0.0528292 0.109941 0.0825809 0.0818063 0.118165 0.113348
threshold=2.4429550000000004 -1.5367699999999997 -3.9944899999999989e-06 0.00014095500000000004 7.9426800000000002 -8.2465249999999983 -1.0090899999999998 0.00082871750000000014 -1.1409399999999998 -9.5548399999999987 -7.9766549999999992 0.00023194100000000002 3.7775550000000009e-08 -15.867949999999999 -5.8617499999999992e-05 -1.8028799999999996e-05 0.0006767940000000002 0.0020033100000000008 4.6322050000000017 1.1777450000000001e-08 2.3474250000000003e-05 0.65993499999999961 5.0670100000000008e-05 -11.018649999999999 0.72566000000000008 0.041913150000000003 -14.605749999999999 1.1921100000000003e-10 -4.6729549999999985e-06 0.00050383800000000005
decision_type=2 2 2 2 2 2 2 2 2 2 2 2 2 2 2 2 2 2 2 2 2 2 2 2 2 2 2 2 2 2
left_child=9 2 -2 5 -5 -4 7 -3 -7 10 11 -1 13 14 -12 16 -16 21 19 -19 -21 24 -23 -24 25 27 -26 29 -29 -15
right_child=1 6 3 4 -6 8 -8 -9 -10 -11 12 -13 -14 17 15 -17 -18 18 -20 20 -22 22 23 -25 26 -27 -28 28 -30 -31
leaf_value=-0.0041453255643318703 -0.0011536631029543812 7.4113795694251576e-05 0.00088475668341673639 -0.0012568757897736904 0.00023169565069838428 -0.00059527916406902181 9.4282759936944836e-06 0.0015042698042144857 0.00020565113402426505 2.8016235876064859e-06 0.0057037074867236828 0.00013498704020094011 -2.9833213642978522e-05 0.00041514533916667392 0.00035092437930870799 -0.00024421146739379249 0.0041690887889126319 0.00051477823310372461 -0.0030545749488737786 -0.0025620431494587596 -9.8240130230535863e-05 -5.1639272431465805e-05 -0.0040981835228362969 0.00012575534683925246 0.0024039295099542611 -0.0025032813741086889 -5.5789158339864844e-05 0.0012987285691364971 -3.7380545593376052e-05 -0.0042145865847123785
leaf_weight=20 29 72 26 38 25 48 47190 26 64 130927 21 44 35916 39 20 56 20 68 20 32 37 681 27 42 35 29 1362 430 269 20
leaf_count=20 29 72 26 38 25 48 47190 26 64 130927 21 44 35916 39 20 56 20 68 20 32 37 681 27 42 35 29 1362 430 269 20
internal_value=0 8.87105e-06 -0.000294927 -0.00017103 -0.000666173 5.50141e-05 1.03487e-05 0.000453543 -0.000137605 -2.47794e-06 -2.01169e-05 -0.00120261 -1.81826e-05 0.000112255 0.00167951 0.000799213 0.00226001 5.29317e-05 -0.000711509 -0.000369455 -0.00124087 9.38374e-05 -0.000187381 -0.00152709 0.00019041 0.000518045 5.83586e-06 0.000633637 0.000784546 -0.00115426
internal_weight=0 47518 230 201 63 138 47288 98 112 170115 39188 64 39124 3208 117 96 40 3091 157 137 69 2934 750 69 2184 787 1397 758 699 59
internal_count=217633 47518 230 201 63 138 47288 98 112 170115 39188 64 39124 3208 117 96 40 3091 157 137 69 2934 750 69 2184 787 1397 758 699 59
shrinkage=0.05


Tree=562
num_leaves=31
num_cat=0
split_feature=18 39 3 1 5 22 3 22 9 9 18 23 8 22 1 20 11 10 17 26 1 33 1 33 1 36 39 10 17 2
split_gain=0.00196985 0.0264431 0.0635967 0.168489 0.173532 0.187949 0.0893073 0.243959 0.0740242 0.208618 0.0739684 0.0787411 0.0586723 0.0541864 0.0350977 0.0730838 0.0515567 0.0310641 0.0393238 0.0443844 0.0275599 0.0853644 0.0573106 0.0216514 0.0781293 0.0307749 0.0211819 0.0383859 0.0579257 0.0322902
threshold=-8.9484099999999973 -0.12174999999999957 -8.1461699999999979 -3.2275299999999993 9.4354350000000019e-06 6.2236100000000008 -9.3813899999999979 3.5039900000000004 6.2986800000000012e-05 0.00015392900000000002 -9.853489999999999 0.00010374500000000002 2.4122650000000005e-05 17.806750000000005 -7.9738099999999994 -8.1725499999999975 9.3239650000000011e-05 5.8318900000000008e-05 -1.5525549999999997 -0.15264749999999996 -11.052099999999998 -3.6955849999999995e-08 -10.856449999999997 -1.8701649999999998e-06 -5.1343699999999997 -4.6213449999999989 0.10586500000000011 1.9951700000000004e-05 -5.0223249999999995 -0.91624149999999982
decision_type=2 2 2 2 2 2 2 2 2 2 2 2 2 2 2 2 2 2 2 2 2 2 2 2 2 2 2 2 2 2
left_child=1 14 3 4 5 -3 7 -6 17 -10 12 -12 13 -8 15 -1 -17 18 -9 -20 21 -18 -22 24 -16 -25 27 29 -29 -4
right_child=-2 2 26 -5 6 -7 10 8 9 -11 11 -13 -14 -15 23 16 20 -19 19 -21 22 -23 -24 25 -26 -27 -28 28 -30 -31
leaf_value=-0.0033204541099257768 -1.5864710306244362e-06 0.0068526386714298643 0.00068038318458095339 -0.00014568436446659485 0.0051468347241797564 0.00078082841425202798 0.0035953145035056235 -0.0021063391803181732 0.0060718554914707228 -0.00042585712191112179 -2.4279411991301459e-05 -0.003147019046742504 0.00020227866613277 0.00025717612763401118 -0.0034059956333034542 -0.0025036296136677267 0.0031626069210081674 0.0013443961557102202 -0.0011965436398183914 0.0020240838548488682 -0.0027416692368443245 -0.00055964603031265312 -0.00020962758397896714 0.0018675278741284275 -0.00019210076223415446 -4.3944860842704999e-06 5.074833632919628e-06 -0.0025187074618380784 3.0902810580918322e-05 -4.326339025823365e-05
leaf_weight=20 195849 26 441 571 39 25 31 28 21 30 80 27 100 20 21 25 24 27 23 20 23 43 788 22 190 11075 7670 28 109 237
leaf_count=20 195849 26 441 571 39 25 31 28 21 30 80 27 100 20 21 25 24 27 23 20 23 43 788 22 190 11075 7670 28 109 237
internal_value=0 1.42632e-05 7.65963e-05 0.000440225 0.00111337 0.00387626 0.000797436 0.00162629 0.000704803 0.00224967 0.000193466 -0.00081226 0.000906133 0.00228624 -3.4422e-05 -0.000330885 -0.000264671 -9.91595e-05 -0.000648117 0.000301423 -0.000200919 0.000773698 -0.000281436 -1.02236e-05 -0.000511967 -6.83367e-07 3.08267e-05 0.000273178 -0.000490185 0.000427427
internal_weight=0 21784 9553 1068 497 51 446 188 149 51 258 107 151 51 12231 923 903 98 71 43 878 67 811 11308 211 11097 8485 815 137 678
internal_count=217633 21784 9553 1068 497 51 446 188 149 51 258 107 151 51 12231 923 903 98 71 43 878 67 811 11308 211 11097 8485 815 137 678
shrinkage=0.05


Tree=563
num_leaves=31
num_cat=0
split_feature=40 39 22 4 4 17 0 37 36 36 17 19 7 36 1 7 20 32 16 19 9 18 36 36 18 11 36 36 30 21
split_gain=0.00197983 0.0202639 0.0750314 0.0905064 0.234405 0.0427072 0.118097 0.119834 0.528761 0.491942 0.051559 0.111638 0.248043 0.0916556 0.105956 0.0910447 0.23263 0.287582 0.0885678 0.0701814 0.182158 0.0671473 0.107777 0.874151 0.0911485 0.177291 0.290308 0.912527 0.718401 0.383468
threshold=0.81788000000000027 -0.27803499999999998 16.451500000000003 -0.54650249999999989 -1.4133199999999999 8.6104250000000011 6.5600500000000013 -0.2272394999999999 -0.027530000000000051 0.056773999999999998 -6.0084349999999995 2.3537500000000002 -5.5880499999999995e-05 -0.22452634999999985 2.1386600000000002 -2.8596049999999995e-05 -9.6131449999999976 0.00053950400000000011 2.6838200000000004e-09 2.2495850000000002 -4.6864649999999995e-05 9.8452300000000026 -0.079468000000000025 0.077348000000000056 -6.9314949999999991 0.00049938750000000007 -0.12496499999999998 0.10022550000000004 0.043783950000000009 0.24276500000000004
decision_type=2 2 2 2 2 2 2 2 2 2 2 2 2 2 2 2 2 2 2 2 2 2 2 2 2 2 2 2 2 2
left_child=1 2 5 4 -4 10 -7 -8 -9 -10 15 19 -13 -14 -15 16 17 -1 -18 21 -21 24 -23 -24 -12 26 -26 28 -28 -30
right_child=-2 -3 3 -5 -6 6 7 8 9 -11 11 12 13 14 -16 -17 18 -19 -20 20 -22 22 23 -25 25 -27 27 -29 29 -31
leaf_value=-0.0013823266984641124 6.9563158522124461e-06 1.5240651161734923e-06 0.00037098098520448644 0.0001334738995046559 0.0052224621184423625 -7.3792282295395922e-05 5.3213838453302746e-05 -0.00018078862136211809 -0.01045647929904276 -0.0019034038009704093 -0.00028597873401097092 0.0064020998770138258 -0.00014874315925984168 -0.00046023981208067943 0.0034855438692434487 -7.2762739361857632e-05 -0.0034615033602044009 -0.0082422787644066946 -0.00028264173690300089 -0.0054992112227539892 0.00016076656628766532 -6.2716078094559181e-05 -0.0088834730336781256 -9.3659414713586408e-05 -0.00012884152029773061 1.4287346217664344e-05 0.0087988412286743849 -0.00010295194903336802 0.0048580023205003651 -0.0031233804352167583
leaf_weight=50 69582 138735 93 391 34 854 125 145 29 40 1347 20 144 27 46 1427 23 22 463 21 44 551 33 198 325 2530 68 205 34 27
leaf_count=50 69582 138735 93 391 34 854 125 145 29 40 1347 20 144 27 46 1427 23 22 463 21 44 551 33 198 325 2530 68 205 34 27
internal_value=0 -3.26938e-06 -7.46539e-05 0.000510141 0.0016698 -0.000109085 -0.000387222 -0.0011768 -0.00189527 -0.00549817 -6.54535e-05 1.19187e-05 0.00107397 0.000582901 0.00202614 -0.000284512 -0.000826029 -0.00347842 -0.000433082 -3.48409e-05 -0.00166784 -1.48813e-05 -0.000442782 -0.00134935 5.88882e-05 0.000204556 0.000935028 0.00197023 0.00526482 0.00132526
internal_weight=0 148051 9316 518 127 8798 1193 339 214 69 7605 5620 237 217 73 1985 558 72 486 5383 65 5318 782 231 4536 3189 659 334 129 61
internal_count=217633 148051 9316 518 127 8798 1193 339 214 69 7605 5620 237 217 73 1985 558 72 486 5383 65 5318 782 231 4536 3189 659 334 129 61
shrinkage=0.05


Tree=564
num_leaves=31
num_cat=0
split_feature=4 21 4 37 37 37 27 13 13 37 5 39 9 39 39 22 21 8 12 6 3 12 25 0 22 37 8 0 6 8
split_gain=0.00198999 0.0225034 0.087433 0.0910906 0.407905 0.181734 0.316461 0.255084 0.299039 0.154849 0.174598 0.202701 0.200146 0.162765 0.150068 0.15002 0.137413 0.120628 0.116474 0.156062 0.181894 0.107903 0.0884376 0.0825603 0.0783845 0.383144 0.115774 0.0896702 0.0730057 0.0608664
threshold=0.19669200000000001 0.18944400000000003 0.79460700000000006 0.24875600000000014 -0.15132349999999997 -0.057539999999999918 0.0067147150000000004 1.0552950000000002e-06 -7.8838099999999994e-07 0.017850000000000036 1.7650100000000002e-05 -0.56159999999999977 -9.3323749999999985e-05 -1.9072949999999993 -0.82558500000000012 2.5401000000000002 0.82362200000000019 3.5005850000000006e-05 3.2364950000000003e-06 6.3193550000000007e-07 -10.778799999999999 -4.4303949999999996e-06 -0.076175349999999989 -0.5738764999999999 8.9552950000000013 -0.38541124999999993 2.3813350000000005e-05 -8.2050999999999981 4.8221700000000006e-06 2.7870500000000004e-05
decision_type=2 2 2 2 2 2 2 2 2 2 2 2 2 2 2 2 2 2 2 2 2 2 2 2 2 2 2 2 2 2
left_child=-1 -2 3 4 24 6 7 8 15 14 12 -12 -11 -14 -7 -6 18 23 19 22 -21 -16 -15 -13 -3 27 -27 -26 -19 -24
right_child=1 2 -4 -5 5 9 -8 -9 -10 10 11 17 13 16 21 -17 -18 28 -20 20 -22 -23 29 -25 25 26 -28 -29 -30 -31
leaf_value=-3.0491452056515104e-06 -1.0536745042919324e-05 -0.00013011085534420599 -2.9094361048299185e-05 -3.3431119419368626e-05 0.0009142452559899539 0.0032482885732315484 -0.00081645444710263788 0.00050671998193904178 0.009077029284697561 -0.003972827065372257 0.0073471520259441939 0.0065648720046738163 -0.0021683228156303591 0.0040787690366134765 -0.0026521750554606757 0.0063529846175307677 -0.0013823828886314815 -3.5877982632622923e-05 -0.0017739872200604623 0.0081737560578039863 0.0026316846340482141 0.00025695084034048387 0.0017421236121900501 0.0024175768227238832 0.0023919086953052711 0.0023170293506700546 0.0075185642010815769 -0.00026881969450277083 0.0033099520402332851 -0.00028476214457412192
leaf_weight=154710 46140 2099 10689 2378 32 40 49 38 34 20 22 20 33 26 34 21 36 56 20 20 57 510 92 30 36 20 23 263 23 62
leaf_count=154710 46140 2099 10689 2378 32 40 49 38 34 20 22 20 33 26 34 21 36 56 20 20 57 510 92 30 36 20 23 263 23 62
internal_value=0 7.49699e-06 5.70755e-05 0.000208219 0.00036286 0.0010877 0.00258929 0.00392434 0.0054171 0.000850388 0.00148061 0.00291114 0.000890417 0.00117153 0.00029247 0.00306922 0.00152365 0.00215461 0.00190133 0.00218735 0.00407118 7.51305e-05 0.00138149 0.00407649 -1.57419e-05 0.000686189 0.00509925 5.15356e-05 0.000938224 0.000926105
internal_weight=0 62923 16783 6094 3716 1275 174 125 87 1101 517 151 366 346 584 53 313 129 277 257 77 544 180 50 2441 342 43 299 79 154
internal_count=217633 62923 16783 6094 3716 1275 174 125 87 1101 517 151 366 346 584 53 313 129 277 257 77 544 180 50 2441 342 43 299 79 154
shrinkage=0.05


Tree=565
num_leaves=31
num_cat=0
split_feature=13 32 13 3 3 6 3 18 19 36 8 13 34 19 19 36 36 36 5 39 34 28 10 19 16 2 19 32 39 33
split_gain=0.00214238 0.0216855 0.0673994 0.098254 0.201831 0.121155 0.0416664 0.019237 0.0172403 0.0768367 0.0158961 0.0156014 0.0477249 0.121558 0.0240337 0.0949808 0.0320885 0.344269 0.258087 0.289627 0.124041 0.0630251 0.0461471 0.0276711 0.0308084 0.0267274 0.0736673 0.0224287 0.0847571 0.0308961
threshold=-1.3281999999999998e-05 -0.43959349999999991 -4.7504049999999995e-05 -9.8562249999999967 -14.176449999999997 6.1484100000000015e-08 -17.495099999999997 10.010650000000002 -1.2900349999999998 0.1751400000000001 1.7328400000000005e-05 -7.7313249999999984e-06 0.18048750000000005 1.2794000000000001 2.8297800000000004 -0.17527649999999997 0.14973499999999998 -0.027530000000000051 2.1762900000000005e-05 0.60048999999999852 0.0012040050000000002 -0.073749199999999987 2.3229900000000003e-05 2.4063700000000003 0.0066777400000000006 1.9944900000000001 2.5414350000000003 -0.040164599999999995 1.510785 -1.1772349999999996e-06
decision_type=2 2 2 2 2 2 2 2 2 2 2 2 2 2 2 2 2 2 2 2 2 2 2 2 2 2 2 2 2 2
left_child=1 2 6 4 -4 -6 -1 -5 9 -8 -10 12 14 -14 16 -16 17 25 20 -20 21 -19 -23 -18 -25 27 -27 28 -2 -30
right_child=11 -3 3 7 5 -7 8 -9 10 -11 -12 -13 13 -15 15 -17 23 18 19 -21 -22 22 -24 24 -26 26 -28 -29 29 -31
leaf_value=0.0018973294484357422 0.002877317668096493 5.7231109334859505e-06 -0.00086479797043322927 -0.00044303299068360503 0.0055210955767856481 0.0013700076417990205 -0.0032702302863902369 0.0012264510385152378 0.0010551532549845219 -6.5119421364215679e-05 -9.0402174033764633e-05 2.6441212499573408e-08 -0.00015224753919659524 -0.0036607931876929027 -9.6434932719750602e-06 0.0028731384547427299 6.5493521983358926e-06 0.0021766830986182737 -0.007806928548961878 -0.00041826627926812282 -0.0040739053321346922 0.00019392387553428611 -0.0021724488660287244 0.0027220674820637217 -1.9959104024348478e-05 -0.0035010967779089703 0.00039111691717886476 -1.620219422013117e-05 -0.0019209155836376471 0.00070519230879047734
leaf_weight=26 31 37295 38 80 39 32 23 22 34 100 277 175368 98 33 179 34 2187 21 36 21 27 45 38 20 21 20 31 1412 21 24
leaf_count=26 31 37295 38 80 39 32 23 22 34 100 277 175368 98 33 179 34 2187 21 36 21 27 45 38 20 21 20 31 1412 21 24
internal_value=0 1.07918e-05 0.000292514 0.00103242 0.00207615 0.00365018 -4.68758e-05 -8.29482e-05 -0.000163349 -0.000664449 3.48354e-05 -2.28044e-06 -9.63846e-05 -0.00103608 -6.68501e-05 0.000450519 -9.47134e-05 -0.000256478 -0.0022763 -0.00508479 -0.00105429 -0.000270347 -0.000889476 3.06758e-05 0.00131761 -9.74176e-06 -0.00113524 2.88338e-05 0.000865556 -0.000520325
internal_weight=0 37966 671 211 109 71 460 102 434 123 311 179667 4299 131 4168 213 3955 1727 188 57 131 104 83 2228 41 1539 51 1488 76 45
internal_count=217633 37966 671 211 109 71 460 102 434 123 311 179667 4299 131 4168 213 3955 1727 188 57 131 104 83 2228 41 1539 51 1488 76 45
shrinkage=0.05


Tree=566
num_leaves=31
num_cat=0
split_feature=14 33 15 15 34 11 34 14 32 30 10 11 11 27 3 17 8 11 29 39 20 27 21 3 34 28 8 17 33 11
split_gain=0.00204843 0.00781885 0.0442837 0.0199015 0.0159599 0.0398797 0.0107277 0.00951997 0.00932963 0.00804704 0.0208867 0.00776614 0.0117419 0.00913575 0.00875369 0.00467899 0.00457152 0.00443666 0.0190825 0.0410526 0.0831044 0.0608567 0.00725051 0.00477901 0.00438157 0.00525557 0.0384105 0.0460795 0.00664214 0.010677
threshold=6.1187250000000013e-05 -2.7510949999999998e-05 0.00014095500000000004 0.0073236350000000011 -3.2628099999999995 0.043751050000000007 -1.0090899999999998 0.00023692700000000003 0.21809400000000004 6.2013600000000011 -8.7538749999999986e-05 0.0036550950000000006 0.0064150250000000004 0.024062950000000003 -16.131449999999997 -19.608449999999998 3.2478650000000008e-05 0.0024307550000000006 1.0448050000000001e-05 1.1470050000000007 -13.010249999999997 0.00061938400000000006 0.23066900000000004 -12.203099999999997 -0.0017732999999999998 -0.34069149999999998 1.3944750000000001e-05 0.10183770000000002 9.6707250000000022e-06 0.018015550000000002
decision_type=2 2 2 2 2 2 2 2 2 2 2 2 2 2 2 2 2 2 2 2 2 2 2 2 2 2 2 2 2 2
left_child=-1 2 -2 -4 5 -3 16 8 -5 15 -11 -12 -13 -14 -15 -8 -6 18 -17 20 21 -20 -22 -21 -19 26 27 -26 -28 -30
right_child=1 4 3 7 6 -7 9 -9 -10 10 11 12 13 14 -16 17 -18 24 19 23 22 -23 -24 -25 25 -27 28 -29 29 -31
leaf_value=-1.622381349859531e-06 -0.0022224130322753741 0.0025581639638403431 0.0011187281344405165 -0.0016315094389331838 -0.00097174934140235164 -0.00037136881231232956 -0.00052677763898827839 5.9170783867090436e-05 -0.00017385371760136206 0.0016183417908345852 -0.00074001488967990992 0.001383828127582092 0.0010050039246885312 -0.00096636494949052575 0.0001231029961611242 -4.2462237439633098e-06 -0.00023280261649051681 -4.0324875973073973e-05 0.0008286940937503696 -0.00071105198800543569 -8.0134811923926463e-05 0.0043286561550404364 0.0010028592965863937 5.5838693897359253e-05 -4.1977032943967586e-06 1.2747101139603523e-05 2.6181619775423727e-05 0.0033492466936877463 0.0015106590487994256 0.00013975551680362383
leaf_weight=195738 26 21 32 21 36 26 40 74 23 26 23 20 27 20 236 1042 50 3733 23 23 68 27 20 174 21 15160 814 20 20 49
leaf_count=195738 26 21 32 21 36 26 40 74 23 26 23 20 27 20 236 1042 50 3733 23 23 68 27 20 174 21 15160 814 20 20 49
internal_value=0 1.45038e-05 -0.000317416 1.2784e-05 1.71936e-05 0.000937571 1.51975e-05 -0.000287133 -0.000869553 1.7418e-05 0.000254526 0.000145756 0.000212992 0.000130248 3.79883e-05 1.34874e-05 -0.000542129 1.4507e-05 0.000101292 0.000429562 0.00109088 0.00271867 0.000166 -3.36968e-05 8.47672e-06 1.98033e-05 0.000135573 0.00163163 6.61076e-05 0.000537119
internal_weight=0 21895 176 150 21719 47 21672 118 44 21586 352 326 303 283 256 21234 86 21194 1377 335 138 50 88 197 19817 16084 924 41 883 69
internal_count=217633 21895 176 150 21719 47 21672 118 44 21586 352 326 303 283 256 21234 86 21194 1377 335 138 50 88 197 19817 16084 924 41 883 69
shrinkage=0.05


Tree=567
num_leaves=31
num_cat=0
split_feature=5 33 3 5 33 28 36 36 3 17 28 32 31 36 37 3 29 11 39 39 14 40 4 34 36 35 17 39 5 8
split_gain=0.00204832 0.0115872 0.0259361 0.0412603 0.198006 0.026097 0.0619233 0.0805539 0.0251353 0.040118 0.0205269 0.0197748 0.0137199 0.0402785 0.116197 0.0901332 0.0337676 0.0136429 0.0131263 0.0260845 0.0245882 0.0926836 0.0772455 0.033484 0.07513 0.0231414 0.0156336 0.141903 0.01392 0.0131002
threshold=1.0004950000000002e-05 -3.892934999999999e-07 -14.947699999999999 9.657510000000001e-06 -5.4507549999999983e-07 -0.54512899999999986 -0.22452634999999985 0.2761725000000001 -14.703099999999997 2.1550400000000005 3.7022150000000003 0.013761450000000001 0.049049600000000006 0.1751400000000001 0.35345999999999994 -8.2474849999999993 7.5841050000000011e-06 0.0014416350000000004 1.0000000180025095e-35 0.078545000000000101 -4.5397049999999996e-08 0.7622899999999998 -0.27873999999999993 -0.036336349999999996 -1.0422104999999997 2.8203700000000002e-05 9.1618800000000018 0.8945249999999999 9.607735000000002e-06 2.6827800000000004e-05
decision_type=2 2 2 2 2 2 2 2 2 2 2 2 2 2 2 2 2 2 2 2 2 2 2 2 2 2 2 2 2 2
left_child=1 2 3 5 11 6 -1 -8 9 -4 17 -5 18 14 15 16 -14 -7 20 -20 21 22 -10 24 -22 -25 -21 -28 -29 -3
right_child=-2 29 8 4 -6 10 7 -9 12 -11 -12 -13 13 -15 -16 -17 -18 -19 19 26 23 -23 -24 25 -26 -27 27 28 -30 -31
leaf_value=-9.3017619428292669e-05 1.9798381619437899e-06 3.0752393367828619e-05 0.0023051875111283655 0.0004904834000009422 -0.0050464407976295875 0.0010369050569958441 -0.0046105265706067999 -0.00028113924842976056 0.00076661503691346827 -0.00042798653870704581 0.0011947387205568263 -0.0013410881869640435 -0.0054495016927830877 1.8252244284270291e-06 2.5196718519649246e-05 -6.8706406012136972e-05 -0.0026108095938318665 -0.00018266865556836035 -0.0014383137969536405 -2.476373262027754e-05 -2.358045194114311e-05 -2.1766206153896408e-05 0.0047257598786514298 -0.0017126254458465458 0.0036595067172311246 -2.6065866979553946e-05 -0.004295350139060853 -8.6419664603454302e-05 0.0014324010526086733 -4.2334712821693305e-05
leaf_weight=91 186555 15619 29 56 26 24 21 22 28 25 31 20 20 435 124 23 22 515 34 2844 45 131 22 21 20 646 21 48 22 10093
leaf_count=91 186555 15619 29 56 26 24 21 22 28 25 31 20 20 435 124 23 22 515 34 2844 45 131 22 21 20 646 21 48 22 10093
internal_value=0 -1.18846e-05 -7.87153e-05 -0.000340179 -0.00128002 -0.000204009 -0.000831871 -0.00239549 -3.25003e-05 0.00103983 -5.64066e-05 8.49088e-06 -4.53511e-05 -0.000262964 -0.000872401 -0.00258474 -0.00396257 -0.000128365 -1.03716e-05 -6.13568e-05 0.000155428 0.000677241 0.00250864 2.64007e-05 0.00110968 -7.91659e-05 -4.54057e-05 -0.000690524 0.000390924 2.06275e-06
internal_weight=0 31078 5366 806 102 704 134 43 4560 54 570 76 4506 624 189 65 42 539 3882 2969 913 181 50 732 65 667 2935 91 70 25712
internal_count=217633 31078 5366 806 102 704 134 43 4560 54 570 76 4506 624 189 65 42 539 3882 2969 913 181 50 732 65 667 2935 91 70 25712
shrinkage=0.05


Tree=568
num_leaves=31
num_cat=0
split_feature=10 16 8 21 28 8 3 16 34 34 3 10 3 39 36 36 29 37 20 32 36 36 3 28 0 32 40 40 3 25
split_gain=0.00194714 0.00563293 0.0561084 0.013089 0.00561579 0.0743114 0.0167612 0.0122897 0.00603779 0.00890722 0.0262113 0.0147694 0.00615289 0.022334 0.017862 0.178493 0.0847993 0.0418511 0.0168746 0.00784889 0.00594515 0.0194322 0.00503593 0.0540266 0.00454779 0.00432012 0.00398483 0.00897937 0.0084143 0.0210107
threshold=0.00020297300000000004 0.00057209200000000006 2.5919250000000001e-05 0.38309800000000005 20.036400000000004 2.0928800000000005e-05 -11.586999999999998 0.0082071400000000017 -1.0090899999999998 -0.39553799999999995 -16.413199999999996 0.00023983600000000003 -14.947699999999999 -3.2877999999999998 -0.3819765 0.20129000000000011 -1.7351949999999996e-05 0.057875000000000128 -14.849549999999999 1.20103 -0.80044776999999989 0.14973499999999998 -14.818499999999998 -0.32370999999999994 3.4082400000000006 1.20103 -0.81248999999999982 0.7622899999999998 -13.353949999999999 -0.11504399999999999
decision_type=2 2 2 2 2 2 2 2 2 2 2 2 2 2 2 2 2 2 2 2 2 2 2 2 2 2 2 2 2 2
left_child=-1 2 -2 -4 8 -6 -7 -8 20 10 -10 -12 13 18 -15 16 -16 -18 -11 -20 -3 -22 23 -14 -23 -13 28 -28 29 -24
right_child=1 4 3 -5 5 6 7 -9 9 12 11 25 22 14 15 -17 17 -19 19 -21 21 24 26 -25 -26 -27 27 -29 -30 -31
leaf_value=-1.9699283924834649e-06 0.0022337427693650347 -1.5689775035476171e-05 8.1462876170905997e-05 -0.0012747718328319025 0.0031274974643019961 -0.0011582319089939121 0.0012344014142096663 -0.00025302319057717379 0.0019136836635880172 0.0014281543003259382 0.0013784720530648801 0.00012095038064630485 0.0022712459837497716 -2.0585644092153216e-05 -0.0044290626284611582 -5.4660742083433435e-05 -0.003085375927566063 -0.00030407617463376819 1.2747893685897754e-05 -0.00089452912276707746 -0.0018930276453916338 -0.00043118633299085425 -0.001516145952229164 -8.1347308498421462e-06 0.00041318796271377288 -0.0004734106104946035 -6.6986138090556648e-05 2.0631886858464168e-05 4.7540175264882484e-05 -8.3972754678998766e-05
leaf_weight=185457 31 115 161 20 20 32 21 41 23 21 22 176 29 489 34 500 21 38 3530 24 21 52 27 251 23 37 3919 11519 10482 497
leaf_count=185457 31 115 161 20 20 32 21 41 23 21 22 176 29 489 34 500 21 38 3530 24 21 52 27 251 23 37 3919 11519 10482 497
internal_value=0 1.13543e-05 0.000268236 -6.83973e-05 9.65057e-06 0.000359956 -0.000228882 0.000250782 8.39673e-06 1.01745e-05 0.00030276 0.000145096 7.76903e-06 -4.52674e-05 -0.0002443 -0.00042878 -0.00244017 -0.00129403 1.49714e-05 6.62109e-06 -0.000258181 -0.000548666 1.70113e-05 0.000227944 -0.000172245 1.77046e-05 1.47779e-05 -1.61031e-06 3.77654e-05 -0.000157768
internal_weight=0 32176 212 181 31964 114 94 62 31850 31639 258 235 31381 4657 1082 593 93 59 3575 3554 211 96 26724 280 75 213 26444 15438 11006 524
internal_count=217633 32176 212 181 31964 114 94 62 31850 31639 258 235 31381 4657 1082 593 93 59 3575 3554 211 96 26724 280 75 213 26444 15438 11006 524
shrinkage=0.05


Tree=569
num_leaves=31
num_cat=0
split_feature=27 3 3 9 39 13 23 39 13 9 5 9 10 13 39 13 13 16 13 29 1 4 15 6 23 18 15 10 0 15
split_gain=0.00195609 0.0123269 0.0574616 0.10414 0.0357598 0.014131 0.0156384 0.0131673 0.0172118 0.0143542 0.0284768 0.0124628 0.00692818 0.0090418 0.00598415 0.00606128 0.00581294 0.00573836 0.00300225 0.00288886 0.0267214 0.0174322 0.0482044 0.229721 0.10326 0.0738786 0.0501943 0.0217686 0.0137796 0.0548883
threshold=0.35534200000000005 -14.605749999999999 -12.665349999999998 -6.4452949999999984e-05 6.5436949999999996 -2.0585499999999998e-05 -0.0016081899999999998 3.6173500000000005 2.7687200000000004e-06 9.9230750000000009e-05 1.9286150000000005e-05 5.8604700000000005e-05 -2.7794449999999996e-05 3.9398900000000012e-06 9.0491300000000017 2.6355450000000002e-05 -2.7228099999999994e-06 0.0025984850000000006 -2.9575949999999995e-06 0.0014581450000000003 -13.794199999999998 -3.4774399999999992 -0.00028306949999999995 8.812610000000001e-08 -0.0048905699999999995 -2.6213749999999996 -0.00015077349999999997 -6.7776199999999983e-05 7.3114750000000006 -4.0549399999999993e-06
decision_type=2 2 2 2 2 2 2 2 2 2 2 2 2 2 2 2 2 2 2 2 2 2 2 2 2 2 2 2 2 2
left_child=19 5 3 -3 -5 -2 -7 8 16 11 -11 12 -9 17 -15 -16 -4 18 -14 -1 -21 -22 23 24 -23 -25 -24 -28 -29 -30
right_child=1 2 7 4 -6 6 -8 9 -10 10 -12 -13 13 14 15 -17 -18 -19 -20 20 21 22 26 25 -26 -27 27 28 29 -31
leaf_value=-1.5419821919362735e-07 -0.0014936781349411657 0.0041104210974535621 -0.00091215417348957143 0.0014813911859943932 -0.0013438711862666728 0.00074188102802369166 -0.00089776159941472799 0.00055080019450734225 -0.0018796945347276052 0.0020907484537350351 -0.0001808375441091689 -0.0011644895689297018 -0.00046881942850019674 7.5724720954895029e-06 -0.0016468993288331797 -0.00045931190530113376 0.00015843109040361016 0.00076488836537464528 -4.6589416871275628e-05 0.0018888834444805982 -0.00051327980474452498 0.0011857694914479827 -0.0024113504320710144 -0.0030312892672904688 0.0058825859762728222 0.00081570880556682825 0.0016141217780717523 -7.5510124155980636e-05 0.0024427958398259113 6.5700211651277191e-05
leaf_weight=215584 31 23 21 21 24 26 33 38 24 22 37 29 49 20 21 22 32 20 299 20 125 22 21 26 25 24 22 761 28 183
leaf_count=215584 31 23 21 21 24 26 33 38 24 22 37 29 49 20 21 22 32 20 299 20 125 22 21 26 25 24 22 761 28 183
internal_value=0 -7.84351e-05 -7.80534e-06 0.00137347 -2.54154e-05 -0.000629347 -0.000175207 -0.000155955 -0.000768807 -7.12338e-05 0.000666195 -0.0001586 -9.64019e-05 -0.000153464 -0.000706957 -0.0010393 -0.000265763 -5.87082e-05 -0.000106041 2.8648e-07 7.58658e-05 4.65527e-05 0.000109483 0.00117438 0.00368408 -0.00118473 7.71482e-06 5.88218e-05 2.36196e-05 0.000381144
internal_weight=0 792 702 68 45 90 59 634 77 557 59 498 469 431 63 43 53 368 348 216841 1257 1237 1112 97 47 50 1015 994 972 211
internal_count=217633 792 702 68 45 90 59 634 77 557 59 498 469 431 63 43 53 368 348 216841 1257 1237 1112 97 47 50 1015 994 972 211
shrinkage=0.05


Tree=570
num_leaves=31
num_cat=0
split_feature=8 40 40 16 16 13 36 39 3 21 11 36 36 31 31 25 5 16 36 36 17 40 32 27 6 25 25 5 32 35
split_gain=0.00191393 0.0102152 0.028953 0.0419726 0.0359465 0.106476 0.0229266 0.0201304 0.0752281 0.0882811 0.0796053 0.0666819 0.141999 0.060414 0.0192177 0.0209605 0.0987227 0.0260884 0.0174832 0.156606 0.049606 0.0166063 0.0568761 0.0921603 0.0599132 0.0546171 0.088768 0.148023 0.0573311 0.23885
threshold=1.6290050000000002e-05 0.46045500000000011 0.36284999999999995 0.0026916950000000005 9.5798550000000015e-06 -1.1598249999999999e-07 5.1007250000000015 -0.56159999999999977 -11.334749999999998 0.10914550000000002 0.00030683250000000005 -0.30278099999999991 0.354709 0.0011015450000000002 0.068482350000000011 -0.39445199999999997 1.2632800000000002e-05 4.1454950000000006e-07 -0.46506469999999994 0.354709 -0.53881199999999996 -1.1537099999999991 -0.028793999999999997 0.00254236 -9.3385949999999991e-07 -0.064774849999999981 -0.015011549999999997 1.2468300000000002e-05 -0.00035081549999999999 2.7534100000000005e-06
decision_type=2 2 2 2 2 2 2 2 2 2 2 2 2 2 2 2 2 2 2 2 2 2 2 2 2 2 2 2 2 2
left_child=1 2 21 4 5 -4 7 14 11 13 -11 -9 -13 -10 15 16 17 -3 -16 20 -20 -1 23 -23 25 -24 27 -27 29 -28
right_child=-2 6 3 -5 -6 -7 -8 8 9 10 -12 12 -14 -15 18 -17 -18 -19 19 -21 -22 22 24 -25 -26 26 28 -29 -30 -31
leaf_value=3.4434496097307952e-06 1.8528340137770573e-06 0.0012173073303125017 -0.0034211379082535135 -0.0025588228318762659 0.00032810292304930044 -9.0778625226069692e-05 0.0015618902751308875 -0.0002772751345853039 -2.5058286917879893e-05 -0.0043497220007702713 -0.00039538769391323772 0.0046335635291013333 -9.7612866274771642e-05 0.0029135988256830786 4.527327643858292e-05 1.3658412088274618e-05 0.003702020152658489 -0.00037033819944949561 -0.0018087729367406984 -6.2686817205691046e-05 -0.0049469659675378357 -0.0038519945721023048 0.0015036292762185136 -0.0005369414019777294 3.808465147486369e-05 -0.00047801667721404764 -0.0042018895548608269 -0.0045111582833175954 -4.1865242987542244e-05 -0.00023221682504212431
leaf_weight=10112 188240 36 32 24 104 96 24 33 73 20 35 35 29 23 276 13534 22 92 34 324 20 23 36 237 3168 65 46 35 590 215
leaf_count=10112 188240 36 32 24 104 96 24 33 73 20 35 35 29 23 276 13534 22 92 34 324 20 23 36 237 3168 65 46 35 590 215
internal_value=0 -1.1866e-05 -4.11692e-05 -0.000568282 -0.000362364 -0.000923368 1.77841e-05 1.52435e-05 0.000461872 -0.000236089 -0.00183333 0.00154839 0.00248975 0.000678995 7.51825e-06 2.01731e-05 0.000607976 7.61871e-05 -0.000257267 -0.00047817 -0.00297107 -3.18802e-05 -0.000112785 -0.000830196 -6.78924e-05 -0.00040805 -0.000480416 -0.00188962 -0.000314823 -0.000931853
internal_weight=0 29393 14783 256 232 128 14610 14586 248 151 55 97 64 96 14338 13684 150 128 654 378 54 14527 4415 260 4155 987 951 100 851 261
internal_count=217633 29393 14783 256 232 128 14610 14586 248 151 55 97 64 96 14338 13684 150 128 654 378 54 14527 4415 260 4155 987 951 100 851 261
shrinkage=0.05


Tree=571
num_leaves=31
num_cat=0
split_feature=20 31 31 1 3 36 36 31 13 15 39 30 5 35 32 1 6 16 1 12 34 0 1 1 8 31 17 3 19 5
split_gain=0.0018912 0.00988868 0.026708 0.0693377 0.0202936 0.0439964 0.171898 0.182355 0.0674569 0.0156756 0.00773772 0.00736276 0.0253681 0.00715139 0.00687405 0.099073 0.0265012 0.0235727 0.00707943 0.00700966 0.0128473 0.0452479 0.0161363 0.0122933 0.0456991 0.0114915 0.00763621 0.0266529 0.0068396 0.00671916
threshold=-6.3564549999999995 0.0051780200000000011 0.0048012500000000008 -4.0741649999999989 -6.3596699999999986 0.30085850000000008 -0.25142799999999998 0.024222600000000004 1.4317750000000002e-06 5.4626650000000007e-05 -0.41630000000000006 2.1557050000000006 1.4062400000000001e-05 0.044881000000000004 -0.0013312399999999998 11.042450000000001 -1.3116499999999997e-05 3.3439600000000001e-09 -11.052099999999998 6.2754300000000023e-08 0.00042599300000000005 10.788850000000002 -12.232849999999997 11.791050000000002 2.2923450000000005e-05 0.0045161100000000011 16.002400000000005 -6.9186299999999994 0.05815710000000001 7.5984950000000007e-06
decision_type=2 2 2 2 2 2 2 2 2 2 2 2 2 2 2 2 2 2 2 2 2 2 2 2 2 2 2 2 2 2
left_child=-1 2 14 -4 10 6 28 -8 -9 -7 11 13 -13 -3 15 16 -2 -18 -19 25 23 22 -22 29 -25 26 -16 -28 -6 -21
right_child=1 4 3 -5 5 9 7 8 -10 -11 -12 12 -14 -15 19 -17 17 18 -20 20 21 -23 -24 24 -26 -27 27 -29 -30 -31
leaf_value=-1.2215661901095453e-06 0.0016068195167754313 5.9302897575208104e-05 -0.0034599388904189253 2.3464666628569831e-05 0.00091398604665300816 3.8292772807662047e-05 0.0066408479462236013 -0.00064017140981983793 0.0032916073454543949 -0.0014301675433671336 -0.00067607145965188186 -0.00043438498299413673 0.0019452190933017329 -0.00041180990466409121 4.5467617447611205e-05 -0.0027791307083134599 -0.0015577806910368965 0.00082456393518861237 -3.181717655490415e-05 -0.00049589876285818519 -0.0012538955760852157 -0.0021195610388061933 -7.5252811645021826e-05 -0.0026820334393735834 0.0001303432351173447 -0.00096505909927405555 -0.00025861702480113076 0.0020825458654326213 -6.9979932117505254e-05 1.6640051119089728e-05
leaf_weight=203645 25 1087 20 50 20 199 23 24 20 20 38 24 21 87 7084 34 25 26 336 65 31 31 459 20 52 28 31 20 151 3937
leaf_count=203645 25 1087 20 50 20 199 23 24 20 20 38 24 21 87 7084 34 25 26 336 65 31 31 459 20 52 28 31 20 151 3937
internal_value=0 1.77842e-05 2.07432e-06 -0.000971793 0.000130283 0.000415618 0.00088622 0.00303295 0.001147 -9.58132e-05 2.65461e-05 4.84489e-05 0.000676097 2.43908e-05 7.66026e-06 -0.000185014 2.90633e-05 -7.2859e-05 2.96909e-05 1.49687e-05 -3.32323e-05 -0.000267021 -0.00014982 -3.3344e-06 -0.000650873 4.58893e-05 4.98565e-05 0.000659486 4.51038e-05 8.31546e-06
internal_weight=0 13988 12274 70 1714 457 238 67 44 219 1257 1219 45 1174 12204 446 412 387 362 11758 4595 521 490 4074 72 7163 7135 51 171 4002
internal_count=217633 13988 12274 70 1714 457 238 67 44 219 1257 1219 45 1174 12204 446 412 387 362 11758 4595 521 490 4074 72 7163 7135 51 171 4002
shrinkage=0.05


Tree=572
num_leaves=31
num_cat=0
split_feature=18 39 3 1 36 36 1 22 22 39 3 11 22 36 36 1 20 11 36 1 33 16 12 33 39 36 36 33 1 36
split_gain=0.00188745 0.0239274 0.0578963 0.151108 0.157546 0.281652 0.384013 0.859231 0.150185 0.108029 0.0848124 0.0520952 0.0375886 0.11307 0.0327936 0.0315159 0.0695893 0.0383629 0.0858562 0.0250379 0.0999656 0.028147 0.125888 0.0377529 0.0227555 0.0303513 0.154008 0.0196913 0.0676905 0.027753
threshold=-8.9484099999999973 -0.12174999999999957 -8.1461699999999979 -3.2275299999999993 -0.12496499999999998 0.2761725000000001 -7.7478249999999997 4.2979400000000005 17.806750000000005 0.13650500000000013 -8.4058999999999973 0.00062372550000000006 15.043350000000002 -0.49100999999999978 -0.40968649999999995 -7.5633549999999987 -8.1725499999999975 0.00012656100000000005 -0.040859549999999939 -11.052099999999998 -3.2722399999999995e-08 8.793135000000002e-05 1.1195050000000002e-06 -4.0691899999999991e-07 -0.27803499999999998 -0.058960000000000005 0.077348000000000056 -2.5056349999999997e-06 -4.4631249999999989 -4.6213449999999989
decision_type=2 2 2 2 2 2 2 2 2 2 2 2 2 2 2 2 2 2 2 2 2 2 2 2 2 2 2 2 2 2
left_child=1 15 3 4 12 6 9 -8 -9 -6 11 -11 14 -14 -3 16 -1 18 -18 20 -19 22 23 -21 25 -25 -27 28 -17 -29
right_child=-2 2 -4 -5 5 -7 7 8 -10 10 -12 -13 13 -15 -16 27 17 19 -20 21 -22 -23 -24 24 -26 26 -28 29 -30 -31
leaf_value=-0.0024800898207883752 -1.5529343277429418e-06 -0.0001147298506946784 2.9585288385261149e-05 -0.00013466083308787425 -0.0012628926656554653 1.144911930658474e-05 0.013846664982544178 0.0045985123716361289 -0.00092197697905992918 -0.00042439260511085969 0.0049591720965690908 0.0029238864624251924 -0.00024150894511236671 0.0038755864938831933 -0.0021118885606718381 -0.0027349646488487611 0.00042529881198009081 0.0036238441379585619 -0.0030524629664594413 -0.0024266675120452421 -0.00071697642166933901 2.4816688673845612e-05 -0.0043915532709797849 6.7725937526342834e-05 0.0012013911355838733 -0.0048276388679975449 -9.6127507330445391e-05 0.001775945828888904 -0.00011199009009313744 -1.7238475576983032e-06
leaf_weight=35 195849 61 8485 571 33 130 23 28 22 26 20 21 81 21 31 29 35 21 36 20 36 572 20 196 27 21 95 22 162 10904
leaf_count=35 195849 61 8485 571 33 130 23 28 22 26 20 21 81 21 31 29 35 21 36 20 36 572 20 196 27 21 95 22 162 10904
internal_value=0 1.39617e-05 7.32555e-05 0.000420205 0.00105769 0.00177001 0.00309147 0.0058486 0.0021695 0.00107875 0.0022321 0.00107165 -5.48555e-05 0.000606128 -0.000787686 -3.23497e-05 -0.000285895 -0.000214721 -0.00133807 -0.000135596 0.000882273 -0.000196604 -0.000530779 -0.000315694 -0.000191152 -0.000311661 -0.000952694 -6.94274e-06 -0.000510243 1.85557e-06
internal_weight=0 21784 9553 1068 497 303 173 73 50 100 67 47 194 102 92 12231 1114 1079 71 1008 57 951 379 359 339 312 116 11117 191 10926
internal_count=217633 21784 9553 1068 497 303 173 73 50 100 67 47 194 102 92 12231 1114 1079 71 1008 57 951 379 359 339 312 116 11117 191 10926
shrinkage=0.05


Tree=573
num_leaves=31
num_cat=0
split_feature=33 19 2 12 39 15 11 14 8 22 19 36 18 5 3 30 10 14 14 5 13 21 2 37 2 17 3 36 9 20
split_gain=0.00192301 0.00856691 0.0672013 0.133533 0.238329 0.0686909 0.0789794 0.0434645 0.0485449 0.0141061 0.00980295 0.0588199 0.121243 0.107241 0.0346157 0.0342118 0.0892468 0.0346871 0.0529517 0.0640124 0.0285369 0.0152783 0.00869909 0.00863653 0.147361 0.145268 0.304003 0.0885528 0.159573 0.117917
threshold=5.735360000000001e-08 -2.7774649999999994 -2.6029249999999995 1.9390250000000003e-07 0.93421999999999994 4.6049500000000007e-05 0.0025138000000000005 2.3833200000000002e-07 3.5005850000000006e-05 2.6373500000000001 -2.5336099999999995 0.327845 -6.9314949999999991 3.2672850000000007e-05 -14.818499999999998 1.5909750000000003 1.8732900000000002e-05 1.1291000000000001e-07 4.7377400000000004e-07 1.2904050000000002e-05 -8.6382099999999991e-08 0.29620600000000008 3.0333000000000006 0.027234499999999971 -2.2522399999999996 -4.0797899999999991 -11.150049999999998 -0.018010000000000078 -3.0554299999999993e-05 -10.354649999999998
decision_type=2 2 2 2 2 2 2 2 2 2 2 2 2 2 2 2 2 2 2 2 2 2 2 2 2 2 2 2 2 2
left_child=-1 2 3 5 -5 7 -7 8 -2 -10 11 12 -3 14 -14 17 -17 20 19 -19 -16 -20 -4 24 25 26 -12 28 -26 -30
right_child=1 10 22 4 -6 6 -8 -9 9 -11 23 -13 13 -15 15 16 -18 18 21 -21 -22 -23 -24 -25 27 -27 -28 -29 29 -31
leaf_value=3.0703544184763606e-06 0.0020487102295737715 0.0035423724549593105 4.1088669350117667e-06 -0.0070733694592490792 -0.00064927391524958827 -0.0036725681840228696 1.0291848259323555e-05 0.0023681091829920271 -2.6949205758600414e-05 -0.0018174633812370966 -0.0082466042575470057 -5.9946481729220775e-06 -0.0017880098317223398 0.0031734327862185671 -0.0023903910953958986 -0.00060320663456956899 0.0039636954618617899 0.0035672841229243205 0.00017728759229419558 -4.7849327650813696e-05 -0.00027337464044439213 -0.0015740656819980361 -0.00091706059801463903 1.0354911075854143e-05 -0.0042428655094805768 0.0005180280777634694 -0.001308750059150043 -1.2080372507161926e-05 0.00078113832816078307 -0.001868174938788751
leaf_weight=152537 20 34 1797 22 42 24 37 28 22 22 20 1980 23 31 20 23 20 25 33 24 78 20 26 31556 33 52 75 28840 91 78
leaf_count=152537 20 34 1797 22 42 24 37 28 22 22 20 1980 23 31 20 23 20 25 33 24 78 20 26 31556 33 52 75 28840 91 78
internal_value=0 -7.19465e-06 -0.000108039 -0.000939817 -0.00285756 -0.000137625 -0.0014387 0.000725045 6.20512e-06 -0.000922206 -3.9321e-06 9.71421e-05 0.000714093 0.000390317 6.59691e-05 0.000241449 0.00152093 -3.36407e-05 0.000611793 0.00179661 -0.000705419 -0.0004836 -9.02904e-06 -7.7774e-06 -2.73801e-05 -0.00160647 -0.00276935 -1.93873e-05 -0.00106262 -0.000441622
internal_weight=0 65096 2040 217 64 153 61 92 64 44 63056 2311 331 297 266 243 43 200 102 49 98 53 1823 60745 29189 147 95 29042 202 169
internal_count=217633 65096 2040 217 64 153 61 92 64 44 63056 2311 331 297 266 243 43 200 102 49 98 53 1823 60745 29189 147 95 29042 202 169
shrinkage=0.05


Tree=574
num_leaves=31
num_cat=0
split_feature=29 1 5 8 5 3 5 35 6 7 10 39 36 0 4 11 39 15 13 36 30 10 13 23 36 36 32 9 36 0
split_gain=0.00187862 0.0134118 0.0111507 0.0164522 0.0149355 0.0627669 0.0584235 0.0167786 0.0143189 0.0141181 0.0243294 0.0140989 0.0104721 0.0129336 0.010095 0.059545 0.0853659 0.0265023 0.0130074 0.0324314 0.0117928 0.0141999 0.0095931 0.0278154 0.00665302 0.0106793 0.0105675 0.0190299 0.00803271 0.00607842
threshold=-0.00090391799999999997 14.319400000000002 3.3381050000000008e-05 5.3913950000000009e-05 1.6368250000000004e-05 -15.993649999999997 1.6628950000000003e-05 0.034433300000000007 8.812610000000001e-08 5.2649200000000011e-05 1.6852200000000004e-05 -0.27803499999999998 -0.12496499999999998 -4.302014999999999 0.73862450000000013 0.010823350000000001 5.4503350000000017 0.0042538100000000011 5.8204250000000011e-06 -0.772536 4.6183500000000004 0.00039796900000000002 4.3089250000000013e-06 0.00070136550000000008 -0.65889149999999985 0.24966499999999994 1.8680450000000002 -6.2337949999999992e-06 -0.079468000000000025 6.2314700000000007
decision_type=2 2 2 2 2 2 2 2 2 2 2 2 2 2 2 2 2 2 2 2 2 2 2 2 2 2 2 2 2 2
left_child=1 2 4 8 14 -6 -7 -8 -4 11 -11 12 -9 -14 18 16 -16 -17 24 -20 -19 -22 29 -24 -1 26 28 -28 -26 -13
right_child=-2 -3 3 -5 5 6 7 9 -10 10 -12 22 13 -15 15 17 -18 20 19 -21 21 -23 23 -25 25 -27 27 -29 -30 -31
leaf_value=2.6348343317016091e-05 4.2005378912377845e-07 0.0011754368310407286 -0.0022040332117328598 -0.00018966395251015622 0.0028117459237281851 0.0027324992979993116 0.0012643977034410151 -6.7727906888180638e-05 -0.00037871478667842563 -6.8905633009775123e-05 -0.0022334062930895017 -5.8381781149364549e-05 -0.00022786623667343521 -0.0019236129488986497 0.0031727922642885739 -0.0018126635878266265 -0.00096699555870145566 -0.0010933691303944217 -0.00015373652010696658 -0.0023505758758498516 0.0011660364056297113 -0.00025080014077426917 -0.00023113728559110314 0.0016846109977046179 -0.00073448596735640114 -0.00011494481366250338 -0.0012403751695750371 0.00078330189045608194 -0.0019387908407952636 0.00085582941857865092
leaf_weight=326 215868 22 21 195 22 20 24 66 22 37 20 200 23 22 33 26 20 20 56 24 28 48 40 36 45 282 21 26 20 20
leaf_count=326 215868 22 21 195 22 20 24 66 22 37 20 200 23 22 33 26 20 20 56 24 28 48 40 36 45 282 21 26 20 20
internal_value=0 -5.13746e-05 -6.68593e-05 -0.000384878 -1.6568e-05 0.000197069 8.3835e-05 -2.47168e-05 -0.00127015 -9.13951e-05 -0.00082838 1.18189e-05 -0.000468743 -0.0010569 -0.000132699 0.000211293 0.00161061 -0.000396607 -0.000207947 -0.000812788 -1.30914e-05 0.000271192 0.00019203 0.000676322 -0.000140742 -0.000278995 -0.000692051 -0.000120894 -0.00110504 2.47283e-05
internal_weight=0 1765 1743 238 1505 530 508 488 43 464 57 407 111 45 975 175 53 122 800 80 96 76 296 76 720 394 112 47 65 220
internal_count=217633 1765 1743 238 1505 530 508 488 43 464 57 407 111 45 975 175 53 122 800 80 96 76 296 76 720 394 112 47 65 220
shrinkage=0.05


Tree=575
num_leaves=31
num_cat=0
split_feature=19 2 2 2 18 2 36 5 32 26 19 11 26 2 22 7 2 13 3 13 11 8 7 6 6 13 9 10 18 39
split_gain=0.00187392 0.0635235 0.0143828 0.00561095 0.00397806 0.00394543 0.0448657 0.0143207 0.025692 0.0110072 0.00321312 0.00291009 0.00241743 0.0203058 0.0499552 0.0113178 0.0818784 0.0389911 0.0523438 0.05202 0.0743618 0.0200715 0.0247421 0.0187093 0.0584921 0.0471956 0.0425863 0.0158246 0.015767 0.0236742
threshold=-3.0951399999999993 3.0333000000000006 -3.0231799999999995 2.9401200000000007 5.2037050000000002 3.0794900000000003 0.016888500000000004 5.8886400000000006e-05 -0.00039708999999999995 0.16279950000000001 2.9584000000000006 0.0009049345000000001 0.70424300000000006 2.9632050000000003 44.542100000000012 -3.2223699999999994e-05 -2.6524249999999996 -7.0069149999999991e-06 -12.288549999999999 -2.9678699999999998e-05 0.0025934100000000004 6.1899350000000009e-05 -9.1337949999999995e-05 1.0580900000000002e-06 -4.3754449999999995e-07 6.9009750000000011e-07 -0.00020968799999999995 8.055315000000001e-05 -5.5781649999999994 1.9902050000000007
decision_type=2 2 2 2 2 2 2 2 2 2 2 2 2 2 2 2 2 2 2 2 2 2 2 2 2 2 2 2 2 2
left_child=1 2 -1 4 -4 12 -7 9 -9 10 -8 -6 -2 15 -15 17 -17 19 -19 21 -21 27 -23 24 28 -25 -27 -14 29 -20
right_child=5 -3 3 -5 11 6 7 8 -10 -11 -12 -13 13 14 -16 16 -18 18 23 20 -22 22 -24 25 -26 26 -28 -29 -30 -31
leaf_value=0.0010313304035127443 5.5480042329839649e-07 0.0024139332473818546 -7.4610442097751385e-06 0.00065915161716651295 -9.5076712923834018e-05 -0.002287397376747559 -4.246422023537069e-05 0.0021607892550662201 -0.00011030412330331854 -0.00096966122838369187 -0.00068552118398656613 -0.0009378112957347186 -0.0020330797476344744 -0.0029958619182434633 0.00010571082372759545 0.0029328120489177916 -7.3659700640587156e-06 -0.0025772662228389113 0.00021217519132388308 0.00017591259163274463 0.0041389565472491089 -0.00056646568985646204 0.0018147255433723329 -9.9964941241629539e-05 0.0018949798856876003 -0.00053289961158399187 -0.0035437172731083901 -0.00012875143005051844 1.4608486356876015e-05 -0.0015835384787642398
leaf_weight=34 212709 28 1619 31 21 23 676 20 33 35 20 20 20 20 37 24 1770 28 29 29 20 24 20 86 33 23 24 24 103 50
leaf_count=34 212709 28 1619 31 21 23 676 20 33 35 20 20 20 20 37 24 1770 28 29 29 20 24 20 86 33 23 24 24 103 50
internal_value=0 5.1487e-05 1.31401e-05 -7.33209e-06 -1.97785e-05 -4.18088e-07 -0.000110767 -4.69115e-05 0.000746712 -0.000104452 -6.09429e-05 -0.000506167 -4.03607e-09 -5.02873e-05 -0.00098256 -2.72532e-05 3.19675e-05 -0.000234353 -0.000497477 0.000487798 0.00179348 -0.000239231 0.000515894 -0.000330137 -4.17899e-05 -0.000796262 -0.00207034 -0.000994355 -0.000392962 -0.000924352
internal_weight=0 1753 1725 1691 1660 215880 807 784 53 731 696 41 215073 2364 57 2307 1794 513 376 137 49 88 44 348 215 133 47 44 182 79
internal_count=217633 1753 1725 1691 1660 215880 807 784 53 731 696 41 215073 2364 57 2307 1794 513 376 137 49 88 44 348 215 133 47 44 182 79
shrinkage=0.05


Tree=576
num_leaves=31
num_cat=0
split_feature=36 19 21 18 5 39 3 30 18 5 36 2 30 27 36 22 19 17 39 18 39 10 16 18 10 16 31 5 9 30
split_gain=0.00186301 0.0147951 0.0537114 0.0519662 0.047282 0.0460505 0.065463 0.0658556 0.0340537 0.0305607 0.08361 0.030284 0.0751491 0.0156734 0.0306054 0.013664 0.0122153 0.138976 0.263956 0.0531167 0.337548 0.057377 0.0600474 0.168341 0.0833956 0.067087 0.0572227 0.0532279 0.0902473 0.0488031
threshold=0.46240350000000002 -2.9623449999999996 0.91519300000000003 -2.0281699999999994 7.4666350000000006e-06 -0.56159999999999977 -7.197614999999999 0.47864000000000007 -1.6594799999999996 1.3436400000000001e-05 -0.018010000000000078 -2.9939399999999998 0.032593450000000003 0.00059764600000000007 0.12375499999999996 1.2555050000000001 -2.3737349999999995 1.9841050000000002 1.5956900000000005 2.1114100000000007 0.43278000000000022 -7.3238049999999987e-06 3.7775550000000009e-08 -9.1109899999999975 7.2361400000000022e-05 4.2063200000000008e-08 -0.12126899999999999 8.1441900000000017e-06 -3.8189799999999991e-05 0.14269350000000003
decision_type=2 2 2 2 2 2 2 2 2 2 2 2 2 2 2 2 2 2 2 2 2 2 2 2 2 2 2 2 2 2
left_child=1 2 3 5 -5 -1 7 -7 -6 11 -11 12 -10 -12 -15 -13 17 19 -19 21 -21 -3 23 -23 26 -24 -25 28 -27 -29
right_child=-2 16 -4 4 8 6 -8 -9 9 10 13 15 -14 14 -16 -17 -18 18 -20 20 -22 22 25 24 -26 27 -28 29 -30 -31
leaf_value=-0.00072274925142454998 5.5282347306737913e-06 0.0026243823741900828 -0.0026697082926561548 -0.002772489758426673 -0.0017072062639598676 0.0042775541575303163 -0.00017925433746823706 0.00075193248608061204 -0.00043848012790216931 -0.0035540878323705068 2.4468031039811153e-05 7.2937877684109008e-05 0.0029139553167624403 -0.0025297096352733207 -0.00020868072480174752 -0.0013498397014336662 -5.213898636217047e-06 0.0071250212669838227 -0.00065250666536182213 0.0065044744407160866 -0.00039837780546426451 0.0042752218704453513 -0.002901130782397972 -0.0020290632514418879 0.0025706249019498903 0.0037928470274061475 0.00018642785968295858 -1.8865795185534945e-05 8.4236022930781471e-06 -0.00056491227402401332
leaf_weight=39 89633 21 22 20 39 26 41 27 35 21 155 108 32 20 49 20 123956 20 24 23 77 26 22 30 36 23 1023 1444 50 571
leaf_count=39 89633 21 22 20 39 26 41 27 35 21 155 108 32 20 49 20 123956 20 24 23 77 26 22 30 36 23 1023 1444 50 571
internal_value=0 -3.87119e-06 -0.000241078 -0.000156537 -0.000390608 0.000721669 0.00132095 0.00248148 -0.000291156 -0.000165642 -0.000537399 0.000301437 0.00116268 -0.000254585 -0.000881443 -0.000149371 -2.65299e-06 9.09873e-05 0.00288273 5.42757e-05 0.00118928 1.93095e-05 2.34627e-06 0.000299141 0.000204211 -0.000154491 0.000123308 -0.000125551 0.00120078 -0.000173602
internal_weight=0 128000 654 632 499 133 94 53 479 440 245 195 67 224 69 128 127346 3390 44 3346 100 3246 3225 1115 1089 2110 1053 2088 73 2015
internal_count=217633 128000 654 632 499 133 94 53 479 440 245 195 67 224 69 128 127346 3390 44 3346 100 3246 3225 1115 1089 2110 1053 2088 73 2015
shrinkage=0.05


Tree=577
num_leaves=31
num_cat=0
split_feature=5 29 12 37 0 4 12 34 36 36 26 31 3 0 12 36 36 13 39 10 4 28 13 16 30 3 36 26 0 19
split_gain=0.00185264 0.0111325 0.0775297 0.121543 0.0225158 0.073801 0.0179681 0.0341478 0.0274741 0.0479221 0.0235535 0.013744 0.0171809 0.0279899 0.0240649 0.017806 0.0953945 0.0523135 0.0464966 0.0119578 0.00914091 0.00904158 0.0297305 0.0400101 0.0183232 0.101037 0.273867 0.017464 0.0419091 0.0120026
threshold=1.0004950000000002e-05 0.0002933525000000001 5.1880700000000008e-06 0.43359400000000009 8.7505950000000023 -0.11971949999999999 -6.4763899999999986e-07 0.42223950000000005 1.1294060000000001 -0.71412249999999966 -0.15264749999999996 0.098593250000000007 -8.9455249999999982 7.4151700000000007 1.5700050000000004e-06 0.51872500000000021 -0.32870999999999989 2.886525000000001e-07 0.8945249999999999 -2.7794449999999996e-05 0.43776750000000003 -2.1163149999999997 -2.2582199999999995e-06 0.00083889400000000008 2.6849000000000003 -12.585899999999999 0.327845 0.30041650000000003 -3.4028749999999994 0.8476410000000002
decision_type=2 2 2 2 2 2 2 2 2 2 2 2 2 2 2 2 2 2 2 2 2 2 2 2 2 2 2 2 2 2
left_child=1 11 4 -4 6 -6 7 10 9 -9 -3 21 13 15 20 16 -13 18 -18 -8 -14 22 23 -1 27 26 -26 -23 -29 -24
right_child=-2 2 3 -5 5 -7 19 8 -10 -11 -12 12 14 -15 -16 -17 17 -19 -20 -21 -22 24 29 -25 25 -27 -28 28 -30 -31
leaf_value=-0.0024929526762383423 1.8828930902785219e-06 -0.00074792176275791252 0.0039652838258916745 -0.00093012437005416445 0.0034379626912414102 2.4345033412636873e-05 0.0012535659875902638 -0.00024533531861379741 -9.6073482256605499e-05 -0.0035290044422727077 0.0015681422365836943 -2.3954393279595066e-05 -5.3761129722263189e-06 -0.0021549880332756965 0.0014321162345305343 -1.0103176289767521e-05 6.7189377414005989e-06 -0.0036041683017233039 -0.0029389498594571792 -8.6710181755798873e-07 -0.0010984942788491027 -7.3740021109602493e-06 0.00058244009361190473 -0.00028077963073277112 0.0050167434945730125 -0.00011219029400442353 -0.00066493592007645932 -0.0020076062325765759 8.3439179562607457e-05 -0.00014699538425207176
leaf_weight=31 186555 21 32 21 20 76 20 20 29 25 23 235 437 21 29 285 37 31 21 379 20 28241 65 60 38 282 48 37 68 426
leaf_count=31 186555 21 32 21 20 76 20 20 29 25 23 235 437 21 29 285 37 31 21 379 20 28241 65 60 38 282 48 37 68 426
internal_value=0 -1.13026e-05 0.000190918 0.00202559 3.22922e-05 0.000735515 -9.82869e-05 -0.000640314 -0.00129619 -0.0020696 0.000462748 -1.57311e-05 -0.000187948 -0.000360257 3.54159e-05 -0.00029837 -0.000551938 -0.00194605 -0.00105982 6.20117e-05 -5.3215e-05 -9.1707e-06 -0.000204278 -0.00103438 -5.2161e-06 0.000345331 0.00184557 -9.76705e-06 -0.000653405 -5.04306e-05
internal_weight=0 31078 666 53 613 96 517 118 74 45 44 30412 1116 630 486 609 324 89 58 399 457 29296 582 91 28714 368 86 28346 105 491
internal_count=217633 31078 666 53 613 96 517 118 74 45 44 30412 1116 630 486 609 324 89 58 399 457 29296 582 91 28714 368 86 28346 105 491
shrinkage=0.05


Tree=578
num_leaves=31
num_cat=0
split_feature=26 17 3 8 7 32 7 13 8 8 36 14 2 19 21 30 2 36 8 3 39 19 12 0 3 18 7 23 2 22
split_gain=0.00184215 0.0211224 0.0612081 0.0467117 0.0752933 0.115233 0.2098 0.0583978 0.096806 0.0426837 0.0188657 0.0177254 0.0167164 0.238946 0.0165088 0.012432 0.0139001 0.0812085 0.0133639 0.0114399 0.0415591 0.0593442 0.0109835 0.0106747 0.0349722 0.0327831 0.027433 0.0722639 0.0413681 0.0258672
threshold=0.030416150000000003 3.0677450000000004 -18.305499999999995 2.5919250000000001e-05 -9.3061799999999994e-06 0.020652350000000003 -1.6993899999999997e-05 6.9009750000000011e-07 2.1587450000000003e-05 1.0512900000000001e-05 -5.4467549999999987 2.7688750000000005e-05 -3.0487399999999996 2.9809550000000002 0.91519300000000003 3.5771350000000006 -2.2229199999999998 -0.040859549999999939 2.8239150000000006e-05 -18.305499999999995 -2.7066499999999998 -1.7659849999999999 -6.4763899999999986e-07 -7.5291399999999991 -10.001249999999997 18.392150000000004 -6.6968199999999987e-05 -0.0037174099999999996 -2.7519549999999997 1.1190250000000002
decision_type=2 2 2 2 2 2 2 2 2 2 2 2 2 2 2 2 2 2 2 2 2 2 2 2 2 2 2 2 2 2
left_child=-1 12 -3 4 5 6 -4 -7 -9 -6 -5 -11 13 14 22 16 17 -12 -17 20 -14 -22 -2 24 -21 -26 27 -25 -29 -30
right_child=1 2 3 10 9 7 -8 8 -10 11 15 -13 19 -15 -16 18 -18 -19 -20 23 21 -23 -24 26 25 -27 -28 28 29 -31
leaf_value=-1.6537152948221348e-06 0.0010684385447783152 0.0028039120123139584 0.00066642981436026668 -0.0014282339549633132 0.0021666525606027181 -0.00011904147160950946 0.0073714392618785506 -0.00014987691022476859 0.0046565191973422775 -0.00012647387230831013 -6.7190898798907302e-05 0.00104247837565102 -1.5623026501148545e-05 0.0053742103839547126 -0.0012793091573661919 -0.0011740557229495607 1.9267808539828254e-05 0.0033453100498511711 -0.00014755613179302882 -0.0020650648632371568 8.9642114471644166e-05 -0.0032254237737679098 -0.00011298433580176446 0.0025987396346317838 -7.8425974879841969e-05 0.0016702605480397191 6.6586333172914756e-06 0.0022203638559100606 0.0018123853183715254 -4.324427898235887e-05
leaf_weight=192726 23 22 28 24 24 90 20 22 20 327 84 36 214 22 27 35 591 22 337 22 27 27 136 35 3654 27 18659 24 20 308
leaf_count=192726 23 22 28 24 24 90 20 22 20 327 84 36 214 22 27 35 591 22 337 22 27 27 136 35 3654 27 18659 24 20 308
internal_value=0 1.27962e-05 0.000183894 0.000149171 0.000517425 0.00136227 0.00346018 0.000599389 0.00213888 0.000124475 -4.18627e-05 -1.05447e-05 4.04895e-07 0.000446632 -0.0001362 -1.07374e-05 0.000113831 0.000641064 -0.000244135 -3.62757e-06 -0.000328393 -0.00156789 5.79133e-05 1.9841e-07 -7.74785e-05 -6.55994e-05 1.53007e-05 0.000431972 0.000216526 6.99039e-05
internal_weight=0 24907 1682 1660 567 180 48 132 42 387 1093 363 23225 208 186 1069 697 106 372 23017 268 54 159 22749 3703 3681 19046 387 352 328
internal_count=217633 24907 1682 1660 567 180 48 132 42 387 1093 363 23225 208 186 1069 697 106 372 23017 268 54 159 22749 3703 3681 19046 387 352 328
shrinkage=0.05


Tree=579
num_leaves=31
num_cat=0
split_feature=24 13 9 39 39 3 36 10 39 14 1 14 13 27 26 8 12 5 12 36 9 13 9 18 13 13 36 14 4 18
split_gain=0.00188234 0.00788636 0.0114444 0.031112 0.0135306 0.00947431 0.0147389 0.043361 0.0087464 0.00939747 0.0220524 0.0327093 0.0399281 0.0270545 0.026196 0.0151936 0.00773601 0.00663123 0.0228383 0.0479334 0.0122527 0.0244189 0.0107693 0.00972152 0.00907089 0.0075748 0.00654203 0.00652561 0.0149739 0.00592727
threshold=91.481750000000019 -1.0656299999999998e-05 -0.00035055549999999991 -1.2773049999999995 -10.150264999999997 -10.778799999999999 0.38220950000000015 0.00020297300000000004 -8.4950449999999993 -2.2078049999999998e-07 -9.4683649999999986 -6.3032849999999992e-06 5.8204250000000011e-06 0.12582950000000004 2.0528200000000001 3.4351300000000011e-05 4.6826750000000007e-05 1.5738550000000005e-05 3.6456250000000008e-06 -0.60254799999999997 2.7947950000000004e-05 9.9131400000000028e-06 3.7226350000000003e-05 -5.4139599999999986 1.4317750000000002e-06 1.2311050000000001e-05 -0.89138499999999987 1.2176250000000002e-05 0.57834950000000018 6.8989050000000001
decision_type=2 2 2 2 2 2 2 2 2 2 2 2 2 2 2 2 2 2 2 2 2 2 2 2 2 2 2 2 2 2
left_child=-1 5 3 -3 -4 6 7 -2 -6 10 -10 13 29 -12 15 -15 -8 18 27 -20 21 24 -22 25 -19 -24 -25 28 -11 -13
right_child=1 2 4 -5 8 -7 16 -9 9 17 11 12 -14 14 -16 -17 -18 20 19 -21 22 -23 23 26 -26 -27 -28 -29 -30 -31
leaf_value=3.999289230655348e-07 -0.0029508081532019954 -0.0003465003744673191 -0.0012097135513613466 0.0022553733531822219 0.00087894370436616661 -1.5998004478619395e-05 -0.00047001547638501505 -0.00018721523305430311 0.0011186852545032034 3.4520566414128465e-05 0.001477461593674013 -0.00025835678473749401 -0.0029915958992205562 -0.0021474084316287188 0.00097759967234610067 -0.00022180219252948606 0.00073435210855677725 1.8844173898462929e-05 -0.00026501820091373075 0.0029060951080861165 -0.0014611629384792954 0.0017093277239750718 0.0010007548239991592 3.903828784013572e-05 -0.0010827138175227447 -0.00029353867284953594 -0.00097987848403863621 -0.00069372683428809985 0.0014310815854696559 -0.001241414802675338
leaf_weight=216035 22 27 24 20 27 132 40 40 23 476 27 46 23 20 22 21 20 285 26 22 24 21 20 23 20 26 50 28 20 23
leaf_count=216035 22 27 24 20 27 132 40 40 23 476 27 46 23 20 22 21 20 285 26 22 24 21 20 23 20 26 50 28 20 23
internal_value=0 -5.40667e-05 -5.77896e-06 0.00076068 -3.35535e-05 -0.000309574 -0.000627213 -0.00116784 -1.13792e-05 -3.06719e-05 -0.000340104 -0.000524456 -0.00118743 0.000153252 -0.000414267 -0.00116112 -6.85596e-05 3.02632e-05 0.000144533 0.00118841 -0.000109102 6.01601e-05 -0.000494971 -0.000300109 -5.33891e-05 0.000269198 -0.00065885 4.89104e-05 9.08335e-05 -0.000586043
internal_weight=0 1598 1344 47 1297 254 122 62 1273 1246 205 182 92 90 63 41 60 1041 572 48 469 326 143 119 305 46 73 524 496 69
internal_count=217633 1598 1344 47 1297 254 122 62 1273 1246 205 182 92 90 63 41 60 1041 572 48 469 326 143 119 305 46 73 524 496 69
shrinkage=0.05


Tree=580
num_leaves=31
num_cat=0
split_feature=19 36 2 2 19 2 5 36 25 2 17 2 26 35 19 20 19 18 36 16 20 0 19 39 27 37 37 27 4 32
split_gain=0.00183908 0.0433053 0.00743192 0.0186187 0.00285672 0.175875 0.0263491 0.0441534 0.00973208 0.0077325 0.00451339 0.00315748 0.0255313 0.0405203 0.0166356 0.10374 0.0416934 0.102403 0.048172 0.095801 0.09083 0.0185786 0.0165304 0.0155832 0.0129238 0.0128175 0.00665596 0.0199302 0.00658404 0.00565231
threshold=3.1185250000000004 -0.14969009999999991 -2.9481199999999999 -2.7279399999999994 3.0909850000000003 -2.9939399999999998 8.0350100000000025e-06 -0.12496499999999998 0.022258250000000004 -2.8220449999999997 -12.926599999999999 -2.9481199999999999 0.21193400000000004 0.010368050000000002 -3.0611199999999994 -9.5739449999999984 -2.9378149999999996 0.26237100000000008 -0.011175000000000155 4.9504050000000005e-09 -8.421034999999998 -7.1234599999999988 2.7036350000000007 -0.19603999999999996 0.00068913250000000013 0.12358499999999996 0.24875600000000014 0.0015109500000000003 -1.2205099999999998 0.0043417000000000013
decision_type=2 2 2 2 2 2 2 2 2 2 2 2 2 2 2 2 2 2 2 2 2 2 2 2 2 2 2 2 2 2
left_child=4 2 -2 -4 11 -6 -7 8 9 -8 -11 12 14 -14 15 -1 17 18 20 -20 21 -16 28 -17 -21 -18 27 -27 -15 -30
right_child=1 -3 3 -5 5 6 7 -9 -10 10 -12 -13 13 22 16 23 25 -19 19 24 -22 -23 -24 -25 -26 26 -28 -29 29 -31
leaf_value=0.0037232178450462279 -0.00077238933212826061 -0.0023164988110130208 0.0014851930871373044 -2.583288796027704e-05 0.0046102759625119647 -0.0014787459793781941 0.00093033375103872956 0.0021894389005509491 -0.00080364278330354207 -0.00056692674752412131 8.1236423265463626e-06 8.6263308558423829e-07 -0.0021817483089227397 -0.00083643002568957545 -0.0001941894958993847 -0.0013717387806695038 0.0009684587931534386 0.0022871270582545552 -0.0034792994287618922 0.00060783724774784575 -0.0046305150829236176 -0.0021254571416648104 -0.0015529087865226237 0.00026159284956520426 -0.00083805950445821516 6.8084617046793036e-05 2.6782741275466172e-06 -0.0015119928783327663 -0.00031106300062763297 0.00045593542087991759
leaf_weight=21 31 21 21 698 21 30 22 23 39 36 654 210902 34 21 33 23 34 25 21 68 24 20 21 40 20 64 4538 29 41 58
leaf_count=21 31 21 21 698 21 30 22 23 39 36 654 210902 34 21 33 23 34 25 21 68 24 20 21 40 20 64 4538 29 41 58
internal_value=0 -7.70854e-05 -1.43818e-05 1.83e-05 2.74058e-07 9.31385e-05 -2.48464e-05 3.15063e-05 -3.45822e-05 7.54332e-06 -2.1879e-05 -8.05716e-08 -3.88194e-05 -0.000632371 -1.78775e-05 0.000679777 -2.98962e-05 -0.00071737 -0.0011212 -0.000444895 -0.00207857 -0.00092297 -0.000258762 -0.000334703 0.000279224 1.19855e-06 -5.90291e-06 -0.000424628 -3.22863e-05 0.00013829
internal_weight=0 771 750 719 216862 825 804 774 751 712 690 216037 5135 175 4960 84 4876 211 186 109 77 53 141 63 88 4665 4631 93 120 99
internal_count=217633 771 750 719 216862 825 804 774 751 712 690 216037 5135 175 4960 84 4876 211 186 109 77 53 141 63 88 4665 4631 93 120 99
shrinkage=0.05


Tree=581
num_leaves=31
num_cat=0
split_feature=16 18 37 13 15 36 36 1 4 1 14 36 3 16 17 36 36 30 39 39 32 39 21 37 6 39 12 31 18 33
split_gain=0.00181479 0.0123976 0.0525381 0.128952 0.0977167 0.0485533 0.0325459 0.0173785 0.0811284 0.0166621 0.0149901 0.0119488 0.0334208 0.0114063 0.0308492 0.0235912 0.149459 0.203896 0.229173 0.496651 0.158816 0.097792 0.0744515 0.0493059 0.0812341 0.133588 0.0950094 0.106135 0.0803717 0.124821
threshold=3.3848150000000009e-05 13.390900000000002 -0.10141500000000002 1.2179350000000004e-06 -4.3908499999999996e-06 0.039429999999999972 0.0045899999999999838 10.319000000000001 0.087890700000000016 2.0321700000000003 8.2225800000000014e-08 -0.43704099999999996 -8.0464099999999981 5.3661700000000008e-06 19.256550000000001 -0.10081500000000009 -0.011175000000000155 0.13562800000000003 0.35261000000000037 0.027469999999999221 0.00078813700000000006 -0.66712000000000005 -0.45225049999999994 -0.2272394999999999 -2.4799399999999996e-06 1.4285350000000012 -4.3823949999999997e-07 -0.0033035399999999993 6.8989050000000001 1.0974300000000001e-08
decision_type=2 2 2 2 2 2 2 2 2 2 2 2 2 2 2 2 2 2 2 2 2 2 2 2 2 2 2 2 2 2
left_child=1 13 3 4 -3 6 7 11 10 -6 -9 -4 -13 -1 15 -15 17 18 19 20 -17 -19 -23 -18 25 -25 -26 -28 -29 -30
right_child=-2 2 5 -5 9 -7 -8 8 -10 -11 -12 12 -14 14 -16 16 23 21 -20 -21 -22 22 -24 24 26 -27 27 28 29 -31
leaf_value=-4.1923855741193176e-07 3.4850661539602019e-06 0.0029026654872723158 -1.3762284832083324e-05 0.0039575037361797077 0.0010905758559601965 -0.0020181494752940692 0.0018032416423711065 0.00012889830101988066 0.0025927619766610275 -0.00033838250655047461 -0.0014076153049245477 8.0577409459113951e-05 -0.0023062037120821928 1.040016732569957e-05 0.00157521822891732 -0.00043016414890007589 -1.0722063284785856e-05 0.0027629422411943479 -0.00031606898196817688 -0.010405264992099863 -0.0057020460604690019 -0.0027940951592217273 0.00030555937693478835 -0.0049023141562849143 0.00065723296698940153 3.3388176184259998e-05 -0.0032805703983790919 -5.361469895070703e-05 -0.00085040594546031707 -0.0051635452028131121
leaf_weight=67011 137515 32 763 29 24 29 26 57 35 136 22 44 22 6150 29 50 4676 30 75 23 20 26 76 26 187 29 36 331 104 20
leaf_count=67011 137515 32 763 29 24 29 26 57 35 136 22 44 22 6150 29 50 4676 30 75 23 20 26 76 26 187 29 36 331 104 20
internal_value=0 -5.98179e-06 0.000152255 0.000849804 0.000380412 -2.21184e-06 5.81207e-05 1.00049e-05 0.000588828 -0.000124039 -0.000298992 -6.95919e-05 -0.000715016 -8.42657e-06 -5.35628e-05 -5.75458e-05 -0.00013074 -0.00121704 -0.00237247 -0.00403086 -0.00193642 0.000253517 -0.000484549 -7.0491e-05 -0.000451773 -0.00229985 -0.000301855 -0.000667129 -0.000460351 -0.00154607
internal_weight=0 80118 1219 221 192 998 969 943 114 160 79 829 66 78899 11888 11859 5709 300 168 93 70 132 102 5409 733 55 678 491 455 124
internal_count=217633 80118 1219 221 192 998 969 943 114 160 79 829 66 78899 11888 11859 5709 300 168 93 70 132 102 5409 733 55 678 491 455 124
shrinkage=0.05


Tree=582
num_leaves=31
num_cat=0
split_feature=29 37 19 25 2 5 13 34 19 34 7 14 17 21 4 13 19 7 39 39 36 33 39 36 11 33 13 40 12 17
split_gain=0.00186801 0.0109473 0.051872 0.0864033 0.0345503 0.0449274 0.079043 0.0983314 0.0569748 0.121691 0.100344 0.143093 0.0747095 0.0879623 0.0638109 0.191636 0.0518135 0.0598823 0.0428946 0.0789977 0.103179 0.17676 0.320276 0.162603 0.146132 0.114735 0.10399 0.0875927 0.079763 0.171617
threshold=1.8894300000000003e-05 0.19792950000000006 2.9137900000000005 0.068796600000000013 -0.28893799999999997 8.7409800000000018e-06 2.7687200000000004e-06 0.0020143900000000005 -0.52681499999999992 0.14170100000000002 3.3200700000000009e-05 1.0102350000000002e-05 7.4294300000000009 -0.24039599999999997 -0.15847949999999997 3.0231500000000004e-06 -1.1076049999999997 3.5897900000000007e-05 2.9569100000000006 -1.1067849999999997 0.327845 -1.4028749999999999e-06 -0.32314999999999999 1.0000000180025095e-35 0.0022103100000000005 -4.9754949999999999e-07 1.2322150000000003e-07 0.6060099999999996 3.629320000000001e-08 1.3198400000000003
decision_type=2 2 2 2 2 2 2 2 2 2 2 2 2 2 2 2 2 2 2 2 2 2 2 2 2 2 2 2 2 2
left_child=-1 2 4 -4 5 6 -2 -8 12 10 11 -10 18 14 15 -14 -17 -18 19 -7 21 22 -21 -23 26 -25 -24 28 29 -27
right_child=1 -3 3 -5 -6 8 7 -9 9 -11 -12 -13 13 -15 -16 16 17 -19 -20 20 -22 23 24 25 -26 27 -28 -29 -30 -31
leaf_value=2.0362620853062853e-06 -2.0233503705271321e-05 1.5796503375526018e-05 -0.00032110107907404507 -0.004168250275397441 1.2095043513936743e-06 9.449191920382383e-05 5.1663485101016705e-05 0.0045777778391008416 5.3615872467768598e-05 -0.0037094833550113172 2.6024309431586941e-05 -0.0049163484035359166 0.0052283589549757467 0.002916796681450718 -0.00044745680856649413 0.0019238005813565992 -0.0029180836900857023 0.00086214045717497361 -2.1239353961358414e-05 -0.0086964417109265928 4.8715163147643316e-06 0.00035527911811250953 -0.00066233551245940847 0.0012688318746269592 0.0010643528808120006 -0.006822682075601604 -0.0053168498133475501 -0.0051366072066593924 -0.0010023931826661765 -0.0011351144018893441
leaf_weight=182390 148 18617 54 20 13357 453 24 24 30 34 193 28 23 37 125 21 22 20 1161 20 310 198 21 31 31 21 28 20 136 36
leaf_count=182390 148 18617 54 20 13357 453 24 24 30 34 193 28 23 37 125 21 22 20 1161 20 310 198 21 31 31 21 28 20 136 36
internal_value=0 -1.05381e-05 -4.00263e-05 -0.00136087 -3.41211e-05 -0.000181824 0.000551592 0.00231472 -0.000229757 -0.000902277 -0.000522018 -0.00234568 -0.000159135 0.00066809 0.000273767 0.00132206 -0.000104051 -0.00111798 -0.000242327 -0.000439018 -0.00072268 -0.00113881 -0.00303715 -0.000709319 -0.00162232 -0.00157321 -0.00332206 -0.00198685 -0.00166045 -0.00323053
internal_weight=0 35243 16626 74 16552 3195 196 48 2999 285 251 58 2714 248 211 86 63 42 2466 1305 852 542 100 442 80 244 49 213 193 57
internal_count=217633 35243 16626 74 16552 3195 196 48 2999 285 251 58 2714 248 211 86 63 42 2466 1305 852 542 100 442 80 244 49 213 193 57
shrinkage=0.05


Tree=583
num_leaves=31
num_cat=0
split_feature=3 21 15 39 39 20 28 36 2 2 36 31 2 11 28 11 33 19 12 16 36 36 29 12 28 2 28 12 33 9
split_gain=0.00181214 0.0411339 0.105142 0.0312153 0.051749 0.0291733 0.0264031 0.0432536 0.0904649 0.0576055 0.024921 0.0172716 0.0852573 0.0231066 0.0579801 0.0194775 0.0165995 0.03879 0.0245247 0.0415669 0.0206393 0.0749946 0.0202775 0.0202437 0.0188565 0.0283887 0.0153683 0.0228843 0.0150333 0.0117494
threshold=-16.722199999999997 1.5291850000000002 -7.2323849999999985e-06 4.1559750000000006 5.9225950000000012 -21.129099999999998 -2.4309499999999997 -0.63161949999999989 1.4160850000000003 1.7386900000000003 0.60008550000000016 0.056928300000000008 -2.7519549999999997 0.01464405 3.7022150000000003 0.011360800000000002 1.2925450000000003e-06 2.1923050000000006 2.4676700000000005e-07 6.1128050000000005e-06 0.12375499999999996 -0.30278099999999991 8.2405400000000009e-05 0.00025705400000000005 1.5068850000000003 -1.3472649999999997 1.1329200000000001 6.0081850000000012e-07 6.3099400000000006e-06 0.00023337100000000004
decision_type=2 2 2 2 2 2 2 2 2 2 2 2 2 2 2 2 2 2 2 2 2 2 2 2 2 2 2 2 2 2
left_child=1 3 -3 5 -5 -1 7 -7 -9 -10 -11 16 -13 15 28 29 22 18 20 -20 21 -18 24 -21 26 -26 -8 -28 -15 -14
right_child=-2 2 -4 4 -6 6 11 8 9 10 -12 12 13 14 -16 -17 17 -19 19 23 -22 -23 -24 -25 25 -27 27 -29 -30 -31
leaf_value=0.0017541613996676778 9.2672003594767751e-07 -0.00081153884075320099 0.0032108401621702472 -0.0032472885242896157 -9.0519978343886703e-05 3.1136586165177799e-05 -1.3061495914270678e-05 -0.0035802025623026218 0.0019315001592622137 -0.0026106951438123363 -0.00034687546956833578 0.0034233039673251496 0.0001297331616725599 -0.00019870791792588234 0.0029306419497436807 -0.001612021977648097 -0.00012829778478055866 -0.0023647329418798272 -0.002728873763061572 -0.00056399892320502948 -0.00020774150706131763 0.0032625848385082049 0.0015411850193881296 0.0011209524852165487 -0.0024345661510596986 -0.00013682764217331326 -0.00011673072738934327 0.0021733174075779971 0.0012877117272926792 -0.0011351482751446643
leaf_weight=23 209010 32 33 20 37 138 7303 31 20 20 31 21 146 75 23 22 63 22 21 164 167 22 21 20 20 41 24 20 22 21
leaf_count=23 209010 32 33 20 37 138 7303 31 20 20 31 21 146 75 23 22 63 22 21 164 167 22 21 20 20 41 24 20 22 21
internal_value=0 -2.24625e-05 0.00123059 -3.19797e-05 -0.00119816 -2.41604e-05 -2.89848e-05 -0.000545944 -0.0013267 -0.000342775 -0.00123465 -1.39241e-05 0.000340482 0.00013097 0.000673594 -0.000213553 -2.87134e-05 -0.000314 -0.000215278 -0.000621381 0.000115084 0.000749342 -1.0319e-05 -0.000380852 -1.47171e-05 -0.000890185 -7.44839e-06 0.0009242 0.000138418 -2.93238e-05
internal_weight=0 8623 65 8558 57 8501 8478 240 102 71 51 8238 330 309 120 189 7908 479 457 205 252 85 7429 184 7408 61 7347 44 97 167
internal_count=217633 8623 65 8558 57 8501 8478 240 102 71 51 8238 330 309 120 189 7908 479 457 205 252 85 7429 184 7408 61 7347 44 97 167
shrinkage=0.05


Tree=584
num_leaves=31
num_cat=0
split_feature=18 40 1 11 1 4 4 34 15 32 8 3 36 36 0 3 17 0 39 29 3 18 15 3 6 36 21 1 21 4
split_gain=0.0017899 0.0183771 0.0395705 0.0260774 0.0487906 0.057418 0.0947061 0.321714 0.09518 0.0822317 0.118211 0.126563 0.0937073 0.145056 0.0769338 0.0548076 0.0228717 0.0382739 0.0153112 0.0152983 0.0141063 0.0139714 0.030606 0.0124747 0.0113115 0.0938687 0.0203455 0.0497425 0.0357383 0.0421757
threshold=-12.332599999999998 0.19419999999999996 -10.856449999999997 0.00014492950000000003 -1.9933749999999997 -1.3105149999999999 -0.48550749999999993 0.015434100000000001 -6.7236599999999979e-05 0.14537000000000003 3.4560700000000009e-05 -6.3292149999999987 -0.3562499999999999 -0.027530000000000051 0.16271950000000004 -7.4119349999999988 -9.9085449999999984 -7.2224499999999994 -0.23716000000000023 0.0014581450000000003 -11.976899999999999 -15.424049999999998 -3.4631599999999995e-06 -6.280479999999999 6.5354350000000009e-06 0.10022550000000004 0.20684300000000003 -12.232849999999997 0.14005200000000004 0.038924450000000006
decision_type=2 2 2 2 2 2 2 2 2 2 2 2 2 2 2 2 2 2 2 2 2 2 2 2 2 2 2 2 2 2
left_child=1 3 -3 16 5 19 7 -7 15 10 11 12 -8 -14 -15 -9 17 -1 23 -5 -6 22 -11 -4 26 -26 28 -28 -18 -30
right_child=-2 2 18 4 20 6 9 8 -10 21 -12 -13 13 14 -16 -17 24 -19 -20 -21 -22 -23 -24 -25 25 -27 27 -29 29 -31
leaf_value=-0.0025093281255976763 -7.6988261886101098e-07 -0.0017236590233681325 -3.4360653423207682e-05 -7.8658485131875378e-05 -0.00090489393229030868 -0.002529792455607094 0.0007363735702153551 0.0046986904265525356 0.0069098619217540895 -0.0024716776038985703 -0.00011549957462426764 -0.0002340593912332795 0.0076309063337976117 0.0049311580380890525 0.00087088623202232298 0.001200998747178043 -1.4506843315287365e-05 -0.00014678576674972041 0.0011749579817870446 -0.0014601447365712374 4.3279445125270129e-05 0.0003513360452250874 -0.00030708482299814934 -0.0011134998758145097 0.0028607748088688824 -2.5762592061816594e-05 -0.0026472013206027141 -0.00020310825446787328 -6.9388805422931915e-05 0.0031388643011450766
leaf_weight=24 211535 35 3290 101 42 25 31 21 21 20 117 43 20 20 28 24 882 60 26 25 594 44 89 27 32 235 24 157 21 20
leaf_count=24 211535 35 3290 101 42 25 31 21 21 20 117 43 20 20 28 24 882 60 26 25 594 44 89 27 32 235 24 157 21 20
internal_value=0 2.67066e-05 -5.11812e-05 0.000123436 0.000289473 0.000601719 0.000840813 0.00230065 0.00413036 0.000518375 0.0010613 0.00203091 0.00301468 0.00405333 0.00256267 0.00283325 -2.09183e-05 -0.000821798 -3.3671e-05 -0.000352763 -1.93358e-05 -0.000400688 -0.000704258 -4.31447e-05 2.81509e-05 0.000320189 -4.2478e-05 -0.000527187 5.25732e-05 0.00149561
internal_weight=0 6098 3378 2720 1265 629 503 91 66 412 259 142 99 68 48 45 1455 84 3343 126 636 153 109 3317 1371 267 1104 181 923 41
internal_count=217633 6098 3378 2720 1265 629 503 91 66 412 259 142 99 68 48 45 1455 84 3343 126 636 153 109 3317 1371 267 1104 181 923 41
shrinkage=0.05


Tree=585
num_leaves=31
num_cat=0
split_feature=17 22 14 10 28 22 7 0 2 39 2 5 0 4 4 2 2 39 32 2 35 0 4 18 16 14 13 23 14 3
split_gain=0.00182987 0.0247115 0.042344 0.0166144 0.0748988 0.019022 0.0139168 0.0353041 0.022449 0.0395896 0.0370075 0.0174939 0.016615 0.0161714 0.0118978 0.0117436 0.0160878 0.00918181 0.00863694 0.00756288 0.0165994 0.00815116 0.00685155 0.00678103 0.0130592 0.0294355 0.0163314 0.0110827 0.0165083 0.00828529
threshold=-14.223749999999997 0.33580650000000006 6.1738550000000003e-07 -5.3688449999999996e-05 -5.551709999999999 3.2492400000000008 -6.6968199999999987e-05 -12.520849999999998 -2.8691749999999998 0.31279500000000043 -2.7519549999999997 2.3352400000000004e-05 -10.580349999999997 -0.084020649999999988 -0.17044799999999996 -2.6524249999999996 -2.5803049999999996 0.72566000000000008 -0.00040882949999999994 2.8579150000000006 0.015854000000000004 -10.077899999999998 -0.070504949999999983 14.999250000000002 0.00013951500000000002 -8.4992649999999986e-08 3.8630400000000007e-07 0.069955350000000013 2.0335950000000003e-07 -12.046299999999997
decision_type=2 2 2 2 2 2 2 2 2 2 2 2 2 2 2 2 2 2 2 2 2 2 2 2 2 2 2 2 2 2
left_child=1 2 -1 4 -3 -6 11 -8 9 22 -10 -5 13 -12 -13 -14 -17 -7 -16 21 -21 -18 -9 29 25 -25 -27 28 -26 -23
right_child=-2 3 -4 6 5 17 7 8 10 -11 12 14 15 -15 18 16 19 -19 -20 20 -22 23 -24 24 27 26 -28 -29 -30 -31
leaf_value=-0.00026904758567318574 -5.0423884803538594e-07 0.0030942811226850608 0.0029097602970250594 -0.0014607679387180336 0.0012854077717964259 -3.5843271610286571e-07 0.001646705571681995 -0.00081975020992103959 -0.0015573770109114822 0.0021170803181067804 -0.0019888638559496029 0.00078256871903431612 0.0011689783031628891 -0.00023235409652754338 -0.0013099515468638857 -0.0013372428522085433 0.0010189092872072555 -0.0011758914910247908 -0.00013465226382120614 0.00044096432505354578 -0.0012169979393042419 0.00027320219394838286 0.00039193856771037517 0.0018560328543008793 -0.0017167886764968211 0.00012304599994003481 -0.0013715778606242764 0.00039921743082231846 -0.00036330996737093995 6.6122413292367037e-06
leaf_weight=22 215032 24 20 35 21 46 33 20 39 34 20 25 22 38 22 22 21 26 54 26 36 373 28 21 33 89 23 24 71 1333
leaf_count=22 215032 24 20 35 21 46 33 20 39 34 20 25 22 38 22 22 21 26 54 26 36 373 28 21 33 89 23 24 71 1333
internal_value=0 4.16868e-05 0.00124467 2.19427e-05 0.000603988 -3.86678e-05 -5.94403e-06 2.30431e-05 -5.29606e-07 0.000811707 -3.09283e-05 -0.000497447 -3.26492e-06 -0.000838047 -0.000163623 1.9857e-05 7.65594e-06 -0.000424856 -0.00047487 2.2089e-05 -0.000521723 3.90489e-05 -0.000112932 2.85878e-05 -0.00020876 0.000138207 -0.000183886 -0.00056928 -0.000792779 6.48995e-05
internal_weight=0 2601 42 2559 117 93 2442 2306 2273 82 2191 136 2152 58 101 2094 2072 72 76 2050 62 1988 48 1967 261 133 112 128 104 1706
internal_count=217633 2601 42 2559 117 93 2442 2306 2273 82 2191 136 2152 58 101 2094 2072 72 76 2050 62 1988 48 1967 261 133 112 128 104 1706
shrinkage=0.05


Tree=586
num_leaves=31
num_cat=0
split_feature=28 18 39 37 36 22 20 18 29 4 36 3 39 1 37 18 36 27 37 36 12 27 1 33 1 39 16 23 16 9
split_gain=0.00179895 0.0155424 0.0743699 0.168368 0.694004 0.520834 0.348611 0.314919 0.24439 0.0947724 0.0376107 0.0296268 0.0279514 0.101759 0.0238496 0.0241479 0.0218153 0.0175477 0.0537278 0.169801 0.112663 0.201772 0.0958619 0.108264 0.154971 0.310559 0.0954436 0.148529 0.133461 0.181028
threshold=-0.12163499999999998 0.18529350000000003 -0.15760999999999911 0.27484500000000006 0.24966499999999994 2.5401000000000002 -10.311099999999998 -1.1455399999999998 -9.7463599999999976e-06 0.92648250000000021 -5.6825599999999996 -16.266399999999997 0.052215000000000351 1.9322400000000004 5.6849350000000003 -1.4816349999999998 0.354709 0.0011509850000000002 0.22260499999999997 0.24966499999999994 -1.6870249999999996e-07 0.0011742500000000002 0.98335600000000012 -1.1844749999999999e-05 4.8656050000000013 3.0695900000000012 8.2724850000000008e-05 -0.00026235999999999995 0.0012845400000000002 -5.7102799999999991e-05
decision_type=2 2 2 2 2 2 2 2 2 2 2 2 2 2 2 2 2 2 2 2 2 2 2 2 2 2 2 2 2 2
left_child=1 2 3 4 5 -1 -7 8 9 -8 -5 -4 13 -13 -14 -16 -6 -3 19 20 21 -19 -23 24 -24 -26 27 -25 29 -28
right_child=-2 17 11 10 16 6 7 -9 -10 -11 -12 12 14 -15 15 -17 -18 18 -20 -21 -22 22 23 26 25 -27 28 -29 -30 -31
leaf_value=0.011129673809600286 -2.2689646428972629e-06 4.2613248099080282e-05 -0.0015615963875461603 0.0021005522293437804 -0.0015670649901730939 0.008668995067377441 -0.00031238342367835098 -0.0021636924756052935 0.0068197210410289701 0.0038992855644954202 -3.7465701318075819e-05 0.00047179013441941693 1.1913144706063463e-05 -0.0030021801803585342 -0.0024460610760434066 -1.8461744323195447e-05 -3.4975776862654897e-05 -0.0058251299412222582 2.2863542798985177e-05 3.1854677548826144e-05 -0.00018041704919582918 -0.0038173086200840771 -0.0015034577895754152 -0.0024993099914247391 0.006299949553795159 -0.0017436648383625738 -0.006456133345740714 0.00048201735749363485 -0.00057865243781437257 -0.0016292942872633447
leaf_weight=21 174228 14415 32 21 25 21 34 37 32 22 1004 53 2848 35 20 21 329 20 16836 5025 1468 25 35 51 28 21 21 231 415 259
leaf_count=21 174228 14415 32 21 25 21 34 37 32 22 1004 53 2848 35 20 21 329 20 16836 5025 1468 25 35 51 28 21 21 231 415 259
internal_value=0 9.10764e-06 9.64872e-05 0.000378345 0.00111022 0.00376712 0.00270813 0.0017067 0.00333403 0.0013422 6.33759e-06 -4.83293e-05 -3.20631e-05 -0.000909903 -5.32374e-06 -0.00120266 -0.000143174 -1.13725e-06 -2.69471e-05 -0.000137305 -0.000467542 -0.000848644 -0.000756996 -0.000684887 0.00103763 0.00285269 -0.000832984 -5.71589e-05 -0.00114778 -0.00199131
internal_weight=0 43405 4555 1546 521 167 146 125 88 56 1025 3009 2977 88 2889 41 354 38850 24435 7599 2574 1106 1086 1061 84 49 977 282 695 280
internal_count=217633 43405 4555 1546 521 167 146 125 88 56 1025 3009 2977 88 2889 41 354 38850 24435 7599 2574 1106 1086 1061 84 49 977 282 695 280
shrinkage=0.05


Tree=587
num_leaves=31
num_cat=0
split_feature=1 17 1 14 6 21 1 38 37 38 33 40 39 16 27 33 11 4 14 38 39 27 17 6 9 34 28 32 1 28
split_gain=0.00186477 0.00667134 0.0592167 0.0150592 0.0222837 0.00958965 0.00578871 0.0240957 0.11455 0.129499 0.199304 0.181796 0.295381 0.0961533 0.337286 0.0717292 0.0649751 0.0543392 0.125517 0.0511108 0.0446945 0.0463903 0.0323233 0.0262692 0.0259836 0.0299626 0.0109774 0.0225888 0.00930901 0.0205382
threshold=5.9655550000000011 -19.608449999999998 6.8996100000000009 2.4653500000000006e-07 2.4187900000000002e-06 0.47318500000000002 5.3828400000000007 0.10022550000000004 0.12358499999999996 -0.040859549999999939 1.2925450000000003e-06 1.2627400000000006 0.64319500000000052 1.7836600000000004e-08 0.00020949700000000003 1.5076900000000002e-07 0.0011235450000000003 -0.17714399999999997 -2.7285799999999991e-07 0.12375499999999996 0.8945249999999999 0.00014836650000000002 7.5325700000000007 3.0680400000000004e-06 -3.4539199999999996e-05 -0.00050892999999999989 -5.551709999999999 -0.23644799999999996 5.2110150000000006 -0.46902799999999994
decision_type=2 2 2 2 2 2 2 2 2 2 2 2 2 2 2 2 2 2 2 2 2 2 2 2 2 2 2 2 2 2
left_child=6 2 -2 4 -4 -5 28 8 9 11 13 12 -8 14 -11 17 -17 18 -15 -9 21 23 26 -19 -23 -26 -10 -28 -1 -30
right_child=1 -3 3 5 -6 -7 7 19 22 10 -12 -13 -14 15 -16 16 -18 20 -20 -21 -22 24 -24 -25 25 -27 27 -29 29 -31
leaf_value=-1.9050128283882167e-06 0.0021040190416160105 7.1502422795015844e-06 -0.0001109211425456858 -0.00018611850682646037 0.0016788949561569923 -0.0014254244226322044 -0.0080305342070965315 0.0020707950635308714 -0.00084489710408235672 0.00090013430586616456 -0.00508169885724783 0.00055061205448510015 -0.0011122533082622492 0.00039529867055348289 -0.0072828439669683585 0.00046684959509151765 0.0038651737360685897 -0.0019256478563571971 -0.0039925053893447122 5.5451764200761471e-07 -0.0015790126362719157 -0.00043110119156401864 0.0015419127089497872 0.00049585009775390593 0.00284199778207689 0.0008663445499059591 0.0016739075919031167 -1.7874729431832192e-05 0.00061144524893157355 5.4840387574619469e-05
leaf_weight=157296 37 51559 83 37 22 27 27 30 39 34 22 32 36 39 20 39 22 24 28 4792 29 22 34 21 28 61 20 1466 186 1521
leaf_count=157296 37 51559 83 37 22 27 27 30 39 34 22 32 36 39 20 39 22 24 28 4792 29 22 34 21 28 61 20 1466 186 1521
internal_value=0 8.28483e-06 0.000292258 -0.0001044 0.000264088 -0.000708951 -2.58558e-06 -4.75389e-05 -0.000191452 -0.000863396 -0.000459223 -0.00251838 -0.00407723 -0.000182126 -0.0021306 0.000154032 0.00169247 -0.000218368 -0.00143841 1.34345e-05 0.000223485 0.000558564 1.71571e-05 -0.000795615 0.00110756 0.0014879 -1.68375e-05 4.89488e-06 -6.44704e-07 0.00011549
internal_weight=0 51765 206 169 105 64 165868 6865 2043 484 389 95 63 367 54 313 61 252 67 4822 185 156 1559 45 111 89 1525 1486 159003 1707
internal_count=217633 51765 206 169 105 64 165868 6865 2043 484 389 95 63 367 54 313 61 252 67 4822 185 156 1559 45 111 89 1525 1486 159003 1707
shrinkage=0.05


Tree=588
num_leaves=31
num_cat=0
split_feature=26 17 8 12 36 9 12 9 12 29 19 5 18 39 21 10 25 34 2 19 18 5 30 12 11 26 2 19 6 9
split_gain=0.00184027 0.0185997 0.0466949 0.08242 0.131018 0.0755998 0.017257 0.0407344 0.106467 0.190658 0.0540488 0.0278684 0.0214223 0.0193497 0.0482593 0.0302715 0.0175857 0.0160087 0.0147759 0.210596 0.0152484 0.0344612 0.0147091 0.04647 0.0125293 0.0106944 0.024585 0.0812467 0.190671 0.021555
threshold=0.030416150000000003 3.0677450000000004 1.5606650000000004e-05 -1.0179149999999999e-07 -0.27744100000000016 -2.5921549999999999e-05 -2.7784749999999993e-06 -4.4153649999999994e-05 4.3407200000000007e-05 5.5000250000000006e-05 -2.2092599999999996 1.1508200000000001e-05 7.0074550000000011 -5.4542349999999997 1.3511250000000004 5.8318900000000008e-05 -1.7331449999999997 0.11219700000000001 -3.0487399999999996 2.9809550000000002 -2.0281699999999994 1.1221950000000002e-05 0.2810120000000001 -2.4511349999999994e-07 0.0033167500000000007 0.017474100000000003 2.9632050000000003 2.9381050000000006 1.0580900000000002e-06 -2.3324049999999996e-05
decision_type=2 2 2 2 2 2 2 2 2 2 2 2 2 2 2 2 2 2 2 2 2 2 2 2 2 2 2 2 2 2
left_child=25 18 3 4 -3 -5 11 8 9 10 -8 -4 17 15 -15 -13 -9 -10 19 20 21 -2 23 -18 -7 -1 29 -28 -29 -27
right_child=1 2 6 5 -6 24 7 16 12 -11 -12 13 -14 14 -16 -17 22 -19 -20 -21 -22 -23 -24 -25 -26 26 27 28 -30 -31
leaf_value=1.0050575218977477e-06 -0.0024665978290067873 -0.00036271175624940293 -0.0015326436546643351 0.0030856560124084354 0.0046825144642723667 4.6426190922776353e-05 0.0029007857332180721 -0.0012235700398041107 -0.00037596433417182233 0.0053341437590555367 -7.7028721557326213e-05 -0.0024778716001310386 0.00099537836504168817 -0.00019743670171915452 0.0017616514323398826 0.00015598637243480578 0.0025974585607954122 -0.0020162496931983957 -2.6293709733368021e-06 0.0050467241571327164 0.00021719321840017508 3.7263525503779728e-06 -1.2564327976481306e-05 0.00014070978604264629 -0.0011899490626631262 -0.00018687565290222597 -2.5111546491434304e-05 -0.00049799740819642991 0.0057222372260267475 -1.761929386024166e-05
leaf_weight=183387 20 22 37 20 31 85 20 27 51 29 64 20 20 209 37 24 23 21 23017 22 118 48 797 118 27 2657 191 28 22 6441
leaf_count=183387 20 22 37 20 31 85 20 27 51 29 64 20 20 209 37 24 23 21 23017 22 118 48 797 118 27 2657 191 28 22 6441
internal_value=0 1.27896e-05 0.000173346 0.000922751 0.00258827 0.000254021 8.07339e-05 0.000170481 0.000810577 0.00183873 0.000631975 -0.000240381 -0.000452259 -7.55066e-05 9.72229e-05 -0.00104122 3.45027e-05 -0.000854381 1.16183e-06 0.000420691 -0.000126475 -0.00072284 7.07159e-05 0.000541456 -0.000251629 -1.65287e-06 -5.38458e-05 0.000444602 0.00223891 -6.70493e-05
internal_weight=0 24907 1682 185 53 132 1497 1170 205 113 84 327 92 290 246 44 965 72 23225 208 186 68 938 141 112 192726 9339 241 50 9098
internal_count=217633 24907 1682 185 53 132 1497 1170 205 113 84 327 92 290 246 44 965 72 23225 208 186 68 938 141 112 192726 9339 241 50 9098
shrinkage=0.05


Tree=589
num_leaves=31
num_cat=0
split_feature=24 10 3 15 18 10 2 6 39 39 14 28 36 39 36 36 33 1 6 30 39 5 19 28 10 23 14 35 1 0
split_gain=0.00184661 0.0109857 0.0122929 0.0255388 0.0115464 0.00988893 0.00805824 0.00760065 0.0204999 0.0359534 0.0823252 0.0284515 0.0364066 0.0278331 0.0432012 0.143128 0.0823108 0.0216583 0.0190169 0.0630936 0.0694326 0.122187 0.0353851 0.0418394 0.0282419 0.0209763 0.019441 0.0187361 0.0183616 0.0158263
threshold=29.419400000000007 -7.1201799999999986e-05 -16.131449999999997 -0.00011261149999999999 11.074800000000002 -6.7776199999999983e-05 -3.0795949999999999 3.1916100000000005e-08 0.027469999999999221 -0.82558500000000012 7.7830150000000009e-06 -2.9812749999999997 0.43531000000000003 1.3091549999999998 0.354709 -0.14969009999999991 1.8324750000000004e-05 -7.4706449999999984 -4.3754449999999995e-07 14.135600000000002 7.1099950000000005 1.3813450000000001e-05 -2.1160149999999995 11.695650000000002 5.2821900000000003e-05 -0.028182349999999998 4.8606200000000009e-08 0.12384550000000001 14.818150000000001 8.9117650000000008
decision_type=2 2 2 2 2 2 2 2 2 2 2 2 2 2 2 2 2 2 2 2 2 2 2 2 2 2 2 2 2 2
left_child=-1 2 3 -2 -4 -3 -7 18 9 29 11 27 17 14 15 -10 -17 -13 -8 22 21 24 -20 25 -21 26 -24 -11 -15 -9
right_child=1 5 4 -5 -6 6 7 8 13 10 -12 12 -14 28 -16 16 -18 -19 19 20 -22 -23 23 -25 -26 -27 -28 -29 -30 -31
leaf_value=8.0933335276140966e-07 -0.0023574099021392283 0.00088982679080800158 7.8881029545108933e-05 -4.2718846368818333e-05 -0.0012429155055724552 -0.00089854410515936953 -8.1568836941521383e-06 1.4444365563736096e-06 -0.00020238377482768461 -8.4831834012619794e-06 0.0029386418038216911 0.00075833565355424074 -6.962147283105417e-06 -0.00010574987412580294 -7.1028961199448524e-05 -0.005804272354968513 -0.0016632466855558701 0.0030852595942269545 0.0013152400080454411 -0.00028207113355165346 -0.00038522283246730576 0.0042264457011353101 -0.00010828429337076767 -0.0022816330520436172 0.0020136570217021343 -0.00039524931380834332 0.0020024574780836703 -0.001875154198787641 0.0014200569612512481 -0.0010654137099562731
leaf_weight=211114 22 30 95 26 20 26 2894 1011 113 41 34 20 63 1396 191 21 28 20 37 37 46 37 24 25 21 145 20 20 20 36
leaf_count=211114 22 30 95 26 20 26 2894 1011 113 41 34 20 63 1396 191 21 28 20 37 37 46 37 24 25 21 145 20 20 20 36
internal_value=0 -2.62098e-05 -0.000431523 -0.00110362 -0.000150997 -1.58155e-05 -2.01104e-05 -1.64851e-05 -7.3829e-05 8.16077e-05 0.000699476 0.000235259 0.000742071 -0.000183223 -0.000580443 -0.00118105 -0.00343797 0.0019218 3.61122e-05 0.000362935 0.00120928 0.00198135 -0.000112501 -0.000359354 0.000549141 -0.000105084 0.000851144 -0.000620506 -8.41989e-05 -3.52384e-05
internal_weight=0 6519 163 48 115 6356 6326 6300 3014 1245 198 164 103 1769 353 162 49 40 3286 392 141 95 251 214 58 189 44 61 1416 1047
internal_count=217633 6519 163 48 115 6356 6326 6300 3014 1245 198 164 103 1769 353 162 49 40 3286 392 141 95 251 214 58 189 44 61 1416 1047
shrinkage=0.05


Tree=590
num_leaves=31
num_cat=0
split_feature=17 2 20 14 20 19 26 7 2 39 8 5 29 8 35 39 39 18 40 15 15 2 23 36 17 15 14 31 13 24
split_gain=0.00183883 0.015086 0.0610042 0.120215 0.0409695 0.0295891 0.0262972 0.00920218 0.0330649 0.0813561 0.243272 0.166663 0.0249207 0.044657 0.0314664 0.0233764 0.0387296 0.0279487 0.0352785 0.021426 0.0488972 0.11957 0.0353494 0.0503775 0.0329411 0.206882 0.0790859 0.0978748 0.0227237 0.0185809
threshold=-8.175164999999998 3.0333000000000006 -9.5739449999999984 9.0015350000000007e-07 -9.1724949999999978 2.8297800000000004 0.014392250000000002 -3.3572249999999994e-05 -2.6524249999999996 0.20156999999999983 2.8428900000000005e-05 9.1544450000000014e-06 1.8894300000000003e-05 3.5202800000000008e-05 0.00033724500000000007 2.0339700000000001 1.636995 -13.388899999999998 -2.7037449999999992 -4.3908499999999996e-06 -1.1273899999999999e-05 -2.9192849999999999 -0.00012987799999999997 0.1751400000000001 -12.926599999999999 -1.337395e-06 1.3390250000000002e-07 0.0005343940000000001 4.1207450000000003e-07 1.4667800000000002
decision_type=2 2 2 2 2 2 2 2 2 2 2 2 2 2 2 2 2 2 2 2 2 2 2 2 2 2 2 2 2 2
left_child=1 7 3 -3 -4 -6 -7 12 9 -9 -11 -12 19 -14 -15 16 -16 -17 -19 20 -1 -22 23 -23 25 -21 27 -27 29 -28
right_child=-2 2 4 -5 5 6 -8 8 -10 10 11 -13 13 14 15 17 -18 18 -20 24 21 22 -24 -25 -26 26 28 -29 -30 -31
leaf_value=-5.4881475442617979e-05 -1.6961458119827827e-06 -0.00083012670744210494 -0.00204730493687315 0.0043706822823733086 -9.235228420033903e-05 0.00052489358907526667 0.0026321505114901816 6.5540728033089529e-05 1.4382452152804346e-05 0.0066291774960700427 -0.00076800866393824665 0.0043653268680957681 -0.0019844550764574732 -0.002186400727709952 -1.3055268355548621e-05 -0.0020591930320593885 0.0022666745365131648 -0.00010378363693706451 -0.0018590412656494387 0.0051094793548184941 -0.0043742694790787273 -0.0033219663797037519 -4.4814173612949031e-05 -0.00010952098813364641 7.223122749167033e-06 4.218814719934017e-05 0.00020191404899093477 0.004024566420897221 0.00091684967266961138 -0.0008314947227488793
leaf_weight=1207 191545 20 21 25 187 57 20 323 19796 20 64 21 39 20 272 26 20 216 33 23 22 23 132 26 3186 36 67 27 35 124
leaf_count=1207 191545 20 21 25 187 57 20 323 19796 20 64 21 39 20 272 26 20 216 33 23 22 23 132 26 3186 36 67 27 35 124
internal_value=0 1.24536e-05 0.000348373 0.00205921 7.82409e-05 0.000247318 0.00107223 8.1499e-06 2.3783e-05 0.000458581 0.00166765 0.000500227 -4.89813e-05 -0.000346077 -0.000237224 -0.000168469 0.000143091 -0.00049929 -0.000336408 -1.10877e-05 -0.000175634 -0.000893607 -0.000470543 -0.0016174 5.52389e-05 0.000545554 0.000182335 0.00174892 -0.000254369 -0.00046899
internal_weight=0 26088 330 45 285 264 77 25758 20224 428 105 85 5534 626 587 567 292 275 249 4908 1410 203 181 49 3498 312 289 63 226 191
internal_count=217633 26088 330 45 285 264 77 25758 20224 428 105 85 5534 626 587 567 292 275 249 4908 1410 203 181 49 3498 312 289 63 226 191
shrinkage=0.05


Tree=591
num_leaves=31
num_cat=0
split_feature=6 39 39 29 10 21 8 23 5 19 15 19 15 39 32 3 10 7 32 5 2 20 15 31 1 26 33 30 39 36
split_gain=0.00184819 0.00755181 0.0365752 0.0723304 0.0641545 0.0773843 0.0697426 0.0647129 0.0809272 0.0914802 0.0744949 0.0711511 0.0972968 0.0502085 0.0474215 0.0566987 0.0538658 0.0448501 0.0493716 0.0563853 0.0419322 0.0300123 0.0253693 0.0243451 0.0443811 0.078518 0.02898 0.0286695 0.0274657 0.0387886
threshold=2.8692150000000002e-06 0.64319500000000052 -0.19603999999999996 3.6365400000000005e-06 -1.622725e-05 0.14429200000000003 2.4443700000000001e-05 9.9214550000000014e-05 2.2519950000000001e-05 2.0359650000000005 -1.0012199999999997e-06 2.4316000000000004 -3.4631599999999995e-06 0.13650500000000013 0.00047818200000000006 -7.3483349999999996 -2.8688749999999995e-05 4.9401950000000002e-05 0.0016553150000000003 1.4907900000000002e-05 -2.7703699999999993 -16.542649999999998 -6.2009649999999988e-06 0.00026528050000000002 11.042450000000001 0.0032321350000000006 -5.2213149999999988e-06 0.0035909700000000002 0.23546500000000006 0.056773999999999998
decision_type=2 2 2 2 2 2 2 2 2 2 2 2 2 2 2 2 2 2 2 2 2 2 2 2 2 2 2 2 2 2
left_child=-1 2 21 20 5 7 -7 8 14 -10 11 12 22 -13 15 -5 -16 18 -8 -20 -4 -2 -9 26 27 -26 -22 -25 29 -28
right_child=1 -3 3 4 -6 6 17 10 9 -11 -12 13 -14 -15 16 -17 -18 -19 19 -21 23 -23 -24 24 25 -27 28 -29 -30 -31
leaf_value=-2.4852521941155156e-06 0.0016577747051121185 -6.1243411744523745e-06 0.0017936058674064099 0.00060154798064136891 2.063149661804609e-05 0.0043498609631205908 0.00038760051896102692 0.0019503861783620885 -9.38567607167212e-05 -0.0032030667647887055 -0.00026733936869667173 0.001345291191484483 0.0045194677081275992 -0.001829570133559173 -0.0026736553897287445 0.0033800615846848814 0.0002061227684803711 0.003141048827846707 0.00028918782594527804 0.0036911480903780041 -0.0017948315294779604 -1.0955856927381425e-05 -7.2914042823907484e-06 -0.001873206513846526 0.00013061085993285816 -0.0040725484865220098 0.00050267161969736601 -8.5747301755288526e-05 -9.6666868034673355e-05 -8.6763664811779557e-05
leaf_weight=168587 27 31463 33 224 539 20 118 59 73 35 70 33 36 20 22 20 62 27 21 29 20 13055 23 23 25 20 722 910 862 455
leaf_count=168587 27 31463 33 224 539 20 118 59 73 35 70 33 36 20 22 20 62 27 21 29 20 13055 23 23 25 20 722 910 862 455
internal_value=0 8.54262e-06 3.47877e-05 0.000157729 0.000451309 0.00071155 0.00153795 0.000449104 8.56612e-05 -0.00110147 0.00110662 0.00166906 0.00235259 0.00014723 0.000476546 0.000829295 -0.000548105 0.00124955 0.000945554 0.00226232 2.08852e-05 -7.51176e-06 0.00140128 1.62281e-06 -0.000203783 -0.00173746 9.91879e-05 -0.000129811 0.000117766 0.00027481
internal_weight=0 49046 17583 4501 1431 892 215 677 436 108 241 171 118 53 328 244 84 195 168 50 3070 13082 82 3037 978 45 2059 933 2039 1177
internal_count=217633 49046 17583 4501 1431 892 215 677 436 108 241 171 118 53 328 244 84 195 168 50 3070 13082 82 3037 978 45 2059 933 2039 1177
shrinkage=0.05


Tree=592
num_leaves=31
num_cat=0
split_feature=40 20 0 20 13 14 29 27 20 16 17 20 36 20 16 0 1 6 20 32 31 29 30 23 36 7 19 8 0 23
split_gain=0.0018329 0.0133597 0.0551497 0.0129717 0.0381502 0.0101752 0.00688032 0.0302974 0.0534879 0.139484 0.164936 0.0516016 0.0501042 0.0487906 0.149915 0.0481322 0.146827 0.026907 0.0229089 0.0221686 0.0205865 0.0186886 0.119598 0.0439255 0.0545867 0.0407366 0.0174705 0.016081 0.035423 0.0237159
threshold=-2.4873949999999994 -19.568199999999997 -0.18994549999999996 -19.078199999999999 -1.4853299999999997e-05 5.4802900000000006e-08 -3.9040499999999993e-05 0.0019666000000000002 -17.886149999999997 0.00069496500000000019 0.19035450000000001 -17.289999999999996 0.68543200000000015 -16.290849999999995 8.167805000000002e-06 3.6588600000000002 1.9322400000000004 1.4354600000000002e-06 -15.921249999999999 -0.0089461399999999983 0.039030700000000008 -3.7334249999999996e-05 0.14687100000000003 0.00045620850000000006 0.5456565000000001 4.7675400000000008e-05 -2.6299349999999992 1.2934400000000001e-05 2.7506600000000003 0.00018073150000000004
decision_type=2 2 2 2 2 2 2 2 2 2 2 2 2 2 2 2 2 2 2 2 2 2 2 2 2 2 2 2 2 2
left_child=-1 2 -2 4 -3 -6 7 15 9 10 -9 12 -10 14 -13 19 -17 -16 20 -5 -15 22 -8 25 -25 -24 -21 28 29 -20
right_child=1 3 -4 6 5 -7 21 8 11 -11 -12 13 -14 18 17 16 -18 -19 27 26 -22 -23 23 24 -26 -27 -28 -29 -30 -31
leaf_value=6.010781520232923e-06 0.0022789524902867516 -0.0024697522228095859 -0.00047442059307782695 -0.001559237784924874 0.00076887863595038661 -0.00048921625142813558 0.0039444931883260573 0.0061079088163197692 -0.0033575049323110798 -0.00084560680585300796 -2.0956620158228492e-05 0.0043340480354905038 6.4354534515587147e-05 -0.0020089563832568404 -0.00052409410756289231 -0.00017772831896374037 -0.004408729632419197 0.0015809256680950059 4.5681188398342037e-05 -0.0015075022243399873 9.1375002302811491e-05 -1.6816655172906321e-06 5.2860295318883203e-06 0.0032962005818262699 8.0862748665932687e-05 -0.0023664807930799726 1.4261058344499262e-05 -1.498385721453427e-05 -0.0023666528848843883 -0.00065931632148306116
leaf_weight=80131 31 21 44 27 25 45 22 23 23 42 21 26 20 28 63 70 29 20 315 20 20 129578 191 22 33 20 331 6180 20 192
leaf_count=80131 31 21 44 27 25 45 22 23 23 42 21 26 20 28 63 70 29 20 315 20 20 129578 191 22 33 20 331 6180 20 192
internal_value=0 -3.50286e-06 0.00066364 -3.86695e-06 -0.000600633 -3.98966e-05 -3.47153e-06 -5.01342e-05 -2.38351e-05 0.00121542 0.00318277 -3.92653e-05 -0.00176594 -2.84484e-05 0.00102097 -0.000435688 -0.00141711 -1.68604e-05 -4.5382e-05 -0.000178648 -0.00113382 -7.87451e-07 0.000401541 0.000108515 0.001367 -0.000219526 -7.24491e-05 -3.75924e-05 -0.000302718 -0.0002213
internal_weight=0 137502 75 137427 91 70 137336 7470 6993 86 44 6907 43 6864 109 477 99 83 6755 378 48 129866 288 266 55 211 351 6707 527 507
internal_count=217633 137502 75 137427 91 70 137336 7470 6993 86 44 6907 43 6864 109 477 99 83 6755 378 48 129866 288 266 55 211 351 6707 527 507
shrinkage=0.05


Tree=593
num_leaves=31
num_cat=0
split_feature=13 32 13 3 3 17 18 3 18 19 36 13 28 8 20 39 4 19 17 36 36 5 2 31 39 27 36 31 30 30
split_gain=0.00182652 0.0187065 0.0584708 0.0854551 0.177355 0.127128 0.0441971 0.0352846 0.0170639 0.0147217 0.0674444 0.0140039 0.0430401 0.175412 0.0382065 0.0239141 0.0581171 0.021101 0.133129 0.0225077 0.255361 0.211922 0.238807 0.199919 0.154302 0.0547239 0.0193932 0.0869997 0.0209098 0.0191026
threshold=-1.3281999999999998e-05 -0.43959349999999991 -4.7504049999999995e-05 -9.8562249999999967 -14.176449999999997 4.7026100000000008 -1.2295899999999997 -17.495099999999997 10.010650000000002 -1.2900349999999998 0.1751400000000001 -7.7313249999999984e-06 -1.5525049999999998 2.2092100000000001e-05 -18.021849999999997 1.7675950000000007 -0.58642949999999983 2.8297800000000004 -3.9273699999999994 0.14973499999999998 -0.027530000000000051 1.4907900000000002e-05 2.3560350000000008 0.00012798600000000004 1.06199 0.0029116950000000002 -0.10081500000000009 -0.00070922149999999985 4.1501900000000012 0.060407800000000005
decision_type=2 2 2 2 2 2 2 2 2 2 2 2 2 2 2 2 2 2 2 2 2 2 2 2 2 2 2 2 2 2
left_child=1 2 7 4 -4 6 -6 -1 -5 10 -9 12 13 -2 -15 16 -16 19 -19 20 26 25 23 24 -23 29 28 -28 -14 -22
right_child=11 -3 3 8 5 -7 -8 9 -10 -11 -12 -13 17 14 15 -17 -18 18 -20 -21 21 22 -24 -25 -26 -27 27 -29 -30 -31
leaf_value=0.0017446400236132413 -0.0038654307140907475 5.2568763834225492e-06 -0.00082270808664983836 -0.00041854778366086972 0.00042946843590470959 0.0062795925051905219 0.0035409426767728292 -0.0030560564583815312 0.0011538148532219401 3.1464213816873158e-05 -5.3220749045067355e-05 7.9955546853360163e-08 6.8592371801265655e-06 -0.0019143538298996409 0.00290330853422347 -0.00051474027040254158 -0.00013188580922597677 2.1806398125543062e-05 0.0043104932122332686 1.88536138160483e-05 -5.049700817890522e-05 -0.0063359003966525053 -0.0084010134305322042 0.00094290592358447611 -0.00073745995308854622 -0.0022395471310509103 -0.003579916150774807 0.00045895111031313718 0.001596412795645717 0.0017818334512412549
leaf_weight=26 38 37295 38 80 25 25 21 23 22 311 100 175368 1397 23 24 51 46 190 20 2248 33 32 20 30 20 21 20 40 21 25
leaf_count=26 38 37295 38 80 25 25 21 23 22 311 100 175368 1397 23 24 51 46 190 20 2248 33 32 20 30 20 21 20 40 21 25
internal_value=0 9.96453e-06 0.000271622 0.000960775 0.00193416 0.00340967 0.00184992 -4.44899e-05 -7.94107e-05 -0.000151673 -0.000614727 -2.10564e-06 -9.12619e-05 -0.000843712 -4.63141e-05 0.000308768 0.000908752 -5.79984e-05 0.000430253 -8.42417e-05 -0.000223939 -0.00199659 -0.00350227 -0.00230745 -0.00418265 -5.2545e-05 -6.85606e-06 -0.000887338 3.03999e-05 0.000739301
internal_weight=0 37966 671 211 109 71 46 460 102 434 123 179667 4299 182 144 121 70 4117 210 3907 1659 181 102 82 52 79 1478 60 1418 58
internal_count=217633 37966 671 211 109 71 46 460 102 434 123 179667 4299 182 144 121 70 4117 210 3907 1659 181 102 82 52 79 1478 60 1418 58
shrinkage=0.05


Tree=594
num_leaves=31
num_cat=0
split_feature=20 31 31 0 3 36 36 21 4 15 0 0 1 18 39 0 33 32 1 7 33 6 1 12 3 3 6 26 4 36
split_gain=0.00183732 0.00825772 0.0238628 0.067238 0.0181098 0.0394091 0.153565 0.17235 0.0657698 0.0136587 0.00683646 0.0218994 0.0171912 0.0419354 0.00945808 0.0104034 0.00762258 0.0060864 0.0860887 0.0239316 0.0108562 0.0194672 0.0101928 0.00614195 0.0112418 0.0291365 0.0544159 0.015686 0.0282811 0.0413076
threshold=-6.3564549999999995 0.0051780200000000011 0.0048012500000000008 -5.0823899999999993 -6.3596699999999986 0.30085850000000008 -0.25142799999999998 0.25201650000000003 0.25745450000000009 5.4626650000000007e-05 3.2402550000000008 2.8590650000000006 7.3888600000000002 5.357330000000001 -0.88227999999999918 9.7069050000000008 -1.8701649999999998e-06 -0.0013312399999999998 11.042450000000001 7.4503950000000014e-05 -1.0315549999999999e-07 -1.8995799999999996e-06 -11.052099999999998 6.2754300000000023e-08 -6.3877149999999991 -6.280479999999999 -1.0087549999999998e-06 -0.012538099999999998 0.073687550000000004 0.40779500000000007
decision_type=2 2 2 2 2 2 2 2 2 2 2 2 2 2 2 2 2 2 2 2 2 2 2 2 2 2 2 2 2 2
left_child=-1 2 17 -4 10 6 -6 -8 -9 -7 11 16 14 -14 15 -12 -3 18 19 20 21 -2 -22 -19 -25 26 -26 28 -27 -30
right_child=1 4 3 -5 5 9 7 8 -10 -11 12 -13 13 -15 -16 -17 -18 23 -20 -21 22 -23 -24 24 25 27 -28 -29 29 -31
leaf_value=-1.2040383636636695e-06 -0.0019721458673120653 0.00086322170571857609 -0.0033675424197826946 6.2712763998206352e-05 4.0271732460597479e-05 3.1024976855881158e-05 0.0064911840681981473 -0.00095233560478802598 0.0028792131323522579 -0.0013397133912076244 -4.0010508284101187e-05 0.0017042766429810963 0.00039740843273345191 -0.0026247841188292531 0.00075727940962159275 -0.0012116209753730801 3.698686387033572e-05 4.4273590805423194e-05 -0.0025910058536443535 0.0014115747680801274 0.00094423156364687854 -2.6563188349529003e-05 -5.3413365264644884e-05 1.3482644955800108e-05 -0.0030849840980711938 9.0048313209348745e-05 -0.00019781045080961512 -3.5959971783943428e-05 -0.0031720422865129713 -0.00010804224564873782
leaf_weight=203645 20 29 20 50 171 199 22 21 24 20 360 21 24 22 35 20 746 7163 34 29 28 36 299 3518 24 51 51 907 22 22
leaf_count=203645 20 29 20 50 171 199 22 21 24 20 360 21 24 22 35 20 746 7163 34 29 28 36 299 3518 24 51 51 907 22 22
internal_value=0 1.75291e-05 3.17302e-06 -0.00091736 0.000120333 0.000389878 0.000835271 0.0028643 0.00109116 -9.41566e-05 2.23362e-05 0.000111075 -0.000130887 -0.00104799 -2.92323e-05 -0.000101674 6.7904e-05 8.45303e-06 -0.000172847 2.67096e-05 -7.81496e-05 -0.000721414 3.20119e-05 1.533e-05 -2.97891e-05 -0.000171136 -0.00112171 -9.99851e-05 -0.000711257 -0.00164004
internal_weight=0 13988 12274 70 1714 457 238 67 45 219 1257 796 461 46 415 380 775 12204 446 412 383 56 327 11758 4595 1077 75 1002 95 44
internal_count=217633 13988 12274 70 1714 457 238 67 45 219 1257 796 461 46 415 380 775 12204 446 412 383 56 327 11758 4595 1077 75 1002 95 44
shrinkage=0.05


Tree=595
num_leaves=31
num_cat=0
split_feature=4 21 4 18 36 9 19 17 7 7 32 36 3 12 36 36 14 36 3 30 3 7 3 30 16 36 17 11 11 9
split_gain=0.00182218 0.0157991 0.0577987 0.112419 0.250587 0.743744 0.218319 0.106785 0.150944 0.0932523 0.0772256 0.131076 0.0548732 0.0701762 0.101327 0.159288 0.0805617 0.0775202 0.0410019 0.147744 0.0406168 0.0889979 0.0907982 0.0621526 0.0556937 0.0551121 0.0526929 0.055302 0.0421326 0.0522799
threshold=0.24725400000000003 0.62895050000000008 1.8987000000000003 7.0074550000000011 -0.3819765 4.247685000000001e-05 1.7847250000000001 -10.065 -3.2648249999999994e-05 3.7525900000000004e-06 0.10225450000000001 0.46240350000000002 -7.4119349999999988 5.756625000000001e-06 0.354709 -0.018010000000000078 4.8443000000000012e-06 -0.63161949999999989 -16.722199999999997 6.2013600000000011 -14.703099999999997 -5.7594049999999995e-05 -13.989599999999998 0.59297050000000018 8.4675100000000012e-07 0.20129000000000011 -3.7927449999999996 0.0075758350000000004 0.011360800000000002 -3.9555399999999991e-05
decision_type=2 2 2 2 2 2 2 2 2 2 2 2 2 2 2 2 2 2 2 2 2 2 2 2 2 2 2 2 2 2
left_child=-1 -2 3 7 -5 6 9 8 -3 -6 11 -10 13 20 15 16 -15 -18 19 -4 26 -22 -23 25 -25 -24 27 -9 29 -26
right_child=1 2 18 4 5 -7 -8 12 10 -11 -12 -13 -14 14 -16 -17 17 -19 -20 -21 21 22 23 24 28 -27 -28 -29 -30 -31
leaf_value=-2.7508544761611555e-06 9.6786985040165877e-07 0.0041464326897096872 -0.00030440782055584059 -0.00026938373576160593 -0.00098058341326634491 0.011408258342583265 0.0053548437354620547 -0.0037720968636373677 0.0049666512745898221 0.0023978321681109569 -0.00085665098589708828 -0.00051406624406808994 -0.00050967714872571224 -0.0014663529845468778 -0.00050944949536862062 0.0054011422830323383 5.8648783000535332e-05 0.0039581216226976653 -0.00013301348388900701 0.0043159255559051726 0.0031324761776195375 0.0024580281700321859 0.0025371015189241584 0.0021039042192652151 -0.0013706494670659578 -0.00060750390111934398 -0.00016151684301870842 -0.00021212994321103906 0.0013472624910405261 -0.00012628251622374186
leaf_weight=159846 54284 38 62 138 64 21 25 24 20 30 53 24 376 24 58 27 25 26 1767 24 25 37 38 22 143 22 135 20 29 206
leaf_count=159846 54284 38 62 138 64 21 25 24 20 30 53 24 376 24 58 27 25 26 1767 24 25 37 38 22 143 22 135 20 29 206
internal_value=0 7.6092e-06 0.000110526 0.000325757 0.00124262 0.00273302 0.00120209 0.00013998 0.00147524 9.76343e-05 0.000428793 0.00197717 -5.74412e-06 0.000214324 0.00115917 0.002108 0.000922465 0.00204662 -8.11257e-05 0.000984988 -1.33316e-06 0.000221539 7.51132e-05 -0.000116556 -0.000341651 0.00138408 -0.000651272 -0.00215393 -0.000483985 -0.000636152
internal_weight=0 57787 3503 1650 278 140 119 1372 135 94 97 44 1237 861 160 102 75 51 1853 86 701 522 497 460 400 60 179 44 378 349
internal_count=217633 57787 3503 1650 278 140 119 1372 135 94 97 44 1237 861 160 102 75 51 1853 86 701 522 497 460 400 60 179 44 378 349
shrinkage=0.05


Tree=596
num_leaves=31
num_cat=0
split_feature=27 5 36 15 4 36 36 10 15 17 0 10 4 16 16 5 21 16 3 18 10 36 36 39 23 17 4 6 10 11
split_gain=0.0018318 0.020506 0.017042 0.0154929 0.0429494 0.0775683 0.254172 0.0525256 0.0325129 0.0275422 0.0706528 0.0325999 0.0326815 0.032227 0.0494885 0.0432394 0.105538 0.0272349 0.0240759 0.0233397 0.0378715 0.0332031 0.081188 0.119198 0.0406358 0.0261113 0.0681172 0.0207388 0.0190838 0.0466666
threshold=0.036175450000000005 6.5656500000000012e-06 5.6762150000000009 -5.8589749999999996e-05 -0.58642949999999983 -0.12496499999999998 0.2761725000000001 -3.058699999999999e-05 -5.194759999999999e-05 19.256550000000001 7.4151700000000007 -6.7776199999999983e-05 -0.68745799999999979 3.3848150000000009e-05 5.4568300000000011e-05 9.7041100000000015e-06 -1.0674849999999998 9.2439950000000013e-05 -15.396099999999999 -2.2047999999999992 -4.4225099999999991e-05 0.327845 -0.57440449999999987 -0.12174999999999957 0.0017607100000000002 -12.188449999999998 -2.5331249999999996 -4.0493649999999993e-07 -6.0913899999999993e-05 0.0054400600000000009
decision_type=2 2 2 2 2 2 2 2 2 2 2 2 2 2 2 2 2 2 2 2 2 2 2 2 2 2 2 2 2 2
left_child=-1 -2 3 4 9 7 -7 -6 -5 11 -11 18 13 27 -15 16 -16 -17 -3 25 -21 22 -22 -24 -25 26 -19 -13 29 -10
right_child=1 2 -4 8 5 6 -8 -9 28 10 -12 12 -14 14 15 17 -18 19 -20 20 21 -23 23 24 -26 -27 -28 -29 -30 -31
leaf_value=8.1002336746595455e-07 -0.0013089111465359889 -0.002479934402138249 0.0012336735860487722 0.001557327951741172 0.0024067921162350108 -0.0067593560332343695 -0.00024181581341578681 -0.00075885595697878963 0.00021032455330046628 -0.00027293823192196261 -0.0034226568446250726 -0.002093965537115482 0.0014923049373273421 0.001969507994451278 0.0033880241125977292 -0.0015125734298635507 -0.00088021152935523022 -0.0001072656315472959 -0.00033125609770650048 0.002233677117064045 -2.5848494144204234e-05 -0.00044222997208254492 0.0047763576022892577 -0.00093246389925479901 0.0020510210286981117 -5.2830533311791519e-05 -0.0026406836081803659 -0.00018621691727145975 -1.0684570683017242e-05 0.0028160119560197931
leaf_weight=211052 31 22 27 34 20 21 52 38 122 117 21 29 38 33 30 32 28 83 32 22 229 172 24 25 21 308 39 28 4883 20
leaf_count=211052 31 22 27 34 20 21 52 38 122 117 21 29 38 33 30 32 28 83 32 22 229 172 24 25 21 308 39 28 4883 20
internal_value=0 -2.59774e-05 -1.99055e-05 -2.50943e-05 -0.000168338 -0.00103223 -0.00211672 0.000332747 1.63582e-05 -8.34393e-05 -0.000752243 -6.20508e-06 5.0608e-05 9.39339e-07 6.40298e-05 1.95597e-06 0.0013275 -7.85481e-05 -0.00120664 -2.8831e-05 0.000205985 0.000111273 0.000429676 0.00191989 0.000429562 -0.00029805 -0.000917129 -0.00115683 5.93176e-06 0.000577323
internal_weight=0 6581 6550 6523 1464 131 73 58 5059 1333 138 1195 1141 1103 1046 1013 58 955 54 923 493 471 299 70 46 430 122 57 5025 142
internal_count=217633 6581 6550 6523 1464 131 73 58 5059 1333 138 1195 1141 1103 1046 1013 58 955 54 923 493 471 299 70 46 430 122 57 5025 142
shrinkage=0.05


Tree=597
num_leaves=31
num_cat=0
split_feature=40 20 0 20 22 5 36 29 2 36 2 20 19 9 36 21 1 36 36 3 14 21 14 27 0 2 33 19 2 36
split_gain=0.0018176 0.0118566 0.0497862 0.0116844 0.0382775 0.00821823 0.00862489 0.00692657 0.0275253 0.11943 0.0284542 0.107469 0.0608852 0.169969 0.0229761 0.0213353 0.0498156 0.043704 0.16316 0.113051 0.119962 0.0279345 0.0982599 0.0213143 0.0465116 0.149546 0.0224859 0.017178 0.0175938 0.128739
threshold=-2.4873949999999994 -19.568199999999997 -0.18994549999999996 -18.884799999999995 1.6560850000000003 2.1613750000000003e-05 -0.040859549999999939 -3.9040499999999993e-05 -2.9738899999999995 -0.3562499999999999 -2.7279399999999994 -16.290849999999995 -2.7041249999999994 -8.0872649999999985e-05 -0.43704099999999996 -0.74181699999999984 5.5894750000000011 0.354709 -0.40968649999999995 -11.586999999999998 -1.7488149999999997e-06 -0.62980599999999998 -2.2078049999999998e-07 0.0020884750000000007 3.6588600000000002 0.40440800000000005 -1.4028749999999999e-06 -3.0611199999999994 2.6388200000000004 0.12375499999999996
decision_type=2 2 2 2 2 2 2 2 2 2 2 2 2 2 2 2 2 2 2 2 2 2 2 2 2 2 2 2 2 2
left_child=-1 2 -2 4 5 6 -3 8 9 -5 11 -10 13 -13 -14 16 17 18 -12 20 -20 22 -17 24 26 -26 -23 -25 -29 -30
right_child=1 3 -4 7 -6 -7 -8 -9 10 -11 15 12 14 -15 -16 21 -18 -19 19 -21 -22 23 -24 27 25 -27 -28 28 29 -31
leaf_value=5.9856460454479813e-06 0.0021597605697376908 0.00025563935025794699 -0.00045630035390124916 -0.00014853078093134782 -0.00243116761502322 0.00065497933181985803 -0.00076774165284587074 -6.8674803260771256e-07 0.0037146688035452667 -0.0043218828258977738 2.1907150784062217e-05 -0.0010078153990131491 1.0294217100108807e-05 0.0051516949995337727 -0.001754175498499535 0.0027816834029717706 0.0014396177678656498 -5.3480854460912638e-05 0.0011126809602137655 -0.0062809902802109718 -0.0041305240495906528 -0.0015251883756298833 -0.00026699521477872265 0.0010333083323003896 -0.00015834240951098514 -0.0045136077158666145 3.4326001972974908e-06 -7.966318904724332e-06 -0.003440235923194597 -0.00010776120155845021
leaf_weight=80131 31 35 44 120 21 27 50 129841 23 20 108 24 238 21 20 39 33 183 20 20 24 26 82 38 73 27 322 5516 31 445
leaf_count=80131 31 35 44 120 21 27 50 129841 23 20 108 24 238 21 20 39 33 183 20 20 24 26 82 38 73 27 322 5516 31 445
internal_value=0 -3.48821e-06 0.000625005 -3.83121e-06 -0.000472254 -0.000104958 -0.000346349 -3.37743e-06 -5.02527e-05 -0.000744724 -3.69577e-05 0.000419638 0.00016952 0.00186662 -0.000126486 -5.82616e-05 -0.000418589 -0.000591323 -0.00116356 -0.00316404 -0.00174725 -3.70755e-05 0.000715637 -5.11352e-05 -0.000383875 -0.00133426 -0.000110775 -2.64142e-05 -3.31347e-05 -0.000324792
internal_weight=0 137502 75 137427 133 112 85 137294 7453 140 7313 326 303 45 258 6987 388 355 172 64 44 6599 121 6478 448 100 348 6030 5992 476
internal_count=217633 137502 75 137427 133 112 85 137294 7453 140 7313 326 303 45 258 6987 388 355 172 64 44 6599 121 6478 448 100 348 6030 5992 476
shrinkage=0.05


Tree=598
num_leaves=31
num_cat=0
split_feature=5 12 22 28 36 36 18 33 9 20 12 36 16 26 28 8 32 16 32 16 23 13 13 2 17 6 8 31 23 36
split_gain=0.00177488 0.0109524 0.0310218 0.0277994 0.0250018 0.0743808 0.0538848 0.0243599 0.0761275 0.119576 0.0380668 0.0593164 0.0235775 0.0982346 0.0212944 0.0731943 0.0323133 0.0627049 0.0219876 0.0330024 0.0205954 0.0199319 0.0158865 0.0339435 0.0293342 0.0634693 0.0188679 0.0191759 0.0254914 0.0340749
threshold=9.9471450000000032e-06 -5.9855799999999987e-07 21.272000000000002 -4.3985699999999994 0.40779500000000007 -0.74380499999999983 0.93373450000000013 1.8324750000000004e-05 -4.4153649999999994e-05 -10.576799999999997 -2.4511349999999994e-07 0.2761725000000001 7.3264550000000007e-07 -0.011286199999999998 3.1099700000000006 1.4859000000000003e-05 -0.14294799999999999 0.00051133100000000018 -0.066940849999999982 8.793135000000002e-05 -0.0048905699999999995 9.9131400000000028e-06 2.5612450000000006e-07 2.5460950000000007 13.012750000000002 -3.3864449999999993e-07 5.4898200000000009e-05 0.098593250000000007 -0.0048905699999999995 0.22528099999999995
decision_type=2 2 2 2 2 2 2 2 2 2 2 2 2 2 2 2 2 2 2 2 2 2 2 2 2 2 2 2 2 2
left_child=1 2 3 -1 5 -4 -7 22 9 -9 11 -10 13 -5 16 -16 17 -14 19 -18 -20 -12 -3 24 26 -26 27 -24 -29 -30
right_child=-2 7 4 12 -6 6 -8 8 10 -11 21 -13 14 -15 15 -17 18 -19 20 -21 -22 -23 23 -25 25 -27 -28 28 29 -31
leaf_value=0.0014226540698928148 1.8131391847197041e-06 2.0316089258605071e-05 -2.5700818303831561e-05 -0.0039488377504312668 -0.00010334395316466317 -0.0036941527793019572 -0.0007022550678811968 0.0043061998895829109 0.0033264539634768409 -6.4233987466329442e-05 -2.4595214423790766e-05 -0.00012893116085992747 -0.0034860182454576716 1.8313939284473211e-05 0.0032154075143725177 -0.0002454078285736614 0.0021254260992181711 -0.00018270403077122848 0.0011395798893419043 6.5465728119430049e-05 -6.0314491553089125e-05 0.001506945944096184 -3.1854382620091383e-05 -0.0020787276380620566 -0.0034478919713365032 -0.00024366176858968498 -0.0014236219454833192 0.00062453157136731436 -0.0015126444750706699 -3.1665584373675375e-05
leaf_weight=32 187414 16924 76 20 131 34 27 29 23 34 618 27 20 71 22 50 29 51 36 59 5413 22 6143 21 20 68 25 38 83 73
leaf_count=32 187414 16924 76 20 131 34 27 29 23 34 618 27 20 71 22 50 29 51 36 59 5413 22 6143 21 20 68 25 38 83 73
internal_value=0 -1.12448e-05 -7.12786e-05 -4.69893e-05 -0.000597214 -0.00106946 -0.00236987 3.84813e-06 0.000283766 0.00194755 0.000131855 0.00146055 -5.51384e-05 -0.000853588 -4.23464e-05 0.000812064 -5.3316e-05 -0.00111322 -3.97251e-05 0.000744316 -5.23871e-05 2.80515e-05 -5.16142e-06 -7.17943e-05 -6.52601e-05 -0.000971896 -5.27194e-05 -4.73111e-05 -0.000536747 -0.000819622
internal_weight=0 30219 6071 5803 268 137 61 24148 753 63 690 50 5771 91 5680 72 5608 71 5537 88 5449 640 23395 6471 6450 88 6362 6337 194 156
internal_count=217633 30219 6071 5803 268 137 61 24148 753 63 690 50 5771 91 5680 72 5608 71 5537 88 5449 640 23395 6471 6450 88 6362 6337 194 156
shrinkage=0.05


Tree=599
num_leaves=31
num_cat=0
split_feature=16 18 12 39 36 12 15 1 14 31 39 1 39 19 0 14 12 13 37 36 36 31 8 33 7 18 19 34 6 36
split_gain=0.00177368 0.0109805 0.0466699 0.0368512 0.0901366 0.174988 0.0826589 0.0560175 0.0860567 0.048805 0.0756843 0.114651 0.0371291 0.0193157 0.0132773 0.0104793 0.0102248 0.0225603 0.070516 0.182324 0.175177 0.523565 0.0224133 0.0195892 0.0405983 0.0271999 0.0441737 0.0266589 0.0240085 0.0203203
threshold=3.3848150000000009e-05 13.390900000000002 -2.7784749999999993e-06 0.052215000000000351 -0.3819765 2.6249650000000004e-07 -2.1824149999999994e-06 7.7500100000000005 9.5283750000000014e-08 -0.0010673699999999998 0.93421999999999994 12.302700000000002 1.5525100000000001 1.5434200000000002 9.0503000000000018 7.9657250000000011e-07 1.1195050000000002e-06 1.5560450000000002e-06 0.32610899999999998 0.056773999999999998 -0.040859549999999939 0.0015423800000000001 3.9806000000000005e-05 5.3317650000000004e-06 3.6972250000000008e-05 -12.91935 -1.6673999999999998 -0.11222949999999998 -2.2961349999999994e-06 -0.57440449999999987
decision_type=2 2 2 2 2 2 2 2 2 2 2 2 2 2 2 2 2 2 2 2 2 2 2 2 2 2 2 2 2 2
left_child=1 16 -3 7 -5 6 -6 14 -9 12 11 -11 -8 -13 15 -4 -1 18 19 20 22 -22 -18 25 28 26 -19 -26 -25 -30
right_child=-2 2 3 4 5 -7 9 8 -10 10 -12 13 -14 -15 -16 -17 17 23 -20 -21 21 -23 -24 24 27 -27 -28 -29 29 -31
leaf_value=-3.478243401120749e-06 3.4453640708258046e-06 0.0021607365650457462 -1.4717892869706899e-05 -9.8773032698841299e-05 0.003069197478696644 0.00526734395964962 -0.0026805067434906961 -5.5302385980456432e-05 -0.0036142408957700886 0.0050848359907312056 -0.00033260468485155694 0.0016212691646069291 6.4149709234900205e-06 -0.0005762146721826867 0.0012471113657011304 -0.0011337266274825777 -0.002009690498975529 0.0029900298043548899 1.0914155479844024e-05 -8.0068431313781003e-05 -0.010438545943675721 -0.00087712385830832876 -0.00012136875106741422 0.00027005599526198828 0.0016946213696240288 -2.9570430598072248e-06 -8.6624075772436166e-05 -0.00026703931145548695 -0.00056491246856542907 -0.0018409346270066005
leaf_weight=73790 137515 28 427 413 31 23 20 41 29 21 68 20 36 20 20 22 22 20 843 304 22 41 55 34 29 3543 28 43 60 65
leaf_count=73790 137515 28 427 413 31 23 20 41 29 21 68 20 36 20 20 22 22 20 843 304 22 41 55 34 29 3543 28 43 60 65
internal_value=0 -5.91364e-06 0.000143005 9.55688e-05 0.000348446 0.00112126 0.000679775 -0.000210324 -0.00152972 0.000279386 0.000814461 0.00209316 -0.0009532 0.000522527 -1.33994e-05 -6.95468e-05 -8.21445e-06 -7.66202e-05 -0.000257684 -0.000767656 -0.0022607 -0.00421603 -0.000660889 -1.56499e-05 -0.000461958 1.306e-05 0.00119532 0.000523074 -0.00090801 -0.00122844
internal_weight=0 80118 1219 1191 652 239 216 539 70 185 129 61 56 40 469 449 78899 5109 1287 444 140 63 77 3822 231 3591 48 72 159 125
internal_count=217633 80118 1219 1191 652 239 216 539 70 185 129 61 56 40 469 449 78899 5109 1287 444 140 63 77 3822 231 3591 48 72 159 125
shrinkage=0.05


Tree=600
num_leaves=31
num_cat=0
split_feature=29 37 36 15 4 21 5 39 21 8 40 16 17 0 17 21 27 39 8 40 40 14 19 20 36 14 0 29 26 4
split_gain=0.00176222 0.0104517 0.04437 0.152491 0.209751 0.395634 0.184249 0.223665 0.212166 0.131819 0.111533 0.201328 0.197104 0.398837 0.205859 0.252565 0.195735 0.155787 0.148461 0.136596 0.112256 0.121652 0.11084 0.107828 0.121916 0.231844 0.0992858 0.089142 0.0964653 0.0847642
threshold=1.3939150000000002e-05 0.19792950000000006 0.10022550000000004 5.4626650000000007e-05 0.57834950000000018 0.24655200000000002 2.3574300000000006e-05 1.5525100000000001 0.3698105000000001 3.4116050000000007e-05 0.50668999999999997 0.00019078500000000004 -4.0204099999999992 -3.4028749999999994 5.5992650000000008 0.47318500000000002 0.015345200000000002 -2.2545749999999996 2.5132750000000004e-05 1.9491550000000004 0.46045500000000011 6.1187250000000013e-05 -0.90610399999999991 -12.663599999999999 1.0000000180025095e-35 1.1457750000000002e-05 3.4082400000000006 1.8005000000000005e-05 0.16279950000000001 -1.5265699999999998
decision_type=2 2 2 2 2 2 2 2 2 2 2 2 2 2 2 2 2 2 2 2 2 2 2 2 2 2 2 2 2 2
left_child=-1 2 3 6 5 -5 10 8 9 -8 20 16 18 -14 15 17 19 -15 -13 -12 21 -2 -19 27 -25 -26 -23 -6 -29 -11
right_child=1 -3 -4 4 23 -7 7 -9 -10 29 11 12 13 14 -16 -17 -18 22 -20 -21 -22 26 -24 24 25 -27 -28 28 -30 -31
leaf_value=2.175226546336405e-06 -6.0920080484047527e-05 1.4257057881586762e-05 -3.182457653642433e-06 -0.0095242959400638951 0.0027851419561775404 -0.00061214415702235065 -0.0049914953137676311 -8.9505998292533468e-05 -0.00722398076672107 -0.0035697951274751513 0.0085273245768621563 -0.004768999345833436 0.0059508505709735416 -0.00058906615105319812 -0.0025455621503239784 -0.0041064039302346781 -0.00035567041043014754 0.0005762131192669686 0.00048879722505807885 0.0026836049815028677 -0.0037501451026037101 0.0046495488341897727 0.0039986593537753874 -0.00053406546707265076 -0.0061322604638657406 -0.00037720774429284834 0.0004441616953272387 -0.00060917340327369023 0.0030017139088886324 -0.00041263797948772659
leaf_weight=176401 1646 21977 16191 20 25 33 26 277 20 27 20 29 35 49 52 21 21 36 25 20 20 25 69 100 35 35 32 246 20 100
leaf_count=176401 1646 21977 16191 20 25 33 26 277 20 27 20 29 35 49 52 21 21 36 25 20 20 25 69 100 35 35 32 246 20 100
internal_value=0 -9.30617e-06 -3.62004e-05 -0.000210676 -0.000996339 -0.00397522 -5.23113e-05 -0.000970444 -0.00238096 -0.00174789 0.000144431 0.000923426 0.000415766 0.000982683 0.000216666 0.00103744 0.00355327 0.00173888 -0.00233483 0.00560546 -2.60159e-05 1.77202e-05 0.00282525 -0.000653865 -0.00165434 -0.00325473 0.00228863 -6.93946e-05 -0.000337678 -0.00108384
internal_weight=0 41232 19255 3064 514 53 2550 450 173 153 2100 377 316 262 227 175 61 154 54 40 1723 1703 105 461 170 70 57 291 266 127
internal_count=217633 41232 19255 3064 514 53 2550 450 173 153 2100 377 316 262 227 175 61 154 54 40 1723 1703 105 461 170 70 57 291 266 127
shrinkage=0.05


Tree=601
num_leaves=31
num_cat=0
split_feature=4 21 4 18 36 7 3 19 17 7 32 36 3 8 8 36 36 3 12 14 14 14 3 17 13 39 32 36 33 10
split_gain=0.00180577 0.0142254 0.0523134 0.0997968 0.225666 0.389355 0.311039 0.252585 0.0955839 0.136523 0.0690277 0.117442 0.0500433 0.0669848 0.142954 0.124902 0.246487 0.0944569 0.112165 0.0853732 0.131268 0.081189 0.0700306 0.0616898 0.0514794 0.0461204 0.0430514 0.0472437 0.0417186 0.0399496
threshold=0.24725400000000003 0.62895050000000008 1.8987000000000003 7.0074550000000011 -0.3819765 8.5475950000000023e-06 -8.1170399999999976 1.7847250000000001 -10.065 -3.2648249999999994e-05 0.10225450000000001 0.46240350000000002 -7.4119349999999988 2.2420400000000003e-05 2.0928800000000005e-05 0.2761725000000001 0.02582950000000005 -14.818499999999998 -1.8735799999999998e-06 4.8443000000000012e-06 8.2035700000000018e-06 3.2923350000000001e-06 -13.009399999999998 6.5101600000000008 4.3089250000000013e-06 1.4285350000000012 -0.09986109999999998 -0.46506469999999994 9.6707250000000022e-06 6.2308800000000016e-05
decision_type=2 2 2 2 2 2 2 2 2 2 2 2 2 2 2 2 2 2 2 2 2 2 2 2 2 2 2 2 2 2
left_child=-1 -2 3 8 -5 7 -7 25 9 -3 11 -11 13 14 29 16 19 -18 -19 21 -21 23 -16 26 -22 28 -15 -28 -6 -10
right_child=1 2 -4 4 5 6 -8 -9 12 10 -12 -13 -14 15 22 -17 17 18 -20 20 24 -23 -24 -25 -26 -27 27 -29 -30 -31
leaf_value=-2.7384401785923993e-06 1.2729702443543319e-06 0.0039386383644197942 -7.7099330045669426e-05 -0.00026099456575178447 -0.00031274078091056174 0.011066966030048206 0.0027013357008690946 0.0050875325612723832 -0.00027584362229394506 0.0046966631733812401 -0.00081225876064360469 -0.00049118100544850074 -0.00048415636493855541 0.0014547894320587928 -0.0050931916658079161 -0.0003532333630573703 0.0012313900471088433 0.0028274674391881986 0.00793618563385237 0.0044727565890031558 -0.00085478141962084912 -0.002976909523789326 -0.0010564862992561593 0.0028005403437418863 0.0021903287282760216 0.00080452370837065252 -1.0400341542899023e-05 -0.0026765644409654974 -0.0034679856838192788 0.0010537372453836725
leaf_weight=159846 54284 38 1853 138 22 20 25 25 229 20 53 24 376 28 21 214 21 22 21 29 35 23 22 20 23 28 54 24 20 75
leaf_count=159846 54284 38 1853 138 22 20 25 25 229 20 53 24 376 28 21 214 21 22 21 29 35 23 22 20 23 28 54 24 20 75
internal_value=0 7.57487e-06 0.000105232 0.000309995 0.00117385 0.0025882 0.00641939 0.000773421 0.000134957 0.00139825 0.000403043 0.00186693 -2.91188e-06 0.000207248 -0.000329503 0.000569608 0.0012279 0.00398005 0.00532242 0.000481555 0.00172609 -0.000245122 -0.0030279 0.000253538 0.000352762 -0.000767334 -0.000227029 -0.000830759 -0.00181524 5.2178e-05
internal_weight=0 57787 3503 1650 278 140 45 95 1372 135 97 44 1237 861 347 514 300 64 43 236 87 149 43 126 58 70 106 78 42 304
internal_count=217633 57787 3503 1650 278 140 45 95 1372 135 97 44 1237 861 347 514 300 64 43 236 87 149 43 126 58 70 106 78 42 304
shrinkage=0.05


Tree=602
num_leaves=31
num_cat=0
split_feature=18 40 3 1 3 10 10 17 3 1 5 37 33 5 8 40 6 17 3 1 40 37 37 22 18 26 0 37 30 28
split_gain=0.00178219 0.0234668 0.0609307 0.109615 0.198933 0.156133 0.191804 0.460417 0.227069 0.107043 0.0940728 0.097192 0.0868972 0.0858476 0.0376491 0.102528 0.228501 0.0501261 0.0450883 0.0349372 0.0621576 0.147527 0.685801 0.640865 0.199743 0.152879 0.0801886 0.0679195 0.177971 0.028196
threshold=-8.1735099999999985 0.12029500000000005 -8.216879999999998 -3.2275299999999993 -13.799749999999998 6.5388950000000007e-06 -1.4994649999999999e-05 6.1764750000000008 -9.7011949999999967 -8.9602949999999968 1.5962300000000005e-05 -0.2029299999999998 3.3001550000000009e-05 2.0446800000000002e-05 1.9215700000000003e-05 -2.8657499999999998 -5.9885399999999989e-07 -2.6904149999999993 -11.334749999999998 -5.7517599999999991 0.98037999999999992 -0.078199999999999964 0.040430000000000084 0.87448250000000016 -9.853489999999999 0.00042986500000000003 -2.6260149999999993 0.14791590000000002 0.023568350000000005 1.5068850000000003
decision_type=2 2 2 2 2 2 2 2 2 2 2 2 2 2 2 2 2 2 2 2 2 2 2 2 2 2 2 2 2 2
left_child=1 2 3 4 12 6 10 8 -8 -7 11 -6 -1 -12 15 -11 17 -17 -16 20 21 26 23 25 -25 -23 -3 28 -24 -22
right_child=-2 19 -4 -5 5 9 7 -9 -10 14 13 -13 -14 -15 18 16 -18 -19 -20 -21 29 22 27 24 -26 -27 -28 -29 -30 -31
leaf_value=0.0065593672398244962 -1.7034287964983602e-06 0.0033346935248118829 2.0341219356526216e-05 -3.5886851971974931e-05 -0.00011881836231850685 -0.0034385773705170406 0.0065287036355584863 0.0098084018961526465 0.00072017776969829058 -0.0014415610251793018 -0.0029769270100708433 0.0039149117142447459 0.0018984333482512739 0.00028122711139274306 -0.0021576634391049783 0.0019525325971362355 0.0065026579105870036 -0.00093313006184282991 3.7602908967005441e-05 5.4915914581331402e-06 3.5302449540443569e-06 -0.012462892747399482 0.0002902951173850202 -0.0045574191655032336 0.0022747846244348456 -0.0064228171284776182 6.2775030908002863e-05 3.7695823461491741e-05 -0.0056222812709165737 -0.00095029417795479811
leaf_weight=20 190616 20 10767 842 32 22 20 20 106 33 30 28 20 62 26 27 20 34 233 12026 1783 22 35 20 23 20 294 331 20 81
leaf_count=20 190616 20 10767 842 32 22 20 20 106 33 30 28 20 62 26 27 20 34 233 12026 1783 22 35 20 23 20 294 331 20 81
internal_value=0 1.20184e-05 6.28314e-05 0.000353302 0.000800365 0.00060247 0.00146653 0.00276083 0.00164217 -4.93997e-05 0.000223313 0.00176359 0.0042289 -0.000781214 0.000150498 0.000907663 0.00186475 0.00034413 -0.000182771 -3.07165e-05 -0.000195095 -0.000568314 -0.00112798 -0.00519374 -0.000902985 -0.00958667 0.000271177 -0.000232663 -0.00185973 -3.79181e-05
internal_weight=0 27017 12342 1575 733 693 298 146 126 395 152 60 40 92 373 114 81 61 259 14675 2649 785 471 85 43 42 314 386 55 1864
internal_count=217633 27017 12342 1575 733 693 298 146 126 395 152 60 40 92 373 114 81 61 259 14675 2649 785 471 85 43 42 314 386 55 1864
shrinkage=0.05


Tree=603
num_leaves=31
num_cat=0
split_feature=27 5 36 15 4 36 36 10 15 17 0 10 4 29 5 6 22 18 10 36 36 13 40 15 17 4 20 3 10 22
split_gain=0.00182272 0.0180574 0.0150038 0.0138017 0.0384012 0.0696113 0.225822 0.0469991 0.0296274 0.0249087 0.0639346 0.0292035 0.0292369 0.023334 0.0226177 0.0795247 0.0300758 0.0283222 0.0309931 0.0305052 0.0853925 0.135174 0.212467 0.0311488 0.0176809 0.043771 0.0770611 0.0198204 0.0170391 0.0430749
threshold=0.036175450000000005 6.5656500000000012e-06 5.6762150000000009 -5.8589749999999996e-05 -0.58642949999999983 -0.12496499999999998 0.2761725000000001 -3.058699999999999e-05 -5.194759999999999e-05 19.256550000000001 7.4151700000000007 -6.7776199999999983e-05 -0.68745799999999979 0.00058287550000000012 9.7041100000000015e-06 -1.6203399999999995e-07 53.742400000000011 -2.0281699999999994 -4.4225099999999991e-05 0.40779500000000007 -0.57440449999999987 -2.0585499999999998e-05 -0.7296000000000008 -0.0055117099999999987 -12.188449999999998 -2.5331249999999996 -9.5739449999999984 -15.732949999999999 -6.0913899999999993e-05 29.284250000000004
decision_type=2 2 2 2 2 2 2 2 2 2 2 2 2 2 2 2 2 2 2 2 2 2 2 2 2 2 2 2 2 2
left_child=-1 -2 3 4 9 7 -7 -6 -5 11 -11 13 14 -3 15 16 -13 24 -19 20 -20 23 -23 -22 25 -16 -27 -26 29 -10
right_child=1 2 -4 8 5 6 -8 -9 28 10 -12 12 -14 -15 17 -17 -18 18 19 -21 21 22 -24 -25 27 26 -28 -29 -30 -31
leaf_value=8.0801394611361688e-07 -0.0012298166584257834 -0.00021310744787721584 0.0011560121476240628 0.0014850409331248718 0.0022778220893815162 -0.0063805788467150362 -0.00023726371399299332 -0.00071666128631381744 0.0017252647613531737 -0.00026008429605044669 -0.0032563137105344575 -0.0016589072552960717 0.0014108202251583478 -0.0023047854716423898 -0.00010037546732443542 0.0032772707562443155 0.00090050886368165577 0.001985499696721767 -8.9029786647955127e-05 -0.00042604143194776873 0.00089800251706037668 0.00084217734438425402 0.0074115996714681394 -0.0018925536161987111 -0.0013749392669463608 -0.0039592907675541937 -0.0001712430234404345 -3.0859144778787595e-05 -1.1613026507052891e-05 -9.7990038583030476e-05
leaf_weight=211052 31 30 27 34 20 21 52 38 50 117 21 22 38 24 84 23 24 23 255 176 20 32 20 20 30 25 29 320 4883 92
leaf_count=211052 31 30 27 34 20 21 52 38 50 117 21 22 38 24 84 23 24 23 255 176 20 32 20 20 30 25 29 320 4883 92
internal_value=0 -2.59129e-05 -2.02151e-05 -2.50837e-05 -0.000160283 -0.000977149 -0.00200452 0.000315919 1.40409e-05 -8.00057e-05 -0.000716032 -6.5566e-06 4.72155e-05 -0.00114274 2.37327e-07 0.000876717 -0.00032356 -5.82512e-05 0.000189141 0.000110143 0.000382098 0.00168794 0.00336888 -0.000497276 -0.000335047 -0.000814347 -0.00192497 -0.000146066 4.08791e-06 0.000544001
internal_weight=0 6581 6550 6523 1464 131 73 58 5059 1333 138 1195 1141 54 1103 69 46 1034 546 523 347 92 52 40 488 138 54 350 5025 142
internal_count=217633 6581 6550 6523 1464 131 73 58 5059 1333 138 1195 1141 54 1103 69 46 1034 546 523 347 92 52 40 488 138 54 350 5025 142
shrinkage=0.05


Tree=604
num_leaves=31
num_cat=0
split_feature=8 40 40 15 16 33 17 2 39 31 36 3 21 25 31 28 36 15 21 30 30 32 25 27 39 30 18 8 31 36
split_gain=0.00180805 0.00955834 0.0247271 0.0394271 0.0358314 0.0432685 0.0662995 0.0212056 0.0182674 0.0690439 0.0897056 0.0758218 0.0878163 0.0584893 0.0163231 0.0218131 0.102278 0.177778 0.065645 0.0158367 0.0187011 0.134849 0.0628062 0.210165 0.0575793 0.0980688 0.0322772 0.0472611 0.0938923 0.1375
threshold=1.6290050000000002e-05 0.46045500000000011 0.36284999999999995 5.4626650000000007e-05 4.8386800000000011e-07 -9.8400049999999974e-09 -1.1948249999999998 2.9157100000000002 -0.56159999999999977 0.00092776350000000013 -0.14969009999999991 -11.223199999999999 0.16024600000000003 -0.006211224999999999 0.068482350000000011 3.1099700000000006 0.327845 -0.00025226399999999993 -0.96093699999999993 0.0018103400000000001 0.0071067000000000014 -0.00069029949999999997 0.0040724050000000012 9.9186100000000016e-05 -0.15760999999999911 0.0049494000000000005 9.718770000000001 1.5030250000000002e-05 0.0012880700000000003 -0.10081500000000009
decision_type=2 2 2 2 2 2 2 2 2 2 2 2 2 2 2 2 2 2 2 2 2 2 2 2 2 2 2 2 2 2
left_child=1 2 19 4 5 6 -4 8 14 11 -11 13 -13 -10 15 -3 17 -17 -19 -1 21 -21 24 -24 25 -23 -22 -28 -29 -30
right_child=-2 7 3 -5 -6 -7 -8 -9 9 10 -12 12 -14 -15 -16 16 -18 18 -20 20 26 22 23 -25 -26 -27 27 28 29 -31
leaf_value=0.0013747161437186195 1.8008531270831167e-06 1.2293246468608429e-05 1.5632025315426291e-05 -0.0019906825172373104 0.00023189395689822802 0.00019553961414607736 -0.0038466723040619399 0.001644130604217935 0.0033967078896239402 -9.4446639226849333e-05 0.0034140043078878081 -0.00022086097926469797 -0.0038315611923324128 0.00022272818933607655 -0.00023626197975436093 0.0059543917304836214 -0.00062613299075694941 -0.0006583693524589763 0.0028499683937116063 -0.0043014152419345924 -3.2816493948849141e-05 -0.00026083835112155625 -0.0055439743988403203 -5.3856753483058933e-05 8.0589910795842375e-05 -0.0042578517894417888 0.00010310303887968076 0.00012692087073485494 0.00016157666636306954 0.0055184127301909037
leaf_weight=20 188240 13524 20 39 136 36 25 20 21 35 38 85 21 47 655 20 84 40 20 20 12912 57 23 72 878 21 400 76 23 25
leaf_count=20 188240 13524 20 39 136 36 25 20 21 35 38 85 21 47 655 20 84 40 20 20 12912 57 23 72 878 21 400 76 23 25
internal_value=0 -1.15331e-05 -3.98785e-05 -0.000527007 -0.00026395 -0.00109648 -0.00213009 1.7148e-05 1.49177e-05 0.000441254 0.00173187 -0.000100212 -0.000936188 0.00120293 7.57579e-06 1.92439e-05 0.000592422 0.00187191 0.000511077 -3.12942e-05 -3.32326e-05 -0.000234306 -0.000156911 -0.00138304 -3.50677e-05 -0.00133696 -1.72047e-05 0.000367488 0.00122034 0.0029516
internal_weight=0 29393 14783 256 217 81 45 14610 14590 247 73 174 106 68 14343 13688 164 80 60 14527 14507 1071 1051 95 956 78 13436 524 124 48
internal_count=217633 29393 14783 256 217 81 45 14610 14590 247 73 174 106 68 14343 13688 164 80 60 14527 14507 1071 1051 95 956 78 13436 524 124 48
shrinkage=0.05


Tree=605
num_leaves=31
num_cat=0
split_feature=29 1 5 8 5 5 21 11 39 0 25 22 36 13 0 6 33 12 36 39 13 13 8 35 20 1 12 13 8 12
split_gain=0.00177656 0.0110756 0.0089083 0.0151938 0.014144 0.0476061 0.0154425 0.0469721 0.0178126 0.0181022 0.0187647 0.0289836 0.0443939 0.0152427 0.0136796 0.0124407 0.00980117 0.0166014 0.00955443 0.00930584 0.00896256 0.0321395 0.0333165 0.0283232 0.0288442 0.0318949 0.013689 0.0099023 0.00880093 0.0132138
threshold=-0.00090391799999999997 14.319400000000002 3.3381050000000008e-05 5.3913950000000009e-05 1.6368250000000004e-05 1.6628950000000003e-05 0.73617500000000013 0.011966550000000001 -6.0363149999999992 7.9432600000000013 -0.96676949999999995 44.542100000000012 0.62909250000000005 0.00017885500000000004 10.160850000000002 8.812610000000001e-08 0.00019513800000000003 -2.6601849999999995e-07 -0.43704099999999996 6.4371800000000006 5.2573900000000008e-06 1.8237450000000004e-06 2.9157150000000003e-05 0.069372400000000015 -14.94685 5.736155000000001 1.0083500000000001e-05 7.0201950000000013e-05 2.7870500000000004e-05 8.0636700000000017e-06
decision_type=2 2 2 2 2 2 2 2 2 2 2 2 2 2 2 2 2 2 2 2 2 2 2 2 2 2 2 2 2 2
left_child=1 2 4 15 20 -6 7 -7 -8 10 19 12 -12 16 -11 -4 18 -18 -13 -10 21 28 -23 -22 27 26 -26 -25 -1 -30
right_child=-2 -3 3 -5 5 6 8 -9 9 14 11 13 -14 -15 -16 -17 17 -19 -20 -21 23 22 -24 24 25 -27 -28 -29 29 -31
leaf_value=1.0441519043524751e-05 4.0848434588984999e-07 0.001064897002123127 -0.0020695032074443242 -0.00016068068022902411 0.0025817675922007767 9.8969693257650322e-05 -0.0012791826727118827 0.0028223219240317123 -0.0015937528046197258 -0.0017799554498527537 0.0027513006128823954 -3.5697219586423176e-05 4.6846555403223446e-06 0.0012136005568138969 -7.0435534667922186e-05 -0.00036810573298928583 -0.0012041523058985313 3.0895250872870548e-05 0.0010858866641024962 -0.00010354770579810562 -0.0019873500385214219 9.2163457483021102e-05 0.0027448370249476286 -0.0019333812446110763 -0.00074141250703178233 0.002109308045546641 0.00078943471573596907 -0.00041215683755581274 -0.00023733030436632382 -0.0013508112156755646
leaf_weight=417 215868 22 21 195 20 76 27 20 20 22 28 55 31 26 25 22 39 90 29 22 26 29 20 23 40 20 23 20 328 29
leaf_count=417 215868 22 21 195 20 76 27 20 20 22 28 55 31 26 25 22 39 90 29 22 26 29 20 23 40 20 23 20 328 29
internal_value=0 -4.99596e-05 -6.40312e-05 -0.00034828 -1.90803e-05 0.000188818 9.49773e-05 0.000666335 -3.75113e-05 4.91169e-05 0.000176259 0.000315709 0.00130816 7.07097e-05 -0.000870636 -0.00119902 -6.87981e-05 -0.000342491 0.000351516 -0.000813169 -0.000132092 -6.69432e-05 0.00117489 -0.000484838 -0.000174796 0.000369719 -0.000182532 -0.00122584 -0.00014556 -0.000327781
internal_weight=0 1765 1743 238 1505 530 510 96 414 387 340 298 59 239 47 43 213 129 84 42 975 823 49 152 126 83 63 43 774 357
internal_count=217633 1765 1743 238 1505 530 510 96 414 387 340 298 59 239 47 43 213 129 84 42 975 823 49 152 126 83 63 43 774 357
shrinkage=0.05


Tree=606
num_leaves=31
num_cat=0
split_feature=19 36 17 7 13 22 26 17 3 39 14 10 19 36 22 39 40 36 36 26 39 11 7 39 9 10 39 9 9 5
split_gain=0.00175037 0.0392749 0.00372135 0.00498619 0.0195286 0.00474772 0.00236713 0.01581 0.0595166 0.115884 0.183953 0.274719 0.221592 0.0254635 0.0228938 0.0524097 0.126866 0.182981 0.594868 0.282795 0.0212597 0.0202977 0.0174976 0.0605995 0.0282234 0.0988462 0.123275 0.0436096 0.0419796 0.0318896
threshold=3.1185250000000004 -0.14969009999999991 -14.223749999999997 -5.5880499999999995e-05 -1.4949049999999998e-06 44.542100000000012 0.030416150000000003 -1.1107799999999999 -15.510599999999998 -6.0363149999999992 4.0793000000000007e-08 0.00012137250000000001 2.2772400000000004 -5.6825599999999996 29.284250000000004 -1.1637600000000001 2.829940000000001 -0.25142799999999998 0.38220950000000015 0.14443800000000004 -1.2170650000000005 0.082383900000000024 -2.2309399999999997e-05 -0.41630000000000006 -3.9555399999999991e-05 9.8903300000000019e-05 1.5956900000000005 -2.0937149999999997e-05 -1.6208249999999999e-05 1.2685750000000001e-05
decision_type=2 2 2 2 2 2 2 2 2 2 2 2 2 2 2 2 2 2 2 2 2 2 2 2 2 2 2 2 2 2
left_child=6 2 -2 4 -4 -5 -1 -8 9 21 11 -11 20 -10 15 16 17 -15 19 -19 -12 -9 23 -17 25 26 -24 29 -29 -26
right_child=1 -3 3 5 -6 -7 7 8 13 10 12 -13 -14 14 -16 22 -18 18 -20 -21 -22 -23 24 -25 27 -27 -28 28 -30 -31
leaf_value=-1.6019340213835837e-06 -0.00065617351468641905 -0.0022078616411558222 0.0017037064897522216 -6.7885645525080917e-06 -0.00027632430480254604 -0.00070895099185872825 -2.5093468224755697e-06 -0.00044858930036403204 -0.0016051590776718829 0.0086626214335064153 -0.00022801278094303516 0.00075279175918852991 0.0050343578650860026 -0.00028137176270198928 -0.00013599062246591375 -0.0024430462508462369 -0.00014377868807297328 0.0036407645617146048 -0.00010681676186240193 0.011585824947715515 -0.0021316463564289736 0.0010290813289586744 0.005622560175033868 -6.7161628060081593e-05 -0.002935269472000073 -0.00047473670287526712 0.00025516570080388033 0.0024088371077914416 0.00010090843820755248 -0.00025662044808268548
leaf_weight=192245 22 21 20 650 33 25 20721 117 23 21 44 23 21 75 1025 28 222 24 66 21 22 29 20 647 20 53 23 20 1327 25
leaf_count=192245 22 21 20 650 33 25 20721 117 23 21 44 23 21 75 1025 28 222 24 66 21 22 29 20 647 20 53 23 20 1327 25
internal_value=0 -7.52034e-05 -1.5489e-05 3.87237e-06 0.000470857 -3.27946e-05 2.67367e-07 1.48656e-05 0.000107275 0.000813648 0.0018933 0.00452794 0.000560836 5.32085e-05 6.38154e-05 0.000143474 0.000663257 0.00162649 0.00291559 0.00734846 -0.000862557 -0.000155079 4.54283e-05 -0.000165717 0.00014121 0.000970406 0.00275163 8.4024e-05 0.000135176 -0.00144713
internal_weight=0 771 750 728 53 675 216862 24617 3896 277 131 44 87 3619 3596 2571 408 186 111 45 66 146 2163 675 1488 96 43 1392 1347 45
internal_count=217633 771 750 728 53 675 216862 24617 3896 277 131 44 87 3619 3596 2571 408 186 111 45 66 146 2163 675 1488 96 43 1392 1347 45
shrinkage=0.05


Tree=607
num_leaves=31
num_cat=0
split_feature=3 21 15 7 39 39 20 28 36 7 17 36 31 2 5 6 33 19 14 28 12 34 29 28 2 28 12 34 0 33
split_gain=0.00181737 0.0328827 0.0867096 0.0354884 0.0283368 0.0437373 0.0308211 0.0222827 0.0377347 0.0805974 0.0541456 0.0395648 0.0135314 0.0730689 0.0205351 0.0278115 0.0149903 0.0347197 0.0257921 0.0669159 0.0253617 0.0451087 0.0181134 0.0173748 0.0263385 0.0144326 0.020532 0.0109446 0.0316761 0.0220539
threshold=-16.722199999999997 1.5291850000000002 5.4626650000000007e-05 -3.4518649999999996e-06 4.0200450000000005 5.9225950000000012 -21.129099999999998 -2.4309499999999997 -0.63161949999999989 1.0829900000000001e-05 -1.9409599999999998 0.60008550000000016 0.056928300000000008 -2.7519549999999997 8.7409800000000018e-06 -5.7203749999999994e-08 1.2925450000000003e-06 2.1923050000000006 2.3892950000000003e-05 3.7022150000000003 2.4676700000000005e-07 -0.051625349999999993 8.2405400000000009e-05 1.5068850000000003 -1.3472649999999997 1.1329200000000001 6.0081850000000012e-07 -0.0043154599999999993 4.3666400000000012 3.5954600000000006e-07
decision_type=2 2 2 2 2 2 2 2 2 2 2 2 2 2 2 2 2 2 2 2 2 2 2 2 2 2 2 2 2 2
left_child=1 4 3 -3 6 -6 -1 8 -8 10 -10 -12 16 -14 15 -15 22 18 20 -20 -18 -22 23 25 -25 27 -27 28 -9 -29
right_child=-2 2 -4 -5 5 -7 7 12 9 -11 11 -13 13 14 -16 -17 17 -19 19 -21 21 -23 -24 24 -26 26 -28 29 -30 -31
leaf_value=0.0018897195651550733 9.2805852759230607e-07 -0.0017487680207705126 0.0036509676847014238 0.0011310728954571382 -0.0028884583522250816 -7.3253345436643115e-05 3.5933865475944123e-05 -0.00013885329810087174 0.001097863490213058 -0.0039125005021394994 -0.0030539751700733022 -0.00018047361238859595 0.0031533357642945792 -1.6463739787771676e-06 -8.0053552807868303e-05 0.0023093289726207528 -9.1792973850122794e-05 -0.0022386809958499562 -0.00010333624499649969 0.0028735586682821371 -0.0029209446362219752 -0.00054397662706373877 0.0014564416575185966 -0.0023420344144687989 -0.00012881847699357357 -9.0257516346052097e-05 0.0020789037677786839 -1.7356407109152163e-05 -0.0019541595296177546 0.00035368200186535164
leaf_weight=21 209010 20 22 23 22 37 138 620 32 22 23 25 21 30 256 23 178 22 133 22 25 99 21 20 41 24 20 6230 25 428
leaf_count=21 209010 20 22 23 22 37 138 620 32 22 23 25 21 30 256 23 178 22 133 22 25 99 21 20 41 24 20 6230 25 428
internal_value=0 -2.24949e-05 0.00109786 -0.000208388 -3.10042e-05 -0.00112299 -2.34237e-05 -2.81625e-05 -0.000503074 -0.00123232 -0.00049527 -0.00155736 -1.43268e-05 0.000299368 0.000105409 0.00100123 -2.74172e-05 -0.000298524 -0.000205124 0.000319191 -0.000474227 -0.0010232 -9.93709e-06 -1.40939e-05 -0.000854463 -7.1166e-06 0.000895725 -1.25561e-05 -0.000209214 6.49527e-06
internal_weight=0 8623 65 43 8558 59 8499 8478 240 102 80 48 8238 330 309 53 7908 479 457 155 302 124 7429 7408 61 7347 44 7303 645 6658
internal_count=217633 8623 65 43 8558 59 8499 8478 240 102 80 48 8238 330 309 53 7908 479 457 155 302 124 7429 7408 61 7347 44 7303 645 6658
shrinkage=0.05


Tree=608
num_leaves=31
num_cat=0
split_feature=10 31 12 16 40 39 36 36 36 17 10 3 12 19 6 20 23 22 39 18 23 12 14 20 12 36 12 4 30 10
split_gain=0.00180152 0.00331975 0.046137 0.0809139 0.0486715 0.111611 0.139715 0.336274 0.350135 0.108199 0.0836462 0.0727368 0.0639375 0.0823775 0.0399619 0.0323596 0.0307629 0.0271022 0.0197908 0.019494 0.0177554 0.0167346 0.0766052 0.0398198 0.0217488 0.0181995 0.0164493 0.0264981 0.0595179 0.0182849
threshold=0.00031977250000000008 -0.27384599999999998 -3.9387549999999988e-06 1.5088800000000002e-05 5.2253350000000003 0.76755000000000007 0.43531000000000003 -0.57440449999999987 -0.17527649999999997 -3.1555199999999997 1.1822400000000002e-05 -11.586999999999998 -2.6163199999999997e-05 0.47223950000000009 6.9635550000000006e-07 -8.7640249999999984 0.069955350000000013 53.742400000000011 1.5525100000000001 -8.5511699999999973 0.031042450000000003 -2.5159149999999997e-06 2.207875e-06 -9.205079999999997 -2.2530999999999997e-06 -0.079468000000000025 5.5700600000000008e-07 -0.54650249999999989 5.3516150000000016 6.9697650000000012e-05
decision_type=2 2 2 2 2 2 2 2 2 2 2 2 2 2 2 2 2 2 2 2 2 2 2 2 2 2 2 2 2 2
left_child=1 2 3 -1 5 6 7 19 -9 -10 -11 12 13 -7 -14 18 17 -6 -13 -5 -20 22 25 -24 -23 -4 27 28 -26 -29
right_child=-2 -3 21 4 16 11 -8 8 9 10 -12 15 14 -15 -16 -17 -18 -19 20 -21 -22 24 23 -25 26 -27 -28 29 -30 -31
leaf_value=0.0028661059913217962 1.2526555079673245e-05 -2.7638608958590617e-06 -0.0033719943909783891 0.0013637910794516627 -0.00059637639607277193 0.0020777387195266782 -0.00021349164659006741 0.0094930679841048055 -0.00017493510486719271 0.0018102933558744238 0.0061749079821830886 -0.0016742906960478814 0.0042824401981488335 -0.0024060138616187037 0.0011595253274121898 -0.0019273255570927479 0.001108031171897892 -0.0025891926695211709 -0.00023765978883991622 -0.00034145857254047607 0.0010348198508290808 0.0013490612999985702 -0.00040901664037341516 0.0022723425462754677 -0.00064656073460355411 -0.0012644995111622849 -0.00016574034718155905 7.3787493254913243e-06 0.0031646343474719856 0.00092801685709921673
leaf_weight=31 25358 186922 21 21 76 21 119 23 26 23 21 22 20 20 21 30 20 22 318 83 30 29 45 20 20 20 1395 2780 21 55
leaf_count=31 25358 186922 21 21 76 21 119 23 26 23 21 22 20 20 21 30 20 22 318 83 30 29 45 20 20 20 1395 2780 21 55
internal_value=0 -1.65205e-06 3.71713e-05 0.000353795 0.000268771 0.000408923 0.00113923 0.00195635 0.00414088 0.00238231 0.0038934 -6.98637e-05 0.00128672 -0.000109458 0.0026829 -0.000347963 -0.000679036 -0.00104374 -0.000219907 2.87068e-06 -0.000127963 -3.08819e-05 -0.000651517 0.000416017 -1.55826e-05 -0.00234395 -2.48485e-05 4.34909e-05 0.00130551 2.52395e-05
internal_weight=0 192275 5353 947 916 798 316 197 93 70 44 482 82 41 41 400 118 98 370 104 348 4406 106 65 4300 41 4271 2876 41 2835
internal_count=217633 192275 5353 947 916 798 316 197 93 70 44 482 82 41 41 400 118 98 370 104 348 4406 106 65 4300 41 4271 2876 41 2835
shrinkage=0.05


Tree=609
num_leaves=31
num_cat=0
split_feature=40 30 2 19 20 12 19 2 19 8 8 0 26 33 30 32 31 34 27 21 20 7 8 36 36 15 22 27 31 3
split_gain=0.00180718 0.00832455 0.0196145 0.294231 0.0180634 0.0185807 0.042728 0.0147318 0.0963588 0.015109 0.0300217 0.0434416 0.093699 0.139324 0.0388549 0.0695536 0.0374894 0.0345925 0.0679728 0.0295152 0.0277938 0.0259427 0.0239338 0.0335122 0.193242 0.0859115 0.278674 0.122099 0.0552289 0.0564015
threshold=-3.2113799999999997 0.20270750000000001 3.0333000000000006 -2.7551599999999996 -15.138399999999999 2.6249650000000004e-07 2.1923050000000006 2.9632050000000003 2.9137900000000005 5.8844850000000006e-05 7.2751550000000007e-05 6.3184950000000013 -0.052900399999999993 8.5918100000000008e-07 0.59297050000000018 0.14537000000000003 0.034571950000000011 -0.076179349999999993 0.012795150000000002 -1.7211949999999998 -17.728849999999998 0.00060039650000000006 5.1498350000000005e-05 -0.14969009999999991 0.327845 -2.3744499999999999e-05 3.0293700000000006 0.0041875850000000015 -0.14027249999999997 -9.1449549999999977
decision_type=2 2 2 2 2 2 2 2 2 2 2 2 2 2 2 2 2 2 2 2 2 2 2 2 2 2 2 2 2 2
left_child=-1 -2 7 -4 -5 -6 -7 9 -9 22 11 17 13 -13 16 -16 -15 18 -11 -19 -12 -22 -3 -24 25 27 -27 -25 -28 -30
right_child=1 2 3 4 5 6 -8 8 -10 10 20 12 -14 14 15 -17 -18 19 -20 -21 21 -23 23 24 -26 26 28 -29 29 -31
leaf_value=6.6929685721985488e-06 2.1957782513627027e-06 -3.2170965507017712e-05 0.006229726359015331 -0.0014099690796486001 -0.00022343355344899872 -9.864013705568099e-05 0.0026987123538856398 -8.0770240381405754e-05 -0.0029292351379285033 0.0025729262406597488 -0.0017775450097004702 0.0043150529350417573 4.1597438318893579e-06 -0.0018648323011196529 0.0035652409344038463 0.00010734369420926228 0.001000819320208393 0.0017894352209709939 0.00014637505651613161 -0.00011304569125827832 -5.44966377413332e-05 0.0013196984113892541 3.0331472993181776e-05 0.0020681637681555002 -1.2586288785552313e-05 -0.0079231179909336133 0.00040211899313726462 -0.0027000214804188704 -0.00063280785847878588 -0.0040726447039700223
leaf_weight=68918 123874 20048 20 23 161 43 20 296 33 39 23 38 179 21 26 33 25 21 111 698 1834 35 506 25 459 22 25 29 22 26
leaf_count=68918 123874 20048 20 23 161 43 20 296 33 39 23 38 179 21 26 33 25 21 111 698 1834 35 506 25 459 22 25 29 22 26
internal_value=0 -3.10168e-06 -2.95184e-05 0.000396723 -7.55845e-05 6.14282e-05 0.000789408 -3.41495e-05 -0.000366483 -2.96399e-05 7.37714e-05 0.000270427 0.000766504 0.00172077 0.000781882 0.00163116 -0.000307413 8.66099e-05 0.000777278 -5.74795e-05 -5.00216e-05 -2.87626e-05 -4.47054e-05 -0.00027028 -0.00052046 -0.00208498 -0.00299017 -0.000492528 -0.00150353 -0.00249605
internal_weight=0 148715 24841 267 247 224 63 24574 329 24245 3083 1191 322 143 105 59 46 869 150 719 1892 1869 21162 1114 608 149 95 54 73 48
internal_count=217633 148715 24841 267 247 224 63 24574 329 24245 3083 1191 322 143 105 59 46 869 150 719 1892 1869 21162 1114 608 149 95 54 73 48
shrinkage=0.05


Tree=610
num_leaves=31
num_cat=0
split_feature=18 39 3 1 5 22 37 36 3 10 18 3 6 1 20 23 39 9 16 16 16 0 39 10 17 36 36 36 36 36
split_gain=0.00175255 0.019612 0.0468859 0.118072 0.144425 0.190926 0.0706317 0.143668 0.323779 0.34801 0.10494 0.122957 0.0376436 0.0236682 0.113709 0.105873 0.0504191 0.208198 0.118749 0.0638976 0.0260612 0.0191323 0.0187298 0.0341031 0.0506366 0.0283056 0.0349974 0.214077 0.0306393 0.0173608
threshold=-8.9484099999999973 -0.12174999999999957 -8.1461699999999979 -3.2275299999999993 9.2265950000000021e-06 6.2236100000000008 0.35345999999999994 0.12375499999999996 -9.3415399999999984 -8.4323699999999987e-06 -9.9964049999999975 -8.6604199999999967 -7.2850299999999986e-07 -5.7517599999999991 -9.205079999999997 -5.5022649999999994e-05 -0.23716000000000023 9.408120000000002e-06 3.4128000000000006e-08 9.8727300000000016e-07 1.1921100000000003e-10 -0.86444699999999985 0.10586500000000011 1.9951700000000004e-05 -5.0223249999999995 0.1751400000000001 -0.14969009999999991 -0.027530000000000051 0.02582950000000005 0.354709
decision_type=2 2 2 2 2 2 2 2 2 2 2 2 2 2 2 2 2 2 2 2 2 2 2 2 2 2 2 2 2 2
left_child=1 13 3 4 5 -3 7 8 9 -6 12 -12 -10 14 15 -1 20 18 -18 -20 -16 -9 23 25 -25 26 -4 -28 -29 -5
right_child=-2 2 22 29 6 -7 -8 21 10 -11 11 -13 -14 -15 16 -17 17 -19 19 -21 -22 -23 -24 24 -26 -27 27 28 -30 -31
leaf_value=-0.0052014846924326522 -1.4964100628311878e-06 0.0071151689648450839 -0.00044424396589405781 -0.0006542118233389771 0.0092065179427326827 0.00028910719876876098 -0.00023336010358116573 0.0012776210487810086 0.00071278345421887934 0.0017823293972086458 -0.0041790169483283532 0.00060293028342662527 0.0037099705338319343 4.4325468992985489e-06 0.0016895006463095172 -0.00073424200408567231 -0.0027063904471224705 -0.0044806350656224165 0.0038253330480074511 0.00022266832538093696 -8.0890580887743471e-05 -0.00029453009039615772 3.6203667942205053e-06 -0.0023603936615732633 2.3409670104746336e-05 -2.7002446702494774e-05 0.0056137999413873665 0.00040837405412181128 0.0023787788945593916 2.8837560925007433e-05
leaf_weight=21 195849 21 63 117 27 20 143 23 20 38 20 41 22 9994 21 36 23 33 20 32 2051 122 7670 28 109 246 22 326 21 454
leaf_count=21 195849 21 63 117 27 20 143 23 20 38 20 41 22 9994 21 36 23 33 20 32 2051 122 7670 28 109 246 22 326 21 454
internal_value=0 1.34535e-05 6.71348e-05 0.000379355 0.000942861 0.00378538 0.000687284 0.0011079 0.00210309 0.00486622 0.000359367 -0.000964921 0.00228274 -2.84742e-05 -0.000175488 -0.00238007 -0.000117845 -0.00117107 0.000285134 0.00160831 -6.29474e-05 -4.51544e-05 2.78358e-05 0.000255728 -0.000463791 0.000401118 0.000644909 0.000830862 0.00052762 -0.000111122
internal_weight=0 21784 9553 1068 497 41 456 313 168 65 103 61 42 12231 2237 57 2180 108 75 52 2072 145 8485 815 137 678 432 369 347 571
internal_count=217633 21784 9553 1068 497 41 456 313 168 65 103 61 42 12231 2237 57 2180 108 75 52 2072 145 8485 815 137 678 432 369 347 571
shrinkage=0.05


Tree=611
num_leaves=31
num_cat=0
split_feature=14 33 14 22 18 36 0 14 21 33 18 33 26 22 31 10 20 3 2 8 3 7 32 13 27 28 7 31 16 34
split_gain=0.00174645 0.00822755 0.0456059 0.0158315 0.0161176 0.00947854 0.00610767 0.00564881 0.0249616 0.0218212 0.0143113 0.00852327 0.00551565 0.0149045 0.00795328 0.0407839 0.069326 0.0246952 0.0106637 0.00749507 0.0107462 0.00756089 0.0061299 0.0067373 0.00975647 0.00642419 0.00601734 0.00534257 0.0175814 0.00499016
threshold=2.5901300000000006e-05 -6.2538149999999987e-05 5.7099050000000007e-05 44.542100000000012 1.8274200000000003 -0.17527649999999997 14.717250000000002 2.3892950000000003e-05 0.47318500000000002 -6.9711149999999983e-08 -12.050999999999998 1.5720100000000002e-06 -1.2159399999999998 38.031000000000013 -0.93075499999999989 -3.7996599999999988e-05 -11.903199999999998 -15.510599999999998 2.2358750000000005 3.6244450000000012e-05 -12.510449999999999 1.9954650000000004e-05 1.20103 -5.1967299999999993e-05 0.064526950000000013 11.695650000000002 3.6406300000000004e-05 0.0021782100000000003 0.010140600000000001 -0.014033499999999999
decision_type=2 2 2 2 2 2 2 2 2 2 2 2 2 2 2 2 2 2 2 2 2 2 2 2 2 2 2 2 2 2
left_child=7 2 -2 4 -4 -5 12 -1 10 -10 -9 27 13 -3 15 16 -14 -17 -19 21 -21 -15 25 -24 -25 29 -22 -12 -29 -16
right_child=1 6 3 5 -6 -7 -8 8 9 -11 11 -13 14 19 22 17 -18 18 -20 20 26 -23 23 24 -26 -27 -28 28 -30 -31
leaf_value=-1.239493255447739e-06 0.0018719044837014641 -0.0014778501256263222 -0.00035664671601768098 -0.00016295789284734329 0.0015592512761248231 -0.0014607638305885 0.00082371113412196091 0.0012102575766138298 -0.0021081034191800948 -0.0003377216832118195 1.7303309987362307e-05 -0.00084540900458315654 0.0038336514992261075 -0.00017787916676995034 -5.7649509428214202e-05 -0.0016783498752920422 -0.00032946110120064988 -2.3749641374567404e-06 0.0011599371668125969 0.0011547812812394748 0.00035956528465451107 -0.0012512550727738667 7.3035347635265106e-05 -0.0013894216273651443 -0.00018449191950258823 0.00065947809345839479 -0.00056796993937014654 -4.3039382187393962e-05 -0.0014722210653552018 1.5111185302399814e-05
leaf_weight=185584 38 22 23 34 21 24 23 22 28 46 596 35 20 75 2574 20 20 111 24 23 36 21 55 28 42 38 34 106 27 27883
leaf_count=185584 38 22 23 34 21 24 23 22 28 46 596 35 20 75 2574 20 20 111 24 23 36 21 55 28 42 38 34 106 27 27883
internal_value=0 1.09511e-05 0.000393392 -0.000157426 0.000557759 -0.000699981 9.22672e-06 -1.83195e-06 -0.00012968 -0.0010076 -4.70267e-05 -8.32313e-05 8.62293e-06 -0.000246145 1.03674e-05 0.000328675 0.0017521 -3.86589e-05 0.000204258 -0.000102772 0.000217133 -0.00041268 8.3403e-06 -0.000341084 -0.000666464 9.7726e-06 -9.09518e-05 -4.66384e-05 -0.000333174 8.96199e-06
internal_weight=0 31189 140 102 44 58 31049 186444 860 74 786 764 31026 211 30815 195 40 155 135 189 93 96 30620 125 70 30495 70 729 133 30457
internal_count=217633 31189 140 102 44 58 31049 186444 860 74 786 764 31026 211 30815 195 40 155 135 189 93 96 30620 125 70 30495 70 729 133 30457
shrinkage=0.05


Tree=612
num_leaves=31
num_cat=0
split_feature=25 35 18 16 36 36 18 11 3 40 18 40 0 12 33 25 3 18 0 17 16 27 3 36 37 37 40 18 40 13
split_gain=0.00175462 0.0111462 0.0374641 0.0791801 0.0339885 0.153445 0.159927 0.113839 0.21782 0.127157 0.204401 0.230221 0.132089 0.223951 0.184695 0.114823 0.150477 0.0723331 0.0711969 0.0994165 0.0460506 0.0409124 0.0364497 0.0305499 0.0207624 0.0669837 0.147086 0.404359 0.206703 0.247124
threshold=0.015480150000000002 0.00012298350000000005 0.5292785000000001 5.3661700000000008e-06 -0.10081500000000009 0.10022550000000004 2.9920850000000008 9.3239650000000011e-05 -6.0871149999999989 0.4120049999999989 4.8336450000000006 1.381785 3.4082400000000006 -2.1432099999999998e-08 -6.8102949999999975e-08 0.025975700000000001 -7.4804449999999987 6.1622250000000012 6.5600500000000013 5.8578400000000004 0.0011030500000000002 0.00091880050000000006 -6.7163849999999998 0.0045899999999999838 0.29985500000000015 -0.12554300000000002 0.31988499999999936 4.2128100000000011 -0.77194499999999999 -1.0656299999999998e-05
decision_type=2 2 2 2 2 2 2 2 2 2 2 2 2 2 2 2 2 2 2 2 2 2 2 2 2 2 2 2 2 2
left_child=-1 2 3 -2 -4 6 -6 8 -8 12 -11 -12 13 15 -15 17 -17 20 19 -14 -9 -16 -20 -19 25 -3 28 -28 -27 -30
right_child=1 24 4 -5 5 -7 7 9 -10 10 11 -13 18 14 21 16 -18 23 22 -21 -22 -23 -24 -25 -26 26 27 -29 29 -31
leaf_value=-2.0284222264734358e-06 0.0038694414261590281 1.9271838624668511e-05 -1.2557480029597184e-05 -1.7295902714402858e-05 0.0041573808596470892 -5.6294154423899779e-06 -0.005207995077121861 0.00077243156989020975 0.00089854708616257997 0.0039753672515001641 -0.0060689979884773499 -0.00020679202757182972 0.0023965749060339595 -0.0047317826812874192 0.00090293194527544499 0.0067280322875982778 0.0010684532146273264 0.0012146945110924374 0.002708633131671535 0.0064866528623194128 -0.0022199382202234118 -0.0017510987991408912 -0.00017254364862483705 0.0030441636736027134 2.3536644988298024e-05 -0.00019340902481546139 0.0015384250549438797 -0.00078653727305072268 0.001887270968766713 -0.001749213196485273
leaf_weight=180738 20 6161 6775 38 35 2202 23 36 40 23 20 103 39 26 53 24 23 55 23 24 20 20 21 39 18492 1297 352 399 52 460
leaf_count=180738 20 6161 6775 38 35 2202 23 36 40 23 20 103 39 26 53 24 23 55 23 24 20 20 21 39 18492 1297 352 399 52 460
internal_value=0 9.93666e-06 5.60105e-05 0.00132296 4.83751e-05 0.000193275 0.000870224 0.000682233 -0.00133083 0.00091324 -0.000351001 -0.00116 0.00137125 0.000827005 -0.00111306 0.00180196 0.00395845 0.00112626 0.00287683 0.0039547 -0.000296272 0.0001758 0.00133353 0.00197373 -6.45577e-06 -7.00517e-05 -0.000285021 0.000303192 -0.000529216 -0.00137988
internal_weight=0 36895 9682 58 9624 2849 647 612 63 549 146 123 403 296 99 197 47 150 107 63 56 73 44 94 27213 8721 2560 751 1809 512
internal_count=217633 36895 9682 58 9624 2849 647 612 63 549 146 123 403 296 99 197 47 150 107 63 56 73 44 94 27213 8721 2560 751 1809 512
shrinkage=0.05


Tree=613
num_leaves=31
num_cat=0
split_feature=27 5 36 15 15 11 1 36 36 32 18 15 18 5 16 25 16 10 11 15 36 1 13 24 13 18 34 31 18 0
split_gain=0.00175024 0.0163097 0.0129953 0.0133119 0.032633 0.0929015 0.0478342 0.0591279 0.110932 0.0444559 0.0260985 0.0259578 0.023516 0.0172087 0.074397 0.0281624 0.0177526 0.0146667 0.039569 0.0235457 0.0246039 0.0143119 0.0496468 0.0276517 0.0196216 0.0210969 0.0491722 0.0313242 0.0219166 0.0223573
threshold=0.036175450000000005 6.5656500000000012e-06 5.6762150000000009 -5.8589749999999996e-05 -0.00036585349999999998 0.0064150250000000004 1.6040550000000002 -0.19934349999999995 0.1751400000000001 -0.60180299999999987 -10.360699999999998 -5.194759999999999e-05 -12.332599999999998 9.7041100000000015e-06 0.0015666150000000002 0.019389100000000003 0.26217750000000006 -6.0913899999999993e-05 0.0054400600000000009 -1.7388649999999999e-06 -0.22452634999999985 -2.9615999999999993 3.2855150000000007e-05 115.54050000000002 -6.8215749999999981e-05 -4.1824499999999993 1.8271150000000003 -4.3203749999999994 3.3144750000000003 -6.5153999999999987
decision_type=2 2 2 2 2 2 2 2 2 2 2 2 2 2 2 2 2 2 2 2 2 2 2 2 2 2 2 2 2 2
left_child=-1 -2 3 4 13 6 7 10 -9 -8 -6 -5 -10 14 -3 -16 21 18 19 20 -13 22 -15 -24 -23 26 -26 -27 -29 -30
right_child=1 2 -4 11 5 -7 9 8 12 -11 -12 17 -14 16 15 -17 -18 -19 -20 -21 -22 24 23 -25 25 27 -28 28 29 -31
leaf_value=7.9178513801580465e-07 -0.0011695535835667304 0.0030646938368748956 0.001074695666924257 0.0013908090139653616 0.00110855643870309 -0.0031313604419665356 0.002081582835160134 -0.0042987551235047911 0.00082945126646553121 -8.508217891046245e-05 -0.00048974118459726632 -8.393118083144405e-05 -0.0012759194541609356 0.0019050109383291177 -0.0015991503758565767 0.00094130112855054897 0.0011308402535117541 -9.967485662522298e-06 0.0025669468141495603 -0.00033571985501112066 0.0023364137486905317 2.3270027213584399e-05 -0.00020828722581944532 0.001240698312373039 -0.00051910842136736668 0.0015273293517318301 -0.0031702940430714875 0.00026792284120347176 0.00028342002595309172 -0.0013067072440684398
leaf_weight=211052 31 23 27 34 33 32 32 29 21 91 113 21 36 36 24 20 30 4883 20 80 21 312 299 37 73 22 23 64 30 84
leaf_count=211052 31 23 27 34 33 32 32 29 21 91 113 21 36 36 24 20 30 4883 20 80 21 312 299 37 73 22 23 64 30 84
internal_value=0 -2.53925e-05 -1.99774e-05 -2.45084e-05 -0.000157287 -0.000551091 -0.000318503 -0.000741107 -0.00178115 0.000478603 -0.000128482 1.39157e-05 -0.000500257 -1.57809e-05 0.000760215 -0.0004444 -6.72578e-05 4.59945e-06 0.000505517 0.000167578 0.00112624 -0.000103934 0.000140345 -4.87263e-05 -0.000253395 -0.000545014 -0.00115429 -0.000252563 -0.000472549 -0.000888253
internal_weight=0 6581 6550 6523 1464 387 355 232 86 123 146 5059 57 1077 67 44 1010 5025 142 122 42 980 372 336 608 296 96 200 178 114
internal_count=217633 6581 6550 6523 1464 387 355 232 86 123 146 5059 57 1077 67 44 1010 5025 142 122 42 980 372 336 608 296 96 200 178 114
shrinkage=0.05


Tree=614
num_leaves=31
num_cat=0
split_feature=20 31 31 3 3 24 18 8 4 3 12 6 0 0 1 18 39 0 32 1 6 6 5 1 7 26 36 0 12 12
split_gain=0.00171769 0.00760459 0.0215449 0.0645522 0.0164221 0.0364707 0.044129 0.0747738 0.0168088 0.0146588 0.00628138 0.0271839 0.00609365 0.0210925 0.014405 0.0369529 0.00795675 0.00903113 0.00562071 0.0773263 0.0230803 0.0133882 0.0291581 0.00736896 0.0055152 0.0151081 0.030008 0.0535159 0.0561996 0.0155672
threshold=-6.3564549999999995 0.0051780200000000011 0.0048012500000000008 -6.8388149999999994 -6.3596699999999986 1.95991 14.003250000000001 5.8844850000000006e-05 0.8580755000000001 -6.2207449999999991 4.7226350000000001e-07 -4.3813749999999992e-06 3.1414700000000004 2.8590650000000006 7.3888600000000002 5.357330000000001 -0.88227999999999918 9.7069050000000008 -0.0013312399999999998 11.042450000000001 -1.3116499999999997e-05 -3.0756249999999995e-06 1.6040250000000003e-05 -11.052099999999998 3.7539700000000009e-05 -0.010243049999999998 0.10022550000000004 9.1672600000000024 9.6733300000000013e-08 3.0566700000000009e-07
decision_type=2 2 2 2 2 2 2 2 2 2 2 2 2 2 2 2 2 2 2 2 2 2 2 2 2 2 2 2 2 2
left_child=-1 2 18 -4 12 -6 8 -8 9 -7 -11 -12 13 -3 16 -16 17 -14 19 20 -2 22 -22 -23 -20 26 27 29 -29 -26
right_child=1 4 3 -5 5 6 7 -9 -10 10 11 -13 14 -15 15 -17 -18 -19 24 -21 21 23 -24 -25 25 -27 -28 28 -30 -31
leaf_value=-1.164182627619548e-06 0.0014954959673923441 6.4834497308663322e-05 8.8786278122825036e-05 -0.0032722595835093671 0.0019733508093243775 0.0012302500079905648 0.00014676672096053761 0.0037413149777896014 -0.0011401650901201978 -7.569934793361136e-05 0.0019972376517216617 -0.00027004110582847483 -3.8265560132461153e-05 0.001709401484768023 0.00039508632526121803 -0.0024418938289851545 0.00069218561215425979 -0.00112979358251323 3.0987651917900027e-05 -0.0024578302692936957 -0.0022027462625125982 0.00095330975893210222 -3.1284676267135255e-05 4.2634493208871763e-06 0.0013304489317670233 -6.1892819950330345e-06 1.8077605916861264e-05 -0.00061350271092427044 -0.0035436976942696675 -0.00054108280476793883
leaf_weight=203645 25 775 50 20 33 28 39 23 28 247 20 39 361 20 24 22 35 20 9610 34 22 22 52 291 20 1867 170 36 30 25
leaf_count=203645 25 775 50 20 33 28 39 23 28 247 20 39 361 20 24 22 35 20 9610 34 22 22 52 291 20 1867 170 36 30 25
internal_value=0 1.69488e-05 3.1722e-06 -0.000871513 0.000115604 0.000372281 0.00024767 0.00148023 3.65685e-05 0.000135217 3.50177e-05 0.000498528 2.22847e-05 0.000106207 -0.000122127 -0.00096173 -2.92866e-05 -9.55636e-05 8.18924e-06 -0.000166037 2.30914e-05 -7.20252e-05 -0.000676854 7.09696e-05 1.47979e-05 -5.76338e-05 -0.000399437 -0.00103887 -0.00194541 0.000290709
internal_weight=0 13988 12274 70 1714 457 424 62 362 334 306 59 1257 795 462 46 416 381 12204 446 412 387 74 313 11758 2148 281 111 66 45
internal_count=217633 13988 12274 70 1714 457 424 62 362 334 306 59 1257 795 462 46 416 381 12204 446 412 387 74 313 11758 2148 281 111 66 45
shrinkage=0.05


Tree=615
num_leaves=31
num_cat=0
split_feature=11 32 22 32 22 8 10 28 35 8 3 16 30 16 26 16 22 19 14 35 30 36 3 39 17 20 33 36 11 34
split_gain=0.00170101 0.00558876 0.00596298 0.00269888 0.0136133 0.00256222 0.00233965 0.00399284 0.00867008 0.0703055 0.00650255 0.0185111 0.0120449 0.0108057 0.0064264 0.0047495 0.00434673 0.00415292 0.00324411 0.0030656 0.00588155 0.0123406 0.00555351 0.00849686 0.00382768 0.0197472 0.0029986 0.00987674 0.0109113 0.00291123
threshold=0.71230950000000004 -0.046235849999999988 9.4910900000000016 0.0021151900000000003 0.46474900000000002 2.4443700000000001e-05 0.00031977250000000008 -0.32370999999999994 0.00014331950000000002 1.8327650000000004e-05 -16.558299999999999 0.0024905200000000004 1.9974350000000001 0.036703900000000005 -2.4419499999999998 0.023723250000000005 115.80600000000001 0.11295750000000002 -0.00032874299999999994 0.12384550000000001 6.2013600000000011 0.20129000000000011 -11.976899999999999 2.3674900000000001 16.002400000000005 -8.0446299999999979 1.8324750000000004e-05 0.20129000000000011 0.09463740000000001 0.11219700000000001
decision_type=2 2 2 2 2 2 2 2 2 2 2 2 2 2 2 2 2 2 2 2 2 2 2 2 2 2 2 2 2 2
left_child=6 2 -2 -3 -5 -6 18 8 9 -8 12 -12 -10 -14 15 -9 19 -13 -1 20 24 -22 23 -21 26 -26 29 28 -28 -16
right_child=1 3 -4 4 5 -7 7 14 10 -11 11 17 13 -15 16 -17 -18 -19 -20 22 21 -23 -24 -25 25 -27 27 -29 -30 -31
leaf_value=-0.0005600555526353464 -0.0012265425256503346 1.5752426302449986e-05 -0.00011196328913294046 -0.0014351734047522769 -0.00044214898335797313 3.547524245309625e-05 0.0032009721215945325 -0.0011174177428157155 1.6152097158386697e-05 4.252533784942038e-05 0.0013452212148292479 0.00069389086749288261 -0.0017933661112606173 -0.0001893733053293545 6.0753807038640595e-06 -5.2803449216298764e-05 0.00072763002331374172 4.6292053111042707e-05 -1.5079223142257153e-06 -0.00013116635766495258 0.0011332515758921446 2.4790384863497671e-05 1.7182336922325284e-05 -0.0013428769580533973 0.0016307255258487367 -0.00011664716766674366 -0.00010748418414247379 5.348439087409882e-05 -0.0016681105619119037 0.00020016890666622015
leaf_weight=26 21 575 28 20 35 142 20 22 101 148 28 25 21 21 20863 20 21 2537 192249 39 36 83 104 23 22 61 24 102 21 195
leaf_count=26 21 575 28 20 35 142 20 22 101 148 28 25 21 21 20863 20 21 2537 192249 39 36 83 104 23 22 61 24 102 21 195
internal_value=0 -7.18342e-05 -0.00058964 -3.89683e-05 -0.000198686 -5.89702e-05 2.72014e-07 1.48117e-05 6.98943e-05 0.000418531 4.84633e-05 6.65855e-05 -0.000279763 -0.00099137 7.42607e-06 -0.000610459 8.62785e-06 5.26113e-05 -1.58345e-06 7.92794e-06 9.58771e-06 0.000360123 -0.000206113 -0.000580672 7.62822e-06 0.000346512 6.30177e-06 -0.000218738 -0.000835776 7.87271e-06
internal_weight=0 821 49 772 197 177 216812 24537 2901 168 2733 2590 143 42 21636 42 21594 2562 192275 21573 21407 119 166 62 21288 83 21205 147 45 21058
internal_count=217633 821 49 772 197 177 216812 24537 2901 168 2733 2590 143 42 21636 42 21594 2562 192275 21573 21407 119 166 62 21288 83 21205 147 45 21058
shrinkage=0.05


Tree=616
num_leaves=31
num_cat=0
split_feature=36 37 2 35 17 11 8 32 29 36 26 5 8 8 36 36 6 31 3 19 36 39 39 35 8 12 17 0 12 31
split_gain=0.00169859 0.0119479 0.0433319 0.0354781 0.101918 0.33986 0.0675369 0.095214 0.114345 0.117839 0.14497 0.0954191 0.0787415 0.115989 0.13819 0.0896739 0.173827 0.106321 0.258833 0.0798939 0.0739637 0.13222 0.223231 0.292695 0.200336 0.189949 0.211698 0.279797 0.131867 0.105059
threshold=0.46240350000000002 -0.016969000000000036 3.0794900000000003 0.00018647200000000003 -12.926599999999999 0.00022094500000000003 1.2120050000000001e-05 -0.036175849999999996 1.2953300000000002e-05 0.2761725000000001 0.036434750000000009 1.062565e-05 2.1278050000000002e-05 2.1587450000000003e-05 0.12375499999999996 0.056773999999999998 -1.2761499999999998e-06 -0.12126899999999999 -12.046299999999997 1.9437700000000002 0.10022550000000004 0.97785500000000003 -0.66712000000000005 0.0066980350000000006 2.6635100000000002e-05 2.8457750000000006e-07 -5.9130249999999984 -3.2929599999999994 -3.1028249999999994e-06 -0.038388149999999989
decision_type=2 2 2 2 2 2 2 2 2 2 2 2 2 2 2 2 2 2 2 2 2 2 2 2 2 2 2 2 2 2
left_child=1 3 -3 4 5 -1 7 8 9 10 -5 -9 15 14 -14 16 -8 18 -17 -19 21 22 25 24 -24 26 -15 -28 -26 -27
right_child=-2 2 -4 6 -6 -7 12 11 -10 -11 -12 -13 13 20 -16 17 -18 19 -20 -21 -22 -23 23 -25 28 29 27 -29 -30 -31
leaf_value=0.0071504509083405582 5.2786497755858618e-06 2.5742981475011905e-06 -0.0021678993498663538 -0.0080861687162541787 -8.0969042486578393e-06 -0.00093961782673860023 0.005459115955897648 -0.00072426229917861443 0.00040383538892326345 -0.00058458422632690565 -0.0020659853739198298 0.002929136102985857 -0.0058469335049449005 -0.0025017473367624915 -3.9608461555049176e-05 0.0049687115071719752 0.00065984479719883812 1.6035646894540161e-05 -0.00071935641952020686 -0.0024690816347548907 -5.6795145490337471e-05 5.8972727482015956e-05 -0.0049313181199573189 -0.0065908862266951477 -0.0035335497725961767 -0.0043784213613835164 0.0067025285406873154 0.00059364631877474074 -0.00026277784940013894 -0.00048021566385614278
leaf_weight=21 89633 111733 23 20 11684 34 23 120 28 23 20 21 20 25 21 36 105 663 45 34 2460 409 36 32 38 25 29 53 163 56
leaf_count=21 89633 111733 23 20 11684 34 23 120 28 23 20 21 20 25 21 36 105 663 45 34 2460 409 36 32 38 25 29 53 163 56
internal_value=0 -3.69642e-06 2.1276e-06 -4.37647e-05 2.01109e-06 0.00214932 -0.000163046 -0.000993883 -0.00225474 -0.00343633 -0.00507608 -0.000180139 -0.000117936 -0.000229275 -0.00287245 0.000295838 0.00152221 9.40687e-05 0.00180867 -0.00010519 -0.000196693 -0.000594092 -0.00117856 -0.00210239 -0.00149635 0.000143299 0.0015261 0.0027541 -0.000881133 -0.00168337
internal_weight=0 128000 111756 16244 11739 55 4505 232 91 63 40 141 4273 3367 41 906 128 778 81 697 3326 866 457 269 237 188 107 82 201 81
internal_count=217633 128000 111756 16244 11739 55 4505 232 91 63 40 141 4273 3367 41 906 128 778 81 697 3326 866 457 269 237 188 107 82 201 81
shrinkage=0.05


Tree=617
num_leaves=31
num_cat=0
split_feature=18 37 35 1 17 29 13 21 4 11 23 5 5 5 1 36 13 13 13 23 13 13 19 30 13 8 10 19 13 1
split_gain=0.00173547 0.0142329 0.0122718 0.0271716 0.0787816 0.0558682 0.0983327 0.0246954 0.0274058 0.0164814 0.0361571 0.0148838 0.0415651 0.0294476 0.0345149 0.0610184 0.0203929 0.0139967 0.0188335 0.0140083 0.0348285 0.0320907 0.013624 0.0107415 0.0104263 0.0390176 0.0290291 0.0167639 0.014287 0.00924157
threshold=-13.388899999999998 4.6270000000000016 0.0020372800000000003 -7.0827799999999987 8.0730100000000018 -1.4746649999999997e-06 7.0198000000000018e-08 -0.25851049999999992 0.069718000000000016 0.00011081300000000001 1.0000000180025095e-35 1.8661550000000004e-05 1.9286150000000005e-05 1.5962300000000005e-05 -6.6365299999999996 -0.19934349999999995 3.9398900000000012e-06 2.1581450000000003e-05 1.2311050000000001e-05 -0.013856449999999998 3.0231500000000004e-06 4.7861450000000004e-06 -0.52681499999999992 10.726400000000002 8.0155350000000022e-06 3.1349550000000005e-05 -3.058699999999999e-05 -0.47921199999999992 2.1242850000000004e-06 -2.7638649999999996
decision_type=2 2 2 2 2 2 2 2 2 2 2 2 2 2 2 2 2 2 2 2 2 2 2 2 2 2 2 2 2 2
left_child=1 2 3 4 5 6 -1 8 -7 10 -9 13 -13 17 15 -15 -16 18 19 20 -4 29 -18 -19 28 -26 -27 -28 -14 -21
right_child=-2 -3 11 -5 -6 7 -8 9 -10 -11 -12 12 24 14 16 -17 22 23 -20 21 -22 -23 -24 -25 25 26 27 -29 -30 -31
leaf_value=0.0035963653376938965 -5.7066607616106794e-07 0.0011577092284174538 8.0640873459520844e-05 1.60660120594495e-05 0.0032767124179978661 -0.00016827979232673782 -0.00038818460202795301 0.0025180709438206144 -0.0023781414174300153 -6.0462047023387081e-05 0.00014411844776472175 0.001857480508117464 -1.4034075568297256e-05 -0.00033340438047681741 5.3229034226930358e-06 -0.0038988173463925103 -0.00052564812188696426 -0.00025976354900770197 0.0014619403319639705 -0.00035217441993766691 0.0019292515012499019 -0.0019238714460516348 -0.0022103844872617628 -0.0013338527738321292 0.0022829711174025486 0.001264750066930458 5.8492296218524835e-05 -0.0012650312929040272 -0.0011256228359754108 8.2734523331529124e-05
leaf_weight=32 214135 28 283 1236 24 47 30 23 20 133 53 33 428 28 118 21 30 79 22 202 28 25 20 33 23 39 87 33 31 309
leaf_count=32 214135 28 283 1236 24 47 30 23 20 133 53 33 428 28 118 21 30 79 22 202 28 25 20 33 23 39 87 33 31 309
internal_value=0 3.49341e-05 2.58743e-05 0.000127645 0.000508618 0.000312067 0.00166836 7.39304e-06 -0.00082794 0.000275179 0.000862551 -6.10008e-05 0.000126962 -0.00016675 -0.000693823 -0.00186144 -0.000353268 -5.01594e-05 1.76433e-05 -1.98709e-05 0.000247075 -0.000174759 -0.00119954 -0.000576236 3.78713e-05 0.000358112 7.96733e-05 -0.000305477 -8.91087e-05 -8.91864e-05
internal_weight=0 3498 3470 1598 362 338 62 276 67 209 76 1872 674 1198 217 49 168 981 869 847 311 536 50 112 641 182 159 120 459 511
internal_count=217633 3498 3470 1598 362 338 62 276 67 209 76 1872 674 1198 217 49 168 981 869 847 311 536 50 112 641 182 159 120 459 511
shrinkage=0.05


Tree=618
num_leaves=31
num_cat=0
split_feature=4 15 21 39 36 36 36 36 39 3 22 20 2 36 18 2 20 39 21 39 3 18 4 36 9 36 26 18 36 36
split_gain=0.00170132 0.0137674 0.0266064 0.08304 0.102181 0.259786 0.110138 0.155065 0.0464032 0.0347164 0.0232354 0.0355039 0.0176988 0.0155521 0.193586 0.0127384 0.0313318 0.0105521 0.0100705 0.0447938 0.0763289 0.0550616 0.121444 0.239087 0.331616 0.234378 0.0736008 0.0491388 0.0978584 0.190585
threshold=0.24725400000000003 1.1421250000000002e-05 0.21995000000000003 1.0196000000000003 0.20129000000000011 0.056773999999999998 -0.19934349999999995 -0.040859549999999939 -0.23716000000000023 -13.614249999999998 19.280350000000002 -9.9556199999999979 -3.0795949999999999 5.6762150000000009 1.7329500000000002 2.9891800000000006 -7.6401149999999989 0.23546500000000006 0.82362200000000019 -5.4542349999999997 -17.495099999999997 5.8567400000000012 2.3910900000000006 -0.32870999999999989 4.247685000000001e-05 0.077348000000000056 -0.34874949999999993 -6.488389999999999 0.1751400000000001 -0.3562499999999999
decision_type=2 2 2 2 2 2 2 2 2 2 2 2 2 2 2 2 2 2 2 2 2 2 2 2 2 2 2 2 2 2
left_child=-1 2 15 4 5 6 -4 -8 -9 -5 -11 -12 -3 18 -15 -2 -17 -10 -14 -20 -21 27 23 -23 25 -25 -27 28 29 -22
right_child=1 12 3 9 -6 -7 7 8 17 10 11 -13 13 14 -16 16 -18 -19 19 20 21 22 -24 24 -26 26 -28 -29 -30 -31
leaf_value=-2.6580637876716349e-06 1.1727247487256132e-05 0.0011411091179979848 -0.0001865963489697398 -0.002025469889419831 -0.00016816556170585941 0.0066817983487536294 0.0049441227057920485 0.0028101420743041673 -0.00021816419739902919 -0.0001071035126208405 -9.9357742250763949e-05 0.0026588985973648961 -6.3005350321281884e-06 -6.1944122987572182e-05 0.004763248893078012 -2.1314821668221902e-05 0.0023654588883800899 0.0011281629566590047 -0.0006734363266795092 0.002518470031603048 0.00018135995289966282 -0.00023435600997823389 -0.00026063688746788284 0.0049765639266531386 0.0083363029113768233 0.0021006260983995164 -0.0013857182559327268 -0.00016607473996264408 -0.00034868192970061943 0.0037171986779165377
leaf_weight=159846 3026 34 106 22 147 22 33 24 43 452 28 20 51325 216 23 44 20 22 171 34 115 117 211 35 23 24 41 1186 166 57
leaf_count=159846 3026 34 106 22 147 22 33 24 43 452 28 20 51325 216 23 44 20 22 171 34 115 117 211 35 23 24 41 1186 166 57
internal_value=0 7.35253e-06 9.67375e-05 0.00033293 0.000877929 0.00149303 0.000992363 0.0020167 0.000931258 -8.15616e-05 3.97033e-06 0.00104992 6.8913e-07 -3.23324e-08 0.000402405 2.64913e-05 0.000724552 0.000237516 -1.82997e-06 0.000103423 0.000169547 0.00012911 0.000614415 0.00138373 0.00292289 0.0016778 -9.84526e-05 -1.45073e-05 0.000517324 0.00135312
internal_weight=0 57787 4009 919 397 250 228 122 89 522 500 48 53778 53744 239 3090 64 65 53505 2180 2009 1975 451 240 123 100 65 1524 338 172
internal_count=217633 57787 4009 919 397 250 228 122 89 522 500 48 53778 53744 239 3090 64 65 53505 2180 2009 1975 451 240 123 100 65 1524 338 172
shrinkage=0.05


Tree=619
num_leaves=31
num_cat=0
split_feature=40 3 21 5 8 27 18 17 16 0 18 18 3 26 2 33 36 36 27 39 6 36 36 21 22 8 29 18 10 2
split_gain=0.00174028 0.00677676 0.0279083 0.0820191 0.0340502 0.0613208 0.0346504 0.0253857 0.044021 0.0871819 0.0265029 0.0259681 0.0192204 0.0217607 0.0393789 0.0102654 0.00674884 0.153578 0.00674588 0.0161049 0.0189459 0.0163905 0.0145729 0.00772885 0.0372522 0.0143887 0.0057012 0.0141621 0.0370482 0.0339828
threshold=-3.2113799999999997 -13.522749999999998 2.1521500000000002 1.6910850000000004e-05 5.8844850000000006e-05 0.0088898900000000027 8.8284250000000011 6.4251500000000012 0.0066777400000000006 3.0384450000000007 -9.6904849999999971 -6.9314949999999991 -17.304849999999998 0.13068350000000004 1.9180150000000002 1.2277200000000002e-05 -0.19934349999999995 0.077348000000000056 0.35534200000000005 0.39187000000000044 1.0252450000000003e-06 -0.68744999999999989 1.414509 -2.2419299999999995 67.039100000000005 2.3665400000000002e-05 1.3939150000000002e-05 6.2342700000000013 -5.1489599999999996e-05 1.8439650000000001
decision_type=2 2 2 2 2 2 2 2 2 2 2 2 2 2 2 2 2 2 2 2 2 2 2 2 2 2 2 2 2 2
left_child=1 2 4 -4 6 -6 7 10 9 -9 -1 -12 -13 15 -15 16 -14 -18 23 20 -20 -21 -23 24 -2 -26 -25 -28 29 -29
right_child=18 -3 3 -5 5 -7 -8 8 -10 -11 11 12 13 14 -16 -17 17 -19 19 21 -22 22 -24 26 25 -27 27 28 -30 -31
leaf_value=0.0012847369711380453 0.0022516845106358894 8.8206920192201651e-06 -0.000731017212868513 0.0031905372282684166 -0.00012112057240250984 -0.003574161234428175 0.0019700775698584037 -0.00014249901821585808 -0.0009642080241367998 0.0041797511628828945 -0.0020065492094727233 0.0011547175988268394 -4.3448163552561151e-05 -0.00031087248919314282 -0.0028834785251612115 0.00093179983745184959 -0.0033706173169009979 -7.8513201603299903e-05 -0.00040431501987679838 0.00010872487052703644 0.0014727785191644216 -0.0024984402622794735 -0.00058971560443751522 5.788892649462439e-07 0.00067741014627796233 -0.00073302978440551673 -4.7880074407790736e-05 4.2304779885795788e-05 0.00012898214275687461 -0.0014540914764240467
leaf_weight=30 22 67524 30 24 36 20 20 28 24 20 20 26 462 51 21 21 38 523 41 24 20 20 20 130811 33 40 15171 79 2361 73
leaf_count=30 22 67524 30 24 36 20 20 28 24 20 20 26 462 51 21 21 38 523 41 24 20 20 20 130811 33 40 15171 79 2361 73
internal_value=0 6.56792e-06 -0.000102554 0.0010119 -0.000147465 -0.00135435 -9.48281e-05 -0.000127501 0.000784223 0.00165844 -0.000182571 -0.000220454 -0.000189173 -0.000220483 -0.00106122 -0.000162501 -0.000184965 -0.000301508 -3.04373e-06 -0.000370201 0.000211125 -0.000924277 -0.00154408 -2.73486e-06 0.00044811 -9.54337e-05 -3.02329e-06 -2.96691e-05 8.02707e-05 -0.000676359
internal_weight=0 68918 1394 54 1340 56 1284 1264 72 48 1192 1162 1142 1116 72 1044 1023 561 148715 125 61 64 40 148590 95 73 148495 17684 2513 152
internal_count=217633 68918 1394 54 1340 56 1284 1264 72 48 1192 1162 1142 1116 72 1044 1023 561 148715 125 61 64 40 148590 95 73 148495 17684 2513 152
shrinkage=0.05


Tree=620
num_leaves=31
num_cat=0
split_feature=8 29 5 26 9 25 32 5 22 13 39 23 32 3 30 23 23 3 2 26 10 40 10 39 36 36 2 25 36 29
split_gain=0.00168214 0.0188634 0.0247379 0.0234458 0.0777366 0.0264721 0.0156621 0.0621331 0.0603743 0.0400953 0.0658174 0.0161555 0.0146934 0.0467478 0.0125725 0.0134726 0.044707 0.0112008 0.011166 0.0189132 0.0101979 0.00792891 0.0437524 0.0235492 0.0310017 0.262265 0.0351829 0.0602595 0.0175626 0.0395727
threshold=1.0512900000000001e-05 -7.2437099999999978e-05 6.9938750000000009e-06 0.089515950000000025 -2.8598349999999994e-05 -0.25901299999999999 -0.028793999999999997 8.8143050000000017e-06 3.3858250000000005 -3.351065e-07 -1.8432249999999992 -2.2730149999999994e-05 -0.010945149999999999 -18.015749999999997 10.726400000000002 0.00057196550000000008 0.00070136550000000008 -18.305499999999995 2.2358750000000005 0.0088661900000000012 2.6751950000000004e-05 -1.0681750000000003 -1.3137649999999998e-05 -1.2170650000000005 0.12375499999999996 0.039429999999999972 1.4398750000000002 0.020065300000000005 -0.079468000000000025 1.4879050000000003e-06
decision_type=2 2 2 2 2 2 2 2 2 2 2 2 2 2 2 2 2 2 2 2 2 2 2 2 2 2 2 2 2 2
left_child=1 2 -1 6 -5 -6 7 9 -9 10 -3 -10 13 -8 15 18 -17 -4 21 -20 -11 22 -14 -23 25 26 28 -28 -25 -30
right_child=-2 3 17 4 5 -7 12 8 11 20 -12 -13 14 -15 -16 16 -18 -19 19 -21 -22 23 -24 24 -26 -27 27 -29 29 -31
leaf_value=-0.0019099492734918995 -6.8625692114145334e-07 -0.00044171275987883707 -0.0013057966219176625 0.0033899821599003518 0.0017666023484101364 -2.7025082468096825e-05 0.002600733200391836 -0.0034927901932969695 0.00012602918236682726 6.8361157267255694e-06 0.0034716820233205168 -0.0015193798301669842 -0.0022456171976797203 0.00017549856102075706 -0.0011900872109912425 0.0027144290746946354 0.00013512115914982999 -0.00012396828099079247 -0.00013870278099361981 -0.0018878432409837843 -0.0012851781960697348 -1.0036934222117128e-05 -3.9051909965831767e-05 -0.0001711415130020381 -0.00010508126350355912 0.0061489898897707472 0.00053371290705399592 0.0035082086405184656 -4.2259180056134936e-05 0.0017167881972087113
leaf_weight=24 212455 21 22 22 24 144 23 25 35 56 22 26 23 146 21 20 105 226 68 20 21 2297 966 245 298 20 90 21 100 47
leaf_count=24 212455 21 22 22 24 144 23 25 35 56 22 26 23 146 21 20 105 226 68 20 21 2297 966 245 298 20 90 21 100 47
internal_value=0 2.81573e-05 -0.000377144 5.06282e-05 0.000595192 0.000229207 2.86886e-05 -0.000397658 -0.0014234 0.000337459 0.00156049 -0.000575293 4.81625e-05 0.00050556 3.03555e-05 3.62882e-05 0.00054781 -0.000228808 2.10462e-05 -0.000536235 -0.000345531 3.29869e-05 -9.03674e-05 7.21138e-05 0.000301956 0.000533881 0.000310616 0.00109646 8.80956e-05 0.000520157
internal_weight=0 5178 272 4906 190 168 4716 206 86 120 43 61 4510 169 4341 4320 125 248 4195 88 77 4107 989 3118 821 523 503 111 392 147
internal_count=217633 5178 272 4906 190 168 4716 206 86 120 43 61 4510 169 4341 4320 125 248 4195 88 77 4107 989 3118 821 523 503 111 392 147
shrinkage=0.05


Tree=621
num_leaves=31
num_cat=0
split_feature=27 5 36 15 4 36 36 10 4 25 14 10 13 14 35 10 4 16 3 4 5 8 3 10 29 20 31 35 5 16
split_gain=0.00172352 0.0145968 0.0116787 0.0118263 0.0303776 0.059656 0.190945 0.0406267 0.0240102 0.104396 0.0201234 0.0282618 0.047702 0.0214452 0.0211303 0.0188281 0.0264331 0.0343272 0.0250738 0.0260122 0.0544936 0.0250116 0.0216274 0.0179524 0.0173195 0.01633 0.0310004 0.0148096 0.0148003 0.0852513
threshold=0.036175450000000005 6.5656500000000012e-06 5.6762150000000009 -5.8589749999999996e-05 -0.58642949999999983 -0.12496499999999998 0.2761725000000001 -3.058699999999999e-05 -0.54650249999999989 -0.22198749999999998 -2.2078049999999998e-07 -6.0913899999999993e-05 -2.3178849999999996e-05 2.5901300000000006e-05 0.053913100000000005 -6.7776199999999983e-05 -0.68745799999999979 2.1832200000000004e-05 -5.8362949999999989 -0.96247749999999999 1.4135350000000002e-05 3.5838500000000006e-05 -15.510599999999998 -3.6340149999999998e-05 0.00058287550000000012 -8.5818999999999992 0.22099200000000002 0.17438400000000001 9.7041100000000015e-06 0.0015666150000000002
decision_type=2 2 2 2 2 2 2 2 2 2 2 2 2 2 2 2 2 2 2 2 2 2 2 2 2 2 2 2 2 2
left_child=-1 -2 3 4 15 7 -7 -6 9 -5 14 12 -12 -14 -10 22 17 -17 19 28 27 -20 -3 -13 -18 -16 -27 -21 29 -19
right_child=1 2 -4 8 5 6 -8 -9 10 -11 11 23 13 -15 25 16 24 18 21 20 -22 -23 -24 -25 -26 26 -28 -29 -30 -31
leaf_value=7.857192293976837e-07 -0.0011076112765999091 -0.0022373371228154395 0.0010176649549437033 0.0036700062908163419 0.0021450453263241799 -0.0058510979890429773 -0.0002020626802802256 -0.00063904420135618006 -0.0012338250028551556 -0.00096998874063569098 0.0029458747702717251 -0.00043414352657319716 -5.7679386340675557e-05 0.0017074264073016821 -0.00038363936667962543 -0.0016692576194393704 0.00018723045081060264 0.0032094373854554513 -0.0022846133939613839 0.00061114759938347908 0.0022601168091856186 -0.00017642346402039146 -0.0002470954273564693 2.8769977439491364e-05 0.0022680672128626614 0.0021421014374936932 -0.00047626718288274091 -0.001245178380817048 -9.6353451653346956e-05 -0.00063271457443728912
leaf_weight=211052 31 21 27 22 20 21 52 38 60 27 21 220 79 22 198 33 20 22 24 21 38 34 39 4364 20 20 26 22 997 42
leaf_count=211052 31 21 27 22 20 21 52 38 60 27 21 220 79 22 198 33 20 22 24 21 38 34 39 4364 20 20 26 22 997 42
internal_value=0 -2.51979e-05 -2.00751e-05 -2.43705e-05 -0.000149521 -0.000876054 -0.00182713 0.000320987 1.18462e-05 0.00111327 1.07379e-06 2.65429e-05 0.000777624 0.000326799 -0.000393194 -7.81213e-05 -3.73251e-05 -7.83624e-05 -3.46127e-05 1.68948e-05 0.000880551 -0.00104878 -0.00094368 6.55336e-06 0.00122765 -0.000186482 0.000662154 -0.000338601 -4.90394e-05 0.000688025
internal_weight=0 6581 6550 6523 1464 131 73 58 5059 49 5010 4706 122 101 304 1333 1273 1233 1200 1142 81 58 60 4584 40 244 46 43 1061 64
internal_count=217633 6581 6550 6523 1464 131 73 58 5059 49 5010 4706 122 101 304 1333 1273 1233 1200 1142 81 58 60 4584 40 244 46 43 1061 64
shrinkage=0.05


Tree=622
num_leaves=31
num_cat=0
split_feature=16 11 17 19 19 36 11 25 3 39 23 10 13 4 1 8 14 4 22 23 11 22 22 36 1 36 13 25 1 39
split_gain=0.00169092 0.0113751 0.0261651 0.157237 0.0150603 0.0437711 0.00778254 0.025718 0.00724258 0.0172095 0.0357265 0.0284648 0.0322245 0.0242225 0.0351453 0.0231369 0.0254566 0.0414889 0.144159 0.0336808 0.12301 0.022867 0.0805526 0.0889665 0.0449565 0.144586 0.264292 0.0418595 0.0968142 0.114311
threshold=0.0024010250000000006 0.00029103850000000009 9.7253800000000012 -0.45388899999999993 2.5680450000000006 1.0000000180025095e-35 0.00029902350000000005 0.0065032050000000006 -13.243349999999998 -3.6431499999999999 0.0017607100000000002 0.00018205200000000001 1.1066350000000001e-05 0.15463500000000002 2.2474600000000007 9.5296300000000015e-06 6.9933600000000013e-06 0.25745450000000009 0.24019100000000002 0.00063056350000000006 0.0035378750000000007 2.3108700000000004 2.1628300000000005 0.38220950000000015 3.1034450000000002 0.22528099999999995 1.2179350000000004e-06 0.024548700000000003 3.3893400000000002 -1.2170650000000005
decision_type=2 2 2 2 2 2 2 2 2 2 2 2 2 2 2 2 2 2 2 2 2 2 2 2 2 2 2 2 2 2
left_child=-1 2 4 -4 -2 -6 7 -3 9 -8 15 12 13 14 -12 -11 17 -17 -19 21 -21 22 27 -24 -23 26 -26 -18 -29 -30
right_child=1 6 3 -5 5 -7 8 -9 -10 10 11 -13 -14 -15 -16 16 19 18 -20 20 -22 24 23 -25 25 -27 -28 28 29 -31
leaf_value=-2.648702534943329e-06 2.6323167774199791e-05 4.8223068266192323e-05 0.0048916693004866828 -0.00013528567593701674 5.0974963312324979e-05 0.0022390613725292497 1.3955428660299025e-05 -0.0020405257327911386 1.800232517600191e-05 0.0011658811916468517 0.0011365075547603608 -3.4490672461912933e-05 -0.0025975065866077787 -0.0018222294967984 -0.0014427375809900698 -0.00016625340320947768 -5.2944603697121915e-05 -0.0048926542051568895 -0.00024971369397595796 0.0033738282753962693 -0.00010756001791833113 -6.2943238014662311e-05 0.0046113847867673028 -0.00010471813569893131 -0.0068914420362561945 -7.1238610568006186e-05 0.00037893096450716259 0.00012134410911840211 -0.00058817574279601114 0.0041263879441935892
leaf_weight=159885 934 56 20 70 87 31 13066 20 36728 38 28 83 32 32 25 1919 3302 21 82 34 100 543 20 20 25 124 25 227 20 36
leaf_count=159885 934 56 20 70 87 31 13066 20 36728 38 28 83 32 32 25 1919 3302 21 82 34 100 543 20 20 25 124 25 227 20 36
internal_value=0 7.33338e-06 0.000163568 0.000981815 9.35661e-05 0.000625811 4.18141e-06 -0.000501448 4.86119e-06 -1.95125e-05 -8.44311e-05 -0.000742703 -0.00124511 -0.000735971 -8.01175e-05 -6.42882e-05 -7.14822e-05 -0.000218725 -0.00119633 -4.96617e-06 0.000775777 -2.9061e-05 2.19702e-05 0.00225333 -0.000287064 -0.000986473 -0.00325626 -2.9265e-06 0.000580677 0.00244262
internal_weight=0 57748 1142 90 1052 118 56606 76 56530 19802 6736 200 117 85 53 6536 6498 2022 103 4476 134 4342 3625 40 717 174 50 3585 283 56
internal_count=217633 57748 1142 90 1052 118 56606 76 56530 19802 6736 200 117 85 53 6536 6498 2022 103 4476 134 4342 3625 40 717 174 50 3585 283 56
shrinkage=0.05


Tree=623
num_leaves=31
num_cat=0
split_feature=40 20 26 15 20 22 5 36 16 10 6 5 20 1 36 40 29 27 20 16 20 12 20 16 0 2 6 28 2 36
split_gain=0.00167991 0.0105122 0.0468303 0.0140066 0.0096844 0.0316489 0.0077993 0.00748755 0.00677306 0.0402872 0.0404123 0.0292172 0.0251398 0.0189699 0.0541782 0.0113652 0.00759445 0.0251345 0.0459511 0.131246 0.046452 0.0464488 0.0414454 0.128026 0.0369411 0.133645 0.0234383 0.0233834 0.020288 0.0826564
threshold=-2.4873949999999994 -19.568199999999997 0.0038092700000000005 -4.0549399999999993e-06 -18.884799999999995 1.6560850000000003 2.3574300000000006e-05 -0.040859549999999939 1.1921100000000003e-10 1.1791850000000001e-06 -4.5011399999999994e-06 1.9575400000000006e-05 -14.667549999999997 -6.820479999999999 0.039429999999999972 0.71026 -3.9040499999999993e-05 0.0019666000000000002 -17.886149999999997 0.0010528750000000002 -17.289999999999996 2.4676700000000005e-07 -16.290849999999995 8.167805000000002e-06 3.6588600000000002 0.40440800000000005 1.4354600000000002e-06 -0.44443899999999997 -2.9738899999999995 -0.57440449999999987
decision_type=2 2 2 2 2 2 2 2 2 2 2 2 2 2 2 2 2 2 2 2 2 2 2 2 2 2 2 2 2 2
left_child=-1 2 3 -2 5 6 7 -3 9 -6 -11 12 -12 14 -14 -15 17 24 19 -19 21 -20 23 -22 27 -26 -25 -10 29 -24
right_child=1 4 -4 -5 8 -7 -8 -9 16 10 11 -13 13 15 -16 -17 -18 18 20 -21 22 -23 28 26 25 -27 -28 -29 -30 -31
leaf_value=5.754467075094837e-06 -0.0013592149262876775 0.00022426205722341468 0.0022543089604436387 0.00037324139927607451 -0.002054107869291868 -0.0022113711653565546 0.00066269652564257672 -0.00072143702152243359 -0.0018386718390684112 -0.0022945583878754405 -0.0014487197675407517 0.0015672157606023314 4.2611152852698762e-05 0.00055576364883896967 -0.0029752582241417257 -2.2749941536774038e-05 3.3613361330718101e-07 0.0033850778990502785 8.2680236009764481e-05 -0.00077630673845657588 0.00399778810287199 -0.0032119931229871051 -0.00011182379624610627 -0.00049636224112108477 -0.00013917735856365551 -0.0042640941402943876 0.00146829358953255 -8.0573427125999719e-05 -3.4864863596467562e-05 -0.0036244107692618857
leaf_weight=80131 20 36 27 28 27 21 26 50 20 20 32 28 58 110 20 372 129214 36 20 40 26 23 103 63 72 27 20 348 6595 20
leaf_count=80131 20 36 27 28 27 21 26 50 20 20 32 28 58 110 20 372 129214 36 20 40 26 23 103 63 72 27 20 348 6595 20
internal_value=0 -3.35349e-06 0.000588437 -0.000348615 -3.67645e-06 -0.000430129 -9.61456e-05 -0.000325563 -3.26334e-06 -0.000162207 -8.2392e-05 -1.10318e-05 -8.56786e-05 -7.79053e-06 -0.000731202 0.000109276 -2.48739e-06 -5.17035e-05 -2.7831e-05 0.00119488 -4.13573e-05 -0.00167959 -3.10389e-05 0.000936124 -0.000406776 -0.00126415 -2.29512e-05 -0.000176122 -4.67311e-05 -0.000682976
internal_weight=0 137502 75 48 137427 133 112 86 137294 667 640 620 592 560 78 482 136627 7413 6946 76 6870 43 6827 109 467 99 83 368 6718 123
internal_count=217633 137502 75 48 137427 133 112 86 137294 667 640 620 592 560 78 482 136627 7413 6946 76 6870 43 6827 109 467 99 83 368 6718 123
shrinkage=0.05


Tree=624
num_leaves=31
num_cat=0
split_feature=26 17 3 9 40 0 36 1 36 1 4 1 9 3 0 36 18 11 2 9 40 36 2 19 31 9 9 40 5 6
split_gain=0.0016873 0.0152322 0.056319 0.0201644 0.0305466 0.0866576 0.177499 0.616383 0.147211 0.0232845 0.0502948 0.0220227 0.0227381 0.0266654 0.0215492 0.022251 0.0198291 0.0194556 0.0619148 0.0218579 0.0170605 0.0145982 0.0139603 0.188854 0.0171171 0.0107807 0.0251468 0.0692817 0.0204624 0.0172828
threshold=0.030416150000000003 3.0677450000000004 -18.305499999999995 -0.00022371799999999997 -0.16918499999999967 -1.8941599999999998 -0.12496499999999998 0.42337950000000008 0.22528099999999995 6.8043050000000012 0.28079350000000008 5.2110150000000006 -0.0006485044999999999 -12.918299999999999 -0.28753949999999995 -0.32870999999999989 5.1273750000000007 0.0050185850000000016 1.3671000000000004 -5.0495149999999994e-05 -1.69079 -0.46506469999999994 -3.0487399999999996 2.9809550000000002 -0.21631099999999998 -1.3707349999999998e-05 -1.4144999999999999e-05 -0.93924999999999936 6.5656500000000012e-06 1.0907100000000001e-06
decision_type=2 2 2 2 2 2 2 2 2 2 2 2 2 2 2 2 2 2 2 2 2 2 2 2 2 2 2 2 2 2
left_child=-1 22 -3 11 17 6 16 -8 -9 14 -11 12 -4 -14 15 -7 21 19 -19 20 -5 -6 23 24 -2 26 28 -28 -24 -30
right_child=1 2 3 4 5 9 7 8 -10 10 -12 -13 13 -15 -16 -17 -18 18 -20 -21 -22 -23 25 -25 -26 -27 27 -29 29 -31
leaf_value=-1.5826858602786705e-06 -0.0014531419648500603 0.0026707439339423381 0.00017182268689624794 -0.00044962554560618669 -0.00020580810503036318 -7.4290156564010043e-05 0.0097093960512817535 0.0044797606882639235 -0.00024302508629096503 -0.00028407536022001523 0.002821501296817918 0.0010264576670514153 -0.0024858977460618398 -0.00050318234425503758 9.1135425281072979e-07 -0.0024045890092384073 0.00082103852516281358 -1.9287124610257219e-05 0.0031207314591301838 -2.669982919166952e-05 -0.0021988434544255144 -0.0017018643927506428 0.0011693734909593852 0.0047902442832392731 6.2476999332554414e-05 2.452667286593507e-05 1.1035076449040978e-05 -0.002944128842627184 1.13928730531786e-05 -0.00013721838131954068
leaf_weight=192726 21 22 43 46 63 21 24 21 77 32 22 21 28 43 348 20 35 73 20 681 20 22 35 22 165 14393 68 28 5437 3056
leaf_count=192726 21 22 43 46 63 21 24 21 77 32 22 21 28 43 348 20 35 73 20 681 20 22 35 22 165 14393 68 28 5437 3056
internal_value=0 1.22465e-05 0.000157543 0.000124236 0.000176085 0.00042389 0.00118478 0.00252777 0.000769 8.23453e-06 0.00098116 -0.000461467 -0.000735558 -0.0012851 -0.000126824 -0.00121102 -0.000180588 -2.59947e-05 0.000655986 -0.0001109 -0.000979692 -0.000593023 1.72388e-06 0.00040951 -0.000108641 -1.96121e-06 -4.61681e-05 -0.000850888 -3.71093e-05 -4.20813e-05
internal_weight=0 24907 1682 1660 1525 685 242 122 98 443 54 135 114 71 389 41 120 840 93 747 66 85 23225 208 186 23017 8624 96 8528 8493
internal_count=217633 24907 1682 1660 1525 685 242 122 98 443 54 135 114 71 389 41 120 840 93 747 66 85 23225 208 186 23017 8624 96 8528 8493
shrinkage=0.05


Tree=625
num_leaves=31
num_cat=0
split_feature=36 19 29 0 33 10 10 6 15 12 17 12 18 5 23 19 8 7 35 18 39 39 22 0 23 36 26 37 23 4
split_gain=0.00170348 0.0119807 0.0791718 0.117072 0.0499302 0.0545539 0.0543019 0.0700021 0.0568727 0.147522 0.0421843 0.0229883 0.020209 0.0619091 0.0157902 0.015323 0.173116 0.0783731 0.0528583 0.0925106 0.0651524 0.0359278 0.0299414 0.0146683 0.0141057 0.0200718 0.0115916 0.0104388 0.0457421 0.124098
threshold=0.46240350000000002 -2.9160599999999994 2.4584750000000006e-06 -8.5831699999999973 2.7091200000000009e-07 2.2246450000000004e-05 1.0563300000000003e-05 -5.0878949999999982e-07 1.05179e-07 -5.8105949999999988e-08 -5.6544449999999999 1.1777450000000001e-08 -2.7107649999999999 1.1794800000000003e-05 -9.4049749999999992e-05 -2.8256249999999992 2.7183000000000004e-05 -3.0204999999999996e-05 4.9405750000000011e-05 -0.85462799999999983 -1.5196849999999988 2.1254700000000009 2.5401000000000002 -13.195549999999999 0.00019540050000000001 0.1751400000000001 0.019534050000000004 -0.016969000000000036 0.00027866000000000007 -0.091821799999999981
decision_type=2 2 2 2 2 2 2 2 2 2 2 2 2 2 2 2 2 2 2 2 2 2 2 2 2 2 2 2 2 2
left_child=1 2 4 -4 6 -6 7 8 11 14 -7 -1 13 -8 -10 16 -3 18 19 23 -20 22 -22 -18 -14 -26 -25 28 -17 -30
right_child=-2 15 3 -5 5 10 12 -9 9 -11 -12 -13 24 -15 -16 27 17 -19 20 -21 21 -23 -24 26 25 -27 -28 -29 29 -31
leaf_value=0.001803586176101817 5.2862429644997527e-06 0.0044237029366134576 0.0038037211842210719 -0.0010982660676485726 -0.0037377018093441928 -0.0022011252585798502 0.0029241244495400074 -0.003205456248438817 0.00049749654897502348 -0.0049953361515442593 0.00096808344020419537 -9.4049935902563178e-05 5.1849153506480569e-05 -0.0001367739629028431 -0.001122100110741384 -1.0828688950432774e-05 0.0016979361132278825 -0.0021746883353949268 0.0018469023897196167 0.0038590328582689508 -0.00056848003984090283 -0.00018048870988423006 -0.0030146160636675256 0.00042374426218199355 -0.0020119833055235047 -0.00013317107995217985 -0.00086425687986775308 1.9324830061298803e-06 0.00018752966001017021 -0.00065287248735963906
leaf_weight=20 89633 24 29 21 21 21 24 28 34 22 21 79 416 53 27 13612 20 36 25 22 22 64 29 138 21 44 20 111327 789 991
leaf_count=20 89633 24 29 21 21 21 24 28 34 22 21 79 416 53 27 13612 20 36 25 22 22 64 29 138 21 44 20 111327 789 991
internal_value=0 -3.70173e-06 -0.00018745 0.00174489 -0.000303716 -0.00165691 -0.000192711 -0.000878049 -0.000519986 -0.00148529 -0.000616521 0.000289311 6.52115e-05 0.000817272 -0.000219374 -2.42826e-06 0.00030655 4.37529e-05 0.000278647 0.000800245 -0.000466494 -0.000969406 -0.00195942 0.000422193 -5.51807e-05 -0.000740172 0.000260706 -3.40358e-06 -4.19982e-05 -0.000280357
internal_weight=0 128000 881 50 831 63 768 210 182 83 42 99 558 77 61 127119 400 376 340 200 140 115 51 178 481 65 158 126719 15392 1780
internal_count=217633 128000 881 50 831 63 768 210 182 83 42 99 558 77 61 127119 400 376 340 200 140 115 51 178 481 65 158 126719 15392 1780
shrinkage=0.05


Tree=626
num_leaves=31
num_cat=0
split_feature=17 2 20 5 20 36 27 0 3 18 27 39 35 18 9 2 20 23 4 0 11 17 3 11 20 34 36 17 36 4
split_gain=0.00168094 0.0131911 0.0526251 0.110231 0.036979 0.0215143 0.0209126 0.00830473 0.105273 0.037016 0.0355325 0.0426816 0.0433594 0.0393659 0.097313 0.0226504 0.0592551 0.0217269 0.0181483 0.0760466 0.0173222 0.0256719 0.0239068 0.0174356 0.0154358 0.0665667 0.0232051 0.0356995 0.0244766 0.0191314
threshold=-8.175164999999998 3.0333000000000006 -9.5739449999999984 1.5809250000000005e-05 -9.1724949999999978 0.2761725000000001 0.00061938400000000006 -9.1205449999999981 -8.2474849999999993 18.392150000000004 0.0040086650000000007 -0.32314999999999999 0.0015197350000000001 -9.1109899999999975 -2.1646949999999998e-05 -3.0487399999999996 -8.421034999999998 -0.0011493749999999998 0.23828700000000003 -12.029349999999999 0.0011630900000000001 -14.223749999999997 -6.9704649999999999 0.00012656100000000005 -6.1887249999999989 0.00033378650000000009 -0.018010000000000078 -11.702999999999998 -0.54531499999999988 -0.48550749999999993
decision_type=2 2 2 2 2 2 2 2 2 2 2 2 2 2 2 2 2 2 2 2 2 2 2 2 2 2 2 2 2 2
left_child=1 7 3 -3 -4 6 -6 8 -1 10 13 -12 -13 14 -10 16 -9 -15 20 -20 21 23 -22 -14 29 26 28 -28 -26 -19
right_child=-2 2 4 -5 5 -7 -8 15 9 -11 11 12 18 17 -16 -17 -18 24 19 -21 22 -23 -24 -25 25 -27 27 -29 -30 -31
leaf_value=-0.0029683415501964312 -1.6216908432693946e-06 0.0043352979592031181 -0.0019442498871371971 -0.00061525106919527227 0.00044256744351595947 -8.3407457124063845e-05 0.0022508564693409774 0.0032143094094499247 -0.0005015556110005751 0.0016007351942843183 -0.0022483892188756727 -0.0020964909973827162 -0.00073359159067256556 0.001493167836815701 0.0040010605178914761 1.5302843190008399e-05 8.4420991691830198e-05 -0.00041684599250555474 0.002857984388780703 -0.00038637236759675274 0.0018691394056440916 -0.00014447595636358436 -0.00037792006945076948 -0.002177152955510582 -9.9127317758087124e-05 -0.0031946880665782371 0.0022353767280860449 -0.0002072160160493625 -0.0022601187817053872 6.5054764972482105e-05
leaf_weight=31 191545 23 21 22 67 176 21 20 28 34 30 32 107 24 21 22614 62 230 24 73 20 232 29 26 38 20 21 52 20 1970
leaf_count=31 191545 23 21 22 67 176 21 20 28 34 30 32 107 24 21 22614 62 230 24 73 20 232 29 26 38 20 21 52 20 1970
internal_value=0 1.19069e-05 0.000326022 0.00191503 7.51265e-05 0.000235759 0.000874091 7.88258e-06 -6.94119e-05 -3.97627e-05 -5.83736e-05 -0.000412476 -0.000311044 2.53312e-05 0.00142814 1.83107e-05 0.000847808 -3.61093e-06 -0.000199235 0.000416355 -0.000343468 -0.000461969 0.000539247 -0.00101579 -1.88907e-05 -0.000507916 -9.77216e-05 0.000495448 -0.000844297 1.46742e-05
internal_weight=0 26088 330 45 285 264 88 25758 3062 3031 2997 573 543 2424 49 22696 82 2375 511 97 414 365 49 133 2351 151 131 73 58 2200
internal_count=217633 26088 330 45 285 264 88 25758 3062 3031 2997 573 543 2424 49 22696 82 2375 511 97 414 365 49 133 2351 151 131 73 58 2200
shrinkage=0.05


Tree=627
num_leaves=31
num_cat=0
split_feature=8 40 39 2 18 5 31 12 5 22 8 12 18 20 36 33 25 36 39 9 40 0 11 28 25 0 36 25 33 34
split_gain=0.00169081 0.00875414 0.0231444 0.0479433 0.0470558 0.131591 0.248008 0.0566762 0.0502296 0.0951772 0.0410434 0.0384461 0.0481557 0.190049 0.363684 0.0721619 0.0435666 0.119262 0.208823 0.0448897 0.034298 0.0341701 0.0323904 0.0464411 0.0437856 0.0313869 0.0274079 0.0269823 0.0243672 0.0239675
threshold=1.6290050000000002e-05 0.46045500000000011 0.27381999999999979 2.2358750000000005 10.536600000000002 1.3083950000000002e-05 -1.4415349999999999e-05 -4.6505149999999993e-08 1.5065950000000003e-05 0.23578950000000001 1.0226700000000002e-05 -5.4793599999999992e-08 6.8989050000000001 -9.4279799999999998 -0.027530000000000051 -9.0156449999999981e-08 -0.014354649999999998 -0.011175000000000155 0.052215000000000351 -1.1362949999999998e-05 0.19419999999999996 1.7247100000000002 0.0024307550000000006 -0.39102299999999995 -0.064774849999999981 -4.429314999999999 0.12375499999999996 -0.036151699999999995 -1.5765899999999995e-08 -0.00016880349999999996
decision_type=2 2 2 2 2 2 2 2 2 2 2 2 2 2 2 2 2 2 2 2 2 2 2 2 2 2 2 2 2 2
left_child=1 2 3 4 8 7 -7 -6 10 -10 21 22 16 14 -14 -15 17 18 27 -19 -9 28 24 -24 -12 -18 -21 -13 -1 -27
right_child=-2 -3 -4 -5 5 6 -8 20 9 -11 11 12 13 15 -16 -17 25 19 -20 26 -22 -23 23 -25 -26 29 -28 -29 -30 -31
leaf_value=0.00059673394628390682 1.7414880417462253e-06 1.6295100759199682e-05 -9.9735417566143002e-06 -0.0021306980026991134 -0.0021387355720246981 -0.0061667686135102673 0.00031761910877927828 0.00061859206730982162 0.0041398179758834882 0.00013087916406795175 0.0025493879359640668 -0.0016068028831561548 0.00010586630352783552 -0.00236326832633612 -0.008554508904291486 0.0003360304244247013 -0.0020277800476560517 -0.0020058115344302979 -0.0059745031138879355 0.0013300984357635531 -0.0015731290576652447 0.0017906297468214642 -0.002636578106612433 -0.0001072495967185446 0.00028857329183756228 0.00035746459248886119 -0.00018195394117525253 0.0006009603866841645 -0.00037405269446632401 -0.00020751352362597991
leaf_weight=161 188240 14610 12271 31 29 29 30 119 20 57 23 31 27 31 22 123 20 24 27 46 21 39 20 196 311 278 86 25 108 578
leaf_count=161 188240 14610 12271 31 29 29 30 119 20 57 23 31 27 31 22 123 20 24 27 46 21 39 20 196 311 278 86 25 108 578
internal_value=0 -1.11529e-05 -3.82797e-05 -0.000176554 -0.000152137 -0.000836642 -0.00286962 -0.000126903 -8.28663e-05 0.00117216 -0.000127277 -0.000215453 -0.000361984 -0.0010703 -0.00378247 -0.000207335 -0.000233027 -0.000831387 -0.00236263 -1.66858e-05 0.000289834 0.000407503 0.00013569 -0.000341447 0.000444258 -6.97754e-05 0.000344973 -0.000621194 0.000206976 -2.40276e-05
internal_weight=0 29393 14783 2512 2481 228 59 169 2253 77 2176 1868 1318 203 49 154 1115 239 83 156 140 308 550 216 334 876 132 56 269 856
internal_count=217633 29393 14783 2512 2481 228 59 169 2253 77 2176 1868 1318 203 49 154 1115 239 83 156 140 308 550 216 334 876 132 56 269 856
shrinkage=0.05


Tree=628
num_leaves=31
num_cat=0
split_feature=17 22 11 11 11 0 12 12 0 2 2 2 39 25 0 2 3 0 30 26 18 2 39 5 15 13 1 16 6 0
split_gain=0.00167315 0.0212052 0.0408263 0.0126549 0.0466997 0.014819 0.0126181 0.0495643 0.012483 0.0108294 0.0395068 0.0389165 0.0337477 0.0250535 0.0164312 0.0173652 0.0133722 0.019256 0.0244956 0.0358345 0.0144198 0.0161477 0.0699128 0.0709106 0.0251127 0.0129922 0.0168837 0.0145571 0.0163629 0.0129263
threshold=-14.223749999999997 0.33580650000000006 0.00035126650000000004 4.1558050000000008e-05 4.4272650000000011e-05 -12.520849999999998 -1.1362599999999997e-05 -9.0272649999999983e-06 -7.9766549999999992 -2.8691749999999998 -2.7519549999999997 -2.6524249999999996 0.68409500000000023 -0.0065198499999999989 -12.520849999999998 -2.5264449999999994 -4.8298799999999993 -8.9809199999999993 0.92011300000000007 0.41922450000000006 14.999250000000002 2.1810100000000001 0.55890500000000032 1.4404800000000001e-05 1.1699350000000001e-06 3.1167400000000004e-07 5.2820750000000007 0.00010798250000000001 -9.3385949999999991e-07 -6.333524999999999
decision_type=2 2 2 2 2 2 2 2 2 2 2 2 2 2 2 2 2 2 2 2 2 2 2 2 2 2 2 2 2 2
left_child=1 2 -1 5 -5 -3 8 -8 -6 12 13 -12 -9 -11 -13 -16 17 18 -17 -20 21 -19 24 -24 29 27 -27 28 -22 -23
right_child=-2 3 -4 4 6 -7 7 9 -10 10 11 14 -14 -15 15 16 -18 20 19 -21 25 22 23 -25 -26 26 -28 -29 -30 -31
leaf_value=0.0027892136184527773 -4.8216320700840464e-07 -0.0014486528268678051 -0.00033210572093428874 0.0022427321368316674 -0.00093657262193616749 -0.00017688972779853781 0.0022487200086918446 -0.00021171020220768136 -0.00011772087464028381 -0.00271558463933789 0.0021502901979891412 0.0014248008618042583 0.00179653311301081 -0.00024288369560963472 -0.0010847191183295634 -0.0020587071094269049 0.0011240091703906988 5.8943356717043187e-05 0.0013968966486256409 -0.0010583136816508375 -0.00013677471999674003 -0.0011376407624387262 0.00033111304338407618 0.0043931026391441095 0.0015577341755852103 -0.00034619839613798026 -0.0020363427119181408 -0.00067397018714733092 0.0013526949021200252 6.8519696005437419e-05
leaf_weight=20 215032 29 22 24 53 109 26 52 382 21 22 21 35 20 35 24 28 1251 23 42 54 36 22 21 20 45 22 56 28 58
leaf_count=20 215032 29 22 24 53 109 26 52 382 21 22 21 35 20 35 24 28 1251 23 42 54 36 22 21 20 45 22 56 28 58
internal_value=0 3.98618e-05 0.00115424 2.15719e-05 4.81183e-05 -0.000444144 2.61447e-05 8.01614e-05 -0.000217489 5.10382e-05 2.53868e-05 6.01909e-05 0.000596204 -0.00150939 3.4445e-05 1.79025e-05 4.02099e-05 2.238e-05 -0.00069359 -0.000189547 6.18849e-05 0.000118929 0.000596901 0.00231488 -5.11074e-05 -0.000329908 -0.000901171 -5.25559e-05 0.000371825 -0.000393414
internal_weight=0 2601 42 2559 2421 138 2397 1962 435 1936 1849 1808 87 41 1786 1765 1730 1702 89 65 1613 1408 157 43 114 205 67 138 82 94
internal_count=217633 2601 42 2559 2421 138 2397 1962 435 1936 1849 1808 87 41 1786 1765 1730 1702 89 65 1613 1408 157 43 114 205 67 138 82 94
shrinkage=0.05


Tree=629
num_leaves=31
num_cat=0
split_feature=31 12 19 4 2 0 36 2 33 40 20 36 20 37 37 16 40 40 17 40 4 4 20 12 2 36 19 15 3 12
split_gain=0.00167415 0.0296228 0.0260363 0.137233 0.0252244 0.0609889 0.14394 0.0286543 0.0887106 0.0207749 0.0660924 0.053001 0.0303244 0.0272777 0.233795 0.18508 0.0931087 0.111271 0.0436372 0.0964811 0.077012 0.0503825 0.0342573 0.028351 0.0230014 0.01693 0.0168777 0.0378485 0.0164512 0.0158906
threshold=-0.030074999999999994 2.1189900000000004e-07 -3.0951399999999993 0.43776750000000003 2.2358750000000005 -4.2353699999999987 0.22528099999999995 2.1810100000000001 -8.7984999999999989e-06 -2.8126249999999997 -17.193949999999997 0.2761725000000001 -16.542649999999998 0.14791590000000002 -0.30357199999999979 0.0017507150000000001 1.9491550000000004 -0.89938499999999999 4.1005450000000012 0.6060099999999996 0.17779150000000002 0.67300500000000019 -7.7770649999999995 0.00011252600000000001 2.2358750000000005 5.6762150000000009 2.9809550000000002 1.5027300000000003e-05 -16.131449999999997 -1.9150249999999998e-05
decision_type=2 2 2 2 2 2 2 2 2 2 2 2 2 2 2 2 2 2 2 2 2 2 2 2 2 2 2 2 2 2
left_child=1 2 3 -1 7 25 -7 29 -9 28 11 -11 -12 14 -14 16 17 -16 20 -20 23 -21 -19 -17 -15 26 -6 -28 -3 -4
right_child=-2 9 4 -5 5 6 -8 8 -10 10 12 -13 13 24 15 18 -18 22 19 21 -22 -23 -24 -25 -26 -27 27 -29 -30 -31
leaf_value=-0.00010620800665037678 -1.2942762271538075e-06 -0.0011067431776844445 -4.7855657531395002e-05 0.0043528428555212242 1.7751562444243415e-05 -0.0040198418459057748 -0.00014766122291431122 0.0032595834617276179 0.00011868787352068466 -0.0032937680192602174 0.0018114035938197048 -0.00010351162003960623 -2.2346485126676446e-05 -2.6986133842395292e-05 -0.0021670976148482463 -0.0012432339219858165 -0.00093945959445343105 -0.0072375399853296012 0.0033668288958142514 -0.0023820869166305179 -0.0037799928347918795 0.00089274799393024296 -0.004378336772788316 0.0011690630969366925 0.0016782820414664456 -0.00098681543153677771 0.00022446251088695135 -0.0023227539785148112 5.2940194187476569e-05 0.00010795295547668751
leaf_weight=80 200195 31 2081 22 1554 33 88 29 100 30 20 23 1288 1755 39 29 33 22 20 24 22 23 20 21 20 46 35 25 2265 7660
leaf_count=80 200195 31 2081 22 1554 33 88 29 100 30 20 23 1288 1755 39 29 33 22 20 24 22 23 20 21 20 46 35 25 2265 7660
internal_value=0 1.48588e-05 6.01825e-05 0.000855548 5.32194e-05 -0.000119971 -0.00120371 8.4471e-05 0.000824781 -7.88422e-05 -0.000157515 -0.00190932 -0.000129684 -0.000141391 -0.0002953 -0.00168488 -0.00317817 -0.00409024 -0.00046017 0.000458204 -0.00131477 -0.000779508 -0.00587601 -0.000230069 -7.77184e-06 -4.09761e-05 -1.4019e-05 -0.000836878 3.72824e-05 7.46671e-05
internal_weight=0 17438 11753 102 11651 1781 121 9870 129 5685 3389 53 3336 3316 1541 253 114 81 139 67 72 47 42 50 1775 1660 1614 60 2296 9741
internal_count=217633 17438 11753 102 11651 1781 121 9870 129 5685 3389 53 3336 3316 1541 253 114 81 139 67 72 47 42 50 1775 1660 1614 60 2296 9741
shrinkage=0.05


Tree=630
num_leaves=31
num_cat=0
split_feature=16 18 37 9 36 40 10 1 26 40 11 36 12 16 4 13 36 23 13 15 34 16 17 23 11 20 37 36 20 36
split_gain=0.00169919 0.00960225 0.0417088 0.103901 0.0897681 0.135493 0.0487557 0.0236375 0.0534176 0.0336448 0.0346447 0.0238003 0.0206328 0.0198791 0.0148576 0.0124378 0.0225504 0.0103483 0.0374766 0.0230712 0.0553433 0.0099314 0.0264661 0.0238461 0.0517795 0.0416297 0.0194802 0.119591 0.141019 0.0878448
threshold=3.3848150000000009e-05 13.390900000000002 -0.10141500000000002 4.247685000000001e-05 0.327845 -0.23675500000000002 -9.7102499999999991e-06 10.319000000000001 -0.0099490199999999977 -0.31477499999999997 0.00010396350000000002 0.039429999999999972 -4.9253149999999993e-08 1.117715e-05 -0.17044799999999996 4.3089250000000013e-06 -0.14969009999999991 -0.062701649999999984 4.7861450000000004e-06 6.9277650000000016e-07 0.08967940000000002 5.3661700000000008e-06 19.256550000000001 -0.013856449999999998 0.00052716000000000015 -6.9859049999999998 0.12358499999999996 0.20129000000000011 -11.621199999999998 0.14973499999999998
decision_type=2 2 2 2 2 2 2 2 2 2 2 2 2 2 2 2 2 2 2 2 2 2 2 2 2 2 2 2 2 2
left_child=1 17 3 4 5 -3 -4 11 -9 10 -10 15 -11 14 -6 16 -8 18 19 -1 -21 -19 23 24 -23 -26 27 28 29 -25
right_child=-2 2 6 -5 13 -7 7 8 9 12 -12 -13 -14 -15 -16 -17 -18 21 -20 20 -22 22 -24 26 25 -27 -28 -29 -30 -31
leaf_value=-0.00016653831412238813 3.3722372000994755e-06 0.0047549830212329442 -0.0024479933164548127 0.0041918827279732798 -0.001675527257196206 -0.00030208187031180222 -1.6598236400427953e-05 0.0028519482007655114 0.0004399275833992117 0.0024151693700072692 -0.0018416865874314682 -0.0017579857143573464 0.00028924107295461 0.0011674736767335245 -0.00021864256935216308 -0.00090805702619380438 0.0015725238947197795 -1.5167731277503374e-06 0.0023834930511657149 0.0031269619624072226 2.3606491509674338e-05 0.00073626116545397213 0.001484218060224001 0.00050068247089936856 -0.003540428924316075 -0.00058517810069203663 1.3300605959442478e-05 -8.9107219801925897e-06 -0.0010068247827520471 -0.0027083472940949323
leaf_weight=180 137515 26 20 20 21 27 760 23 41 21 28 20 25 22 105 37 23 66777 20 20 51 29 28 293 22 26 6060 4675 695 23
leaf_count=180 137515 26 20 20 21 27 760 23 41 21 28 20 25 22 105 37 23 66777 20 20 51 29 28 293 22 26 6060 4675 695 23
internal_value=0 -5.78813e-06 0.000133472 0.000754986 0.000413006 0.00217874 -4.15842e-06 4.58178e-05 0.000652277 0.000212343 -0.000485945 -5.38148e-05 0.00125977 -0.000219318 -0.000461457 -1.22497e-05 3.0081e-05 -7.93971e-06 0.000300502 0.000134527 0.000897791 -9.00279e-06 -5.11843e-05 -5.48206e-05 -0.000931851 -0.00193967 -4.90713e-05 -0.000115546 -0.00060864 0.000267114
internal_weight=0 80118 1219 221 201 53 998 978 138 115 69 840 46 148 126 820 783 78899 271 251 71 78628 11851 11823 77 48 11746 5686 1011 316
internal_count=217633 80118 1219 221 201 53 998 978 138 115 69 840 46 148 126 820 783 78899 271 251 71 78628 11851 11823 77 48 11746 5686 1011 316
shrinkage=0.05


Tree=631
num_leaves=31
num_cat=0
split_feature=19 36 2 2 26 17 3 8 7 32 13 8 13 8 2 19 14 9 37 18 9 9 21 39 8 2 19 2 19 19
split_gain=0.00165969 0.0345089 0.00768335 0.0154648 0.0022345 0.0132029 0.0513951 0.0343674 0.0555279 0.0878837 0.168711 0.0466059 0.0726711 0.0322349 0.0160921 0.224693 0.0150989 0.0184376 0.0150749 0.0615751 0.0145736 0.0247644 0.0426289 0.0203936 0.0138823 0.0132538 0.285868 0.0222867 0.0525157 0.0219962
threshold=3.1185250000000004 -0.14969009999999991 -2.9481199999999999 -2.7279399999999994 0.030416150000000003 3.0677450000000004 -18.305499999999995 2.5919250000000001e-05 -9.3061799999999994e-06 0.020652350000000003 -4.2042099999999992e-07 2.1278050000000002e-05 6.9009750000000011e-07 1.0512900000000001e-05 -3.0487399999999996 2.9584000000000006 2.7688750000000005e-05 -1.7778499999999996e-05 5.6849350000000003 -2.2818199999999993 -0.00022371799999999997 -9.3323749999999985e-05 0.53020800000000012 -5.7365599999999999 4.2853300000000005e-05 3.0333000000000006 -2.9892949999999998 3.0123700000000002 2.8798550000000005 -2.7041249999999994
decision_type=2 2 2 2 2 2 2 2 2 2 2 2 2 2 2 2 2 2 2 2 2 2 2 2 2 2 2 2 2 2
left_child=4 2 -2 -4 -1 14 -7 8 9 10 -8 -11 -13 -10 15 -6 17 -15 25 -20 23 22 -22 -9 -24 27 -27 -16 -29 -28
right_child=1 -3 3 -5 5 6 7 20 13 11 -12 12 -14 16 18 -17 -18 -19 19 -21 21 -23 24 -25 -26 26 29 28 -30 -31
leaf_value=-1.5558304550077343e-06 -0.0007879779481651983 -0.0020723065036387807 0.0013528631401121469 -2.4246759302016015e-05 -0.00010045867175340787 0.0025504827562888915 0.006498758422676474 -0.0020321436988888311 0.0018709575189859607 -0.00032603971512556507 0.00048607095606192685 0.00020715551037129546 0.0039082252146077478 -0.0013795657932523346 3.3358700538421822e-06 0.0054798212583409625 0.00095079863254391567 -1.544203673855312e-05 -0.0030621460316615414 -0.00014092913668684522 0.0024776701363778018 -5.7418357125146653e-05 -0.000966853545607938 -0.00027219450631364646 0.00072116420548088084 0.0055669492765446195 -0.001179828752633295 -0.00016023230226844471 -0.0030398060454172086 6.6213083159226722e-05
leaf_weight=192245 31 21 21 698 184 22 20 20 24 75 28 36 21 27 22139 20 36 300 20 184 27 903 21 93 29 24 42 76 20 226
leaf_count=192245 31 21 21 698 184 22 20 20 24 75 28 36 21 27 22139 20 36 300 20 184 27 903 21 93 29 24 42 76 20 226
internal_value=0 -7.32294e-05 -1.72552e-05 1.59748e-05 2.60349e-07 1.44437e-05 0.000149658 0.00011784 0.00043371 0.00115924 0.00299136 0.00049301 0.00157071 9.62554e-05 4.52737e-06 0.000446628 -2.10803e-05 -0.000128076 5.59733e-07 -0.000427323 -4.6019e-05 1.59777e-05 0.000876713 -0.00058369 1.21968e-05 4.43455e-06 0.000339103 3.95346e-08 -0.000760143 -0.000129062
internal_weight=0 771 750 719 216862 24617 1682 1660 567 180 48 132 57 387 22935 204 363 327 22731 204 1093 980 77 113 50 22527 292 22235 96 268
internal_count=217633 771 750 719 216862 24617 1682 1660 567 180 48 132 57 387 22935 204 363 327 22731 204 1093 980 77 113 50 22527 292 22235 96 268
shrinkage=0.05


Tree=632
num_leaves=31
num_cat=0
split_feature=5 32 13 17 6 32 13 21 0 17 36 36 2 23 9 11 17 22 17 29 29 17 33 3 6 13 10 26 31 15
split_gain=0.00163937 0.00947117 0.021006 0.036253 0.0594831 0.0251704 0.259144 0.0412645 0.0288643 0.0623302 0.0999758 0.428954 0.0213398 0.0198194 0.0186377 0.0474338 0.135967 0.0365011 0.0245308 0.0461932 0.0300993 0.078513 0.0176051 0.0933679 0.226724 0.0532011 0.0310222 0.0187298 0.0159955 0.0248668
threshold=1.0004950000000002e-05 -0.00040882949999999994 4.0775950000000005e-08 10.886100000000001 -2.1736449999999996e-06 -0.00050156899999999999 7.4656150000000005e-08 0.17119000000000004 -3.5052499999999998 -3.4270099999999997 -0.058960000000000005 0.2761725000000001 -1.7835899999999998 0.0041053400000000007 2.6226450000000004e-05 0.00044451700000000001 5.6979900000000017 0.16237300000000002 8.1756000000000011 -5.2354349999999989e-06 -2.8033549999999995e-05 2.9284200000000005 5.3317650000000004e-06 -13.243349999999998 -3.153044999999999e-08 -7.0069149999999991e-06 1.4058750000000002e-05 0.24911750000000002 -0.93075499999999989 3.8326850000000012e-06
decision_type=2 2 2 2 2 2 2 2 2 2 2 2 2 2 2 2 2 2 2 2 2 2 2 2 2 2 2 2 2 2
left_child=1 2 13 5 -5 8 -7 12 9 10 -4 -12 -8 14 22 16 -16 -17 20 -20 21 -19 27 24 -24 -25 -27 -1 -15 -30
right_child=-2 -3 3 4 -6 6 7 -9 -10 -11 11 -13 -14 28 15 17 -18 18 19 -21 -22 -23 23 25 -26 26 -28 -29 29 -31
leaf_value=4.7430613175110287e-05 1.7712060454506045e-06 9.8703451250415761e-06 -0.00023715558962686303 -0.0028867951421093115 -0.00038901862723601604 -0.0057722721786025106 0.0017268979730641833 -0.0017066616165573791 -2.7476048692802448e-05 -6.1045100358735708e-05 -0.0088451143663405684 5.1635046117683358e-05 5.312741925283465e-06 0.00040134301996456795 -4.2704855452029732e-05 -0.0021344197489053755 -0.0049206343997866501 -9.9718917325927495e-05 0.002911057421115402 -3.1938980864651963e-05 6.1854248275152601e-05 -0.0028487912812552706 0.0057014016660104977 -0.0024853495693969311 -0.00058455284506635512 -8.2006620097907281e-05 0.0015473116331425748 -0.0014857682757428848 -0.00039766340307005057 -0.0020244034241899971
leaf_weight=4942 186555 20028 95 30 116 22 20 34 3885 357 20 42 180 36 50 21 20 110 20 40 559 34 26 20 32 155 36 20 97 31
leaf_count=4942 186555 20028 95 30 116 22 20 34 3885 357 20 42 180 36 50 21 20 110 20 40 559 34 26 20 32 155 36 20 97 31
internal_value=0 -1.06322e-05 -4.77928e-05 -0.000126443 -0.00090226 -0.00010211 -0.000584071 -9.62916e-05 -7.40625e-05 -0.00042618 -0.00125645 -0.00281828 0.000177471 1.26328e-05 2.72513e-05 -0.000189319 -0.0014364 -7.79728e-05 -2.13734e-05 0.00094906 -0.000104198 -0.000748805 6.2608e-05 0.000456565 0.00223329 -3.18237e-05 0.00022509 4.12509e-05 -0.000529765 -0.00079164
internal_weight=0 31078 11050 4801 146 4655 256 234 4399 514 157 62 200 6249 6085 854 70 784 763 60 703 144 5231 269 58 211 191 4962 164 128
internal_count=217633 31078 11050 4801 146 4655 256 234 4399 514 157 62 200 6249 6085 854 70 784 763 60 703 144 5231 269 58 211 191 4962 164 128
shrinkage=0.05


Tree=633
num_leaves=31
num_cat=0
split_feature=32 16 19 8 7 26 3 6 8 20 8 39 2 21 13 13 14 15 5 13 23 15 16 25 3 3 16 3 17 14
split_gain=0.00160594 0.0204946 0.0587083 0.0178627 0.034293 0.0557293 0.0903628 0.0977905 0.131548 0.0667951 0.0639672 0.0492737 0.0301942 0.0943763 0.0210374 0.0699458 0.113436 0.0370037 0.0449001 0.0772803 0.0399359 0.0724385 0.0580171 0.0359178 0.0337191 0.02325 0.0231583 0.0262089 0.0171597 0.0307129
threshold=-0.14294799999999999 1.7763850000000003e-10 -1.0309599999999997 2.9944150000000004e-05 -1.7830049999999997e-05 0.082377100000000023 -13.080499999999999 1.3950750000000001e-06 2.4122650000000005e-05 -13.148399999999997 2.1587450000000003e-05 5.0027350000000004 -2.0335249999999996 0.77580800000000016 -2.9678699999999998e-05 -4.7504049999999995e-05 4.8443000000000012e-06 -6.7236599999999979e-05 1.0285600000000002e-05 -6.2705699999999993e-06 0.00045620850000000006 -0.00025226399999999993 4.555630000000001e-05 0.17278200000000002 -17.304849999999998 -14.389699999999999 0.00074690950000000009 -9.2417599999999975 13.501750000000001 2.1981950000000002e-08
decision_type=2 2 2 2 2 2 2 2 2 2 2 2 2 2 2 2 2 2 2 2 2 2 2 2 2 2 2 2 2 2
left_child=1 2 -1 4 5 -3 7 8 -7 11 -11 -8 13 -6 15 24 -17 18 19 -16 21 25 -22 -21 -14 -20 27 -26 -19 -30
right_child=-2 3 -4 -5 12 6 9 -9 -10 10 -12 -13 14 -15 17 16 -18 28 20 23 22 -23 -24 -25 26 -27 -28 -29 29 -31
leaf_value=0.0031031314707070123 7.8033054301276787e-07 5.0633503932919402e-05 -0.00025920666098622983 4.0161287276901917e-05 -0.00041999354200528713 -0.0063096556840464479 0.002796191906090826 -0.00021756240967079067 -0.0011272189288623244 -0.0032752200894589933 -0.00056228825150984201 -9.2567214459130496e-07 0.0014089319550006814 0.0036756567601432008 -0.0043388672621222221 0.0042173984998414571 -0.00050696503252159648 5.1468475989642001e-06 -0.0014917625724516863 -0.0018565476131202144 0.0028230228427855767 -0.0027357456511756602 -0.00011981904740644239 0.00060247040582234396 -0.0024994534105991038 0.00031163383219141649 2.5746745499462656e-05 -0.00018007911175714229 -0.0023033608871132444 -0.00023609300752672872
leaf_weight=20 210679 269 37 3849 39 25 20 32 24 28 97 74 38 22 20 27 24 1577 24 33 20 38 103 27 21 70 247 29 22 98
leaf_count=20 210679 269 37 3849 39 25 20 32 24 28 97 74 38 22 20 27 24 1577 24 33 20 38 103 27 21 70 247 29 22 98
internal_value=0 -2.3641e-05 0.000920561 -3.14443e-05 -0.000121867 -0.000471931 -0.000940498 -0.00236737 -0.00377132 -0.000412752 -0.00116998 0.000594206 -4.1518e-05 0.00105713 -6.9234e-05 0.000269147 0.00199417 -0.000133513 -0.000613743 -0.00164721 -0.000289518 -0.000893532 0.000358692 -0.00074999 6.53148e-06 -0.000148808 -0.0001729 -0.00115422 -3.87121e-05 -0.000615092
internal_weight=0 6954 57 6897 3048 569 300 81 49 219 125 94 2479 61 2418 386 51 2032 335 80 255 132 123 60 335 94 297 50 1697 120
internal_count=217633 6954 57 6897 3048 569 300 81 49 219 125 94 2479 61 2418 386 51 2032 335 80 255 132 123 60 335 94 297 50 1697 120
shrinkage=0.05


Tree=634
num_leaves=31
num_cat=0
split_feature=5 17 9 28 0 39 16 16 7 0 34 0 18 7 32 13 39 5 7 23 30 17 3 39 26 17 40 30 15 5
split_gain=0.00159415 0.00966727 0.0491598 0.112832 0.196636 0.104186 0.154143 0.0466614 0.0412817 0.0842718 0.118657 0.0508123 0.0368565 0.0318071 0.0662384 0.0186166 0.0192183 0.00706993 0.00694283 0.0335225 0.100884 0.0238591 0.0806512 0.149026 0.0294961 0.0197243 0.0143554 0.0220172 0.00731941 0.0412996
threshold=1.6628950000000003e-05 14.554100000000002 2.7947950000000004e-05 0.068565150000000005 8.5096200000000017 0.8945249999999999 0.00077348800000000013 2.7427600000000005e-05 5.0479550000000007e-05 11.322650000000001 -0.0083346849999999997 10.302050000000003 3.0686450000000005 2.6757850000000003e-05 0.016813700000000004 -2.7228099999999994e-06 0.13650500000000013 9.7041100000000015e-06 -5.5880499999999995e-05 0.0033062250000000007 0.54644700000000013 -8.4049549999999993 -8.6604199999999967 -1.5836399999999993 0.13068350000000004 -8.0887399999999996 -0.47859499999999983 0.020351700000000004 6.0555300000000011e-06 1.3313050000000001e-05
decision_type=2 2 2 2 2 2 2 2 2 2 2 2 2 2 2 2 2 2 2 2 2 2 2 2 2 2 2 2 2 2
left_child=1 18 8 5 12 7 -7 -4 9 11 -11 13 15 -3 -15 -5 17 -17 19 21 -21 22 23 -1 26 -23 -24 -28 -27 -30
right_child=-2 2 3 4 -6 6 -8 -9 -10 10 -12 -13 -14 14 -16 16 -18 -19 -20 20 -22 25 24 -25 -26 28 27 -29 29 -31
leaf_value=7.7334435178878883e-05 -4.8099754149379963e-06 -1.6237041091456251e-05 -0.0019313534417152471 0.00054876254393711394 -0.0047921730271910856 0.0056351458065910269 -0.00042984639148926365 0.00014965505722408534 -0.0020855274954308038 -0.00061891074520130851 0.0041900948352373108 -0.0022292035049758852 -0.0024984760684067927 -0.00026705304154692666 0.0034201846934073343 -0.0010425302869060986 -0.0018482891728581309 6.852012943353556e-05 3.5736555523598593e-06 0.004170483935813536 4.3113909959445887e-05 -0.0011483054866020953 -0.0001078412857872085 0.0056493175217474344 -0.0016436572586826514 -1.0534051845635428e-05 0.0003286091651181564 0.0021032987977047347 0.0022536427287226011 -1.1800790106821241e-06
leaf_weight=30 96153 846 36 39 36 20 22 107 22 23 29 25 24 29 21 21 28 45 117638 20 57 37 117 20 22 1903 85 22 24 132
leaf_count=30 96153 846 36 39 36 20 22 107 22 23 29 25 24 29 21 21 28 45 117638 20 57 37 117 20 22 1903 85 22 24 132
internal_value=0 3.80716e-06 -0.000128115 -0.000613521 -0.00145928 0.000268814 0.00245825 -0.000374235 5.62904e-05 0.000104718 0.00206303 -5.84939e-06 -0.000695054 5.61862e-05 0.00128159 -0.000369625 -0.000750658 -0.000284996 5.31523e-06 8.82941e-05 0.00111516 5.52387e-05 0.000475449 0.00230613 0.00010336 -4.10398e-06 0.000274942 0.000693499 1.64572e-05 0.000345716
internal_weight=0 121480 1373 378 193 185 42 143 995 973 52 921 157 896 50 133 94 66 120107 2469 77 2392 296 50 246 2096 224 107 2059 156
internal_count=217633 121480 1373 378 193 185 42 143 995 973 52 921 157 896 50 133 94 66 120107 2469 77 2392 296 50 246 2096 224 107 2059 156
shrinkage=0.05


Tree=635
num_leaves=31
num_cat=0
split_feature=18 37 35 40 36 10 19 3 40 2 14 36 36 36 36 32 14 3 2 2 19 36 13 0 19 12 13 37 26 32
split_gain=0.00164888 0.0132505 0.0110789 0.0257217 0.0917115 0.169627 0.121376 0.046116 0.0297821 0.0142484 0.0131971 0.0338437 0.148482 0.0235846 0.0700531 0.116149 0.0345046 0.0300566 0.0374721 0.0252352 0.0190252 0.0139404 0.013375 0.011393 0.0274991 0.0100281 0.0177072 0.0133819 0.00960228 0.011932
threshold=-13.388899999999998 4.6270000000000016 0.0020372800000000003 -0.02750999999999992 0.2761725000000001 -1.2004249999999998e-05 -1.8123449999999999 -6.5216149999999988 -0.13697500000000049 -1.7334849999999997 4.8443000000000012e-06 -0.040859549999999939 -0.43704099999999996 0.24966499999999994 -0.079468000000000025 0.12161000000000001 2.9436800000000002e-06 -7.6539649999999995 -1.4330849999999997 -1.8915949999999997 -2.1597749999999993 -0.22452634999999985 8.0155350000000022e-06 4.7206650000000012 -0.96156149999999985 5.5700600000000008e-07 6.5238050000000013e-06 0.70899650000000014 2.0528200000000001 3.8353050000000004
decision_type=2 2 2 2 2 2 2 2 2 2 2 2 2 2 2 2 2 2 2 2 2 2 2 2 2 2 2 2 2 2
left_child=1 2 3 4 5 -1 -7 -8 9 -9 13 12 -12 14 16 -16 20 -17 -19 -15 -4 25 -21 28 -25 26 -22 -27 29 -13
right_child=-2 -3 10 -5 -6 6 7 8 -10 -11 11 23 -14 19 15 17 -18 18 -20 22 21 -23 -24 24 -26 27 -28 -29 -30 -31
leaf_value=0.0052168775477184686 -5.5624795121475361e-07 0.0011173837655016022 -0.0014496380417161467 -2.412085049015048e-05 -6.740153310487871e-05 0.0037874247303180814 0.0023453843742026951 -0.00012139972188985363 0.0015103764922241682 -0.0013490149152438301 -2.4581002822951183e-06 3.1533138091111914e-05 0.0038727188974829216 0.0017657148019809808 -0.0046375362582201287 -0.0021362652233801785 -0.0020933314005643212 0.0017122401745014249 -0.0012747178197882716 6.9008628973302017e-05 -6.1318914348514747e-05 0.00096901281983317704 -0.00074203186733277774 -0.00011583820498502895 -0.0021822455111846681 -0.001649452691563056 0.0011077485075576179 -0.00023829722523043443 -0.00095488193841274127 0.0012157756767313308
leaf_weight=24 214135 28 24 1044 364 27 20 60 20 39 122 187 31 21 24 20 22 21 21 671 323 34 55 69 21 20 36 105 21 24
leaf_count=24 214135 28 24 1044 364 27 20 60 20 39 122 187 31 21 24 20 22 21 21 671 323 34 55 69 21 20 36 105 21 24
internal_value=0 3.40515e-05 2.53099e-05 0.000122008 0.000397385 0.00128782 0.00071976 0.000123882 -0.000249479 -0.000605006 -5.72348e-05 0.000170436 0.000782708 -0.000134646 -0.000354883 -0.00168417 -0.000152191 -0.000540925 0.000218761 5.6992e-05 -7.33989e-05 -9.63492e-06 7.56617e-06 -0.000120488 -0.000598 -7.83829e-05 5.59135e-05 -0.000464082 6.47534e-05 0.000166234
internal_weight=0 3498 3470 1598 554 190 166 139 119 99 1872 475 153 1397 650 86 564 62 42 747 542 518 726 322 90 484 359 125 232 211
internal_count=217633 3498 3470 1598 554 190 166 139 119 99 1872 475 153 1397 650 86 564 62 42 747 542 518 726 322 90 484 359 125 232 211
shrinkage=0.05


Tree=636
num_leaves=31
num_cat=0
split_feature=4 15 34 39 36 36 6 36 17 36 9 22 11 2 36 18 2 5 11 33 9 33 4 17 32 0 34 39 39 29
split_gain=0.00161022 0.0122915 0.0235333 0.0730194 0.0908795 0.225127 0.100262 0.036904 0.0334322 0.0348838 0.0197174 0.0193313 0.0408517 0.0157748 0.0128637 0.166711 0.011839 0.0289986 0.0102989 0.0300506 0.0100881 0.0569668 0.00931455 0.0402232 0.0797742 0.0347861 0.0141696 0.0176823 0.0237087 0.0242159
threshold=0.24725400000000003 1.1421250000000002e-05 -0.0010865249999999999 1.0196000000000003 0.20129000000000011 0.056773999999999998 3.6997300000000003e-06 -0.19934349999999995 -1.1948249999999998 1.0000000180025095e-35 -6.7024799999999989e-05 19.280350000000002 0.00016396650000000002 -3.0795949999999999 5.6762150000000009 1.7329500000000002 2.9891800000000006 1.5738550000000005e-05 0.0056726700000000003 4.1234850000000007e-07 -0.00010809399999999999 1.6571250000000001e-07 0.23828700000000003 5.7713600000000005 -0.0053164549999999986 8.5096200000000017 -0.00042437699999999992 1.0196000000000003 -0.41630000000000006 -5.5738299999999995e-06
decision_type=2 2 2 2 2 2 2 2 2 2 2 2 2 2 2 2 2 2 2 2 2 2 2 2 2 2 2 2 2 2
left_child=22 2 3 4 5 6 7 -2 -9 -10 -5 -12 -13 -3 -15 -16 18 -18 20 -20 21 -4 -1 26 -25 -26 27 28 -24 -30
right_child=1 13 16 10 -6 -7 -8 8 9 -11 11 12 -14 14 15 -17 17 -19 19 -21 -22 -23 23 24 25 -27 -28 -29 29 -31
leaf_value=-1.7034089331591702e-06 -0.00018083989809218278 0.0010775070760460307 7.2869386699852176e-05 -0.001595153128318998 -0.00015021745299763052 0.0062291703903280329 0.0034047951654481174 2.023765967016133e-05 0.0029059959886277892 0.00047476888773962859 -8.5761592995180094e-05 0.0026883454836206513 -0.00027035847293258746 -1.4591855570813797e-06 -6.4733606001465417e-05 0.0044130271589181026 0.0022725095767236782 -4.0700280780064143e-05 7.7140436073156111e-05 0.002238736056024209 8.5223348028169221e-06 -0.0028222900642157628 -9.7487510757950389e-06 -0.0032751783798110933 -9.5666606607370578e-05 -0.0022789781099769851 -0.00015371822707008564 -5.39796016267666e-05 0.00046008614773637864 0.0025587382781460683
leaf_weight=158996 99 34 89 20 152 22 35 38 36 25 526 20 28 53505 216 23 20 42 82 20 2734 21 46 28 139 21 431 130 27 28
leaf_count=158996 99 34 89 20 152 22 35 38 36 25 526 20 28 53505 216 23 20 42 82 20 2734 21 46 28 139 21 431 130 27 28
internal_value=0 7.15295e-06 9.16111e-05 0.000301609 0.000817512 0.00139436 0.000937849 0.000501773 0.00118438 0.00190959 -5.18801e-05 1.89246e-06 0.000962435 8.56831e-07 1.75712e-07 0.000366181 2.17282e-05 0.000705496 7.33794e-06 0.000500983 -1.03666e-05 -0.000479843 -2.58591e-06 -0.000167662 -0.000813091 -0.000382226 1.56324e-05 0.000331607 0.000827906 0.00152849
internal_weight=0 57787 4009 1001 407 255 233 198 99 61 594 574 48 53778 53744 239 3008 62 2946 102 2844 110 159846 850 188 160 662 231 101 55
internal_count=217633 57787 4009 1001 407 255 233 198 99 61 594 574 48 53778 53744 239 3008 62 2946 102 2844 110 159846 850 188 160 662 231 101 55
shrinkage=0.05


Tree=637
num_leaves=31
num_cat=0
split_feature=9 16 29 17 11 16 35 36 36 21 30 10 29 29 29 3 9 29 3 33 26 22 11 23 34 39 3 34 28 36
split_gain=0.00159063 0.00766893 0.0557727 0.0666085 0.163017 0.0428442 0.0268073 0.0226145 0.0906074 0.0754167 0.0162726 0.0159443 0.0136214 0.0142102 0.012658 0.00659674 0.00628434 0.0364083 0.0615101 0.0290183 0.0107558 0.0405603 0.102745 0.0148887 0.00935976 0.0097798 0.00631296 0.0126152 0.00622197 0.0627896
threshold=-0.000119502 0.00015321200000000004 -0.00012302899999999995 -3.7927449999999996 0.0032042350000000002 0.00014657100000000002 0.12384550000000001 1.0000000180025095e-35 0.077348000000000056 0.16837900000000003 3.2423100000000002 7.2361400000000022e-05 -7.2437099999999978e-05 -5.5306449999999993e-05 -4.5759799999999988e-05 -13.897099999999998 -0.00010809399999999999 -0.00012302899999999995 -11.515449999999998 -4.2848749999999994e-06 0.0050660950000000005 0.26482700000000009 0.0020798200000000005 0.0025695650000000007 0.020214400000000004 3.4270650000000007 -14.703099999999997 -0.0038159099999999992 0.20273150000000004 -0.43704099999999996
decision_type=2 2 2 2 2 2 2 2 2 2 2 2 2 2 2 2 2 2 2 2 2 2 2 2 2 2 2 2 2 2
left_child=1 2 3 4 -1 6 7 10 9 -9 12 -10 -4 -14 -15 -5 17 18 -2 -19 -21 22 -22 24 26 -26 27 -23 -16 -30
right_child=16 -3 5 15 -6 -7 -8 8 11 -11 -12 -13 13 14 28 -17 -18 19 -20 20 21 23 -24 -25 25 -27 -28 -29 29 -31
leaf_value=-0.00042114310308534187 -0.0034882938884991405 3.9869997665576182e-06 -0.0010818024409036298 -0.00055046467150532408 0.0058862991592225937 0.0022429837534384042 -0.0016368099599882652 0.00076373866714079522 -0.0012315783377336378 0.0047547944891266529 0.0012591550039651339 0.00017499889906337723 0.0011309063366584102 -0.0011903262931256273 -4.7596334557363627e-05 0.00067906929121818403 -7.6168538371153115e-07 0.0014381597665533265 -0.00013187060420676017 1.8013043560565053e-06 -0.0044095737958559774 -0.001587397628879574 0.0001588001264281047 -0.001454475844748231 0.0014501659743837081 -7.7517328529872682e-05 -3.5175085359635289e-05 -0.00014315243179225946 -4.8488071866152698e-05 0.0028381586390120602
leaf_weight=20 21 25809 30 24 21 22 24 29 29 20 25 66 27 23 1350 20 188160 32 39 1146 20 21 32 20 20 22 303 54 183 21
leaf_count=20 21 25809 30 24 21 22 24 29 29 20 25 66 27 23 1350 20 188160 32 39 1146 20 21 32 20 20 22 303 54 183 21
internal_value=0 1.11832e-05 0.000107216 0.00135953 0.0028095 4.9646e-05 2.32347e-05 4.53318e-05 0.000646378 0.00239274 -6.83862e-06 -0.000254377 -2.62082e-05 -6.46513e-06 -2.59382e-05 8.4144e-06 -1.63387e-06 -9.64953e-05 -0.00130662 -5.30178e-05 -8.21494e-05 -0.000277693 -0.00159827 -0.000121625 -5.81564e-05 0.000649951 -0.000136835 -0.000547541 -8.70466e-06 0.000248667
internal_weight=0 27743 1934 85 41 1849 1827 1803 144 49 1659 95 1634 1604 1577 44 189890 1730 60 1670 1638 492 52 440 420 42 378 75 1554 204
internal_count=217633 27743 1934 85 41 1849 1827 1803 144 49 1659 95 1634 1604 1577 44 189890 1730 60 1670 1638 492 52 440 420 42 378 75 1554 204
shrinkage=0.05


Tree=638
num_leaves=31
num_cat=0
split_feature=16 11 17 19 19 36 11 39 3 20 25 2 25 7 7 31 19 25 35 6 10 3 36 36 9 0 20 20 16 15
split_gain=0.00157386 0.0102503 0.0235743 0.141927 0.0134805 0.0390289 0.00701416 0.0251609 0.00630666 0.01638 0.0307418 0.0494142 0.0275747 0.0260836 0.0325477 0.0177247 0.0241344 0.0185078 0.0139284 0.0165899 0.0641154 0.0787384 0.102703 0.270021 0.140363 0.0192961 0.015705 0.0537684 0.0502733 0.0797331
threshold=0.0024010250000000006 0.00029103850000000009 9.7253800000000012 -0.45388899999999993 2.5680450000000006 1.0000000180025095e-35 0.00029902350000000005 -0.086730000000000182 -13.243349999999998 -18.565349999999999 -0.25901299999999999 -0.24170749999999999 -0.18761549999999996 -6.4844149999999988e-05 -5.5880499999999995e-05 0.33249250000000002 2.6187600000000004 0.54025350000000005 0.005313420000000001 1.0907100000000001e-06 4.3872650000000008e-05 -11.394249999999998 0.86046950000000011 -0.3562499999999999 -7.4798149999999981e-05 10.442600000000001 -9.4947349999999986 -8.2950649999999992 0.0078562650000000029 -6.7236599999999979e-05
decision_type=2 2 2 2 2 2 2 2 2 2 2 2 2 2 2 2 2 2 2 2 2 2 2 2 2 2 2 2 2 2
left_child=-1 2 4 -4 -2 -6 7 -3 9 10 11 -8 -12 -14 -15 17 -17 -16 -10 20 21 22 23 -20 -25 -22 -21 28 29 -28
right_child=1 6 3 -5 5 -7 8 -9 18 -11 12 -13 13 14 15 16 -18 -19 19 26 25 -23 -24 24 -26 -27 27 -29 -30 -31
leaf_value=-2.5553750670379246e-06 2.5319482336133632e-05 -0.0019482416634711832 0.0046466895076446232 -0.00012925624750615889 4.9688985175101873e-05 0.0021158482662529776 -0.0031396244152742643 8.6215419915705832e-05 7.4086608288102731e-06 -8.3500511782225431e-06 0.0016768203486572022 -1.1831835685630463e-05 0.0012683235526341817 -0.0022005978776308307 -0.00018654286924157931 -0.0020807045841398316 0.00019342184998095036 0.0012874770885735582 0.00016962528718938058 -0.00013980590761973475 2.4566403920115367e-05 0.00019418715868316493 0.00018896711754725978 0.0024150500844587527 0.0079599820580333481 0.0012476232885312516 0.0046703044971218334 -0.00014527919971117292 0.00017046909727696404 0.00088877502127181055
leaf_weight=159885 934 21 20 70 87 31 23 55 33485 18946 20 28 29 21 665 28 20 22 52 894 1417 260 76 21 25 33 20 319 80 46
leaf_count=159885 934 21 20 70 87 31 23 55 33485 18946 20 28 29 21 665 28 20 22 52 894 1417 260 76 21 25 33 20 319 80 46
internal_value=0 7.07498e-06 0.000155384 0.000932065 8.89379e-05 0.000592494 4.08292e-06 -0.000475937 4.72827e-06 -1.80161e-05 -0.000231957 -0.0014224 -0.000156537 -0.000203247 -0.000259696 -0.000204242 -0.00113315 -0.00013934 1.6991e-05 0.000115931 0.000211979 0.00074513 0.00156838 0.00263812 0.0054286 5.24015e-05 -1.7221e-05 0.000218459 0.0010132 0.00203469
internal_weight=0 57748 1142 90 1052 118 56606 76 56530 19802 856 51 805 785 756 735 48 687 36728 3243 1884 434 174 98 46 1450 1359 465 146 66
internal_count=217633 57748 1142 90 1052 118 56606 76 56530 19802 856 51 805 785 756 735 48 687 36728 3243 1884 434 174 98 46 1450 1359 465 146 66
shrinkage=0.05


Tree=639
num_leaves=31
num_cat=0
split_feature=1 17 1 5 0 9 20 28 27 39 16 20 20 37 37 9 28 5 22 15 29 33 16 39 17 31 39 15 5 5
split_gain=0.00158069 0.0062476 0.0512975 0.0135357 0.0149449 0.00866818 0.00939953 0.00543301 0.0306183 0.215141 0.0265225 0.0431169 0.0600582 0.0454309 0.143344 0.1381 0.126355 0.118091 0.0970767 0.108798 0.186246 0.104796 0.0764334 0.0682433 0.0611459 0.048914 0.0430562 0.0633721 0.0617908 0.0417934
threshold=5.9655550000000011 -19.608449999999998 6.8996100000000009 1.1114900000000003e-05 -4.9447499999999991 -7.4584349999999995e-06 -7.4282149999999989 -0.32370999999999994 0.0011044700000000002 0.052215000000000351 8.167805000000002e-06 -9.9037999999999986 -9.8578649999999985 -0.33012499999999995 0.14791590000000002 2.9798800000000003e-05 -1.3507849999999997 1.1794800000000003e-05 3.2492400000000008 -3.4631599999999995e-06 1.1486250000000002e-05 -7.6530749999999989e-07 0.00010798250000000001 0.23546500000000006 7.1058900000000014 -0.045471099999999993 0.39187000000000044 1.0319200000000003e-05 1.3194150000000001e-05 1.7744900000000004e-05
decision_type=2 2 2 2 2 2 2 2 2 2 2 2 2 2 2 2 2 2 2 2 2 2 2 2 2 2 2 2 2 2
left_child=-1 2 -2 -4 -5 -6 -7 8 9 -3 -10 26 -13 -14 15 16 17 -15 -18 -20 21 -21 -17 25 -16 -19 27 28 -12 -25
right_child=1 7 3 4 5 6 -8 -9 10 -11 11 12 13 14 24 22 18 23 19 20 -22 -23 -24 29 -26 -27 -28 -29 -30 -31
leaf_value=-2.3804974224412094e-06 0.0019687031918619066 -0.0054246464317354087 0.001069932147352533 -0.0012350859792223351 0.00094771098338242155 0.000145157024123294 -0.00091292922621622927 1.2460923360611969e-05 0.00010853949980397621 0.00015212179737318366 0.00075111058511538435 -0.0029771377381014948 2.5644334017955385e-05 -0.002376030614868796 -6.9927668143200688e-05 -0.0060400128085166226 0.00055463709118295373 0.00097135930766605527 -0.00022173317128262068 0.0003731003523204924 -0.006920059750565863 -0.003992694358553958 -0.002203532004087056 0.0013797124694454918 0.0024828879493288699 0.00434500613482669 -1.1528882624593034e-05 -0.00045184213502258951 0.004479773680814105 -0.001306239893504729
leaf_weight=165868 37 21 22 31 20 65 31 45485 2353 98 25 21 641 32 380 20 33 22 36 27 27 28 37 28 25 21 2115 34 20 30
leaf_count=165868 37 21 22 31 20 65 31 45485 2353 98 25 21 641 32 380 20 33 22 36 27 27 28 37 28 25 21 2115 34 20 30
internal_value=0 7.62771e-06 0.000282434 -8.67487e-05 -0.000259857 7.63967e-07 -0.000196517 6.52974e-06 -3.78858e-05 -0.000832014 -2.20166e-05 -0.000107302 -0.000323245 -0.000283064 -0.000548321 -0.00130366 -0.000852873 0.000270878 -0.00184267 -0.0025131 -0.00351907 -0.00184949 -0.00354967 0.0011095 8.76535e-05 0.00261895 3.12794e-05 0.00117735 0.00240829 -9.57324e-06
internal_weight=0 51765 206 169 147 116 96 51559 6074 119 5955 3602 1408 1387 746 341 284 133 151 118 82 55 57 101 405 43 2194 79 45 58
internal_count=217633 51765 206 169 147 116 96 51559 6074 119 5955 3602 1408 1387 746 341 284 133 151 118 82 55 57 101 405 43 2194 79 45 58
shrinkage=0.05


Tree=640
num_leaves=31
num_cat=0
split_feature=28 18 39 37 37 22 20 18 29 4 37 39 1 3 37 18 37 39 20 29 33 39 2 37 37 27 37 38 12 27
split_gain=0.00159464 0.0130279 0.0597547 0.141115 0.568484 0.472784 0.296242 0.265446 0.208922 0.0716553 0.0319466 0.0232383 0.0837361 0.0226975 0.0202579 0.0208655 0.0175609 0.0166274 0.0543044 0.0167346 0.0280655 0.0149673 0.0313995 0.0143293 0.0237514 0.0142777 0.0427755 0.139307 0.0989765 0.17923
threshold=-0.12163499999999998 0.18529350000000003 -0.15760999999999911 0.27484500000000006 -0.25176499999999996 2.5401000000000002 -10.311099999999998 -1.1455399999999998 -9.7463599999999976e-06 0.92648250000000021 5.6849350000000003 0.052215000000000351 1.9322400000000004 -16.266399999999997 5.6849350000000003 -1.4816349999999998 -0.35786749999999995 0.68409500000000023 -11.621199999999998 -1.4746649999999997e-06 9.0597550000000005e-07 0.85052500000000031 1.2461500000000003 0.14791590000000002 -0.7808004999999999 0.0011509850000000002 0.22260499999999997 0.24966499999999994 -1.6870249999999996e-07 0.0011742500000000002
decision_type=2 2 2 2 2 2 2 2 2 2 2 2 2 2 2 2 2 2 2 2 2 2 2 2 2 2 2 2 2 2
left_child=1 2 3 4 16 -6 -7 8 9 -8 -5 12 -4 -13 17 -16 -1 18 -15 23 -21 22 -19 24 -20 -3 27 28 29 -27
right_child=-2 25 11 10 5 6 7 -9 -10 -11 -12 13 -14 14 15 -17 -18 21 19 20 -22 -23 -24 -25 -26 26 -28 -29 -30 -31
leaf_value=-2.6070821325179322e-05 -2.1362404962382152e-06 3.8659378714931835e-05 0.00041269495329659012 -3.9718420896066618e-05 0.01043062837838772 0.0079018803684794831 -0.00030249115250840348 -0.0020695975010214074 0.0062006939118873566 0.0033596701581369744 0.0019307411555062226 -0.0013850538945310595 -0.0027004508337995503 0.0021845774532364983 -0.0022619385691359638 -5.3513440347853166e-06 -0.0014006722127087416 8.2016342757389591e-05 0.00012163051591910931 0.0022488397831693873 -0.00028723693758365699 -1.7022672515194689e-06 -0.0024147264511793767 0.00017650024426529853 -0.0022591156171984038 -0.0054691473630373369 2.035884246259933e-05 3.0664055338123566e-05 -0.00015255316904532644 -0.00069250108960007138
leaf_weight=329 174228 14415 54 1004 21 21 34 37 32 22 21 30 36 37 20 21 25 34 22 20 24 2607 20 64 20 20 16836 5025 1468 1086
leaf_count=329 174228 14415 54 1004 21 21 34 37 32 22 21 30 36 37 20 21 25 34 22 20 24 2607 20 64 20 20 16836 5025 1468 1086
internal_value=0 8.57489e-06 8.85745e-05 0.000341224 0.00101125 0.00341592 0.00240695 0.0014838 0.00297784 0.00113622 6.5197e-07 -4.12347e-05 -0.000832563 -1.68361e-05 -2.6282e-06 -0.00110613 -0.000123147 1.32578e-05 0.000468995 4.58179e-05 0.000865525 -1.87688e-05 -0.000842703 -0.000294438 -0.00101206 -8.04733e-07 -2.40859e-05 -0.000122556 -0.000421673 -0.000778878
internal_weight=0 43405 4555 1546 521 167 146 125 88 56 1025 3009 90 2919 2889 41 354 2848 187 150 44 2661 54 106 42 38850 24435 7599 2574 1106
internal_count=217633 43405 4555 1546 521 167 146 125 88 56 1025 3009 90 2919 2889 41 354 2848 187 150 44 2661 54 106 42 38850 24435 7599 2574 1106
shrinkage=0.05


Tree=641
num_leaves=31
num_cat=0
split_feature=19 36 2 2 19 2 5 36 25 2 17 2 26 35 19 3 19 18 36 33 30 27 5 10 19 5 37 29 37 0
split_gain=0.00157639 0.0309609 0.00697498 0.0135391 0.00209594 0.138289 0.0231256 0.0357462 0.00831686 0.00626551 0.00384154 0.00269168 0.0207823 0.0322152 0.0149881 0.0515002 0.0326261 0.087884 0.043992 0.0952291 0.0449886 0.032041 0.0205281 0.0141608 0.0140833 0.012663 0.0103939 0.00722958 0.00560288 0.0158175
threshold=3.1185250000000004 -0.14969009999999991 -2.9481199999999999 -2.7279399999999994 3.0909850000000003 -2.9939399999999998 8.0350100000000025e-06 -0.12496499999999998 0.022258250000000004 -2.8220449999999997 -12.926599999999999 -2.9481199999999999 0.21193400000000004 0.010368050000000002 -3.0611199999999994 -11.042399999999999 -2.9378149999999996 0.26237100000000008 -0.027530000000000051 -1.4332649999999998e-07 0.012067850000000003 0.00070518350000000013 1.0508700000000002e-05 6.9850100000000007e-06 2.7036350000000007 1.3685250000000001e-05 0.12358499999999996 -0.00028142099999999996 0.24875600000000014 -6.8175399999999993
decision_type=2 2 2 2 2 2 2 2 2 2 2 2 2 2 2 2 2 2 2 2 2 2 2 2 2 2 2 2 2 2
left_child=4 2 -2 -4 11 -6 -7 8 9 -8 -11 12 14 -14 15 -1 17 18 19 -16 -20 25 -17 -24 27 -22 -18 -15 29 -28
right_child=1 -3 3 -5 5 6 7 -9 -10 10 -12 -13 13 24 16 22 26 -19 20 -21 21 -23 23 -25 -26 -27 28 -29 -30 -31
leaf_value=0.0028599580364971188 -0.00075268491256734243 -0.0019648921750818511 0.0012642010564864645 -2.4322429848546496e-05 0.0040852885341293929 -0.0013868907035066514 0.00083810343152105238 0.0019696181774792342 -0.00074244230569232839 -0.00052188405598927704 8.6422788407601889e-06 8.2082989156318199e-07 -0.0019528296856579426 -0.00049632015876823615 -0.00031444453704170883 -0.0012028573240002061 0.00087020090885583641 0.0021468911543488503 -0.0021304587860192571 -0.0049433270860754427 0.00095396353141647219 -0.0015499371306591288 0.0015876041252340656 -0.00029394033161224799 -0.0014327204678834062 -0.00034246791469594166 -5.0083167582059803e-05 0.00029324866586584518 6.5330746304188443e-07 -0.0016371816150058294
leaf_weight=20 31 21 21 698 21 30 22 23 39 36 654 210902 34 49 25 24 34 25 35 20 48 27 20 20 21 31 73 71 4538 20
leaf_count=20 31 21 21 698 21 30 22 23 39 36 654 210902 34 49 25 24 34 25 35 20 48 27 20 20 21 31 73 71 4538 20
internal_value=0 -7.13681e-05 -1.83494e-05 1.33118e-05 2.53732e-07 7.97973e-05 -2.48237e-05 2.79696e-05 -3.1495e-05 7.44733e-06 -1.90374e-05 -5.00285e-08 -3.58175e-05 -0.000571328 -1.69234e-05 0.000645284 -2.83315e-05 -0.000636474 -0.00101058 -0.00237173 -0.000576175 -6.29675e-05 -4.68016e-05 0.000646832 -0.0002382 0.000445237 -8.24901e-07 -2.91586e-05 -7.21982e-06 -0.000391395
internal_weight=0 771 750 719 216862 825 804 774 751 712 690 216037 5135 175 4960 84 4876 211 186 45 141 106 64 40 141 79 4665 120 4631 93
internal_count=217633 771 750 719 216862 825 804 774 751 712 690 216037 5135 175 4960 84 4876 211 186 45 141 106 64 40 141 79 4665 120 4631 93
shrinkage=0.05


Tree=642
num_leaves=31
num_cat=0
split_feature=6 39 39 29 36 36 12 17 10 2 16 1 25 17 19 28 36 25 19 2 28 36 36 15 36 36 25 4 20 2
split_gain=0.00154396 0.00685809 0.0323053 0.0637391 0.0608847 0.104192 0.324583 0.0646453 0.11227 0.165854 0.0484686 0.0515302 0.0741841 0.0464853 0.0703751 0.0679938 0.0952467 0.0415008 0.0409167 0.0374787 0.033555 0.0283878 0.219183 0.371638 0.066828 0.138907 0.0720129 0.0814661 0.0237429 0.0223452
threshold=2.8692150000000002e-06 0.64319500000000052 -0.19603999999999996 3.6365400000000005e-06 -0.12496499999999998 -0.040859549999999939 6.6406850000000019e-08 8.3060300000000016 -1.7032199999999996e-05 -0.43964599999999993 1.7135300000000002e-05 12.027950000000002 0.01034495 -6.9007099999999992 2.5680450000000006 -0.077820299999999995 0.02582950000000005 0.038127450000000007 1.4914700000000003 -2.7703699999999993 0.14272600000000002 -0.027530000000000051 -0.12496499999999998 -7.2388349999999985e-08 0.056773999999999998 0.12375499999999996 -0.0083738649999999977 -0.14777649999999995 -16.542649999999998 -0.87238249999999995
decision_type=2 2 2 2 2 2 2 2 2 2 2 2 2 2 2 2 2 2 2 2 2 2 2 2 2 2 2 2 2 2
left_child=-1 2 28 10 -5 6 -6 13 9 -9 18 19 -13 15 17 16 -7 29 -4 -12 -10 22 -21 -24 26 -26 -23 -28 -2 -15
right_child=1 -3 3 4 5 7 -8 8 20 -11 11 12 -14 14 -16 -17 -18 -19 -20 21 -22 24 23 -25 25 -27 27 -29 -30 -31
leaf_value=-2.2715107127217281e-06 0.0014742403121932436 -6.169157157135868e-06 0.00042461006531766546 -9.6938579729080306e-05 0.0069530473463237296 0.00043215439654886723 -0.00076102419445912047 0.0050599617479094427 0.0008628491062292157 0.00047765359970071587 0.0016937247279918558 0.00030888931569712612 -0.0039460431308543783 0.00094823977401412268 -0.0027780967601574958 0.00042187515068454329 0.0045562704757945282 -0.0019502732889777907 0.0033075266324158292 -4.5197397025287444e-05 -0.0015942527200725938 0.003547402428230271 -0.0071300326581594763 0.0014879372669383884 -0.0032201146732618591 1.3372156532687267e-05 -0.0026386686039040798 0.00062108831629352013 -9.998548352651404e-06 0.00016587879383740494
leaf_weight=168587 27 31463 32 403 25 28 30 39 33 40 33 21 20 112 20 135 28 21 20 922 24 20 29 22 34 1437 20 460 13055 493
leaf_count=168587 27 31463 32 403 25 28 30 39 33 40 33 21 20 112 20 135 28 21 20 922 24 20 29 22 34 1437 20 460 13055 493
internal_value=0 7.80792e-06 3.28185e-05 0.000148361 0.000423954 0.000628156 0.00274537 0.000508478 0.00151953 0.00273981 1.99009e-05 -6.17707e-06 -0.00176669 0.000344196 0.000141584 0.00102947 0.00249421 0.000234865 0.00153342 1.80691e-05 -0.00017172 -7.13701e-07 -0.000221694 -0.00341248 0.000108375 -6.13651e-05 0.000607751 0.000485265 -6.93522e-06 0.000310713
internal_weight=0 49046 17583 4501 1431 1028 55 973 136 79 3070 3018 41 837 646 191 56 626 52 2977 57 2944 973 51 1971 1471 500 480 13082 605
internal_count=217633 49046 17583 4501 1431 1028 55 973 136 79 3070 3018 41 837 646 191 56 626 52 2977 57 2944 973 51 1971 1471 500 480 13082 605
shrinkage=0.05


Tree=643
num_leaves=31
num_cat=0
split_feature=40 20 16 8 1 0 29 2 17 17 6 29 26 36 37 37 6 39 6 40 6 32 6 37 29 36 20 2 36 14
split_gain=0.00158323 0.00861241 0.142362 0.162878 0.0475204 0.0810803 0.0993003 0.047556 0.0540994 0.0536437 0.0474342 0.0619724 0.0469345 0.0527848 0.259497 0.111193 0.196038 0.152467 0.133121 0.102335 0.0954107 0.0530957 0.0428195 0.0371884 0.0225753 0.0198747 0.0198337 0.0478588 0.105151 0.0214027
threshold=-1.6465599999999998 -15.921249999999999 4.2063200000000008e-08 3.1709050000000001e-05 4.2601300000000011 0.96588400000000008 -1.9094999999999996e-05 -2.8691749999999998 -3.6376949999999995 -6.9945499999999994 -1.1991399999999997e-06 -1.9094999999999996e-05 0.14443800000000004 0.12375499999999996 -0.057539999999999918 0.12358499999999996 2.4885350000000003e-06 -0.82558500000000012 -1.2331049999999998e-06 -0.64641000000000026 1.8853450000000003e-07 -0.0025086999999999996 3.1919750000000004e-07 0.29985500000000015 -3.9040499999999993e-05 0.30085850000000008 -15.687599999999998 1.8439650000000001 0.077348000000000056 -1.7471999999999995e-05
decision_type=2 2 2 2 2 2 2 2 2 2 2 2 2 2 2 2 2 2 2 2 2 2 2 2 2 2 2 2 2 2
left_child=-1 2 3 10 7 -6 -7 8 -4 -9 -2 -12 13 14 -11 16 17 -16 -19 20 -20 22 -21 -17 -23 -15 27 29 -29 -3
right_child=1 26 4 -5 5 6 -8 9 -10 12 11 -13 -14 25 15 23 -18 18 19 21 -22 24 -24 -25 -26 -27 -28 28 -30 -31
leaf_value=4.8174380429490754e-06 -0.0012180490874806825 0.0010940933585288804 -0.003057196376146749 0.0050988129856956096 -0.00015785635352191335 -0.004358887072684693 9.5829979281089359e-05 0.0026048839331699793 -2.9517794751478104e-05 0.0048243137265671981 0.0035732632696939015 -7.8660744587138591e-05 -0.0016655326831015475 -0.0014327349390441668 0.004097135541295367 -0.0017355602004756341 0.005010300172984393 0.0039735949069092218 0.00012800058152956457 -0.0038817270263098187 0.0040849112635478382 -0.001704665611296977 -0.00064908055016227697 -0.00012505132969862205 1.6620249706148303e-05 -0.00014808406214765124 -4.471325318286528e-06 -0.0046433692166465337 -7.4382991988386501e-05 -0.00031288838118629872
leaf_weight=95618 23 32 25 29 166 29 22 22 36 32 21 26 36 32 28 39 27 22 39 20 25 22 21 443 142 509 119919 20 34 174
leaf_count=95618 23 32 25 29 166 29 22 22 36 32 21 26 36 32 28 39 27 22 39 20 25 22 21 443 142 509 119919 20 34 174
internal_value=0 -3.77522e-06 0.000103699 0.00194792 -1.41207e-06 -0.000693565 -0.00243724 9.74019e-05 -0.00127037 0.000154588 0.000642546 0.00155305 0.000117074 0.00016288 0.000406299 0.000235555 0.000919434 0.000573185 0.00023411 -7.17212e-05 0.00167367 -0.000616623 -0.00222598 -0.000255362 -0.000214284 -0.000224071 -5.41713e-06 -0.000441646 -0.0017666 -9.43281e-05
internal_weight=0 122015 1836 99 1737 217 51 1520 61 1459 70 47 1437 1401 860 828 346 319 291 269 64 205 41 482 164 541 120179 260 54 206
internal_count=217633 122015 1836 99 1737 217 51 1520 61 1459 70 47 1437 1401 860 828 346 319 291 269 64 205 41 482 164 541 120179 260 54 206
shrinkage=0.05


Tree=644
num_leaves=31
num_cat=0
split_feature=4 34 4 36 37 22 37 29 37 15 39 14 6 22 39 39 15 39 10 10 35 40 14 12 3 5 36 4 27 18
split_gain=0.00163787 0.0165436 0.072452 0.0765508 0.34906 0.202675 0.170483 0.221738 0.21054 0.209775 0.206987 0.196837 0.232327 0.162105 0.149763 0.216893 0.167868 0.135521 0.124361 0.123121 0.11355 0.0855022 0.106695 0.0741513 0.0694339 0.0820162 0.0663654 0.0566535 0.0693488 0.0504584
threshold=0.19669200000000001 -0.00084016849999999992 0.79460700000000006 -0.19934349999999995 -0.15132349999999997 29.284250000000004 -0.057539999999999918 -3.4237299999999992e-05 0.017850000000000036 1.0319200000000003e-05 -0.19603999999999996 7.7830150000000009e-06 6.3193550000000007e-07 2.2291500000000002 0.8945249999999999 -0.71725499999999964 1.3181750000000001e-05 -0.82558500000000012 3.8976100000000001e-05 3.081705000000001e-05 0.0005469880000000001 -0.52047500000000058 1.0466200000000002e-06 -4.4303949999999996e-06 -12.423099999999998 9.9471450000000032e-06 5.6762150000000009 0.53444550000000013 0.0040086650000000007 8.1649450000000012
decision_type=2 2 2 2 2 2 2 2 2 2 2 2 2 2 2 2 2 2 2 2 2 2 2 2 2 2 2 2 2 2
left_child=-1 2 3 -2 26 6 7 19 17 10 -10 12 18 -14 15 -9 -17 -8 27 -6 -12 -20 -23 -19 25 -25 29 28 -11 -5
right_child=1 -3 -4 4 5 -7 8 14 9 11 20 -13 13 -15 -16 16 -18 23 21 -21 -22 22 -24 24 -26 -27 -28 -29 -30 -31
leaf_value=-2.7662606536890947e-06 -3.1562636017154369e-05 -8.4411283493436004e-06 -2.9130258248481062e-05 -9.8670016625305979e-05 -0.0022206885806683985 -0.002960760506140369 0.0031341023063042057 0.00066596961987670518 0.0073244174873387377 -4.9958076204347891e-05 0.0013666088252724271 -0.0033240111748455096 0.0072447815065970651 0.0021563809244091519 0.00081814089423493932 0.010408424683846534 0.0047228427169643148 -0.0021813980862498287 0.0051770006284641568 0.0023894143936922779 0.0052778322990052404 -0.00094594641216099264 0.0038884375998306841 -0.0024938449016190137 0.00061331326122279805 4.445545053939619e-05 0.0026572155481477712 0.0015657950116100871 -0.0029942061156034471 0.00089690076422172112
leaf_weight=154710 2363 46490 10487 2223 28 31 38 20 27 100 72 24 24 45 27 20 37 35 20 30 25 25 21 44 331 115 23 38 25 135
leaf_count=154710 2363 46490 10487 2223 28 31 38 20 27 100 72 24 24 45 27 20 37 35 20 30 25 25 21 44 331 115 23 38 25 135
internal_value=0 6.80146e-06 4.99237e-05 0.000189352 0.000335045 0.00102963 0.00113527 0.0026409 0.000893529 0.00170501 0.00345243 0.00103209 0.00138292 0.00392626 0.00402234 0.00514588 0.00671778 0.000250687 0.000616584 0.000163847 0.00237466 0.00244771 0.00126105 4.19828e-05 0.000200796 -0.000657967 -1.5601e-05 -0.000124851 -0.000638808 -4.16717e-05
internal_weight=0 62923 16433 5946 3583 1202 1171 162 1009 446 124 322 298 69 104 77 57 563 229 58 97 66 46 525 490 159 2381 163 125 2358
internal_count=217633 62923 16433 5946 3583 1202 1171 162 1009 446 124 322 298 69 104 77 57 563 229 58 97 66 46 525 490 159 2381 163 125 2358
shrinkage=0.05


Tree=645
num_leaves=31
num_cat=0
split_feature=40 30 36 11 18 1 28 34 4 20 4 29 15 12 20 23 0 14 15 20 28 18 28 1 2 16 22 28 28 1
split_gain=0.00169837 0.00829548 0.00741666 0.00782049 0.00573724 0.00994414 0.0160214 0.00833705 0.0541886 0.256882 0.0512381 0.0441324 0.0305809 0.0530847 0.012244 0.010959 0.0363755 0.0106771 0.00920232 0.00754288 0.01698 0.0117686 0.00923008 0.0262322 0.00688216 0.00839266 0.0106459 0.00685411 0.00609246 0.0127735
threshold=2.4429550000000004 18.825800000000005 -0.12496499999999998 0.0090263400000000025 14.999250000000002 1.0868900000000001 -5.551709999999999 0.08967940000000002 -1.2205099999999998 -12.040949999999999 -1.8861499999999998 -6.6390649999999984e-05 -0.00025226399999999993 -3.9387549999999988e-06 -10.914099999999999 -0.062701649999999984 3.0384450000000007 -6.4438349999999989e-07 -3.6458549999999993e-05 -13.504999999999997 -1.5525049999999998 -6.1725999999999992 -0.46902799999999994 0.72012600000000015 -2.4013349999999996 0.00057209200000000006 38.031000000000013 1.1329200000000001 -1.7584249999999997 2.4449600000000005
decision_type=2 2 2 2 2 2 2 2 2 2 2 2 2 2 2 2 2 2 2 2 2 2 2 2 2 2 2 2 2 2
left_child=-1 4 -3 -4 7 24 -7 15 9 -9 -11 -10 13 -13 18 16 -2 -16 -14 20 -17 -22 23 -23 -6 26 -26 -24 29 -21
right_child=1 2 3 -5 5 6 -8 8 11 10 -12 12 14 -15 17 19 -18 -19 -20 28 21 22 27 -25 25 -27 -28 -29 -30 -31
leaf_value=-2.3344355402964778e-06 -0.00012908847872237329 0.00010292280228519492 -0.00024849842229741627 -0.0015671137548254237 -0.00048248729891173968 -0.0014225050527516836 -0.00022928761632129568 0.00506268012667856 -0.0022013298145042346 -0.0001587004789047106 0.0021869834597088847 -0.00036167142018464146 -0.001527499164949404 0.003197533856437076 0.0011643381652538666 0.0012808613560628148 0.0019200907217509667 -9.8993288491521459e-06 -0.00032838981625445742 2.861386521555214e-05 -0.0013624856244340274 0.00012136527355323779 -0.00014507488244150829 -0.0022163763362914326 0.00014843666081228673 -3.4367293121163353e-05 0.0015373517671832815 0.00062975863439836154 1.1630645056061165e-05 -0.00038608156870505265
leaf_weight=170115 67 29 22 23 52 34 163 31 23 169 27 22 20 20 20 20 32 604 80 490 21 30 587 20 37 155 22 30 44369 299
leaf_count=170115 67 29 22 23 52 34 163 31 23 169 27 22 20 20 20 20 32 604 80 490 21 30 587 20 37 155 22 30 44369 299
internal_value=0 8.35731e-06 -0.000520619 -0.000922457 9.18237e-06 -0.000165964 -0.000435224 1.09084e-05 0.00015258 0.000833354 0.000164429 -4.3283e-05 2.15148e-05 0.00133319 -5.45768e-05 7.77698e-06 0.000533272 2.77365e-05 -0.000568212 6.64271e-06 -0.000155293 -0.000197042 -0.000160349 -0.000813731 3.34497e-05 0.000158818 0.000666337 -0.000107401 9.1816e-06 -0.000128539
internal_weight=0 47518 74 45 47444 463 197 46981 1016 227 196 789 766 42 724 45965 99 624 100 45866 708 688 667 50 266 214 59 617 45158 789
internal_count=217633 47518 74 45 47444 463 197 46981 1016 227 196 789 766 42 724 45965 99 624 100 45866 708 688 667 50 266 214 59 617 45158 789
shrinkage=0.05


Tree=646
num_leaves=31
num_cat=0
split_feature=40 3 6 3 32 20 16 10 8 1 0 29 19 0 26 36 37 6 8 6 35 8 35 36 6 8 11 17 28 16
split_gain=0.00165965 0.00843581 0.0525361 0.00997276 0.0162565 0.0077484 0.128595 0.156102 0.0664751 0.042594 0.0730713 0.0894478 0.0425221 0.0841763 0.0482924 0.0778641 0.203577 0.226408 0.247653 0.12706 0.129518 0.123619 0.0530217 0.0420638 0.0360432 0.0358539 0.0317373 0.072463 0.0194827 0.0247174
threshold=-1.6465599999999998 -18.305499999999995 1.0000000180025095e-35 -17.495099999999997 0.0013930150000000003 -15.921249999999999 4.2063200000000008e-08 8.055315000000001e-05 3.1709050000000001e-05 4.2601300000000011 0.96588400000000008 -1.9094999999999996e-05 -2.7551599999999996 -4.302014999999999 -0.0041005749999999995 0.12375499999999996 0.22260499999999997 8.9452500000000013e-07 2.6827800000000004e-05 -1.1060999999999997e-06 0.00067619600000000011 1.0226700000000002e-05 4.6016000000000008e-05 0.327845 -8.643949999999999e-07 1.2745350000000003e-05 0.0035378750000000007 5.3893600000000008 -0.54512899999999986 0.0010528750000000002
decision_type=2 2 2 2 2 2 2 2 2 2 2 2 2 2 2 2 2 2 2 2 2 2 2 2 2 2 2 2 2 2
left_child=1 2 -1 4 -3 6 7 8 24 12 -11 -12 13 -8 26 16 17 19 -19 -16 21 -21 -23 -17 -2 -24 27 -14 29 -28
right_child=5 3 -4 -5 -6 -7 9 -9 -10 10 11 -13 14 -15 15 23 -18 18 -20 20 -22 22 25 -25 -26 -27 28 -29 -30 -31
leaf_value=-0.0010549849817401819 -0.0016294761982546492 0.00019317248000086032 0.0024817630687418088 4.9636674851817175e-06 -0.0017517250850297779 -5.4226302108472562e-06 -0.0035465760413227031 0.0055652711867878683 0.0031886433910888936 -0.00014855526260252661 -0.0041362601510000199 9.1687471881000832e-05 -5.800731107835115e-05 -0.00014120074192443247 0.0046720127601557497 -0.0023160161365329101 -9.4043255034434618e-05 0.0090844147567016378 0.0016493782509011607 0.004794906112656463 -0.0031421579048037532 -0.00063237882406191111 3.1030957540100317e-05 -6.9244228083482903e-05 0.00094895216922547356 0.0026368903814617435 0.0013026773561893895 0.0031500834743264541 -0.00040590063391901434 -0.00031926010005091404
leaf_weight=21 23 22 21 95533 21 120179 23 22 21 166 29 22 75 86 22 23 272 21 24 20 20 52 22 221 33 33 41 23 487 55
leaf_count=21 23 22 21 95533 21 120179 23 22 21 166 29 22 75 86 22 23 272 21 24 20 20 52 22 221 33 33 41 23 487 55
internal_value=0 4.93233e-06 0.000713389 4.62101e-06 -0.000756661 -3.86526e-06 9.80754e-05 0.00185086 0.000789597 -1.82417e-06 -0.000657118 -0.00231244 9.17276e-05 -0.000859766 0.000165231 0.000447757 0.000813649 0.00196735 0.00511906 0.00112814 0.000597764 0.00118673 0.000512302 -0.00028103 -0.000110045 0.00159455 -0.000137624 0.000694912 -0.00027757 0.000373442
internal_weight=0 95618 42 95576 43 122015 1836 99 77 1737 217 51 1520 109 1411 730 486 214 45 169 147 127 107 244 56 55 681 98 583 96
internal_count=217633 95618 42 95576 43 122015 1836 99 77 1737 217 51 1520 109 1411 730 486 214 45 169 147 127 107 244 56 55 681 98 583 96
shrinkage=0.05


Tree=647
num_leaves=31
num_cat=0
split_feature=10 16 26 16 9 28 10 11 21 10 32 12 32 16 22 8 32 5 3 22 18 27 35 21 3 16 20 34 8 26
split_gain=0.00171577 0.00605578 0.00539672 0.00797931 0.0117829 0.00708652 0.0328326 0.0449877 0.00483484 0.0205497 0.0115825 0.00434144 0.00377736 0.0790604 0.0127018 0.0097541 0.00752459 0.020312 0.00557431 0.00381199 0.00357488 0.00403767 0.0122772 0.0640752 0.0113331 0.0186145 0.0154925 0.00670944 0.00595188 0.0138005
threshold=0.00014699600000000001 1.2683350000000002e-07 2.0528200000000001 0.010140600000000001 -0.00027218349999999996 20.036400000000004 0.00033872700000000009 0.024100050000000001 -2.2419299999999995 0.00030062600000000007 -2.2564299999999995 2.5395100000000004e-05 -0.43959349999999991 0.00074690950000000009 10.229550000000001 1.4337500000000001e-05 -0.30938449999999995 1.2523200000000001e-05 -15.732949999999999 26.434800000000003 18.392150000000004 0.011099350000000003 0.0078118450000000004 -0.62980599999999998 -16.870699999999996 0.00043921550000000008 -15.479399999999998 -0.16268899999999997 0.00016952850000000004 -0.28811899999999996
decision_type=2 2 2 2 2 2 2 2 2 2 2 2 2 2 2 2 2 2 2 2 2 2 2 2 2 2 2 2 2 2
left_child=-1 -2 5 4 -4 8 7 -7 9 -3 -10 -8 13 -12 -15 -16 17 -14 -17 -19 21 27 23 -23 26 -26 -24 -18 -27 -30
right_child=1 2 3 -5 -6 6 11 -9 10 -11 12 -13 16 14 15 18 20 19 -20 -21 -22 22 24 -25 25 28 -28 -29 29 -31
leaf_value=-2.0182955598124946e-06 0.00070830919862454461 0.0017694378158921609 -0.0016998875522403979 7.5878875971587456e-05 -0.00027183017318748169 -0.00015887578425463289 0.00016413247338622005 0.003154603896352152 -0.0011945185321383157 -0.00017784497266845956 0.0031484828895935674 -0.00059676300052639202 -0.0016490582199767214 0.001239768507075496 -0.00098793498266856587 -0.00054784417708219734 -0.00075467420954674746 4.5911990184891933e-05 7.4683036498325334e-05 -0.0007108982915451634 -0.00030430832125453132 0.0030026568130944562 -0.0016333584671171951 0.0001155931269402955 0.0013960012850685209 2.979944766990077e-05 -0.00010709203634178266 6.1734805589167093e-06 0.0015656553556774662 -7.3979071153602993e-05
leaf_weight=180357 31 20 20 72 52 20 37 21 20 42 21 38 25 20 26 40 29 99 356 20 91 22 23 152 26 1574 60 34265 21 33
leaf_count=180357 31 20 20 72 52 20 37 21 20 42 21 38 25 20 26 40 29 99 356 20 91 22 23 152 26 1574 60 34265 21 33
internal_value=0 9.76536e-06 9.18395e-06 -0.000296317 -0.000668513 1.03697e-05 0.000400561 0.00153827 9.14589e-06 0.000450311 8.4051e-06 -0.000221388 9.05704e-06 0.000150973 8.55759e-06 -4.97936e-05 7.25388e-06 -0.000353466 1.18015e-05 -8.1283e-05 8.68499e-06 9.47169e-06 8.0206e-05 0.000480624 4.0095e-05 6.87048e-05 -0.000530033 5.53009e-06 4.75072e-05 0.000563657
internal_weight=0 37276 37245 144 72 37101 116 41 36985 62 36923 75 36903 463 442 422 36440 144 396 119 36296 36205 1911 174 1737 1654 83 34294 1628 54
internal_count=217633 37276 37245 144 72 37101 116 41 36985 62 36923 75 36903 463 442 422 36440 144 396 119 36296 36205 1911 174 1737 1654 83 34294 1628 54
shrinkage=0.05


Tree=648
num_leaves=31
num_cat=0
split_feature=37 37 16 5 7 18 19 0 10 18 18 17 29 35 19 18 1 32 30 16 5 13 18 18 7 19 17 37 19 12
split_gain=0.00169349 0.0284553 0.145817 0.0824653 0.105693 0.129679 0.377112 0.168134 0.153165 0.317884 0.132571 0.102456 0.0955434 0.142808 0.095206 0.0918822 0.117991 0.08754 0.320047 0.0802513 0.0798731 0.0778306 0.0773197 0.0725645 0.155696 0.0710016 0.0698386 0.0681731 0.203694 0.0832487
threshold=-0.15132349999999997 -0.016969000000000036 1.1921100000000003e-10 2.2914500000000002e-05 -2.2727799999999999e-05 -6.705449999999999 -2.6066699999999998 -4.0528699999999995 -3.5841599999999997e-06 -0.43273099999999992 2.6109550000000001 -12.188449999999998 -0.00020540699999999998 0.025835650000000005 -2.5336099999999995 0.83929300000000018 1.8486 -0.0028220599999999995 0.22523850000000004 2.4206700000000003e-05 2.0813300000000003e-05 -4.2042099999999992e-07 -2.3555799999999993 11.881850000000002 -5.7527499999999993e-06 -2.9623449999999996 -7.3314749999999984 -0.026150000000000003 2.0027750000000002 1.3231850000000003e-06
decision_type=2 2 2 2 2 2 2 2 2 2 2 2 2 2 2 2 2 2 2 2 2 2 2 2 2 2 2 2 2 2
left_child=-1 2 -2 4 5 6 -4 8 9 -7 -9 -11 13 -6 -14 16 -13 18 -10 -15 -17 -20 25 27 -25 -19 -8 -5 29 -29
right_child=1 -3 3 23 12 7 26 10 17 11 -12 15 14 19 -16 20 -18 22 21 -21 -22 -23 -24 24 -26 -27 -28 28 -30 -31
leaf_value=4.7918047498289731e-06 -0.004083185488074694 1.6622772366991174e-06 0.0069370163427986981 -0.00024131600595000513 -0.0049916339311748747 0.005958748562469347 -0.0018208277290026533 0.0048670234393177782 -0.0064028051765894316 0.0037642039403594525 0.0001741582052394127 0.00018321186452622304 -0.0035365737478787202 0.001617327082931297 -7.6758561480375716e-05 -0.00026626126560619183 0.0051043994433712216 0.0028292708034213221 0.002473571122138073 -0.0025753881693595933 0.002789669633341913 -0.0013924004746756207 -0.00083156062215730502 -0.0050454900353752935 0.00016358681832571165 0.00012371401411992108 0.0012816209412145933 0.000508711810085943 -0.0057203011192462367 -0.0024647993386704712
leaf_weight=99817 23 111756 29 1146 25 28 26 34 27 22 27 29 20 25 3421 304 21 27 23 21 23 30 246 26 32 238 60 68 23 36
leaf_count=99817 23 111756 29 1146 25 28 26 34 27 22 27 29 20 25 3421 304 21 27 23 21 23 30 246 26 32 238 60 68 23 36
internal_value=0 -4.05975e-06 -0.000109583 -9.44442e-05 3.83417e-06 0.000410224 0.00200634 0.000240109 8.73248e-05 0.000808857 0.00278985 0.000447461 -0.000134329 -0.00194987 -9.68679e-05 0.000253911 0.00225011 -0.000433985 -0.00197195 -0.000296739 -5.13181e-05 0.000285285 -0.000193209 -0.000441926 -0.00217152 0.000399375 0.000343671 -0.000363123 -0.00146226 -0.000520581
internal_weight=0 117816 6060 6037 4706 1194 115 1079 1018 427 61 399 3512 71 3441 377 50 591 80 46 327 53 511 1331 58 265 86 1273 127 104
internal_count=217633 117816 6060 6037 4706 1194 115 1079 1018 427 61 399 3512 71 3441 377 50 591 80 46 327 53 511 1331 58 265 86 1273 127 104
shrinkage=0.05


Tree=649
num_leaves=31
num_cat=0
split_feature=14 26 9 29 14 17 3 21 14 39 39 39 36 1 10 7 17 23 14 21 29 18 29 29 26 4 26 15 21 14
split_gain=0.00165565 0.00566926 0.0366681 0.00719256 0.0223189 0.0131176 0.0118766 0.00895102 0.0596465 0.0332035 0.0539619 0.0229075 0.0305089 0.0505902 0.0216252 0.0142095 0.0078102 0.00608646 0.00529393 0.0228422 0.025947 0.0123743 0.00771552 0.00726549 0.00526096 0.0196246 0.00812155 0.0285417 0.00622585 0.0135685
threshold=2.5901300000000006e-05 -2.4419499999999998 0.00024596600000000008 -0.00090391799999999997 4.7046700000000012e-05 4.1736500000000012 -14.389699999999999 1.2323400000000002 2.9982650000000003e-05 -0.66712000000000005 -1.7757399999999997 4.2289650000000005 -0.25142799999999998 0.80539150000000015 -4.083924999999999e-05 -3.5921449999999995e-05 14.554100000000002 -0.0019040299999999999 2.3892950000000003e-05 0.47318500000000002 -6.9762949999999992e-06 -12.050999999999998 8.2405400000000009e-05 -0.00037994999999999994 -1.2159399999999998 3.0771300000000004 -0.78911549999999997 0.00061356150000000016 0.54950250000000012 2.7688750000000005e-05
decision_type=2 2 2 2 2 2 2 2 2 2 2 2 2 2 2 2 2 2 2 2 2 2 2 2 2 2 2 2 2 2
left_child=18 2 -2 4 -3 6 -6 24 -9 10 15 12 -11 -14 -13 -10 -7 -17 -1 21 23 -20 -23 -21 25 -5 27 -26 -28 -30
right_child=1 3 -4 7 5 16 -8 8 9 11 -12 14 13 -15 -16 17 -18 -19 19 20 -22 22 -24 -25 26 -27 28 -29 29 -31
leaf_value=-1.2101436687154683e-06 -0.00019793259723045278 -0.0015230126887364615 0.0016932031191471551 -0.0015223264792719139 -0.0012293045471111934 0.0010896907058321954 -6.4712684730626216e-05 0.0027840726365949112 0.0012672334640956252 0.00012953113615367327 0.0028169211561012513 0.0014899862943566404 -0.003649147147662006 -0.00030426643497776244 -0.00013511526693085304 -0.00086026991670951243 -8.5398979528970533e-05 0.00025447314947086853 0.0011226229756589007 -0.0011517655702482444 -0.0025038064682303234 -4.6927548225747994e-05 -0.00084010203418074527 4.9239906237583938e-05 0.0021491172579408157 0.00016556232947942929 1.3647182714868128e-05 -1.4818441047736997e-05 -0.0010184027153866881 -6.3043406758214512e-05
leaf_weight=185584 89 31 36 26 30 31 81 22 20 40 26 25 20 26 113 25 26 24 22 20 20 732 32 34 20 51 28633 64 38 1692
leaf_count=185584 89 31 36 26 30 31 81 22 20 40 26 25 20 26 113 25 26 24 22 20 20 732 32 34 20 51 28633 64 38 1692
internal_value=0 1.06626e-05 0.000346714 9.31039e-06 -0.000290323 -6.28621e-05 -0.000379467 1.12422e-05 0.000265994 9.2333e-05 0.000875634 -0.000239871 -0.000880379 -0.00175856 0.000159287 0.000144134 0.000553685 -0.000314273 -1.78368e-06 -0.000125551 -0.000965369 -4.64841e-05 -8.01495e-05 -0.000395577 8.39628e-06 -0.000404374 9.44017e-06 0.000500404 8.08191e-06 -8.40282e-05
internal_weight=0 31189 125 31064 199 168 111 30865 341 319 95 224 86 46 138 69 57 49 186444 860 74 786 764 54 30524 77 30447 84 30363 1730
internal_count=217633 31189 125 31064 199 168 111 30865 341 319 95 224 86 46 138 69 57 49 186444 860 74 786 764 54 30524 77 30447 84 30363 1730
shrinkage=0.05


Tree=650
num_leaves=31
num_cat=0
split_feature=1 17 1 14 10 28 32 39 5 13 18 32 18 4 3 3 36 1 25 30 8 13 3 31 13 32 28 13 4 8
split_gain=0.00162941 0.0059174 0.0464378 0.0127599 0.0217393 0.0100267 0.00512007 0.0157457 0.0356049 0.0281998 0.0194831 0.0106233 0.0291408 0.184783 0.0162293 0.0380111 0.0276159 0.0161778 0.0120097 0.0423519 0.117722 0.0261255 0.0648846 0.12454 0.0646101 0.0926421 0.0481296 0.0446705 0.0547706 0.0377556
threshold=5.9655550000000011 -19.608449999999998 6.8996100000000009 3.1554400000000004e-07 -1.0713149999999999e-05 0.56648000000000021 -0.60180299999999987 2.84389 1.1571150000000002e-05 -4.2565349999999989e-06 4.2802450000000007 -0.055004599999999994 12.159000000000001 -0.20992299999999997 -11.746199999999998 -11.456749999999998 0.327845 6.039975000000001 0.051198250000000008 0.069860150000000024 3.1349550000000005e-05 5.2573900000000008e-06 -9.5166249999999977 -0.060375999999999992 2.5770550000000005e-06 0.10225450000000001 -0.46902799999999994 1.8237450000000004e-06 0.28079350000000008 1.4859000000000003e-05
decision_type=2 2 2 2 2 2 2 2 2 2 2 2 2 2 2 2 2 2 2 2 2 2 2 2 2 2 2 2 2 2
left_child=-1 2 -2 4 -4 -5 7 8 -3 -10 -11 12 14 -14 16 -16 -8 -17 -13 20 -20 24 23 -23 27 -26 29 28 -21 -24
right_child=1 6 3 5 -6 -7 11 -9 9 10 -12 18 13 -15 15 17 -18 -19 19 21 -22 22 26 -25 25 -27 -28 -29 -30 -31
leaf_value=-2.4169038669586261e-06 0.0018795977384355421 -0.0020749572470776913 0.0017172298143123045 -0.0015351761042852147 -9.4824251781725865e-05 -0.0001394682452589604 -0.0022498099625863689 -2.6950998450865685e-06 0.0011219461985941355 -3.4276908581887259e-05 -0.0017924188598184489 1.0105627753465447e-05 0.0043804121487482917 -0.00047813809562984928 0.0021238096473414616 0.0012505398347174975 6.7463279207105299e-05 6.0362705258077391e-05 -0.0041033064654228566 -4.613667492520016e-05 0.0010745657243855281 0.0036936000315248609 -0.00266555241538299 -0.00017534945531084447 0.00020385541724358015 0.0035797179783306401 -0.0028528063659678084 -0.0016109050271148188 0.0022615910505499833 -0.00043697838214458174
leaf_weight=165868 37 32 20 22 96 31 20 454 30 40 26 45851 28 65 23 29 36 1848 23 2313 21 26 20 104 63 30 24 45 26 382
leaf_count=165868 37 32 20 22 96 31 20 454 30 40 26 45851 28 65 23 29 36 1848 23 2313 21 26 20 104 63 30 24 45 26 382
internal_value=0 7.74436e-06 0.00027519 -7.60705e-05 0.000217599 -0.000718819 6.67581e-06 -0.000140787 -0.00063058 -0.000149121 -0.000726878 8.35937e-06 0.000119897 0.000984651 7.87812e-05 0.000103507 -0.000760134 7.87512e-05 3.68842e-06 -9.19357e-05 -0.00163205 -6.95931e-05 -0.000379329 0.00059844 -6.82509e-08 0.00129284 -0.000677709 -5.05048e-05 -2.04843e-05 -0.000547853
internal_weight=0 51765 206 169 116 53 51559 582 128 96 66 50977 2049 93 1956 1900 56 1877 48928 3077 44 3033 556 130 2477 93 426 2384 2339 402
internal_count=217633 51765 206 169 116 53 51559 582 128 96 66 50977 2049 93 1956 1900 56 1877 48928 3077 44 3033 556 130 2477 93 426 2384 2339 402
shrinkage=0.05


Tree=651
num_leaves=31
num_cat=0
split_feature=29 36 3 39 2 4 15 39 4 4 4 0 36 18 39 36 36 18 17 36 8 8 14 25 2 11 2 36 39 36
split_gain=0.00164257 0.013586 0.00996638 0.019776 0.0807023 0.0398624 0.145119 0.0613199 0.103408 0.0620119 0.013741 0.0134148 0.0257931 0.0109709 0.0560642 0.114518 0.268838 0.271754 0.0930251 0.131327 0.115763 0.0485533 0.0342764 0.0262811 0.0352279 0.0196355 0.0588472 0.195009 0.0341555 0.0888177
threshold=1.3939150000000002e-05 5.6762150000000009 -8.6206849999999999 -0.32314999999999999 -2.8220449999999997 -0.27873999999999993 -3.6458549999999993e-05 -0.88227999999999918 -1.5265699999999998 -1.2205099999999998 -2.1602949999999992 8.9117650000000008 0.327845 6.1622250000000012 0.43278000000000022 -0.46506469999999994 -0.040859549999999939 8.2873200000000011 -4.0797899999999991 0.30085850000000008 3.1005150000000009e-05 4.6860650000000007e-05 9.9652500000000017e-07 0.69707500000000011 1.1973950000000002 0.0026646500000000006 2.1355600000000003 0.2761725000000001 -0.88227999999999918 -0.51801999999999981
decision_type=2 2 2 2 2 2 2 2 2 2 2 2 2 2 2 2 2 2 2 2 2 2 2 2 2 2 2 2 2 2
left_child=-1 2 13 4 -4 6 7 9 -9 10 -6 -7 -13 -2 23 -16 17 22 20 -20 -18 -21 -17 25 -25 26 -15 -28 -27 -30
right_child=1 -3 3 -5 5 11 -8 8 -10 -11 -12 12 -14 14 15 16 18 -19 19 21 -22 -23 -24 24 -26 28 27 -29 29 -31
leaf_value=2.1000832707398567e-06 -4.621919150590409e-05 -0.00078038110734045762 0.0026794347744064661 6.1213387111249006e-06 -0.00019950891431948594 1.2258012357111982e-05 0.0037634435551684546 -1.255748398458915e-05 0.0035438452583489823 -0.0025321510565218292 0.0012676183052099078 -0.0019471357883082453 -2.9348368814680728e-05 -5.5160597799534233e-05 -2.6103472259653222e-05 -4.2086263736406266e-05 0.0049566030793357641 0.00736802778424575 -0.0029654505425194084 -0.00013574389309175627 -0.00029937420593507177 0.002592652363232033 0.0026590526332559723 -0.00021621595067631031 -0.0023838358588269834 -3.7859894041349746e-05 -0.005558218003517885 -4.2493076308978668e-05 -3.7534270668893938e-05 0.0030816337609642442
leaf_weight=176401 17675 57 33 20669 79 451 33 60 31 29 20 27 50 377 461 23 20 31 38 63 22 22 24 53 29 667 22 59 74 33
leaf_count=176401 17675 57 33 20669 79 451 33 60 31 29 20 27 50 377 461 23 20 31 38 63 22 22 24 53 29 667 22 59 74 33
internal_value=0 -8.98469e-06 -7.91682e-06 1.56359e-05 0.000257525 0.00015506 0.000672453 0.000206687 0.00119896 -0.00049876 9.68804e-05 -9.18783e-05 -0.000701819 -3.36091e-05 7.68381e-05 0.000436889 0.00131524 0.00373408 0.000171789 -0.000521956 0.00220347 0.000570429 0.00133722 -0.000116066 -0.000982813 -5.83763e-05 -0.000317868 -0.00154059 9.51729e-05 0.000924452
internal_weight=0 41232 41175 21482 813 780 252 219 91 128 99 528 77 19693 2018 704 243 78 165 123 42 85 47 1314 82 1232 458 81 774 107
internal_count=217633 41232 41175 21482 813 780 252 219 91 128 99 528 77 19693 2018 704 243 78 165 123 42 85 47 1314 82 1232 458 81 774 107
shrinkage=0.05


Tree=652
num_leaves=31
num_cat=0
split_feature=40 40 32 16 23 36 36 20 16 8 8 36 36 36 37 27 23 19 20 12 12 13 31 11 26 9 14 4 31 36
split_gain=0.00169584 0.0169371 0.0573741 0.0775339 0.0701253 0.0636585 0.194574 0.0510357 0.0604349 0.0691323 0.131253 0.0630543 0.186781 0.0855611 0.249768 0.0802602 0.0596943 0.0721972 0.0519669 0.0484112 0.0571302 0.0600562 0.0465264 0.0744808 0.0360942 0.0993618 0.153313 0.193332 0.46276 0.533858
threshold=0.81788000000000027 0.23534999999999953 -0.17249249999999997 1.1921100000000003e-10 5.7240900000000003e-05 -0.30278099999999991 0.43531000000000003 -12.877249999999998 0.0030314700000000005 1.4525850000000001e-05 1.3179250000000001e-05 -0.19934349999999995 -0.040859549999999939 0.20129000000000011 -0.057539999999999918 0.00030796200000000006 0.0033062250000000007 3.0016000000000003 -12.7784 -6.4763899999999986e-07 -1.5416449999999997e-05 5.5858500000000015e-07 -0.014707899999999998 0.0064150250000000004 0.0078171450000000028 -1.3707349999999998e-05 -4.5397049999999996e-08 0.10590100000000001 0.0017192650000000002 0.12375499999999996
decision_type=2 2 2 2 2 2 2 2 2 2 2 2 2 2 2 2 2 2 2 2 2 2 2 2 2 2 2 2 2 2
left_child=1 -1 5 4 -4 -3 -7 8 11 10 -10 -5 -13 14 -14 -16 18 19 -9 20 -18 -22 23 -11 -20 26 -26 28 29 -28
right_child=-2 2 3 7 -6 6 -8 16 9 22 -12 12 13 -15 15 -17 17 -19 24 -21 21 -23 -24 -25 25 -27 27 -29 -30 -31
leaf_value=1.5807027415496861e-06 6.4380940050968984e-06 -0.0002068115798181963 -0.0037705951524845596 -0.00011386048231003568 8.1849524784567102e-05 0.0050433957669883973 0.00012517791542524692 -0.0026164082889971771 0.00027269662384372039 0.0038572192608262411 -0.0050306552183610621 0.0053030474974851442 0.0067278221882952488 -0.00019011649844612424 0.0034931649428630329 0.00028124921749593572 6.2850921545355565e-05 0.0034779594544124847 -7.5045273412046933e-05 -6.0507838825468763e-05 0.00050872505467850718 0.0041531258196090886 -0.00013780007126638024 1.1881679572123926e-05 0.00036361174669621317 2.2025407062863875e-05 -0.006998347519076656 -0.00028557063988841571 -0.00029736406159207464 -0.00030516104052367158
leaf_weight=137825 69582 77 27 177 21 30 61 21 28 20 20 24 20 140 23 126 45 20 6954 201 20 26 360 34 229 937 76 303 157 49
leaf_count=137825 69582 77 27 177 21 30 61 21 28 20 20 24 20 140 23 126 45 20 6954 201 20 26 360 34 229 937 76 303 157 49
internal_value=0 -3.02582e-06 -6.5112e-05 -8.04185e-05 -0.00208515 0.000851269 0.00174657 -7.08054e-05 0.00027346 -0.000140773 -0.00193703 0.000648706 0.00105403 0.000724014 0.00148128 0.000777048 -0.00010783 0.000571735 -0.000132128 0.000372678 0.0013295 0.0025686 6.74887e-05 0.00143608 -0.000126135 -0.000329033 -0.000733138 -0.00116246 -0.00210466 -0.00437462
internal_weight=0 148051 10226 10058 48 168 91 10010 972 462 48 510 333 309 169 149 9038 312 8726 292 91 46 414 54 8705 1751 814 585 282 125
internal_count=217633 148051 10226 10058 48 168 91 10010 972 462 48 510 333 309 169 149 9038 312 8726 292 91 46 414 54 8705 1751 814 585 282 125
shrinkage=0.05


Tree=653
num_leaves=31
num_cat=0
split_feature=32 16 7 8 7 0 32 36 10 17 14 7 2 21 13 13 36 4 4 5 13 6 1 3 16 11 7 9 11 14
split_gain=0.00167266 0.0181661 0.054962 0.0156043 0.0318348 0.0506427 0.0400997 0.0661248 0.0315562 0.0430653 0.0527029 0.0286367 0.0270469 0.0827062 0.0182237 0.0604082 0.103081 0.0367508 0.050679 0.107316 0.0551712 0.0486147 0.0377523 0.0275524 0.0208151 0.0250782 0.0189138 0.0310891 0.0261245 0.0222116
threshold=-0.14294799999999999 1.7763850000000003e-10 -1.1728849999999997e-05 2.9944150000000004e-05 -1.7830049999999997e-05 -2.3470699999999995 -0.17249249999999997 0.12375499999999996 -4.9573549999999992e-05 -4.4743249999999994 4.8443000000000012e-06 -1.9182199999999997e-05 -2.0335249999999996 0.77580800000000016 -2.9678699999999998e-05 -4.7504049999999995e-05 0.039429999999999972 -0.63310749999999982 -0.88881949999999998 1.1853100000000002e-05 -1.8546649999999996e-05 -5.9885399999999989e-07 1.0000000180025095e-35 -17.304849999999998 0.00074690950000000009 0.0090263400000000025 2.7158350000000004e-05 0.00021904350000000002 0.0017362250000000003 -8.1349849999999988e-07
decision_type=2 2 2 2 2 2 2 2 2 2 2 2 2 2 2 2 2 2 2 2 2 2 2 2 2 2 2 2 2 2
left_child=1 2 -1 4 5 6 8 -8 -3 10 11 -10 13 -6 15 23 -17 18 20 -20 -16 -21 -22 -14 25 -25 27 29 -28 -19
right_child=-2 3 -4 -5 12 -7 7 -9 9 -11 -12 -13 14 -15 17 16 -18 26 19 21 22 -23 -24 24 -26 -27 28 -29 -30 -31
leaf_value=0.0029766047439807155 7.9637523635836637e-07 0.0015460821215528995 -0.00027668461149693839 3.5452367903145176e-05 -0.00038154300952252624 -0.0025267135531196671 -0.002908453880347126 0.00022212608281763332 -0.00016698095350409112 0.00010595418642278083 -0.0026651638820433567 -0.0022142925839580131 0.0012737745750966594 0.0034525289829947397 -0.0024728646631326859 0.0038111242299080535 -0.00072760689434455187 0.0013232306548161433 -0.0049327258679841184 -0.0021901060696109197 -0.00025397625352388027 0.0012961062741851494 0.0020365062612836484 -0.00013356767524563674 3.2214869460135067e-05 -0.002402358426548918 -0.00017577501273571838 0.0019114036271015982 -0.0020113225200848969 -4.9926421847588155e-05
leaf_weight=20 210679 25 37 3849 39 28 37 31 117 277 34 20 38 22 26 29 22 30 20 20 179 20 20 29 247 21 63 21 28 1605
leaf_count=20 210679 25 37 3849 39 28 37 31 117 277 34 20 38 22 26 29 22 30 20 20 179 20 20 29 247 21 63 21 28 1605
internal_value=0 -2.41271e-05 0.00086482 -3.14737e-05 -0.000115988 -0.000453272 -0.000345959 -0.00148128 -0.000182742 -0.000279216 -0.000903147 -0.000465859 -3.85715e-05 0.00100124 -6.48032e-05 0.000250137 0.00185324 -0.000124629 -0.00065109 -0.00194224 -0.000306783 -0.000447 -2.3777e-05 6.08214e-06 -0.000156114 -0.00108646 -3.87443e-05 -1.78449e-07 -0.000740559 -2.47309e-05
internal_weight=0 6954 57 6897 3048 569 541 68 473 448 171 137 2479 61 2418 386 51 2032 285 60 225 40 199 335 297 50 1747 1656 91 1635
internal_count=217633 6954 57 6897 3048 569 541 68 473 448 171 137 2479 61 2418 386 51 2032 285 60 225 40 199 335 297 50 1747 1656 91 1635
shrinkage=0.05


Tree=654
num_leaves=31
num_cat=0
split_feature=5 32 39 20 15 14 28 39 36 36 17 18 39 29 36 36 1 36 10 7 13 35 12 31 29 13 3 14 36 1
split_gain=0.00161191 0.00930549 0.0208212 0.0279664 0.0276315 0.0487803 0.0534042 0.0908954 0.104233 0.128344 0.194722 0.143606 0.118391 0.0512834 0.0457244 0.245766 0.281331 0.219652 0.145214 0.162659 0.162333 0.137354 0.129727 0.376585 0.123112 0.105054 0.0894357 0.109875 0.0746275 0.054621
threshold=1.5738550000000005e-05 -0.025848749999999997 3.3691350000000004 -9.0544499999999974 1.1421250000000002e-05 3.8906650000000017e-06 0.56648000000000021 2.5222350000000002 0.40779500000000007 -0.32870999999999989 4.8193800000000007 -2.6213749999999996 0.27381999999999979 -3.3145549999999993e-05 0.40779500000000007 -0.058960000000000005 -6.5414749999999993 0.12375499999999996 3.162045000000001e-05 2.2819750000000005e-05 -8.6326249999999977e-06 0.013816900000000002 4.4044100000000007e-07 0.098593250000000007 3.3301250000000009e-05 -1.7618249999999997e-07 -14.703099999999997 -4.4627499999999989e-06 0.10022550000000004 5.8907250000000007
decision_type=2 2 2 2 2 2 2 2 2 2 2 2 2 2 2 2 2 2 2 2 2 2 2 2 2 2 2 2 2 2
left_child=1 2 4 -4 14 6 -6 8 9 -8 11 12 13 -11 15 -1 17 -17 20 21 -18 26 23 25 -24 29 -20 -28 -27 -22
right_child=-2 -3 3 -5 5 -7 7 -9 -10 10 -12 -13 -14 -15 -16 16 18 -19 19 -21 22 -23 24 -25 -26 28 27 -29 -30 -31
leaf_value=-6.8309689124981186e-05 -4.4320343556579399e-06 8.2869198504095057e-06 3.1890999270469344e-05 0.0017442991117301672 -0.00012554295085032035 -0.00015803270393319836 -0.00025396407792944352 -0.0022319534316747672 -0.00018233203375226975 -0.0024665470793843272 0.007308801393955947 0.0056845262018032378 0.0035539053162210624 0.00078094260623460762 2.2776623542004461e-05 -0.0089349268004298207 -0.0052916080539164674 -0.0017858277860134629 -0.0017166595661922569 -0.0031686927471309898 0.0022787809688577846 0.0048273311250589118 -0.0022874101882778288 -0.0070215835482910424 0.002505768749019685 -0.00473736058454962 -0.00085822689972701492 0.0042623452695228154 -0.00096401408212075607 -0.00074009633615552907
leaf_weight=1599 105604 103605 3647 24 210 800 48 21 90 20 20 20 28 31 1469 21 28 22 31 25 29 22 21 30 37 20 20 22 38 31
leaf_count=1599 105604 103605 3647 24 210 800 48 21 90 20 20 20 28 31 1469 21 28 22 31 25 29 22 21 30 37 20 20 22 38 31
internal_value=0 4.17785e-06 -4.63587e-05 4.30863e-05 -0.000115442 8.22926e-05 0.000476268 0.000930874 0.00118932 0.00192853 0.00280886 0.00189978 0.000941616 -0.000492583 -0.000188943 -0.000344763 -0.00145824 -0.00527725 -0.000994345 0.000419788 -0.00171954 0.00136413 -0.00123402 -0.0020195 0.000770307 -0.00074778 0.000320419 0.00182398 -0.00226517 0.000719028
internal_weight=0 112029 8424 3671 4753 1288 488 278 257 167 119 99 79 51 3465 1996 397 43 354 120 234 95 206 148 58 118 73 42 58 60
internal_count=217633 112029 8424 3671 4753 1288 488 278 257 167 119 99 79 51 3465 1996 397 43 354 120 234 95 206 148 58 118 73 42 58 60
shrinkage=0.05


Tree=655
num_leaves=31
num_cat=0
split_feature=25 18 39 37 36 39 22 11 28 22 39 11 36 39 34 17 36 39 36 2 21 17 37 36 5 27 37 36 18 11
split_gain=0.00166324 0.00879332 0.05103 0.121598 0.495816 0.244665 0.179387 0.10892 0.0790932 0.122144 0.0318193 0.0836167 0.0284301 0.017414 0.0492815 0.0259783 0.0165695 0.0157192 0.0263379 0.0126458 0.0447585 0.0123567 0.0114763 0.0187598 0.0114605 0.0106158 0.031438 0.143573 0.290535 0.158276
threshold=0.015480150000000002 -0.25801749999999996 -0.15760999999999911 0.27484500000000006 0.24966499999999994 -5.5958699999999988 6.6944750000000006 0.00062372550000000006 -1.3507849999999997 32.859550000000006 0.10586500000000011 0.00030683250000000005 -5.6825599999999996 0.68409500000000023 0.14170100000000002 9.3032900000000023 0.354709 0.85052500000000031 -0.54531499999999988 -2.9192849999999999 0.60591150000000005 -11.463149999999997 0.35345999999999994 -0.43704099999999996 1.3024650000000002e-05 0.0011509850000000002 0.12358499999999996 0.10022550000000004 2.9920850000000008 9.3239650000000011e-05
decision_type=2 2 2 2 2 2 2 2 2 2 2 2 2 2 2 2 2 2 2 2 2 2 2 2 2 2 2 2 2 2
left_child=-1 2 3 4 5 -2 -7 -8 9 -9 11 -4 -12 14 15 21 -6 18 -15 20 -5 -14 -21 -24 -13 26 27 28 -3 -30
right_child=1 25 10 19 16 6 7 8 -10 -11 12 24 13 17 -16 -17 -18 -19 -20 22 -22 -23 23 -25 -26 -27 -28 -29 29 -31
leaf_value=-1.9748961694840983e-06 -0.00069625546332515245 0.0054865437227817893 -0.003439922340621706 0.0025520784486070627 -0.001437703556571664 0.008262060925364495 0.00031970427704176738 0.0080611487249067689 0.0018454586940060838 0.0028396331809095242 -0.0016057991952818287 -0.00089905240625375883 -0.0011603652018820868 3.6916967624635837e-05 0.0028279394737910479 0.0015754970164450174 -1.3895142385957888e-05 -1.8996108699567704e-05 -0.0023216311027272241 -0.0010828180552030413 -0.00071610132502180268 0.0001150606345526043 -5.4155712928624297e-05 0.0014594014964088621 0.00045306408777984571 -1.5904259997387984e-05 -1.3045850274038965e-05 -1.0082592278022526e-05 -0.001817316007768419 0.00086686907704350594
leaf_weight=180738 28 32 25 20 22 25 21 24 20 21 28 25 25 29 20 26 287 1944 20 26 22 79 815 21 42 24020 6492 2124 61 551
leaf_count=180738 28 32 25 20 22 25 21 24 20 21 28 25 25 29 20 26 287 1944 20 26 22 79 815 21 42 24020 6492 2124 61 551
internal_value=0 9.67445e-06 8.37373e-05 0.00032678 0.00100036 0.00348043 0.004534 0.00345027 0.00446168 0.00562444 -6.14654e-05 -0.000972236 -2.28699e-05 -2.18763e-06 0.000517349 0.000161874 -0.000115267 -4.12897e-05 -0.000925756 -7.03031e-06 0.000840175 -0.000191532 -4.83094e-05 -1.61357e-05 -5.1457e-05 1.62946e-06 4.71111e-05 0.000188202 0.000842171 0.000599328
internal_weight=0 36895 3615 1352 448 139 111 86 65 45 2263 92 2171 2143 150 130 309 1993 49 904 42 104 862 836 67 33280 9260 2768 644 612
internal_count=217633 36895 3615 1352 448 139 111 86 65 45 2263 92 2171 2143 150 130 309 1993 49 904 42 104 862 836 67 33280 9260 2768 644 612
shrinkage=0.05


Tree=656
num_leaves=31
num_cat=0
split_feature=10 28 8 3 39 25 8 1 26 16 0 23 28 17 3 29 16 6 16 16 20 8 11 20 28 20 20 35 27 29
split_gain=0.0015984 0.00464124 0.0536637 0.0138677 0.0114184 0.00496427 0.0148951 0.00584143 0.0048426 0.0232795 0.0141723 0.00706477 0.00595857 0.00879636 0.00467229 0.00442815 0.0301019 0.0104749 0.0123322 0.0081076 0.0858124 0.00565943 0.0037203 0.0334006 0.00572093 0.00496293 0.00593242 0.00844917 0.00508628 0.00821275
threshold=0.00020297300000000004 20.036400000000004 2.0928800000000005e-05 -11.586999999999998 4.2289650000000005 -0.48753549999999996 1.8512400000000006e-05 4.3945300000000005 -0.28811899999999996 0.0016856000000000002 9.313150000000002 -0.062701649999999984 5.9680600000000004 0.10183770000000002 -15.732949999999999 -0.00020540699999999998 0.0017507150000000001 -2.4799399999999996e-06 0.015646000000000004 0.00057209200000000006 -16.036999999999995 1.7819450000000001e-05 0.064174350000000005 -19.078199999999999 1.7034250000000002 -18.143749999999997 -15.0604 0.00019707500000000003 0.011952750000000002 3.1155900000000011e-05
decision_type=2 2 2 2 2 2 2 2 2 2 2 2 2 2 2 2 2 2 2 2 2 2 2 2 2 2 2 2 2 2
left_child=22 5 -3 -4 -5 6 7 -2 9 -7 11 -11 15 -14 -8 16 -10 18 -18 20 -17 -19 -1 -24 25 -25 27 -27 29 -28
right_child=1 2 3 4 -6 8 14 -9 12 10 -12 -13 13 -15 -16 19 17 21 -20 -21 -22 -23 23 24 -26 26 28 -29 -30 -31
leaf_value=-1.3733481845388264e-06 -0.0014045585915300762 0.0026805878343293447 -0.0010169721332204064 0.0011796115008606152 -0.00023855392261793893 0.001457662428515505 -0.00065797865390777594 -0.00034544420157781925 -0.0020041216609700185 -0.00078830453820410192 0.0012986683689118566 6.835185205886774e-05 0.0013255195253198812 -0.00013965319390990772 3.1101675599356335e-06 0.0032727204785425617 0.0015070879252743908 -0.00078104773435226996 9.4671792666143608e-05 7.5940904737711722e-06 -3.9428428027060202e-05 -0.00011745651722776529 -0.0020838825777207688 0.00074783716339879905 -0.00086616730917566688 -0.00011597938075367915 1.4631280693950923e-05 -0.0013599152209826573 0.00078525149863708068 -0.00102041697336972
leaf_weight=184833 30 20 32 22 40 32 29 23 21 25 23 645 21 20 341 22 20 38 68 30320 176 208 21 20 21 43 459 20 20 20
leaf_count=184833 30 20 32 22 40 32 29 23 21 25 23 645 21 20 341 22 20 38 68 30320 176 208 21 20 21 43 459 20 20 20
internal_value=0 1.02874e-05 0.000328754 -0.000171636 0.000264666 9.15505e-06 -0.000160999 -0.000944943 1.14299e-05 0.000139164 7.8281e-05 3.63871e-05 8.43431e-06 0.000610801 -4.87049e-05 7.63435e-06 -0.000167938 -5.2489e-05 0.000415675 9.67669e-06 0.000328588 -0.000219962 -1.78482e-06 -0.000123666 -5.53992e-05 -2.61447e-05 -5.36886e-05 -0.00051088 4.03296e-06 -2.85858e-05
internal_weight=0 32176 114 94 62 32062 423 53 31639 725 693 670 30914 41 370 30873 355 334 88 30518 198 246 185457 624 603 582 562 63 499 479
internal_count=217633 32176 114 94 62 32062 423 53 31639 725 693 670 30914 41 370 30873 355 334 88 30518 198 246 185457 624 603 582 562 63 499 479
shrinkage=0.05


Tree=657
num_leaves=31
num_cat=0
split_feature=20 14 31 15 32 1 14 21 3 36 11 11 34 4 39 3 23 9 21 39 39 17 1 13 17 11 8 6 21 23
split_gain=0.00158603 0.00684236 0.0186874 0.0403853 0.0163981 0.10489 0.0226069 0.0114906 0.0384109 0.0798377 0.00995875 0.0111312 0.022874 0.0110461 0.0212408 0.0397361 0.00972208 0.0103264 0.00949322 0.00773944 0.0111165 0.00698088 0.0101898 0.0114659 0.0093156 0.0710617 0.00580219 0.0176221 0.0451352 0.0138282
threshold=-6.3564549999999995 4.6606600000000007e-08 0.96084200000000008 -6.2009649999999988e-06 -0.0013312399999999998 11.042450000000001 7.0275550000000009e-08 -0.55552099999999982 -8.1461699999999979 0.2761725000000001 3.8595600000000007e-05 0.00015957750000000003 0.0034638500000000005 0.05656205000000001 0.10586500000000011 -6.4469949999999994 -0.062701649999999984 8.6507750000000016e-05 -0.087437399999999985 -0.026199999999999776 -0.465335 -16.050999999999998 4.5221550000000006 1.5560450000000002e-06 -12.926599999999999 4.7039800000000003e-05 7.4769000000000015e-05 -1.4992549999999998e-05 0.17307150000000002 0.00041767050000000009
decision_type=2 2 2 2 2 2 2 2 2 2 2 2 2 2 2 2 2 2 2 2 2 2 2 2 2 2 2 2 2 2
left_child=-1 2 7 -4 5 6 -3 8 16 -10 -9 12 13 18 15 -15 -2 -18 19 20 -12 22 -6 -24 25 -23 27 28 -26 -28
right_child=1 4 3 -5 21 -7 -8 10 9 -11 11 -13 -14 14 -16 -17 17 -19 -20 -21 -22 24 23 -25 26 -27 29 -29 -30 -31
leaf_value=-1.1186753344253449e-06 -0.00099301197132198077 -0.0017404179317600209 -0.00017689567452034032 0.0027648704889907099 -4.3462069889857151e-05 -0.0034604711094871165 -9.1970773191309445e-06 -0.00095510594722145485 0.0030142264308880033 -0.00012954405007368897 8.7619469259489396e-05 1.073759745375978e-05 0.0019006424935651012 0.00013131435308980967 1.672127116208962e-05 0.0028105178632540631 -0.00026326260293982079 0.001040084085235278 -6.333635557358428e-05 0.0001171745949709925 0.0014465504093095661 0.0031758159724995499 -0.00031173445874396006 -0.0016948138262428668 3.7422141534719873e-05 4.7060910876042527e-05 -3.7545946220615953e-05 1.3496340603549878e-05 0.0028179778659523438 -0.00057276187589254564
leaf_weight=203645 28 20 28 20 144 25 330 25 36 46 27 3523 20 31 69 25 55 21 353 91 34 20 43 23 54 196 1138 7408 20 135
leaf_count=203645 28 20 28 20 144 25 330 25 36 46 27 3523 20 31 69 25 55 21 353 91 34 20 43 23 54 196 1138 7408 20 135
internal_value=0 1.62863e-05 6.76354e-05 0.00104884 -7.52905e-06 -0.000331614 -0.000108124 5.68923e-05 0.000441458 0.00125065 3.98535e-05 4.58142e-05 0.000235929 0.000183081 0.0006039 0.00132739 -0.000196558 9.68727e-05 7.8918e-05 0.000409285 0.000845056 5.70826e-06 -0.000279256 -0.000793717 1.23789e-05 0.00033676 4.37591e-06 2.11656e-05 0.000788924 -9.43049e-05
internal_weight=0 13988 4432 48 9556 375 350 4384 186 82 4198 4173 650 630 125 56 104 76 505 152 61 9181 210 66 8971 216 8755 7482 74 1273
internal_count=217633 13988 4432 48 9556 375 350 4384 186 82 4198 4173 650 630 125 56 104 76 505 152 61 9181 210 66 8971 216 8755 7482 74 1273
shrinkage=0.05


Tree=658
num_leaves=31
num_cat=0
split_feature=36 36 9 9 8 18 9 16 17 9 39 6 39 21 5 8 4 35 8 9 9 20 0 17 17 11 39 25 23 11
split_gain=0.00161179 0.0396532 0.115476 0.258642 0.27179 0.227114 0.203581 0.2019 0.18334 0.116512 0.135597 0.244102 0.168225 0.108778 0.119812 0.126623 0.119348 0.119282 0.216217 0.321017 0.26812 0.252442 0.263145 0.177042 0.310321 0.373486 0.236343 0.17444 0.170786 0.169495
threshold=0.10022550000000004 0.02582950000000005 -2.0367299999999997e-05 -1.4144999999999999e-05 2.9944150000000004e-05 5.0477900000000009 -2.1646949999999998e-05 2.8823200000000004e-07 -10.268199999999998 -3.9555399999999991e-05 0.93421999999999994 2.4885350000000003e-06 -0.27803499999999998 0.60591150000000005 1.8784800000000004e-05 6.0385400000000006e-05 -0.11971949999999999 8.1434900000000019e-06 2.1416250000000004e-05 0.00012039000000000002 0.00010408000000000001 -6.8508799999999992 3.9279950000000006 7.1058900000000014 6.2570500000000004 0.00048506450000000007 -0.465335 0.010025000000000001 -0.00014606299999999996 8.7909250000000019e-05
decision_type=2 2 2 2 2 2 2 2 2 2 2 2 2 2 2 2 2 2 2 2 2 2 2 2 2 2 2 2 2 2
left_child=1 -1 6 4 5 7 9 -4 -5 -3 11 12 -11 17 16 -16 -15 28 19 -19 21 23 -23 24 26 -26 -20 29 -10 -25
right_child=-2 2 3 8 -6 -7 -8 -9 13 10 -12 -13 -14 14 15 -17 -18 18 20 -21 -22 22 -24 27 25 -27 -28 -29 -30 -31
leaf_value=1.0786726740174551e-06 4.5992843669652139e-06 -0.00015418824397959408 -0.0061583807728311513 0.0038633540393439706 -0.00038645331296038426 -0.0091557338117854679 0.0049089952551066357 0.00020124125025736597 -0.0050567620752024764 -0.00060417930926402589 -0.00058814987989598165 0.0060178751021559389 0.0026588176676260802 -0.0037501145146645446 -0.0067803200695198034 -0.001153986666467972 0.00044925348720425973 0.00072698321014675986 0.0043466267121807 0.0072240348579362046 -0.0018481320912966444 -0.0073867533530574299 -0.00089377209070322274 -0.00052468836248198598 -0.00040826534022926354 -0.0089734991450677627 0.00010285140868094264 -0.00058980344838346357 -0.00058098119111561449 0.0040823500479746149
leaf_weight=112619 101579 789 24 27 80 20 23 26 22 79 87 29 79 23 20 20 64 385 36 20 223 20 71 26 35 20 370 48 683 86
leaf_count=112619 101579 789 24 27 80 20 23 26 22 79 87 29 79 23 20 20 64 385 36 20 223 20 71 26 35 20 370 48 683 86
internal_value=0 -4.02563e-06 -0.000171374 -0.000368492 -0.00237733 -0.00465262 0.000254989 -0.00285138 -0.000231463 0.000154291 0.00104258 0.00180126 0.00102732 -0.000282366 -0.00170226 -0.00396715 -0.000660924 -0.000194187 8.27962e-05 0.00104783 -0.000335211 0.000138639 -0.0023208 0.00049904 1.67964e-06 -0.0035229 0.000479147 0.00193206 -0.000720651 0.00301286
internal_weight=0 116054 3435 2349 150 70 1086 50 2199 1063 274 187 158 2172 127 40 87 2045 1340 405 935 712 91 621 461 55 406 160 705 112
internal_count=217633 116054 3435 2349 150 70 1086 50 2199 1063 274 187 158 2172 127 40 87 2045 1340 405 935 712 91 621 461 55 406 160 705 112
shrinkage=0.05


Tree=659
num_leaves=31
num_cat=0
split_feature=14 33 14 22 12 36 11 19 37 35 5 29 19 9 34 35 0 36 37 33 3 30 11 20 27 18 13 10 30 37
split_gain=0.00162352 0.00739383 0.037851 0.0139041 0.014776 0.00794134 0.00546619 0.0202769 0.117521 0.136414 0.0100878 0.0393666 0.00821539 0.0350712 0.00819021 0.0222926 0.00573054 0.00540188 0.0423005 0.0383326 0.044451 0.100077 0.0362948 0.0426333 0.0340751 0.0315751 0.0408605 0.0391932 0.0225952 0.0213232
threshold=2.5901300000000006e-05 -6.2538149999999987e-05 5.7099050000000007e-05 44.542100000000012 6.7475600000000015e-05 -0.17527649999999997 0.0024307550000000006 2.7036350000000007 0.12358499999999996 7.4540950000000013e-05 8.7409800000000018e-06 1.0156750000000002e-05 2.4917950000000002 -0.00010809399999999999 -0.0008031274999999999 1.1178100000000002e-05 14.717250000000002 0.43531000000000003 0.24875600000000014 -1.1844749999999999e-05 -17.069699999999997 0.59297050000000018 0.2963320000000001 -11.167499999999999 0.0021377100000000006 8.2873200000000011 -3.4970049999999996e-06 0.00015586950000000003 0.39206000000000002 0.27484500000000006
decision_type=2 2 2 2 2 2 2 2 2 2 2 2 2 2 2 2 2 2 2 2 2 2 2 2 2 2 2 2 2 2
left_child=-1 2 -2 4 -4 -5 7 10 9 -9 11 -3 16 -14 15 -8 -12 18 19 -17 21 -21 24 -24 28 26 27 -26 -22 -20
right_child=1 6 3 5 -6 -7 14 8 -10 -11 12 -13 13 -15 -16 17 -18 -19 29 20 22 -23 23 -25 25 -27 -28 -29 -30 -31
leaf_value=-1.7662949197334164e-06 0.0017200596595725267 -4.7301846226204005e-05 0.0014578026697894199 -0.00014560577959962434 -0.00037473034727471797 -0.0013335216684936314 -0.0014549702713562089 0.00059421715259304624 4.4740760710367555e-06 0.0058581540985323957 3.0945197255335719e-05 0.0025089097228556058 -0.001635935301041295 7.3626748712565771e-05 1.6594452529511334e-05 -0.002380012593736562 0.00087955179296841381 8.6055923717446078e-06 0.0012489899121753887 -0.00061932888491034697 -0.00015027307189800765 0.0038380604686244625 -0.0035525501647464355 -0.0004268291357827063 -0.0029141222730416946 -0.0023167539812614757 6.9896810995395131e-05 -0.00076265164625139586 0.0014682864289565971 -1.0409400369107379e-05
leaf_weight=186444 38 61 22 34 22 24 28 32 248 20 3755 20 39 130 19962 24 20 3009 34 34 345 20 20 24 27 30 118 98 23 2928
leaf_count=186444 38 61 22 34 22 24 28 32 248 20 3755 20 39 130 19962 24 20 3009 34 34 345 20 20 24 27 30 118 98 23 2928
internal_value=0 1.05587e-05 0.000373105 -0.000128701 0.000541536 -0.000637157 8.92397e-06 6.1073e-05 0.000457625 0.00261881 3.15163e-05 0.000583862 2.01725e-05 -0.000320888 4.84198e-07 -4.70746e-05 3.54411e-05 -4.12206e-05 -8.14695e-05 -0.000413448 -0.000349581 0.00103156 -0.000458459 -0.00184761 -0.000363104 -0.000786359 -0.000597421 -0.00122737 -4.91131e-05 4.04691e-06
internal_weight=0 31189 140 102 44 58 31049 4325 300 52 4025 81 3944 169 26724 6762 3775 6734 3725 763 739 54 685 44 641 273 243 125 368 2962
internal_count=217633 31189 140 102 44 58 31049 4325 300 52 4025 81 3944 169 26724 6762 3775 6734 3725 763 739 54 685 44 641 273 243 125 368 2962
shrinkage=0.05


Tree=660
num_leaves=31
num_cat=0
split_feature=40 3 10 3 34 39 18 3 1 18 22 6 1 17 3 0 21 17 3 11 23 9 13 18 37 36 3 18 36 18
split_gain=0.00162185 0.00821521 0.0495156 0.00907724 0.0147797 0.00749316 0.040208 0.14904 0.227155 0.144978 0.255413 0.0802711 0.0811758 0.0341999 0.0745849 0.148623 0.0990572 0.0518144 0.135171 0.282827 0.100295 0.118992 0.171631 0.170048 0.0756208 0.560347 0.48785 0.535551 0.493916 0.507713
threshold=-1.6465599999999998 -18.305499999999995 4.8217100000000003e-05 -17.495099999999997 0.0086255750000000016 0.35261000000000037 8.9395400000000027 -7.9686699999999986 4.3204200000000013 9.718770000000001 3.6432600000000006 5.6989500000000011e-07 8.1525150000000028 7.2203350000000013 -11.042399999999999 4.5621600000000013 0.30416600000000005 -9.0227099999999982 -8.4058999999999973 0.00024047200000000001 0.0041053400000000007 -2.8598349999999994e-05 1.9779150000000004e-07 -2.1347299999999998 -0.27889399999999981 -0.14969009999999991 -11.456749999999998 -5.6560049999999995 0.077348000000000056 -7.8035849999999991
decision_type=2 2 2 2 2 2 2 2 2 2 2 2 2 2 2 2 2 2 2 2 2 2 2 2 2 2 2 2 2 2
left_child=1 2 -1 4 -3 -2 13 8 -8 -10 -11 12 -12 17 15 -15 -17 18 19 -7 21 22 23 -21 -19 -26 27 -27 29 -28
right_child=5 3 -4 -5 -6 6 7 -9 9 10 11 -13 -14 14 -16 16 -18 24 -20 20 -22 -23 -24 -25 25 26 28 -29 -30 -31
leaf_value=0.0025045897263044027 2.7480065289971303e-06 -0.001586138888112897 -0.00093288412000137313 4.8955217712958545e-06 0.00027234069624682889 0.0063486244707746664 8.6689392050872672e-06 2.4552034620835002e-05 0.00070094347489618389 0.0087295860180304202 0.0059733849320764421 -6.9610659027768466e-05 0.0016178786496469832 -0.00021979591486472473 3.3089626788264514e-05 0.0015838844588870417 0.0060695265681715684 -5.8047430601218351e-06 5.4776121362425323e-08 0.0068481271879427376 -0.002273597350666443 -0.0002275855684204614 -0.00058093422245292464 0.0018604072940770829 -1.9919564395485151e-05 0.0040442772870232443 -0.00074589606154553854 -0.00051981553752313361 -0.00041773225018574764 -0.0038535618398661126
leaf_weight=20 95245 23 22 95533 20 24 193 3204 58 21 20 22 23 70 5007 32 20 7241 2840 25 26 104 40 54 6220 74 207 489 396 360
leaf_count=20 95245 23 22 95533 20 24 193 3204 58 21 20 22 23 70 5007 32 20 7241 2840 25 26 104 40 54 6220 74 207 489 396 360
internal_value=0 4.87584e-06 0.000704008 4.56861e-06 -0.00072173 -3.82099e-06 -2.71928e-05 0.000129755 0.00112996 0.0026328 0.00393568 0.00238688 0.0036437 -5.11177e-05 6.28522e-05 0.00128434 0.00330913 -8.34134e-05 0.000102206 0.00116488 0.000665242 0.00100789 0.00208763 0.0034388 -0.000121969 -0.00023056 -0.00108913 8.0083e-05 -0.00177269 -0.00271902
internal_weight=0 95618 42 95576 43 122015 26770 3541 337 144 86 65 43 23229 5129 122 52 18100 3113 273 249 223 119 79 14987 7746 1526 563 963 567
internal_count=217633 95618 42 95576 43 122015 26770 3541 337 144 86 65 43 23229 5129 122 52 18100 3113 273 249 223 119 79 14987 7746 1526 563 963 567
shrinkage=0.05


Tree=661
num_leaves=31
num_cat=0
split_feature=5 8 7 19 10 17 39 14 19 39 27 23 34 2 16 17 29 12 1 40 1 40 1 8 5 17 21 23 2 40
split_gain=0.00160179 0.0209793 0.00848394 0.0680908 0.0794154 0.0213475 0.0432918 0.153395 0.00957772 0.0250819 0.00946462 0.0082119 0.010296 0.034554 0.00745255 0.0375748 0.00607637 0.00815179 0.00591457 0.00556059 0.0228741 0.0226515 0.0572211 0.0205465 0.0229839 0.0559693 0.0174757 0.0643786 0.0168841 0.0148562
threshold=3.4653000000000009e-05 2.5132750000000004e-05 -7.8930349999999975e-05 3.0438950000000005 3.3800650000000006e-06 -9.1578099999999996 -0.026199999999999776 2.2932050000000003e-07 2.7783350000000007 2.84389 0.0076529550000000003 -0.028182349999999998 -3.2628099999999995 1.8038550000000002 3.865525000000001e-10 5.095670000000001 -0.00028142099999999996 1.0214300000000003e-06 -10.189349999999999 -0.20255000000000042 11.791050000000002 -0.52047500000000058 11.791050000000002 3.9034500000000007e-05 3.9486850000000006e-05 -4.8420449999999997 0.91519300000000003 -0.0048905699999999995 2.9157100000000002 0.27512500000000012
decision_type=2 2 2 2 2 2 2 2 2 2 2 2 2 2 2 2 2 2 2 2 2 2 2 2 2 2 2 2 2 2
left_child=2 -2 3 5 -5 6 7 -1 -7 -10 -8 16 13 -13 15 -14 17 -3 -18 21 26 -16 23 -23 25 -25 29 -28 -26 -21
right_child=1 11 -4 4 -6 8 10 -9 9 -11 -12 12 14 -15 19 -17 18 -19 -20 20 -22 22 -24 24 28 -27 27 -29 -30 -31
leaf_value=-0.0052441820340754933 0.001629836128850002 -0.00031327947737959128 -4.4692636977384687e-07 -0.0043679421677370557 -0.00017711714346240536 9.9661967038567763e-06 4.5003184023216637e-05 0.00011880051637490398 -0.0020301467118163902 3.5192860273777376e-05 -0.00094227462651705828 3.9520848581256967e-05 4.6062077393968181e-05 0.0023785494739422576 8.8223060222631022e-06 -0.0023600024208280958 -0.00091988633619621396 -0.0014718332174445759 -2.6806898315842503e-07 0.00021709084067023725 0.0015027319036570825 0.0013465410719661686 -0.0026287623475946022 -0.0027054146801557153 -6.2049343453050249e-05 -0.00011698839484211022 0.0030220933539448712 2.9237061091024724e-06 -0.0013912298494833523 6.3689250250720399e-06
leaf_weight=20 20 49 186481 20 26 2134 149 40 21 49 29 75 86 20 20338 20 20 22 139 970 27 21 25 31 539 64 23 76 25 6074
leaf_count=20 20 49 186481 20 26 2134 149 40 21 49 29 75 86 20 20338 20 20 22 139 970 27 21 25 31 539 64 23 76 25 6074
internal_value=0 1.10138e-05 -1.67064e-06 -9.3391e-05 -0.00199921 -5.74909e-05 -0.000507362 -0.00166886 -8.91142e-06 -0.000584409 -0.000115845 9.88351e-06 1.22922e-05 0.000531948 1.05489e-05 -0.000407912 -0.000287678 -0.000672268 -0.000115943 1.21211e-05 5.01488e-05 -8.36102e-07 -0.000279464 -0.000193093 -0.000242155 -0.000961633 4.46582e-05 0.000704347 -0.000120967 3.53866e-05
internal_weight=0 28664 188969 2488 46 2442 238 60 2204 70 178 28644 28414 95 28319 106 230 71 159 28213 7170 21043 705 680 659 95 7143 99 564 7044
internal_count=217633 28664 188969 2488 46 2442 238 60 2204 70 178 28644 28414 95 28319 106 230 71 159 28213 7170 21043 705 680 659 95 7143 99 564 7044
shrinkage=0.05


Tree=662
num_leaves=31
num_cat=0
split_feature=18 37 3 1 20 6 17 1 1 25 36 1 19 33 2 5 5 37 37 25 2 15 25 10 16 17 9 8 29 19
split_gain=0.00159827 0.0121169 0.0105505 0.0279883 0.101306 0.013634 0.0475593 0.072627 0.0219216 0.0445095 0.0562576 0.0342582 0.0315447 0.0135051 0.0101625 0.00960222 0.0237296 0.0150539 0.0851733 0.103195 0.0258746 0.0149322 0.0334397 0.0324441 0.0727767 0.0181783 0.0203318 0.0129728 0.0571686 0.0122753
threshold=-13.388899999999998 4.6270000000000016 -4.8932599999999988 -13.794199999999998 -7.317664999999999 6.5354350000000009e-06 8.4869350000000026 -5.9210599999999998 -12.232849999999997 -0.025004749999999996 -0.10081500000000009 -10.856449999999997 -1.8123449999999999 -2.12674e-08 -1.4120199999999998 1.8661550000000004e-05 1.9027100000000003e-05 -0.2029299999999998 0.057875000000000128 -0.16444249999999996 -1.9639149999999999 -5.194759999999999e-05 -0.39445199999999997 -1.2270949999999998e-05 0.0016272200000000002 16.002400000000005 6.5110500000000013e-05 2.8986250000000004e-05 -4.9805199999999989e-06 -2.1597749999999993
decision_type=2 2 2 2 2 2 2 2 2 2 2 2 2 2 2 2 2 2 2 2 2 2 2 2 2 2 2 2 2 2
left_child=1 2 3 4 -1 8 -7 -8 9 10 -5 12 -10 -11 -14 17 -17 20 19 -19 -13 22 -20 24 -23 26 29 28 -18 -25
right_child=-2 -3 -4 5 -6 6 7 -9 11 13 -12 15 14 -15 -16 16 27 18 21 -21 -22 23 -24 25 -26 -27 -28 -29 -30 -31
leaf_value=0.0038153212465528797 -5.4764511026647975e-07 0.0010694801609913288 -0.00046839384147634065 -0.00023872946094343208 -0.00093998455946954582 4.4325532878512305e-05 0.0040779858199675801 0.00030094666897119687 0.0023146519626105399 0.0014171072108729278 -0.0033699439814462006 0.0018146303408889252 -9.8595141332932866e-05 -0.00031110408585496212 0.0011284147928192936 0.0017497414202807704 0.0022074617179798127 -0.0037234834069700762 -0.0019892907526809721 -0.00025488008858006009 1.9013253334018223e-06 0.0035723994512500213 -0.0001131337913863574 -0.0011065669068339049 -0.00069306432757002771 -0.0010923431225053624 0.0014949176890735069 -8.7969250866739394e-06 -8.3899265385218878e-05 3.7613875762271859e-05
leaf_weight=21 214135 28 105 32 24 240 20 35 29 20 26 20 45 26 27 22 37 37 30 51 1252 20 114 25 20 38 23 652 103 376
leaf_count=21 214135 28 105 32 24 240 20 35 29 20 26 20 45 26 27 22 37 37 30 51 1252 20 114 25 20 38 23 652 103 376
internal_value=0 3.35249e-05 2.51656e-05 4.05664e-05 0.00127916 2.37782e-05 0.000348241 0.00167442 -7.86354e-06 -0.000721197 -0.00164238 1.75341e-05 0.00092233 0.000440292 0.000361534 -1.48717e-05 0.000129967 -7.36447e-05 -0.000253957 -0.00171327 3.04034e-05 -5.5165e-05 -0.000504 7.35845e-05 0.00143967 -4.46911e-05 4.92022e-05 8.49733e-05 0.000521675 -3.37191e-05
internal_weight=0 3498 3470 3365 45 3320 295 55 3025 104 58 2921 101 46 72 2820 814 2006 734 88 1272 646 144 502 40 462 424 792 140 401
internal_count=217633 3498 3470 3365 45 3320 295 55 3025 104 58 2921 101 46 72 2820 814 2006 734 88 1272 646 144 502 40 462 424 792 140 401
shrinkage=0.05


Tree=663
num_leaves=31
num_cat=0
split_feature=3 21 15 39 39 20 28 36 7 17 36 30 1 28 12 17 36 5 40 39 34 18 20 24 2 34 28 30 35 36
split_gain=0.00153638 0.0272832 0.0689439 0.0210982 0.0408553 0.0215325 0.0207853 0.0323732 0.0655142 0.0462362 0.0373117 0.0135784 0.0411079 0.0435508 0.0313071 0.0149646 0.0193953 0.0276918 0.0130434 0.015196 0.0118561 0.0190986 0.0349911 0.0378485 0.0147552 0.0139609 0.0124626 0.0310743 0.0220387 0.0533446
threshold=-16.722199999999997 1.5291850000000002 -7.2323849999999985e-06 4.1559750000000006 5.9225950000000012 -21.129099999999998 -2.4309499999999997 -0.63161949999999989 1.0829900000000001e-05 -1.9409599999999998 0.60008550000000016 3.2423100000000002 -4.0741649999999989 -0.13884799999999997 7.4274150000000011e-05 -4.6287449999999994 0.38220950000000015 1.3920850000000002e-05 -2.7037449999999992 2.3674900000000001 -0.036336349999999996 2.8035700000000001 -16.036999999999995 2.6085550000000004 -1.3472649999999997 -0.092780149999999992 -0.95244549999999994 1.8663100000000001 0.0013738800000000003 -0.3819765
decision_type=2 2 2 2 2 2 2 2 2 2 2 2 2 2 2 2 2 2 2 2 2 2 2 2 2 2 2 2 2 2
left_child=1 3 -3 5 -5 -1 7 -7 9 -9 -11 18 -13 -14 15 -15 17 -17 -8 20 21 22 23 -20 -24 -23 28 -28 29 -22
right_child=-2 2 -4 4 -6 6 11 8 -10 10 -12 12 13 14 -16 16 -18 -19 19 -21 26 25 24 -25 -26 -27 27 -29 -30 -31
leaf_value=0.0015057902961574578 8.5330197923402454e-07 -0.00065382034626964018 0.0026033663564841406 -0.00280789998989917 -3.0092728273892726e-06 1.4423421331836532e-05 -0.0011411250337215069 0.00097641472420946236 -0.0035766968366012656 -0.002930600485642967 -0.00014011674553330523 0.0020353267182144918 0.0022787296175374653 0.00061381215997971604 0.0015908833371386642 -0.00029848341419849369 -0.00020378053011462237 -0.0028662207360390483 -0.0002839870437088868 0.0013570916204480455 -8.8404571156828643e-06 0.0013364548237101796 -0.001147442748628457 -0.0030684526919615637 5.4332073585632387e-05 -0.00015682023154416433 -9.3594546214026502e-06 0.0016304875673838603 7.0267612821172566e-06 -0.0033209480196819646
leaf_weight=23 209010 32 33 20 37 138 26 32 22 23 25 32 20 25 21 21 65 21 23 20 31 24 33 26 113 45 7558 29 85 20
leaf_count=23 209010 32 33 20 37 138 26 32 22 23 25 32 20 25 21 21 65 21 23 20 31 24 33 26 113 45 7558 29 85 20
internal_value=0 -2.06829e-05 0.000999828 -2.84339e-05 -0.000987181 -2.20054e-05 -2.61502e-05 -0.000484826 -0.00116028 -0.000495768 -0.00147722 -1.27874e-05 0.000389046 8.45314e-05 -0.000202292 -0.00048757 -0.000744902 -0.00158235 -2.30421e-05 -1.94115e-05 -2.28584e-05 -0.000352347 -0.000605321 -0.00176146 -0.000217302 0.00036258 -1.15953e-05 -3.09142e-06 -0.000485998 -0.00130771
internal_weight=0 8623 65 8558 57 8501 8478 240 102 80 48 8238 205 173 153 132 107 42 8033 8007 7987 264 195 49 146 69 7723 7587 136 51
internal_count=217633 8623 65 8558 57 8501 8478 240 102 80 48 8238 205 173 153 132 107 42 8033 8007 7987 264 195 49 146 69 7723 7587 136 51
shrinkage=0.05


Tree=664
num_leaves=31
num_cat=0
split_feature=26 2 15 18 2 32 9 28 9 3 1 3 3 2 36 20 11 12 35 2 2 18 2 2 3 9 9 30 29 26
split_gain=0.00157629 0.0212653 0.0232728 0.0306863 0.0204281 0.0544041 0.0181593 0.042708 0.0318425 0.0307815 0.0277894 0.0491596 0.0199232 0.0148925 0.0383036 0.0386795 0.0178048 0.0118987 0.0170717 0.0114877 0.029397 0.0163788 0.0107672 0.00927055 0.00697068 0.0135976 0.0100469 0.0536692 0.016296 0.0165434
threshold=0.55826100000000012 -2.9738899999999995 1.4748200000000002e-06 -2.0281699999999994 -2.8455549999999996 0.12161000000000001 -0.00027218349999999996 20.036400000000004 -0.00019804799999999998 -12.126699999999998 0.72012600000000015 -15.624449999999998 -16.131449999999997 2.8060500000000004 0.12375499999999996 -7.9172849999999988 0.0010925600000000002 -8.8301099999999987e-05 0.12384550000000001 -2.7279399999999994 -2.6524249999999996 -5.5781649999999994 -2.6029249999999995 2.7562500000000005 -16.266399999999997 -2.3324049999999996e-05 -0.00010305049999999998 34.706300000000006 -5.8617499999999992e-05 1.0482150000000001
decision_type=2 2 2 2 2 2 2 2 2 2 2 2 2 2 2 2 2 2 2 2 2 2 2 2 2 2 2 2 2 2
left_child=-1 2 3 -2 5 -3 7 10 9 -8 12 -12 -6 19 -15 16 -16 -13 -19 21 -21 -10 -22 24 25 -24 27 28 -26 -30
right_child=1 4 -4 -5 6 -7 8 -9 13 -11 11 17 -14 14 15 -17 -18 18 -20 20 22 -23 23 -25 26 -27 -28 -29 29 -31
leaf_value=5.2220720686817218e-07 -0.0028706702663012867 0.0022149344997472197 0.00054484609237988476 -0.00037528904161133271 -0.0018695485341595486 -0.00061482371066548785 -0.0025026036270271741 0.0022108971282640204 -0.0018355256761424243 -0.00024487037020056357 0.0028582975168579394 -0.00028769095479219686 -0.00011943199836726611 -0.0025309814628036251 -0.00028717979071188896 0.0014751345259495655 -0.0020426282228436323 -0.00016562972804936378 0.0017608298267156857 0.0017726787577292116 -0.0011503730185462959 -1.9992673609020382e-06 -0.0014400719993282109 0.0010083986431048042 -0.0010028234307273207 -0.00010007942865531033 -2.6190716284387243e-05 0.002545195064400711 0.0015190596849424766 -0.00049026334031839814
leaf_weight=214404 22 35 20 28 20 33 26 28 21 36 21 56 87 21 52 26 20 23 23 23 21 29 25 22 33 78 2335 24 20 21
leaf_count=214404 22 35 20 28 20 33 26 28 21 36 21 56 87 21 52 26 20 23 23 23 21 29 25 22 33 78 2335 24 20 21
internal_value=0 -3.46743e-05 -0.000896656 -0.00147326 -1.55737e-05 0.000841669 -3.44325e-05 0.000367158 -7.10052e-05 -0.00119166 0.000142703 0.00065531 -0.000446557 -4.59309e-05 -0.000593135 -0.000177882 -0.000774804 0.000201754 0.0007976 -2.13769e-05 -6.95142e-06 -0.00077208 -2.28225e-05 -1.35658e-05 -2.24314e-05 -0.00042532 -5.37532e-06 0.000490583 -0.000175777 0.000489894
internal_weight=0 3229 70 50 3159 68 3091 258 2833 62 230 123 107 2771 119 98 72 102 46 2652 2602 50 2579 2558 2536 103 2433 98 74 41
internal_count=217633 3229 70 50 3159 68 3091 258 2833 62 230 123 107 2771 119 98 72 102 46 2652 2602 50 2579 2558 2536 103 2433 98 74 41
shrinkage=0.05


Tree=665
num_leaves=31
num_cat=0
split_feature=5 19 32 3 34 22 19 21 17 29 4 17 11 36 36 32 12 18 1 21 32 18 29 13 5 23 37 8 4 29
split_gain=0.00154844 0.0137064 0.0123864 0.039049 0.0163812 0.0778807 0.0115867 0.0391869 0.010836 0.00871168 0.0153784 0.00955027 0.014193 0.00806208 0.0705814 0.122162 0.131011 0.094062 0.101672 0.0475555 0.0730627 0.0511889 0.0431046 0.0329646 0.0321752 0.00508658 0.00668038 0.014093 0.00500764 0.00466838
threshold=7.5984950000000007e-06 -3.0951399999999993 -0.17249249999999997 -13.897099999999998 -0.11222949999999998 4.6947250000000009 -2.9623449999999996 0.195136 14.554100000000002 -8.1044199999999979e-05 0.14946850000000003 -12.188449999999998 0.00037336950000000003 0.077348000000000056 -0.10081500000000009 -0.00046284399999999996 -3.5521349999999997e-09 4.1442900000000007 3.3087900000000006 -0.13151699999999997 0.00012801750000000003 1.1870700000000001 -3.4257599999999996e-06 -3.9895999999999995e-08 7.2568900000000009e-06 0.0033062250000000007 -0.2272394999999999 9.1086300000000016e-06 -0.13528899999999996 -1.0000000180025095e-35
decision_type=2 2 2 2 2 2 2 2 2 2 2 2 2 2 2 2 2 2 2 2 2 2 2 2 2 2 2 2 2 2
left_child=1 -1 3 -3 5 -4 7 28 9 10 -8 12 -11 14 -13 16 22 18 19 23 29 -22 -16 -17 -25 26 -15 -28 -6 -21
right_child=-2 2 4 -5 6 -7 8 -9 -10 11 -12 13 -14 25 15 17 -18 -19 -20 20 21 -23 -24 24 -26 -27 27 -29 -30 -31
leaf_value=0.001029531319240692 -6.0160447239493516e-07 -0.0021932258535973513 0.003374960277558005 -1.5888983574713525e-05 -0.00065688558568581361 -5.0838346397782356e-05 -7.596082912226234e-05 -0.002491971235303936 0.00093585091260937393 -0.0016811927057733555 -0.0016950083652773175 -1.6368899177310327e-05 9.0486187134676869e-05 -1.9928404427052611e-05 -0.00082808057109518397 -0.00030911954210909167 0.0049068944705747226 -0.0021521300956374037 0.0040367866412270815 0.00094910345931566555 -0.0038173122367879844 -0.00035860931662761645 0.0023388983060916263 0.003009178778231745 0.00057066245620565799 0.00073870726538145738 -0.001527805576030084 -0.00011302243399162156 0.00027661733659924186 0.00021419410077988554
leaf_weight=34 213293 26 21 99 20 79 55 20 33 20 20 1760 26 1618 22 23 33 35 20 40 20 23 21 31 24 21 23 75 51 47
leaf_count=34 213293 26 21 99 20 79 55 20 33 20 20 1760 26 1618 22 23 33 35 20 40 20 23 21 31 24 21 23 75 51 47
internal_value=0 2.95664e-05 2.16707e-05 -0.000468775 3.63336e-05 0.000668579 2.08412e-05 -0.000537029 3.35646e-05 2.60398e-05 -0.000507707 3.63517e-05 -0.000679809 4.49397e-05 0.00011088 0.000771521 0.00253719 0.000261288 0.000631769 0.000304364 -0.000281254 -0.00196731 0.000718584 0.00128039 0.0019451 -3.47424e-05 -4.42077e-05 -0.000445063 1.36588e-05 0.000552083
internal_weight=0 4340 4306 125 4181 100 4081 91 3990 3957 75 3882 46 3836 2099 339 76 263 228 208 130 43 43 78 55 1737 1716 98 71 87
internal_count=217633 4340 4306 125 4181 100 4081 91 3990 3957 75 3882 46 3836 2099 339 76 263 228 208 130 43 43 78 55 1737 1716 98 71 87
shrinkage=0.05


Tree=666
num_leaves=31
num_cat=0
split_feature=40 30 36 11 3 0 30 16 3 29 10 39 11 19 29 10 40 3 39 1 32 36 36 36 37 40 40 3 21 20
split_gain=0.00156945 0.0068905 0.00652589 0.0073918 0.00578251 0.0314371 0.0895973 0.0200548 0.0820796 0.122952 0.101193 0.0491834 0.0348349 0.0380773 0.0802806 0.0400661 0.0290118 0.0523459 0.051579 0.0967335 0.103318 0.0860212 0.130875 0.0913865 0.272095 0.128235 0.132281 0.0659445 0.0328072 0.0748613
threshold=2.4429550000000004 18.825800000000005 -0.12496499999999998 0.0090263400000000025 -9.5548399999999987 -7.9766549999999992 0.023088400000000005 3.7775550000000009e-08 -15.867949999999999 -1.8028799999999996e-05 7.2361400000000022e-05 -0.026199999999999776 0.0020033100000000008 0.88875850000000012 -3.9040499999999993e-05 3.8976100000000001e-05 0.65993499999999961 -14.818499999999998 0.72566000000000008 -7.5633549999999987 0.041913150000000003 -0.19934349999999995 -0.040859549999999939 0.12375499999999996 -0.039869999999999954 -0.4353949999999997 0.31988499999999936 -14.605749999999999 0.41602950000000005 -10.262699999999999
decision_type=2 2 2 2 2 2 2 2 2 2 2 2 2 2 2 2 2 2 2 2 2 2 2 2 2 2 2 2 2 2
left_child=4 -2 -3 -4 5 6 -1 8 9 10 11 -7 16 14 -14 -16 18 -18 19 -10 21 -21 -23 24 -24 -26 -27 -20 -19 -30
right_child=1 2 3 -5 -6 7 -8 -9 12 -11 -12 -13 13 -15 15 -17 17 28 27 20 -22 22 23 -25 25 26 -28 -29 29 -31
leaf_value=-0.0039011903974460437 8.7858143496486494e-06 0.00011082927632177699 -0.00019577933061637768 -0.0014777442329036803 2.7992577348743284e-06 0.0032331645605154337 0.00013494846451232495 -2.7981305578849397e-05 -0.0028399331727996472 -0.00028922538157790507 0.0057660650507473515 -0.00027338055457221344 -0.0036719947158126163 0.00051891832569727996 -0.0024057580556836912 0.00015339569421485069 -0.0026998197003104 -0.00021094815006351795 0.0021448478102164309 -9.9215312878330128e-05 -0.0024981593268771228 0.0045245248627347441 0.0065921145045886864 -0.00013777180294080561 0.0048301101014658343 0.00039535336868925115 0.0045145831891291203 -5.3189153954352767e-05 0.0035106593195814643 -0.00017867026942998236
leaf_weight=20 47444 29 22 23 130927 20 44 35916 21 56 21 20 25 47 20 65 20 666 35 228 26 26 23 151 20 271 21 1362 20 44
leaf_count=20 47444 29 22 23 130927 20 44 35916 21 56 21 20 25 47 20 65 20 666 35 228 26 26 23 151 20 271 21 1362 20 44
internal_value=0 8.03386e-06 -0.00047407 -0.000851006 -2.24409e-06 -1.90939e-05 -0.00112634 -1.72826e-05 0.000102497 0.00140245 0.00295546 0.00147989 5.32918e-05 -0.000672326 -0.00118131 -0.000448758 9.212e-05 -0.000176182 0.000184256 0.000507993 0.000599776 0.000708623 0.00106836 0.000883466 0.00134378 0.000956888 0.000691599 1.87977e-06 -0.000107041 0.000974245
internal_weight=0 47518 74 45 170115 39188 64 39124 3208 117 61 40 3091 157 110 85 2934 750 2184 787 766 740 512 486 335 312 292 1397 730 64
internal_count=217633 47518 74 45 170115 39188 64 39124 3208 117 61 40 3091 157 110 85 2934 750 2184 787 766 740 512 486 335 312 292 1397 730 64
shrinkage=0.05


Tree=667
num_leaves=31
num_cat=0
split_feature=9 16 37 4 26 30 20 3 6 18 30 37 37 32 19 35 14 10 37 18 31 11 7 33 10 9 10 6 34 26
split_gain=0.00155293 0.0130162 0.0589727 0.183459 0.110289 0.103035 0.175436 0.175811 0.015303 0.020915 0.0118672 0.0134524 0.00908212 0.00855609 0.024865 0.0127318 0.0104886 0.0101583 0.00513983 0.0398787 0.00697127 0.0310116 0.0941333 0.0227017 0.0267885 0.0125031 0.0134178 0.0136686 0.0312646 0.00987277
threshold=-0.00016577949999999997 0.00057209200000000006 0.22260499999999997 -2.1602949999999992 0.41922450000000006 2.1557050000000006 -15.138399999999999 -16.266399999999997 2.6062900000000005e-06 -2.6213749999999996 0.086996850000000014 -0.17681499999999981 0.32610899999999998 3.8353050000000004 -1.5001349999999998 2.3303150000000001 4.7046700000000012e-05 0.00044355650000000001 5.6849350000000003 -0.76764599999999994 0.098593250000000007 0.0072893450000000009 -4.1568899999999994e-05 1.2277200000000002e-05 -4.9573549999999992e-05 -0.00018837999999999995 0.00011609150000000002 -2.4799399999999996e-06 0.065375400000000014 0.041675700000000003
decision_type=2 2 2 2 2 2 2 2 2 2 2 2 2 2 2 2 2 2 2 2 2 2 2 2 2 2 2 2 2 2
left_child=1 2 3 -1 12 6 7 -5 10 -10 -8 -12 -4 15 -15 18 -16 -17 20 -20 29 22 23 -22 -25 26 27 -23 -29 -3
right_child=-2 13 4 5 -6 -7 8 -9 9 -11 11 -13 -14 14 16 17 -18 -19 19 -21 21 25 -24 24 -26 -27 -28 28 -30 -31
leaf_value=0.0044909754770863708 -1.4351230265298154e-06 7.2843927369798155e-06 -0.00089204953955261093 0.006291831566835754 0.0035222458917732267 -0.0027576570339078901 8.1548217616234941e-05 2.3544514260720463e-06 -4.6720605740998071e-05 0.0020550404677851476 -0.0001129808960831724 -0.0018527471070410686 -2.6530045570400692e-05 0.002044339202620904 -0.00044512327067644861 -0.0013792829838348555 0.00095152198802679784 7.547164350398817e-05 -0.002369599290759652 4.5216533133236612e-06 -0.00028777515786350703 5.7083848978750055e-05 0.0036724468299629133 0.0024306161329669916 -6.6032030624476405e-05 0.00089660007315375736 6.506766661491704e-05 -1.8769590069250381e-05 -0.0021908326994162053 -0.00013109774835830238
leaf_weight=30 195107 18223 31 25 22 24 107 20 29 20 25 20 1360 20 41 30 20 20 20 153 75 58 24 21 22 38 594 37 30 1387
leaf_count=30 195107 18223 31 25 22 24 107 20 29 20 25 20 1360 20 41 30 20 20 20 153 75 58 24 21 22 38 594 37 30 1387
internal_value=0 1.24302e-05 0.000144913 0.000781602 9.73462e-06 0.000369449 0.000674532 0.00349651 4.27468e-05 0.000811141 -0.000204959 -0.00088621 -4.58191e-05 1.52631e-06 0.00051441 -4.77527e-07 1.27932e-05 -0.000797381 1.44904e-06 -0.000269943 3.73832e-06 0.000139887 0.000817928 0.000237348 0.00115326 1.2698e-05 -3.40172e-05 -0.000504869 -0.000991335 -2.50327e-06
internal_weight=0 22526 1713 300 1413 270 246 45 201 49 152 45 1391 20813 81 20732 61 50 20682 173 20509 899 142 118 43 757 719 125 67 19610
internal_count=217633 22526 1713 300 1413 270 246 45 201 49 152 45 1391 20813 81 20732 61 50 20682 173 20509 899 142 118 43 757 719 125 67 19610
shrinkage=0.05


Tree=668
num_leaves=31
num_cat=0
split_feature=10 16 26 16 9 33 25 6 6 25 16 30 33 16 25 3 10 36 36 33 5 3 32 16 8 8 11 11 13 29
split_gain=0.00154608 0.00506138 0.00478816 0.00696307 0.0105883 0.00429703 0.0115816 0.0460422 0.0154702 0.00416601 0.0215334 0.0704572 0.00745537 0.0286533 0.00813046 0.0170687 0.0073002 0.0132863 0.0125949 0.00431453 0.0191184 0.0081309 0.00446564 0.0276296 0.00875392 0.00673958 0.00403885 0.00480524 0.00525927 0.00357673
threshold=0.00014699600000000001 1.2683350000000002e-07 2.0528200000000001 0.016458250000000004 -0.00028750249999999993 0.00046534500000000004 -1.7331449999999997 2.1946200000000003e-06 -4.0493649999999993e-07 0.42036700000000005 0.0011496050000000004 5.3516150000000016 -2.7510949999999998e-05 0.005156565000000001 1.9114100000000003 -12.203099999999997 0.00037732250000000004 -0.71412249999999966 0.74319900000000005 -1.6329399999999996e-05 1.0453800000000001e-05 -14.818499999999998 -0.43959349999999991 0.0013311500000000003 1.7987700000000004e-05 2.1278050000000002e-05 0.022777000000000002 0.076970650000000015 -6.1399949999999985e-05 0.0014581450000000003
decision_type=2 2 2 2 2 2 2 2 2 2 2 2 2 2 2 2 2 2 2 2 2 2 2 2 2 2 2 2 2 2
left_child=29 -2 5 4 -4 6 7 8 -3 19 11 -11 13 -12 16 -16 17 -14 -19 20 -8 -22 23 -21 -25 -26 -7 28 -28 -1
right_child=1 2 3 -5 -6 26 9 -9 -10 10 12 -13 14 -15 15 -17 -18 18 -20 22 21 -23 -24 24 25 -27 27 -29 -30 -31
leaf_value=-2.5259966215356407e-06 0.00064789068156612985 0.00062702242968320533 -0.0015174585881389002 0.00012654493513734646 -0.00023794110216005692 0.00026245210422833531 -0.0016852804367226784 0.0023758891457691788 -0.0012068516541900033 0.003137257080221468 0.0021364648037706501 -0.00077641012100249779 -1.354272471543076e-05 -6.8265491498615513e-05 0.0017130863147031051 -9.1499658389550059e-05 4.8179308975989841e-05 -0.0018094465487977756 -0.00023764973680954427 0.0019591544673728226 -0.0007307112980925013 7.6599492338615138e-05 7.4468382492722912e-06 -0.00094154526028432893 0.0010029181208578632 4.6146664825619769e-05 -0.00030511970149486194 -9.2254837032647283e-05 -0.0014380414514016593 7.934645542788877e-05
leaf_weight=179013 31 23 22 61 61 24 20 25 23 23 20 23 83 56 20 38 268 26 25 21 38 174 35899 20 21 149 21 41 20 1344
leaf_count=179013 31 23 22 61 61 24 20 25 23 23 20 23 83 56 20 38 268 26 25 21 38 174 35899 20 21 149 21 41 20 1344
internal_value=0 9.26989e-06 8.73835e-06 -0.000279023 -0.00057709 9.85524e-06 1.07661e-05 0.000648749 -0.000289915 9.53932e-06 0.000142254 0.00118042 5.31573e-05 0.000511927 -2.26394e-05 0.000530771 -0.000102485 -0.000403813 -0.00103896 7.41396e-06 -0.000207519 -6.81072e-05 8.79486e-06 0.000238144 4.79275e-05 0.000164336 -0.000308037 -0.00047501 -0.000857764 -1.91589e-06
internal_weight=0 37276 37245 144 83 37101 36995 71 46 36924 582 46 536 76 460 58 402 134 51 36342 232 212 36110 211 190 170 106 82 41 180357
internal_count=217633 37276 37245 144 83 37101 36995 71 46 36924 582 46 536 76 460 58 402 134 51 36342 232 212 36110 211 190 170 106 82 41 180357
shrinkage=0.05


Tree=669
num_leaves=31
num_cat=0
split_feature=40 1 37 37 39 39 27 23 4 18 39 31 12 18 36 25 36 8 13 27 40 17 7 25 35 35 24 36 36 17
split_gain=0.00154848 0.00915726 0.0374824 0.112951 0.211125 0.358073 0.422402 0.170506 0.171965 0.0903125 0.198722 0.0852922 0.0568611 0.0373113 0.0198073 0.0172731 0.0301171 0.0148094 0.010994 0.012235 0.00929986 0.0645489 0.17957 0.231069 0.0200412 0.0545988 0.0481891 0.0303142 0.114104 0.0227721
threshold=-1.3566450000000001 10.651350000000003 -0.10141500000000002 0.12358499999999996 0.20156999999999983 0.47541999999999979 0.00037977800000000005 8.1704800000000004e-05 0.16470650000000003 10.536600000000002 -0.054875 -0.00027555249999999999 -2.1432099999999998e-08 11.729050000000003 -0.17527649999999997 0.27127250000000008 0.65575499999999998 3.6463750000000005e-05 -8.137874999999998e-09 0.00016369600000000004 -0.60415499999999989 16.002400000000005 2.7580050000000004e-05 0.0044288650000000014 0.12384550000000001 0.053913100000000005 53.953100000000013 0.327845 -0.3562499999999999 -12.926599999999999
decision_type=2 2 2 2 2 2 2 2 2 2 2 2 2 2 2 2 2 2 2 2 2 2 2 2 2 2 2 2 2 2
left_child=-1 20 15 4 7 6 -6 9 -9 -4 -11 -7 17 -13 -5 -3 -17 18 -12 -20 21 24 -23 -24 25 29 -26 28 -27 -2
right_child=1 2 3 14 5 11 -8 8 -10 10 12 13 -14 -15 -16 16 -18 -19 19 -21 -22 22 23 -25 26 27 -28 -29 -30 -31
leaf_value=4.5052959705888889e-06 0.00047680687566875482 1.0735659651199791e-05 0.0031885283601392682 3.5038852495285361e-05 -0.011747164535336196 -0.0036247140192426741 -0.0014709562645293774 -0.0065312477177940313 -0.00025362205391653937 -0.0040570549416804212 0.0011680138928784152 -0.00074683000290324576 -0.0019243084329424336 0.0019094180071260781 0.0013754670270357348 0.0024475050187902528 -0.0001556353055057116 0.0019851765071507545 0.00061239559024285812 -0.00080179903248790664 3.7386440771797978e-06 -0.00049758555385499045 0.0069464427062484908 -0.00033046046009985733 0.0022546959877217886 -0.00017858657720353223 2.0849788321040413e-06 -0.00017530418237179726 -0.0045057917895028367 -5.41868672105904e-05
leaf_weight=101645 205 1996 24 555 20 20 20 20 24 27 59 39 21 20 29 20 25 24 65 20 99003 65 24 20 32 39 92 45 25 13410
leaf_count=101645 205 1996 24 555 20 20 20 20 24 27 59 39 21 20 29 20 25 24 65 20 99003 65 24 20 32 39 92 45 25 13410
internal_value=0 -3.94817e-06 -8.97567e-05 -0.000342726 -0.000986616 -0.00275458 -0.00660906 -0.000245815 -0.00310709 0.000278752 -4.45564e-05 -0.00080294 0.000528658 0.000153593 0.000101601 3.2576e-05 0.00100132 0.000835279 0.000643629 0.000279644 -1.64799e-06 -3.98577e-05 0.00117213 0.00363876 -4.93975e-05 -5.5115e-05 0.000583404 -0.00116971 -0.0018689 -4.61917e-05
internal_weight=0 115988 3028 987 403 119 40 284 44 240 216 79 189 59 584 2041 45 168 144 85 112960 13957 109 44 13848 13724 124 109 64 13615
internal_count=217633 115988 3028 987 403 119 40 284 44 240 216 79 189 59 584 2041 45 168 144 85 112960 13957 109 44 13848 13724 124 109 64 13615
shrinkage=0.05


Tree=670
num_leaves=31
num_cat=0
split_feature=32 16 19 16 8 36 36 11 22 36 8 36 11 9 22 36 36 9 26 39 20 12 18 39 13 26 10 39 36 36
split_gain=0.00155554 0.0164583 0.0511497 0.0151666 0.0140566 0.0392015 0.0774016 0.0284216 0.01813 0.0186152 0.0160483 0.0311712 0.0122135 0.0108233 0.0376684 0.0714533 0.199917 0.132206 0.0286717 0.0542806 0.0522706 0.0477743 0.0637434 0.0179651 0.0159533 0.0628071 0.125542 0.0148339 0.0352125 0.175728
threshold=-0.14294799999999999 1.7763850000000003e-10 -1.0309599999999997 2.8039100000000006e-10 1.2120050000000001e-05 -0.27744100000000016 -0.011175000000000155 0.015505300000000001 8.4120350000000013 0.30085850000000008 1.2548900000000003e-05 0.10022550000000004 0.011966550000000001 4.8912350000000013e-05 38.031000000000013 -0.3819765 0.43531000000000003 0.00016154350000000003 -0.44589049999999997 1.6830350000000001 -10.151399999999999 1.8224600000000005e-05 -2.5240199999999997 5.7275300000000007 -9.5111699999999976e-06 -0.11763599999999998 0.00020297300000000004 1.06199 0.14973499999999998 -0.10081500000000009
decision_type=2 2 2 2 2 2 2 2 2 2 2 2 2 2 2 2 2 2 2 2 2 2 2 2 2 2 2 2 2 2
left_child=1 2 -1 -3 5 12 -7 8 -8 -10 11 -6 -5 27 18 -16 17 -17 19 20 -15 22 -21 -24 25 26 -20 28 29 -12
right_child=-2 3 -4 4 10 6 7 -9 9 -11 13 -13 -14 14 15 16 -18 -19 24 21 -22 -23 23 -25 -26 -27 -28 -29 -30 -31
leaf_value=0.0028600942069897431 7.6798990246319997e-07 -0.0013719203018180929 -0.0002783401760393042 0.00010630639474307511 -0.00026364082366325743 -0.0031264328878993792 0.0012608695644303225 -0.0016690150651223067 -0.0016139479208504782 1.7382553623781166e-06 -0.00011579896896671014 0.0020601563330813039 0.0013921566549304938 -0.0036341081451391807 -0.00021442637174210003 0.0064662433015182617 -0.00013569072141763171 0.0015046317217136927 0.0037233609010817836 0.002957802351606502 -0.00029241844008951872 -0.0015533923388455365 -0.0013909143747739671 0.00057532750349939587 -6.4084342532090696e-05 -1.5790227141694897e-05 -0.00015236457172704832 -3.5623531328829961e-06 7.9055484190750924e-05 -0.0024563587763120095
leaf_weight=20 210679 21 37 115 31 30 22 34 22 94 546 27 22 25 124 25 80 29 37 22 22 34 21 26 696 282 48 3791 577 94
leaf_count=20 210679 21 37 115 31 30 22 34 22 94 546 27 22 25 124 25 80 29 37 22 22 34 21 26 696 282 48 3791 577 94
internal_value=0 -2.32671e-05 0.000822865 -3.02599e-05 -2.61624e-05 -0.000340092 -0.00078289 -0.000374133 -5.51038e-05 -0.000304685 -9.88239e-06 0.000818127 0.000312793 -1.72947e-05 0.000101945 0.000650567 0.00145101 0.00380167 -1.47444e-05 -0.000661869 -0.00206991 -1.93629e-05 0.000736536 -0.000303206 7.65713e-05 0.000343319 0.00153472 -5.23191e-05 -0.000204198 -0.000459569
internal_weight=0 6954 57 6897 6876 339 202 172 138 116 6537 58 137 6479 1471 258 134 54 1213 150 47 103 69 47 1063 367 85 5008 1217 640
internal_count=217633 6954 57 6897 6876 339 202 172 138 116 6537 58 137 6479 1471 258 134 54 1213 150 47 103 69 47 1063 367 85 5008 1217 640
shrinkage=0.05


Tree=671
num_leaves=31
num_cat=0
split_feature=27 5 36 18 13 39 36 17 10 15 15 27 8 11 13 11 5 8 5 32 16 15 13 36 19 14 20 20 13 10
split_gain=0.00159226 0.0119692 0.0112648 0.0109653 0.0601772 0.0236849 0.014082 0.0107382 0.0460112 0.0105557 0.0255503 0.0482498 0.0553854 0.0406689 0.0257045 0.0390401 0.0815699 0.0243106 0.0291308 0.04745 0.0240392 0.0212705 0.0153452 0.0144315 0.0135838 0.0125539 0.0234537 0.0299908 0.0192665 0.0185333
threshold=0.036175450000000005 6.5656500000000012e-06 5.6762150000000009 18.392150000000004 -9.2257149999999992e-07 0.72566000000000008 -1.0422104999999997 19.256550000000001 1.0000000180025095e-35 -5.8589749999999996e-05 -0.00046666149999999995 0.12582950000000004 1.7484350000000005e-05 0.0067067750000000008 1.9598050000000002e-06 0.0014874650000000001 1.6040250000000003e-05 2.9157150000000003e-05 2.0446800000000002e-05 1.20103 9.7599650000000017e-05 -5.194759999999999e-05 -1.6712999999999997e-05 0.24966499999999994 -0.14156099999999996 -2.2078049999999998e-07 -8.0446299999999979 -8.5818999999999992 -2.9575949999999995e-06 -6.0913899999999993e-05
decision_type=2 2 2 2 2 2 2 2 2 2 2 2 2 2 2 2 2 2 2 2 2 2 2 2 2 2 2 2 2 2
left_child=3 -2 9 7 -5 -6 -7 -1 -9 10 20 13 -13 14 22 -16 -17 -14 19 -19 -3 -11 24 -24 -12 26 27 -23 -28 -27
right_child=1 2 -4 4 5 6 -8 8 -10 21 11 12 17 -15 15 16 -18 18 -20 -21 -22 25 23 -25 -26 29 28 -29 -30 -31
