tree
version=v3
num_class=1
num_tree_per_iteration=1
label_index=0
max_feature_idx=39
objective=regression
feature_names=feature_1 feature_2 feature_3 feature_4 feature_5 feature_6 feature_7 feature_8 feature_9 feature_10 feature_11 feature_12 feature_13 feature_14 feature_15 feature_16 feature_17 feature_18 feature_19 feature_20 feature_21 feature_22 feature_23 feature_24 feature_25 feature_26 feature_27 feature_28 feature_29 feature_30 feature_31 feature_32 feature_33 feature_34 feature_35 feature_36 feature_37 feature_38 feature_39 feature_40
feature_infos=[-15.8245:15.921099999999999] [-16.752600000000001:16.246099999999998] [-3.1493500000000001:3.1103800000000001] [-20.319500000000001:-4.4782599999999997] [-30.8093:57.964799999999997] [5.6674000000000002e-06:0.0023298199999999998] [-0.0010846199999999999:0.00061244499999999998] [8.30501e-06:0.0033717199999999999] [-0.000353588:0.0014071000000000001] [-0.00100786:0.0027983999999999999] [6.1481999999999999e-06:0.0032004400000000001] [-0.027832200000000001:0.0078196399999999992] [-0.020958899999999999:0.028236500000000001] [-0.00035657799999999997:0.0069399600000000002] [1.8339399999999999e-05:1.9515199999999999] [-0.014945999999999999:0.075138999999999997] [-0.0085839799999999997:0.045257800000000001] [-0.0045334399999999997:0.0084634500000000008] [-1.60745:1.84223] [5.1740399999999999e-11:2.4526500000000002] [-54.533999999999999:31.301600000000001] [-20.972899999999999:40.377200000000002] [-3.12656:3.13436] [-42.0899:-5.0951899999999997] [-7.7456100000000001:2.8789500000000001] [0.14570900000000001:337.255] [-2.75034:0.362012] [0.12942899999999999:334.22399999999999] [-4.7191000000000001:12.0253] [-4.327:7.9303699999999999] [4.4848100000000002e-05:4.6588900000000004] [-68.897000000000006:335.04500000000002] [-503.78100000000001:24.742899999999999] [-0.00521471:0.153891] [0.0017619599999999999:8246.0400000000009] [-8.2586999999999993:61.6145] [-92.653999999999996:8.7547599999999992] [-0.00054633199999999996:0.0268715] [-10.6465:1516.5799999999999] [4.26018e-07:279.03699999999998]
tree_sizes=1471 1577 1566 1550 1515 1494 1534 1542 1497 1500 1499 1499 1529 1489 1499 1490 1526 1550 1552 1526 1505 1571 1559 1534 1506 1607 1531 1532 1570 1587 1523 1526 1577 1594 1586 1515 1538 1566 1479 1569 1598 1565 1497 1473 1548 1519 1564 1574 1538 1617 1503 1595 1509 1478 1540 1521 1568 1572 1577 1487 1561 1571 1585 1586 1516 1557 1551 1530 1604 1456 1524 1523 1489 1615 1564 1526 1496 1501 1559 1533 1533 1523 1528 1590 1506 1553 1587 1486 1485 1588 1585 1571 1533 1536 1623 1513 1540 1496 1594 1560 1488 1596 1514 1564 1521 1594 1614 1540 1598 1577 1543 1497 1557 1497 1515 1568 1503 1561 1553 1519 1482 1560 1506 1570 1588 1558 1492 1526 1591 1562 1562 1521 1547 1523 1486 1565 1476 1583 1508 1561 1569 1588 1566 1576 1512 1565 1510 1536 1557 1513 1544 1508 1600 1516 1597 1547 1512 1586 1557 1536 1515 1563 1557 1546 1561 1542 1549 1543 1571 1501 1541 1621 1590 1529 1534 1596 1536 1580 1489 1563 1592 1516 1578 1585 1597 1622 1593 1540 1562 1567 1597 1596 1563 1524 1546 1568 1544 1508 1597 1583 1533 1542 1574 1525 1527 1573 1561 1558 1591 1594 1574 1555 1570 1554 1621 1621 1503 1549 1545 1633 1535 1594 1565 1554 1600 1604 1562 1548 1543 1494 1576 1563 1504 1487 1555 1550 1608 1477 1540 1517 1552 1537 1578 1551 1541 1645 1601 1506 1596 1571 1549 1481 1546 1575 1555 1524 1552 1594 1497 1576 1548 1620 1563 1609 1565 1571 1535 1504 1534 1585 1579 1612 1545 1603 1556 1583 1577 1556 1595 1574 1613 1535 1583 1503 1572 1548 1612 1562 1499 1539 1561 1588 1551 1615 1597 1586 1535 1539 1604 1524 1577 1648 1547 1662 1600 1536 1547 1564 1534 1587 1620 1584 1539 1605 1578 1627 1577 1598 1565 1574 1547 1517 1622 1585 1634 1617 1519 1647 1555 1557 1537 1598 1551 1639 1584 1609 1580 1610 1651 1559 1598 1586 1619 1637 1508 1627 1588 1561 1643 1547 1613 1660 1584 1615 1574 1585 1595 1644 1627 1559 1563 1612 1643 1591 1615 1529 1612 1589 1497 1573 1534 1577 1505 1543 1549 1564 1571 1546 1556 1582 1566 1508 1571 1545 1542 1529 1632 1586 1558 1614 1600 1608 1575 1609 1567 1659 1601 1552 1543 1583 1572 1564 1544 1589 1556 1567 1539 1626 1558 1588 1581 1575 1573 1564 1605 1579 1577 1587 1537 1570 1600 1556 1561 1611 1536 1601 1620 1562 1591 1567 1578 1542 1627 1535 1616 1551 1538 1549 1590 1574 1615 1619 1587 1525 1554 1602 1614 1600 1594 1580 1602 1604 1613 1596 1576 1551 1610 1612 1582 1634 1534 1599 1575 1552 1603 1593 1638 1584 1595 1543 1570 1591 1555 1571 1613 1539 1589 1628 1620 1542 1606 1543 1546 1616 1537 1572 1632 1582 1577 1579 1529 1530 1570 1570 1541 1589 1598 1593 1593 1592 1548 1601 1590 1639 1580 1584 1628 1579 1545 1617 1617 1611 1635 1653 1587 1577 1642 1572 1622 1655 1571 1559 1529 1609 1533 1563 1571 1570 1601 1596 1605 1602 1592 1601 1563 1543 1592 1544 1604 1552 1602 1569 1631 1625 1573 1608 1666 1632 1548 1590 1615 1612 1577 1574 1629 1610 1570 1620 1574 1552 1612 1553 1620 1575 1594 1615 1612 1548 1619 1569 1583 1586 1534 1585 1615 1556 1558 1619 1503 1572 1577 1599 1598 1635 1536 1591 1577 1602 1580 1573 1646 1613 1609 1565 1591 1575 1533 1624 1555 1611 1630 1620 1590 1568 1590 1561 1592 1581 1660 1541 1502 1594 1621 1616 1580 1630 1627 1575 1607 1569 1638 1580 1616 1598 1642 1573 1612 1625 1528 1555 1662 1598 1572 1655 1574 1634 1590 1598 1603 1631 1602 1496 1514 1516 1569 1603 1578 1581 1551 1580 1578 1524 1535 1615 1542 1601 1583 1608 1545 1618 1624 1631 1524 1566 1600 1593 1621 1605 1643 1648 1558 1572 1581 1554 1654 1609 1564 1602 1601 1574 1602 1572 1585 1627 1594 1592 1594 1616 1619 1622 1574 1672 1606 1548 1581 1660 1615 1580 1610 1643 1590 1577 1581 1584 1555 1537 1585 1607 1633 1589 1661 1532 1599 1598 1579 1573 1559 1574 1633 1579 1595 1643 1596 1607 1590 1609 1560 1587 1608 1607 1562 1642 1566 1609 1582 1551 1589 1590 1577 1613 1604 1567 1595 1627 1607 1586 1568 1615 1609 1582 1652 1615 1597 1641 1611 1539 1604 1578 1567 1609 1597 1627 1616 1636 1536 1559 1562 1551 1569 1633 1677 1568 1616 1591 1639 1580 1579 1601 1561 1595 1604 1577 1569 1639 1594 1640 1578 1608 1619 1631 1568 1620 1617 1579 1555 1614 1549 1660 1615 1568 1575 1563 1604 1547 1598 1598 1621 1627 1520 1561 1562 1565 1631 1599 1644 1578 1576 1613 1614 1611 1562 1590 1611 1598 1618 1541 1645 1553 1574 1578 1631 1648 1682 1562 1555 1657 1595 1633 1587 1571 1541 1550 1637 1595 1563 1634 1618 1568 1598 1582 1633 1636 1611 1544 1568 1608 1585 1615 1573 1606 1568 1638 1547 1598 1528 1595 1590 1591 1620 1635 1615 1607 1636 1589 1649 1630 1604 1611 1617 1558 1549 1570 1587 1613 1593 1576 1617 1558 1633 1612 1619 1576 1601 1602 1590 1560 1554 1599 1540 1561 1607 1589 1577 1634 1653 1604 1621 1545 1620 1572 1620 1568 1566 1580 1630 1567 1648 1575 1596 1594 1556 1621 1612 1683 1560 1600 1562 1622 1517 1598 1662 1598 1584 1616 1594 1591 1614 1616 1618 1595 1607 1558 1552 1562 1581 1537 1580 1543 1565 1572 1534 1599 1602 1631 1576 1550 1616 1608 1588 1584 1587 1632 1599 1593 1599

Tree=0
num_leaves=15
num_cat=0
split_feature=13 3 18 18 38 34 14 7 38 7 19 18 38 23
split_gain=6.33465 8.7023 3.19645 3.88393 3.88627 3.08853 2.30883 1.92034 1.81476 2.09529 2.21854 1.6126 2.5663 1.51898
threshold=6.9941200000000014e-05 -6.0725999999999987 -0.00021213949999999998 0.00010406150000000001 -0.026803249999999997 0.47622350000000008 0.00086775350000000003 4.6421100000000009e-05 0.024575250000000003 4.1519350000000004e-05 0.00092522000000000014 -4.8256399999999994e-05 0.0041614350000000007 -6.1048599999999995
decision_type=2 2 2 2 2 2 2 2 2 2 2 2 2 2
left_child=1 2 8 5 7 11 -7 -5 -1 10 -10 12 -4 -3
right_child=-2 13 3 4 -6 6 -8 -9 9 -11 -12 -13 -14 -15
leaf_value=0.032272132478798232 0.03245653866065927 0.032046039559333439 0.033068253680593698 0.065177810909768236 0.032255155071858263 0.032619671253595987 0.040702745201793608 0.038862021338050064 0.043844477496962034 0.0364741070991349 0.090668007083157975 0.040230423132688861 0.057376392440989368 0.046318161716703547
leaf_weight=1403 5555 3969 572 54 1461 1161 508 57 25 108 17 7286 47 76
leaf_count=1403 5555 3969 572 54 1461 1161 508 57 25 108 17 7286 47 76
internal_value=0.0353828 0.0363536 0.0376402 0.0382324 0.0336256 0.0389888 0.0350799 0.0516643 0.0333899 0.0438445 0.0627969 0.0398141 0.0349139 0.0323142
internal_weight=0 16744 12699 11146 1572 9574 1669 111 1553 150 42 7905 619 4045
internal_count=22299 16744 12699 11146 1572 9574 1669 111 1553 150 42 7905 619 4045
shrinkage=1


Tree=1
num_leaves=15
num_cat=0
split_feature=13 7 1 33 19 10 26 23 23 12 21 17 4 4
split_gain=5.1503 3.48158 1.19614 1.14621 3.50381 1.28023 2.2709 1.48007 1.10333 2.36894 3.47504 1.2071 1.1703 1.07082
threshold=6.3414900000000022e-05 5.4324650000000002e-05 -12.675199999999998 -3.8491799999999989e-05 0.00019585150000000001 3.2922000000000008e-05 -0.00014341149999999995 -15.690899999999997 -16.786249999999999 -0.00030348099999999992 -0.81330049999999987 4.6762200000000004e-05 0.9753535000000001 0.84471600000000013
decision_type=2 2 2 2 2 2 2 2 2 2 2 2 2 2
left_child=1 2 -1 4 5 6 13 -8 9 10 -4 -11 -10 -2
right_child=3 -3 8 -5 -6 -7 7 -9 12 11 -12 -13 -14 -15
leaf_value=-0.0032334688347711994 -0.0033235058747231958 -0.0013284223503029855 0.074696297757327543 -0.0030118462838226862 -0.0019326592251430194 0.0058406623556863432 0.029982108895977334 0.078275313837961713 0.0025600837988968414 -0.0025707217236991564 -0.0037138207027545343 0.029364656501760084 -0.0030812998824016587 0.03675434693694115
leaf_weight=445 20.000000000000004 4907 10.000000000000002 5268 457 43 15.000000000000002 10.999999999999998 9841 865 12.999999999999998 11.999999999999998 382 9.9999999999999982
leaf_count=445 20 4907 10 5268 457 43 15 11 9841 865 13 12 382 10
internal_value=0 0.00090359 0.00185038 -0.00255609 0.00176215 0.018818 0.0287827 0.0504138 0.00205377 -0.00130291 0.0303775 -0.00213375 0.00234928 0.0100358
internal_weight=0 16475 11568 5824 556 99 56 26 11123 900 23 877 10223 30
internal_count=22299 16475 11568 5824 556 99 56 26 11123 900 23 877 10223 30
shrinkage=0.1


Tree=2
num_leaves=15
num_cat=0
split_feature=13 3 4 4 23 3 33 35 16 23 3 17 33 19
split_gain=4.17681 6.63927 3.21855 3.29939 1.2872 6.66276 1.39114 1.50775 1.82657 1.22762 3.89498 1.13636 0.838681 3.03779
threshold=7.1787900000000018e-05 -6.0725999999999987 -1.4166899999999998 0.9753535000000001 -16.786249999999999 -16.232699999999998 -3.2218649999999993e-05 -0.0016833149999999997 1.6685900000000001e-06 -6.1048599999999995 -5.8392349999999995 1.0856900000000001e-07 -3.4138749999999996e-05 0.00018404150000000003
decision_type=2 2 2 2 2 2 2 2 2 2 2 2 2 2
left_child=1 2 -1 4 5 6 -4 -8 -9 -3 11 -11 13 -2
right_child=12 9 3 -5 -6 -7 7 8 -10 10 -12 -13 -14 -15
leaf_value=-0.0029287157562332051 0.019844204969213984 -0.0029918588394743577 0.0036383917385881602 -0.0026903656325233515 0.0033057343031638181 -0.0030640699053267103 0.012813686968928035 0.07999907686064639 0.027655470107371613 0.02257897146046161 -0.0046110966346330114 0.068033515899018807 -0.0028220702450599345 -0.0016372343286781049
leaf_weight=1247 76 3969 10.999999999999998 1139 9572 777 10.999999999999998 15.000000000000002 11.999999999999998 11.000000000000002 54 10.999999999999998 4902 492
leaf_count=1247 76 3969 11 1139 9572 777 11 15 12 11 54 11 4902 492
internal_value=0 0.000780269 0.00189754 0.00241919 0.00297889 -0.000808665 0.0349556 0.0440211 0.0567353 -0.00275079 0.00983866 0.0453062 -0.00240058 0.00123704
internal_weight=0 16829 12784 11537 10398 826 49 38 27 4045 76 22 5470 568
internal_count=22299 16829 12784 11537 10398 826 49 38 27 4045 76 22 5470 568
shrinkage=0.1


Tree=3
num_leaves=15
num_cat=0
split_feature=13 3 4 4 23 3 23 3 9 23 16 3 23 33
split_gain=3.40283 5.48667 2.51767 2.62637 1.06933 5.33178 0.994356 3.15494 1.11408 0.955853 0.82106 0.785359 0.837748 0.77372
threshold=6.3414900000000022e-05 -6.0725999999999987 -1.4166899999999998 0.9753535000000001 -16.786249999999999 -16.232699999999998 -6.1048599999999995 -5.8392349999999995 1.2781400000000001e-05 -19.774249999999999 3.6971950000000004e-06 -17.461949999999998 -15.808049999999998 -3.8491799999999989e-05
decision_type=2 2 2 2 2 2 2 2 2 2 2 2 2 2
left_child=1 2 -1 4 5 9 -3 8 -8 -4 -11 12 -6 -2
right_child=13 6 3 -5 11 -7 7 -9 -10 10 -12 -13 -14 -15
leaf_value=-0.0026309162717261889 0.0014701786340489019 -0.0026931208614745785 0.0085137886616090935 -0.0024942104170369989 0.025381479263305664 -0.0027393840121527646 0.01827227717096155 -0.004149986907011933 0.063278961791233587 0.054188350103795524 0.021906556876806114 0.0031655497166166455 -0.0042467499891536654 -0.0024521354122699758
leaf_weight=1176 556 3949 11.999999999999998 1065 9.9999999999999982 763 11.000000000000002 54 10.999999999999998 20 12.999999999999998 9182 209 5268
leaf_count=1176 556 3949 12 1065 10 763 11 54 11 20 13 9182 209 5268
internal_value=0 0.000734472 0.0017721 0.00223138 0.00272435 -0.000766624 -0.00247507 0.00885479 0.0407756 0.0326826 0.0414713 0.00302439 -0.00289386 -0.00207768
internal_weight=0 16475 12450 11274 10209 808 4025 76 22 45 33 9401 219 5824
internal_count=22299 16475 12450 11274 10209 808 4025 76 22 45 33 9401 219 5824
shrinkage=0.1


Tree=4
num_leaves=15
num_cat=0
split_feature=3 14 4 4 34 14 37 7 18 24 34 30 34 3
split_gain=2.72639 4.39251 2.13245 2.12251 2.08242 2.11877 1.54271 1.57347 1.44155 2.23727 2.09636 1.71052 1.15239 1.35993
threshold=-5.8392349999999995 0.004937775000000001 -0.7010829999999999 0.93067350000000004 0.47622350000000008 0.0034582950000000006 6.1037650000000011e-07 3.6070700000000007e-05 4.7424050000000009e-05 0.53476600000000007 2.8705050000000001 0.0088958150000000014 0.49467900000000004 -15.395849999999998
decision_type=2 2 2 2 2 2 2 2 2 2 2 2 2 2
left_child=1 2 -1 4 -4 8 7 -7 -6 -10 11 -11 -3 -14
right_child=-2 12 3 -5 5 6 -8 -9 9 10 -12 -13 13 -15
leaf_value=-0.0021190124599591155 -0.0025436806490405153 -0.00235953982173803 0.0031030799284600414 -0.0023250139777713816 -0.0021444917539117105 0.047231939772055268 0.0011537076702908329 0.010101595126092435 -0.003709678711708297 0.01891982519688705 -0.0047026445933928095 0.071276407961088875 0.0072651758574836956 -0.0008064373925222697
leaf_weight=1408 3544 5021 8408 1026 1595 21 46 25 44 12.000000000000002 11.999999999999998 12.999999999999998 277 847
leaf_count=1408 3544 5021 8408 1026 1595 21 46 25 44 12 12 13 277 847
internal_value=0 0.000480661 0.00154898 0.00201002 0.0024471 -0.000672517 0.0141031 0.0270524 -0.00148359 0.0115305 0.029654 0.0461452 -0.00171161 0.00118274
internal_weight=0 18755 12610 11202 10176 1768 92 46 1676 81 37 25 6145 1124
internal_count=22299 18755 12610 11202 10176 1768 92 46 1676 81 37 25 6145 1124
shrinkage=0.1


Tree=5
num_leaves=15
num_cat=0
split_feature=3 14 4 4 34 4 24 34 4 24 34 23 3 2
split_gain=2.28176 3.83627 1.78472 1.71436 1.71359 1.82114 2.23855 3.34346 1.82616 2.56119 2.07291 0.96194 2.80127 1.15361
threshold=-6.0725999999999987 0.004937775000000001 -0.7010829999999999 0.93067350000000004 0.5512450000000001 -0.49158199999999991 -0.45930899999999997 1.5327350000000002 0.39091350000000008 0.53476600000000007 2.8705050000000001 -6.1048599999999995 -5.8392349999999995 -0.48194749999999992
decision_type=2 2 2 2 2 2 2 2 2 2 2 2 2 2
left_child=1 2 -1 4 -4 6 7 -6 -7 -10 -11 -2 13 -13
right_child=11 -3 3 -5 5 8 -8 -9 9 10 -12 12 -14 -15
leaf_value=-0.0019429568765394326 -0.0022505324942205382 -0.0015357490668614459 0.0029747619505458081 -0.0020661368031842098 0.083343752399086923 -0.0022604177151425843 -0.0041866318583488465 0.011226274766441849 -0.0022554434028764568 0.045360816925250257 0.0013818184242529027 0.011459493730217214 -0.0034335511337433549 0.055929901557309293
leaf_weight=1301 4293 6106 8015 951 10.000000000000002 1394 25 18 60 29 17 10.000000000000002 56 13.999999999999998
leaf_count=1301 4293 6106 8015 951 10 1394 25 18 60 29 17 10 56 14
internal_value=0 0.000499621 0.00155106 0.0019832 0.00238568 -0.000654572 0.0175631 0.0369825 -0.00129826 0.011355 0.0291077 -0.00204807 0.00881668 0.0374006
internal_weight=0 17926 11820 10519 9568 1553 53 28 1500 106 46 4373 80 24
internal_count=22299 17926 11820 10519 9568 1553 53 28 1500 106 46 4373 80 24
shrinkage=0.1


Tree=6
num_leaves=15
num_cat=0
split_feature=13 3 4 4 23 3 10 38 3 32 23 3 35 23
split_gain=1.92124 2.89676 1.62662 1.73896 1.13109 3.37915 0.933141 0.686729 1.5006 0.719339 0.565175 3.61037 1.59092 0.558916
threshold=0.00010717200000000001 -6.0971649999999995 -1.4166899999999998 0.9753535000000001 -6.1162449999999993 -5.8392349999999995 3.3637050000000007e-05 -0.04896579999999999 -15.526149999999999 -3.6306699999999994 -17.401049999999994 -17.030649999999998 -0.0022306949999999996 -6.1118099999999993
decision_type=2 2 2 2 2 2 2 2 2 2 2 2 2 2
left_child=1 2 -1 10 -3 6 -6 8 -5 -10 11 12 -4 -12
right_child=-2 4 3 7 5 -7 -8 -9 9 -11 13 -13 -14 -15
leaf_value=-0.0020156487001085216 -0.0018462893025832433 -0.0020653457528873849 0.0019618445160714056 0.041883506287227978 0.014525213956155556 -0.0028783569699280882 0.051494412589818239 -0.0021507630539495631 0.026188977323472501 -0.0031913999207317831 0.0023145094843023697 -0.0024401653581445325 0.049309019353240731 -0.0023316784159637485
leaf_weight=1424 4499 4152 11.000000000000002 10.999999999999998 11.000000000000002 73 18 1401 9.9999999999999982 50 9717 636 20 266
leaf_count=1424 4499 4152 11 11 11 73 18 1401 10 50 9717 636 20 266
internal_value=0 0.000466655 0.00118155 0.00155713 -0.00180977 0.00859369 0.0374716 -0.00166452 0.00793012 0.00170533 0.00200241 -0.000815869 0.0325084 0.00219071
internal_weight=0 17800 13546 12122 4254 102 29 1472 71 60 10650 667 31 9983
internal_count=22299 17800 13546 12122 4254 102 29 1472 71 60 10650 667 31 9983
shrinkage=0.1


Tree=7
num_leaves=15
num_cat=0
split_feature=13 3 4 24 4 4 19 23 23 3 18 39 18 3
split_gain=1.5562 2.34638 1.34826 2.00183 2.08633 1.49501 1.20055 1.11859 0.916181 2.73711 1.05078 0.861401 1.21461 0.806061
threshold=0.00010717200000000001 -6.0971649999999995 -0.7010829999999999 -0.79481749999999984 -2.0605549999999995 0.9753535000000001 0.00049788050000000009 -10.976349999999998 -6.1162449999999993 -5.8392349999999995 6.6588450000000013e-09 0.019034800000000001 0.00023698150000000002 -9.8324999999999978
decision_type=2 2 2 2 2 2 2 2 2 2 2 2 2 2
left_child=1 2 3 4 -1 11 7 -6 -3 10 -10 -4 -13 -9
right_child=-2 8 5 -5 6 -7 -8 13 9 -11 -12 12 -14 -15
leaf_value=-0.0024745608837558677 -0.0016616603740886148 -0.0018588111877193771 0.002142115194503118 -0.0021837349706563982 -0.0032011063261465594 -0.0014980724509096827 0.04112644503298013 0.0057245215959846954 0.050882555823773136 -0.0025905212081254346 0.012606785303125015 -0.0024380685538970106 0.032718045916408305 0.042377418391406539
leaf_weight=65 4499 4152 9494 1866 22 1472 23 10.000000000000002 16.000000000000004 73 12.999999999999998 569 9.9999999999999982 14.999999999999998
leaf_count=65 4499 4152 9494 1866 22 1472 23 10 16 73 13 569 10 15
internal_value=0 0.000419989 0.00106339 -0.00133299 0.0104263 0.00147874 0.0224056 0.0132443 -0.00162879 0.00773432 0.0337245 0.00191375 -0.00183088 0.0277163
internal_weight=0 17800 13546 2001 135 11545 70 47 4254 102 29 10073 579 25
internal_count=22299 17800 13546 2001 135 11545 70 47 4254 102 29 10073 579 25
shrinkage=0.1


Tree=8
num_leaves=15
num_cat=0
split_feature=13 3 4 24 7 4 24 4 30 4 24 34 3 6
split_gain=1.26052 1.90057 1.09209 1.62148 1.716 1.26616 5.84783 3.04652 1.71463 1.68114 1.72576 2.70977 1.29955 1.20081
threshold=0.00010717200000000001 -6.0971649999999995 -0.7010829999999999 -0.79481749999999984 3.995050000000001e-05 0.4097745000000001 0.41062350000000009 0.9753535000000001 0.0041305400000000011 -0.49158199999999991 -0.45930899999999997 1.5327350000000002 -15.526149999999999 -6.492014999999999e-08
decision_type=2 2 2 2 2 2 2 2 2 2 2 2 2 2
left_child=1 2 3 4 -1 8 -7 13 -4 10 11 -10 -9 -8
right_child=-2 -3 5 -5 -6 6 7 12 9 -11 -12 -13 -14 -15
leaf_value=0.026758572352118794 -0.0014954943571320028 -0.0014659132028404024 0.0024100301934555815 -0.0019653614421773383 0.0020678594502571384 -0.0024336418219679237 0.017638993337202601 0.034542789217084646 0.061018139794468886 -0.0023553895648299535 -0.0041329753616203861 0.0063859927265540427 -9.8719788497095729e-05 0.038696916459335227
leaf_weight=40 4499 4254 7916 1866 95 2094 68 11.999999999999998 14.999999999999998 1231 30 23 111 45
leaf_count=40 4499 4254 7916 1866 95 2094 68 12 15 1231 30 23 111 45
internal_value=0 0.00037799 0.000957052 -0.00119969 0.00938363 0.00133086 -0.000751793 0.0141711 0.00185746 -0.00150987 0.0137965 0.0279513 0.00328094 0.0260249
internal_weight=0 17800 13546 2001 135 11545 2330 236 9215 1299 68 38 123 113
internal_count=22299 17800 13546 2001 135 11545 2330 236 9215 1299 68 38 123 113
shrinkage=0.1


Tree=9
num_leaves=15
num_cat=0
split_feature=13 7 14 39 5 14 19 33 33 19 29 20 0 23
split_gain=1.02102 0.868794 0.501321 4.23642 1.34288 1.40962 1.54615 3.25583 1.78195 2.0532 1.61198 0.822775 1.70248 2.31263
threshold=0.00010717200000000001 7.0934400000000023e-05 7.7028400000000009e-05 9.2872500000000005e-07 1.49443e-05 3.9058100000000005e-05 0.00010109400000000002 1.7107900000000001e-06 5.1041500000000011e-07 1.2466600000000002e-08 -0.0017989349999999998 9.8038950000000025 9.0247150000000023 -6.8361599999999987
decision_type=2 2 2 2 2 2 2 2 2 2 2 2 2 2
left_child=1 2 3 4 5 -1 8 -8 9 10 -7 -5 -13 -14
right_child=-2 -3 -4 11 -6 6 7 -9 -10 -11 -12 12 13 -15
leaf_value=0.0019178637796465087 -0.0013459449095324851 -0.0012112363245957635 0.00090837582158415076 -0.00248689611065895 0.0024439942708389985 0.076028081148185489 0.016452583617397713 0.091161540150642401 -0.0039202582401533922 0.0020993658396251062 0.027438175890387762 -0.0026176377085761894 0.00051197073995493927 0.04456496412273158
leaf_weight=34 4499 3001 12438 2021 74 11.000000000000002 14.000000000000002 9.9999999999999982 24 17 18 90 26 22
leaf_count=34 4499 3001 12438 2021 74 11 14 10 24 17 18 90 26 22
internal_value=0 0.000340191 0.000654796 -0.000681089 0.0131674 0.0193669 0.0256782 0.0475813 0.0181686 0.0296932 0.0458688 -0.00197678 0.00549386 0.0207029
internal_weight=0 17800 14799 2361 202 128 94 24 70 46 29 2159 138 48
internal_count=22299 17800 14799 2361 202 128 94 24 70 46 29 2159 138 48
shrinkage=0.1


Tree=10
num_leaves=15
num_cat=0
split_feature=3 14 23 3 23 23 3 14 3 21 30 23 2 34
split_gain=0.857346 1.7617 9.16187 6.57832 7.35225 5.29218 5.00484 4.6337 3.4716 2.83402 2.93611 2.58374 1.66239 1.60635
threshold=-6.0725999999999987 0.00077369700000000016 -10.609499999999999 -10.742099999999999 -12.811799999999998 -10.673999999999998 -11.019649999999997 0.004937775000000001 -10.742099999999999 -5.3023799999999985 0.0028916150000000006 -17.204649999999997 2.7367000000000004 0.24396500000000002
decision_type=2 2 2 2 2 2 2 2 2 2 2 2 2 2
left_child=1 2 3 4 -1 6 7 11 -4 -6 -11 12 -3 -10
right_child=-2 5 8 -5 9 -7 -8 -9 13 10 -12 -13 -14 -15
leaf_value=-0.0039723933660494749 -0.0012554149056292633 -0.0030506288042403962 -0.0059749358530048619 -0.0045899678213749883 -0.005626716484364711 -0.0022853682171082323 -0.0016966795096218464 0.0011806527374086228 0.0059861128093616905 0.044318354787195431 0.00083564015987672299 0.011779488832261299 0.038820984326303008 -0.00071319349245506716
leaf_weight=134 4373 183 294 2434 19 6564 1922 1409 3476 85 19 978 9.9999999999999982 399
leaf_count=134 4373 183 294 2434 19 6564 1922 1409 3476 85 19 978 10 399
internal_value=0 0.000306255 0.00156535 -0.00298337 0.0122324 -0.000474277 0.00216633 0.00504412 0.00450145 0.0298864 0.0363744 0.00969281 -0.000881115 0.0052963
internal_weight=0 17926 6860 2691 257 11066 4502 2580 4169 123 104 1171 193 3875
internal_count=22299 17926 6860 2691 257 11066 4502 2580 4169 123 104 1171 193 3875
shrinkage=0.1


Tree=11
num_leaves=15
num_cat=0
split_feature=3 14 39 4 4 39 14 13 20 0 13 16 33 1
split_gain=0.697895 1.27844 3.9726 3.0817 4.65791 2.4432 1.66421 1.33818 1.2999 8.05431 1.82095 1.68015 1.90827 4.6029
threshold=-5.8392349999999995 0.00077369700000000016 8.2300850000000017e-06 0.15009650000000005 -0.16117699999999999 1.0485200000000001e-05 0.00013119700000000002 6.3414900000000022e-05 5.8804000000000007 5.0473950000000007 -1.4439899999999999e-05 -1.3564599999999998e-06 -1.2092149999999998e-06 -0.7272964999999999
decision_type=2 2 2 2 2 2 2 2 2 2 2 2 2 2
left_child=1 2 3 4 -1 -3 -4 -7 -8 -10 -11 -12 -13 -14
right_child=-2 5 6 -5 -6 7 8 -9 9 10 11 12 13 -15
leaf_value=-0.0025560458712544001 -0.0012869572978042084 -0.002202997585049952 -0.0036130205614316371 -0.0029544677294435959 0.0077455971553778633 0.002174418229491984 -0.0003679574908365432 -0.00066333352177874575 -0.0042121234216125304 0.0066926744191304734 -0.0021372527970621984 0.041469446063356508 0.057380415474701879 -0.0026429746419382402
leaf_weight=564 3544 4600 1334 525 1979 3417 2524 3235 362 68 18 71 19 39
leaf_count=564 3544 4600 1334 525 1979 3417 2524 3235 362 68 18 71 19 39
internal_value=0 0.000243187 0.00125425 0.00402081 0.00546084 -0.000431007 -0.000659565 0.000794363 0.000610964 0.00489311 0.0202238 0.0264831 0.0304766 0.0170199
internal_weight=0 18755 7503 3068 2543 11252 4435 6652 3101 577 215 147 129 58
internal_count=22299 18755 7503 3068 2543 11252 4435 6652 3101 577 215 147 129 58
shrinkage=0.1


Tree=12
num_leaves=15
num_cat=0
split_feature=4 4 24 4 14 34 5 14 32 4 4 21 8 21
split_gain=0.596878 0.800859 0.794784 1.6472 0.538125 3.41068 1.27999 1.34477 1.6226 1.23271 1.62543 1.46391 2.15835 1.08633
threshold=-1.4166899999999998 1.7689400000000002 -1.7384499999999996 -2.5874299999999995 8.1463600000000017e-05 0.0045832400000000014 1.4403400000000002e-05 3.9058100000000005e-05 0.015811250000000002 0.092429650000000016 -0.065667299999999998 4.7554100000000004 -5.0330449999999988e-06 -4.8300649999999994
decision_type=2 2 2 2 2 2 2 2 2 2 2 2 2 2
left_child=2 4 3 -1 5 6 7 -2 9 10 -9 13 -13 -12
right_child=1 -3 -4 -5 -6 -7 -8 8 -10 -11 11 12 -14 -15
leaf_value=-0.001787699054926634 0.0022704336666860259 -0.0011773579739348357 -0.0013113220212351386 0.042098066110450492 0.00083716817217878859 -0.0017606430181560961 0.0029449107327742413 0.0080485203702534962 -0.0055087387665278386 -0.003927285740659996 0.039168161659368442 0.04688664682601628 -0.0072852971575533337 0.080170936447878691
leaf_weight=25 52 3320 3653 12.999999999999998 12158 2803 168 21 18 10.999999999999998 14.000000000000002 19 12.000000000000002 11.999999999999998
leaf_count=25 52 3320 3653 13 12158 2803 168 21 18 11 14 19 12 12
internal_value=0 0.000230421 -0.00116166 0.0132259 0.00053614 -0.000633158 0.00903149 0.0154626 0.0218737 0.0274118 0.0318314 0.0405935 0.0259169 0.0580925
internal_weight=0 18608 3691 38 15288 3130 327 159 107 89 78 57 31 26
internal_count=22299 18608 3691 38 15288 3130 327 159 107 89 78 57 31 26
shrinkage=0.1


Tree=13
num_leaves=15
num_cat=0
split_feature=3 14 23 3 23 23 3 14 3 21 30 23 33 23
split_gain=0.520391 1.02213 6.65599 5.10238 5.76004 3.9925 3.79518 3.48171 2.82189 2.22518 2.32256 2.03531 1.7865 1.58409
threshold=-6.0971649999999995 0.00077369700000000016 -10.609499999999999 -10.742099999999999 -12.811799999999998 -10.609499999999999 -11.019649999999997 0.004937775000000001 -10.742099999999999 -5.3023799999999985 0.0028916150000000006 -17.204649999999997 1.3325250000000001e-05 -11.96805
decision_type=2 2 2 2 2 2 2 2 2 2 2 2 2 2
left_child=1 2 3 4 -1 6 7 11 -4 -6 12 -3 -11 -13
right_child=-2 5 8 -5 9 -7 -8 -9 -10 10 -12 13 -14 -15
leaf_value=-0.0036418818813095341 -0.00096641104771685036 -0.0010476374564393199 -0.0057274972964521682 -0.0041218055919351035 -0.0051407793879901112 -0.0019561287735170821 -0.0014455162107123662 0.0010614054868023635 0.0044372394405818886 0.032981361200412111 0.00046802937592330736 0.012290546029958774 0.073259819470919099 0.0027510810265084732
leaf_weight=134 4458 193 294 2408 19 6452 1947 1440 3845 72 19 781 12.999999999999998 224
leaf_count=134 4458 193 294 2408 19 6452 1947 1440 3845 72 19 781 13 224
internal_value=0 0.000241481 0.0012055 -0.00269233 0.0107013 -0.000352811 0.00190337 0.00437505 0.00371522 0.0263273 0.0320762 0.00835807 0.0391416 0.0101643
internal_weight=0 17841 6804 2665 257 11037 4585 2638 4139 123 104 1198 85 1005
internal_count=22299 17841 6804 2665 257 11037 4585 2638 4139 123 104 1198 85 1005
shrinkage=0.1


Tree=14
num_leaves=15
num_cat=0
split_feature=3 14 23 3 23 23 3 14 3 21 30 33 23 3
split_gain=0.422216 0.740942 5.29877 4.04157 4.66563 3.11784 3.08287 2.90062 2.13819 1.80239 1.88128 1.44706 1.22048 2.67301
threshold=-5.8392349999999995 0.00077369700000000016 -10.609499999999999 -10.742099999999999 -12.811799999999998 -10.543449999999998 -11.019649999999997 0.011024700000000002 -10.742099999999999 -5.3023799999999985 0.0028916150000000006 1.3325250000000001e-05 -11.901299999999997 -12.395199999999997
decision_type=2 2 2 2 2 2 2 2 2 2 2 2 2 2
left_child=1 2 3 4 -1 6 7 12 -4 -6 11 -11 -3 -14
right_child=-2 5 8 -5 9 -7 -8 -9 -10 10 -12 -13 13 -15
leaf_value=-0.0032776937467296294 -0.001001004623020547 0.0079432000880438145 -0.0051547474110044452 -0.0034953564933129706 -0.0046267015418331872 -0.0017404096142132185 -0.0012629822970411202 -0.00010985903065579151 0.0036622608456659354 0.029683225870960291 0.00042122651479746168 0.065933837569676912 -0.0051463700389551325 0.016223817775140943
leaf_weight=134 3544 1286 294 2686 19 6527 2068 1079 4266 72 19 12.999999999999998 211 81
leaf_count=134 3544 1286 294 2686 19 6527 2068 1079 4266 72 19 13 211 81
internal_value=0 0.000189153 0.00095887 -0.00234907 0.0096312 -0.000324106 0.00163234 0.00388583 0.0030938 0.0236945 0.0288686 0.0352274 0.006618 0.000781662
internal_weight=0 18755 7503 2943 257 11252 4725 2657 4560 123 104 85 1578 292
internal_count=22299 18755 7503 2943 257 11252 4725 2657 4560 123 104 85 1578 292
shrinkage=0.1


Tree=15
num_leaves=15
num_cat=0
split_feature=3 14 23 3 23 23 3 14 3 23 23 3 21 30
split_gain=0.352923 0.686101 4.49943 3.35944 3.77916 2.62568 2.58266 2.43959 1.86521 1.5681 1.77546 2.45407 1.45994 1.53237
threshold=-6.0725999999999987 0.00077369700000000016 -10.609499999999999 -10.742099999999999 -12.811799999999998 -10.609499999999999 -11.413399999999998 0.0076471900000000008 -10.742099999999999 -11.732499999999998 -17.204649999999997 -17.030649999999998 -5.3023799999999985 0.0027874550000000003
decision_type=2 2 2 2 2 2 2 2 2 2 2 2 2 2
left_child=1 2 3 4 -1 6 7 9 -4 10 11 -3 -6 -14
right_child=-2 5 8 -5 12 -7 -8 -9 -10 -11 -12 -13 13 -15
leaf_value=-0.0029499244005697324 -0.00080546934928086102 0.035415411347316371 -0.0046392726610560405 -0.0033535529728982703 -0.0041640313250306798 -0.0015879076504838189 -0.00099240903327051555 0.00043882223641905779 0.0036224499405391759 -0.0014941201105904886 0.010240021853574685 -0.003166720785238609 0.032269133936341218 0.002546951428733089
leaf_weight=134 4373 18 294 2434 19 6474 2147 1161 3875 195 875 196 82 22
leaf_count=134 4373 18 294 2434 19 6474 2147 1161 3875 195 875 196 82 22
internal_value=0 0.000196492 0.000982244 -0.00220544 0.00866808 -0.000290609 0.00153838 0.00376071 0.00303983 0.00676438 0.00824318 7.85053e-05 0.0213251 0.0259817
internal_weight=0 17926 6860 2691 257 11066 4592 2445 4169 1284 1089 214 123 104
internal_count=22299 17926 6860 2691 257 11066 4592 2445 4169 1284 1089 214 123 104
shrinkage=0.1


Tree=16
num_leaves=15
num_cat=0
split_feature=3 14 34 34 15 35 33 19 20 14 23 18 24 23
split_gain=0.285867 0.555742 3.67225 2.28352 1.90771 1.82252 1.63161 2.13003 3.3149 1.32109 1.98772 1.12545 3.73819 1.79138
threshold=-6.0725999999999987 0.00077369700000000016 0.046283850000000008 0.046283850000000008 3.6028800000000006e-07 0.0026070400000000001 6.171985000000001e-06 0.00064574900000000015 6.4716200000000006 0.00027748600000000002 -11.830699999999998 1.1170000000000001e-05 0.22223600000000002 -8.3693049999999989
decision_type=2 2 2 2 2 2 2 2 2 2 2 2 2 2
left_child=1 2 4 -3 -1 6 -6 -8 -9 -4 -11 -12 -13 -14
right_child=-2 3 9 -5 5 -7 7 8 -10 10 11 12 13 -15
leaf_value=0.0041342869470584838 -0.00072492241437540315 -0.0017458388631150558 -0.0032119701797799459 0.0011287083431976003 -0.0053336203930739734 0.027438362762331966 -0.0030438479347503749 0.0054937245542532754 0.078888003081083305 -0.0024296862263361082 0.0034694060620444472 -0.0021282965851145141 0.022196835489012301 0.068836323730647561
leaf_weight=2977 4373 5352 1917 5714 478 20 40 16.000000000000004 9.9999999999999982 802 519 47 20 13.999999999999998
leaf_count=2977 4373 5352 1917 5714 478 20 40 16 10 802 519 47 20 14
internal_value=0 0.000176843 0.00088402 -0.000261548 0.003124 -0.00220865 -0.00329861 0.0114398 0.0337223 -0.00150579 0.000827125 0.0051804 0.0161434 0.0414013
internal_weight=0 17926 6860 11066 3541 564 544 66 26 3319 1402 600 81 34
internal_count=22299 17926 6860 11066 3541 564 544 66 26 3319 1402 600 81 34
shrinkage=0.1


Tree=17
num_leaves=15
num_cat=0
split_feature=4 3 23 3 14 22 3 21 23 3 5 29 14 4
split_gain=0.239331 0.340417 1.64815 3.53709 1.23795 2.69252 0.945653 0.616187 0.49752 4.96015 0.860385 1.48259 0.583384 0.58232
threshold=-2.5874299999999995 -6.1782649999999988 -6.3108999999999993 -5.8561999999999985 0.00013973650000000004 1.2871600000000003 -5.9958099999999996 3.0724600000000009 -6.3108999999999993 -6.3788349999999996 1.8036700000000003e-05 0.0017903400000000003 0.00077369700000000016 0.27459550000000005
decision_type=2 2 2 2 2 2 2 2 2 2 2 2 2 2
left_child=-1 8 -3 4 5 6 -4 -6 13 12 11 -11 -10 -2
right_child=1 2 3 -5 7 -7 -8 -9 9 10 -12 -13 -14 -15
leaf_value=-0.0008532490429816659 0.00094905736409593873 -0.0010728426232507107 0.069283137536224185 -0.00029352942796643166 -0.010030982211570845 0.0048355236028631531 0.033454494780072799 0.024267076605465263 -0.0076347204037938684 0.021840652497485277 0.013494478800873223 0.06953155947002497 -0.0018704802220105565 -0.00041814221236657434
leaf_weight=2865 9398 4342 17.000000000000004 170 11.000000000000002 18 12.999999999999998 9.9999999999999982 281 16.000000000000004 19 10.999999999999998 468 4660
leaf_count=2865 9398 4342 17 170 11 18 13 10 281 16 19 11 468 4660
internal_value=0 0.000125788 -0.00062783 0.00745687 0.026552 0.0354117 0.0537574 0.00630143 0.000358221 -0.00207553 0.0297977 0.0412703 -0.00403303 0.000495853
internal_weight=0 19434 4581 239 69 48 30 21 14853 795 46 27 749 14058
internal_count=22299 19434 4581 239 69 48 30 21 14853 795 46 27 749 14058
shrinkage=0.1


Tree=18
num_leaves=15
num_cat=0
split_feature=15 3 23 3 16 20 0 23 3 0 3 26 3 15
split_gain=0.195669 0.299286 4.52566 7.24965 2.19532 1.67529 1.65937 1.6308 2.31445 1.21699 1.11606 0.841257 1.24614 0.754896
threshold=1.006097e-05 -6.3643949999999991 -6.4589649999999992 -6.0725999999999987 -2.6095649999999993e-07 -4.1886449999999984 -2.1517299999999997 -6.4589649999999992 -6.4339449999999987 -2.2756449999999995 -6.0725999999999987 5.1480050000000005e-05 -6.1782649999999988 2.3003900000000006e-09
decision_type=2 2 2 2 2 2 2 2 2 2 2 2 2 2
left_child=1 7 10 4 -4 6 -6 -1 -9 -7 -3 12 -11 -13
right_child=-2 2 3 -5 5 9 -8 8 -10 11 -12 13 -14 -15
leaf_value=0.0007045827581398695 -0.00064895698580985054 -0.0049918420749192598 0.0049934840074274695 0.0016888822935919941 0.044848589636385432 0.019322545052720949 -0.010307302450140318 -0.0039970106206482061 0.030342226461507384 0.087967296288563659 -0.00077064133146153234 0.054781175564442355 0.045666767880708593 0.018807480335235598
leaf_weight=12387 3845 750 25 332 10.000000000000002 12.999999999999998 11.999999999999998 1054 20 12.999999999999998 3799 14.000000000000002 15.000000000000002 9.9999999999999982
leaf_count=12387 3845 750 25 332 10 13 12 1054 20 13 3799 14 15 10
internal_value=0 0.000135214 -0.000526021 0.00911064 0.0311109 0.0386159 0.0147636 0.000380482 -0.00335755 0.0466889 -0.0014666 0.0535305 0.0653063 0.0397921
internal_weight=0 18454 4993 444 112 87 22 13461 1074 65 4549 52 28 24
internal_count=22299 18454 4993 444 112 87 22 13461 1074 65 4549 52 28 24
shrinkage=0.1


Tree=19
num_leaves=15
num_cat=0
split_feature=4 4 24 3 23 3 23 3 16 20 0 0 3 13
split_gain=0.180848 0.24034 0.384572 0.366958 3.90939 6.14069 1.77395 1.97053 1.18297 1.38235 2.04997 1.51724 1.00938 0.781545
threshold=-2.5874299999999995 1.7689400000000002 1.9572750000000003 -6.3643949999999991 -6.4589649999999992 -6.0725999999999987 -6.4589649999999992 -6.4339449999999987 -2.6095649999999993e-07 -4.1886449999999984 -3.2009199999999995 -3.2009199999999995 -6.0725999999999987 -3.2874249999999997e-06
decision_type=2 2 2 2 2 2 2 2 2 2 2 2 2 2
left_child=-1 3 -3 6 12 8 -2 -8 -6 11 -11 -10 -5 -12
right_child=1 2 -4 4 5 -7 7 -9 9 10 13 -13 -14 -15
leaf_value=-0.00074170743305296434 0.00094844195046525246 -0.00073791853543466075 0.01531027875840664 -0.0048844203587292828 0.006603685727244929 0.0017735105791301848 -0.0044430080509180476 0.027308004125952724 0.042263284539803853 -0.00025805499753914777 0.065380867100075665 -0.0095474419685510487 -0.00070355243396689603 0.040429554416521178
leaf_weight=2865 10375 3305 14.999999999999998 683 19 329 862 20 10.000000000000002 9.9999999999999982 19 12.999999999999998 3737 37
leaf_count=2865 10375 3305 15 683 19 329 862 20 10 10 19 13 3737 37
internal_value=0 0.000109344 -0.000665412 0.000268968 -0.000457528 0.00856526 0.000582426 -0.00372303 0.029255 0.0340906 0.0414477 0.012979 -0.0013496 0.0488952
internal_weight=0 19434 3320 16114 4857 437 11257 882 108 89 66 23 4420 56
internal_count=22299 19434 3320 16114 4857 437 11257 882 108 89 66 23 4420 56
shrinkage=0.1


Tree=20
num_leaves=15
num_cat=0
split_feature=4 4 24 3 23 3 23 3 20 0 0 3 3 23
split_gain=0.146487 0.194676 0.311503 0.297236 3.16661 5.01173 1.4369 1.59613 0.874453 2.64563 1.83802 0.817597 0.792612 1.1367
threshold=-2.5874299999999995 1.7689400000000002 1.9572750000000003 -6.3643949999999991 -6.4589649999999992 -6.0971649999999995 -6.4589649999999992 -6.4339449999999987 -4.1886449999999984 -4.7486349999999993 -4.3898849999999987 -6.0725999999999987 -5.8392349999999995 -6.1162449999999993
decision_type=2 2 2 2 2 2 2 2 2 2 2 2 2 2
left_child=-1 3 -3 6 11 8 -2 -8 10 -10 -6 -5 13 -7
right_child=1 2 -4 4 5 12 7 -9 9 -11 -12 -13 -14 -15
leaf_value=-0.00066753669035861548 0.000853597754760118 -0.00066412668249932877 0.013779250619312129 -0.0043959783580724164 0.041548383809052972 0.001384464846099339 -0.0039987073195728844 0.024577204138040543 -0.0089828427861599874 0.042677925268939716 -0.0084021239267552603 -0.00063319718802668781 -0.00071729781637788965 0.026459944466578553
leaf_weight=2865 10375 3305 14.999999999999998 683 13.000000000000002 48 862 20 11.999999999999998 57 17 3737 261 29
leaf_count=2865 10375 3305 15 683 13 48 862 20 12 57 17 3737 261 29
internal_value=0 9.84096e-05 -0.00059887 0.000242072 -0.000411775 0.00770874 0.000524184 -0.00335073 0.0274964 0.0336934 0.0132431 -0.00121464 0.00191295 0.0108285
internal_weight=0 19434 3320 16114 4857 437 11257 882 99 69 30 4420 338 77
internal_count=22299 19434 3320 16114 4857 437 11257 882 99 69 30 4420 338 77
shrinkage=0.1


Tree=21
num_leaves=15
num_cat=0
split_feature=4 38 4 19 20 0 20 37 13 6 33 9 25 1
split_gain=0.128127 1.8554 3.08782 1.03751 1.02991 2.69825 1.02913 0.669362 1.68341 1.39441 0.683084 0.569174 0.645404 0.923654
threshold=-0.42967699999999992 0.0074256350000000007 -1.4166899999999998 0.0026589350000000007 -7.1329849999999988 -5.482454999999999 1.0000000180025095e-35 -1.4744749999999998e-06 2.8998000000000006e-05 3.4136500000000007e-07 -4.7861299999999995e-05 -1.7106999999999997e-05 8.379780000000002 -4.9188699999999992
decision_type=2 2 2 2 2 2 2 2 2 2 2 2 2 2
left_child=1 -1 -3 4 5 -4 -5 8 -6 10 -10 -9 -13 -14
right_child=-2 2 3 6 7 -7 -8 11 9 -11 -12 12 13 -15
leaf_value=-0.0012197823217977579 0.00013024792862271264 -3.9771122371560709e-05 0.071304659992456415 0.01421885395591909 -0.0078323108702898023 0.0058412913726094895 0.058543771430850038 -0.0043611296160123878 0.029960897648707019 0.0027075746655464174 0.066922602318227262 0.004143033551196728 0.045113601313311255 0.0069631878472864632
leaf_weight=4359 17216 506 10.000000000000002 11.000000000000002 14.999999999999998 17 9.9999999999999982 41 10.000000000000002 9.9999999999999982 10.000000000000002 58 11.000000000000002 14.999999999999998
leaf_count=4359 17216 506 10 11 15 17 10 41 10 10 10 58 11 15
internal_value=0 -0.000441147 0.0042468 0.0141964 0.011944 0.030087 0.035326 0.00906243 0.0195206 0.033197 0.0484417 0.0052975 0.0100118 0.0231037
internal_weight=0 5083 724 218 197 27 21 170 45 30 20 125 84 26
internal_count=22299 5083 724 218 197 27 21 170 45 30 20 125 84 26
shrinkage=0.1


Tree=22
num_leaves=15
num_cat=0
split_feature=4 32 4 38 4 19 27 20 0 37 19 33 21 27
split_gain=0.118861 0.25479 0.169139 1.50287 2.50114 0.840382 0.871495 0.834228 2.18558 0.555887 1.7079 1.29074 0.586881 0.476946
threshold=1.7689400000000002 23.502700000000001 -0.42967699999999992 0.0074256350000000007 -1.4166899999999998 0.0026589350000000007 3.9183600000000003 -7.1329849999999988 -5.482454999999999 2.3417550000000004e-08 2.1170350000000003e-05 -4.7861299999999995e-05 -10.688299999999998 40.459300000000006
decision_type=2 2 2 2 2 2 2 2 2 2 2 2 2 2
left_child=2 -2 3 -1 13 7 -7 8 -6 10 11 -9 -11 -5
right_child=1 -3 -4 4 5 6 -8 9 -10 12 -12 -13 -14 -15
leaf_value=-0.0010978040872116248 -0.00060015951119138399 0.01538607450322161 0.00027711432238691482 -0.0012144756747815967 0.064174193739891028 0.053159166574478139 0.012369902872226456 0.010838256669895987 0.0052571619477342164 0.022432231738639532 0.0012759674310636444 0.052415453741559759 0.00037189660481466301 0.0079611076811740462
leaf_weight=4359 3310 9.9999999999999982 13896 441 10.000000000000002 10.000000000000002 10.999999999999998 14.000000000000002 17 13.999999999999998 39 15.999999999999998 87 65
leaf_count=4359 3310 10 13896 441 10 10 11 14 17 14 39 16 87 65
internal_value=0 -0.000552008 9.65629e-05 -0.000397032 0.00382212 0.0127767 0.0317934 0.0107496 0.0270783 0.00815619 0.0150746 0.0330128 0.00342976 -3.5794e-05
internal_weight=0 3320 18979 5083 724 218 21 197 27 170 69 30 101 506
internal_count=22299 3320 18979 5083 724 218 21 197 27 170 69 30 101 506
shrinkage=0.1


Tree=23
num_leaves=15
num_cat=0
split_feature=3 23 3 16 36 14 14 14 23 3 23 23 3 14
split_gain=0.113135 0.996396 2.1639 1.54846 1.10708 0.768935 0.609337 0.272197 2.91343 2.59027 3.19222 1.64052 1.76932 1.75449
threshold=-6.1926199999999989 -6.287234999999999 -5.8392349999999995 6.5284050000000013e-08 0.00057364700000000015 0.00012106850000000002 0.00010127800000000002 0.00077369700000000016 -10.632649999999998 -10.579399999999998 -12.811799999999998 -10.272399999999999 -10.514199999999999 0.004937775000000001
decision_type=2 2 2 2 2 2 2 2 2 2 2 2 2 2
left_child=7 -2 3 4 6 -5 -3 8 9 10 -1 12 13 -9
right_child=1 2 -4 5 -6 -7 -8 11 -10 -11 -12 -13 -14 -15
leaf_value=-0.002920355759400489 -0.00076282541839100952 0.02946095125128825 -0.00088500432035255232 0.049042394136389098 -0.014508845744421706 0.020199909890805813 -0.0013263490074314178 0.0054029298497398305 0.0023114974349529274 -0.0031542085432180659 0.018839788473477323 -0.0012499904026806537 -0.0012211380531448749 0.00048624942190882966
leaf_weight=145 4552 18.000000000000004 161 18 15.999999999999998 19 9.9999999999999982 1341 3987 2240 126 6251 1833 1582
leaf_count=145 4552 18 161 18 16 19 10 1341 3987 2240 126 6251 1833 1582
internal_value=0 -0.000430416 0.00582218 0.0191537 0.00647482 0.0342314 0.0184655 0.000117876 0.000631098 -0.00203706 0.00719691 -0.000185106 0.00121451 0.0027419
internal_weight=0 4794 242 81 44 37 28 17505 6498 2511 271 11007 4756 2923
internal_count=22299 4794 242 81 44 37 28 17505 6498 2511 271 11007 4756 2923
shrinkage=0.1


Tree=24
num_leaves=15
num_cat=0
split_feature=22 2 5 2 3 33 13 15 35 4 24 4 16 35
split_gain=0.0938966 11.5107 3.44474 2.44336 1.97069 1.40852 1.97601 0.896307 1.54809 1.30921 1.39585 0.766455 1.82481 2.81667
threshold=-2.3894049999999996 -2.3810049999999996 1.3386400000000003e-05 -2.3810049999999996 -6.3643949999999991 -2.0511149999999994e-05 3.9421150000000005e-05 1.2136050000000001e-07 0.0009268560000000001 0.039379300000000013 0.085588150000000016 -1.0451899999999996 -1.4100649999999997e-07 0.0005513880000000002
decision_type=2 2 2 2 2 2 2 2 2 2 2 2 2 2
left_child=1 2 4 -2 5 -1 7 8 9 10 -7 -4 -13 -14
right_child=3 -3 11 -5 -6 6 -8 -9 -10 -11 -12 12 13 -15
leaf_value=0.0093029378395941536 -0.0029863223507565705 -0.0030888631907872209 -0.00061731640645971758 0.00048674958969219348 -0.0010967035260465411 0.063667967095971098 0.013396666951510788 0.076219972595572477 0.010119279372421179 0.070114401940788537 0.013973033743409011 0.0059445137931522507 0.0017200673408806326 0.046219518104970291
leaf_weight=18 2296 2419 62 17202 18 10.000000000000002 21 9.9999999999999982 10.999999999999998 21 12.999999999999998 140 25 33
leaf_count=18 2296 2419 62 17202 18 10 21 10 11 21 13 140 25 33
internal_value=0 -0.000541403 0.0155903 7.77757e-05 0.0294532 0.0347406 0.0400648 0.0486807 0.0436735 0.0520621 0.0355795 0.0090854 0.0121236 0.0270387
internal_weight=0 2801 382 19498 122 104 86 65 55 44 23 260 198 58
internal_count=22299 2801 382 19498 122 104 86 65 55 44 23 260 198 58
shrinkage=0.1


Tree=25
num_leaves=15
num_cat=0
split_feature=3 23 3 16 5 20 23 29 17 20 23 3 32 14
split_gain=0.08379 2.06586 3.61662 1.0174 0.817837 1.00831 1.31396 0.673978 0.655031 0.823258 0.632635 1.06883 1.27697 0.907385
threshold=-6.3643949999999991 -6.4589649999999992 -6.0971649999999995 -6.4402249999999988e-07 1.1686600000000003e-05 12.097600000000002 -6.332984999999999 -0.0016854349999999997 3.8698300000000007e-07 -4.1886449999999984 -6.4589649999999992 -6.4339449999999987 -0.00093448049999999986 0.00077369700000000016
decision_type=2 2 2 2 2 2 2 2 2 2 2 2 2 2
left_child=10 -2 3 -3 7 6 -6 -5 9 -8 -1 13 -13 -12
right_child=1 2 -4 4 5 -7 8 -9 -10 -11 11 12 -14 -15
leaf_value=0.00028698555696408723 -0.00096109465500444913 -0.0011109582643257455 0.0012110686174962623 0.02861719958484172 0.067736255148933694 0.0022229039669036869 0.0023476119797963377 -0.0065342692503084741 0.048586315518388379 0.034088501575487568 -0.0059123797450029167 -0.0042065948332575221 0.043978086723522714 -0.0004165963202533182
leaf_weight=15653 4835 15.999999999999998 361 10.000000000000002 10.999999999999998 9.9999999999999982 12.999999999999991 11.999999999999998 12.999999999999998 22.000000000000007 462 11.000000000000002 10.999999999999998 859
leaf_count=15653 4835 16 361 10 11 10 13 12 13 22 462 11 11 859
internal_value=0 -0.000347029 0.005997 0.0221439 0.0262327 0.0315857 0.0365625 0.00944367 0.0294185 0.022299 0.000108278 -0.0019746 0.0198857 -0.00233866
internal_weight=0 5303 468 107 91 69 59 22 48 35 16996 1343 22 1321
internal_count=22299 5303 468 107 91 69 59 22 48 35 16996 1343 22 1321
shrinkage=0.1


Tree=26
num_leaves=15
num_cat=0
split_feature=37 13 7 35 15 4 33 5 25 23 19 4 38 0
split_gain=0.0809746 0.329056 0.767032 1.19255 1.10813 0.401681 0.542872 0.788012 0.981755 0.87303 0.291304 2.14113 2.89102 0.477778
threshold=3.9239150000000009e-06 2.8998000000000006e-05 2.9031850000000002e-05 0.033853900000000013 -5.2492849999999988e-07 -0.20699899999999996 8.0085450000000008e-05 1.3823800000000003e-05 29.210200000000004 -12.250049999999998 0.00019585150000000001 0.66577950000000008 -0.11444099999999997 -9.5826849999999997
decision_type=2 2 2 2 2 2 2 2 2 2 2 2 2 2
left_child=-1 5 3 4 -3 6 -2 8 9 -8 11 13 -13 -4
right_child=1 2 10 -5 -6 -7 7 -9 -10 -11 -12 12 -14 -15
leaf_value=-5.1284440367897725e-05 -0.0026631169293843283 0.056403708364814502 0.015944719049314569 -0.003317196322741973 0.010408978439359503 -0.0014460752008871101 0.011442484860096802 0.0019116049241274594 0.00076686951386577946 0.049720749287651134 -1.7884516371203636e-05 0.054922795663070345 0.0014149603117561051 -0.0036691675292835992
leaf_weight=20793 81 10.000000000000002 13.999999999999998 17 10.999999999999998 763 11.000000000000002 75 17 12.999999999999998 343 18 23 110
leaf_count=20793 81 10 14 17 11 763 11 75 17 13 343 18 23 110
internal_value=0 0.000708073 0.0026681 0.0163722 0.0323112 -0.000406691 0.00361894 0.00800555 0.019153 0.0321765 0.00164299 0.00509559 0.0249062 -0.0014547
internal_weight=0 1506 546 38 21 960 197 116 41 24 508 165 41 124
internal_count=22299 1506 546 38 21 960 197 116 41 24 508 165 41 124
shrinkage=0.1


Tree=27
num_leaves=15
num_cat=0
split_feature=6 33 33 19 13 19 3 34 13 3 34 4 4 3
split_gain=0.0832385 6.9736 3.79619 3.36097 2.72932 2.65963 2.63937 1.97269 1.79335 1.72109 1.69167 1.63837 1.65427 1.48212
threshold=7.1766700000000018e-07 1.0000000180025095e-35 1.0000000180025095e-35 2.1853450000000002e-06 -3.8629749999999992e-06 1.8396200000000002e-05 -6.1514349999999984 0.19237200000000002 -4.3259849999999987e-06 -6.0971649999999995 0.13257400000000003 0.23939700000000003 -0.32811699999999994 -6.1514349999999984
decision_type=2 2 2 2 2 2 2 2 2 2 2 2 2 2
left_child=2 8 3 9 6 -4 7 11 13 10 -1 12 -3 -2
right_child=1 4 5 -5 -6 -7 -8 -9 -10 -11 -12 -13 -14 -15
leaf_value=0.0065844464886939142 -0.0056464450954088388 -0.0001766207150996788 -0.0038436110614097152 -0.00069900631468499969 -0.00016672513164042333 0.00029281438762509231 8.7266464801711755e-05 0.0019916307175362074 1.3273940152528077e-05 1.3149237399418614e-05 0.0008661247916522067 -9.6544493214155609e-05 0.011602264841460725 -0.00063090052364359397
leaf_weight=1838 1915 134 3408 3695 1611 2858 775 563 1714 962 720 173 1082 851
leaf_count=1838 1915 134 3408 3695 1611 2858 775 563 1714 962 720 173 1082 851
internal_value=0 0.000238889 -0.000156258 0.00140757 0.00309673 -0.00195694 0.00502464 0.00698492 -0.00252837 0.00361888 0.00497491 0.00900884 0.0103043 -0.00410334
internal_weight=0 8818 13481 7215 4338 6266 2727 1952 4480 3520 2558 1389 1216 2766
internal_count=22299 8818 13481 7215 4338 6266 2727 1952 4480 3520 2558 1389 1216 2766
shrinkage=0.1


Tree=28
num_leaves=15
num_cat=0
split_feature=37 13 13 19 4 18 33 5 33 19 4 4 33 34
split_gain=0.0851921 0.250711 0.381225 0.7549 0.578179 0.946795 1.2503 1.20339 0.604661 0.695536 0.344632 0.80371 0.957427 1.05175
threshold=3.9239150000000009e-06 2.8998000000000006e-05 8.2126600000000021e-05 5.5577300000000006e-06 1.5897900000000003 -0.00011063699999999998 8.0085450000000008e-05 1.5617050000000003e-05 0.00027772450000000003 0.00092522000000000014 -0.57280299999999984 -1.4166899999999998 8.0085450000000008e-05 2.6566550000000002
decision_type=2 2 2 2 2 2 2 2 2 2 2 2 2 2
left_child=-1 10 3 -3 5 8 7 -7 -5 -10 11 -2 -13 -14
right_child=1 2 -4 4 -6 6 -8 -9 9 -11 -12 12 13 -15
leaf_value=-5.26030322574757e-05 -0.0015281496150794651 -0.0018001060182978581 0.0004439974438011747 -0.003092170784610414 -0.0026798860977869481 0.063175930393238849 0.00337232154436476 0.017384981584142558 0.0045029734275029857 0.036774385839023371 -0.0008856253133079034 -0.0031861652067163961 0.052131161635572243 0.0084015448577702042
leaf_weight=20793 62 77 348 31 25 12.000000000000002 13.999999999999998 10.999999999999998 17.000000000000004 10.999999999999998 862 13.999999999999998 11.000000000000002 10.999999999999998
leaf_count=20793 62 77 348 31 25 12 14 11 17 11 862 14 11 11
internal_value=0 0.000726278 0.00243714 0.00594023 0.0108659 0.0143934 0.026934 0.0412759 0.00652901 0.017181 -0.000246772 0.00537253 0.017257 0.0302664
internal_weight=0 1506 546 198 121 96 37 23 59 28 960 98 36 22
internal_count=22299 1506 546 198 121 96 37 23 59 28 960 98 36 22
shrinkage=0.1


Tree=29
num_leaves=15
num_cat=0
split_feature=36 16 16 16 15 13 16 36 19 35 34 15 6 21
split_gain=0.0750963 0.828501 1.45939 0.729499 1.14029 0.484551 0.10719 1.56131 1.99147 2.72545 1.29905 1.59552 0.935093 0.56338
threshold=0.43230650000000009 6.061655000000001e-06 3.2616700000000009e-05 1.5605150000000004e-05 8.9866000000000013e-06 3.5338100000000006e-05 1.4540650000000001e-06 0.0049060300000000013 2.1170350000000003e-05 0.0018231050000000002 2.1325750000000006 1.6360850000000001e-07 1.4449850000000004e-07 4.0112100000000011
decision_type=2 2 2 2 2 2 2 2 2 2 2 2 2 2
left_child=6 -2 3 5 -5 -3 -1 -8 9 -9 11 -11 13 -13
right_child=1 2 -4 4 -6 -7 7 8 -10 10 -12 12 -14 -15
leaf_value=0.00010913860945083942 -0.0013333705698320014 -0.0032524452913397293 -0.00026988702569450318 0.060738886501640055 0.012983462167467225 0.024613723004809941 -0.0011304421592990977 -0.0016890237114141481 0.0013287248468878846 0.00098011139741477869 -0.0066478991859846501 0.037929131800475989 0.011095477581362832 0.064534315541386597
leaf_weight=15925 322 12.000000000000002 73 10.000000000000002 9.9999999999999982 12.999999999999998 4908 65 875 14.999999999999998 10.999999999999998 39 10.999999999999998 9.9999999999999982
leaf_count=15925 322 12 73 10 10 13 4908 65 875 15 11 39 11 10
internal_value=0 0.00129347 0.00846162 0.0226261 0.0368612 0.011238 -2.60362e-05 -0.000388803 0.00315892 0.0137644 0.0254442 0.0301511 0.0374438 0.0433588
internal_weight=0 440 118 45 20 25 21859 5934 1026 151 86 75 60 49
internal_count=22299 440 118 45 20 25 21859 5934 1026 151 86 75 60 49
shrinkage=0.1


Tree=30
num_leaves=15
num_cat=0
split_feature=6 33 33 19 13 3 19 34 3 13 4 18 37 34
split_gain=0.0781333 5.65798 3.0423 2.73019 2.25823 2.41751 2.1515 1.81548 1.55086 1.4296 1.40887 1.46642 3.42552 2.10326
threshold=7.1766700000000018e-07 7.1091050000000012e-07 -2.0239149999999996e-07 2.1853450000000002e-06 -2.7523749999999996e-06 -6.1926199999999989 1.3306300000000002e-06 0.19237200000000002 -6.0971649999999995 -2.4819449999999997e-06 0.23939700000000003 -2.0395149999999997e-05 1.4877750000000002e-07 0.090146350000000014
decision_type=2 2 2 2 2 2 2 2 2 2 2 2 2 2
left_child=2 9 3 -1 5 7 8 10 -4 -2 11 12 -3 -14
right_child=1 4 6 -5 -6 -7 -8 -9 -10 -11 -12 -13 13 -15
leaf_value=0.0032586218964215014 -0.0034885405785862107 -0.0033740393240332799 -0.005400273007376318 -0.00064786429209690022 -0.00025092023749208992 8.27192994794179e-05 -0.00012443245516902314 0.0018017639765577906 -0.00023759409069920901 0.00019896045018254267 1.4334046789242296e-05 0.011528792235830429 0.0071508122746655276 0.053069597095447153
leaf_weight=3497 2985 181 1930 3663 1488 827 3558 563 833 1623 168 943 21 19
leaf_count=3497 2985 181 1930 3663 1488 827 3558 563 833 1623 168 943 21 19
internal_value=0 0.000231447 -0.000151391 0.00126009 0.00288154 0.00459392 -0.00175023 0.00656266 -0.00384381 -0.00218975 0.00857496 0.00981051 0.00247868 0.0289622
internal_weight=0 8818 13481 7160 4210 2722 6321 1895 2763 4608 1332 1164 221 40
internal_count=22299 8818 13481 7160 4210 2722 6321 1895 2763 4608 1332 1164 221 40
shrinkage=0.1


Tree=31
num_leaves=15
num_cat=0
split_feature=22 22 2 19 3 2 17 38 19 3 8 28 21 8
split_gain=0.0682299 0.0711946 8.66422 3.39451 3.53162 1.84944 1.29558 1.73957 0.749683 0.744715 0.719674 1.38403 0.92802 1.82625
threshold=3.0775500000000005 -2.3894049999999996 -2.3810049999999996 5.8759050000000008e-05 -6.3282549999999995 -2.3810049999999996 6.3507900000000012e-07 -0.0087810649999999994 5.8759050000000008e-05 -6.0725999999999987 1.6167750000000005e-05 -0.0045726199999999986 -2.2489799999999995 5.5039650000000003e-06
decision_type=2 2 2 2 2 2 2 2 2 2 2 2 2 2
left_child=1 2 3 4 6 8 7 -1 9 -3 12 -12 -9 -14
right_child=-2 5 -4 -5 -6 -7 -8 10 -10 -11 11 -13 13 -15
leaf_value=-0.00032114968361223449 -0.0023021436786734742 -0.0053561064716478504 -0.0026680963159482034 -0.00039114896641573679 0.00030716326531118659 0.00043851580240968194 0.0060180631681130484 0.031123135329013868 -0.00015838914330819115 -0.00035438112501585885 0.040620327880606044 -0.0084873866628516811 0.071188234086883698 0.025334279192611577
leaf_weight=17 128 1053 2419 120 68 17088 26 93 814 415 12.000000000000002 10.999999999999998 19 15.999999999999998
leaf_count=17 128 1053 2419 120 68 17088 26 93 814 415 12 11 19 16
internal_value=0 1.3291e-05 -0.000457946 0.0135377 0.0199174 8.14342e-05 0.0267911 0.030006 -0.00259245 -0.00394213 0.0334203 0.017134 0.0363467 0.0502264
internal_weight=0 22171 2801 382 262 19370 194 168 2282 1468 151 23 128 35
internal_count=22299 22171 2801 382 262 19370 194 168 2282 1468 151 23 128 35
shrinkage=0.1


Tree=32
num_leaves=15
num_cat=0
split_feature=37 10 7 3 38 23 10 18 18 7 0 19 14 16
split_gain=0.0775648 0.182744 0.240494 0.188588 0.596347 0.715691 0.738754 0.208005 0.908958 0.433073 0.354715 0.206681 0.665818 0.306136
threshold=3.9239150000000009e-06 1.2186800000000002e-05 2.3357900000000006e-05 -15.526149999999999 -0.80259099999999994 -14.413249999999998 2.5887750000000006e-05 -7.7009949999999993e-05 -0.00012229499999999999 3.03521e-05 -9.5826849999999997 0.0010295650000000003 0.0073645800000000016 5.1028300000000007e-07
decision_type=2 2 2 2 2 2 2 2 2 2 2 2 2 2
left_child=-1 -2 -3 4 -4 6 -6 8 9 -5 -11 12 13 -9
right_child=1 2 3 7 5 -7 -8 11 -10 10 -12 -13 -14 -15
leaf_value=-5.0193044036620649e-05 -0.0037831352927537943 0.013154872116638218 0.025849583651870491 0.021910522414837034 -0.00082956554696840415 -0.004091879848893437 0.028651312809875786 -0.00061273482132304688 0.026048718020319939 0.018255507332188163 -0.00010546719978182491 -0.0024819262972236421 0.025124506906352262 0.0047940266387826794
leaf_weight=20793 86 15.999999999999998 11.999999999999998 9.9999999999999982 17 63 17 597 15.999999999999998 10.999999999999998 242 281 10.999999999999998 127
leaf_count=20793 86 16 12 10 17 63 17 597 16 11 242 281 11 127
internal_value=0 0.000693004 0.000964094 0.000825168 0.00481997 0.00221836 0.0139109 0.000488926 0.00290743 0.00149959 0.000692836 -0.00017521 0.000706678 0.000335689
internal_weight=0 1506 1420 1404 109 97 34 1295 279 263 253 1016 735 724
internal_count=22299 1506 1420 1404 109 97 34 1295 279 263 253 1016 735 724
shrinkage=0.1


Tree=33
num_leaves=15
num_cat=0
split_feature=28 12 7 31 13 28 22 10 9 4 19 5 11 12
split_gain=0.0680228 1.73827 1.61018 1.14281 1.12618 1.86643 1.03348 1.55223 0.868484 0.469937 0.360441 1.00352 0.506567 0.233783
threshold=-0.078249449999999984 -6.6376149999999986e-05 3.581860000000001e-05 3.8695450000000005 -6.5923999999999991e-07 -0.18709999999999996 -1.5854899999999998 1.5362750000000001e-05 6.7075450000000003e-06 0.10254900000000002 0.00086203300000000011 1.2818950000000002e-05 4.0378300000000006e-05 -6.6376149999999986e-05
decision_type=2 2 2 2 2 2 2 2 2 2 2 2 2 2
left_child=1 2 3 4 5 -1 7 -6 -8 -9 11 -4 -13 -2
right_child=13 -3 10 -5 6 -7 8 9 -10 -11 -12 12 -14 -15
leaf_value=0.011353866814170031 -0.00056657602742482755 -0.0017591051992271369 0.03595282721333206 -0.0043848157635343697 0.056828249889341265 0.060453790401419009 -0.0040586184450689504 -0.00040250735556972869 0.029155979126226157 0.027217856320467866 -0.0010617906915285859 0.0017207412211437492 0.021577879214185358 0.00016940337096105337
leaf_weight=16.000000000000004 6117 1011 9.9999999999999982 26 10.999999999999998 14.999999999999998 37 14.000000000000002 9.9999999999999982 10.999999999999998 192 156 13.999999999999998 14659
leaf_count=16 6117 1011 10 26 11 15 37 14 10 11 192 156 14 14659
internal_value=0 0.000645083 0.00539242 0.0145338 0.0188485 0.0351119 0.0127743 0.0255242 0.00300832 0.0117505 0.00195212 0.00516697 0.00335603 -4.72883e-05
internal_weight=0 1523 512 140 114 31 83 36 47 25 372 180 170 20776
internal_count=22299 1523 512 140 114 31 83 36 47 25 372 180 170 20776
shrinkage=0.1


Tree=34
num_leaves=15
num_cat=0
split_feature=36 16 16 16 15 8 5 16 36 19 35 27 19 3
split_gain=0.0625646 0.612815 1.09213 0.552566 0.896344 0.431491 0.084057 0.0714453 1.22912 1.92907 1.83854 1.25236 2.11907 0.904124
threshold=0.43230650000000009 6.061655000000001e-06 3.2616700000000009e-05 1.5605150000000004e-05 8.9866000000000013e-06 6.4335850000000003e-06 1.0906050000000002e-05 1.4540650000000001e-06 0.0075823650000000015 2.1170350000000003e-05 0.0018231050000000002 2.5020900000000004 7.5845250000000009e-06 -11.753499999999999
decision_type=2 2 2 2 2 2 2 2 2 2 2 2 2 2
left_child=7 -2 3 5 -5 -3 -4 -1 -9 10 -10 12 -12 -13
right_child=1 2 6 4 -6 -7 -8 8 9 -11 11 13 -14 -15
leaf_value=8.6593725400528818e-05 -0.001078562312842161 -0.001039369157515466 0.008309329638723285 0.053157955110073075 0.010817802436649801 0.02577764040324837 -0.0015597823023286073 -0.00091284700386516182 -0.0011462951318969075 0.0011503395098585955 0.072173795104026772 -0.0046872089151293039 0.011409373901022431 0.022989385052221933
leaf_weight=15925 322 15.000000000000002 9.9999999999999982 10.000000000000002 9.9999999999999982 9.9999999999999982 63 5073 49 728 12.000000000000002 15.999999999999998 10.999999999999998 45
leaf_count=15925 322 15 10 10 10 10 63 5073 49 728 12 16 11 45
internal_value=0 0.00118062 0.00734551 0.0195987 0.0319879 0.00968743 -0.000207849 -2.37647e-05 -0.000319932 0.00317351 0.0142477 0.0232276 0.0431126 0.01573
internal_weight=0 440 118 45 20 25 73 21859 5934 861 133 84 23 61
internal_count=22299 440 118 45 20 25 73 21859 5934 861 133 84 23 61
shrinkage=0.1


Tree=35
num_leaves=15
num_cat=0
split_feature=6 33 33 19 13 3 19 3 34 34 3 23 23 13
split_gain=0.0720258 4.46769 2.39438 2.12823 1.76708 1.77197 1.74779 1.31651 1.41048 1.28347 1.24284 2.28288 1.49383 1.23258
threshold=7.1766700000000018e-07 1.0000000180025095e-35 1.0000000180025095e-35 2.1853450000000002e-06 -3.8629749999999992e-06 -5.9630249999999991 4.9027550000000008e-05 -5.9800399999999998 0.13257400000000003 0.47622350000000008 -14.261949999999997 -14.029299999999997 -17.204649999999997 -2.4819449999999997e-06
decision_type=2 2 2 2 2 2 2 2 2 2 2 2 2 2
left_child=2 13 3 7 5 9 -4 8 -1 -3 11 12 -10 -2
right_child=1 4 6 -5 -6 -7 -8 -9 10 -11 -12 -13 -14 -15
leaf_value=0.0054293252763502574 -0.0032158541307950707 0.0067563085020796738 -0.0030009678310539793 -0.00057969413143381333 -0.0001162395387936949 -0.00031888774225133582 0.00038125084753309939 -0.00050868031246019147 0.0051876357180022058 0.00034490090442780563 -0.0011395230247179106 -0.0072656578182972763 0.040208450345129806 0.00025665707687768204
leaf_weight=1889 2902 1652 3625 3695 1611 690 2641 874 21 385 670 37 29 1578
leaf_count=1889 2902 1652 3625 3695 1611 690 2641 874 21 385 670 37 29 1578
internal_value=0 0.000222217 -0.000145353 0.00109662 0.00250966 0.00406094 -0.00157543 0.00285627 0.00396775 0.00554453 0.000320575 0.011565 0.0254997 -0.00199272
internal_weight=0 8818 13481 7215 4338 2727 6266 3520 2646 2037 757 87 50 4480
internal_count=22299 8818 13481 7215 4338 2727 6266 3520 2646 2037 757 87 50 4480
shrinkage=0.1


Tree=36
num_leaves=15
num_cat=0
split_feature=37 10 10 2 2 28 3 23 13 3 16 23 10 0
split_gain=0.0680717 0.157548 0.186925 0.942256 0.638021 1.39524 0.194536 0.713171 0.569579 0.221322 0.2002 0.574092 0.696922 1.26298
threshold=3.9239150000000009e-06 1.2186800000000002e-05 1.8987800000000005e-05 -2.0730699999999995 1.9282700000000002 0.18824000000000002 -15.526149999999999 -14.413249999999998 7.1787900000000018e-05 -9.049294999999999 5.1028300000000007e-07 -9.2007249999999985 3.8755400000000012e-05 2.9404050000000006
decision_type=2 2 2 2 2 2 2 2 2 2 2 2 2 2
left_child=-1 -2 3 -3 -5 -6 7 8 -4 -8 -11 -12 13 -13
right_child=1 2 6 4 5 -7 9 -9 -10 10 11 12 -14 -15
leaf_value=-4.7021303839563545e-05 -0.0035069110293989071 0.033599087791517379 0.032457035620297697 5.4899921504717867e-05 -0.0074735050225475169 0.039812386336808024 -0.0017971943721109237 -0.0019878539366699343 0.0020491092550483617 0.0001217835120688306 -0.00043524165067072141 0.00094003804868621329 0.0017805089809588112 0.038458811018713998
leaf_weight=20793 86 9.9999999999999982 14.000000000000002 178 12.000000000000002 12.999999999999998 398 45 10.999999999999998 538 123 17 42 19
leaf_count=20793 86 10 14 178 12 13 398 45 11 538 123 17 42 19
internal_value=0 0.000649212 0.000900921 0.00363212 0.00215592 0.0171152 0.000418945 0.0055355 0.0190775 0.000103941 0.00112783 0.00382062 0.0105318 0.0207416
internal_weight=0 1506 1420 213 203 25 1207 70 25 1137 739 201 78 36
internal_count=22299 1506 1420 213 203 25 1207 70 25 1137 739 201 78 36
shrinkage=0.1


Tree=37
num_leaves=15
num_cat=0
split_feature=24 4 4 18 4 38 3 23 23 0 29 10 0 9
split_gain=0.066892 2.34207 1.9373 0.904418 1.49866 1.28253 0.704371 1.77786 1.18761 0.803672 0.974334 0.785857 0.772026 1.9131
threshold=0.48185350000000005 0.20003250000000003 1.7689400000000002 3.5458750000000003e-05 0.48299450000000005 -0.018882099999999995 -13.453149999999999 -11.830699999999998 -12.387749999999999 -4.3898849999999987 0.049799150000000007 2.2964100000000003e-05 4.6053300000000013 4.4382150000000007e-05
decision_type=2 2 2 2 2 2 2 2 2 2 2 2 2 2
left_child=-1 -2 3 5 -5 -3 7 11 -8 -10 12 -6 -11 -14
right_child=1 2 -4 4 6 -7 8 -9 9 10 -12 -13 13 -15
leaf_value=-5.1617349765651355e-05 -0.0017227912601192547 0.0016091198679451639 -4.3670558725423255e-05 0.048105378756632233 0.024600674118846647 0.037566348128232431 -0.0023047103837914463 -0.0065813903061842371 0.043273793804374613 0.0072462621121303535 -0.010281357158405278 0.061604689535769558 0.060971551372980062 0.00174872872652486
leaf_weight=20480 1288 101 258 13.999999999999998 12.000000000000002 10.999999999999998 46 10.999999999999998 10.999999999999998 21 12.999999999999998 10.999999999999998 12.000000000000002 9.9999999999999982
leaf_count=20480 1288 101 258 14 12 11 46 11 11 21 13 11 12 10
internal_value=0 0.000581156 0.00616964 0.0120416 0.0168422 0.00514063 0.0138648 0.0264842 0.0100677 0.0185623 0.0137082 0.0422982 0.0209609 0.0340521
internal_weight=0 1819 531 273 161 112 147 34 113 67 56 23 43 22
internal_count=22299 1819 531 273 161 112 147 34 113 67 56 23 43 22
shrinkage=0.1


Tree=38
num_leaves=15
num_cat=0
split_feature=6 33 34 14 3 34 15 29 31 9 11 31 22 23
split_gain=0.0649317 2.81381 1.29329 1.95587 3.20455 1.27235 2.04989 2.3226 1.2584 5.45507 1.78535 3.69646 2.20192 1.67767
threshold=1.5394450000000002e-06 3.9863900000000005e-07 0.078864150000000008 0.00060902400000000011 -6.1926199999999989 0.025371250000000001 3.6028800000000006e-07 -0.0041771599999999992 0.048900700000000005 -9.8065199999999981e-06 -1.3465549999999998e-05 0.016645050000000005 2.4311050000000005 -8.5696299999999983
decision_type=2 2 2 2 2 2 2 2 2 2 2 2 2 2
left_child=-1 -2 3 4 5 6 8 -8 10 -10 11 -3 13 -12
right_child=1 2 -4 -5 -6 -7 7 -9 9 -11 12 -13 -14 -15
leaf_value=-0.00011625582822724665 -0.0016941989883099738 -0.0089980032633651379 5.3081573634724494e-05 0.0003627997957467522 0.00043936414479652268 0.0046885625564431002 0.047249686010181903 -0.0035791201809986257 0.061609209508255686 -0.010704390375929721 0.0047665009541170943 0.032864583319713994 -0.0083498385937317548 0.029096120438419734
leaf_weight=15230 3625 66 1471 853 471 202 9.9999999999999982 89 27 17 35 31 23 149
leaf_count=15230 3625 66 1471 853 471 202 10 89 27 17 35 31 23 149
internal_value=0 0.000250471 0.00229734 0.00397059 0.0067183 0.0112751 0.0142516 0.0015551 0.0178635 0.0336699 0.0155758 0.00438076 0.0208218 0.0244682
internal_weight=0 7069 3444 1973 1120 649 447 99 348 44 304 97 207 184
internal_count=22299 7069 3444 1973 1120 649 447 99 348 44 304 97 207 184
shrinkage=0.1


Tree=39
num_leaves=15
num_cat=0
split_feature=32 12 7 31 10 25 22 20 12 12 23 5 12 32
split_gain=0.0641437 1.50768 1.60067 0.965762 0.774505 0.892049 0.52688 0.673806 0.538131 0.442276 1.07352 0.894214 0.2063 3.29161
threshold=0.77039950000000013 -6.6376149999999986e-05 3.581860000000001e-05 3.8695450000000005 1.7614950000000003e-05 24.120400000000004 -1.1769699999999998 -3.3410599999999993 -0.00017423949999999998 -0.00011990099999999999 -11.574049999999998 8.8965300000000024e-06 -6.6376149999999986e-05 0.032115250000000005
decision_type=2 2 2 2 2 2 2 2 2 2 2 2 2 2
left_child=12 2 3 4 5 9 7 -6 -8 10 11 -2 13 -1
right_child=1 -3 -4 -5 6 -7 8 -9 -10 -11 -12 -13 -14 -15
leaf_value=-0.002179576289961595 0.057541438496925612 -0.0014937623918052589 0.0015259630177402418 -0.0042167968600271988 0.023690444654361768 -0.0033005221851635722 0.0050376372039318065 -0.0051176803530148807 0.037089791242033245 0.04205656464522084 0.0031170711994491281 0.018801559443370655 0.00015548568088908263 0.0027725990586134602
leaf_weight=4052 10.999999999999998 1153 413 26 10.999999999999998 9.9999999999999982 10.000000000000002 31 10.999999999999998 18 16.000000000000004 12.999999999999998 14517 2007
leaf_count=4052 11 1153 413 26 11 10 10 31 11 18 16 13 14517 2007
internal_value=0 0.0005861 0.00479326 0.0133881 0.0168822 0.0242833 0.00889382 0.0024273 0.0218269 0.0290391 0.0231812 0.0365573 -4.90791e-05 -0.000539204
internal_weight=0 1723 570 157 131 68 63 42 21 58 40 24 20576 6059
internal_count=22299 1723 570 157 131 68 63 42 21 58 40 24 20576 6059
shrinkage=0.1


Tree=40
num_leaves=15
num_cat=0
split_feature=38 18 4 1 19 3 9 31 35 9 8 4 24 4
split_gain=0.0624313 1.27365 1.47554 0.843909 1.09223 0.831577 0.745904 0.661631 0.952874 0.88602 0.256157 0.196059 1.34654 2.66122
threshold=-0.039763049999999987 3.0948650000000007e-05 1.7689400000000002 -6.3644999999999987 1.2548550000000002e-05 -16.889399999999998 3.1953100000000011e-05 -1.8904949999999998 -0.047080199999999996 -2.4413349999999999e-05 -9.3843349999999985e-07 0.27459550000000005 0.32304350000000009 0.7894500000000001
decision_type=2 2 2 2 2 2 2 2 2 2 2 2 2 2
left_child=1 -1 3 -3 10 -4 7 -6 9 -9 -5 -2 -13 -14
right_child=11 2 5 4 6 -7 -8 8 -10 -11 -12 12 13 -15
leaf_value=-0.0010636536306760332 0.00013759352596986885 -0.0056609809988003692 0.027188275322656743 -0.0090633023333234249 0.012141346281860026 -0.0012843151368447014 0.0045072806200810844 0.039854145401881813 0.057957929419353571 0.0038304672618819911 0.012225232128985228 -0.0010299648467584348 0.016890634285664421 -0.00035788532387729722
leaf_weight=931 15750 15.999999999999998 10.999999999999998 13.000000000000002 14.999999999999998 152 13.999999999999998 17.999999999999996 14.000000000000005 10.999999999999998 9.9999999999999982 4919 128 297
leaf_count=931 15750 16 11 13 15 152 14 18 14 11 10 4919 128 297
internal_value=0 0.000700075 0.00669289 0.0155856 0.0191639 0.000637148 0.0252242 0.0302248 0.036533 0.02619 0.000192582 -3.99919e-05 -0.000563377 0.00483696
internal_weight=0 1205 274 111 95 163 72 58 43 29 23 21094 5344 425
internal_count=22299 1205 274 111 95 163 72 58 43 29 23 21094 5344 425
shrinkage=0.1


Tree=41
num_leaves=15
num_cat=0
split_feature=36 16 19 22 16 12 7 16 25 9 36 16 10 16
split_gain=0.0572109 0.432991 1.11852 0.390604 0.135852 0.110542 0.0664948 0.0943169 0.428545 0.060115 0.0589246 1.44654 1.17544 1.32414
threshold=0.43230650000000009 9.794275000000002e-06 7.3004200000000008e-05 1.9633400000000003 3.2616700000000009e-05 -7.9021999999999976e-05 3.5138500000000009e-05 1.0318250000000003e-06 27.517200000000006 5.9509550000000007e-05 -0.035183049999999993 -1.0720349999999998e-06 2.2606200000000004e-05 -4.9471599999999996e-05
decision_type=2 2 2 2 2 2 2 2 2 2 2 2 2 2
left_child=10 6 -3 4 5 -4 -2 9 -9 -8 11 12 13 -1
right_child=1 2 3 -5 -6 -7 7 8 -10 -11 -12 -13 -14 -15
leaf_value=0.0011377081474208915 -0.002765184405031435 0.034123410384815471 0.01534716768190264 0.021573858365882187 -0.0014952121136792068 0.00047829451970756055 -0.0010411071055002848 0.022320286598987871 -0.0034988079206313056 0.0048732153775697378 -6.8397491781446189e-05 -0.0015013758254807759 0.0017703415908187688 0.019997449354991412
leaf_weight=63 104 12.999999999999998 10.000000000000002 9.9999999999999982 66 9.9999999999999982 180 10.000000000000002 18 19 20289 1072 344 91
leaf_count=63 104 13 10 10 66 10 180 10 18 19 20289 1072 344 91
internal_value=0 0.00112898 0.00659554 0.0028678 0.000692682 0.00791273 -0.000671187 0.000288177 0.0057223 -0.000476423 -2.27252e-05 0.000567494 0.00502097 0.0122821
internal_weight=0 440 109 96 86 20 331 227 28 199 21859 1570 498 154
internal_count=22299 440 109 96 86 20 331 227 28 199 21859 1570 498 154
shrinkage=0.1


Tree=42
num_leaves=15
num_cat=0
split_feature=6 33 39 13 3 4 4 38 38 4 26 4 13 33
split_gain=0.0627262 2.28869 1.07583 1.12107 1.42924 1.41247 1.59608 4.80366 3.39236 4.39308 2.10252 1.76468 0.998138 1.82482
threshold=1.5394450000000002e-06 8.7255100000000015e-07 2.7665250000000004e-05 -8.1516649999999978e-06 -5.8392349999999995 -0.18184499999999995 0.062809900000000016 -2.2015949999999997e-05 -2.2015949999999997e-05 0.017115750000000002 -5.5827049999999989e-05 0.025549650000000004 -2.2178399999999994e-05 6.6854550000000009e-06
decision_type=2 2 2 2 2 2 2 2 2 2 2 2 2 2
left_child=-1 -2 3 4 5 -3 8 12 9 -7 -11 -10 -8 -14
right_child=1 2 -4 -5 -6 6 7 -9 11 10 -12 -13 13 -15
leaf_value=-0.00011426435165354946 -0.0014581806568631775 -0.0013305874812067488 0.00034920105458574369 0.00073341601639898425 -0.00056962513714581525 -0.0092800275681866815 0.0092990968447799489 -0.0084882907990389191 0.027326813620978042 0.037620598990470176 -0.011745552684773099 0.0016922069626161829 0.034837159290219903 -0.0027308274663108236
leaf_weight=15230 3726 130 1669 661 248 97 75 142 167 40 10.999999999999998 32 54 17
leaf_count=15230 3726 130 1669 661 248 97 75 142 167 40 11 32 54 17
internal_value=0 0.00024618 0.00214581 0.00393704 0.00602747 0.00816613 0.0101103 0.00460721 0.0146778 0.00321257 0.026973 0.0232047 0.0173439 0.025842
internal_weight=0 7069 3343 1674 1013 765 635 288 347 148 51 199 146 71
internal_count=22299 7069 3343 1674 1013 765 635 288 347 148 51 199 146 71
shrinkage=0.1


Tree=43
num_leaves=15
num_cat=0
split_feature=7 28 12 12 21 1 1 28 7 20 25 5 20 2
split_gain=0.0640615 0.484158 5.09683 2.15486 2.11803 1.94051 1.77034 1.65588 1.28927 2.74748 1.65747 1.85215 1.50864 1.65131
threshold=3.434760000000001e-05 -0.005806239999999999 -2.5513999999999997e-05 -2.7935449999999997e-05 2.4982350000000006 2.8876600000000003 2.8876600000000003 -0.0020532699999999998 2.5826300000000004e-05 -3.3410599999999993 0.42661550000000009 9.3138400000000033e-06 2.1309250000000004 -1.2605849999999998
decision_type=2 2 2 2 2 2 2 2 2 2 2 2 2 2
left_child=1 2 8 7 6 -6 -5 -3 9 -1 11 -11 13 -12
right_child=-2 3 -4 4 5 -7 -8 -9 -10 10 12 -13 -14 -15
leaf_value=-0.0019395371506592104 0.0001112838436668578 0.0021745439813495586 -0.0037650247143319578 0.0038665969235397949 -0.0036781180279522293 0.0052604072776904738 -0.0046373326926127893 -0.0048108448030209075 0.0040530510150639876 0.062623630683211723 0.035499471750827453 0.017728515344206244 0.0045112000946776086 0.0005644796391654956
leaf_weight=90 15582 433 1050 346 303 1224 837 1569 690 17 47 20 72 19
leaf_count=90 15582 433 1050 346 303 1224 837 1569 690 17 47 20 72 19
internal_value=0 -0.000258155 0.00104337 -0.000811964 0.00102608 0.00348675 -0.00215013 -0.00330002 0.00633008 0.0122589 0.019561 0.038356 0.0145218 0.0254424
internal_weight=0 6717 2005 4712 2710 1527 1183 2002 955 265 175 37 138 66
internal_count=22299 6717 2005 4712 2710 1527 1183 2002 955 265 175 37 138 66
shrinkage=0.1


Tree=44
num_leaves=15
num_cat=0
split_feature=37 13 7 15 35 19 35 7 36 35 15 15 2 3
split_gain=0.0542776 0.123379 0.186803 0.166083 0.599341 0.941587 0.48465 0.330751 0.922084 0.210375 0.274778 0.85072 1.65383 0.148392
threshold=3.9239150000000009e-06 -2.2745549999999994e-05 4.832860000000001e-05 -1.4587449999999997e-06 -0.13884849999999996 0.00020352900000000001 -0.94314649999999989 3.9449600000000003e-05 0.14832100000000004 -0.13884849999999996 1.664075e-06 1.006097e-05 0.6647360000000001 -7.4146649999999985
decision_type=2 2 2 2 2 2 2 2 2 2 2 2 2 2
left_child=-1 2 -2 4 5 6 -3 8 -7 -5 -11 12 13 -12
right_child=1 3 -4 9 -6 7 -8 -9 -10 10 11 -13 -14 -15
leaf_value=-4.1987660403613573e-05 -0.005129474907946051 0.012112753679199763 0.00061192772793732832 -0.0014746495420723854 -0.00060437539804579813 -0.0032569447648711498 0.04053369727917016 -0.00036336453844080943 0.031398992721889438 0.00011520292885250862 -0.0047624875500332552 0.00093133373473606573 0.041321565654567065 0.010766094489954412
leaf_weight=20793 89 12.000000000000002 156 382 174 17.000000000000004 11.999999999999998 59 13.999999999999998 412 16.000000000000004 136 17 9.9999999999999982
leaf_count=20793 89 12 156 382 174 17 12 59 14 412 16 136 17 10
internal_value=0 0.000579714 -0.00147372 0.000978677 0.00308811 0.00872401 0.0263232 0.00403088 0.0123941 0.000354303 0.00153647 0.00480776 0.0170681 0.00121004
internal_weight=0 1506 245 1261 288 114 24 90 31 973 591 179 43 26
internal_count=22299 1506 245 1261 288 114 24 90 31 973 591 179 43 26
shrinkage=0.1


Tree=45
num_leaves=15
num_cat=0
split_feature=6 33 33 13 13 19 3 19 3 30 23 3 14 34
split_gain=0.0548331 1.83934 0.977216 2.60448 2.20066 1.3026 1.27941 1.18947 1.11953 1.08546 1.04368 3.70864 2.87307 4.16269
threshold=1.5394450000000002e-06 3.9863900000000005e-07 -2.0239149999999996e-07 6.4414100000000008e-07 -6.5923999999999991e-07 4.9027550000000008e-05 -6.0971649999999995 3.1037600000000004e-06 -6.0971649999999995 0.0035674250000000004 -12.154599999999999 -12.395199999999997 0.0036781400000000003 0.74482350000000008
decision_type=2 2 2 2 2 2 2 2 2 2 2 2 2 2
left_child=2 -2 3 -1 10 6 -6 8 9 -5 11 12 13 -4
right_child=1 -3 4 7 5 -7 -8 -9 -10 -11 -12 -13 -14 -15
leaf_value=-0.0031024240773834502 -0.0013421069287712052 0.0018850791874306851 0.043359659839188686 0.0046278654600167279 -0.0042058638852810531 5.7896731362397797e-05 6.6830234117960352e-05 8.9388294108012526e-05 -0.00020146632195201463 -0.0018259695045732879 0.00057611453260679425 -0.0014590092546686786 0.0064812119203534998 -0.0040898217031588918
leaf_weight=1504 3625 3444 64 2235 2546 2236 967 3095 918 295 934 278 132 26
leaf_count=1504 3625 3444 64 2235 2546 2236 967 3095 918 295 934 278 132 26
internal_value=0 0.00023017 -0.000106834 0.000649967 -0.000954665 -0.00182885 -0.00302975 0.00151251 0.00278993 0.00387534 0.00254999 0.0062372 0.0158748 0.029652
internal_weight=0 7069 15230 8047 7183 5749 3513 6543 3448 2530 1434 500 222 90
internal_count=22299 7069 15230 8047 7183 5749 3513 6543 3448 2530 1434 500 222 90
shrinkage=0.1


Tree=46
num_leaves=15
num_cat=0
split_feature=38 4 4 3 19 19 37 0 3 34 31 3 4 24
split_gain=0.0626766 0.831931 0.954124 0.754668 0.750827 0.984148 1.25147 0.733006 0.673075 0.449416 0.239832 0.167835 0.133582 1.34671
threshold=-0.039763049999999987 0.39091350000000008 1.7689400000000002 -7.2760499999999988 1.5736100000000003e-05 0.0002563685000000001 2.8447450000000002e-06 3.2421850000000005 -16.889399999999998 3.0089350000000006 -2.8241349999999996 -9.5552499999999991 0.24788700000000002 0.31139800000000006
decision_type=2 2 2 2 2 2 2 2 2 2 2 2 2 2
left_child=1 11 3 4 -3 7 9 -6 -4 -7 -5 -1 -2 -14
right_child=12 2 8 10 5 6 -8 -9 -10 -11 -12 -13 13 -15
leaf_value=-0.0024838795499323757 0.00010960048726344752 -0.00095824007602298962 0.024442162601785226 0.013238565879873931 0.054769339125889986 0.037727566994726652 -0.0097560937268038606 0.019694841670041735 -0.0011736099017645373 0.010359222348779441 -0.0050853136777877818 0.00029900246623144303 -0.00093930054058276021 0.004668357514980701
leaf_weight=346 15582 17 10.999999999999998 9.9999999999999982 13.000000000000002 15.000000000000002 14.999999999999998 10.999999999999998 152 9.9999999999999982 25 580 5044 468
leaf_count=346 15582 17 11 10 13 15 15 11 152 10 25 580 5044 468
internal_value=0 0.000701449 0.00548834 0.0124204 0.0177225 0.0226845 0.0130791 0.0386935 0.000555062 0.0267802 0.00015008 -0.000740822 -4.00704e-05 -0.000463179
internal_weight=0 1205 279 116 81 64 40 24 163 25 35 926 21094 5512
internal_count=22299 1205 279 116 81 64 40 24 163 25 35 926 21094 5512
shrinkage=0.1


Tree=47
num_leaves=15
num_cat=0
split_feature=34 3 30 23 13 13 17 24 17 16 32 8 24 19
split_gain=0.0559711 0.411532 1.07341 0.399218 0.50563 0.10386 0.0952966 0.423715 0.701891 0.778319 0.415213 0.618519 0.182351 0.124438
threshold=0.88410300000000008 -17.279499999999995 0.004819910000000001 -15.905149999999997 4.8591750000000008e-05 0.00026821650000000006 -6.274149999999999e-07 -1.0557649999999998 -2.8658149999999996e-05 -1.3472549999999999e-05 5.3412350000000011 6.4335850000000003e-06 -1.2879049999999996 1.5736100000000003e-05
decision_type=2 2 2 2 2 2 2 2 2 2 2 2 2 2
left_child=-1 2 -2 4 -4 -5 7 8 -3 -10 12 -12 -11 -9
right_child=1 6 3 5 -6 -7 -8 13 9 10 11 -13 -14 -15
leaf_value=-5.8319385475267166e-05 0.03369606733322144 -0.0014927306140117044 0.030158532783389081 -0.0055522754054335467 0.0014941190776880831 0.0051901501254178585 -0.00010291256988566656 0.0053467393839465721 0.030193776916712524 -0.0048827522909656793 0.00070818328875413316 0.034242931304668843 0.011189894771669061 -0.00091447240293050173
leaf_weight=19638 12.999999999999998 65 10.000000000000002 36 15.999999999999998 11.999999999999998 2058 35 19 24 11.000000000000002 10.999999999999998 9.9999999999999982 341
leaf_count=19638 13 65 10 36 16 12 2058 35 19 24 11 11 10 341
internal_value=0 0.000430393 0.00719471 0.00253907 0.0125189 -0.00286667 0.000201762 0.00141692 0.00611307 0.0127048 0.00677098 0.0174756 -0.000155503 -0.000331647
internal_weight=0 2661 87 74 26 48 2574 516 140 75 56 22 34 376
internal_count=22299 2661 87 74 26 48 2574 516 140 75 56 22 34 376
shrinkage=0.1


Tree=48
num_leaves=15
num_cat=0
split_feature=37 10 13 3 36 7 23 19 7 22 4 17 7 23
split_gain=0.0514438 0.109539 0.112508 0.143308 0.463705 0.303951 0.13859 0.303464 0.12982 0.129674 0.113061 0.441239 0.65204 0.214976
threshold=3.9239150000000009e-06 1.2186800000000002e-05 -2.2745549999999994e-05 -14.372349999999999 -0.8573869999999999 2.9031850000000002e-05 -13.009749999999999 0.00024885700000000006 4.832860000000001e-05 2.1382650000000005 -0.19847699999999999 6.5808800000000009e-07 3.8633950000000006e-05 -10.888949999999998
decision_type=2 2 2 2 2 2 2 2 2 2 2 2 2 2
left_child=-1 -2 8 4 -4 -6 7 -7 -3 -10 11 13 -13 -5
right_child=1 2 3 10 5 6 -8 -9 9 -11 -12 12 -14 -15
leaf_value=-4.0876885164805229e-05 -0.0029011244010816459 -0.004338747626992271 0.020882465733836095 -0.0018140985807500937 0.017123832817499837 0.020036293151788415 -0.0025066580965242809 -0.00083008086227852372 -0.00055500171823657195 0.00826058553433732 0.00015316537732041561 0.030733917753856917 0.0027149134110558133 0.0039261823156153666
leaf_weight=20793 86 85 14.999999999999998 132 11.999999999999998 9.9999999999999982 63 23 137 19 759 12.999999999999998 23 129
leaf_count=20793 86 85 15 132 12 10 63 23 137 19 759 13 23 129
internal_value=0 0.000564378 0.00077426 0.0011767 0.00440711 0.00211887 0.000243246 0.00549306 -0.00119451 0.000518692 0.000800429 0.00245455 0.0128329 0.00102305
internal_weight=0 1506 1420 1179 123 108 96 33 241 156 1056 297 36 261
internal_count=22299 1506 1420 1179 123 108 96 33 241 156 1056 297 36 261
shrinkage=0.1


Tree=49
num_leaves=15
num_cat=0
split_feature=38 18 4 1 19 3 26 8 12 26 8 3 25 7
split_gain=0.0504292 0.678029 0.833016 0.611199 0.686274 0.500357 0.490908 0.647778 1.12977 0.447111 0.180477 0.141298 0.153738 0.13036
threshold=-0.039763049999999987 3.0948650000000007e-05 1.7689400000000002 -6.3644999999999987 1.2548550000000002e-05 -16.889399999999998 -0.0021265849999999998 -1.0800799999999998e-05 -0.00012385649999999997 -0.00069266699999999989 -9.3843349999999985e-07 -11.019649999999997 2.7097750000000005 2.3123600000000003e-05
decision_type=2 2 2 2 2 2 2 2 2 2 2 2 2 2
left_child=1 11 3 -3 10 -4 -6 -8 -9 -10 -5 12 -1 -14
right_child=-2 2 5 4 6 -7 7 8 9 -11 -12 -13 13 -15
leaf_value=0.0079562552752367299 -3.5942853118718338e-05 -0.0063980330334743492 0.02104709338058125 -0.0080785177612247346 0.0027256836715553491 -0.0010388427309838957 0.038730230478962006 0.040282974764704715 0.018342055783917514 -0.00796303424368878 0.009790590169141071 0.00010715402763680903 0.0069631892916125551 -0.0037234356133471259
leaf_weight=12.999999999999998 21094 15.999999999999998 10.999999999999998 13.000000000000002 13.999999999999998 152 19 12.999999999999995 11.999999999999995 14.000000000000009 9.9999999999999982 672 11.999999999999998 234
leaf_count=13 21094 16 11 13 14 152 19 13 12 14 10 672 12 234
internal_value=0 0.000629194 0.0050017 0.0116833 0.0147286 0.000451619 0.0195324 0.0235892 0.0162128 0.00417778 -0.00030934 -0.000657666 -0.00264206 -0.00320214
internal_weight=0 1205 274 111 95 163 72 58 39 26 23 931 259 246
internal_count=22299 1205 274 111 95 163 72 58 39 26 23 931 259 246
shrinkage=0.1


Tree=50
num_leaves=15
num_cat=0
split_feature=3 23 23 14 23 3 30 14 37 21 23 3 14 34
split_gain=0.0510774 3.67695 1.6199 1.55007 3.93986 2.14953 1.97734 1.49413 1.19235 1.09613 1.03495 1.63427 1.44446 1.36073
threshold=-10.915599999999998 -11.020599999999998 -10.829899999999999 0.0023278500000000007 -14.654899999999998 -14.412449999999998 0.0031863300000000007 0.004937775000000001 -6.1784349999999992e-08 6.9100200000000012 -13.661999999999997 -13.869899999999999 0.006874540000000001 0.37240250000000003
decision_type=2 2 2 2 2 2 2 2 2 2 2 2 2 2
left_child=1 3 -2 4 5 8 9 -3 -1 -6 11 12 13 -5
right_child=2 7 -4 10 6 -7 -8 -9 -10 -11 -12 -13 -14 -15
leaf_value=-0.0041566456357638041 -0.0012149666733269578 -0.0040545575541969846 0.00089204429417667893 0.017820823093246542 0.013927986958149646 -0.0053802830501555269 -0.001544438480594001 -0.00023184811932426241 0.03078248488184597 0.04744412794709206 -0.0017912032295325871 -0.0022704806903377176 0.0024061429639901824 0.0029726162864781411
leaf_weight=14.999999999999998 5848 2011 9703 154 403 287 91 2080 28 9.9999999999999982 758 375 433 103
leaf_count=15 5848 2011 9703 154 403 287 91 2080 28 10 758 375 433 103
internal_value=0 -0.000229754 9.96965e-05 0.00266676 0.00623776 -0.00225631 0.0117994 -0.00211097 0.0185944 0.0147395 0.00103307 0.00304321 0.00593108 0.01187
internal_weight=0 6748 15551 2657 834 330 504 4091 43 413 1823 1065 690 257
internal_count=22299 6748 15551 2657 834 330 504 4091 43 413 1823 1065 690 257
shrinkage=0.1


Tree=51
num_leaves=15
num_cat=0
split_feature=38 4 4 1 19 0 17 23 14 33 3 19 14 4
split_gain=0.0518665 0.516588 0.613688 0.493688 0.517021 0.442701 0.517276 0.850777 0.689504 0.576005 0.39772 0.165752 0.111171 0.124428
threshold=-0.039763049999999987 0.39091350000000008 1.7689400000000002 -6.3644999999999987 1.2548550000000002e-05 7.173490000000001 7.9733550000000025e-06 -12.562849999999999 0.0082750750000000015 1.4850200000000002e-05 -16.889399999999998 6.4213950000000014e-06 0.00036072200000000006 0.22711450000000002
decision_type=2 2 2 2 2 2 2 2 2 2 2 2 2 2
left_child=1 12 3 -3 11 6 7 8 -6 -8 -4 -5 13 -1
right_child=-2 2 10 4 5 -7 9 -9 -10 -11 -12 -13 -14 -15
leaf_value=0.00030088078390551245 -3.6451452389741581e-05 -0.0052523798684382603 0.018815748732198368 0.0076559293406227441 -0.0041088430862873801 -0.0026651744527043776 -0.0045773307925888454 0.046077587405840552 0.032172352854501117 0.024108287851725307 -0.00087510460925362794 -0.0090229318138550629 -0.0015342191294003956 0.0085752468289635887
leaf_weight=418 21094 18 10.999999999999998 13.000000000000002 9.9999999999999982 9.9999999999999982 14.000000000000002 15.000000000000002 10.999999999999998 13.999999999999998 152 10.999999999999998 489 19
leaf_count=418 21094 18 11 13 10 10 14 15 11 14 152 11 489 19
internal_value=0 0.000638097 0.00441019 0.0099697 0.0127656 0.0169021 0.0199594 0.0278881 0.0148956 0.00976548 0.000453726 1.14513e-05 -0.000498418 0.000660636
internal_weight=0 1205 279 116 98 74 64 36 21 28 163 24 926 437
internal_count=22299 1205 279 116 98 74 64 36 21 28 163 24 926 437
shrinkage=0.1


Tree=52
num_leaves=15
num_cat=0
split_feature=10 20 20 0 0 31 0 22 20 0 0 20 0 3
split_gain=0.0509872 1.60936 2.66113 1.86815 1.33746 1.28881 1.19637 1.13698 0.9036 5.89062 2.25415 2.22769 1.94349 1.69057
threshold=2.4820400000000004e-05 5.0925950000000011 -3.5336099999999995 -3.4067449999999995 5.6415500000000014 -0.016734899999999994 -3.4067449999999995 0.81532150000000014 4.7860750000000012 4.4138050000000009 4.3549000000000015 -4.9028549999999989 -4.3898849999999987 -5.9630249999999991
decision_type=2 2 2 2 2 2 2 2 2 2 2 2 2 2
left_child=1 2 3 -1 -3 7 -4 -6 10 -10 11 12 -2 -11
right_child=8 4 6 -5 5 -7 -8 -9 9 13 -12 -13 -14 -15
leaf_value=0.0043472876378672946 0.0052452711630763408 -0.0033875084240920722 -0.00184529672604846 -0.0030338971350447929 -0.00035298262670179474 0.03421807129401714 0.0033214350008942042 0.026020983694194769 -0.0019209182636663541 0.0074227936889988983 -0.0021584323302785429 -0.00061451596832832328 -0.001164205043930103 -2.2369156720391073e-06
leaf_weight=410 1587 1853 534 2095 117 14.999999999999998 2788 19 2334 1359 4239 3879 674 396
leaf_count=410 1587 1853 534 2095 117 15 2788 19 2334 1359 4239 3879 674 396
internal_value=0 -0.000205534 0.000635172 -0.0018258 -0.00265004 0.00639981 0.0024909 0.00333162 0.000111248 0.00137033 -0.00038479 0.000839717 0.00333462 0.0057474
internal_weight=0 7831 5827 2505 2004 151 3322 136 14468 4089 10379 6140 2261 1755
internal_count=22299 7831 5827 2505 2004 151 3322 136 14468 4089 10379 6140 2261 1755
shrinkage=0.1


Tree=53
num_leaves=15
num_cat=0
split_feature=7 28 8 8 22 21 7 20 25 5 20 2 9 23
split_gain=0.0542494 0.37608 3.78326 1.51279 2.62316 1.66901 0.879735 1.79042 1.5493 1.16402 1.08313 1.30433 1.19976 0.854458
threshold=3.434760000000001e-05 -0.005806239999999999 1.9190150000000004e-06 1.9190150000000004e-06 0.32001350000000006 -1.8524549999999997 2.6075500000000005e-05 -3.3410599999999993 0.42661550000000009 9.3138400000000033e-06 2.1309250000000004 -1.2605849999999998 7.8003300000000009e-06 -7.6100699999999994
decision_type=2 2 2 2 2 2 2 2 2 2 2 2 2 2
left_child=1 2 -1 4 -3 -5 7 -4 9 -9 11 13 -12 -10
right_child=-2 3 6 5 -6 -7 -8 8 10 -11 12 -13 -14 -15
leaf_value=-0.0036044859362215952 0.00010240728219545298 -0.0037454685100052464 -0.0013773680036916333 0.0019127972686240021 0.0032803648748260549 -0.0042044822025171045 0.003270231129379117 0.051650862602723974 0.036005964583570242 0.017361214680766519 -0.0036636448368426501 -0.00055903143101287164 0.024395972555503249 0.005397052317857743
leaf_weight=964 15582 785 97 608 1645 1674 748 18 38 22 64 22 20 11.999999999999998
leaf_count=964 15582 785 97 608 1645 1674 748 18 38 22 64 22 20 12
internal_value=0 -0.000237563 0.000909529 -0.000725661 0.0010107 -0.00257464 0.00508965 0.00973446 0.0152337 0.0327916 0.0107317 0.0197318 0.00301722 0.0286598
internal_weight=0 6717 2005 4712 2430 2282 1041 293 196 40 156 72 84 50
internal_count=22299 6717 2005 4712 2430 2282 1041 293 196 40 156 72 84 50
shrinkage=0.1


Tree=54
num_leaves=15
num_cat=0
split_feature=2 20 28 11 3 21 20 23 13 11 3 23 31 19
split_gain=0.0531316 1.28734 1.28865 2.4402 2.25426 1.30981 0.856762 0.400986 0.600868 0.304892 0.393024 0.255365 0.207513 0.655655
threshold=-2.5828149999999996 -7.4702999999999991 1.0000000180025095e-35 -4.0662699999999993e-05 -6.4853999999999994 -4.4411349999999983 -10.108899999999998 -8.291344999999998 4.7200350000000006e-05 -4.0662699999999993e-05 -6.0725999999999987 -10.609499999999999 0.063178700000000018 3.6465450000000008e-06
decision_type=2 2 2 2 2 2 2 2 2 2 2 2 2 2
left_child=1 2 3 7 5 -5 -7 8 -1 12 11 -11 -3 -14
right_child=-2 9 -4 4 -6 6 -8 -9 -10 10 -12 -13 13 -15
leaf_value=0.024203989640227516 4.6565069079962269e-05 -0.0013532126926951978 -0.002062555159155354 0.014367002000411353 0.0023831368413875283 0.030847861230431591 0.067736065438400717 -0.0032826192229792172 -0.0036549580236896876 -0.0024354585517150692 -0.0001105650110930338 -0.0077966096699742492 0.010977009448822069 -0.00098617615254308652
leaf_weight=16.000000000000004 20439 762 116 11.999999999999998 23 9.9999999999999982 17.000000000000004 60 14.999999999999998 158 223 203 61 184
leaf_count=16 20439 762 116 12 23 10 17 60 15 158 223 203 61 184
internal_value=0 -0.00051169 0.00588637 0.011913 0.027213 0.0418563 0.0540738 0.00148882 0.0107239 -0.00159345 -0.00341125 -0.00545018 -0.000539232 0.00199241
internal_weight=0 1860 269 153 62 39 27 91 31 1591 584 361 1007 245
internal_count=22299 1860 269 153 62 39 27 91 31 1591 584 361 1007 245
shrinkage=0.1


Tree=55
num_leaves=15
num_cat=0
split_feature=6 33 39 14 3 23 3 33 13 3 15 31 20 0
split_gain=0.048789 1.41713 0.774569 0.82619 1.70387 1.51959 2.0151 1.18901 2.08157 1.30674 0.948044 3.68889 1.05582 4.90567
threshold=1.5394450000000002e-06 3.9863900000000005e-07 2.7665250000000004e-05 0.00060902400000000011 -6.1926199999999989 -10.609499999999999 -10.514199999999999 1.0061280000000002e-05 -9.2649699999999981e-06 -10.645549999999998 3.6028800000000006e-07 -0.040373849999999996 -2.7028649999999996 -3.3033299999999994
decision_type=2 2 2 2 2 2 2 2 2 2 2 2 2 2
left_child=-1 -2 3 4 5 6 -3 -5 9 -9 12 -12 -7 -14
right_child=1 2 -4 7 -6 10 -8 8 -10 -11 11 -13 13 -15
leaf_value=-0.00010077373569392865 -0.0011629602373151133 0.039560733549296859 0.00012584471367574408 -0.0012785867678746527 0.00025821282837654619 0.019839594386918034 -0.0078963437550427281 0.031906379928643057 -2.5261777481875156e-05 -0.0053217953032193089 0.054683169350028038 -0.0042662745078458734 -0.011382018936822167 0.020002998255774486
leaf_weight=15230 3625 9.9999999999999982 1672 622 425 149 85 44 103 11.999999999999998 11.999999999999998 92 77 141
leaf_count=15230 3625 10 1672 622 425 149 85 44 103 12 12 92 77 141
internal_value=0 0.000217115 0.00166972 0.00312647 0.00504336 0.00863644 -0.00290086 0.000694157 0.00841143 0.0239289 0.0109635 0.00253558 0.0133518 0.00891746
internal_weight=0 7069 3444 1772 991 566 95 781 159 56 471 104 367 218
internal_count=22299 7069 3444 1772 991 566 95 781 159 56 471 104 367 218
shrinkage=0.1


Tree=56
num_leaves=15
num_cat=0
split_feature=7 20 0 20 29 14 20 0 22 22 9 19 3 0
split_gain=0.0580161 0.357867 1.29203 0.641448 0.427541 0.324469 0.314484 0.695246 0.25965 0.235353 0.444788 0.701954 0.196035 0.175993
threshold=3.434760000000001e-05 -8.3309049999999996 -7.938254999999999 -11.063699999999999 0.013388500000000001 0.0036207350000000004 10.173200000000003 10.404250000000003 -0.63044599999999995 2.6208450000000005 -2.4907749999999999e-05 0.0022561000000000005 -6.1233399999999989 -7.938254999999999
decision_type=2 2 2 2 2 2 2 2 2 2 2 2 2 2
left_child=1 2 3 -1 -5 12 9 8 -8 13 11 -11 -4 -3
right_child=-2 6 5 4 -6 -7 7 -9 -10 10 -12 -13 -14 -15
leaf_value=-0.0045256665145808998 0.00010590289587027663 -0.002197455694183391 -0.0056406707415590064 0.035262660272419442 0.0093069053424352961 0.00058493827497374225 0.010992515526595525 0.018445143687228365 -0.003947021286849671 -0.00072535748141280452 -0.0038986395019202503 0.030450544664636255 -0.00010690873076734868 0.00047494768925816495
leaf_weight=10.999999999999998 15582 259 406 15.000000000000002 10.999999999999998 148 11.999999999999998 14.999999999999998 381 26 270 9.9999999999999982 76 5077
leaf_count=11 15582 259 406 15 11 148 12 15 381 26 270 10 76 5077
internal_value=0 -0.000245672 -0.00244398 0.0157171 0.0242814 -0.00351058 -3.31337e-06 -0.00268438 -0.00349085 0.000190568 -0.00250649 0.00793462 -0.00476813 0.000345234
internal_weight=0 6717 667 37 26 630 6050 408 393 5642 306 36 482 5336
internal_count=22299 6717 667 37 26 630 6050 408 393 5642 306 36 482 5336
shrinkage=0.1


Tree=57
num_leaves=15
num_cat=0
split_feature=13 33 19 0 26 22 4 28 14 23 19 33 33 20
split_gain=0.0523335 0.160903 1.13383 0.58712 0.896242 0.475618 0.466835 0.264834 0.122161 1.23334 1.02099 1.92986 1.67953 1.8457
threshold=7.4017900000000015e-05 -3.8491799999999989e-05 0.00018404150000000003 -4.1558099999999998 -0.00011757449999999998 -1.9750549999999998 0.53187750000000011 2.9088150000000002 0.0020371300000000003 -13.432749999999997 3.9135900000000011e-06 5.0276050000000003e-06 -4.7861299999999995e-05 -1.6582399999999999
decision_type=2 2 2 2 2 2 2 2 2 2 2 2 2 2
left_child=8 2 3 -2 6 -6 -5 -4 -1 10 11 12 -10 -14
right_child=1 -3 7 4 5 -7 -8 -9 9 -11 -12 -13 13 -15
leaf_value=5.0718436511826825e-05 -0.0047096962055477969 9.37409656419108e-05 -0.00019650496305489057 -0.0067170477400605479 0.048811612345955574 0.020023980705688397 0.01879520621150732 0.016261108049657198 -0.0012869884122025084 -0.00167130422437086 0.0013156785021257837 -0.0091776186244467029 -0.0012972824027140935 0.039442117157024011
leaf_weight=13423 12.999999999999998 4866 440 13.000000000000002 11.000000000000002 11.999999999999998 15.999999999999998 9.9999999999999982 27 2653 724 33 14.999999999999998 43
leaf_count=13423 13 4866 440 13 11 12 16 10 27 2653 724 33 15 43
internal_value=0 0.000271638 0.0019525 0.0142983 0.0190503 0.033792 0.00735868 0.00016922 -8.63981e-05 -0.000613012 0.00272149 0.011347 0.0193153 0.0289061
internal_weight=0 5381 515 65 52 23 29 450 16918 3495 842 118 85 58
internal_count=22299 5381 515 65 52 23 29 450 16918 3495 842 118 85 58
shrinkage=0.1


Tree=58
num_leaves=15
num_cat=0
split_feature=37 16 16 21 3 22 19 3 20 11 23 13 31 7
split_gain=0.0475837 0.0851683 0.679992 0.545861 0.271305 0.445333 0.324247 0.161596 0.148517 0.173608 0.252589 0.327975 0.164928 0.442932
threshold=2.2124750000000004e-06 -1.3472549999999999e-05 -1.9718299999999997e-05 2.9258550000000003 -15.016799999999998 1.9633400000000003 0.0061489100000000014 -8.8871949999999984 -1.6582399999999999 8.7098050000000016e-05 -13.661999999999997 2.8998000000000006e-05 1.8420500000000002 2.8701700000000003e-05
decision_type=2 2 2 2 2 2 2 2 2 2 2 2 2 2
left_child=-1 2 4 -4 5 6 -2 8 -3 12 11 -11 -10 -14
right_child=1 7 3 -5 -6 -7 -8 -9 9 10 -12 -13 13 -15
leaf_value=-4.276150629409546e-05 0.01517339553392958 -0.002568567710836688 0.0033306086773518466 0.036371840541251005 -0.00075475448503051928 0.026228648647665977 -0.0034654706084568591 0.0010691814299228382 -0.0019188051250622314 0.00061001772992312891 0.00014143511376105158 0.023139553220244125 0.020150170156445643 -0.0033367918637980313
leaf_weight=20539 13.999999999999998 315 10.000000000000002 9.9999999999999982 224 9.9999999999999982 28 858 190 12.000000000000002 41 13.999999999999998 12.999999999999998 21
leaf_count=20539 14 315 10 10 224 10 28 858 190 12 41 14 13 21
internal_value=0 0.000499022 0.00204608 0.0198512 0.000755855 0.00726309 0.00274748 0.000186228 -0.00106389 0.000564878 0.00503094 0.0127413 -0.000770953 0.00564352
internal_weight=0 1760 296 20 276 52 42 1464 606 291 67 26 224 34
internal_count=22299 1760 296 20 276 52 42 1464 606 291 67 26 224 34
shrinkage=0.1


Tree=59
num_leaves=15
num_cat=0
split_feature=7 28 1 12 21 1 1 28 32 14 21 14 3 25
split_gain=0.0464993 0.303897 3.2309 1.28955 1.36766 2.22883 1.7409 1.14281 1.07118 0.793633 0.933486 0.75454 0.930193 0.7393
threshold=3.434760000000001e-05 -0.005806239999999999 -3.7662249999999995 -2.7935449999999997e-05 4.0112100000000011 4.0217800000000006 3.9525750000000004 -0.0021705499999999998 0.0196378 9.6564350000000017e-05 -3.3987249999999993 0.0046168100000000016 -6.4853999999999994 0.27476050000000007
decision_type=2 2 2 2 2 2 2 2 2 2 2 2 2 2
left_child=1 2 9 8 6 -6 7 -5 -3 -1 -11 12 -9 -10
right_child=-2 3 -4 4 5 -7 -8 11 13 10 -12 -13 -14 -15
leaf_value=-0.00063377838040677096 9.4810509802327451e-05 -0.0036848148815539282 -0.0027104577591968051 -0.0031977026617357462 -0.0030969962095397747 0.0060072051973030574 -0.0040912830078772711 0.012315618693942159 0.0056428426003179294 0.0088800061534393022 0.00013928339489488096 -0.0017774104074152509 -0.00051523349592081595 -0.0036575816404908453
leaf_weight=175 15582 1632 1133 195 390 866 887 205 236 539 158 89 78 134
leaf_count=175 15582 1632 1133 195 390 866 887 205 236 539 158 89 78 134
internal_value=0 -0.00021994 0.000811207 -0.000658703 0.000763179 0.00318026 -0.00132476 0.00300313 -0.00258343 0.00538695 0.00689861 0.00625356 0.0087792 0.00227458
internal_weight=0 6717 2005 4712 2710 1256 1454 567 2002 872 697 372 283 370
internal_count=22299 6717 2005 4712 2710 1256 1454 567 2002 872 697 372 283 370
shrinkage=0.1


Tree=60
num_leaves=15
num_cat=0
split_feature=13 37 13 14 34 27 3 14 23 12 28 6 23 21
split_gain=0.0453248 0.107708 0.224616 0.0952166 0.901036 0.532612 1.55893 1.0135 1.80935 1.2634 1.8059 0.882122 0.7392 0.612011
threshold=7.4017900000000015e-05 -5.6756399999999991e-05 0.00014235300000000004 0.0014346750000000003 0.090146350000000014 0.47230100000000003 -13.748449999999998 0.004937775000000001 -16.786249999999999 0.00010302150000000001 0.0026593450000000005 5.0738850000000011e-07 -13.311149999999998 -3.9276749999999994
decision_type=2 2 2 2 2 2 2 2 2 2 2 2 2 2
left_child=3 2 -2 -1 -5 6 7 8 -6 10 11 -10 -8 -9
right_child=1 -3 -4 4 5 -7 12 13 9 -11 -12 -13 -14 -15
leaf_value=6.2968492868141154e-05 0.016805683794276164 0.00021986165496393507 -0.0010634761728236782 -0.0016306259603946539 -0.0011560578364878894 0.00042875572411897524 -0.0032433999842902462 0.02002861219059144 0.011849251613020894 0.042520389465555072 -0.013021851756743023 0.052886438098820779 0.021502408512885901 -0.0039119965334733324
leaf_weight=12392 12.000000000000002 5352 17 2705 32 1482 169 13.999999999999998 10.000000000000002 31 13.999999999999998 10.999999999999998 12.999999999999998 45
leaf_count=12392 12 5352 17 2705 32 1482 169 14 10 31 14 11 13 45
internal_value=0 0.000252795 0.00633066 -8.04048e-05 -0.000472955 0.0012467 0.00482252 0.0121238 0.0183579 0.0278192 0.0147982 0.0333449 -0.00147584 0.00176883
internal_weight=0 5381 29 16918 4526 1821 339 157 98 66 35 21 182 59
internal_count=22299 5381 29 16918 4526 1821 339 157 98 66 35 21 182 59
shrinkage=0.1


Tree=61
num_leaves=15
num_cat=0
split_feature=12 32 19 25 38 3 23 34 0 3 3 25 4 38
split_gain=0.0434481 0.148311 0.817341 1.58141 0.324982 0.294842 1.25613 0.114132 0.0996971 0.0995834 0.0920046 0.0733767 0.723799 2.39318
threshold=-0.00030348099999999992 0.13461200000000004 0.00058040000000000012 0.76680700000000013 -0.083844549999999976 -16.232699999999998 -15.690899999999997 0.065668900000000016 0.086349300000000018 -15.526149999999999 -10.514199999999999 0.86192950000000013 -0.13878449999999998 0.00020902850000000003
decision_type=2 2 2 2 2 2 2 2 2 2 2 2 2 2
left_child=1 7 3 -3 -5 6 -4 -1 -8 -9 -6 -2 13 -13
right_child=11 2 5 4 10 -7 8 9 -10 -11 -12 12 -14 -15
leaf_value=0.00055134634477938622 -0.00019391694420304079 0.036505479360072826 0.034222709398286852 0.017592343352346992 -0.0038972985660356862 -0.00070941655883356236 0.0067822900786995892 -0.0034039803420557908 -0.004849698091545309 -0.00042383349472748584 0.0064152844014074605 -0.0021369248839297672 -0.00049856449046703293 0.0043312604896293952
leaf_weight=1303 12670 19 12.999999999999998 11.999999999999998 30.999999999999996 378 9.9999999999999982 142 28 533 12.000000000000002 979 4793 1376
leaf_count=1303 12670 19 13 12 31 378 10 142 28 533 12 979 4793 1376
internal_value=0 0.000394511 0.00192773 0.0116335 0.00304137 0.000253536 0.00739072 4.61872e-06 -0.00178865 -0.00105077 -0.00101937 -4.93886e-05 0.000206791 0.00164236
internal_weight=0 2481 503 74 55 429 51 1978 38 675 43 19818 7148 2355
internal_count=22299 2481 503 74 55 429 51 1978 38 675 43 19818 7148 2355
shrinkage=0.1


Tree=62
num_leaves=15
num_cat=0
split_feature=38 18 17 5 19 3 18 36 1 25 2 5 33 3
split_gain=0.0456811 0.366001 0.35275 0.334027 0.402311 0.375517 0.945824 0.567236 0.917888 0.204759 0.17938 0.1512 0.112779 0.0849584
threshold=-0.039763049999999987 3.0948650000000007e-05 2.0317800000000004e-05 9.3138400000000033e-06 1.1867000000000002e-05 -13.453149999999999 0.0018352000000000002 0.23757050000000002 4.5184100000000011 42.475300000000004 -1.3276849999999998 1.6396850000000005e-05 8.0085450000000008e-05 -11.019649999999997
decision_type=2 2 2 2 2 2 2 2 2 2 2 2 2 2
left_child=1 13 3 -3 -5 6 -6 10 -9 -4 -7 -12 -13 -1
right_child=-2 2 9 4 5 7 -8 8 -10 -11 11 12 -14 -15
leaf_value=-0.0018853619702133223 -3.4208939890985342e-05 0.024850941449403766 -0.0013436884293602409 -0.0080049688061181873 0.031502377006568404 0.0091777426439026994 -0.0035027455681791672 -0.0040288787113968274 0.036993005095670627 0.011458962377426881 -0.01166654571890831 -0.0035014312449758028 0.0093064911273540926 0.00024642324792775331
leaf_weight=259 21094 9.9999999999999982 116 18 19 14.999999999999998 12.999999999999998 10.000000000000002 11.999999999999998 13.999999999999998 14.999999999999998 22 9.9999999999999982 672
leaf_count=259 21094 10 116 18 19 15 13 10 12 14 15 22 10 672
internal_value=0 0.000598841 0.00381137 0.00722054 0.00590484 0.00806326 0.0172815 0.00455153 0.0183467 3.50586e-05 -0.000343526 -0.00338223 0.000501044 -0.00034663
internal_weight=0 1205 274 144 134 116 32 84 22 130 62 47 32 931
internal_count=22299 1205 274 144 134 116 32 84 22 130 62 47 32 931
shrinkage=0.1


Tree=63
num_leaves=15
num_cat=0
split_feature=8 21 5 14 33 13 37 7 34 12 3 23 14 0
split_gain=0.0426939 1.85107 1.11829 0.994571 1.66786 0.608586 1.07509 0.573716 0.428384 1.07609 0.426413 1.33465 0.962507 0.96414
threshold=-1.8359649999999996e-05 4.9983850000000007 1.9469650000000001e-05 0.00011475850000000001 -2.2165349999999994e-06 1.3357000000000001e-05 -1.2013799999999998e-08 6.4936450000000007e-05 0.0025908250000000006 6.746700000000001e-05 -8.7082099999999976 -9.1363349999999972 0.0017105150000000003 -3.4943349999999995
decision_type=2 2 2 2 2 2 2 2 2 2 2 2 2 2
left_child=1 -1 3 -3 -5 6 -6 8 9 -4 11 12 13 -10
right_child=-2 2 7 4 5 -7 -8 -9 10 -11 -12 -13 -14 -15
leaf_value=-0.0012791302201754103 -5.4070592246591317e-05 0.0037654645696007225 0.039925321284681549 0.053629110806754657 0.046875566941453145 -0.0043858611741318153 0.0015716925009407778 0.00077540589205428478 0.012906624074093999 -0.0044912811694666748 0.0033406063303989203 -0.004856982789933682 0.00090005958812649958 0.053561405717794379
leaf_weight=2072 19345 44 12.000000000000002 13.999999999999998 9.9999999999999982 12.999999999999998 11.000000000000002 474 9.9999999999999982 9.9999999999999982 234 25 10.999999999999998 14.000000000000002
leaf_count=2072 19345 44 12 14 10 13 11 474 10 10 234 25 11 14
internal_value=0 0.000354095 0.00419088 0.0146252 0.0245799 0.0126185 0.023145 0.00297574 0.00627625 0.019736 0.00526906 0.01279 0.025395 0.0366219
internal_weight=0 2954 882 92 48 34 21 790 316 22 294 60 35 24
internal_count=22299 2954 882 92 48 34 21 790 316 22 294 60 35 24
shrinkage=0.1


Tree=64
num_leaves=15
num_cat=0
split_feature=16 36 36 20 9 19 28 9 29 10 17 3 28 31
split_gain=0.0403049 2.81075 2.33102 1.17508 2.45266 1.62428 3.4317 1.55554 1.16928 1.73947 1.16346 1.15995 1.12359 0.937904
threshold=2.8010150000000002e-08 -0.00010457849999999998 -0.00012896049999999997 -1.9123699999999999 -3.7081799999999994e-06 2.1170350000000003e-05 -0.004176029999999999 -4.3193999999999988e-06 0.0010216650000000002 1.5487650000000004e-05 3.8899150000000009e-06 -5.8392349999999995 -0.23584399999999997 0.011734500000000002
decision_type=2 2 2 2 2 2 2 2 2 2 2 2 2 2
left_child=1 -1 -2 4 5 6 12 8 -5 -10 11 13 -4 -9
right_child=2 -3 3 7 -6 -7 -8 10 9 -11 -12 -13 -14 -15
leaf_value=0.0016649709792637504 -0.0016145742249776909 -0.0014959775116112964 0.0046335710704443053 -0.0017153158338671674 -0.0025494047917867554 0.001337751310137732 0.00091370280132466175 0.0070807916110833535 0.038345815104377623 0.0038190227830163723 0.0006187761627434959 0.00018131328442292602 0.031272581153883185 -0.0016168257945323337
leaf_weight=4952 4462 6513 20 1039 1653 568 133 1403 17 103 838 386 76 136
leaf_count=4952 4462 6513 20 1039 1653 568 133 1403 17 103 838 386 76 136
internal_value=0 -0.00013069 0.000138302 0.00136576 -0.000352414 0.00420421 0.011314 0.00243906 -0.000635871 0.00871032 0.00372891 0.00508283 0.0257228 0.00631219
internal_weight=0 11465 10834 6372 2450 797 229 3922 1159 120 2763 1925 96 1539
internal_count=22299 11465 10834 6372 2450 797 229 3922 1159 120 2763 1925 96 1539
shrinkage=0.1


Tree=65
num_leaves=15
num_cat=0
split_feature=7 21 1 25 3 12 24 23 23 33 12 1 17 21
split_gain=0.0503863 0.358095 3.56823 1.46157 1.61657 1.34061 1.3061 1.17763 1.12883 1.11171 0.822136 0.762983 0.704311 0.564193
threshold=3.0138200000000002e-05 -6.8668499999999986 -6.9879999999999987 2.2965900000000006 -5.9958099999999996 -4.9721299999999994e-05 -0.13154349999999995 -7.5004549999999997 -7.0597849999999989 -3.894694999999999e-06 -6.6376149999999986e-05 -6.5349399999999997 4.4310000000000011e-08 7.8746950000000009
decision_type=2 2 2 2 2 2 2 2 2 2 2 2 2 2
left_child=1 2 3 4 5 8 -7 -8 9 -1 -11 -3 -12 -13
right_child=-2 11 -4 -5 -6 6 7 -9 -10 10 12 13 -14 -15
leaf_value=-0.0020590233616530895 7.0825040513897074e-05 -0.0033722886923881756 -0.0026010060677024186 -0.00076614554426720691 -0.0013779685846642563 0.06368053470339094 0.002808096818625927 0.045499090371387337 -0.0039765639882534745 0.0087195877637714185 0.0260002026764246 -0.00060952183241498256 0.058917615304772679 0.0032061298323310585
leaf_weight=11.999999999999998 18248 834 517 53 31 13.999999999999998 11.999999999999998 14.000000000000002 20 9.9999999999999947 13.000000000000005 2029 12.999999999999998 479
leaf_count=12 18248 834 517 53 31 14 12 14 20 10 13 2029 13 479
internal_value=0 -0.000319036 0.00172222 0.0133634 0.018751 0.0245287 0.0390553 0.0257956 0.0159836 0.0243004 0.0330869 -0.000752086 0.0424589 0.000119225
internal_weight=0 4051 709 192 139 108 40 26 68 48 36 3342 26 2508
internal_count=22299 4051 709 192 139 108 40 26 68 48 36 3342 26 2508
shrinkage=0.1


Tree=66
num_leaves=15
num_cat=0
split_feature=13 33 32 19 28 14 34 20 2 28 14 20 3 25
split_gain=0.0476345 0.148536 0.162465 0.597159 0.17351 0.0852901 0.469228 0.345791 0.797825 0.985905 1.29496 0.611682 0.809911 1.58715
threshold=7.4017900000000015e-05 1.0061280000000002e-05 -3.1924349999999992 0.00023814550000000003 2.9088150000000002 0.0020371300000000003 0.090146350000000014 -3.3026299999999993 2.3295700000000008 0.0027353000000000004 0.0055317300000000012 5.1367550000000017 -14.006349999999999 2.1382100000000004
decision_type=2 2 2 2 2 2 2 2 2 2 2 2 2 2
left_child=5 2 3 -2 -5 -1 -7 8 -8 -10 -11 12 13 -9
right_child=1 -3 -4 4 -6 6 7 11 9 10 -12 -13 -14 -15
leaf_value=3.2142575121505343e-05 0.025586985986835016 -0.00070247585941344648 0.0004594841333942483 -0.00083070239015796692 0.013469431968405844 -0.0014849609621286771 -0.0028273276884475435 0.012396964600674647 -0.0026787006817930552 0.04840568648651241 0.0019484548829495907 -0.0024954662579746694 0.00023882332340261652 -0.0015268372569267673
leaf_weight=13423 11.999999999999998 1237 4066 56 9.9999999999999982 2068 413 208 27 12.000000000000002 11.999999999999998 234 386 135
leaf_count=13423 12 1237 4066 56 10 2068 413 208 27 12 12 234 386 135
internal_value=0 0.000259156 0.000546207 0.00506691 0.00133598 -8.24281e-05 -0.000522452 0.000872411 -0.00137018 0.0104299 0.0251771 0.00195295 0.00338084 0.00691675
internal_weight=0 5381 4144 78 66 16918 3495 1427 464 51 24 963 729 343
internal_count=22299 5381 4144 78 66 16918 3495 1427 464 51 24 963 729 343
shrinkage=0.1


Tree=67
num_leaves=15
num_cat=0
split_feature=7 20 0 0 20 0 0 25 0 16 22 4 35 35
split_gain=0.0424681 0.567426 1.45512 0.748847 0.85109 1.87449 1.59916 0.772302 1.07067 0.985802 0.714472 1.61779 0.465723 0.680193
threshold=3.0138200000000002e-05 5.3321000000000005 5.7773700000000003 6.0936550000000009 -3.5105649999999997 -3.4943349999999995 -2.8782349999999997 0.19682900000000003 -4.9610649999999987 -2.1360349999999997e-07 0.73928000000000005 0.04119865000000001 -0.011572799999999999 -0.0073437949999999993
decision_type=2 2 2 2 2 2 2 2 2 2 2 2 2 2
left_child=1 3 -3 4 5 7 -6 8 9 -1 -4 -12 -8 -14
right_child=-2 2 10 -5 6 -7 12 -9 -10 -11 11 -13 13 -15
leaf_value=0.0050212318882007475 6.5022250487492471e-05 -0.0041042066942198058 0.0035458960812525735 -0.0038815704965635047 -0.0023651240833730061 -0.0036381978658930852 -0.0016607697928082889 0.0031850465588794397 0.00016775088303762936 0.042638071687696011 -0.0084279177850112279 0.044234787366752119 0.027979907637032182 0.0049528524975052833
leaf_weight=11.000000000000002 18248 813 133 365 478 828 108 267 23 19 10.000000000000002 13.999999999999998 12.999999999999998 969
leaf_count=11 18248 813 133 365 478 828 108 267 23 19 10 14 13 969
internal_value=0 -0.000292897 -0.00240217 0.000371172 0.000942693 -0.00112614 0.00245737 0.00537382 0.0164003 0.0288452 0.00641154 0.022292 0.00457219 0.00525769
internal_weight=0 4051 970 3081 2716 1148 1568 320 53 30 157 24 1090 982
internal_count=22299 4051 970 3081 2716 1148 1568 320 53 30 157 24 1090 982
shrinkage=0.1


Tree=68
num_leaves=15
num_cat=0
split_feature=38 18 4 21 1 19 7 3 34 14 10 3 27 0
split_gain=0.0428916 0.282862 0.4144 0.431372 0.470638 0.386564 0.334116 0.305162 0.762789 0.245116 0.204022 0.0655474 0.0737007 0.125213
threshold=-0.039763049999999987 3.0948650000000007e-05 0.9753535000000001 -5.3772449999999994 -2.0831249999999994 1.2548550000000002e-05 3.5636250000000006e-05 -15.395849999999998 6.0983350000000014 0.0024077650000000005 2.9217750000000003e-05 -8.6694649999999971 2.6994700000000003 2.3619700000000003
decision_type=2 2 2 2 2 2 2 2 2 2 2 2 2 2
left_child=1 11 3 4 -3 -5 -7 8 10 -8 -4 12 13 -1
right_child=-2 2 7 5 -6 6 9 -9 -10 -11 -12 -13 -14 -15
leaf_value=0.012655394955072547 -3.3148005085334052e-05 0.013185864983295848 -0.00876218953801851 0.0022166354533777956 -0.015450659215760729 0.0068890944123268134 0.016339071806181556 -0.00085560313111924234 0.029908738161126776 0.036621647385450512 0.0099394612712785605 0.00050650239612502214 -0.0014781211414825594 -0.0031694347178563478
leaf_weight=10.000000000000002 21094 11.000000000000002 14.000000000000002 17 11.999999999999998 11.999999999999998 11.000000000000002 162 11.999999999999998 12.999999999999998 9.9999999999999982 513 398 9.9999999999999982
leaf_count=10 21094 11 14 17 12 12 11 162 12 13 10 513 398 10
internal_value=0 0.000580269 0.00340446 0.00968158 -0.00175493 0.0146446 0.0205133 0.000995056 0.00932302 0.0273255 -0.000969835 -0.00025091 -0.00118046 0.00474298
internal_weight=0 1205 274 76 23 53 36 198 36 24 24 931 418 20
internal_count=22299 1205 274 76 23 53 36 198 36 24 24 931 418 20
shrinkage=0.1


Tree=69
num_leaves=15
num_cat=0
split_feature=26 4 4 24 10 24 3 0 23 31 20 0 26 8
split_gain=0.0406601 1.3782 1.47919 1.05234 0.993452 1.17614 0.926861 1.18562 3.54472 1.42118 1.36744 1.46579 0.978039 1.14293
threshold=-0.00015226749999999996 0.14191850000000003 0.9753535000000001 0.15255000000000002 1.8855100000000005e-05 0.70144250000000008 -6.043429999999999 6.5759800000000004 -11.352949999999998 -0.14473399999999997 7.0316850000000004 -8.0964949999999991 -0.00058987849999999991 -1.3655999999999998e-05
decision_type=2 2 2 2 2 2 2 2 2 2 2 2 2 2
left_child=1 -1 3 -3 -5 6 7 10 -9 -10 11 -6 -13 -14
right_child=-2 2 -4 4 5 -7 -8 8 9 -11 -12 12 13 -15
leaf_value=-0.0010682123880762708 -5.9680584758767502e-05 -0.0033805537189120233 -0.00034526273481072923 0.00052400932893588035 0.044266772321942788 0.0024748541869263614 0.0011354585356880412 -0.0040160570465224352 0.064878019080920654 0.02085563751276244 -0.0044782366763268201 -0.0065217385545838632 0.00023154719146313489 0.024403468036407631
leaf_weight=2431 18655 89 622 121 18 115 43 19 22 10.999999999999998 35 20 27 71
leaf_count=2431 18655 89 622 121 18 115 43 19 22 11 35 20 27 71
internal_value=0 0.000305527 0.00305867 0.00664115 0.0084179 0.0109249 0.0145781 0.0171702 0.0303928 0.0502039 0.0131493 0.0176858 0.013631 0.0177439
internal_weight=0 3644 1213 591 502 381 266 223 52 33 171 136 118 98
internal_count=22299 3644 1213 591 502 381 266 223 52 33 171 136 118 98
shrinkage=0.1


Tree=70
num_leaves=15
num_cat=0
split_feature=8 21 7 31 4 23 36 18 1 21 21 1 15 1
split_gain=0.0416002 0.831499 0.647695 0.553357 0.533462 0.625439 1.04177 0.895032 0.894513 0.621182 0.90182 0.768966 0.463418 0.426446
threshold=-2.0335499999999999e-05 5.356510000000001 7.0934400000000023e-05 -0.032120949999999988 0.210429 -6.6726449999999993 -0.00015982599999999998 6.6736800000000013e-08 10.749450000000001 7.8241700000000014 9.0085450000000016 9.3428500000000003 2.6291250000000003e-07 7.7037250000000013
decision_type=2 2 2 2 2 2 2 2 2 2 2 2 2 2
left_child=1 -1 3 12 5 8 -7 -8 9 13 -11 -12 -3 -5
right_child=-2 2 -4 4 -6 6 7 -9 -10 10 11 -13 -14 -15
leaf_value=-0.00075386283329963979 -4.8458278239565424e-05 -0.003273144399362435 0.00064571327923025645 0.015348479861304873 -0.00092052847961895164 0.048459980586035685 0.0033312464219138575 0.035268360813363243 -0.0024699744775790928 0.048033891872248873 7.2710335177816884e-05 0.034418941238387062 0.016048065092569837 -0.0059569268870879625
leaf_weight=1795 19806 72 395 21 40 10.999999999999998 27 12.999999999999998 49 10.999999999999998 16.000000000000004 10.999999999999998 14.999999999999998 17
leaf_count=1795 19806 72 395 21 40 11 27 13 49 11 16 11 15 17
internal_value=0 0.000384984 0.00331368 0.00679172 0.00950388 0.0118731 0.0212057 0.0137108 0.00806533 0.0148578 0.0238985 0.0140656 5.80986e-05 0.00581711
internal_weight=0 2493 698 303 216 176 51 40 125 76 38 27 87 38
internal_count=22299 2493 698 303 216 176 51 40 125 76 38 27 87 38
shrinkage=0.1


Tree=71
num_leaves=15
num_cat=0
split_feature=28 1 10 30 12 12 14 20 4 4 24 20 14 34
split_gain=0.0422727 0.462757 0.28353 0.425648 0.545967 1.1837 0.327514 0.485864 0.195849 0.600053 0.440536 0.482207 0.175151 0.129384
threshold=-0.11302099999999998 -2.3105549999999995 1.8184750000000002e-05 0.020567500000000006 -6.4376299999999989e-05 -0.00013569999999999996 0.011578700000000003 -3.0532049999999997 -0.61210349999999991 -1.5067699999999997 -0.53721099999999999 -0.6291874999999999 0.024903550000000003 47.834100000000007
decision_type=2 2 2 2 2 2 2 2 2 2 2 2 2 2
left_child=1 2 3 4 5 6 7 -1 9 -4 11 -11 -5 -3
right_child=-2 13 8 12 -6 -7 -8 -9 -10 10 -12 -13 -14 -15
leaf_value=0.0001980352173136039 -3.4369627773649737e-05 -0.0014845862384476386 -0.0004470618112156024 -0.0033495434214620176 -0.0018631647976386984 0.040358882198731107 -0.00080411960688334973 0.02828255114810807 0.00026898697098486161 0.033273170515894894 -0.0021908326160337312 0.005280564948916433 0.011376406925264745 0.003690766158181829
leaf_weight=11 20991 680 65 42 24 14.999999999999998 22 14 337 15.999999999999998 9.9999999999999982 10.000000000000002 9.9999999999999982 52
leaf_count=11 20991 680 65 42 24 15 22 14 337 16 10 10 10 52
internal_value=0 0.000551569 0.00267196 0.00662459 0.0109431 0.0159004 0.00809454 0.0159254 0.00142662 0.0052892 0.0156463 0.0225068 -0.00051763 -0.00111694
internal_weight=0 1308 576 138 86 62 47 25 438 101 36 26 52 732
internal_count=22299 1308 576 138 86 62 47 25 438 101 36 26 52 732
shrinkage=0.1


Tree=72
num_leaves=15
num_cat=0
split_feature=13 33 32 19 3 23 33 4 23 4 25 9 20 20
split_gain=0.0466557 0.121485 0.124261 0.466647 0.085182 3.49476 1.33594 0.978274 0.937107 0.777443 0.724825 0.717562 4.80243 2.53837
threshold=7.4017900000000015e-05 1.0061280000000002e-05 -3.1924349999999992 0.0011157750000000001 -12.676799999999998 -12.856149999999998 -3.4138749999999996e-05 0.61727300000000007 -12.856149999999998 -1.6365099999999997 4.3120950000000011 1.6530500000000004e-05 3.2916800000000004 3.1591850000000004
decision_type=2 2 2 2 2 2 2 2 2 2 2 2 2 2
left_child=4 2 3 -2 5 6 -1 9 -6 -8 11 13 -13 -11
right_child=1 -3 -4 -5 8 -7 7 -9 -10 10 -12 12 -14 -15
leaf_value=-0.0019645326395080842 0.018099690076748009 -0.00061318964953243748 0.00044023506570364844 8.0361549685298769e-05 -0.0014067641241898576 -0.0028780693889064509 -0.0023361665775618432 -0.0030339064400737425 0.00048227002244368062 0.018987527420321341 -0.0028147441346962482 -0.0073157789438080632 0.031765079648887855 -0.0047638364502095749
leaf_weight=208 19 1237 4066 59 3483 1953 55 79 10674 229 39 95 47 56
leaf_count=208 19 1237 4066 59 3483 1953 55 79 10674 229 39 95 47 56
internal_value=0 0.000256479 0.000516079 0.00446969 -8.15768e-05 -0.00058968 0.00494154 0.00733564 1.75172e-05 0.00890799 0.0102351 0.011427 0.00561943 0.0143206
internal_weight=0 5381 4144 78 16918 2761 808 600 14157 521 466 427 142 285
internal_count=22299 5381 4144 78 16918 2761 808 600 14157 521 466 427 142 285
shrinkage=0.1


Tree=73
num_leaves=15
num_cat=0
split_feature=24 18 4 4 10 10 28 20 2 3 4 39 3 5
split_gain=0.0457689 0.358605 0.762817 0.345484 0.432175 0.88263 0.548234 0.521702 0.471951 0.233298 0.505657 0.855186 0.143633 0.0900356
threshold=0.54616000000000009 3.0948650000000007e-05 0.48299450000000005 0.9753535000000001 2.8995250000000003e-05 3.1271600000000007e-05 0.18824000000000002 -2.7028649999999996 1.2201300000000004 -15.395849999999998 4.8916100000000009 0.026205200000000001 -8.403439999999998 7.1526450000000005e-06
decision_type=2 2 2 2 2 2 2 2 2 2 2 2 2 2
left_child=-1 13 -3 4 7 -6 12 -4 -9 10 11 -5 -7 -2
right_child=1 2 3 9 5 6 -8 8 -10 -11 -12 -13 -14 -15
leaf_value=-3.8501443702896083e-05 0.0069131898584173018 0.027125554990309938 0.019512142850594088 0.0012640528511838054 0.041080132331699132 -0.011102943310979755 0.025129206647927112 0.005360407776692333 -0.019433256291917392 -0.00074984886298114445 -0.00921472868261238 0.03854242496192456 0.0054562750156037492 -0.00041837989931114029
leaf_weight=20797 17 12.999999999999998 10.999999999999998 16.000000000000004 9.9999999999999982 9.9999999999999982 10.999999999999998 17.000000000000004 13.999999999999998 210 11.999999999999998 9.9999999999999982 11.000000000000002 1140
leaf_count=20797 17 13 11 16 10 10 11 17 14 210 12 10 11 1140
internal_value=0 0.000533099 0.00336273 0.00243226 0.00797508 0.0151479 0.00704409 0.00080226 -0.00583673 0.000554855 0.00776506 0.0156019 -0.00242907 -0.000310656
internal_weight=0 1502 345 332 84 42 32 42 31 248 38 26 21 1157
internal_count=22299 1502 345 332 84 42 32 42 31 248 38 26 21 1157
shrinkage=0.1


Tree=74
num_leaves=15
num_cat=0
split_feature=13 33 19 30 4 38 34 19 26 10 20 3 19 23
split_gain=0.0405939 0.307501 1.48627 1.34862 0.637786 2.04259 0.494173 0.452981 0.342372 0.515841 0.181334 0.175427 0.488966 0.532545
threshold=5.5414750000000007e-05 -1.5775449999999998e-05 2.9823300000000003e-05 0.00038111650000000004 -0.15044249999999995 0.0018426050000000002 0.61395300000000008 1.8396200000000002e-05 -6.0780499999999999e-05 2.8856050000000003e-05 -2.1410649999999998 -16.135999999999999 0.0014347250000000002 -15.905149999999997
decision_type=2 2 2 2 2 2 2 2 2 2 2 2 2 2
left_child=-1 2 3 -2 5 -5 -7 -3 9 -6 -11 12 13 -4
right_child=1 7 11 4 8 6 -8 -9 -10 10 -12 -13 -14 -15
leaf_value=-8.5172474521670401e-05 0.040488490241114054 -0.0029824582135802996 0.028237480558454986 -0.0059725701918877244 0.023483263479326579 0.05456046536564825 0.023845306597650051 0.00019580751376380517 -0.0026641493911207046 -0.0060501394153592023 0.0083456418465911644 -0.00018723109818507937 -0.00062662405390092029 0.0011188674192193762
leaf_weight=15945 13.999999999999998 495 15.000000000000002 18 17 11.000000000000002 9.9999999999999982 4767 46 14.999999999999998 21 850 61 13.999999999999998
leaf_count=15945 14 495 15 18 17 11 10 4767 46 15 21 850 61 14
internal_value=0 0.000213735 0.00174082 0.0109153 0.00791509 0.0187465 0.0399342 -0.000103174 0.00364819 0.00912683 0.0023474 0.000257293 0.00445558 0.0151457
internal_weight=0 6354 1092 152 138 39 21 5262 99 53 36 940 90 29
internal_count=22299 6354 1092 152 138 39 21 5262 99 53 36 940 90 29
shrinkage=0.1


Tree=75
num_leaves=15
num_cat=0
split_feature=5 23 3 3 14 22 36 26 15 14 24 26 4 4
split_gain=0.0418529 0.162056 0.640369 1.23008 1.05513 1.30479 0.81835 0.774549 0.784844 0.277682 0.229837 0.14762 4.13964 2.13852
threshold=1.6524450000000004e-05 -6.4403949999999996 -6.4339449999999987 -5.8392349999999995 0.00012793950000000002 1.4560700000000002 0.0031129550000000001 5.6888250000000005e-05 -5.1352399999999991e-08 0.00060902400000000011 0.56702800000000009 5.7378300000000006e-05 0.017115750000000002 0.017115750000000002
decision_type=2 2 2 2 2 2 2 2 2 2 2 2 2 2
left_child=11 -2 9 4 5 7 -6 8 -4 -3 -5 13 -13 -1
right_child=1 2 3 10 6 -7 -8 -9 -10 -11 -12 12 -14 -15
leaf_value=-0.0020431160896468305 3.895717930234611e-05 -0.005300264469520235 0.017674343623220914 -0.00091327375875656933 -0.0074755251330013081 -0.0011350545593920877 0.019986545116133878 0.012062902329489589 0.05198565669357777 0.00061232046767988849 0.014722459851764142 0.0030245404542220277 -0.0026570466413117166 0.0013525521419183522
leaf_weight=3846 8998 102 10.000000000000002 157 30 17 17 13.999999999999998 20 359 9.9999999999999982 2666 2471 3582
leaf_count=3846 8998 102 10 157 30 17 17 14 20 359 10 2666 2471 3582
internal_value=0 0.000155652 0.00158231 0.00540141 0.013718 0.0223941 0.00245756 0.0314849 0.0405486 -0.000695887 2.29977e-05 -0.000120583 0.000291583 -0.000405625
internal_weight=0 9734 736 275 108 61 47 44 30 461 167 12565 5137 7428
internal_count=22299 9734 736 275 108 61 47 44 30 461 167 12565 5137 7428
shrinkage=0.1


Tree=76
num_leaves=15
num_cat=0
split_feature=6 33 13 3 34 14 3 23 23 3 37 23 3 3
split_gain=0.0395613 1.02288 0.682895 1.00241 0.672432 0.866867 1.62931 1.68191 1.52945 1.94414 1.68507 1.04582 7.30663 3.60617
threshold=1.5394450000000002e-06 3.9863900000000005e-07 -6.6386149999999988e-06 -6.043429999999999 0.078864150000000008 0.00060902400000000011 -6.401514999999999 -6.4589649999999992 -6.4589649999999992 -5.8561999999999985 -3.1189649999999991e-08 -9.6992549999999991 -9.5935949999999988 -9.5935949999999988
decision_type=2 2 2 2 2 2 2 2 2 2 2 2 2 2
left_child=-1 2 3 -2 5 6 7 11 -8 10 -10 12 -3 -13
right_child=1 4 -4 -5 -6 -7 8 -9 9 -11 -12 13 -14 -15
leaf_value=-9.0744780501596673e-05 -0.003455821471282042 0.045909752870599431 0.00085305614219069513 0.00097459335888305852 -0.00018864145267501675 0.0002342891381638782 -0.0019638869039835661 -0.0077721502365845178 0.0022727995365858077 -0.00080786470370367177 0.044668657958507545 -0.01173960462845159 -0.0099905925638147826 0.016310117317358125
leaf_weight=15230 1561 30 1305 759 1471 853 442 60 14.999999999999998 50 25 53 106 339
leaf_count=15230 1561 30 1305 759 1471 853 442 60 15 50 25 53 106 339
internal_value=0 0.000195508 -0.000976988 -0.00200639 0.00142962 0.00263615 0.00446542 0.00809335 0.000455596 0.0123379 0.0287702 0.00989625 0.00234037 0.0125177
internal_weight=0 7069 3625 2320 3444 1973 1120 588 532 90 40 528 136 392
internal_count=22299 7069 3625 2320 3444 1973 1120 588 532 90 40 528 136 392
shrinkage=0.1


Tree=77
num_leaves=15
num_cat=0
split_feature=26 4 4 24 17 24 16 0 23 20 9 20 17 38
split_gain=0.0423551 0.970044 1.09889 0.859911 0.79226 0.76402 1.01764 0.609758 2.09455 1.04717 0.85866 1.10383 0.821817 1.36374
threshold=-0.00014758899999999997 0.13154600000000002 0.9753535000000001 0.17448400000000003 2.1195350000000003e-07 0.70144250000000008 4.5816150000000005e-06 5.7773700000000003 -11.352949999999998 3.0485500000000005 -2.0461199999999996e-05 -3.0347149999999998 6.5808800000000009e-07 -0.0018515799999999998
decision_type=2 2 2 2 2 2 2 2 2 2 2 2 2 2
left_child=1 -1 3 -3 -5 6 7 9 -9 10 12 -12 13 -6
right_child=-2 2 -4 4 5 -7 -8 8 -10 -11 11 -13 -14 -15
leaf_value=-0.0008457057575948344 -6.1808742824762301e-05 -0.0027724006460630338 -0.00036486362189221762 0.00061826701301684165 0.018084090213792824 0.0027824466310094223 -0.0014747887923890219 0.00023078907211311161 0.036789252439935118 -0.00020101876556873324 -0.0071467160955071456 0.027924333699047565 0.016289642200116878 0.067204115092754368
leaf_weight=2470 18565 104 637 136 13.000000000000002 118 44 25 42 50 25 13.999999999999998 46 9.9999999999999982
leaf_count=2470 18565 104 637 136 13 118 44 25 42 50 25 14 46 10
internal_value=0 0.000307306 0.00256042 0.00553236 0.00718379 0.00949105 0.0124339 0.0151538 0.023148 0.0117638 0.0173031 0.00544289 0.0240066 0.0394406
internal_weight=0 3734 1264 627 523 387 269 225 67 158 108 39 69 23
internal_count=22299 3734 1264 627 523 387 269 225 67 158 108 39 69 23
shrinkage=0.1


Tree=78
num_leaves=15
num_cat=0
split_feature=28 12 7 12 31 4 0 38 25 10 19 13 37 14
split_gain=0.0469968 0.435576 0.468843 0.729587 0.207356 0.260232 0.458629 0.361251 0.154034 0.117367 0.187616 0.546281 0.748476 0.154355
threshold=-0.085570549999999981 -6.6376149999999986e-05 3.5305950000000007e-05 -8.9441799999999988e-05 3.8695450000000005 -0.26123949999999996 -1.9565699999999999 -0.065242049999999982 101.12950000000002 4.0409750000000004e-05 8.7498650000000013e-05 2.1532450000000004e-05 1.7309350000000004e-06 0.0014346750000000003
decision_type=2 2 2 2 2 2 2 2 2 2 2 2 2 2
left_child=1 2 3 4 5 6 -1 -7 9 10 11 -4 -13 -12
right_child=-2 -3 8 -5 -6 7 -8 -9 -10 -11 13 12 -14 -15
leaf_value=0.0028895149515433738 -3.7788793154988863e-05 -0.00066190968808000565 -0.0027895789183676242 0.026550666391114267 -0.0036912344928298683 0.017522307605083502 0.032479461878538132 -0.0012687116891978995 0.010019076092928451 -0.0013688231665030892 0.010044458148380122 0.03763587136371907 0.0027781765359187766 -0.00072003243752712923
leaf_weight=11.000000000000002 20884 954 25 19 21 13.999999999999998 9.9999999999999982 38 19 145 14.999999999999998 11.000000000000002 13.999999999999998 119
leaf_count=11 20884 954 25 19 21 14 10 38 19 145 15 11 14 119
internal_value=0 0.000557725 0.00308166 0.00867812 0.00506558 0.00758467 0.01698 0.00379041 0.00126441 0.000758824 0.0024355 0.00766299 0.0181156 0.000484948
internal_weight=0 1415 461 113 94 73 21 52 348 329 184 50 25 134
internal_count=22299 1415 461 113 94 73 21 52 348 329 184 50 25 134
shrinkage=0.1


Tree=79
num_leaves=15
num_cat=0
split_feature=3 21 12 19 33 33 13 25 13 7 29 20 9 18
split_gain=0.0416889 0.183163 0.728959 0.063671 1.85679 1.40284 1.41723 1.28514 1.26632 1.26477 0.704064 0.833211 1.39883 0.869975
threshold=-6.0235649999999987 14.24385 3.7315150000000008e-05 0.00037365450000000007 3.5995300000000004e-06 3.5995300000000004e-06 -8.5798799999999992e-06 3.8218900000000002 -1.1562999999999999e-05 4.7604400000000008e-05 -0.047225199999999995 -4.0698899999999991 -3.6126799999999994e-05 -3.7677999999999996e-07
decision_type=2 2 2 2 2 2 2 2 2 2 2 2 2 2
left_child=3 -2 -3 4 -1 8 7 9 -5 -7 -11 12 13 -12
right_child=1 2 -4 5 -6 6 -8 -9 -10 10 11 -13 -14 -15
leaf_value=0.00079068884480402817 0.00021720981864518709 -0.00051044146021013155 0.030421066526323561 -0.0027475192077710767 -0.0022800797780676463 0.009259605488293755 9.2282709765207391e-05 -0.0013281746278600633 0.0002886908018249539 0.028451914354227482 0.023240930973030306 -0.0013854564391857724 -0.0020767576754128401 -0.0005134324842531767
leaf_weight=5756 4168 32 9.9999999999999982 2152 2993 549 2056 313 3798 9.9999999999999982 58 307 76 21
leaf_count=5756 4168 32 10 2152 2993 549 2056 313 3798 10 58 307 76 21
internal_value=0 0.000283422 0.0068542 -6.59631e-05 -0.00025981 0.000115617 0.00173926 0.00427762 -0.000809448 0.00599615 0.0022003 0.00163208 0.00760876 0.0169265
internal_weight=0 4210 42 18089 8749 9340 3390 1334 5950 1021 472 462 155 79
internal_count=22299 4210 42 18089 8749 9340 3390 1334 5950 1021 472 462 155 79
shrinkage=0.1


Tree=80
num_leaves=15
num_cat=0
split_feature=28 1 10 30 12 12 23 3 3 12 23 19 3 14
split_gain=0.0450635 0.371108 0.187698 0.304692 0.441456 1.17196 0.274564 0.589179 0.779433 0.623014 0.256567 0.421461 0.16284 0.117718
threshold=-0.085570549999999981 -2.3105549999999995 1.8184750000000002e-05 0.020567500000000006 -6.4376299999999989e-05 -0.00013569999999999996 -8.3926599999999976 -8.8871949999999984 -6.8076899999999991 -0.00019486199999999999 -9.540049999999999 0.00049788050000000009 -15.973449999999998 0.024903550000000003
decision_type=2 2 2 2 2 2 2 2 2 2 2 2 2 2
left_child=1 2 3 4 5 10 12 -8 9 -9 11 -1 -4 -5
right_child=-2 -3 6 13 -6 -7 7 8 -10 -11 -12 -13 -14 -15
leaf_value=0.024322344429258791 -3.7003349152063867e-05 -0.00088813619797366034 0.010715903774169941 -0.0030280542597340954 -0.0015495632205094244 0.036853335355408488 -0.0025590664697908022 0.0046355401584878544 0.0012572711875597227 0.035766448499634861 -0.0037497220884284213 0.0016999204480089248 -0.00027844736067475804 0.0090444664005190131
leaf_weight=13.999999999999998 20884 793 13.999999999999998 42 29 15.999999999999998 45 10.000000000000002 29 18 18 20 357 9.9999999999999982
leaf_count=14 20884 793 14 42 29 16 45 10 29 18 18 20 357 10
internal_value=0 0.000546133 0.00237471 0.00546979 0.00878075 0.0131863 0.00139973 0.00599465 0.0127476 0.0246483 0.00590416 0.011015 0.000136434 -0.000706416
internal_weight=0 1415 622 149 97 68 473 102 57 28 52 34 371 52
internal_count=22299 1415 622 149 97 68 473 102 57 28 52 34 371 52
shrinkage=0.1


Tree=81
num_leaves=15
num_cat=0
split_feature=5 33 19 21 1 17 1 21 13 21 1 21 1 14
split_gain=0.0447151 0.13404 0.359405 0.381637 2.23811 0.926694 1.34046 1.82415 1.54236 0.637999 0.632287 0.738364 1.85358 1.67719
threshold=1.6524450000000004e-05 1.7107900000000001e-06 2.1170350000000003e-05 7.6290550000000001 5.2050400000000012 1.6235300000000002e-07 9.6934550000000019 9.7994750000000028 1.9633850000000002e-05 12.314950000000001 7.1936700000000009 -6.1765049999999997 -5.7527549999999996 9.6564350000000017e-05
decision_type=2 2 2 2 2 2 2 2 2 2 2 2 2 2
left_child=-1 2 3 10 -5 6 7 8 -6 -8 11 12 13 -2
right_child=1 -3 -4 4 5 -7 9 -9 -10 -11 -12 -13 -14 -15
leaf_value=-0.00012463752716393287 0.0022507120377556196 -0.00027319690574107743 -5.3167101932467662e-05 -0.0037524920416158302 0.078691028464924193 0.0022106513208480188 0.0051497665397080179 0.0069887495910127958 0.025735536666417664 0.027885138150304557 -0.0021335156213672032 0.00093293250936057361 -0.0038191180106666653 0.025141636948643433
leaf_weight=12565 57 4110 3901 154 11.000000000000002 52 54 14.999999999999998 10.999999999999998 15.999999999999998 446 748 86 73
leaf_count=12565 57 4110 3901 154 11 52 54 15 11 16 446 748 86 73
internal_value=0 0.000160887 0.000478113 0.00168097 0.00483975 0.0131618 0.0184839 0.033879 0.0522133 0.0103464 0.000979767 0.00242014 0.00757031 0.0151048
internal_weight=0 9734 5624 1723 313 159 107 37 22 70 1410 964 216 130
internal_count=22299 9734 5624 1723 313 159 107 37 22 70 1410 964 216 130
shrinkage=0.1


Tree=82
num_leaves=15
num_cat=0
split_feature=39 4 24 4 38 14 16 39 22 14 14 29 6 21
split_gain=0.042863 0.301947 0.467939 1.20726 0.929193 2.0345 0.836909 0.776785 0.76399 0.400155 0.697959 0.99493 0.664092 0.640386
threshold=0.00049969450000000013 -0.25668149999999995 0.40095100000000006 -1.4166899999999998 0.019421350000000004 0.0018826950000000002 -1.3472549999999999e-05 0.00068107450000000011 1.856025 0.00086775350000000003 0.0014346750000000003 -0.074339499999999989 -3.9270699999999994e-07 -0.51143199999999989
decision_type=2 2 2 2 2 2 2 2 2 2 2 2 2 2
left_child=-1 2 3 -2 5 7 8 -5 -6 -8 11 -11 13 -12
right_child=1 -3 -4 4 6 -7 9 -9 -10 10 12 -13 -14 -15
leaf_value=-7.084556115324673e-05 -0.00026039613993401005 -0.00023820472069643151 -0.00075374015652670439 0.020574776445176787 0.0064438605936712415 0.0005070391317041448 -0.0018549638473518552 0.05608555297367275 0.044634508043527608 0.045868420959450311 0.027730323663471564 0.0085468211360275742 -0.0007181569220287761 0.0020936623658053578
leaf_weight=17682 453 3305 526 11.000000000000002 11.000000000000002 26 83 13.999999999999998 9.9999999999999982 9.9999999999999982 19 25 104 20
leaf_count=17682 453 3305 526 11 11 26 83 14 10 10 19 25 104 20
internal_value=0 0.000271321 0.00155485 0.00309978 0.00767082 0.0200922 0.0054244 0.0404608 0.0246299 0.00387913 0.0065529 0.0192101 0.00345497 0.0145833
internal_weight=0 4617 1312 786 333 51 282 25 21 261 178 35 143 39
internal_count=22299 4617 1312 786 333 51 282 25 21 261 178 35 143 39
shrinkage=0.1


Tree=83
num_leaves=15
num_cat=0
split_feature=24 5 18 4 34 18 18 29 9 3 28 3 3 34
split_gain=0.0436794 0.241549 0.187027 0.354645 0.462834 0.421164 0.353651 0.348129 0.504036 0.170089 0.186875 0.105461 0.0793239 0.0710045
threshold=0.54616000000000009 7.1526450000000005e-06 4.0333150000000005e-05 0.9753535000000001 2.8705050000000001 0.00010406150000000001 0.00023698150000000002 0.027091400000000005 4.5217850000000011e-06 -16.772799999999997 0.55062400000000011 -10.915599999999998 -10.742099999999999 0.37240250000000003
decision_type=2 2 2 2 2 2 2 2 2 2 2 2 2 2
left_child=-1 -2 11 4 5 -4 -6 8 -7 -5 -11 -3 -13 -14
right_child=1 2 3 9 6 7 -8 -9 -10 10 -12 12 13 -15
leaf_value=-3.7612335798578144e-05 0.011724497576391227 -0.0017693293416050438 0.026898223833995871 0.010509463818743826 -0.010940288855797713 -0.00077142976224422435 0.012514421455562114 -0.0021844419797784407 0.029090844381314058 -0.00090161692458221108 0.01064111621080277 0.0092201381525956107 -0.0044349493026534367 0.00044404807655946081
leaf_weight=20797 19 320 15.999999999999998 15.999999999999998 18.000000000000004 10.000000000000002 9.9999999999999982 19 12.999999999999998 216 14.999999999999998 9.9999999999999982 31 789
leaf_count=20797 19 320 16 16 18 10 10 19 13 216 15 10 31 789
internal_value=0 0.000520788 0.000377248 0.00246418 0.0079948 0.013092 -0.00256361 0.00783244 0.0161072 0.000538538 -0.000152089 -0.000227055 0.000367556 0.000259598
internal_weight=0 1502 1483 333 86 58 28 42 23 247 231 1150 830 820
internal_count=22299 1502 1483 333 86 58 28 42 23 247 231 1150 830 820
shrinkage=0.1


Tree=84
num_leaves=15
num_cat=0
split_feature=14 39 3 3 23 34 4 4 10 4 38 26 4 15
split_gain=0.0426039 0.137167 0.444109 0.087209 2.8937 0.687815 1.30507 1.26424 0.667481 0.620977 3.2234 1.25685 2.2067 1.04448
threshold=0.011578700000000003 0.34498650000000003 -15.016799999999998 -12.676799999999998 -12.434149999999997 0.37240250000000003 0.2905815000000001 -0.6437274999999999 8.9851850000000023e-06 -0.22091599999999997 0.00097066749999999999 6.6858450000000021e-05 -0.098685899999999979 -1.8057149999999999e-06
decision_type=2 2 2 2 2 2 2 2 2 2 2 2 2 2
left_child=3 -2 -3 4 5 6 7 -1 -9 10 -10 13 -13 -11
right_child=1 2 -4 -5 -6 -7 -8 8 9 11 -12 12 -14 -15
leaf_value=-0.0046743287971581929 0.00021030780674602132 0.019928235259527964 0.00016554270352687727 2.3580104373881467e-05 -0.0028549416996448041 0.00074838382323261709 -0.0024865967107051221 0.03591416151770814 -0.01132824692646401 0.04620032453766236 0.024700917447493836 0.033486290193266342 -0.0068517850847406823 0.016521807422654498
leaf_weight=55 4410 14.999999999999998 47 15158 1815 344 122 10.999999999999998 57 12.999999999999998 44 18 55 135
leaf_count=55 4410 15 47 15158 1815 344 122 11 57 13 44 18 55 135
internal_value=0 0.000275975 0.00494684 -6.92299e-05 -0.000596324 0.0042039 0.00653468 0.00937127 0.0116911 0.0108636 0.00436763 0.0138324 0.00309459 0.0191287
internal_weight=0 4472 62 17827 2669 854 510 388 333 322 101 221 73 148
internal_count=22299 4472 62 17827 2669 854 510 388 333 322 101 221 73 148
shrinkage=0.1


Tree=85
num_leaves=15
num_cat=0
split_feature=13 33 19 34 0 6 33 19 5 22 6 21 30 5
split_gain=0.0414975 0.454257 1.59289 1.4594 0.879963 0.617305 0.737845 0.469414 0.427799 0.746743 0.428698 0.459282 0.344408 0.71647
threshold=4.543755000000001e-05 -1.8500899999999994e-05 2.9823300000000003e-05 0.14834200000000003 2.8747750000000001 -1.2049049999999998e-06 -3.0237949999999997e-05 1.5736100000000003e-05 1.5552100000000003e-05 -2.3322399999999992 -3.2223299999999997e-07 -3.9684699999999995 0.0028365400000000007 1.3647800000000002e-05
decision_type=2 2 2 2 2 2 2 2 2 2 2 2 2 2
left_child=-1 2 3 4 -2 12 8 -3 9 -7 11 -11 13 -5
right_child=1 7 -4 5 -6 6 -8 -9 -10 10 -12 -13 -14 -15
leaf_value=-9.1258490236539446e-05 0.016818417507456617 -0.0025494144706412346 0.00026949105914132585 -0.010242136966969287 0.05107164469858011 -0.0044895645289216189 0.03805627703666687 0.00018616479976883514 -0.0038134371910832432 0.013461271456132335 0.0046229813517790954 0.039708601137002308 -0.0048937562248029289 0.01822351889810913
leaf_weight=15405 20 716 913 13.999999999999998 11.999999999999998 15.999999999999998 9.9999999999999982 5062 19 11.999999999999996 11.000000000000002 15 50 24
leaf_count=15405 20 716 913 14 12 16 10 5062 19 12 11 15 50 24
internal_value=0 0.000203922 0.00205094 0.0100631 0.0296634 0.00639519 0.0125818 -0.000152824 0.00909217 0.013633 0.0212636 0.0280431 0.000560076 0.00773617
internal_weight=0 6894 1116 203 32 171 83 5778 73 54 38 27 88 38
internal_count=22299 6894 1116 203 32 171 83 5778 73 54 38 27 88 38
shrinkage=0.1


Tree=86
num_leaves=15
num_cat=0
split_feature=3 21 16 23 19 0 20 34 29 11 34 20 0 3
split_gain=0.0419069 0.138166 0.362303 0.0657073 0.109243 0.0622224 2.03544 1.06649 0.287708 0.145291 0.171825 0.0809802 0.359052 0.382106
threshold=-5.9294499999999992 14.24385 2.1447500000000005e-07 -5.9060399999999991 1.8396200000000002e-05 -10.39655 -10.491749999999998 0.0048415450000000009 0.014355700000000001 -7.7826999999999985e-05 0.072701400000000013 -11.063699999999999 -9.4585049999999971 -7.1424999999999992
decision_type=2 2 2 2 2 2 2 2 2 2 2 2 2 2
left_child=5 3 -3 -2 -5 6 7 -1 -9 -8 -11 12 13 -7
right_child=1 2 -4 4 -6 11 9 8 -10 10 -12 -13 -14 -15
leaf_value=0.048110873234161938 0.00021227707653386353 0.00036154979995141426 0.022643581429729238 -0.0014312168199103322 0.013350026926491411 0.025939452175516627 -0.00017187629740268069 -0.00046383379570518921 0.022502747708931566 -0.0062371283571054752 -0.0013272158858653404 9.412831566346502e-06 -0.0014773660080304185 -0.0017049213452264669
leaf_weight=10.999999999999998 3737 27 9.9999999999999982 10.000000000000002 9.9999999999999982 10.000000000000002 120 12.000000000000002 9.9999999999999982 180 118 17355 679 9.9999999999999982
leaf_count=11 3737 27 10 10 10 10 120 12 10 180 118 17355 679 10
internal_value=0 0.000302758 0.00638372 0.000242871 0.00595941 -6.20732e-05 -0.00122226 0.0226873 0.00997552 -0.00310986 -0.00429293 -3.30911e-05 -0.00108839 0.0121173
internal_weight=0 3794 37 3757 20 18505 451 33 22 418 298 18054 699 20
internal_count=22299 3794 37 3757 20 18505 451 33 22 418 298 18054 699 20
shrinkage=0.1


Tree=87
num_leaves=15
num_cat=0
split_feature=10 20 20 0 22 13 0 0 0 14 23 3 3 34
split_gain=0.0397564 0.858548 1.364 1.03344 1.08449 1.86171 1.00244 0.795873 0.9437 1.53805 2.93236 2.00722 1.39514 1.44535
threshold=2.4820400000000004e-05 4.2412050000000008 -3.5336099999999995 4.5268550000000003 0.62834050000000008 1.2728900000000001e-05 -3.4067449999999995 3.7226900000000005 -3.4067449999999995 0.0023791600000000004 -13.661999999999997 -14.124499999999999 -6.0725999999999987 0.35781150000000006
decision_type=2 2 2 2 2 2 2 2 2 2 2 2 2 2
left_child=1 2 6 -3 -5 -6 -1 8 -4 10 11 -10 13 -12
right_child=-2 3 7 4 5 -7 -8 -9 9 -11 12 -13 -14 -15
leaf_value=0.003335477851951288 9.8234719919535073e-05 -0.0024805590570298394 -0.0012994957434306056 0.00044350598229184039 -0.0048029102047751496 0.028817357497755436 -0.0020714432587302547 -0.0019201373479688106 0.032875052979215981 0.0010105948481802455 0.014312186915441115 -0.003531535448067192 -0.0010602956013207115 -0.0007971948841969446
leaf_weight=410 14468 2156 475 210 28 40 2095 439 15.999999999999998 1038 477 283 91 73
leaf_count=410 14468 2156 475 210 28 40 2095 439 16 1038 477 283 91 73
internal_value=0 -0.000181492 0.000521674 -0.00174065 0.00399766 0.0149737 -0.00118648 0.00200125 0.00270303 0.00366421 0.00659448 -0.00158336 0.0104091 0.0123068
internal_weight=0 7831 5397 2434 278 68 2505 2892 2453 1978 940 299 641 550
internal_count=22299 7831 5397 2434 278 68 2505 2892 2453 1978 940 299 641 550
shrinkage=0.1


Tree=88
num_leaves=15
num_cat=0
split_feature=20 0 3 14 39 15 18 38 35 15 15 22 16 19
split_gain=0.0494993 5.01017 1.73354 2.69192 1.78443 1.55451 1.62165 2.81428 2.66664 2.62245 1.39592 1.92428 1.23333 1.77847
threshold=7.2040400000000009 6.8493750000000011 -5.9423249999999994 0.00042424250000000003 3.3350900000000006e-05 -3.5805049999999997e-07 4.8090950000000018e-07 -3.528439999999999e-05 0.0002888355000000001 8.7850400000000017e-09 8.7850400000000017e-09 0.056303200000000005 5.1028300000000007e-07 0.00073582300000000014
decision_type=2 2 2 2 2 2 2 2 2 2 2 2 2 2
left_child=-1 -2 3 4 5 -3 7 9 -8 -7 -9 -12 -6 -14
right_child=1 2 -4 -5 12 6 8 10 -10 -11 11 -13 13 -15
leaf_value=-6.6388128897163791e-05 -0.0016112022909494667 -0.0010124757047742605 -5.5978419168955979e-05 0.0013970677537044039 -0.0017630341486368753 -0.00095213968761083563 -0.0087535206388149947 0.054285743823924731 0.028827055929819257 0.043216218240559101 0.042931046277284626 -0.0072592171501706954 0.045418775168946018 0.00068874634103849536
leaf_weight=18605 2888 30 229 216 79 41 35 43 41 20 25 10.999999999999998 15.999999999999998 20
leaf_count=18605 2888 30 229 216 79 41 35 43 41 20 25 11 16 20
internal_value=0 0.000334367 0.00730559 0.0102272 0.0155107 0.0203177 0.0232803 0.0296643 0.0115202 0.0135293 0.0421229 0.0275951 0.00522779 0.0205688
internal_weight=0 3694 806 577 361 246 216 140 76 61 79 36 115 36
internal_count=22299 3694 806 577 361 246 216 140 76 61 79 36 115 36
shrinkage=0.1


Tree=89
num_leaves=15
num_cat=0
split_feature=14 3 21 16 35 15 30 16 15 23 3 31 21 1
split_gain=0.0560456 0.0852313 0.107204 0.567291 0.0825514 0.880074 0.48125 0.646598 0.576508 0.269548 0.522783 0.503755 0.174481 0.163328
threshold=0.0051846250000000009 -6.0235649999999987 14.24385 2.5681900000000007e-07 -0.031177049999999994 -4.9515099999999985e-07 0.0055809450000000012 -2.7229899999999997e-06 -1.1550349999999996e-06 -9.2007249999999985 -8.8050549999999976 -3.1273699999999995 10.337350000000002 3.3901000000000008
decision_type=2 2 2 2 2 2 2 2 2 2 2 2 2 2
left_child=1 4 -3 -4 5 6 7 13 -9 12 -11 -12 -8 -1
right_child=-2 2 3 -5 -6 -7 9 8 -10 10 11 -13 -14 -15
leaf_value=-0.0056177661540762818 0.00025753552923087183 0.0002430739752638465 -0.0011756630750824116 0.026111127957701687 -0.00030358304427359869 -0.0011623454829364159 -0.00066086738091447237 0.037458926340332252 0.0077197886749424726 0.00063285335781984033 0.0026832852233201255 0.031658992407610644 0.012128806040467073 0.011686410423135386
leaf_weight=12.000000000000002 6128 4082 32 9.9999999999999982 11207 627 96 16.000000000000004 10.999999999999998 31 10.000000000000002 14.999999999999998 11.999999999999998 9.9999999999999982
leaf_count=12 6128 4082 32 10 11207 627 96 16 11 31 10 15 12 10
internal_value=0 -9.75931e-05 0.000294791 0.00532119 -0.000231916 0.000724237 0.0062777 0.0149737 0.025343 0.0036795 0.00930957 0.0200687 0.000760207 0.00224777
internal_weight=0 16171 4124 42 12047 840 213 49 27 164 56 25 108 22
internal_count=22299 16171 4124 42 12047 840 213 49 27 164 56 25 108 22
shrinkage=0.1


Tree=90
num_leaves=15
num_cat=0
split_feature=13 33 19 30 24 17 26 16 36 21 15 19 18 23
split_gain=0.0467748 0.351153 1.26056 1.26689 0.551839 0.910934 0.591918 0.865316 0.392006 0.64402 0.451419 0.373216 0.317867 0.246343
threshold=4.543755000000001e-05 -1.8500899999999994e-05 2.9823300000000003e-05 0.00036679750000000004 0.41329300000000008 4.7831750000000001e-08 -4.9045299999999989e-05 2.0500650000000004e-07 -0.0012501299999999997 4.4618100000000007 1.1598450000000002e-07 4.9027550000000008e-05 3.5458750000000003e-05 -11.352949999999998
decision_type=2 2 2 2 2 2 2 2 2 2 2 2 2 2
left_child=-1 2 3 -2 5 8 7 -7 9 -5 -10 13 -6 -3
right_child=1 11 -4 4 12 6 -8 -9 10 -11 -12 -13 -14 -15
leaf_value=-9.6887584490133277e-05 0.040485124227901299 -0.004564094426249987 0.00025568579590744159 0.045108976644965305 -0.0032737991760337821 -0.0020729507718767431 -0.0045644728497427423 0.034521859263380368 0.0013702503521926702 0.011353681385517121 0.024772753259714911 0.000258002613672403 0.014633057514826457 -0.00093045400911510021
leaf_weight=15405 11.999999999999998 256 913 13.000000000000002 57 14.000000000000002 40 11.999999999999998 15.999999999999998 9.9999999999999982 17 4834 11.999999999999998 688
leaf_count=15405 12 256 913 13 57 14 40 12 16 10 17 4834 12 688
internal_value=0 0.0002165 0.00184044 0.00896792 0.00698778 0.0110301 0.00307064 0.014817 0.020411 0.0304328 0.0134261 -9.71575e-05 -0.000159563 -0.00191585
internal_weight=0 6894 1116 203 191 122 66 26 56 23 33 5778 69 944
internal_count=22299 6894 1116 203 191 122 66 26 56 23 33 5778 69 944
shrinkage=0.1


Tree=91
num_leaves=15
num_cat=0
split_feature=34 3 30 39 27 12 23 3 32 23 3 14 30 0
split_gain=0.0451377 0.108319 0.552043 0.2365 0.123865 0.0768379 0.110696 1.13431 1.8384 0.0830699 1.5716 1.51724 0.957152 1.06704
threshold=0.88410300000000008 -17.279499999999995 0.004819910000000001 0.21742350000000002 5.0770600000000004 -0.00029061699999999996 -15.973899999999999 -16.232699999999998 0.13461200000000004 -15.224999999999998 -16.135999999999999 0.004937775000000001 0.0011566250000000003 1.3520500000000002
decision_type=2 2 2 2 2 2 2 2 2 2 2 2 2 2
left_child=5 2 -2 4 -4 6 7 8 -1 10 11 12 13 -7
right_child=1 -3 3 -5 -6 9 -8 -9 -10 -11 -12 -13 -14 -15
leaf_value=-0.0043172124241079596 0.022861992252560762 0.00026920665844742427 0.0051667899074446834 0.014047356152018024 -0.0046484907101451726 0.020074974894523607 0.00030455512958188317 -0.00088287167566774693 0.046930042973586494 -5.2951330895963328e-05 -0.0015084043097655304 0.0020892919630140943 0.0064481221816756517 0.066270977258682251
leaf_weight=14.000000000000002 12.999999999999998 2574 18 10.999999999999998 45 10.000000000000005 2096 130 13.999999999999998 15740 1562 51 10.999999999999998 9.9999999999999982
leaf_count=14 13 2574 18 11 45 10 2096 130 14 15740 1562 51 11 10
internal_value=0 0.000386503 0.00385686 0.000518122 -0.00184412 -5.23722e-05 0.000496963 0.00304941 0.0213064 -0.000123599 -0.000799991 0.0126944 0.0301416 0.043173
internal_weight=0 2661 87 74 63 19638 2254 158 28 17384 1644 82 31 20
internal_count=22299 2661 87 74 63 19638 2254 158 28 17384 1644 82 31 20
shrinkage=0.1


Tree=92
num_leaves=15
num_cat=0
split_feature=3 21 12 19 33 33 13 27 5 13 13 21 21 0
split_gain=0.0447216 0.0895357 0.279472 0.0681099 1.21105 1.01203 1.06907 1.00776 1.22819 0.917376 0.77268 1.4079 0.935794 1.82472
threshold=-5.9294499999999992 14.24385 3.2520700000000009e-05 0.00037365450000000007 2.9977200000000002e-06 3.5995300000000004e-06 -8.5798799999999992e-06 3.0126850000000007 1.9621700000000006e-05 -1.1562999999999999e-05 -9.9195999999999973e-06 9.9042750000000019 -7.5273399999999997 2.8195500000000004
decision_type=2 2 2 2 2 2 2 2 2 2 2 2 2 2
left_child=3 -2 -3 4 -1 9 7 8 -7 -5 11 12 13 -6
right_child=1 2 -4 5 10 6 -8 -9 -10 -11 -12 -13 -14 -15
leaf_value=0.00060409301874907889 0.00026455120659129081 -8.1209386742018443e-05 0.019488669345155359 -0.0023019966466764383 -0.0041726150756821387 0.0079307875802628585 7.1237342217324475e-05 -0.0010215499267628716 0.00067226243574836498 0.00027310239452108258 -0.0024001784391230723 0.034553194676454256 -0.0010401232487714403 0.027450687443100225
leaf_weight=5834 3757 27 9.9999999999999982 2167 37 639 2066 339 367 3826 2836 12.999999999999998 345 36
leaf_count=5834 3757 27 10 2167 37 639 2066 339 367 3826 2836 13 345 36
internal_value=0 0.00031276 0.00520795 -6.41239e-05 -0.000259141 0.000124609 0.00149967 0.00369382 0.0052828 -0.000658024 -0.00180065 0.00214429 0.00113635 0.0114224
internal_weight=0 3794 37 18505 9101 9404 3411 1345 1006 5993 3267 431 418 73
internal_count=22299 3794 37 18505 9101 9404 3411 1345 1006 5993 3267 431 418 73
shrinkage=0.1


Tree=93
num_leaves=15
num_cat=0
split_feature=5 20 0 16 9 37 26 4 4 38 4 3 34 7
split_gain=0.0467949 0.133124 1.97024 0.149857 0.361993 0.116533 0.100508 2.88686 1.64284 1.18521 0.804123 0.824397 1.05196 0.858351
threshold=1.6524450000000004e-05 13.111050000000001 10.940100000000001 5.1028300000000007e-07 2.3339450000000002e-05 -2.0767349999999997e-07 5.6230300000000009e-05 0.017115750000000002 -0.042141649999999996 -1.9642799999999998e-05 -0.61210349999999991 -6.3788349999999996 0.26707350000000007 3.1621850000000006e-05
decision_type=2 2 2 2 2 2 2 2 2 2 2 2 2 2
left_child=1 6 3 -3 -5 -2 8 10 -1 -10 -8 12 13 -12
right_child=5 2 -4 4 -6 -7 7 -9 9 -11 11 -13 -14 -15
leaf_value=-0.0019529764080783892 -0.00045764300936292903 -0.0020639436821063731 0.040075680880377502 -0.0012508415227057415 0.01582560964549581 0.00035698694540334545 -8.1858375428207783e-05 -0.0023067130421002848 0.001936213557966754 -0.002541819390862953 0.0036847238363000531 -0.00023738441609849365 0.00031703497104783622 0.0095266173671230622
leaf_weight=3535 2299 130 12.999999999999998 40 18 7435 847 2444 3001 736 519 418 376 488
leaf_count=3535 2299 130 13 40 18 7435 847 2444 3001 736 519 418 376 488
internal_value=0 -0.000127503 0.00242537 -0.000178114 0.00404875 0.000164586 -0.000169005 0.00017172 -0.000407587 0.00105427 0.00245922 0.00365427 0.00483049 0.00651575
internal_weight=0 12565 201 188 58 9734 12364 5092 7272 3737 2648 1801 1383 1007
internal_count=22299 12565 201 188 58 9734 12364 5092 7272 3737 2648 1801 1383 1007
shrinkage=0.1


Tree=94
num_leaves=15
num_cat=0
split_feature=34 16 16 36 6 24 30 3 36 16 23 28 12 20
split_gain=0.0509176 0.0717425 0.151698 0.390258 0.509754 0.350087 0.160648 0.12355 0.362895 0.338899 0.460723 0.419955 0.640436 0.243316
threshold=0.84721200000000019 3.5987200000000007e-05 1.3283100000000002e-05 0.23757050000000002 -1.7193949999999998e-07 0.74545400000000017 0.0065381400000000004 -16.135999999999999 0.071377950000000009 -7.8065149999999993e-07 -12.562849999999999 0.055348350000000011 0.00012308650000000004 1.0147600000000001
decision_type=2 2 2 2 2 2 2 2 2 2 2 2 2 2
left_child=-1 2 7 6 -5 -6 -4 8 9 10 11 12 -2 -11
right_child=1 -3 3 4 5 -7 -8 -9 -10 13 -12 -13 -14 -15
leaf_value=-5.651082597957838e-05 0.023849172368645664 -0.00082980010037305265 0.0092435564465510357 0.029327427564809723 -0.0031501202525472949 0.019965731056872757 -0.0022715795848477958 0.00023869789541910091 -0.0038756460948523295 -0.0089886524197128059 -0.0045021090548418999 0.029299596906639636 -0.0053726448487335203 0.009394460311644556
leaf_weight=19563 15.000000000000002 402 14.999999999999998 11.999999999999998 19.000000000000004 9.9999999999999982 63 2079 46 18.000000000000004 13.999999999999998 15.999999999999998 14.999999999999998 11.999999999999998
leaf_count=19563 15 402 15 12 19 10 63 2079 46 18 14 16 15 12
internal_value=0 0.000404065 0.000616581 0.00409477 0.0119935 0.00482086 -5.71303e-05 0.000429717 0.00334978 0.00704277 0.0113819 0.0162161 0.00923826 -0.00163541
internal_weight=0 2736 2334 119 41 29 78 2215 136 90 60 46 30 30
internal_count=22299 2736 2334 119 41 29 78 2215 136 90 60 46 30 30
shrinkage=0.1


Tree=95
num_leaves=15
num_cat=0
split_feature=28 8 10 22 22 1 13 34 8 37 3 8 4 1
split_gain=0.0467895 0.238611 0.213622 0.310281 0.571978 0.583769 0.585804 0.215225 0.205554 0.0990855 0.0907644 0.0898723 0.167047 0.110266
threshold=-0.085570549999999981 8.4132750000000029e-06 1.8184750000000002e-05 -1.9822499999999998 -1.18631 -8.1643199999999982 4.1568450000000003e-05 0.29348650000000004 8.9470000000000026e-06 1.1381800000000002e-05 -15.269299999999999 1.9190150000000004e-06 -1.0451899999999996 -1.6707749999999997
decision_type=2 2 2 2 2 2 2 2 2 2 2 2 2 2
left_child=1 9 3 -3 5 -5 -7 -4 -9 10 -1 -11 -13 -14
right_child=-2 2 7 4 -6 6 -8 8 -10 11 -12 12 13 -15
leaf_value=-0.0047360958963877028 -3.7705343162582022e-05 -0.00098178716626290885 0.012919468317025652 0.0018214491822565087 -0.0012322214603672961 0.038989747104545426 0.011042085743198793 0.011457988632130711 0.00020940514392559189 6.199453931824282e-06 -0.00072968560014724862 0.012754875684485717 -0.00023278593182352917 0.01121581667335704
leaf_weight=63 20884 41 14.999999999999998 17 29 15.000000000000002 14.999999999999998 17 366 205 552 17 53 9.9999999999999982
leaf_count=63 20884 41 15 17 29 15 15 17 366 205 552 17 53 10
internal_value=0 0.000556494 0.00227315 0.00602953 0.00981194 0.0166264 0.0250159 0.00116889 0.00070869 -0.000425818 -0.0011401 0.00111552 0.00395817 0.00158445
internal_weight=0 1415 515 117 76 47 30 398 383 900 615 285 80 63
internal_count=22299 1415 515 117 76 47 30 398 383 900 615 285 80 63
shrinkage=0.1


Tree=96
num_leaves=15
num_cat=0
split_feature=13 33 19 34 34 6 24 19 23 31 19 3 39 18
split_gain=0.0440686 0.117511 0.71266 1.46226 0.490274 0.589105 0.418427 0.220786 0.115108 0.106126 0.229312 0.100924 0.0963684 0.302823
threshold=5.5414750000000007e-05 -1.5775449999999998e-05 4.442305000000001e-06 0.14834200000000003 0.63275650000000006 -3.8609649999999992e-06 -0.31039149999999993 1.8396200000000002e-05 -12.250049999999998 -3.1273699999999995 0.0011157750000000001 -10.309599999999998 0.00049969450000000013 -1.4324099999999999e-05
decision_type=2 2 2 2 2 2 2 2 2 2 2 2 2 2
left_child=12 2 3 -2 5 -5 -7 8 11 10 -4 -3 -1 -14
right_child=1 7 9 4 -6 6 -8 -9 -10 -11 -12 -13 13 -15
leaf_value=-0.00021428412495651003 0.034120677960546394 -0.0068192725367844098 0.014683860118384474 -0.005905637484309929 -0.0042500521219889856 0.035630173273384559 0.010358599301329569 0.00023551993066870159 -0.0012305448479787743 8.382683209018951e-05 0.00051882885876693759 0.00088338420557027518 0.0022010526048915346 -0.00011507330495346785
leaf_weight=12647 19 75 15.999999999999998 13.999999999999998 42 10.000000000000002 19 4767 398 932 40 22 723 2575
leaf_count=12647 19 75 16 14 42 10 19 4767 398 932 40 22 723 2575
internal_value=0 0.000222695 0.00116671 0.00904064 0.00343452 0.0109404 0.0190729 2.67875e-05 -0.00198337 0.000337876 0.00456598 -0.00507228 -8.87428e-05 0.000392677
internal_weight=0 6354 1092 104 85 43 29 5262 495 988 56 97 15945 3298
internal_count=22299 6354 1092 104 85 43 29 5262 495 988 56 97 15945 3298
shrinkage=0.1


Tree=97
num_leaves=15
num_cat=0
split_feature=3 21 12 14 34 28 1 4 36 19 4 36 18 23
split_gain=0.0470063 0.0651765 0.451031 0.0645595 0.0767333 0.0719693 0.69408 0.673468 1.02701 1.02021 0.663586 0.436378 0.610439 1.54526
threshold=-6.0235649999999987 14.24385 3.7315150000000008e-05 0.0051846250000000009 0.025371250000000001 -0.038090949999999991 -1.4756699999999998 -0.26123949999999996 0.012443400000000002 0.00020352900000000001 -0.41304449999999998 0.012443400000000002 3.4683550000000004e-06 -12.154599999999999
decision_type=2 2 2 2 2 2 2 2 2 2 2 2 2 2
left_child=3 -2 -3 5 -5 6 7 8 -1 10 -10 12 -9 -14
right_child=1 2 -4 4 -6 -7 -8 11 9 -11 -12 -13 13 -15
leaf_value=-0.0023951449948631659 0.00026145782653379956 -0.0015724249611594133 0.022758163902908565 0.00064138391462397121 -8.8889751915593153e-05 -0.00028755381928843393 -0.0017187607792663357 0.00061364839360652157 0.014017083579109926 0.0018959659706322581 0.035616189420223238 -0.0016184305949954671 -0.00048865720865507735 0.030302578046186163
leaf_weight=52 4168 32 9.9999999999999982 2363 3679 10782 664 129 33 36 25 259 39 28
leaf_count=52 4168 32 10 2363 3679 10782 664 129 33 36 25 259 39 28
internal_value=0 0.000300955 0.00422057 -7.00437e-05 0.000196717 -0.000203834 0.000509739 0.00297184 0.00888134 0.0151194 0.023327 0.00107561 0.00463559 0.0123793
internal_weight=0 4210 42 18089 6042 12047 1265 601 146 94 58 455 196 67
internal_count=22299 4210 42 18089 6042 12047 1265 601 146 94 58 455 196 67
shrinkage=0.1


Tree=98
num_leaves=15
num_cat=0
split_feature=3 23 18 19 33 33 14 7 38 13 7 4 5 23
split_gain=0.0383496 0.0685174 0.223476 0.0541981 0.942023 0.818098 0.901669 0.862609 0.993241 0.733462 0.534964 0.531932 0.580198 0.691331
threshold=-5.9294499999999992 -5.9060399999999991 -9.4115699999999978e-08 0.00037365450000000007 3.5995300000000004e-06 3.5995300000000004e-06 0.0039742050000000006 5.8588150000000006e-05 0.0061186300000000008 -1.1562999999999999e-05 4.7413900000000004e-05 -0.19847699999999999 1.2621800000000002e-05 -12.047699999999999
decision_type=2 2 2 2 2 2 2 2 2 2 2 2 2 2
left_child=3 -2 -3 4 -1 9 7 8 -7 10 -5 12 13 -10
right_child=1 2 -4 5 -6 6 -8 -9 11 -11 -12 -13 -14 -15
leaf_value=0.00050075172699715867 0.00025571664742014957 0.017033380577340714 -0.0025395876349648462 -0.0036021479201979525 -0.0016433454468523312 0.0069781635198996441 -3.6908028714100914e-05 9.4598552720516496e-05 0.033216293821377411 0.00023789046173406937 -0.00045899792852720087 -0.0043007450475918384 -0.0018381889382212916 0.0011912847654177595
leaf_weight=5985 3770 10.000000000000002 13.999999999999998 1107 3116 689 1980 538 14.000000000000002 3826 1060 143 34 12.999999999999998
leaf_count=5985 3770 10 14 1107 3116 689 1980 538 14 3826 1060 143 34 13
internal_value=0 0.000289623 0.00561582 -5.93802e-05 -0.000233344 0.000108979 0.00134529 0.00325776 0.00516345 -0.000594685 -0.00206466 -0.000965638 0.00685273 0.0177968
internal_weight=0 3794 24 18505 9101 9404 3411 1431 893 5993 2167 204 61 27
internal_count=22299 3794 24 18505 9101 9404 3411 1431 893 5993 2167 204 61 27
shrinkage=0.1


Tree=99
num_leaves=15
num_cat=0
split_feature=34 12 3 23 22 5 13 30 3 3 3 23 12 10
split_gain=0.039194 0.0849189 0.168362 0.755839 0.150272 0.243261 0.188155 0.25033 0.165224 0.109807 0.126032 0.0988015 0.0973391 0.0704007
threshold=0.84721200000000019 -9.8295499999999987e-05 -17.279499999999995 -15.905149999999997 -0.6068349999999999 1.0109050000000003e-05 0.00013790500000000004 0.010726900000000003 -16.232699999999998 -16.889399999999998 -16.772799999999997 -13.311149999999998 -0.00011467149999999999 8.6105100000000007e-06
decision_type=2 2 2 2 2 2 2 2 2 2 2 2 2 2
left_child=13 4 3 -3 5 6 7 -2 11 -4 -11 -6 -7 -1
right_child=1 2 9 -5 8 12 -8 -9 -10 10 -12 -13 -14 -15
leaf_value=0.0030500877210838493 0.020942093525081869 0.02343572973931099 -0.006837794166058302 -0.0029566384991630912 -0.012068153312429787 0.00052933300839256257 -0.0020059064567948762 0.0026318821656916825 -0.001228083866907312 0.011807153057307005 0.00055251907570093111 -0.0014974507257907786 -0.0063034073287702129 -6.1189919323317938e-05
leaf_weight=73 16.000000000000004 17 20 30 24 223 12.999999999999998 13.999999999999998 347 9.9999999999999982 1985 13.999999999999998 23 19490
leaf_count=73 16 17 20 30 24 223 13 14 347 10 1985 14 23 19490
internal_value=0 0.000354508 0.000673023 0.00658954 -0.000619939 0.00110348 0.00804286 0.0123973 -0.00191362 0.00053502 0.000608933 -0.00817368 -0.0001095 -4.95801e-05
internal_weight=0 2736 2062 47 674 289 43 30 385 2015 1995 38 246 19563
internal_count=22299 2736 2062 47 674 289 43 30 385 2015 1995 38 246 19563
shrinkage=0.1


Tree=100
num_leaves=15
num_cat=0
split_feature=20 0 16 0 16 34 14 0 16 33 6 26 4 4
split_gain=0.0374979 3.85646 1.18722 1.14104 1.57444 1.20511 1.1167 0.965115 0.903674 0.93952 1.0757 0.841559 2.23626 1.8802
threshold=7.2040400000000009 6.8493750000000011 -1.0720349999999998e-06 11.757550000000002 4.5816150000000005e-06 0.040850350000000007 0.00027748600000000002 6.8493750000000011 3.1968150000000006e-07 1.4131300000000003e-06 2.1699400000000004e-06 -6.386254999999999e-05 0.04625255000000001 0.04625255000000001
decision_type=2 2 2 2 2 2 2 2 2 2 2 2 2 2
left_child=7 -2 -3 4 5 8 -7 -1 11 -10 -11 12 -4 -13
right_child=1 2 3 -5 -6 6 -8 -9 9 10 -12 13 -14 -15
leaf_value=0.00028335063708581366 -0.0014159037657204415 -0.0018567737353843731 -0.0052160007394598546 0.0010113469016917417 -0.00076972122328790695 -8.4265954402932641e-05 0.020364040580603319 -0.0015784202945577045 -0.0016595891684520994 0.00045030280792464805 0.041251942681680837 0.036504136087023652 0.028316905745846589 0.010646029871868645
leaf_weight=15196 2888 143 37 166 98 96 37 3409 43 12.000000000000002 13.999999999999998 70 43 47
leaf_count=15196 2888 143 37 166 98 96 37 3409 43 12 14 70 43 47
internal_value=0 0.000291023 0.00640716 0.00818957 0.0105871 0.0133765 0.00560436 -5.77822e-05 0.0172626 0.00741404 0.0224204 0.0207121 0.0128079 0.0261167
internal_weight=0 3694 806 663 497 399 133 18605 266 69 26 197 80 117
internal_count=22299 3694 806 663 497 399 133 18605 266 69 26 197 80 117
shrinkage=0.1


Tree=101
num_leaves=15
num_cat=0
split_feature=5 30 4 14 34 13 37 17 19 23 26 25 25 13
split_gain=0.0439556 0.105991 0.129054 0.43878 0.805462 0.155565 0.100545 0.12688 0.287803 1.28971 0.514026 0.186964 0.148154 0.195003
threshold=1.6489900000000003e-05 0.012055500000000002 -1.0451899999999996 0.0077775900000000009 6.0983350000000014 5.5414750000000007e-05 -2.0767349999999997e-07 2.6095550000000003e-08 7.5845250000000009e-06 -7.7652849999999995 0.00026298000000000006 35.645800000000008 0.44653100000000007 3.6528400000000008e-05
decision_type=2 2 2 2 2 2 2 2 2 2 2 2 2 2
left_child=1 -1 3 4 -3 -5 7 8 9 10 12 -10 -2 -14
right_child=6 2 -4 5 -6 -7 -8 -9 11 -11 -12 -13 13 -15
leaf_value=-0.00020896201039612017 -0.0078546088148394363 0.028379445190212738 0.00039578885629901639 0.012933455780148507 -0.0073873522831127058 -0.00010374976824954906 0.00033585916853280678 -0.00090496285363405162 -0.00040441589485484884 0.0379586318677122 0.0219753656975544 0.011289488394478603 -0.0018418300730575409 0.011440901253372431
leaf_weight=11510 23 17.000000000000004 819 9.9999999999999982 9.9999999999999982 108 7509 1616 584 10.999999999999998 10.999999999999998 13.999999999999998 42 14.999999999999998
leaf_count=11510 23 17 819 10 10 108 7509 1616 584 11 11 14 42 15
internal_value=0 -0.000124603 0.000882632 0.00363246 0.0151325 0.0010011 0.000158198 -0.00041782 0.000706784 0.00561642 0.00170692 -0.000130646 -0.00107999 0.00165363
internal_weight=0 12474 964 145 27 118 9825 2316 700 102 91 598 80 57
internal_count=22299 12474 964 145 27 118 9825 2316 700 102 91 598 80 57
shrinkage=0.1


Tree=102
num_leaves=15
num_cat=0
split_feature=3 21 14 14 5 21 1 1 7 30 16 33 4 22
split_gain=0.0408766 0.0579067 0.232911 0.0558788 0.0724308 0.263827 3.43465 1.20316 1.08337 0.68603 0.882702 0.918157 0.833505 0.745481
threshold=-5.9294499999999992 14.24385 0.00010427650000000001 0.0051846250000000009 1.6269000000000006e-05 -4.6311699999999991 -3.9636449999999992 -3.2629399999999995 6.130810000000001e-05 0.0010925500000000003 1.2023650000000002e-06 7.6094200000000009e-06 0.71325300000000014 -1.1304449999999997
decision_type=2 2 2 2 2 2 2 2 2 2 2 2 2 2
left_child=3 -2 -3 4 -1 6 8 -7 9 10 12 -12 13 -6
right_child=1 2 -4 -5 5 7 -8 -9 -10 -11 11 -13 -14 -15
leaf_value=-0.00037338261977457483 0.00026024328695660709 -0.0019543057259516386 0.014405101809617399 0.00018793204641827404 0.025070843494581319 -0.0027220847608455953 -0.002633399626581997 0.0011070628335431976 0.0016082143721396066 0.0041937325769430284 -0.002944489003725308 0.029356597139584745 -1.4972301538694991e-05 0.0086237348619269561
leaf_weight=7655 3757 23 13.999999999999998 6053 108 1313 812 2188 171 91 44 10.999999999999998 22 37
leaf_count=7655 3757 23 14 6053 108 1313 812 2188 171 91 44 11 22 37
internal_value=0 0.000299013 0.00423574 -6.13054e-05 -0.000182461 0.000122209 0.00134111 -0.000329004 0.00800909 0.0115061 0.0145034 0.00351573 0.0181222 0.020874
internal_weight=0 3794 37 18505 12452 4797 1296 3501 484 313 222 55 167 145
internal_count=22299 3794 37 18505 12452 4797 1296 3501 484 313 222 55 167 145
shrinkage=0.1


Tree=103
num_leaves=15
num_cat=0
split_feature=16 36 16 6 20 23 3 9 3 23 14 36 16 10
split_gain=0.034702 0.111713 0.33683 0.272703 0.0879782 0.187621 0.911039 0.648944 0.0978846 0.140835 0.176001 0.073216 0.364357 0.49808
threshold=1.5605150000000004e-05 0.67546950000000006 6.6670550000000008e-05 -3.6560149999999993e-07 4.0363950000000015 -14.654899999999998 -14.754349999999997 3.7495800000000001e-05 -15.126499999999998 -10.609499999999999 0.0053110200000000005 -0.035183049999999993 -1.0720349999999998e-06 2.2606200000000004e-05
decision_type=2 2 2 2 2 2 2 2 2 2 2 2 2 2
left_child=11 4 3 -3 8 6 7 -6 9 10 -2 12 13 -1
right_child=1 2 -4 -5 5 -7 -8 -9 -10 -11 -12 -13 -14 -15
leaf_value=0.0075186528529111582 -0.0092644777326495384 0.026443423097953191 -0.0015501000053440555 0.0044781333735535063 0.0061118398164398948 0.00055717002577276549 -7.5630998908309278e-05 0.042138047795742754 0.0001523971808772268 0.00033766803797878435 -0.0019348175801959121 -0.00011235764309477934 -0.00064686559430557778 0.00067599552429978868
leaf_weight=154 40 10.000000000000002 35 12.999999999999998 10.000000000000002 1124 70 9.9999999999999982 2175 214 181 17111 808 344
leaf_count=154 40 10 35 13 10 1124 70 10 2175 214 181 17111 808 344
internal_value=0 0.000271717 0.00462753 0.0140283 0.000205651 0.000908949 0.00530227 0.0241249 -0.000121477 -0.00149085 -0.00326145 -5.72734e-05 0.000664432 0.002792
internal_weight=0 3882 58 23 3824 1214 90 20 2610 435 221 18417 1306 498
internal_count=22299 3882 58 23 3824 1214 90 20 2610 435 221 18417 1306 498
shrinkage=0.1


Tree=104
num_leaves=15
num_cat=0
split_feature=3 3 34 14 25 34 11 14 14 0 22 7 20 9
split_gain=0.0357534 0.0449598 1.2113 2.89911 1.01667 1.01632 0.852369 0.714216 0.973756 0.78523 0.821472 0.870068 0.87839 0.735366
threshold=-6.0235649999999987 -7.3418849999999987 0.0062474200000000009 0.00012106850000000002 0.57739600000000013 0.025743000000000005 -1.9229899999999997e-05 0.00026056950000000005 0.00010334950000000002 -6.9321199999999985 -1.8970999999999998 3.7417800000000006e-05 -0.92275299999999982 3.0005750000000003e-05
decision_type=2 2 2 2 2 2 2 2 2 2 2 2 2 2
left_child=1 -1 3 6 -4 7 -3 8 13 -10 -11 12 -12 -6
right_child=-2 2 4 -5 5 -7 -8 -9 9 10 11 -13 -14 -15
leaf_value=2.166088849123598e-05 0.00026247163587111083 -0.0035458729461287013 -0.0030618912419545417 -0.0022560834300927291 -0.0041452757262608461 -0.00051716087843321475 0.01361253497573563 -0.00092840826204258558 0.039369298847248928 -0.0082631011555592219 0.052389036118984225 0.0037740783699389013 0.018557567742060532 0.019552391833242248
leaf_weight=14182 4210 33 1488 355 57 1530 236 92 12.999999999999998 14.999999999999998 9.9999999999999982 28 33 17
leaf_count=14182 4210 33 1488 355 57 1530 236 92 13 15 10 28 33 17
internal_value=0 -6.10872e-05 -0.000361454 0.0036773 -0.0011291 0.000473125 0.0115076 0.00619062 0.00997647 0.0164628 0.0130002 0.0174925 0.0264254 0.00129878
internal_weight=0 18089 3907 624 3283 1795 269 265 173 99 86 71 43 74
internal_count=22299 18089 3907 624 3283 1795 269 265 173 99 86 71 43 74
shrinkage=0.1


Tree=105
num_leaves=15
num_cat=0
split_feature=16 36 16 28 39 31 13 31 11 10 30 14 19 33
split_gain=0.0326061 0.0896193 0.272507 0.238157 0.0734196 0.08242 0.290275 0.0634474 0.284948 0.0632297 0.0524081 0.998639 0.585079 2.2742
threshold=1.5605150000000004e-05 0.67546950000000006 6.6670550000000008e-05 -0.47810599999999998 1.5428500000000003e-05 -0.10408799999999999 1.0723350000000001e-05 13.832150000000002 -0.00011564799999999999 1.0661950000000002e-05 0.00010338150000000001 0.00013119700000000002 9.3206050000000014e-10 -2.2912399999999996e-06
decision_type=2 2 2 2 2 2 2 2 2 2 2 2 2 2
left_child=7 4 3 -3 5 6 -2 10 -9 -6 11 12 13 -1
right_child=1 2 -4 -5 9 -7 -8 8 -10 -11 -12 -13 -14 -15
leaf_value=0.040787883181320997 0.019909620522521439 0.0036956298970975544 -0.0013917861545113348 0.024222542997449636 0.0077122594742104408 0.00055078335190329145 0.00065066224746664785 0.018496889951638878 0.00062850187963901479 -0.00025963678881902897 -8.9799515345424303e-07 -0.0017665266864720912 0.0017082194350111785 -8.6812961186903218e-05
leaf_weight=19 9.9999999999999982 13.000000000000002 35 9.9999999999999982 9.9999999999999982 1801 36 9.9999999999999982 83 1967 15784 1796 677 48
leaf_count=19 10 13 35 10 10 1801 36 10 83 1967 15784 1796 677 48
internal_value=0 0.000263383 0.00416476 0.0126204 0.00020421 0.000657542 0.00483739 -5.55169e-05 0.00254983 -0.000219314 -6.87398e-05 -0.000490321 0.00259041 0.0115045
internal_weight=0 3882 58 23 3824 1847 46 18417 93 1977 18324 2540 744 67
internal_count=22299 3882 58 23 3824 1847 46 18417 93 1977 18324 2540 744 67
shrinkage=0.1


Tree=106
num_leaves=15
num_cat=0
split_feature=13 33 19 27 23 17 14 21 19 5 27 32 12 19
split_gain=0.0313218 0.192923 0.882808 0.907816 0.784582 0.60946 0.760612 0.73836 0.457228 0.48544 0.503018 1.07928 0.506556 0.351535
threshold=4.543755000000001e-05 -1.2365199999999998e-05 4.442305000000001e-06 0.63339250000000014 -17.204649999999997 2.3321300000000001e-07 0.0036781400000000003 1.0000000180025095e-35 6.9708700000000016e-08 1.0432800000000001e-05 3.9183600000000003 -0.17057449999999999 -7.7806649999999998e-05 1.8396200000000002e-05
decision_type=2 2 2 2 2 2 2 2 2 2 2 2 2 2
left_child=-1 2 3 4 -2 6 7 -6 -5 -10 11 -11 -13 -3
right_child=1 13 -4 8 5 -7 -8 -9 9 10 -12 12 -14 -15
leaf_value=-7.9283947088542485e-05 -1.2841891674768357e-05 -0.0021681719881245288 0.00023017246323187512 -0.0043289226537014834 0.019898348612089948 0.0031233304180204868 0.0089457014217399627 0.053178065617879237 -0.0069242177822161468 0.045273217990655812 -0.0043041779994382528 0.021397607509667679 -0.0083115811798382816 0.00021704193889959347
leaf_weight=15405 21 710 1229 57 12.000000000000002 11.999999999999998 12.999999999999998 14.999999999999998 15.999999999999998 10.999999999999995 11.999999999999998 11.999999999999996 11.000000000000007 4763
leaf_count=15405 21 710 1229 57 12 12 13 15 16 11 12 12 11 4763
internal_value=0 0.000177164 0.00121534 0.00752145 0.0163008 0.0228889 0.0288186 0.0383871 0.00213582 0.00807922 0.0132978 0.0195103 0.00718887 -9.23865e-05
internal_weight=0 6894 1421 192 73 52 40 27 119 62 46 34 23 5473
internal_count=22299 6894 1421 192 73 52 40 27 119 62 46 34 23 5473
shrinkage=0.1


Tree=107
num_leaves=15
num_cat=0
split_feature=25 19 17 20 5 13 33 19 3 19 3 4 4 33
split_gain=0.0315173 0.308556 0.578093 0.637888 0.213837 0.196506 0.210278 1.14385 0.317835 0.161423 0.221935 0.178084 0.603267 1.33794
threshold=0.1696445 1.3423450000000003e-09 3.5033600000000006e-08 8.3752800000000018 2.3358400000000003e-05 3.3186700000000005e-05 -7.9437099999999989e-06 8.3994400000000005e-07 -16.135999999999999 2.3980750000000006e-05 -6.401514999999999 0.031188150000000001 -0.078387699999999991 2.2102800000000005e-06
decision_type=2 2 2 2 2 2 2 2 2 2 2 2 2 2
left_child=1 2 -1 4 -4 9 7 -7 -9 10 -3 12 -11 -14
right_child=-2 5 3 -5 -6 6 -8 8 -10 11 -12 -13 13 -15
leaf_value=0.025810748765555509 3.4737095637411181e-05 -0.0045927736141813096 -0.0049824066120265804 0.024319405227222229 0.0090635984338795043 0.027694979993005592 -0.00026202393823128532 0.016773375669832936 -0.001093110638903454 -0.0010119066086302657 -0.00013899265569654033 -0.0022878983171574457 -0.0017812457949912643 0.027357679111166645
leaf_weight=11.999999999999998 20545 293 48 10.999999999999998 13.999999999999998 18 459 10.999999999999998 105 259 181 277 40 26
leaf_count=12 20545 293 48 11 14 18 459 11 105 259 181 277 40 26
internal_value=0 -0.000406884 0.00547032 0.00212669 -0.00181073 -0.000706202 0.000755432 0.0042406 0.000601125 -0.00151173 -0.00289207 -0.000424887 0.00116297 0.00969772
internal_weight=0 1754 85 73 62 1669 593 134 116 1076 474 602 325 66
internal_count=22299 1754 85 73 62 1669 593 134 116 1076 474 602 325 66
shrinkage=0.1


Tree=108
num_leaves=15
num_cat=0
split_feature=31 11 0 39 3 14 10 37 30 16 26 20 26 10
split_gain=0.0309571 0.649765 0.313212 0.554773 0.842776 0.805343 0.370423 0.412402 0.29833 0.25685 0.32729 0.327893 0.191285 0.258148
threshold=-0.55108449999999987 2.7216500000000003e-05 4.6053300000000013 0.0010045400000000002 -11.753499999999999 0.00065207900000000018 3.7418900000000009e-05 -2.7831799999999998e-06 0.0035674250000000004 6.4416800000000008e-07 -0.00066057799999999988 11.29255 0.046007150000000004 6.7337650000000014e-05
decision_type=2 2 2 2 2 2 2 2 2 2 2 2 2 2
left_child=1 -1 -3 4 -4 -6 7 -5 -8 -9 -11 -12 -10 -14
right_child=-2 2 3 6 5 -7 8 9 12 10 11 -13 13 -15
leaf_value=-0.00087726173373726003 -3.5334929823466579e-05 0.00054579710143968444 0.039323635534806688 0.026862947502575646 0.027405708935111763 -0.0023431075274087422 0.017664776085875928 0.00013938945847110368 -0.0013355923082515706 0.025520731953050321 -0.0037006702521466643 0.017680592508986594 0.020474814036861057 -0.0017249363262883642
leaf_weight=1263 20459 254 10.999999999999998 10.999999999999998 13.999999999999998 26 9.9999999999999982 37 152 11.999999999999998 16.000000000000004 12.999999999999998 10.000000000000002 10.999999999999998
leaf_count=1263 20459 254 11 11 14 26 10 37 152 12 16 13 10 11
internal_value=0 0.00039289 0.00317313 0.00523921 0.0148102 0.00806898 0.00344466 0.00873635 0.000871101 0.00618004 0.0116314 0.00588403 -9.96312e-05 0.00884637
internal_weight=0 1840 577 323 51 40 272 89 183 78 41 29 173 21
internal_count=22299 1840 577 323 51 40 272 89 183 78 41 29 173 21
shrinkage=0.1


Tree=109
num_leaves=15
num_cat=0
split_feature=7 20 0 3 11 23 13 33 18 35 18 26 31 36
split_gain=0.032513 0.166629 0.810433 0.70007 0.982453 1.10719 1.04363 0.698958 0.503564 0.636554 1.19757 0.68439 0.313204 0.394695
threshold=5.1723650000000004e-05 -6.1283249999999994 -5.6776899999999992 -6.1782649999999988 -6.0760099999999994e-05 -9.7977999999999987 -2.5692899999999996e-05 3.5995300000000004e-06 -1.7750149999999999e-06 -0.00041468649999999995 4.8090950000000018e-07 6.7161150000000013e-05 0.84680350000000015 -0.022684299999999994
decision_type=2 2 2 2 2 2 2 2 2 2 2 2 2 2
left_child=-1 2 3 4 12 -6 -7 8 -8 -10 11 -11 -2 -14
right_child=1 -3 -4 -5 5 6 7 -9 9 10 -12 -13 13 -15
leaf_value=-8.8434506853556752e-05 -0.00027363472636516401 -6.6633650510659672e-05 -0.00038338956617667465 3.4151611870174047e-05 -0.0016606026445515456 0.050139292506501079 0.0017407837916504254 0.00062108816240321512 0.04056949961102671 0.010970154201442543 -0.0099584782326763328 0.044302150314407693 -0.00096220439105915503 0.024187816332022733
leaf_weight=14514 111 6226 1100 193 33 9.9999999999999982 10.999999999999998 22 18 11.000000000000002 10.999999999999998 13.999999999999998 12.000000000000002 12.999999999999998
leaf_count=14514 111 6226 1100 193 33 10 11 22 18 11 11 14 12 13
internal_value=0 0.000164873 0.00108942 0.00461902 0.00794563 0.0141617 0.0195445 0.0160278 0.0212424 0.025215 0.0175377 0.0296361 0.00200384 0.0121158
internal_weight=0 7785 1559 459 266 130 97 87 65 54 36 25 136 25
internal_count=22299 7785 1559 459 266 130 97 87 65 54 36 25 136 25
shrinkage=0.1


Tree=110
num_leaves=15
num_cat=0
split_feature=5 20 0 21 1 13 14 22 35 15 10 8 14 1
split_gain=0.0302903 0.104675 0.924466 0.0910719 3.06799 0.706219 0.674221 0.893359 1.20114 1.48731 1.21073 0.945805 0.523477 0.504379
threshold=1.6489900000000003e-05 14.086350000000001 10.404250000000003 8.9549450000000004 8.503045000000002 1.5247800000000002e-05 5.9987500000000008e-05 1.1294600000000001 1.0000000180025095e-35 -2.7417099999999995e-08 1.6785700000000001e-05 -1.0668699999999998e-05 0.0026819750000000005 8.3758000000000017
decision_type=2 2 2 2 2 2 2 2 2 2 2 2 2 2
left_child=1 3 -3 13 12 6 -6 -8 9 -9 11 -10 -5 -1
right_child=-2 2 -4 4 5 -7 7 8 10 -11 -12 -13 -14 -15
leaf_value=0.00018046545570329047 0.00013132450402527396 0.00018353947784444395 0.030452333602376959 -0.0043705647806964558 -0.00077428349675094741 0.00098850580336791926 0.00094804875957577137 0.027419604005461392 0.053600735127925882 -0.011962384226567604 0.0051700486378236255 0.01721218150109052 -8.8484677332296047e-05 -0.0021525019542803247
leaf_weight=9938 9825 122 10.999999999999998 737 22 48 23 22 24.999999999999996 17 10.999999999999998 10.000000000000002 466 1022
leaf_count=9938 9825 122 11 737 22 48 23 22 25 17 11 10 466 1022
internal_value=0 -0.000103436 0.00268697 -0.000133509 -0.000898798 0.0113545 0.0151819 0.0184323 0.0231633 0.0102531 0.0341089 0.043204 -0.00271184 -3.70795e-05
internal_weight=0 12474 133 12341 1381 178 130 108 85 39 46 35 1203 10960
internal_count=22299 12474 133 12341 1381 178 130 108 85 39 46 35 1203 10960
shrinkage=0.1


Tree=111
num_leaves=15
num_cat=0
split_feature=3 19 22 2 11 23 21 4 33 0 2 11 7 22
split_gain=0.0348978 0.0476915 0.682046 3.94754 2.22094 1.18749 0.964349 0.983651 1.24842 0.949702 0.895603 0.828555 0.67091 0.800017
threshold=-5.8561999999999985 0.00037365450000000007 2.0238800000000006 2.0105200000000005 -0.00010903749999999999 -16.786249999999999 8.7138550000000006 0.5596285000000002 1.7936250000000003e-06 -9.8724099999999968 2.0105200000000005 -0.00011564799999999999 2.7868950000000004e-05 2.0954600000000005
decision_type=2 2 2 2 2 2 2 2 2 2 2 2 2 2
left_child=1 -1 10 -4 -5 -6 7 8 -7 -10 -3 -12 -11 -14
right_child=-2 2 3 4 5 6 -8 -9 9 12 11 -13 13 -15
leaf_value=-0.00021673425062350917 0.00028393618157048156 0.00036367148347345727 -0.0013344891893595908 0.00084717863754005826 -0.003583563741995022 0.00012874098208088142 -0.0015557110987943956 -0.00056082834877694654 0.00082523982752771949 0.012395007640589029 0.0001405012232254391 -0.003857643194049585 0.055670008659362794 0.02639268969584789
leaf_weight=9232 3625 5746 1108 188 32 26 26 24 17 32 945 1148 9.9999999999999982 140
leaf_count=9232 3625 5746 1108 188 32 26 26 24 17 32 945 1148 10 140
internal_value=0 -5.51177e-05 0.000102904 0.00198239 0.00940683 0.0146486 0.0167701 0.0186837 0.0207364 0.0234289 -0.000281432 -0.00205246 0.0255402 0.0283445
internal_weight=0 18674 9442 1603 495 307 275 249 225 199 7839 2093 182 150
internal_count=22299 18674 9442 1603 495 307 275 249 225 199 7839 2093 182 150
shrinkage=0.1


Tree=112
num_leaves=15
num_cat=0
split_feature=39 2 3 14 10 20 2 22 17 8 4 33 7 14
split_gain=0.0304444 0.145659 0.0701655 0.121036 0.129217 0.383237 0.147497 0.721517 0.360918 0.12535 0.162388 0.124579 0.166715 0.24174
threshold=0.0010540050000000002 3.0775850000000005 -12.248949999999999 0.0034582950000000006 9.8105600000000012e-06 -2.2734949999999996 2.0303200000000006 1.9633400000000003 1.1281350000000002e-05 6.6360750000000007e-06 -0.29999149999999991 -7.8290349999999981e-05 7.8262100000000011e-05 0.0122836
decision_type=2 2 2 2 2 2 2 2 2 2 2 2 2 2
left_child=-1 2 3 9 5 -5 11 -8 -9 -2 -11 12 13 -6
right_child=1 -3 -4 4 6 -7 7 8 -10 10 -12 -13 -14 -15
leaf_value=-5.0681680218713392e-05 -0.0039807924319358702 0.012321188428904862 0.00048405204748170434 -0.0042885332756365333 0.0066685525326950785 0.02221809757873416 -0.0017795717512202784 0.0042698152396561835 0.02595168412389124 0.012011830271645027 -0.00093703966741475299 -0.0019232350567691819 0.013572096866978842 -0.00292787898876538
leaf_weight=18768 168 9.9999999999999982 2686 12.000000000000002 42 9.9999999999999982 81 14.000000000000002 17 10.999999999999998 81 318 10.999999999999998 70
leaf_count=18768 168 10 2686 12 42 10 81 14 17 11 81 318 11 70
internal_value=0 0.000269384 0.000235155 -0.000565487 0.000244107 0.00775994 -5.48956e-05 0.00318581 0.0161599 -0.00235594 0.000611195 -0.000877932 0.00182456 0.000670783
internal_weight=0 3531 3521 835 575 22 553 112 31 260 92 441 123 112
internal_count=22299 3531 3521 835 575 22 553 112 31 260 92 441 123 112
shrinkage=0.1


Tree=113
num_leaves=15
num_cat=0
split_feature=3 14 34 11 18 31 21 2 1 5 20 38 4 4
split_gain=0.0278455 0.0465704 3.20285 1.15222 0.861961 1.05166 0.798003 3.28047 0.76794 0.666265 0.867705 0.596558 2.48124 1.74017
threshold=-6.0235649999999987 0.00013119700000000002 0.0068507800000000008 -1.9229899999999997e-05 7.0075400000000014e-07 -0.029535649999999997 10.970250000000002 1.0828950000000002 9.487775000000001 1.0215050000000001e-05 9.4874600000000004 -2.2015949999999997e-05 0.025549650000000004 0.025549650000000004
decision_type=2 2 2 2 2 2 2 2 2 2 2 2 2 2
left_child=1 2 3 -1 5 -5 8 -8 9 10 -7 13 -13 -11
right_child=-2 -3 -4 4 -6 6 7 -9 -10 11 -12 12 -14 -15
leaf_value=-0.0056573827544020286 0.00023163326548247899 2.7252326749284662e-06 -0.0024203080822426241 0.040451726255317531 -0.010517373534017488 -0.0036873100800257105 -0.010961084937055906 0.050903371870517737 -0.0050318561481765001 -0.0066244722946601766 0.027279776707291606 0.024022280872660749 -0.010097186224391827 0.030319235360651627
leaf_weight=54 4210 16085 1631 11.999999999999998 19 51 14.999999999999998 20 37 17 10.999999999999998 47 39 51
leaf_count=54 4210 16085 1631 12 19 51 15 20 37 17 11 47 39 51
internal_value=0 -5.39099e-05 -0.000508489 0.00785124 0.010138 0.0114461 0.0102376 0.02439 0.00827972 0.0105599 0.00180685 0.0140839 0.0085495 0.0210833
internal_weight=0 18089 2004 373 319 300 288 35 253 216 62 154 86 68
internal_count=22299 18089 2004 373 319 300 288 35 253 216 62 154 86 68
shrinkage=0.1


Tree=114
num_leaves=15
num_cat=0
split_feature=23 3 14 3 23 14 3 14 23 3 3 34 30 23
split_gain=0.0332902 2.53511 2.77858 1.25176 1.55403 1.66269 1.16918 1.43225 2.9781 2.86061 1.69946 2.17904 1.43497 1.25288
threshold=-7.7487749999999993 -7.7975399999999988 0.00073300000000000004 -6.3643949999999991 -6.4589649999999992 0.00060902400000000011 -7.7975399999999988 0.00082317850000000021 -10.272399999999999 -10.366749999999998 -10.143599999999998 0.065668900000000016 0.0035674250000000004 -10.609499999999999
decision_type=2 2 2 2 2 2 2 2 2 2 2 2 2 2
left_child=6 2 -2 4 5 -3 7 8 10 -10 11 13 -11 -1
right_child=1 3 -4 -5 -6 -7 -8 -9 9 12 -12 -13 -14 -15
leaf_value=0.012757546961627909 -0.0068527757549192757 0.0092838750882507422 -0.00039190394451695437 0.00015791441030488091 -0.0016155484207103063 0.00042036608366678209 -0.00096549418109469231 1.1986959570917139e-05 -0.0037855964135053719 0.010328193686889975 -0.0022514260721235961 0.0003882829197846768 -0.0027669487751379451 0.046633935347199444
leaf_weight=121 875 645 2782 1597 326 315 6381 6720 215 835 1088 294 93 11.999999999999998
leaf_count=121 875 645 2782 1597 326 315 6381 6720 215 835 1088 294 93 12
internal_value=0 -0.000189667 -0.00193778 0.00202776 0.0043498 0.00637554 7.87119e-05 0.000789213 0.00275421 0.00660788 -0.000153218 0.00519303 0.00901586 0.0158141
internal_weight=0 6540 3657 2883 1286 960 15759 9378 2658 1143 1515 427 928 133
internal_count=22299 6540 3657 2883 1286 960 15759 9378 2658 1143 1515 427 928 133
shrinkage=0.1


Tree=115
num_leaves=15
num_cat=0
split_feature=39 2 3 14 23 10 2 22 29 12 37 19 11 6
split_gain=0.0443993 0.119052 0.0697068 0.0974873 0.159187 0.23991 0.226706 0.80989 0.176834 0.214203 0.172431 0.142443 0.266314 0.11236
threshold=0.0010540050000000002 3.0775850000000005 -12.248949999999999 0.0034582950000000006 -12.434149999999997 1.0455700000000001e-05 2.0303200000000006 2.0954600000000005 -0.064587449999999991 0.00021534100000000002 0.00014997500000000003 0.0052162500000000013 0.00026470050000000005 -8.257774999999999e-07
decision_type=2 2 2 2 2 2 2 2 2 2 2 2 2 2
left_child=-1 2 3 13 5 -5 8 10 9 11 -8 -7 -13 -2
right_child=1 -3 -4 4 -6 6 7 -9 -10 -11 -12 12 -14 -15
leaf_value=-6.1204778803825811e-05 0.0011852765407466732 0.011220967727131211 0.00054245301665146529 0.014675772722278322 -0.0014151002023213986 -0.0042762831931381874 -0.0047389583989319488 0.025925252959132197 -0.002342044871010258 0.014847290204904443 0.0099652870970947504 0.014777531673098566 -0.0031974913689362654 -0.00342173646751044
leaf_weight=18768 74 9.9999999999999982 2686 13.999999999999998 292 27 29 15.999999999999998 139 13.999999999999998 10.999999999999998 15.999999999999998 17 186
leaf_count=18768 74 10 2686 14 292 27 29 16 139 14 11 16 17 186
internal_value=0 0.000325316 0.000294371 -0.000503649 0.000222931 0.00191305 0.00124882 0.00691058 -0.000239712 0.00370926 -0.000695291 0.00111039 0.00551767 -0.00211051
internal_weight=0 3531 3521 835 575 283 269 56 213 74 40 60 33 260
internal_count=22299 3531 3521 835 575 283 269 56 213 74 40 60 33 260
shrinkage=0.1


Tree=116
num_leaves=15
num_cat=0
split_feature=3 14 34 11 18 31 21 1 1 34 5 20 24 4
split_gain=0.0372967 0.0625355 2.55393 0.917953 0.720442 0.814944 0.668114 2.65164 0.617589 0.576773 0.564692 0.708484 0.501647 1.25788
threshold=-6.0725999999999987 0.00013119700000000002 0.0068507800000000008 -1.9229899999999997e-05 7.0075400000000014e-07 -0.029535649999999997 10.970250000000002 10.345250000000002 9.487775000000001 0.49467900000000004 1.0215050000000001e-05 9.4874600000000004 -0.073200899999999985 0.025549650000000004
decision_type=2 2 2 2 2 2 2 2 2 2 2 2 2 2
left_child=1 2 3 -1 5 -5 8 -8 10 -4 11 -7 13 -12
right_child=-2 -3 9 4 -6 6 7 -9 -10 -11 12 -13 -14 -15
leaf_value=-0.0055096091045176284 0.00026184507767184495 1.0952833091213729e-06 -0.003312765609677529 0.0356950302918752 -0.00991921485646775 -0.0036596593465290819 -0.011141364968248777 0.04560237988829613 -0.0048211493011977944 0.0014732614211693763 0.0181118794484064 0.024322376264767215 0.017064933255314826 -0.012173514006038506
leaf_weight=51 4373 15991 1255 11.999999999999998 19 51 13.999999999999998 20 36 315 32 10.999999999999998 95 24
leaf_count=51 4373 15991 1255 12 19 51 14 20 36 315 32 11 95 24
internal_value=0 -6.38764e-05 -0.000600808 0.00693392 0.008955 0.0101706 0.00908832 0.0222373 0.00729288 -0.00235251 0.00934032 0.0013049 0.0126396 0.00513243
internal_weight=0 17926 1935 365 314 295 283 34 249 1570 213 62 151 56
internal_count=22299 17926 1935 365 314 295 283 34 249 1570 213 62 151 56
shrinkage=0.1


Tree=117
num_leaves=15
num_cat=0
split_feature=39 19 33 3 3 11 10 28 22 29 30 19 25 13
split_gain=0.0480147 0.582672 1.82333 1.31901 1.13129 1.09399 0.848295 1.19999 1.63584 0.731398 0.699337 0.581746 0.417309 0.426849
threshold=3.0491600000000006e-06 1.4477050000000002e-08 -2.0239149999999996e-07 -6.1233399999999989 -9.7137299999999982 2.2443050000000002e-05 2.1332150000000002e-05 -0.0021705499999999998 0.86206250000000006 0.0042239400000000007 0.00012004050000000002 3.9135900000000011e-06 0.15499950000000004 1.4788400000000001e-05
decision_type=2 2 2 2 2 2 2 2 2 2 2 2 2 2
left_child=1 2 3 4 -1 6 7 -6 -9 10 12 -3 -8 -14
right_child=-2 11 -4 -5 5 -7 9 8 -10 -11 -12 -13 13 -15
leaf_value=-0.0032678203009886713 8.0514973251783793e-05 -0.0028781996487130031 -0.0035591965597445829 -0.0003375505394110931 0.053669983419505032 0.041955185575144632 -0.0052967827518781031 -0.008499568502108255 0.037467318587005138 0.03152254756826621 -0.010023988605964752 -8.7785380695487545e-05 0.019289862388825935 0.0049677861952467971
leaf_weight=41 17139 946 283 147 10.999999999999998 13.999999999999998 14.999999999999998 15.000000000000002 15.999999999999998 12.999999999999998 21 3554 46 38
leaf_count=41 17139 946 283 147 11 14 15 15 16 13 21 3554 46 38
internal_value=0 -0.000267431 0.0025073 0.0070612 0.01179 0.0150565 0.0129046 0.0252941 0.0152253 0.00899208 0.00655128 -0.000674392 0.0100673 0.0128108
internal_weight=0 5160 660 377 230 189 175 42 31 133 120 4500 99 84
internal_count=22299 5160 660 377 230 189 175 42 31 133 120 4500 99 84
shrinkage=0.1


Tree=118
num_leaves=15
num_cat=0
split_feature=39 19 19 14 20 14 19 35 0 32 10 20 20 3
split_gain=0.0388919 0.471964 0.471214 0.302235 0.467859 0.544016 0.54113 0.615459 1.13256 0.812931 0.458426 0.77688 0.403012 0.68743
threshold=3.0491600000000006e-06 1.4477050000000002e-08 3.9135900000000011e-06 7.3063950000000014e-05 9.8038950000000025 0.00045896000000000006 3.6202450000000005e-10 0.00027546400000000006 5.7180000000000009 0.0042554950000000006 1.5487650000000004e-05 -1.7036499999999999 9.4874600000000004 -5.9800399999999998
decision_type=2 2 2 2 2 2 2 2 2 2 2 2 2 2
left_child=1 3 -3 12 5 6 -5 10 9 -9 11 -8 -1 -14
right_child=-2 2 -4 4 -6 -7 7 8 -10 -11 -12 -13 13 -15
leaf_value=-0.0017599431439241295 7.2463476556850419e-05 -0.0025903797038831951 -7.9006850685119375e-05 0.023440170506946745 -0.0054821208436888732 -0.0024216610809911373 -0.0049743559211492521 -0.0069141878089045766 0.043316423318659265 0.029018057970970401 0.0021015962552285469 0.03100897938013077 0.024418483871747467 -0.00046510085196587174
leaf_weight=247 17139 946 3554 20 44 68 10.000000000000002 17.000000000000004 11.999999999999998 9.9999999999999982 168 14.999999999999998 17 32
leaf_count=247 17139 946 3554 20 44 68 10 17 12 10 168 15 17 32
internal_value=0 -0.000240688 -0.000606953 0.00225657 0.0041863 0.00551571 0.00765754 0.00629696 0.0177548 0.00639405 0.00398165 0.0166156 -0.000116469 0.00816798
internal_weight=0 5160 4500 660 364 320 252 232 39 27 193 25 296 49
internal_count=22299 5160 4500 660 364 320 252 232 39 27 193 25 296 49
shrinkage=0.1


Tree=119
num_leaves=15
num_cat=0
split_feature=3 14 34 11 18 31 0 20 20 37 12 9 20 0
split_gain=0.0370772 0.0749209 1.87851 0.680615 0.520514 0.666089 0.516537 2.98377 1.1471 0.794745 0.743754 0.708267 0.719443 0.909774
threshold=-6.0725999999999987 0.00013119700000000002 0.0068507800000000008 -1.9229899999999997e-05 7.0075400000000014e-07 -0.029535649999999997 8.5645450000000007 9.4874600000000004 9.4874600000000004 -2.3225699999999999e-08 4.4699100000000007e-05 2.7521400000000004e-05 4.4308650000000016 3.8113050000000004
decision_type=2 2 2 2 2 2 2 2 2 2 2 2 2 2
left_child=1 2 3 -1 5 -5 8 -8 9 10 -7 12 -11 -14
right_child=-2 -3 -4 4 -6 6 7 -9 -10 11 -12 -13 13 -15
leaf_value=-0.0049041492492417063 0.00026107359700044502 7.4269889289516312e-06 -0.0021537108508101095 0.031660070270299913 -0.0084920521047407473 0.0038496838466209522 -0.010953586362302304 0.033038286758320677 -0.0093561180115032654 0.025388874308693979 0.032681165412068371 0.045237605012953284 -0.013572889752686022 0.020850937243770153
leaf_weight=51 4373 15991 1570 11.999999999999998 19 85 58 21 26 42 9.9999999999999982 9.9999999999999982 14.000000000000002 17
leaf_count=51 4373 15991 1570 12 19 85 58 21 26 42 10 10 14 17
internal_value=0 -6.36882e-05 -0.00065139 0.00581065 0.00755095 0.00858423 0.00760575 0.000740456 0.0102644 0.0131303 0.00688458 0.020279 0.01686 0.00530469
internal_weight=0 17926 1935 365 314 295 283 79 204 178 95 83 73 31
internal_count=22299 17926 1935 365 314 295 283 79 204 178 95 83 73 31
shrinkage=0.1


Tree=120
num_leaves=15
num_cat=0
split_feature=39 19 33 3 3 10 26 26 36 37 16 4 25 16
split_gain=0.0440891 0.346605 1.31357 0.890684 0.735167 0.476539 0.9357 1.11174 0.56909 0.628343 2.1573 1.6496 0.904032 0.517994
threshold=3.0491600000000006e-06 1.4477050000000002e-08 -2.0239149999999996e-07 -5.9800399999999998 -9.7137299999999982 2.1332150000000002e-05 -6.5606349999999979e-05 5.1480050000000005e-05 0.00032938950000000004 8.289790000000001e-09 6.2123600000000012e-08 0.04119865000000001 0.156643 1.0000000180025095e-35
decision_type=2 2 2 2 2 2 2 2 2 2 2 2 2 2
left_child=1 2 3 4 -1 6 -6 -8 9 11 -11 12 -7 -14
right_child=-2 -3 -4 -5 5 8 7 -9 -10 10 -12 -13 13 -15
leaf_value=-0.0029021246094688229 7.7153370776384433e-05 -0.00057014198065689426 -0.0032653095295630944 -0.00087292561118815541 -0.0037921697578646922 0.00091424695260467989 0.052439539363751037 0.014062237615386644 -0.0056399132675406614 -0.0011895816699650727 0.046463800574603836 -0.0082606302760541445 0.037946386458352216 0.015459475205058144
leaf_weight=41 17139 4500 283 132 10.999999999999998 21 13.000000000000002 18 22 19 19 40 20 21
leaf_count=41 17139 4500 283 132 11 21 13 18 22 19 19 40 20 21
internal_value=0 -0.000256266 0.0018838 0.00574904 0.0093168 0.0117726 0.0212648 0.0301559 0.00931162 0.0116611 0.0226371 0.00757207 0.0177867 0.0264287
internal_weight=0 5160 660 377 245 204 42 31 162 140 38 102 62 41
internal_count=22299 5160 660 377 245 204 42 31 162 140 38 102 62 41
shrinkage=0.1


Tree=121
num_leaves=15
num_cat=0
split_feature=30 19 33 25 19 14 32 1 19 20 13 14 3 14
split_gain=0.0391775 0.298327 1.07324 0.574959 0.285944 0.226431 0.250732 0.612374 0.661715 0.260907 0.397547 0.256388 0.254037 0.215277
threshold=0.00010338150000000001 9.3206050000000014e-10 -2.2912399999999996e-06 0.16646400000000003 0.00010109400000000002 9.2001000000000016e-05 0.015313000000000002 -6.7027699999999992 3.2350800000000005e-08 0.31681300000000007 6.4414100000000008e-07 0.0007529835000000001 -6.043429999999999 0.00013727900000000003
decision_type=2 2 2 2 2 2 2 2 2 2 2 2 2 2
left_child=1 2 3 -1 5 -3 11 8 -8 -10 -11 12 -7 -6
right_child=-2 4 -4 -5 13 6 7 -9 9 10 -12 -13 -14 -15
leaf_value=0.0051665323701771812 5.3012265925356598e-05 0.00063522111135646175 -0.0008549194326042198 0.035266288382311661 0.0030304210183280103 -0.0061951369369948918 0.024423898349663145 -0.0027843646507989903 -0.0071649947753434796 0.024068972682580347 -0.0016716390642492721 -0.0010498790441356091 4.3710971568757094e-05 -0.00014643550407557635
leaf_weight=11.000000000000002 19224 314 80 14.999999999999998 249 336 19 164 18 10.000000000000002 14.999999999999998 275 81 1488
leaf_count=11 19224 314 80 15 249 336 19 164 18 10 15 275 81 1488
internal_value=0 -0.000331417 0.00488144 0.0225318 -0.000517528 -0.00168281 -0.00247568 0.00041621 0.00888225 0.00201501 0.00862461 -0.00342015 -0.00498327 0.000308969
internal_weight=0 3075 106 26 2969 1232 918 226 62 43 25 692 417 1737
internal_count=22299 3075 106 26 2969 1232 918 226 62 43 25 692 417 1737
shrinkage=0.1


Tree=122
num_leaves=15
num_cat=0
split_feature=23 3 14 3 23 14 3 3 14 23 3 3 34 23
split_gain=0.032676 1.78059 2.10535 1.07442 1.35947 1.16622 0.752606 0.925757 0.885793 1.97176 3.54146 2.06187 3.19883 1.60501
threshold=-7.6100699999999994 -7.551264999999999 0.00073300000000000004 -6.3643949999999991 -6.4198449999999996 0.00037720150000000008 -7.551264999999999 -6.1514349999999984 0.00084499100000000012 -9.8917349999999988 -9.9395899999999973 -9.8324999999999978 0.065668900000000016 -10.609499999999999
decision_type=2 2 2 2 2 2 2 2 2 2 2 2 2 2
left_child=6 2 -2 4 5 -3 8 -8 9 11 -11 12 13 -1
right_child=1 3 -4 -5 -6 -7 7 -9 -10 10 -12 -13 -14 -15
leaf_value=0.01145141356460312 -0.0058941677214172832 0.009225255133642923 -0.00023869653968392561 0.00011336561380503978 -0.0020671747662243437 0.0010290695262741875 -0.0021616615896268509 0.00030514163171817412 -1.9042638981382439e-05 -0.0048048784427789674 0.0079722880791887069 -0.002165193732062436 -9.1240920939925692e-05 0.03519698721874092
leaf_weight=136 876 507 2648 1462 250 264 2754 3399 7027 280 963 1328 369 36
leaf_count=136 876 507 2648 1462 250 264 2754 3399 7027 280 963 1328 369 36
internal_value=0 -0.000199356 -0.00164454 0.00185172 0.00434093 0.00641878 7.35044e-05 -0.000798966 0.000602976 0.00200751 0.00509408 -4.52442e-05 0.00515862 0.0164214
internal_weight=0 6007 3524 2483 1021 771 16292 6153 10139 3112 1243 1869 541 172
internal_count=22299 6007 3524 2483 1021 771 16292 6153 10139 3112 1243 1869 541 172
shrinkage=0.1


Tree=123
num_leaves=15
num_cat=0
split_feature=39 10 34 33 13 18 24 4 38 14 28 16 22 23
split_gain=0.0401444 0.114451 0.54148 0.84998 0.115585 0.104232 0.248175 0.663631 0.77391 1.43368 0.625328 0.566562 0.681188 0.330377
threshold=0.00049969450000000013 8.6105100000000007e-06 0.066104700000000016 -9.4311049999999972e-06 6.3414900000000022e-05 -1.4324099999999999e-05 0.40095100000000006 -1.4166899999999998 0.019421350000000004 0.0018826950000000002 -0.038090949999999991 -1.3472549999999999e-05 1.856025 -15.905149999999997
decision_type=2 2 2 2 2 2 2 2 2 2 2 2 2 2
left_child=1 2 -1 -4 -3 6 7 -2 9 10 -9 12 -10 -13
right_child=5 4 3 -5 -6 -7 -8 8 11 -11 -12 13 -14 -15
leaf_value=-0.0030865936522157149 -0.00042763348954808628 -0.00023629139960917885 -0.0028149075243466839 0.034823283545362453 0.00034635835118449723 -4.3494857720819561e-05 -0.0006493002967802176 0.01363397086039185 0.0024233077156047022 0.00035077003693139114 0.045511196344159545 -0.0040350095374057727 0.033698145930583664 0.0039989854418756984
leaf_weight=39 453 13007 12.000000000000002 11.999999999999998 4612 3263 545 10.000000000000002 15.000000000000002 27 15.999999999999998 68 12.999999999999998 207
leaf_count=39 453 13007 12 12 4612 3263 545 10 15 27 16 68 13 207
internal_value=0 -6.8562e-05 0.00418609 0.0160042 -8.37753e-05 0.000262576 0.00100018 0.00211138 0.0053422 0.0164904 0.0332507 0.00339219 0.0169438 0.0020124
internal_weight=0 17682 63 24 17619 4617 1354 809 356 53 26 303 28 275
internal_count=22299 17682 63 24 17619 4617 1354 809 356 53 26 303 28 275
shrinkage=0.1


Tree=124
num_leaves=15
num_cat=0
split_feature=34 3 3 25 20 30 5 27 7 38 13 13 33 13
split_gain=0.0376602 0.0838207 0.130987 0.411672 0.686235 0.145547 0.127447 0.15794 0.0792811 0.0851437 0.143357 0.0783403 0.107217 0.480028
threshold=0.56474900000000006 -11.619699999999998 -17.753849999999996 1.9275150000000003 -3.742435 0.061221600000000008 7.1526450000000005e-06 1.9191200000000002 4.171810000000001e-05 -0.80259099999999994 0.00010502750000000002 5.5414750000000007e-05 -2.2749649999999997e-05 3.6063350000000008e-05
decision_type=2 2 2 2 2 2 2 2 2 2 2 2 2 2
left_child=11 2 3 4 -2 -5 -4 -8 9 10 -9 12 13 -1
right_child=1 -3 6 5 -6 -7 7 8 -10 -11 -12 -13 -14 -15
leaf_value=-0.0016844115128860568 -0.0027146512689068905 0.00059131424790355176 0.010382998771965505 -0.0025446357023994146 0.034332211613655093 0.010019194182082587 -0.0036547369543437854 0.00069541812653800366 -0.0015627543753788933 0.00018182045847507991 0.015487595974700525 0.00026815570522618611 -9.7258285545125518e-05 0.0056189009854427487
leaf_weight=1102 10.000000000000002 2626 9.9999999999999982 57 9.9999999999999982 10.999999999999998 176 19.000000000000004 298 394 9.9999999999999982 5300 12178 98
leaf_count=1102 10 2626 10 57 10 11 176 19 298 394 10 5300 12178 98
internal_value=0 0.000295155 -0.000486468 0.00319707 0.0158088 -0.000512251 -0.000843857 -0.000969017 -0.000313418 0.000566729 0.00579617 -5.722e-05 -0.000186125 -0.00108797
internal_weight=0 3621 995 88 20 68 907 897 721 423 29 18678 13378 1200
internal_count=22299 3621 995 88 20 68 907 897 721 423 29 18678 13378 1200
shrinkage=0.1


Tree=125
num_leaves=15
num_cat=0
split_feature=39 19 33 3 14 10 20 36 11 31 31 34 19 14
split_gain=0.0349988 0.234165 0.98577 0.667159 0.547399 0.411116 1.49321 0.582627 0.746452 0.896506 0.653547 0.606695 0.664967 0.34211
threshold=3.0491600000000006e-06 1.4477050000000002e-08 -2.0239149999999996e-07 -5.9800399999999998 0.00050069100000000005 1.5890450000000003e-05 4.2412050000000008 0.00032938950000000004 1.6643550000000004e-05 -0.014066299999999999 0.035619050000000006 0.0047597250000000002 5.5242100000000005e-10 0.0032342650000000005
decision_type=2 2 2 2 2 2 2 2 2 2 2 2 2 2
left_child=1 2 3 4 5 6 -1 8 10 -10 11 12 -7 -3
right_child=-2 13 -4 -5 -6 7 -8 -9 9 -11 -12 -13 -14 -15
leaf_value=0.04064102061092853 6.874105037784889e-05 -0.00114404308236438 -0.0029299071030246997 -0.00085202763975482376 -0.0034222438381726131 0.031026417824129265 -0.0086181728914380071 -0.0050187601641352685 0.036374558614833012 0.0011337752623314208 0.026674717403948306 -0.0066584029358209068 0.00530888591742804 0.00066954975630086641
leaf_weight=16.000000000000004 17139 2868 283 132 36 11.999999999999998 9.9999999999999982 28 21 10.999999999999998 14.999999999999998 34 62 1632
leaf_count=16 17139 2868 283 132 36 12 10 28 21 11 15 34 62 1632
internal_value=0 -0.000228324 0.00153069 0.0048791 0.00796689 0.00992866 0.0216952 0.00825691 0.0106551 0.0242605 0.00711547 0.00439891 0.0094793 -0.000486313
internal_weight=0 5160 660 377 245 209 26 183 155 32 123 108 74 4500
internal_count=22299 5160 660 377 245 209 26 183 155 32 123 108 74 4500
shrinkage=0.1


Tree=126
num_leaves=15
num_cat=0
split_feature=3 19 25 33 38 11 22 31 9 20 0 23 1 3
split_gain=0.0342649 0.057648 0.479942 1.35939 0.48593 0.525184 1.94505 0.501532 1.35774 0.758218 0.755853 0.931539 0.645625 0.622045
threshold=-5.6684649999999985 1.4477050000000002e-08 0.40844150000000007 -2.0239149999999996e-07 0.00043909450000000007 2.4077300000000004e-05 0.59425050000000013 -0.016734899999999994 1.9467200000000006e-05 5.0925950000000011 3.0260800000000003 -9.540049999999999 5.0712900000000003 -8.2381549999999972
decision_type=2 2 2 2 2 2 2 2 2 2 2 2 2 2
left_child=1 2 3 4 5 7 -7 10 13 -10 -1 -12 -13 -9
right_child=-2 -3 -4 -5 -6 6 -8 8 9 -11 11 12 -14 -15
leaf_value=-0.0060535396727077161 0.00031200522880022905 7.2341433148775305e-06 -0.002066513730481711 -0.0036758885179451841 -0.0036274962209594942 -0.0027906987854900461 0.040036209711903026 0.020819122758533423 -0.0082112882052555632 0.01831410166162711 -0.0036124445407444404 0.036949413040509596 0.0090685702252971106 0.0079589444198743583
leaf_weight=88 3040 17404 1000 346 65 24 19 58 63 12.999999999999998 36 12.999999999999998 23 107
leaf_count=88 3040 17404 1000 346 65 24 19 58 63 13 36 13 23 107
internal_value=0 -4.92495e-05 -0.000579191 0.00116037 0.00444788 0.00563009 0.0161328 0.00450386 0.00738543 -0.00367405 0.0001635 0.0077621 0.0191367 0.0124795
internal_weight=0 19259 1855 855 509 444 43 401 241 76 160 72 36 165
internal_count=22299 19259 1855 855 509 444 43 401 241 76 160 72 36 165
shrinkage=0.1


Tree=127
num_leaves=15
num_cat=0
split_feature=39 19 33 14 14 23 3 3 3 23 12 21 21 14
split_gain=0.0363107 0.176373 0.240957 0.1944 0.349789 0.384405 1.02726 0.639143 0.460365 1.06188 0.77388 1.38618 1.33988 0.815144
threshold=3.0491600000000006e-06 3.1220750000000008e-10 -9.9975899999999987e-07 0.0036781400000000003 0.00013727900000000003 -8.0906399999999987 -8.1493299999999973 -6.2342049999999993 -6.3788349999999996 -6.3955149999999987 3.2520700000000009e-05 6.5304350000000007 7.6290550000000001 0.00011475850000000001
decision_type=2 2 2 2 2 2 2 2 2 2 2 2 2 2
left_child=1 2 -1 4 5 6 -3 -8 9 10 12 -12 -7 -13
right_child=-2 3 -4 -5 -6 8 7 -9 -10 -11 11 13 -14 -15
leaf_value=0.012165502696168713 7.0017552969716312e-05 0.025535385224681635 -0.0004880722348496099 0.00064477772075406399 -0.0014383995661292851 0.0094871885817954128 -0.0092229557385587174 -0.00017421055714900529 0.00022174581348482827 -0.0095606000078121388 -0.013852367661893367 0.03903378698353966 -0.01023338130571776 0.0079423579459006969
leaf_weight=27 17139 12.999999999999998 34 1534 2295 147 115 243 618 42 9.9999999999999982 24 45 12.999999999999998
leaf_count=27 17139 13 34 1534 2295 147 115 243 618 42 10 24 45 13
internal_value=0 -0.000232564 0.00511269 -0.00029651 -0.000701541 0.000630026 -0.0020782 -0.00308093 0.00174766 0.00510358 0.00768055 0.0191817 0.00486518 0.0281098
internal_weight=0 5160 61 5099 3565 1270 371 358 899 281 239 47 192 37
internal_count=22299 5160 61 5099 3565 1270 371 358 899 281 239 47 192 37
shrinkage=0.1


Tree=128
num_leaves=15
num_cat=0
split_feature=30 19 33 25 19 7 5 19 33 32 12 1 21 16
split_gain=0.0314269 0.147683 0.59896 0.425498 0.218963 0.166799 0.199515 0.136901 0.283449 0.351191 1.76928 0.456412 0.724356 0.87759
threshold=0.00010338150000000001 9.3206050000000014e-10 -2.2912399999999996e-06 0.17061500000000002 0.00010109400000000002 2.5051500000000006e-05 1.9404950000000001e-05 2.7869450000000004e-08 -1.2724099999999997e-07 0.016195950000000004 -4.7522649999999995e-05 6.4485900000000003 5.8520150000000006 3.9387100000000006e-08
decision_type=2 2 2 2 2 2 2 2 2 2 2 2 2 2
left_child=1 2 3 -1 7 -4 -7 8 9 11 -11 -3 -13 -14
right_child=-2 4 5 -5 -6 6 -8 -9 -10 10 -12 12 13 -15
leaf_value=0.0037639284936281342 4.7479781425687216e-05 -0.0025417227891137311 0.011166458399966359 0.029349312214897227 0.00029547084982067622 -0.004945533543675191 0.0097239417410243997 -0.0021194854161440662 -0.0029169609324708294 0.047425910762976857 -0.0020692789183857922 -0.0075536901684245096 0.041127526015043249 0.0048778528381851231
leaf_weight=13.000000000000002 19224 116 9.9999999999999982 12.999999999999998 1737 59 10.999999999999998 876 160 9.9999999999999982 26 15.999999999999998 11.000000000000002 17
leaf_count=13 19224 116 10 13 1737 59 11 876 160 10 26 16 11 17
internal_value=0 -0.00029683 0.00337088 0.0165566 -0.000427775 -0.000914482 -0.00264033 -0.00144748 0.0002061 0.00275554 0.0116794 0.000747671 0.00941971 0.0191188
internal_weight=0 3075 106 26 2969 80 70 1232 356 196 36 160 44 28
internal_count=22299 3075 106 26 2969 80 70 1232 356 196 36 160 44 28
shrinkage=0.1


Tree=129
num_leaves=15
num_cat=0
split_feature=3 14 23 3 23 3 33 15 23 35 5 33 3 34
split_gain=0.0319141 0.105157 1.18683 2.03152 1.39091 1.03288 1.29684 1.32303 1.04815 0.483569 0.62853 0.473101 0.48473 0.461331
threshold=-6.1514349999999984 0.00013119700000000002 -6.9441449999999989 -6.9004699999999994 -6.287234999999999 -6.3643949999999991 -4.6164299999999991e-06 -7.7693799999999983e-08 -6.4589649999999992 0.00084191000000000008 1.7175900000000003e-05 2.4996650000000005e-06 -6.6945549999999994 0.51382200000000011
decision_type=2 2 2 2 2 2 2 2 2 2 2 2 2 2
left_child=1 2 13 -4 5 6 -5 -8 -7 10 11 12 -9 -1
right_child=-2 -3 3 4 -6 8 7 9 -10 -11 -12 -13 -14 -15
leaf_value=-0.002945459721045764 0.0002339899870609208 2.013884687178861e-05 -0.0064821740140704881 -0.0092345696740916798 -0.0036783627202829068 -0.0078692622940122556 0.05598043880679391 -0.005107025650795554 0.018939849609509112 0.038110424609233938 0.040145809799432754 0.031563787162303923 0.015158072113990778 0.0017316368995491849
leaf_weight=1155 4621 15910 116 13.999999999999998 59 35 10.999999999999998 15.999999999999984 25 11.999999999999998 9.9999999999999982 11.999999999999998 45.000000000000014 258
leaf_count=1155 4621 15910 116 14 59 35 11 16 25 12 10 12 45 258
internal_value=0 -6.11646e-05 -0.000792804 0.00437624 0.00964644 0.014014 0.0193704 0.0231484 0.0033012 0.0193468 0.016634 0.0134132 0.00984264 -0.00209147
internal_weight=0 17678 1768 355 239 180 120 106 60 95 83 73 61 1413
internal_count=22299 17678 1768 355 239 180 120 106 60 95 83 73 61 1413
shrinkage=0.1


Tree=130
num_leaves=15
num_cat=0
split_feature=7 20 0 5 3 25 29 34 0 20 11 19 33 0
split_gain=0.0288365 0.111064 0.652095 0.777084 0.745717 0.844558 1.05103 0.205331 0.109962 0.119397 0.228522 0.650104 1.36018 1.58043
threshold=5.1723650000000004e-05 -8.5366349999999986 -7.938254999999999 2.3565700000000004e-05 -6.401514999999999 4.9465650000000005 0.010621650000000002 0.0048415450000000009 -8.8210049999999978 6.9333050000000016 1.6086700000000003e-05 1.8368750000000003e-06 -4.5543699999999987e-06 8.0669700000000013
decision_type=2 2 2 2 2 2 2 2 2 2 2 2 2 2
left_child=-1 2 3 4 5 6 -2 -6 -3 -10 -11 12 13 -12
right_child=1 8 -4 -5 7 -7 -8 -9 9 10 11 -13 -14 -15
leaf_value=-8.3284580729028041e-05 0.018759839264308346 -0.00082235576311204684 -0.00029147778932047232 0.00094065877901633877 0.016148529342026451 -0.0011303482251241804 0.058812390603125098 -0.00071280818038548422 -1.6937003666944367e-05 -0.00042058496004205334 0.056192115911593024 0.0011166196017997167 0.0023125662038388155 0.0067360901282102403
leaf_weight=14514 19.000000000000004 1245 595 102 9.9999999999999982 9.9999999999999982 9.9999999999999982 26 4587 534 12.000000000000002 559 62 13.999999999999998
leaf_count=14514 19 1245 595 102 10 10 10 26 4587 534 12 559 62 14
internal_value=0 0.000155272 0.00129369 0.00662236 0.0143495 0.0239297 0.0325711 0.0039709 2.99536e-05 0.000213921 0.00111057 0.00237431 0.0103635 0.0295619
internal_weight=0 7785 772 177 75 39 29 36 7013 5768 1181 647 88 26
internal_count=22299 7785 772 177 75 39 29 36 7013 5768 1181 647 88 26
shrinkage=0.1


Tree=131
num_leaves=15
num_cat=0
split_feature=23 3 13 3 23 3 3 23 23 3 13 13 33 33
split_gain=0.034338 1.33672 0.868683 0.632049 0.773359 0.627495 0.647753 0.772341 0.696826 1.3873 0.639766 0.551292 4.32743 1.99269
threshold=-7.7487749999999993 -7.7975399999999988 4.543755000000001e-05 -6.3282549999999995 -6.3955149999999987 -7.8249449999999987 -6.1782649999999988 -10.609499999999999 -7.8671899999999999 -7.585564999999999 3.2492750000000005e-05 3.3590300000000003e-06 -1.117395e-06 -1.3243649999999999e-06
decision_type=2 2 2 2 2 2 2 2 2 2 2 2 2 2
left_child=5 2 -2 4 11 -1 7 -7 10 -10 -9 12 -3 -13
right_child=1 3 -4 -5 -6 6 -8 8 9 -11 -12 13 -14 -15
leaf_value=0.00060443676751235377 -0.0027876231566440739 -0.0055630196041546922 0.00032991338006450595 5.8749920522408058e-05 -0.0017637038853956883 -0.00038034394469323846 0.00028900001827637627 -0.0054483012137219828 0.034398604198317383 -0.0011394193714402397 -0.0002430012790768469 0.0082637478986551573 0.01585707825819492 -0.0027554918260544793
leaf_weight=9320 2102 158 1555 1565 268 1806 3333 917 13.999999999999998 51 318 313 234 345
leaf_count=9320 2102 158 1555 1565 268 1806 3333 917 14 51 318 313 234 345
internal_value=0 -0.000192628 -0.00146201 0.00141754 0.00303098 7.9941e-05 -0.00067923 -0.00171822 -0.00357684 0.00651492 -0.00410799 0.00425477 0.00722347 0.00248618
internal_weight=0 6540 3657 2883 1318 15759 6439 3106 1300 65 1235 1050 392 658
internal_count=22299 6540 3657 2883 1318 15759 6439 3106 1300 65 1235 1050 392 658
shrinkage=0.1


Tree=132
num_leaves=15
num_cat=0
split_feature=28 8 7 30 4 15 14 14 23 22 1 19 1 3
split_gain=0.0283639 0.145429 0.179142 0.283351 0.29625 0.188842 0.175715 0.0805099 0.0857228 0.0641633 0.0856465 0.240565 0.0766894 0.0681936
threshold=-0.085570549999999981 8.4132750000000029e-06 3.5305950000000007e-05 0.0045554350000000009 -0.31037149999999997 -4.3067749999999999e-08 0.0041718550000000012 0.00037720150000000008 -16.491149999999998 -1.9822499999999998 -1.7371599999999998 0.00010109400000000002 -3.9966449999999996 -15.395849999999998
decision_type=2 2 2 2 2 2 2 2 2 2 2 2 2 2
left_child=1 7 3 -3 -5 -6 -7 8 -1 10 11 -9 -11 -14
right_child=-2 2 -4 4 5 6 -8 9 -10 12 -12 -13 13 -15
leaf_value=0.0044668973100845492 -2.9356977135129315e-05 0.017322715916088784 0.00061710928407396706 0.016399096571064246 0.012298106026303556 -0.0016235574482453066 0.01179052319335328 0.013685807459713782 0.00018033646426484325 -0.0065351341377883664 -0.00074326690087156303 -0.0011165591790491054 -0.0044001875275633392 -0.00073243538103270108
leaf_weight=57 20884 15.999999999999998 372 14.999999999999998 13.999999999999998 87 10.999999999999998 17 257 31 146 31 61 300
leaf_count=57 20884 16 372 15 14 87 11 17 257 31 146 31 61 300
internal_value=0 0.00043328 0.00177346 0.00478161 0.00320162 0.0014341 -0.000117895 -0.000333604 0.00095847 -0.00102594 0.000461487 0.00412595 -0.00176207 -0.00135219
internal_weight=0 1415 515 143 127 112 98 900 314 586 194 48 392 361
internal_count=22299 1415 515 143 127 112 98 900 314 586 194 48 392 361
shrinkage=0.1


Tree=133
num_leaves=15
num_cat=0
split_feature=9 29 29 0 0 20 14 3 22 34 23 20 16 22
split_gain=0.0280674 2.37955 1.51004 1.00821 0.769811 1.88696 1.02944 1.43548 1.10179 0.942086 0.795797 0.755588 0.831593 0.705447
threshold=-1.1274199999999998e-05 0.0010749600000000002 0.0010749600000000002 -1.0375099999999999 -0.69676399999999983 -3.0532049999999997 0.0097366450000000004 -7.8249449999999987 1.9113650000000002 0.64415850000000019 -7.5004549999999997 -1.4168599999999996 2.8559200000000001e-07 -1.6477349999999997
decision_type=2 2 2 2 2 2 2 2 2 2 2 2 2 2
left_child=1 -1 3 13 5 -4 7 8 9 11 -9 12 -7 -2
right_child=2 -3 4 -5 -6 6 -8 10 -10 -11 -12 -13 -14 -15
leaf_value=-0.0014235446795985247 0.014084791459996873 0.0018837056429284545 -0.0013103841915524791 0.0012104474792740353 -0.0017095008641826047 0.065913732642573983 -0.0021104484768561544 -0.0023802951799463666 0.0020109201630796581 0.0086121696912284419 0.020374149096791042 0.023078177300178339 0.028156781216675881 -0.0033601447455383973
leaf_weight=4602 24 4126 541 6909 5221 13.999999999999998 51 51 17 13.999999999999998 22 18.000000000000004 9.9999999999999982 679
leaf_count=4602 24 4126 541 6909 5221 14 51 51 17 14 22 18 10 679
internal_value=0 0.000139897 -8.99725e-05 0.000843337 -0.00128218 0.00174093 0.0101204 0.0143929 0.0243085 0.0310775 0.00447721 0.0385659 0.0501817 -0.00276459
internal_weight=0 8728 13571 7612 5959 738 197 146 73 56 73 42 24 703
internal_count=22299 8728 13571 7612 5959 738 197 146 73 56 73 42 24 703
shrinkage=0.1


Tree=134
num_leaves=15
num_cat=0
split_feature=23 3 14 3 23 14 32 12 1 21 14 33 17 20
split_gain=0.0286866 1.06371 1.60101 0.508056 0.627554 0.742406 0.643323 4.8418 2.19817 2.39583 1.69796 0.961439 1.26226 0.898729
threshold=-7.7487749999999993 -7.7975399999999988 0.00073300000000000004 -6.3643949999999991 -6.4589649999999992 0.00060902400000000011 0.016195950000000004 -3.6211399999999998e-06 5.4745200000000009 5.2005200000000009 0.00010814650000000001 4.8708550000000005e-06 2.3842750000000009e-07 -3.0347149999999998
decision_type=2 2 2 2 2 2 2 2 2 2 2 2 2 2
left_child=-1 2 -2 4 5 6 8 10 -3 -10 -8 12 13 -12
right_child=1 3 -4 -5 -6 -7 7 -9 9 -11 11 -13 -14 -15
leaf_value=7.3067038910170276e-05 -0.0050392890055686755 -0.0023212292346637699 -0.0001349829969394757 6.9050848831690671e-05 -0.0010511806039114632 4.7595756745038907e-05 0.0022505054363247119 -0.0086581734480358757 -0.0085728624791261698 0.018799191200410698 0.054528401353779968 0.056256324086676947 0.012470839029113048 0.026076384086627515
leaf_weight=15759 875 250 2782 1597 326 315 33 83 42 134 17 10.999999999999998 43 32
leaf_count=15759 875 250 2782 1597 326 315 33 83 42 134 17 11 43 32
internal_value=0 -0.000176065 -0.00130842 0.0012603 0.00273963 0.00402692 0.00597032 0.010375 0.00370593 0.0122672 0.0219909 0.0283155 0.0249747 0.0359475
internal_weight=0 6540 3657 2883 1286 960 645 219 426 176 136 103 92 49
internal_count=22299 6540 3657 2883 1286 960 645 219 426 176 136 103 92 49
shrinkage=0.1


Tree=135
num_leaves=15
num_cat=0
split_feature=31 0 3 30 3 23 19 19 9 28 5 10 38 4
split_gain=0.0263286 0.398292 0.421398 0.605366 0.56514 0.273763 0.349433 0.581448 0.218821 0.390121 0.336295 0.21453 0.329193 0.329082
threshold=-0.55108449999999987 4.6053300000000013 -8.544439999999998 0.0028916150000000006 -10.143599999999998 -7.9975599999999991 2.6393800000000007e-07 1.8396200000000002e-05 2.6990300000000001e-05 0.01015915 1.9404950000000001e-05 3.7418900000000009e-05 0.11020600000000001 0.61727300000000007
decision_type=2 2 2 2 2 2 2 2 2 2 2 2 2 2
left_child=1 -1 3 4 -3 -4 -7 -8 -9 10 -10 12 13 -5
right_child=-2 2 5 11 -6 6 7 8 9 -11 -12 -13 -14 -15
leaf_value=-0.00059834917166782793 -3.2586497176893841e-05 0.035483784597510323 -0.00076650989545517709 -0.00088539958086484053 0.0038631615694612268 -0.0053431377369200905 0.030427973577752711 -0.0050717643493165578 0.031474661566317071 -0.0028265532323469723 0.0055403276765719064 0.0010486582951786147 0.019720749397713105 0.016744103859576472
leaf_weight=1290 20459 13.000000000000002 288 36 9.9999999999999982 21 10.999999999999998 14.999999999999998 10.000000000000002 14.999999999999998 9.9999999999999982 87 19 14.999999999999998
leaf_count=1290 20459 13 288 36 10 21 11 15 10 15 10 87 19 15
internal_value=0 0.00036233 0.00261556 0.00658409 0.0217357 0.000684925 0.00578265 0.00961283 0.0050335 0.00936433 0.0185075 0.00436442 0.00848545 0.00429975
internal_weight=0 1840 550 180 23 370 82 61 50 35 20 157 70 51
internal_count=22299 1840 550 180 23 370 82 61 50 35 20 157 70 51
shrinkage=0.1


Tree=136
num_leaves=15
num_cat=0
split_feature=9 20 31 11 20 11 0 20 14 3 22 25 15 3
split_gain=0.0260307 1.88159 1.1541 0.819 0.703165 1.048 0.701379 1.84142 1.06941 1.64781 0.956148 0.698212 0.687215 0.681374
threshold=-1.1274199999999998e-05 -1.4168599999999996 0.0088296250000000024 -3.3537399999999996e-06 -0.15907199999999996 -6.9804499999999994e-06 -0.35440449999999996 -3.0532049999999997 0.0097366450000000004 -7.8249449999999987 1.9113650000000002 0.40844150000000007 -1.1609499999999998e-07 -6.1782649999999988
decision_type=2 2 2 2 2 2 2 2 2 2 2 2 2 2
left_child=1 -1 3 4 5 -2 7 -4 9 10 11 -9 -13 -8
right_child=2 -3 6 -5 -6 -7 13 8 -10 -11 -12 12 -14 -15
leaf_value=0.0017258753299978615 -0.00061126370966466592 -0.0012201491865024257 -0.0013529696632445772 0.0011257184848130926 -0.0028721765819229705 0.023881359715946019 -0.0022086902465540416 0.042672958209586803 -0.0018492273260536437 0.0025286830963436625 0.0015447398132604768 0.0089293662476568267 0.030816992714244408 0.00054335968940297317
leaf_weight=4014 58 4714 651 6633 860 25 3927 20 69 84 19 26 32 1167
leaf_count=4014 58 4714 651 6633 860 25 3927 20 69 84 19 26 32 1167
internal_value=0 0.000134725 -8.66466e-05 0.000733685 -0.00202385 0.00676603 -0.00112332 0.00144855 0.00874372 0.0127819 0.021661 0.0265611 0.0210053 -0.00157821
internal_weight=0 8728 13571 7576 943 83 5995 901 250 181 97 78 58 5094
internal_count=22299 8728 13571 7576 943 83 5995 901 250 181 97 78 58 5094
shrinkage=0.1


Tree=137
num_leaves=15
num_cat=0
split_feature=4 24 4 24 4 20 21 29 9 23 3 14 3 14
split_gain=0.0281959 0.129625 0.545811 0.0826081 0.0665683 0.341619 0.0840521 0.0598167 0.0996123 0.0526573 1.17831 1.06199 0.681475 0.789231
threshold=-1.2804649999999997 -1.7384499999999996 -2.5874299999999995 -0.17527699999999999 -1.4166899999999998 3.5557050000000001 -0.8621939999999999 1.4102300000000001 -4.6939049999999996e-05 -7.7487749999999993 -7.7975399999999988 0.00073300000000000004 -7.7346249999999985 0.00080265400000000008
decision_type=2 2 2 2 2 2 2 2 2 2 2 2 2 2
left_child=1 2 -1 4 -3 6 -6 9 -9 12 11 -11 13 -2
right_child=7 3 -4 -5 5 -7 -8 8 -10 10 -12 -13 -14 -15
leaf_value=-0.0025824902381864378 0.0021001741839290758 -0.000689308475154351 0.022679711720691279 0.00048797127212732829 -0.010093010254204275 0.01826141717928377 0.0023205092283509043 0.011922942397650332 0.0013441849423767886 -0.0047278804644047085 0.0012054615175559583 -0.0004793382163493507 -0.00079132864453757695 -7.1096118529698208e-05
leaf_weight=25 2545 1044 12.999999999999998 2670 9.9999999999999982 10.999999999999998 12.000000000000002 9.9999999999999982 81 838 2609 1975 5564 4892
leaf_count=25 2545 1044 13 2670 10 11 12 10 81 838 2609 1975 5564 4892
internal_value=0 0.000248695 0.00605984 0.000189762 -0.000549532 0.00387247 -0.003322 -5.08432e-05 0.00250669 -6.3476e-05 -0.000325269 -0.00174499 4.57033e-05 0.00067193
internal_weight=0 3785 38 3747 1077 33 22 18514 91 18423 5422 2813 13001 7437
internal_count=22299 3785 38 3747 1077 33 22 18514 91 18423 5422 2813 13001 7437
shrinkage=0.1


Tree=138
num_leaves=15
num_cat=0
split_feature=19 22 2 11 23 3 33 4 29 0 9 23 3 3
split_gain=0.0265472 0.406719 2.1829 1.37211 0.866988 0.893319 1.02813 0.956576 0.850417 0.912654 0.71541 0.597974 3.54555 1.92369
threshold=0.00037365450000000007 2.0238800000000006 2.0105200000000005 -9.474599999999999e-05 -16.786249999999999 -6.283129999999999 3.2882800000000002e-06 0.5596285000000002 0.13038900000000003 -8.9725449999999984 -4.3078649999999995e-05 -9.2863099999999985 -9.3781449999999982 -9.2069399999999977
decision_type=2 2 2 2 2 2 2 2 2 2 2 2 2 2
left_child=-1 -2 -3 -4 -5 6 10 8 9 -8 -6 13 -13 -11
right_child=1 2 3 4 5 -7 7 -9 -10 11 -12 12 -14 -15
leaf_value=-9.8100632214965505e-05 -0.00016654217030486978 -0.00094356225416784639 0.0006300639985139918 -0.0047349472624773625 0.021076324179635519 0.00057997416154773648 -0.0050050126769664617 -0.0042470307692008859 -0.0013883034116588533 0.02689853961644478 -0.005782982348190511 -0.014874756133014505 0.050440146774053576 -0.0090514271623558466
leaf_weight=12331 8285 1141 218 32 13.999999999999998 51 10.999999999999998 17 15.999999999999998 86 34 10.999999999999998 34 18
leaf_count=12331 8285 1141 218 32 14 51 11 17 16 86 34 11 34 18
internal_value=0 0.000121356 0.00153861 0.006764 0.0108911 0.0126036 0.015148 0.0184053 0.0205933 0.0227915 0.00205098 0.0248436 0.0344743 0.0206764
internal_weight=0 9968 1683 542 324 292 241 193 176 160 48 149 45 104
internal_count=22299 9968 1683 542 324 292 241 193 176 160 48 149 45 104
shrinkage=0.1


Tree=139
num_leaves=15
num_cat=0
split_feature=4 24 4 24 4 20 32 25 4 4 24 3 23 6
split_gain=0.0279611 0.104989 0.441944 0.0676708 0.0588129 0.311108 0.0690821 0.052028 0.320644 0.297707 0.723526 0.610056 1.26507 0.563846
threshold=-1.2804649999999997 -1.7384499999999996 -2.5874299999999995 -0.19028649999999997 -1.4166899999999998 3.5557050000000001 0.042014900000000001 0.20469900000000002 -0.15044249999999995 0.04625255000000001 -0.067441899999999985 -8.1239699999999981 -8.0189849999999989 3.7417150000000003e-06
decision_type=2 2 2 2 2 2 2 2 2 2 2 2 2 2
left_child=1 2 -1 4 -3 6 -6 8 -2 10 11 12 13 -10
right_child=7 3 -4 -5 5 -7 -8 -9 9 -11 -12 -13 -14 -15
leaf_value=-0.0022991624241985847 -0.0023916675401526063 -0.00067217863943525729 0.020432641758368567 0.00044473461214471194 0.0021556178748141966 0.018312748116441072 -0.0090982932597398758 2.7945825860966938e-05 0.012855848726659215 -0.00064864277342134547 -0.001266954137319294 0.0016341026532833748 -0.0044994708968063247 0.036697270065038042
leaf_weight=25 655 932 12.999999999999998 2783 12.000000000000002 9.9999999999999982 9.9999999999999982 15179 101 1819 434 269 46 10.999999999999998
leaf_count=25 655 932 13 2783 12 10 10 15179 101 1819 434 269 46 11
internal_value=0 0.000247657 0.00547751 0.000194619 -0.000527447 0.00368787 -0.0029598 -5.0631e-05 -0.000408268 7.64811e-05 0.00160842 0.00453093 0.00946288 0.0151974
internal_weight=0 3785 38 3747 964 32 22 18514 3335 2680 861 427 158 112
internal_count=22299 3785 38 3747 964 32 22 18514 3335 2680 861 427 158 112
shrinkage=0.1


Tree=140
num_leaves=15
num_cat=0
split_feature=7 20 0 3 11 23 3 29 34 18 23 3 23 20
split_gain=0.0279019 0.08673 0.350697 0.474692 0.597603 0.773239 1.02648 0.859678 0.330797 0.272629 0.262659 0.196604 0.114006 0.103761
threshold=5.1723650000000004e-05 -6.4030799999999992 -6.3288699999999993 -6.3643949999999991 -6.0760099999999994e-05 -8.0906399999999987 -7.9089249999999991 0.0043060250000000007 0.051869950000000005 8.407935000000001e-07 -6.2653649999999992 -10.433649999999998 -11.482499999999998 6.8218850000000009
decision_type=2 2 2 2 2 2 2 2 2 2 2 2 2 2
left_child=-1 2 3 4 11 6 8 -7 -6 -9 -5 -2 -8 -3
right_child=1 13 -4 10 5 7 12 9 -10 -11 -12 -13 -14 -15
leaf_value=-8.1923750062511499e-05 0.012569090519816832 -0.00022976586446675718 -8.4837118834568285e-05 -0.00084317453116343098 0.032257797010242929 0.0061435159502757925 0.0006278838666800697 0.044061440442289615 0.0087774136181299877 0.022442820742726327 0.01504811613651162 -0.00070193452205025608 -0.011401238674297929 0.00073583544406445643
leaf_weight=14514 12.999999999999998 4864 1085 191 12.000000000000002 18 12.999999999999998 14.000000000000002 11.999999999999998 9.9999999999999982 10.999999999999998 79 20 1443
leaf_count=14514 13 4864 1085 191 12 18 13 14 12 10 11 79 20 1443
internal_value=0 0.000152735 0.000842227 0.00340168 0.0069758 0.012368 0.00478176 0.0226636 0.0205176 0.0350537 2.21928e-05 0.00117332 -0.00666249 -8.84265e-06
internal_weight=0 7785 1478 393 191 99 57 42 24 24 202 92 33 6307
internal_count=22299 7785 1478 393 191 99 57 42 24 24 202 92 33 6307
shrinkage=0.1


Tree=141
num_leaves=15
num_cat=0
split_feature=16 36 32 16 39 16 36 38 23 3 16 3 23 16
split_gain=0.028309 0.065084 0.0954352 0.258651 0.0495234 0.0745069 0.263435 0.0668876 0.0463486 0.901734 0.612774 0.514407 0.594951 0.555279
threshold=1.5605150000000004e-05 -0.8573869999999999 -7.1243949999999989 9.4162000000000011e-05 1.5428500000000003e-05 1.6821300000000004e-05 0.0082214700000000016 0.001014205 -7.7487749999999993 -7.7975399999999988 -2.5981949999999996e-06 -6.3282549999999995 -6.3955149999999987 -3.7555499999999996e-06
decision_type=2 2 2 2 2 2 2 2 2 2 2 2 2 2
left_child=8 -2 3 -3 7 6 -6 -4 -1 10 -10 12 13 -11
right_child=1 2 4 -5 5 -7 -8 -9 9 11 -12 -13 -14 -15
leaf_value=5.0607468129031089e-05 -0.0031087758512799873 0.018864820441231125 0.00057438149786726326 -0.0021922892641409171 -0.0013391028672880825 -0.00018562813052991096 0.015886654321534129 0.0075128083167198519 0.00032692257129324285 -0.0010263301017974548 -0.0027162335943666065 -0.00019650680485424886 -0.0019508368996334045 0.0050360458776133234
leaf_weight=13005 57 10.000000000000002 1833 13.999999999999998 28 1913 12.999999999999998 13.999999999999998 1075 191 1721 1475 227 723
leaf_count=13005 57 10 1833 14 28 1913 13 14 1075 191 1721 1475 227 723
internal_value=0 0.000245415 0.000295399 0.00658151 0.000255708 -9.52277e-05 0.00412272 0.000626974 -5.17295e-05 -0.000297644 -0.00154621 0.00103683 0.00263119 0.00376918
internal_weight=0 3882 3825 24 3801 1954 41 1847 18417 5412 2796 2616 1141 914
internal_count=22299 3882 3825 24 3801 1954 41 1847 18417 5412 2796 2616 1141 914
shrinkage=0.1


Tree=142
num_leaves=15
num_cat=0
split_feature=23 3 3 16 14 2 20 35 18 15 16 3 36 36
split_gain=0.0379849 0.247465 0.798436 0.429927 0.382889 0.246209 0.246754 0.360369 0.766826 0.466046 0.109823 0.375879 0.501138 0.950327
threshold=-6.4198449999999996 -6.3788349999999996 -6.0971649999999995 -5.0789149999999981e-07 0.00039250700000000006 -1.3728549999999997 -2.0701799999999997 6.4614200000000016e-05 2.1880150000000004e-07 -7.0271249999999975e-08 -1.3909199999999998e-08 -5.8561999999999985 0.0021016050000000007 0.0001908345
decision_type=2 2 2 2 2 2 2 2 2 2 2 2 2 2
left_child=-1 4 3 -3 -2 -5 -7 9 -9 -8 -4 12 13 -12
right_child=1 2 10 5 -6 6 7 8 -10 -11 11 -13 -14 -15
leaf_value=-3.6127673989852761e-05 -0.0035036726931517272 -0.0041980351485750257 -0.0019776059756719073 0.024400948849506679 0.00073916727233682659 0.0009398768263819972 0.023459403826431788 0.0051105314493179307 0.044272395372390749 -0.0026670579488078756 0.0040275872537964266 -0.00081839280823400124 -0.0079071498306637466 0.042112999260425568
leaf_weight=20712 279 17 142 15.999999999999998 895 19 11.000000000000002 10.000000000000002 9.9999999999999982 18 19.000000000000004 130 10.999999999999998 9.9999999999999982
leaf_count=20712 279 17 142 16 895 19 11 10 10 18 19 130 11 10
internal_value=0 0.000471504 0.00257687 0.0103048 -0.00026914 0.0132399 0.0106137 0.0143648 0.0246915 0.00724298 7.52064e-05 0.00178991 0.0102669 0.0171605
internal_weight=0 1587 413 101 1174 84 68 49 20 29 312 170 40 29
internal_count=22299 1587 413 101 1174 84 68 49 20 29 312 170 40 29
shrinkage=0.1


Tree=143
num_leaves=15
num_cat=0
split_feature=23 3 3 12 29 14 17 2 20 33 36 23 16 3
split_gain=0.0307874 0.162453 0.676411 0.348048 0.383854 0.322582 0.320192 0.299145 0.947161 0.348395 0.235409 0.153934 0.091533 0.250477
threshold=-6.4482599999999985 -6.3788349999999996 -6.0971649999999995 -5.5952699999999997e-05 0.0075160400000000007 0.00039250700000000006 8.0353450000000009e-08 1.4392700000000003 3.1591850000000004 -1.117395e-06 -0.00016191799999999996 -6.1690649999999989 -1.7367749999999997e-08 -5.8561999999999985
decision_type=2 2 2 2 2 2 2 2 2 2 2 2 2 2
left_child=-1 5 3 -3 6 -2 10 9 -9 -8 -5 -12 -4 -14
right_child=1 2 12 4 -6 -7 7 8 -10 -11 11 -13 13 -15
leaf_value=-3.4119629362061364e-05 -0.0030142470055806534 -0.0039642744801110692 -0.001926241982016206 0.014143159836530687 0.02973495490849018 0.00071568390840964942 0.032806125283241262 0.02791213084012269 -0.013758736693610749 0.010766542260535063 0.0029400660736987796 -0.013562803217209872 0.0078445430216379473 -0.0006887710882188938
leaf_weight=20565 305 18 159 9.9999999999999982 9.9999999999999982 967 13.000000000000002 10.000000000000002 11.999999999999998 15.999999999999998 12.999999999999998 10.000000000000002 45 146
leaf_count=20565 305 18 159 10 10 967 13 10 12 16 13 10 45 146
internal_value=0 0.000404654 0.00201071 0.0087748 0.0112142 -0.000178678 0.00900935 0.0139757 0.00518257 0.0206464 0.00133407 -0.00423509 -0.000153796 0.0013217
internal_weight=0 1734 462 112 94 1272 84 51 22 29 33 23 350 191
internal_count=22299 1734 462 112 94 1272 84 51 22 29 33 23 350 191
shrinkage=0.1


Tree=144
num_leaves=15
num_cat=0
split_feature=3 14 23 3 3 23 34 0 20 23 34 3 34 23
split_gain=0.0286504 0.0701322 0.382553 0.510993 0.693106 4.19679 1.55118 1.80499 1.18528 0.90745 0.488645 0.681558 2.50179 0.757636
threshold=-5.7169999999999996 0.00022625800000000001 -8.3362899999999982 -8.3380249999999982 -7.7346249999999985 -7.7487749999999993 0.020958400000000005 -5.0118949999999991 7.0773050000000008 -7.7877949999999991 0.51382200000000011 -8.403439999999998 0.014710350000000002 -10.609499999999999
decision_type=2 2 2 2 2 2 2 2 2 2 2 2 2 2
left_child=1 2 10 -4 5 6 7 -5 -9 -6 11 12 -1 -13
right_child=-2 -3 3 4 9 -7 -8 8 -10 -11 -12 13 -14 -15
leaf_value=0.029745100318424162 0.0002766164595443373 5.6370418100152919e-05 -0.0049484088353347038 0.010033834976558057 -0.0052437150941438198 -0.0043936721355842976 -0.0010759868969519935 0.031014526613494933 0.06893576383590698 0.0016196440616751278 0.0012194344074860474 -0.00090643300195444041 -0.0017564487435016351 -0.0052001385665236292
leaf_weight=31 3206 14826 145 18 230 116 14.999999999999998 17 15.999999999999998 1186 631 1053 135 674
leaf_count=31 3206 14826 145 18 230 116 15 17 16 1186 631 1053 135 674
internal_value=0 -4.6448e-05 -0.000403698 0.000735712 0.00125148 0.00706056 0.0271922 0.0355064 0.0494006 0.000504833 -0.00119054 -0.00199387 0.00412637 -0.00258215
internal_weight=0 19093 4267 1743 1598 182 66 51 33 1416 2524 1893 166 1727
internal_count=22299 19093 4267 1743 1598 182 66 51 33 1416 2524 1893 166 1727
shrinkage=0.1


Tree=145
num_leaves=15
num_cat=0
split_feature=19 25 33 14 33 6 30 13 20 34 14 31 0 21
split_gain=0.0260463 0.189435 0.39916 0.424296 0.565375 0.712062 1.06846 0.59451 0.566108 0.367494 0.366717 0.642271 0.694402 0.483343
threshold=1.4477050000000002e-08 0.40844150000000007 -2.0239149999999996e-07 0.00032625600000000008 -6.9049749999999999e-06 -2.8097599999999995e-06 0.00031191950000000003 2.4137250000000003e-05 4.1092800000000009 0.013799250000000002 8.1463600000000017e-05 0.035619050000000006 -7.730249999999999 10.826150000000002
decision_type=2 2 2 2 2 2 2 2 2 2 2 2 2 2
left_child=1 2 3 9 5 6 -5 -6 -7 10 -1 12 -12 -14
right_child=-2 -3 -4 4 7 8 -8 -9 -10 -11 11 -13 13 -15
leaf_value=0.00034733580579802688 4.0644613663664628e-05 -0.0010449600334573974 -0.0014570941508493171 0.048582378045345334 0.017458211397752166 0.012892225064227686 0.0043236176762729882 -0.004688353887293488 -0.013206552180715585 -0.001666849297301572 -0.010018291485418256 0.031622154042124755 0.0059318758244893853 0.024843411007896068
leaf_weight=179 19536 1504 534 12.000000000000002 15.999999999999998 34 9.9999999999999982 50 10.999999999999998 276 24 9.9999999999999982 87 15.999999999999998
leaf_count=179 19536 1504 534 12 16 34 10 50 11 276 24 10 87 16
internal_value=0 -0.000287381 0.000617622 0.00214576 0.00724964 0.0137207 0.0284648 0.00068051 0.00651252 0.00099911 0.00332761 0.00722154 0.00530023 0.00886959
internal_weight=0 2763 1259 725 133 67 22 66 45 592 316 137 127 103
internal_count=22299 2763 1259 725 133 67 22 66 45 592 316 137 127 103
shrinkage=0.1


Tree=146
num_leaves=15
num_cat=0
split_feature=3 14 23 3 30 3 23 23 35 15 23 3 34 22
split_gain=0.0295619 0.072149 0.715513 1.13677 0.675081 0.603531 1.79594 0.842884 0.670368 0.949683 0.568019 0.788278 0.879907 0.686563
threshold=-5.8792649999999993 0.00013390200000000003 -6.9441449999999989 -6.9915399999999996 0.00074811500000000004 -6.3643949999999991 -6.3181949999999993 -6.4589649999999992 0.00084191000000000008 -5.4020449999999995e-08 -10.543449999999998 -6.9557349999999998 0.0070577850000000013 2.8207600000000004
decision_type=2 2 2 2 2 2 2 2 2 2 2 2 2 2
left_child=1 2 10 -4 5 6 8 -7 9 -5 -1 12 -12 -14
right_child=-2 -3 3 4 -6 7 -8 -9 -10 -11 11 -13 13 -15
leaf_value=0.00037743137546245931 0.00025793813893986415 2.3435696287175427e-05 -0.0062203595671980159 0.037171829404199823 -0.0042826272288321301 -0.0064248909639869015 -0.0078334894889433484 0.0088737845969827558 0.041513472660021353 0.011330074162340199 0.010794606995801183 -0.0049938008737373503 -0.0033668453163776344 0.018108357093296945
leaf_weight=898 3705 16249 105 17 58 58 35 95 10.999999999999998 87 72 679 214 15.999999999999998
leaf_count=898 3705 16249 105 17 58 58 35 95 11 87 72 679 214 16
internal_value=0 -5.13962e-05 -0.000569922 0.00293766 0.00560135 0.00749333 0.0120008 0.00307429 0.0180373 0.0155542 -0.00143982 -0.00310331 0.00114715 -0.00187292
internal_weight=0 18594 2345 466 361 303 150 153 115 104 1879 981 302 230
internal_count=22299 18594 2345 466 361 303 150 153 115 104 1879 981 302 230
shrinkage=0.1


Tree=147
num_leaves=15
num_cat=0
split_feature=39 14 18 4 26 3 24 13 22 33 8 22 32 33
split_gain=0.0335304 0.169513 0.243361 0.366789 1.45324 0.905543 0.815539 0.481152 0.91234 0.889712 0.635199 2.26323 1.21108 0.544282
threshold=3.0491600000000006e-06 0.0020371300000000003 -1.7750149999999999e-06 0.04625255000000001 4.5711200000000004e-05 -6.1233399999999989 -0.065661549999999985 1.4147250000000001e-05 -1.9494249999999997 -2.6233999999999997e-06 1.0034300000000001e-05 -0.71469499999999997 0.010963300000000002 3.6715000000000008e-06
decision_type=2 2 2 2 2 2 2 2 2 2 2 2 2 2
left_child=1 2 -1 4 -4 7 -5 9 -9 -6 12 -12 13 -11
right_child=-2 -3 3 6 5 -7 -8 8 -10 10 11 -13 -14 -15
leaf_value=-0.0019963977777136335 6.7283573609565214e-05 0.00051159324426936327 -0.0024067416431262246 -0.0036837858348571562 -0.0022336441594234201 0.00046536371677273881 0.0013026865287589099 0.029163241283580041 -0.00050707911370983844 0.022645044186520542 0.052068074792623521 -0.0015411156163151777 -0.0061256766704340972 -0.0014918347016315569
leaf_weight=967 17139 1951 480 652 32 199 660 11.999999999999998 76 62 18 13.999999999999998 26 10.999999999999998
leaf_count=967 17139 1951 480 652 32 199 660 12 76 62 18 14 26 11
internal_value=0 -0.000223483 -0.000670393 -9.84723e-05 0.00142073 0.00550337 -0.00117535 0.00949765 0.00353887 0.0127147 0.0163661 0.0286141 0.0124072 0.019008
internal_weight=0 5160 3209 2242 930 450 1312 251 88 163 131 32 99 73
internal_count=22299 5160 3209 2242 930 450 1312 251 88 163 131 32 99 73
shrinkage=0.1


Tree=148
num_leaves=15
num_cat=0
split_feature=39 14 4 4 32 12 14 7 13 12 4 21 37 4
split_gain=0.0271597 0.143394 0.253686 0.321545 0.173987 1.9361 0.884853 0.898301 0.957872 0.492701 0.479189 0.431411 0.36332 0.390649
threshold=3.0491600000000006e-06 0.0015115800000000002 -0.13878449999999998 0.13641700000000004 0.0196378 -3.6485899999999996e-05 0.00010334950000000002 3.247790000000001e-05 2.8108550000000004e-05 -2.7935449999999997e-05 -0.014310149999999999 -8.9359849999999987 -6.8187999999999997e-09 -0.021694649999999996
decision_type=2 2 2 2 2 2 2 2 2 2 2 2 2 2
left_child=1 2 -1 4 9 6 -6 12 10 11 -9 -4 -8 -14
right_child=-2 -3 3 -5 5 -7 7 8 -10 -11 -12 -13 13 -15
leaf_value=-0.0023388567980740858 6.0555211985929928e-05 0.00042037319604149845 0.0092660300509513557 -0.0020306087949354202 0.00074725661728404123 -0.0030106158368238415 0.017539434810675197 0.027086392926139527 0.0040164759213274183 0.0014077085527017014 0.052934031073863679 -0.0035748347958538479 0.013377058095383369 -0.012712730762238304
leaf_weight=685 17139 2159 28 652 44 228 23 15.999999999999998 10.999999999999998 879 13.000000000000002 399 11.000000000000002 11.999999999999998
leaf_count=685 17139 2159 28 652 44 228 23 16 11 879 13 399 11 12
internal_value=0 -0.000201135 -0.000648264 -0.00014824 0.000589322 0.00254237 0.0122814 0.0181826 0.0291426 5.39553e-05 0.0386733 -0.00273281 0.00865221 -0.000235006
internal_weight=0 5160 3001 2316 1664 358 130 86 40 1306 29 427 46 23
internal_count=22299 5160 3001 2316 1664 358 130 86 40 1306 29 427 46 23
shrinkage=0.1


Tree=149
num_leaves=15
num_cat=0
split_feature=3 14 23 3 3 23 17 33 15 23 3 20 0 20
split_gain=0.0357534 0.10274 0.496369 0.908532 0.503807 1.42204 0.611907 0.850172 0.560899 0.466591 0.797265 0.948799 2.2018 1.02919
threshold=-6.0725999999999987 0.00013390200000000003 -6.9441449999999989 -6.9915399999999996 -6.3643949999999991 -6.4589649999999992 1.4911750000000001e-07 1.0000000180025095e-35 1.0980250000000002e-07 -10.609499999999999 -6.9557349999999998 -8.2413599999999985 -7.938254999999999 8.1961600000000008
decision_type=2 2 2 2 2 2 2 2 2 2 2 2 2 2
left_child=1 2 9 -4 5 6 -5 -8 -9 -1 11 12 -11 -13
right_child=-2 -3 3 4 -6 -7 7 8 -10 10 -12 13 -14 -15
leaf_value=0.00025219605356062951 0.000256370390689821 2.2773571183218836e-05 -0.0056427963403066746 0.0099110204038711704 0.00027512788856402039 -0.0021918177178882267 0.0043784543298757998 0.045873133341471348 0.016334866657853126 0.035261977898577851 -0.0054687962555449278 -0.0050818580605084844 -0.0075729389810779441 0.0097277733835301576
leaf_weight=771 4373 15906 105 65 125 73 12.999999999999998 18.000000000000004 9.9999999999999982 24 537 193 24 62
leaf_count=771 4373 15906 105 65 125 73 13 18 10 24 537 193 24 62
internal_value=0 -6.25409e-05 -0.000734329 0.00237676 0.00514668 0.0085486 0.0159453 0.0255118 0.0353238 -0.00152417 -0.00315462 0.000946734 0.0138445 -0.00148108
internal_weight=0 17926 2020 409 304 179 106 41 28 1611 840 303 48 255
internal_count=22299 17926 2020 409 304 179 106 41 28 1611 840 303 48 255
shrinkage=0.1


Tree=150
num_leaves=15
num_cat=0
split_feature=3 14 23 3 23 3 33 29 5 23 34 22 3 34
split_gain=0.0295481 0.0916574 0.411884 0.785908 0.554376 0.703208 0.686328 0.641052 0.580909 0.376745 0.368092 0.650811 0.347835 0.746416
threshold=-6.1233399999999989 0.00013390200000000003 -6.9441449999999989 -6.9004699999999994 -6.287234999999999 -6.3643949999999991 -4.6164299999999991e-06 -0.0073708399999999992 1.7175900000000003e-05 -6.4589649999999992 0.090146350000000014 3.0243650000000004 -6.9557349999999998 0.0070577850000000013
decision_type=2 2 2 2 2 2 2 2 2 2 2 2 2 2
left_child=1 2 10 -4 5 6 -5 -8 -9 -7 11 12 13 -1
right_child=-2 -3 3 4 -6 9 7 8 -10 -11 -12 -13 -14 -15
leaf_value=0.0086230213833706718 0.00022773192043305126 2.0322952022269069e-05 -0.0045333055399031531 -0.0085101148068913203 -0.0024485330099064482 -0.0066443645986370183 0.035852520124843489 0.0091718084406280931 0.031137290809835707 0.0084059942642162582 0.00042167757805134021 0.018638429097232543 -0.0046568531931825419 -0.0029781201947668475
leaf_weight=70 4538 15866 119 13.999999999999998 69 39 12.999999999999998 86 13.999999999999998 29 617 13.999999999999998 544 267
leaf_count=70 4538 15866 119 14 69 39 13 86 14 29 617 14 544 267
internal_value=0 -5.81863e-05 -0.00071551 0.00221376 0.00525505 0.00798094 0.0123751 0.0149627 0.012247 -0.000225829 -0.00145751 -0.002753 -0.00309293 -0.000568388
internal_weight=0 17761 1895 383 264 195 127 113 100 68 1512 895 881 337
internal_count=22299 17761 1895 383 264 195 127 113 100 68 1512 895 881 337
shrinkage=0.1


Tree=151
num_leaves=15
num_cat=0
split_feature=23 3 14 3 32 12 14 1 22 0 11 12 23 14
split_gain=0.0323026 0.401813 0.789829 0.325608 0.44212 2.25321 1.08068 1.18285 0.811913 1.38304 0.882651 0.499479 0.565644 0.612484
threshold=-7.6100699999999994 -7.551264999999999 0.00059420900000000017 -6.3643949999999991 0.032115250000000005 -1.4277499999999998e-05 0.00037720150000000008 -10.412999999999998 -1.9348399999999997 5.6415500000000014 -1.1054999999999998e-05 -1.9598749999999999e-05 -6.4589649999999992 0.00017761400000000004
decision_type=2 2 2 2 2 2 2 2 2 2 2 2 2 2
left_child=-1 2 -2 4 11 6 7 -6 10 -10 -9 -3 13 -13
right_child=1 3 -4 -5 5 -7 -8 8 9 -11 -12 12 -14 -15
leaf_value=7.3083171508019854e-05 -0.003763930836680811 -0.0019832270553604959 -0.00010629337270403932 -0.00018083834766069711 0.045256921320277102 -0.004088578878586528 0.0032389559259457866 0.04522194032867749 -0.010052958173169332 0.026778735514534149 0.0068672047089785339 0.0096108150500604228 -0.0029471595552292588 0.0008874708340531099
leaf_weight=16292 750 331 2774 1462 17 122 51 15.000000000000002 22 19 9.9999999999999982 163 112 159
leaf_count=16292 750 331 2774 1462 17 122 51 15 22 19 10 163 112 159
internal_value=0 -0.000198214 -0.000884735 0.000776132 0.00214645 0.00574367 0.0146954 0.0217349 0.0156762 0.00701539 0.02988 0.000942668 0.00317417 0.00530333
internal_weight=0 6007 3524 2483 1021 256 134 83 66 41 25 765 434 322
internal_count=22299 6007 3524 2483 1021 256 134 83 66 41 25 765 434 322
shrinkage=0.1


Tree=152
num_leaves=15
num_cat=0
split_feature=23 3 3 19 26 33 33 16 14 29 18 3 24 4
split_gain=0.0287473 0.0898693 0.370949 0.311679 1.0111 0.487696 0.283774 0.244852 0.175821 0.161752 0.0818321 0.28105 0.441258 0.506125
threshold=-6.4198449999999996 -6.3788349999999996 -6.0971649999999995 1.7628450000000002e-05 -4.9513499999999993e-05 1.0000000180025095e-35 8.7255100000000015e-07 -2.6095649999999993e-07 0.00039250700000000006 -0.0014008249999999999 -4.1671799999999993e-08 -5.8392349999999995 0.079132650000000013 -0.17493999999999996
decision_type=2 2 2 2 2 2 2 2 2 2 2 2 2 2
left_child=-1 8 3 4 -3 9 -5 -8 -2 -6 11 12 13 -4
right_child=1 2 10 6 5 -7 7 -9 -10 -11 -12 -13 -14 -15
leaf_value=-3.1429198444304385e-05 -0.0022279987492723561 0.034193069338798524 -0.0031836577807553114 -0.008440865514996022 0.0056145437061786655 -0.0097647267393767834 -0.0051533727487549173 0.014362800576620633 0.00064712106574971997 0.022531300187110893 -0.0017531072524135411 -0.00097847034007603824 -0.0063152322803424407 0.024369701435789464
leaf_weight=20712 279 14.999999999999998 9.9999999999999982 19 12.999999999999998 15.999999999999998 10.000000000000002 18 895 10.000000000000002 146 122 13.999999999999998 20.000000000000004
leaf_count=20712 279 15 10 19 13 16 10 18 895 10 146 122 14 20
internal_value=0 0.000410184 0.00167893 0.00694636 0.0121289 0.00364273 0.00099192 0.00739274 -3.61485e-05 0.0129697 -2.62271e-05 0.0014926 0.00834419 0.0151852
internal_weight=0 1587 413 101 54 39 47 28 1174 23 312 166 44 30
internal_count=22299 1587 413 101 54 39 47 28 1174 23 312 166 44 30
shrinkage=0.1


Tree=153
num_leaves=15
num_cat=0
split_feature=23 3 14 3 28 12 4 1 21 23 13 22 33 2
split_gain=0.0287253 0.321227 0.62539 0.27685 0.34058 1.73255 0.870451 0.73796 1.00525 0.793618 0.425578 1.32325 0.504862 0.410596
threshold=-7.6100699999999994 -7.551264999999999 0.00073300000000000004 -6.3643949999999991 -0.0046461499999999991 -1.4277499999999998e-05 0.9753535000000001 -10.689749999999998 -11.00015 -6.332984999999999 1.6332650000000004e-05 -1.9348399999999997 4.3506400000000006e-06 0.7691650000000001
decision_type=2 2 2 2 2 2 2 2 2 2 2 2 2 2
left_child=-1 2 -2 4 5 6 7 -3 -9 10 12 -12 -10 -6
right_child=1 3 -4 -5 13 -7 -8 8 9 -11 11 -13 -14 -15
leaf_value=6.8917779416998638e-05 -0.0031168846407701877 0.036562266945838931 -3.4530748904897572e-05 -0.0001981545011843302 -0.00078979288901717302 -0.0034930297683830923 -0.0013646487996084034 -0.0046484791133314671 0.022799182276834137 0.0018252153360449217 0.039689052563447208 -0.0074367866957221517 0.053844744265079507 0.0040774126446565381
leaf_weight=16292 876 17 2648 1462 501 122 32 22 11.000000000000002 17 13.000000000000002 10.999999999999998 9.9999999999999982 265
leaf_count=16292 876 17 2648 1462 501 122 32 22 11 17 13 11 10 265
internal_value=0 -0.000186917 -0.000800746 0.000684261 0.00194782 0.00511331 0.0130078 0.0175615 0.0137161 0.0202326 0.0271865 0.0180897 0.0375828 0.000894031
internal_weight=0 6007 3524 2483 1021 255 133 101 84 62 45 24 21 766
internal_count=22299 6007 3524 2483 1021 255 133 101 84 62 45 24 21 766
shrinkage=0.1


Tree=154
num_leaves=15
num_cat=0
split_feature=23 3 3 25 16 14 30 14 26 36 14 25 25 16
split_gain=0.0287504 0.0678959 0.293515 0.263026 0.679957 0.411577 0.387523 0.34484 0.220235 0.183162 0.134379 0.0965626 0.0766356 0.0689015
threshold=-6.4198449999999996 -6.3788349999999996 -6.0971649999999995 0.35201800000000005 2.0500650000000004e-07 0.00013119700000000002 0.00018940750000000003 0.00027030200000000004 -9.3591149999999989e-05 0.00010273500000000001 0.00010127800000000002 0.52429100000000017 0.29807750000000005 -1.7367749999999997e-08
decision_type=2 2 2 2 2 2 2 2 2 2 2 2 2 2
left_child=-1 10 3 5 6 9 -5 -6 -8 -3 11 12 -2 -4
right_child=1 2 13 4 7 -7 8 -9 -10 -11 -12 -13 -14 -15
leaf_value=-3.1430900278281295e-05 -0.005047228835199191 0.013547204786704648 -0.0016509547012174153 0.01728454157710075 0.035489009693264954 -0.0136822957329319 0.0031310263661329025 0.011515415863444407 -0.017373804338276389 -0.0017036026077611106 0.00026170194293052661 0.00021589060779660942 -0.015533192753791808 0.0013369274378461807
leaf_weight=20712 23 18 140 10.000000000000002 12.000000000000002 13.999999999999998 11.000000000000004 11.999999999999998 9.9999999999999964 13.999999999999998 1118 23 9.9999999999999982 172
leaf_count=20712 23 18 140 10 12 14 11 12 10 14 1118 23 10 172
internal_value=0 0.000410206 0.00151299 0.0061985 0.0108655 0.000618415 0.00108221 0.0235022 -0.00663318 0.00687498 2.22573e-05 -0.00475808 -0.00822479 -3.78891e-06
internal_weight=0 1587 413 101 55 46 31 24 21 32 1174 56 33 312
internal_count=22299 1587 413 101 55 46 31 24 21 32 1174 56 33 312
shrinkage=0.1


Tree=155
num_leaves=15
num_cat=0
split_feature=23 3 14 3 32 12 16 1 22 13 9 39 12 22
split_gain=0.0256853 0.25636 0.52059 0.233689 0.285217 1.46521 0.748664 0.698382 0.615527 1.17279 0.951697 0.565152 0.365146 0.490377
threshold=-7.6100699999999994 -7.551264999999999 0.00051153500000000014 -6.3643949999999991 0.032115250000000005 -1.4277499999999998e-05 -7.3593999999999994e-06 -10.689749999999998 -1.9348399999999997 7.8765850000000024e-06 -2.4907749999999999e-05 1.5428500000000003e-05 -2.0840599999999995e-05 -0.34255499999999994
decision_type=2 2 2 2 2 2 2 2 2 2 2 2 2 2
left_child=-1 2 -2 4 12 6 -6 -8 10 11 -9 -10 13 -3
right_child=1 3 -4 -5 5 -7 7 8 9 -11 -12 -13 -14 -15
leaf_value=6.516909331390772e-05 -0.0032221444539609367 0.0039751784055375074 -0.00013350055007718713 -0.00020920618359388389 -0.0012062610049421588 -0.0032770553749526064 0.035309058986604212 0.044486221556480104 0.0019835402444005005 -0.0069758063519839196 0.0062220139751354092 0.031353590872726947 0.0026631807529835538 -0.0044072530168734079
leaf_weight=16292 675 102 2849 1462 33 122 15.999999999999998 13.000000000000002 10.000000000000002 30 12.999999999999998 19 442 221
leaf_count=16292 675 102 2849 1462 33 122 16 13 10 30 13 19 442 221
internal_value=0 -0.00017675 -0.000725111 0.000601513 0.0017624 0.00465166 0.0118703 0.0161429 0.0125351 0.00688609 0.0253541 0.021226 0.000795544 -0.00176017
internal_weight=0 6007 3524 2483 1021 256 134 101 85 59 26 29 765 323
internal_count=22299 6007 3524 2483 1021 256 134 101 85 59 26 29 765 323
shrinkage=0.1


Tree=156
num_leaves=15
num_cat=0
split_feature=23 23 19 14 33 5 14 25 25 14 25 20 11 25
split_gain=0.0282986 0.0654511 0.10952 0.183679 0.381917 0.37843 0.567571 0.639846 1.10257 0.62624 0.514879 0.228734 0.264139 0.334455
threshold=-6.4482599999999985 -7.6100699999999994 2.1853450000000002e-06 0.00022219550000000004 -1.4449499999999998e-06 1.2684550000000002e-05 9.0643750000000004e-05 0.39197250000000006 2.5559600000000002 0.00013973650000000004 0.19534800000000005 7.2040400000000009 -3.3537399999999996e-06 0.51868650000000016
decision_type=2 2 2 2 2 2 2 2 2 2 2 2 2 2
left_child=1 -1 3 4 5 6 10 -8 9 -9 -3 12 13 -7
right_child=-2 2 -4 -5 -6 11 7 8 -10 -11 -12 -13 -14 -15
leaf_value=5.865217851577161e-05 0.00038795342697430613 0.013494821837829317 -4.7949437205991813e-05 -0.0026241764797796459 -0.0021762263075210428 0.01910729017108679 -0.0016057049561905758 0.016790034054290682 -0.0060394728842836157 0.043542655119672424 -0.0074423352054222239 -0.004282011247637189 -0.00083187245909357446 0.0017539799574698353
leaf_weight=16292 1734 17 2982 511 431 18 22 21 12.999999999999998 14.999999999999998 38 85 91 29
leaf_count=16292 1734 17 2982 511 431 18 22 21 13 15 38 85 91 29
internal_value=0 -3.27115e-05 -0.000381061 -0.00115049 -0.000185042 0.00227398 0.00665472 0.0125619 0.0189228 0.027937 -0.00097085 -0.000201232 0.00231229 0.00839993
internal_weight=0 20565 4273 1291 780 349 126 71 49 36 55 223 138 47
internal_count=22299 20565 4273 1291 780 349 126 71 49 36 55 223 138 47
shrinkage=0.1


Tree=157
num_leaves=15
num_cat=0
split_feature=5 22 13 33 33 11 20 9 31 8 3 7 25 4
split_gain=0.027297 0.383278 0.669279 0.165724 0.604397 0.0921868 0.0907572 0.104131 0.085805 0.120947 0.0712824 0.0439294 0.0804397 0.0472325
threshold=7.1526450000000005e-06 -2.7756699999999994 6.8656200000000014e-06 2.2192050000000004e-05 3.8880500000000008e-05 1.8404100000000006e-05 7.0316850000000004 1.1860700000000001e-05 0.045360850000000008 5.9517900000000013e-06 -7.7975399999999988 1.2760950000000002e-05 0.18478900000000004 -0.13878449999999998
decision_type=2 2 2 2 2 2 2 2 2 2 2 2 2 2
left_child=1 2 -1 6 -5 -6 8 -8 -3 10 -10 12 -2 -14
right_child=11 3 -4 4 5 -7 7 -9 9 -11 -12 -13 13 -15
leaf_value=-0.0039719466681708568 0.004374662194373634 -0.0033031259775408682 0.032614356428384783 0.019485577330407171 0.0012504881650040093 -0.011696029623801058 -0.00079997591528808683 0.011839126015547664 -0.0035660020000410869 0.011243123575113714 0.0037392350083047692 -2.3969161053467153e-06 -0.00075907473377731592 -0.0051782621941004209
leaf_weight=10.000000000000002 17 132 9.9999999999999982 18 11.000000000000002 10.999999999999998 16.000000000000004 10.999999999999998 34 9.9999999999999982 22 21900 46 51
leaf_count=10 17 132 10 18 11 11 16 11 34 10 22 21900 46 51
internal_value=0 0.000972393 0.0143212 -3.50645e-05 0.00589599 -0.00522277 -0.00108947 0.00434929 -0.00183112 0.00111288 -0.000696087 -1.25889e-05 -0.00197052 -0.00308257
internal_weight=0 285 20 265 40 22 225 27 198 66 56 22014 114 97
internal_count=22299 285 20 265 40 22 225 27 198 66 56 22014 114 97
shrinkage=0.1


Tree=158
num_leaves=15
num_cat=0
split_feature=6 33 23 7 36 15 28 11 15 33 36 25 31 11
split_gain=0.0258199 0.375061 0.484339 0.593034 0.823976 2.10029 1.57668 1.38017 1.0943 0.855008 0.637748 0.571571 1.00104 1.65546
threshold=-3.0777499999999995e-06 -1.5362849999999998e-06 -10.053299999999998 3.9449600000000003e-05 -0.00021249849999999996 -2.2983349999999997e-08 0.0049085850000000009 -1.0176299999999998e-05 -1.8991499999999998e-08 -4.7697749999999987e-06 7.9784000000000007e-05 1.7947250000000003 -0.030669899999999996 9.4427700000000018e-06
decision_type=2 2 2 2 2 2 2 2 2 2 2 2 2 2
left_child=1 2 -1 4 5 6 7 -4 -6 -8 -10 12 13 -12
right_child=-2 -3 3 -5 8 -7 9 -9 10 -11 11 -13 -14 -15
leaf_value=-0.00044901241175040915 -5.9667803031457563e-05 -0.00061843422208166833 0.043550593405961992 0.0010365482667422474 -0.0043561684287969039 -0.00032018646838878341 0.066731615364551522 0.0017460159200709314 -0.006646088637796272 0.027303707125512042 0.0043234036148836206 0.001324943918105517 0.0082744538700073745 0.054155059730013215
leaf_weight=1141 17055 2727 10.999999999999998 988 124 64 11.000000000000002 28 23 10.999999999999998 12.000000000000002 37 52 14.999999999999998
leaf_count=1141 17055 2727 11 988 124 64 11 28 23 11 12 37 52 15
internal_value=0 0.000194057 0.00107434 0.00233752 0.0056503 0.0123347 0.025612 0.0135371 0.00247329 0.0470177 0.00856576 0.0115819 0.0163858 0.0320077
internal_weight=0 5244 2517 1376 388 125 61 39 263 22 139 116 79 27
internal_count=22299 5244 2517 1376 388 125 61 39 263 22 139 116 79 27
shrinkage=0.1


Tree=159
num_leaves=15
num_cat=0
split_feature=3 3 23 23 14 3 23 28 10 3 28 1 39 20
split_gain=0.0288235 0.119366 0.701401 0.629418 0.690583 0.360689 1.00062 0.514967 0.375004 0.315829 0.333912 1.79376 0.499678 0.5351
threshold=-6.0725999999999987 -7.3418849999999987 -7.1463699999999992 -10.609499999999999 0.00084499100000000012 -7.1682849999999991 -7.5004549999999997 -0.025617649999999995 2.6725800000000004e-05 -7.2465349999999988 -0.0087035649999999982 -7.6665399999999986 0.00012946900000000003 0.48743000000000009
decision_type=2 2 2 2 2 2 2 2 2 2 2 2 2 2
left_child=1 -1 3 -3 5 6 7 -5 -8 -4 11 12 13 -11
right_child=-2 2 9 4 -6 -7 8 -9 -10 10 -12 -13 -14 -15
leaf_value=7.6432419506898731e-05 0.00023018792078853794 0.00013279534696003197 -0.0052566294979477608 0.017420459096319976 0.00067484209309320409 -0.0048887302150295193 0.034576417952775947 -0.006839251295397324 0.0083560560829937462 0.018969005033495311 0.0013975378244941547 -0.00098898281274294414 0.0077290370636748989 0.044351437444297169
leaf_weight=14182 4373 1450 58 9.9999999999999982 399 896 10.000000000000002 70 11.999999999999998 23 677 108 18 12.999999999999998
leaf_count=14182 4373 1450 58 10 399 896 10 70 12 23 677 108 18 13
internal_value=0 -5.61537e-05 -0.00055838 -0.00132666 -0.00284148 -0.0042473 0.00138719 -0.00380679 0.0202744 0.00188006 0.00237342 0.00645166 0.0213329 0.0281349
internal_weight=0 17926 3744 2847 1397 998 102 80 22 897 839 162 54 36
internal_count=22299 17926 3744 2847 1397 998 102 80 22 897 839 162 54 36
shrinkage=0.1


Tree=160
num_leaves=15
num_cat=0
split_feature=23 3 19 13 3 23 10 24 18 4 4 23 3 25
split_gain=0.0262091 0.173911 0.285814 0.177001 0.154776 0.239631 0.25402 0.31589 2.84209 1.72881 1.01817 0.518658 0.500605 0.492273
threshold=-7.6100699999999994 -7.551264999999999 0.00066652650000000003 4.1568450000000003e-05 -6.401514999999999 -6.4198449999999996 5.7097800000000008e-05 -0.081120499999999984 -6.110394999999998e-08 -0.045405999999999995 -0.42967699999999992 -7.3079149999999986 -7.1682849999999991 0.21140000000000003
decision_type=2 2 2 2 2 2 2 2 2 2 2 2 2 2
left_child=-1 2 3 -2 5 6 7 8 10 -9 -3 -12 -13 -11
right_child=1 4 -4 -5 -6 -7 -8 9 -10 13 11 12 -14 -15
leaf_value=6.5830202544488138e-05 -0.0023325321856200866 0.0028738251795540708 0.00019956326050343679 -9.8511052042123912e-05 -0.0001718384551968532 -0.001290310847062639 -0.0010431788635940074 -0.0063959422425344404 -0.0070942252710145641 0.00067262351668533581 0.040599261820316312 0.0005324585193937475 0.024183847089686121 0.010788017108972217
leaf_weight=16292 1093 33 1906 525 1509 241 170 155 84 72 14.999999999999998 10.999999999999998 48 145
leaf_count=16292 1093 33 1906 525 1509 241 170 155 84 72 15 11 48 145
internal_value=0 -0.000178543 -0.000630195 -0.00160765 0.000462466 0.00144518 0.00234457 0.00336752 0.00667326 0.00167022 0.0174814 0.0239955 0.0197743 0.00743176
internal_weight=0 6007 3524 1618 2483 974 733 563 191 372 107 74 59 217
internal_count=22299 6007 3524 1618 2483 974 733 563 191 372 107 74 59 217
shrinkage=0.1


Tree=161
num_leaves=15
num_cat=0
split_feature=3 23 14 23 3 23 3 24 29 4 14 30 16 31
split_gain=0.0273434 0.298392 0.658347 1.18112 1.69075 2.09052 1.12637 0.838229 0.908645 0.667608 0.452572 0.357443 0.407755 0.513082
threshold=-7.8588649999999989 -7.9426749999999986 0.0020371300000000003 -13.123899999999997 -13.453149999999999 -15.099999999999998 -13.373099999999999 -0.17527699999999999 -0.0010817649999999997 -0.073493349999999985 0.0021213250000000007 0.0051459650000000015 2.2651350000000005e-06 -0.050308649999999989
decision_type=2 2 2 2 2 2 2 2 2 2 2 2 2 2
left_child=1 2 3 4 5 -1 -5 9 -9 -7 -3 12 -8 -14
right_child=-2 10 -4 6 -6 7 11 8 -10 -11 -12 -13 13 -15
leaf_value=-0.0033444224711274731 -0.00012924129405398935 -0.0018833518810032282 -0.00033210997231753196 -0.0050890454652490315 -0.0022938872724345069 0.026372136796514192 0.0041918995670802029 0.015665039544304208 0.052067065890878443 -0.0045893922591438664 0.00028669596546832519 -0.00010733108089992391 0.0065219778093033587 -0.0023894846252131403
leaf_weight=54 9440 1664 5079 177 1128 15.000000000000002 1825 12.000000000000002 15.999999999999998 12.999999999999998 2275 292 92 217
leaf_count=54 9440 1664 5079 177 1128 15 1825 12 16 13 2275 292 92 217
internal_value=0 9.48781e-05 0.000414989 0.00140289 -0.00113985 0.0106943 0.00261222 0.0242317 0.0364662 0.0119971 -0.000630024 0.00317411 0.00362311 0.000263766
internal_weight=0 12859 8920 3841 1238 110 2603 56 28 28 3939 2426 2134 309
internal_count=22299 12859 8920 3841 1238 110 2603 56 28 28 3939 2426 2134 309
shrinkage=0.1


Tree=162
num_leaves=15
num_cat=0
split_feature=23 3 3 23 6 25 14 5 25 14 3 24 16 21
split_gain=0.0328025 0.0697384 0.335594 0.62846 0.765732 0.229737 0.185676 0.239108 0.214262 0.164591 0.1229 0.114772 0.113399 0.198987
threshold=-6.467369999999999 -6.5485099999999994 -6.1926199999999989 -6.3955149999999987 4.5220900000000008e-07 1.9655500000000001 0.00010127800000000002 1.5732750000000003e-05 0.2954305000000001 0.00037720150000000008 -6.3643949999999991 -0.072489399999999996 8.2011600000000025e-08 14.24385
decision_type=2 2 2 2 2 2 2 2 2 2 2 2 2 2
left_child=-1 9 3 4 -3 6 7 8 -5 -2 -8 -12 -4 -14
right_child=1 2 12 5 -6 -7 10 -9 -10 -11 11 -13 13 -15
leaf_value=-3.6748601213624615e-05 -0.0020389003307552428 0.0051513559867938348 -0.0013282650559027448 0.0093905067663978426 0.03988762494515289 0.012189846760075954 0.002800587999324004 0.017831603139638903 -0.0099313956530143813 0.000612722018136751 -0.016509276473273833 -0.0026786597605678252 0.0010522933325077765 0.013911131110328896
leaf_weight=20424 302 15.000000000000002 244 11.000000000000002 10.999999999999998 18 11.999999999999998 9.9999999999999982 11.999999999999998 1041 12 12 162 12.999999999999998
leaf_count=20424 302 15 244 11 11 18 12 10 12 1041 12 12 162 13
internal_value=0 0.000400295 0.00136928 0.00620565 0.0198475 0.00212878 -0.000495845 0.00492227 -0.000690486 1.64525e-05 -0.00546245 -0.00959397 6.49631e-05 0.00200752
internal_weight=0 1875 532 113 26 87 69 33 23 1343 36 24 419 175
internal_count=22299 1875 532 113 26 87 69 33 23 1343 36 24 419 175
shrinkage=0.1


Tree=163
num_leaves=15
num_cat=0
split_feature=7 28 12 7 19 35 23 3 16 33 4 14 16 19
split_gain=0.0303759 0.0713058 0.17023 0.158971 0.343204 0.443377 0.141404 0.553323 0.259041 0.096266 0.143359 0.681842 0.141902 0.370702
threshold=5.1723650000000004e-05 -0.073788849999999975 -3.1474349999999995e-05 2.6579250000000005e-05 8.3994400000000005e-07 -0.040574149999999996 -8.3926599999999976 -8.8871949999999984 6.2123600000000012e-08 2.7461800000000005e-05 0.26399550000000005 0.0014346750000000003 4.5816150000000005e-06 0.00022437500000000005
decision_type=2 2 2 2 2 2 2 2 2 2 2 2 2 2
left_child=1 2 3 4 -1 -6 9 -8 -9 10 12 -12 -5 -14
right_child=-2 -3 -4 6 5 -7 7 8 -10 -11 11 -13 13 -15
leaf_value=-0.00047731343908487137 0.00015936245444074358 -0.00014756703263988372 -0.00039254362012352368 -0.0026700188697046743 0.0022514251244597529 0.023854962099147472 -0.0015084158562655961 0.0089705237276696895 0.029748762957751751 -0.0015565879273387563 0.029808542039245368 0.0011050239204147753 0.020378975049507891 -0.00098883887685294585
leaf_weight=37 7785 13458 604 74 19 19 42 15.000000000000002 9.9999999999999982 136 9.9999999999999982 48 10.999999999999998 31
leaf_count=37 7785 13458 604 74 19 19 42 15 10 136 10 48 11 31
internal_value=0 -8.54786e-05 0.000705796 0.00217349 0.00637814 0.0130532 0.00133702 0.00550287 0.0172818 0.000436658 0.0019946 0.00605391 -3.50576e-05 0.00460749
internal_weight=0 14514 1056 452 75 38 377 67 25 310 174 58 116 42
internal_count=22299 14514 1056 452 75 38 377 67 25 310 174 58 116 42
shrinkage=0.1


Tree=164
num_leaves=15
num_cat=0
split_feature=23 23 3 14 3 5 23 29 0 11 14 3 23 23
split_gain=0.0286404 0.0488057 0.181402 0.407643 0.329678 0.340581 0.190769 0.170919 2.57992 1.2967 0.734807 0.477723 1.09969 0.552341
threshold=-6.4198449999999996 -7.5900949999999989 -7.551264999999999 0.00054681050000000007 -6.3788349999999996 7.9071800000000014e-06 -7.5388899999999994 -0.00039106299999999992 -0.15708849999999996 1.0152395000000002e-06 0.00044905900000000008 -7.1424999999999992 -7.2147949999999996 -7.1911899999999989
decision_type=2 2 2 2 2 2 2 2 2 2 2 2 2 2
left_child=1 -1 3 6 5 -4 -3 9 10 -7 11 12 -9 -13
right_child=-2 2 4 -5 -6 7 -8 8 -10 -11 -12 13 -14 -15
leaf_value=4.7583458676436637e-05 0.00040942002081114878 0.0090984372577319547 0.019515842707319694 -0.00022913401770234049 -0.00070167700574586813 -0.0061240165586184184 -0.0036575433368538964 0.048168923935064889 -0.0068765436299861793 0.0050450985502948249 0.0011212830441667046 -0.005652280211714762 0.0052080130373889748 0.015783919768736644
leaf_weight=16379 1587 11.999999999999998 10.999999999999998 2018 1049 175 510 13.000000000000002 132 256 47 13.999999999999998 10.999999999999998 85
leaf_count=16379 1587 12 11 2018 1049 175 510 13 132 256 47 14 11 85
internal_value=0 -3.13707e-05 -0.000329822 -0.000873448 0.00044029 0.0020504 -0.0033643 0.0017883 0.00361252 0.000510075 0.011757 0.015821 0.0284785 0.0127525
internal_weight=0 20712 4333 2540 1793 744 522 733 302 431 170 123 24 99
internal_count=22299 20712 4333 2540 1793 744 522 733 302 431 170 123 24 99
shrinkage=0.1


Tree=165
num_leaves=15
num_cat=0
split_feature=3 23 14 23 3 3 34 23 3 26 18 30 18 24
split_gain=0.0282964 0.163758 0.469909 1.28962 2.43138 1.35033 2.09667 1.23519 3.42289 0.94682 1.03113 0.698215 0.706363 1.20247
threshold=-7.7346249999999985 -7.8285449999999992 0.00084499100000000012 -9.8917349999999988 -9.9395899999999973 -9.8324999999999978 0.065668900000000016 -10.632649999999998 -10.645549999999998 6.8728900000000019e-05 -1.0942449999999998e-06 0.0036837650000000007 8.0248250000000016e-06 0.25163500000000005
decision_type=2 2 2 2 2 2 2 2 2 2 2 2 2 2
left_child=1 2 3 5 -5 6 7 9 -9 -1 -11 12 -6 -14
right_child=-2 -3 -4 4 11 -7 -8 8 -10 10 -12 -13 13 -15
leaf_value=0.0045804973717101594 -0.00013574218678816748 -0.00045545624805456173 -0.00014133624680407459 -0.0045643179028904473 0.0088284998415480119 -0.0021133114200868864 -0.00034899341450557106 -0.010362834483385087 0.051855580694973473 0.045569417883570371 0.0039693142202767455 -0.0027996852953305388 -0.0069432988493764378 0.030467915087938308
leaf_weight=110 9094 3850 6576 242 653 1204 369 13.999999999999998 24 13.000000000000002 10.999999999999998 68 61 9.9999999999999982
leaf_count=110 9094 3850 6576 242 653 1204 369 14 24 13 11 68 61 10
internal_value=0 9.34827e-05 0.000319396 0.00140963 0.00420813 -0.000248614 0.00390129 0.0130196 0.028933 0.00850686 0.0265027 0.0068886 0.00779855 -0.00167411
internal_weight=0 13205 9355 2779 1034 1745 541 172 38 134 24 792 724 71
internal_count=22299 13205 9355 2779 1034 1745 541 172 38 134 24 792 724 71
shrinkage=0.1


Tree=166
num_leaves=15
num_cat=0
split_feature=39 3 7 18 23 17 3 33 13 9 20 33 0 0
split_gain=0.0342856 0.0745213 0.0777047 0.0971298 0.485814 0.479173 0.468695 0.280021 0.277388 0.0834994 0.456684 0.071927 0.0735008 0.135076
threshold=0.0010540050000000002 -12.582649999999999 3.6888250000000007e-05 -1.7326649999999998e-05 -13.311149999999998 -6.4621499999999996e-06 -11.019649999999997 0.00017574100000000001 2.8998000000000006e-05 2.6242100000000001e-05 8.6114600000000028 -0.0016106259999999998 -4.1204599999999987 -2.6016999999999997
decision_type=2 2 2 2 2 2 2 2 2 2 2 2 2 2
left_child=-1 11 3 4 -3 -6 -7 8 -8 -5 -11 -2 -13 -14
right_child=1 2 -4 9 5 6 7 -9 -10 10 -12 12 13 -15
leaf_value=-5.3784011103643313e-05 0.0055052823681188265 -0.0030700396183722962 0.00014120504080168854 0.00042830791445567232 -0.0011465945068214621 0.028233824134804311 -0.0028228457382118159 0.021949388730255041 0.017263791640289128 0.00062320463766809555 0.019600811608446143 -0.0025858605823673151 0.0030877292789157156 -0.00089053229245058705
leaf_weight=18768 19 66 1784 704 35 15.999999999999998 22 10.999999999999998 9.9999999999999982 82 14.999999999999998 166 103 498
leaf_count=18768 19 66 1784 704 35 16 22 11 10 82 15 166 103 498
internal_value=0 0.000285873 0.000531701 0.00125662 0.00350604 0.00812329 0.0136224 0.00818555 0.00345423 0.000807296 0.00355789 -0.000572648 -0.00072321 -0.000208734
internal_weight=0 3531 2745 961 160 94 59 43 32 801 97 786 767 601
internal_count=22299 3531 2745 961 160 94 59 43 32 801 97 786 767 601
shrinkage=0.1


Tree=167
num_leaves=15
num_cat=0
split_feature=3 14 34 23 3 34 20 23 21 1 20 3 3 23
split_gain=0.0319855 0.127725 0.217844 0.340623 0.459154 1.67991 0.544141 0.500486 0.493239 0.552446 0.270237 0.25656 0.575597 2.44102
threshold=-6.0971649999999995 0.00022625800000000001 0.56474900000000006 -8.3362899999999982 -8.403439999999998 0.014710350000000002 -6.8075899999999985 -10.632649999999998 -2.4142549999999994 0.81388450000000012 -10.108899999999998 -8.544439999999998 -7.7346249999999985 -7.8285449999999992
decision_type=2 2 2 2 2 2 2 2 2 2 2 2 2 2
left_child=1 2 3 4 5 8 -7 -6 -1 -10 -9 -5 13 -13
right_child=-2 -3 -4 11 7 6 -8 10 9 -11 -12 12 -14 -15
leaf_value=0.005680307820439337 0.00023959260470252791 6.9559293760307179e-05 0.0012446491006060508 -0.0050845894730056984 -0.0010848092250002161 0.014385486246707539 -0.0042699796129057202 0.0091760325335109461 0.015652846693992608 0.048128512095321312 -0.0054276885691518523 0.020327277600558271 -0.00043883986085882292 -0.0020014797053543327
leaf_weight=10.000000000000002 4458 14458 532 86 827 18 119 12.999999999999998 10.000000000000002 10.999999999999998 501 72 1031 153
leaf_count=10 4458 14458 532 86 827 18 119 13 10 11 501 72 1031 153
internal_value=0 -5.98679e-05 -0.000613004 -0.000959644 -0.00199043 0.00293784 -0.0018189 -0.00260785 0.0239595 0.0326639 -0.00505833 0.000199418 0.000561221 0.00514372
internal_weight=0 17841 3383 2851 1509 168 137 1341 31 21 514 1342 1256 225
internal_count=22299 17841 3383 2851 1509 168 137 1341 31 21 514 1342 1256 225
shrinkage=0.1


Tree=168
num_leaves=15
num_cat=0
split_feature=7 28 12 7 19 7 34 0 14 1 1 34 36 24
split_gain=0.0275254 0.0594838 0.137329 0.133261 0.304621 0.527523 0.145425 0.114602 0.0952412 0.0894304 0.153453 0.398499 0.142415 0.198902
threshold=5.1723650000000004e-05 -0.073788849999999975 -4.4928149999999991e-05 2.6579250000000005e-05 8.3994400000000005e-07 2.3123600000000003e-05 0.21679700000000002 -7.4530999999999992 0.00080265400000000008 -7.2920699999999989 -5.530384999999999 0.51382200000000011 0.18650200000000003 -1.2879049999999996
decision_type=2 2 2 2 2 2 2 2 2 2 2 2 2 2
left_child=1 2 3 4 -1 -6 -5 -8 -4 -9 11 -11 -13 -14
right_child=-2 -3 8 6 5 -7 7 9 -10 10 -12 12 13 -15
leaf_value=-0.00049517389998072765 0.00015170086645326949 -0.00013807754388283524 0.00072232285897082813 0.010325523934272282 0.0015757441205684751 0.02778853216607656 0.0096627742900247029 -0.0022222681653672935 -0.001727211746309733 0.021333795850603986 -0.00017404299823252148 -0.0035748561351210809 -0.0022260108357295386 0.017719006761908532
leaf_weight=32 7785 13458 410 17 17.000000000000004 13.999999999999998 13.999999999999998 90 259 12.999999999999998 145 25 10.000000000000002 9.9999999999999982
leaf_count=32 7785 13458 410 17 17 14 14 90 259 13 145 25 10 10
internal_value=0 -8.13691e-05 0.000641341 0.0021407 0.00634891 0.0134138 0.00132244 0.000823897 -0.000226002 0.000401562 0.00156484 0.00591203 0.00145686 0.0077465
internal_weight=0 14514 1056 387 63 31 324 307 669 293 203 58 45 20
internal_count=22299 14514 1056 387 63 31 324 307 669 293 203 58 45 20
shrinkage=0.1


Tree=169
num_leaves=15
num_cat=0
split_feature=17 37 38 19 18 3 21 29 11 9 37 16 13 3
split_gain=0.0266357 0.709779 0.814439 1.47302 1.87847 0.771149 0.917573 0.845319 1.80198 1.71297 0.996802 1.61691 1.10565 1.17785
threshold=5.7427200000000006e-08 -1.1247199999999999e-08 0.00015228100000000001 1.3381100000000001e-05 -5.1694099999999984e-07 -7.3418849999999987 -7.8012199999999989 0.0040863850000000005 -1.9692799999999999e-05 -9.3650599999999984e-06 -1.8000399999999998e-07 -5.8300299999999994e-07 1.9633850000000002e-05 -12.582649999999999
decision_type=2 2 2 2 2 2 2 2 2 2 2 2 2 2
left_child=1 2 -1 4 5 7 -7 8 -4 -9 12 -12 -10 -14
right_child=-2 -3 3 -5 -6 6 -8 9 10 -11 11 -13 13 -15
leaf_value=-0.00011898701549238039 -8.1390676503533238e-05 -0.00086978686990407282 -0.0020437943289012073 4.0243762523956297e-05 -0.00015256296086696018 0.026307002683461179 0.00090683550335484146 0.019723533828444079 0.0013298572626155921 -0.0038954297369282239 0.0065456348566592425 0.038622757432961161 0.010182961311053347 0.041760170371049926
leaf_weight=2533 14344 3686 42 949 311 15.999999999999998 128 53 39 73 22 55 27 21
leaf_count=2533 14344 3686 42 949 311 16 128 53 39 73 22 55 27 21
internal_value=0 0.000146759 0.00102448 0.00269291 0.00589162 0.00984066 0.00372908 0.0124915 0.0164378 0.00603953 0.0211709 0.0294579 0.0138364 0.023998
internal_weight=0 7955 4269 1736 787 476 144 332 206 126 164 77 87 48
internal_count=22299 7955 4269 1736 787 476 144 332 206 126 164 77 87 48
shrinkage=0.1


Tree=170
num_leaves=15
num_cat=0
split_feature=3 14 34 34 3 31 0 25 3 22 2 20 27 4
split_gain=0.0290539 0.104912 0.168818 0.196997 0.4124 0.528414 1.39351 0.88898 0.813925 0.489143 1.97585 0.444624 0.404827 0.480395
threshold=-6.1233399999999989 0.00022625800000000001 0.51382200000000011 0.029990100000000002 -7.8249449999999987 -0.028189749999999996 4.0987050000000016 0.59583050000000004 -8.544439999999998 2.7014000000000005 2.6751900000000002 8.4191850000000006 0.47230100000000003 -0.11361049999999999
decision_type=2 2 2 2 2 2 2 2 2 2 2 2 2 2
left_child=1 2 3 4 5 6 -1 8 -8 -7 -11 -10 -6 -14
right_child=-2 -3 -4 -5 12 9 7 -9 11 10 -12 -13 13 -15
leaf_value=-0.0074845987689596688 0.00022581919613036134 5.870575277786374e-05 0.0010489516644711968 -0.0018001951823838171 -0.0020082965664453408 -0.0011711329310002485 0.0058253403753042226 -0.0034875680630405744 0.023345078091676297 -0.011071996645381051 0.043368630856275563 0.046831259184650018 0.010747647230852057 0.00026943846691397639
leaf_weight=33 4538 14447 542 1266 902 211 15.999999999999998 14.999999999999998 19 15.000000000000002 11.999999999999998 13.999999999999998 55 214
leaf_count=33 4538 14447 542 1266 902 211 16 15 19 15 12 14 55 214
internal_value=0 -5.76976e-05 -0.000565145 -0.000880744 -0.000107818 0.00298606 0.00920716 0.0178138 0.0243347 0.000450565 0.0131238 0.0333089 -0.000992915 0.00241182
internal_weight=0 17761 3314 2772 1506 335 97 64 49 238 27 33 1171 269
internal_count=22299 17761 3314 2772 1506 335 97 64 49 238 27 33 1171 269
shrinkage=0.1


Tree=171
num_leaves=15
num_cat=0
split_feature=23 3 3 23 13 37 14 36 14 28 13 36 3 23
split_gain=0.0303424 0.0674058 0.352735 0.585508 0.530878 0.220235 0.128708 0.109348 0.105386 0.217412 0.263813 0.187211 0.103144 0.110579
threshold=-6.4960549999999992 -6.5485099999999994 -6.1926199999999989 -6.3955149999999987 1.4147250000000001e-05 -8.8442599999999985e-08 0.00037720150000000008 0.0071134400000000013 8.9273400000000012e-05 -0.0025359949999999997 1.9470050000000002e-05 0.00016622250000000003 -7.6471949999999991 -6.4589649999999992
decision_type=2 2 2 2 2 2 2 2 2 2 2 2 2 2
left_child=-1 6 3 4 -3 -5 7 12 11 -10 -11 -7 -2 -14
right_child=1 2 -4 5 -6 8 -8 -9 9 10 -12 -13 13 -15
leaf_value=-3.6160725512599927e-05 -0.00061045674019899736 0.029082201276388428 -4.1614603473679106e-06 0.013959618041721675 0.0025623877138759082 0.01181891899323091 0.00052646997195765217 0.002384955298269765 0.0072986751508254278 -0.015720464873851998 0.0039364007809622728 -0.0034785952084348537 -0.014668815359473229 -0.0037340591631345151
leaf_weight=20344 132 18.000000000000004 435 12.999999999999998 12.999999999999998 15.999999999999998 1084 53 12.999999999999998 18.000000000000004 10.999999999999998 15.999999999999998 9.9999999999999982 123
leaf_count=20344 132 18 435 13 13 16 1084 53 13 18 11 16 10 123
internal_value=0 0.000376294 0.00131124 0.00616039 0.017961 0.00195558 7.51666e-06 -0.00176149 -0.000153243 -0.00344727 -0.00826441 0.00417016 -0.00259078 -0.00455622
internal_weight=0 1955 553 118 31 87 1402 318 74 42 29 32 265 133
internal_count=22299 1955 553 118 31 87 1402 318 74 42 29 32 265 133
shrinkage=0.1


Tree=172
num_leaves=15
num_cat=0
split_feature=4 24 17 29 9 38 30 4 22 11 3 23 3 23
split_gain=0.0265516 0.0860758 0.383261 0.0546967 0.0773487 0.0530361 0.0458627 0.0458244 0.242393 0.0433972 0.0410185 0.0400359 1.65407 1.14869
threshold=-1.2804649999999997 -1.7384499999999996 -2.8658149999999996e-05 1.4102300000000001 -4.6939049999999996e-05 0.00082319350000000012 0.40728000000000003 -1.4166899999999998 -0.6068349999999999 -5.322079999999999e-05 -10.433649999999998 -15.973899999999999 -16.135999999999999 -17.204649999999997
decision_type=2 2 2 2 2 2 2 2 2 2 2 2 2 2
left_child=1 2 -1 6 -5 -3 11 -7 -9 -6 -8 12 13 -2
right_child=3 5 -4 4 9 7 10 8 -10 -11 -12 -13 -14 -15
leaf_value=-0.0026935821258424163 0.0037146465866119138 0.00041968579472995176 0.018125876997198379 0.010693804498296232 -0.0044671326156028295 -0.00055351987841371398 -0.0082168605035314174 -0.0077741723003176338 0.010379859758540989 0.0022894635223617249 -0.00054233534882466004 -0.00010546475599209739 -0.00041743665647437706 0.022966556269082006
leaf_weight=24 79 2751 13.999999999999998 9.9999999999999982 10.999999999999998 965 13.000000000000002 12.000000000000002 19 70 14.999999999999998 16486 1779 51
leaf_count=24 79 2751 14 10 11 965 13 12 19 70 15 16486 1779 51
internal_value=0 0.000241335 0.00497674 -4.93385e-05 0.00239629 0.000193311 -6.14186e-05 -0.000431947 0.00335249 0.0013719 -0.00410551 -5.52629e-05 0.000378277 0.0112673
internal_weight=0 3785 38 18514 91 3747 18423 996 31 81 28 18395 1909 130
internal_count=22299 3785 38 18514 91 3747 18423 996 31 81 28 18395 1909 130
shrinkage=0.1


Tree=173
num_leaves=15
num_cat=0
split_feature=3 14 23 3 23 25 23 22 4 24 11 35 3 3
split_gain=0.0277527 0.0920365 0.187874 0.33394 1.26168 0.928902 0.628402 0.610419 0.901574 1.25225 0.523953 0.31969 0.215851 0.336018
threshold=-6.2170999999999994 0.00022625800000000001 -7.9975599999999991 -8.0668149999999983 -9.1511549999999975 1.0560900000000004 -10.543449999999998 -1.0961299999999998 0.028911300000000004 0.10082500000000001 -8.2571149999999986e-06 -0.00015377749999999997 -8.0668149999999983 -7.7346249999999985
decision_type=2 2 2 2 2 2 2 2 2 2 2 2 2 2
left_child=1 2 3 4 -1 7 -5 10 -9 11 -6 -10 -4 -14
right_child=-2 -3 12 6 5 -7 -8 8 9 -11 -12 -13 13 -15
leaf_value=-0.0020222191365919019 0.00021090975765611852 4.7090273949965805e-05 -0.0028683925056744871 -0.00021008741923957488 0.017177108675241467 -0.0080362125966348692 -0.004305865566916524 0.039863534685638219 -0.012784392902484305 0.032771524662772819 -0.015194262564182283 0.01099806383252144 0.0066371995359227141 0.00042477965500438587
leaf_weight=264 4875 14363 164 981 10.000000000000002 20 606 18 13.000000000000002 18 9.9999999999999982 9.9999999999999982 97 850
leaf_count=264 4875 14363 164 981 10 20 606 18 13 18 10 10 97 850
internal_value=0 -5.90097e-05 -0.000556858 -0.0011482 0.00158802 0.0112153 -0.00177407 0.0160892 0.021207 0.0130164 0.000991423 -0.00244419 0.000481057 0.00106111
internal_weight=0 17424 3061 1950 363 99 1587 79 59 41 20 23 1111 947
internal_count=22299 17424 3061 1950 363 99 1587 79 59 41 20 23 1111 947
shrinkage=0.1


Tree=174
num_leaves=15
num_cat=0
split_feature=26 18 4 34 17 24 3 3 34 1 38 26 24 4
split_gain=0.0234696 0.27551 0.610399 0.621514 0.642709 0.689436 0.555074 0.681543 1.30626 0.42768 0.344325 0.572505 0.452323 0.279791
threshold=-0.00014758899999999997 2.0667250000000005e-06 0.48299450000000005 0.43092550000000007 1.6779550000000002e-07 0.17448400000000003 -6.1233399999999989 -9.7137299999999982 0.25712300000000005 -5.3902249999999992 -0.0025865649999999994 -0.00066057799999999988 0.21857600000000002 0.39091350000000008
decision_type=2 2 2 2 2 2 2 2 2 2 2 2 2 2
left_child=1 -1 3 4 -3 -6 7 8 -7 -9 11 -11 -12 -5
right_child=-2 2 -4 13 5 6 -8 9 -10 10 12 -13 -14 -15
leaf_value=-0.00035113417082828307 -4.6009754797106022e-05 -0.00071797653713643001 -7.8499630647982263e-05 -0.00081036190171289489 -0.0038623430027181042 -0.0032789103036823999 -0.0017969042863970734 0.010279084604767645 0.037006704206578436 0.034144576583057633 0.022266407003626223 0.0048400133537749449 0.051063256214062373 0.012682973026462339
leaf_weight=2565 18565 54 791 160 23 30 17 17 10.999999999999998 15.000000000000002 10.000000000000002 11.999999999999998 11.999999999999998 17
leaf_count=2565 18565 54 791 160 23 30 17 17 11 15 10 12 12 17
internal_value=0 0.000228755 0.00150114 0.00480668 0.0086118 0.0120391 0.0149885 0.0176554 0.00752943 0.0239457 0.0286872 0.0211203 0.0379738 0.000485608
internal_weight=0 3734 1169 378 201 147 124 107 41 66 49 27 22 177
internal_count=22299 3734 1169 378 201 147 124 107 41 66 49 27 22 177
shrinkage=0.1


Tree=175
num_leaves=15
num_cat=0
split_feature=5 32 21 21 24 1 20 7 39 34 21 31 17 37
split_gain=0.0263484 0.144959 0.211091 0.433003 0.195704 0.126713 0.0374608 0.0348333 0.0634883 0.0627673 0.034802 0.0385961 0.0327109 0.0285618
threshold=6.8464300000000006e-06 -0.0088820099999999975 -3.6924999999999994 -2.0242249999999995 -0.081120499999999984 -3.5255799999999993 -3.2361999999999997 1.2760950000000002e-05 1.6454600000000001e-06 0.0040714250000000009 -8.3840799999999991 0.040894450000000006 5.9558900000000005e-08 9.4814400000000013e-07
decision_type=2 2 2 2 2 2 2 2 2 2 2 2 2 2
left_child=1 -1 5 -4 -5 -3 -7 8 9 -2 -10 12 -12 -9
right_child=7 2 3 4 -6 6 -8 13 10 -11 11 -13 -14 -15
leaf_value=-0.0020569513639202342 -0.0011837243645762402 0.010282267071306707 0.021398954123587294 -0.007178516795725693 0.0098605412774934228 -0.0060296107549220324 -0.0002834551242323449 -4.1025377183055278e-05 0.0023846207594033332 0.0090442807460203774 -0.0020370311906414205 -0.0012503933771928705 -0.0073398544111599531 0.00031895957163730971
leaf_weight=80 15.000000000000002 9.9999999999999982 17 14.000000000000002 12.999999999999998 15.999999999999998 39 19493 11.999999999999998 9.9999999999999982 19 46 30 2485
leaf_count=80 15 10 17 14 13 16 39 19493 12 10 19 46 30 2485
internal_value=0 0.0011757 0.0035483 0.00889705 0.00102547 -7.23977e-05 -0.00195506 -1.00501e-05 -0.00162966 0.00290748 -0.00268974 -0.00333071 -0.00528366 -3.22738e-07
internal_weight=0 189 109 44 27 65 55 22110 132 25 107 95 49 21978
internal_count=22299 189 109 44 27 65 55 22110 132 25 107 95 49 21978
shrinkage=0.1


Tree=176
num_leaves=15
num_cat=0
split_feature=23 3 3 23 3 3 23 14 17 20 0 0 17 29
split_gain=0.0248292 0.0428994 0.0566698 0.289483 0.496879 0.421292 0.400389 0.393772 0.390937 0.241634 1.60563 1.5812 0.497284 0.516577
threshold=-6.4198449999999996 -5.8392349999999995 -7.3418849999999987 -7.1463699999999992 -6.3788349999999996 -7.2465349999999988 -10.609499999999999 0.00084499100000000012 1.6268950000000003e-06 6.5510500000000009 7.4476300000000011 6.3146000000000013 -1.0030524999999998e-08 -0.0046566299999999993
decision_type=2 2 2 2 2 2 2 2 2 2 2 2 2 2
left_child=1 2 -1 6 5 -5 -4 -8 9 10 -7 -11 -13 -14
right_child=-2 -3 3 4 -6 8 7 -9 -10 11 -12 12 13 -15
leaf_value=9.7423636949674606e-06 0.00038120752248275449 0.00030095870035660923 0.0002671111106875758 -0.0069663443808842991 -0.0020259619080752601 0.013491871526980021 -0.0027907677243041492 0.00061633525070959965 -0.001808059095888387 -0.0064791269406869814 -0.008991252665589677 -0.0024394674478874852 0.032395688574761154 0.010634976128737131
leaf_weight=13210 1587 3307 1792 35 255 141 1254 465 79 77 41 11.999999999999998 19.999999999999996 24.000000000000004
leaf_count=13210 1587 3307 1792 35 255 141 1254 465 79 77 41 12 20 24
internal_value=0 -2.9209e-05 -9.19418e-05 -0.000412144 0.00146991 0.00354788 -0.000778799 -0.00186913 0.00448188 0.00605936 0.00842699 0.00281945 0.015605 0.0205262
internal_weight=0 20712 17405 4195 684 429 3511 1719 394 315 182 133 56 44
internal_count=22299 20712 17405 4195 684 429 3511 1719 394 315 182 133 56 44
shrinkage=0.1


Tree=177
num_leaves=15
num_cat=0
split_feature=3 14 23 3 23 25 37 35 15 6 23 26 34 23
split_gain=0.0259 0.0724189 0.157835 0.280187 1.02015 0.747784 0.530756 0.586581 0.651064 0.801873 0.451467 0.343202 0.275378 0.185101
threshold=-6.283129999999999 0.00022625800000000001 -7.9975599999999991 -8.0668149999999983 -9.1511549999999975 1.0560900000000004 4.6225400000000007e-08 0.00025828200000000003 -1.2628849999999999e-08 3.2261450000000005e-06 -10.609499999999999 8.4939000000000008e-05 0.008378685000000002 -7.8841399999999995
decision_type=2 2 2 2 2 2 2 2 2 2 2 2 2 2
left_child=1 2 3 4 -1 6 7 8 9 -6 -5 -9 -8 -4
right_child=-2 -3 13 10 5 -7 12 11 -10 -11 -12 -13 -14 -15
leaf_value=-0.0018155556611556237 0.00019928085718961668 3.438001945374165e-05 0.00653181920327673 -0.00031313299609651271 0.028091859178883682 -0.0071853762073442341 0.016804631650447842 0.036711729168891892 -0.014717770421079227 -0.007987796447493813 -0.0038803199561884779 0.010512415617704392 0.040272812768816946 0.00017623302588117484
leaf_weight=264 5046 14323 48 937 14.000000000000002 20 10.000000000000002 10.000000000000002 13.999999999999998 10.999999999999998 571 9.9999999999999982 9.9999999999999982 1011
leaf_count=264 5046 14323 48 937 14 20 10 10 14 11 571 10 10 1011
internal_value=0 -5.82838e-05 -0.000511262 -0.00106344 0.00143078 0.0100877 0.0144606 0.00968835 0.00254799 0.0122168 -0.00166384 0.0236121 0.0285387 0.000464305
internal_weight=0 17253 2930 1871 363 99 79 59 39 25 1508 20 20 1059
internal_count=22299 17253 2930 1871 363 99 79 59 39 25 1508 20 20 1059
shrinkage=0.1


Tree=178
num_leaves=15
num_cat=0
split_feature=17 37 24 19 18 20 0 2 3 34 18 7 34 32
split_gain=0.0237805 0.571174 0.62018 1.09003 1.35698 0.762299 2.41201 1.8233 0.926401 0.972698 1.27389 1.30553 1.07279 0.763493
threshold=5.7427200000000006e-08 -1.1247199999999999e-08 -0.078674499999999981 1.3381100000000001e-05 -7.2570549999999991e-08 -1.2965399999999996 -1.6367649999999998 -1.8099099999999997 -6.3643949999999991 0.12842450000000002 -1.2540699999999998e-05 3.995050000000001e-05 0.051869950000000005 0.013965650000000001
decision_type=2 2 2 2 2 2 2 2 2 2 2 2 2 2
left_child=1 2 3 4 5 7 -7 13 9 10 12 -12 -8 -1
right_child=-2 -3 -4 -5 -6 6 8 -9 -10 -11 11 -13 -14 -15
leaf_value=-0.0026199513652907878 -7.690463194775741e-05 -0.0007732351740807671 -0.00025937981821359525 7.7448205837903303e-05 -0.0012671596525152299 -0.0028856860904963879 -0.0051831713356077676 -0.0029618902632835278 9.1246007694721677e-05 0.0079166138272445934 0.024519874789455737 0.058469951725923099 0.025475774652191571 0.015475140100916333
leaf_weight=29 14344 3686 2170 1148 275 98 25 185 33 65 88 12.999999999999998 21 119
leaf_count=29 14344 3686 2170 1148 275 98 25 185 33 65 88 13 21 119
internal_value=0 0.00013867 0.00092604 0.00215156 0.00465532 0.00706461 0.0103734 0.0036565 0.015677 0.0181031 0.0226073 0.0288897 0.0088133 0.0119295
internal_weight=0 7955 4269 2099 951 676 343 333 245 212 147 101 46 148
internal_count=22299 7955 4269 2099 951 676 343 333 245 212 147 101 46 148
shrinkage=0.1


Tree=179
num_leaves=15
num_cat=0
split_feature=3 14 23 23 3 34 21 1 20 34 20 3 3 23
split_gain=0.0251278 0.0612499 0.129967 0.188811 0.234358 0.930489 0.322053 0.39261 0.321831 0.265189 0.214134 0.179443 0.451582 1.69967
threshold=-6.283129999999999 0.00022625800000000001 -17.135599999999997 -8.3362899999999982 -8.403439999999998 0.014710350000000002 -2.4142549999999994 0.81388450000000012 -8.434314999999998 0.043231700000000005 -10.108899999999998 -8.3380249999999982 -7.7346249999999985 -7.7487749999999993
decision_type=2 2 2 2 2 2 2 2 2 2 2 2 2 2
left_child=1 2 -1 4 5 6 -4 -8 -7 10 -6 -5 13 -13
right_child=-2 -3 3 11 9 8 7 -9 -10 -11 -12 12 -14 -15
leaf_value=0.0020340902012425423 0.00019628764624778197 2.7810705708908906e-05 0.0029820082336664191 -0.0030294810943827357 0.0099427937021987003 0.016037381067872048 0.010445338785648343 0.037822863865982409 -0.0025363734696125747 -0.00085177895471831566 -0.0041840225536548996 0.018070392693378824 -0.00020493570477851466 -0.0020305855637255672
leaf_weight=193 5046 14323 10.000000000000002 145 10.999999999999998 9.9999999999999982 10.000000000000002 10.999999999999998 139 886 437 66 896 116
leaf_count=193 5046 14323 10 145 11 10 10 11 139 886 437 66 896 116
internal_value=0 -5.74084e-05 -0.000473993 -0.000650851 -0.00139735 0.00198968 0.0177524 0.0247859 -0.00128981 -0.00185437 -0.00383716 0.000273263 0.00071751 0.00525878
internal_weight=0 17253 2930 2737 1514 180 31 21 149 1334 448 1223 1078 182
internal_count=22299 17253 2930 2737 1514 180 31 21 149 1334 448 1223 1078 182
shrinkage=0.1


Tree=180
num_leaves=15
num_cat=0
split_feature=4 35 13 24 34 18 33 19 4 23 18 24 4 33
split_gain=0.0296202 0.0613334 0.134447 0.0506927 0.0385687 0.2102 0.251467 0.553669 0.234859 0.167939 0.137623 1.05757 0.441837 0.671387
threshold=-1.9281699999999999 -3.6067149999999999 0.00014235300000000004 -0.22815049999999998 0.096511600000000017 -1.7326649999999998e-05 2.0320650000000003e-05 0.0012249650000000002 -0.7010829999999999 -9.1363349999999972 -7.3056799999999988e-06 0.22223600000000002 0.11961750000000002 7.6094200000000009e-06
decision_type=2 2 2 2 2 2 2 2 2 2 2 2 2 2
left_child=1 2 -1 -3 5 6 8 -8 -2 -10 11 -6 -13 -14
right_child=4 3 -4 -5 10 -7 7 -9 9 -11 -12 12 13 -15
leaf_value=0.014058887420687819 -2.3050634675903251e-05 -0.00049383128944302578 -0.0019620643420652909 0.00045913341528846575 0.0033330633378582174 1.4156893326890696e-05 -0.002544631168488055 0.021098394267573897 -0.0043383236576558975 -0.0014901222264182936 -8.5140353000701845e-05 -0.0028227584082567555 -0.0048114541685208671 0.024636938497424127
leaf_weight=10.000000000000002 729 720 10.999999999999998 2484 827 10379 26 15.999999999999998 306 640 5553 567 16.000000000000004 14.999999999999998
leaf_count=10 729 720 11 2484 827 10379 26 16 306 640 5553 567 16 15
internal_value=0 0.00028029 0.00566696 0.000244984 -4.7391e-05 -0.000155395 -0.00118031 0.00646224 -0.00137195 -0.00241142 0.000139829 0.0010165 -0.00218718 0.00943777
internal_weight=0 3225 21 3204 19074 12096 1717 42 1675 946 6978 1425 598 31
internal_count=22299 3225 21 3204 19074 12096 1717 42 1675 946 6978 1425 598 31
shrinkage=0.1


Tree=181
num_leaves=15
num_cat=0
split_feature=26 4 4 24 4 3 34 23 3 3 17 4 24 4
split_gain=0.0292306 1.20459 0.812121 0.715351 0.653508 0.700586 0.714713 0.727201 1.12946 1.07873 0.822198 0.615906 0.598354 0.763492
threshold=-6.3305049999999981e-05 0.034634100000000008 0.017115750000000002 1.0000000180025095e-35 0.35551300000000002 -6.4853999999999994 0.39052300000000001 -7.3219299999999992 -7.2465349999999988 -7.2465349999999988 3.5305850000000002e-07 -0.42967699999999992 -0.065661549999999985 0.9753535000000001
decision_type=2 2 2 2 2 2 2 2 2 2 2 2 2 2
left_child=1 -1 3 11 5 6 7 9 -9 -3 -10 -2 13 -4
right_child=2 4 12 -5 -6 -7 -8 8 10 -11 -12 -13 -14 -15
leaf_value=-0.00096727663800113227 7.2366577545405472e-06 0.0083576871986477865 -0.0022572752450463543 -0.0012734296907655701 7.4727899787616707e-05 0.00019854680078725516 -1.2758958881913343e-05 -0.002222642790736151 0.0061089330496123207 -0.0035642607790874158 0.031441938767538355 0.0021760125622338235 0.00099846660815390456 0.00021908940708536331
leaf_weight=4634 2342 646 3389 1469 2002 785 343 232 52 86 17 2970 1364 1968
leaf_count=4634 2342 646 3389 1469 2002 785 343 232 52 86 17 2970 1364 1968
internal_value=0 0.000141843 -9.24153e-05 0.000679699 0.00137645 0.00258239 0.00394236 0.00525563 0.00111802 0.00695702 0.0123504 0.00121982 -0.000871422 -0.00134753
internal_weight=0 8797 13502 6781 4163 2161 1376 1033 301 732 69 5312 6721 5357
internal_count=22299 8797 13502 6781 4163 2161 1376 1033 301 732 69 5312 6721 5357
shrinkage=0.1


Tree=182
num_leaves=15
num_cat=0
split_feature=4 35 0 38 3 28 8 34 14 4 34 3 14 4
split_gain=0.0358374 0.049089 0.119172 0.0479943 0.0407763 0.0606394 0.212327 0.20059 0.652664 0.139795 0.605539 0.126082 0.111486 0.0881886
threshold=-1.9281699999999999 -3.6067149999999999 -2.0848949999999995 0.00031584750000000008 -6.2170999999999994 -0.085570549999999981 8.5689950000000018e-06 0.4540705000000001 0.0014664200000000002 -0.31037149999999997 2.6566550000000002 -15.973449999999998 0.00048074400000000002 0.93067350000000004
decision_type=2 2 2 2 2 2 2 2 2 2 2 2 2 2
left_child=1 2 -1 -3 5 6 12 8 -8 10 -9 -11 -2 -7
right_child=4 3 -4 -5 -6 13 7 9 -10 11 -12 -13 -14 -15
leaf_value=-0.0020552148206413462 0.0015553342552186971 0.00055676142618874892 0.013028241666033863 -0.00025818233130071644 0.00020223917527130973 -0.00034050840393147524 0.026419857410447934 0.022627098020166159 -0.0027367706246235793 0.0098200319955746348 -0.0017599019082678883 0.00033746911719073218 -0.0013380479886663601 0.00024676126106296597
leaf_weight=11.000000000000002 195 2103 9.9999999999999982 1101 4737 9979 14.000000000000002 15.999999999999998 17 14.999999999999998 28 215 420 3438
leaf_count=11 195 2103 10 1101 4737 9979 14 16 17 15 28 215 420 3438
internal_value=0 0.000308306 0.00512738 0.00027672 -5.21278e-05 -0.000136172 0.000649213 0.00280644 0.0104307 0.00194384 0.0071081 0.000955897 -0.000420634 -0.000190025
internal_weight=0 3225 21 3204 19074 14337 920 305 31 274 44 230 615 13417
internal_count=22299 3225 21 3204 19074 14337 920 305 31 274 44 230 615 13417
shrinkage=0.1


Tree=183
num_leaves=15
num_cat=0
split_feature=24 5 6 33 35 8 11 22 3 10 17 18 34 7
split_gain=0.0302527 0.0758424 0.0597623 0.0712545 0.0882218 0.0557851 0.160263 0.499076 0.0493236 0.0430502 0.0404943 0.108547 0.252705 0.372768
threshold=0.54616000000000009 7.1526450000000005e-06 1.3746400000000004e-06 0.00013560600000000003 0.6401960000000001 -8.6802549999999974e-06 -3.8944799999999993e-05 2.1960850000000005 -10.433649999999998 1.5487650000000004e-05 5.7431900000000008e-05 0.00030319250000000004 5.7538600000000004 4.2872450000000003e-05
decision_type=2 2 2 2 2 2 2 2 2 2 2 2 2 2
left_child=-1 -2 10 4 5 6 7 -4 -5 -7 11 -3 -13 -14
right_child=1 2 3 8 -6 9 -8 -9 -10 -11 -12 12 13 -15
leaf_value=-3.1302125518541429e-05 0.0067113215195652295 -0.00025040568416978418 0.0015093489879897486 -0.009178996160626408 0.0091289887810125959 0.0065782796782018109 0.001085057683539344 0.027661186646437276 -0.00057751976346480664 0.00019139094896392916 -0.0020494079314965731 0.00064263551706775419 0.026963807800784695 -0.00034068095963448288
leaf_weight=20797 19 816 27 10.000000000000002 14.999999999999998 10.999999999999998 125 9.9999999999999982 20 260 95 74 10.000000000000002 9.9999999999999982
leaf_count=20797 19 816 27 10 15 11 125 10 20 260 95 74 10 10
internal_value=0 0.000433416 0.000352984 0.00127346 0.00158941 0.00132822 0.00279627 0.00857741 -0.00344468 0.000450637 -8.48144e-05 0.000120281 0.00333815 0.0133116
internal_weight=0 1502 1483 478 448 433 162 37 30 271 1005 910 94 20
internal_count=22299 1502 1483 478 448 433 162 37 30 271 1005 910 94 20
shrinkage=0.1


Tree=184
num_leaves=15
num_cat=0
split_feature=4 24 4 24 14 21 3 27 39 3 27 3 2 3
split_gain=0.030659 0.0597642 0.305991 0.0422899 0.0359088 0.0727123 0.110426 0.0800684 0.0576884 0.368017 0.140809 0.321111 0.0853567 0.148302
threshold=-1.2804649999999997 -1.7384499999999996 -2.5874299999999995 -0.17527699999999999 7.9790750000000019e-05 10.337350000000002 -6.4339449999999987 0.50270450000000011 7.1810450000000008e-07 -6.8076899999999991 0.17957150000000002 -5.7714949999999989 -2.4935499999999995 -6.2342049999999993
decision_type=2 2 2 2 2 2 2 2 2 2 2 2 2 2
left_child=1 2 -1 -3 5 8 7 -7 9 -2 12 -12 -11 -14
right_child=4 3 -4 -5 -6 6 -8 -9 -10 10 11 -13 13 -15
leaf_value=-0.0022657404656056318 0.01988814943470061 -0.00030964753760593798 0.016649181252488723 0.00043268181144463758 -0.00011514640528204699 -0.014262666722590271 -0.00073701869411063072 -0.0024510966138526179 0.00027971145964453476 -0.0095064883679151536 0.018888053140388082 -0.001737247864043133 0.0093712516625722251 -0.0013602533708583176
leaf_weight=25 10.999999999999998 1077 12.999999999999998 2670 15441 11.000000000000002 178 11.999999999999998 2714 9.9999999999999982 13.000000000000002 18 14.999999999999998 91
leaf_count=25 11 1077 13 2670 15441 11 178 12 2714 10 13 18 15 91
internal_value=0 0.00025933 0.00420515 0.000219314 -5.30175e-05 0.000259164 -0.00157956 -0.00810011 0.000387849 0.00224535 0.000925136 0.00691207 -0.00067482 0.000158356
internal_weight=0 3785 38 3747 18514 3073 201 23 2872 158 147 31 116 106
internal_count=22299 3785 38 3747 18514 3073 201 23 2872 158 147 31 116 106
shrinkage=0.1


Tree=185
num_leaves=15
num_cat=0
split_feature=4 29 24 4 29 9 30 14 11 5 18 38 4 38
split_gain=0.0248338 0.0497792 0.162908 0.4573 0.0433571 0.061834 0.0380699 0.0451494 0.0361333 0.037931 0.0325126 1.77605 0.718431 0.612148
threshold=-1.2804649999999997 1.4102300000000001 -1.7384499999999996 -2.8101849999999993 1.4102300000000001 -4.6939049999999996e-05 0.40728000000000003 0.0022170600000000003 -6.0760099999999994e-05 1.0742400000000002e-05 -1.7750149999999999e-06 0.00020902850000000003 0.034634100000000008 0.00021725850000000002
decision_type=2 2 2 2 2 2 2 2 2 2 2 2 2 2
left_child=1 2 3 -1 6 -6 10 -8 -7 -10 11 -2 -13 -12
right_child=4 -3 -4 -5 5 8 7 -9 9 -11 13 12 -14 -15
leaf_value=-0.0016626747629036088 -0.0018328940445422313 -0.0041271469542362655 0.0002065284463216927 0.025008562095463278 0.0095485218893736606 -0.0044140402716584502 -0.00051287538098061781 -0.0087349992922761237 0.0077150779962539681 0.0010705923200580176 0.00054785870606139156 0.002739153644995905 -0.0044169516846106925 -0.00083101609223488993
leaf_weight=18.000000000000004 2874 26 3731 9.9999999999999982 9.9999999999999982 9.9999999999999982 17.000000000000004 10.999999999999998 9.9999999999999982 61 8494 1689 153 5185
leaf_count=18 2874 26 3731 10 10 10 17 11 10 61 8494 1689 153 5185
internal_value=0 0.000233397 0.000263558 0.00786277 -4.77157e-05 0.00212969 -5.8471e-05 -0.003743 0.00121378 0.00200644 -5.28626e-05 -0.000279283 0.00214475 2.51987e-05
internal_weight=0 3785 3759 28 18514 91 18423 28 81 71 18395 4716 1842 13679
internal_count=22299 3785 3759 28 18514 91 18423 28 81 71 18395 4716 1842 13679
shrinkage=0.1


Tree=186
num_leaves=15
num_cat=0
split_feature=24 2 22 15 15 12 2 22 3 18 18 7 18 0
split_gain=0.0247134 0.090376 0.139853 0.392481 0.896755 0.0731037 0.0601154 0.0468229 0.113594 0.0583894 0.149333 0.0456953 0.198839 0.280375
threshold=0.50922850000000008 2.1089200000000008 1.9633400000000003 -5.1217499999999997e-06 -4.4646249999999989e-05 9.5721450000000005e-05 2.5401300000000004 1.7472750000000004 -16.232699999999998 7.7705150000000013e-05 0.00041518400000000003 3.5924150000000007e-05 4.0333150000000005e-05 -0.22429349999999995
decision_type=2 2 2 2 2 2 2 2 2 2 2 2 2 2
left_child=-1 7 -3 4 -4 6 -5 11 -9 -10 -11 12 -2 -14
right_child=1 2 3 5 -6 -7 -8 8 9 10 -12 -13 13 -15
leaf_value=-2.9962827968913475e-05 0.00023942616624426043 0.00075394989297400872 -0.0044508067270119973 0.0084045671857893439 0.032802862115204334 -0.007361884601414204 -0.0017470314982347191 -0.01153977531939745 -1.6431623730985408e-05 -0.014078719431365079 -0.0008859835149987469 -0.00010161834572775726 -0.00094142426031135868 0.012354739581766938
leaf_weight=20628 330 178 12.000000000000002 10.000000000000002 13.999999999999998 10.999999999999998 13.999999999999998 9.9999999999999982 229 10.999999999999998 39 749 29 35
leaf_count=20628 330 178 12 10 14 11 14 10 229 11 39 749 29 35
internal_value=0 0.000369882 0.00217004 0.00630224 0.0156089 -0.000611243 0.0024828 6.94366e-05 -0.00106775 -0.000692409 -0.00378839 0.000356967 0.00122874 0.00632992
internal_weight=0 1671 239 61 26 35 24 1432 289 279 50 1143 394 64
internal_count=22299 1671 239 61 26 35 24 1432 289 279 50 1143 394 64
shrinkage=0.1


Tree=187
num_leaves=15
num_cat=0
split_feature=30 11 12 17 35 15 15 0 33 23 15 1 4 24
split_gain=0.0223451 0.0914806 0.03716 0.0372526 0.0229341 0.287572 0.270523 0.336421 0.522432 0.429193 0.276934 0.269433 0.158834 0.196411
threshold=0.40728000000000003 -5.9570049999999997e-05 -9.8295499999999987e-05 9.2207650000000015e-08 0.033853900000000013 6.8396650000000006e-07 1.9066e-05 -3.0413449999999993 -7.6806599999999981e-06 -12.434149999999997 8.0950500000000007e-07 -2.0040299999999998 0.61727300000000007 0.48185350000000005
decision_type=2 2 2 2 2 2 2 2 2 2 2 2 2 2
left_child=4 -2 -3 -4 -1 -6 7 8 -7 -10 -9 -11 -12 -14
right_child=1 2 3 -5 5 6 -8 10 9 11 12 -13 13 -15
leaf_value=-2.3395472251709135e-05 -0.0084116953250486411 -0.0039743006478862039 0.0066188287998860083 -0.00036566929581264657 -0.00048179793892415219 0.0010490441686232333 0.00019108227763898347 0.018750190562568606 0.0036774017721075908 0.015746778938919303 -0.0012127719061771297 0.037971980691266553 -0.00041334590705446319 0.010426196994792138
leaf_weight=20589 15.999999999999998 13.999999999999998 11.999999999999998 21 1168 27 254 9.9999999999999982 10.999999999999998 10 88 12 32 35
leaf_count=20589 16 14 12 21 1168 27 254 10 11 10 88 12 32 35
internal_value=0 -0.00188064 0.000342695 0.00217415 5.32832e-06 0.000364402 0.00242779 0.00495278 0.0113651 0.0198055 0.00262102 0.0278696 0.00158043 0.0052491
internal_weight=0 63 47 33 22236 1647 479 225 60 33 165 22 155 67
internal_count=22299 63 47 33 22236 1647 479 225 60 33 165 22 155 67
shrinkage=0.1


Tree=188
num_leaves=15
num_cat=0
split_feature=3 14 34 23 3 23 27 25 37 4 18 0 24 4
split_gain=0.0223491 0.0500472 0.12344 0.190924 0.262429 0.779746 0.583776 0.418964 0.40178 0.676185 0.659456 0.581626 0.404959 0.365208
threshold=-6.283129999999999 0.00022625800000000001 0.4540705000000001 -7.9975599999999991 -8.0668149999999983 -9.7465899999999994 0.99580400000000013 0.17188700000000004 -2.7231799999999994e-08 -0.028858549999999993 9.7648700000000013e-08 7.173490000000001 0.1049105 0.031188150000000001
decision_type=2 2 2 2 2 2 2 2 2 2 2 2 2 2
left_child=1 2 3 4 5 -1 7 -7 11 -10 -11 12 13 -9
right_child=-2 -3 -4 -5 -6 6 -8 8 9 10 -12 -13 -14 -15
leaf_value=-0.0031227773137680048 0.00018511694354794961 2.2891281625087293e-05 0.0010123991236992938 0.00033301380174274869 -0.0021519230516619668 -0.0089833744615316399 -0.008254411909729243 0.014697335064411161 0.039023052614468798 -0.005721941714485485 0.028175740214911378 -0.011279131730015463 0.02483362748342402 -0.0099740990623831752
leaf_weight=172 5046 14323 493 1006 1138 9.9999999999999982 20 15.000000000000002 12.999999999999998 12.000000000000002 10.999999999999998 12.999999999999998 17 9.9999999999999982
leaf_count=172 5046 14323 493 1006 1138 10 20 15 13 12 11 13 17 10
internal_value=0 -5.41413e-05 -0.000430707 -0.000722645 -0.00146478 0.00120407 0.00735462 0.0104455 0.0125806 0.0207936 0.01049 0.00720476 0.012926 0.00482876
internal_weight=0 17253 2930 2437 1431 293 121 101 91 36 23 55 42 25
internal_count=22299 17253 2930 2437 1431 293 121 101 91 36 23 55 42 25
shrinkage=0.1


Tree=189
num_leaves=15
num_cat=0
split_feature=14 34 20 11 27 3 20 11 21 3 7 28 34 3
split_gain=0.0209187 0.0575276 0.14712 0.404333 0.0794338 0.270525 0.0790656 0.32787 0.0586111 0.166422 0.142935 0.121654 0.0616086 0.328541
threshold=9.2001000000000016e-05 0.099180800000000013 12.218850000000002 9.1058900000000013e-06 0.38971600000000006 -6.4339449999999987 -11.359899999999998 -1.0731849999999998e-05 -8.0113049999999983 -6.3047499999999994 3.1866550000000001e-05 -0.0031579349999999997 0.0039049450000000004 -6.2342049999999993
decision_type=2 2 2 2 2 2 2 2 2 2 2 2 2 2
left_child=1 2 4 -4 6 -6 7 -1 9 10 -8 -12 13 -10
right_child=-2 -3 3 -5 5 -7 8 -9 12 -11 11 -13 -14 -15
leaf_value=0.014974814009688357 -4.3339585013207595e-05 0.00075875292894312166 -0.00056933740464349585 0.019712041659035354 -0.0054158508670655615 -0.00024304399528245408 0.0011560297571122646 -0.0041413400346707353 0.0089252830336929538 -0.00015723808331512696 -0.0056583770529621026 -0.020898096784949298 8.6541958636524922e-05 -0.0003578959312511605
leaf_weight=17 18579 1282 33 13.999999999999998 117 744 10.999999999999998 19 51 155 10.999999999999998 10.000000000000002 1105 151
leaf_count=17 18579 1282 33 14 117 744 11 19 51 155 11 10 1105 151
internal_value=0 0.000216453 -6.87101e-05 0.00547192 -0.000177623 -0.000945969 0.000254761 0.00488573 0.000143171 -0.00151272 -0.00807834 -0.0129154 0.000380089 0.00198588
internal_weight=0 3720 2438 47 2391 861 1530 36 1494 187 32 21 1307 202
internal_count=22299 3720 2438 47 2391 861 1530 36 1494 187 32 21 1307 202
shrinkage=0.1


Tree=190
num_leaves=15
num_cat=0
split_feature=4 24 17 24 29 9 11 5 30 14 31 9 4 24
split_gain=0.0215907 0.0310705 0.200005 0.0382692 0.027411 0.0532842 0.0590344 0.0287609 0.02846 0.0297754 0.0255802 0.258739 0.359098 0.55457
threshold=-1.9281699999999999 -1.7384499999999996 -2.8658149999999996e-05 -0.22815049999999998 1.4102300000000001 -4.6939049999999996e-05 -8.2216199999999974e-05 1.0742400000000002e-05 0.40728000000000003 0.0022170600000000003 -0.55108449999999987 1.6784550000000002e-05 -0.25668149999999995 0.40095100000000006
decision_type=2 2 2 2 2 2 2 2 2 2 2 2 2 2
left_child=1 2 -1 -3 8 -6 -7 -8 10 -10 11 -2 13 -13
right_child=4 3 -4 -5 5 6 7 -9 9 -11 -12 12 -14 -15
leaf_value=-0.0024430644293518171 -0.0007124541219974569 -0.00044749682564723897 0.013074956508353353 0.00038986587089713586 0.0085681434790603819 -0.0063643703144043691 0.0065407568673518579 0.00099232423348322271 -0.00061150659697459015 -0.0072885956784540969 -7.8572371753194206e-05 0.013748668935872486 0.00087672484585183958 -0.0014459492769319474
leaf_weight=23 919 699 12.999999999999998 2490 9.9999999999999982 9.9999999999999982 10.999999999999998 62 17.000000000000004 10.999999999999998 17423 58 512 41
leaf_count=23 919 699 13 2490 10 10 11 62 17 11 17423 58 512 41
internal_value=0 0.000239302 0.00316067 0.000206324 -4.04608e-05 0.00167215 0.00084131 0.00182839 -4.8852e-05 -0.00323465 -4.41455e-05 0.000347893 0.00194275 0.00745595
internal_weight=0 3225 36 3189 19074 93 83 73 18981 28 18953 1530 611 99
internal_count=22299 3225 36 3189 19074 93 83 73 18981 28 18953 1530 611 99
shrinkage=0.1


Tree=191
num_leaves=15
num_cat=0
split_feature=5 22 20 23 21 7 23 0 1 7 30 25 21 29
split_gain=0.0203972 0.225368 0.104198 0.0581419 0.133236 0.413204 0.0489728 0.036778 0.0292541 0.027322 0.0478328 0.0517465 0.0294006 0.0523278
threshold=6.8464300000000006e-06 -2.7756699999999994 9.8038950000000025 -10.053299999999998 -2.4913699999999994 2.7354700000000004e-05 -7.7439199999999992 -2.0131199999999994 -2.3105549999999995 1.2760950000000002e-05 0.00010338150000000001 0.19987000000000002 2.8597700000000006 -0.0030805899999999998
decision_type=2 2 2 2 2 2 2 2 2 2 2 2 2 2
left_child=1 -1 3 4 5 -3 7 -5 -6 10 11 -2 -12 -14
right_child=9 2 -4 6 8 -7 -8 -9 -10 -11 12 -13 13 -15
leaf_value=0.012389219348551707 0.0081260974891483768 0.023071776474826031 0.0089736573184685166 -0.0096501571484483226 -0.0056515678328772391 -0.0016257481012005538 -0.00036837747431404537 -0.0029413567019880497 -0.00043609404835335327 -2.2759682713490726e-07 -0.0012474045409432552 -0.0016139521341150005 -0.010067527116431545 -0.0017146602179855107
leaf_weight=15.999999999999998 10.000000000000002 10.000000000000002 11.999999999999998 12.999999999999998 14.999999999999998 21 42 22 38 21978 78 11.999999999999998 11.999999999999998 20
leaf_count=16 10 10 12 13 15 21 42 22 38 21978 78 12 12 20
internal_value=0 0.00103444 -1.57104e-05 -0.000685725 0.00113371 0.0063412 -0.00267057 -0.0054332 -0.00191217 -8.84259e-06 -0.00144324 0.00281334 -0.00229456 -0.00484699
internal_weight=0 189 173 161 84 31 77 35 53 22110 132 22 110 32
internal_count=22299 189 173 161 84 31 77 35 53 22110 132 22 110 32
shrinkage=0.1


Tree=192
num_leaves=15
num_cat=0
split_feature=3 23 14 23 30 6 24 21 10 23 3 20 0 14
split_gain=0.019919 0.377919 0.442888 1.58288 1.46555 1.24524 0.91678 0.985529 0.907815 0.590133 0.556679 0.425702 0.413847 0.348911
threshold=-12.676799999999998 -12.677849999999998 0.0022170600000000003 -14.654899999999998 0.0028365400000000007 -1.7155649999999998e-06 0.16293600000000005 4.1310200000000012 2.9217750000000003e-05 -13.359599999999999 -14.372349999999999 2.4974000000000003 -1.0000000180025095e-35 0.0048436200000000007
decision_type=2 2 2 2 2 2 2 2 2 2 2 2 2 2
left_child=1 2 3 10 5 -5 7 9 -8 -7 11 12 -1 -3
right_child=-2 13 -4 4 -6 6 8 -9 -10 -11 -12 -13 -14 -15
leaf_value=0.015422323481603101 4.7846449298219e-05 -0.0020477648232701813 0.00039644389479671395 -0.0079232961512528937 -0.0091402704295303148 0.037633817866444597 0.059542099042580669 -0.0056551716075493742 0.019465488493442536 0.010265671863005709 -0.0065780949850796902 0.023459851182997229 -0.010114368374149004 7.8557783373859705e-05
leaf_weight=11 17750 1289 1107 12.999999999999998 21 19.999999999999996 13.000000000000002 12.999999999999998 9.9999999999999982 13.000000000000002 89 11.999999999999998 15 1923
leaf_count=11 17750 1289 1107 13 21 20 13 13 10 13 89 12 15 1923
internal_value=0 -0.000186695 0.00122605 0.00521898 0.0144307 0.0204672 0.0258162 0.0176655 0.0421175 0.0268524 -0.00225199 0.00788022 0.000689617 -0.000774752
internal_weight=0 4549 1337 230 103 82 69 46 23 33 127 38 26 3212
internal_count=22299 4549 1337 230 103 82 69 46 23 33 127 38 26 3212
shrinkage=0.1


Tree=193
num_leaves=15
num_cat=0
split_feature=23 1 21 3 18 24 35 3 8 12 3 3 19 33
split_gain=0.020753 0.0369145 0.0944526 0.20636 0.264245 1.16367 0.242497 0.27786 0.167607 0.123803 0.0668143 0.172993 0.0601809 0.0893595
threshold=-6.4198449999999996 5.6583100000000011 5.8520150000000006 -6.4339449999999987 3.0548800000000002e-07 0.11443150000000001 0.00051727450000000014 -5.7714949999999989 -2.0335499999999999e-05 7.2196850000000017e-05 -5.8392349999999995 -6.4339449999999987 0.00023814550000000003 1.5189050000000001e-06
decision_type=2 2 2 2 2 2 2 2 2 2 2 2 2 2
left_child=-1 -2 9 12 6 -6 7 8 -5 10 11 -3 13 -4
right_child=1 2 3 4 5 -7 -8 -9 -10 -11 -12 -13 -14 -15
leaf_value=-2.6703949055202731e-05 0.00063410204135381848 -0.0019966298830695452 -0.0060098466829003883 0.023395787030458443 -0.0049917816051415027 0.03967219486832619 -0.0069229591855495855 -0.0020555561461316593 0.0055079023184424099 0.00024561471473821003 -0.0011562330444576218 -0.013098760934546592 0.00078569983679539811 0.0016865500383904542
leaf_weight=20712 1175 32 48 10.000000000000002 14.000000000000002 9.9999999999999982 23 22 10.999999999999998 106 32 25 57 22
leaf_count=20712 1175 32 48 10 14 10 23 22 11 106 32 25 57 22
internal_value=0 0.000348514 -0.000465965 0.000969345 0.00463257 0.0136182 0.00136507 0.0057982 0.0140259 -0.00206321 -0.00481304 -0.00686599 -0.00162664 -0.00359098
internal_weight=0 1587 412 217 90 24 66 43 21 195 89 57 127 70
internal_count=22299 1587 412 217 90 24 66 43 21 195 89 57 127 70
shrinkage=0.1


Tree=194
num_leaves=15
num_cat=0
split_feature=7 32 28 3 14 27 28 31 0 19 22 2 33 14
split_gain=0.0184129 0.0414138 0.0775784 0.100231 0.168817 0.307168 0.392265 0.116177 0.576197 0.796389 0.375792 0.121048 0.274142 0.117397
threshold=5.1723650000000004e-05 0.039453100000000012 0.0037296700000000005 -7.1682849999999991 0.00018603950000000002 0.20822350000000003 0.00074288900000000016 -0.060037249999999993 4.2745250000000015 1.5736100000000003e-05 1.0000000180025095e-35 -2.9820849999999997 -3.3327599999999994e-06 0.00029046550000000007
decision_type=2 2 2 2 2 2 2 2 2 2 2 2 2 2
left_child=-1 2 3 4 5 -2 -7 8 -6 -10 -11 12 -9 -13
right_child=1 -3 -4 -5 7 6 -8 11 9 10 -12 13 -14 -15
leaf_value=-6.6550993880408588e-05 -1.6977330087684095e-05 -0.00020004300915354336 -6.9910133470117933e-05 -2.6858328367264179e-05 -0.00016742674321578615 0.023037958335286629 0.0015184184972895311 0.020367960127769039 0.034748903749277818 0.017008883963674584 -0.0022621116739464926 -0.0050522683902128945 0.0009855963949424527 0.000610895087997974
leaf_weight=14514 40 2617 2787 1044 137 18 15.999999999999998 9.9999999999999982 11.999999999999998 17 25 38 27 997
leaf_count=14514 40 2617 2787 1044 137 18 16 10 12 17 25 38 27 997
internal_value=0 0.000124075 0.000288203 0.000707381 0.00128071 0.00592296 0.0129111 0.00100872 0.00328088 0.0120294 0.00553805 0.000603887 0.00622407 0.000402972
internal_weight=0 7785 5168 2381 1337 74 34 1263 191 54 42 1072 37 1035
internal_count=22299 7785 5168 2381 1337 74 34 1263 191 54 42 1072 37 1035
shrinkage=0.1


Tree=195
num_leaves=15
num_cat=0
split_feature=14 23 32 3 22 5 27 3 19 33 23 3 3 21
split_gain=0.0193369 0.0809958 0.0625147 0.150049 0.130781 0.237276 0.279767 0.129914 0.114554 0.304115 0.419332 0.600465 0.240325 0.169045
threshold=9.2001000000000016e-05 -10.173099999999998 -0.020499799999999995 -6.4853999999999994 -0.71469499999999997 7.9071800000000014e-06 0.21806800000000001 -6.9915399999999996 0.00021067050000000002 7.1091050000000012e-07 -7.0796749999999991 -5.7169999999999996 -7.0634999999999986 3.4655050000000007
decision_type=2 2 2 2 2 2 2 2 2 2 2 2 2 2
left_child=1 -1 3 -3 7 6 -6 -4 -7 -10 12 13 -11 -12
right_child=-2 2 4 -5 5 8 -8 -9 9 10 11 -13 -14 -15
leaf_value=0.0007651306265258357 -4.1668850105040942e-05 -0.0045679705795056676 -0.0068076658688369209 -0.00037764354570541417 -0.0001428143205967816 0.00023540480977454401 0.021935956564266237 -0.00030934831934753987 -0.0042826558506931182 0.01371714119333774 0.033085983619093887 -0.0020101828446898325 -0.0041834935147198847 0.01592357647181912
leaf_weight=1534 18579 97 32 718 11.000000000000002 411 11.999999999999998 797 32 9.9999999999999982 12.000000000000002 12.999999999999998 30 10.999999999999998
leaf_count=1534 18579 97 32 718 11 411 12 797 32 10 12 13 30 11
internal_value=0 0.000208109 -0.000182774 -0.00087637 0.000229538 0.00143744 0.0113765 -0.000560188 0.000996978 0.00389519 0.00733849 0.0151683 0.000291665 0.0248779
internal_weight=0 3720 2186 815 1371 542 23 829 519 108 76 36 40 23
internal_count=22299 3720 2186 815 1371 542 23 829 519 108 76 36 40 23
shrinkage=0.1


Tree=196
num_leaves=15
num_cat=0
split_feature=37 18 19 26 3 23 34 1 38 14 3 19 35 19
split_gain=0.0186446 0.0777457 0.843262 1.19362 1.15514 1.4079 1.98939 1.5218 0.936096 1.19482 0.773281 0.761043 0.880535 0.715561
threshold=-2.1173049999999996e-08 5.8510050000000008e-08 9.8201550000000019e-07 -5.3236999999999999e-05 -7.2050099999999988 -7.1911899999999989 0.11925900000000002 8.503045000000002 -0.0006637469999999999 0.00022219550000000004 -11.706199999999997 1.3216200000000002e-07 0.0027109000000000005 3.6465450000000008e-06
decision_type=2 2 2 2 2 2 2 2 2 2 2 2 2 2
left_child=-1 13 3 4 5 6 7 8 9 -3 -10 12 -11 -2
right_child=1 2 -4 -5 -6 -7 -8 -9 10 11 -12 -13 -14 -15
leaf_value=-9.4267491753402034e-05 -0.0018905239654767225 -0.0040846042179812992 -0.00053134083183427848 -0.0003324046792288109 0.0009304831264193063 -0.0028317785748928231 0.0018419476533641241 0.05367997390302745 -0.0028248023834418169 0.032399447379927886 0.014943863244629221 0.042081851319506258 -0.0031522905708036642 0.00049420271935619495
leaf_weight=10810 1716 11.999999999999998 3370 882 374 87 133 10.999999999999998 33 19.000000000000004 95 29 10.999999999999998 4717
leaf_count=10810 1716 12 3370 882 374 87 133 11 33 19 95 29 11 4717
internal_value=0 8.86963e-05 0.000382124 0.00220797 0.0049948 0.0085298 0.0114116 0.0174724 0.015471 0.0246799 0.0103629 0.0305303 0.0193638 -0.000141922
internal_weight=0 11489 5056 1686 804 430 343 210 199 71 128 59 30 6433
internal_count=22299 11489 5056 1686 804 430 343 210 199 71 128 59 30 6433
shrinkage=0.1


Tree=197
num_leaves=15
num_cat=0
split_feature=17 38 33 4 18 34 33 13 13 3 23 23 20 2
split_gain=0.0248118 0.291431 0.418406 0.577811 0.931787 0.897125 0.706265 1.43417 0.837359 1.09172 1.98171 1.39558 0.764573 1.93081
threshold=5.7427200000000006e-08 -3.528439999999999e-05 3.975485000000001e-06 -0.41304449999999998 -7.2570549999999991e-08 0.0080391900000000016 -1.3162999999999997e-05 3.0627750000000008e-05 4.1568450000000003e-05 -7.2465349999999988 -7.6167649999999991 -7.4571249999999987 -4.1886449999999984 -2.0204349999999995
decision_type=2 2 2 2 2 2 2 2 2 2 2 2 2 2
left_child=1 -1 3 -3 5 -5 7 -7 9 10 12 -11 -8 -14
right_child=-2 2 -4 4 -6 6 8 -9 -10 11 -12 -13 13 -15
leaf_value=-0.00050026208067104245 -7.8554598904968418e-05 1.6812493957019116e-07 -0.00053819212852804547 0.00027015386491789617 -0.00021111668251298885 -0.0038367527442643846 0.010360281003328663 0.015021384083742246 -0.0036632683201643979 -0.0034472907347371804 -0.0052588639794574942 0.021496545240370327 -0.010440158815338062 0.030550953406238496
leaf_weight=3744 14344 1280 1636 246 533 119 45 61 38 75 34 32 12.999999999999998 99
leaf_count=3744 14344 1280 1636 246 533 119 45 61 38 75 34 32 13 99
internal_value=0 0.000141645 0.000712365 0.00150689 0.00299617 0.00523958 0.00760873 0.00255406 0.0103166 0.0120992 0.0166295 0.00401255 0.0213696 0.0257931
internal_weight=0 7955 4211 2575 1295 762 516 180 336 298 191 107 157 112
internal_count=22299 7955 4211 2575 1295 762 516 180 336 298 191 107 157 112
shrinkage=0.1


Tree=198
num_leaves=15
num_cat=0
split_feature=24 5 12 13 22 7 1 14 3 20 13 16 5 14
split_gain=0.022675 0.054255 0.0509347 0.0487186 0.209346 0.648179 0.0773625 0.0522804 0.044749 0.084121 0.126416 0.0665185 0.0857799 0.0650529
threshold=0.50922850000000008 7.1526450000000005e-06 -7.1836849999999986e-05 -3.2281699999999993e-05 1.6390350000000002 4.7413900000000004e-05 6.2321400000000002 0.0076471900000000008 -13.528999999999998 5.2773900000000014 8.2126600000000021e-05 6.5981350000000003e-06 2.0844200000000003e-05 0.006874540000000001
decision_type=2 2 2 2 2 2 2 2 2 2 2 2 2 2
left_child=-1 -2 -3 4 7 -6 -7 -4 9 11 -11 12 13 -5
right_child=1 2 3 8 5 6 -8 -9 -10 10 -12 -13 -14 -15
leaf_value=-2.8700594660001274e-05 0.0056675441183247849 -0.00058216557204431095 0.00076059371924595723 -0.0057928995628996442 0.026799781448565999 -0.0057235804003929443 0.0057925609522499148 -0.0066280860453844072 0.00066535713888421044 -0.0023889853780229499 0.012566267913207413 -0.0068377666554793161 0.0075728503055870538 0.00055303291883319623
leaf_weight=20628 19 474 74 30 12.999999999999998 14.000000000000002 9.9999999999999982 10.999999999999998 931 13.000000000000002 9.9999999999999982 27 9.9999999999999982 35
leaf_count=20628 19 474 74 30 13 14 10 11 931 13 10 27 10 35
internal_value=0 0.0003543 0.000293192 0.000645415 0.00253744 0.00881602 -0.000925188 -0.000195588 0.000426829 -0.00134973 0.0041133 -0.00258159 -0.00104936 -0.00237586
internal_weight=0 1671 1652 1178 122 37 24 85 1056 125 23 102 75 65
internal_count=22299 1671 1652 1178 122 37 24 85 1056 125 23 102 75 65
shrinkage=0.1


Tree=199
num_leaves=15
num_cat=0
split_feature=4 39 4 3 14 23 31 24 38 5 35 19 25 4
split_gain=0.0233416 0.0625227 0.232444 0.117728 0.142758 0.164651 0.217222 0.155498 0.200338 0.133683 0.331553 0.103109 0.0945437 0.0835855
threshold=1.1082250000000002 5.6240400000000005e-05 0.22711450000000002 -6.0725999999999987 0.00088515050000000019 -11.391099999999998 -0.15882949999999998 0.21386250000000004 -0.0013152949999999997 1.6234500000000002e-05 0.00068072950000000021 2.5573700000000003e-06 0.17276150000000004 0.18789900000000004
decision_type=2 2 2 2 2 2 2 2 2 2 2 2 2 2
left_child=1 2 -1 4 7 9 -7 -4 -9 11 12 -6 -11 -3
right_child=-2 13 3 -5 5 6 -8 8 -10 10 -12 -13 -14 -15
leaf_value=-2.722463834104028e-05 0.00022396425224291037 4.9488693311822576e-05 -0.0047173799085150504 0.00030836953144656342 -0.011838238947980461 0.013557341957295483 -0.00063632741950324432 -0.0031539500302945572 0.014499286152422429 0.004657266786142083 0.015966029414399105 -0.0042379545147144078 -0.0060083675424239657 0.0010424547987289165
leaf_weight=10434 3850 5695 244 300 21 10.999999999999998 545 18.000000000000004 9.9999999999999982 10.999999999999998 10.999999999999998 119 34 996
leaf_count=10434 3850 5695 244 300 21 11 545 18 10 11 11 119 34 996
internal_value=0 -4.67376e-05 -0.000185609 -0.00143378 -0.00194417 -0.00123406 -0.000355517 -0.00390742 0.00315078 -0.00372626 0.000403067 -0.005378 -0.00340121 0.000197298
internal_weight=0 18449 11758 1324 1024 752 556 272 28 196 56 140 45 6691
internal_count=22299 18449 11758 1324 1024 752 556 272 28 196 56 140 45 6691
shrinkage=0.1


Tree=200
num_leaves=15
num_cat=0
split_feature=37 17 4 19 38 13 23 7 18 34 4 4 23 3
split_gain=0.0223258 0.435799 0.52507 0.643216 0.457257 0.775373 1.29856 1.38273 1.99145 0.957011 0.391855 0.826481 1.056 0.811096
threshold=-2.1173049999999996e-08 5.7427200000000006e-08 -0.10651199999999998 1.5736100000000003e-05 -0.00019760749999999996 -3.4341799999999997e-05 -11.830699999999998 4.8545300000000004e-05 5.8316350000000001e-06 0.21014650000000004 0.057852600000000011 0.66577950000000008 -10.829899999999999 -6.2342049999999993
decision_type=2 2 2 2 2 2 2 2 2 2 2 2 2 2
left_child=1 -1 -3 -4 5 6 7 8 9 -5 -7 12 -12 -14
right_child=-2 2 3 4 -6 10 -8 -9 -10 -11 11 -13 13 -15
leaf_value=0.0007327579127978654 9.7058267766382368e-05 -0.0024757933675078857 -0.0016729478002600149 0.057210719428564365 -0.00024356316020180931 -0.0025046247706620346 -0.0001362320840363046 0.0021463340848115169 0.0074790795754280789 0.020147254770960323 -3.7698398241583635e-05 -0.00010332665066007334 0.016257084714117177 -0.0013238030975437998
leaf_weight=3955 11489 1210 1910 19.000000000000004 2397 247 108 45 31 10.999999999999998 132 596 115 34
leaf_count=3955 11489 1210 1910 19 2397 247 108 45 31 11 132 596 115 34
internal_value=0 -0.000103155 -0.000585435 -0.000180239 0.0005831 0.00206405 0.00758106 0.015444 0.0252537 0.0436208 0.00101366 0.00200456 0.00647537 0.0122453
internal_weight=0 10810 6855 5645 3735 1338 214 106 61 30 1124 877 281 149
internal_count=22299 10810 6855 5645 3735 1338 214 106 61 30 1124 877 281 149
shrinkage=0.1


Tree=201
num_leaves=15
num_cat=0
split_feature=14 7 20 0 4 15 14 30 28 1 21 1 35 32
split_gain=0.0303571 0.0438605 0.121498 0.475185 0.343463 0.558751 0.603117 0.370096 0.497467 0.388657 0.311281 0.592229 0.251626 0.244076
threshold=9.2001000000000016e-05 4.5000550000000007e-05 -6.1283249999999994 -5.6046499999999995 0.35551300000000002 8.7851900000000014e-07 0.00062617350000000011 0.0031303350000000001 0.0095576400000000009 4.8692650000000013 -1.6385599999999998 0.86377000000000004 0.050172150000000006 0.074912750000000014
decision_type=2 2 2 2 2 2 2 2 2 2 2 2 2 2
left_child=-1 -2 3 4 5 6 7 8 9 10 13 -12 -7 -3
right_child=1 2 -4 -5 -6 12 -8 -9 -10 -11 11 -13 -14 -15
leaf_value=0.00026075177906152453 -0.00018999074842519613 0.02205518110234651 -7.0130228102634093e-05 -0.00011846265981726063 -0.0016215733454927155 -0.0011432230640985226 0.031565952470356769 -0.0010317435689648847 0.027085558529943227 -0.0012986951671979008 -0.002571913807963332 0.022981365340260362 0.011228518158589539 0.0065164829883724452
leaf_weight=3720 10298 31 6656 1203 92 122 10.999999999999998 40 14.999999999999998 34 30 12.999999999999998 19 14.999999999999998
leaf_count=3720 10298 31 6656 1203 92 122 11 40 15 34 30 13 19 15
internal_value=0 -5.22093e-05 0.000119132 0.000894348 0.00378158 0.00528791 0.00884202 0.00743773 0.00989265 0.00779596 0.0112703 0.0051535 0.000523891 0.0169882
internal_weight=0 18579 8281 1625 422 330 189 178 138 123 89 43 141 46
internal_count=22299 18579 8281 1625 422 330 189 178 138 123 89 43 141 46
shrinkage=0.1


Tree=202
num_leaves=15
num_cat=0
split_feature=14 23 32 22 14 17 33 23 7 14 37 11 0 30
split_gain=0.0245893 0.0670653 0.0593352 0.105875 0.226482 0.0861739 0.163722 0.337691 0.348801 0.186869 0.127109 0.124221 0.234517 0.163278
threshold=9.2001000000000016e-05 -9.8226799999999983 -0.020499799999999995 -0.71469499999999997 9.0643750000000004e-05 3.9992650000000002e-07 1.0000000180025095e-35 -7.2010749999999994 6.3562300000000006e-05 4.7210250000000001e-05 1.0000000180025095e-35 1.0458900000000001e-05 11.678100000000002 8.5645600000000012e-05
decision_type=2 2 2 2 2 2 2 2 2 2 2 2 2 2
left_child=1 -1 -3 -4 5 10 -7 -8 9 -9 -5 -12 13 -13
right_child=-2 2 3 4 -6 6 7 8 -10 -11 11 12 -14 -15
leaf_value=0.00070230661231859717 -4.6988376681378117e-05 -0.00088098465486458131 -0.00049007090600343525 -0.0017274924769373097 0.016243165982887147 -0.0014684266098941277 -0.00016889650611566346 0.010770322001454502 0.0038166074789963509 0.028814845842619737 0.00048483285221240143 0.023432856388390058 -0.00016078337276121603 0.0061313408067993208
leaf_weight=1681 18579 720 786 177 9.9999999999999982 56 57 11.000000000000002 30 11.999999999999998 133 10.000000000000002 25 11.999999999999998
leaf_count=1681 18579 720 786 177 10 56 57 11 30 12 133 10 25 12
internal_value=0 0.000234677 -0.000150849 0.000247709 0.00133569 0.00105066 0.00293308 0.00517384 0.0109198 0.0201849 0.000175355 0.00204649 0.00646564 0.0139957
internal_weight=0 3720 2039 1319 533 523 166 110 53 23 357 180 47 22
internal_count=22299 3720 2039 1319 533 523 166 110 53 23 357 180 47 22
shrinkage=0.1


Tree=203
num_leaves=15
num_cat=0
split_feature=3 14 23 23 3 23 25 22 4 38 23 3 34 3
split_gain=0.0242939 0.0475635 0.129602 0.0990824 0.14278 0.537119 0.411923 0.378915 0.581111 0.570223 0.369989 0.259832 0.213867 0.144261
threshold=-6.2170999999999994 0.00022625800000000001 -15.5177 -7.9975599999999991 -8.0668149999999983 -9.1511549999999975 1.0560900000000004 -1.0961299999999998 0.028911300000000004 -9.3929049999999978e-05 -8.4213949999999986 -8.6694649999999971 0.036309900000000006 -9.2069399999999977
decision_type=2 2 2 2 2 2 2 2 2 2 2 2 2 2
left_child=1 2 -1 4 5 13 7 10 -9 -10 -7 -11 -6 -4
right_child=-2 -3 3 -5 12 6 -8 8 9 11 -12 -13 -14 -15
leaf_value=0.0014524465504022024 0.00019732968086353785 2.1063017142642549e-05 0.003313335223065224 8.709823100923618e-05 -0.0033053011238226983 0.011816506832838055 -0.0059552719071507458 0.029120767820212581 0.021579153222196244 -0.013670039566403081 -0.01538603499531746 0.0072125457227230072 -0.0006407060855716934 -0.0033688850372051264
leaf_weight=332 4875 14363 40 1111 469 10.000000000000002 20 18 17 11.000000000000002 9.9999999999999982 12.999999999999998 842 168
leaf_count=332 4875 14363 40 1111 469 10 20 18 17 11 10 13 842 168
internal_value=0 -5.52102e-05 -0.000413104 -0.00064006 -0.00113936 0.000801863 0.00686476 0.0101103 0.0141426 0.00756679 -0.00178476 -0.00235864 -0.00159394 -0.00208384
internal_weight=0 17424 3061 2729 1618 307 99 79 59 41 20 24 1311 208
internal_count=22299 17424 3061 2729 1618 307 99 79 59 41 20 24 1311 208
shrinkage=0.1


Tree=204
num_leaves=15
num_cat=0
split_feature=4 33 28 39 4 16 22 13 4 21 14 20 20 0
split_gain=0.0217275 0.0560517 0.0639578 0.0498947 0.182803 0.0840595 0.355319 0.622011 0.447936 0.522694 0.394425 1.01126 0.703553 0.583007
threshold=1.1082250000000002 1.4206750000000003e-05 -1.0654399999999997 5.6240400000000005e-05 0.22711450000000002 -2.4835049999999993e-07 1.856025 -5.4235199999999987e-06 -0.27336699999999997 7.7471000000000005 0.00013973650000000004 -8.8705749999999988 -9.2956449999999986 -5.5569049999999995
decision_type=2 2 2 2 2 2 2 2 2 2 2 2 2 2
left_child=3 2 -2 4 5 6 -1 8 -8 10 12 -12 -10 -13
right_child=1 -3 -4 -5 -6 -7 7 -9 9 -11 11 13 -14 -15
leaf_value=-0.00099449245062741909 0.0083868522010743622 -0.00056548345971151666 0.00037659532001129396 0.0001729101290591626 -0.0012760436686699616 0.00015919388049331063 -0.0022465046517277975 -0.00085156681861803067 0.021354651805013419 -0.0057590123973786829 -0.0074131710221990946 0.026330532433419696 -0.0039560817356687041 0.010576227436011488
leaf_weight=2527 9.9999999999999982 741 3099 6691 1324 7255 58 397 14.999999999999998 25 20 41 41 55
leaf_count=2527 10 741 3099 6691 1324 7255 58 397 15 25 20 41 41 55
internal_value=0 0.000216082 0.00040236 -4.50926e-05 -0.000169149 -2.86922e-05 -0.000457479 0.00162386 0.00547776 0.00775191 0.00971571 0.0130429 0.00282358 0.0173046
internal_weight=0 3850 3109 18449 11758 10434 3179 652 255 197 172 116 56 96
internal_count=22299 3850 3109 18449 11758 10434 3179 652 255 197 172 116 56 96
shrinkage=0.1


Tree=205
num_leaves=15
num_cat=0
split_feature=10 22 2 37 22 2 2 3 21 31 33 21 1 1
split_gain=0.0224716 0.043243 0.15395 0.262125 0.0406367 0.111618 0.203145 0.0492765 0.06293 0.0722722 0.0280499 0.026968 1.84812 0.907709
threshold=6.8379000000000017e-05 2.6851400000000005 2.6751900000000002 -7.3323499999999975e-08 -2.7851799999999995 -2.7726849999999996 -2.9438099999999996 -13.453149999999999 -6.6783799999999998 0.023476650000000005 0.00020448100000000004 -3.6924999999999994 -3.4659349999999995 -3.4026999999999998
decision_type=2 2 2 2 2 2 2 2 2 2 2 2 2 2
left_child=11 4 -3 -4 5 6 -2 8 -6 -10 -9 12 -1 -13
right_child=1 2 3 -5 7 -7 -8 10 9 -11 -12 13 -14 -15
leaf_value=0.0021433381572106597 -0.00086539469581718232 0.00053382827823651312 -0.00078624785362210639 0.018933458187474082 0.003976608904971121 0.00064450203911390518 0.017948533935387704 0.00018588583865327728 -0.001428967238580053 -0.0090165237669440883 -0.0016590954131885051 -0.0011877735783025261 -0.0013034087490148192 0.00054813790782555808
leaf_weight=2658 12.000000000000002 157 14.000000000000002 12.999999999999998 11.999999999999998 148 10.999999999999998 2698 37 19 85 4923 3751 7761
leaf_count=2658 12 157 14 13 12 148 11 2698 37 19 85 4923 3751 7761
internal_value=0 0.00024498 0.00173336 0.00870843 0.000154357 0.00165167 0.00813257 6.45494e-05 -0.00259509 -0.00400332 0.000129535 -4.11357e-05 0.000126058 -0.000125616
internal_weight=0 3206 184 27 3022 171 23 2851 68 56 2783 19093 6409 12684
internal_count=22299 3206 184 27 3022 171 23 2851 68 56 2783 19093 6409 12684
shrinkage=0.1


Tree=206
num_leaves=15
num_cat=0
split_feature=4 26 29 0 12 37 33 18 24 4 37 13 13 33
split_gain=0.0217037 0.0380901 0.0454902 0.318232 0.0511391 0.0437102 0.0389322 0.036076 1.31675 0.594612 0.435507 1.32251 1.2645 0.913185
threshold=-1.1063349999999998 5.5371100000000009e-05 -0.39630949999999993 5.1681400000000011 0.00058602900000000017 0.0003820330000000001 0.0019555150000000006 -1.7750149999999999e-06 -0.12855999999999998 0.034634100000000008 -1.7348099999999996e-07 1.3080550000000003e-05 1.3712700000000002e-05 -4.2544549999999991e-06
decision_type=2 2 2 2 2 2 2 2 2 2 2 2 2 2
left_child=1 6 3 4 -3 -4 -1 8 9 10 12 -12 -2 -13
right_child=7 2 5 -5 -6 -7 -8 -9 -10 -11 11 13 -14 -15
leaf_value=0.00043375700073072494 -0.0040158758523242827 -0.0031423107559065814 -0.00022646280618491776 0.014220082376371413 0.0048334056631574645 -0.0065525711397640407 0.0051023915104451596 3.4892890333424855e-05 -0.0016619186998425924 -0.0041098895800795654 0.0060829740573002588 0.015071413608359674 0.0053901236396054616 -0.0028752160717699718
leaf_weight=2329 322 41 1544 17 9.9999999999999982 10.999999999999998 18 13763 2762 155 707 31 257 332
leaf_count=2329 322 41 1544 17 10 11 18 13763 2762 155 707 31 257 332
internal_value=0 0.000211982 -0.000160503 0.00237119 -0.00157844 -0.000271213 0.000469562 -4.59145e-05 -0.000289487 0.00181176 0.00236838 0.00356384 0.000159153 -0.00134258
internal_weight=0 3970 1623 68 51 1555 2347 18329 4566 1804 1649 1070 579 363
internal_count=22299 3970 1623 68 51 1555 2347 18329 4566 1804 1649 1070 579 363
shrinkage=0.1


Tree=207
num_leaves=15
num_cat=0
split_feature=23 0 0 29 3 3 23 23 21 1 23 7 21 10
split_gain=0.0207311 0.045825 0.0723407 0.0615434 0.0387675 0.0618548 0.308314 0.346718 0.192794 0.377758 0.149493 0.139136 0.0825911 0.144137
threshold=-6.4960549999999992 12.488000000000001 11.980000000000002 -0.0074733199999999994 -6.0971649999999995 -6.5745499999999995 -9.6343949999999978 -6.5395699999999986 -11.313099999999997 -10.412999999999998 -7.8841399999999995 6.0285150000000007e-05 12.350850000000001 1.9353350000000003e-05
decision_type=2 2 2 2 2 2 2 2 2 2 2 2 2 2
left_child=4 2 -2 -3 5 -1 -7 8 9 -8 -10 12 13 -12
right_child=1 3 -4 -5 -6 6 7 -9 10 -11 11 -13 -14 -15
leaf_value=-4.222499213971732e-05 0.00035341815249135926 -0.0075800541319040356 0.0071063479903386911 -0.00064602535176163658 0.00024601901508072534 0.00075266391620866329 0.01877233986354743 0.010935635509361562 -0.0014749410522633855 -0.0041332121421065598 -0.012220102649949053 -0.00035933683132081907 0.0019845638782359089 -0.0051695804747807217
leaf_weight=15001 1859 15.999999999999998 15.999999999999998 64 4073 650 12.000000000000002 19 268 18 34 59 12.999999999999998 197
leaf_count=15001 1859 16 16 64 4073 650 12 19 268 18 34 59 13 197
internal_value=0 0.000311038 0.000411043 -0.00203283 -2.98899e-05 -9.89561e-05 -0.000769053 -0.0023644 -0.00278487 0.00502901 -0.00319541 -0.00471714 -0.00577087 -0.00620732
internal_weight=0 1955 1875 80 20344 16271 1270 620 601 30 571 303 244 231
internal_count=22299 1955 1875 80 20344 16271 1270 620 601 30 571 303 244 231
shrinkage=0.1


Tree=208
num_leaves=15
num_cat=0
split_feature=15 35 3 31 0 3 30 11 3 37 18 23 0 14
split_gain=0.0188723 0.053747 0.0588237 0.0325821 0.259232 0.448811 0.653527 0.16125 0.317291 0.838301 0.151427 0.414554 0.208487 0.0982348
threshold=1.4819550000000001e-05 -0.12344349999999998 -16.772799999999997 -0.55108449999999987 4.6053300000000013 -10.069899999999999 0.0028916150000000006 5.2346800000000005e-05 -11.947549999999998 5.6983800000000007e-06 4.2475400000000007e-06 -9.4395949999999988 9.0247150000000023 0.0011223800000000003
decision_type=2 2 2 2 2 2 2 2 2 2 2 2 2 2
left_child=3 2 -2 4 13 6 -6 -8 -9 -10 -7 -12 -13 -1
right_child=1 -3 -4 -5 5 10 7 8 9 -11 11 12 -14 -15
leaf_value=0.0004213289089033611 -0.0074330920105179152 0.00030234805090779396 -0.00090943724975328557 -7.9537050039717888e-05 0.029612197669652791 0.00016683821534055842 -0.0023911858390783893 0.0017288113157458915 0.038462633667513707 -0.0024836945300921801 -0.0035536134069843687 0.022368955165147777 0.0046847844729200009 -0.0015180151275711342
leaf_weight=566 14.999999999999998 3389 176 17193 12.999999999999998 341 20 29.999999999999996 10.000000000000005 9.9999999999999982 24 15.000000000000002 11.999999999999998 485
leaf_count=566 15 3389 176 17193 13 341 20 30 10 10 24 15 12 485
internal_value=0 0.000210363 -0.00142177 -4.02319e-05 0.000402608 0.00234136 0.00902155 0.00519757 0.00823307 0.0179895 0.000926931 0.00600912 0.0145093 -0.000473611
internal_weight=0 3580 191 18719 1526 475 83 70 50 20 392 51 27 1051
internal_count=22299 3580 191 18719 1526 475 83 70 50 20 392 51 27 1051
shrinkage=0.1


Tree=209
num_leaves=15
num_cat=0
split_feature=15 35 15 32 15 16 15 35 22 19 31 24 18 26
split_gain=0.0205385 0.112852 0.522893 0.0549546 0.0746056 0.0805702 0.0542657 0.653394 0.242412 0.335907 0.601804 0.924377 0.687482 0.959641
threshold=-9.8723849999999978e-06 -0.6849559999999999 -1.8560199999999996e-05 0.28587350000000006 -1.5288449999999994e-05 1.9330750000000001e-05 -4.0147899999999994e-07 -0.00081900949999999995 1.856025 0.0023484000000000001 0.045360850000000008 -0.50768199999999986 -1.4324099999999999e-05 8.7654850000000003e-05
decision_type=2 2 2 2 2 2 2 2 2 2 2 2 2 2
left_child=1 2 -1 -3 -5 -6 7 -2 -9 -10 -11 -12 -13 -14
right_child=6 3 -4 4 5 -7 -8 8 9 10 11 12 13 -15
leaf_value=0.00034136664255515135 0.0017848567619762638 0.00027256665643753196 0.022283363047664845 -0.00049012702317303102 -0.0023406445341606743 -0.012261522252215815 3.0092069176863574e-05 -0.0019936672384800861 -0.0009327334584299208 -0.0038470533606749474 -0.0081105124605528548 0.036444485443644231 0.025287106198084067 -0.014202350548002868
leaf_weight=66 904 3276 12.999999999999998 391 32 10.999999999999998 15629 1605 276 38 15.999999999999998 15.999999999999995 16.000000000000007 9.9999999999999982
leaf_count=66 904 3276 13 391 32 11 15629 1605 276 38 16 16 16 10
internal_value=0 0.000212121 0.00395207 0.000132483 -0.000924924 -0.00487854 -4.34211e-05 -0.000442219 -0.00146057 0.000839493 0.00593464 0.0123433 0.0201353 0.0100989
internal_weight=0 3789 79 3710 434 43 18510 2881 1977 372 96 58 42 26
internal_count=22299 3789 79 3710 434 43 18510 2881 1977 372 96 58 42 26
shrinkage=0.1


Tree=210
num_leaves=15
num_cat=0
split_feature=34 1 1 4 14 32 16 35 13 28 3 7 10 19
split_gain=0.0185031 0.0359027 0.0565417 0.0547372 0.0768673 0.0657785 0.182745 0.0641382 0.0306671 0.0647469 0.0391587 0.032165 0.04842 0.0629691
threshold=0.0025908250000000006 7.1214050000000011 6.6272150000000005 0.071824300000000021 0.00019150250000000003 -0.011433799999999999 -7.6822249999999992e-08 5.2881600000000005e-05 -1.250265e-05 -0.0021705499999999998 -8.0934249999999981 2.5584350000000005e-05 4.1932700000000006e-05 2.5389100000000003e-09
decision_type=2 2 2 2 2 2 2 2 2 2 2 2 2 2
left_child=1 2 8 5 7 6 -3 -5 9 -1 -10 -12 13 -13
right_child=-2 3 -4 4 -6 -7 -8 -9 10 -11 11 12 -14 -15
leaf_value=0.0082480661555503817 -1.6081676700399567e-05 -0.0021678322567216433 0.0065490653478156996 -0.013410222248851572 -0.00040163784085025058 -0.0020383535767905417 0.012283874470740558 -0.0023447042237967255 0.001160397547164796 0.0012159451644515023 0.0044349786486815321 -0.010239253398030997 0.00059467484418538415 -0.0018166736499597967
leaf_weight=14.999999999999998 21625 21 17 11.000000000000002 33 40 14.999999999999998 9.9999999999999982 226 103 10.999999999999998 9.9999999999999982 83 79
leaf_count=15 21625 21 17 11 33 40 15 10 226 103 11 10 83 79
internal_value=0 0.000515974 0.000872758 -0.000977031 -0.00341136 0.000752625 0.00385371 -0.00814093 0.000689651 0.00210986 0.000279909 -0.00080747 -0.00114274 -0.00276303
internal_weight=0 674 544 130 54 76 36 21 527 118 409 183 172 89
internal_count=22299 674 544 130 54 76 36 21 527 118 409 183 172 89
shrinkage=0.1


Tree=211
num_leaves=15
num_cat=0
split_feature=3 14 23 23 3 34 23 8 23 23 3 3 23 33
split_gain=0.0188903 0.0391437 0.171442 0.171602 0.521278 1.95158 1.13929 0.435283 0.397127 0.394611 0.293273 0.416228 1.45045 0.500921
threshold=-6.283129999999999 0.00044905900000000008 -16.867799999999995 -9.540049999999999 -9.5356449999999988 0.03814420000000001 -10.340999999999999 4.4471250000000011e-06 -10.609499999999999 -9.7977999999999987 -9.5356449999999988 -7.3418849999999987 -7.3688999999999991 1.3849050000000001e-05
decision_type=2 2 2 2 2 2 2 2 2 2 2 2 2 2
left_child=1 2 -1 4 5 6 7 -4 -6 -8 -5 12 13 -12
right_child=-2 -3 3 10 8 -7 9 -9 -10 -11 11 -13 -14 -15
leaf_value=0.001893080517145534 0.00017019075890515757 4.2862596599907278e-05 -0.0031869057420408349 -0.0036661952140117056 -0.00096406987144881352 -0.0021522424763887622 0.051355170526287755 0.023408852461725475 -0.0047698387218694082 0.024569456025280739 0.0052979177446279124 -0.0010315809498998923 -0.002449718553901142 -0.0043151937180467073
leaf_weight=333 5046 12518 16.000000000000004 193 1351 140 11.000000000000002 9.9999999999999982 344 10.999999999999998 667 1092 508 59
leaf_count=333 5046 12518 16 193 1351 140 11 10 344 11 667 1092 508 59
internal_value=0 -4.97758e-05 -0.000294686 -0.000460185 -0.00118233 0.00381359 0.0212139 0.00704223 -0.00173645 0.0379623 7.9633e-05 0.000390443 0.00164883 0.00451669
internal_weight=0 17253 4735 4402 1883 188 48 26 1695 22 2519 2326 1234 726
internal_count=22299 17253 4735 4402 1883 188 48 26 1695 22 2519 2326 1234 726
shrinkage=0.1


Tree=212
num_leaves=15
num_cat=0
split_feature=23 0 0 29 5 9 3 3 23 13 3 14 23 22
split_gain=0.0209374 0.0383347 0.0586504 0.0499894 0.0338033 0.0472402 0.0346415 0.160928 0.397721 0.333547 0.197151 0.110502 0.11804 0.105028
threshold=-6.4960549999999992 12.488000000000001 11.980000000000002 -0.0074733199999999994 7.4520550000000004e-06 2.1721850000000003e-05 -6.5485099999999994 -6.1926199999999989 -6.376644999999999 1.4147250000000001e-05 -6.2342049999999993 0.00019877000000000002 -6.4198449999999996 -1.5854899999999998
decision_type=2 2 2 2 2 2 2 2 2 2 2 2 2 2
left_child=-1 2 4 -3 5 -2 11 8 9 -8 13 12 -6 -10
right_child=1 3 -4 -5 6 -7 7 -9 10 -11 -12 -13 -14 -15
leaf_value=-3.0038164322167018e-05 0.00065658785306903352 -0.0068306582361401524 0.0064326231593440754 -0.00058132329181717071 -0.0080561222221391896 0.0093184911110438407 0.022212535878153226 -2.2497710497536e-05 0.0048474166076630356 0.0014248921088157939 0.0095118483038325059 0.00037971266561128152 -0.0011166851640317967 -0.0045586592214101043
leaf_weight=20344 17.000000000000004 15.999999999999998 15.999999999999998 64 30 9.9999999999999982 19 343 15.999999999999998 12.999999999999998 19 1212 134 46
leaf_count=20344 17 16 16 64 30 10 19 343 16 13 19 1212 134 46
internal_value=0 0.000312581 0.000404049 -0.00183119 0.000352162 0.0038647 0.000300395 0.00105577 0.00432874 0.0137676 0.00059982 5.00671e-05 -0.00238609 -0.00213128
internal_weight=0 1955 1875 80 1859 27 1832 456 113 32 81 1376 164 62
internal_count=22299 1955 1875 80 1859 27 1832 456 113 32 81 1376 164 62
shrinkage=0.1


Tree=213
num_leaves=15
num_cat=0
split_feature=14 23 34 3 31 11 3 10 0 3 3 21 23 36
split_gain=0.0178321 0.0551843 0.0999839 0.161345 0.111739 0.35497 0.393222 0.165725 0.164011 0.252397 0.197333 0.186474 0.162165 0.117029
threshold=9.3791550000000008e-05 -7.7487749999999993 0.0060763450000000012 -5.9630249999999991 -0.013321249999999998 7.0401350000000005e-06 -5.8392349999999995 4.7574800000000011e-05 7.2773450000000013 -6.2342049999999993 -6.1782649999999988 -7.8836949999999986 -7.0308899999999985 4.2134400000000008e-05
decision_type=2 2 2 2 2 2 2 2 2 2 2 2 2 2
left_child=1 -1 4 -4 5 -3 7 13 10 -10 11 -6 -13 -7
right_child=-2 2 3 -5 8 6 -8 -9 9 -11 -12 12 -14 -15
leaf_value=0.00044910347281890871 -4.0594224094875568e-05 -0.0012706806045745009 -0.0035162427878956421 -0.00012519612210119455 -0.0042567548109218476 0.012649050777157146 -0.0016476107486232648 0.0056418643891811377 -0.010263044922612609 -0.00043052834893674832 -0.00055040645010825072 -0.0019805397213944658 0.011729475497268141 0.025612124112936171
leaf_weight=2648 18489 89 206 440 13.999999999999998 15.000000000000002 25 14.999999999999998 36 95 163 10.999999999999998 40 12.999999999999998
leaf_count=2648 18489 89 206 440 14 15 25 15 36 95 163 11 40 13
internal_value=0 0.000196994 -0.000377521 -0.00120655 0.000660374 0.00288561 0.00832546 0.0141238 -0.000312779 -0.00313259 0.00130738 0.00596613 0.00877241 0.0186676
internal_weight=0 3810 1162 646 516 157 68 43 359 131 228 65 51 28
internal_count=22299 3810 1162 646 516 157 68 43 359 131 228 65 51 28
shrinkage=0.1


Tree=214
num_leaves=15
num_cat=0
split_feature=3 29 12 24 37 32 3 23 19 19 23 13 19 15
split_gain=0.0176584 0.0442775 0.0200635 0.0460609 0.052223 0.0726298 0.538756 2.028 0.377793 0.0701474 0.0502356 0.0669151 0.0477119 0.0363039
threshold=-19.356149999999996 0.035284600000000006 -0.00030348099999999992 1.9572750000000003 -1.0507399999999998e-06 0.13461200000000004 -16.232699999999998 -15.808049999999998 0.00012994800000000004 0.00022854250000000002 -12.562849999999999 -6.0817849999999996e-05 1.5736100000000003e-05 -1.5288449999999994e-05
decision_type=2 2 2 2 2 2 2 2 2 2 2 2 2 2
left_child=1 -1 3 4 9 10 7 -7 -8 -2 11 -6 -13 -9
right_child=2 -3 -4 -5 5 6 8 13 -10 -11 -12 12 -14 -15
leaf_value=-0.00061997147728962935 -0.0086771857614318538 -0.0076546424627304075 -2.748680178777017e-05 0.0062135886974059619 -0.0079164699615480814 0.04358406214575683 0.014667132781708942 0.0018277899982422241 -0.00066381618102395344 -0.00080660487882012804 0.00040961648900737384 -0.0071124727985906327 -0.00043013868538320884 -0.0047188681860764825
leaf_weight=85 11.999999999999998 9.9999999999999982 19776 12.999999999999998 12.999999999999998 13.999999999999998 17 15.999999999999998 295 201 1445 10.999999999999998 373 18
leaf_count=85 12 10 19776 13 13 14 17 16 295 201 1445 11 373 18
internal_value=0 -0.00136046 5.82075e-06 0.00027711 0.000245154 0.000389782 0.00168888 0.0115517 0.000171524 -0.00125002 0.000135886 -0.000860436 -0.00062156 -0.00163809
internal_weight=0 95 22204 2428 2415 2202 360 48 312 213 1842 397 384 34
internal_count=22299 95 22204 2428 2415 2202 360 48 312 213 1842 397 384 34
shrinkage=0.1


Tree=215
num_leaves=15
num_cat=0
split_feature=23 0 0 29 14 23 23 22 6 3 20 20 14 23
split_gain=0.0174809 0.0329014 0.0483769 0.0387777 0.0303468 0.106053 0.0444144 0.0486857 0.0975689 0.050294 0.0644076 0.108472 0.0675441 0.0618694
threshold=-6.467369999999999 12.488000000000001 11.980000000000002 -0.0074733199999999994 9.3791550000000008e-05 -6.4960549999999992 -12.8988 3.0357900000000004 1.7574450000000003e-06 -5.9800399999999998 12.218850000000002 11.655300000000002 6.3580300000000019e-05 -9.2496549999999989
decision_type=2 2 2 2 2 2 2 2 2 2 2 2 2 2
left_child=4 2 -2 -3 5 6 -1 9 -9 10 11 13 -12 -8
right_child=1 3 -4 -5 -6 -7 7 8 -10 -11 12 -13 -14 -15
leaf_value=0.00080391883539520043 0.00033133043920033481 -0.0061137739146943206 0.0060341909496734545 -0.00058267357227555672 -8.1992099771157912e-05 0.0092577005163408249 0.00032560266014586498 0.010851588370860553 -0.0019004614150617272 0.00024776980249234304 0.010669376291334626 -0.011227052738540806 -0.00026228172310556355 -0.0015261512372442992
leaf_weight=920 1783 15.999999999999998 14.999999999999998 61 16952 12.999999999999998 313 12.000000000000002 11.999999999999998 1743 10.000000000000002 9.9999999999999982 12.999999999999998 426
leaf_count=920 1783 16 15 61 16952 13 313 12 12 1743 10 10 13 426
internal_value=0 0.00029222 0.000378907 -0.00173199 -2.68268e-05 0.000242517 0.000208635 -7.06457e-06 0.00447556 -4.98411e-05 -0.000721779 -0.000881839 0.00449061 -0.00074185
internal_weight=0 1875 1798 77 20424 3472 3459 2539 24 2515 772 749 23 739
internal_count=22299 1875 1798 77 20424 3472 3459 2539 24 2515 772 749 23 739
shrinkage=0.1


Tree=216
num_leaves=15
num_cat=0
split_feature=4 18 24 24 4 4 14 34 1 32 22 2 22 0
split_gain=0.017227 0.0239365 0.809093 0.79588 0.520581 0.491211 0.588786 0.534133 0.568419 3.40108 0.988599 0.914251 0.86405 1.73352
threshold=-1.9281699999999999 2.8987900000000006e-08 0.074279450000000011 0.098807650000000011 0.034634100000000008 0.4097745000000001 0.00013119700000000002 0.10628200000000002 5.7269700000000006 -0.031158599999999995 0.79437250000000015 0.89285350000000008 1.1696050000000002 3.9674000000000005
decision_type=2 2 2 2 2 2 2 2 2 2 2 2 2 2
left_child=-1 2 4 -3 -2 6 -5 8 10 12 -8 -12 -10 -14
right_child=1 3 -4 5 -6 -7 7 -9 9 -11 11 -13 13 -15
leaf_value=0.00021375582243521524 0.0011425175015307258 -0.00068967626822673787 -0.0011335660067957154 0.00010311800412867113 -0.0020726313014559137 3.2475728805266587e-05 0.0068370212157533783 0.00098776144676598768 0.009607685372854273 -0.0043798614750969519 -0.0048514458113918975 0.010699479180038907 0.036847033563376673 -0.0067069892242381524
leaf_weight=3225 4158 5780 4375 819 573 2084 372 502 33 87 178 48 54 10.999999999999998
leaf_count=3225 4158 5780 4375 819 573 2084 372 502 33 87 178 48 54 11
internal_value=0 -3.61415e-05 -0.000153347 7.09288e-05 0.000753111 0.00112067 0.00219851 0.00353402 0.00516649 0.0100106 0.00366788 -0.00154859 0.0227859 0.0294764
internal_weight=0 19074 9106 9968 4731 4188 2104 1285 783 185 598 226 98 65
internal_count=22299 19074 9106 9968 4731 4188 2104 1285 783 185 598 226 98 65
shrinkage=0.1


Tree=217
num_leaves=15
num_cat=0
split_feature=4 34 33 4 26 18 1 1 28 10 26 13 37 37
split_gain=0.0228703 0.0443939 0.0674258 0.329126 0.0431619 0.318099 0.34373 0.345969 0.338158 0.544556 0.621283 0.352501 0.653438 0.529852
threshold=1.1082250000000002 0.21014650000000004 -3.4138749999999996e-05 1.7689400000000002 -0.00014758899999999997 2.0667250000000005e-06 -5.8350899999999983 -5.3201099999999988 -0.020600649999999995 2.7101050000000004e-05 -0.00016675349999999999 2.2738900000000003e-05 2.2169050000000001e-07 1.4332350000000001e-07
decision_type=2 2 2 2 2 2 2 2 2 2 2 2 2 2
left_child=4 2 3 -2 5 -1 -7 -8 -9 10 -10 13 -13 -11
right_child=1 -3 -4 -5 -6 6 7 8 9 11 -12 12 -14 -15
leaf_value=-0.00017494227233843325 0.020285013103857635 -0.00033906512325841882 0.00036290829378278521 -0.00010465400884736721 -0.00011518905142000126 -0.0023601294096994843 0.018690116247162224 -0.00051220698461691347 -0.0027102160798447013 0.018028618010083357 0.023494377909228207 -0.0068228539574192839 0.013386017655284377 0.0023093843461538198
leaf_weight=2564 9.9999999999999982 1033 2769 38 15335 116 14.999999999999998 153 95 65 9.9999999999999982 32 32 32
leaf_count=2564 10 1033 2769 38 15335 116 15 153 95 65 10 32 32 32
internal_value=0 0.000221691 0.000427322 0.00414319 -4.62633e-05 0.000293164 0.00247539 0.00376783 0.00323362 0.00538818 -0.00021454 0.00904212 0.00328158 0.0128429
internal_weight=0 3850 2817 48 18449 3114 550 434 419 266 105 161 64 97
internal_count=22299 3850 2817 48 18449 3114 550 434 419 266 105 161 64 97
shrinkage=0.1


Tree=218
num_leaves=15
num_cat=0
split_feature=7 21 1 1 3 12 28 3 12 4 25 16 12 34
split_gain=0.0202482 0.044578 1.45972 0.535646 0.361083 0.541376 0.329759 0.426815 0.36128 0.320383 0.431454 0.474759 0.630733 1.17813
threshold=5.1723650000000004e-05 -4.993244999999999 -4.4196899999999983 -4.3936099999999998 -5.9423249999999994 -0.00025076349999999999 -0.010933949999999998 -6.0971649999999995 -0.00029061699999999996 -0.32811699999999994 2.8968600000000007 -2.4343299999999997e-06 -0.00017423949999999998 0.03161545000000001
decision_type=2 2 2 2 2 2 2 2 2 2 2 2 2 2
left_child=1 2 4 6 5 -1 -3 8 -8 -7 11 -11 13 -13
right_child=-2 3 -4 -5 -6 9 7 -9 -10 10 -12 12 -14 -15
leaf_value=-0.00081526425938007222 0.00013011114779270866 0.0012264208356510629 -0.0012591960473692673 0.00031755592359092397 -0.0004489373105792077 -0.0011349284391919221 0.00018284794758147483 0.00059091479905026226 -0.0028587697237331621 -0.001994913820886597 0.00054589223938263695 -0.0027728014035594897 0.0067564247259894019 0.039740206691203643
leaf_weight=211 7785 490 2356 7302 259 81 495 704 1850 58 144 11.000000000000002 537 15.999999999999998
leaf_count=211 7785 490 2356 7302 259 81 495 704 1850 58 144 11 537 16
internal_value=0 -6.97888e-05 0.000231297 -0.000171799 0.00289766 0.00371692 -0.00118148 -0.00156845 -0.00221672 0.00484595 0.00547839 0.00662032 0.00750628 0.0224201
internal_weight=0 14514 3673 10841 1317 1058 3539 3049 2345 847 766 622 564 27
internal_count=22299 14514 3673 10841 1317 1058 3539 3049 2345 847 766 622 564 27
shrinkage=0.1


Tree=219
num_leaves=15
num_cat=0
split_feature=24 10 10 10 18 17 18 13 32 18 18 3 28 1
split_gain=0.0191578 0.0577284 0.164237 0.0659994 0.0457053 0.0391588 0.124195 0.0572937 0.0670041 0.0621163 0.0953978 0.286962 0.339887 0.321345
threshold=0.56702800000000009 9.8105600000000012e-06 8.9851850000000023e-06 1.1197200000000002e-05 9.7398000000000012e-06 7.2591500000000018e-05 0.0084207950000000018 -6.8511049999999985e-05 -0.74651849999999986 0.0018352000000000002 0.00030319250000000004 -9.6708399999999983 0.12775000000000003 1.3632550000000003
decision_type=2 2 2 2 2 2 2 2 2 2 2 2 2 2
left_child=-1 2 -2 4 -3 6 7 8 -5 10 -9 12 13 -12
right_child=1 3 -4 5 -6 -7 -8 9 -10 -11 11 -13 -14 -15
leaf_value=-2.4199629370266911e-05 -0.0027662625070661302 -0.0016678885101679376 0.014150336033410647 0.011511296965181824 -0.0098214386403560651 -0.0013549297711491085 0.010667819028215793 0.00024856814414987504 0.001076662494961056 -0.0032185673013334459 0.02902780448397 -0.0018294445163940885 -0.0025184959029922122 0.0053652004423466598
leaf_weight=20876 12.000000000000002 22 10.999999999999998 10.000000000000002 9.9999999999999982 119 11.999999999999998 1087 15.999999999999998 47 12.000000000000002 41 12.999999999999998 10.999999999999998
leaf_count=20876 12 22 11 10 10 119 12 1087 16 47 12 41 13 11
internal_value=0 0.000355019 0.00532428 0.000273381 -0.00421587 0.000378392 0.000543537 0.000445322 0.00508998 0.000345602 0.000489516 0.00389095 0.0104058 0.0177109
internal_weight=0 1423 23 1400 32 1368 1249 1237 26 1211 1164 77 36 23
internal_count=22299 1423 23 1400 32 1368 1249 1237 26 1211 1164 77 36 23
shrinkage=0.1


Tree=220
num_leaves=15
num_cat=0
split_feature=4 18 24 34 14 12 3 19 23 1 14 34 29 11
split_gain=0.0193498 0.0417272 0.627681 0.677728 0.408262 0.759188 0.736614 0.741876 0.494217 0.303312 0.199428 0.233869 0.277398 0.422579
threshold=1.1082250000000002 8.0248250000000016e-06 0.32304350000000009 0.43092550000000007 0.0019981900000000004 0.00026153600000000009 -8.6694649999999971 0.00082674500000000015 -8.3693049999999989 -5.1426499999999988 0.0023791600000000004 1.2951400000000002 0.027091400000000005 -1.0000000180025095e-35
decision_type=2 2 2 2 2 2 2 2 2 2 2 2 2 2
left_child=1 -1 -3 4 6 9 7 -4 -8 -6 -5 12 -12 -14
right_child=-2 2 3 10 5 -7 8 -9 -10 -11 11 -13 13 -15
leaf_value=8.6431504461904906e-06 0.00020391605541757976 -0.0012456025704884093 0.040388153383837021 -0.0033211418808067358 0.010642468886306653 0.027068341540342031 -0.006505616291371339 0.0060621571540832517 0.01760727212736931 -0.0074711279012262821 0.019884518285592401 -0.0014047925100596839 0.016430578306317327 -0.0126410369342193
leaf_weight=16533 3850 1628 17.000000000000004 93 12.999999999999998 10.999999999999998 17 9.9999999999999982 17 32 14.999999999999998 43 10 10
leaf_count=16533 3850 1628 17 93 13 11 17 10 17 32 15 43 10 10
internal_value=0 -4.25539e-05 -0.000484329 0.00381898 0.00968356 0.00351835 0.0153434 0.0276748 0.00555083 -0.00223831 -0.00019362 0.00353535 0.00960466 0.00189477
internal_weight=0 18449 1916 288 117 56 61 27 34 45 171 78 35 20
internal_count=22299 18449 1916 288 117 56 61 27 34 45 171 78 35 20
shrinkage=0.1


Tree=221
num_leaves=15
num_cat=0
split_feature=7 21 33 3 9 20 20 0 30 38 14 27 14 4
split_gain=0.0168532 0.0346889 0.0379438 0.0516994 0.03226 0.108552 0.273086 0.0468424 0.0422543 0.0292688 0.0961601 0.0290233 0.073137 0.164166
threshold=6.967515000000001e-05 -4.1799449999999991 0.00011133000000000002 -12.629099999999998 6.2065300000000017e-05 10.309600000000001 11.486400000000001 9.1730150000000013 7.8290600000000012e-05 40.11225000000001 0.0044422700000000008 5.3103600000000011 0.0014346750000000003 -0.31037149999999997
decision_type=2 2 2 2 2 2 2 2 2 2 2 2 2 2
left_child=4 -2 -3 -4 9 7 -7 -6 -9 11 -11 -1 13 -13
right_child=1 2 3 -5 5 6 -8 8 -10 10 -12 12 -14 -15
leaf_value=-7.181503326514303e-05 -0.00023758335287640491 0.00044887462063203647 -0.0078703684308989493 -0.00069706346245045005 -0.005039925118933055 0.017295020332676353 -0.005080373507613937 -0.0067157107560584951 -0.00036237712442149447 0.0006299357026970636 -0.010660989811135965 0.0042904540565711705 -0.00031348609795204537 0.00044608216029893817
leaf_weight=15614 1369 2801 10.999999999999998 116 47 10.000000000000002 11.999999999999998 11.999999999999998 82 24 10.999999999999998 124 1000 1066
leaf_count=15614 1369 2801 11 116 47 10 12 12 82 24 11 124 1000 1066
internal_value=0 0.000177941 0.000372221 -0.00131837 -4.24738e-05 -0.00144291 0.00509026 -0.00246227 -0.00117344 -2.96776e-05 -0.00291864 -2.39983e-05 0.00031692 0.000846672
internal_weight=0 4297 2928 127 18002 163 22 141 94 17839 35 17804 2190 1190
internal_count=22299 4297 2928 127 18002 163 22 141 94 17839 35 17804 2190 1190
shrinkage=0.1


Tree=222
num_leaves=15
num_cat=0
split_feature=37 17 4 13 33 25 6 18 1 24 19 24 23 3
split_gain=0.016739 0.208091 0.352483 0.44834 1.50252 1.27944 0.951205 0.958321 0.684518 0.285533 0.261537 0.552953 0.484939 1.02863
threshold=-1.1884399999999999e-07 2.9376100000000003e-08 -0.095505649999999984 -3.4341799999999997e-05 1.2899450000000002e-05 2.6117300000000006 4.2190250000000007e-06 -7.6351549999999983e-09 3.7059600000000006 0.24689300000000003 7.5845250000000009e-06 -0.11934149999999998 -13.738999999999999 -13.869899999999999
decision_type=2 2 2 2 2 2 2 2 2 2 2 2 2 2
left_child=1 10 -3 4 -4 6 7 9 -9 -6 11 12 13 -1
right_child=-2 2 3 -5 5 -7 -8 8 -10 -11 -12 -13 -14 -15
leaf_value=0.019177573599985669 5.8520219427571743e-05 -0.0022681215364898102 -0.001213103925486804 -0.00040621619773764293 0.033440372118583084 0.00072607730296712892 -0.00020026523166701999 0.032927387817339455 -0.0016083931084722282 0.055331398411230609 -5.6065981204573266e-05 -0.00081372939249834677 0.0072900867780817061 -0.0054812290655226912
leaf_weight=21 15313 907 226 3607 13.000000000000002 47 13.999999999999998 11.000000000000002 11.999999999999998 10.999999999999998 1465 306 259 87
leaf_count=21 15313 907 226 3607 13 47 14 11 12 11 1465 306 259 87
internal_value=0 -0.000128274 -0.000490713 -8.1652e-05 0.00342345 0.0131259 0.0226798 0.0294951 0.0149087 0.0434738 0.000693572 0.0023254 0.00494276 -0.000686462
internal_weight=0 6986 4848 3941 334 108 61 47 23 24 2138 673 367 108
internal_count=22299 6986 4848 3941 334 108 61 47 23 24 2138 673 367 108
shrinkage=0.1


Tree=223
num_leaves=15
num_cat=0
split_feature=7 21 1 3 23 14 30 23 3 23 8 26 18 10
split_gain=0.0179429 0.0450782 1.88559 1.16236 2.76526 1.7158 1.71441 1.32861 0.774325 1.01942 0.639082 0.81296 0.841738 0.52533
threshold=5.1723650000000004e-05 6.9100200000000012 6.2321400000000002 -7.3418849999999987 -7.3688999999999991 0.0013568100000000002 0.0028916150000000006 -9.1575349999999975 -8.2912599999999994 -8.2647199999999987 -9.7870799999999985e-06 -6.7090649999999988e-05 -3.2320349999999997e-07 1.9353350000000003e-05
decision_type=2 2 2 2 2 2 2 2 2 2 2 2 2 2
left_child=1 -1 -3 4 5 6 7 13 9 -9 11 -10 -13 -4
right_child=-2 2 3 -5 -6 -7 -8 8 10 -11 -12 12 -14 -15
leaf_value=-0.00014944804381576354 0.00012248087594684509 -0.0012394673462335344 0.067960324287414539 0.0014784432897835763 -0.0035895850225717801 0.001392996019421844 -0.0004365135275293142 0.028473247552756216 0.012305443622171879 -0.0078137623767058056 0.0085558389127254487 0.05868871178891924 0.023576775701208544 0.036926400288939475
leaf_weight=11840 7785 1998 10.000000000000002 405 97 48 24 16.000000000000004 9.9999999999999982 14.999999999999998 9.9999999999999982 18 11.000000000000002 11.999999999999998
leaf_count=11840 7785 1998 10 405 97 48 24 16 10 15 10 18 11 12
internal_value=0 -6.56961e-05 0.000305143 0.00487042 0.00993962 0.0174818 0.0236108 0.029269 0.023284 0.010915 0.0311093 0.0368922 0.0453704 0.0510327
internal_weight=0 14514 2674 676 271 174 126 102 80 31 49 39 29 22
internal_count=22299 14514 2674 676 271 174 126 102 80 31 49 39 29 22
shrinkage=0.1


Tree=224
num_leaves=15
num_cat=0
split_feature=4 32 4 24 32 1 4 3 7 24 34 3 14 19
split_gain=0.0197014 0.0460229 0.0592163 0.0599699 0.0357075 0.120727 0.396025 0.187139 0.374911 0.219553 0.0983677 0.420115 0.614218 0.930479
threshold=0.93067350000000004 0.26927250000000008 1.1082250000000002 0.41329300000000008 0.55363400000000007 -4.5388949999999992 0.53187750000000011 -12.676799999999998 3.5305950000000007e-05 0.44346200000000008 0.51382200000000011 -7.7346249999999985 0.0019981900000000004 4.7226850000000004e-07
decision_type=2 2 2 2 2 2 2 2 2 2 2 2 2 2
left_child=4 -2 3 -3 -1 6 7 8 9 -6 11 12 13 -9
right_child=1 2 -4 -5 5 -7 -8 10 -10 -11 -12 -13 -14 -15
leaf_value=-8.7647905674323782e-05 0.00033497472025479687 -0.0018057839907123707 -0.00039902473850496659 -0.011290240332018584 0.028000141605734816 -0.00020383927256055956 0.017653588143487772 0.00011916853572157293 -0.0010155791153617125 0.0070452802814543252 -0.00021008281965800488 -0.0013438697933551875 -0.0037699261733905587 0.039636803389741827
leaf_weight=16656 3477 20.000000000000004 524 9.9999999999999982 10.000000000000002 1078 14.999999999999998 11.000000000000002 24 9.9999999999999982 362 73 15.999999999999998 12.999999999999998
leaf_count=16656 3477 20 524 10 10 1078 15 11 24 10 362 73 16 13
internal_value=0 0.000200099 -0.000646403 -0.00496727 -4.41537e-05 0.00040525 0.00163484 0.00117187 0.00741092 0.0175227 0.000593933 0.00316963 0.0114068 0.0215246
internal_weight=0 4031 554 30 18268 1612 534 519 44 20 475 113 40 24
internal_count=22299 4031 554 30 18268 1612 534 519 44 20 475 113 40 24
shrinkage=0.1


Tree=225
num_leaves=15
num_cat=0
split_feature=4 24 1 22 38 36 4 20 14 23 4 39 4 24
split_gain=0.0200043 0.0279987 0.1572 0.0441078 0.0336024 0.0388885 0.175944 0.0311782 0.0266396 0.0476594 0.056054 0.0615656 0.142846 0.511527
threshold=-1.1063349999999998 -1.7384499999999996 3.7958100000000004 1.1696050000000002 0.00043909450000000007 -0.33569149999999998 -1.9281699999999999 19.898050000000001 9.3791550000000008e-05 -6.4482599999999985 0.93067350000000004 5.6240400000000005e-05 -0.16117699999999999 0.20699700000000001
decision_type=2 2 2 2 2 2 2 2 2 2 2 2 2 2
left_child=1 2 3 -1 -3 6 -6 -7 -2 10 11 -10 13 -13
right_child=8 4 -4 -5 5 7 -8 -9 9 -11 -12 12 -14 -15
leaf_value=0.0041957679903134688 0.00019208416455668417 0.00037042588222265405 0.012429156429910411 -0.0040092559286246171 -0.0023556524828018152 -0.00030906308023069307 0.013389878296716649 -0.0059168204740853983 -0.00047891366672930694 0.00051627688262081387 0.00017384002486708021 0.002660991790248196 -0.00040520504519576456 -0.001478712713417656
leaf_weight=10.000000000000002 3789 2728 11.999999999999998 19 20.000000000000004 1160 10.999999999999998 9.9999999999999982 6081 1136 3684 710 2414 515
leaf_count=10 3789 2728 12 19 20 1160 11 10 6081 1136 3684 710 2414 515
internal_value=0 0.000203513 0.00280321 -0.00117994 0.000176385 -0.000264368 0.00323147 -0.000356993 -4.40803e-05 -0.000105623 -0.000158329 -0.000284226 4.11108e-05 0.000920626
internal_weight=0 3970 41 29 3929 1201 31 1170 18329 14540 13404 9720 3639 1225
internal_count=22299 3970 41 29 3929 1201 31 1170 18329 14540 13404 9720 3639 1225
shrinkage=0.1


Tree=226
num_leaves=15
num_cat=0
split_feature=38 13 15 14 5 14 36 32 17 4 17 19 17 9
split_gain=0.0176102 0.0363884 0.062001 0.0371707 0.0766993 0.0846873 0.0849352 0.0860547 0.098892 0.0565427 0.0949598 0.0563304 0.219121 0.0480411
threshold=-0.030247799999999995 -6.8511049999999985e-05 -5.7326449999999989e-06 0.0011223800000000003 7.7376450000000017e-06 0.0039742050000000006 0.23757050000000002 -4.0794749999999995 1.5853600000000001e-06 0.16733500000000004 9.2772450000000013e-06 0.00023814550000000003 5.5601450000000014e-07 -2.9604049999999996e-06
decision_type=2 2 2 2 2 2 2 2 2 2 2 2 2 2
left_child=1 2 -1 -3 -5 6 9 -8 -9 -6 13 12 -7 -11
right_child=-2 3 -4 4 5 11 7 8 -10 10 -12 -13 -14 -15
leaf_value=0.0097625196509232553 -2.2921665281567557e-05 0.0007465550933004754 0.00041559443809092045 0.0083840207755565641 -0.0015054995539557081 -0.0012159544719098549 -0.0024951365942587683 -0.00061038969239840893 0.012227831955533475 -0.004561787162421514 -4.5362788090563339e-05 -7.3035982257611709e-05 0.012057848098246676 -0.010894551973789931
leaf_weight=11.000000000000002 20908 739 20 9.9999999999999982 85 36 26 12.000000000000002 11.999999999999998 23 23 350 19 25
leaf_count=11 20908 739 20 10 85 36 26 12 12 23 23 350 19 25
internal_value=0 0.000344534 0.00373225 0.000267314 -0.000302991 -0.000445168 -0.00209592 0.00149072 0.00580872 -0.00324549 -0.00532857 0.000394474 0.00336954 -0.0078601
internal_weight=0 1391 31 1360 621 611 206 50 24 156 71 405 55 48
internal_count=22299 1391 31 1360 621 611 206 50 24 156 71 405 55 48
shrinkage=0.1


Tree=227
num_leaves=15
num_cat=0
split_feature=4 26 36 4 2 33 20 18 38 38 17 37 4 37
split_gain=0.0166063 0.0303033 0.0368374 0.385176 0.0303482 0.0298014 0.0260165 0.0249495 0.663139 0.298733 0.406197 0.522543 0.449454 0.324701
threshold=-1.1063349999999998 5.5371100000000009e-05 -0.33569149999999998 -2.0605549999999995 1.2897850000000002 0.0019555150000000006 19.898050000000001 -9.5550599999999983e-06 0.00082319350000000012 0.068098300000000014 -7.9364699999999983e-07 -1.1460199999999996e-06 -0.11015499999999999 1.2262350000000004e-07
decision_type=2 2 2 2 2 2 2 2 2 2 2 2 2 2
left_child=1 5 3 4 -3 -1 -4 8 -2 10 11 -10 13 -12
right_child=7 2 6 -5 -6 -7 -8 -9 9 -11 12 -13 -14 -15
leaf_value=0.0003838466592606261 -0.0013636281865605821 -0.0013355165703355203 -0.00020583035912585118 0.014476049753526846 -0.0073462422379331361 0.0044684846419841056 -0.0053228461660910402 8.4462780439583187e-06 0.014722340693012537 -0.0014490699224876174 0.00310423973388483 -0.0039822479080582956 -0.0045221977798706467 0.0085296957284873836
leaf_weight=2329 1876 28 1555 18 11.999999999999998 18 9.9999999999999982 15618 17 191 263 123 51 190
leaf_count=2329 1876 28 1555 18 12 18 10 15618 17 191 263 123 51 190
internal_value=0 0.000185425 -0.000146812 0.00232792 -0.00313873 0.000415173 -0.000238527 -4.01624e-05 -0.000320196 0.00202409 0.00305417 -0.00171098 0.00437783 0.00537982
internal_weight=0 3970 1623 58 40 2347 1565 18329 2711 835 644 140 504 453
internal_count=22299 3970 1623 58 40 2347 1565 18329 2711 835 644 140 504 453
shrinkage=0.1


Tree=228
num_leaves=15
num_cat=0
split_feature=24 4 4 38 33 13 13 3 23 5 24 23 23 3
split_gain=0.0178885 0.57478 0.522936 0.512964 0.395755 1.5007 0.727598 0.68473 0.774277 0.62611 0.602995 0.54073 0.412053 0.483602
threshold=-0.14530599999999996 -0.10073449999999999 -0.42967699999999992 0.019421350000000004 -8.315239999999999e-06 2.5441800000000004e-05 2.4703400000000005e-05 -6.7352399999999992 -6.6475649999999993 1.0873100000000001e-05 -0.29301199999999994 -6.5196799999999993 -15.099999999999998 -15.526149999999999
decision_type=2 2 2 2 2 2 2 2 2 2 2 2 2 2
left_child=1 2 -1 4 5 -4 7 8 12 -7 -11 -9 -6 -14
right_child=-2 -3 3 -5 6 9 -8 11 -10 10 -12 -13 13 -15
leaf_value=-0.00015669194292913303 6.6362030401667348e-05 -0.00079606465724030458 -0.0045234537791023315 -0.00075556968021039646 0.00028218377105769749 0.034489760777124991 -0.0026619047186563836 -0.001099834475015538 -0.0052994708800198215 0.029079737933352601 -0.00033397327946579973 0.016786940743852601 -0.0081690494974072155 0.011483560479622719
leaf_weight=1769 14396 4858 165 351 42 12.999999999999998 109 153 38 9.9999999999999947 23.000000000000004 19 12.999999999999998 340
leaf_count=1769 14396 4858 165 351 42 13 109 153 38 10 23 19 13 340
internal_value=0 -0.000120884 0.0009563 0.00249931 0.00373441 -7.05545e-05 0.00485884 0.00621382 0.00833414 0.0159018 0.00857927 0.00087603 0.00964573 0.0107598
internal_weight=0 7903 3045 1276 925 211 714 605 433 46 33 172 395 353
internal_count=22299 7903 3045 1276 925 211 714 605 433 46 33 172 395 353
shrinkage=0.1


Tree=229
num_leaves=15
num_cat=0
split_feature=3 19 33 13 25 13 23 3 21 3 7 33 5 37
split_gain=0.0198177 0.0314736 0.165974 0.379448 0.55737 0.459584 0.823991 1.31944 0.811042 0.894348 0.734912 0.625679 0.738907 0.806775
threshold=-5.7169999999999996 0.00040931400000000009 5.5611100000000007e-06 -2.0250199999999995e-05 3.8218900000000002 -4.5330799999999996e-05 -13.009749999999999 -13.252699999999999 -7.8836949999999986 -13.528999999999998 5.6616600000000009e-05 2.2192050000000004e-05 1.6396850000000005e-05 4.4463000000000003e-07
decision_type=2 2 2 2 2 2 2 2 2 2 2 2 2 2
left_child=1 -1 -3 4 5 11 7 -7 -8 -10 -11 -4 13 -13
right_child=-2 2 3 -5 -6 6 8 -9 9 10 -12 12 -14 -15
leaf_value=-0.00016451116952081977 0.00023005929081010615 -0.00018384383241355949 -0.0033322549631568999 -4.810177176152481e-05 -0.0015145654055520447 0.017662406679900253 -0.0078250571302222929 -0.0049513658065300989 -0.0070183478085146774 0.018503166686456938 0.0030028572317678482 0.026916865798245582 2.9043882858712934e-05 0.00062007492408156395
leaf_weight=9735 3206 6544 151 1935 252 34 22 107 21 130 40 28 74 20
leaf_count=9735 3206 6544 151 1935 252 34 22 107 21 130 40 28 74 20
internal_value=0 -3.86304e-05 9.23217e-05 0.000734549 0.00245745 0.00405386 0.0064314 0.000501601 0.0103568 0.012451 0.014856 0.000970888 0.00629691 0.0159599
internal_weight=0 19093 9358 2814 879 627 354 141 213 191 170 273 122 48
internal_count=22299 19093 9358 2814 879 627 354 141 213 191 170 273 122 48
shrinkage=0.1


Tree=230
num_leaves=15
num_cat=0
split_feature=4 21 34 12 10 3 23 7 14 13 22 22 23 18
split_gain=0.0202878 0.038698 0.0350478 0.0734175 0.084032 0.0939144 0.545493 0.0701853 0.0874325 0.0872091 0.116364 0.0914758 0.0592953 0.0571006
threshold=0.93067350000000004 15.515700000000001 0.66308500000000004 -9.8295499999999987e-05 8.6105100000000007e-06 -17.461949999999998 -15.905149999999997 3.4520500000000003e-05 0.0018131100000000002 0.00010147550000000001 2.1960850000000005 1.9633400000000003 -10.888949999999998 -0.0017097299999999998
decision_type=2 2 2 2 2 2 2 2 2 2 2 2 2 2
left_child=2 -2 -1 -4 -5 6 -6 -7 -9 10 11 12 -10 -11
right_child=1 -3 3 4 5 7 -8 8 9 13 -12 -13 -14 -15
leaf_value=-0.00010150811397033663 0.00022988484953916406 -0.0033751206391025336 -0.00073946062647666975 -0.0068930572271347053 0.025563040785491466 0.001311755229164615 -0.0017779141181597004 0.00051226305837974678 -0.0054413015461921956 -0.0002533141806689404 0.0041121142273033524 -0.012995136275210165 -0.00086075392947532246 0.0072771583620289517
leaf_weight=15646 4001 30 545 14.999999999999998 9.9999999999999982 730 27 1020 65 119 19 10.999999999999998 50 10.999999999999998
leaf_count=15646 4001 30 545 15 10 730 27 1020 65 119 19 11 50 11
internal_value=0 0.000203055 -4.4806e-05 0.000293547 0.000564606 0.000618856 0.00561153 0.000527632 8.5617e-05 -0.00149685 -0.00318303 -0.00428309 -0.00344976 0.00038388
internal_weight=0 4031 18268 2622 2077 2062 37 2025 1295 275 145 126 115 130
internal_count=22299 4031 18268 2622 2077 2062 37 2025 1295 275 145 126 115 130
shrinkage=0.1


Tree=231
num_leaves=15
num_cat=0
split_feature=16 39 9 16 26 16 26 10 28 29 0 0 3 16
split_gain=0.0199682 0.0498494 0.0689621 0.0509665 0.0419197 0.0861956 0.188586 0.0552005 0.121763 0.0471936 0.882893 0.593262 0.410542 0.529266
threshold=5.0821450000000006e-06 0.14670800000000003 -3.9210199999999993e-05 4.328635000000001e-05 -0.0021265849999999998 6.4416800000000008e-07 -0.0046297149999999995 2.2606200000000004e-05 0.55062400000000011 -0.0028515399999999996 1.4274000000000002 2.4962650000000006 -6.5086049999999993 -1.7780499999999997e-05
decision_type=2 2 2 2 2 2 2 2 2 2 2 2 2 2
left_child=4 -2 -3 -4 5 7 -7 8 -1 10 12 -11 13 -6
right_child=1 2 3 -5 9 6 -8 -9 -10 11 -12 -13 -14 -15
leaf_value=0.0010361786254564707 0.00022667934324204972 0.0050977096621257567 -0.0058815739101393981 -0.0010057465829513088 0.00016715186259011776 4.1454478632658721e-05 0.012988723260867927 -0.00031897331534251887 0.01063541231987377 0.00064968484783942842 0.00096641440409515455 -0.00090306089004422443 0.00043244010582313658 -0.0029450462559101253
leaf_weight=111 4736 11.999999999999998 36 53 782 30 18 297 14.999999999999998 6443 3032 3981 939 1814
leaf_count=111 4736 12 36 53 782 30 18 297 15 6443 3032 3981 939 1814
internal_value=0 0.000179798 -0.0020185 -0.00297799 -4.98044e-05 0.000880791 0.00489668 0.000425087 0.00217894 -7.5601e-05 -0.000285575 5.66802e-05 -0.00135942 -0.00200755
internal_weight=0 4837 101 89 17462 471 48 423 126 16991 6567 10424 3535 2596
internal_count=22299 4837 101 89 17462 471 48 423 126 16991 6567 10424 3535 2596
shrinkage=0.1


Tree=232
num_leaves=15
num_cat=0
split_feature=2 22 13 3 23 33 23 3 4 21 1 8 26 17
split_gain=0.0197242 0.756833 0.439174 0.773958 1.3283 1.27342 0.911719 0.678284 0.74779 0.633414 2.80045 1.18347 0.847231 0.594891
threshold=-1.8232249999999997 -1.7931549999999998 4.7200350000000006e-05 -7.2760499999999988 -7.3219299999999992 -3.3107699999999995e-05 -7.1304499999999988 -5.8792649999999993 -0.067014849999999973 -4.9075749999999987 -4.3936099999999998 8.5689950000000018e-06 0.00010372300000000001 3.1476000000000005e-07
decision_type=2 2 2 2 2 2 2 2 2 2 2 2 2 2
left_child=1 2 3 4 5 -1 -5 8 -8 10 12 13 -7 -11
right_child=-2 -3 -4 6 -6 9 7 -9 -10 11 -12 -13 -14 -15
leaf_value=-0.00069987367515077269 -4.9734288028413242e-05 -0.00054353594113689882 0.00016393236356308544 -0.0025358151395848544 -0.0041184275061823426 0.039526903978548945 0.035600641767183937 -0.0027375339048578301 0.0087964444409247815 0.022865297361540627 -0.0016011037052117497 -0.0020369240557592291 0.0087581429969180707 -0.0017920671321917327
leaf_weight=77 17426 3650 530 247 82 48 14.999999999999998 27 34 53 36 51 10.999999999999998 11.999999999999998
leaf_count=77 17426 3650 530 247 82 48 15 27 34 53 36 51 11 12
internal_value=0 0.000177851 0.00233081 0.00398801 0.00711044 0.0103075 0.000411235 0.00998915 0.0170018 0.0143245 0.0203789 0.00936615 0.0337904 0.0183132
internal_weight=0 4873 1223 693 370 288 323 76 49 211 95 116 59 65
internal_count=22299 4873 1223 693 370 288 323 76 49 211 95 116 59 65
shrinkage=0.1


Tree=233
num_leaves=15
num_cat=0
split_feature=7 21 1 3 14 21 14 32 1 10 1 3 27 10
split_gain=0.0189375 0.0394887 1.50192 0.75867 1.02067 1.08907 1.3952 1.10482 0.891726 0.713773 0.66353 0.532286 0.80886 0.527637
threshold=5.1723650000000004e-05 6.9100200000000012 5.9006000000000016 -6.9359899999999994 0.0013165550000000003 9.7161850000000012 0.00039557700000000009 -0.027447299999999997 9.3428500000000003 2.0694400000000006e-05 9.895920000000002 -8.403439999999998 0.58837500000000009 1.5487650000000004e-05
decision_type=2 2 2 2 2 2 2 2 2 2 2 2 2 2
left_child=1 -1 -3 4 5 6 11 9 -7 -8 -10 -4 13 -13
right_child=-2 2 3 -5 -6 8 7 -9 10 -11 -12 12 -14 -15
leaf_value=-0.00014588002192127673 0.00012582966304928856 -0.001193242531188716 -0.0086632557275394591 0.00056280446918194761 8.6137080919707586e-05 -0.003999792842146503 0.045525405314509521 -0.0017664813622832298 0.029546912907458409 0.02094385412610358 0.0057787628403227582 0.0055647931793438542 0.00010447254189784872 0.029487684336318459
leaf_weight=11840 7785 1929 14.999999999999998 335 141 68 27 9.9999999999999982 17 21 38 13.999999999999998 32 27
leaf_count=11840 7785 1929 15 335 141 68 27 10 17 21 38 14 32 27
internal_value=0 -6.74923e-05 0.000279594 0.00409315 0.00697771 0.01059 0.0164302 0.0284714 0.00365776 0.034771 0.0131253 0.00849396 0.0120194 0.0213189
internal_weight=0 14514 2674 745 410 269 146 58 123 48 55 88 73 41
internal_count=22299 14514 2674 745 410 269 146 58 123 48 55 88 73 41
shrinkage=0.1


Tree=234
num_leaves=15
num_cat=0
split_feature=13 34 12 21 14 10 20 20 3 25 11 3 33 3
split_gain=0.0211103 0.0484843 0.0697495 0.108417 0.165223 0.19082 0.187666 0.186986 0.07203 0.124104 0.0674485 0.0650991 0.0805932 0.244476
threshold=5.5414750000000007e-05 0.56474900000000006 -9.8295499999999987e-05 0.16215450000000001 0.0031007600000000006 1.9152950000000004e-05 -3.0532049999999997 2.8988350000000005 -11.619699999999998 10.198000000000002 0.00013384500000000003 -6.0725999999999987 -3.2218649999999993e-05 -9.5552499999999991
decision_type=2 2 2 2 2 2 2 2 2 2 2 2 2 2
left_child=1 11 3 4 -3 6 -6 -8 9 -5 -4 12 13 -1
right_child=-2 2 10 8 5 -7 7 -9 -10 -11 -12 -13 -14 -15
leaf_value=-0.0037809944346467155 0.00015413203038119506 -0.0014590235420531199 0.00063888740057195352 -0.008208063727323996 -0.0010214045432142237 8.5134078350771836e-05 0.023578689868251478 0.0059252553017965209 -0.00082437510892095127 -0.0006297201474080794 -0.0036678432367389675 0.0002459944736162406 -0.00019695770853588675 0.00048157960531391313
leaf_weight=246 6354 139 2117 47 10.999999999999998 48 12.000000000000002 11.999999999999998 104 40 37 3322 9513 297
leaf_count=246 6354 139 2117 47 11 48 12 12 104 40 37 3322 9513 297
internal_value=0 -6.14208e-05 0.00033666 -0.000853774 0.000649072 0.0041795 0.00979463 0.014752 -0.00260054 -0.00472377 0.000564909 -0.000137805 -0.000264594 -0.00144953
internal_weight=0 15945 2567 413 222 83 35 24 191 87 2154 13378 10056 543
internal_count=22299 15945 2567 413 222 83 35 24 191 87 2154 13378 10056 543
shrinkage=0.1


Tree=235
num_leaves=15
num_cat=0
split_feature=16 34 10 26 35 15 7 7 15 35 29 16 16 4
split_gain=0.0200012 0.0404152 0.0590543 0.0398157 0.0330071 0.156889 0.247062 0.294874 0.228751 0.224701 0.0946676 0.0611148 0.0529504 0.192942
threshold=5.0821450000000006e-06 15.220100000000002 1.5890450000000003e-05 0.014703150000000002 0.033853900000000013 1.664075e-06 3.2189500000000007e-05 3.072290000000001e-05 4.8704800000000014e-06 0.084428150000000021 -0.095532949999999991 2.8113400000000003e-06 5.1028300000000007e-07 0.20003250000000003
decision_type=2 2 2 2 2 2 2 2 2 2 2 2 2 2
left_child=4 -2 -3 -4 -1 11 7 10 9 -8 -7 12 -6 -14
right_child=1 2 3 -5 5 6 8 -9 -10 -11 -12 -13 13 -15
leaf_value=-8.8724527654614635e-05 0.00021837429705843207 -0.0081908610255385823 -0.0021370873202315784 0.0035307179809024093 -0.00014115541021539977 -0.0044294829294085495 0.020514664722775865 0.020527700491948055 -0.0004714506175714896 0.0027207170613110067 0.008309723395255526 -0.004497936176485382 -0.00040401108782295043 0.0098697823816910404
leaf_weight=16169 4753 12.999999999999998 55 15.999999999999998 961 10 11.000000000000002 15.999999999999998 138 20 14 30 68 25
leaf_count=16169 4753 13 55 16 961 10 11 16 138 20 14 30 68 25
internal_value=0 0.000179947 -0.0019944 -0.000859835 -4.98456e-05 0.000436337 0.00294498 0.0100121 0.00127228 0.0090347 0.00300172 -4.73401e-05 7.93372e-05 0.00235776
internal_weight=0 4837 84 71 17462 1293 209 40 169 31 24 1084 1054 93
internal_count=22299 4837 84 71 17462 1293 209 40 169 31 24 1084 1054 93
shrinkage=0.1


Tree=236
num_leaves=15
num_cat=0
split_feature=34 1 8 37 12 21 35 1 3 1 30 14 3 8
split_gain=0.0192132 0.0355455 0.0555063 0.0902744 0.0793165 0.0667019 0.0282046 0.0256379 0.0401973 0.0300381 0.0261472 0.0901358 0.198915 0.112338
threshold=0.0025908250000000006 8.7127450000000017 -2.2604549999999997e-05 -1.2685899999999998e-08 4.4699100000000007e-05 10.826150000000002 1.0000000180025095e-35 -11.81865 -5.6811349999999994 -10.689749999999998 5.3135300000000006e-05 0.00012106850000000002 -5.7169999999999996 5.7286400000000008e-06
decision_type=2 2 2 2 2 2 2 2 2 2 2 2 2 2
left_child=1 7 5 4 -4 -3 -5 8 -1 -9 -11 12 13 -12
right_child=-2 2 3 6 -6 -7 -8 9 -10 10 11 -13 -14 -15
leaf_value=-0.0064748588153937213 -1.6387371323916121e-05 -0.001589560196421539 -0.014953777766786511 -0.0028976996855238782 -0.0028950195429691423 0.0071833372205639115 0.0042633879977405417 0.0057297488911829605 0.00037326500426085362 5.3128919193624289e-05 0.0059841410133658953 0.00064185578784599785 -0.00064019723050781369 0.018953576142137704
leaf_weight=11.999999999999998 21625 26 10.000000000000002 11.000000000000002 11.999999999999998 12.999999999999998 10.999999999999998 12.999999999999998 30 228 17.000000000000004 250 30 10.999999999999998
leaf_count=12 21625 26 10 11 12 13 11 13 30 228 17 250 30 11
internal_value=0 0.000525782 -0.00141206 -0.00384671 -0.00837627 0.00133474 0.000682844 0.000797932 -0.00158334 0.000980105 0.000864909 0.00146584 0.00501748 0.0110793
internal_weight=0 674 83 44 22 39 22 591 42 549 536 308 58 28
internal_count=22299 674 83 44 22 39 22 591 42 549 536 308 58 28
shrinkage=0.1


Tree=237
num_leaves=15
num_cat=0
split_feature=2 22 19 3 23 34 23 3 16 33 13 11 21 21
split_gain=0.0183874 0.603916 0.532138 0.769279 1.30546 0.999894 0.812582 0.629339 0.524417 0.478434 0.616354 0.630587 1.78705 0.855144
threshold=-1.8232249999999997 -1.7931549999999998 4.442305000000001e-06 -7.2760499999999988 -7.1911899999999989 0.5512450000000001 -7.1304499999999988 -5.8792649999999993 -5.4122749999999991e-09 -3.0503249999999999e-06 1.1628700000000001e-05 -2.8448049999999996e-05 -6.5036099999999992 -3.7835499999999995
decision_type=2 2 2 2 2 2 2 2 2 2 2 2 2 2
left_child=1 2 3 4 5 9 -5 8 -8 10 -1 13 -13 -12
right_child=-2 -3 -4 6 -6 -7 7 -9 -10 -11 11 12 -14 -15
leaf_value=-0.0025881704769562929 -4.8019409834002417e-05 -0.00047268289604203786 -0.00022780745773391342 -0.0024982687307448757 -0.0066743742948817495 -0.0017764693143258452 0.0099682500642357466 -0.0025630416874601334 0.03368135805313404 0.00046256957655965258 0.0058702645226217376 0.051607406139373785 0.01458953750386302 0.023755253421572541
leaf_weight=20 17426 3650 546 239 58 61 33 27 12.999999999999998 29 85 17 56 39
leaf_count=20 17426 3650 546 239 58 61 33 27 13 29 85 17 56 39
internal_value=0 0.000171719 0.00209491 0.00396819 0.00708477 0.00968421 0.000322184 0.00955627 0.0166698 0.0125261 0.0141383 0.0158364 0.0232101 0.0114954
internal_weight=0 4873 1223 677 365 307 312 73 46 246 217 197 73 124
internal_count=22299 4873 1223 677 365 307 312 73 46 246 217 197 73 124
shrinkage=0.1


Tree=238
num_leaves=15
num_cat=0
split_feature=4 18 38 34 4 33 17 24 14 23 6 14 14 14
split_gain=0.0205239 0.0485411 0.729806 0.32932 0.439542 0.486337 0.403442 0.573195 0.38694 0.350452 0.777804 0.910423 0.695186 0.578256
threshold=-0.49158199999999991 -1.7750149999999999e-06 0.00020902850000000003 0.35781150000000006 0.034634100000000008 -8.315239999999999e-06 -3.1948199999999994e-08 -0.32934699999999995 0.0018131100000000002 -8.291344999999998 -7.4621249999999987e-07 0.00024581550000000004 0.00051153500000000014 0.0034582950000000006
decision_type=2 2 2 2 2 2 2 2 2 2 2 2 2 2
left_child=-1 2 -2 4 5 6 7 -4 -9 10 -7 -12 -11 -13
right_child=1 -3 3 -5 -6 9 -8 8 -10 12 11 13 -14 -15
leaf_value=0.00018073314342275759 -0.0015148623100021659 3.4907150859170482e-05 0.026963966367766264 -0.00093703685778387467 -0.0035519042555746195 -0.00048732981262056578 -0.0049104809507305985 -0.0039032007566129328 0.016570795948306721 0.0058325340537505556 -0.0025887878029607239 0.013363360833647918 -0.0040264020092939563 -0.0030139511538436639
leaf_weight=4902 2208 13763 9.9999999999999982 427 111 123 119 40 11.999999999999998 169 55 212 124 24
leaf_count=4902 2208 13763 10 427 111 123 119 40 12 169 55 212 124 24
internal_value=0 -5.09257e-05 -0.000375999 0.0013874 0.00238093 0.00312254 -0.00150269 0.00503808 0.000821568 0.00430664 0.00617964 0.00899764 0.00166015 0.0116979
internal_weight=0 17397 3634 1426 999 888 181 62 52 707 414 291 293 236
internal_count=22299 17397 3634 1426 999 888 181 62 52 707 414 291 293 236
shrinkage=0.1


Tree=239
num_leaves=15
num_cat=0
split_feature=24 4 4 39 37 19 33 23 25 10 37 17 27 19
split_gain=0.022981 0.391322 0.337148 0.241867 0.242326 0.721104 1.03726 0.871962 1.33856 0.807065 0.675691 0.582265 0.58853 0.607506
threshold=-0.14530599999999996 -0.10073449999999999 -0.61210349999999991 0.0010716850000000004 -1.7348099999999996e-07 0.00092522000000000014 7.0646800000000006e-06 -15.099999999999998 1.0014450000000001 3.682795000000001e-05 1.4332350000000001e-07 -4.6517449999999998e-09 1.2257000000000002 5.2381950000000008e-07
decision_type=2 2 2 2 2 2 2 2 2 2 2 2 2 2
left_child=1 2 -1 4 11 10 -7 -8 9 -9 -6 12 -4 -14
right_child=-2 -3 3 -5 5 6 7 8 -10 -11 -12 -13 13 -15
leaf_value=-0.00024555768846872488 7.5217070924713702e-05 -0.00069411827183098532 0.00054016876594880519 -0.00040403188751439862 0.0051497285543915944 -0.0036834696252634261 -0.00028260530531406402 0.050787240101231458 0.0095382721117902095 0.018088789620938208 -0.0021306877606982258 -0.0024649558033494265 0.0026228312159861057 0.021262302870551746
leaf_weight=1604 14396 4858 113 355 307 38 25 18.000000000000004 41 12.999999999999998 218 243 34 36
leaf_count=1604 14396 4858 113 355 307 38 25 18 41 13 218 243 34 36
internal_value=0 -0.000137014 0.00075179 0.00186195 0.00260268 0.00380278 0.0103212 0.0158075 0.0213944 0.037075 0.00212662 0.000743366 0.0050036 0.0122088
internal_weight=0 7903 3045 1441 1086 660 135 97 72 31 525 426 183 70
internal_count=22299 7903 3045 1441 1086 660 135 97 72 31 525 426 183 70
shrinkage=0.1


Tree=240
num_leaves=15
num_cat=0
split_feature=14 23 34 3 30 37 16 7 3 16 3 25 13 20
split_gain=0.023297 0.051916 0.0651735 0.126205 0.0943342 0.0915383 0.238086 0.333557 0.153559 0.150259 0.188235 0.133313 0.122658 0.107349
threshold=9.3791550000000008e-05 -7.7487749999999993 0.0060763450000000012 -5.9630249999999991 0.00017346800000000003 -6.3653549999999993e-09 5.244890000000001e-08 3.5476350000000008e-05 -6.6325449999999995 7.1900850000000015e-08 -5.9294499999999992 0.18197100000000002 1.3357000000000001e-05 10.786950000000003
decision_type=2 2 2 2 2 2 2 2 2 2 2 2 2 2
left_child=1 -1 5 4 -4 9 8 11 -7 -3 12 -8 -11 -9
right_child=-2 2 3 -5 -6 6 7 13 -10 10 -12 -13 -14 -15
leaf_value=0.00046969557451334614 -4.6399511416376913e-05 0.0010979170946158329 -0.0090803394073863397 -4.503237888539761e-05 -0.0022855059359517824 -0.012706664316356182 0.0082941553369164436 -0.0016683445830318715 0.00033443886182716578 -0.0052999650089380649 -0.00054796206268638108 0.023927697657685109 -0.017450866739576062 0.0067228314915943584
leaf_weight=2648 18489 212 23 440 183 9.9999999999999982 10.000000000000002 31 93 27 79 11.999999999999998 11.999999999999998 30
leaf_count=2648 18489 212 23 440 183 10 10 31 93 27 79 12 12 30
internal_value=0 0.000225166 -0.000332077 -0.00100141 -0.00304415 0.000505884 0.00227998 0.00626554 -0.000931688 -0.000494061 -0.00335422 0.0168215 -0.0090387 0.00245846
internal_weight=0 3810 1162 646 206 516 186 83 103 330 118 22 39 61
internal_count=22299 3810 1162 646 206 516 186 83 103 330 118 22 39 61
shrinkage=0.1


Tree=241
num_leaves=15
num_cat=0
split_feature=15 35 15 7 33 13 3 32 2 15 35 2 22 4
split_gain=0.0216853 0.0890488 0.347608 0.0453376 0.0385552 0.0378038 0.0345884 0.181758 0.375079 0.0333592 0.747443 0.36137 0.566954 0.790274
threshold=-9.8723849999999978e-06 -0.6849559999999999 -1.8560199999999996e-05 4.0488250000000007e-05 2.5984300000000004e-06 1.3903400000000001e-05 -16.135999999999999 0.13461200000000004 -1.5982649999999998 -1.8158299999999997e-07 -0.00065471599999999996 1.3169650000000002 1.856025 0.034634100000000008
decision_type=2 2 2 2 2 2 2 2 2 2 2 2 2 2
left_child=1 2 3 -1 5 -3 7 -7 -9 10 11 -2 -13 -14
right_child=9 4 -4 -5 -6 6 -8 8 -10 -11 -12 12 13 -15
leaf_value=0.0047184027486333723 0.0031014724268524129 0.001118412913467123 0.018486396577925637 -0.0010702210178777101 -0.00026901781951674622 -0.00024095054007207666 4.5169428484086619e-05 0.022257476862675193 -0.00083366311771576021 2.4123510517605372e-05 -0.001289412532466506 -0.0023692156486085215 -0.0056355798514585113 0.0097679312891649234
leaf_weight=19 741 553 12.999999999999998 47 1391 103 1634 12.000000000000002 17 14665 2569 382 49 104
leaf_count=19 741 553 13 47 1391 103 1634 12 17 14665 2569 382 49 104
internal_value=0 0.000217962 0.00354016 0.000596201 0.00014722 0.00039689 0.000170955 0.00172803 0.00872129 -4.46168e-05 -0.000306795 0.00167153 -0.000309007 0.00483478
internal_weight=0 3789 79 66 3710 2319 1766 132 29 18510 3845 1276 535 153
internal_count=22299 3789 79 66 3710 2319 1766 132 29 18510 3845 1276 535 153
shrinkage=0.1


Tree=242
num_leaves=15
num_cat=0
split_feature=13 34 17 7 7 32 3 3 15 25 33 3 10 17
split_gain=0.0199951 0.0517047 0.0663028 0.0902863 0.079207 0.0694701 0.0662837 0.061523 0.0761709 0.0622316 0.0602645 0.216557 0.11499 0.101151
threshold=5.5414750000000007e-05 0.56474900000000006 2.1867650000000003e-07 2.2625000000000004e-05 2.0669200000000005e-05 -4.0794749999999995 -17.753849999999996 -6.0725999999999987 1.4819550000000001e-05 12.089550000000001 -3.2218649999999993e-05 -9.5552499999999991 1.5362750000000001e-05 2.3842750000000009e-07
decision_type=2 2 2 2 2 2 2 2 2 2 2 2 2 2
left_child=1 7 6 4 -4 -5 -3 8 10 -9 11 12 -1 -13
right_child=-2 2 3 5 -6 -7 -8 9 -10 -11 -12 13 -14 -15
leaf_value=-0.0075112339214252121 0.00015000569788705114 0.0074748756146679326 -0.0016101090680985227 -0.0018652912020916121 -0.011794580363978943 0.00028057281120822444 0.00078761685522178151 0.00027137427070368208 0.00067360827482124011 -0.0048392555412647203 -0.00028177056120252058 -0.0012432534494643821 -0.0023674109169444296 0.0025972625411047443
leaf_weight=59 6354 14.999999999999998 21 175 11.999999999999998 1094 1250 3298 801 24 8753 155 165 123
leaf_count=59 6354 15 21 175 12 1094 1250 3298 801 24 8753 155 165 123
internal_value=0 -5.97765e-05 0.000351312 -0.000149636 -0.00531355 -1.53501e-05 0.000866912 -0.000138657 -0.000261914 0.000234452 -0.000342881 -0.00140842 -0.00372226 0.000455968
internal_weight=0 15945 2567 1302 33 1269 1265 13378 10056 3322 9255 502 224 278
internal_count=22299 15945 2567 1302 33 1269 1265 13378 10056 3322 9255 502 224 278
shrinkage=0.1


Tree=243
num_leaves=15
num_cat=0
split_feature=24 4 4 39 33 13 5 13 3 23 24 10 20 11
split_gain=0.0196842 0.310998 0.285836 0.29804 0.230135 1.02068 0.583855 0.504678 0.453136 0.358648 0.353782 0.318407 1.13357 1.84161
threshold=-0.14530599999999996 -0.10073449999999999 -0.42967699999999992 0.0010716850000000004 -8.315239999999999e-06 2.5441800000000004e-05 1.0873100000000001e-05 2.4703400000000005e-05 -6.4853999999999994 -6.4589649999999992 -0.32934699999999995 2.9606050000000004e-05 4.3779750000000011 1.9789500000000001e-05
decision_type=2 2 2 2 2 2 2 2 2 2 2 2 2 2
left_child=1 2 -1 4 5 -4 -7 8 11 -10 -8 -6 -13 -14
right_child=-2 -3 3 -5 7 6 10 -9 9 -11 -12 12 13 -15
leaf_value=-0.00015731449627246974 6.9613085029346695e-05 -0.00062345341645020976 -0.0036775179840494985 -0.00089729315286044865 0.0041121461175616545 0.02957396060228348 0.017364449705928566 -0.0027703469748505288 -0.0017289056862635471 0.015662180403104197 -0.0018325030803680417 0.0042761189081178116 -0.0015770135281075325 0.036304625609155858
leaf_weight=1769 14396 4858 180 309 296 13.999999999999998 15.999999999999995 108 135 12.999999999999998 24.000000000000004 127 21 33
leaf_count=1769 14396 4858 180 309 296 14 16 108 135 13 24 127 21 33
internal_value=0 -0.000126806 0.000665546 0.00180633 0.00267026 -6.0114e-05 0.0119979 0.00354189 0.00463265 -0.00020131 0.00584628 0.00613249 0.00943648 0.0215729
internal_weight=0 7903 3045 1276 967 234 54 733 625 148 40 477 181 54
internal_count=22299 7903 3045 1276 967 234 54 733 625 148 40 477 181 54
shrinkage=0.1


Tree=244
num_leaves=15
num_cat=0
split_feature=14 19 33 3 30 14 20 0 3 35 15 33 4 13
split_gain=0.0208965 0.0388586 0.176635 0.264072 0.148115 0.148202 0.137389 0.701483 0.684608 1.09293 0.80859 0.657633 0.686207 0.437835
threshold=9.3791550000000008e-05 0.00040931400000000009 7.0646800000000006e-06 -9.8324999999999978 0.0030361450000000005 0.0039742050000000006 6.4716200000000006 6.0177700000000014 -7.2465349999999988 -0.0010023884999999998 -1.3894099999999997e-07 -4.6941049999999992e-06 0.075113600000000016 9.2683100000000031e-06
decision_type=2 2 2 2 2 2 2 2 2 2 2 2 2 2
left_child=-1 2 6 4 5 -4 -2 -8 9 10 -9 12 -11 -13
right_child=1 -3 3 -5 -6 -7 7 8 -10 11 -12 13 -14 -15
leaf_value=0.0002132495212221054 0.00030418577253928482 9.9927532241531454e-05 -0.0046530180118711812 -0.0001899207699377725 -0.00063411947751909603 -0.00093024939894512039 -0.0019744869677933391 0.04300989973624901 -0.0013148184195667554 0.00066460544941946862 0.0057788084167987109 0.012707833520003729 0.025515889361500739 -0.0035594850016376512
leaf_weight=3810 5340 9315 340 1581 289 156 1134 14.000000000000002 166 20 9.9999999999999982 21 25 78
leaf_count=3810 5340 9315 340 1581 289 156 1134 14 166 20 10 21 25 78
internal_value=0 -4.3944e-05 -0.000190027 -0.000934349 -0.00243364 -0.00348215 6.86493e-05 -0.000788139 0.00323976 0.00774012 0.0274969 0.00444732 0.0144709 -0.000108842
internal_weight=0 18489 9174 2366 785 496 6808 1468 334 168 24 144 45 99
internal_count=22299 18489 9174 2366 785 496 6808 1468 334 168 24 144 45 99
shrinkage=0.1


Tree=245
num_leaves=15
num_cat=0
split_feature=34 3 7 33 36 0 14 3 31 3 7 37 19 7
split_gain=0.0187141 0.0326831 0.0372865 0.091896 0.0570149 0.0484264 0.0487168 0.082696 0.0406149 0.0390889 0.0222472 0.0274098 0.0668041 0.0651909
threshold=0.0025908250000000006 -10.915599999999998 3.8717850000000007e-05 -2.5789099999999994e-06 -0.00015982599999999998 -7.8306499999999994 9.3791550000000008e-05 -6.2170999999999994 -0.0094674049999999982 -6.9004699999999994 3.9625200000000008e-05 1.8899300000000002e-08 9.094725000000003e-09 5.8880900000000007e-05
decision_type=2 2 2 2 2 2 2 2 2 2 2 2 2 2
left_child=1 -1 3 -3 9 -6 7 -7 -9 -5 -4 12 13 -12
right_child=-2 2 10 4 5 6 -8 8 -10 -11 11 -13 -14 -15
leaf_value=0.0016063788428199383 -1.617311813095425e-05 -0.010362056638114155 0.0048187974938907882 -0.00084005607482553861 -0.0054075548982447279 0.01062149340286851 -0.00047784504786250185 0.0060026569245383151 -0.0018026232963893559 -0.0090929018876825772 0.012389025688171382 -0.0010339544099559519 0.0005943305252082571 0.0009705388452857733
leaf_weight=196 21625 9.9999999999999982 12.999999999999998 11.000000000000002 13.999999999999998 11.999999999999998 96 9.9999999999999982 20.000000000000004 11.999999999999998 10.000000000000002 76 184 9.9999999999999982
leaf_count=196 21625 10 13 11 14 12 96 10 20 12 10 76 184 10
internal_value=0 0.000518908 7.29988e-05 -0.0010385 -0.000505727 0.000196402 0.00076492 0.00360552 0.000799137 -0.00514589 0.0007748 0.000587043 0.00119094 0.00667978
internal_weight=0 674 478 185 175 152 138 42 30 23 293 280 204 20
internal_count=22299 674 478 185 175 152 138 42 30 23 293 280 204 20
shrinkage=0.1


Tree=246
num_leaves=15
num_cat=0
split_feature=13 37 16 36 3 1 15 28 14 18 22 4 1 9
split_gain=0.0185345 0.0417677 0.0960651 0.250309 0.351345 0.436207 0.156036 0.124558 0.0834728 0.106959 0.199721 0.315362 0.0893009 0.0925981
threshold=5.5414750000000007e-05 9.4814400000000013e-07 -9.6895549999999981e-06 -0.010022309999999998 -8.403439999999998 3.8546250000000004 1.9066e-05 -0.064456199999999977 0.0015937550000000003 -0.00042422649999999994 -0.24703349999999999 -1.5067699999999997 -7.0487299999999991 5.3179400000000008e-05
decision_type=2 2 2 2 2 2 2 2 2 2 2 2 2 2
left_child=1 -1 3 4 5 6 7 -3 -4 10 11 -10 -11 -14
right_child=-2 2 8 -5 -6 -7 -8 -9 9 12 -12 -13 13 -15
leaf_value=-0.00011530532113976911 0.00014442285259295409 0.0047070028768344367 0.00051299778505576048 -0.00078678176202573728 -0.0011570538394153119 0.029733041284436532 -0.0012733892936791693 0.019755864054472605 -0.0019121479794072605 -0.011460530143231154 -0.002707016610495177 0.018593519898131489 -0.0022566523529045906 0.0067473575637753431
leaf_weight=14144 6354 10.999999999999998 1298 98 33 10.999999999999998 13.999999999999998 11.000000000000002 15.000000000000002 9.9999999999999982 36 14.999999999999998 237 11.999999999999998
leaf_count=14144 6354 11 1298 98 33 11 14 11 15 10 36 15 237 12
internal_value=0 -5.75518e-05 0.000396011 0.00260135 0.00675181 0.0123048 0.00697956 0.0122314 0.000154144 -0.00127906 0.00231467 0.00834069 -0.00219484 -0.00182272
internal_weight=0 15945 1801 178 80 47 36 22 1623 325 66 30 259 249
internal_count=22299 15945 1801 178 80 47 36 22 1623 325 66 30 259 249
shrinkage=0.1


Tree=247
num_leaves=15
num_cat=0
split_feature=18 24 4 14 38 33 13 13 23 28 8 10 29 16
split_gain=0.0191987 0.434757 0.399028 0.435955 0.629557 0.765211 1.80748 1.15662 1.1146 1.0822 2.00952 0.562551 0.708541 0.624698
threshold=5.8510050000000008e-08 0.085588150000000016 0.27459550000000005 0.00013119700000000002 -0.0042965999999999994 -6.0875599999999989e-06 2.0036550000000004e-05 1.8799600000000005e-05 -8.3693049999999989 0.0075211650000000007 -9.7870799999999985e-06 3.8031050000000006e-05 -0.0017787699999999998 7.6004200000000021e-08
decision_type=2 2 2 2 2 2 2 2 2 2 2 2 2 2
left_child=-1 -2 3 -3 -5 6 -6 9 11 -7 -11 12 13 -8
right_child=1 2 -4 4 5 7 8 -9 -10 10 -12 -13 -14 -15
leaf_value=-8.128265239068451e-05 -0.00049908269031382171 0.00015906170562481506 1.8267351670996485e-05 -0.00050552916579319916 0.00056536651894379699 0.0040592912750290573 0.0023064906309757916 -0.0030052328578168055 -0.0028017432898923291 0.040888417408374761 0.00076120490266475829 0.011949688657186926 0.039362050592899323 0.030471497649947804
leaf_weight=12617 5334 784 2484 315 109 282 13.999999999999998 211 20 24 26 30 31 18
leaf_count=12617 5334 784 2484 315 109 282 14 211 20 24 26 30 31 18
internal_value=0 0.000105923 0.000848126 0.00195401 0.00325701 0.00480629 0.00975262 0.00278403 0.0186147 0.00646335 0.0200223 0.0232203 0.0285873 0.0181493
internal_weight=0 9682 4348 1864 1080 765 222 543 113 332 50 93 63 32
internal_count=22299 9682 4348 1864 1080 765 222 543 113 332 50 93 63 32
shrinkage=0.1


Tree=248
num_leaves=15
num_cat=0
split_feature=4 24 25 34 3 18 5 33 22 11 35 35 4 24
split_gain=0.0229234 0.0471785 0.0497301 0.0358755 0.0585004 0.0948561 0.0754241 0.284653 0.151808 0.0850665 0.120571 0.197723 0.0607905 0.417381
threshold=0.93067350000000004 0.25594300000000009 54.163350000000008 0.17847300000000002 -6.0725999999999987 -0.00025752899999999994 7.1526450000000005e-06 2.2192050000000004e-05 -2.7254199999999993 -1.7311249999999998e-05 0.00068072950000000021 0.0017406800000000003 -0.15044249999999995 -0.14736199999999997
decision_type=2 2 2 2 2 2 2 2 2 2 2 2 2 2
left_child=3 -2 -3 4 5 -1 7 8 -7 -10 -11 -12 -8 -14
right_child=1 2 -4 -5 -6 6 12 -9 9 10 11 -13 13 -15
leaf_value=0.00025708925473621433 0.00036474304830752893 -0.00071533152003670699 0.004766336702296565 0.00017125819782788881 0.00025747220866884801 0.011000281783680503 -0.00096205484163371015 0.017987067154608665 -0.0030435095502980404 -0.000402344465478296 0.017657487983392037 -0.00090369084694733232 -0.0017943639654112897 0.00022902558473140243
leaf_weight=2685 3389 625 17 5311 2910 12.999999999999998 1963 9.9999999999999982 64 68 11.000000000000002 11.999999999999998 1389 3832
leaf_count=2685 3389 625 17 5311 2910 13 1963 10 64 68 11 12 1389 3832
internal_value=0 0.000215842 -0.000570178 -4.76275e-05 -0.000137348 -0.000251703 -0.000437264 0.00159617 0.000620522 -0.000250038 0.0017146 0.00797339 -0.000487647 -0.000309279
internal_weight=0 4031 642 18268 12957 10047 7362 178 168 155 91 23 7184 5221
internal_count=22299 4031 642 18268 12957 10047 7362 178 168 155 91 23 7184 5221
shrinkage=0.1


Tree=249
num_leaves=15
num_cat=0
split_feature=4 24 29 3 31 3 30 4 31 11 15 25 11 5
split_gain=0.018568 0.0382146 0.046005 0.124017 0.0359752 0.101031 0.0493151 0.0492857 0.0356561 0.184513 0.215212 0.236077 0.279212 0.304523
threshold=0.93067350000000004 0.25594300000000009 0.4817415000000001 -9.6708399999999983 -1.2402049999999998 -15.632649999999998 0.028342650000000004 2.3154300000000005 -0.42787449999999994 2.8778950000000003e-05 -1.8560199999999996e-05 2.3922450000000004 7.2122900000000007e-05 1.3647800000000002e-05
decision_type=2 2 2 2 2 2 2 2 2 2 2 2 2 2
left_child=8 -2 4 -4 5 -3 7 -7 9 -1 -11 12 -12 -14
right_child=1 2 3 -5 -6 6 -8 -9 -10 10 11 -13 13 -15
leaf_value=-0.000229547571420705 0.00032826874327060451 0.010618928484618664 0.011203756885758288 -0.0017815936733600929 -0.0010227574088245467 0.0081957934326783288 -0.0031636964574816729 0.00032667047998984349 -8.7964058946974689e-05 -0.00099907716854956744 0.0011724211506589201 0.0026051072648736791 0.031336918398737895 0.007225475477224047
leaf_weight=1269 3389 9.9999999999999982 12.000000000000002 19 521 9.9999999999999982 31 39 16544 149 15.999999999999998 269 10.000000000000002 10.999999999999998
leaf_count=1269 3389 10 12 19 521 10 31 39 16544 149 16 269 10 11
internal_value=0 0.000194258 -0.00051316 0.00324499 -0.000703836 0.00114236 -4.22063e-05 0.00193261 -4.28648e-05 0.000389921 0.00211763 0.00363524 0.0111245 0.0187071
internal_weight=0 4031 642 31 611 90 80 49 18268 1724 455 306 37 21
internal_count=22299 4031 642 31 611 90 80 49 18268 1724 455 306 37 21
shrinkage=0.1


Tree=250
num_leaves=15
num_cat=0
split_feature=14 23 23 34 3 4 21 1 3 3 3 1 7 26
split_gain=0.0183222 0.0469355 0.0427081 0.0499877 0.0996308 0.0833703 0.0790539 0.225378 0.396563 0.276195 0.108523 0.220266 0.192689 0.308577
threshold=9.3791550000000008e-05 -6.4482599999999985 -7.7487749999999993 0.0060763450000000012 -5.9630249999999991 -0.10651199999999998 -7.8836949999999986 -7.1577199999999985 -5.9423249999999994 -5.9800399999999998 -6.1782649999999988 -7.2266699999999995 4.6421100000000009e-05 -6.6333949999999989e-05
decision_type=2 2 2 2 2 2 2 2 2 2 2 2 2 2
left_child=2 -2 -1 6 5 -5 7 8 -4 -9 11 -8 13 -13
right_child=1 -3 3 4 -6 -7 10 9 -10 -11 -12 12 -14 -15
leaf_value=0.00042146980282416863 -8.7103394771819505e-05 0.00051125178449016771 0.021803122274577619 0.0057632788380777298 -4.21775919444785e-05 -0.0031847126534184779 -0.010649501718580723 -0.011386141165359213 -0.0018991484572931467 0.00014939844110688452 -1.6763271443592086e-06 -0.00572493833800157 0.00036213680667480312 0.012167023079545827
leaf_weight=2648 17069 1420 9.9999999999999982 10.999999999999998 440 195 9.9999999999999982 35 24 51 273 11.999999999999998 52 49
leaf_count=2648 17069 1420 10 11 440 195 10 35 24 51 273 12 52 49
internal_value=0 -4.11483e-05 0.000199683 -0.000305733 -0.000891921 -0.00270691 0.000428138 -0.00182037 0.00507211 -0.0045453 0.0011095 0.00357578 0.00483465 0.00864729
internal_weight=0 18489 3810 1162 646 206 516 120 34 86 396 123 113 61
internal_count=22299 18489 3810 1162 646 206 516 120 34 86 396 123 113 61
shrinkage=0.1


Tree=251
num_leaves=15
num_cat=0
split_feature=2 22 19 3 23 34 23 3 16 37 37 4 16 8
split_gain=0.0187996 0.400597 0.391685 0.610181 0.689356 0.680583 0.605906 0.548989 0.378562 0.690661 0.424435 1.38744 1.18997 0.882115
threshold=-1.8232249999999997 -1.8497849999999998 4.442305000000001e-06 -6.9557349999999998 -7.0796749999999991 0.5512450000000001 -7.0796749999999991 -5.8792649999999993 2.8559200000000001e-07 -3.9559199999999996e-07 -2.8905149999999998e-08 -0.042141649999999996 -2.0501599999999996e-07 1.3297900000000002e-05
decision_type=2 2 2 2 2 2 2 2 2 2 2 2 2 2
left_child=1 2 3 4 5 8 -5 -8 10 -10 12 -12 -1 -13
right_child=-2 -3 -4 6 -6 -7 7 -9 9 -11 11 13 -14 -15
leaf_value=-0.0052212637859735296 -4.8554620533233755e-05 -0.00033916946799074707 -0.00025548465328132871 -0.002547842529486595 -0.0046501768833527779 -0.0019600157572698417 0.017135843374382922 -0.0023849819515598938 0.022992837770531575 -0.0045263145897096319 -0.0064839041693822335 0.01646923412465387 0.01495860161904738 0.041709732115268711
leaf_weight=44 17426 3692 526 220 52 59 34 25 11.999999999999998 38 19 45 87 20
leaf_count=44 17426 3692 526 220 52 59 34 25 12 38 19 45 87 20
internal_value=0 0.000173633 0.00177674 0.00340872 0.00603788 0.00775325 -0.000134521 0.00886431 0.00991582 0.00207828 0.0117385 0.0172871 0.00818063 0.0242355
internal_weight=0 4873 1181 655 376 324 279 59 265 50 215 84 131 65
internal_count=22299 4873 1181 655 376 324 279 59 265 50 215 84 131 65
shrinkage=0.1


Tree=252
num_leaves=15
num_cat=0
split_feature=11 31 27 3 14 11 20 14 34 20 0 18 4 3
split_gain=0.018757 0.0947834 0.20673 0.465274 1.00235 0.201054 0.157286 0.0945192 0.226574 0.146706 0.433918 0.241283 0.366903 0.351856
threshold=-4.8309049999999991e-05 0.08884015000000002 0.30848300000000006 -11.892099999999997 0.0023791600000000004 -0.00017453449999999999 4.7860750000000012 0.0065786900000000008 0.086816450000000017 -4.1336199999999996 -3.1140699999999994 6.0305450000000011e-05 -1.1063349999999998 -16.889399999999998
decision_type=2 2 2 2 2 2 2 2 2 2 2 2 2 2
left_child=1 6 3 4 -3 -6 -1 8 -4 11 -11 12 -10 -14
right_child=-2 2 7 -5 5 -7 -8 -9 9 10 -12 -13 13 -15
leaf_value=-0.00056685821709137629 -4.8544242763797517e-05 0.039103981581601228 -0.0029427095997943391 -6.7726361735928031e-05 -0.0013287006958721166 0.014357117262597264 0.00080399700502728196 -0.00034317163553286242 -0.001247302084747288 -0.0010550334038574268 0.014860861981287599 -0.00098857299061848834 -0.0042858299653744329 0.011731723854821515
leaf_weight=2363 17419 10.999999999999998 93 73 21.999999999999996 13.000000000000002 1296 597 45 174 19 62 15.999999999999998 96
leaf_count=2363 17419 11 93 73 22 13 1296 597 45 174 19 62 16 96
internal_value=0 0.000173277 0.000936198 0.00489589 0.0127729 0.00449746 -8.1308e-05 0.000508609 0.00151557 0.00252192 0.000511816 0.00429339 0.00637926 0.0094435
internal_weight=0 4880 1221 119 46 35 3659 1102 505 412 193 219 157 112
internal_count=22299 4880 1221 119 46 35 3659 1102 505 412 193 219 157 112
shrinkage=0.1


Tree=253
num_leaves=15
num_cat=0
split_feature=4 31 0 16 39 14 9 9 23 0 8 29 24 18
split_gain=0.0194127 0.0320054 0.0934421 0.257324 0.443511 0.482518 0.53991 0.245102 0.247361 0.229005 0.205864 0.177205 0.110364 0.0734986
threshold=0.93067350000000004 -0.55108449999999987 4.6053300000000013 4.4228650000000009e-07 0.00148638 0.00025358600000000003 4.9865050000000008e-05 3.7495800000000001e-05 -8.4787649999999974 5.273975000000001 3.6391450000000006e-06 -0.10301699999999998 -1.6604849999999998 1.0692350000000002e-06
decision_type=2 2 2 2 2 2 2 2 2 2 2 2 2 2
left_child=1 2 -1 9 5 -5 -7 8 10 11 -6 -4 -11 -14
right_child=-2 -3 3 4 7 6 -8 -9 -10 12 -12 -13 13 -15
leaf_value=-0.00013223982936275063 0.00019862737778630806 -8.3446395128012273e-05 0.0029049084401103083 -0.00089992333358774592 0.012469823177283006 0.010976213804678989 0.039956555608659988 -0.0025080380372650502 0.018838887231854295 0.0079930882883043255 -0.0044393959941872816 0.017962350641292604 -0.00073983545122613143 -0.0053387603016922299
leaf_weight=1034 4031 16766 27 14.999999999999998 12.000000000000002 18.000000000000004 9.9999999999999982 62 12.999999999999998 12.999999999999998 18 10.999999999999998 228 41
leaf_count=1034 4031 16766 27 15 12 18 10 62 13 13 18 11 228 41
internal_value=0 -4.38289e-05 0.000398399 0.00157079 0.00501875 0.013573 0.0213263 0.00151558 0.00731708 -2.38848e-05 0.00232429 0.00726364 -0.00100589 -0.00144079
internal_weight=0 18268 1502 468 148 43 28 105 43 320 30 38 282 269
internal_count=22299 18268 1502 468 148 43 28 105 43 320 30 38 282 269
shrinkage=0.1


Tree=254
num_leaves=15
num_cat=0
split_feature=14 21 10 34 2 0 8 36 7 21 1 32 1 14
split_gain=0.0200147 0.0346393 0.0443666 0.103047 0.0384314 0.037112 0.0569752 0.0336043 0.0322396 0.087724 1.47439 0.533973 0.486318 0.456975
threshold=9.3791550000000008e-05 10.337350000000002 1.8855100000000005e-05 0.0056435200000000008 0.78463200000000011 -11.574899999999998 -1.1751599999999998e-05 0.00021397500000000001 4.5000550000000007e-05 6.6942750000000011 6.2321400000000002 -0.036715899999999996 6.8084300000000004 0.0013568100000000002
decision_type=2 2 2 2 2 2 2 2 2 2 2 2 2 2
left_child=1 -1 3 -3 -4 -6 7 -7 9 12 -11 13 -2 -12
right_child=8 2 4 -5 5 6 -8 -9 -10 10 11 -13 -14 -15
leaf_value=0.00028928724865361782 2.2518950216290106e-05 0.010957505062688139 -0.00032692688788210292 -0.0019827988289762288 0.00037225755784978299 -0.00057672095677719032 -0.010788887578316711 -0.005579663191922009 0.00010436035212895463 -0.0010271405986398223 0.010270948182292098 0.00064562824156058781 -0.0021017269354178677 0.00089652810172136772
leaf_weight=3556 7026 10.000000000000002 139 15.999999999999998 24 29 10.999999999999998 25 8234 1521 221 146 1273 68
leaf_count=3556 7026 10 139 16 24 29 11 25 8234 1521 221 146 1273 68
internal_value=0 0.000208702 -0.000919499 0.00299424 -0.0013658 -0.00298832 -0.00422914 -0.0028929 -4.30068e-05 -0.000161332 0.000441117 0.00557495 -0.000303323 0.0080652
internal_weight=0 3810 254 26 228 89 65 54 18489 10255 1956 435 8299 289
internal_count=22299 3810 254 26 228 89 65 54 18489 10255 1956 435 8299 289
shrinkage=0.1


Tree=255
num_leaves=15
num_cat=0
split_feature=4 4 38 4 3 34 3 23 24 3 23 23 33 13
split_gain=0.0182692 0.0309816 0.242351 0.191243 0.188482 0.169533 0.110191 0.38285 0.52987 0.554779 0.462522 0.328399 0.31671 1.22871
threshold=-1.9281699999999999 -0.15044249999999995 -0.00020375949999999995 -0.41304449999999998 -6.2342049999999993 0.39052300000000001 -8.403439999999998 -8.4787649999999974 -0.14736199999999997 -6.4339449999999987 -6.2589399999999991 -8.7865549999999981 -2.6599849999999993e-06 1.4468100000000001e-05
decision_type=2 2 2 2 2 2 2 2 2 2 2 2 2 2
left_child=-1 2 3 -2 5 -5 11 -8 9 -9 -11 12 -4 -14
right_child=1 -3 6 4 -6 -7 7 8 -10 10 -12 -13 13 -15
leaf_value=0.00022012682982599577 -0.00010387411691899719 3.1166475356099223e-05 1.6527403236909717e-05 -0.0039285443061990166 0.0010838061214764655 -0.00011304601283346162 -0.0022947921054102395 0.010158686581209102 -0.00091898756460958946 -0.0023431924075671844 0.018517494985523322 -0.00069525389688060392 0.0086500772137364876 -0.0016802987062102097
leaf_weight=3225 708 14810 373 509 132 151 576 112 384 93 11.999999999999998 750 252 212
leaf_count=3225 708 14810 373 509 132 151 576 112 384 93 12 750 252 212
internal_value=0 -3.72187e-05 -0.000274738 -0.00129812 -0.0023657 -0.0030556 0.000280642 -0.000452528 0.0013131 0.00526298 4.08862e-05 0.000824399 0.00218609 0.00393016
internal_weight=0 19074 4264 1500 792 660 2764 1177 601 217 105 1587 837 464
internal_count=22299 19074 4264 1500 792 660 2764 1177 601 217 105 1587 837 464
shrinkage=0.1


Tree=256
num_leaves=15
num_cat=0
split_feature=35 10 7 20 4 4 14 4 20 4 13 13 30 19
split_gain=0.0188216 0.0794259 0.149924 0.187333 1.16183 0.422223 0.325183 0.162596 0.28975 0.414181 0.0837315 0.0960343 0.092267 0.107646
threshold=-0.0020770149999999993 2.3440800000000004e-05 3.5138500000000009e-05 4.3779750000000011 -0.12672299999999997 -0.39397899999999991 0.00039250700000000006 0.18789900000000004 -4.4436599999999986 0.35551300000000002 -7.0240599999999979e-05 -4.7213149999999994e-05 0.0013240400000000001 0.0016992400000000001
decision_type=2 2 2 2 2 2 2 2 2 2 2 2 2 2
left_child=1 10 3 7 5 -5 -7 -3 9 -9 -1 -12 13 -13
right_child=-2 2 -4 4 -6 6 -8 8 -10 -11 11 12 -14 -15
leaf_value=0.0063942026557924697 4.7343346974326451e-05 -0.00072553799743357589 -0.0002007922032967481 0.007145210797898472 -0.0010111165057768304 0.01669850978874959 0.040060062164610083 0.024639676191977093 -0.0001787774146139092 0.0022134886169806124 -0.005774073556098395 -0.0025315788386897245 -9.2163717060270433e-05 0.00090363360635602186
leaf_weight=15.999999999999998 17620 281 2731 18 103 13.000000000000002 10.999999999999998 13.999999999999998 58 20 39 414 844 117
leaf_count=16 17620 281 2731 18 103 13 11 14 58 20 39 414 844 117
internal_value=0 -0.000178284 9.50528e-05 0.00165481 0.0047049 0.0187227 0.0274059 0.000469115 0.004118 0.0114478 -0.000799312 -0.00088071 -0.000741916 -0.00177467
internal_weight=0 4679 3249 518 145 42 24 373 92 34 1430 1414 1375 531
internal_count=22299 4679 3249 518 145 42 24 373 92 34 1430 1414 1375 531
shrinkage=0.1


Tree=257
num_leaves=15
num_cat=0
split_feature=3 39 39 13 33 3 3 17 13 5 33 17 12 32
split_gain=0.0181879 0.0431821 0.038351 0.0630158 0.0777375 0.196571 0.220056 0.123209 0.0945539 0.267539 0.24209 0.0724838 0.070453 0.610419
threshold=-6.283129999999999 6.639340000000001e-07 0.0010716850000000004 5.5414750000000007e-05 -2.9030999999999997e-05 -12.169249999999998 -11.892099999999997 4.5515950000000005e-07 3.6063350000000008e-05 1.5552100000000003e-05 -4.7861299999999995e-05 5.5601450000000014e-07 0.00022160700000000002 -0.17057449999999999
decision_type=2 2 2 2 2 2 2 2 2 2 2 2 2 2
left_child=1 -1 3 4 5 8 -7 -8 11 10 -10 -3 -6 -14
right_child=-2 2 -4 -5 12 6 7 -9 9 -11 -12 -13 13 -15
leaf_value=0.00079712496039217602 0.00016699660205706364 -0.0081356469833847589 0.00026904685442632163 0.00015176781073382797 -0.00029366291826038725 0.014419992072507741 -0.0018393535539206795 0.0015146101357293613 -0.0036932092895241167 -0.013177741346104692 0.012733052772305464 -0.0035042930016411945 0.0093323473370243871 -0.00037944007520630037
leaf_weight=583 5046 57 2668 4743 8005 9.9999999999999982 290 176 18.999999999999996 11.999999999999998 17.000000000000004 83 74 516
leaf_count=583 5046 57 2668 4743 8005 10 290 176 19 12 17 83 74 516
internal_value=0 -4.88416e-05 -7.84276e-05 -0.000144637 -0.000296473 -0.00133896 -0.00025765 -0.00057262 -0.00407676 -0.000246708 0.00406364 -0.00538992 -0.000215936 0.000838649
internal_weight=0 17253 16670 14002 9259 664 476 466 188 48 36 140 8595 590
internal_count=22299 17253 16670 14002 9259 664 476 466 188 48 36 140 8595 590
shrinkage=0.1


Tree=258
num_leaves=15
num_cat=0
split_feature=2 22 19 3 23 34 23 3 16 36 12 36 4 15
split_gain=0.0164375 0.315037 0.310841 0.440839 0.546849 0.540595 0.502514 0.46276 0.305226 0.607807 0.295337 0.289066 1.51938 1.16489
threshold=-1.8232249999999997 -1.7931549999999998 4.442305000000001e-06 -6.8616649999999995 -7.0796749999999991 0.5512450000000001 -7.0796749999999991 -5.8792649999999993 5.3331600000000017e-07 0.0012181150000000003 -4.0428499999999987e-05 -0.00012896049999999997 -0.042141649999999996 1.0713550000000003e-08
decision_type=2 2 2 2 2 2 2 2 2 2 2 2 2 2
left_child=1 2 3 4 5 8 -5 10 11 -10 -8 12 -1 -13
right_child=-2 -3 -4 6 -6 -7 7 -9 9 -11 -12 13 -14 -15
leaf_value=-0.0051370043557272442 -4.5401956883655138e-05 -0.00030306563267410255 -0.00022382485476809329 -0.0023467836786528131 -0.0038718398609238775 -0.0019038880921277163 0.025448692520149054 -0.0021740302007786411 -0.010003564155406574 0.019729972034692764 0.00700890802239117 -0.0040342708644102001 0.021082186069968461 0.014391188325201414
leaf_weight=31 17426 3650 546 216 58 61 15.999999999999998 26 22 9.9999999999999982 19 59 77 82
leaf_count=31 17426 3650 546 216 58 61 16 26 22 10 19 59 77 82
internal_value=0 0.000162359 0.0015514 0.00298312 0.00510664 0.0066293 -8.33275e-05 0.00793153 0.0084817 -0.000711834 0.0154385 0.0096632 0.0135563 0.00668124
internal_weight=0 4873 1223 677 400 342 277 61 281 32 35 249 108 141
internal_count=22299 4873 1223 677 400 342 277 61 281 32 35 249 108 141
shrinkage=0.1


Tree=259
num_leaves=15
num_cat=0
split_feature=14 23 22 6 23 14 13 7 22 2 36 4 2 13
split_gain=0.0178456 0.0409088 0.0394128 0.0755719 0.0367209 0.0391077 0.0376206 0.067257 0.0677136 1.72144 0.326698 0.336426 0.298942 0.281219
threshold=9.3791550000000008e-05 -12.8988 3.0357900000000004 1.7574450000000003e-06 -6.4482599999999985 9.8390450000000016e-05 5.5414750000000007e-05 5.1723650000000004e-05 2.6062000000000007 2.6145250000000004 0.00062130050000000004 0.084340650000000003 2.6145250000000004 -8.9274649999999981e-06
decision_type=2 2 2 2 2 2 2 2 2 2 2 2 2 2
left_child=1 -1 -3 -4 6 -6 7 8 12 13 11 -11 -2 -10
right_child=4 2 3 -5 5 -7 -8 -9 9 10 -12 -13 -14 -15
leaf_value=0.00077783377214384183 -0.00012782260855383058 -2.1605961483311548e-05 0.0096591769610919666 -0.0015637103133485653 0.0055270094145089396 0.00039377323479064964 0.00012503231980957394 0.00017434954733857729 -0.0065347469221900866 0.02883814477721568 0.0056278353024806294 0.0080228537941972426 -0.0032320591900497674 -0.0015687780687411263
leaf_weight=920 6824 2866 12.000000000000002 11.999999999999998 14.999999999999998 1405 5824 3518 168 22 21 11.999999999999998 325 355
leaf_count=920 6824 2866 12 12 15 1405 5824 3518 168 22 21 12 325 355
internal_value=0 0.000197068 1.21879e-05 0.00404773 -4.06095e-05 0.000447998 -8.12576e-05 -0.000188099 -0.000353117 -0.00139421 0.0154345 0.0214916 -0.000268944 -0.00316397
internal_weight=0 3810 2890 24 18489 1420 17069 11245 7727 578 55 34 7149 523
internal_count=22299 3810 2890 24 18489 1420 17069 11245 7727 578 55 34 7149 523
shrinkage=0.1


Tree=260
num_leaves=15
num_cat=0
split_feature=23 3 14 30 3 15 31 21 14 20 21 24 17 24
split_gain=0.0175133 0.57216 0.829513 0.979095 0.347941 0.275981 0.534712 0.582389 0.235702 0.176709 0.155444 0.114762 0.105821 0.101523
threshold=-15.973899999999999 -16.135999999999999 0.004937775000000001 0.0013501300000000004 -10.915599999999998 5.2552500000000004e-07 -0.12772649999999997 -3.8714799999999996 0.020030800000000005 -0.92275299999999982 -8.2570699999999988 -0.24329949999999997 1.6487150000000004e-05 0.50922850000000008
decision_type=2 2 2 2 2 2 2 2 2 2 2 2 2 2
left_child=1 2 3 -1 10 6 11 -8 9 -9 12 -4 -3 -7
right_child=-2 4 5 -5 -6 13 7 8 -10 -11 -12 -13 -14 -15
leaf_value=0.034945024863669752 -3.0784557785147635e-05 0.012351576751098034 0.00028993594036860894 0.0028416615371641362 0.00059715037424845272 -0.0053070360993862989 0.030984158868280549 0.0036633374677463009 -0.0030519291306571926 0.021587870676409111 -0.0025236889489619937 -0.014155072143132037 -0.0012272888265380806 0.005832243009936065
leaf_weight=19 19898 12.000000000000002 11.000000000000002 19 1627 45 11.999999999999998 11 17 11 585 10.999999999999998 10.999999999999998 9.9999999999999982
leaf_count=19 19898 12 11 19 1627 45 12 11 17 11 585 11 11 10
internal_value=0 0.000255123 0.00591944 0.0188933 -0.000165582 0.00206781 0.00609827 0.0117194 0.00579181 0.0126256 -0.00220664 -0.00693257 0.00585734 -0.00328171
internal_weight=0 2401 166 38 2235 128 73 51 39 22 608 22 23 55
internal_count=22299 2401 166 38 2235 128 73 51 39 22 608 22 23 55
shrinkage=0.1


Tree=261
num_leaves=15
num_cat=0
split_feature=16 36 16 12 23 15 13 28 16 12 12 12 7 5
split_gain=0.015846 0.0907149 0.110351 0.069411 0.0405257 0.0910524 0.202907 0.390636 0.087084 0.195021 0.101746 0.0798843 0.0580709 0.0856311
threshold=5.0821450000000006e-06 -0.0066359599999999989 4.328635000000001e-05 0.00027929250000000006 -16.571949999999998 3.315660000000001e-07 -6.0817849999999996e-05 0.0085049800000000023 -2.6095649999999993e-07 -0.00025979549999999996 -0.00013569999999999996 0.00021062400000000005 3.1866550000000001e-05 7.8320150000000016e-06
decision_type=2 2 2 2 2 2 2 2 2 2 2 2 2 2
left_child=4 2 3 -2 5 6 7 -1 -8 -10 -11 -12 13 -7
right_child=1 -3 -4 -5 -6 12 8 -9 9 10 11 -13 -14 -15
leaf_value=-0.0023913157849826589 -0.0023001026142174356 0.00032220259920314847 9.0034595266657701e-05 -0.010111115686595441 -9.2048122030442673e-05 0.0037347507698891253 -0.000309207255606687 0.024917271565645934 0.01529957477003336 -0.0061859385317398451 0.0012967059721948912 0.010305054018972443 -0.00033172216515918321 -0.0052896277928216892
leaf_weight=11.000000000000002 219 4243 363 11.999999999999998 15904 12.999999999999998 496 9.9999999999999982 9.9999999999999982 18 631 9.9999999999999982 304 55
leaf_count=11 219 4243 363 12 15904 13 496 10 10 18 631 10 304 55
internal_value=0 0.000160168 -0.000997261 -0.00270587 -4.43668e-05 0.000442363 0.000870508 0.0106128 0.000694896 0.00143934 0.00122902 0.00143724 -0.000922638 -0.00356438
internal_weight=0 4837 594 231 17462 1558 1186 21 1165 669 659 641 372 68
internal_count=22299 4837 594 231 17462 1558 1186 21 1165 669 659 641 372 68
shrinkage=0.1


Tree=262
num_leaves=15
num_cat=0
split_feature=39 14 32 12 3 14 12 12 32 2 3 14 8 24
split_gain=0.0157303 0.0915338 0.0975022 0.479335 0.798731 0.927175 0.561013 0.10706 0.503583 0.485568 0.306598 0.154994 0.132599 0.134224
threshold=1.8038650000000001e-06 0.00077369700000000016 0.0196378 -4.4928149999999991e-05 -7.3077349999999992 0.00027748600000000002 -8.9441799999999988e-05 5.5365700000000011e-05 -0.023940799999999995 1.6390650000000002 -7.6471949999999991 0.00011475850000000001 -8.0147899999999975e-06 0.097438450000000024
decision_type=2 2 2 2 2 2 2 2 2 2 2 2 2 2
left_child=1 2 7 4 5 -4 -7 11 9 10 -9 -1 13 -13
right_child=-2 -3 3 -5 -6 6 -8 8 -10 -11 -12 12 -14 -15
leaf_value=5.3121955190694487e-05 -3.8163093796282692e-05 0.00066620996690085936 0.038471420987376145 -0.0010906893347008143 -0.00045838479097449743 0.026306660529226068 -0.0029556483594014452 0.014450933239780937 -0.0009142078157658739 0.024044244385817471 -0.0059499694007065368 -0.0061796351730241186 -0.001445900074524083 0.0049486035418037019
leaf_weight=626 18483 1941 13.999999999999998 270 61 9.9999999999999982 19.000000000000004 13.000000000000002 209 17 17 112 495 11.999999999999998
leaf_count=626 18483 1941 14 270 61 10 19 13 209 17 17 112 495 12
internal_value=0 0.000184845 -0.000313464 0.00113118 0.0068995 0.0173374 0.0071348 -0.000673422 0.00118904 0.0105418 0.00289042 -0.00105639 -0.00217844 -0.00510271
internal_weight=0 3816 1875 374 104 43 29 1501 256 47 30 1245 619 124
internal_count=22299 3816 1875 374 104 43 29 1501 256 47 30 1245 619 124
shrinkage=0.1


Tree=263
num_leaves=15
num_cat=0
split_feature=3 39 19 2 5 3 9 19 14 39 14 30 5 12
split_gain=0.0159269 0.0351358 0.0693158 0.118426 0.0692528 0.057603 0.0573223 0.0390475 0.0596824 0.037353 0.0715518 0.0798886 0.130843 0.14271
threshold=-6.283129999999999 6.639340000000001e-07 4.5890800000000005e-09 0.42977100000000007 1.0659650000000001e-05 -6.401514999999999 -1.5921849999999997e-05 1.2466600000000002e-08 0.00012793950000000002 0.0010540050000000002 0.0011223800000000003 6.6475500000000011e-05 1.1733200000000001e-05 -5.5391499999999993e-05
decision_type=2 2 2 2 2 2 2 2 2 2 2 2 2 2
left_child=1 2 3 4 -1 7 -7 -4 -9 10 11 12 -3 -14
right_child=-2 9 5 -5 -6 6 -8 8 -10 -11 -12 -13 13 -15
leaf_value=0.0050999128653739494 0.00015627204746490586 0.0017275876203756329 -0.0045906203399811475 0.011067650116541808 -0.0056810160971839324 0.00050434482283890226 -0.010202881656587124 0.0067734036420006305 0.00056739332625792434 0.00026541905960884876 5.626953518428785e-05 -0.00034819029764412095 0.0013534831162057041 -0.0077705212531145665
leaf_weight=13.000000000000002 5046 41 13.999999999999998 17 10.999999999999998 10.000000000000002 9.9999999999999982 15.999999999999998 492 2736 8006 5803 24 60
leaf_count=13 5046 41 14 17 11 10 10 16 492 2736 8006 5803 24 60
internal_value=0 -4.5705e-05 0.000717385 0.0046819 0.000158654 0.000417487 -0.00484927 0.000619278 0.000762858 -7.23926e-05 -0.000138723 -0.000402069 -0.00290333 -0.00516366
internal_weight=0 17253 583 41 24 542 20 522 508 16670 13934 5928 125 84
internal_count=22299 17253 583 41 24 542 20 522 508 16670 13934 5928 125 84
shrinkage=0.1


Tree=264
num_leaves=15
num_cat=0
split_feature=35 15 15 35 15 3 35 39 22 17 4 0 6 15
split_gain=0.0153174 0.373478 0.152384 0.455261 0.366533 0.306603 0.290517 0.236195 0.277038 0.426805 0.289061 0.941551 0.420501 0.56725
threshold=-0.0020770149999999993 -5.9177849999999994e-08 -1.2628849999999999e-08 0.00018548400000000003 -2.5707899999999997e-06 -6.6325449999999995 5.2881600000000005e-05 0.0014050950000000001 1.4560700000000002 6.0945400000000009e-06 0.04625255000000001 -0.8145349999999999 3.6703000000000002e-06 -4.0147899999999994e-07
decision_type=2 2 2 2 2 2 2 2 2 2 2 2 2 2
left_child=1 -1 3 -2 -5 7 -4 8 -6 10 11 12 13 -10
right_child=2 -3 6 4 5 -7 -8 -9 9 -11 -12 -13 -14 -15
leaf_value=0.00090778520948354882 0.00054400188238063634 -0.0009077799860168599 -0.00041205369847561492 2.5049262732960317e-05 -0.0041003966505360947 -0.00038872495150322356 0.00074720149547986684 -1.2491785607994896e-05 0.004091338800887267 0.01979502168716863 -0.0048766663102045036 -0.0043104404383642681 -0.00037867024212199103 0.029816658813506366
leaf_weight=1925 3773 2754 3419 2106 933 965 5879 271 14.999999999999998 9.9999999999999982 120 92 17 20
leaf_count=1925 3773 2754 3419 2106 933 965 5879 271 15 10 120 92 17 20
internal_value=0 -0.000160833 4.27094e-05 -0.000268138 -0.000941738 -0.00177516 0.000320928 -0.00268038 -0.00327938 -0.000483739 -0.00125187 0.00176879 0.0125243 0.0187915
internal_weight=0 4679 17620 8322 4549 2443 9298 1478 1207 274 264 144 52 35
internal_count=22299 4679 17620 8322 4549 2443 9298 1478 1207 274 264 144 52 35
shrinkage=0.1


Tree=265
num_leaves=15
num_cat=0
split_feature=1 21 3 23 23 3 21 21 18 21 14 12 25 3
split_gain=0.0143018 0.505642 1.21688 0.212202 0.0944412 0.179001 0.194667 0.0819961 0.0968568 0.0686902 0.0681592 0.0937156 0.0589963 0.0467661
threshold=-10.689749999999998 -11.227849999999998 -6.3047499999999994 -6.2589399999999991 -7.6724749999999995 -5.9630249999999991 -9.7378749999999972 -5.2057099999999989 6.6588450000000013e-09 -5.6500199999999987 0.00023124450000000003 -5.9514499999999994e-05 0.27791550000000004 -6.3643949999999991
decision_type=2 2 2 2 2 2 2 2 2 2 2 2 2 2
left_child=1 2 -1 12 9 6 -6 8 -8 13 11 -9 -4 -3
right_child=-2 4 3 -5 5 -7 7 10 -10 -11 -12 -13 -14 -15
leaf_value=0.030787777259118028 -2.1314113609659582e-05 -0.0054589284359718923 0.0065579086792422461 0.014022169339781008 0.0063317143350529173 0.00021070206424487413 -0.017868979969485232 -0.013446250118847406 -0.0053296379899880515 0.00063580022231991698 -0.00036508339328755594 -0.0042650509556282218 -0.0018163155044982526 -0.00085263495352895307
leaf_weight=18 20824 27 9.9999999999999982 11.999999999999998 14.999999999999998 214 11.000000000000002 13.999999999999998 13.999999999999998 884 29 54 53 120
leaf_count=18 20824 27 10 12 15 214 11 14 14 884 29 54 53 120
internal_value=0 0.000300912 0.00743828 0.00183441 -0.000179389 -0.00159617 -0.00441858 -0.00574034 -0.0108469 0.000302949 -0.0044242 -0.0061553 -0.000487074 -0.00169869
internal_weight=0 1475 93 75 1382 351 137 122 25 1031 97 68 63 147
internal_count=22299 1475 93 75 1382 351 137 122 25 1031 97 68 63 147
shrinkage=0.1


Tree=266
num_leaves=15
num_cat=0
split_feature=5 20 0 26 21 1 2 22 2 2 22 2 31 2
split_gain=0.0131868 0.159168 0.303705 0.232547 0.082308 0.233031 0.130367 0.0877952 0.399057 0.321684 0.213784 2.0432 0.452426 0.378528
threshold=1.0873100000000001e-05 12.574100000000003 8.365140000000002 8.7277200000000012e-05 -8.8023199999999981 -10.412999999999998 1.4233050000000003 0.88369650000000011 0.93079650000000014 0.93079650000000014 0.35279250000000006 0.32325100000000001 -0.038998599999999987 0.30174350000000005
decision_type=2 2 2 2 2 2 2 2 2 2 2 2 2 2
left_child=1 4 -3 -4 5 -1 -7 9 -9 10 13 -12 -13 -6
right_child=-2 2 3 -5 7 6 -8 8 -10 -11 11 12 -14 -15
leaf_value=0.013101263001391833 -3.876875187122454e-05 0.001098569789072116 0.0042207595087926479 0.024783177098089998 0.0015696902101009994 -0.0027438864832806118 0.0012450591944862751 -0.001500126973969789 0.0018220773530990379 -0.0012155928010585933 -0.00082985360348992879 0.023936038721818476 0.0046163227874785667 -0.0027969728765992654
leaf_weight=10.999999999999998 17780 73 11.000000000000002 10.999999999999998 1172 298 113 1059 549 699 218 50 15.999999999999998 239
leaf_count=11 17780 73 11 11 1172 298 113 1059 549 699 218 50 16 239
internal_value=0 0.000152536 0.00420251 0.014502 6.55672e-05 -0.00126273 -0.00164717 0.000205633 -0.000365867 0.000589497 0.0013339 0.00383717 0.0192525 0.00083005
internal_weight=0 4519 95 22 4424 422 411 4002 1608 2394 1695 284 66 1411
internal_count=22299 4519 95 22 4424 422 411 4002 1608 2394 1695 284 66 1411
shrinkage=0.1


Tree=267
num_leaves=15
num_cat=0
split_feature=24 4 3 4 25 4 38 12 23 23 3 12 26 10
split_gain=0.0134098 0.153849 0.189189 0.288893 0.229971 0.180794 0.244969 0.18939 0.839638 0.224491 0.246357 0.285577 0.189523 0.34775
threshold=-0.14530599999999996 -0.10073449999999999 -7.8249449999999987 0.9753535000000001 3.6480900000000003 -0.42967699999999992 0.019421350000000004 -0.00021834499999999997 -10.483449999999998 -15.5177 -15.632649999999998 0.00019895350000000001 7.6573700000000009e-05 1.3836450000000002e-05
decision_type=2 2 2 2 2 2 2 2 2 2 2 2 2 2
left_child=1 5 3 4 -3 -1 7 8 -7 -9 -11 12 13 -12
right_child=-2 2 -4 -5 -6 6 -8 9 -10 10 11 -13 -14 -15
leaf_value=-0.0002017912161687098 5.7457041647538583e-05 -0.0026797770679478708 0.0002115261600310151 0.00020581545617114514 0.00012401550608851197 0.031839867918328796 -0.00088939757764977729 -0.002480569454791753 -0.0036173194948145577 -0.0074535382989173136 0.0097868040769753875 0.014942342572306333 0.0035742952392971519 -0.0014566053262291352
leaf_weight=1769 14396 1104 2273 1083 398 11.000000000000002 351 101 17 24 32 19 525 196
leaf_count=1769 14396 1104 2273 1083 398 11 351 101 17 24 32 19 525 196
internal_value=0 -0.000104663 -0.000453977 -0.00103916 -0.00193683 0.000452633 0.0013599 0.00221342 0.0103123 0.00196061 0.00252413 0.00283432 0.0025288 0.000121417
internal_weight=0 7903 4858 2585 1502 3045 1276 925 28 897 796 772 753 228
internal_count=22299 7903 4858 2585 1502 3045 1276 925 28 897 796 772 753 228
shrinkage=0.1


Tree=268
num_leaves=15
num_cat=0
split_feature=4 24 24 4 3 34 4 3 34 4 3 30 36 12
split_gain=0.0140941 0.358907 0.299329 0.365466 0.482923 0.421473 0.245892 0.366622 0.365269 0.23263 0.282325 0.324623 0.289044 1.69532
threshold=-0.021694649999999996 -0.065661549999999985 0.083315250000000021 -0.41304449999999998 -6.3643949999999991 0.17847300000000002 0.53187750000000011 -6.1782649999999988 0.14024950000000003 0.27459550000000005 -6.1782649999999988 0.00087741450000000003 0.0010150250000000003 9.2090000000000008e-05
decision_type=2 2 2 2 2 2 2 2 2 2 2 2 2 2
left_child=2 6 -1 -4 5 -5 7 8 -2 10 11 12 -3 -14
right_child=1 9 3 4 -6 -7 -8 -9 -10 -11 -12 -13 13 -15
leaf_value=0.00040356656804006735 -0.0026448948430855463 0.0022070218488143088 0.00023784513833343451 -0.003412006208482601 0.00043788410828440378 2.2809132093323413e-05 0.00028403865873117005 0.00045820364343566951 9.1539058390292458e-05 -2.6741639945780345e-06 -0.00020246012167956414 -4.9237870947628355e-06 0.0018620908524749351 0.025044951023450363
leaf_weight=5900 1517 1140 2440 1245 888 501 2496 1110 719 2697 863 579 165 39
leaf_count=5900 1517 1140 2440 1245 888 501 2496 1110 719 2697 863 579 165 39
internal_value=0 7.826e-05 -8.07631e-05 -0.000643937 -0.00146077 -0.00242641 -0.000467121 -0.00102746 -0.00176498 0.00065935 0.00130023 0.0019746 0.00282738 0.00629411
internal_weight=0 11325 10974 5074 2634 1746 5842 3346 2236 5483 2786 1923 1344 204
internal_count=22299 11325 10974 5074 2634 1746 5842 3346 2236 5483 2786 1923 1344 204
shrinkage=0.1


Tree=269
num_leaves=15
num_cat=0
split_feature=5 20 0 3 23 3 33 32 0 0 20 0 7 34
split_gain=0.014199 0.133528 0.229575 0.283194 0.340645 0.28515 0.0969488 0.0896245 0.395392 0.0873993 0.156757 0.449551 0.185488 0.159272
threshold=1.0873100000000001e-05 8.504920000000002 9.1730150000000013 -7.3077349999999992 -6.9910599999999992 -6.3788349999999996 2.1324600000000005e-06 0.48566800000000004 5.1681400000000011 6.8493750000000011 7.0316850000000004 9.0247150000000023 3.247790000000001e-05 0.014710350000000002
decision_type=2 2 2 2 2 2 2 2 2 2 2 2 2 2
left_child=1 9 7 -4 6 -6 -5 -3 -9 -1 -11 12 13 -12
right_child=-2 2 3 4 5 -7 -8 8 -10 10 11 -13 -14 -15
leaf_value=0.00022033704720822683 -4.0229263834850557e-05 0.00033840984126700334 0.020333510318484446 -0.0073683547787368299 0.023900897490481531 0.0028936749590294706 0.0035986356536990833 -0.0018396120196917936 0.022319721691310409 -0.0013291617050427613 0.016184089468284084 -0.0034803903077561191 0.02329412014456466 0.00010432364153010505
leaf_weight=3202 17780 342 12.999999999999998 19 12.000000000000002 13.999999999999998 13.999999999999998 21.000000000000004 9.9999999999999982 794 11.000000000000002 43 9.9999999999999982 13.999999999999998
leaf_count=3202 17780 342 13 19 12 14 14 21 10 794 11 43 10 14
internal_value=0 0.000158282 0.00180301 0.00697278 0.00402889 0.0125893 -0.00271569 0.000805098 0.00595372 -2.13709e-05 -0.000908927 0.00336885 0.0117836 0.00717942
internal_weight=0 4519 445 72 59 26 33 373 31 4074 872 78 35 25
internal_count=22299 4519 445 72 59 26 33 373 31 4074 872 78 35 25
shrinkage=0.1


Tree=270
num_leaves=15
num_cat=0
split_feature=35 10 7 20 18 19 34 21 14 36 16 19 5 16
split_gain=0.0156196 0.0572893 0.11773 0.128975 0.598971 0.403565 0.21847 0.216941 0.0850385 0.0857127 0.179496 0.539914 0.173675 0.131539
threshold=-0.0020770149999999993 2.3440800000000004e-05 3.5138500000000009e-05 4.3779750000000011 -1.4251149999999997e-06 3.9135900000000011e-06 0.49467900000000004 -2.1386499999999997 0.00015979200000000002 -0.027650399999999995 -1.0720349999999998e-06 7.5845250000000009e-06 1.0489950000000001e-05 1.1389700000000002e-05
decision_type=2 2 2 2 2 2 2 2 2 2 2 2 2 2
left_child=1 8 3 -3 5 -5 7 -7 -1 10 11 -10 -13 -11
right_child=-2 2 -4 4 -6 6 -8 -9 9 13 -12 12 -14 -15
leaf_value=0.0011534517247392688 4.3128686063335643e-05 0.00046808993058815898 -0.00019243486107766296 0.027998497652319761 -0.0006800368711303332 0.012702096598646182 0.018607739987783135 -0.0060642735941135971 0.022322743864996095 -0.001983373022908404 -0.0014354646383496952 0.0082168029422808268 -0.0024783911707345397 0.00092056833500745849
leaf_weight=213 17620 373 2731 12.999999999999998 95 10.999999999999998 11.999999999999998 14.000000000000002 13.999999999999998 796 142 22 49 194
leaf_count=213 17620 373 2731 13 95 11 12 14 14 796 142 22 49 194
internal_value=0 -0.000162412 6.97295e-05 0.00145191 0.00398271 0.0128419 0.00751665 0.00219293 -0.000689845 -0.00101246 0.000740136 0.00437467 0.000835613 -0.00141432
internal_weight=0 4679 3249 518 145 50 37 25 1430 1217 227 85 71 990
internal_count=22299 4679 3249 518 145 50 37 25 1430 1217 227 85 71 990
shrinkage=0.1


Tree=271
num_leaves=15
num_cat=0
split_feature=26 14 19 4 34 7 38 11 37 16 23 36 10 19
split_gain=0.0140016 0.0474872 0.0836952 0.204279 0.490385 0.559833 0.0885319 0.0920197 0.0881026 0.129303 0.0871369 0.0855072 0.0808542 0.075501
threshold=0.00013546850000000001 0.00070241750000000016 0.00045969150000000004 -0.16978699999999997 0.29682250000000004 5.6359050000000004e-05 0.0021816350000000003 1.9597750000000006e-06 -2.3261499999999997e-07 4.3493050000000007e-08 -13.311149999999998 1.5633950000000001 8.6105100000000007e-06 3.7531650000000006e-07
decision_type=2 2 2 2 2 2 2 2 2 2 2 2 2 2
left_child=-1 2 6 4 5 -4 7 -2 9 -9 -6 -5 -3 -14
right_child=1 12 3 11 10 -7 -8 8 -10 -11 -12 -13 13 -15
leaf_value=3.5828574498002484e-05 0.00012244855141368451 -0.0086845238460227844 0.030795082050774771 7.9002051155253699e-05 0.0045368929060974296 0.0019763004106397811 0.0003703618649580745 0.011360648948466402 -0.0038242723310902491 -0.0029698869966737489 -0.0059821404930618079 0.0095159066515043394 -0.0027374721207727108 -0.00029039982604508801
leaf_weight=18514 196 11.999999999999998 14.000000000000002 241 13.999999999999998 12.999999999999998 1031 10.000000000000002 165 17 18 9.9999999999999982 135 1909
leaf_count=18514 196 12 14 241 14 13 1031 10 165 17 18 10 135 1909
internal_value=0 -0.000175252 0.000210998 0.00169955 0.00699425 0.0169194 -0.000114196 -0.00140177 -0.00295774 0.00233772 -0.00138006 0.000454974 -0.000500071 -0.000452022
internal_weight=0 3785 1729 310 59 27 1419 388 192 27 32 251 2056 2044
internal_count=22299 3785 1729 310 59 27 1419 388 192 27 32 251 2056 2044
shrinkage=0.1


Tree=272
num_leaves=15
num_cat=0
split_feature=19 33 25 33 11 29 24 33 1 3 29 14 20 22
split_gain=0.0140208 0.09855 0.0802007 0.188599 0.276597 1.08273 0.759437 1.03661 0.487412 0.370724 0.187998 0.461393 0.868089 0.601414
threshold=6.1722700000000013e-08 2.0320650000000003e-05 0.69670100000000013 1.0000000180025095e-35 2.4077300000000004e-05 -0.0012305049999999998 -0.15328349999999996 -4.5543699999999987e-06 4.1224250000000007 -8.3380249999999982 -0.0020814399999999995 0.00020115150000000003 -6.1283249999999994 -2.3322399999999992
decision_type=2 2 2 2 2 2 2 2 2 2 2 2 2 2
left_child=1 2 3 4 10 6 -6 8 -8 -9 -1 -12 -13 -14
right_child=-2 -3 -4 -5 5 -7 7 9 -10 -11 11 12 13 -15
leaf_value=-0.00098681976128881118 -3.6439144575790008e-05 0.0013947904607958012 -0.0007165313272285141 -0.00085588007282429406 -0.010490532002101344 -0.0046800181021570192 0.016559729457367212 -0.0022645424469374125 0.040547589461008712 0.019262307599031674 0.00014641366936815427 -0.0068972843530355019 0.02460418498427 0.0068508142380908667
leaf_weight=477 18411 564 1136 841 11.999999999999998 63 15.999999999999998 23.999999999999996 18 12.000000000000002 550 40 23 112
leaf_count=477 18411 564 1136 841 12 63 16 24 18 12 550 40 23 112
internal_value=0 0.000172552 -3.48317e-05 0.000319104 0.00105271 0.00517851 0.0127527 0.0167373 0.0292592 0.00491107 0.000555 0.00156941 0.00604169 0.00987546
internal_weight=0 3888 3324 2188 1347 145 82 70 34 36 1202 725 175 135
internal_count=22299 3888 3324 2188 1347 145 82 70 34 36 1202 725 175 135
shrinkage=0.1


Tree=273
num_leaves=15
num_cat=0
split_feature=5 36 22 33 32 35 10 38 34 23 18 21 2 31
split_gain=0.0140809 0.0971114 0.100511 0.105334 0.134445 0.0467063 0.0883254 0.0447617 0.0377441 0.0402421 0.0367255 0.0318267 0.0499852 0.023368
threshold=7.1526450000000005e-06 0.012443400000000002 -2.7756699999999994 1.8947750000000002e-05 0.080665950000000014 0.00066948100000000009 3.5855200000000009e-05 0.0017479700000000004 0.0044708300000000012 -15.973899999999999 -3.1628799999999997e-06 3.1140600000000007 -2.1325999999999996 -0.076423899999999989
decision_type=2 2 2 2 2 2 2 2 2 2 2 2 2 2
left_child=1 2 -1 5 -5 8 7 -7 -4 -10 -3 12 -11 -14
right_child=-2 10 3 4 -6 6 -8 -9 9 11 -12 -13 13 -15
leaf_value=0.0083600758305309632 -9.0416030365226409e-06 -0.0080570276252304521 0.0025602770861479695 0.0012569466879700912 0.015869634971022607 -0.0012805398019413734 0.011077902456745507 0.0064136795373633511 0.0042286200819283051 -0.0097012576562437152 -0.0013572730958306542 -0.00022152479254074545 -0.0062187340297289971 -0.001227968522120094
leaf_weight=19 22014 14.999999999999998 27 17.000000000000004 9.9999999999999982 31 9.9999999999999982 9.9999999999999982 10.999999999999998 10.999999999999998 18 51 11.999999999999998 43
leaf_count=19 22014 15 27 17 10 31 10 10 11 11 18 51 12 43
internal_value=0 0.000698393 0.00136638 0.000796081 0.00666905 2.6322e-05 0.00265135 0.000596099 -0.000837398 -0.0015541 -0.00440262 -0.00209777 -0.0035476 -0.00231686
internal_weight=0 285 252 233 27 206 51 41 155 128 33 117 66 55
internal_count=22299 285 252 233 27 206 51 41 155 128 33 117 66 55
shrinkage=0.1


Tree=274
num_leaves=15
num_cat=0
split_feature=2 28 21 20 19 0 21 29 20 0 19 21 20 3
split_gain=0.0128991 0.0860223 0.28057 0.425728 0.508133 0.451977 0.353797 0.112205 0.0943391 0.0809236 0.0556645 0.0581305 0.0570112 0.0482311
threshold=-2.7883099999999996 0.00045681800000000006 -3.0737249999999996 -6.1283249999999994 7.5845250000000009e-06 -11.574899999999998 -1.51006 1.0000000180025095e-35 -10.745749999999997 -4.6645649999999987 3.5549150000000012e-05 -4.0689749999999991 -6.9057099999999991 -13.373099999999999
decision_type=2 2 2 2 2 2 2 2 2 2 2 2 2 2
left_child=1 2 7 4 5 -4 -7 -1 -9 -5 11 12 -10 -3
right_child=-2 13 3 9 -6 6 -8 8 10 -11 -12 -13 -14 -15
leaf_value=0.0015514615694615609 -1.7572194268595179e-05 -0.0027003773493643993 0.0014487857185304165 0.00055571923345999741 -0.00047376059727477173 0.039952133325013246 0.015584435743781233 0.0063562466010737883 -0.0088704379619625601 0.0095111653970723804 -0.00030862911229824502 0.0031858612952584569 -0.0032853480366897754 -0.0001503472659482275
leaf_weight=170 21169 88 9.9999999999999982 122 21 10.999999999999998 13.000000000000002 12.999999999999998 23 10.999999999999998 76 10.999999999999998 89 472
leaf_count=170 21169 88 10 122 21 11 13 13 23 11 76 11 89 472
internal_value=0 0.000329191 0.00119401 0.00435655 0.0117565 0.0193106 0.026753 -0.000362429 -0.00189715 0.0012964 -0.00243632 -0.00375099 -0.00443229 -0.000551066
internal_weight=0 1130 570 188 55 34 24 382 212 133 199 123 112 560
internal_count=22299 1130 570 188 55 34 24 382 212 133 199 123 112 560
shrinkage=0.1


Tree=275
num_leaves=15
num_cat=0
split_feature=25 7 7 9 19 18 24 18 3 23 14 10 34 23
split_gain=0.0128503 0.0501821 0.0739772 0.0336271 0.0269047 0.0139649 0.190131 0.204053 0.241104 0.23044 0.27449 0.437634 0.228103 0.239476
threshold=0.14802850000000004 3.1736250000000006e-05 2.9419150000000004e-05 3.6719800000000007e-05 7.5845250000000009e-06 2.8987900000000006e-08 0.098807650000000011 6.0305450000000011e-05 -6.5485099999999994 -6.5050549999999996 8.9273400000000012e-05 3.6461800000000011e-05 0.39052300000000001 -6.9737999999999998
decision_type=2 2 2 2 2 2 2 2 2 2 2 2 2 2
left_child=1 2 -1 4 -3 -2 -7 8 12 -10 -11 -12 13 -8
right_child=5 3 -4 -5 -6 6 7 -9 9 10 11 -13 -14 -15
leaf_value=0.0010205525124911217 -7.617455731851685e-05 -0.0060029783624817035 0.011554585254052655 0.0042575670406222342 -0.00037000458829130071 -0.0002895223607389802 0.0033384047395993706 -0.00015343484685576586 -0.00053549493942648492 -0.00013508124796387096 0.029689611364156002 0.0042724618754748792 -0.00051092717609148232 -0.00081626012611725701
leaf_weight=20.000000000000004 12274 10.999999999999998 9.9999999999999982 11.999999999999998 37 5755 932 1942 800 39 10.000000000000002 21 273 163
leaf_count=20 12274 11 10 12 37 5755 932 1942 800 39 10 21 273 163
internal_value=0 0.0011925 0.0045319 -0.000477202 -0.00166089 -4.83249e-06 8.33057e-05 0.000596613 0.00124746 -5.40762e-05 0.00544785 0.0124715 0.00207519 0.00271995
internal_weight=0 90 30 60 48 22209 9935 4180 2238 870 70 31 1368 1095
internal_count=22299 90 30 60 48 22209 9935 4180 2238 870 70 31 1368 1095
shrinkage=0.1


Tree=276
num_leaves=15
num_cat=0
split_feature=30 3 7 6 36 12 32 12 14 3 1 23 7 38
split_gain=0.0119943 0.0774691 0.0808394 0.0903411 0.137828 0.090747 0.0902475 0.313901 0.454261 1.86802 0.666328 0.0978095 0.160902 0.0796372
threshold=0.00011657650000000001 -10.915599999999998 2.6737650000000006e-05 1.2685850000000002e-06 0.00024903350000000007 3.859090000000001e-05 0.0196378 -3.3679199999999994e-05 0.00042424250000000003 -7.3077349999999992 -7.7291149999999993 -7.3688999999999991 3.7019600000000007e-05 4.8965900000000005e-05
decision_type=2 2 2 2 2 2 2 2 2 2 2 2 2 2
left_child=1 -1 3 -3 5 -5 -4 8 9 10 -8 -11 -13 -14
right_child=-2 2 6 4 -6 -7 7 -9 -10 11 -12 12 13 -15
leaf_value=0.0008661013934826026 -3.3261167879449219e-05 -0.00069125456307581089 -0.00027966199910553182 -0.00031933317676542656 -0.015471157245337964 -0.010142553035313121 0.04532270671001503 -0.00083874488895907854 -0.00072199889876752759 -0.0033648750173405893 0.016234381341685852 0.014705004002898932 0.0039782565087079997 -0.0067134089513935834
leaf_weight=1107 18495 138 1987 34 10.999999999999998 12.999999999999998 13.999999999999998 305 99 38 18 9.9999999999999982 19.000000000000004 10.999999999999998
leaf_count=1107 18495 138 1987 34 11 13 14 305 99 38 18 10 19 11
internal_value=0 0.000161715 -0.000127404 -0.00208309 -0.00539471 -0.00303639 2.58606e-05 0.00120694 0.00419226 0.0086151 0.0289605 0.000268259 0.00371974 5.79792e-05
internal_weight=0 3804 2697 196 58 47 2501 514 209 110 32 78 40 30
internal_count=22299 3804 2697 196 58 47 2501 514 209 110 32 78 40 30
shrinkage=0.1


Tree=277
num_leaves=15
num_cat=0
split_feature=14 23 28 28 12 3 21 37 16 7 3 23 3 37
split_gain=0.0119528 0.0340766 0.0352759 0.074477 0.0670171 0.122688 0.0390413 0.0388376 0.123936 0.194019 0.147617 0.204517 0.100268 0.0749577
threshold=9.3791550000000008e-05 -7.7487749999999993 0.0071579900000000012 0.0064490600000000004 3.7315150000000008e-05 -5.8392349999999995 13.471400000000001 -1.2843055499999998e-10 5.244890000000001e-08 4.4195250000000003e-05 -6.3047499999999994 -6.4589649999999992 -5.9958099999999996 1.8899300000000002e-08
decision_type=2 2 2 2 2 2 2 2 2 2 2 2 2 2
left_child=1 -1 3 6 -4 -6 7 -3 12 10 -10 -12 -9 -11
right_child=-2 2 4 -5 5 -7 -8 8 9 13 11 -13 -14 -15
leaf_value=0.00035939334657680323 -3.3235120351779408e-05 -0.00055800275859968539 -0.00066932167015233527 0.0081542051566595389 -0.013644124482137462 -0.0011708409004115865 -0.0063372578192502265 -0.00436085564385927 0.014604694690359266 0.0044866157427000319 -0.0014920372000443213 0.012877496752116713 0.00058899696075628437 -0.001895226977402282
leaf_weight=2648 18489 577 182 10.999999999999998 11.999999999999998 23 9.9999999999999982 58 19 26 26 15.999999999999998 139 63
leaf_count=2648 18489 577 182 11 12 23 10 58 19 26 26 16 139 63
internal_value=0 0.000161282 -0.00029018 -2.61525e-05 -0.00143998 -0.0054474 -0.000122495 -5.52357e-05 0.000780778 0.00294659 0.00729076 0.00398207 -0.00086832 -3.08684e-05
internal_weight=0 3810 1162 945 217 35 934 924 347 150 61 42 197 89
internal_count=22299 3810 1162 945 217 35 934 924 347 150 61 42 197 89
shrinkage=0.1


Tree=278
num_leaves=15
num_cat=0
split_feature=26 7 16 0 14 11 2 35 4 2 1 4 19 0
split_gain=0.0120911 0.0532501 0.0778625 0.0597011 0.035476 0.0627226 0.0251601 0.0219222 0.0416748 0.0323318 0.019856 0.0189684 0.0532132 0.0152622
threshold=-0.0046297149999999995 4.0092200000000002e-05 -4.0337599999999998e-05 -7.3401499999999986 0.0012512500000000002 2.1842450000000003e-05 3.0775850000000005 2.0589400000000002 0.43777950000000004 2.7196500000000001 -11.392599999999998 -0.42967699999999992 0.00022854250000000002 -12.574549999999999
decision_type=2 2 2 2 2 2 2 2 2 2 2 2 2 2
left_child=1 2 -1 -4 5 -5 -2 9 -9 10 -3 12 -12 -8
right_child=6 7 3 4 -6 -7 13 8 -10 -11 11 -13 -14 -15
leaf_value=0.010472329403273762 -4.660060135994412e-06 -0.0044294176427435812 0.007858148657788451 0.0010827699428007595 -0.001154594304011481 0.0095074718061368916 -0.00025294554470747246 -0.00032356221415102482 -0.0074928678649788102 0.0052702224982733078 0.0081420037895441055 -0.00066527584523684525 -5.6571183775208509e-05 -0.0036118998806247667
leaf_weight=9.9999999999999982 21837 10.999999999999998 12.999999999999998 76 57 9.9999999999999982 24 25 11.999999999999998 10.999999999999998 9.9999999999999982 134 38 31
leaf_count=10 21837 11 13 76 57 10 24 25 12 11 10 134 38 31
internal_value=0 0.000540052 0.00191827 0.00136993 0.000780093 0.00206239 -1.00403e-05 -0.000409258 -0.00264874 -3.07734e-06 -0.000303628 -5.42672e-05 0.00165147 -0.00214617
internal_weight=0 407 166 156 143 86 21892 241 37 204 193 182 48 55
internal_count=22299 407 166 156 143 86 21892 241 37 204 193 182 48 55
shrinkage=0.1


Tree=279
num_leaves=15
num_cat=0
split_feature=35 15 19 36 3 16 23 3 3 38 22 22 10 15
split_gain=0.0115672 0.264072 0.119042 0.258465 0.29685 0.229919 0.22881 0.797216 0.433844 0.357284 0.291533 0.213319 0.362283 0.205976
threshold=-0.0020770149999999993 -5.9177849999999994e-08 0.00020352900000000001 -0.00028015349999999995 -6.8361399999999994 -1.8325949999999997e-07 -10.673999999999998 -10.309599999999998 -10.915599999999998 0.068098300000000014 0.35279250000000006 -1.2026299999999999 3.1546550000000004e-05 -1.0577649999999997e-06
decision_type=2 2 2 2 2 2 2 2 2 2 2 2 2 2
left_child=1 2 3 4 5 6 8 -8 9 13 -9 12 -5 -1
right_child=-2 -3 -4 11 -6 -7 7 10 -10 -11 -12 -13 -14 -15
leaf_value=0.018457065300705535 3.7114554882453452e-05 -0.0007678495654181907 0.00013669380070843325 0.023397302113589823 8.3281487092100738e-06 0.00094560731482084116 -0.00037537474859634348 0.015047906868159773 -0.0037714222139727917 -0.0076448125112801787 0.033071525275175061 -0.00087590015583186975 -0.0019199135677459148 0.0060279757285267499
leaf_weight=29.999999999999996 17620 2754 1184 10.000000000000002 149 72 29 25 38 9.9999999999999982 13.999999999999998 327 12.999999999999998 24.000000000000004
leaf_count=30 17620 2754 1184 10 149 72 29 25 38 10 14 327 13 24
internal_value=0 -0.000139765 0.000758805 0.00175284 0.00351984 0.00568189 0.00768785 0.0121811 0.00469236 0.00971774 0.0215179 -0.000221158 0.00908757 0.012933
internal_weight=0 4679 1925 741 391 242 170 68 102 64 39 350 23 54
internal_count=22299 4679 1925 741 391 242 170 68 102 64 39 350 23 54
shrinkage=0.1


Tree=280
num_leaves=15
num_cat=0
split_feature=15 23 3 34 18 10 14 10 21 23 7 13 3 21
split_gain=0.013261 0.023786 0.253742 0.398862 0.768394 0.263754 0.204181 0.148622 0.200532 0.0605783 0.121507 0.0590957 0.0857424 0.0800196
threshold=1.4819550000000001e-05 -16.571949999999998 -16.772799999999997 0.37240250000000003 -1.5876649999999996e-05 2.4123400000000004e-05 0.00077369700000000016 1.4076050000000001e-05 -2.4142549999999994 -16.680599999999995 3.6213150000000004e-05 9.4863600000000018e-05 -11.619699999999998 -6.0804249999999991
decision_type=2 2 2 2 2 2 2 2 2 2 2 2 2 2
left_child=1 2 3 4 -1 7 -4 8 -5 11 -11 12 13 -8
right_child=-2 -3 6 5 -6 -7 9 -9 -10 10 -12 -13 -14 -15
leaf_value=-0.0015607984581341343 0.00017633788069269432 -6.9166644914601833e-05 0.0010219963756515256 0.011546868458390237 0.02994331953523215 0.01298662048454086 0.0034181985305622221 -0.011734834018473824 -0.0080192478373646708 0.012129023645538833 -0.0017627803834757824 -6.8318096550467008e-05 -0.00062849820708760185 -0.0039063851630106164
leaf_weight=15.000000000000002 3580 17035 923 9.9999999999999982 15.999999999999998 11.999999999999998 15.999999999999998 14.999999999999998 11.000000000000002 10.000000000000002 17 210 209 220
leaf_count=15 3580 17035 923 10 16 12 16 15 11 10 17 210 209 220
internal_value=0 -3.37245e-05 0.000324801 0.00585766 0.0146994 0.000147373 5.24668e-05 -0.00413238 0.00129795 -0.00125967 0.00338233 -0.00145102 -0.00210353 -0.0034098
internal_weight=0 18719 1684 79 31 48 1605 36 21 682 27 655 445 236
internal_count=22299 18719 1684 79 31 48 1605 36 21 682 27 655 445 236
shrinkage=0.1


Tree=281
num_leaves=15
num_cat=0
split_feature=4 26 24 4 3 34 4 3 39 4 3 39 36 12
split_gain=0.0116691 0.239442 0.213673 0.291995 0.399653 0.340006 0.211268 0.3188 0.267319 0.210282 0.233762 0.294022 0.277721 1.35867
threshold=-0.021694649999999996 -5.5607199999999992e-05 0.083315250000000021 -0.41304449999999998 -6.3643949999999991 0.17847300000000002 0.53187750000000011 -6.4339449999999987 0.0014050950000000001 0.27459550000000005 -6.4853999999999994 7.0105950000000006e-05 0.0010899000000000002 4.3149550000000008e-05
decision_type=2 2 2 2 2 2 2 2 2 2 2 2 2 2
left_child=2 9 -1 -4 5 -5 7 8 -3 10 11 12 -2 -14
right_child=1 6 3 4 -6 -7 -8 -9 -10 -11 -12 -13 13 -15
leaf_value=0.0003357183190485411 0.0022722912543389007 -0.0019969889682980714 0.0002388717975901034 -0.0030431162341421924 0.00044779070009915383 4.1929184580677211e-05 0.00033118983889508303 0.00038464932110283587 0.0011953729463598257 -7.1077973090771329e-05 -3.4873542910510747e-05 0.00012864051367799016 -0.0016791386927438744 0.01738651246243321
leaf_weight=5900 900 1953 2440 1245 888 501 2664 1328 303 2504 945 577 83 68
leaf_count=5900 900 1953 2440 1245 888 501 2664 1328 303 2504 945 577 83 68
internal_value=0 7.12097e-05 -7.34873e-05 -0.000549308 -0.00127944 -0.00215789 -0.000343281 -0.000844617 -0.00156823 0.000581301 0.00121619 0.00194238 0.00293813 0.00690672
internal_weight=0 11325 10974 5074 2634 1746 6248 3584 2256 5077 2573 1628 1051 151
internal_count=22299 11325 10974 5074 2634 1746 6248 3584 2256 5077 2573 1628 1051 151
shrinkage=0.1


Tree=282
num_leaves=15
num_cat=0
split_feature=39 3 7 38 7 4 3 18 10 4 1 36 0 3
split_gain=0.0118478 0.0698234 0.0646941 0.0845674 0.128684 0.0853421 0.253842 1.05386 0.116268 0.0803358 0.106558 0.079233 0.0748832 0.06928
threshold=1.8038650000000001e-06 -10.915599999999998 2.6737650000000006e-05 7.9669250000000017e-05 2.8051900000000005e-05 0.044163750000000009 -7.8249449999999987 -1.6727099999999997e-06 2.5739400000000003e-05 0.092429650000000016 9.9917400000000018 0.00026842000000000006 9.0247150000000023 -7.4784399999999991
decision_type=2 2 2 2 2 2 2 2 2 2 2 2 2 2
left_child=1 -1 9 -4 -5 6 7 8 -6 11 -11 12 -3 -8
right_child=-2 2 3 4 5 -7 13 -9 -10 10 -12 -13 -14 -15
leaf_value=0.00083128269492418875 -3.3120352272327419e-05 -0.0022715113598948205 -0.0001732145164849705 0.012313717586750334 0.0081763373759503547 -0.00087360444861664388 -0.0083941014592710424 0.031865778671843668 -0.0031458990279740343 -0.0029128713596340578 -0.013824797049164773 0.0058557207148303009 0.0060553313562801726 0.00046003536657448612
leaf_weight=1103 18483 108 2256 10.999999999999998 12.999999999999998 107 9.9999999999999982 13.999999999999998 30 48 10.999999999999998 17 11.999999999999998 76
leaf_count=1103 18483 108 2256 11 13 107 10 14 30 48 11 17 12 76
internal_value=0 0.00016042 -0.000112326 2.39417e-05 0.0017281 0.00126233 0.00286055 0.00803572 0.000277103 -0.00186226 -0.0049473 -0.000533664 -0.00143883 -0.000569515
internal_weight=0 3816 2713 2517 261 250 143 57 43 196 59 137 120 86
internal_count=22299 3816 2713 2517 261 250 143 57 43 196 59 137 120 86
shrinkage=0.1


Tree=283
num_leaves=15
num_cat=0
split_feature=3 23 23 14 23 3 34 10 14 23 4 20 0 0
split_gain=0.0124504 0.102337 0.176562 0.258085 0.239718 0.250873 0.416099 0.542463 0.232393 1.06496 0.67622 0.148936 0.391264 0.372673
threshold=-12.923849999999998 -7.2010749999999994 -13.0406 0.0048436200000000007 -10.632649999999998 -13.528999999999998 0.093663700000000003 2.1054900000000004e-05 0.0014346750000000003 -14.499449999999998 -0.042141649999999996 -2.4123549999999994 -2.4062749999999995 -2.7842699999999994
decision_type=2 2 2 2 2 2 2 2 2 2 2 2 2 2
left_child=1 2 8 4 5 -4 -7 -8 9 -1 -11 12 -10 -13
right_child=-2 -3 3 -5 -6 6 7 -9 11 10 -12 13 -14 -15
leaf_value=-0.0037543554902206076 3.636976120236075e-05 0.00080394999954249758 -0.0070942461567461762 -9.0929768698328132e-05 -0.0012492768115493127 -0.0071542960314734567 -0.0063454652471201765 0.019900329509336089 0.0027192186126659694 0.0034007338126404922 0.033698363383026689 -0.0029152385319539467 -0.0038217679578375578 0.0024058410860251693
leaf_weight=45 18028 885 168 1383 596 37 13.999999999999998 18 147 13.000000000000002 17 175 242 531
leaf_count=45 18028 885 168 1383 596 37 14 18 147 13 17 175 242 531
internal_value=0 -0.000153518 -0.000403771 -0.000928474 -0.00231902 -0.00500917 6.7543e-05 0.00841779 0.000590024 0.00597514 0.0205694 0.00022118 -0.00134998 0.00108688
internal_weight=0 4271 3386 2216 833 237 69 32 1170 75 30 1095 389 706
internal_count=22299 4271 3386 2216 833 237 69 32 1170 75 30 1095 389 706
shrinkage=0.1


Tree=284
num_leaves=15
num_cat=0
split_feature=5 36 33 15 22 35 34 38 18 38 13 22 23 25
split_gain=0.0111757 0.0749489 0.0683356 0.12742 0.0812344 0.0387228 0.0898933 0.0388938 0.0291962 0.0285727 0.0351519 0.0285228 0.0249783 0.01985
threshold=7.1526450000000005e-06 0.012443400000000002 1.8947750000000002e-05 5.4489500000000011e-09 -2.7756699999999994 0.00066948100000000009 0.037551950000000008 0.0017706250000000003 -3.1628799999999997e-06 8.9842100000000019e-05 1.4967150000000001e-05 -2.0257349999999996 -7.7439199999999992 0.30443450000000005
decision_type=2 2 2 2 2 2 2 2 2 2 2 2 2 2
left_child=1 2 4 -4 -1 9 -7 -8 -3 10 11 -6 -13 -11
right_child=-2 8 3 -5 5 6 7 -9 -10 13 -12 12 -14 -15
leaf_value=0.006895137958130554 -8.0550372973703516e-06 -0.0071174524134645853 0.014919702318729827 0.00069392640143632893 -0.0044208472160001599 0.010457636243452063 -0.001550254700317358 0.005651018816279248 -0.0011438196136926613 -0.0051839618030690444 0.0051216519366090113 -0.001457725137446982 0.0022421819836987806 -0.0011691421454348269
leaf_weight=19 22014 14.999999999999998 10.000000000000002 17 14.999999999999998 10.999999999999998 30 9.9999999999999982 18 19 12.999999999999998 37 36 35
leaf_count=19 22014 15 10 17 15 11 30 10 18 19 13 37 36 35
internal_value=0 0.000622188 0.00120902 0.00596273 0.00063858 6.15184e-05 0.0024517 0.000250064 -0.00385911 -0.000724927 0.000267837 -0.000449204 0.000366887 -0.00258176
internal_weight=0 285 252 27 225 206 51 40 33 155 101 88 73 54
internal_count=22299 285 252 27 225 206 51 40 33 155 101 88 73 54
shrinkage=0.1


Tree=285
num_leaves=15
num_cat=0
split_feature=3 29 23 13 33 7 24 39 6 22 4 33 5 33
split_gain=0.0110257 0.0277402 0.0123561 0.0112169 0.230803 0.510865 1.06892 0.747303 0.536515 0.614524 0.514782 0.436206 0.225408 0.370293
threshold=-19.356149999999996 0.035284600000000006 -11.830699999999998 -3.3363799999999994e-05 1.2899450000000002e-05 3.8487200000000007e-05 -0.14927399999999999 0.0026018100000000004 1.6250950000000002e-06 -0.44259199999999993 0.017115750000000002 4.0724600000000006e-05 1.5976850000000006e-05 4.482940000000001e-06
decision_type=2 2 2 2 2 2 2 2 2 2 2 2 2 2
left_child=1 2 -1 4 12 6 10 8 9 -8 11 -6 13 -2
right_child=3 -3 -4 -5 5 -7 7 -9 -10 -11 -12 -13 -14 -15
leaf_value=-0.0023051276583618556 -0.0011151660634825351 -0.0060569984093308453 0.00031147759390000442 -1.9095946464838997e-05 0.028188961148262016 0.00030329644478363618 -0.0028504484756426375 -0.0062149841655627829 0.037948535558055434 0.028267718255519866 -0.0054080422041841063 -0.0013476710952818394 0.00037944154385264272 -0.0093903472669602892
leaf_weight=26 423 9.9999999999999982 59 19983 10.000000000000002 403 11 9.9999999999999982 17 15 53 9.9999999999999982 1207 62
leaf_count=26 423 10 59 19983 10 403 11 10 17 15 53 10 1207 62
internal_value=0 -0.00107501 -0.000488896 4.59945e-06 0.000217794 0.00204093 0.00759859 0.0184082 0.0241346 0.0151023 -0.000249498 0.0134206 -0.000352205 -0.00217302
internal_weight=0 95 85 22204 2221 529 126 53 43 26 73 20 1692 485
internal_count=22299 95 85 22204 2221 529 126 53 43 26 73 20 1692 485
shrinkage=0.1


Tree=286
num_leaves=15
num_cat=0
split_feature=10 35 23 35 29 23 23 35 36 14 21 21 3 23
split_gain=0.0113028 0.12949 0.253239 0.456874 0.330748 0.0348957 0.0338826 0.0285054 0.0355875 0.0200503 0.0188153 0.0153767 0.013316 0.100282
threshold=8.9851850000000023e-06 0.0020303850000000004 -11.990499999999999 -0.0013654449999999999 0.00076620300000000013 -12.387749999999999 -10.673999999999998 0.00034069250000000009 0.00026842000000000006 0.0034582950000000006 -6.9332599999999998 -0.8621939999999999 -12.923849999999998 -8.7002149999999983
decision_type=2 2 2 2 2 2 2 2 2 2 2 2 2 2
left_child=1 2 3 9 -5 -3 -4 8 -8 -1 -10 -7 13 -2
right_child=12 5 6 4 -6 11 7 -9 10 -11 -12 -13 -14 -15
leaf_value=-0.0027755379745298446 -0.00057166529766542221 -0.0079839424416422843 -0.0064051936566829684 0.030989300654354415 0.0064666431545364585 -0.0047669497064568777 0.0010418032524355044 0.00476281431154348 -0.0064032406187974475 0.0028675676533021035 -0.0013494178461020483 0.00015544447815045713 3.0837190461419419e-05 0.00043180370140359083
leaf_weight=17.000000000000004 2476 14.999999999999998 9.9999999999999982 11.000000000000002 10.999999999999998 11 39 9.9999999999999982 13.000000000000002 9.9999999999999982 17 15 17978 1666
leaf_count=17 2476 15 10 11 11 11 39 10 13 10 17 15 17978 1666
internal_value=0 0.000791437 0.00225747 0.00803075 0.018728 -0.00414302 -0.000921075 -0.000226883 -0.000950028 -0.000685499 -0.00353941 -0.00192711 -6.40449e-06 -0.000168049
internal_weight=0 179 138 49 22 41 89 79 69 27 30 26 22120 4142
internal_count=22299 179 138 49 22 41 89 79 69 27 30 26 22120 4142
shrinkage=0.1


Tree=287
num_leaves=15
num_cat=0
split_feature=2 22 19 3 33 32 20 22 22 19 3 2 2 20
split_gain=0.0108717 0.899435 0.504213 0.42283 0.386881 0.263387 0.140999 0.136861 0.0930998 0.204669 0.249041 0.08732 0.147636 0.0734812
threshold=-2.7883099999999996 -2.7756699999999994 7.3004200000000008e-05 -7.701249999999999 -1.0153099999999998e-05 0.015811250000000002 -9.0239949999999975 -1.6134299999999999 -2.7756699999999994 1.5736100000000003e-05 -6.3047499999999994 -2.7327349999999995 -2.2449399999999993 -11.601349999999998
decision_type=2 2 2 2 2 2 2 2 2 2 2 2 2 2
left_child=1 2 3 4 -1 -6 -5 -3 9 10 11 -2 -13 -14
right_child=8 7 -4 6 5 -7 -8 -9 -10 -11 -12 12 13 -15
leaf_value=0.0091287668228947697 0.0041240967132828458 -0.0027509574729104552 -0.0010938804979323995 0.013296947907656426 0.018407667949795717 0.040382100641727453 -0.0027809255368386708 8.0038080067238465e-05 3.5525739049140126e-05 5.0636181208911958e-05 0.00057224047891550134 -0.010996327710204892 0.001107345275580883 -0.0046688503430876256
leaf_weight=13.999999999999998 10.999999999999998 215 27 10.000000000000002 10.000000000000002 11.999999999999998 11.999999999999998 830 19958 808 147 35 25 185
leaf_count=14 11 215 27 10 10 12 12 830 19958 808 147 35 25 185
internal_value=0 0.000302216 0.0101944 0.0154494 0.022124 0.0303937 0.0045272 -0.000502416 -1.61323e-05 -0.000867487 -0.00270829 -0.00459203 -0.00498337 -0.00398121
internal_weight=0 1130 85 58 36 22 22 1045 21169 1211 403 256 245 210
internal_count=22299 1130 85 58 36 22 22 1045 21169 1211 403 256 245 210
shrinkage=0.1


Tree=288
num_leaves=15
num_cat=0
split_feature=2 32 19 3 30 23 3 3 5 25 33 3 11 21
split_gain=0.010838 0.0847481 0.109803 0.121535 0.136682 0.115798 0.134503 0.0969657 0.090462 0.0812929 0.118442 0.41335 1.0067 0.827066
threshold=-1.8232249999999997 -0.0028374199999999998 6.4213950000000014e-06 -6.5745499999999995 0.0029668100000000003 -7.4571249999999987 -7.8249449999999987 -7.6874749999999992 1.05375e-05 0.45095800000000003 -3.1858049999999996e-06 -8.494749999999998 -3.1724349999999994e-05 -4.1799449999999991
decision_type=2 2 2 2 2 2 2 2 2 2 2 2 2 2
left_child=1 2 3 4 5 7 -7 8 -1 10 11 12 -3 -14
right_child=-2 9 -4 -5 -6 6 -8 -9 -10 -11 -12 -13 13 -15
leaf_value=-0.0017113686229786877 -3.6866525025415574e-05 0.0020651821130697585 0.00045312986195568199 0.00032036645464303344 0.00093470656903264174 0.0017891208961612129 -0.0040920888970441445 -0.00061370226929111354 -0.0051169069712726865 -5.721882829268482e-06 0.00039680411109387233 -0.00064134504539840745 0.031019680440425874 0.0033407236400403474
leaf_weight=117 17426 167 1062 490 160 118 58 113 234 1323 775 212 25 19
leaf_count=117 17426 167 1062 490 160 118 58 113 234 1323 775 212 25 19
internal_value=0 0.000131836 -0.000299916 -0.000919866 -0.00167951 -0.00233306 -0.000149005 -0.0031615 -0.00398173 0.000534645 0.00113139 0.00247727 0.00561067 0.0190674
internal_weight=0 4873 2352 1290 800 640 176 464 351 2521 1198 423 211 44
internal_count=22299 4873 2352 1290 800 640 176 464 351 2521 1198 423 211 44
shrinkage=0.1


Tree=289
num_leaves=15
num_cat=0
split_feature=19 33 4 24 24 25 33 3 23 38 28 8 12 15
split_gain=0.0108292 0.0794146 0.0744484 0.214351 0.354344 0.0431709 0.111174 0.15243 0.583224 0.53668 0.317062 1.27079 0.426466 0.417976
threshold=6.1722700000000013e-08 2.0320650000000003e-05 -0.13287549999999995 -0.11618699999999998 -0.15907199999999996 0.69670100000000013 1.0000000180025095e-35 -7.9089249999999991 -7.8671899999999999 0.00043909450000000007 0.004708035000000001 -8.310299999999999e-06 7.7789300000000018e-05 -1.2628849999999999e-08
decision_type=2 2 2 2 2 2 2 2 2 2 2 2 2 2
left_child=1 2 3 4 -1 6 7 8 9 10 12 13 -4 -12
right_child=-2 -3 5 -5 -6 -7 -8 -9 -10 -11 11 -13 -14 -15
leaf_value=0.0014540819212255115 -3.2024304529126265e-05 0.0012488264597790644 0.0066480395956056973 -0.00040157956756192492 0.02400685361671177 -0.00062701745148825336 -0.00077034239120409844 -7.5598748297663e-05 -0.0039094719570130108 -0.0036819323470220246 0.016178179502487185 -0.0064591381667097186 -0.0045918049911657967 0.038284970819950109
leaf_weight=19.000000000000004 18411 564 172 69 10.999999999999998 1097 817 852 117 68 25 22 42 12.999999999999998
leaf_count=19 18411 564 172 69 11 1097 817 852 117 68 25 22 42 13
internal_value=0 0.000151646 -3.45182e-05 0.00266661 0.00972343 -0.000117436 0.000145256 0.000715847 0.00218494 0.00426986 0.0062433 0.0126676 0.00444209 0.023741
internal_weight=0 3888 3324 99 30 3225 2128 1311 459 342 274 60 214 38
internal_count=22299 3888 3324 99 30 3225 2128 1311 459 342 274 60 214 38
shrinkage=0.1


Tree=290
num_leaves=15
num_cat=0
split_feature=33 6 3 13 19 14 23 24 12 17 16 19 3 4
split_gain=0.0110562 0.0639706 0.05816 0.0589811 0.0466337 0.0767541 0.103904 0.186571 0.0945174 0.202121 0.0566206 0.0413551 0.0405442 0.0346846
threshold=-6.0683849999999993e-05 1.5846850000000003e-06 -17.030649999999998 3.6063350000000008e-05 0.000218712 0.0028496800000000007 -17.204649999999997 0.40095100000000006 0.00012058300000000002 4.9118450000000005e-07 -1.4430049999999997e-06 0.00026932050000000004 -17.461949999999998 -0.32811699999999994
decision_type=2 2 2 2 2 2 2 2 2 2 2 2 2 2
left_child=1 4 -3 -4 5 10 -7 -8 9 -9 -1 -6 -13 -12
right_child=-2 2 3 -5 11 6 7 8 -10 -11 13 12 -14 -15
leaf_value=-0.0029548241272762728 -1.7931318891273873e-05 0.0081888220816229776 0.0019164904594789192 -0.00077080730336782487 -0.0056071703077146887 -0.002175984850813014 0.016728539197356441 -0.00050999592606197381 -0.0037745078528920815 0.017406912930309774 -0.002461028188217159 -0.0050708500102960644 -0.00053545102608811566 0.0005881431355627011
leaf_weight=60 20941 11.999999999999998 276 116 19 24 11.999999999999998 17.000000000000004 14.999999999999998 9.9999999999999982 41 21 321 414
leaf_count=60 20941 12 276 116 19 24 12 17 15 10 41 21 321 414
internal_value=0 0.000276509 0.0013312 0.00112127 -0.00017013 0.00037538 0.00329872 0.00573193 0.00259004 0.0061259 -6.73793e-05 -0.00106622 -0.00081394 0.000313383
internal_weight=0 1358 404 392 954 593 78 54 42 27 515 361 342 455
internal_count=22299 1358 404 392 954 593 78 54 42 27 515 361 342 455
shrinkage=0.1


Tree=291
num_leaves=15
num_cat=0
split_feature=1 21 3 23 23 3 14 12 33 39 16 25 33 21
split_gain=0.0102995 0.385525 0.961555 0.15839 0.070249 0.145362 0.157407 0.0961375 0.0562382 0.0527494 0.0800422 0.0505097 0.0664454 0.0445607
threshold=-10.689749999999998 -11.227849999999998 -6.3047499999999994 -6.2589399999999991 -8.0189849999999989 -6.0725999999999987 0.00023124450000000003 -5.5391499999999993e-05 7.1091050000000012e-07 0.00012946900000000003 3.9767050000000016e-06 0.64358900000000008 -1.9095949999999995e-06 -3.0737249999999996
decision_type=2 2 2 2 2 2 2 2 2 2 2 2 2 2
left_child=1 2 -1 -4 13 6 7 8 -6 10 -8 -9 -13 -3
right_child=-2 4 3 -5 5 -7 9 11 -10 -11 -12 12 -14 -15
leaf_value=0.027243410826971133 -1.8087558775872172e-05 -0.00065443999401874247 -0.00049946287795642598 0.012035823081775259 -0.0075162597660285713 3.1002329842361471e-05 -0.00033864141466134848 -0.0067686061246786267 -0.01767024609260261 -0.0054688952001743021 0.010309978099539877 -0.0063189143462715515 0.0036094695337981521 0.00078521356091875891
leaf_weight=18 20824 323 63 11.999999999999998 12.000000000000002 283 24 40 9.9999999999999982 9.9999999999999982 9.9999999999999982 13.000000000000002 13.999999999999998 643
leaf_count=18 20824 323 63 12 12 283 24 40 10 10 10 13 14 643
internal_value=0 0.00025536 0.00648758 0.00150618 -0.00016403 -0.00125048 -0.00397723 -0.00639613 -0.0121317 0.000915533 0.00279331 -0.0045128 -0.00117086 0.000303839
internal_weight=0 1475 93 75 1382 416 133 89 22 44 34 67 27 966
internal_count=22299 1475 93 75 1382 416 133 89 22 44 34 67 27 966
shrinkage=0.1


Tree=292
num_leaves=15
num_cat=0
split_feature=4 26 4 3 24 28 1 23 12 12 23 26 4 34
split_gain=0.0106542 0.196405 0.177101 0.194967 0.24467 0.196918 1.72936 0.43645 0.309284 0.307627 0.275965 0.256079 0.186852 0.283022
threshold=-0.0070907799999999988 -5.5607199999999992e-05 0.27459550000000005 -6.401514999999999 0.28026950000000006 0.0076718200000000002 5.7269700000000006 -7.5004549999999997 0.00012308650000000004 9.5721450000000005e-05 -9.1575349999999975 -5.7419749999999992e-05 0.22711450000000002 0.59253850000000008
decision_type=2 2 2 2 2 2 2 2 2 2 2 2 2 2
left_child=-1 2 3 4 5 9 8 10 -7 -2 -8 -11 -6 -14
right_child=1 -3 -4 -5 12 6 7 -9 -10 11 -12 -13 13 -15
leaf_value=-6.9299098142268755e-05 0.0027694242646237703 -0.00030897294266309539 -6.1031284189703467e-05 -5.0684386959801493e-05 -0.00087986785472383977 -0.0021650296481929773 0.022124826038877166 0.011822024474127425 0.015475680408152668 -0.0032874397409086934 0.044053079458800236 0.013284675211180003 0.012389459019457852 -0.0037987386109307412
leaf_weight=11121 857 6166 2504 900 403 103 12.000000000000002 18 10.999999999999998 138 10.999999999999998 9.9999999999999982 27 18
leaf_count=11121 857 6166 2504 900 403 103 12 18 11 138 11 10 27 18
internal_value=0 6.89457e-05 0.000533879 0.00112784 0.00178746 0.00255404 0.00587169 0.0234848 -0.000462856 0.00204236 0.0326123 -0.0021677 -0.00019743 0.00591418
internal_weight=0 11178 5012 2508 1608 1160 155 41 114 1005 23 148 448 45
internal_count=22299 11178 5012 2508 1608 1160 155 41 114 1005 23 148 448 45
shrinkage=0.1


Tree=293
num_leaves=15
num_cat=0
split_feature=4 21 4 32 32 3 5 38 4 2 38 3 22 33
split_gain=0.011512 0.0280166 0.0224438 0.0221202 0.027187 0.0627914 0.0650134 0.0375866 0.121937 0.297021 0.0305473 0.0263273 0.0254248 0.0614904
threshold=0.93067350000000004 15.515700000000001 4.0272450000000015 16.217600000000001 0.28587350000000006 -16.417249999999999 1.4488750000000001e-05 -0.034001399999999994 1.7689400000000002 -0.24366149999999998 -0.0068598999999999995 -14.754349999999997 -2.0257349999999996 -3.5003399999999998e-05
decision_type=2 2 2 2 2 2 2 2 2 2 2 2 2 2
left_child=-1 3 -3 4 7 6 -6 8 9 -2 -9 -10 13 -12
right_child=1 2 -4 -5 5 -7 -8 10 11 -11 12 -13 -14 -15
leaf_value=-3.3751595924703636e-05 -0.004776773466728626 -0.0049727727867368799 0.00070313612126152625 0.0044627700912921375 0.0002454669075086713 -0.0002241972299132109 -0.0085613429791441091 -0.0013107054498220805 0.0050258967583067717 0.017788236920854874 0.0070325684500858188 -0.00046946373754240892 0.00014840385471277798 0.00072682038171557536
leaf_weight=18268 10.000000000000002 19.000000000000004 10.999999999999998 11.999999999999998 14.999999999999998 465 19 128 9.9999999999999982 13.999999999999998 15.999999999999998 68 2782 462
leaf_count=18268 10 19 11 12 15 465 19 128 10 14 16 68 2782 462
internal_value=0 0.000152958 -0.00289161 0.000175787 0.00016289 -0.000527526 -0.00467599 0.000261606 0.00215297 0.00838615 0.000204664 0.00023507 0.000264163 0.000937891
internal_weight=0 4031 30 4001 3989 499 34 3490 102 24 3388 78 3260 478
internal_count=22299 4031 30 4001 3989 499 34 3490 102 24 3388 78 3260 478
shrinkage=0.1


Tree=294
num_leaves=15
num_cat=0
split_feature=26 7 7 4 36 5 30 18 29 10 18 4 4 18
split_gain=0.010298 0.0767984 0.0348872 0.112215 0.139088 0.0331485 0.0376155 0.0328696 0.0446224 0.0305562 0.100449 0.0277416 0.133041 0.0409365
threshold=-0.0012592649999999999 1.8309950000000006e-05 3.2374100000000012e-05 0.61727300000000007 0.023809650000000005 8.0712700000000014e-06 0.017316200000000004 2.4958100000000002e-06 -0.15649199999999996 1.4076050000000001e-05 -4.2751549999999987e-06 0.48299450000000005 0.88706950000000007 4.2475400000000007e-06
decision_type=2 2 2 2 2 2 2 2 2 2 2 2 2 2
left_child=1 -1 3 5 -5 6 -3 9 -9 10 -7 13 -13 -4
right_child=-2 2 11 4 -6 7 -8 8 -10 -11 -12 12 -14 -15
leaf_value=0.0090449188183993109 -1.4001030824858401e-05 -0.0071810950969599845 -3.6851453157716333e-06 0.016813236639136444 0.0001346535189077258 0.012707210525404661 0.0010888397714800457 0.0031641728376780513 -0.0052543087602209522 0.0008879891982550086 0.00070211178339693863 -0.0086759972297364759 -0.00017764265485069094 0.0034080692412221413
leaf_weight=9.9999999999999982 21391 11.000000000000002 472 10.000000000000002 9.9999999999999982 9.9999999999999982 10.999999999999998 10.000000000000002 17 115 23 21 150 38
leaf_count=10 21391 11 472 10 10 10 11 10 17 115 23 21 150 38
internal_value=0 0.000329842 0.000232792 0.00133697 0.00847395 0.000612402 -0.00304613 0.00107233 -0.00213635 0.0016577 0.00434002 -0.000119053 -0.0012213 0.000250524
internal_weight=0 908 898 217 20 197 22 175 27 148 33 681 171 510
internal_count=22299 908 898 217 20 197 22 175 27 148 33 681 171 510
shrinkage=0.1


Tree=295
num_leaves=15
num_cat=0
split_feature=14 23 23 3 12 5 14 3 38 16 3 3 1 22
split_gain=0.0103244 0.0286339 0.0417338 0.0719279 0.0406885 0.0699213 0.0415763 0.0440397 0.0438461 0.05492 0.0748272 0.0502743 0.113045 0.183547
threshold=9.3791550000000008e-05 -6.4482599999999985 -6.4960549999999992 -6.1782649999999988 3.7821450000000007e-05 2.1876800000000004e-05 8.4744400000000015e-05 -6.5485099999999994 -0.00013238499999999997 7.1900850000000015e-08 -5.6225549999999993 -5.9423249999999994 -2.9345299999999996 1.0000000180025095e-35
decision_type=2 2 2 2 2 2 2 2 2 2 2 2 2 2
left_child=1 2 -1 -4 6 -6 7 -3 9 10 -9 12 -10 -14
right_child=-2 4 3 -5 5 -7 -8 8 11 -11 -12 -13 13 -15
leaf_value=0.00019631863087197544 -3.0888330856123029e-05 -0.0051090718538034713 0.0095634752311385615 0.00032772135818959214 -0.0090720960404723893 -0.0010089392786061294 0.0041293484851485122 -0.012913095892872657 0.010796306235715748 0.00066349323218067489 -0.0014071621493293117 -0.00057875636219770449 -0.0087811482405023913 0.0057415275551054787
leaf_weight=3459 18489 20 12.999999999999998 24 14.999999999999998 38 20 10.000000000000002 13.999999999999998 21 12.999999999999998 126 13.999999999999998 23
leaf_count=3459 18489 20 13 24 15 38 20 10 14 21 13 126 14 23
internal_value=0 0.000149894 0.000232053 0.00357272 -0.000764848 -0.00329096 -0.000251882 -0.000615469 -0.000208808 -0.00303388 -0.00640974 0.000493469 0.0031425 0.000246461
internal_weight=0 3810 3496 37 314 53 261 241 221 44 23 177 51 37
internal_count=22299 3810 3496 37 314 53 261 241 221 44 23 177 51 37
shrinkage=0.1


Tree=296
num_leaves=15
num_cat=0
split_feature=16 22 2 23 3 16 23 3 16 21 3 23 2 33
split_gain=0.0103398 0.0938336 0.301065 0.47491 0.790563 0.578593 0.658311 0.284634 0.344988 0.272498 0.287972 0.119587 0.102164 0.257491
threshold=-1.7593899999999998e-06 2.1382650000000005 2.0840000000000005 -9.4058299999999981 -9.4020749999999982 -3.4484549999999995e-05 -15.099999999999998 -8.6270849999999992 -3.4047899999999997e-06 3.6917250000000004 -12.748049999999997 -13.919899999999997 2.1572450000000005 1.2059500000000001e-06
decision_type=2 2 2 2 2 2 2 2 2 2 2 2 2 2
left_child=1 12 -3 4 5 11 -7 -5 -9 10 -8 -4 -1 -14
right_child=-2 2 3 7 -6 6 9 8 -10 -11 -12 -13 13 -15
leaf_value=0.00020308301249830651 -4.0618407331825851e-05 -0.00010231187657422304 0.0098053754307329613 -0.005242621848380871 -0.0017067229381264671 -0.0011318508485731269 0.03827584884129466 -0.0003622589878172481 0.020538360286842694 0.013250466058444647 0.02006742127092653 -0.0038336750779611375 0.00020258196862050685 -0.0028527125472127823
leaf_weight=3727 16447 646 10.000000000000002 66 58 13.999999999999998 15.999999999999995 28 10.999999999999998 18 19.000000000000004 18 800 421
leaf_count=3727 16447 646 10 66 58 14 16 28 11 18 19 18 800 421
internal_value=0 0.000114158 0.00105098 0.00393868 0.00749291 0.0131095 0.0181546 -0.00124033 0.00553279 0.0232491 0.0283913 0.00103741 -5.7e-05 -0.000850882
internal_weight=0 5852 904 258 153 95 67 105 39 53 35 28 4948 1221
internal_count=22299 5852 904 258 153 95 67 105 39 53 35 28 4948 1221
shrinkage=0.1


Tree=297
num_leaves=15
num_cat=0
split_feature=15 14 23 23 3 14 23 15 21 1 14 8 15 38
split_gain=0.0110683 0.0225193 0.026073 0.0206554 0.197946 0.330826 0.609689 0.392559 0.307615 0.41804 0.171441 0.134569 0.0636257 0.0871122
threshold=1.4819550000000001e-05 0.00039250700000000006 -10.632649999999998 -16.571949999999998 -16.135999999999999 0.0060041400000000007 -17.204649999999997 -4.6303149999999994e-09 -3.3987249999999993 -3.9636449999999992 0.00077369700000000016 -8.310299999999999e-06 -1.8057149999999999e-06 -0.0068598999999999995
decision_type=2 2 2 2 2 2 2 2 2 2 2 2 2 2
left_child=3 2 -2 4 5 6 7 -1 9 -7 -6 -10 -12 -14
right_child=1 -3 -4 -5 10 8 -8 -9 11 -11 12 -13 13 -15
leaf_value=0.017388372272253035 0.0035409114412253816 0.00012222398858390199 1.7315496751550761e-05 -6.3837904336220769e-05 0.00090035104647635312 0.024005242741920726 0.029586487951186985 -0.0089655234012752764 0.0027560564908472932 -0.0024826043070508884 -0.00029215729283327355 -0.0084493625515686538 0.00074676522258103014 -0.0032120102709843759
leaf_weight=10 42 3496 42 17035 923 11.000000000000002 12.999999999999998 13 17 12.999999999999998 349 29 73 233
leaf_count=10 42 3496 42 17035 923 11 13 13 17 13 349 29 73 233
internal_value=0 0.000161101 0.00177911 -3.08104e-05 0.000303289 0.00448643 0.0122766 0.00249269 0.000480075 0.00965766 2.22919e-05 -0.00430823 -0.00121503 -0.0022676
internal_weight=0 3580 84 18719 1684 106 36 23 70 24 1578 46 655 306
internal_count=22299 3580 84 18719 1684 106 36 23 70 24 1578 46 655 306
shrinkage=0.1


Tree=298
num_leaves=15
num_cat=0
split_feature=39 3 7 12 21 24 36 38 19 3 13 33 3 3
split_gain=0.0108909 0.0560817 0.0514115 0.0748139 0.10495 0.138499 0.0772384 0.0684005 0.113275 0.284056 0.82662 0.127113 0.0904011 0.0973602
threshold=1.8038650000000001e-06 -10.915599999999998 2.6737650000000006e-05 4.9838750000000011e-05 10.826150000000002 -0.067441899999999985 0.00031732200000000004 7.9669250000000017e-05 0.00053170200000000011 -7.8249449999999987 7.4326200000000012e-06 1.2059500000000001e-06 -7.551264999999999 -7.2050099999999988
decision_type=2 2 2 2 2 2 2 2 2 2 2 2 2 2
left_child=1 -1 3 4 6 -6 -3 -4 9 10 -9 -12 -11 -14
right_child=-2 2 7 -5 5 -7 -8 8 -10 12 11 -13 13 -15
leaf_value=0.0007550392322707559 -3.1754590794269342e-05 -0.001256083788531315 -0.00014646920100147204 -0.006880851563376685 -0.0015285564902504638 0.013465992826968433 -0.0096278645874311522 0.030055924079247884 -0.0013326442200481878 -0.007954570811919191 0.0089364219245246842 -0.0047082035601811699 0.010963810607790947 0.00064998087017792633
leaf_weight=1103 18483 135 2256 24 14.000000000000002 10.999999999999998 11.999999999999998 13.999999999999998 89 10.999999999999998 11.000000000000002 18 9.9999999999999982 108
leaf_count=1103 18483 135 2256 24 14 11 12 14 89 11 11 18 10 108
internal_value=0 0.000153805 -9.06333e-05 -0.00165061 -0.000920811 0.00506905 -0.00193949 3.0843e-05 0.00156347 0.00306204 0.0101008 0.000467344 0.000715781 0.00152403
internal_weight=0 3816 2713 196 172 25 147 2517 261 172 43 29 129 118
internal_count=22299 3816 2713 196 172 25 147 2517 261 172 43 29 129 118
shrinkage=0.1


Tree=299
num_leaves=15
num_cat=0
split_feature=9 22 2 0 19 22 2 17 0 4 31 20 6 6
split_gain=0.0101513 0.0585838 0.134426 0.14211 0.232687 0.0484715 0.055218 0.0422098 0.0408473 0.0791652 0.0343068 0.0485013 0.0972061 0.0339013
threshold=-5.3827499999999992e-05 -2.7165849999999998 -2.7045099999999995 -10.206549999999998 2.9823300000000003e-05 -1.8321399999999997 -2.5294749999999993 3.1476000000000005e-07 -9.9535099999999979 -0.41304449999999998 1.8420500000000002 -11.895699999999998 6.1369000000000013e-06 3.940420000000001e-06
decision_type=2 2 2 2 2 2 2 2 2 2 2 2 2 2
left_child=1 2 3 -1 -5 6 7 8 -3 -10 11 12 -7 -12
right_child=-2 5 -4 4 -6 10 -8 -9 9 -11 13 -13 -14 -15
leaf_value=-0.0013723499160465402 -2.1398855378088067e-05 -0.001572573928234096 -0.000134967980773852 0.018220690095468478 0.0021165924551161497 -0.0013519623972983519 -6.0209909671147429e-05 -0.00072954814140058048 -0.001531315404281486 -0.010968521498143674 0.00045629858443709583 0.00029611208659369344 0.01227063708472997 -0.0053734743280247563
leaf_weight=17 20261 26 94 17 19 11.000000000000002 195 52 15.999999999999998 20 19 1521 9.9999999999999982 21
leaf_count=17 20261 26 94 17 19 11 195 52 16 20 19 1521 10 21
internal_value=0 0.000212739 0.00213571 0.00616296 0.00972131 6.32534e-05 -0.00108232 -0.00283066 -0.00459288 -0.00677421 0.000287009 0.000362011 0.00513499 -0.00260433
internal_weight=0 2038 147 53 36 1891 309 114 62 36 1582 1542 21 40
internal_count=22299 2038 147 53 36 1891 309 114 62 36 1582 1542 21 40
shrinkage=0.1


Tree=300
num_leaves=15
num_cat=0
split_feature=23 3 22 2 23 19 36 15 21 17 19 2 23 14
split_gain=0.00985703 0.0563872 0.0636313 0.328998 0.316362 0.338011 0.317769 0.460907 0.396915 0.356303 0.289308 0.165168 0.228224 0.41172
threshold=-7.6950299999999991 -10.813299999999998 -2.3085999999999998 -2.2889499999999994 -10.632649999999998 2.9823300000000003e-05 -0.0003659104999999999 -4.5466599999999991e-08 -1.9470299999999996 8.0353450000000009e-08 0.00022854250000000002 -2.2889499999999994 -11.059199999999999 0.0022170600000000003
decision_type=2 2 2 2 2 2 2 2 2 2 2 2 2 2
left_child=1 2 3 4 5 6 9 -8 -9 -1 -5 -4 13 -13
right_child=-2 -3 11 10 -6 -7 7 8 -10 -11 -12 12 -14 -15
leaf_value=-0.009034093978026736 0.00010517148245052976 8.4273705679167984e-05 -0.0018068985607802733 -0.0056019550610701919 -0.0044991289983348304 -0.0017002177715767176 -0.0013151875277981164 0.033714942447841172 0.0083183346758596566 0.016073310598731041 -0.00076107292982530508 0.0030269573874419364 -0.00077068604069330509 -0.00014248892559867707
leaf_weight=13.000000000000002 6367 10982 540 174 36 32 9.9999999999999982 15.999999999999998 10.000000000000002 9.9999999999999982 425 585 1730 1369
leaf_count=13 6367 10982 540 174 36 32 10 16 10 10 425 585 1730 1369
internal_value=0 -4.20303e-05 -0.000322247 -0.00118707 0.0034361 0.00657531 0.0110637 0.0169297 0.023947 0.00188217 -0.00216727 -0.000173605 6.58024e-05 0.000806399
internal_weight=0 15932 4950 726 127 91 59 36 26 23 599 4224 3684 1954
internal_count=22299 15932 4950 726 127 91 59 36 26 23 599 4224 3684 1954
shrinkage=0.1


Tree=301
num_leaves=15
num_cat=0
split_feature=4 38 18 13 18 18 28 24 18 4 23 7 24 4
split_gain=0.0112657 0.0295986 0.165113 0.286021 0.0375757 0.116424 0.116321 0.0476323 0.0373043 0.0439977 0.126325 0.0452002 0.0349264 0.0374125
threshold=0.53187750000000011 -0.011628399999999999 4.0333150000000005e-05 2.9693600000000003e-05 1.6671850000000005e-05 1.2608950000000002e-05 -0.0029633999999999993 0.61977900000000008 9.7398000000000012e-06 0.22711450000000002 -8.8812249999999988 4.6672250000000007e-05 0.41329300000000008 0.088728400000000013
decision_type=2 2 2 2 2 2 2 2 2 2 2 2 2 2
left_child=1 2 4 -4 5 8 -6 -8 9 -1 11 -11 -3 -14
right_child=-2 12 3 -5 6 -7 7 -9 -10 10 -12 -13 13 -15
leaf_value=0.00021516232740908256 0.00013654768811339563 -6.63586318347819e-05 0.021467147246003144 -0.0014320272331436476 0.0037853348953649406 0.010578934612302957 -0.012739549279212947 -0.0032035987866534431 -0.0048841651861688921 0.0053159246302675435 0.012694466109810907 -0.0031568850322133478 -0.0009138639824903714 -0.0055831448222637518
leaf_weight=1477 4754 15847 10.000000000000002 11.999999999999998 14.999999999999998 10.999999999999998 10.000000000000002 10.999999999999998 13.999999999999998 10.000000000000002 10.999999999999998 17 78 22
leaf_count=1477 4754 15847 10 12 15 11 10 11 14 10 11 17 78 22
internal_value=0 -3.6999e-05 0.000373309 0.00897669 0.000253211 0.000327868 -0.00294042 -0.00774453 0.000254119 0.000301601 0.00366135 -1.88074e-05 -7.81147e-05 -0.00194111
internal_weight=0 17545 1598 22 1576 1540 36 21 1529 1515 38 27 15947 100
internal_count=22299 17545 1598 22 1576 1540 36 21 1529 1515 38 27 15947 100
shrinkage=0.1


Tree=302
num_leaves=15
num_cat=0
split_feature=2 22 19 14 22 2 2 33 23 11 11 22 1 34
split_gain=0.0107114 0.136386 0.187528 0.278917 0.447991 2.47437 0.641688 0.504754 0.66311 0.809356 0.481473 0.45027 0.382691 0.479349
threshold=-1.8232249999999997 -1.8497849999999998 4.442305000000001e-06 0.00021571900000000004 -2.1177949999999996 -2.1008949999999995 -2.1008949999999995 -5.8344899999999999e-06 -12.154599999999999 -4.6651999999999993e-05 -2.7380199999999996e-05 -2.3085999999999998 -3.4659349999999995 0.5512450000000001
decision_type=2 2 2 2 2 2 2 2 2 2 2 2 2 2
left_child=1 2 3 -1 6 -6 7 8 12 -10 -7 -11 -5 -14
right_child=-2 -3 -4 4 5 10 -8 -9 9 11 -12 -13 13 -15
leaf_value=0.000178847447471648 -3.6650450947006417e-05 -0.00016815033861042192 -0.00033970861146172282 -0.0037774326824923845 -0.0064747026933162036 0.016913459933577821 -0.0061078070811080663 -0.002273585284237308 -0.0028194181155413393 0.032711532451212409 0.04188887025964888 0.011228349257726221 0.020703376030647438 -0.0055275291035121145
leaf_weight=335 17426 3692 526 41 36 12.999999999999998 66 59 14.999999999999998 24.999999999999996 19 16.000000000000004 19.000000000000004 10.999999999999998
leaf_count=335 17426 3692 526 41 36 13 66 59 15 25 19 16 19 11
internal_value=0 0.000131063 0.00106645 0.00219568 0.00430705 0.0115099 0.00236341 0.00536933 0.00891998 0.0170563 0.0317426 0.0243279 0.00250263 0.0110854
internal_weight=0 4873 1181 655 320 68 252 186 127 56 32 41 71 30
internal_count=22299 4873 1181 655 320 68 252 186 127 56 32 41 71 30
shrinkage=0.1


Tree=303
num_leaves=15
num_cat=0
split_feature=15 38 36 23 3 34 18 10 10 21 14 19 3 34
split_gain=0.0112286 0.0271756 0.0515956 0.0222766 0.193393 0.319142 0.467856 0.210318 0.124673 0.127193 0.124148 0.0947658 0.0901709 0.0870494
threshold=5.5160550000000007e-06 40.11225000000001 -6.5773949999999992 -16.571949999999998 -16.772799999999997 0.37240250000000003 -1.5876649999999996e-05 2.4123400000000004e-05 1.6084800000000002e-05 -3.3987249999999993 0.0022170600000000003 2.5573700000000003e-06 -15.632649999999998 0.6802220000000001
decision_type=2 2 2 2 2 2 2 2 2 2 2 2 2 2
left_child=3 2 -2 4 5 6 -1 8 9 -7 -6 12 -12 -14
right_child=1 -3 -4 -5 10 7 -8 -9 -10 -11 11 -13 13 -15
leaf_value=-0.0011956637686428922 0.0069961510069498972 -0.0048206258988515898 0.00013878155733412447 -7.0108317780102891e-05 0.00061721596129343196 0.0089093453437089926 0.024925031699240208 0.012250850315798414 -0.01303800981724635 -0.0056504881009459482 0.0003364452017614475 -0.00094535753148087198 -0.015973228853545147 -0.0036575095728039742
leaf_weight=12.000000000000002 10.999999999999998 10.999999999999998 4357 16310 1131 9.9999999999999982 15.999999999999998 10.999999999999998 9.9999999999999982 15.000000000000002 12.999999999999998 369 12.000000000000002 10.999999999999998
leaf_count=12 11 11 4357 16310 1131 10 16 11 10 15 13 369 12 11
internal_value=0 0.000143549 0.000156051 -3.50782e-05 0.000319792 0.00531308 0.0137304 0.000189465 -0.00360126 0.000173445 7.92297e-05 -0.00142315 -0.00632049 -0.0100831
internal_weight=0 4379 4368 17920 1610 74 28 46 35 25 1536 405 36 23
internal_count=22299 4379 4368 17920 1610 74 28 46 35 25 1536 405 36 23
shrinkage=0.1


Tree=304
num_leaves=15
num_cat=0
split_feature=16 36 16 3 23 10 7 38 16 12 6 12 38 16
split_gain=0.0108523 0.0592515 0.0798811 0.0702552 0.0923103 0.0353044 0.0384613 0.0332104 0.0797693 0.272481 0.143017 0.0801518 0.0434798 0.0645133
threshold=5.0821450000000006e-06 -0.020281949999999997 4.328635000000001e-05 -12.676799999999998 -11.688049999999999 2.5517300000000004e-05 4.2872450000000003e-05 -0.039763049999999987 3.9109600000000002e-05 0.00014817500000000004 -3.2223299999999997e-07 0.00010171500000000001 -0.012671449999999999 1.0270700000000001e-05
decision_type=2 2 2 2 2 2 2 2 2 2 2 2 2 2
left_child=-1 2 3 4 5 -2 -7 8 9 11 -11 -3 13 -9
right_child=1 7 -4 -5 -6 6 -8 12 -10 10 -12 -13 -14 -15
leaf_value=-3.6716324092753108e-05 -0.012552495327379024 0.0022963048798154543 0.00010382999191382462 -0.001264684403764217 0.00014385120335241988 -0.0019475229274989526 -0.010309917632151736 -0.0071828048934953082 -0.00016497922270765288 0.0053321525793183916 0.021457629176703366 -0.00772885216230696 0.0002418544999471347 -0.00072065375712187542
leaf_weight=17462 13.999999999999998 29 246 105 18 11.000000000000002 10.999999999999998 18 94 11.000000000000002 10.999999999999998 10.999999999999998 4149 109
leaf_count=17462 14 29 246 105 18 11 11 18 94 11 11 11 4149 109
internal_value=0 0.000132549 -0.00102525 -0.00277213 -0.00570329 -0.00862686 -0.00612872 0.00023835 0.00167151 0.00445586 0.0133949 -0.000460613 0.000186065 -0.00163655
internal_weight=0 4837 405 159 54 36 22 4432 156 62 22 40 4276 127
internal_count=22299 4837 405 159 54 36 22 4432 156 62 22 40 4276 127
shrinkage=0.1


Tree=305
num_leaves=15
num_cat=0
split_feature=10 31 23 31 29 28 23 33 35 23 34 7 16 36
split_gain=0.0106067 0.0987881 0.295918 0.535262 0.061543 0.0316349 0.0261261 0.0229344 0.0160798 0.0143443 0.0122468 0.0396849 0.0384229 0.312297
threshold=8.9851850000000023e-06 0.052070850000000009 -11.901299999999997 -0.090617699999999982 0.0021838850000000004 -0.012841499999999997 -11.020599999999998 8.1251900000000024e-06 -0.0051262549999999988 -6.8666249999999991 0.56474900000000006 3.434760000000001e-05 -1.3472549999999999e-05 -0.14712849999999997
decision_type=2 2 2 2 2 2 2 2 2 2 2 2 2 2
left_child=1 2 3 -1 5 -4 7 8 -3 -7 -2 12 13 -12
right_child=10 6 4 -5 -6 9 -8 -9 -10 -11 11 -13 -14 -15
leaf_value=-0.0025979574307712031 -3.8944560655008563e-05 0.00013141539664222643 -0.0055265413515050623 0.02288534507593688 0.0066136438446119427 -0.0017487467945154227 8.3955388011721282e-05 -0.0078316448912532487 -0.0046736797154881054 0.0017250686605823123 0.014301019121841011 -4.8422791478121952e-05 0.00052169707813242718 -0.0009814895639115443
leaf_weight=15.999999999999998 18532 13 17 17 9.9999999999999982 35 27 10.999999999999998 15 18 18 2556 962 52
leaf_count=16 18532 13 17 17 10 35 27 11 15 18 18 2556 962 52
internal_value=0 0.00076668 0.00256207 0.0105298 -0.000724621 -0.00177294 -0.00230724 -0.00396269 -0.00244274 -0.00056896 -6.20415e-06 0.0001629 0.000686292 0.0029483
internal_weight=0 179 113 33 80 70 66 39 28 53 22120 3588 1032 70
internal_count=22299 179 113 33 80 70 66 39 28 53 22120 3588 1032 70
shrinkage=0.1


Tree=306
num_leaves=15
num_cat=0
split_feature=12 32 13 31 6 5 20 17 11 35 13 25 20 20
split_gain=0.0108264 0.196374 0.237957 0.307399 0.332706 0.321839 0.369154 1.03542 0.600806 0.522951 0.474767 0.708178 0.397225 0.42839
threshold=-8.085454999999998e-05 0.11728350000000001 4.1568450000000003e-05 0.097819300000000012 -1.0796899999999997e-06 3.1622900000000005e-05 1.8004450000000001 1.0456800000000001e-06 1.6643550000000004e-05 0.0012092200000000002 -4.5330799999999996e-05 0.81365550000000009 2.6375650000000004 5.4892650000000005
decision_type=2 2 2 2 2 2 2 2 2 2 2 2 2 2
left_child=1 -1 3 4 -3 6 7 9 -8 -6 -10 -12 -13 -14
right_child=-2 2 -4 -5 5 -7 8 -9 10 -11 11 12 13 -15
leaf_value=-0.00020664513905093679 -4.1433074173633762e-05 -0.00099290451003268944 -6.0419124159706203e-05 -0.00023944210163692845 0.026888126852104396 -0.0011404611759913948 -0.0034761027465962501 4.5109192142263056e-05 0.0015763751204675913 0.0045031941263005137 0.035905574892575925 -0.0071411642796275297 0.026132210006107923 0.0016930203311718427
leaf_weight=4443 16474 92 742 242 41 54 60 40 44 13.999999999999998 12.999999999999998 10.999999999999998 16.000000000000004 12.999999999999998
leaf_count=4443 16474 92 742 242 41 54 60 40 44 14 13 11 16 13
internal_value=0 0.000117179 0.00115824 0.00257113 0.00428007 0.00586541 0.00736667 0.012287 0.00438942 0.0211901 0.00925469 0.0156291 0.0090393 0.0151767
internal_weight=0 5825 1382 640 398 306 252 95 157 55 97 53 40 29
internal_count=22299 5825 1382 640 398 306 252 95 157 55 97 53 40 29
shrinkage=0.1


Tree=307
num_leaves=15
num_cat=0
split_feature=39 14 36 16 10 0 6 19 15 3 15 15 3 3
split_gain=0.0113619 0.0512617 0.0745148 0.187077 0.236698 0.114558 0.213725 0.10023 0.102167 0.0970876 0.0791853 0.078711 0.062802 0.103288
threshold=1.8038650000000001e-06 0.00073300000000000004 -0.00025458649999999996 1.0000000180025095e-35 1.6785700000000001e-05 -7.0854049999999988 4.4165300000000004e-06 2.2494150000000003e-09 2.2523300000000002e-07 -6.0971649999999995 4.2854450000000007e-07 -4.9462599999999996e-08 -5.9958099999999996 -6.5745499999999995
decision_type=2 2 2 2 2 2 2 2 2 2 2 2 2 2
left_child=1 2 3 4 -1 -6 11 -5 9 -9 -10 -7 13 -4
right_child=-2 -3 12 7 5 6 -8 8 10 -11 -12 -13 -14 -15
leaf_value=0.014843567895392576 -3.2434058070979328e-05 0.00051226156485830972 -0.0003960939532569678 0.0080330538394098924 -0.0012802805749664043 -0.0012479782288070196 0.017280471701330194 -0.0066877222359180456 0.010072156796231866 -7.7926013727847024e-05 -0.00029441060947387349 0.0076664956897730015 0.00040139418659520463 -0.0027786779987072183
leaf_weight=18 18483 1968 818 10.999999999999998 46 26 11.999999999999998 50 9.9999999999999982 40 28 15.999999999999998 539 234
leaf_count=18 18483 1968 818 11 46 26 12 50 10 40 28 16 539 234
internal_value=0 0.000157096 -0.000221132 0.0013588 0.00428706 0.00238689 0.00551078 -0.00112706 -0.00191426 -0.00375004 0.00243363 0.00214801 -0.000476344 -0.00092606
internal_weight=0 3816 1848 257 118 100 54 139 128 90 38 42 1591 1052
internal_count=22299 3816 1848 257 118 100 54 139 128 90 38 42 1591 1052
shrinkage=0.1


Tree=308
num_leaves=15
num_cat=0
split_feature=14 23 2 22 22 7 3 23 3 33 6 0 20 20
split_gain=0.011742 0.0289802 0.0661377 0.135827 0.0522928 0.0473032 0.117977 0.535939 1.09045 0.400951 0.766449 0.495508 0.237706 0.276367
threshold=9.3791550000000008e-05 -7.6950299999999991 -2.7726849999999996 -2.7254199999999993 -2.3085999999999998 3.2652550000000003e-05 -7.585564999999999 -7.2010749999999994 -7.1424999999999992 -1.3243649999999999e-06 -1.6641249999999997e-06 -0.8145349999999999 8.4191850000000006 -4.2662549999999992
decision_type=2 2 2 2 2 2 2 2 2 2 2 2 2 2
left_child=-1 -2 3 -3 -5 6 -4 8 9 10 -8 -11 13 -9
right_child=1 2 5 4 -6 -7 7 12 -10 11 -12 -13 -14 -15
leaf_value=0.00015985366249220162 -0.00011158152511087259 0.010320947280920603 2.3330891034457476e-05 -0.0032523503026022811 0.0015534765726867288 -9.9571823178604382e-05 0.02736505595967173 -0.0027006763050399993 -0.0039721324906328362 0.01441042661582204 -0.010120359868742526 0.044425829093564642 -0.0053741496509774741 0.0048437447970522607
leaf_weight=3810 13258 17 924 25 240 3685 12.000000000000002 83 34 11.000000000000002 9.9999999999999982 10.999999999999998 62 117
leaf_count=3810 13258 17 924 25 240 3685 12 83 34 11 10 11 62 117
internal_value=0 -3.29408e-05 0.000166375 0.00165596 0.0011001 8.1496e-05 0.000609372 0.00220202 0.0094785 0.0198722 0.0103262 0.0294181 3.57432e-05 0.00171281
internal_weight=0 18489 5231 282 265 4949 1264 340 78 44 22 22 262 200
internal_count=22299 18489 5231 282 265 4949 1264 340 78 44 22 22 262 200
shrinkage=0.1


Tree=309
num_leaves=15
num_cat=0
split_feature=16 36 10 1 16 36 17 3 23 33 3 6 17 30
split_gain=0.0114992 0.0538741 0.16196 0.191509 0.043164 0.352918 0.254125 0.22657 0.386121 0.367529 0.371657 0.313803 0.266798 0.230192
threshold=-3.4047899999999997e-06 -0.60087599999999985 2.3848200000000003e-05 -4.3349049999999991 -2.4835049999999993e-07 -0.00023515199999999997 2.4112900000000007e-06 -7.8588649999999989 -7.6470749999999992 1.0696500000000002e-05 -8.0668149999999983 -3.8609649999999992e-06 1.8737900000000001e-06 0.00025395750000000003
decision_type=2 2 2 2 2 2 2 2 2 2 2 2 2 2
left_child=1 2 3 -1 5 6 7 8 9 10 11 -2 -11 -13
right_child=4 -3 -4 -5 -6 -7 -8 -9 -10 12 -12 13 -14 -15
leaf_value=-0.0016475422622170294 0.019139343558344991 8.9455760970788597e-05 -0.00021724123305263718 0.015993394545512275 3.5334702582155422e-05 -0.0012771615180095603 -0.0019741655119725034 0.00010845340793044772 -0.0027102971638822441 -0.0017252614889133972 0.024248164642432873 -0.00021962047014052849 0.015328606367111206 0.0064180726988727933
leaf_weight=10.000000000000002 15.999999999999998 4965 61 15.999999999999998 14137 1813 251 527 95 111 10.999999999999998 70 9.9999999999999982 206
leaf_count=10 16 4965 61 16 14137 1813 251 527 95 111 11 70 10 206
internal_value=0 0.000132683 0.00259962 0.00920842 -3.88656e-05 -0.000376155 0.000883309 0.00156899 0.00305205 0.00434314 0.00620366 0.0055239 -0.000315851 0.0047346
internal_weight=0 5052 87 26 17247 3110 1297 1046 519 424 303 292 121 276
internal_count=22299 5052 87 26 17247 3110 1297 1046 519 424 303 292 121 276
shrinkage=0.1


Tree=310
num_leaves=15
num_cat=0
split_feature=3 34 3 2 36 18 13 5 39 39 3 3 23 11
split_gain=0.0115794 0.0359049 0.0483381 0.0534312 0.0565096 0.123528 0.112141 0.0506171 0.0626134 0.0475523 0.044968 0.0391054 0.0328693 0.0450648
threshold=-6.3643949999999991 0.0035974100000000005 -5.9958099999999996 2.0840000000000005 -0.00013715899999999995 1.6444000000000004e-07 1.0362200000000002e-05 2.2511200000000002e-05 6.5215700000000006e-07 6.639340000000001e-07 -5.9630249999999991 -5.8792649999999993 -7.6950299999999991 -2.2497199999999995e-05
decision_type=2 2 2 2 2 2 2 2 2 2 2 2 2 2
left_child=12 2 3 4 5 6 -2 9 -9 -6 -4 -12 -1 -14
right_child=1 -3 10 -5 7 -7 -8 8 -10 -11 11 -13 13 -15
leaf_value=-0.00012762232884009915 0.014186391402035948 0.00020422908256382448 0.0062077373012223028 -0.0078250458755064756 -0.0039947402835996066 -0.0061353580676950514 -0.00078968750312924385 -0.0013968153604461497 -0.01124067754218621 0.0023500118404626846 -0.0049582839053233761 -7.2218035219938843e-06 0.00059135992174611397 -4.7267741726138361e-05
leaf_weight=12186 10.000000000000002 4894 10.999999999999998 15.999999999999998 27 11.999999999999998 9.9999999999999982 12.000000000000002 13.999999999999998 21 17 259 1720 3090
leaf_count=12186 10 4894 11 16 27 12 10 12 14 21 17 259 1720 3090
internal_value=0 0.000129007 -0.000771084 -0.0024385 -0.00162544 0.00188571 0.00669835 -0.00314377 -0.00669736 -0.00121891 -6.22863e-05 -0.000312179 -4.02521e-05 0.000181098
internal_weight=0 5303 409 122 106 32 20 74 26 48 287 276 16996 4810
internal_count=22299 5303 409 122 106 32 20 74 26 48 287 276 16996 4810
shrinkage=0.1


Tree=311
num_leaves=15
num_cat=0
split_feature=35 15 7 14 19 30 13 15 35 15 35 14 4 0
split_gain=0.0109679 0.196516 0.089347 0.0992159 0.143427 0.0882054 0.277448 0.0866092 0.292991 0.276056 0.187958 0.178805 0.156852 0.259695
threshold=-0.0020770149999999993 -4.6303149999999994e-09 5.496350000000001e-05 0.00010427650000000001 0.0023484000000000001 0.0010465650000000004 -3.1591999999999998e-05 -1.2628849999999999e-08 0.00018548400000000003 -2.5707899999999997e-06 5.2881600000000005e-05 0.00010334950000000002 0.055429400000000011 -0.28238649999999993
decision_type=2 2 2 2 2 2 2 2 2 2 2 2 2 2
left_child=1 -1 3 -3 -5 6 -6 8 -2 -10 12 -11 13 -9
right_child=7 2 -4 4 5 -7 -8 10 9 11 -12 -13 -14 -15
leaf_value=0.00052216533909186613 0.00045331327697558602 0.00036949401416037561 0.00011919400481826407 -0.0021915626256556052 0.015251699419071278 -0.000871500069336364 0.00050021363114116386 -0.00043670995930121786 0.00010043543405982398 -0.0001551747783951971 0.00058876177428491541 -0.0020219901163108533 -0.0010629128427302361 0.0022550815069559498
leaf_weight=2303 3773 324 761 972 14.999999999999998 219 85 1320 2106 733 5879 1710 1607 492
leaf_count=2303 3773 324 761 972 15 219 85 1320 2106 733 5879 1710 1607 492
internal_value=0 -0.000136096 -0.000774133 -0.00119508 -0.00158773 0.000252148 0.00271294 3.61404e-05 -0.000198207 -0.000738586 0.000245889 -0.00146187 -0.000343685 0.000294174
internal_weight=0 4679 2376 1615 1291 319 100 17620 8322 4549 9298 2443 3419 1812
internal_count=22299 4679 2376 1615 1291 319 100 17620 8322 4549 9298 2443 3419 1812
shrinkage=0.1


Tree=312
num_leaves=15
num_cat=0
split_feature=32 12 12 32 13 3 23 4 4 13 3 23 34 18
split_gain=0.00990814 0.343396 0.170548 0.193962 0.190474 0.224355 0.198652 0.193962 0.202517 0.169703 0.167806 0.24232 0.205595 0.199774
threshold=0.026996500000000003 3.859090000000001e-05 -1.4277499999999998e-05 0.0052653050000000005 5.5414750000000007e-05 -6.2170999999999994 -6.4198449999999996 0.9753535000000001 -1.2804649999999997 6.9941200000000014e-05 -7.701249999999999 -7.6100699999999994 0.37240250000000003 0.00010406150000000001
decision_type=2 2 2 2 2 2 2 2 2 2 2 2 2 2
left_child=2 -2 3 4 5 6 7 8 -1 10 11 12 13 -3
right_child=1 9 -4 -5 -6 -7 -8 -9 -10 -11 -12 -13 -14 -15
leaf_value=0.00059942153361139839 0.000387079623630792 -0.004660656800805755 0.0003762522067073808 0.00097424562256084347 0.00032252569662567852 0.00034520971495511591 0.0016468234931909715 0.00087302821056661284 -0.0023030343783665718 0.00012424058767585908 -0.00026742226600045546 0.00036044179219372807 -0.00075560343971824823 -7.0876535621784193e-05
leaf_weight=273 5455 564 7472 970 1680 973 196 271 2013 992 731 292 303 114
leaf_count=273 5455 564 7472 970 1680 973 196 271 2013 992 731 292 303 114
internal_value=0 -8.53282e-05 5.20731e-05 -0.000327831 -0.000561462 -0.00096004 -0.00142136 -0.00165654 -0.00195642 -0.00094547 -0.00147499 -0.00216841 -0.00292114 -0.00388892
internal_weight=0 8451 13848 6376 5406 3726 2753 2557 2286 2996 2004 1273 981 678
internal_count=22299 8451 13848 6376 5406 3726 2753 2557 2286 2996 2004 1273 981 678
shrinkage=0.1


Tree=313
num_leaves=15
num_cat=0
split_feature=10 29 23 29 29 20 29 20 26 24 34 34 14 3
split_gain=0.00904023 0.0737095 0.211767 0.284676 0.237114 0.0381901 0.0318844 0.0224013 0.0167873 0.0177786 0.0138942 0.011679 0.0452882 0.0677673
threshold=8.9851850000000023e-06 0.005042345000000001 -11.901299999999997 -0.0067607849999999992 0.00076620300000000013 -3.1714899999999999 0.0018470300000000002 4.4308650000000016 -0.00012642149999999997 -0.30619299999999999 0.043231700000000005 0.56474900000000006 0.0016310700000000003 -6.043429999999999
decision_type=2 2 2 2 2 2 2 2 2 2 2 2 2 2
left_child=1 2 3 -1 -5 8 7 -4 -3 -10 -9 -2 13 -13
right_child=11 5 6 4 -6 -7 -8 10 9 -11 -12 12 -14 -15
leaf_value=-0.0023302047056079443 -3.7700129403500978e-05 0.0016659944071708357 -0.0035738418054409395 0.026210494516734874 0.0049344214238226415 -0.0076641893270425511 0.0046484654769301413 0.0011410686525426086 -0.0055033278945219623 -0.00073394883721549474 -0.0031456832820549608 0.00085386172280687536 -0.00024658776897048087 -0.00039918438607177467
leaf_weight=13.999999999999998 18532 17 28 11.000000000000002 9.9999999999999982 9.9999999999999982 9.9999999999999982 31 10.999999999999998 27 9.9999999999999982 1410 1556 622
leaf_count=14 18532 17 28 11 10 10 10 31 11 27 10 1410 1556 622
internal_value=0 0.000707804 0.00224009 0.00871534 0.016079 -0.00197959 -0.000628691 -0.0013935 -0.000946024 -0.00211456 9.55194e-05 -5.72771e-06 0.00015941 0.000470301
internal_weight=0 179 114 35 21 65 79 69 55 38 41 22120 3588 2032
internal_count=22299 179 114 35 21 65 79 69 55 38 41 22120 3588 2032
shrinkage=0.1


Tree=314
num_leaves=15
num_cat=0
split_feature=31 14 3 0 39 8 0 39 10 0 8 5 17 32
split_gain=0.00871805 0.0378272 0.104767 0.161316 0.507533 0.157522 0.0799204 0.0497013 0.0939663 0.0753595 0.0366841 0.0529365 0.0691705 0.140601
threshold=-0.42787449999999994 0.0022637200000000003 -8.9964949999999977 4.6053300000000013 0.00068107450000000011 -9.0138649999999978e-06 5.0473950000000007 0.0010540050000000002 4.0409750000000004e-05 3.2421850000000005 -9.3843349999999985e-07 1.6986100000000003e-05 1.4333800000000002e-06 -0.028827799999999997
decision_type=2 2 2 2 2 2 2 2 2 2 2 2 2 2
left_child=1 2 3 7 -5 -6 -7 8 9 -1 -4 12 -12 -14
right_child=-2 -3 10 4 5 6 -8 -9 -10 -11 11 -13 13 -15
leaf_value=-0.0016653418037874093 -2.0277355385892937e-05 -0.00032571800407122736 -0.00062507200942467562 0.02119437510640744 0.012763490163100265 0.0077672603889368478 -0.0012116852081625871 0.001414098270547772 0.0064450021646916865 -0.011433799293908206 0.0010691977513253674 -0.00051438442710184478 -0.001364435403692451 0.014287607527027527
leaf_weight=28 20177 846 462 17 11.999999999999998 11.999999999999998 57 169 9.9999999999999982 10.999999999999998 248 227 11.000000000000002 11.999999999999998
leaf_count=28 20177 846 462 17 12 12 57 169 10 11 248 227 11 12
internal_value=0 0.000192807 0.000536594 0.00211594 0.00548579 0.00218893 0.000349871 0.000601061 -0.00220309 -0.00442055 1.6724e-05 0.000612125 0.00155573 0.00680185
internal_weight=0 2122 1276 316 98 81 69 218 49 39 960 498 271 23
internal_count=22299 2122 1276 316 98 81 69 218 49 39 960 498 271 23
shrinkage=0.1


Tree=315
num_leaves=15
num_cat=0
split_feature=35 3 36 28 14 23 7 34 6 17 34 23 36 25
split_gain=0.00923496 0.0401369 0.0608966 0.0712169 0.0649569 0.0854629 0.114675 0.197756 0.117776 0.0941999 0.070272 0.0595671 0.0593985 0.0526109
threshold=-0.0020770149999999993 -15.632649999999998 0.12359200000000001 -0.23584399999999997 0.0038217500000000005 -15.5177 6.7991400000000008e-05 0.37240250000000003 2.2100300000000004e-07 1.8942500000000004e-05 0.19594700000000001 -10.776849999999998 -0.018248399999999998 2.3922450000000004
decision_type=2 2 2 2 2 2 2 2 2 2 2 2 2 2
left_child=1 2 4 -4 10 6 7 -6 9 -9 -1 -7 -10 -12
right_child=-2 -3 3 -5 5 11 -8 8 12 -11 13 -13 -14 -15
leaf_value=0.00085674876223920898 3.3162579830450315e-05 -4.0706632691289794e-05 -0.0012532906635897231 -0.011444363029052815 0.013242233756252312 -0.0029213343073094551 0.012160621356981045 0.0074797759791288294 -0.012151423130523071 -0.0043965887013738131 -0.011649468168616292 0.00044721784032038345 -0.0019780553334082167 -0.0031257898360490797
leaf_weight=17 17620 4322 16.000000000000004 11.999999999999998 10.999999999999998 104 10.999999999999998 17.000000000000004 11.000000000000002 10.999999999999998 14.000000000000002 106 11.999999999999998 14.999999999999998
leaf_count=17 17620 4322 16 12 11 104 11 17 11 11 14 106 12 15
internal_value=0 -0.000124882 -0.00114395 -0.00562089 -0.000762935 -0.000196434 0.002751 0.00108155 -0.00154135 0.00281406 -0.00424815 -0.00122102 -0.00684358 -0.00724067
internal_weight=0 4679 357 28 329 283 73 62 51 28 46 210 23 29
internal_count=22299 4679 357 28 329 283 73 62 51 28 46 210 23 29
shrinkage=0.1


Tree=316
num_leaves=15
num_cat=0
split_feature=16 22 2 4 33 7 15 33 28 2 15 2 22 36
split_gain=0.00905077 0.0736104 0.41318 0.277261 0.327367 0.3242 0.380135 0.298647 0.251338 0.0930108 0.0889354 0.0839908 0.235305 0.0966531
threshold=-1.7593899999999998e-06 2.5523950000000002 2.5598800000000006 -0.52630149999999987 3.7289950000000003e-06 0.00016505050000000004 -1.9934349999999997e-06 1.3741200000000002e-05 0.0028452350000000002 2.0105200000000005 -1.5669949999999999e-06 2.5793250000000003 1.5513750000000004 -0.0081398299999999989
decision_type=2 2 2 2 2 2 2 2 2 2 2 2 2 2
left_child=1 11 9 -4 -5 6 7 -6 -8 -3 -11 13 -13 -1
right_child=-2 2 3 4 5 -7 8 -9 -10 10 -12 12 -14 -15
leaf_value=0.0013819777536645218 -3.8002222647527164e-05 0.00042810010861342175 -0.0029017551128914503 -0.0050672060263773 -0.00092346954762059091 -0.0020377898570866542 0.034999483761688058 0.018799456376915002 0.015277026912995748 -0.011967337571761827 -0.0019984577197950178 -0.00016176108477010241 -0.0046712299162339028 -1.199327003054605e-05
leaf_weight=569 16447 358 23 12.999999999999998 17 12.999999999999998 12.000000000000005 13.999999999999998 13.999999999999998 10.999999999999998 48 667 140 3953
leaf_count=569 16447 358 23 13 17 13 12 14 14 11 48 667 140 3953
internal_value=0 0.000106805 0.00123892 0.00681378 0.00950603 0.0122125 0.0154626 0.00798366 0.0243797 -0.000178194 -0.00385706 -4.30304e-06 -0.000944073 0.000163409
internal_weight=0 5852 523 106 83 70 57 31 26 417 59 5329 807 4522
internal_count=22299 5852 523 106 83 70 57 31 26 417 59 5329 807 4522
shrinkage=0.1


Tree=317
num_leaves=15
num_cat=0
split_feature=9 22 19 3 18 22 17 5 0 20 5 26 20 4
split_gain=0.0090559 0.039205 0.0884673 0.247885 0.118588 0.0399779 0.0331968 0.0509529 0.0375718 0.0460252 0.0292978 0.0271287 0.0840061 0.103506
threshold=-5.3827499999999992e-05 -2.7165849999999998 0.00012994800000000004 -7.1424999999999992 5.8209300000000002e-07 -1.8321399999999997 3.1476000000000005e-07 2.5726150000000004e-05 -9.9535099999999979 -5.553234999999999 2.9403650000000004e-05 -8.3114149999999988e-05 -8.434314999999998 0.055429400000000011
decision_type=2 2 2 2 2 2 2 2 2 2 2 2 2 2
left_child=1 2 3 4 -1 6 7 8 -3 -10 -9 12 13 -7
right_child=-2 5 -4 -5 -6 11 -8 10 9 -11 -12 -13 -14 -15
leaf_value=0.0066864797783394644 -2.0211326432039189e-05 -0.0018850140749355376 -0.00015041572773403101 -0.0010734983736784348 0.020745170637965202 0.00041578297073451367 -0.00019110816692727666 0.0044949188485043125 -0.012740405864024066 -0.0039820568760236107 -0.0014154124140846902 3.611836670145741e-05 0.00061676459270115834 0.013295044569258608
leaf_weight=15.000000000000002 20261 23 91 31 9.9999999999999982 13.000000000000002 199 9.9999999999999982 10.000000000000002 14.999999999999998 52 1170 387 11.999999999999998
leaf_count=15 20261 23 91 31 10 13 199 10 10 15 52 1170 387 12
internal_value=0 0.000200933 0.00177403 0.00490126 0.01231 7.86457e-05 -0.000961725 -0.00235584 -0.00480188 -0.0074854 -0.000462133 0.000281853 0.000979693 0.00659783
internal_weight=0 2038 147 56 25 1891 309 110 48 25 62 1582 412 25
internal_count=22299 2038 147 56 25 1891 309 110 48 25 62 1582 412 25
shrinkage=0.1


Tree=318
num_leaves=15
num_cat=0
split_feature=35 15 15 35 15 3 13 4 21 33 33 2 20 33
split_gain=0.00856372 0.150929 0.0767285 0.163984 0.204441 0.138776 0.149509 0.223368 0.429097 0.864753 0.208353 0.15297 0.132259 0.117131
threshold=-0.0020770149999999993 1.0000000180025095e-35 -3.8530349999999994e-08 0.00018548400000000003 -2.5707899999999997e-06 -6.1233399999999989 -1.8361899999999998e-05 -0.067014849999999973 3.5797050000000001 7.0646800000000006e-06 1.3750400000000002e-06 2.7848050000000004 -4.4436599999999986 1.0642000000000001e-06
decision_type=2 2 2 2 2 2 2 2 2 2 2 2 2 2
left_child=1 -1 3 -2 -5 6 7 8 11 -10 -9 13 -11 -6
right_child=2 -3 -4 4 5 -7 -8 10 9 12 -12 -13 -14 -15
leaf_value=0.00044854121234411354 0.00030598485444029855 -0.0006873584227103138 0.00021413667851768217 6.8782623605315464e-05 0.00030348376901764867 -8.3189737738338717e-06 -0.0023244209414081704 0.00067149282419521705 0.00069507490108072811 0.034635867606848468 -0.006775968527206435 0.0085926153741848598 0.018371863439679146 -0.0077271862417546801
leaf_weight=2336 3428 2343 9998 2106 42 577 1213 89 37 10.000000000000002 65 12.999999999999998 9.9999999999999982 32
leaf_count=2336 3428 2343 9998 2106 42 577 1213 89 37 10 65 13 10 32
internal_value=0 -0.000120258 3.19346e-05 -0.000207065 -0.000626411 -0.0013276 -0.00183138 0.000175505 0.00300677 0.00975079 -0.00247192 -0.00141172 0.0265039 -0.00316924
internal_weight=0 4679 17620 7622 4194 2088 1511 298 144 57 154 87 20 74
internal_count=22299 4679 17620 7622 4194 2088 1511 298 144 57 154 87 20 74
shrinkage=0.1


Tree=319
num_leaves=15
num_cat=0
split_feature=31 11 7 37 16 20 15 5 13 23 16 24 25 9
split_gain=0.0085176 0.0510948 0.114948 0.25495 0.324122 0.11403 0.233174 0.243564 0.0791954 0.0652177 0.0611273 0.105831 0.0954512 0.302785
threshold=-0.42787449999999994 2.8778950000000003e-05 3.4651200000000011e-05 -2.8726249999999996e-07 -2.4959749999999996e-08 3.1591850000000004 3.938350000000001e-08 1.0873100000000001e-05 3.6528400000000008e-05 -11.830699999999998 -3.0334749999999993e-08 -1.6604849999999998 3.2512000000000003 4.0382100000000008e-05
decision_type=2 2 2 2 2 2 2 2 2 2 2 2 2 2
left_child=1 -1 3 4 -3 -5 7 -7 -6 -8 11 -4 13 -12
right_child=-2 2 10 5 8 6 9 -9 -10 -11 12 -13 -14 -15
leaf_value=-0.00013477526329501753 -2.0042889873662763e-05 0.020230511407781808 0.0074169002140739146 -0.0053859815143210733 0.0080264628585427975 0.022426390983164304 -0.0086669726551256397 0.0019926495001917439 -0.0045588794277864513 0.00063156868660977738 -0.0036276592351496221 -0.0015723462527379248 0.00033794041796989991 0.010781509169776526
leaf_weight=1474 20177 18 13.999999999999998 23 10.000000000000002 10.000000000000002 10.999999999999998 13.999999999999998 9.9999999999999982 24 25 203 251 35
leaf_count=1474 20177 18 14 23 10 10 11 14 10 24 25 203 251 35
internal_value=0 0.000190577 0.000930654 0.00372441 0.0104954 0.000586639 0.00291495 0.0105067 0.00173379 -0.00229083 0.00029571 -0.000992395 0.00119448 0.00477769
internal_weight=0 2122 648 120 38 82 59 24 20 35 528 217 311 60
internal_count=22299 2122 648 120 38 82 59 24 20 35 528 217 311 60
shrinkage=0.1


Tree=320
num_leaves=15
num_cat=0
split_feature=35 15 15 18 38 30 3 2 23 20 0 14 5 12
split_gain=0.00841037 0.244174 0.221036 0.277027 0.789487 0.353894 0.467803 0.569079 0.399482 0.403358 1.28133 0.598908 0.299891 0.29704
threshold=0.0014610850000000002 1.6360850000000001e-07 6.8359600000000009e-06 1.7287450000000003e-06 -0.00044897949999999997 0.0051459650000000015 -6.5485099999999994 -1.1509849999999997 -12.434149999999997 6.2654150000000008 6.6959050000000007 0.00051153500000000014 1.3647800000000002e-05 5.2474650000000011e-05
decision_type=2 2 2 2 2 2 2 2 2 2 2 2 2 2
left_child=-1 -2 3 -3 5 6 7 -5 13 11 -11 -10 -13 -9
right_child=1 2 -4 4 -6 -7 -8 8 9 10 -12 12 -14 -15
leaf_value=-3.5466712636938368e-05 -0.00040416156800342955 0.00076392341374903721 -8.3621177880387294e-06 0.00056053742510266602 -0.00059631645669495426 0.001308482865442784 -0.0011577520864084364 -0.0058415533466772583 0.0088308488857001075 -0.0040579623885844884 0.033174172292153047 0.025125351157039396 0.048159597971691538 0.017971818167716265
leaf_weight=16722 3496 616 1101 25 175 48 25 11.000000000000002 9.9999999999999982 19 18 10.000000000000002 12.999999999999998 9.9999999999999982
leaf_count=16722 3496 616 1101 25 175 48 25 11 10 19 18 10 13 10
internal_value=0 0.000106343 0.000963971 0.00205636 0.00424355 0.00872491 0.0112497 0.0139237 0.0175949 0.0212239 0.014055 0.0292617 0.0381447 0.00549815
internal_weight=0 5577 2081 980 364 189 141 116 91 70 37 33 23 21
internal_count=22299 5577 2081 980 364 189 141 116 91 70 37 33 23 21
shrinkage=0.1


Tree=321
num_leaves=15
num_cat=0
split_feature=9 20 3 23 14 23 3 7 3 25 29 4 18 10
split_gain=0.0111892 0.306289 0.226483 0.609962 1.09149 0.880979 0.867735 1.1236 0.67679 0.752949 0.566211 0.6382 0.863259 0.442319
threshold=1.6530500000000004e-05 4.0363950000000015 -7.9089249999999991 -7.8285449999999992 0.00082317850000000021 -11.020599999999998 -11.203999999999999 3.4104350000000008e-05 -11.203999999999999 4.0464100000000007 -0.0049177599999999993 -0.11756599999999999 1.3253850000000001e-06 2.53518e-05
decision_type=2 2 2 2 2 2 2 2 2 2 2 2 2 2
left_child=-1 -2 3 4 5 6 7 -3 -7 10 13 -12 -13 -10
right_child=1 2 -4 -5 -6 8 -8 -9 9 -11 11 12 -14 -15
leaf_value=5.4032212270451529e-05 -0.00053568685027019058 0.00028426441805143104 -0.00017805660819053456 -0.0012719727820866434 0.00057165851943991703 -0.0037907048379285978 -0.0038537439551988711 0.039370014866047617 0.0042930247195597203 -0.0024572622532454823 -0.0042454478515234467 0.023288566386973901 -0.0087204171005975124 0.023491954896599054
leaf_weight=14097 5378 19.000000000000004 1361 488 628 26 95 11.999999999999998 13.999999999999998 26 24 36 10.999999999999998 84
leaf_count=14097 5378 19 1361 488 628 26 95 12 14 26 24 36 11 84
internal_value=0 -9.28666e-05 0.000750436 0.00161419 0.00305876 0.00755991 0.00088679 0.0154142 0.0113645 0.0133852 0.0158225 0.00902216 0.0157971 0.0207493
internal_weight=0 8202 2824 1463 975 347 126 31 221 195 169 71 47 98
internal_count=22299 8202 2824 1463 975 347 126 31 221 195 169 71 47 98
shrinkage=0.1


Tree=322
num_leaves=15
num_cat=0
split_feature=36 5 14 8 7 7 17 9 9 25 8 16 19 1
split_gain=0.0100162 0.039628 0.0796889 0.0600555 0.0428055 0.0534417 0.0591934 0.033797 0.0439639 0.105114 0.0351432 0.0405742 0.0789195 0.0480633
threshold=0.048279850000000006 8.0712700000000014e-06 0.00077369700000000016 3.3939850000000003e-06 2.0669200000000005e-05 2.3589200000000004e-05 1.9849300000000003e-07 3.7933650000000009e-05 3.6140050000000006e-05 21.135400000000004 2.1554750000000002e-05 -7.8065149999999993e-07 0.0007816975000000001 -5.7527549999999996
decision_type=2 2 2 2 2 2 2 2 2 2 2 2 2 2
left_child=-1 2 -2 -4 -3 6 -6 8 10 -10 11 12 -7 -13
right_child=1 4 3 -5 5 7 -8 -9 9 -11 -12 13 -14 -15
leaf_value=-1.735308224195266e-05 0.0012069390206306708 0.0055137228977400815 -0.0016341974462072051 -0.010740996192076378 0.00013704536395380272 -0.0026705335862139711 -0.0089475143306816992 -0.00071481817651775222 -0.0012175770100349415 0.012064560007473286 -0.0013954197573522919 0.0025669345500980191 0.00083902551347810278 0.0006387755728272475
leaf_weight=20898 32 15.999999999999998 15.000000000000002 13.999999999999998 16.000000000000004 93 12.999999999999998 223 13.000000000000002 10.999999999999998 86 176 206 487
leaf_count=20898 32 16 15 14 16 93 13 223 13 11 86 176 206 487
internal_value=0 0.000258847 -0.00223385 -0.00603058 0.000372321 0.000310189 -0.00393534 0.000405262 0.000638264 0.00487007 0.000541353 0.000714495 -0.000252576 0.00115062
internal_weight=0 1401 61 29 1340 1324 29 1295 1072 24 1048 962 299 663
internal_count=22299 1401 61 29 1340 1324 29 1295 1072 24 1048 962 299 663
shrinkage=0.1


Tree=323
num_leaves=15
num_cat=0
split_feature=23 3 14 30 20 20 1 21 30 14 12 3 5 3
split_gain=0.00954205 0.246395 0.469872 0.579332 0.206852 0.39446 0.413625 0.514854 0.272649 0.173344 0.0791259 0.0895516 0.0650739 0.0647942
threshold=-15.973899999999999 -16.135999999999999 0.004937775000000001 0.0013501300000000004 2.3388550000000001 -2.8021899999999995 -2.8062349999999996 2.6536500000000003 0.0015082250000000002 0.00077369700000000016 0.00040041850000000005 -16.889399999999998 1.8763850000000005e-05 -11.019649999999997
decision_type=2 2 2 2 2 2 2 2 2 2 2 2 2 2
left_child=1 2 3 -1 5 10 8 -8 -7 -3 11 -4 -6 -11
right_child=-2 9 4 -5 12 6 7 -9 -10 13 -12 -13 -14 -15
leaf_value=0.026017197809721296 -2.2723203046535358e-05 0.00078623683413435962 -0.0089481138178835757 0.0013225909616602096 -0.0085015630155491333 0.031297444268553083 -0.011162730785352841 0.01854597494704649 0.0084827208146452913 -0.0017499406757978727 0.0039035097445146399 0.0014355901229114699 0.0010998977627605202 -0.00022106511162445751
leaf_weight=19 19898 1126 22.999999999999996 19 24 11.000000000000002 14.000000000000002 9.9999999999999982 9.9999999999999982 547 12.999999999999998 13.000000000000002 9.9999999999999982 562
leaf_count=19 19898 1126 23 19 24 11 14 10 10 547 13 13 10 562
internal_value=0 0.000188316 0.00390542 0.0136699 0.00100659 0.00342428 0.010184 0.0012159 0.0204333 -8.77644e-05 -0.00278364 -0.00519844 -0.0056776 -0.000975163
internal_weight=0 2401 166 38 128 94 45 24 21 2235 49 36 34 1109
internal_count=22299 2401 166 38 128 94 45 24 21 2235 49 36 34 1109
shrinkage=0.1


Tree=324
num_leaves=15
num_cat=0
split_feature=15 31 14 7 19 23 3 16 20 20 25 15 0 14
split_gain=0.0103304 0.0199084 0.034865 0.0195128 0.0268433 0.0179013 0.111575 0.18995 0.290455 0.305795 0.344196 0.242766 0.102329 0.0926682
threshold=5.5160550000000007e-06 -5.1979949999999988 0.065046350000000017 3.6213150000000004e-05 0.017726350000000005 -16.571949999999998 -16.772799999999997 4.5816150000000005e-06 2.3388550000000001 -2.4769049999999995 1.0560900000000004 -1.5288449999999994e-05 1.2085650000000003 0.0022170600000000003
decision_type=2 2 2 2 2 2 2 2 2 2 2 2 2 2
left_child=5 2 3 -2 -5 6 7 8 9 11 -11 -1 -9 -8
right_child=1 -3 -4 4 -6 -7 13 12 -10 10 -12 -13 -14 -15
leaf_value=0.013763308129273356 -0.0056653620708467705 0.00016677500972182721 0.0033139639390775792 -0.00031608657785303271 -0.0058653480881317097 -6.5048229854681666e-05 0.00056654947694850875 -0.009937867537761727 -0.0079439906775951395 0.031758875061165197 0.0061248957738280303 -0.0077648563310503934 0.0037589489918900655 -0.0011962470431369442
leaf_weight=9.9999999999999982 13.999999999999998 4299 12.999999999999998 42 10.999999999999998 16310 1131 12.000000000000002 9.9999999999999982 11.000000000000002 9.9999999999999982 11.000000000000002 9.9999999999999982 405
leaf_count=10 14 4299 13 42 11 16310 1131 12 10 11 10 11 10 405
internal_value=0 0.000137688 -0.00142535 -0.00234492 -0.00146782 -3.36461e-05 0.000284471 0.00407718 0.00737262 0.0110194 0.0195522 0.00248665 -0.00371204 0.00010175
internal_weight=0 4379 80 67 53 17920 1610 74 52 42 21 21 22 1536
internal_count=22299 4379 80 67 53 17920 1610 74 52 42 21 21 22 1536
shrinkage=0.1


Tree=325
num_leaves=15
num_cat=0
split_feature=34 11 7 14 3 33 13 19 4 33 30 7 13 9
split_gain=0.00950579 0.0339435 0.0409266 0.0292954 0.0623095 0.049213 0.146939 0.308009 0.459091 0.133175 0.268295 0.124383 0.0816975 0.0773679
threshold=0.56474900000000006 3.3620300000000007e-05 2.3357900000000006e-05 0.0011223800000000003 -6.2170999999999994 -9.4311049999999972e-06 3.2114050000000008e-05 1.6747050000000002e-07 0.07672420000000002 -1.6173049999999996e-05 0.0015579700000000003 4.389680000000001e-05 3.6063350000000008e-05 -4.3193999999999988e-06
decision_type=2 2 2 2 2 2 2 2 2 2 2 2 2 2
left_child=3 -2 -3 4 -1 6 11 8 9 10 -8 13 -9 -5
right_child=1 2 -4 5 -6 -7 7 12 -10 -11 -12 -13 -14 -15
leaf_value=-0.00033753244629422795 0.0003280165855211829 -0.0064366927709091793 -0.00030054377049028113 -0.0010962967230810628 0.00017936675513249555 0.00021954739864315332 0.017054603384299708 0.0081044755798454094 0.021271558204556215 -0.0063137732400459102 -0.0055772090842947366 -9.4854469810548656e-05 -0.00019510299010824409 -0.0044419259642770126
leaf_weight=6279 2693 10.999999999999998 917 113 3710 7067 11.000000000000002 11.999999999999998 17 13.999999999999998 9.9999999999999982 248 1019 178
leaf_count=6279 2693 11 917 113 3710 7067 11 12 17 14 10 248 1019 178
internal_value=0 0.000148287 -0.000373278 -2.87475e-05 -0.000145552 0.000105532 -0.000391228 0.000280236 0.00778947 0.00124102 0.00627755 -0.00174039 -9.85027e-05 -0.00314276
internal_weight=0 3621 928 18678 9989 8689 1622 1083 52 35 21 539 1031 291
internal_count=22299 3621 928 18678 9989 8689 1622 1083 52 35 21 539 1031 291
shrinkage=0.1


Tree=326
num_leaves=15
num_cat=0
split_feature=10 20 20 14 23 23 3 3 1 3 29 34 34 3
split_gain=0.0092374 0.160336 0.435345 0.289811 0.402282 0.504658 1.21633 0.561606 0.431963 0.359541 0.33751 0.237467 0.194947 0.310242
threshold=1.2977750000000001e-05 2.3388550000000001 -3.0532049999999997 0.0015937550000000003 -13.919899999999997 -9.4058299999999981 -8.403439999999998 -8.4709699999999994 -6.5349399999999997 -7.0237749999999997 1.0000000180025095e-35 0.10165100000000001 0.096511600000000017 -14.261949999999997
decision_type=2 2 2 2 2 2 2 2 2 2 2 2 2 2
left_child=1 2 -1 4 -4 6 8 -7 -6 10 -9 -10 -5 -14
right_child=-2 -3 3 12 5 7 -8 9 11 -11 -12 -13 13 -15
leaf_value=-0.00068126020387229756 -1.7803882392792141e-05 -0.0010355066124747298 -0.0012318316644624524 -0.0019291160348463732 0.012639407525685702 -0.0067734246167154722 -0.0029414798543592425 0.0060757917098023658 0.046393742264869302 0.0006485174565265577 0.029483194559413409 0.025528544292319568 0.0094665304742838179 -0.0010166695889422736
leaf_weight=588 20714 612 46 103 10.999999999999998 28 19 11.000000000000002 12.000000000000002 18 13.999999999999998 9.9999999999999982 55 58
leaf_count=588 20714 612 46 103 11 28 19 11 12 18 14 10 55 58
internal_value=0 0.000232675 0.00103034 0.00364442 0.0067462 0.00972985 0.0172145 0.00424811 0.0288195 0.0114249 0.0191839 0.0369096 0.00121756 0.00408577
internal_weight=0 1585 973 385 169 123 52 71 33 43 25 22 216 113
internal_count=22299 1585 973 385 169 123 52 71 33 43 25 22 216 113
shrinkage=0.1


Tree=327
num_leaves=15
num_cat=0
split_feature=10 24 25 4 15 13 26 39 32 26 24 30 10 20
split_gain=0.0101135 0.0599938 0.147602 0.30715 0.0611288 0.0463744 0.0304031 0.0302022 0.0282006 0.0195714 0.0129834 0.0109714 0.0535694 0.0667726
threshold=8.9851850000000023e-06 -0.17198749999999999 0.88139100000000015 -0.12416399999999998 8.7851900000000014e-07 8.9416450000000024e-06 0.00024226000000000003 8.2300850000000017e-06 0.23476300000000003 -0.00010819599999999998 -0.10456799999999998 0.0035145550000000004 9.8105600000000012e-06 -3.0347149999999998
decision_type=2 2 2 2 2 2 2 2 2 2 2 2 2 2
left_child=1 2 3 -1 7 6 -4 10 9 -9 -3 -2 13 -13
right_child=11 4 5 -5 -6 -7 -8 8 -10 -11 -12 12 -14 -15
leaf_value=0.020629023411311204 -3.6819730563135697e-05 -0.002860436853106049 0.0058371321880258606 -0.0031008903309702874 0.0046071299964464026 -0.0049951163299348476 -0.0010223399614915252 -0.0027933564554486015 9.9283162853680551e-05 -0.0076842283053944489 0.0010408088025685989 -0.0012942461010355217 0.00011806808392983424 0.0080066704399589638
leaf_weight=12.000000000000002 18576 10.999999999999998 12.000000000000002 9.9999999999999982 19 13.999999999999998 13.999999999999998 17.999999999999996 15.999999999999998 15.000000000000002 38 12.999999999999998 3512 19
leaf_count=12 18576 11 12 10 19 14 14 18 16 15 38 13 3512 19
internal_value=0 0.000748641 0.00326356 0.0098427 -0.000584051 -0.00035497 0.00214357 -0.0015905 -0.00334603 -0.00501648 0.000165019 -6.05817e-06 0.00015518 0.00422817
internal_weight=0 179 62 22 117 40 26 98 49 33 49 22120 3544 32
internal_count=22299 179 62 22 117 40 26 98 49 33 49 22120 3544 32
shrinkage=0.1


Tree=328
num_leaves=15
num_cat=0
split_feature=16 22 2 23 3 11 20 0 3 16 21 16 11 14
split_gain=0.0089384 0.0630854 0.197758 0.323512 0.553399 0.481081 0.518174 0.565821 0.22242 0.203951 0.141999 0.223453 0.097258 0.0960677
threshold=-1.7593899999999998e-06 2.1382650000000005 2.0840000000000005 -9.4058299999999981 -9.4020749999999982 -9.474599999999999e-05 -5.6526349999999992 -5.2033249999999986 -9.5163149999999987 -3.1018899999999996e-06 3.1700450000000004 -3.4484549999999995e-05 -3.4234449999999995e-05 0.0015937550000000003
decision_type=2 2 2 2 2 2 2 2 2 2 2 2 2 2
left_child=1 -1 -3 4 5 10 -7 -8 13 12 11 -4 -10 -5
right_child=-2 2 3 8 -6 6 7 -9 9 -11 -12 -13 -14 -15
leaf_value=-3.4200223744653425e-05 -3.7765575588139856e-05 -6.0425053349884059e-05 8.5756566841155296e-05 -0.010584452278588129 -0.0015488305848677933 0.029883312918245794 -0.0057698512416599059 0.020724642433618247 -0.0023133661294581767 0.015563752806999467 -0.0045587162665469807 0.019141246043145651 0.0089440789399668572 -0.0018621559550021111
leaf_weight=4948 16447 646 15.999999999999998 23 58 20 13.999999999999998 19 33 10.999999999999998 15.999999999999998 10.000000000000002 9.9999999999999982 28
leaf_count=4948 16447 646 16 23 58 20 14 19 33 11 16 10 10 28
internal_value=0 0.00010614 0.000874284 0.00321468 0.00614817 0.0108474 0.0171822 0.00948455 -0.00105983 0.00341298 0.00285345 0.00741479 0.000304644 -0.00579574
internal_weight=0 5852 904 258 153 95 53 33 105 54 42 26 43 51
internal_count=22299 5852 904 258 153 95 53 33 105 54 42 26 43 51
shrinkage=0.1


Tree=329
num_leaves=15
num_cat=0
split_feature=23 3 14 3 3 3 23 13 3 33 16 16 33 3
split_gain=0.0094998 0.0568195 0.0520417 0.0485083 0.0406457 0.0654733 0.617618 0.32551 0.687067 1.12446 0.791314 0.537164 0.409071 0.404713
threshold=-7.6950299999999991 -10.742099999999999 0.00063647700000000009 -10.813299999999998 -8.403439999999998 -6.8774499999999987 -7.0146399999999991 3.3590300000000003e-06 -7.7590199999999987 -1.117395e-06 -3.7555499999999996e-06 5.1028300000000007e-07 -1.4449499999999998e-06 -7.3418849999999987
decision_type=2 2 2 2 2 2 2 2 2 2 2 2 2 2
left_child=3 2 -2 -1 -3 6 7 8 -6 -10 -11 13 -9 -12
right_child=1 4 -4 -5 5 -7 -8 12 9 10 11 -13 -14 -15
leaf_value=-0.00030116462817299217 0.0030070364658990093 -0.00059469365573413949 0.00044710900838684521 7.5886354691230215e-05 -0.0018901643060617373 -0.00024960703438260814 -0.0011899398238820037 0.0051074115041486639 -0.0027414707173432505 -0.0024056011578068139 0.040712699557051951 0.0066331360178689168 -0.0022540488999552603 0.021513242707137139
leaf_weight=4950 83 1185 1838 10982 59 2075 709 153 38 14.999999999999998 16.999999999999996 14.999999999999998 149 31.000000000000004
leaf_count=4950 83 1185 1838 10982 59 2075 709 153 38 15 17 15 149 31
internal_value=0 0.000103248 0.000557715 -4.12617e-05 -9.3115e-05 8.91514e-05 0.000681836 0.00346399 0.00689568 0.0113643 0.0182364 0.0231512 0.00147543 0.0283131
internal_weight=0 6367 1921 15932 4446 3261 1186 477 175 116 78 63 302 48
internal_count=22299 6367 1921 15932 4446 3261 1186 477 175 116 78 63 302 48
shrinkage=0.1


Tree=330
num_leaves=15
num_cat=0
split_feature=23 3 3 3 14 23 23 6 37 2 3 23 14 12
split_gain=0.0110889 0.0492346 0.0805463 0.124819 0.248538 0.26374 0.124409 0.255 0.0788236 0.0773373 0.0761841 0.143533 0.318297 0.286651
threshold=-6.9441449999999989 -10.645549999999998 -7.0237749999999997 -7.701249999999999 0.00048853650000000009 -6.4589649999999992 -6.9149849999999988 1.7172900000000002e-06 -1.4670549999999998e-07 1.4958200000000001 -6.401514999999999 -6.6126999999999994 0.000163587 4.3149550000000008e-05
decision_type=2 2 2 2 2 2 2 2 2 2 2 2 2 2
left_child=-1 -2 3 -3 5 9 7 -4 -6 -5 11 12 13 -8
right_child=1 2 6 4 8 -7 10 -9 -10 -11 -12 -13 -14 -15
leaf_value=-3.1803703199670775e-05 0.00069975215370696859 -0.00014224496640530995 -0.0015083999173449616 -0.0070122085418552168 0.0099072271026670947 -0.0010657080181016262 0.0062781237948097693 0.018837632433595985 0.00052697388599098796 -0.013832358432852705 -0.00014175540523486539 5.9242011130508854e-05 -0.0008832077999065247 0.024634054191410543
leaf_weight=18530 1156 1001 14.000000000000002 60 9.9999999999999982 89 57 10.999999999999998 86 23 960 229 63 9.9999999999999982
leaf_count=18530 1156 1001 14 60 10 89 57 11 86 23 960 229 63 10
internal_value=0 0.00015636 -8.40378e-05 -0.000655414 -0.00257214 -0.00484724 0.000455453 0.00744385 0.00150408 -0.00890213 0.000322997 0.00156579 0.00421963 0.00901781
internal_weight=0 3769 2613 1269 268 172 1344 25 96 83 1319 359 130 67
internal_count=22299 3769 2613 1269 268 172 1344 25 96 83 1319 359 130 67
shrinkage=0.1


Tree=331
num_leaves=15
num_cat=0
split_feature=15 38 36 15 33 7 29 33 0 3 23 31 14 13
split_gain=0.0101302 0.0246897 0.0362185 0.0149028 0.126656 0.154006 0.0622089 0.0646584 0.0285976 0.0175763 0.0818948 0.0499742 0.106451 0.102208
threshold=5.5160550000000007e-06 40.11225000000001 -6.5773949999999992 6.8359600000000009e-06 3.2514000000000008e-05 3.3444700000000009e-05 -0.015805299999999998 1.0061280000000002e-05 -3.6001199999999995 -11.019649999999997 -10.543449999999998 -0.10043149999999999 0.0079674900000000024 -7.0240599999999979e-05
decision_type=2 2 2 2 2 2 2 2 2 2 2 2 2 2
left_child=-1 2 -2 4 6 -6 -4 8 -8 10 11 13 -13 -5
right_child=1 -3 3 9 5 -7 7 -9 -10 -11 -12 12 -14 -15
leaf_value=-3.3318437994831635e-05 0.0058791442604904827 -0.0045953362926163454 0.0064344954643664621 0.0076803520739571578 0.017302438332699233 -0.00024782361928373577 0.0040706359163296462 -0.0061530469606320068 -0.00034465572018710524 0.00025557016853689261 0.00043662785033047013 -0.0044086376940166315 -0.00076342440616186528 -0.00040948722501828644
leaf_weight=17920 10.999999999999998 10.999999999999998 13.999999999999998 17 10.000000000000002 9.9999999999999982 17 18 107 2602 927 105 338 192
leaf_count=17920 11 11 14 17 10 10 17 18 107 2602 927 105 338 192
internal_value=0 0.000136348 0.000148264 0.000133795 0.00103521 0.00852731 7.46842e-05 -0.000552339 0.000260667 9.58497e-05 -0.00016735 -0.00102607 -0.00162741 0.000248538
internal_weight=0 4379 4368 4357 176 20 156 142 124 4181 1579 652 443 209
internal_count=22299 4379 4368 4357 176 20 156 142 124 4181 1579 652 443 209
shrinkage=0.1


Tree=332
num_leaves=15
num_cat=0
split_feature=23 3 3 23 3 19 26 3 33 0 31 13 3 6
split_gain=0.00960566 0.0298081 0.0910851 0.221261 0.419116 0.120325 0.198405 0.179492 0.137038 0.11912 0.148249 0.0899725 0.0738097 0.111061
threshold=-6.5395699999999986 -6.0971649999999995 -6.5485099999999994 -6.4403949999999996 -6.3788349999999996 1.5736100000000003e-05 -4.9513499999999993e-05 -6.3788349999999996 1.4131300000000003e-06 -1.1146249999999998 -0.0060021299999999988 3.3590300000000003e-06 -7.6471949999999991 2.8739100000000004e-06
decision_type=2 2 2 2 2 2 2 2 2 2 2 2 2 2
left_child=-1 2 12 4 -4 6 7 -5 -7 -8 -11 -6 -2 -14
right_child=1 -3 3 5 11 8 9 -9 -10 10 -12 -13 13 -15
leaf_value=-2.1577119309631877e-05 0.00046679133993021899 -0.00054720532233233339 0.020964575909516392 0.0010512098204344508 0.0086644389666616899 -0.006035078242088536 0.0090234911069273956 0.017459692558428896 0.0030963355261418558 0.0024258799478411677 -0.010488458967301995 -0.0031659140992107699 -0.00031238025945747857 -0.0051286349961931904
leaf_weight=20124 1262 429 17 12.000000000000002 10.000000000000002 42 9.9999999999999982 14.999999999999998 27 20 15.999999999999998 18 237 60
leaf_count=20124 1262 429 17 12 10 42 10 15 27 20 16 18 237 60
internal_value=0 0.00019964 0.000383144 0.00246861 0.00857902 0.000532217 0.00336229 0.010167 -0.00246192 -0.000631801 -0.00331383 0.00105921 0.000132995 -0.00128536
internal_weight=0 2175 1746 187 45 142 73 27 69 46 36 28 1559 297
internal_count=22299 2175 1746 187 45 142 73 27 69 46 36 28 1559 297
shrinkage=0.1


Tree=333
num_leaves=15
num_cat=0
split_feature=4 27 24 36 3 23 35 24 37 13 1 26 4 31
split_gain=0.00898304 0.0266768 0.0201609 0.0539832 0.0246889 0.161502 0.0769046 0.0338673 0.0286158 0.0270653 0.0254023 0.0175679 0.0786855 0.197819
threshold=0.93067350000000004 111.70800000000001 -0.074307899999999982 0.67546950000000006 -16.772799999999997 -15.905149999999997 0.020076150000000004 0.44346200000000008 -9.2867399999999981e-06 -1.1029249999999998e-05 1.6943650000000001 -0.00010270049999999998 0.18455250000000004 -0.017663249999999995
decision_type=2 2 2 2 2 2 2 2 2 2 2 2 2 2
left_child=11 2 -2 4 5 -4 7 -7 10 -10 -6 12 -1 -14
right_child=1 -3 3 -5 8 6 -8 -9 9 -11 -12 -13 13 -15
leaf_value=-2.8270960184820094e-05 0.00037274886854371525 -0.0043875426251571087 0.011801214672875806 0.0063477957903300053 -0.0074852548236958652 -0.00022429799000525327 0.0083057346963323654 -0.0061334992843595426 0.00076266679636077534 -0.00031920756757988111 -0.00088625867917601546 -8.3074040160232979e-05 0.0030762991445256265 -0.0005479740498941601
leaf_weight=3558 2018 12.999999999999998 12.999999999999998 12.999999999999998 10.000000000000002 82 9.9999999999999982 10.999999999999998 271 1576 13.999999999999998 14107 292 311
leaf_count=3558 2018 13 13 13 10 82 10 11 271 1576 14 14107 292 311
internal_value=0 0.000135116 0.000149749 -7.52575e-05 -0.000117281 0.00129838 -2.72192e-05 -0.000923236 -0.00020505 -0.00016047 -0.00363584 -2.98147e-05 0.00015075 0.00120706
internal_weight=0 4031 4018 2000 1987 116 103 93 1871 1847 24 18268 4161 603
internal_count=22299 4031 4018 2000 1987 116 103 93 1871 1847 24 18268 4161 603
shrinkage=0.1


Tree=334
num_leaves=15
num_cat=0
split_feature=4 18 20 9 33 28 36 19 22 12 0 26 26 23
split_gain=0.00888028 0.0319203 0.103951 0.324633 0.822579 0.651435 0.244447 0.393812 0.231954 0.375557 0.188456 0.194112 0.133448 0.137588
threshold=-0.49158199999999991 -9.5550599999999983e-06 3.2916800000000004 2.2583300000000001e-05 9.0050600000000018e-06 -0.0040755249999999991 -0.00032488999999999993 3.1037600000000004e-06 -0.44259199999999993 -9.6573999999999987e-05 3.1068900000000004 5.9383900000000006e-05 5.264570000000001e-05 -9.2496549999999989
decision_type=2 2 2 2 2 2 2 2 2 2 2 2 2 2
left_child=-1 2 10 12 6 8 7 -5 9 -6 -2 -12 -4 -14
right_child=1 -3 3 4 5 -7 -8 -9 -10 -11 11 -13 13 -15
leaf_value=0.00011888338563831962 -5.6255210809963259e-05 1.2218285050886016e-05 0.00059581595398747005 0.019560148293773335 0.015992021448328158 0.036629916092550216 -0.0025496100080272303 -0.00017757162455499413 0.01767929985790568 -0.010784330015832727 -0.00091318303503309549 -0.0053608218650649173 -0.0056145684965150924 -0.00014262010344680859
leaf_weight=4902 749 15618 245 14.999999999999998 9.9999999999999982 10.999999999999998 100 31 17.000000000000004 10.999999999999998 240 166 95 89
leaf_count=4902 749 15618 245 15 10 11 100 31 17 11 240 166 95 89
internal_value=0 -3.34981e-05 -0.000434846 0.000605135 0.00398824 0.0151994 0.000225592 0.00625864 0.00899581 0.00196631 -0.000996706 -0.00273168 -0.000932639 -0.00296781
internal_weight=0 17397 1779 624 195 49 146 46 38 21 1155 406 429 184
internal_count=22299 17397 1779 624 195 49 146 46 38 21 1155 406 429 184
shrinkage=0.1


Tree=335
num_leaves=15
num_cat=0
split_feature=10 31 23 31 29 37 23 35 36 3 7 35 30 37
split_gain=0.00848856 0.0605445 0.173294 0.306417 0.0402061 0.022583 0.0194564 0.0173408 0.0128921 0.0122982 0.00990388 0.0455888 0.0541797 0.0312703
threshold=8.9851850000000023e-06 0.052070850000000009 -11.901299999999997 -0.090617699999999982 0.0021838850000000004 -3.9514549999999996e-08 -11.020599999999998 -0.0051262549999999988 -8.5100049999999985e-05 -14.261949999999997 1.2760950000000002e-05 -0.00013653549999999997 0.00011728500000000001 -2.2551749999999998e-07
decision_type=2 2 2 2 2 2 2 2 2 2 2 2 2 2
left_child=1 2 3 -1 5 9 7 -3 -9 -4 11 12 -2 -14
right_child=10 6 4 -5 -6 -7 -8 8 -10 -11 -12 -13 13 -15
leaf_value=-0.0017438746290281415 0.0077865578979253768 -0.00062101229268591858 -0.0016312929149717088 0.017537104838308604 0.005507557466626168 -0.00013509164773859084 0.00034293813104913746 -0.0071746605681255451 -0.0024350950748405673 -0.0065907681640237567 -1.1481700370075589e-07 -0.0025902522829909847 0.0049756507246638652 -0.001130401257083017
leaf_weight=15.999999999999998 9.9999999999999982 15.999999999999998 10.000000000000002 17 9.9999999999999982 50 27 12 11 9.9999999999999982 21975 73 9.9999999999999982 52
leaf_count=16 10 16 10 17 10 50 27 12 11 10 21975 73 10 52
internal_value=0 0.000685868 0.00209141 0.00818875 -0.000423745 -0.00127107 -0.00172059 -0.00314918 -0.00490791 -0.00411103 -5.55019e-06 -0.000829291 0.000956128 -0.000145554
internal_weight=0 179 113 33 80 70 66 39 23 20 22120 145 72 62
internal_count=22299 179 113 33 80 70 66 39 23 20 22120 145 72 62
shrinkage=0.1


Tree=336
num_leaves=15
num_cat=0
split_feature=19 38 18 30 18 34 33 38 33 3 33 3 26 14
split_gain=0.00834641 0.0692382 0.21849 0.560932 0.068154 0.406434 0.294646 0.103427 0.098756 0.112767 0.110303 0.281633 0.361369 0.0911422
threshold=6.1722700000000013e-08 0.00015228100000000001 -1.6727099999999997e-06 0.00035219550000000003 -7.0636449999999989e-07 0.020958400000000005 -6.5279749999999985e-07 0.00054303500000000009 -1.2724099999999997e-07 -14.372349999999999 -1.1859599999999999e-05 -10.813299999999998 7.5785850000000012e-05 0.00031573000000000001
decision_type=2 2 2 2 2 2 2 2 2 2 2 2 2 2
left_child=1 -1 3 -3 5 6 -4 -7 9 -6 11 12 -11 -9
right_child=-2 2 4 -5 8 7 -8 13 -10 10 -12 -13 -14 -15
leaf_value=-0.0002051470381281599 -2.811457824985846e-05 0.027175488982307303 0.02214228142984211 7.7314420603215707e-05 -0.0071196477672156814 -0.0088284465502231173 0.001873952214821027 -0.0011972309730481356 0.001033655875223486 0.025734713878482581 -0.0015647502273514831 -8.8736051063658902e-05 0.0028081552845171907 0.0068180636784649987
leaf_weight=2367 18411 10.999999999999998 16.000000000000004 25 26 12.999999999999998 12.999999999999998 56 761 9.9999999999999982 336 213 22 19
leaf_count=2367 18411 11 16 25 26 13 13 56 761 10 336 213 22 19
internal_value=0 0.000133132 0.000659566 0.00835731 0.000472954 0.00278946 0.0130565 -0.000593995 0.000274833 -0.000676509 -0.000388176 0.00122541 0.0099727 0.00083331
internal_weight=0 3888 1521 36 1485 117 29 88 1368 607 581 245 32 75
internal_count=22299 3888 1521 36 1485 117 29 88 1368 607 581 245 32 75
shrinkage=0.1


Tree=337
num_leaves=15
num_cat=0
split_feature=23 3 26 3 6 21 18 3 20 25 3 13 9 11
split_gain=0.00874686 0.0321238 0.0327083 0.0710853 0.0331629 0.183837 0.0554109 0.124117 0.0312364 0.0304994 0.0411341 0.0286454 0.0407757 0.0924418
threshold=-6.467369999999999 -6.0971649999999995 0.0070726800000000005 -5.5150299999999985 -1.3214249999999998e-06 12.701400000000001 1.4970650000000002e-07 -5.6811349999999994 11.655300000000002 0.20999350000000003 -5.4478849999999985 0.00010147550000000001 -1.2248099999999997e-05 -8.2571149999999986e-06
decision_type=2 2 2 2 2 2 2 2 2 2 2 2 2 2
left_child=-1 11 4 -4 5 -3 8 -8 9 10 -6 12 13 -2
right_child=1 2 3 -5 6 -7 7 -9 -10 -11 -12 -13 -14 -15
leaf_value=-1.8976391524805875e-05 0.0012172924415651456 -0.00032989664073503609 -0.010112320445477961 0.00081031937152147297 0.0069938763976097086 0.012083465104492812 -0.013034241584440075 -0.0012048061841222295 0.0050873644975945355 -0.0014817720958575902 -0.00085413231230203944 -0.00035822549727601832 0.00020808214441961448 0.010950514245778323
leaf_weight=20424 403 145 11.000000000000002 12.999999999999998 11.000000000000002 12.999999999999998 11.999999999999998 34 9.9999999999999982 106 17 365 725 9.9999999999999982
leaf_count=20424 403 145 11 13 11 13 12 34 10 106 17 365 725 10
internal_value=0 0.000206706 -0.000625289 -0.00419589 -0.00037904 0.000691456 -0.00126924 -0.00429075 -0.00030404 -0.000706384 0.00222901 0.000412629 0.000659871 0.00145296
internal_weight=0 1875 372 24 348 158 190 46 144 134 28 1503 1138 413
internal_count=22299 1875 372 24 348 158 190 46 144 134 28 1503 1138 413
shrinkage=0.1


Tree=338
num_leaves=15
num_cat=0
split_feature=3 34 3 25 37 17 36 17 25 12 16 34 39 19
split_gain=0.00883469 0.0283654 0.0391659 0.0497376 0.0566746 0.0441991 0.0354578 0.0457827 0.0261045 0.0322814 0.074631 0.03042 0.0258426 0.0424484
threshold=-6.3643949999999991 0.0035974100000000005 -6.1514349999999984 0.23447100000000001 -1.6253999999999998e-08 1.0390700000000002e-07 0.00010273500000000001 1.3367700000000001e-07 30.297000000000004 -0.00014554349999999997 1.1389700000000002e-05 1.3926050000000003 6.639340000000001e-07 2.2494150000000003e-09
decision_type=2 2 2 2 2 2 2 2 2 2 2 2 2 2
left_child=12 2 3 4 5 -2 7 -6 -3 -10 11 -11 13 -1
right_child=1 8 -4 -5 6 -7 -8 -9 9 10 -12 -13 -14 -15
leaf_value=0.0042901638980644445 0.00602143474926169 0.00022075305438348371 -0.00021230669845283539 -0.0092880989424884326 -0.010884350980632005 -0.0020760989095184152 -0.00040160746139008554 -0.0023187341670004224 -0.0063310527687214999 -0.0061422295072892062 0.0076196756353601822 -0.0008575391776611146 -5.80251731804688e-05 0.0004245586405230374
leaf_weight=30 13.000000000000002 4743 331 9.9999999999999982 12.000000000000002 13.999999999999998 15.999999999999998 12.999999999999998 10.999999999999998 11.999999999999998 9.9999999999999982 118 16431 535
leaf_count=30 13 4743 331 10 12 14 16 13 11 12 10 118 16431 535
internal_value=0 0.000112685 -0.000687342 -0.00270319 -0.00173483 0.00182271 -0.0040776 -0.00643023 0.000179544 -0.00111484 -0.000704997 -0.00134536 -3.51593e-05 0.000629812
internal_weight=0 5303 409 78 68 27 41 25 4894 151 140 130 16996 565
internal_count=22299 5303 409 78 68 27 41 25 4894 151 140 130 16996 565
shrinkage=0.1


Tree=339
num_leaves=15
num_cat=0
split_feature=20 0 5 38 5 21 23 14 11 10 0 2 18 3
split_gain=0.00823983 0.121237 0.16357 0.206006 0.126186 0.117032 0.089182 0.068126 0.0626618 0.0489779 0.0529896 0.0411707 0.0410702 0.0601423
threshold=-10.027099999999999 -8.4201249999999987 1.2879950000000002e-05 0.00019369400000000003 1.0329650000000002e-05 0.83299200000000007 -6.2589399999999991 0.0015115800000000002 -0.00016716899999999997 9.040685000000002e-05 -7.4530999999999992 1.0615900000000003 1.1728650000000001e-06 -6.3643949999999991
decision_type=2 2 2 2 2 2 2 2 2 2 2 2 2 2
left_child=1 2 3 4 -1 -6 12 9 -9 10 -3 -11 13 -4
right_child=-2 7 6 -5 5 -7 -8 8 -10 11 -12 -13 -14 -15
leaf_value=-0.002851958518080852 -1.5564676281556406e-05 -0.0054163244289897935 0.0040909972832872512 0.018186557550842947 0.016000206743113015 0.0019852844783319877 0.0090264361545753981 -0.0011641327914710725 0.0013338933659724718 0.00073339957408069707 -0.00088251676056595339 0.0079255643533542759 -0.0030968123828643002 -0.00092113369307386867
leaf_weight=17 20927 27 39 12.999999999999998 11.000000000000002 12.999999999999998 11.999999999999998 135 392 39 570 9.9999999999999982 32 62
leaf_count=17 20927 27 39 13 11 13 12 135 392 39 570 10 32 62
internal_value=0 0.000237407 0.00251965 0.00721765 0.0037397 0.00840879 0.000770054 -0.000149777 0.000693982 -0.000838107 -0.00108756 0.00220119 2.51174e-05 0.00101424
internal_weight=0 1372 199 54 41 24 145 1173 527 646 597 49 133 101
internal_count=22299 1372 199 54 41 24 145 1173 527 646 597 49 133 101
shrinkage=0.1


Tree=340
num_leaves=15
num_cat=0
split_feature=1 21 3 23 35 23 3 3 14 19 21 3 34 21
split_gain=0.00853525 0.276395 0.732472 0.111388 0.0628096 0.0524828 0.056812 0.0802564 0.0663629 0.0886899 0.0475723 0.042403 0.0838815 0.0795267
threshold=-10.689749999999998 -11.227849999999998 -6.3047499999999994 -6.3575349999999995 1.0000000180025095e-35 -6.5601399999999996 -5.9423249999999994 -6.5745499999999995 0.00045896000000000006 1.8546550000000004e-07 -3.0737249999999996 -6.1514349999999984 0.0057854800000000008 -9.3347499999999979
decision_type=2 2 2 2 2 2 2 2 2 2 2 2 2 2
left_child=1 2 -1 -4 -5 10 7 -7 9 -9 11 12 -3 -14
right_child=-2 5 3 4 -6 6 -8 8 -10 -11 -12 -13 13 -15
leaf_value=0.023624815170963608 -1.6465666392380956e-05 -0.011256089322268964 -0.0011622275968230413 0.0019484898727750982 0.013156483876518904 0.0014188075197550159 -0.000232266038250545 -0.0047982696842934396 -0.00043896740302443502 -0.016797317632220008 0.00051598005357291409 -0.00023634648499188022 0.0068066856358200319 -0.0026392185567912264
leaf_weight=18 20824 9.9999999999999982 55 10.000000000000002 9.9999999999999982 14.999999999999998 66 14.000000000000002 9.9999999999999982 10.999999999999998 820 344 9.9999999999999982 82
leaf_count=18 20824 10 55 10 10 15 66 14 10 11 820 344 10 82
internal_value=0 0.000232462 0.0055094 0.0011617 0.00755249 -0.000122643 -0.00215848 -0.00470108 -0.00732388 -0.0100779 6.38945e-05 -0.000767294 -0.00255794 -0.00161249
internal_weight=0 1475 93 75 20 1382 116 50 35 25 1266 446 102 92
internal_count=22299 1475 93 75 20 1382 116 50 35 25 1266 446 102 92
shrinkage=0.1


Tree=341
num_leaves=15
num_cat=0
split_feature=33 6 6 3 3 10 26 7 15 19 35 7 3 39
split_gain=0.00835764 0.0467911 0.0505086 0.097734 0.0383424 0.0245795 0.0610937 0.0474385 0.0525564 0.117085 0.14345 0.0453096 0.0367235 0.0364515
threshold=-6.0683849999999993e-05 1.9861950000000006e-06 2.3224500000000005e-06 -11.753499999999999 -17.461949999999998 1.2186800000000002e-05 -0.0010712649999999998 3.4892550000000009e-05 -5.2492849999999988e-07 0.00033409700000000005 -0.040574149999999996 2.4349600000000005e-05 -16.772799999999997 0.045431750000000007
decision_type=2 2 2 2 2 2 2 2 2 2 2 2 2 2
left_child=1 4 3 -3 -1 6 -6 8 9 10 -7 -10 -9 -11
right_child=-2 2 -4 -5 5 7 -8 12 11 13 -12 -13 -14 -15
leaf_value=-0.0034627474477571074 -1.5590151347111575e-05 0.012148237950168551 0.00084296387968844596 0.00083519262705175666 0.0023630530057151037 0.016942330449819559 -0.0039724680584751898 0.005669899890199304 0.0059560435233704211 -0.0015598416111656818 0.002042445245232167 6.7436925984315615e-05 -0.00043932122922137642 0.0052008714132667101
leaf_weight=33 20941 11.999999999999998 325 21 23 12.000000000000002 45 9.9999999999999982 13.999999999999998 29 13.999999999999998 196 613 10.999999999999998
leaf_count=33 20941 12 325 21 23 12 45 10 14 29 14 196 613 11
internal_value=0 0.000240407 0.00122146 0.00494903 -0.000110808 3.58104e-06 -0.00182957 0.00014224 0.00123362 0.0036951 0.00891932 0.000460011 -0.00034126 0.000299354
internal_weight=0 1358 358 33 1000 967 68 899 276 66 26 210 623 40
internal_count=22299 1358 358 33 1000 967 68 899 276 66 26 210 623 40
shrinkage=0.1


Tree=342
num_leaves=15
num_cat=0
split_feature=4 27 38 25 32 4 4 24 16 16 3 17 3 3
split_gain=0.00807229 0.0208865 0.017373 0.0504307 0.0169759 0.052354 0.036355 0.0557997 0.0292688 0.0368945 0.0250825 0.15489 0.0183688 0.018259
threshold=0.93067350000000004 111.70800000000001 -0.00032848999999999997 54.163350000000008 0.27938250000000003 1.1082250000000002 0.9753535000000001 0.28741100000000008 -4.9471599999999996e-05 -2.7795199999999998e-05 -16.772799999999997 1.5147950000000001e-05 -16.135999999999999 -14.650449999999998
decision_type=2 2 2 2 2 2 2 2 2 2 2 2 2 2
left_child=-1 2 3 4 6 -6 7 -2 13 -10 11 -8 -12 -7
right_child=1 -3 -4 -5 5 8 10 -9 9 -11 12 -13 -14 -15
leaf_value=-2.8262895319422314e-05 -0.0011420779797481368 -0.0038737585750193552 0.00027583689927527643 0.0057866757303210239 -0.0081456559151411069 -0.0062168269406538456 0.010252149880398066 0.009421987663954497 0.0061043090932071213 -0.00026056609450573462 -0.0035583682796534372 -0.0011705498846308531 -0.00023957911075440011 -0.0016314630589146296
leaf_weight=18268 10.000000000000002 12.999999999999998 2829 13.999999999999998 9.9999999999999982 9.9999999999999982 15.999999999999998 9.9999999999999982 9.9999999999999982 102 17 46 878 66
leaf_count=18268 10 13 2829 14 10 10 16 10 10 102 17 46 878 66
internal_value=0 0.000128084 0.000141032 -0.000179712 -0.0002508 -0.00109513 -7.96873e-05 0.00413995 -0.000720104 0.000307726 -0.000167872 0.00177724 -0.000302618 -0.0022348
internal_weight=0 4031 4018 1189 1175 198 977 20 188 112 957 62 895 76
internal_count=22299 4031 4018 1189 1175 198 977 20 188 112 957 62 895 76
shrinkage=0.1


Tree=343
num_leaves=15
num_cat=0
split_feature=4 38 14 8 13 24 37 4 33 7 22 4 4 24
split_gain=0.00830559 0.0354212 0.0916683 0.0336427 0.0254261 0.0521113 0.0647299 0.228313 0.0632544 0.0494395 0.0422561 0.0529188 0.0372321 0.0365962
threshold=-0.49158199999999991 5.6022800000000013 0.026760750000000003 1.0034300000000001e-05 -1.9937449999999997e-05 -0.95944149999999995 6.1037650000000011e-07 -0.7010829999999999 1.1559600000000004e-06 4.3158050000000006e-05 1.5238750000000001 -2.4210399999999992 -4.1256049999999993 -0.68962449999999986
decision_type=2 2 2 2 2 2 2 2 2 2 2 2 2 2
left_child=1 4 3 -3 5 12 8 10 -7 -10 11 -8 -1 -6
right_child=-2 2 -4 -5 13 6 7 -9 9 -11 -12 -13 -14 -15
leaf_value=-0.00012543374482034279 -3.2396056916320411e-05 -0.0093434158860084895 0.0043033282117297253 -0.0020624280102889648 0.0012152008987922113 0.0014588601284646798 0.00079320242015145184 0.016302338994682943 -0.0076945666363462811 -0.00048430033691063015 -0.0040689351852051915 0.0083434383569207671 -0.0085562973329797384 -2.0222374424441319e-05
leaf_weight=11.000000000000002 17397 15.000000000000002 11.999999999999998 10.999999999999998 255 291 41 11.999999999999998 9.9999999999999982 194 11.999999999999998 11.999999999999998 9.9999999999999982 4016
leaf_count=11 17397 15 12 11 255 291 41 12 10 194 12 12 10 4016
internal_value=0 0.000114972 -0.00292626 -0.006263 0.000138732 0.000752326 0.000931944 0.00362914 0.000512381 -0.000837745 0.00128947 0.00250269 -0.00414013 5.35386e-05
internal_weight=0 4902 38 26 4864 593 572 77 495 204 65 53 21 4271
internal_count=22299 4902 38 26 4864 593 572 77 495 204 65 53 21 4271
shrinkage=0.1


Tree=344
num_leaves=15
num_cat=0
split_feature=10 20 20 14 23 23 3 25 3 23 3 29 23 3
split_gain=0.00788045 0.123046 0.332841 0.228067 0.37902 0.516751 1.1419 0.593337 0.349016 0.238947 0.271565 0.268902 0.157499 0.306488
threshold=1.2977750000000001e-05 2.3388550000000001 -3.0532049999999997 0.0020371300000000003 -13.919899999999997 -9.9859899999999993 -9.7137299999999982 0.76680700000000013 -9.6708399999999983 -7.1463699999999992 -7.3418849999999987 1.0000000180025095e-35 -14.098699999999999 -14.261949999999997
decision_type=2 2 2 2 2 2 2 2 2 2 2 2 2 2
left_child=1 2 -1 4 -4 6 7 -6 -7 10 11 -10 13 -5
right_child=-2 -3 3 12 5 8 -8 -9 9 -11 -12 -13 -14 -15
leaf_value=-0.00058290956410582157 -1.6444302232010008e-05 -0.00089605583542970945 -0.0018107612854896154 0.010527131362603262 0.039768114646798684 -0.0049569285924856866 -0.0012278765004815624 0.0096745910868048669 0.0096585897898132118 -0.0014842703363255544 0.0037090798057357061 0.032315999716520313 -0.0011108963226433843 -0.0033329118735208694
leaf_weight=588 20714 612 49 39 19.000000000000004 30 21 9.9999999999999982 11.000000000000002 17 18 9.9999999999999982 134 27
leaf_count=588 20714 612 49 39 19 30 21 10 11 17 18 10 134 27
internal_value=0 0.000214907 0.000913683 0.00319939 0.00573003 0.00844693 0.0165311 0.029391 0.00374683 0.00840956 0.0127223 0.0204478 0.000858547 0.00485711
internal_weight=0 1585 973 385 185 136 50 29 86 56 39 21 200 66
internal_count=22299 1585 973 385 185 136 50 29 86 56 39 21 200 66
shrinkage=0.1


Tree=345
num_leaves=15
num_cat=0
split_feature=10 38 29 31 15 37 15 17 33 13 32 3 39 7
split_gain=0.00887933 0.0514087 0.113866 0.442469 0.0465011 0.0316059 0.021787 0.0211584 0.0192546 0.0173556 0.0134497 0.00944472 0.0258702 0.0460707
threshold=8.9851850000000023e-06 0.00082319350000000012 0.0075160400000000007 -0.090617699999999982 8.7851900000000014e-07 -1.5620599999999996e-07 1.3040750000000002e-08 1.0000000180025095e-35 2.4996650000000005e-06 8.9416450000000024e-06 0.083191150000000005 -6.3643949999999991 0.0010716850000000004 1.8309950000000006e-05
decision_type=2 2 2 2 2 2 2 2 2 2 2 2 2 2
left_child=1 4 3 9 5 6 -1 -4 10 -3 -7 12 -2 -14
right_child=11 2 7 -5 -6 8 -8 -9 -10 -11 -12 -13 13 -15
leaf_value=-0.0078461544080214041 -9.554346462084259e-05 0.0020239977229555895 -0.0050975186919624141 0.02458438403904438 0.0040703259203215374 -0.00028560159010918473 -0.0013968605734407903 0.00067660849250387404 0.0024627924508725603 -0.0035934497813948176 -0.0034692426248894709 0.00011081667639984273 0.0049116141938914861 0.00020886185039714988
leaf_weight=11.000000000000002 14209 11.000000000000002 11.000000000000002 9.9999999999999982 19 44 9.9999999999999982 14.999999999999998 18 10.999999999999998 19 5294 21 2596
leaf_count=11 14209 11 11 10 19 44 10 15 18 11 19 5294 21 2596
internal_value=0 0.000701477 0.00314925 0.00714312 -0.000471834 -0.00131792 -0.00477506 -0.00176629 -0.000421627 -0.000784726 -0.00124575 -5.67651e-06 -4.2329e-05 0.000246599
internal_weight=0 179 58 32 121 102 21 26 81 22 63 22120 16826 2617
internal_count=22299 179 58 32 121 102 21 26 81 22 63 22120 16826 2617
shrinkage=0.1


Tree=346
num_leaves=15
num_cat=0
split_feature=39 3 3 23 23 14 3 6 23 3 36 19 23 23
split_gain=0.008065 0.0427988 0.0725864 0.0832223 0.128141 0.120622 0.135447 0.105751 0.0818204 0.432474 0.0717502 0.0686204 0.128397 0.0593754
threshold=1.8038650000000001e-06 -6.9004699999999994 -5.9958099999999996 -6.9910599999999992 -7.8841399999999995 0.00017223500000000005 -6.401514999999999 2.2187500000000001e-06 -6.8980549999999985 -6.7531799999999995 0.00030596150000000006 2.5389100000000003e-09 -6.3181949999999993 -6.0837299999999983
decision_type=2 2 2 2 2 2 2 2 2 2 2 2 2 2
left_child=1 -1 3 4 -3 6 7 -6 9 -5 11 12 -10 -13
right_child=-2 2 -4 8 5 -7 -8 -9 10 -11 -12 13 -14 -15
leaf_value=0.00036179972552109535 -2.7326086215491268e-05 -0.00023780716105189104 0.00030910147540189054 0.021670362791046494 -0.0080063489535989775 -0.00065165304518680989 -0.0028541548910184897 -0.019226614299501912 0.0094290267365674165 -0.0042668069324766598 -0.0074047025479376319 -0.00046496307140798856 -0.0047034927643835548 -0.0074282527829592051
leaf_weight=2597 18483 109 699 10.000000000000002 28 41 35 11.999999999999998 18.000000000000004 18 14.999999999999998 211 9.9999999999999982 12.999999999999998
leaf_count=2597 18483 109 699 10 28 41 35 12 18 18 15 211 10 13
internal_value=0 0.000132355 -0.000356461 -0.00125113 -0.00269969 -0.00501302 -0.00739723 -0.0113724 -0.000146293 0.00499647 -0.000685609 -0.000285662 0.0043817 -0.000869083
internal_weight=0 3816 1219 520 225 116 75 40 295 28 267 252 28 224
internal_count=22299 3816 1219 520 225 116 75 40 295 28 267 252 28 224
shrinkage=0.1


Tree=347
num_leaves=15
num_cat=0
split_feature=3 23 23 3 21 1 23 14 24 8 17 1 14 21
split_gain=0.0080825 0.0694873 0.0541808 0.0513963 0.0363515 0.298669 0.776014 0.929843 0.675125 0.761974 0.260034 0.150374 0.225969 0.300283
threshold=-7.4146649999999985 -10.715499999999997 -10.829899999999999 -6.043429999999999 -7.8836949999999986 -7.2266699999999995 -7.6100699999999994 0.00088515050000000019 -0.18138549999999998 1.2719100000000002e-05 6.2470150000000004e-08 -7.4616699999999989 0.00056584850000000015 -6.9332599999999998
decision_type=2 2 2 2 2 2 2 2 2 2 2 2 2 2
left_child=1 -1 3 -2 5 6 7 8 -3 -10 -11 12 13 -6
right_child=2 4 -4 -5 11 -7 -8 -9 9 10 -12 -13 -14 -15
leaf_value=-0.0003196731291470517 0.00083623214055932602 0.00023535848237000979 -0.00012036345268339711 2.3369301298855263e-05 0.007515265403146093 -0.00078198149679422453 -0.0025119949952932077 -0.0012433571875781605 0.0077283386427622579 0.026355463415384285 0.04818957050641378 0.00038511087001872203 0.00028633958398596076 -0.0047354409585133247
leaf_weight=5589 1474 12.999999999999998 5170 1647 22 1429 100 38 12.999999999999998 10.000000000000002 11.999999999999998 6185 376 221
leaf_count=5589 1474 13 5170 1647 22 1429 100 38 13 10 12 6185 376 221
internal_value=0 -4.63176e-05 7.82555e-05 0.000407272 0.000135151 -0.000291357 0.00347801 0.0104431 0.0196949 0.0269228 0.038265 0.000236387 -0.00124965 -0.00362632
internal_weight=0 14008 8291 3121 8419 1615 186 86 48 35 22 6804 619 243
internal_count=22299 14008 8291 3121 8419 1615 186 86 48 35 22 6804 619 243
shrinkage=0.1


Tree=348
num_leaves=15
num_cat=0
split_feature=23 3 3 23 15 19 26 5 33 17 33 21 22 12
split_gain=0.0084951 0.024936 0.0281963 0.116393 0.181957 0.0933711 0.155896 0.148164 0.10872 0.101939 0.134175 0.0767136 0.0687399 0.0543472
threshold=-6.4960549999999992 -6.0971649999999995 -6.5485099999999994 -6.4403949999999996 -2.3784799999999994e-09 1.5736100000000003e-05 -4.9513499999999993e-05 1.5826200000000004e-05 -1.2889599999999998e-06 5.9558900000000005e-08 -1.117395e-06 6.0112050000000012 0.73928000000000005 2.3227550000000001e-05
decision_type=2 2 2 2 2 2 2 2 2 2 2 2 2 2
left_child=-1 2 -2 4 -4 6 7 -5 12 -8 -11 13 -7 -10
right_child=1 -3 3 5 -6 8 9 -9 11 10 -12 -13 -14 -15
leaf_value=-1.913360343270833e-05 0.00022926432679297887 -0.00052209993619124057 0.016117120190308639 0.0023730675938228763 -0.00061410902999341492 -0.010300748363921516 0.0069267288853342712 0.017280996870249511 0.0093134785644136929 0.0019453363395050952 -0.010956533093537604 -0.0041420690125475333 -0.0006331647591044506 -0.00049226739443838604
leaf_weight=20344 1402 385 13.000000000000002 15.000000000000002 12.999999999999998 19.000000000000004 12.999999999999998 11.999999999999998 13.000000000000002 19 13.999999999999998 14.999999999999998 11.999999999999998 9.9999999999999982
leaf_count=20344 1402 385 13 15 13 19 13 12 13 19 14 15 12 10
internal_value=0 0.000199107 0.000375963 0.0016002 0.00775151 0.000473906 0.00296692 0.00899881 -0.00216363 -0.000573535 -0.00352818 0.00142162 -0.00655846 0.00505011
internal_weight=0 1955 1570 168 26 142 73 27 69 46 33 38 31 23
internal_count=22299 1955 1570 168 26 142 73 27 69 46 33 38 31 23
shrinkage=0.1


Tree=349
num_leaves=15
num_cat=0
split_feature=16 22 2 23 3 19 15 20 11 17 3 11 37 2
split_gain=0.0080225 0.0533762 0.159535 0.268484 0.459022 0.411703 0.254634 0.27343 0.252342 0.244692 0.190687 0.260301 0.123486 0.06949
threshold=-1.7593899999999998e-06 2.1382650000000005 2.0840000000000005 -9.4058299999999981 -9.4020749999999982 0.0030923500000000002 -3.4258599999999994e-06 -6.1283249999999994 -9.1076949999999978e-05 7.9733550000000025e-06 -8.6270849999999992 -4.3402849999999994e-05 -1.3234699999999999e-07 2.1572450000000005
decision_type=2 2 2 2 2 2 2 2 2 2 2 2 2 2
left_child=1 13 -3 4 5 -4 8 -8 -7 -9 12 -12 -5 -1
right_child=-2 2 3 10 -6 6 7 9 -10 -11 11 -13 -14 -15
leaf_value=0.00018596400937311529 -3.5778418267762956e-05 -3.2413039446935264e-05 0.023962489696329133 -0.014496727287769318 -0.0014284315499966836 0.0038682055310346186 0.0131101700760025 0.0070258419310751663 0.020912992326836841 -0.011624792050433291 -0.00023845933168998055 0.01847142828628421 -0.0024328369543322233 -0.00068327333560010205
leaf_weight=3727 16447 646 17 9.9999999999999982 58 15.999999999999998 13.999999999999998 12.000000000000002 19 17 29 9.9999999999999982 56 1221
leaf_count=3727 16447 646 17 10 58 16 14 12 19 17 29 10 56 1221
internal_value=0 0.000100555 0.00080712 0.00290921 0.00558158 0.00986138 0.00678807 0.00163328 0.0131211 -0.00390729 -0.00098483 0.00455895 -0.0042607 -2.85345e-05
internal_weight=0 5852 904 258 153 95 78 43 35 29 105 39 66 4948
internal_count=22299 5852 904 258 153 95 78 43 35 29 105 39 66 4948
shrinkage=0.1


Tree=350
num_leaves=15
num_cat=0
split_feature=9 7 20 23 29 29 3 10 25 30 2 0 3 23
split_gain=0.00843277 0.0317083 0.117285 0.0252513 0.0283913 0.0388722 0.0676754 0.0295068 0.0297266 0.0215408 0.030622 0.0292289 0.0208176 0.0411993
threshold=-5.3827499999999992e-05 5.6058750000000003e-05 -3.1714899999999999 -5.9060399999999991 0.079763750000000008 0.051333850000000007 -9.049294999999999 5.7097800000000008e-05 4.3120950000000011 0.13004500000000005 -2.7513749999999995 -9.9535099999999979 -10.813299999999998 -11.901299999999997
decision_type=2 2 2 2 2 2 2 2 2 2 2 2 2 2
left_child=1 2 -1 4 5 12 -7 -6 -9 10 11 -10 13 -3
right_child=-2 3 -4 -5 7 6 -8 8 9 -11 -12 -13 -14 -15
leaf_value=0.012369178091175855 -1.9503564545250266e-05 -0.0026901081432230503 4.92571182001163e-05 0.0042227922224750128 -0.005442287301023801 0.010428018379025163 0.00088800966658364531 0.0042155130671083256 -0.0014226119732484218 0.0023247251473367215 -0.00089159226285812033 -0.0090683805709704766 0.0002708989650550529 0.00019973859016563685
leaf_weight=9.9999999999999982 20261 74 34 14.999999999999998 14.999999999999998 9.9999999999999982 29 10.999999999999998 10.000000000000002 14.999999999999998 84 9.9999999999999982 1573 148
leaf_count=10 20261 74 34 15 15 10 29 11 10 15 84 10 1573 148
internal_value=0 0.000193897 0.00284924 0.000135304 0.000104322 0.000210823 0.00333417 -0.00124273 -0.00075817 -0.00121792 -0.00172888 -0.0052455 0.000142962 -0.000763544
internal_weight=0 2038 44 1994 1979 1834 39 145 130 119 104 20 1795 222
internal_count=22299 2038 44 1994 1979 1834 39 145 130 119 104 20 1795 222
shrinkage=0.1


Tree=351
num_leaves=15
num_cat=0
split_feature=15 35 19 23 7 36 24 26 19 31 30 24 11 7
split_gain=0.00842496 0.0232096 0.101337 0.0990995 0.0467025 0.132952 0.0242058 0.0234734 0.0596778 0.0494796 0.0217917 0.0286539 0.0270269 0.0215366
threshold=5.5160550000000007e-06 0.084428150000000021 9.7548300000000016e-05 -10.715499999999997 3.2374100000000012e-05 0.022715250000000003 1.0940150000000004 -0.00069266699999999989 0.00060225550000000006 -0.63008599999999981 0.13004500000000005 -1.7384499999999996 -9.474599999999999e-05 5.8880900000000007e-05
decision_type=2 2 2 2 2 2 2 2 2 2 2 2 2 2
left_child=-1 7 3 -3 5 -4 10 8 9 -2 11 -6 -12 -8
right_child=1 2 4 -5 6 -7 13 -9 -10 -11 12 -13 -14 -15
leaf_value=-3.0385032422526328e-05 -0.010550541486591101 -9.3495249748229948e-05 0.013437016852476514 0.013147721339303715 0.0058488722448237244 -0.0012615426578122424 -0.0066981766466051324 0.00011827401328821322 -4.9631851955685618e-05 -0.0024281812759310625 -0.0061821727759458784 0.00031066102934525756 0.0010009249346330763 -0.00013515230733901265
leaf_weight=17920 9.9999999999999982 10.000000000000002 10.000000000000002 12.999999999999998 9.9999999999999982 15.999999999999998 10.000000000000002 3965 132 30 11.000000000000002 142 9.9999999999999982 9.9999999999999982
leaf_count=17920 10 10 10 13 10 16 10 3965 132 30 11 142 10 10
internal_value=0 0.000124343 0.00107622 0.00739067 0.00041306 0.00439175 -0.000122929 6.86619e-05 -0.00107501 -0.00445877 0.000257849 0.000675017 -0.00276165 -0.00341666
internal_weight=0 4379 242 23 219 26 193 4137 172 40 173 152 21 20
internal_count=22299 4379 242 23 219 26 193 4137 172 40 173 152 21 20
shrinkage=0.1


Tree=352
num_leaves=15
num_cat=0
split_feature=3 22 0 2 34 21 20 33 21 12 23 37 23 10
split_gain=0.0081899 0.0220228 0.0350504 0.0284184 0.0557145 0.0324725 0.0292829 0.0262479 0.0223164 0.233329 0.0279367 0.0215842 0.0616858 0.290209
threshold=-6.3643949999999991 -2.3322399999999992 -3.2009199999999995 -1.5287049999999998 0.0020707800000000004 -14.205299999999998 5.3881000000000006 1.2059500000000001e-06 14.24385 5.0650700000000006e-05 -6.3955149999999987 -7.2009699999999991e-08 -6.1422399999999984 2.9606050000000004e-05
decision_type=2 2 2 2 2 2 2 2 2 2 2 2 2 2
left_child=-1 2 -2 4 -3 -6 7 -7 11 10 -10 12 -5 -14
right_child=1 3 -4 8 5 6 -8 -9 9 -11 -12 -13 13 -15
leaf_value=-3.3851974151819186e-05 -0.00024378994562792084 -0.00541309562540846 0.0011708319482939308 7.3281930506754363e-05 0.0053152722306549554 -0.00041008884246509879 0.0013241293287808962 0.00069770499825914413 0.00014673719894798363 0.015400848342105748 -0.0063208966431292611 -0.00033964317757322635 0.018613513726741068 -0.0020844158787180537
leaf_weight=16996 288 15.999999999999998 447 1179 13.999999999999998 406 298 452 17 9.9999999999999982 11.000000000000002 2134 10.000000000000002 21
leaf_count=16996 288 16 447 1179 14 406 298 452 17 10 11 2134 10 21
internal_value=0 0.000108495 0.000616531 2.67508e-05 0.000447944 0.000528095 0.000470119 0.000173504 -0.000120953 0.00228877 -0.00239412 -0.000148336 0.000189059 0.00459234
internal_weight=0 5303 735 4568 1186 1170 1156 858 3382 38 28 3344 1210 31
internal_count=22299 5303 735 4568 1186 1170 1156 858 3382 38 28 3344 1210 31
shrinkage=0.1


Tree=353
num_leaves=15
num_cat=0
split_feature=4 28 13 33 13 33 20 25 35 33 7 11 34 26
split_gain=0.00816864 0.0242237 0.0218342 0.0388635 0.0143372 0.135492 0.253703 0.263418 0.298642 0.140619 0.112553 0.0413211 0.0249716 0.0444135
threshold=-2.4210399999999992 2.9088150000000002 -3.3363799999999994e-05 -7.0266599999999987e-07 -7.0240599999999979e-05 3.2514000000000008e-05 -3.3026299999999993 5.5464000000000011 -0.0021809999999999993 8.6922200000000009e-06 4.7413900000000004e-05 -3.4234449999999995e-05 0.068442200000000009 -0.00022529049999999999
decision_type=2 2 2 2 2 2 2 2 2 2 2 2 2 2
left_child=1 2 3 -1 5 9 11 8 -8 12 -11 -7 -2 -14
right_child=4 -3 -4 -5 -6 6 7 -9 -10 10 -12 -13 13 -15
leaf_value=0.0020641612143939528 0.0001463842490920797 -0.0041523425911481572 8.1065783733738414e-05 -0.00019097270360362019 -1.1939316220481153e-05 -0.00072156822308897949 0.027330499993298542 -0.0015062110382132233 0.0040284523232416661 -0.013653485874334972 -0.003206379433289509 -0.009812346973922104 0.0012262210104901378 -0.0036973815386275263
leaf_weight=158 166 12.999999999999998 2637 148 18991 10.000000000000002 10.999999999999998 14.999999999999998 11.000000000000002 14.999999999999998 33 9.9999999999999982 28 53
leaf_count=158 166 13 2637 148 18991 10 11 15 11 15 33 10 28 53
internal_value=0 0.000154825 0.000173851 0.000973443 -2.36604e-05 -0.000656034 0.0038073 0.00871231 0.0156795 -0.00151844 -0.0064711 -0.00526696 -0.000555981 -0.0019954
internal_weight=0 2956 2943 306 19343 352 57 37 22 295 48 20 247 81
internal_count=22299 2956 2943 306 19343 352 57 37 22 295 48 20 247 81
shrinkage=0.1


Tree=354
num_leaves=15
num_cat=0
split_feature=23 3 14 23 16 23 3 30 19 22 1 1 21 19
split_gain=0.00774747 0.150169 0.361553 0.529704 0.318057 0.149938 0.126281 0.0979708 0.083121 0.126369 0.250491 0.157792 0.0773264 0.0611536
threshold=-15.973899999999999 -15.821599999999998 0.004937775000000001 -17.648549999999997 1.2403650000000003e-07 -16.491149999999998 -11.831149999999999 0.00036679750000000004 0.0015695500000000001 -1.1304449999999997 -1.6707749999999997 1.3632550000000003 -8.2570699999999988 0.00068875700000000002
decision_type=2 2 2 2 2 2 2 2 2 2 2 2 2 2
left_child=1 2 3 -1 -5 8 7 13 9 10 -4 -11 -9 -3
right_child=-2 6 5 4 -6 -7 -8 12 -10 11 -12 -13 -14 -15
leaf_value=-0.001909849585758315 -2.0475225527124807e-05 -0.013556486718589437 0.014636483678922932 0.0092716434970498054 0.032295423373579983 0.010011473639557761 0.00031982231476333821 0.0052349340406686283 -0.0029737123067260494 -0.0068434592710969883 -0.0053093935037031772 0.006621811643708498 -0.0014641623867095897 -0.003803137854103827
leaf_weight=18 19898 10.000000000000002 17.000000000000004 12.000000000000002 11.999999999999998 14.999999999999998 1763 18 68 23 9.9999999999999982 13.999999999999998 403 18
leaf_count=18 19898 10 17 12 12 15 1763 18 68 23 10 14 403 18
internal_value=0 0.000169686 0.00287523 0.0110578 0.0207835 0.000537359 -6.14843e-05 -0.00155869 -0.000539245 0.00204738 0.00724912 -0.00174849 -0.00117774 -0.00728648
internal_weight=0 2401 189 42 24 147 2212 449 132 64 27 37 421 28
internal_count=22299 2401 189 42 24 147 2212 449 132 64 27 37 421 28
shrinkage=0.1


Tree=355
num_leaves=15
num_cat=0
split_feature=4 21 31 0 26 0 35 4 13 22 23 24 13 15
split_gain=0.00810929 0.0204427 0.0153913 0.0635865 0.0363251 0.0331262 0.0384237 0.0994158 0.0308022 0.0263536 0.0254233 0.0220298 0.0216768 0.020961
threshold=0.93067350000000004 15.515700000000001 0.025111600000000005 -4.7486349999999993 0.02780765 -4.2894949999999996 0.13008150000000004 2.7007850000000002 0.00026821650000000006 1.6390350000000002 -20.281149999999997 0.17318750000000002 -5.4235199999999987e-06 -6.5641949999999989e-05
decision_type=2 2 2 2 2 2 2 2 2 2 2 2 2 2
left_child=-1 2 5 -4 13 9 10 -8 -9 -2 -7 -12 -11 -5
right_child=1 -3 3 4 -6 6 7 8 -10 12 11 -13 -14 -15
leaf_value=-2.832758421632579e-05 0.00078565769432478055 -0.0024722980358637871 -0.00073163534297682978 -0.00030227157408850927 0.006774333134526387 -0.0041516547800925117 0.011468108706176282 -0.003427213195910943 0.0038394027354661376 -0.0054431603755801918 -7.7994542318173549e-05 -0.00095002725413987201 -0.0004978758826417526 0.00090330183494474487
leaf_weight=18268 641 30 373 170 9.9999999999999982 17 9.9999999999999982 14.000000000000002 9.9999999999999982 9.9999999999999982 1348 369 78 951
leaf_count=18268 641 30 373 170 10 17 10 14 10 10 1348 369 78 951
internal_value=0 0.000128377 0.000147877 0.000400597 0.000774003 -4.34123e-06 -0.000238224 0.003091 -0.000399457 0.000562882 -0.000303503 -0.000265403 -0.00105984 0.000720476
internal_weight=0 4031 4001 1504 1131 2497 1768 34 24 729 1734 1717 88 1121
internal_count=22299 4031 4001 1504 1131 2497 1768 34 24 729 1734 1717 88 1121
shrinkage=0.1


Tree=356
num_leaves=15
num_cat=0
split_feature=23 14 3 20 33 15 3 20 3 16 5 13 25 5
split_gain=0.00829835 0.0523853 0.0715534 0.163777 0.263535 0.0925106 0.0777495 0.0843341 0.0547158 0.0304694 0.026898 0.0236058 0.01758 0.0270094
threshold=-17.889999999999997 0.00092261950000000002 -17.279499999999995 -1.9826849999999998 -1.0960499999999998e-05 -3.0672449999999994e-06 -16.135999999999999 -3.5336099999999995 -6.043429999999999 5.7676100000000005e-08 8.2576650000000015e-06 -7.5217049999999985e-05 11.012350000000001 1.3823800000000003e-05
decision_type=2 2 2 2 2 2 2 2 2 2 2 2 2 2
left_child=1 8 3 5 -5 -3 7 -4 -1 -9 -8 -12 -13 -14
right_child=-2 2 6 4 -6 -7 10 9 -10 -11 11 12 13 -15
leaf_value=0.001598285418663922 -1.4707799461682801e-05 0.0045003698137588786 0.00010141900458716248 0.021588234901428218 -0.00039236467952529592 -0.0085227920208126307 -0.0042754199732478486 -0.0130514651723206 -0.00041831702091316435 -0.0057093006845277093 -0.0048164027436128397 9.2698389481565e-05 -0.004088006534234241 2.6473994605625289e-05
leaf_weight=399 21074 10.000000000000002 19 10.000000000000002 11.999999999999998 11.999999999999998 17 10.000000000000002 203 12.999999999999998 10.999999999999998 443 27 39
leaf_count=399 21074 10 19 10 12 12 17 10 203 13 11 443 27 39
internal_value=0 0.000253022 -0.0003898 0.00349782 0.00959882 -0.00260317 -0.000685232 -0.00482878 0.000918268 -0.00890155 -0.000361156 -0.00023319 -0.000134142 -0.00165672
internal_weight=0 1225 623 44 22 22 579 42 602 23 537 520 509 66
internal_count=22299 1225 623 44 22 22 579 42 602 23 537 520 509 66
shrinkage=0.1


Tree=357
num_leaves=15
num_cat=0
split_feature=5 26 26 26 22 11 31 22 18 20 23 36 22 23
split_gain=0.00777699 0.0464693 0.0642281 0.0894143 0.0666053 0.0442824 0.153024 0.0396172 0.0263121 0.0229906 0.029374 0.0428499 0.0193371 0.0176542
threshold=7.1526450000000005e-06 0.00018010550000000005 0.00010505900000000003 8.4939000000000008e-05 -2.7756699999999994 1.5303550000000004e-05 -0.055558899999999987 -0.30445799999999995 -9.6796299999999971e-07 -7.3536449999999993 -7.7439199999999992 -0.0011108549999999998 1.7780750000000001 -11.688049999999999
decision_type=2 2 2 2 2 2 2 2 2 2 2 2 2 2
left_child=1 2 3 4 -1 9 -7 8 -3 -6 11 -11 13 -13
right_child=-2 7 -4 -5 5 6 -8 -9 -10 10 -12 12 -14 -15
leaf_value=0.0077742294042504254 -6.7194871009174875e-06 -0.0093420730903744677 0.0069711114875698355 -0.0071428851523835744 -0.0045875342756820222 0.01297028167755343 0.00048596807720160642 0.00058924354379996657 -0.0022546073210171678 0.0027017850044142953 0.0024437858949282344 -0.0054427079124642289 0.0010946620685549884 -0.0016355517761910262
leaf_weight=13.999999999999998 22014 10.000000000000002 17 13.999999999999998 11.999999999999998 11.999999999999998 54 20 10.999999999999998 22.999999999999993 35 20.999999999999993 12.999999999999998 29.000000000000014
leaf_count=14 22014 10 17 14 12 12 54 20 11 23 35 21 13 29
internal_value=0 0.000519027 0.00104246 0.00059846 0.00110728 0.000638249 0.00275584 -0.00259601 -0.00562959 -0.000412587 1.45703e-06 -0.000992514 -0.00234123 -0.00323456
internal_weight=0 285 244 227 213 199 66 41 21 133 121 86 63 50
internal_count=22299 285 244 227 213 199 66 41 21 133 121 86 63 50
shrinkage=0.1


Tree=358
num_leaves=15
num_cat=0
split_feature=4 28 13 33 23 5 35 9 20 14 12 7 33 11
split_gain=0.0076642 0.0177116 0.0180238 0.033185 0.0132164 0.0260057 0.04331 0.0322806 0.0506184 0.0420018 0.0532531 0.0354307 0.0447712 0.0312468
threshold=-2.4210399999999992 2.9088150000000002 -2.2178399999999994e-05 3.9863900000000005e-07 -6.5395699999999986 1.1012700000000002e-05 0.0027109000000000005 3.1953100000000011e-05 9.8038950000000025 0.00019150250000000003 3.7315150000000008e-05 2.2103100000000005e-05 -2.3979249999999996e-06 -1.4824749999999999e-05
decision_type=2 2 2 2 2 2 2 2 2 2 2 2 2 2
left_child=1 2 3 -1 -2 6 7 9 -9 10 11 -6 -13 -14
right_child=4 -3 -4 -5 5 -7 -8 8 -10 -11 -12 12 13 -15
leaf_value=0.0016765766113641955 -5.0286752900797919e-05 -0.0035330166395467059 7.2828553856930657e-05 -0.00023606711826975764 -0.006331502394750714 2.9452821692823526e-05 0.0038141408535327923 0.00096589688910171396 0.0083331322870575462 0.00090531507095440833 -0.0085037072189152237 0.0058889139358970256 0.0028813146861890967 -0.002403827327494086
leaf_weight=203 17432 12.999999999999998 2576 164 9.9999999999999982 1486 46 33 12.999999999999998 243 9.9999999999999982 10.999999999999998 14.999999999999991 44.000000000000007
leaf_count=203 17432 13 2576 164 10 1486 46 33 13 243 10 11 15 44
internal_value=0 0.000149969 0.000166237 0.00082188 -2.29182e-05 0.000226735 0.000916529 0.000564839 0.00304794 0.000221828 -0.00162359 -0.000763571 3.18482e-05 -0.00106015
internal_weight=0 2956 2943 367 19343 1911 425 379 46 333 90 80 70 59
internal_count=22299 2956 2943 367 19343 1911 425 379 46 333 90 80 70 59
shrinkage=0.1


Tree=359
num_leaves=15
num_cat=0
split_feature=3 14 34 23 3 14 23 19 21 23 3 14 35 5
split_gain=0.0077972 0.0216127 0.0957109 0.0507872 0.0674715 0.218321 0.401985 0.149386 0.325213 0.129726 0.524502 0.321486 0.262488 0.242375
threshold=-6.3643949999999991 0.0011223800000000003 0.49467900000000004 -12.8988 -13.453149999999999 0.0015581900000000003 -14.654899999999998 1.8396200000000002e-05 -6.0804249999999991 -14.283699999999998 -14.261949999999997 0.0091276500000000028 0.0072457650000000004 1.6234500000000002e-05
decision_type=2 2 2 2 2 2 2 2 2 2 2 2 2 2
left_child=1 2 -1 4 5 6 -3 8 -6 -7 11 -11 13 -12
right_child=-2 3 -4 -5 7 9 -8 -9 -10 10 12 -13 -14 -15
leaf_value=-0.0003312483385357858 0.00010586175061264754 -0.0037752526688079042 0.00065399323340308317 0.00019717016665991122 0.013277096195485106 0.00079852442506061485 0.018390378687116835 -0.00037321043452933218 -0.0044524986141420845 -0.0075075111206135033 0.0062730677905633598 -0.00026207906501732043 -0.007390242493711412 0.02341332164889371
leaf_weight=5896 5303 14.999999999999998 1184 7316 10.999999999999998 694 18 1388 174 115 33 131 9.9999999999999982 10.999999999999998
leaf_count=5896 5303 15 1184 7316 11 694 18 1388 174 115 33 131 10 11
internal_value=0 -3.30304e-05 -0.000166485 6.22557e-05 -0.000317373 0.00031308 0.00831509 -0.000728991 -0.00339831 4.74197e-05 -0.00169014 -0.00364917 0.00723436 0.0105581
internal_weight=0 16996 7080 9916 2600 1027 33 1573 185 994 300 246 54 44
internal_count=22299 16996 7080 9916 2600 1027 33 1573 185 994 300 246 54 44
shrinkage=0.1


Tree=360
num_leaves=15
num_cat=0
split_feature=2 22 17 3 4 22 2 2 23 23 14 23 22 32
split_gain=0.00784808 0.316054 0.253726 0.246503 0.359158 0.240357 0.76867 0.571563 0.271718 0.347282 0.197775 0.184409 0.159988 0.0611236
threshold=-2.4807499999999996 -2.5046849999999994 8.2810650000000014e-07 -6.9359899999999994 -1.0451899999999996 -2.8657299999999997 -2.8593649999999999 -2.8593649999999999 -7.9228199999999989 -11.244699999999998 0.00048074400000000002 -7.2147949999999996 -1.5854899999999998 -8.420813499999998e-05
decision_type=2 2 2 2 2 2 2 2 2 2 2 2 2 2
left_child=1 2 3 4 -1 6 10 -7 9 -9 -6 -5 -3 -14
right_child=-2 12 -4 11 5 7 -8 8 -10 -11 -12 -13 13 -15
leaf_value=-0.0010910522888783211 -2.0186851826413547e-05 -0.0021102401995679704 -0.0019623424992246063 -0.0019857644289497669 0.0090299806025411385 -0.00309007376698511 -0.010220776276515894 0.014445570846916837 0.0070492744601021217 0.034658615784171745 0.027443114314228297 0.012117440202696757 -0.00024333865057997174 0.001065312569407979
leaf_weight=36 19985 379 68 59 14.000000000000002 13.999999999999998 19 16.999999999999996 11.999999999999998 17.000000000000004 9.9999999999999982 10.999999999999998 1138 520
leaf_count=36 19985 379 68 59 14 14 19 17 12 17 10 11 1138 520
internal_value=0 0.000174345 0.00334358 0.00506991 0.00750705 0.0105122 0.00480596 0.0146017 0.0199861 0.0245521 0.0167021 0.000230453 -0.000256621 0.000167095
internal_weight=0 2314 277 209 139 103 43 60 46 34 24 70 2037 1658
internal_count=22299 2314 277 209 139 103 43 60 46 34 24 70 2037 1658
shrinkage=0.1


Tree=361
num_leaves=15
num_cat=0
split_feature=3 23 29 29 32 24 21 28 2 10 15 3 33 5
split_gain=0.00750078 0.042404 0.101761 0.0830262 0.0903247 0.0776076 0.0678411 0.0525974 0.134812 0.0353876 0.0321853 0.0253172 0.0245034 0.0206265
threshold=-17.461949999999998 -11.990499999999999 -0.064587449999999991 -0.0033543849999999997 -1.1407299999999998 -0.48941249999999997 -2.4142549999999994 -0.0059968149999999991 -1.8232249999999997 1.7370750000000003e-05 -1.2847149999999997e-06 -18.320749999999997 -2.9030999999999997e-05 9.8219600000000024e-06
decision_type=2 2 2 2 2 2 2 2 2 2 2 2 2 2
left_child=1 2 -1 6 -5 -6 -4 8 -7 13 -9 -12 -8 -10
right_child=-2 -3 3 4 5 7 12 10 9 -11 11 -13 -14 -15
leaf_value=0.0074819412004823492 9.3850521904075412e-06 0.00031435368592472025 -0.010445846600786728 0.0080340104886669327 -0.0094395762267099198 0.011560713876546785 -0.0058439724211994983 -0.00078254953938691578 -0.0015307220211252565 -0.0040680433292628118 -0.0021389173272137458 -0.0083798705259911076 -0.0010442448099358724 0.0046186918392777448
leaf_weight=11.999999999999998 21730 354 17 10.999999999999998 10.999999999999998 10.999999999999998 18 41.999999999999993 10.000000000000002 19 13 13.000000000000007 26 11.999999999999998
leaf_count=12 21730 354 17 11 11 11 18 42 10 19 13 13 26 12
internal_value=0 -0.000358413 -0.00146613 -0.00199508 -0.000669581 -0.00140042 -0.00508068 -0.000663493 0.00173062 -0.000906725 -0.00249428 -0.00525939 -0.00300777 0.0018235
internal_weight=0 569 215 203 142 131 61 120 52 41 68 26 44 22
internal_count=22299 569 215 203 142 131 61 120 52 41 68 26 44 22
shrinkage=0.1


Tree=362
num_leaves=15
num_cat=0
split_feature=10 32 19 22 22 23 34 20 14 35 16 23 3 16
split_gain=0.00774541 0.0498729 0.101995 0.0314742 0.0599885 0.139492 0.0352116 0.0302868 0.0180401 0.014282 0.00958937 0.00821568 0.0473143 0.163211
threshold=8.9851850000000023e-06 -0.11754399999999998 1.3381100000000001e-05 -0.50769049999999993 -1.7404199999999996 -9.9859899999999993 0.043231700000000005 -3.0532049999999997 0.0028496800000000007 -0.0015073599999999997 2.3726900000000001e-07 -17.889999999999997 -17.279499999999995 3.6971950000000004e-06
decision_type=2 2 2 2 2 2 2 2 2 2 2 2 2 2
left_child=1 2 -1 4 7 -6 -5 10 -7 -8 -3 12 13 -2
right_child=11 3 -4 6 5 8 9 -9 -10 -11 -12 -13 -14 -15
leaf_value=-0.0012780116308325278 0.0082483222294184901 0.0022958322965468351 0.01059003116180455 -4.9244175835799363e-05 0.011218366160755978 -0.0029046878622223929 -0.0022173391794785848 -0.0056851209171630522 0.0024269996115683836 -0.0073343310970813043 -0.0011928817094303667 -1.996204353663168e-05 0.00012801052111697552 -0.0044974875228945164
leaf_weight=15.000000000000002 27 12.999999999999998 13.999999999999998 41 15.999999999999998 15.000000000000002 10.000000000000002 11.999999999999998 10.999999999999998 11.999999999999998 20 20910 1167 15.999999999999998
leaf_count=15 27 13 14 41 16 15 10 12 11 12 20 20910 1167 16
internal_value=0 0.000655157 0.00445139 -7.87807e-05 0.00115388 0.00387192 -0.00178102 -0.00138296 -0.000648974 -0.00500843 0.00018146 -5.30168e-06 0.000248044 0.0035057
internal_weight=0 179 29 150 87 42 63 45 26 22 33 22120 1210 43
internal_count=22299 179 29 150 87 42 63 45 26 22 33 22120 1210 43
shrinkage=0.1


Tree=363
num_leaves=15
num_cat=0
split_feature=9 22 3 19 5 22 2 17 0 4 31 20 6 6
split_gain=0.0073704 0.0266121 0.0587399 0.13218 0.0511467 0.0246095 0.0304885 0.0271188 0.0276312 0.0492454 0.0221066 0.0284923 0.0676056 0.0271669
threshold=-5.3827499999999992e-05 -2.7165849999999998 -10.433649999999998 0.00073582300000000014 1.5617050000000003e-05 -1.8321399999999997 -2.5294749999999993 3.1476000000000005e-07 -9.9535099999999979 -0.41304449999999998 1.8420500000000002 -11.895699999999998 6.1369000000000013e-06 3.940420000000001e-06
decision_type=2 2 2 2 2 2 2 2 2 2 2 2 2 2
left_child=1 2 3 -1 -4 6 7 8 -3 -10 11 12 -7 -12
right_child=-2 5 4 -5 -6 10 -8 -9 9 -11 13 -13 -14 -15
leaf_value=0.014762330679222939 -1.8233688934279684e-05 -0.00096328014631650986 0.0063092692470360957 -0.00053007956236027763 -0.00010813065928893841 -0.0014514117649841035 2.3752283737755932e-05 -0.00035073873930461841 -0.0011063376179663465 -0.008549531120806933 0.00065880547312860329 0.00024965326897946995 0.0099092738190665851 -0.0045599073057972081
leaf_weight=10.000000000000002 20261 26 13.999999999999998 12.999999999999998 110 11.000000000000002 195 52 15.999999999999998 20 19 1521 9.9999999999999982 21
leaf_count=10 20261 26 14 13 110 11 195 52 16 20 19 1521 10 21
internal_value=0 0.000181272 0.00147733 0.00611879 0.000616414 8.05209e-05 -0.000735741 -0.00203487 -0.00344738 -0.00524145 0.000239955 0.000300162 0.00395844 -0.00208102
internal_weight=0 2038 147 23 124 1891 309 114 62 36 1582 1542 21 40
internal_count=22299 2038 147 23 124 1891 309 114 62 36 1582 1542 21 40
shrinkage=0.1


Tree=364
num_leaves=15
num_cat=0
split_feature=3 37 11 23 23 34 11 20 14 1 23 28 37 23
split_gain=0.00722706 0.0369472 0.0597666 0.0505806 0.0378201 0.0555235 0.0707435 0.0672631 0.0451413 0.0630078 0.0353846 0.0323562 0.0345539 0.0183503
threshold=-17.461949999999998 -1.640245e-06 3.0248850000000001e-05 -18.853249999999996 -12.856149999999998 0.5512450000000001 -0.00011904049999999999 -2.5775849999999996 0.012822650000000003 0.47042300000000004 -12.0832 -0.23584399999999997 7.0096650000000009e-06 -15.973899999999999
decision_type=2 2 2 2 2 2 2 2 2 2 2 2 2 2
left_child=1 2 10 -3 5 8 -7 -8 9 -5 -1 -6 -13 -10
right_child=-2 3 -4 4 11 6 7 -9 13 -11 -12 12 -14 -15
leaf_value=-0.009180719656869769 9.2122250510905317e-06 0.0049273116808188598 0.0027716424739496273 -0.0024345244896332072 0.00580343309789896 0.0071332039444574301 -0.0063431400406573496 0.0041064187207005233 -0.0051303966309536597 -0.011095311798687493 -0.0017136206765743815 0.0002090307148595662 -0.0054818339053202764 -0.00063472749763841081
leaf_weight=14.999999999999998 21730 19 10.999999999999998 21 9.9999999999999982 13.999999999999998 13.999999999999998 11.000000000000002 10.999999999999998 13.999999999999998 11.000000000000002 355 10.999999999999998 52
leaf_count=15 21730 19 11 21 10 14 14 11 11 14 11 355 11 52
internal_value=0 -0.000351813 -0.00340737 -0.000139303 -0.000326955 -0.0017494 0.00144183 -0.00174533 -0.00301938 -0.00589884 -0.00602156 0.00019133 3.79938e-05 -0.00141969
internal_weight=0 569 37 532 513 137 39 25 98 35 26 376 366 63
internal_count=22299 569 37 532 513 137 39 25 98 35 26 376 366 63
shrinkage=0.1


Tree=365
num_leaves=15
num_cat=0
split_feature=10 20 20 19 37 37 30 1 13 33 33 26 23 3
split_gain=0.00724895 0.097253 0.26184 0.181756 0.204424 0.219302 0.352667 0.457265 0.247227 0.651202 0.396882 0.318919 0.220055 0.174323
threshold=1.2977750000000001e-05 2.3388550000000001 -3.0347149999999998 0.000218712 8.1363550000000009e-08 -1.0507399999999998e-06 0.00087741450000000003 5.5321350000000011 -1.5984749999999998e-06 1.0000000180025095e-35 -4.6164299999999991e-06 5.3058850000000004e-05 -12.8988 -9.3781449999999982
decision_type=2 2 2 2 2 2 2 2 2 2 2 2 2 2
left_child=1 2 -1 4 5 -4 8 -8 9 -7 12 -11 -10 -12
right_child=-2 -3 3 -5 -6 6 7 -9 10 11 13 -13 -14 -15
leaf_value=-0.00048866994988789225 -1.5771660868274407e-05 -0.00078156679468568014 -0.0030854715871100782 -0.00044960639523038566 -0.0005665962286114407 -0.0056501543720514748 0.026595580573255003 0.0040202491149744562 0.0039262557867914428 0.011275707132049968 -0.0049411296546168163 0.034029281969097533 0.023077175005649528 0.0047761149409537513
leaf_weight=592 20714 612 24 115 65 13.999999999999998 19 17 12.000000000000002 14.000000000000002 48 10.999999999999998 11.999999999999998 30
leaf_count=592 20714 612 24 115 65 14 19 17 12 14 48 11 12 30
internal_value=0 0.000206116 0.000827352 0.00287219 0.00430831 0.00588477 0.00710108 0.015935 0.0048456 0.0116174 0.00225638 0.0212873 0.0135017 -0.00120373
internal_weight=0 1585 973 381 266 201 177 36 141 39 102 25 24 78
internal_count=22299 1585 973 381 266 201 177 36 141 39 102 25 24 78
shrinkage=0.1


Tree=366
num_leaves=15
num_cat=0
split_feature=2 35 0 2 31 22 34 0 7 32 1 1 21 4
split_gain=0.00709298 0.0329919 0.0183083 0.00924653 0.0725541 0.0267814 0.00878326 0.0459087 0.0488719 0.0761022 0.516685 0.0972379 0.0777926 0.241811
threshold=3.0775850000000005 -0.0031161799999999992 -9.4585049999999971 3.0591050000000006 0.08884015000000002 1.3796950000000001 0.008378685000000002 6.3840100000000009 3.4278550000000004e-05 -0.036715899999999996 9.108175000000001 8.3758000000000017 10.970250000000002 0.064882950000000009
decision_type=2 2 2 2 2 2 2 2 2 2 2 2 2 2
left_child=3 -2 -3 6 5 -5 7 8 9 10 -1 -11 -13 -14
right_child=1 2 -4 4 -6 -7 -8 -9 -10 11 -12 12 13 -15
leaf_value=-0.00024648983141690095 0.0038057197513064072 -0.00069100240621732423 -0.0047787846445771715 0.00061269774834843394 0.0078917284173747673 -0.0050863823061808944 -3.090789320631003e-05 -0.00051297484672408996 3.5689521925725285e-05 0.0010415804565041265 0.021232010676924672 -0.0028218914682422453 0.013225736065457261 -0.0078294175211340196
leaf_weight=56 10.999999999999998 27.999999999999996 18.000000000000004 47 12.999999999999998 9.9999999999999982 18036 874 2208 844 13.999999999999998 118 12.000000000000002 9.9999999999999982
leaf_count=56 11 28 18 47 13 10 18036 874 2208 844 14 118 12 10
internal_value=0 -0.00111409 -0.00229057 2.8551e-06 0.00115036 -0.000387141 -7.67735e-07 0.000130666 0.000303119 0.000863349 0.00404921 0.000636713 -0.00180406 0.00365521
internal_weight=0 57 46 22242 70 57 22172 4136 3262 1054 70 984 140 22
internal_count=22299 57 46 22242 70 57 22172 4136 3262 1054 70 984 140 22
shrinkage=0.1


Tree=367
num_leaves=15
num_cat=0
split_feature=3 25 39 16 4 27 21 3 14 34 23 1 21 16
split_gain=0.00764178 0.0199528 0.0259933 0.0435277 0.0394933 0.0229401 0.0221047 0.0959728 0.0196056 0.0812317 0.0435434 0.0435432 1.36371 0.264543
threshold=-6.3643949999999991 30.297000000000004 0.032725900000000009 1.5605150000000004e-05 -0.052919949999999986 111.70800000000001 -14.205299999999998 -5.9294499999999992 0.0011223800000000003 0.49467900000000004 -14.341999999999999 -7.9871449999999991 -8.2570699999999988 8.6672800000000014e-07
decision_type=2 2 2 2 2 2 2 2 2 2 2 2 2 2
left_child=8 6 4 5 -3 -4 7 -2 9 11 -11 12 13 -1
right_child=1 2 3 -5 -6 -7 -8 -9 -10 10 -12 -13 -14 -15
leaf_value=0.01115302170413391 0.010922165173105895 -0.0088461264665238536 -0.00050697471328841823 0.0055540520168671555 -0.00061795600008086437 -0.004823777164399092 0.00012087845689934714 -0.00066929620550945407 5.8054390850121362e-05 0.0012549594057629334 3.7909670119799629e-05 -0.00020470209664067191 -0.0027694470351322421 -0.00039573839074000722
leaf_weight=96 9.9999999999999982 10.000000000000002 102 10.999999999999998 13.999999999999998 13.999999999999998 5117 25 9916 543 641 5106 669 25
leaf_count=96 10 10 102 11 14 14 5117 25 9916 543 641 5106 669 25
internal_value=0 0.000104801 -0.00102823 -0.000457872 -0.00404636 -0.00102797 0.000138009 0.00264255 -3.26996e-05 -0.000159806 0.000596067 -0.000311596 -0.00100249 0.00876691
internal_weight=0 5303 151 127 24 116 5152 35 16996 7080 1184 5896 790 121
internal_count=22299 5303 151 127 24 116 5152 35 16996 7080 1184 5896 790 121
shrinkage=0.1


Tree=368
num_leaves=15
num_cat=0
split_feature=32 1 3 14 23 34 13 22 3 23 1 23 22 21
split_gain=0.00822371 0.204367 0.145638 0.187116 0.160501 0.206947 0.145591 0.222546 0.45121 0.453372 0.506117 1.02908 0.999352 0.527883
threshold=0.026996500000000003 -0.91915199999999986 -7.0634999999999986 0.0055317300000000012 -7.3079149999999986 0.25712300000000005 3.3590300000000003e-06 -1.712 -6.8774499999999987 -6.9149849999999988 -5.3201099999999988 -13.311149999999998 -0.80414149999999995 -6.5036099999999992
decision_type=2 2 2 2 2 2 2 2 2 2 2 2 2 2
left_child=-1 6 3 4 5 -3 7 -2 9 10 11 -9 -13 -12
right_child=1 2 -4 -5 -6 -7 -8 8 -10 -11 13 12 -14 -15
leaf_value=4.7440776795513533e-05 -0.00014493791921511178 -0.0030011712149441146 0.00028835936409257913 6.2266461546896747e-05 0.00036015066981408815 -0.00052855414537121114 -5.1760147603482401e-05 -0.0036414518486708406 -0.00065737177854040783 -0.0044250128911165849 -0.0041726798363338783 0.017248425446829793 -0.00053883193286310418 0.0050566447712422531
leaf_weight=13848 733 896 1335 1078 336 544 2625 52 343 58 90 119 43 199
leaf_count=13848 733 896 1335 1078 336 544 2625 52 343 58 90 119 43 199
internal_value=0 -7.77375e-05 -0.000573762 -0.000977032 -0.00160787 -0.00206707 0.000409791 0.00114991 0.00219982 0.00394673 0.00491206 0.00859831 0.0125271 0.00218246
internal_weight=0 8451 4189 2854 1776 1440 4262 1637 904 561 503 214 162 289
internal_count=22299 8451 4189 2854 1776 1440 4262 1637 904 561 503 214 162 289
shrinkage=0.1


Tree=369
num_leaves=15
num_cat=0
split_feature=16 36 19 36 34 35 10 22 13 10 15 2 34 38
split_gain=0.00745142 0.0482547 0.0518089 0.154656 0.293204 0.345329 0.27314 0.0526059 0.121381 0.1721 0.177178 0.333599 0.223487 0.429154
threshold=-1.7593899999999998e-06 0.00065950650000000009 1.1867000000000002e-05 -0.0081398299999999989 1.8908100000000003 0.0030997900000000003 2.4680150000000001e-05 1.9633400000000003 -9.2649699999999981e-06 1.5743750000000003e-05 1.4151350000000003e-06 2.1572450000000005 0.010956550000000001 0.0020219200000000004
decision_type=2 2 2 2 2 2 2 2 2 2 2 2 2 2
left_child=1 2 3 4 5 6 -1 -4 9 -9 11 -11 -13 -14
right_child=-2 -3 7 -5 -6 -7 -8 8 -10 10 -12 12 13 -15
leaf_value=0.029249173402786245 -3.4481463997578848e-05 -0.00029710712471226684 2.6199926914466999e-06 0.00051843009222403717 -0.0036989912213022378 -0.0021953706542262807 0.0079129819050043192 -0.006985564693968627 0.00010567189547744816 0.023549920301884415 -0.00030883130795486714 -0.0045587535806010824 0.013112842192132882 -0.00041305813576198293
leaf_weight=12.000000000000002 16447 2030 2809 262 19 11.999999999999998 11.999999999999998 15.999999999999998 486 9.9999999999999982 68 22 49 45
leaf_count=12 16447 2030 2809 262 19 12 12 16 486 10 68 22 49 45
internal_value=0 9.69099e-05 0.000306186 0.00153044 0.00635128 0.0116556 0.0185811 0.000195462 0.000973758 0.00298276 0.00380489 0.00602499 0.00451422 0.00663768
internal_weight=0 5852 3822 317 55 36 24 3505 696 210 194 126 116 94
internal_count=22299 5852 3822 317 55 36 24 3505 696 210 194 126 116 94
shrinkage=0.1


Tree=370
num_leaves=15
num_cat=0
split_feature=3 34 14 20 25 34 2 22 31 24 34 30 14 33
split_gain=0.00757926 0.0644784 0.12518 0.152526 0.549906 0.210475 0.144208 0.187846 0.12996 0.0873601 0.0858937 0.0695024 0.0681869 0.847542
threshold=-9.049294999999999 0.03278045000000001 0.00056584850000000015 6.7346150000000007 1.2542100000000003 0.15679950000000004 -0.32650499999999993 -2.5539299999999998 -0.11909649999999998 -0.26746949999999997 0.065668900000000016 0.00068457000000000012 0.00056584850000000015 -6.6890099999999997e-06
decision_type=2 2 2 2 2 2 2 2 2 2 2 2 2 2
left_child=1 12 3 5 -5 6 7 -3 -9 -6 11 -8 13 -1
right_child=-2 2 -4 4 9 -7 10 8 -10 -11 -12 -13 -14 -15
leaf_value=0.013818023893126877 5.139814885966583e-05 0.011275589261204005 -0.00012698634741511617 0.023275355783037164 -0.0051296487126299851 -0.000327440275879309 -0.011229761571256802 0.0044306076217540784 -0.0046983667709878064 0.0030922793613475125 -0.0042987066161372968 -0.0027029573005468896 8.4722538163452949e-05 -4.5110892714054033e-05
leaf_weight=49 12547 9.9999999999999982 5042 10.999999999999998 28 270 47 19 87 24 69 11.999999999999998 3643 441
leaf_count=49 12547 10 5042 11 28 270 47 19 87 24 69 12 3643 441
internal_value=0 -6.61293e-05 -0.000286657 -0.00168191 0.00296212 -0.00225112 -0.00437978 -0.00182604 -0.00306204 -0.00133491 -0.0066941 -0.0094955 0.000233688 0.0013412
internal_weight=0 9752 5619 577 63 514 244 116 106 52 128 59 4133 490
internal_count=22299 9752 5619 577 63 514 244 116 106 52 128 59 4133 490
shrinkage=0.1


Tree=371
num_leaves=15
num_cat=0
split_feature=4 17 33 22 29 3 26 29 18 33 23 3 13 6
split_gain=0.00746349 0.0176612 0.0189416 0.0202919 0.0183859 0.032474 0.0176926 0.0387976 0.0443877 0.0173114 0.0151331 0.0271926 0.0557633 0.0775216
threshold=0.93067350000000004 -2.4702299999999996e-06 2.2102800000000005e-06 1.7583250000000004 -0.39630949999999993 -14.754349999999997 6.597115000000002e-05 -0.13184349999999997 0.0032712850000000001 -0.00058739099999999993 -6.467369999999999 -7.701249999999999 -1.3946599999999998e-05 5.6466150000000013e-06
decision_type=2 2 2 2 2 2 2 2 2 2 2 2 2 2
left_child=10 2 3 -2 5 -3 7 8 -6 -8 -1 -12 -13 -14
right_child=1 4 -4 -5 6 -7 9 -9 -10 -11 11 12 13 -15
leaf_value=-5.4644835609609949e-05 0.0012781075930979569 -0.0052913214299170411 -0.00012824240440569885 0.0059214003197848794 0.0085231488877484073 -0.00041880058523799694 0.0041690759908912392 -0.00011706899544962194 0.00074313213408458987 0.00035388899427805259 0.00067270719692876088 -0.0020387752113471924 -1.4150960505536005e-05 0.0053777961696531359
leaf_weight=16743 160 17 111 9.9999999999999982 10.999999999999998 70 11.999999999999998 2281 22 1337 807 131 559 28
leaf_count=16743 160 17 111 10 11 70 12 2281 22 1337 807 131 559 28
internal_value=0 0.000123159 0.000887816 0.00155124 6.58611e-05 -0.0013709 9.99857e-05 -6.7818e-05 0.00333647 0.000387827 -2.71762e-05 0.000274402 -0.000173275 0.000243046
internal_weight=0 4031 281 170 3750 87 3663 2314 33 1349 18268 1525 718 587
internal_count=22299 4031 281 170 3750 87 3663 2314 33 1349 18268 1525 718 587
shrinkage=0.1


Tree=372
num_leaves=15
num_cat=0
split_feature=1 21 3 23 14 34 4 18 3 18 0 20 22 11
split_gain=0.00710346 0.500443 0.298759 0.59427 0.765819 0.543505 0.472519 0.445345 0.415952 0.392911 0.372023 1.4349 1.15642 0.809112
threshold=4.9305950000000012 4.9317450000000012 -6.6628949999999989 -6.8361599999999987 0.0020371300000000003 0.11402900000000001 0.313587 -1.2540699999999998e-05 -8.6270849999999992 -1.2540699999999998e-05 3.7226900000000005 4.2412050000000008 1.1696050000000002 1.9789500000000001e-05
decision_type=2 2 2 2 2 2 2 2 2 2 2 2 2 2
left_child=-1 -2 3 4 5 6 9 8 -7 -3 12 -12 13 -11
right_child=1 2 -4 -5 -6 7 -8 -9 -10 10 11 -13 -14 -15
leaf_value=-3.5895761708864062e-05 -0.00049567798366054368 0.00054180013533671931 -0.00025778436457059913 -0.0015419136561036638 0.00031950762315585761 0.026112243773726118 -0.0020996851154852138 -0.0020401310735267768 -0.00021745399571955205 -0.0068962428561644626 -0.0055010108352769498 0.017246731118885455 0.016900260927654957 0.024906113371253015
leaf_weight=15877 4465 48 687 302 419 12.000000000000002 43 114 11.999999999999998 40 57 54 159 9.9999999999999982
leaf_count=15877 4465 48 687 302 419 12 43 114 12 40 57 54 159 10
internal_value=0 8.87445e-05 0.00142214 0.00233088 0.00353913 0.00599636 0.00781956 0.000566395 0.0129474 0.0089786 0.0102441 0.00556546 0.012729 -0.000535772
internal_weight=0 6422 1957 1270 968 549 411 138 24 368 320 111 209 50
internal_count=22299 6422 1957 1270 968 549 411 138 24 368 320 111 209 50
shrinkage=0.1


Tree=373
num_leaves=15
num_cat=0
split_feature=3 14 23 28 12 34 17 1 21 21 21 0 37 23
split_gain=0.00849609 0.0206688 0.0814674 0.0428453 0.0787911 0.173748 0.125324 0.0557596 1.01523 0.273174 0.234755 0.224431 0.258386 0.284575
threshold=-6.3643949999999991 0.0011223800000000003 -16.786249999999999 -0.085570549999999981 -6.6376149999999986e-05 0.5512450000000001 6.5808800000000009e-07 -7.9871449999999991 -8.2570699999999988 -2.1386499999999997 -8.0113049999999983 4.4138050000000009 2.3417550000000004e-08 -6.6267649999999989
decision_type=2 2 2 2 2 2 2 2 2 2 2 2 2 2
left_child=1 2 -1 4 5 -4 -7 8 11 -10 -9 12 13 -5
right_child=-2 -3 3 7 -6 6 -8 10 9 -11 -12 -13 -14 -15
leaf_value=0.00099925738505862358 0.00011050435772226277 5.8703265718133759e-05 0.013311321406314773 0.011993895509901147 6.6330941739462085e-05 -0.0011371686578849737 0.010338045930257068 -0.0021053770378372419 -0.0056238898286161756 -0.0012825505611470545 2.2608921463957717e-05 0.018804607391357423 -0.0029246321091285117 -0.0017798836994916201
leaf_weight=554 5303 9916 14.999999999999998 60 310 46 11.999999999999998 582 206 489 4745 14.999999999999998 26 20
leaf_count=554 5303 9916 15 60 310 46 12 582 206 489 4745 15 26 20
internal_value=0 -3.4479e-05 -0.000164987 -0.000263821 0.000762348 0.00371804 0.00123701 -0.0003278 -0.00109758 -0.00256934 -0.000209884 0.00735591 0.00573581 0.00855045
internal_weight=0 16996 7080 6526 383 73 58 6143 816 695 5327 121 106 80
internal_count=22299 16996 7080 6526 383 73 58 6143 816 695 5327 121 106 80
shrinkage=0.1


Tree=374
num_leaves=15
num_cat=0
split_feature=3 23 3 14 23 24 33 23 3 13 14 23 33 13
split_gain=0.00855112 0.0687632 0.137063 0.169378 0.356996 0.554521 0.137378 0.12788 0.593233 0.384992 0.312731 0.433493 0.259166 0.767961
threshold=-9.049294999999999 -12.8988 -13.252699999999999 0.0015581900000000003 -14.499449999999998 0.14657200000000001 -3.9620049999999993e-05 -9.2007249999999985 -13.073449999999998 3.4503500000000006e-05 0.00073300000000000004 -7.6724749999999995 -1.2365199999999998e-05 2.6321800000000003e-05
decision_type=2 2 2 2 2 2 2 2 2 2 2 2 2 2
left_child=1 2 3 4 6 -6 -1 8 -3 12 11 -9 13 -10
right_child=-2 7 -4 -5 5 -7 -8 10 9 -11 -12 -13 -14 -15
leaf_value=0.0066418068613319729 5.4594103585578232e-05 -0.001240263920544097 -0.0011570117771421086 9.0560374856733426e-06 0.00092775001026251715 0.027802940351622448 -0.0062191595768798956 -0.0052245520357518159 -0.0022053457597306283 9.8025473907543807e-05 0.00011243129766605358 -0.00010233782024234255 0.0040531512541434091 0.015842318789671277
leaf_weight=12.999999999999998 12547 1047 1445 1025 17.000000000000004 13.999999999999998 23 281 186 745 3808 401 720 27
leaf_count=13 12547 1047 1445 1025 17 14 23 281 186 745 3808 401 720 27
internal_value=0 -7.02412e-05 -0.000518046 0.000327471 0.00519874 0.0130649 -0.00157492 8.72199e-05 0.000627629 0.00179311 -0.000240757 -0.00221281 0.00314664 8.23864e-05
internal_weight=0 9752 2537 1092 67 31 36 7215 2725 1678 4490 682 933 213
internal_count=22299 9752 2537 1092 67 31 36 7215 2725 1678 4490 682 933 213
shrinkage=0.1


Tree=375
num_leaves=15
num_cat=0
split_feature=16 36 16 5 12 32 19 12 23 19 35 22 22 9
split_gain=0.00843462 0.0344459 0.0583641 0.0418018 0.0420805 0.0321463 0.204224 0.605513 0.0337231 0.0475718 0.118385 0.0294389 0.151552 0.345748
threshold=4.5816150000000005e-06 -0.020281949999999997 4.328635000000001e-05 9.9203700000000004e-06 0.00026153600000000009 -0.38019549999999996 2.1170350000000003e-05 0.00014817500000000004 -6.8361599999999987 0.00020352900000000001 0.0019543150000000003 -0.27264999999999995 -0.42655349999999997 2.6242100000000001e-05
decision_type=2 2 2 2 2 2 2 2 2 2 2 2 2 2
left_child=-1 2 3 -2 -5 6 7 -3 9 10 -8 12 -7 -14
right_child=1 5 -4 4 -6 11 8 -9 -10 -11 -12 -13 13 -15
leaf_value=-3.2753410655902888e-05 -0.0081535884941166103 -0.0019120260003910518 0.00022369846465892813 -0.001349735844511694 -0.0080536973662674437 0.00018385785865427339 -0.001677988692844177 0.026501885595886662 -0.0023786497667606455 0.00018395006345732639 0.010123577878317414 -0.00013884477114448141 -8.9748314502158845e-06 0.011573194783331695
leaf_weight=17372 10.999999999999998 20 246 147 9.9999999999999982 1963 17 11.999999999999998 40 205 17 2124 76 39
leaf_count=17372 11 20 246 147 10 1963 17 12 40 205 17 2124 76 39
internal_value=0 0.000115485 -0.000757507 -0.00219427 -0.00177674 0.000195568 0.00117659 0.00874319 0.000308741 0.000758514 0.00422279 0.00012296 0.000390561 0.00391889
internal_weight=0 4927 414 168 157 4513 311 32 279 239 34 4202 2078 115
internal_count=22299 4927 414 168 157 4513 311 32 279 239 34 4202 2078 115
shrinkage=0.1


Tree=376
num_leaves=15
num_cat=0
split_feature=35 15 19 36 36 7 5 33 6 34 6 23 23 0
split_gain=0.00799306 0.146259 0.183976 0.387268 0.232644 0.280484 0.212195 0.310801 0.247212 0.155467 0.193562 0.190447 0.337798 0.137235
threshold=0.0014610850000000002 1.6360850000000001e-07 8.1708200000000029e-06 0.00022516100000000001 0.23757050000000002 8.0101400000000012e-05 1.7360350000000004e-05 -2.6169699999999998e-05 -3.7514299999999993e-06 0.051869950000000005 -2.5208499999999993e-06 -16.265799999999995 -12.434149999999997 5.4646700000000008
decision_type=2 2 2 2 2 2 2 2 2 2 2 2 2 2
left_child=-1 -2 3 -3 5 6 9 13 -9 -5 -11 -12 -13 -8
right_child=1 2 -4 4 -6 -7 7 8 -10 10 11 12 -14 -15
leaf_value=-3.4575617100656193e-05 -0.0002914333720829768 -0.0013200486113432077 0.00033162913686104068 0.014847286754999967 -0.0049464568821713335 -0.00053874788345242657 -0.0017396562116725055 0.013347878758811146 0.033934083189815285 -0.0025389737035896231 -0.0031332443663684116 0.024778787946949404 0.0058507467657115987 0.014122152028139682
leaf_weight=16722 3496 141 1713 17 20 46 12.000000000000002 14.000000000000002 9.9999999999999982 28 13.999999999999998 11.999999999999998 44 9.9999999999999982
leaf_count=16722 3496 141 1713 17 20 46 12 14 10 28 14 12 44 10
internal_value=0 0.000103671 0.000767431 0.00279604 0.00535273 0.00634783 0.00831542 0.0140556 0.0219255 0.00601935 0.00448798 0.00729876 0.00990676 0.00547026
internal_weight=0 5577 2081 368 227 207 161 46 24 115 98 70 56 22
internal_count=22299 5577 2081 368 227 207 161 46 24 115 98 70 56 22
shrinkage=0.1


Tree=377
num_leaves=15
num_cat=0
split_feature=14 23 3 5 34 14 3 20 0 34 3 9 37 25
split_gain=0.00855794 0.042958 0.0505234 0.0417164 0.0500403 0.0854269 0.0447033 0.0666905 0.648662 0.31528 0.289074 0.165485 0.136629 0.136087
threshold=0.00015979200000000002 -10.632649999999998 -6.043429999999999 7.1526450000000005e-06 0.011857950000000001 6.1412450000000005e-05 -6.0725999999999987 -7.9738999999999995 -7.3401499999999986 0.020247000000000005 -7.6471949999999991 -2.4413349999999999e-05 -6.9315299999999985e-08 0.17276150000000004
decision_type=2 2 2 2 2 2 2 2 2 2 2 2 2 2
left_child=1 2 -1 4 -3 -6 7 8 9 10 -5 13 -12 -9
right_child=-2 3 -4 6 5 -7 -8 11 -10 -11 12 -13 -14 -15
leaf_value=0.00099339085490284646 -3.680327191550514e-05 -0.00040167344581837263 3.5286064789634494e-05 0.021405004195280769 -0.00089103871564888805 0.01071120801071326 0.00015460369849819159 -0.0077530922254284282 -0.0028727317086288894 7.4037330606105652e-05 0.016285192547366024 -0.00011899085444080143 0.004083126087565548 -0.0019384248886182933
leaf_weight=965 16482 26 1281 19 11.000000000000002 14.999999999999998 2018 46 186 44 11.999999999999998 833 39 322
leaf_count=965 16482 26 1281 19 11 15 2018 46 186 44 12 833 39 322
internal_value=0 0.000104279 0.000446938 -0.000111238 0.00270045 0.00580257 -0.000152786 -0.000566053 0.00076763 0.00670717 0.0108766 -0.000899196 0.0069542 -0.00266526
internal_weight=0 5817 2246 3571 52 26 3519 1501 300 114 70 1201 51 368
internal_count=22299 5817 2246 3571 52 26 3519 1501 300 114 70 1201 51 368
shrinkage=0.1


Tree=378
num_leaves=15
num_cat=0
split_feature=4 23 3 13 6 13 10 20 26 1 5 2 0 5
split_gain=0.0082513 0.0168423 0.023038 0.0465471 0.0593459 0.104893 0.0553539 0.0505413 0.0434922 0.0579142 0.0345496 0.0323478 0.0562337 0.0478128
threshold=0.93067350000000004 -6.467369999999999 -7.6471949999999991 -1.3946599999999998e-05 5.6466150000000013e-06 -1.1863749999999998e-05 4.7574800000000011e-05 -10.226699999999999 5.1480050000000005e-05 -8.6647349999999985 1.7469000000000002e-05 1.4537650000000004 -1.0375099999999999 1.5212750000000003e-05
decision_type=2 2 2 2 2 2 2 2 2 2 2 2 2 2
left_child=1 -1 -3 6 11 -6 8 -8 9 -4 -9 -5 13 -13
right_child=-2 2 3 4 5 -7 7 10 -10 -11 -12 12 -14 -15
leaf_value=-5.7552896941338931e-05 0.00012949639297486141 0.00065187646694307754 0.0033001882877821717 0.00034178022973164692 0.012959309546276923 0.00018560179806728332 0.0064440401457250126 -0.0065979266259819274 -0.0082147562876343731 -0.005573533366336242 -0.00024907582258795936 -0.0028271825662159245 -0.0062784697771781977 0.0029461220399333308
leaf_weight=16743 4031 816 12.000000000000002 472 10.000000000000002 18 9.9999999999999982 9.9999999999999982 19 19 60 32 21 26
leaf_count=16743 4031 816 12 472 10 18 10 10 19 19 60 32 21 26
internal_value=0 -2.85746e-05 0.000289579 -0.000127395 0.000256538 0.00474764 -0.00183737 -0.000206043 -0.0044475 -0.00213854 -0.00115605 2.83153e-05 -0.00184454 -0.000239149
internal_weight=0 18268 1525 709 579 28 130 80 50 31 70 551 79 58
internal_count=22299 18268 1525 709 579 28 130 80 50 31 70 551 79 58
shrinkage=0.1


Tree=379
num_leaves=15
num_cat=0
split_feature=4 26 19 4 33 20 33 20 18 20 9 38 34 38
split_gain=0.00852498 0.0301996 0.0283647 0.0849133 0.21692 0.0577072 0.0504963 0.0471531 0.0227231 0.0858968 0.221373 0.882356 0.473355 0.222605
threshold=-0.49158199999999991 5.5371100000000009e-05 8.1708200000000029e-06 -0.57280299999999984 2.1424800000000002e-05 -5.2590199999999987 -7.6860149999999987e-07 0.71838200000000019 -9.5550599999999983e-06 3.2916800000000004 2.2583300000000001e-05 0.00085977900000000008 0.23176950000000004 0.00041292400000000006
decision_type=2 2 2 2 2 2 2 2 2 2 2 2 2 2
left_child=1 -1 5 -4 7 -3 -7 -5 9 -2 13 -12 -13 -11
right_child=8 2 3 4 -6 6 -8 -9 -10 10 11 12 -14 -15
leaf_value=0.00032436705350731527 -0.0008821905724210005 0.0042625289224088193 -0.00022389792621467023 0.0039117951943383866 0.01451047512569598 -0.0090726219109326083 -0.0016234307531983808 -0.0035883954995752951 5.7508659168142027e-06 0.00068259993388944471 -0.00042310098425651948 0.023571281268128328 0.0031215986040861983 -0.0044599986381565586
leaf_weight=2881 1155 9.9999999999999982 1923 14.999999999999998 13.999999999999998 13.999999999999998 26 19 15618 314 148 28 19 115
leaf_count=2881 1155 10 1923 15 14 14 26 19 15618 314 148 28 19 115
internal_value=0 0.000116481 -0.000179868 -0.000120199 0.00403425 -0.00253201 -0.00423065 -0.000279488 -3.28211e-05 -0.000371448 0.000573916 0.00336763 0.0153044 -0.000695952
internal_weight=0 4902 2021 1971 48 50 40 34 17397 1779 624 195 47 429
internal_count=22299 4902 2021 1971 48 50 40 34 17397 1779 624 195 47 429
shrinkage=0.1


Tree=380
num_leaves=15
num_cat=0
split_feature=3 23 23 3 20 5 16 16 3 14 23 3 3 23
split_gain=0.00857085 0.0452154 0.044398 0.0408918 0.0303828 0.191349 0.0428452 0.0622566 0.0392882 0.0773048 0.0550197 0.148135 0.11923 0.452076
threshold=-7.4146649999999985 -10.715499999999997 -10.829899999999999 -6.043429999999999 13.431500000000002 1.0906050000000002e-05 5.3331600000000017e-07 1.0079050000000002e-07 -5.8792649999999993 0.00073300000000000004 -7.1463699999999992 -7.2465349999999988 -6.5485099999999994 -6.6126999999999994
decision_type=2 2 2 2 2 2 2 2 2 2 2 2 2 2
left_child=1 -1 3 -2 8 -6 7 -7 9 10 -4 -12 13 -13
right_child=2 -3 4 -5 5 6 -8 -9 -10 -11 11 12 -14 -15
leaf_value=-0.00026820119679122809 0.00076104211681356183 9.8687130048395798e-05 -0.0011097692789817769 3.5989197513446256e-05 0.012034632551173369 -3.2034153991844509e-05 0.0049228179358089203 -0.0086218868335708986 0.00018062284544752107 0.00046952582413295138 -0.0051524543431301978 0.0049877978181303738 -0.00082104464032169101 -0.002490094695920536
leaf_weight=5589 1474 8419 1265 1647 14.999999999999998 54 12.999999999999998 9.9999999999999982 2245 778 53 186 408 143
leaf_count=5589 1474 8419 1265 1647 15 54 13 10 2245 778 53 186 408 143
internal_value=0 -4.76963e-05 8.05849e-05 0.00037842 -9.9211e-05 0.00170182 -0.000311066 -0.0013742 -0.000131841 -0.000379452 -0.000700865 -4.61006e-05 0.000321113 0.00173753
internal_weight=0 14008 8291 3121 5170 92 77 64 5078 2833 2055 790 737 329
internal_count=22299 14008 8291 3121 5170 92 77 64 5078 2833 2055 790 737 329
shrinkage=0.1


Tree=381
num_leaves=15
num_cat=0
split_feature=11 31 11 11 3 23 34 14 20 2 10 30 31 14
split_gain=0.00863237 0.197471 0.158377 0.145536 0.17963 0.23553 0.256978 0.539059 0.473463 0.897623 0.867784 0.551889 0.404459 0.290872
threshold=1.6086700000000003e-05 -0.026535699999999999 0.00011011750000000001 0.00011419900000000001 -7.2465349999999988 -7.7652849999999995 0.065668900000000016 0.00086775350000000003 4.952325000000001 0.90870650000000008 2.53518e-05 0.00015755100000000002 -0.040373849999999996 0.000235851
decision_type=2 2 2 2 2 2 2 2 2 2 2 2 2 2
left_child=-1 3 -3 4 5 6 7 8 9 -2 12 -12 -10 -13
right_child=1 2 -4 -5 -6 -7 -8 -9 10 -11 11 13 -14 -15
leaf_value=4.5860437581662573e-05 -0.006851528899807652 -0.00098034219302089629 0.00021704322745273567 -0.00037571391409200333 -0.0004622414573675084 -0.00086929763049535405 0.0011001006889669142 0.0004996976962407402 -0.014827798617382846 0.026339251240715386 0.0046460145568874272 0.008657096942456869 0.0078349057643208649 0.021043669280729125
leaf_weight=14449 44 2780 1833 1172 586 305 732 211 18 9.9999999999999982 49 26 13.999999999999998 70
leaf_count=14449 44 2780 1833 1172 586 305 732 211 18 10 49 26 14 70
internal_value=0 -8.44124e-05 -0.000504555 0.000514326 0.00101947 0.00160655 0.00224976 0.00415372 0.00749138 -0.000705088 0.009992 0.0132814 -0.00491287 0.017689
internal_weight=0 7850 4613 3237 2065 1479 1174 442 231 54 177 145 32 96
internal_count=22299 7850 4613 3237 2065 1479 1174 442 231 54 177 145 32 96
shrinkage=0.1


Tree=382
num_leaves=15
num_cat=0
split_feature=29 11 3 14 23 23 5 11 35 33 9 29 7 2
split_gain=0.00900355 0.0937849 0.140498 0.15362 0.164673 0.130264 0.0939327 0.109283 0.137411 0.0889305 0.0783354 0.0762715 0.0807649 0.0711959
threshold=0.0058271950000000012 -1.3465549999999998e-05 -8.2580449999999974 0.004937775000000001 -16.867799999999995 -7.7487749999999993 1.5498450000000001e-05 -1.5369699999999996e-05 -0.0051262549999999988 -4.6579499999999992e-06 -5.9757499999999986e-06 0.17229250000000004 4.924475000000001e-05 2.8833850000000005
decision_type=2 2 2 2 2 2 2 2 2 2 2 2 2 2
left_child=-1 6 3 4 -3 11 7 13 -9 -10 -7 12 -6 -2
right_child=1 2 -4 -5 5 10 -8 8 9 -11 -12 -13 -14 -15
leaf_value=-4.0209243507662101e-05 0.00078374215596854323 0.0013552789418690148 0.00032897892811085733 0.0002643310714324733 -0.0039536253335042291 -0.0080858218547126114 -3.8236694966726024e-05 0.016236908584833145 0.011363061582669616 0.00051789269782602791 0.00060566611247036216 -0.0002462707643925822 -0.0012299946720354612 0.0037545025709952262
leaf_weight=15923 1109 154 2175 698 437 10.999999999999998 1231 9.9999999999999982 9.9999999999999982 31 181 97 145 87
leaf_count=15923 1109 154 2175 698 437 11 1231 10 10 31 181 97 145 87
internal_value=0 0.000100416 -0.000205373 -0.000879904 -0.0016591 -0.00219207 0.000581435 0.00119316 0.00572656 0.00316306 0.000107716 -0.00284237 -0.00327506 0.000999843
internal_weight=0 6376 3898 1723 1025 871 2478 1247 51 41 192 679 582 1196
internal_count=22299 6376 3898 1723 1025 871 2478 1247 51 41 192 679 582 1196
shrinkage=0.1


Tree=383
num_leaves=15
num_cat=0
split_feature=17 35 15 19 34 3 33 32 0 22 19 3 23 34
split_gain=0.00818727 0.0378127 0.093111 0.187432 0.157174 0.119226 0.109762 0.0856856 0.137448 0.514498 0.892152 0.363388 0.925756 0.372179
threshold=5.7427200000000006e-08 9.8026700000000008e-05 -1.5125899999999997e-08 2.5573700000000003e-06 0.5512450000000001 -6.6325449999999995 -1.2724099999999997e-07 -0.0046033049999999994 4.0042950000000008 1.0815850000000002 1.6630700000000002e-06 -7.6471949999999991 -7.7439199999999992 0.11925900000000002
decision_type=2 2 2 2 2 2 2 2 2 2 2 2 2 2
left_child=1 7 3 4 5 6 -3 8 -1 10 11 12 13 -10
right_child=-2 2 -4 -5 -6 -7 -8 -9 9 -11 -12 -13 -14 -15
leaf_value=0.00024519967552858569 -4.5124437035510412e-05 -0.0054335921845696192 0.00029425620602358682 6.0604964887408577e-05 0.0012387308038808911 -0.0005546495460406857 -0.0016669040157459678 -0.00015313660318830503 0.029040014736253669 -0.00015766752018256134 0.00042668871853190167 0.0044520228118118321 -0.0090933023206889643 0.0072967781126499183
leaf_weight=1438 14344 203 2153 1124 111 145 125 2098 37 360 114 27 9.9999999999999982 9.9999999999999982
leaf_count=1438 14344 203 2153 1124 111 145 125 2098 37 360 114 27 10 10
internal_value=0 8.13658e-05 -0.000143137 -0.000694489 -0.00214779 -0.00294251 -0.00399812 0.000293092 0.000762124 0.00209427 0.0061887 0.0140086 0.0185354 0.0244138
internal_weight=0 7955 3861 1708 584 473 328 4094 1996 558 198 84 57 47
internal_count=22299 7955 3861 1708 584 473 328 4094 1996 558 198 84 57 47
shrinkage=0.1


Tree=384
num_leaves=15
num_cat=0
split_feature=23 5 7 19 14 6 33 20 10 3 3 2 37 2
split_gain=0.0087975 0.0239436 0.0472445 0.0196143 0.0373219 0.0432496 0.0830476 0.105966 0.246752 0.0729879 0.0910133 0.063942 0.044386 0.0364755
threshold=-6.5601399999999996 7.7376450000000017e-06 3.0448650000000005e-05 2.1170350000000003e-05 7.3063950000000014e-05 -4.9064899999999997e-06 -1.6373449999999999e-06 6.4118800000000009 5.3775400000000007e-05 -6.6628949999999989 -5.6811349999999994 -1.9819749999999998 -2.5312649999999995e-07 1.7432000000000001
decision_type=2 2 2 2 2 2 2 2 2 2 2 2 2 2
left_child=-1 2 -2 4 -3 6 7 8 11 -8 -11 -6 -7 -14
right_child=1 3 -4 -5 5 12 9 -9 -10 10 -12 -13 13 -15
leaf_value=-2.1057351985649071e-05 0.00081209986956116368 -0.00082677457968253218 0.0080923206342214896 -9.0231372264896301e-05 0.010344358971342442 -0.004401630401197407 0.0031389347219374034 -0.0007983980262104203 -0.0013111094908838693 -0.0101319771046595 0.001111128659855846 0.021652939580380913 0.00050680544544416553 0.005685318354517222
leaf_weight=20046 47 161 10.999999999999998 1403 10 18 40 17 13.999999999999998 12.000000000000002 18 10 478 13.999999999999998
leaf_count=20046 47 161 11 1403 10 18 40 17 14 12 18 10 478 14
internal_value=0 0.000187357 0.00219283 0.000134365 0.00053223 0.000878981 0.00257867 0.00564794 0.0088711 0.000342485 -0.00338611 0.0159986 0.000475722 0.000654162
internal_weight=0 2253 58 2195 792 631 121 51 34 70 30 20 510 492
internal_count=22299 2253 58 2195 792 631 121 51 34 70 30 20 510 492
shrinkage=0.1


Tree=385
num_leaves=15
num_cat=0
split_feature=29 11 3 14 23 23 13 5 34 14 33 30 17 18
split_gain=0.0081788 0.0735976 0.113402 0.126311 0.124135 0.159202 0.0966304 0.106687 0.184209 0.16664 0.618435 0.278267 0.34194 0.218699
threshold=0.0058271950000000012 -1.3465549999999998e-05 -9.0837049999999984 0.004937775000000001 -17.135599999999997 -8.546364999999998 3.1346650000000006e-05 1.5498450000000001e-05 0.19237200000000002 0.00073300000000000004 2.1424800000000002e-05 0.00027319050000000004 1.7935050000000002e-06 7.0075400000000014e-07
decision_type=2 2 2 2 2 2 2 2 2 2 2 2 2 2
left_child=-1 6 3 4 -3 -6 7 8 9 11 -11 12 -2 -13
right_child=1 2 -4 -5 5 -7 -8 -9 -10 10 -12 13 -14 -15
leaf_value=-3.8323384046683153e-05 0.0069739880678999057 0.0012239629665401015 0.00023108930230928971 0.00021192983056913473 -0.0032915045361315721 -6.2185379291597142e-05 -9.4627050055539426e-05 0.00017581867248683629 0.00030087766520547237 -0.0024290564126092755 0.018232286787208389 0.0010740256534841985 0.025827281433157625 0.0092028074351179871
leaf_weight=15923 37 123 2487 598 462 228 1255 583 311 98 17 118 12.999999999999998 46
leaf_count=15923 37 123 2487 598 462 228 1255 583 311 98 17 118 13 46
internal_value=0 9.57063e-05 -0.00017518 -0.000891263 -0.00170271 -0.00222443 0.000521822 0.0011544 0.00204583 0.00369531 0.000625229 0.00534512 0.0118758 0.00335405
internal_weight=0 6376 3898 1411 813 690 2478 1223 640 329 115 214 50 164
internal_count=22299 6376 3898 1411 813 690 2478 1223 640 329 115 214 50 164
shrinkage=0.1


Tree=386
num_leaves=15
num_cat=0
split_feature=30 7 5 5 19 3 7 26 2 37 11 14 12 38
split_gain=0.0080118 0.04617 0.0755798 0.0861272 0.0641552 0.0750918 0.0591467 0.141315 0.0427111 0.0505217 0.0627458 0.034792 0.0418059 0.137741
threshold=9.2816950000000013e-05 3.1736250000000006e-05 1.4239100000000002e-05 1.4702600000000002e-05 5.5577300000000006e-06 -7.2465349999999988 3.1283900000000007e-05 5.3058850000000004e-05 -1.1281149999999998 -6.9315299999999985e-08 -3.6185149999999995e-06 0.00031573000000000001 -5.5952699999999997e-05 -4.6918949999999992e-05
decision_type=2 2 2 2 2 2 2 2 2 2 2 2 2 2
left_child=1 2 6 -4 5 -5 8 -8 -1 10 -10 12 13 -3
right_child=-2 11 3 4 -6 -7 7 -9 9 -11 -12 -13 -14 -15
leaf_value=0.0023834929065726972 -2.0976755871215266e-05 0.010900897919502594 -0.010814596312120558 -0.0026594146162479829 -0.0059497052570804954 0.0064890057998983289 0.013773789382927738 -0.0023220992367714642 0.0098395662343439966 -7.106519819511635e-05 0.00091942461136647552 0.00026259459295236131 -0.00093139809587592043 -0.00022759887245453461
leaf_weight=176 19866 12.999999999999998 9.9999999999999982 18.999999999999996 15.999999999999998 17.000000000000004 12.000000000000002 9.9999999999999982 11.999999999999998 258 23 1190 600 77
leaf_count=176 19866 13 10 19 16 17 12 10 12 258 23 1190 600 77
internal_value=0 0.00017128 0.000974483 -0.00231544 -0.000680982 0.00166067 0.00138991 0.00645748 0.0011522 0.000412583 0.00397776 -6.49812e-05 -0.000629931 0.00137985
internal_weight=0 2433 553 62 52 36 491 22 469 293 35 1880 690 90
internal_count=22299 2433 553 62 52 36 491 22 469 293 35 1880 690 90
shrinkage=0.1


Tree=387
num_leaves=15
num_cat=0
split_feature=35 15 19 36 36 3 5 37 37 34 34 6 23 23
split_gain=0.00781115 0.117936 0.12949 0.282172 0.16862 0.198538 0.161509 0.229505 0.314886 0.148121 0.245271 0.192341 0.164568 0.219055
threshold=0.0014610850000000002 1.0092000000000002e-07 8.1708200000000029e-06 0.00022516100000000001 0.23757050000000002 -6.2342049999999993 1.7532700000000006e-05 -2.5631099999999997e-07 6.4228500000000009e-07 0.046283850000000008 0.029151900000000005 -2.5208499999999993e-06 -16.265799999999995 -12.434149999999997
decision_type=2 2 2 2 2 2 2 2 2 2 2 2 2 2
left_child=-1 -2 3 -3 5 6 9 -8 -9 10 -5 -11 -13 -14
right_child=1 2 -4 4 -6 -7 7 8 -10 11 -12 12 13 -15
leaf_value=-3.4179915145437165e-05 -0.00027329598432564612 -0.00098976988250527669 0.00030247560376565267 0.0038229785793061758 -0.0039985349094918505 0.00053980962977882223 0.0025745369377546015 0.028366093231098989 0.0051323964260518553 -0.0029304609761663502 0.024328192360699177 -0.0027533206126342216 0.020406873007484068 0.0055522408670575334
leaf_weight=16722 3344 162 1820 14.000000000000002 22 66 13.999999999999998 14.000000000000002 9.9999999999999982 31 9.9999999999999982 14.999999999999998 12.999999999999998 42
leaf_count=16722 3344 162 1820 14 22 66 14 14 10 31 10 15 13 42
internal_value=0 0.000102485 0.00066523 0.00226381 0.00436373 0.00516709 0.00704071 0.0127498 0.0186854 0.00530514 0.0123668 0.00362712 0.0065312 0.00906334
internal_weight=0 5577 2233 413 251 229 163 38 24 125 24 101 70 55
internal_count=22299 5577 2233 413 251 229 163 38 24 125 24 101 70 55
shrinkage=0.1


Tree=388
num_leaves=15
num_cat=0
split_feature=3 14 39 23 4 23 15 7 5 36 1 21 23 16
split_gain=0.0087986 0.0231128 0.0689182 0.0435279 0.158775 0.0603588 0.0590295 0.0449195 0.0707927 0.0449217 0.0372475 0.804113 0.24552 0.223519
threshold=-6.3643949999999991 0.0011223800000000003 0.00059156700000000009 -7.6724749999999995 0.24788700000000002 -14.029299999999997 1.0699950000000002e-06 2.6262200000000004e-05 1.4988650000000003e-05 0.024700700000000003 -7.9871449999999991 -8.2570699999999988 -10.776849999999998 8.6672800000000014e-07
decision_type=2 2 2 2 2 2 2 2 2 2 2 2 2 2
left_child=1 2 10 5 6 -4 7 -5 -9 -10 11 13 -13 -1
right_child=-2 -3 3 4 -6 -7 -8 8 9 -11 -12 12 -14 -15
leaf_value=0.0087052462227196273 0.00011245443587059662 6.3450057092699706e-05 0.0012097601714749309 -0.0034211960424727298 0.012588558804530366 -0.00028557250236151149 0.0078289372870737391 0.0032760858859496884 -0.0059945741784758868 0.00049496347564854666 -0.00022367430631752458 5.9916637517057184e-05 -0.0039272655919814709 -0.0020843883491276456
leaf_weight=96 5303 9916 423 24 12.999999999999998 746 11.999999999999998 73 15.999999999999998 32 4973 254 394 24
leaf_count=96 5303 9916 423 24 13 746 12 73 16 32 4973 254 394 24
internal_value=0 -3.50874e-05 -0.000173096 0.000472936 0.00196806 0.00025551 0.00108865 0.000530836 0.00131471 -0.00166822 -0.000323772 -0.000971934 -0.00236439 0.00654732
internal_weight=0 16996 7080 1339 170 1169 157 145 121 48 5741 768 648 120
internal_count=22299 16996 7080 1339 170 1169 157 145 121 48 5741 768 648 120
shrinkage=0.1


Tree=389
num_leaves=15
num_cat=0
split_feature=3 23 23 3 27 5 13 5 23 4 30 26 12 19
split_gain=0.00788969 0.0357049 0.0331745 0.0364424 0.0272017 0.159505 0.144414 0.128015 0.325213 0.092702 0.116862 0.0807105 0.0798224 0.154988
threshold=-7.4146649999999985 -10.829899999999999 -12.0832 -6.043429999999999 0.19290050000000003 1.0215050000000001e-05 -2.6909549999999997e-05 1.0814750000000002e-05 -12.387749999999999 -0.0070907799999999988 0.00018940750000000003 5.062315000000001e-05 7.7789300000000018e-05 0.00021067050000000002
decision_type=2 2 2 2 2 2 2 2 2 2 2 2 2 2
left_child=1 4 3 -2 5 6 9 8 11 -1 -11 -7 -8 -14
right_child=2 -3 -4 -5 -6 7 12 -9 -10 10 -12 -13 13 -15
leaf_value=-0.017399842739105227 0.00078883424713565393 8.2275960756146441e-05 -5.32852698053603e-05 2.0698603440360015e-05 -0.00014482234403963526 -0.0062978704889806413 -0.00079878109620365413 -0.00035995215290434974 0.019198751655252033 -0.013771740399533878 0.00086546475067734725 0.0053407828789204361 -0.01357915205298923 -0.00097505729261320091
leaf_weight=9.9999999999999982 1171 8525 5813 1307 4563 13.000000000000002 123 688 11.999999999999998 10.000000000000002 11.999999999999998 10.999999999999998 15.999999999999998 25
leaf_count=10 1171 8525 5813 1307 4563 13 123 688 12 10 12 11 16 25
internal_value=0 -4.57618e-05 7.73165e-05 0.000383688 -0.000244836 -0.000740879 -0.00327155 -5.57814e-05 0.00575726 -0.00941657 -0.00578781 -0.000963488 -0.00207252 -0.00589373
internal_weight=0 14008 8291 2478 5483 920 196 724 36 32 22 24 164 41
internal_count=22299 14008 8291 2478 5483 920 196 724 36 32 22 24 164 41
shrinkage=0.1


Tree=390
num_leaves=15
num_cat=0
split_feature=10 31 11 22 13 5 18 37 37 22 19 26 29 16
split_gain=0.0081584 0.0645623 0.12201 0.333176 0.537926 0.611177 0.571151 0.913659 0.623246 0.424171 0.613793 0.339856 0.347726 0.245903
threshold=2.4033300000000002e-05 -0.050308649999999989 9.1058900000000013e-06 -0.63044599999999995 -3.2874249999999997e-06 1.5826200000000004e-05 -1.7750149999999999e-06 -2.6610299999999996e-07 7.8129300000000014e-08 0.80555650000000012 7.8012700000000006e-05 8.8010350000000017e-05 -0.012851449999999999 -1.8325949999999997e-07
decision_type=2 2 2 2 2 2 2 2 2 2 2 2 2 2
left_child=1 2 -1 4 5 6 8 -8 -4 -5 11 12 -11 -13
right_child=-2 -3 3 9 -6 -7 7 -9 -10 10 -12 13 -14 -15
leaf_value=-0.00091318438317077488 -4.2567874256442388e-05 0.0002792004088872394 0.0053540917113423332 -0.002131371637909568 -0.00035385746840701257 -0.0078570375374207909 0.025001882493961604 -0.0061153170794410556 0.036490775893131898 0.009790293480995492 -0.00068571501965425808 0.015147319510579106 0.031072231062820983 -0.0057107578945131262
leaf_weight=1434 14913 5175 10.000000000000002 434 108 14.999999999999998 15.999999999999998 23 18 17.000000000000004 99 10.000000000000002 13.999999999999998 12.999999999999998
leaf_count=1434 14913 5175 10 434 108 15 16 23 18 17 99 10 14 13
internal_value=0 8.59484e-05 -0.000366371 0.000642804 0.00428253 0.010389 0.0144739 0.00665071 0.0253705 -0.000535301 0.00399212 0.0125681 0.0194015 0.00335797
internal_weight=0 7386 2211 777 190 82 67 39 28 587 153 54 31 23
internal_count=22299 7386 2211 777 190 82 67 39 28 587 153 54 31 23
shrinkage=0.1


Tree=391
num_leaves=15
num_cat=0
split_feature=16 29 33 2 6 31 36 2 16 36 8 18 16 23
split_gain=0.00835171 0.0341205 0.0466752 0.130702 0.171578 0.13595 0.0653414 0.11529 0.054886 0.213481 0.0772155 0.176233 0.0511768 0.0559427
threshold=-1.7593899999999998e-06 0.0031988650000000004 -1.2724099999999997e-07 2.0303200000000006 7.5095950000000003e-07 0.020149750000000004 0.00059497450000000013 2.1843350000000004 -8.9098399999999984e-06 -0.022684299999999994 1.6511500000000003e-05 3.0948650000000007e-05 -8.0984749999999987e-06 -10.776849999999998
decision_type=2 2 2 2 2 2 2 2 2 2 2 2 2 2
left_child=1 2 -1 8 -5 6 -6 -8 -4 -10 -11 -12 13 -9
right_child=-2 -3 3 4 5 -7 7 12 9 10 11 -13 -14 -15
leaf_value=0.00025291712125987559 -3.6505113068095451e-05 0.00041234895516663935 -0.00029089003554234335 0.0001525379936012558 -0.001849093724008255 -0.012608648248715326 -0.014416249668768919 -0.012715331956066864 0.012511023467595805 -3.7649878846392014e-05 0.00051189663959667095 0.016219435161910951 -0.0016785883956567148 -0.0033263979634890954
leaf_weight=1922 16447 2212 968 218 151 15.999999999999998 11.999999999999998 11.000000000000002 15.999999999999998 233 25 9.9999999999999982 43 14.999999999999998
leaf_count=1922 16447 2212 968 218 151 16 12 11 16 233 25 10 43 15
internal_value=0 0.000102597 -8.56363e-05 -0.000464391 -0.00189407 -0.00369311 -0.00307824 -0.00536962 6.77429e-05 0.00129013 0.000620221 0.00499976 -0.00379629 -0.00729864
internal_weight=0 5852 3640 1718 466 248 232 81 1252 284 268 35 69 26
internal_count=22299 5852 3640 1718 466 248 232 81 1252 284 268 35 69 26
shrinkage=0.1


Tree=392
num_leaves=15
num_cat=0
split_feature=3 7 21 27 34 3 14 34 23 1 22 2 23 2
split_gain=0.00796013 0.0179315 0.0630016 0.0213813 0.0386835 0.032847 0.0175507 0.0652265 0.048415 0.0902026 0.0450721 0.457203 0.325371 0.315089
threshold=-6.3643949999999991 3.2374100000000012e-05 -14.205299999999998 1.2077200000000001 0.025371250000000001 -5.566959999999999 0.0011223800000000003 0.49467900000000004 -6.4403949999999996 10.225600000000002 -1.0175949999999998 -1.0210249999999996 -11.990499999999999 -0.97901599999999989
decision_type=2 2 2 2 2 2 2 2 2 2 2 2 2 2
left_child=6 2 -2 -3 5 -5 7 8 10 -10 11 12 -1 -12
right_child=1 3 -4 4 -6 -7 -8 -9 9 -11 13 -13 -14 -15
leaf_value=-0.0027643783117202256 0.0080404183171181517 0.00016777323378118803 0.00042453640483527169 -0.00695156364236027 -0.00022765018449984352 -0.00054385654502766558 5.2492448446960743e-05 0.0005236918326460996 0.0010064573404442488 -0.0064227287849301807 -0.0015241176716961329 -0.0020619884492797747 0.0023812827605819986 0.00046484084927174906
leaf_weight=159 10.999999999999998 3114 866 15.999999999999998 1280 15.999999999999998 9916 1184 423 17 1170 1091 541 2495
leaf_count=159 11 3114 866 16 1280 16 9916 1184 423 17 1170 1091 541 2495
internal_value=0 0.000106962 0.000520061 2.51077e-05 -0.000313505 -0.00374771 -3.33737e-05 -0.000153635 -0.000289652 0.000719421 -0.000371028 -0.000782184 0.00121248 -0.000170106
internal_weight=0 5303 877 4426 1312 32 16996 7080 5896 440 5456 1791 700 3665
internal_count=22299 5303 877 4426 1312 32 16996 7080 5896 440 5456 1791 700 3665
shrinkage=0.1


Tree=393
num_leaves=15
num_cat=0
split_feature=9 29 29 36 7 21 3 11 4 7 28 21 37 23
split_gain=0.00760961 0.0233836 0.0341032 0.0261351 0.0353148 0.0253572 0.0511113 0.0234675 0.0304064 0.0199321 0.0390074 0.0455136 0.0207269 0.0180379
threshold=-5.3827499999999992e-05 0.079763750000000008 0.066650750000000009 1.0084920000000002 8.1404300000000016e-05 -2.0719899999999996 -8.6270849999999992 -2.810045e-05 -1.0451899999999996 5.6058750000000003e-05 0.00097997500000000012 -5.3023799999999985 -9.2684799999999988e-08 -13.784899999999999
decision_type=2 2 2 2 2 2 2 2 2 2 2 2 2 2
left_child=1 2 9 4 7 6 -6 8 -3 10 11 -1 -12 -11
right_child=-2 3 -4 -5 5 -7 -8 -9 -10 13 12 -13 -14 -15
leaf_value=0.0010202054272998461 -1.8527218373869339e-05 -0.0007206461714723936 0.0061033008492086087 0.003910235751463916 0.0079769310401752586 -0.0017053353933205958 -0.00035165539302397522 -0.00030426690019440787 -0.0066438431493364841 0.00086169681866060774 -0.0039287957828491914 0.010341662233695389 0.0022355591490243873 5.0193144674565302e-05
leaf_weight=11.000000000000002 20261 12.999999999999998 9.9999999999999982 9.9999999999999982 9.9999999999999982 43 28 18 26 335 10.000000000000002 9.9999999999999982 11.999999999999998 1502
leaf_count=11 20261 13 10 10 10 43 28 18 26 335 10 10 12 1502
internal_value=0 0.00018419 0.000278978 -0.00102628 -0.001384 -4.20551e-05 0.00184008 -0.00329097 -0.00466944 0.000247998 0.00237622 0.00545899 -0.00056642 0.000198181
internal_weight=0 2038 1890 148 138 81 38 57 39 1880 43 21 22 1837
internal_count=22299 2038 1890 148 138 81 38 57 39 1880 43 21 22 1837
shrinkage=0.1


Tree=394
num_leaves=15
num_cat=0
split_feature=3 37 20 0 3 21 8 36 0 19 35 9 2 3
split_gain=0.00704904 0.0251472 0.0283037 0.0378518 0.0287245 0.0458561 0.146018 0.0234396 0.073027 0.0527663 0.0449492 0.0390566 0.0379553 0.0352524
threshold=-7.4146649999999985 -2.4886049999999993e-07 7.4969050000000008 4.3549000000000015 -6.0725999999999987 -9.4492299999999982 1.3477600000000003e-05 0.43230650000000009 7.8525350000000005 5.4875850000000004e-05 0.27780900000000003 -2.2902249999999999e-05 2.0105200000000005 -10.069899999999999
decision_type=2 2 2 2 2 2 2 2 2 2 2 2 2 2
left_child=7 2 4 -4 5 6 -2 -1 9 10 13 -12 -11 -9
right_child=1 -3 3 -5 -6 -7 -8 8 -10 12 11 -13 -14 -15
leaf_value=-6.1252236318379622e-05 -0.0022468927001076124 -1.6609071236275698e-05 0.00074164284061563161 -0.0027121197374967432 0.00013922178912747585 0.00084472215187883894 0.013703804738311606 0.0026039688233420472 0.0079162095095463361 -0.0013975792858749629 0.01052282426506281 0.0032069506330622572 0.0018860784981741896 -0.0034837449590365091
leaf_weight=13742 12.000000000000002 6553 62 65 879 709 10.999999999999998 26 13.999999999999998 125 9.9999999999999982 27 49 14.999999999999998
leaf_count=13742 12 6553 62 65 879 709 11 26 14 125 10 27 49 15
internal_value=0 7.30814e-05 0.000411253 -0.00102603 0.000524558 0.000987278 0.0053817 -4.32551e-05 0.000886505 0.000495966 0.00265722 0.00518421 -0.000472871 0.000376756
internal_weight=0 8291 1738 127 1611 732 23 14008 266 252 78 37 174 41
internal_count=22299 8291 1738 127 1611 732 23 14008 266 252 78 37 174 41
shrinkage=0.1


Tree=395
num_leaves=15
num_cat=0
split_feature=4 27 13 33 32 14 24 24 31 3 28 17 31 3
split_gain=0.00669661 0.0149518 0.0142611 0.037237 0.0387435 0.0401119 0.0232611 0.0188642 0.0265184 0.0535658 0.0163138 0.0229557 0.0161012 0.0326205
threshold=0.93067350000000004 111.70800000000001 -8.9274649999999981e-06 2.2102800000000005e-06 -1.0055674999999997 0.0039742050000000006 0.49806500000000004 -0.074307899999999982 -3.1273699999999995 -12.527449999999998 0.03487645000000001 6.7812400000000007e-06 -1.2402049999999998 -11.259049999999997
decision_type=2 2 2 2 2 2 2 2 2 2 2 2 2 2
left_child=-1 2 3 -2 5 -5 -6 -4 9 -9 12 -12 13 -10
right_child=1 -3 7 4 6 -7 -8 8 10 -11 11 -13 -14 -15
leaf_value=-2.5742209636426364e-05 0.0012499633136453775 -0.0032692389741826519 0.00028109504312089209 -0.00064875877054873835 -0.00048747322833069532 0.0083080164680723097 -0.0045697149463618794 0.0087145066168159216 0.0067199380742385961 -0.0007341122316817443 -0.0056258520280772989 -0.00088153339597998393 -0.00017488933166306237 -0.0013572517409920692
leaf_weight=18268 344 12.999999999999998 1744 10.000000000000002 201 9.9999999999999982 14.999999999999998 10.000000000000002 10.000000000000002 14.999999999999998 10.999999999999998 140 1498 9.9999999999999982
leaf_count=18268 344 13 1744 10 201 10 15 10 10 15 11 140 1498 10
internal_value=0 0.000116661 0.000127615 0.000586297 -0.000381082 0.00382963 -0.000770962 5.02347e-05 -0.00018744 0.00304534 -0.000235864 -0.00122715 -0.000137258 0.00268134
internal_weight=0 4031 4018 580 236 20 216 3438 1694 25 1669 151 1518 20
internal_count=22299 4031 4018 580 236 20 216 3438 1694 25 1669 151 1518 20
shrinkage=0.1


Tree=396
num_leaves=15
num_cat=0
split_feature=4 33 33 13 33 1 23 5 37 3 16 0 3 26
split_gain=0.00676162 0.0175881 0.0248956 0.0183076 0.0210109 0.0136331 0.0125997 0.0187799 0.0333406 0.0520314 0.192259 0.0418342 0.0359985 0.0367713
threshold=-2.4210399999999992 0.0024570250000000003 0.0019555150000000006 7.5718650000000014e-05 5.4934400000000007e-05 3.7958100000000004 -6.5395699999999986 1.1012700000000002e-05 1.8899300000000002e-08 -6.6325449999999995 8.2011600000000025e-08 6.5759800000000004 -8.1239699999999981 8.7277200000000012e-05
decision_type=2 2 2 2 2 2 2 2 2 2 2 2 2 2
left_child=1 2 3 4 -1 -3 -2 8 12 11 -11 -10 -8 -14
right_child=6 5 -4 -5 -6 -7 7 -9 9 10 -12 -13 13 -15
leaf_value=0.00061828910728301152 -4.8248830564182375e-05 -0.00054090570566976161 0.0051439651660621167 -3.4118255738574517e-05 -0.0012027680440737374 -0.005375263423193246 0.0010910094020839375 5.458348319688281e-05 0.0023319922579439277 -0.0025496994996501592 0.015350887218179801 -0.0027486779571821293 -0.001790252718313754 0.0038600882873512233
leaf_weight=928 17432 14.000000000000002 9.9999999999999982 1926 68 9.9999999999999982 195 1486 71 12.000000000000002 11.999999999999998 21 101 12.999999999999998
leaf_count=928 17432 14 10 1926 68 10 195 1486 71 12 12 21 101 13
internal_value=0 0.000140862 0.00016293 0.000145884 0.00049396 -0.00255522 -2.15265e-05 0.000222233 0.000808414 0.002254 0.00640059 0.00117227 0.000265736 -0.00114592
internal_weight=0 2956 2932 2922 996 24 19343 1911 425 116 24 92 309 114
internal_count=22299 2956 2932 2922 996 24 19343 1911 425 116 24 92 309 114
shrinkage=0.1


Tree=397
num_leaves=15
num_cat=0
split_feature=19 33 3 25 4 24 37 7 23 33 13 7 24 7
split_gain=0.00701636 0.0705674 0.0894655 0.103284 0.0607488 0.178032 0.2547 0.0373848 0.0459558 0.0323677 0.0911019 0.142814 0.401235 0.502466
threshold=6.1722700000000013e-08 6.9537150000000011e-06 -10.212499999999999 0.77545550000000008 -0.13287549999999995 -0.11618699999999998 -1.2652949999999997e-07 3.0012350000000004e-05 -12.8988 1.0863100000000001e-05 -3.3363799999999994e-05 3.8487200000000007e-05 -0.14927399999999999 3.072290000000001e-05
decision_type=2 2 2 2 2 2 2 2 2 2 2 2 2 2
left_child=1 4 3 7 5 6 -1 8 -3 -2 11 12 -11 -14
right_child=9 2 -4 -5 -6 -7 -8 -9 -10 10 -12 -13 13 -15
leaf_value=-0.0023838080000132319 4.4579829957339753e-05 -0.003548120644215183 0.0012508132526068741 0.0010218623529380925 -0.00020883129783865438 -0.000272838020945738 0.0185118538302569 -0.0021407098092726972 -0.011350786951012336 -0.0011011145756224562 -0.00046726961068582946 8.2184481050974751e-06 0.0021039323764853179 0.020665941998362542
leaf_weight=10.000000000000002 14366 18.000000000000004 842 81 2807 65 13.999999999999998 38 12.999999999999998 76 3478 431 35 25
leaf_count=10 14366 18 842 81 2807 65 14 38 13 76 3478 431 35 25
internal_value=0 0.000122064 0.000849982 -0.00140002 -0.000127278 0.00244487 0.00980533 -0.00424309 -0.00682021 -2.57773e-05 -0.000275654 0.000899724 0.00372501 0.0098381
internal_weight=0 3888 992 150 2896 89 24 69 31 18411 4045 567 136 60
internal_count=22299 3888 992 150 2896 89 24 69 31 18411 4045 567 136 60
shrinkage=0.1


Tree=398
num_leaves=15
num_cat=0
split_feature=17 37 37 4 19 3 4 13 26 4 26 3 15 37
split_gain=0.00701251 0.0936974 0.080031 0.14465 0.30461 0.149019 0.140739 0.253057 0.221282 0.276609 0.415278 0.369856 0.469613 0.79511
threshold=5.7427200000000006e-08 -9.2415549999999981e-09 -1.1247199999999999e-08 0.017115750000000002 1.5736100000000003e-05 -6.3643949999999991 -0.11361049999999999 7.4326200000000012e-06 7.2967850000000013e-05 -0.6437274999999999 0.00013080850000000003 -7.1424999999999992 -1.6592599999999997e-07 1.3899150000000002e-07
decision_type=2 2 2 2 2 2 2 2 2 2 2 2 2 2
left_child=1 -1 3 -2 5 -5 8 -8 -4 -10 11 12 -11 -14
right_child=2 -3 6 4 -6 -7 7 -9 9 10 -12 -13 13 -15
leaf_value=0.00039291772032482437 -0.00091701884270819253 -0.00029553721364878309 0.00027290066982409367 -0.0018678800297512893 0.00055931349775234203 0.00011350941891318404 -0.00084564363996463942 0.0005279437974739866 -0.00061442176076063827 0.004688985222726063 0.0021413438071136359 0.00014754454046487809 0.038648426812142138 0.0090584390730197948
leaf_weight=4285 2357 3670 909 989 3461 616 2218 3393 134 28 177 25 15.999999999999998 21
leaf_count=4285 2357 3670 909 989 3461 616 2218 3393 134 28 177 25 16 21
internal_value=0 7.53024e-05 -4.17618e-05 -0.000269843 3.12618e-05 -0.00110742 0.000202862 -1.50284e-05 0.00113613 0.00309294 0.00495356 0.0104842 0.0144599 0.0218541
internal_weight=0 7955 14344 7423 5066 1605 6921 5611 1310 401 267 90 65 37
internal_count=22299 7955 14344 7423 5066 1605 6921 5611 1310 401 267 90 65 37
shrinkage=0.1


Tree=399
num_leaves=15
num_cat=0
split_feature=14 36 23 3 4 36 23 5 1 23 23 13 17 20
split_gain=0.00884653 0.0244026 0.0331167 0.109852 0.131553 0.174522 0.133846 0.126979 0.114778 0.108139 0.0668449 0.0614995 0.0474269 0.0973119
threshold=0.00012106850000000002 -8.0606249999999984e-05 -9.2496549999999989 -6.4339449999999987 0.04119865000000001 -0.000171867 -6.6726449999999993 9.3138400000000033e-06 -5.2585749999999996 -6.690904999999999 -7.3079149999999986 5.8115950000000009e-06 1.2931100000000004e-07 7.0316850000000004
decision_type=2 2 2 2 2 2 2 2 2 2 2 2 2 2
left_child=1 2 -1 4 5 8 -7 -6 10 -10 -4 -11 13 -9
right_child=-2 -3 3 -5 7 6 -8 12 9 11 -12 -13 -14 -15
leaf_value=0.00023779058717681651 -3.2624405085926321e-05 0.00032170405210882964 -0.0023655620595330702 4.1679843069530391e-05 0.002937877626391128 0.013096475849548973 -0.0018392927222885193 -0.0055249839141550986 -0.0022169979293407364 0.00082445313833886733 -0.011109504967720972 0.011914944676682353 -0.005039709075343261 -0.017463475733529778
leaf_weight=1099 17582 2659 17 725 15.999999999999998 15.000000000000002 9.9999999999999982 18.000000000000004 55 10.000000000000002 18 9.9999999999999982 54 10.999999999999998
leaf_count=1099 17582 2659 17 725 16 15 10 18 55 10 18 10 54 11
internal_value=0 0.000121603 -0.000136933 -0.000566361 -0.00245025 -0.000419795 0.00712217 -0.00521905 -0.00213388 7.27879e-05 -0.00686245 0.0063697 -0.00679147 -0.0100534
internal_weight=0 4717 2058 959 234 135 25 99 110 75 35 20 83 29
internal_count=22299 4717 2058 959 234 135 25 99 110 75 35 20 83 29
shrinkage=0.1


Tree=400
num_leaves=15
num_cat=0
split_feature=14 21 3 25 32 34 23 33 3 20 11 29 22 30
split_gain=0.00733258 0.0302669 0.0930414 0.116689 0.1496 0.188808 0.160805 0.0672756 0.0428679 0.244769 0.434907 0.427282 0.144903 0.0403027
threshold=0.00015979200000000002 3.6475250000000004 -7.8249449999999987 0.1696445 -0.020873649999999997 0.022368000000000002 -7.5900949999999989 -4.4445449999999993e-06 -7.7346249999999985 7.4047900000000011 1.5303550000000004e-05 -0.010273749999999998 3.0243650000000004 0.00014655500000000001
decision_type=2 2 2 2 2 2 2 2 2 2 2 2 2 2
left_child=1 8 3 -3 5 6 7 -5 9 12 -11 -12 13 -1
right_child=-2 2 -4 4 -6 -7 -8 -9 -10 10 11 -13 -14 -15
leaf_value=-0.0035672797492760071 -3.4066708223216836e-05 -0.012235310615506024 -4.2228113862584654e-05 -0.0087841073423624016 0.0074363727572684495 -8.8134893360347633e-05 -0.00056872033299161843 -0.020117033069783991 0.00016551669940796209 -0.0036486422869428576 0.00035680628672707815 0.026707016373984517 0.010089231176035746 0.00015681332693202421
leaf_weight=34 16482 11.999999999999998 1884 10 14.999999999999998 64 12.999999999999998 11 3516 18 10.000000000000002 15.999999999999998 13.999999999999998 200
leaf_count=34 16482 12 1884 10 15 64 13 11 3516 18 10 16 14 200
internal_value=0 9.65253e-05 -0.00021752 -0.00285952 -0.00186387 -0.00328737 -0.00930946 -0.0147204 0.000262207 0.00142647 0.00830011 0.0165723 0.000206953 -0.000384294
internal_weight=0 5817 2009 125 113 98 34 21 3808 292 44 26 248 234
internal_count=22299 5817 2009 125 113 98 34 21 3808 292 44 26 248 234
shrinkage=0.1


Tree=401
num_leaves=15
num_cat=0
split_feature=4 13 38 19 2 14 23 25 27 1 23 18 8 29
split_gain=0.00664081 0.0150557 0.0128269 0.0123328 0.0148474 0.014209 0.0429309 0.013174 0.0225027 0.0140351 0.0109005 0.0206474 0.0298905 0.0561988
threshold=-2.4210399999999992 -3.3363799999999994e-05 0.015611650000000001 0.00020352900000000001 -2.6488399999999994 0.00043825550000000003 -9.8917349999999988 81.672750000000022 66.338500000000025 -3.4659349999999995 -6.467369999999999 -2.6543849999999993e-07 1.2820300000000002e-05 0.0040863850000000005
decision_type=2 2 2 2 2 2 2 2 2 2 2 2 2 2
left_child=1 2 -1 4 -3 6 -5 8 -7 -9 -2 12 -12 -14
right_child=10 3 -4 5 -6 7 -8 9 -10 -11 11 -13 13 -15
leaf_value=0.0010577588738751934 -4.4273078580285509e-05 0.00248204791219905 -0.00082273341998058782 0.0019141392341177716 0.00023105280762094829 5.0090001313311442e-05 -0.0042903383133105107 0.00066416451474651675 0.004803510720375926 -0.0041723496342698741 0.0010229238390422099 -5.3601424517394759e-05 -0.0015241991771282294 0.0044994646581471903
leaf_weight=266 17691 45 42 19 84 2438 27 10.000000000000002 9.9999999999999982 14.999999999999998 502 1021 111 18
leaf_count=266 17691 45 42 19 84 2438 27 10 10 15 502 1021 111 18
internal_value=0 0.000139597 0.000801328 6.26288e-05 0.00101628 1.37914e-05 -0.00172762 4.61832e-05 6.95076e-05 -0.00223774 -2.13333e-05 0.000224325 0.000674029 -0.000683688
internal_weight=0 2956 308 2648 129 2519 46 2473 2448 25 19343 1652 631 129
internal_count=22299 2956 308 2648 129 2519 46 2473 2448 25 19343 1652 631 129
shrinkage=0.1


Tree=402
num_leaves=15
num_cat=0
split_feature=10 21 1 23 3 13 29 22 26 4 4 10 14 7
split_gain=0.00651015 0.0595842 0.285436 0.358339 0.82305 0.799665 0.718361 0.781591 0.499563 1.0751 1.03818 1.14797 0.479355 0.302515
threshold=2.4033300000000002e-05 4.8668050000000012 4.7957150000000004 -8.0189849999999989 -7.8859149999999998 2.5441800000000004e-05 -0.0026030899999999993 2.1382650000000005 -4.5929699999999995e-05 0.057852600000000011 1.0000000180025095e-35 1.6785700000000001e-05 0.0024903750000000004 2.4814550000000005e-05
decision_type=2 2 2 2 2 2 2 2 2 2 2 2 2 2
left_child=1 -1 -3 4 5 6 -4 8 10 12 -8 13 -10 -12
right_child=-2 2 3 -5 -6 -7 7 -9 9 -11 11 -13 -14 -15
leaf_value=-9.9330082350441e-05 -3.8025495680478287e-05 -0.0004625839626092225 2.1224600052283634e-05 -0.00013876294053033605 -0.0023478473306126294 0.00075712840167578501 -0.0085768252118107163 -0.002087632912761447 0.041327967135994521 0.00073054390601240676 0.022989793531596654 0.046737681577603024 0.017307116122295459 0.00081801859196275475
leaf_weight=5335 14913 1196 42 423 140 121 17 22 27 12.999999999999998 10.000000000000002 11.999999999999998 11.999999999999998 15.999999999999998
leaf_count=5335 14913 1196 42 423 140 121 17 22 27 13 10 12 12 16
internal_value=0 7.67769e-05 0.000534861 0.00193012 0.0039559 0.00697824 0.0113803 0.0150786 0.0186081 0.0256353 0.0119642 0.0211536 0.0339369 0.00934562
internal_weight=0 7386 2051 855 432 292 171 129 107 52 55 38 39 26
internal_count=22299 7386 2051 855 432 292 171 129 107 52 55 38 39 26
shrinkage=0.1


Tree=403
num_leaves=15
num_cat=0
split_feature=14 7 30 34 7 14 18 4 29 28 9 21 8 20
split_gain=0.00773059 0.0245355 0.0352915 0.062836 0.19013 0.175862 0.0779186 0.0740899 0.058387 0.0568985 0.045948 0.12587 0.235699 0.122321
threshold=0.00015979200000000002 3.7938300000000009e-05 0.00024759950000000005 0.019476150000000005 3.3177900000000013e-05 9.2001000000000016e-05 3.03857e-06 -0.095505649999999984 -0.0082994949999999987 0.008232515000000001 1.1078850000000002e-05 11.854050000000003 -9.8339299999999978e-06 9.0406650000000024
decision_type=2 2 2 2 2 2 2 2 2 2 2 2 2 2
left_child=1 2 8 4 7 -6 -5 -4 -1 10 11 -10 -13 -12
right_child=-2 -3 3 6 5 -7 -8 -9 9 -11 13 12 -14 -15
leaf_value=-0.0077556115109473469 -3.4979064338226422e-05 -6.7032381304460667e-05 0.0058540094993077222 0.00039315409732870239 0.0029058572273546208 0.01784963139881646 0.0092534766159951681 -0.0012573350089496672 0.00034412390152913953 -0.0061725652699048325 -0.0014537253174927262 0.018451141756535925 -0.0022501400629566476 0.004052716758324886
leaf_weight=9.9999999999999982 16482 3516 19 1328 18 13.999999999999998 9.9999999999999982 64 427 14.999999999999998 328 11.000000000000002 10.999999999999998 46
leaf_count=10 16482 3516 19 1328 18 14 10 64 427 15 328 11 11 46
internal_value=0 9.91104e-05 0.000352982 0.000652168 0.00289528 0.00944376 0.000459375 0.000370563 -0.000159658 -6.90137e-05 4.22296e-05 0.000724169 0.0081005 -0.000776462
internal_weight=0 5817 2301 1453 115 32 1338 83 848 838 823 449 22 374
internal_count=22299 5817 2301 1453 115 32 1338 83 848 838 823 449 22 374
shrinkage=0.1


Tree=404
num_leaves=15
num_cat=0
split_feature=3 23 3 23 14 30 2 14 35 23 19 33 0 29
split_gain=0.00675083 0.0288907 0.0297498 0.263623 0.226044 0.332859 0.352718 0.201952 0.183233 0.0811815 0.0772612 0.185968 0.162091 0.208669
threshold=-7.4146649999999985 -10.829899999999999 -15.821599999999998 -15.441949999999999 0.004937775000000001 0.0013501300000000004 -0.50457299999999983 0.0071294650000000006 0.0099769250000000028 -12.608449999999999 0.0013888850000000003 2.1424800000000002e-05 -2.4062749999999995 0.0062547850000000014
decision_type=2 2 2 2 2 2 2 2 2 2 2 2 2 2
left_child=1 2 3 4 5 6 -1 9 -7 -5 11 12 -6 -14
right_child=-2 -3 -4 7 10 8 -8 -9 -10 -11 -12 -13 13 -15
leaf_value=0.001918788738548755 7.1518845610062429e-05 7.2843359567349508e-05 -0.0001351606805934818 -0.007043876278851377 0.016510634065013043 -0.0063714821110753446 0.026508628656821593 -0.0006776955280077924 0.0093997574200889531 -0.0023690657903913592 -0.0015418392227270939 -0.0054088429065554276 0.0089423776390030983 -0.0049606115361185456
leaf_weight=10.000000000000002 8291 8525 4822 95 10.999999999999998 17.000000000000004 13.999999999999998 264 12.999999999999998 61 111 21 25 19
leaf_count=10 8291 8525 4822 95 11 17 14 264 13 61 111 21 25 19
internal_value=0 -4.23303e-05 -0.000221403 -0.000850541 0.00178583 0.00748501 0.0162629 -0.00236332 0.000462722 -0.00521591 0.00014008 0.00259657 0.00565318 0.00293881
internal_weight=0 14008 5483 661 241 54 24 420 30 156 187 76 55 44
internal_count=22299 14008 5483 661 241 54 24 420 30 156 187 76 55 44
shrinkage=0.1


Tree=405
num_leaves=15
num_cat=0
split_feature=4 28 13 33 38 19 2 14 23 4 38 3 4 34
split_gain=0.0065379 0.0132884 0.0137139 0.0256292 0.0105592 0.0105898 0.0115528 0.0115133 0.0349001 0.0105473 0.0756576 0.113478 0.139493 0.11158
threshold=-2.4210399999999992 2.9088150000000002 -3.3363799999999994e-05 3.9863900000000005e-07 3.3977150000000003 0.00020352900000000001 -2.6488399999999994 0.00043825550000000003 -9.8917349999999988 -0.063837799999999986 -7.4842899999999981e-05 -6.3643949999999991 -0.61210349999999991 0.17847300000000002
decision_type=2 2 2 2 2 2 2 2 2 2 2 2 2 2
left_child=1 2 3 -1 5 6 -4 8 -7 10 11 12 -2 -14
right_child=9 -3 4 -5 -6 7 -8 -9 -10 -11 -12 -13 13 -15
leaf_value=0.0016267567909030237 0.00037504000359796924 -0.0030516112778479093 0.0022421793820750382 -0.00021024700378932594 0.0027247050101868809 0.0017347127272698442 0.00024814618185834065 4.8032931241143494e-05 -0.0038594339405082995 3.3468326410053126e-05 0.00016079140820309437 0.00056558162087293553 -0.0019904086544900385 -0.00014481211371508576
leaf_weight=166 625 12.999999999999998 45 140 14.999999999999998 19 82 2449 27 12500 3983 727 1027 481
leaf_count=166 625 13 45 140 15 19 82 2449 27 12500 3983 727 1027 481
internal_value=0 0.000138512 0.000152603 0.000786298 7.90687e-05 6.39335e-05 0.000954693 1.85922e-05 -0.00154881 -2.11674e-05 -0.00012097 -0.000513366 -0.000881108 -0.00140173
internal_weight=0 2956 2943 306 2637 2622 127 2495 46 19343 6843 2860 2133 1508
internal_count=22299 2956 2943 306 2637 2622 127 2495 46 19343 6843 2860 2133 1508
shrinkage=0.1


Tree=406
num_leaves=15
num_cat=0
split_feature=2 29 33 6 3 34 32 21 1 3 11 23 30 25
split_gain=0.0062241 0.0943961 0.127575 0.209321 0.155434 0.101114 0.107764 0.0738938 0.808193 0.409202 0.537697 0.339932 0.338821 0.247257
threshold=1.7572250000000003 0.0010749600000000002 9.9369500000000019e-07 5.9574350000000011e-07 -6.5086049999999993 0.31666400000000006 -0.035891299999999994 4.8668050000000012 4.8692650000000013 -6.283129999999999 -3.8944799999999993e-05 -6.3108999999999993 0.0034018700000000004 1.9655500000000001
decision_type=2 2 2 2 2 2 2 2 2 2 2 2 2 2
left_child=-1 2 -2 -4 5 6 -5 -3 -9 10 -10 12 13 -12
right_child=1 7 3 4 -6 -7 -8 8 9 -11 11 -13 -14 -15
leaf_value=2.5893601474513137e-05 9.4303903330961609e-05 3.8359796647790578e-05 0.00044696092285955856 -0.013604881714742917 -0.00049522400321644951 -0.00080223162746500924 -0.0042889929814360845 -0.0035958681126162977 0.00082979840510233782 -0.002235413795700668 0.012159297351755523 -0.0065559138490987774 -0.0014733435969580622 0.027903747016733343
leaf_weight=17980 1318 1514 373 12.999999999999998 226 86 277 197 100 69 107 10.999999999999998 17 10.999999999999998
leaf_count=17980 1318 1514 373 13 226 86 277 197 100 69 107 11 17 11
internal_value=0 -0.000107795 -0.000547239 -0.00141447 -0.00256782 -0.00381358 -0.0047066 0.000389561 0.00142808 0.00457003 0.00647888 0.0103481 0.0117255 0.013627
internal_weight=0 4319 2293 975 602 376 290 2026 512 315 246 146 135 118
internal_count=22299 4319 2293 975 602 376 290 2026 512 315 246 146 135 118
shrinkage=0.1


Tree=407
num_leaves=15
num_cat=0
split_feature=9 29 29 33 19 20 5 20 8 22 23 3 22 13
split_gain=0.00644595 0.0186138 0.0278076 0.0214699 0.0209853 0.0280253 0.0360927 0.0242335 0.110324 0.0296731 0.0243105 0.0268522 0.0261522 0.0753375
threshold=-5.3827499999999992e-05 0.079763750000000008 0.066650750000000009 0.0024570250000000003 0.01003705 -7.9738999999999995 3.3732850000000007e-05 -11.601349999999998 -3.8422799999999991e-06 3.0427950000000004 -10.888949999999998 -6.0971649999999995 -2.6871649999999998 1.7398300000000002e-05
decision_type=2 2 2 2 2 2 2 2 2 2 2 2 2 2
left_child=1 2 4 -3 7 6 -6 8 -1 10 11 12 13 -9
right_child=-2 3 -4 -5 5 -7 -8 9 -10 -11 -12 -13 -14 -15
leaf_value=0.01163770430255681 -1.7051883132421874e-05 -0.0012517427722402987 0.0055134158255532384 0.0033401237377388912 -0.0083504474675282821 -0.00022036726786952714 -0.0009925276125431991 -0.00018082710032883494 -0.0017516994965262713 0.0047460136422887451 -2.4685817657767386e-05 -2.6849708100253969e-05 0.0011275272779239223 0.011183593868045136
leaf_weight=10.000000000000002 20261 137 9.9999999999999982 10.999999999999998 10.000000000000002 265 20 14.000000000000002 15.999999999999998 14.999999999999998 979 232 309 9.9999999999999982
leaf_count=10 20261 137 10 11 10 265 20 14 16 15 979 232 309 10
internal_value=0 0.000169523 0.000254093 -0.000910455 0.000226118 -0.000548313 -0.00344517 0.000370255 0.00339807 0.000319759 0.000276758 0.000799082 0.00137451 0.00455435
internal_weight=0 2038 1890 148 1880 295 30 1585 26 1559 1544 565 333 24
internal_count=22299 2038 1890 148 1880 295 30 1585 26 1559 1544 565 333 24
shrinkage=0.1


Tree=408
num_leaves=15
num_cat=0
split_feature=16 16 20 2 22 27 1 22 13 35 19 22 13 0
split_gain=0.00714203 0.0330703 0.0828019 0.223274 0.647974 0.333509 0.119799 0.0742584 0.152471 0.0625319 0.10745 0.13882 0.54761 0.127618
threshold=-1.7593899999999998e-06 -2.4835049999999993e-07 -7.9738999999999995 2.4975200000000002 2.5186850000000001 0.44668600000000008 3.2705200000000008 2.7365150000000003 -2.5692899999999996e-05 0.00018548400000000003 3.1037600000000004e-06 1.856025 -3.5672199999999994e-05 -7.0854049999999988
decision_type=2 2 2 2 2 2 2 2 2 2 2 2 2 2
left_child=-1 2 3 -2 -5 6 -6 9 -9 10 -4 -12 -13 -14
right_child=1 -3 7 4 5 -7 -8 8 -10 -11 11 12 13 -15
leaf_value=9.4876673944818631e-05 -0.00037844426569416537 2.3561523282645307e-05 0.00092043456344034812 -0.0025732402366148086 0.015081150948323983 0.027805414016308663 -4.1940985247492798e-05 -0.014526460082693536 -0.0018740019996520984 -0.0011819799649132221 -0.0017631954128816667 0.019316945565515199 -0.0065612568520009521 0.0020325053636042869
leaf_weight=5852 243 14137 584 42 11.000000000000002 13.999999999999998 9.9999999999999982 10.999999999999998 71 786 447 15.999999999999998 27 48
leaf_count=5852 243 14137 584 42 11 14 10 11 71 786 447 16 27 48
internal_value=0 -3.3758e-05 -0.000384549 0.00110847 0.00580095 0.01585 0.00787968 -0.000624632 -0.00357128 -0.000497994 -1.88388e-05 -0.00103842 0.00252173 -0.00106125
internal_weight=0 16447 2310 320 77 35 21 1990 82 1908 1122 538 91 75
internal_count=22299 16447 2310 320 77 35 21 1990 82 1908 1122 538 91 75
shrinkage=0.1


Tree=409
num_leaves=15
num_cat=0
split_feature=32 12 12 1 21 14 21 13 3 1 34 14 35 15
split_gain=0.00628215 0.158841 0.125931 0.0994796 0.265141 0.261722 0.205356 0.185069 0.312063 0.37517 0.270501 0.310026 0.336821 0.182625
threshold=-0.0063500599999999994 6.2027250000000008e-06 1.2737000000000002e-05 -8.1643199999999982 -8.4573449999999983 0.0023791600000000004 -9.5771849999999983 1.9127050000000002e-05 -6.283129999999999 -9.0980799999999977 0.0062474200000000009 0.00024581550000000004 -8.2284449999999991e-05 3.4847250000000008e-08
decision_type=2 2 2 2 2 2 2 2 2 2 2 2 2 2
left_child=2 3 -1 6 -5 -6 7 8 9 10 13 -12 -13 -2
right_child=1 -3 -4 4 5 -7 -8 -9 -10 -11 11 12 -14 -15
leaf_value=-0.00038408263503198977 -0.0052308367135433034 -0.00035284514638411562 0.00029205906912965166 -0.0009496608814168339 0.0017550598489585604 1.4938985060350148e-05 -0.00075574224483592487 -0.0016611442713022778 0.000306080056656025 -0.0061502680058280633 0.025271047428250315 -0.00028770063363481313 0.023107461359468284 0.010962700229914239
leaf_weight=5637 13.000000000000002 5205 5387 838 2068 1485 1393 87 110 14.999999999999998 20 15.999999999999998 10.000000000000002 14.999999999999998
leaf_count=5637 13 5205 5387 838 2068 1485 1393 87 110 15 20 16 10 15
internal_value=0 5.24835e-05 -5.36785e-05 0.000400051 0.000650383 0.00102776 -0.000254629 0.00218611 0.00386807 0.00827054 0.0111937 0.0159107 0.00871044 0.00344427
internal_weight=0 11275 11024 6070 4391 3553 1679 286 199 89 74 46 26 28
internal_count=22299 11275 11024 6070 4391 3553 1679 286 199 89 74 46 26 28
shrinkage=0.1


Tree=410
num_leaves=15
num_cat=0
split_feature=16 36 16 10 16 22 9 23 19 23 8 28 9 6
split_gain=0.00734412 0.0284985 0.0379788 0.047383 0.0368786 0.0460815 0.12889 0.189703 0.260019 0.290721 0.287771 0.316082 0.315619 0.222945
threshold=-1.889335e-06 0.00065950650000000009 -4.0337599999999998e-05 2.1560750000000005e-05 -4.9471599999999996e-05 2.0238800000000006 -1.5050849999999998e-05 -8.6210549999999966 0.00086203300000000011 -16.680599999999995 -8.4733799999999978e-06 0.0030219650000000002 -5.9533299999999995e-05 3.7417150000000003e-06
decision_type=2 2 2 2 2 2 2 2 2 2 2 2 2 2
left_child=1 4 -3 -4 -1 -6 7 8 -7 -10 12 -12 -11 -14
right_child=-2 2 3 -5 5 6 -8 -9 9 10 11 -13 13 -15
leaf_value=-6.6937135985434799e-05 -3.3895302899931218e-05 0.00021777393335810856 -0.0019491567549225091 -0.00027946016093335566 0.00032611285925621326 -0.00075923123203733192 -0.00047781419390005228 -0.001379019958940411 -0.0077411018684506424 0.0031776272763426499 0.015323114715283737 -0.0026764540352160111 0.013458419386297459 0.031004821828433445
leaf_weight=1804 16532 1025 219 759 1591 47 168 61 9.9999999999999982 12.999999999999995 15.999999999999998 25 15.000000000000005 13.999999999999998
leaf_count=1804 16532 1025 219 759 1591 47 168 61 10 13 16 25 15 14
internal_value=0 9.71662e-05 -0.000207567 -0.000653349 0.000259329 0.000559627 0.00156646 0.00327511 0.00530298 0.00836667 0.0103074 0.00434777 0.0161251 0.0219291
internal_weight=0 5767 2003 978 3764 1960 369 201 140 93 83 41 42 29
internal_count=22299 5767 2003 978 3764 1960 369 201 140 93 83 41 42 29
shrinkage=0.1


Tree=411
num_leaves=15
num_cat=0
split_feature=14 27 21 3 7 19 32 2 22 3 5 22 3 26
split_gain=0.00667716 0.0236488 0.0362607 0.0646681 0.0465236 0.0440658 0.0162411 0.0414906 0.0337891 0.0308203 0.0271864 0.148429 0.0254334 0.0915369
threshold=9.3791550000000008e-05 0.13584700000000002 7.6290550000000001 -5.7482849999999992 2.9419150000000004e-05 1.6521000000000003e-09 -0.020873649999999997 0.85371750000000002 1.1118200000000003 -6.6945549999999994 7.6070650000000005e-06 -0.2084655 -7.2050099999999988 -6.0780499999999999e-05
decision_type=2 2 2 2 2 2 2 2 2 2 2 2 2 2
left_child=1 2 4 -4 -1 -6 7 -3 -9 -10 11 -8 13 -12
right_child=-2 6 3 -5 5 -7 10 8 9 -11 12 -13 -14 -15
leaf_value=0.0044596464540518355 -2.4840416067131414e-05 0.00027723433360844952 -0.010868633394129572 0.00024250356125941672 -0.0067747860985736437 -0.00039700273455729566 -0.00030013990806225966 0.00035889123540960242 -0.0054275627066898676 -0.0011748545803129673 -0.0090318931589046351 0.010414233017603265 0.00032035351780813898 0.0016452789955240276
leaf_weight=15.999999999999998 18489 1032 10.000000000000002 10.999999999999998 12.999999999999998 65 54 161 18 320 12.999999999999998 17 2059 21
leaf_count=16 18489 1032 10 11 13 65 54 161 18 320 13 17 2059 21
internal_value=0 0.000120544 -0.00129167 -0.00504851 -0.000452373 -0.00145997 0.000164497 -8.47565e-05 -0.000833403 -0.00140133 0.00034084 0.00226527 0.000275559 -0.00243717
internal_weight=0 3810 115 21 94 78 3695 1531 499 338 2164 71 2093 34
internal_count=22299 3810 115 21 94 78 3695 1531 499 338 2164 71 2093 34
shrinkage=0.1


Tree=412
num_leaves=15
num_cat=0
split_feature=10 20 3 23 0 14 30 31 25 26 16 3 0 21
split_gain=0.00676898 0.0459842 0.115029 0.364323 0.827374 0.755062 0.463836 0.447439 0.402955 0.455401 0.278675 0.244553 0.132881 0.114814
threshold=2.7408300000000003e-05 5.0401100000000012 -9.4879399999999983 -9.2863099999999985 5.381425000000001 0.0024903750000000004 0.0015579700000000003 -0.18617799999999998 0.43238100000000007 -6.1753249999999994e-05 5.1028300000000007e-07 -10.915599999999998 4.155990000000001 4.695895000000001
decision_type=2 2 2 2 2 2 2 2 2 2 2 2 2 2
left_child=-1 -2 3 4 13 6 7 -6 9 -9 -8 -11 -5 -3
right_child=1 2 -4 12 5 -7 10 8 -10 11 -12 -13 -14 -15
leaf_value=6.635424639969162e-05 -0.00016057855958740406 -0.00015088089858181775 -0.00012133623774729813 0.00074219170854895921 0.034850927628576757 -0.0014842017424165361 -0.0063578449530593516 0.038052418977022176 -0.0013796938893695673 0.022771494154585539 0.013974850968672679 0.0057800890308701315 -0.0021302203145973429 0.006791869619897065
leaf_weight=9100 9575 284 2495 418 13.999999999999998 42 14.000000000000002 9.9999999999999982 11.999999999999998 15.999999999999991 12.999999999999998 18.000000000000007 262 26
leaf_count=9100 9575 284 2495 418 14 42 14 10 12 16 13 18 262 26
internal_value=0 -4.57477e-05 0.000257648 0.00109517 0.00330586 0.0097165 0.0145663 0.0188609 0.0148635 0.0192934 0.00343197 0.013776 -0.000364532 0.000431414
internal_weight=0 13199 3624 1129 449 139 97 70 56 44 27 34 680 310
internal_count=22299 13199 3624 1129 449 139 97 70 56 44 27 34 680 310
shrinkage=0.1


Tree=413
num_leaves=15
num_cat=0
split_feature=16 16 36 17 17 21 33 13 22 22 22 2 22 2
split_gain=0.00698037 0.0260761 0.132855 0.125937 0.125707 0.268598 0.382441 0.407727 0.227203 0.159375 0.0934513 0.585049 0.12363 0.109235
threshold=-1.7593899999999998e-06 -3.8034799999999999e-07 6.7872350000000014e-05 2.0730950000000006e-06 7.8403450000000014e-07 3.8775950000000008 3.7289950000000003e-06 -3.5672199999999994e-05 2.3742250000000005 2.5736250000000003 2.5186850000000001 2.6145250000000004 2.6320700000000001 2.5401300000000004
decision_type=2 2 2 2 2 2 2 2 2 2 2 2 2 2
left_child=-1 2 3 10 -4 9 -7 -8 -9 -6 13 12 -12 -2
right_child=1 -3 4 -5 5 6 7 8 -10 -11 11 -13 -14 -15
leaf_value=9.3796736559646115e-05 0.0010665878896556605 1.0532575235609732e-05 -0.0022010868608827493 -0.0022955776172083071 -0.00059064074707159612 0.00017696440128979517 0.028815305757928979 -0.0020715392598261435 0.017387935067526998 -0.00801579400739523 0.010297632443252951 0.023599695385648656 -0.0019032273721528996 -0.0028641846693062689
leaf_weight=5852 608 14664 547 140 193 73 10.999999999999998 15.000000000000002 9.9999999999999982 34 9.9999999999999982 12.999999999999998 49 80
leaf_count=5852 608 14664 547 140 193 73 11 15 10 34 10 13 49 80
internal_value=0 -3.33738e-05 -0.000394475 0.000460538 -0.00126595 0.000256436 0.00433663 0.0127715 0.00571225 -0.00170278 0.000968243 0.00439603 0.000164715 0.000609521
internal_weight=0 16447 1783 900 883 336 109 36 25 227 760 72 59 688
internal_count=22299 16447 1783 900 883 336 109 36 25 227 760 72 59 688
shrinkage=0.1


Tree=414
num_leaves=15
num_cat=0
split_feature=30 7 35 18 37 19 37 0 0 33 8 1 35 8
split_gain=0.00665902 0.0328086 0.0373586 0.0408819 0.0726944 0.0495563 0.0776765 0.0471785 0.0951748 0.0409824 0.0392886 0.0402524 0.0675427 0.0370484
threshold=9.2816950000000013e-05 3.6213150000000004e-05 -0.00013653549999999997 -1.1877399999999999e-07 6.1618100000000022e-08 4.1765200000000008e-08 -2.6320449999999998e-08 -7.730249999999999 -6.5351749999999997 8.7255100000000015e-07 -1.2266499999999999e-05 5.9006000000000016 -0.00019197149999999996 1.2063050000000001e-05
decision_type=2 2 2 2 2 2 2 2 2 2 2 2 2 2
left_child=1 2 10 5 -5 6 -4 9 -9 -7 -1 -12 -13 -10
right_child=-2 -3 3 4 -6 7 -8 8 13 -11 11 12 -14 -15
leaf_value=-0.0015363956044268435 -1.9123980765296586e-05 -0.00011904507827168068 0.0094058920218444923 -0.00025429486820722737 -0.0071930609513174209 1.1870487166258194e-05 0.00057088949882502977 0.010461251027882099 4.7848225928254613e-05 -0.0086561357416212563 0.0017565251261821985 0.00043094296823255703 0.011786348220299591 0.0032362723116611328
leaf_weight=32 19866 1558 17 268 15.999999999999998 12.000000000000002 24 9.9999999999999982 239 9.9999999999999982 183 10.000000000000002 10.999999999999998 43
leaf_count=32 19866 1558 17 268 16 12 24 10 239 10 183 10 11 43
internal_value=0 0.000156152 0.000646159 0.000249062 -0.000645211 0.00096448 0.00423418 0.000537545 0.000874 -0.00392813 0.00172135 0.00223237 0.00637901 0.000534026
internal_weight=0 2433 875 639 284 355 41 314 292 22 236 204 21 282
internal_count=22299 2433 875 639 284 355 41 314 292 22 236 204 21 282
shrinkage=0.1


Tree=415
num_leaves=15
num_cat=0
split_feature=16 26 36 19 35 23 3 9 16 35 16 22 2 12
split_gain=0.00658345 0.0287365 0.0408134 0.0949894 0.174811 0.173773 0.156588 0.0724995 0.0380994 0.0352562 0.055839 0.0342996 0.101852 0.0340693
threshold=4.5816150000000005e-06 -0.0021265849999999998 0.056855550000000012 0.00020352900000000001 -0.12344349999999998 -10.829899999999999 -11.019649999999997 -4.3193999999999988e-06 1.1389700000000002e-05 0.0090203400000000017 2.1540550000000002e-05 1.6390350000000002 1.8149350000000004 0.00014817500000000004
decision_type=2 2 2 2 2 2 2 2 2 2 2 2 2 2
left_child=-1 8 9 4 -4 6 -6 -7 -2 -3 13 -5 -13 -11
right_child=1 2 3 11 5 7 -8 -9 -10 10 -12 12 -14 -15
leaf_value=-2.8936790435129996e-05 -0.0054403424799123684 0.00016872820805333434 -0.0065979063764891842 -0.00035762871255360122 0.011055641675678393 0.019856253537264733 -0.0038641861872747542 0.0080915586685296123 -0.00065317855735344001 -0.0017417979496898207 -3.9266151819088551e-05 -0.00050984960066021562 0.010201027086721017 -0.0059640895403192742
leaf_weight=17372 19 4056 10.999999999999998 159 11.999999999999998 11.000000000000002 17 10.000000000000002 133 113 322 28 12.999999999999998 23
leaf_count=17372 19 4056 11 159 12 11 17 10 133 113 322 28 13 23
internal_value=0 0.000102028 0.000145116 0.00136095 0.00481531 0.00732622 0.00230954 0.014254 -0.00125157 7.48163e-05 -0.000756858 0.000307373 0.00288628 -0.00245586
internal_weight=0 4927 4775 261 61 50 29 21 152 4514 458 200 41 136
internal_count=22299 4927 4775 261 61 50 29 21 152 4514 458 200 41 136
shrinkage=0.1


Tree=416
num_leaves=15
num_cat=0
split_feature=3 23 3 36 36 1 19 4 28 21 16 16 16 36
split_gain=0.00684292 0.0280217 0.0302437 0.0330725 0.0435351 0.0820569 0.152162 0.382553 0.0894263 0.0557007 0.0462548 0.252804 0.040433 0.0755365
threshold=-7.4146649999999985 -10.715499999999997 -14.754349999999997 2.8787700000000007 0.027526950000000005 -5.9691399999999986 0.000218712 -0.20699899999999996 -0.13629249999999996 -6.0287799999999994 7.8753600000000015e-06 1.1389700000000002e-05 -7.0380199999999989e-07 -0.0073619949999999988
decision_type=2 2 2 2 2 2 2 2 2 2 2 2 2 2
left_child=1 -1 -3 4 12 6 7 -6 -9 -8 -7 -12 -4 -14
right_child=-2 2 3 -5 5 10 9 8 -10 -11 11 -13 13 -15
leaf_value=-0.0002162069658452364 7.2004991932910062e-05 0.00050844665504117372 0.00027509705424440001 -0.0040705352753866468 0.023232817471337819 -0.00029166920624750978 0.0052306979341665283 -0.0033718287758529187 0.0088365249149501297 -0.0017760993615434603 0.015792692840720216 0.00027606442436947312 -0.001820355370825079 -0.00013548906078875421
leaf_weight=5589 8291 1339 2262 20 11.999999999999998 315 15.999999999999998 14.999999999999998 10.000000000000002 39 11.999999999999998 84 285 4010
leaf_count=5589 8291 1339 2262 20 12 315 16 15 10 39 12 84 285 4010
internal_value=0 -4.2618e-05 7.26199e-05 -9.80547e-06 1.69801e-06 0.000898272 0.00359788 0.00855626 0.00151151 0.000262242 0.00029398 0.00221564 -6.70799e-05 -0.00024729
internal_weight=0 14008 8419 7080 7060 503 92 37 25 55 411 96 6557 4295
internal_count=22299 14008 8419 7080 7060 503 92 37 25 55 411 96 6557 4295
shrinkage=0.1


Tree=417
num_leaves=15
num_cat=0
split_feature=4 33 33 13 24 7 13 4 38 3 4 30 1 23
split_gain=0.00620689 0.0122355 0.0176455 0.0125006 0.0135061 0.012487 0.0109736 0.0109455 0.0479442 0.0949723 0.114668 0.125893 0.118243 0.112562
threshold=-2.4210399999999992 0.0024570250000000003 0.0019555150000000006 7.5718650000000014e-05 -0.82324799999999987 5.3413400000000006e-05 0.00021734250000000002 -0.063837799999999986 -7.4842899999999981e-05 -7.0237749999999997 -0.39397899999999991 0.00073604950000000018 8.1923250000000021 -7.6950299999999991
decision_type=2 2 2 2 2 2 2 2 2 2 2 2 2 2
left_child=1 2 3 4 -1 -6 -3 8 9 10 -2 12 13 -12
right_child=7 6 -4 -5 5 -7 -8 -9 -10 -11 11 -13 -14 -15
leaf_value=-0.0013505996116891324 0.00013773344356926462 -0.0046438337920699253 0.0043468543235212565 -9.7247153223433411e-06 -0.00033807263985700475 0.00065841158193913232 -0.0003065616765525192 3.5033057852664569e-05 0.00010200308882114646 0.00036410259927964966 -0.0026043636382949587 -0.00015471868111863584 -0.0059427745976998137 0.00049163950948590918
leaf_weight=41 723 10.000000000000002 9.9999999999999982 1926 149 806 13.999999999999998 12500 3983 979 475 448 79 156
leaf_count=41 723 10 10 1926 149 806 14 12500 3983 979 475 448 79 156
internal_value=0 0.00013496 0.000153367 0.000139015 0.000426639 0.000502939 -0.00211376 -2.06246e-05 -0.000122293 -0.000434662 -0.000850393 -0.00146733 -0.00229557 -0.00183895
internal_weight=0 2956 2932 2922 996 955 24 19343 6843 2860 1881 1158 710 631
internal_count=22299 2956 2932 2922 996 955 24 19343 6843 2860 1881 1158 710 631
shrinkage=0.1


Tree=418
num_leaves=15
num_cat=0
split_feature=26 4 4 21 1 4 4 34 14 12 39 24 3 20
split_gain=0.00622515 0.0490183 0.0972558 0.100715 0.581565 0.34026 0.0915292 0.105693 0.130224 0.103175 0.0896749 0.0965607 0.0903868 0.0896698
threshold=-6.0780499999999999e-05 0.051078050000000007 0.27459550000000005 10.826150000000002 9.3428500000000003 0.10700150000000001 -0.21280149999999998 0.35781150000000006 0.00010427650000000001 0.00027369900000000002 2.9825650000000006e-06 0.13837000000000002 -11.203999999999999 -3.5105649999999997
decision_type=2 2 2 2 2 2 2 2 2 2 2 2 2 2
left_child=1 6 3 -3 -5 -6 -1 8 -8 10 -10 12 -12 -14
right_child=-2 2 -4 4 5 -7 7 -9 9 -11 11 -13 13 -15
leaf_value=0.00024744867272547769 -4.3712865051072492e-05 0.0007007321282704004 -0.00011479832768154393 -0.0014442038248782443 0.0078398785217561641 0.030846239272505044 -5.5814609515116328e-05 0.00055089346341199899 -7.2998141975976475e-05 0.0056850303517421708 -0.00093995562998489251 -0.0019039109665582321 -0.0026631533670680302 -0.0088516335529809607
leaf_weight=2703 13238 1719 2268 59 18.000000000000004 9.9999999999999982 777 582 197 18 42 569 38 61
leaf_count=2703 13238 1719 2268 59 18 10 777 582 197 18 42 569 38 61
internal_value=0 6.38639e-05 0.0003212 0.000868732 0.00418819 0.0160564 -0.00014636 -0.000612413 -0.00101021 -0.0018119 -0.00196068 -0.00248444 -0.00482715 -0.00647626
internal_weight=0 9061 4074 1806 87 28 4987 2284 1702 925 907 710 141 99
internal_count=22299 9061 4074 1806 87 28 4987 2284 1702 925 907 710 141 99
shrinkage=0.1


Tree=419
num_leaves=15
num_cat=0
split_feature=17 37 17 7 24 38 4 20 12 11 28 1 26 26
split_gain=0.00619008 0.0688634 0.0721547 0.16627 0.314561 0.521753 0.280091 0.349476 0.746465 0.485139 0.352959 0.170723 0.137025 0.135343
threshold=5.7427200000000006e-08 -1.1247199999999999e-08 -1.5040199999999997e-07 3.4651200000000011e-05 -0.11618699999999998 0.0024264400000000006 1.0000000180025095e-35 5.3881000000000006 -6.4376299999999989e-05 1.6989100000000006e-05 0.011819450000000002 2.5363200000000004 7.2967850000000013e-05 4.5711200000000004e-05
decision_type=2 2 2 2 2 2 2 2 2 2 2 2 2 2
left_child=1 2 -1 12 5 6 7 8 -5 -9 11 -10 13 -4
right_child=-2 -3 3 4 -6 -7 -8 9 10 -11 -12 -13 -14 -15
leaf_value=3.7812242938878944e-05 -3.9236521948392413e-05 -0.00024588646127942358 0.0001205774103478544 0.031295573556174835 0.0002674761444946993 -0.00066818930386329783 0.0018243790002694976 0.0076191126182675335 0.0048324169637635351 0.037442272280653319 0.019909840365871789 -0.009026290787733161 -0.0015003770129483384 0.003096455535060287
leaf_weight=2745 14344 3686 541 11.999999999999998 260 77 30 10.000000000000002 20 11.999999999999998 9.9999999999999982 15.999999999999998 323 213
leaf_count=2745 14344 3686 541 12 260 77 30 10 20 12 10 16 323 213
internal_value=0 7.07491e-05 0.000344143 0.0008959 0.00251722 0.0056452 0.0100646 0.0131546 0.00908402 0.0238863 0.0032897 -0.00132701 0.000222986 0.000961243
internal_weight=0 7955 4269 1524 447 187 110 80 58 22 46 36 1077 754
internal_count=22299 7955 4269 1524 447 187 110 80 58 22 46 36 1077 754
shrinkage=0.1


Tree=420
num_leaves=15
num_cat=0
split_feature=23 3 23 25 14 23 15 18 3 24 14 15 25 3
split_gain=0.00630121 0.065802 0.226085 0.140673 0.129801 0.224062 0.185373 0.145273 0.0871344 0.101788 0.0683369 0.0798151 0.0843482 0.0607334
threshold=-15.973899999999999 -15.821599999999998 -16.491149999999998 1.1856100000000003 0.0060041400000000007 -17.204649999999997 -4.6303149999999994e-09 2.1880150000000004e-07 -12.923849999999998 0.50922850000000008 0.0044422700000000008 -1.8057149999999999e-06 5.7016750000000007 -15.126499999999998
decision_type=2 2 2 2 2 2 2 2 2 2 2 2 2 2
left_child=1 2 4 -4 5 6 -1 -7 9 10 11 -3 13 -13
right_child=-2 8 3 -5 -6 7 -8 -9 -10 -11 -12 12 -14 -15
leaf_value=0.0090130731773873148 -1.8465487798162344e-05 0.0046087695474852806 0.019530149540779262 0.003142452263273299 -0.0011139994839894881 0.021576836183667177 -0.0070325780763394298 0.004923316362229261 0.00025433873526981189 0.0031612342054722835 -0.00077983477993529352 -0.011511438464124998 0.0032289534263933699 -0.0046273644400902083
leaf_weight=12.000000000000002 19898 9.9999999999999982 11.000000000000002 9.9999999999999982 117 10.000000000000002 18 10.999999999999998 1900 40 147 14.999999999999998 11.999999999999998 88
leaf_count=12 19898 10 11 10 117 10 18 11 1900 40 147 15 12 88
internal_value=0 0.000153031 0.00194399 0.0117265 0.000721175 0.00493128 -0.000614318 0.0128536 5.76016e-09 -0.00154882 -0.00224147 -0.00396036 -0.0047055 -0.0056299
internal_weight=0 2401 189 21 168 51 30 21 2212 312 272 125 115 103
internal_count=22299 2401 189 21 168 51 30 21 2212 312 272 125 115 103
shrinkage=0.1


Tree=421
num_leaves=15
num_cat=0
split_feature=7 26 11 22 9 31 29 9 36 2 32 25 20 5
split_gain=0.00620951 0.0433608 0.111041 0.0419867 0.0832832 0.0456116 0.081772 0.327022 0.150706 0.0534406 0.0748239 0.266543 0.0872105 0.0530287
threshold=2.3357900000000006e-05 -0.00066057799999999988 -1.1054999999999998e-05 -2.3085999999999998 -4.8125949999999991e-06 -0.047638799999999995 -0.0022871999999999997 2.5824400000000007e-06 0.00055087650000000012 -1.5721549999999997 0.10170550000000002 1.7947250000000003 -2.2734949999999996 9.5093600000000014e-06
decision_type=2 2 2 2 2 2 2 2 2 2 2 2 2 2
left_child=1 2 -1 4 -3 -5 7 13 -9 10 12 -12 -8 -7
right_child=-2 3 -4 5 -6 6 9 8 -10 -11 11 -13 -14 -15
leaf_value=0.012541304947808385 -1.0388718723750219e-05 -0.0060423843857279284 0.00078866724587697249 -0.00081101217635791846 0.00025674197946858333 0.0040575432591140274 0.002945868340932559 0.0050668644539725305 0.020019308091806517 -0.00048522245608217181 0.015978301343108924 -0.0053976247832179074 -0.0038311542144843511 -0.0024535437489337313
leaf_weight=9.9999999999999982 21467 32 41 226 61 18 59 13.000000000000002 13.999999999999998 265 14.000000000000002 9.9999999999999982 28 41
leaf_count=10 21467 32 41 226 61 18 59 13 14 265 14 10 28 41
internal_value=0 0.000268046 0.00309311 8.35675e-05 -0.0019107 0.000353141 0.000922619 0.00370442 0.01282 0.000286356 0.00212841 0.00707167 0.000764758 -0.00046711
internal_weight=0 832 51 781 93 688 462 86 27 376 111 24 87 59
internal_count=22299 832 51 781 93 688 462 86 27 376 111 24 87 59
shrinkage=0.1


Tree=422
num_leaves=15
num_cat=0
split_feature=4 26 4 3 23 4 8 33 23 24 23 23 23 26
split_gain=0.00625688 0.015531 0.0455651 0.122593 0.10236 0.132184 0.103954 0.0911262 0.0909568 0.0906914 0.153573 0.0852755 0.08436 0.0624353
threshold=0.93067350000000004 5.5141450000000004e-05 0.088728400000000013 -6.3643949999999991 -16.680599999999995 0.27459550000000005 2.0789600000000005e-05 -4.3465599999999993e-05 -6.7748899999999992 0.20699700000000001 -6.8980549999999985 -9.4395949999999988 -6.3955149999999987 0.00037518250000000006
decision_type=2 2 2 2 2 2 2 2 2 2 2 2 2 2
left_child=1 -1 -3 4 -4 8 7 -7 13 12 -11 -9 -5 -6
right_child=-2 2 3 9 5 6 -8 11 -10 10 -12 -13 -14 -15
leaf_value=5.4061140667662444e-05 0.00011276527414562502 9.039847658740262e-06 0.0014231849497934347 0.00073201715766783415 -0.0029396947599986591 -0.0066721390309837829 0.0079618220267548175 -0.0014954686873761363 0.00047855348611923585 -0.0021163243707269424 0.014663119575319192 0.0013715094727123633 -0.0060595327957631336 -0.00044352299874611892
leaf_weight=10541 4031 5766 152 489 583 21 15.999999999999998 189 119 10.000000000000002 11.999999999999998 230 19 121
leaf_count=10541 4031 5766 152 489 583 21 16 189 119 10 12 230 19 121
internal_value=0 -2.48827e-05 -0.000132576 -0.000548975 -0.00103016 -0.00132172 4.40303e-05 -0.000243889 -0.00207845 0.000750225 0.0070361 7.82902e-05 0.000478002 -0.00251067
internal_weight=0 18268 7727 1961 1431 1279 456 440 823 530 22 419 508 704
internal_count=22299 18268 7727 1961 1431 1279 456 440 823 530 22 419 508 704
shrinkage=0.1


Tree=423
num_leaves=15
num_cat=0
split_feature=10 35 19 14 13 25 34 3 16 33 13 3 23 9
split_gain=0.00619484 0.0375246 0.0541357 0.0591171 0.108263 0.13484 0.0784787 0.155019 0.149194 0.22409 0.364547 0.0800372 0.125395 0.0796872
threshold=2.4033300000000002e-05 -0.00063532999999999992 1.6573600000000002e-08 0.0025956900000000003 -4.8384849999999988e-05 0.68318150000000022 0.13566000000000003 -6.5745499999999995 3.0262300000000002e-07 5.5611100000000007e-06 -1.5810349999999997e-05 -6.2170999999999994 -7.2804749999999991 -2.2902249999999999e-05
decision_type=2 2 2 2 2 2 2 2 2 2 2 2 2 2
left_child=1 2 -1 4 5 -4 7 8 -6 -10 -11 12 -9 -8
right_child=-2 -3 3 -5 6 -7 13 11 9 10 -12 -13 -14 -15
leaf_value=0.0010685730018006319 -3.7093223114291764e-05 0.00022973309123044234 -0.016434997860342259 0.00012956771793142254 -0.0037659241210403309 -1.306717284023762e-05 0.0081590342878674459 0.0012056978477630763 -0.0025626502464256569 0.020095341868447858 0.00032441171651677878 0.00013816683192154148 0.015172058716416359 -8.8336293863439905e-05
leaf_weight=274 14913 5018 10.000000000000002 1000 298 9.9999999999999982 11.999999999999998 18.000000000000004 97 12.999999999999998 33 99 9.9999999999999982 494
leaf_count=274 14913 5018 10 1000 298 10 12 18 97 13 33 99 10 494
internal_value=0 7.48946e-05 -0.000253222 -0.000426179 -0.000934174 -0.00822403 -0.000798422 -0.00160524 -0.00249179 0.000163412 0.00591185 0.00147324 0.00619368 0.000107254
internal_weight=0 7386 2368 2094 1094 20 1074 568 441 143 46 127 28 506
internal_count=22299 7386 2368 2094 1094 20 1074 568 441 143 46 127 28 506
shrinkage=0.1


Tree=424
num_leaves=15
num_cat=0
split_feature=32 1 8 1 13 5 21 1 21 14 21 13 3 11
split_gain=0.00566848 0.113533 0.0921504 0.0871935 0.0890747 0.11903 0.0817217 0.0809766 0.209984 0.214653 0.162385 0.160418 0.290962 0.29119
threshold=-0.0063500599999999994 0.47042300000000004 6.9398900000000006e-07 -3.0182099999999994 -3.6135999999999996e-06 2.1527600000000004e-05 9.626260000000002 -8.1643199999999982 -8.4573449999999983 0.0023791600000000004 -9.3347499999999979 1.6332650000000004e-05 -6.3047499999999994 9.1058900000000013e-06
decision_type=2 2 2 2 2 2 2 2 2 2 2 2 2 2
left_child=2 7 -1 -4 5 6 -5 10 -9 -10 11 12 13 -2
right_child=1 -3 3 4 -6 -7 -8 8 9 -11 -12 -13 -14 -15
leaf_value=0.0002250512586155349 0.011527769733971406 -0.00029276331023092475 -0.00014672262504478184 -0.0048034096995496073 -0.0005312102179330059 6.7902428013439932e-05 -0.00011800055273194262 -0.00084900547788262107 0.0015742800450753405 1.5033067091116344e-07 -0.00071949644332101046 -0.0013468321462305455 0.00011962970760282782 -0.00061209727126848091
leaf_weight=5767 62 5206 4177 179 734 120 47 843 2043 1504 1364 107 117 29
leaf_count=5767 62 5206 4177 179 734 120 47 843 2043 1504 1364 107 117 29
internal_value=0 4.98542e-05 -5.09893e-05 -0.00035381 -0.00115474 -0.00247748 -0.00382901 0.000343752 0.000569651 0.000906817 -0.000246895 0.00179954 0.00341811 0.00765902
internal_weight=0 11275 11024 5257 1080 346 226 6069 4390 3547 1679 315 208 91
internal_count=22299 11275 11024 5257 1080 346 226 6069 4390 3547 1679 315 208 91
shrinkage=0.1


Tree=425
num_leaves=15
num_cat=0
split_feature=4 17 38 24 3 23 31 24 24 26 16 36 5 23
split_gain=0.00593688 0.0136724 0.0147069 0.0151045 0.0139645 0.109059 0.0295779 0.0236134 0.0206441 0.012685 0.0435535 0.117495 0.136931 0.173433
threshold=0.93067350000000004 -2.4702299999999996e-06 5.6022800000000013 -0.074307899999999982 -16.772799999999997 -15.905149999999997 -0.49337099999999995 0.50922850000000008 1.9572750000000003 5.6230300000000009e-05 2.7486400000000002e-07 0.00039436000000000007 1.1795000000000003e-05 -8.5696299999999983
decision_type=2 2 2 2 2 2 2 2 2 2 2 2 2 2
left_child=9 -2 3 -3 5 -5 -7 -8 -6 -1 -11 -12 13 -13
right_child=1 2 -4 4 8 6 7 -9 -10 10 11 12 -14 -15
leaf_value=4.576353088104449e-05 0.00078263283584002166 0.00027440933146255823 -0.002645052252337337 0.0095648936640757784 -0.00017166990219891762 0.0050205398816615347 -0.00015313768193924002 -0.005293612806126476 -0.0045175471628846773 4.3722846093167912e-05 -0.0010778103149114346 0.0040076522983144977 -0.00035997217394285368 -0.0011612986389081925
leaf_weight=10710 281 1872 20 12.999999999999998 1730 9.9999999999999982 84 9.9999999999999982 10.999999999999998 5090 1386 185 797 100
leaf_count=10710 281 1872 20 13 1730 10 84 10 11 5090 1386 185 797 100
internal_value=0 0.000109844 5.94295e-05 7.39307e-05 -0.000128058 0.000929481 -0.000149945 -0.000699997 -0.000199128 -2.4238e-05 -0.000123433 -0.000468175 0.000312743 0.00219399
internal_weight=0 4031 3750 3730 1858 117 104 94 1741 18268 7558 2468 1082 285
internal_count=22299 4031 3750 3730 1858 117 104 94 1741 18268 7558 2468 1082 285
shrinkage=0.1


Tree=426
num_leaves=15
num_cat=0
split_feature=16 26 1 8 16 17 36 19 34 35 34 15 35 17
split_gain=0.00652385 0.0256861 0.0408425 0.0405664 0.0778834 0.0360629 0.0276002 0.0668143 0.172145 0.0720514 0.0707888 0.0384566 0.0287269 0.087279
threshold=4.5816150000000005e-06 -0.0021265849999999998 -10.174899999999999 3.6391450000000006e-06 5.1865800000000007e-05 2.2623450000000005e-06 0.056855550000000012 0.00020352900000000001 0.97977400000000003 0.12480300000000001 6.0983350000000014 5.5160550000000007e-06 -0.12344349999999998 9.6014500000000011e-06
decision_type=2 2 2 2 2 2 2 2 2 2 2 2 2 2
left_child=-1 2 -2 4 5 -4 -3 8 -8 11 -11 -10 13 -9
right_child=1 6 3 -5 -6 -7 7 12 9 10 -12 -13 -14 -15
leaf_value=-2.8805510363214417e-05 -0.0073551902399049147 8.4491279854017037e-05 -0.011547516165301201 0.00072359224899246554 0.00038886070850172212 -0.0038923084051930346 0.01377270883406579 0.0060786119899070221 -0.0076138717774301744 0.0095296254880460219 -0.0011903065849434248 0.00078278509899973878 -0.0005921082993482653 -0.0012059155771949968
leaf_weight=17372 9.9999999999999982 4514 10.000000000000002 81 35 15.999999999999998 13.999999999999998 29 10.000000000000002 14.000000000000002 10.999999999999998 11.999999999999998 133 38
leaf_count=17372 10 4514 10 81 35 16 14 29 10 14 11 12 133 38
internal_value=0 0.000101565 -0.00117818 -0.000743176 -0.00269085 -0.00683662 0.000142302 0.00114214 0.00403925 0.00113992 0.00481286 -0.00303388 0.000258523 0.00194709
internal_weight=0 4927 152 142 61 26 4775 261 61 47 25 22 200 67
internal_count=22299 4927 152 142 61 26 4775 261 61 47 25 22 200 67
shrinkage=0.1


Tree=427
num_leaves=15
num_cat=0
split_feature=4 23 1 1 1 22 1 28 18 1 1 1 26 15
split_gain=0.00581291 0.00970323 0.0359507 0.0427778 0.0264723 0.310269 0.0446972 0.107925 0.0266739 0.0268596 0.0262791 0.0252498 0.0269675 0.0250885
threshold=-2.4210399999999992 -6.1690649999999989 -12.3028 -11.642049999999999 11.736000000000002 1.2119450000000003 8.5772100000000027 0.008232515000000001 0.00012389700000000001 -9.8354799999999987 13.095150000000002 9.6934550000000019 -6.8726849999999984e-05 -1.8560199999999996e-05
decision_type=2 2 2 2 2 2 2 2 2 2 2 2 2 2
left_child=-1 -2 -3 -4 6 10 8 11 9 -5 -6 12 -8 -11
right_child=1 2 3 4 5 -7 7 -9 -10 13 -12 -13 -14 -15
leaf_value=0.0001306062242033926 -3.2944151790419137e-05 -0.0035142520033886009 0.0069999362621456385 -0.0028872288147206693 -0.0073854410050747284 0.01473258457013539 -0.006252684984356164 -0.010033143977800918 -0.00064503790822228926 0.0061201374419033528 -0.00061866134532134645 0.0023372442572904026 0.00065468380747076406 0.0010370827147215013
leaf_weight=2956 18714 23 9.9999999999999982 17 12.000000000000002 13.999999999999998 10 13.999999999999998 137 9.9999999999999982 10.999999999999998 23 13 335
leaf_count=2956 18714 23 10 17 12 14 10 14 137 10 11 23 13 335
internal_value=0 -1.99593e-05 0.000366367 0.000513651 0.000404821 0.00299529 0.000233359 -0.00234539 0.000543429 0.000993208 -0.00414916 -5.63788e-06 -0.00234852 0.00118442
internal_weight=0 19343 629 606 596 37 559 60 499 362 23 46 23 345
internal_count=22299 19343 629 606 596 37 559 60 499 362 23 46 23 345
shrinkage=0.1


Tree=428
num_leaves=15
num_cat=0
split_feature=2 35 20 33 2 22 22 5 20 22 2 5 2 15
split_gain=0.00542268 0.0265674 0.0175152 0.00787466 0.00572001 0.660692 0.112266 0.0225488 0.0161845 0.0136563 0.291184 0.298407 0.207295 0.0772225
threshold=3.0775850000000005 -0.0031161799999999992 -5.2590199999999987 -3.8538549999999991e-07 3.0381150000000003 2.7709200000000007 2.2422950000000004 1.4167150000000002e-05 -2.7028649999999996 2.8593400000000004 2.8833850000000005 1.6396850000000005e-05 1.9945700000000002 -1.0188899999999998e-07
decision_type=2 2 2 2 2 2 2 2 2 2 2 2 2 2
left_child=4 -2 -3 -4 9 6 7 8 -6 -1 12 -12 -11 -14
right_child=1 2 3 -5 5 -7 -8 -9 -10 10 11 -13 13 -15
leaf_value=1.2746536893050928e-05 0.0034407626234248959 -0.005732222786173225 -0.0025649905766305684 0.0003975614084322985 -0.0038589006394613534 0.02542608463205397 -0.0096938924215334878 0.0012591702067716556 -0.00044001372626452297 -0.00014190804753924283 0.017406282545481291 -0.0020598192250223034 -0.0071990361828948302 -0.001491213104025902
leaf_weight=21386 10.999999999999998 9.9999999999999982 16.999999999999996 19.000000000000004 20 9.9999999999999982 13.999999999999998 55 45 579 18 13.999999999999998 63 38
leaf_count=21386 11 10 17 19 20 10 14 55 45 579 18 14 63 38
internal_value=0 -0.000974123 -0.00202986 -0.00100142 2.4964e-06 0.000630709 -0.00121969 -0.000231036 -0.00149198 -1.5973e-06 -0.000432436 0.00888986 -0.000871133 -0.00505154
internal_weight=0 57 46 36 22242 144 134 120 65 22098 712 32 680 101
internal_count=22299 57 46 36 22242 144 134 120 65 22098 712 32 680 101
shrinkage=0.1


Tree=429
num_leaves=15
num_cat=0
split_feature=37 17 4 13 19 3 4 3 38 14 19 23 3 33
split_gain=0.00531924 0.0545731 0.118929 0.255372 0.141811 0.134081 0.131541 0.121773 0.107098 0.179897 0.291864 0.428467 0.426957 0.530019
threshold=-2.1173049999999996e-08 4.9940450000000007e-08 0.017115750000000002 7.8765850000000024e-06 1.5736100000000003e-05 -6.3047499999999994 -1.0451899999999996 -6.1233399999999989 -0.00019760749999999996 0.00010814650000000001 0.0024022850000000001 -12.154599999999999 -12.020399999999999 3.4404650000000003e-05
decision_type=2 2 2 2 2 2 2 2 2 2 2 2 2 2
left_child=1 -1 5 8 7 6 -3 -5 9 -4 11 12 13 -11
right_child=-2 2 3 4 -6 -7 -8 -9 -10 10 -12 -13 -14 -15
leaf_value=0.00025624950790147517 4.7375520804409648e-05 0.00058025935788804512 -0.00062170128429827926 -0.0018784124220089585 0.00011832810442903325 0.00023884282961220669 -0.0018357445801726853 0.00025352675274770397 0.00039070165630859766 0.019985223966650662 2.2417354899944796e-05 0.0079274161119561506 -0.0031888257399502137 -0.0082110297493636613
leaf_weight=3777 11489 278 195 951 1615 788 1190 373 1134 20.000000000000004 204 185 90 9.9999999999999982
leaf_count=3777 11489 278 195 951 1615 788 1190 373 1134 20 204 185 90 10
internal_value=0 -5.03513e-05 -0.000215008 6.75872e-05 -0.000510618 -0.000813394 -0.00137822 -0.0012778 0.000992148 0.00196096 0.00295038 0.00490876 0.000254999 0.0105865
internal_weight=0 10810 7033 4777 2939 2256 1468 1324 1838 704 509 305 120 30
internal_count=22299 10810 7033 4777 2939 2256 1468 1324 1838 704 509 305 120 30
shrinkage=0.1


Tree=430
num_leaves=15
num_cat=0
split_feature=15 35 15 3 4 0 21 29 1 20 21 4 23 13
split_gain=0.00547747 0.103835 0.0996513 0.140026 0.174954 0.226612 0.382263 0.387623 0.6187 0.565789 0.534253 0.293301 0.131415 0.115013
threshold=2.9158450000000003e-08 0.00026986050000000003 4.8704800000000014e-06 -6.2342049999999993 0.039379300000000013 -0.87947599999999981 -4.9075749999999987 -0.00034210699999999997 -5.8972699999999998 3.6982050000000002 -6.8668499999999986 -0.086748999999999993 -7.3079149999999986 -1.3180249999999998e-05
decision_type=2 2 2 2 2 2 2 2 2 2 2 2 2 2
left_child=-1 2 3 4 5 -2 7 8 9 -7 13 -11 -6 -10
right_child=1 -3 -4 -5 12 6 -8 -9 10 11 -12 -13 -14 -15
leaf_value=4.5919108535686601e-05 -0.0015041562527030406 0.00031762014074726786 0.00013994374385227005 0.00021004402026859621 -0.0028479694760389874 0.034258573859309159 -0.00051698090056605142 -0.0003040971430555846 -0.012128948663095275 -0.000751124734345537 0.01873475424721479 0.020491091333902797 -0.00030679546042860318 0.00011062263237202868
leaf_weight=11999 698 4353 2596 1148 718 14.999999999999998 353 65 14.000000000000002 12.999999999999998 12.999999999999998 13.000000000000002 284 17
leaf_count=11999 698 4353 2596 1148 718 15 353 65 14 13 13 13 284 17
internal_value=0 -5.34935e-05 -0.000325136 -0.000685431 -0.00115207 -0.000338082 0.00128005 0.00550906 0.00995442 0.0187926 0.0017188 0.00986998 -0.00212772 -0.00541693
internal_weight=0 10300 5947 3351 2203 1201 503 150 85 41 44 26 1002 31
internal_count=22299 10300 5947 3351 2203 1201 503 150 85 41 44 26 1002 31
shrinkage=0.1


Tree=431
num_leaves=15
num_cat=0
split_feature=2 22 33 6 22 2 2 6 3 14 13 12 14 6
split_gain=0.00546135 0.0658492 0.132417 0.169156 0.12799 1.04305 0.567279 0.296851 0.220383 0.22742 0.479102 0.235816 0.233479 0.164077
threshold=1.7572250000000003 1.7780750000000001 9.9369500000000019e-07 5.9574350000000011e-07 2.3063800000000003 2.3013650000000005 2.3013650000000005 -1.4189549999999998e-07 -6.4339449999999987 0.00048853650000000009 -8.5798799999999992e-06 0.00025433600000000003 0.00020650150000000003 7.1766700000000018e-07
decision_type=2 2 2 2 2 2 2 2 2 2 2 2 2 2
left_child=-1 2 -2 -4 5 7 -6 -3 9 10 12 -11 -9 -8
right_child=1 4 3 -5 6 -7 13 8 -10 11 -12 -13 -14 -15
leaf_value=2.4255162884396472e-05 0.00012533916006882411 0.00058919417466053606 0.00036435156967032671 -0.0022022035416671758 -0.0041361671282062707 -0.0032854128062224063 -0.0013115872370084011 0.01485460134572349 0.00086110129702353367 0.0061500336899705044 0.0021448597711111821 0.022449301909655335 0.033863444386848379 0.0035387539783122896
leaf_weight=17980 2238 56 416 671 235 196 96 12.000000000000002 27 79 13.999999999999998 9.9999999999999982 13.999999999999998 255
leaf_count=17980 2238 56 416 671 235 196 96 12 27 79 14 10 14 255
internal_value=0 -0.000100974 -0.000314466 -0.00121997 0.00061317 0.00197309 -0.000333668 0.00683473 0.00907671 0.0107963 0.0170593 0.00798141 0.0250901 0.00221216
internal_weight=0 4319 3325 1087 994 408 586 212 156 129 40 89 26 351
internal_count=22299 4319 3325 1087 994 408 586 212 156 129 40 89 26 351
shrinkage=0.1


Tree=432
num_leaves=15
num_cat=0
split_feature=14 23 5 38 33 4 4 26 34 15 21 7 22 14
split_gain=0.00505057 0.0307095 0.0271358 0.051552 0.0424525 0.0377481 0.0203484 0.0611006 0.0845769 0.149276 0.264672 0.357263 0.124684 0.0527415
threshold=0.00017223500000000005 -10.632649999999998 7.1526450000000005e-06 -9.8278449999999987e-05 7.1091050000000012e-07 -0.067014849999999973 -0.11361049999999999 7.2967850000000013e-05 0.027593950000000003 -5.4020449999999995e-08 -3.1439699999999995 6.8518350000000021e-05 -0.6068349999999999 0.00016674400000000003
decision_type=2 2 2 2 2 2 2 2 2 2 2 2 2 2
left_child=1 -1 3 -3 -5 -6 7 13 9 10 -9 -12 -11 -4
right_child=-2 2 6 4 5 -7 -8 8 -10 12 11 -13 -14 -15
leaf_value=0.00036059136960573529 -2.9201105177313131e-05 0.0070862104557454595 -2.5688915315564596e-05 -0.0029666682417016656 0.0075013480318540885 -0.00045814066162655265 -0.0002347912447936589 -0.003574532805941999 -0.0003925891112885438 0.0075015009459093564 0.023096884530284162 -0.00072363345650956041 -0.0034295811981428417 -0.0064994034572289543
leaf_weight=2354 16200 14.999999999999998 394 21 10.999999999999998 13.000000000000002 3119 11.999999999999998 74 15.999999999999998 17.000000000000004 9.9999999999999982 30 12.999999999999998
leaf_count=2354 16200 15 394 21 11 13 3119 12 74 16 17 10 30 13
internal_value=0 7.75632e-05 -0.00010034 0.0020092 0.000316866 0.00318996 -0.000134688 0.000416939 0.00207925 0.00423121 0.00878247 0.0142745 0.000372534 -0.000232466
internal_weight=0 6099 3745 60 45 24 3685 566 159 85 39 27 46 407
internal_count=22299 6099 3745 60 45 24 3685 566 159 85 39 27 46 407
shrinkage=0.1


Tree=433
num_leaves=15
num_cat=0
split_feature=6 33 22 9 33 11 22 9 0 22 1 2 12 29
split_gain=0.00525922 0.0419063 0.034707 0.100175 0.0815149 0.0799541 0.074261 0.127378 0.113999 0.594015 1.15104 0.673572 0.492039 0.214644
threshold=-1.3214249999999998e-06 2.8403000000000002e-05 0.20618450000000002 5.704935000000001e-06 -1.8500899999999994e-05 5.1000050000000015e-06 1.4147800000000001 -1.4533799999999998e-05 -1.6137749999999997 1.7472750000000004 4.7957150000000004 1.6390650000000002 0.00018316800000000002 -0.00073099849999999991
decision_type=2 2 2 2 2 2 2 2 2 2 2 2 2 2
left_child=1 -1 5 6 -5 -2 7 -4 -8 10 -10 12 13 -12
right_child=2 -3 3 4 -6 -7 8 -9 9 -11 11 -13 -14 -15
leaf_value=-2.2120313795718493e-05 -0.00018896184739986327 0.00067341071208800482 0.00030620934359114034 0.000533534039833894 -0.00086966275979110514 0.00045933528264914384 9.1540038467686523e-05 -0.0015344129727818654 -0.0026961724055581727 4.1355791500145217e-05 0.012390535329468549 0.033272145585053502 0.029277050533247268 -0.0026616455210993692
leaf_weight=6834 4119 992 1007 497 2479 3535 1664 600 56 449 20 18 10.999999999999998 18
leaf_count=6834 4119 992 1007 497 2479 3535 1664 600 56 449 20 18 11 18
internal_value=0 6.60431e-05 -3.57115e-05 -0.000199776 -0.000635325 0.000110454 0.000137512 -0.000381017 0.000510176 0.00172803 0.00788505 0.0167291 0.010652 0.00526055
internal_weight=0 7826 14473 6819 2976 7654 3843 1607 2236 572 123 67 49 38
internal_count=22299 7826 14473 6819 2976 7654 3843 1607 2236 572 123 67 49 38
shrinkage=0.1


Tree=434
num_leaves=15
num_cat=0
split_feature=30 5 0 0 29 0 8 30 7 24 5 14 3 31
split_gain=0.0055145 0.0326406 0.0420814 0.0981747 0.11326 0.0816798 0.0372298 0.0746341 0.0348512 0.0835003 0.0704408 0.0368206 0.0430981 0.0338617
threshold=9.2816950000000013e-05 1.3028200000000002e-05 -7.5614499999999998 -6.9891999999999994 0.00061783600000000008 -8.4201249999999987 1.2063050000000001e-05 8.0532000000000008e-05 2.9559950000000001e-05 -0.077734099999999987 1.5902750000000006e-05 0.00029752400000000002 -6.401514999999999 0.016645050000000005
decision_type=2 2 2 2 2 2 2 2 2 2 2 2 2 2
left_child=1 2 5 4 -4 13 -5 -8 9 10 -3 12 -11 -1
right_child=-2 8 3 6 -6 -7 7 -9 -10 11 -12 -13 -14 -15
leaf_value=-0.0011051972325443976 -1.7403084955546883e-05 0.0086025792360305761 0.00028279645252041505 0.00054033887132038045 0.015333392107859254 -0.0075472984605071628 0.0012161456182741772 0.011151420203968884 -4.0482037512776613e-05 -0.01093860898166895 -0.0027614612054700657 -0.00075539317234264063 -0.0026977211406285107 0.0031374638807028532
leaf_weight=76 19866 10.000000000000002 10.000000000000002 711 9.9999999999999982 17 31 9.9999999999999982 1483 14.999999999999998 11.999999999999998 11.999999999999998 11.000000000000002 25
leaf_count=76 19866 10 10 711 10 17 31 10 1483 15 12 12 11 25
internal_value=0 0.0001421 0.000624376 0.000893209 0.00780809 -0.00113443 0.000709303 0.00363938 -0.000136076 -0.00249884 0.00240401 -0.00533734 -0.00745208 -5.50336e-05
internal_weight=0 2433 890 772 20 118 752 41 1543 60 22 38 26 101
internal_count=22299 2433 890 772 20 118 752 41 1543 60 22 38 26 101
shrinkage=0.1


Tree=435
num_leaves=15
num_cat=0
split_feature=7 26 10 22 9 2 22 26 1 7 16 8 20 17
split_gain=0.00497485 0.034334 0.0901227 0.033128 0.0654857 0.0355668 0.0342014 0.111402 0.32259 0.236324 0.107058 0.0664375 0.0648518 0.063663
threshold=2.3357900000000006e-05 -0.00066057799999999988 1.2186800000000002e-05 -2.3085999999999998 -6.2151799999999988e-06 -1.0989499999999996 -0.72822499999999979 5.6888250000000005e-05 -6.3644999999999987 2.1617600000000005e-05 6.5284050000000013e-08 7.7926150000000016e-06 3.9688000000000003 2.6095550000000003e-08
decision_type=2 2 2 2 2 2 2 2 2 2 2 2 2 2
left_child=1 2 -1 4 -3 -6 7 10 9 -9 -5 -12 13 -10
right_child=-2 3 -4 6 5 -7 -8 8 12 -11 11 -13 -14 -15
leaf_value=0.00029504715854081475 -9.2987248710527063e-06 -0.005637721856453874 0.009940858046040656 0.0021915631970543148 -0.0026690567983745565 0.0021043621829547293 -0.00012979567146260713 0.025988747999072068 0.005256128432229161 0.0051738291202733915 0.00022028375280332631 -0.006923365575494245 0.0064239277414834279 -0.0039198959523233613
leaf_weight=38 21467 29 12.999999999999998 67 27 37 492 10.000000000000002 9.9999999999999982 11.999999999999998 23 30 12.999999999999998 31
leaf_count=38 21467 29 13 67 27 37 492 10 10 12 23 30 13 31
internal_value=0 0.000239923 0.00275378 7.57654e-05 -0.00169567 9.05761e-05 0.000315218 0.00143229 0.00442801 0.0146352 -0.000464998 -0.00382329 0.000269548 -0.00168184
internal_weight=0 832 51 781 93 64 688 196 76 22 120 53 54 41
internal_count=22299 832 51 781 93 64 688 196 76 22 120 53 54 41
shrinkage=0.1


Tree=436
num_leaves=15
num_cat=0
split_feature=20 0 3 11 23 23 3 3 25 30 22 11 0 7
split_gain=0.005045 0.0485073 0.12268 0.202518 0.175253 0.14519 1.34995 0.495082 0.338998 0.403901 0.413777 0.334998 0.159094 0.117786
threshold=-5.4229999999999992 -5.482454999999999 -6.401514999999999 -6.0760099999999994e-05 -12.0832 -8.6729999999999983 -8.5183349999999987 -8.6023199999999989 4.0464100000000007 0.00018735350000000003 2.8593400000000004 -2.8448049999999996e-05 -6.5351749999999997 2.8214400000000002e-05
decision_type=2 2 2 2 2 2 2 2 2 2 2 2 2 2
left_child=1 2 3 -1 -5 6 8 -7 9 11 12 -6 -11 -9
right_child=-2 -3 -4 4 5 7 -8 13 -10 10 -12 -13 -14 -15
leaf_value=-0.00042968928181330232 -2.6276394236402435e-05 -9.0763535716878205e-05 -0.00065059088115677443 -0.0018868072673545351 -0.0016789020604587022 -0.0049044089475905319 -0.0045227863887703284 -0.003072514946517699 0.00056676515019856973 0.025227094318584671 0.0090244076257063582 0.021090595951924723 0.041297871043736278 0.0056599194637207686
leaf_weight=360 17085 3902 485 70 14.000000000000002 72 64 17 12.999999999999998 13.999999999999998 10.999999999999998 11.999999999999998 11.000000000000002 169
leaf_count=360 17085 3902 485 70 14 72 64 17 13 14 11 12 11 169
internal_value=0 8.61013e-05 0.000612112 0.00135263 0.00272659 0.00354003 0.00614544 0.00213634 0.015249 0.0183275 0.0251868 0.0088301 0.0322982 0.00486179
internal_weight=0 5214 1312 827 467 397 139 258 75 62 36 26 25 186
internal_count=22299 5214 1312 827 467 397 139 258 75 62 36 26 25 186
shrinkage=0.1


Tree=437
num_leaves=15
num_cat=0
split_feature=12 32 32 19 18 18 13 22 7 21 33 34 35 8
split_gain=0.00507239 0.0515442 0.117023 0.298777 0.112905 0.269013 0.0904529 0.105556 0.142492 0.302961 0.414792 0.205652 0.158917 0.0895635
threshold=-8.085454999999998e-05 0.12109650000000001 0.14436900000000003 7.1531400000000013e-07 -6.1378149999999986e-07 7.7705150000000013e-05 4.1568450000000003e-05 -2.1177949999999996 2.8458750000000003e-05 -6.6783799999999998 1.9192950000000004e-05 0.36683550000000004 -0.0038917049999999992 1.1470150000000002e-05
decision_type=2 2 2 2 2 2 2 2 2 2 2 2 2 2
left_child=1 -1 3 -3 -5 -6 7 -4 9 -9 11 -11 -12 -10
right_child=-2 2 6 4 5 -7 -8 8 13 10 12 -13 -14 -15
leaf_value=-8.3728757319062721e-05 -2.8360393963381184e-05 0.01507393275571399 -0.00093360608590040823 -0.0018797844849849261 0.018609783908521589 0.0011644925467488873 -0.0004805830084905676 -0.0051080301570537922 -0.0016720553324701564 0.028340879498192889 0.011977623367089435 0.0092661296529695392 -0.0029866121569648387 0.0021360893292960382
leaf_weight=4468 16474 19 161 52 10.999999999999998 45 656 18 81 13.000000000000002 11.000000000000002 9.9999999999999982 20 260
leaf_count=4468 16474 19 161 52 11 45 656 18 81 13 11 10 20 260
internal_value=0 8.02076e-05 0.000619977 0.00350997 0.00147556 0.00459125 0.00032158 0.00123834 0.00208503 0.00612736 0.00987249 0.0200475 0.00232328 0.00123152
internal_weight=0 5825 1357 127 108 56 1230 574 413 72 54 23 31 341
internal_count=22299 5825 1357 127 108 56 1230 574 413 72 54 23 31 341
shrinkage=0.1


Tree=438
num_leaves=15
num_cat=0
split_feature=16 35 13 7 36 16 31 33 6 8 22 3 24 36
split_gain=0.00523095 0.0235075 0.0535316 0.0450907 0.0673979 0.106974 0.113036 0.263004 0.25695 0.117354 0.0568199 0.0706715 0.0305216 0.0922845
threshold=4.5816150000000005e-06 -0.00026799349999999996 2.2173350000000003e-05 5.2194100000000009e-05 0.00021397500000000001 1.4384100000000002e-05 -0.040373849999999996 3.6843350000000004e-05 1.4315550000000002e-06 -1.0399949999999999e-05 -0.5269879999999999 -15.126499999999998 -1.0078699999999998 0.14832100000000004
decision_type=2 2 2 2 2 2 2 2 2 2 2 2 2 2
left_child=-1 2 3 4 -2 6 7 8 -6 -8 -7 -12 -5 -14
right_child=1 -3 -4 12 5 10 9 -9 -10 -11 11 -13 13 -15
leaf_value=-2.5793709419668733e-05 0.000607792678402759 -8.8247492552380824e-05 -4.4954849591978126e-07 -0.0034507542934366746 0.0063325480007651166 -0.0040508428893291345 0.010956202512606976 -0.00080067591311839918 0.02794692584059455 -0.0023114709509536625 0.0094348033974793813 -0.00063705797503261195 0.00037430692599917895 0.0092860024771653123
leaf_weight=17372 126 2945 1345 19 11.000000000000002 18 10.000000000000002 12.999999999999998 10.999999999999998 20 11.000000000000002 19 367 11.999999999999998
leaf_count=17372 126 2945 1345 19 11 18 10 13 11 20 11 19 367 12
internal_value=0 9.09455e-05 0.000357203 0.00111237 0.00219809 0.00397134 0.00661535 0.0104762 0.0171397 0.00211109 0.000390908 0.00305596 0.000460398 0.000656471
internal_weight=0 4927 1982 637 239 113 65 35 22 30 48 30 398 379
internal_count=22299 4927 1982 637 239 113 65 35 22 30 48 30 398 379
shrinkage=0.1


Tree=439
num_leaves=15
num_cat=0
split_feature=13 23 1 2 3 3 21 1 20 1 35 29 0 20
split_gain=0.00552217 0.0199605 0.0344411 0.0351283 0.0333768 0.0385692 0.140883 0.207168 0.0689727 0.0410148 0.071925 0.0271319 0.0347758 0.0517107
threshold=5.5414750000000007e-05 -6.376644999999999 8.6383650000000021 2.2748750000000002 -5.9630249999999991 -6.2170999999999994 -11.00015 -8.8859299999999983 9.4874600000000004 -10.412999999999998 9.8026700000000008e-05 -0.069435449999999996 1.6043500000000004 0.31681300000000007
decision_type=2 2 2 2 2 2 2 2 2 2 2 2 2 2
left_child=1 -1 4 11 5 9 -7 -8 -9 10 -3 -4 -13 -14
right_child=-2 2 3 -5 -6 6 7 8 -10 -11 -12 12 13 -15
leaf_value=-6.0998958088785785e-05 7.883171243777054e-05 -0.0080950323425765525 -0.0039807747727172681 -0.0064004352697255937 -0.00062373919767594885 0.012129733185949071 -0.0092019830298210904 0.0007597792703150346 0.011958210839127953 0.00090606361093182133 0.0018711602583061906 -0.0014216632200068011 -0.0027401102980708376 0.0038687628568508307
leaf_weight=14903 6354 14.000000000000002 20 10.999999999999998 169 13.999999999999998 13.999999999999998 11.000000000000002 10.999999999999998 631 14.999999999999998 76 17 39
leaf_count=14903 6354 14 20 11 169 14 14 11 11 631 15 76 17 39
internal_value=0 -3.1414e-05 0.000391719 -0.000943355 0.000639292 0.000939929 0.00361773 0.000307504 0.006359 0.000737065 -0.00294011 -0.000548434 -2.83828e-05 0.0018625
internal_weight=0 15945 1042 163 879 710 50 36 22 660 29 152 132 56
internal_count=22299 15945 1042 163 879 710 50 36 22 660 29 152 132 56
shrinkage=0.1


Tree=440
num_leaves=15
num_cat=0
split_feature=14 27 26 3 3 3 21 15 15 0 34 14 12 4
split_gain=0.00579388 0.0185239 0.0346375 0.103236 0.0281636 0.0148943 0.0145238 0.0200074 0.0334054 0.0213653 0.0190603 0.041874 0.037257 0.0149434
threshold=9.3791550000000008e-05 0.13584700000000002 4.8780450000000008e-05 -6.283129999999999 -6.401514999999999 -5.8561999999999985 10.826150000000002 5.4489500000000011e-09 -2.2983349999999997e-08 9.373330000000001 0.0039049450000000004 7.7028400000000009e-05 4.7254350000000009e-05 -0.045405999999999995
decision_type=2 2 2 2 2 2 2 2 2 2 2 2 2 2
left_child=1 2 4 -4 -1 -6 -3 8 10 -10 11 -8 13 -12
right_child=-2 6 3 -5 5 -7 7 -9 9 -11 12 -13 -14 -15
leaf_value=0.0053067168094275991 -2.3139169449689526e-05 0.00020083148488215776 -0.012179268042236799 -0.00087368416924229163 -0.0032772082403036101 0.00052513613810356802 -0.0021384024449313675 0.00042937901222084643 -0.0085006695170886781 -0.0019638044759631157 0.0014938233293254268 0.0066233851760625836 -0.0071883694222196941 -0.001664011991840411
leaf_weight=9.9999999999999982 18489 3477 9.9999999999999982 42 13.999999999999998 39 12.000000000000002 97 10.000000000000002 9.9999999999999982 22 9.9999999999999982 9.9999999999999982 47
leaf_count=10 18489 3477 10 42 14 39 12 97 10 10 22 10 10 47
internal_value=0 0.000112289 -0.00113757 -0.00304783 0.000439152 -0.000479257 0.000151188 -0.000640597 -0.00149835 -0.00523224 -0.000758962 0.00184423 -0.0014839 -0.000657166
internal_weight=0 3810 115 52 63 53 3695 218 121 20 101 22 79 69
internal_count=22299 3810 115 52 63 53 3695 218 121 20 101 22 79 69
shrinkage=0.1


Tree=441
num_leaves=15
num_cat=0
split_feature=25 2 19 13 15 4 26 4 35 11 9 29 26 9
split_gain=0.00520452 0.0266398 0.0386865 0.0273996 0.0198925 0.00551616 0.0126925 0.0651062 0.107654 0.32567 0.322869 0.245845 0.229779 0.478907
threshold=0.14802850000000004 -1.8980199999999998 6.9708700000000016e-08 -2.2745549999999994e-05 1.3040750000000002e-08 0.93067350000000004 -5.5607199999999992e-05 0.053110600000000008 -0.00034544449999999993 -1.3465549999999998e-05 -6.7283699999999986e-06 0.0017213650000000001 -6.4586849999999986e-05 -2.4907749999999999e-05
decision_type=2 2 2 2 2 2 2 2 2 2 2 2 2 2
left_child=1 4 -3 -4 -1 6 7 -2 9 -9 11 -10 -13 -14
right_child=5 2 3 -5 -6 -7 -8 8 10 -11 -12 12 13 -15
leaf_value=0.00069399678497575204 -0.00013018726255648437 0.0074369941512122759 0.0045923619747294912 -0.00046012115759051244 -0.0056135401054052646 0.00010296641833405323 -0.00010355156062352496 0.0020318731590010086 -0.001825332674727762 -0.0014915821460352837 0.0020953540802534309 0.00050515097493804262 0.0020092688445583914 0.028811530428938571
leaf_weight=10.000000000000002 5633 9.9999999999999982 13.999999999999998 46 9.9999999999999982 4018 9828 402 477 755 995 71 20.000000000000004 9.9999999999999982
leaf_count=10 5633 10 14 46 10 4018 9828 402 477 755 995 71 20 10
internal_value=0 0.000758911 0.00167853 0.000718792 -0.00245977 -3.07542e-06 -2.64978e-05 6.4054e-05 0.000464846 -0.000267357 0.00100341 -0.000876327 0.00360561 0.0109434
internal_weight=0 90 70 60 20 22209 18191 8363 2730 1157 1573 578 101 30
internal_count=22299 90 70 60 20 22209 18191 8363 2730 1157 1573 578 101 30
shrinkage=0.1


Tree=442
num_leaves=15
num_cat=0
split_feature=3 34 23 14 19 33 14 33 13 34 19 3 35 10
split_gain=0.00576605 0.0169237 0.0137553 0.0542937 0.0338084 0.0497393 0.0273299 0.0452818 0.223116 0.465597 0.865057 0.576211 0.440339 0.209963
threshold=-5.6225549999999993 1.1797500000000001 -16.491149999999998 0.00070241750000000016 0.17599900000000004 3.1877300000000007e-05 0.0011223800000000003 -6.3131549999999994e-06 2.0573500000000002e-05 0.040850350000000007 1.5129550000000005e-07 -8.2381549999999972 -0.000208073 2.8034400000000004e-05
decision_type=2 2 2 2 2 2 2 2 2 2 2 2 2 2
left_child=2 -2 3 -1 -5 -6 7 8 -4 10 11 12 13 -10
right_child=1 -3 6 4 5 -7 -8 -9 9 -11 -12 -13 -14 -15
leaf_value=0.00090479605297678293 0.00021108707900548311 -0.00061522717582604457 -0.00032165745585968332 -0.00028175918341598793 -9.1330917712184587e-05 0.0088990137819200763 7.0853849959837641e-05 -0.00031952124985631366 0.040238702744245514 0.00011250416369962 -0.0013529355470161661 -0.0079295571660622961 0.01208548047254945 0.020217750492421065
leaf_weight=739 2598 274 1717 1103 16.000000000000004 9.9999999999999982 9279 6085 10.000000000000002 338 66 9.9999999999999982 43 10.999999999999998
leaf_count=739 2598 274 1717 1103 16 10 9279 6085 10 338 66 10 43 11
internal_value=0 0.000132253 -1.95518e-05 0.000238433 -0.000197743 0.00336649 -4.69973e-05 -0.000179067 0.0002103 0.00212112 0.00697049 0.0143941 0.0178822 0.0297515
internal_weight=0 2872 19427 1868 1129 26 17559 8280 2195 478 140 74 64 21
internal_count=22299 2872 19427 1868 1129 26 17559 8280 2195 478 140 74 64 21
shrinkage=0.1


Tree=443
num_leaves=15
num_cat=0
split_feature=3 23 23 14 3 23 3 14 30 15 14 2 22 22
split_gain=0.00676599 0.0480351 0.0558337 0.458158 0.19952 0.150217 0.52958 0.358586 0.488237 0.29795 0.329994 0.296511 1.34458 0.914821
threshold=-9.049294999999999 -7.2010749999999994 -9.1511549999999975 0.00070241750000000016 -10.433649999999998 -10.715499999999997 -10.742099999999999 0.00070241750000000016 0.00036679750000000004 6.8396650000000006e-07 0.00059420900000000017 0.35441100000000009 0.36188950000000003 1.0000000180025095e-35
decision_type=2 2 2 2 2 2 2 2 2 2 2 2 2 2
left_child=1 2 5 4 -4 -1 -7 8 11 10 -10 13 -13 -8
right_child=-2 -3 3 -5 -6 6 7 -9 9 -11 -12 12 -14 -15
leaf_value=-0.00030946645839361386 4.8562378145135159e-05 0.00037146144840268614 -0.00082173814480210469 2.8071936398371264e-06 -0.0057154715680720856 -0.00052912279486536562 0.016657972600507109 0.0011048987385355289 -0.0039281644659401056 0.014989934951466109 0.011298745410102937 -0.0073109759949147703 0.027682272302252911 -0.0071635283662804545
leaf_weight=3967 12547 2022 133 2025 223 901 38 264 68 13.999999999999998 18 15.999999999999998 35 28
leaf_count=3967 12547 2022 133 2025 223 901 38 264 68 14 18 16 35 28
internal_value=0 -6.24807e-05 -0.000175991 -0.000578814 -0.00388719 3.3183e-06 0.00090116 0.00358034 0.00659193 0.00146121 -0.000741137 0.0109772 0.016704 0.00655188
internal_weight=0 9752 7730 2381 356 5349 1382 481 217 100 86 117 51 66
internal_count=22299 9752 7730 2381 356 5349 1382 481 217 100 86 117 51 66
shrinkage=0.1


Tree=444
num_leaves=15
num_cat=0
split_feature=31 3 11 14 23 23 14 20 0 14 31 27 12 17
split_gain=0.00587097 0.0344536 0.0784743 0.0806154 0.0861835 0.086044 0.104584 0.0746201 0.50097 0.409248 0.283314 0.391219 0.179776 0.155231
threshold=0.064586450000000017 -9.0837049999999984 -1.3465549999999998e-05 0.012822650000000003 -8.546364999999998 -16.867799999999995 0.0071294650000000006 -3.5336099999999995 -3.4067449999999995 0.006874540000000001 0.35181500000000004 0.42188850000000006 -0.00011467149999999999 3.4278150000000006e-08
decision_type=2 2 2 2 2 2 2 2 2 2 2 2 2 2
left_child=-1 2 7 4 5 6 -4 -2 -9 10 11 -10 -13 -12
right_child=1 -3 3 -5 -6 -7 -8 8 9 -11 13 12 -14 -15
leaf_value=-3.1604377321167073e-05 -0.00011268693600606822 0.00029357232747678779 0.0011258158704939498 0.00044615355059282884 0.00049529424177635856 -0.0023189032188963427 -0.0086016323812752194 -0.0015745731229650452 0.0031540589140994211 0.00099890346457466995 0.012793908148471797 0.034392718924209469 0.017495194395237109 -0.00067601807584816761
leaf_weight=16166 959 3432 140 413 222 572 11.999999999999998 220 13.999999999999998 86 13.999999999999998 10.000000000000002 17 22
leaf_count=16166 959 3432 140 413 222 572 12 220 14 86 14 10 17 22
internal_value=0 8.33061e-05 -0.000183867 -0.000719501 -0.0012284 -0.00175693 0.000357859 0.000358553 0.0015385 0.00574019 0.0110356 0.0167196 0.0237535 0.00456229
internal_weight=0 6133 2701 1359 946 724 152 1342 383 163 77 41 27 36
internal_count=22299 6133 2701 1359 946 724 152 1342 383 163 77 41 27 36
shrinkage=0.1


Tree=445
num_leaves=15
num_cat=0
split_feature=16 33 33 17 31 9 0 36 16 34 26 16 4 23
split_gain=0.00520822 0.0228352 0.0452337 0.120046 0.0243213 0.029379 0.0374521 0.230126 0.058521 0.0495416 0.0250453 0.052755 0.06944 0.0633486
threshold=-1.7593899999999998e-06 0.0033850450000000002 0.0016195950000000004 1.2644700000000002e-06 -0.10408799999999999 2.8314300000000004e-05 2.4962650000000006 -0.051097699999999996 -6.4791699999999993e-06 0.21679700000000002 0.00071992950000000007 -1.3472549999999999e-05 -0.16117699999999999 -12.250049999999998
decision_type=2 2 2 2 2 2 2 2 2 2 2 2 2 2
left_child=1 2 4 -4 5 6 -1 -8 -9 -10 -6 -12 13 -13
right_child=-2 -3 3 -5 10 -7 7 8 9 -11 11 12 -14 -15
leaf_value=-0.00032254646748772794 -2.8827765732349338e-05 -0.003815703628739963 0.009917388732120504 -0.0003744833068648244 0.00021659656022845342 -0.0012681928924748094 0.012731356848962606 -0.001054794946978699 -9.6165845170617084e-05 0.0098578890413045881 0.00037609391358125083 -0.0028330782428383824 -0.00065242818822593401 -0.013144204325296664
leaf_weight=843 16447 14.999999999999998 17 34 4388 262 15.999999999999998 98 10.000000000000002 9.9999999999999982 98 13.000000000000002 37 10.999999999999998
leaf_count=843 16447 15 17 34 4388 262 16 98 10 10 98 13 37 11
internal_value=0 8.10202e-05 9.10341e-05 0.00305614 6.48985e-05 -0.000327865 -7.56987e-05 0.00147723 -4.87515e-05 0.00488086 0.000171921 -0.001061 -0.00336977 -0.00755901
internal_weight=0 5852 5837 51 5786 1239 977 134 118 20 4547 159 61 24
internal_count=22299 5852 5837 51 5786 1239 977 134 118 20 4547 159 61 24
shrinkage=0.1


Tree=446
num_leaves=15
num_cat=0
split_feature=14 23 5 38 33 33 10 32 21 1 14 14 27 5
split_gain=0.00524113 0.0232242 0.0211749 0.0329158 0.0339785 0.0302583 0.0194092 0.0536595 0.0233948 0.240637 0.269624 0.023449 0.0596469 0.0849262
threshold=0.00017223500000000005 -10.632649999999998 7.1526450000000005e-06 -9.8278449999999987e-05 7.1091050000000012e-07 4.1179650000000003e-06 1.1197200000000002e-05 -0.029249999999999995 12.314950000000001 11.152950000000002 9.0643750000000004e-05 9.3791550000000008e-05 0.13584700000000002 1.2009150000000002e-05
decision_type=2 2 2 2 2 2 2 2 2 2 2 2 2 2
left_child=1 -1 3 -3 -5 -6 7 -4 11 -10 -11 -8 13 -13
right_child=-2 2 6 4 5 -7 8 -9 9 10 -12 12 -14 -15
leaf_value=0.00032514236476551423 -2.9746889272851967e-05 0.0058446263118336599 -0.0078189733438193774 -0.0025020752437523615 0.0072071791160851694 5.0057773478329185e-06 6.0479942451029633e-05 0.00081393245863081482 -0.00081277985578409823 -0.00059699617522710477 0.017489378743202371 0.011276658456772566 -0.00059773574332544683 0.00071892880223458635
leaf_weight=2354 16200 14.999999999999998 12.000000000000002 21 10.000000000000002 13.999999999999998 2178 18 134 15.999999999999998 17 9.9999999999999982 1268 32
leaf_count=2354 16200 15 12 21 10 14 2178 18 134 16 17 10 1268 32
internal_value=0 7.90129e-05 -7.56971e-05 0.00178779 0.000435518 0.00300591 -0.000106039 -0.00263923 -8.52466e-05 0.00107099 0.00872023 -0.000140605 -0.000474929 0.00323267
internal_weight=0 6099 3745 60 45 24 3685 30 3655 167 33 3488 1310 42
internal_count=22299 6099 3745 60 45 24 3685 30 3655 167 33 3488 1310 42
shrinkage=0.1


Tree=447
num_leaves=15
num_cat=0
split_feature=29 9 11 14 39 8 33 4 3 19 21 14 36 5
split_gain=0.0053485 0.0328433 0.0398773 0.0918443 0.125999 0.325635 0.311757 0.265384 0.0973311 0.166913 0.144182 0.12725 0.0487722 0.0468243
threshold=-0.025585199999999995 8.0290650000000024e-05 2.5330200000000004e-05 0.0019981900000000004 0.0010716850000000004 2.6929250000000006e-06 -4.9403999999999993e-06 -0.033533099999999989 -12.457899999999997 1.2548550000000002e-05 -0.45418199999999992 0.00065207900000000018 0.0071134400000000013 1.0489950000000001e-05
decision_type=2 2 2 2 2 2 2 2 2 2 2 2 2 2
left_child=1 2 -1 4 5 8 -7 -8 -4 10 -10 -12 -11 -5
right_child=-2 -3 3 13 -6 6 7 -9 9 12 11 -13 -14 -15
leaf_value=-4.3628301339126249e-05 -1.807411098352297e-05 -0.0013639426857807587 -0.0077640400183471769 0.0026815776272477317 0.00049387791858905648 0.0012697258847765625 0.029805984348058697 0.0087749115812281765 -0.00074440101161599159 -6.0640267945606907e-05 0.004364810130474241 0.019575424560091714 -0.0086062725464051415 -0.0003989715520316189
leaf_weight=1779 19626 139 10.999999999999998 56 168 15.999999999999998 12 12 14.999999999999998 17.000000000000004 11.000000000000002 10.999999999999998 10.999999999999998 415
leaf_count=1779 19626 139 11 56 168 16 12 12 15 17 11 11 11 415
internal_value=0 0.000132706 0.000214803 0.000823742 0.00224412 0.00477895 0.0120822 0.0192904 0.000935161 0.00240733 0.00681558 0.0119701 -0.00341785 -3.27067e-05
internal_weight=0 2673 2534 755 284 116 40 24 76 65 37 22 28 471
internal_count=22299 2673 2534 755 284 116 40 24 76 65 37 22 28 471
shrinkage=0.1


Tree=448
num_leaves=15
num_cat=0
split_feature=4 34 3 13 3 6 7 6 14 31 5 16 16 26
split_gain=0.00558394 0.00970578 0.0410518 0.0403232 0.023412 0.0322893 0.111659 0.0474091 0.0776114 0.0360851 0.0796116 0.113079 0.0957315 0.0841186
threshold=-2.4210399999999992 0.008378685000000002 -10.915599999999998 0.00010147550000000001 -5.8792649999999993 9.6477700000000023e-06 6.2991250000000011e-05 8.3325500000000021e-06 0.000163587 0.026747950000000003 1.3258200000000003e-05 -4.3753349999999997e-07 1.7561600000000003e-07 -6.7322549999999988e-05
decision_type=2 2 2 2 2 2 2 2 2 2 2 2 2 2
left_child=-1 2 3 -2 5 7 -7 9 -9 -4 11 13 -13 -11
right_child=1 -3 4 -5 -6 6 -8 8 -10 10 -12 12 -14 -15
leaf_value=0.00012800810316792132 0.0010042404066328225 -5.3458891526568717e-05 -0.00011975213393666921 -0.00055583091245179749 0.00042760953116314436 0.01058221571147442 0.00019293960276991129 -0.0087361292475286647 0.0015281213214620949 -0.003898143089775527 0.00021420393564363217 -0.0086438722576448607 -0.00029983845073729755 0.007064036857004144
leaf_weight=2956 785 15739 1609 210 674 11.999999999999998 75 17.000000000000004 12.999999999999998 14.000000000000002 117 44 20 13.999999999999998
leaf_count=2956 785 15739 1609 210 674 12 75 17 13 14 117 44 20 14
internal_value=0 -1.95622e-05 0.000128468 0.000674979 -7.99566e-05 -0.000256752 0.00162594 -0.000345386 -0.00428829 -0.000280321 -0.00151647 -0.00371744 -0.00603636 0.00158295
internal_weight=0 19343 3604 995 2609 1935 87 1848 30 1818 209 92 64 28
internal_count=22299 19343 3604 995 2609 1935 87 1848 30 1818 209 92 64 28
shrinkage=0.1


Tree=449
num_leaves=15
num_cat=0
split_feature=20 11 0 3 11 4 38 35 35 4 22 15 24 22
split_gain=0.0059144 0.0346393 0.0588212 0.0938607 0.164692 0.114753 0.256714 0.247606 0.222315 0.330839 0.158597 0.154237 0.245058 0.176519
threshold=-5.4229999999999992 5.9031250000000008e-05 -5.482454999999999 -6.401514999999999 -9.1076949999999978e-05 0.17523900000000001 -0.00022376949999999997 -0.0020770149999999993 -0.00069458649999999992 -0.058031099999999995 -2.1806549999999993 -1.4587449999999997e-06 0.2964655000000001 -2.4309649999999996
decision_type=2 2 2 2 2 2 2 2 2 2 2 2 2 2
left_child=1 2 3 4 -1 7 11 -6 9 -9 -11 -7 13 -13
right_child=-2 -3 -4 -5 5 6 -8 8 -10 10 -12 12 -14 -15
leaf_value=-0.0008030906600678075 -2.845054690173317e-05 0.00061715583832500575 -0.00028596166699163347 -0.00058288275362400842 -0.0020361303414448014 -0.0028123018797487024 -0.0037863740444334833 -0.0010835915772865216 0.0031989517641231448 0.027417931557865805 0.011711039727864166 0.0068024448305368428 -0.0010531340326581683 0.025591765940189356
leaf_weight=280 17085 1016 2886 485 79 15.999999999999998 83 14.999999999999998 292 10.000000000000002 18 9.9999999999999982 13.999999999999998 10.000000000000002
leaf_count=280 17085 1016 2886 485 79 16 83 15 292 10 18 10 14 10
internal_value=0 9.32255e-05 -3.35762e-05 0.000521595 0.00116932 0.00217897 -0.000376448 0.00299991 0.00418752 0.0109006 0.0173206 0.00528403 0.00909407 0.0161971
internal_weight=0 5214 4198 1312 827 547 133 414 335 43 28 50 34 20
internal_count=22299 5214 4198 1312 827 547 133 414 335 43 28 50 34 20
shrinkage=0.1


Tree=450
num_leaves=15
num_cat=0
split_feature=14 34 3 3 24 13 11 22 1 9 12 21 23 7
split_gain=0.0055354 0.0206363 0.0441474 0.0264496 0.0566733 0.0728272 0.0359611 0.0367382 0.149593 0.0348625 0.0287443 0.153548 0.241504 0.0453992
threshold=0.00017223500000000005 0.065668900000000016 -5.9958099999999996 -6.0725999999999987 0.24689300000000003 1.3712700000000002e-05 3.8746350000000002e-05 2.9842100000000005 1.8653050000000002 2.2146850000000003e-05 4.8104400000000007e-05 8.8119150000000008 -6.6606249999999987 5.252850000000001e-05
decision_type=2 2 2 2 2 2 2 2 2 2 2 2 2 2
left_child=1 3 -3 4 6 9 7 10 -9 -6 -1 13 -13 -12
right_child=-2 2 -4 -5 5 -7 -8 8 -10 -11 11 12 -14 -15
leaf_value=-0.00050955958135284871 -3.0570571290825106e-05 0.00075585865070970485 -7.6750932235286046e-05 0.00017393869901042246 0.0008011380898427557 -0.010559159831609578 0.0040476044713470497 0.010224624503669993 -0.0057893046282697473 -0.0063198897393886002 -0.002690682342186587 0.017479274049401285 -0.00020912297462162221 0.0033493086695671084
leaf_weight=1410 16200 1154 1421 1923 22 11.999999999999998 19 14.000000000000002 9.9999999999999982 9.9999999999999982 56 12.999999999999998 19 15.999999999999998
leaf_count=1410 16200 1154 1421 1923 22 12 19 14 10 10 56 13 19 16
internal_value=0 8.12007e-05 0.000296387 -7.6037e-05 -0.000376289 -0.00391554 -0.000276272 -0.000329687 0.00355215 -0.00142418 -0.000391223 0.00121315 0.00697679 -0.00134846
internal_weight=0 6099 2575 3524 1601 44 1557 1538 24 32 1514 104 32 72
internal_count=22299 6099 2575 3524 1601 44 1557 1538 24 32 1514 104 32 72
shrinkage=0.1


Tree=451
num_leaves=15
num_cat=0
split_feature=4 7 24 37 36 13 37 33 37 3 33 33 4 24
split_gain=0.00561146 0.0122616 0.0362199 0.019616 0.0186805 0.0153162 0.0250723 0.0262364 0.0241848 0.0215207 0.0152998 0.0220989 0.014693 0.0139769
threshold=0.93067350000000004 3.4278550000000004e-05 0.92477500000000001 -5.6756399999999991e-05 2.1638550000000003 -8.9274649999999981e-06 -4.1054299999999992e-06 2.2102800000000005e-06 -1.5535299999999998e-06 -17.030649999999998 -4.7861299999999995e-05 -3.5003399999999998e-05 1.2303800000000003 0.31139800000000006
decision_type=2 2 2 2 2 2 2 2 2 2 2 2 2 2
left_child=-1 2 10 -3 5 6 -5 -8 -9 -10 -2 -12 -13 -7
right_child=1 3 -4 4 -6 13 7 8 9 -11 11 12 -14 -15
leaf_value=-2.3564390172264628e-05 -0.0018460730981098971 -0.0032484283205121756 0.0065466138627380127 0.0042232004252986772 -0.0034604342126597961 6.359320346329798e-05 0.00099064045478524493 -0.0052213753566320523 0.0039242211690483 -0.00043706115075202445 0.0052543536882149059 0.0021212953479000729 0.00027587485612200414 -0.00061258879461639629
leaf_weight=18268 27 18 9.9999999999999982 18 14.999999999999998 2624 333 9.9999999999999982 11.999999999999998 198 9.9999999999999982 49 361 346
leaf_count=18268 27 18 10 18 15 2624 333 10 12 198 10 49 361 346
internal_value=0 0.000106791 0.00059453 4.44248e-05 6.10928e-05 7.60103e-05 0.000550332 0.000430781 -0.000416642 -0.000187845 0.000461373 0.000609709 0.000496425 -1.51809e-05
internal_weight=0 4031 457 3574 3556 3541 571 553 220 210 447 420 410 2970
internal_count=22299 4031 457 3574 3556 3541 571 553 220 210 447 420 410 2970
shrinkage=0.1


Tree=452
num_leaves=15
num_cat=0
split_feature=20 2 29 17 0 22 5 17 19 33 2 37 2 0
split_gain=0.00545127 0.0365865 0.144348 0.0311563 0.0661542 0.140311 0.118585 0.032138 0.0321496 0.0814273 0.0388454 0.0688722 0.0491433 0.0316017
threshold=-10.027099999999999 3.0221750000000003 0.0073042950000000006 1.2520200000000004e-07 -9.4585049999999971 0.20618450000000002 1.4649350000000002e-05 3.7160050000000004e-06 0.0011483100000000003 4.6697850000000004e-06 2.4567750000000004 -6.1784349999999992e-08 2.2748750000000002 -3.9455449999999996
decision_type=2 2 2 2 2 2 2 2 2 2 2 2 2 2
left_child=1 3 -3 4 5 6 -1 8 10 -10 12 -12 -5 -6
right_child=-2 2 -4 7 13 -7 -8 -9 9 -11 11 -13 -14 -15
leaf_value=0.01634420351668571 -1.2659885657285574e-05 -0.0038618662055920462 0.012338452028449286 -0.00078524255847626677 -0.00098372414199564013 -0.0018422318521929396 0.0031936956624122105 0.00040660293060112502 -0.0002894161808255471 -0.011437681773677469 0.0086046787483307231 -0.00045019618992228063 -0.0070604027625030055 0.00075692124699102857
leaf_weight=12.000000000000002 20927 11.000000000000002 10.999999999999998 312 137 22 15.999999999999998 332 19.000000000000004 9.9999999999999982 11.999999999999998 28 12.999999999999998 437
leaf_count=12 20927 11 11 312 137 22 16 332 19 10 12 28 13 437
internal_value=0 0.0001931 0.00423829 0.000127179 0.00064536 0.00413401 0.00882963 -0.000318201 -0.000928949 -0.00413365 -0.000674329 0.00226627 -0.00103625 0.000341471
internal_weight=0 1372 22 1350 624 50 28 726 394 29 365 40 325 574
internal_count=22299 1372 22 1350 624 50 28 726 394 29 365 40 325 574
shrinkage=0.1


Tree=453
num_leaves=15
num_cat=0
split_feature=7 26 6 25 28 16 25 33 32 12 26 36 32 12
split_gain=0.00522893 0.0269551 0.0735196 0.0269457 0.118819 0.219822 0.0629101 0.0544357 0.0523286 0.223549 0.216496 0.072307 0.0587468 0.075998
threshold=2.3357900000000006e-05 -0.00066057799999999988 -1.4189549999999998e-07 0.42159850000000004 -0.0063236349999999993 1.7561600000000003e-07 0.55084100000000014 2.4996650000000005e-06 -0.033264449999999994 4.5841500000000012e-05 -5.5229049999999993e-05 0.00064050650000000017 -0.023144449999999997 1.4781400000000002e-05
decision_type=2 2 2 2 2 2 2 2 2 2 2 2 2 2
left_child=1 2 -1 4 5 -3 7 -5 9 -6 -11 12 13 -10
right_child=-2 3 -4 6 8 -7 -8 -9 11 10 -12 -13 -14 -15
leaf_value=0.0080889071573437832 -9.5332236876401457e-06 -0.00039104805036913596 -9.371932038837779e-05 -0.0064929808978922672 -0.0004722359552520367 0.017972688740965994 2.1853919558149453e-05 -0.00010339551178428036 -0.00011141918996719668 0.0001977389864623546 0.020120334858074785 0.0074433570410209621 -0.00021592996791117581 -0.0091789452540170825
leaf_weight=15.999999999999998 21467 16.000000000000004 35 30 71 10.999999999999998 339 24 19 10.000000000000002 11.999999999999998 10.999999999999998 220 18
leaf_count=16 21467 16 35 30 71 11 339 24 19 10 12 11 220 18
internal_value=0 0.000245973 0.00247338 0.000100522 0.000691675 0.00709047 -0.000483111 -0.00365317 0.000213094 0.00225691 0.0110646 -0.00049614 -0.000835963 -0.00452265
internal_weight=0 832 51 781 388 27 393 54 361 93 22 268 257 37
internal_count=22299 832 51 781 388 27 393 54 361 93 22 268 257 37
shrinkage=0.1


Tree=454
num_leaves=15
num_cat=0
split_feature=16 14 36 3 3 20 22 34 3 14 37 1 3 1
split_gain=0.00532415 0.0153399 0.0152404 0.0229265 0.0201894 0.0213011 0.0114424 0.00943742 0.0349096 0.0311483 0.0237432 0.0447881 0.122636 0.0796654
threshold=6.6670550000000008e-05 0.0043134550000000016 0.00055087650000000012 -15.526149999999999 -14.883399999999998 -0.5395494999999999 -2.4478399999999998 0.008378685000000002 -10.915599999999998 0.020030800000000005 -2.1173049999999996e-08 10.462750000000002 -6.283129999999999 10.225600000000002
decision_type=2 2 2 2 2 2 2 2 2 2 2 2 2 2
left_child=7 2 3 -2 5 -4 -3 8 9 -1 11 13 -13 -10
right_child=1 6 4 -5 -6 -7 -8 -9 10 -11 -12 12 -14 -15
leaf_value=0.00092203692505200092 0.0044288194821044602 0.00064264373680581106 4.4700456783175455e-05 0.00084388811399499193 0.0002884625324647707 -0.0063322674203664074 -6.8198534436126606e-05 -5.1250375269504388e-05 -0.00028151513706214411 -0.00044399829294322775 0.0002047919070665249 -0.0065049381405494159 0.00016191401732435404 0.0079126068429710966
leaf_weight=785 19 257 11.000000000000002 292 176 9.9999999999999982 1905 15963 1054 212 1483 43 77 11.999999999999998
leaf_count=785 19 257 11 292 176 10 1905 15963 1054 212 1483 43 77 12
internal_value=0 0.000132488 0.000626971 0.0010629 -6.12262e-05 -0.00299195 1.63003e-05 -1.80214e-05 0.000126669 0.000631566 -6.19349e-05 -0.000395456 -0.00222704 -0.000189274
internal_weight=0 2670 508 311 197 21 2162 19629 3666 997 2669 1186 120 1066
internal_count=22299 2670 508 311 197 21 2162 19629 3666 997 2669 1186 120 1066
shrinkage=0.1


Tree=455
num_leaves=15
num_cat=0
split_feature=3 23 3 14 23 24 23 14 20 3 19 34 21 19
split_gain=0.00603113 0.0398183 0.0785666 0.10396 0.217831 0.380546 0.0953058 0.117985 0.127675 0.158657 0.162139 0.130118 0.0976458 0.287315
threshold=-9.1580099999999991 -13.009749999999999 -13.453149999999999 0.0015581900000000003 -14.654899999999998 0.14657200000000001 -16.786249999999999 0.0018826950000000002 7.4047900000000011 -10.813299999999998 3.2350800000000005e-08 0.70286000000000015 -5.5189749999999993 0.0024746600000000005
decision_type=2 2 2 2 2 2 2 2 2 2 2 2 2 2
left_child=1 2 3 4 -1 -6 -4 8 9 10 -8 -12 13 -9
right_child=-2 -3 6 -5 5 -7 7 12 -10 -11 11 -13 -14 -15
leaf_value=-0.0017311215912923219 4.510603251694481e-05 5.968087138639825e-05 0.00023027153014884054 5.6876652348871523e-06 0.0011236727806842987 0.024113597410420577 0.001221663603477331 0.018871378125622864 0.0074374935861366495 -0.0008628853940644076 -0.0073446919197754177 -0.00071900801143341166 -0.00079644790703500628 -0.0022694424868354365
leaf_weight=30 12726 7122 493 976 18.000000000000004 11.999999999999998 37 10.000000000000002 11.999999999999998 185 149 37 474 18
leaf_count=30 12726 7122 493 976 18 12 37 10 12 185 149 37 474 18
internal_value=0 -5.99623e-05 -0.000407616 0.000254061 0.00429426 0.0103196 -0.000892066 -0.00149219 -0.00272892 -0.00302793 -0.00482404 -0.00602668 -0.000457475 0.00528085
internal_weight=0 9573 2451 1036 60 30 1415 922 420 408 223 186 502 28
internal_count=22299 9573 2451 1036 60 30 1415 922 420 408 223 186 502 28
shrinkage=0.1


Tree=456
num_leaves=15
num_cat=0
split_feature=13 19 27 19 23 12 23 11 35 24 22 15 23 19
split_gain=0.00505312 0.0198908 0.0407066 0.117747 0.0488929 0.072004 0.0771114 0.115095 0.0628337 0.0594227 0.0587099 0.0578853 0.055977 0.0432433
threshold=5.5414750000000007e-05 7.8012700000000006e-05 0.13909750000000001 3.7531650000000006e-07 -12.677849999999998 -0.00034617349999999997 -13.738999999999999 -0.00015189499999999995 0.25632850000000007 -0.82324799999999987 -0.71469499999999997 -2.5707899999999997e-06 -13.123899999999997 1.2466600000000002e-08
decision_type=2 2 2 2 2 2 2 2 2 2 2 2 2 2
left_child=-1 2 3 -2 5 -4 7 -7 9 -6 13 -8 -13 -9
right_child=1 -3 4 -5 8 6 11 10 -10 -11 -12 12 -14 -15
leaf_value=-3.005026693052863e-05 0.011381541172830531 2.8400634796592046e-06 0.0064091345080389429 -0.00072816229381022005 -0.0060184481858204198 0.0070041735092864228 0.0015265144873410465 -0.0089434105282028518 0.00683351749116007 0.00081434703354979748 0.00030583070240704821 -0.011118537036921174 -0.002737272044178098 -0.0023178169284735553
leaf_weight=15945 12.999999999999998 5439 12.999999999999998 21 12.999999999999998 19 9.9999999999999982 11.999999999999998 17 608 102 16.999999999999996 15.000000000000002 55
leaf_count=15945 13 5439 13 21 13 19 10 12 17 608 102 17 15 55
internal_value=0 7.54094e-05 0.000506781 0.00390202 0.00037575 -0.000831346 -0.00124059 -0.000375143 0.000835506 0.000671309 -0.00120477 -0.0051145 -0.00718982 -0.00350449
internal_weight=0 6354 915 34 881 243 230 188 638 621 169 42 32 67
internal_count=22299 6354 915 34 881 243 230 188 638 621 169 42 32 67
shrinkage=0.1


Tree=457
num_leaves=15
num_cat=0
split_feature=33 6 13 7 19 35 15 20 13 19 19 3 38 33
split_gain=0.00616491 0.117261 0.0624675 0.0783087 0.198158 0.169421 0.173738 0.101495 0.189889 0.102675 0.129641 0.0692863 0.0773502 0.0967798
threshold=-1.3162999999999997e-05 1.7574450000000003e-06 2.8998000000000006e-05 3.3744350000000005e-05 2.4356250000000003e-08 0.00047738050000000002 1.0000000180025095e-35 4.952325000000001 3.8347400000000012e-05 8.2844450000000015e-08 5.2381950000000008e-07 -9.5356449999999988 -0.0068598999999999995 -1.3480899999999998e-05
decision_type=2 2 2 2 2 2 2 2 2 2 2 2 2 2
left_child=1 2 11 4 5 -4 -7 9 -9 -6 -11 12 -1 -14
right_child=-2 -3 3 -5 7 6 -8 8 -10 10 -12 -13 13 -15
leaf_value=-4.9246337408833548e-05 -2.5180281868040931e-05 0.00095551363146034035 0.016761943201224008 -0.00014885745586221968 -0.008704734421693363 -0.0058253825726834194 0.012386755859479308 0.017247187495231627 0.0017162549574070885 0.0088321921309483624 -0.00024868468801339457 -0.00016892043083249333 -0.002799710179429012 0.0054111055843532084
leaf_weight=219 18139 1176 14.999999999999998 962 12.999999999999998 11.000000000000002 9.9999999999999982 9.9999999999999982 37 17 209 1132 334 14.999999999999998
leaf_count=219 18139 1176 15 962 13 11 10 10 37 17 209 1132 334 15
internal_value=0 0.000109794 -0.000223505 0.00030296 0.0016528 0.00864493 0.00284706 0.000772671 0.00502071 -6.27171e-05 0.00043439 -0.000621141 -0.0015224 -0.00244681
internal_weight=0 4160 2984 1284 322 36 21 286 47 239 226 1700 568 349
internal_count=22299 4160 2984 1284 322 36 21 286 47 239 226 1700 568 349
shrinkage=0.1


Tree=458
num_leaves=15
num_cat=0
split_feature=37 13 6 5 26 39 22 10 10 6 22 32 0 20
split_gain=0.00556343 0.0379879 0.0757657 0.114191 0.25001 0.278887 0.111037 0.133714 0.0643224 0.0612976 0.0560203 0.0533853 0.0515262 0.0360762
threshold=-3.9559199999999996e-07 -2.3666599999999998e-05 4.0523350000000008e-07 1.5498450000000001e-05 -7.6952549999999989e-05 0.00019055500000000002 2.4010450000000003 2.1054900000000004e-05 2.3519350000000004e-05 2.5161900000000005e-07 2.3063800000000003 2.7946350000000004 -3.7243749999999998 4.0363950000000015
decision_type=2 2 2 2 2 2 2 2 2 2 2 2 2 2
left_child=1 2 9 4 5 -4 7 -7 -9 11 13 -1 -6 -5
right_child=-2 -3 3 10 12 6 -8 8 -10 -11 -12 -13 -14 -15
leaf_value=0.00020935944549208097 -2.1840191507554959e-05 -2.3396587092590876e-05 0.019162697458846703 0.00025733917404466294 0.003655274546084305 0.011193654751405121 0.013568366952240469 -0.0086869856144767225 0.0019807762645471555 -0.0076087434453746454 -0.0033437285358862336 -0.0067808905335065605 -0.0014967907060847872 0.0034719644915391906
leaf_weight=122 18720 3037 18 169 30 9.9999999999999982 9.9999999999999982 10.000000000000002 12.999999999999998 12.999999999999998 36 11.999999999999998 55 44
leaf_count=122 18720 3037 18 169 30 10 10 10 13 13 36 12 55 44
internal_value=0 0.000114235 0.000885431 0.0016067 0.00382715 0.00871195 0.00433722 0.0015399 -0.00265738 -0.00105267 0.000304749 -0.000416633 0.000321585 0.000921393
internal_weight=0 3579 542 395 146 61 43 33 23 147 249 134 85 213
internal_count=22299 3579 542 395 146 61 43 33 23 147 249 134 85 213
shrinkage=0.1


Tree=459
num_leaves=15
num_cat=0
split_feature=33 6 13 7 14 27 10 15 13 35 35 35 15 7
split_gain=0.00512685 0.0938592 0.0500635 0.0623662 0.149918 0.368298 0.178693 0.140317 0.124259 0.153889 0.110645 0.0842678 0.0669167 0.0563242
threshold=-1.3162999999999997e-05 1.7945450000000003e-06 2.8108550000000004e-05 3.3744350000000005e-05 0.0021213250000000007 0.16935450000000002 1.6563550000000005e-05 -8.3892149999999996e-08 3.6063350000000008e-05 0.0010296500000000002 -0.0012853949999999997 -0.035061349999999991 -6.3640099999999988e-07 3.2916100000000008e-05
decision_type=2 2 2 2 2 2 2 2 2 2 2 2 2 2
left_child=1 2 -1 4 5 -4 -7 -8 10 -10 -9 12 -6 -13
right_child=-2 -3 3 -5 11 6 7 8 9 -11 -12 13 -14 -15
leaf_value=-0.00055435932058057471 -2.2962691002458122e-05 0.00086537400988785998 0.023092098217457533 -0.00012599294110583539 0.0087306836031769454 0.013875595200806857 0.0094265962285654883 0.00060693876002915193 -0.0051333643997517903 0.0099761431579411565 -0.013384345675317141 -0.0011362613083411301 -0.0002041025388947067 0.0044515091710491108
leaf_weight=1691 18139 1157 9.9999999999999982 988 19 11.999999999999998 13.999999999999998 10.000000000000002 13.000000000000002 13.999999999999998 12.999999999999998 184 14.999999999999998 20
leaf_count=1691 18139 1157 10 988 19 12 14 10 13 14 13 184 15 20
internal_value=0 0.000100125 -0.000194711 0.000268829 0.00147279 0.00505123 0.00267743 0.000577774 -0.0018999 0.0027012 -0.00730118 0.000179746 0.00478887 -0.000588441
internal_weight=0 4160 3003 1312 324 86 76 64 50 27 23 238 34 204
internal_count=22299 4160 3003 1312 324 86 76 64 50 27 23 238 34 204
shrinkage=0.1


Tree=460
num_leaves=15
num_cat=0
split_feature=6 22 2 3 33 11 24 14 21 33 1 34 14 3
split_gain=0.00577735 0.07388 0.0974658 0.1175 0.0570187 0.0565434 0.0440788 0.0342942 0.0336925 0.072426 0.126264 0.220124 0.126132 0.108854
threshold=2.3224500000000005e-06 2.8358200000000005 1.9945700000000002 -7.9709549999999991 -1.2823249999999998e-05 -3.1724349999999994e-05 0.079132650000000013 0.00045896000000000006 8.0967850000000023 8.7255100000000015e-07 8.5772100000000027 0.012167550000000001 0.00063647700000000009 -6.0971649999999995
decision_type=2 2 2 2 2 2 2 2 2 2 2 2 2 2
left_child=-1 4 -3 5 7 -4 -5 -2 -6 -10 12 -12 13 -11
right_child=1 2 3 6 8 -7 -8 -9 9 10 11 -13 -14 -15
leaf_value=2.9897883465654015e-05 0.0011543926306412063 -0.00039229381428449416 -0.0065631651140462882 -0.0054177933884784583 -5.5727731578623822e-05 -0.016565081086009743 0.0010687470780050552 -1.0459740131286861e-05 0.00012616411039125715 -0.0067688270937496589 0.010493080717112337 -0.0033946914006955926 -0.00048657479753745793 -0.0010308821429955025
leaf_weight=16579 585 125 13.000000000000002 20 3795 9.9999999999999982 22 445 381 94 21 25 133 51
leaf_count=16579 585 125 13 20 3795 10 22 445 381 94 21 25 133 51
internal_value=0 -8.66568e-05 -0.00202554 -0.00516639 -2.00407e-05 -0.0109118 -0.00202008 0.000651131 -0.000173664 -0.000808515 -0.00190763 0.00294538 -0.00271064 -0.00475065
internal_weight=0 5720 190 65 5530 23 42 1030 4500 705 324 46 278 145
internal_count=22299 5720 190 65 5530 23 42 1030 4500 705 324 46 278 145
shrinkage=0.1


Tree=461
num_leaves=15
num_cat=0
split_feature=22 2 13 2 2 22 31 2 3 26 5 5 5 28
split_gain=0.00536795 0.689022 0.0722586 0.0897559 0.0464729 0.121666 0.0685431 0.0436694 0.0428217 0.0677938 0.0408169 0.0342855 0.025506 0.0216047
threshold=2.9368200000000004 3.0221750000000003 -1.5352949999999997e-05 2.3013650000000005 2.9665000000000004 2.2108700000000003 0.63298300000000007 2.9119300000000004 -7.7975399999999988 -6.6333949999999989e-05 1.5267800000000003e-05 7.6070650000000005e-06 1.3223650000000002e-05 -0.012304599999999997
decision_type=2 2 2 2 2 2 2 2 2 2 2 2 2 2
left_child=4 2 3 -2 -1 12 8 11 9 -7 -5 -4 13 -6
right_child=1 -3 7 10 5 6 -8 -9 -10 -11 -12 -13 -14 -15
leaf_value=1.2196146143682935e-05 -0.00053645967614526552 0.020762888307217509 -0.0051330026287663109 -0.0099566522921021618 0.00051410964592114882 -0.016985632851719858 0.00071215627355162398 0.0068217651639133695 -0.0030124886473640792 -0.0058371485831836857 -0.0033927738889178733 0.00028714128381162642 0.00019601281820615514 -0.0022756913784231308
leaf_weight=21317 75 15.999999999999998 11.999999999999998 18 38 9.9999999999999982 10.999999999999998 9.9999999999999982 10.000000000000002 11.999999999999998 20 425 222 103
leaf_count=21317 75 16 12 18 38 10 11 10 10 12 20 425 222 103
internal_value=0 0.000301308 -0.000283309 -0.00254256 -7.98938e-06 -0.00106783 -0.00609752 0.000287823 -0.00843834 -0.0109046 -0.00650198 0.000138304 -0.000472025 -0.00152383
internal_weight=0 576 560 113 21723 406 43 447 32 22 38 437 363 141
internal_count=22299 576 560 113 21723 406 43 447 32 22 38 437 363 141
shrinkage=0.1


Tree=462
num_leaves=15
num_cat=0
split_feature=10 25 9 0 20 31 11 0 31 5 30 26 35 12
split_gain=0.00505565 0.0314564 0.155907 0.0348705 0.0299054 0.0815297 0.744815 0.341348 0.401845 0.532797 0.879159 0.300822 0.276018 0.269226
threshold=2.4033300000000002e-05 0.15031150000000001 1.7884200000000004e-05 -3.6001199999999995 2.9593550000000004 -0.0077328449999999995 1.5224150000000002e-06 2.9404050000000006 -0.13959299999999997 1.6234500000000002e-05 0.0004256655000000001 -6.4183149999999989e-05 -0.00055251249999999986 -9.6573999999999987e-05
decision_type=2 2 2 2 2 2 2 2 2 2 2 2 2 2
left_child=1 2 3 -1 5 6 -3 8 -8 11 -11 13 -12 -10
right_child=-2 4 -4 -5 -6 -7 7 -9 9 10 12 -13 -14 -15
leaf_value=0.0052364945819135759 -3.3509506935169054e-05 -0.0017647910930168268 0.011615482388983115 -0.0005747830491305354 -0.00021709476540893765 1.7907997968209699e-06 0.001823284250286918 0.00063619904954416255 0.0053225259049213478 0.038938888634244606 -0.0034055587446676899 0.0020174249066113835 0.016923954514512684 0.024311206706001291
leaf_weight=11.999999999999998 14913 431 13.999999999999998 74 2745 3719 99 156 16.000000000000004 14.999999999999998 11.000000000000002 63 17 13.999999999999998
leaf_count=12 14913 431 14 74 2745 3719 99 156 16 15 11 63 17 14
internal_value=0 6.76587e-05 0.00182921 0.000236093 4.34815e-05 0.000200998 0.00110228 0.00426265 0.00667 0.0101981 0.019403 0.0059421 0.00893736 0.0141839
internal_weight=0 7386 100 86 7286 4541 822 391 235 136 43 93 28 30
internal_count=22299 7386 100 86 7286 4541 822 391 235 136 43 93 28 30
shrinkage=0.1


Tree=463
num_leaves=15
num_cat=0
split_feature=3 23 23 3 14 23 26 3 3 23 15 15 36 16
split_gain=0.0055402 0.0370214 0.0533258 0.160434 0.177428 0.177895 0.103067 0.0859352 0.0840991 0.342248 0.25684 0.303646 0.330635 0.612155
threshold=-9.1580099999999991 -13.311149999999998 -9.3329699999999978 -7.8859149999999998 0.00054681050000000007 -10.609499999999999 0.0020182350000000006 -9.049294999999999 -7.8588649999999989 -8.059409999999998 3.6318200000000007e-06 -1.1278699999999998e-05 -0.00028187599999999997 5.7676100000000005e-08
decision_type=2 2 2 2 2 2 2 2 2 2 2 2 2 2
left_child=-1 -2 3 4 5 -3 7 -7 9 10 11 -4 13 -13
right_child=1 2 8 -5 -6 6 -8 -9 -10 -11 -12 12 -14 -15
leaf_value=-5.7470076895201304e-05 0.00036044784984796811 -0.0013821654775119723 -0.00077037061631100108 3.26343516195617e-05 -0.00014671357909085505 0.0021320369941267101 0.0023223262093961241 -0.0070521943694641948 -9.0738782671936387e-05 -0.00033991398485803113 -0.0011481602488535882 0.015099129063070893 0.0031453230208469598 -0.00069024348725891995
leaf_weight=9573 2854 263 110 2568 449 10.999999999999998 14.999999999999998 138 4780 1057 136 73 235 37
leaf_count=9573 2854 263 110 2568 449 11 15 138 4780 1057 136 73 235 37
internal_value=0 4.32313e-05 -4.84762e-05 -0.000365997 -0.00153459 -0.00299397 -0.00557875 -0.00637416 0.000121646 0.000737663 0.0026649 0.00380463 0.00526333 0.00978816
internal_weight=0 12726 9872 3444 876 427 164 149 6428 1648 591 455 345 110
internal_count=22299 12726 9872 3444 876 427 164 149 6428 1648 591 455 345 110
shrinkage=0.1


Tree=464
num_leaves=15
num_cat=0
split_feature=16 35 13 5 6 20 36 26 22 9 27 7 38 4
split_gain=0.00602545 0.0219298 0.0465722 0.0419028 0.0803368 0.178081 0.0803639 0.140451 0.274036 0.0347541 0.0659542 0.138856 0.0305678 0.0299321
threshold=4.5816150000000005e-06 -0.00026799349999999996 2.2173350000000003e-05 1.8191400000000003e-05 2.2187500000000001e-06 2.7581050000000005 0.0053425200000000008 0.00010111150000000002 1.7472750000000004 3.2804250000000004e-05 0.24563900000000002 3.2771900000000004e-05 0.00016648050000000003 -0.079685749999999986
decision_type=2 2 2 2 2 2 2 2 2 2 2 2 2 2
left_child=-1 2 3 4 6 -6 9 8 -8 10 11 -2 -11 -9
right_child=1 -3 -4 -5 5 -7 7 13 -10 12 -12 -13 -14 -15
leaf_value=-2.7683330341413047e-05 0.014935608189553019 -7.5467219644119706e-05 2.118025475724726e-05 0.00042007658532231353 0.0013440810612672448 0.017830662094056607 0.022045208886265748 0.0036063633020967235 0.00059945531493912527 0.00045604174956679347 -2.5065078381260841e-05 0.00037753426433099731 -0.0050797018418578732 -0.0036707774377786198
leaf_weight=17372 10.000000000000002 2945 1345 393 19.000000000000004 9.9999999999999982 11.000000000000002 10.000000000000002 12.999999999999998 21 99 19 19 12.999999999999998
leaf_count=17372 10 2945 1345 393 19 10 11 10 13 21 99 19 19 13
internal_value=0 9.7608e-05 0.000354776 0.00105915 0.00208848 0.00702911 0.00142207 0.00507731 0.0104288 0.000399466 0.0012035 0.00539756 -0.00217344 -0.000506803
internal_weight=0 4927 1982 637 244 29 215 47 24 168 128 29 40 23
internal_count=22299 4927 1982 637 244 29 215 47 24 168 128 29 40 23
shrinkage=0.1


Tree=465
num_leaves=15
num_cat=0
split_feature=4 33 31 1 17 22 7 11 37 26 5 17 37 4
split_gain=0.00587843 0.010152 0.0139037 0.0107177 0.00900871 0.0121484 0.012209 0.00961526 0.00882354 0.00874114 0.0305094 0.0517128 0.0551245 0.0629482
threshold=-2.4210399999999992 0.0024570250000000003 13.832150000000002 3.7958100000000004 -1.8790249999999995e-05 -1.5854899999999998 5.2996200000000006e-05 -9.1076949999999978e-05 -1.1214899999999999e-07 0.00034766700000000007 1.1012700000000002e-05 -2.6629599999999999e-06 -1.7705749999999996e-05 -0.25668149999999995
decision_type=2 2 2 2 2 2 2 2 2 2 2 2 2 2
left_child=1 2 4 -3 -1 7 -7 8 -6 -2 11 -11 13 -13
right_child=9 3 -4 -5 5 6 -8 -9 -10 10 -12 12 -14 -15
leaf_value=2.2345633343601268e-05 -4.2082668121041627e-05 -0.00013098432017224172 0.0038705044717062265 -0.0044173870561644438 -0.0012684400937619754 -0.00083197368098344494 0.00037905565033764473 0.0015408887650297171 0.0010984673554452862 0.0060540849581900008 -2.4081076346098618e-05 -0.0098834816087037293 0.0010621287455888841 -0.00016636717773508281
leaf_weight=2066 17470 14.000000000000002 9.9999999999999982 9.9999999999999982 28 98 553 141 36 19 1476 10.000000000000002 348 20
leaf_count=2066 17470 14 10 10 28 98 553 141 36 19 1476 10 348 20
internal_value=0 0.00013134 0.000148107 -0.00191699 0.000135368 0.000408152 0.00019675 0.00107948 6.29453e-05 -2.00714e-05 0.000185234 0.000963441 0.000707563 -0.00340541
internal_weight=0 2956 2932 24 2922 856 651 205 64 19343 1873 397 378 30
internal_count=22299 2956 2932 24 2922 856 651 205 64 19343 1873 397 378 30
shrinkage=0.1


Tree=466
num_leaves=15
num_cat=0
split_feature=4 20 17 7 34 33 37 3 33 36 26 26 23 5
split_gain=0.0059555 0.0110181 0.0113365 0.0136219 0.0331637 0.0187901 0.0165028 0.0638564 0.0156317 0.0142669 0.0123803 0.0119478 0.0105406 0.0184103
threshold=0.93067350000000004 14.086350000000001 -2.4702299999999996e-06 3.4278550000000004e-05 6.0983350000000014 -4.7861299999999995e-05 -9.2867399999999981e-06 -15.456499999999998 -3.5003399999999998e-05 2.1638550000000003 -0.00017671799999999997 -0.0015291349999999998 -6.467369999999999 1.8120750000000004e-05
decision_type=2 2 2 2 2 2 2 2 2 2 2 2 2 2
left_child=12 2 -2 4 5 10 7 -5 -7 -8 -4 -10 -1 -14
right_child=1 -3 3 6 -6 8 9 -9 11 -11 -12 -13 13 -15
leaf_value=-4.7200804158726834e-05 0.00074887258147399247 -0.0013960091811895837 -0.0042965409310104742 -0.008923140205442907 0.0057840222803254926 0.0043484047711403531 5.6864337020349125e-05 -0.00019751816051631556 0.003940063212503446 -0.0030344351722548409 -0.00014190259462338873 0.00043935520320970346 0.00048246767521259313 -0.00024591131621266697
leaf_weight=16743 274 48 13.000000000000002 9.9999999999999982 11.999999999999998 10.999999999999998 3181 52 9.9999999999999982 14.999999999999998 15.999999999999998 389 991 534
leaf_count=16743 274 48 13 10 12 11 3181 52 10 15 16 389 991 534
internal_value=0 0.000110016 0.000128165 8.2311e-05 0.000597395 0.000455619 1.10088e-05 -0.00160488 0.000629615 4.23557e-05 -0.00200433 0.000527092 -2.4276e-05 0.000227416
internal_weight=0 4031 3983 3709 451 439 3258 62 410 3196 29 399 18268 1525
internal_count=22299 4031 3983 3709 451 439 3258 62 410 3196 29 399 18268 1525
shrinkage=0.1


Tree=467
num_leaves=15
num_cat=0
split_feature=14 23 10 14 33 13 30 19 23 1 26 22 14 23
split_gain=0.00561034 0.0204832 0.0201977 0.0179391 0.0739731 0.153973 0.373582 0.734741 0.391129 0.428806 0.404924 0.374245 0.292492 0.157633
threshold=0.00022219550000000004 -12.154599999999999 2.9423900000000005e-05 0.00088515050000000019 -6.3131549999999994e-06 1.6952400000000004e-05 0.00035338800000000005 2.2962050000000003e-07 -10.976349999999998 5.274020000000001 -6.386254999999999e-05 -2.2074049999999996 0.0007529835000000001 -11.244699999999998
decision_type=2 2 2 2 2 2 2 2 2 2 2 2 2 2
left_child=1 2 -1 4 5 -2 7 8 12 10 -10 -12 -7 -8
right_child=3 -3 -4 -5 -6 6 13 -9 9 -11 11 -13 -14 -15
leaf_value=0.00076457800903370317 -0.00048423980166524766 -3.5944289857061266e-05 0.0001063871447209541 3.4718674186145843e-05 -0.00046650757340018677 0.00044299756309815815 -0.0018250579492219887 -0.0018709108223086098 0.026854492320368691 0.034498370314637823 0.017298049135133626 -0.010060482919216154 0.017133227735757827 0.00242348731206941
leaf_weight=726 749 4899 1303 10973 3122 35 211 73 11.999999999999998 11.999999999999998 9.9999999999999982 10.000000000000002 14.999999999999998 149
leaf_count=726 749 4899 1303 10973 3122 35 211 73 12 12 10 10 15 149
internal_value=0 7.47135e-05 0.000341896 -3.36748e-05 -0.000204316 0.000437189 0.00174677 0.00565591 0.0115012 0.0183775 0.0123322 0.00361878 0.00545007 -6.66323e-05
internal_weight=0 6928 2029 15371 4398 1276 527 167 94 44 32 20 50 360
internal_count=22299 6928 2029 15371 4398 1276 527 167 94 44 32 20 50 360
shrinkage=0.1


Tree=468
num_leaves=15
num_cat=0
split_feature=16 20 33 17 5 5 22 2 33 32 20 0 19 11
split_gain=0.00576092 0.0204261 0.0343255 0.0690607 0.02966 0.0240649 0.0225983 0.096037 0.12788 0.216487 0.124064 0.128412 0.198596 0.0955612
threshold=-1.889335e-06 -14.666949999999998 0.0016195950000000004 1.2644700000000002e-06 1.3712350000000003e-05 2.9058150000000006e-05 2.5523950000000002 2.5401300000000004 3.8880500000000008e-05 -0.12287799999999999 -8.434314999999998 -8.3252299999999977 0.010673500000000001 -4.5554549999999996e-05
decision_type=2 2 2 2 2 2 2 2 2 2 2 2 2 2
left_child=1 4 6 -4 -1 -5 -3 -8 9 -9 -11 -12 13 -13
right_child=-2 2 3 5 -6 -7 7 8 -10 10 11 12 -14 -15
leaf_value=-0.0069333976809866724 -3.0020336248578555e-05 1.6315386250108624e-05 0.0074401835898721697 -0.0027188500314129184 -0.00045124485899634693 0.0034634424210526053 -2.1656123171210048e-06 0.016576745630859827 -0.0063716584738964842 -0.0031905307392589748 -0.0027301181290143479 0.020372496172785765 0.00037765221572236014 0.0077523250598460396
leaf_weight=9.9999999999999982 16532 5182 19 17.000000000000004 24 9.9999999999999982 397 12.999999999999998 11.999999999999998 25 14.999999999999998 11.999999999999995 19 12.000000000000005
leaf_count=10 16532 5182 19 17 24 10 397 13 12 25 15 12 19 12
internal_value=0 8.60579e-05 0.000100551 0.00282125 -0.00235776 -0.000429112 7.85445e-05 0.000717101 0.00336107 0.00457767 0.00269829 0.00523658 0.00801566 0.0140624
internal_weight=0 5767 5733 46 34 27 5687 505 108 96 83 58 43 24
internal_count=22299 5767 5733 46 34 27 5687 505 108 96 83 58 43 24
shrinkage=0.1


Tree=469
num_leaves=15
num_cat=0
split_feature=3 23 23 14 23 14 30 3 2 22 22 14 20 0
split_gain=0.00650222 0.0353211 0.057532 0.410068 0.109364 0.375479 0.25848 0.299092 0.224782 0.622574 0.546224 0.203972 0.408194 0.449174
threshold=-9.049294999999999 -7.4021049999999997 -9.1511549999999975 0.00066813050000000013 -10.609499999999999 0.00070241750000000016 0.00036679750000000004 -10.813299999999998 1.1369850000000004 1.2871600000000003 1.0975800000000002 0.00032625600000000008 -2.8021899999999995 4.5268550000000003
decision_type=2 2 2 2 2 2 2 2 2 2 2 2 2 2
left_child=1 2 4 -4 -1 6 7 -6 10 -10 11 -9 -13 -14
right_child=-2 -3 3 -5 5 -7 -8 8 9 -11 -12 12 13 -15
leaf_value=-0.00024250569148206153 4.7606366239533368e-05 0.00028446239185389767 -0.0041647206818271887 -6.5332091595261721e-05 -0.0020599919360267511 -4.407623046261344e-05 0.00059500446987592365 0.0046306438495715462 -0.0036253409460186947 0.02693380653858185 -0.008795782468385166 0.00040505363916357358 0.0073534783822568955 0.033957803646723426
leaf_weight=4084 12547 2268 281 1854 29 1010 110 30 10.000000000000002 20 18 11.999999999999998 11.000000000000002 14.999999999999998
leaf_count=4084 12547 2268 281 1854 29 1010 110 30 10 20 18 12 11 15
internal_value=0 -6.12507e-05 -0.000166018 -0.000604877 9.14833e-06 0.000821603 0.00425037 0.00702341 0.00929426 0.0167474 0.00669432 0.0107946 0.0156609 0.0227021
internal_weight=0 9752 7484 2135 5349 1265 255 145 116 30 86 68 38 26
internal_count=22299 9752 7484 2135 5349 1265 255 145 116 30 86 68 38 26
shrinkage=0.1


Tree=470
num_leaves=15
num_cat=0
split_feature=3 23 23 14 3 23 14 3 34 2 21 36 16 35
split_gain=0.00536686 0.0311176 0.0429133 0.345418 0.160129 0.100899 0.337436 0.209623 0.267455 0.295691 0.223346 0.189512 0.225996 0.241518
threshold=-9.1580099999999991 -7.4021049999999997 -9.2007249999999985 0.00084499100000000012 -10.022349999999998 -10.609499999999999 0.00070241750000000016 -10.813299999999998 0.024686550000000005 1.1369850000000004 6.0112050000000012 0.00030596150000000006 6.0363950000000006e-07 0.00035379050000000005
decision_type=2 2 2 2 2 2 2 2 2 2 2 2 2 2
left_child=1 2 5 4 -4 -1 7 -7 9 10 11 12 13 -9
right_child=-2 -3 3 -5 -6 6 -8 8 -10 -11 -12 -13 -14 -15
leaf_value=-0.00023560324020681077 4.254959486066824e-05 0.00026993050359781448 -0.0016007180357840945 5.1142529451443048e-05 -0.0057956036944281537 -0.0020059309054409995 -7.1868505893564425e-06 0.010034740309823639 0.0024636203105017399 0.020407103889045264 -0.0070520082488656046 0.019663801445410804 0.017112073708664289 -0.010920527069406077
leaf_weight=4013 12726 2237 229 1795 151 42 928 11.000000000000002 101 21 9.9999999999999982 12.999999999999998 10.999999999999998 10.999999999999998
leaf_count=4013 12726 2237 229 1795 151 42 928 11 101 21 10 13 11 11
internal_value=0 -5.65639e-05 -0.000156123 -0.00052869 -0.00326763 8.87236e-07 0.000827574 0.00434875 0.00584816 0.0102876 0.00649283 0.00943736 0.00540876 -0.000442893
internal_weight=0 9573 7336 2175 380 5161 1148 220 178 77 56 46 33 22
internal_count=22299 9573 7336 2175 380 5161 1148 220 178 77 56 46 33 22
shrinkage=0.1


Tree=471
num_leaves=15
num_cat=0
split_feature=28 10 3 1 21 8 5 1 14 14 19 26 14 1
split_gain=0.00546473 0.0288138 0.0521584 0.0224895 0.0322859 0.0264379 0.0468701 0.0136448 0.0129774 0.0249635 0.0207061 0.01197 0.0137596 0.0118062
threshold=-0.47810599999999998 2.0888100000000004e-05 -16.595249999999997 -10.174899999999999 -9.5771849999999983 1.5571400000000005e-05 3.1622900000000005e-05 4.1398150000000014 0.0017815250000000002 0.0012139400000000002 0.00020352900000000001 -0.011120499999999998 0.0076471900000000008 0.68426300000000018
decision_type=2 2 2 2 2 2 2 2 2 2 2 2 2 2
left_child=1 2 -1 -3 -5 8 -7 -4 9 -6 -10 13 -13 -12
right_child=-2 3 7 4 5 6 -8 -9 10 -11 11 12 -14 -15
leaf_value=0.0084783519406548945 -5.9543116981280288e-06 -0.0035225780668649044 -0.00048488039925183746 0.0049881387931796223 -0.00043013537467983127 0.0059198605336455842 -0.0014019973163479282 0.0024159394443867156 -0.0051168433324034722 0.0048307516332715753 -0.0050187572858042331 0.0034129528503399342 -0.00090836123423027211 -0.00038564043034884063
leaf_weight=10.999999999999998 21981 18 31 12.999999999999998 92 18 17 34 13.999999999999998 9.9999999999999982 11.000000000000002 9.9999999999999982 28 10.999999999999998
leaf_count=11 21981 18 31 13 92 18 17 34 14 10 11 10 28 11
internal_value=0 0.000411578 0.00211016 -0.000121863 0.000151409 -0.000146588 0.00236353 0.00103247 -0.00064576 8.56379e-05 -0.0016539 -0.000845883 0.000228827 -0.0027022
internal_weight=0 318 76 242 224 211 35 65 176 102 74 60 38 22
internal_count=22299 318 76 242 224 211 35 65 176 102 74 60 38 22
shrinkage=0.1


Tree=472
num_leaves=15
num_cat=0
split_feature=4 30 32 13 33 8 24 20 5 15 20 5 0 36
split_gain=0.00519296 0.00989277 0.0155558 0.00997621 0.017951 0.00934505 0.0110536 0.00826713 0.0284839 0.0735813 0.037747 0.0232382 0.0175566 0.0527604
threshold=-2.4210399999999992 0.13004500000000005 -8.0677299999999992 -2.2178399999999994e-05 -4.4135199999999997e-07 6.9398900000000006e-07 -1.6604849999999998 -10.491749999999998 8.6974300000000012e-06 7.4887700000000012e-08 -11.601349999999998 9.1310350000000019e-06 -8.8210049999999978 9.6111800000000017e-05
decision_type=2 2 2 2 2 2 2 2 2 2 2 2 2 2
left_child=1 2 -1 4 -4 6 -3 8 9 10 -2 -10 13 -13
right_child=7 5 3 -5 -6 -7 -8 -9 11 -11 -12 12 -14 -15
leaf_value=0.0037404346066371853 0.0025434279473431944 -0.0050779155141208307 0.0012746901530175448 6.2561968342032549e-05 -0.0001425251026397966 0.00047504555826124393 -0.0010384587503808906 -3.3640184310022895e-05 -0.003653237123944564 0.0079459383015466085 -0.0033261206363224324 -0.0002053976699244231 5.199135038203925e-06 0.0040780204962092368
leaf_weight=11.999999999999998 28 10.000000000000002 195 2534 165 19 21 18403 15.999999999999998 17 18 83 734 44
leaf_count=12 28 10 195 2534 165 19 21 18403 16 17 18 83 734 44
internal_value=0 0.000123445 0.000147442 0.000132543 0.000625133 -0.00127122 -0.00234151 -1.88649e-05 0.0002704 0.00232423 0.000246648 0.000122861 0.000193033 0.00127862
internal_weight=0 2956 2906 2894 360 50 31 19343 940 63 46 877 861 127
internal_count=22299 2956 2906 2894 360 50 31 19343 940 63 46 877 861 127
shrinkage=0.1


Tree=473
num_leaves=15
num_cat=0
split_feature=4 31 0 0 2 38 15 3 38 20 32 4 4 11
split_gain=0.00536487 0.0111335 0.0378939 0.0252149 0.0204319 0.0391492 0.0703657 0.0403053 0.026757 0.0201142 0.0196766 0.0239218 0.0186163 0.0452372
threshold=0.93067350000000004 0.025111600000000005 -4.4451199999999993 -1.3539349999999997 1.8149350000000004 -0.034001399999999994 1.006097e-05 -13.194549999999998 -0.0060547399999999994 -2.8021899999999995 0.89504100000000009 1.1082250000000002 3.0155750000000006 -0.00010084049999999998
decision_type=2 2 2 2 2 2 2 2 2 2 2 2 2 2
left_child=-1 3 -3 9 5 6 -5 -8 -7 -2 12 -12 13 -4
right_child=1 2 10 4 -6 8 7 -9 -10 -11 11 -13 -14 -15
leaf_value=-2.3040817718799668e-05 -0.0009340637459271504 -0.00051941221985159084 0.0036857775222884043 0.0087778651692832898 -0.0045875652142885054 -0.0021412066775701533 0.0059435899369418626 -0.0013034111604528417 -0.00025744297915013053 0.00049409078143121008 -0.0048692455631680794 -0.00013627632633307662 0.00041660264215150132 0.00081040250266681832
leaf_weight=18268 110 397 66 12.999999999999998 10.999999999999998 80 9.9999999999999982 33 1312 953 11.999999999999998 97 617 320
leaf_count=18268 110 397 66 13 11 80 10 33 1312 953 12 97 617 320
internal_value=0 0.000104418 0.000319269 -2.41348e-05 -0.00029403 -0.000261413 0.00233099 0.000381938 -0.000365705 0.000346304 0.000618691 -0.000657337 0.000757362 0.00130205
internal_weight=0 4031 1509 2522 1459 1448 56 43 1392 1063 1112 109 1003 386
internal_count=22299 4031 1509 2522 1459 1448 56 43 1392 1063 1112 109 1003 386
shrinkage=0.1


Tree=474
num_leaves=15
num_cat=0
split_feature=37 3 14 21 21 7 3 23 35 5 18 24 3 17
split_gain=0.00502603 0.0463724 0.0326508 0.04298 0.041456 0.0301379 0.0467213 0.118552 0.139314 0.0401945 0.0659472 0.0904736 0.031167 0.0419656
threshold=-3.9559199999999996e-07 -17.279499999999995 0.012822650000000003 -4.6311699999999991 -5.5189749999999993 4.6956350000000007e-05 -16.135999999999999 -14.499449999999998 -0.0011341249999999999 8.3774500000000006e-06 5.8316350000000001e-06 0.30817700000000009 -14.883399999999998 0.00032263250000000006
decision_type=2 2 2 2 2 2 2 2 2 2 2 2 2 2
left_child=1 2 3 -1 -4 6 7 8 -3 10 -8 -12 13 -7
right_child=-2 5 4 -5 -6 12 9 -9 -10 -11 11 -13 -14 -15
leaf_value=0.0011607702455616422 -2.0758583986097354e-05 0.00068460984155535674 -0.0061726241931319243 -0.0052566257816534945 0.00085790459494231855 -0.0026562188972920099 -0.000392228826675087 -9.2305748899562811e-05 0.016992978734726254 0.00046757995031592304 -0.00016403163105926726 -0.013306416717823594 -4.9889667610108441e-05 0.0034306556026702031
leaf_weight=13.999999999999998 18720 10.000000000000002 9.9999999999999982 41 52 88 133 39 10.999999999999998 1832 11.000000000000002 9.9999999999999982 1315 12.999999999999998
leaf_count=14 18720 10 10 41 52 88 133 39 11 1832 11 10 1315 13
internal_value=0 0.000108578 -0.00184945 -0.00362311 -0.000276052 0.000174751 0.000420206 0.00316948 0.00922709 0.000337146 -0.00121451 -0.00642231 -0.000179911 -0.00187276
internal_weight=0 3579 117 55 62 3462 2046 60 21 1986 154 21 1416 101
internal_count=22299 3579 117 55 62 3462 2046 60 21 1986 154 21 1416 101
shrinkage=0.1


Tree=475
num_leaves=15
num_cat=0
split_feature=2 22 19 0 1 23 22 19 0 29 33 19 27 1
split_gain=0.00500847 0.25805 0.199662 0.215195 0.148365 0.127663 0.0990064 0.0643988 0.078284 0.0378211 0.033959 0.0299471 0.0218573 0.0261431
threshold=-2.7883099999999996 -2.7756699999999994 7.3004200000000008e-05 -8.6447399999999988 -1.4756699999999998 -8.1679949999999977 -2.3322399999999992 3.6465450000000008e-06 -11.792799999999998 0.0043060250000000007 -4.4135199999999997e-07 2.5573700000000003e-06 0.87808300000000006 -2.9345299999999996
decision_type=2 2 2 2 2 2 2 2 2 2 2 2 2 2
left_child=1 2 3 5 -5 -1 7 8 -3 10 11 12 13 -8
right_child=-2 6 -4 4 -6 -7 9 -9 -10 -11 -12 -13 -14 -15
leaf_value=-0.0029024049079453109 -1.094961466357579e-05 -0.00043223535176366572 -0.0015997361264588244 0.025243732780218117 0.0095187640500565378 0.0095428972231114614 0.00085350934474263344 -0.0011054540622226765 -0.010473168336532335 -0.0010135070256347466 0.0010989936941165994 0.00058797538290034351 0.00045663023215288727 -0.0027975342204477026
leaf_weight=15.999999999999998 21169 11.999999999999998 27 10.000000000000002 14.999999999999998 17 25 43 22 249 362 189 52 91
leaf_count=16 21169 12 27 10 15 17 25 43 22 249 362 189 52 91
internal_value=0 0.000205126 0.00550373 0.00881051 0.0158088 0.00350881 -0.000225861 -0.00367703 -0.00692931 4.8664e-05 0.000416509 -0.000275534 -0.00124698 -0.00201067
internal_weight=0 1130 85 58 25 33 1045 77 34 968 719 357 168 116
internal_count=22299 1130 85 58 25 33 1045 77 34 968 719 357 168 116
shrinkage=0.1


Tree=476
num_leaves=15
num_cat=0
split_feature=7 27 24 14 39 38 30 39 33 4 38 36 16 7
split_gain=0.00478842 0.0242956 0.0524551 0.0377876 0.0377506 0.168151 0.0764546 0.074795 0.0769306 0.0977559 0.112602 0.0664163 0.0977291 0.0477204
threshold=2.3357900000000006e-05 0.15408750000000002 -0.081120499999999984 0.0012512500000000002 4.2131800000000009e-06 0.00015228100000000001 0.00031191950000000003 2.2309300000000003e-05 -6.9049749999999999e-06 -0.098685899999999979 0.00074033250000000007 0.00052102350000000008 -2.1438899999999996e-08 2.2625000000000004e-05
decision_type=2 2 2 2 2 2 2 2 2 2 2 2 2 2
left_child=1 2 3 -1 5 11 13 8 -8 10 -10 -3 -13 -6
right_child=-2 4 -4 -5 6 -7 7 -9 9 -11 -12 12 -14 -15
leaf_value=-0.009368243324570355 -9.1228240098211395e-06 -8.3588239578332054e-05 0.00020792212022502943 -0.0010449519762187266 -0.0030894155988789862 0.011138707629459746 -0.0023578018580070314 6.432372981285792e-05 0.0027167764661664307 0.001775354915386715 0.016463872682876312 -0.00091610651114024198 0.013064529793336988 0.0014979367449494273
leaf_weight=12.000000000000002 21467 141 54 9.9999999999999982 104 17 17 371 11.000000000000002 33 12.999999999999998 10.000000000000002 9.9999999999999982 29
leaf_count=12 21467 141 54 10 104 17 17 371 11 33 13 10 10 29
internal_value=0 0.000235384 -0.00146896 -0.00558493 0.00040672 0.00168009 1.45744e-05 0.000643333 0.0035462 0.00530705 0.0101631 0.000681356 0.00607421 -0.00208917
internal_weight=0 832 76 22 756 178 578 445 74 57 24 161 20 133
internal_count=22299 832 76 22 756 178 578 445 74 57 24 161 20 133
shrinkage=0.1


Tree=477
num_leaves=15
num_cat=0
split_feature=18 32 19 1 1 7 21 0 4 28 26 18 37 7
split_gain=0.00475059 0.0180342 0.0480139 0.0429164 0.0869142 0.053546 0.0402065 0.0210372 0.0413255 0.0181363 0.0192811 0.0447254 0.0700273 0.023239
threshold=-5.7365999999999993e-05 2.7946350000000004 0.0015695500000000001 -5.7527549999999996 -9.4281049999999968 3.995050000000001e-05 -4.4411349999999983 3.3844200000000004 -2.4210399999999992 -0.28182749999999995 5.7378300000000006e-05 -6.8116549999999981e-05 4.9602750000000011e-08 2.9031850000000002e-05
decision_type=2 2 2 2 2 2 2 2 2 2 2 2 2 2
left_child=1 9 3 4 -3 6 -5 -4 -9 -1 -11 13 -13 -12
right_child=-2 2 7 5 -6 -7 -8 8 -10 10 11 12 -14 -15
leaf_value=0.0043776780460029847 -2.4990376332358793e-05 -0.006256396018434314 -0.00025438345444854353 -0.010766882673293971 0.0057792570441961288 -0.0014910183264873922 -0.0030009468823360905 -0.00015989844276405429 0.0077063440472226255 0.00027607400137058595 0.0011143175464230664 0.00058124405751004812 0.010482668909244239 -0.00029158228515412772
leaf_weight=9.9999999999999982 17244 10.000000000000002 80 15.000000000000002 14.999999999999998 38 11.999999999999998 17.000000000000004 10.999999999999998 2928 126 25 9.9999999999999982 1758
leaf_count=10 17244 10 80 15 15 38 12 17 11 2928 126 25 10 1758
internal_value=0 8.52491e-05 -0.00085024 -0.00255609 0.000964996 -0.00391036 -0.00731536 0.000571304 0.00293041 0.000123385 0.000114608 -0.000131756 0.00341022 -0.000197557
internal_weight=0 5055 198 90 25 65 27 108 28 4857 4847 1919 35 1884
internal_count=22299 5055 198 90 25 65 27 108 28 4857 4847 1919 35 1884
shrinkage=0.1


Tree=478
num_leaves=15
num_cat=0
split_feature=14 23 7 23 0 37 23 23 19 15 20 13 6 6
split_gain=0.00482404 0.0141211 0.0513522 0.0845019 0.0901078 0.110055 0.150176 0.19442 0.0790786 0.0784976 0.0752001 0.119409 0.0732625 0.111176
threshold=0.00017223500000000005 -9.0820099999999986 2.9745500000000005e-05 -11.391099999999998 1.1203950000000003 4.6225400000000007e-08 -10.776849999999998 -9.4853949999999987 3.2350800000000005e-08 4.8767450000000015e-07 6.0768600000000008 -1.5810349999999997e-05 2.0348850000000004e-06 1.5846850000000003e-06
decision_type=2 2 2 2 2 2 2 2 2 2 2 2 2 2
left_child=-1 2 3 10 12 8 -7 9 -6 -8 -2 -12 13 -5
right_child=1 -3 -4 4 5 6 7 -9 -10 -11 11 -13 -14 -15
leaf_value=7.5803818386471186e-05 0.0001219749245896858 7.3591353667607265e-05 -6.1779472937026859e-06 -0.00058023068290674509 0.0060158943893232697 -0.018175499852441136 -0.0046351559058001096 -0.014024961237737443 -0.0026377218569037229 0.0047463420514638234 -0.013287116695428267 -0.0016154849774568606 0.00726441652937369 -0.0091533722123131166
leaf_weight=6099 919 7375 7358 277 11.999999999999998 9.9999999999999982 22 15.999999999999998 88 14.999999999999998 9.9999999999999982 71 10.999999999999998 15.999999999999998
leaf_count=6099 919 7375 7358 277 12 10 22 16 88 15 10 71 11 16
internal_value=0 -2.85387e-05 -0.000113888 -0.000654128 -0.00176473 -0.00366173 -0.00693544 -0.00481467 -0.00159929 -0.000831846 -0.000135476 -0.00305643 -0.000747596 -0.00104839
internal_weight=0 16200 8825 1467 467 163 63 53 100 37 1000 81 304 293
internal_count=22299 16200 8825 1467 467 163 63 53 100 37 1000 81 304 293
shrinkage=0.1


Tree=479
num_leaves=15
num_cat=0
split_feature=29 9 11 14 19 34 4 4 5 24 17 14 20 3
split_gain=0.00485703 0.0269774 0.0305604 0.0716616 0.110238 0.175595 0.150347 0.208843 0.139008 0.240562 0.29326 0.136704 0.0900589 0.0750861
threshold=-0.025585199999999995 8.0290650000000024e-05 2.5330200000000004e-05 0.0019981900000000004 1.4184450000000002e-07 0.43092550000000007 -0.52630149999999987 -0.25668149999999995 1.2818950000000002e-05 0.35941150000000005 2.0730950000000006e-06 0.00045896000000000006 5.2773900000000014 -11.203999999999999
decision_type=2 2 2 2 2 2 2 2 2 2 2 2 2 2
left_child=1 2 -1 4 12 6 -6 -8 -9 11 -11 -10 -4 -7
right_child=-2 -3 3 -5 5 13 7 8 9 10 -12 -13 -14 -15
leaf_value=-2.5368651159701475e-05 -1.7223692086261379e-05 -0.0012299659922417494 0.0033000963652739302 -2.2571733814116467e-05 -0.0011791279579958193 0.0053824261492118244 0.01783439539893366 -0.0030580866957704228 0.010896536288782951 0.026245599488417301 0.0030584554094821217 -0.0038383989211391006 -0.0055928205740788297 -0.00071002958300699179
leaf_weight=1779 19626 139 18 471 23 25 17 14.999999999999998 10.000000000000002 12.000000000000002 9.9999999999999982 17 31 106
leaf_count=1779 19626 139 18 471 23 25 17 15 10 12 10 17 31 106
internal_value=0 0.000126462 0.000200867 0.000733945 0.00198859 0.00288824 0.00595613 0.00798219 0.0053652 0.00794376 0.015706 0.00161898 -0.00232603 0.000452653
internal_weight=0 2673 2534 755 284 235 104 81 64 49 22 27 49 131
internal_count=22299 2673 2534 755 284 235 104 81 64 49 22 27 49 131
shrinkage=0.1


Tree=480
num_leaves=15
num_cat=0
split_feature=4 37 16 16 20 3 3 16 19 15 4 4 15 22
split_gain=0.00472037 0.00948392 0.0435691 0.0754301 0.0316956 0.0418948 0.0475115 0.0396649 0.0551603 0.0306685 0.106377 0.0320855 0.0246185 0.0227604
threshold=0.93067350000000004 1.9041600000000001e-05 1.5829450000000001e-06 8.6672800000000014e-07 -6.6325599999999989 -8.0062849999999983 -7.4146649999999985 1.0270700000000001e-05 0.00010109400000000002 4.8704800000000014e-06 -2.5874299999999995 -0.25668149999999995 -2.5707899999999997e-06 -1.5341449999999999
decision_type=2 2 2 2 2 2 2 2 2 2 2 2 2 2
left_child=1 -1 3 9 7 12 -7 13 -9 11 -11 -3 -6 -4
right_child=-2 2 4 -5 5 6 -8 8 -10 10 -12 -13 -14 -15
leaf_value=-3.5660659514007351e-05 9.7945494123600379e-05 -0.0015477582841014414 -0.00020386881951708343 0.0093895567278377712 0.0034028385099108245 -0.011169135291129346 -0.0026534103494333596 0.0085614410880953083 0.00029744120575265869 -0.00032746010071908434 0.0099864534164468451 0.00073792607335604495 -0.002059812374257793 -0.0058370929318838395
leaf_weight=17599 4031 73 16.000000000000004 9.9999999999999982 10.999999999999998 10.000000000000002 19 9.9999999999999982 42 30 14.999999999999998 387 33 12.999999999999998
leaf_count=17599 4031 73 16 10 11 10 19 10 42 30 15 387 33 13
internal_value=0 -2.16126e-05 0.000347943 0.000789242 -0.00112783 -0.00263902 -0.00558987 0.000234109 0.00188667 0.000618939 0.00311051 0.000375198 -0.00069415 -0.00272911
internal_weight=0 18268 669 515 154 73 29 81 52 505 45 460 44 29
internal_count=22299 18268 669 515 154 73 29 81 52 505 45 460 44 29
shrinkage=0.1


Tree=481
num_leaves=15
num_cat=0
split_feature=10 22 19 22 12 20 6 20 20 0 9 2 26 16
split_gain=0.00475271 0.0242262 0.109515 0.121687 0.578576 0.394965 0.268293 1.18815 0.37277 1.22541 0.45213 0.23297 0.217448 0.490454
threshold=2.4033300000000002e-05 0.80555650000000012 2.1170350000000003e-05 1.7472750000000004 4.7254350000000009e-05 4.600575000000001 -1.9078049999999997e-06 2.7581050000000005 0.31681300000000007 0.71571850000000004 3.0443100000000001e-06 1.6165750000000003 -5.1743499999999997e-05 3.0262300000000002e-07
decision_type=2 2 2 2 2 2 2 2 2 2 2 2 2 2
left_child=1 -1 3 4 -3 6 7 -6 9 11 -10 -8 13 -12
right_child=-2 2 -4 -5 5 -7 8 -9 10 -11 12 -13 -14 -15
leaf_value=-7.5385395774005512e-05 -3.2490045079611731e-05 -0.00065406686950779771 -0.0002492406990644389 7.2908233571280007e-05 -0.0013931372108345382 -0.0017010794529967285 0.017943620366545818 0.039307634417827315 -0.0062714515667822634 -0.0015874511088597876 0.0050176213184992477 0.036233549006283283 0.0012085401214010614 0.030517082246528434
leaf_weight=4599 14913 326 1581 641 16.000000000000004 54 13.000000000000002 12.999999999999998 36 29 24 14.999999999999998 28 10.999999999999998
leaf_count=4599 14913 326 1581 641 16 54 13 13 36 29 24 15 28 11
internal_value=0 6.56003e-05 0.00029825 0.00101598 0.00208591 0.00582327 0.00801957 0.016852 0.00637764 0.0128199 0.00266846 0.0277418 0.00777698 0.0130317
internal_weight=0 7386 2787 1206 565 239 185 29 156 57 99 28 63 35
internal_count=22299 7386 2787 1206 565 239 185 29 156 57 99 28 63 35
shrinkage=0.1


Tree=482
num_leaves=15
num_cat=0
split_feature=2 33 15 15 33 3 29 36 3 14 21 25 24 26
split_gain=0.00537477 0.03944 0.049906 0.0650288 0.136494 0.088241 0.107794 0.0634057 0.0851915 0.19233 0.37157 0.193209 0.130005 0.144255
threshold=-1.5001649999999997 -3.7460849999999998e-06 2.0696850000000002e-08 3.4847250000000008e-08 -7.9437099999999989e-06 -7.4784399999999991 -0.0018940299999999999 0.00023824050000000003 -8.4709699999999994 0.0010830450000000001 -3.7835499999999995 0.54665200000000014 0.34526250000000008 -0.00028324799999999994
decision_type=2 2 2 2 2 2 2 2 2 2 2 2 2 2
left_child=1 2 7 4 -4 6 -6 8 9 10 11 -1 -11 -14
right_child=-2 -3 3 -5 5 -7 -8 -9 -10 12 -12 -13 13 -15
leaf_value=0.027592105045914639 -3.0218956254168742e-05 0.00027665577530841952 -0.00076523431541014977 -0.00041912734994650346 -0.0044631428706149254 -0.00086548520678964762 -0.017606469988822936 -0.00052565538756103067 -0.00044515709426945125 -0.00063235033132450402 0.0017347389770367623 0.0091034210390017311 0.0010318457089049523 0.011734917854773812
leaf_weight=10.000000000000002 16172 3824 96 1156 12 11.999999999999998 13 499 218 171 49 12.999999999999998 34 20
leaf_count=10 16172 3824 96 1156 12 12 13 499 218 171 49 13 34 20
internal_value=0 7.97619e-05 -0.000247169 -0.000660048 -0.00275406 -0.00791426 -0.0112977 0.000277683 0.00105606 0.00215797 0.0066565 0.017142 0.000718441 0.00499595
internal_weight=0 6127 2303 1289 133 37 25 1014 515 297 72 23 225 54
internal_count=22299 6127 2303 1289 133 37 25 1014 515 297 72 23 225 54
shrinkage=0.1


Tree=483
num_leaves=15
num_cat=0
split_feature=18 19 38 33 35 38 18 4 20 18 0 22 9 14
split_gain=0.0054106 0.0297182 0.223954 0.0235975 0.0150373 0.0147141 0.0530414 0.0295939 0.0125279 0.0819131 0.0167426 0.0114791 0.0170081 0.0131884
threshold=-0.00019607549999999996 2.1170350000000003e-05 0.0074256350000000007 -5.2296799999999995e-06 -0.00024995149999999995 5.6022800000000013 -0.0037265499999999995 -2.1235899999999996 18.386200000000002 -2.8202949999999996e-06 4.1933950000000015 -2.5400249999999995 -3.1144849999999997e-05 0.0046168100000000016
decision_type=2 2 2 2 2 2 2 2 2 2 2 2 2 2
left_child=1 2 3 4 -1 11 -7 -8 -2 -10 -11 12 -3 -14
right_child=8 5 -4 -5 -6 6 7 -9 9 10 -12 -13 13 -15
leaf_value=-0.0047620604346905425 -2.994038809023591e-05 -0.00057435079643061943 0.014042989465479667 0.0011442399048905399 -0.00012721415675644363 0.0027873008911098755 -0.0015797734376974404 -0.0090962507948279345 0.0084932733918181985 0.00093741188111194716 -0.0022863991083189226 2.5569702352670169e-05 0.002321949849860614 0.00063889224251921658
leaf_weight=14.000000000000002 17891 94 12.999999999999998 53 13.999999999999998 13.999999999999998 10.999999999999998 10.000000000000002 12.999999999999998 49 24 3805 58 236
leaf_count=14 17891 94 13 53 14 14 11 10 13 49 24 3805 58 236
internal_value=0 0.000100461 0.00185908 -9.63596e-05 -0.00244464 6.13618e-05 -0.00198051 -0.00515905 -2.41526e-05 0.00117991 -0.000122471 7.84058e-05 0.000596553 0.000970924
internal_weight=0 4322 94 81 28 4228 35 21 17977 86 73 4193 388 294
internal_count=22299 4322 94 81 28 4228 35 21 17977 86 73 4193 388 294
shrinkage=0.1


Tree=484
num_leaves=15
num_cat=0
split_feature=3 23 23 3 14 23 25 3 3 23 14 12 22 29
split_gain=0.00553347 0.0272345 0.0443487 0.148998 0.187047 0.210717 0.138444 0.315998 0.082843 0.187091 0.204825 0.431921 0.692646 0.211829
threshold=-9.049294999999999 -13.311149999999998 -9.1363349999999972 -7.3418849999999987 0.0007529835000000001 -10.609499999999999 1.2179900000000001 -8.8050549999999976 -7.7346249999999985 -7.8285449999999992 0.00036072200000000006 6.1469000000000017e-05 0.91656450000000012 0.00061783600000000008
decision_type=2 2 2 2 2 2 2 2 2 2 2 2 2 2
left_child=-1 -2 3 4 5 -3 -7 -8 9 10 11 13 -13 -4
right_child=1 2 8 -5 -6 6 7 -9 -10 -11 -12 12 -14 -15
leaf_value=-5.6504007667920138e-05 0.00031779193127483361 -0.0008039115093057402 0.0058830978923962796 0.00016367443985393739 0.00017767315931483855 -0.0056029858560712595 0.013505479156111295 -0.0034167819206717695 -9.6665547113637418e-05 -0.00014119454469127904 0.00055378702452632989 -0.0036759349094195788 0.02852837013847688 4.9400321449524261e-05
leaf_weight=9752 2816 429 117 2373 579 216 12.999999999999998 73 4385 991 394 11.000000000000002 17 133
leaf_count=9752 2816 429 117 2373 579 216 13 73 4385 991 394 11 17 133
internal_value=0 4.3917e-05 -3.53381e-05 -0.000308907 -0.00116496 -0.00222842 -0.00425198 -0.000858766 0.000131255 0.000732236 0.00202029 0.0040987 0.0158767 0.00277957
internal_weight=0 12547 9731 3683 1310 731 302 86 6048 1663 672 278 28 250
internal_count=22299 12547 9731 3683 1310 731 302 86 6048 1663 672 278 28 250
shrinkage=0.1


Tree=485
num_leaves=15
num_cat=0
split_feature=14 7 29 11 23 21 5 29 14 31 36 13 17 30
split_gain=0.00504896 0.0132288 0.0376971 0.0873106 0.302629 0.298316 0.129623 0.0757926 0.128351 0.0904458 0.078039 0.0725185 0.0569724 0.0521549
threshold=0.00017223500000000005 3.7938300000000009e-05 -0.0037220049999999996 1.3003100000000003e-05 -8.9145449999999986 4.9317450000000012 7.9071800000000014e-06 0.00029143100000000004 0.00011475850000000001 -0.021168399999999997 0.00014921300000000001 1.7398300000000002e-05 5.9558900000000005e-08 6.5524300000000012e-05
decision_type=2 2 2 2 2 2 2 2 2 2 2 2 2 2
left_child=1 2 3 11 -5 6 -6 8 -4 10 -10 -1 13 -11
right_child=-2 -3 7 4 5 -7 -8 -9 9 12 -12 -13 -14 -15
leaf_value=0.0002747318923967611 -2.9196465784903265e-05 -4.0590559825072851e-05 -7.4899975896193096e-05 -0.0010901802835245756 0.0089508868094223225 -0.0024838918448949702 0.023114460560360126 0.00040112490803531587 0.0024243818145365486 -0.0038160857936600208 -0.0054708894386532765 0.0065381929737907884 -0.0038402318104635924 -0.0127382415984022
leaf_weight=682 16200 3711 311 54 12.000000000000002 11.999999999999998 13.999999999999998 1163 31 10.000000000000002 21 19 40 19
leaf_count=682 16200 3711 311 54 12 12 14 1163 31 10 21 19 40 19
internal_value=0 7.75509e-05 0.000261145 0.000824627 0.00372105 0.0105581 0.0165774 -1.90064e-05 -0.00115005 -0.00391347 -0.000764093 0.000444498 -0.00628691 -0.00966164
internal_weight=0 6099 2388 793 92 38 26 1595 432 121 52 701 69 29
internal_count=22299 6099 2388 793 92 38 26 1595 432 121 52 701 69 29
shrinkage=0.1


Tree=486
num_leaves=15
num_cat=0
split_feature=9 20 7 36 37 14 23 3 14 16 21 14 26 10
split_gain=0.00528094 0.0231072 0.0530786 0.0308206 0.0360273 0.0380911 0.0319873 0.029461 0.0392272 0.019426 0.0574239 0.0184939 0.036732 0.164416
threshold=-5.3827499999999992e-05 -3.5336099999999995 5.6616600000000009e-05 -0.0041198099999999989 2.7198850000000005e-07 0.00039557700000000009 -9.8381649999999983 -6.2342049999999993 0.0010420150000000001 -1.2110649999999997e-05 4.9983850000000007 0.00039557700000000009 -9.5432099999999997e-05 7.0402300000000015e-05
decision_type=2 2 2 2 2 2 2 2 2 2 2 2 2 2
left_child=1 2 -1 6 11 -6 9 8 -8 10 -4 12 13 -5
right_child=-2 -3 3 4 5 -7 7 -9 -10 -11 -12 -13 -14 -15
leaf_value=0.0068976228148676464 -1.5434224493209431e-05 0.00038673576862740091 0.0055275068348661673 0.013512100685726515 -0.00059994557329143077 0.007077974919229746 -0.010806930166753853 -0.0010919702795541121 -0.0025394961279137838 -0.0016456135884629264 -0.0042554671550169591 -0.00095272412203808532 -0.00033465725326652725 -9.7136090777854892e-05
leaf_weight=9.9999999999999982 20261 1377 15.000000000000002 10.999999999999998 12.000000000000002 13.999999999999998 11.000000000000002 18 11.999999999999998 68 9.9999999999999982 225 209 46
leaf_count=10 20261 1377 15 11 12 14 11 18 12 68 10 225 209 46
internal_value=0 0.000153441 -0.00033256 -0.000443623 -9.33252e-05 0.00353432 -0.00179515 -0.00412209 -0.00649349 -0.000769288 0.00161432 -0.00028542 0.000279028 0.00252921
internal_weight=0 2038 661 651 517 26 134 41 23 93 25 491 266 57
internal_count=22299 2038 661 651 517 26 134 41 23 93 25 491 266 57
shrinkage=0.1


Tree=487
num_leaves=15
num_cat=0
split_feature=4 13 34 24 3 3 24 24 25 23 6 25 33 13
split_gain=0.00514698 0.00989874 0.0257439 0.0463375 0.0764498 0.0362596 0.0214473 0.0129246 0.0160008 0.0134539 0.0359115 0.0112074 0.00973181 0.0149664
threshold=0.93067350000000004 7.1787900000000018e-05 2.6566550000000002 0.63004300000000013 -9.7904999999999998 -15.456499999999998 0.41062350000000009 -0.10280249999999998 42.475300000000004 -18.853249999999996 1.7574450000000003e-06 2.8968600000000007 2.2102800000000005e-06 3.2114050000000008e-05
decision_type=2 2 2 2 2 2 2 2 2 2 2 2 2 2
left_child=-1 2 3 6 -5 -4 12 -3 9 10 -9 -8 -2 -14
right_child=1 7 5 4 -6 -7 11 8 -10 -11 -12 -13 13 -15
leaf_value=-2.2568080298539595e-05 0.00064886343181013676 0.00023608566819915096 -0.0067519367841834379 0.0094143101852387206 -2.9811834101565181e-05 -0.00056983974310518854 -0.00052863477913272236 -0.00051985630644080434 0.0032855380254869278 -0.00028502529686732749 0.0064271229530938655 -0.0036130983253793887 -0.00027834640364599598 0.00094452948996539437
leaf_weight=18268 713 1184 10.999999999999998 14.999999999999998 20 69 31 23 12.999999999999998 1431 10.999999999999998 19 351 140
leaf_count=18268 713 1184 11 15 20 69 31 23 13 1431 11 19 351 140
internal_value=0 0.000102276 0.000320793 0.000428825 0.00401767 -0.00141988 0.000328658 -1.01022e-05 -0.000207319 -0.000238314 0.0017277 -0.00170073 0.000412935 7.03351e-05
internal_weight=0 4031 1369 1289 35 80 1254 2662 1478 1465 34 50 1204 491
internal_count=22299 4031 1369 1289 35 80 1254 2662 1478 1465 34 50 1204 491
shrinkage=0.1


Tree=488
num_leaves=15
num_cat=0
split_feature=16 14 23 5 34 17 34 5 34 3 13 3 23 23
split_gain=0.00508101 0.0121928 0.0122318 0.0327749 0.011922 0.0186613 0.011271 0.00996877 0.00970697 0.0269888 0.0277032 0.0265941 0.0806308 0.153255
threshold=6.6670550000000008e-05 0.0043134550000000016 -16.491149999999998 2.1798200000000004e-05 0.03814420000000001 0.00018651700000000003 0.0076542700000000003 1.5976850000000006e-05 0.008378685000000002 -9.8875549999999972 0.00010147550000000001 -8.6023199999999989 -7.6724749999999995 -8.6729999999999983
decision_type=2 2 2 2 2 2 2 2 2 2 2 2 2 2
left_child=8 2 3 -2 7 -6 -3 -4 9 10 -1 12 13 -11
right_child=1 6 4 -5 5 -7 -8 -9 -10 11 -12 -13 -14 -15
leaf_value=0.00078515423656178225 0.0063776808361021373 -0.0004927911013788617 0.0029303594791351565 0.00047419232501210096 0.00014037043094725871 -0.0034055605472531171 0.00012636041093575106 0.00069685557679528983 -5.1305261395035721e-05 0.0056062582523736639 -0.00035786992260567049 9.1440695146911027e-05 -4.0740189734918463e-05 -0.005114824269330711
leaf_weight=915 12.999999999999998 351 22 34 205 15.999999999999998 1811 218 15963 15.999999999999998 276 2044 335 80
leaf_count=915 13 351 22 34 205 16 1811 218 15963 16 276 2044 335 80
internal_value=0 0.000129427 0.000570279 0.00210707 0.0004136 -0.000116349 2.58414e-05 0.000901593 -1.76051e-05 0.000129137 0.000520272 -5.90824e-05 -0.000772932 -0.00332798
internal_weight=0 2670 508 47 461 221 2162 240 19629 3666 1191 2475 431 96
internal_count=22299 2670 508 47 461 221 2162 240 19629 3666 1191 2475 431 96
shrinkage=0.1


Tree=489
num_leaves=15
num_cat=0
split_feature=37 3 13 5 22 0 35 33 25 18 22 17 4 5
split_gain=0.00498146 0.0379339 0.0393353 0.0666075 0.122168 0.251831 0.0950144 0.219658 0.267798 0.0846479 0.0362079 0.0284151 0.062321 0.0682994
threshold=-3.9559199999999996e-07 -17.279499999999995 -2.4393049999999995e-05 1.5732750000000003e-05 2.3532100000000002 -4.2055399999999992 -0.0042812449999999986 1.6902450000000003e-05 3.1555500000000003 1.7287450000000003e-06 2.3063800000000003 1.5373600000000002e-07 -0.25668149999999995 1.2932750000000001e-05
decision_type=2 2 2 2 2 2 2 2 2 2 2 2 2 2
left_child=1 -1 3 4 6 -6 9 -8 -9 -3 -5 -4 13 -13
right_child=-2 2 11 10 5 -7 7 8 -10 -11 -12 12 -14 -15
leaf_value=-0.0016628422279360616 -2.0666338429538213e-05 0.00018810162728186697 0.00031924100732315326 0.00059835077686743311 0.017250693440437313 -0.0032363335299305618 0.00042438361104106228 0.019044400006532666 -0.0018163742311298849 -0.010164871608669107 -0.0023436532472408786 -0.0063719357336487845 -0.000121705019147032 -0.00074483877520463676
leaf_weight=117 18720 28 1575 286 15.000000000000002 9.9999999999999982 79 16.000000000000004 9.9999999999999982 10.999999999999998 49 34 1290 59
leaf_count=117 18720 28 1575 286 15 10 79 16 10 11 49 34 1290 59
internal_value=0 0.000108096 0.000167945 0.000984549 0.0026031 0.00905588 0.00148282 0.00304831 0.011021 -0.00273197 0.000168028 2.88079e-05 -0.000301946 -0.00280206
internal_weight=0 3579 3462 504 169 25 144 105 26 39 335 2958 1383 93
internal_count=22299 3579 3462 504 169 25 144 105 26 39 335 2958 1383 93
shrinkage=0.1


Tree=490
num_leaves=15
num_cat=0
split_feature=2 22 2 17 4 0 26 33 0 32 5 5 25 7
split_gain=0.00487603 0.035894 0.185654 0.110987 0.0915695 0.131479 0.193551 0.268111 0.19476 0.169661 0.148471 0.165369 0.168819 0.128203
threshold=-1.5001649999999997 -2.3894049999999996 -2.3810049999999996 8.2810650000000014e-07 -1.0451899999999996 -9.7830299999999983 -0.0011541699999999997 -2.8321649999999994e-06 -7.730249999999999 0.031129 1.1323800000000002e-05 1.3536250000000003e-05 0.58296450000000011 5.774315000000001e-05
decision_type=2 2 2 2 2 2 2 2 2 2 2 2 2 2
left_child=1 2 3 4 -1 -6 -7 9 -9 -8 -11 -12 -13 -14
right_child=-2 -3 -4 -5 5 6 7 8 -10 10 11 12 13 -15
leaf_value=-0.0012864509221799381 -2.8782777244344918e-05 0.00017178122186578548 -0.0019165199086850345 -0.0019206106633020527 -0.00031810122846554108 -0.007997553524645892 0.017558654310072169 0.0046095307916402817 -0.010309678303698699 0.00015109579265117646 0.019304479572635432 -0.00066502471699526444 0.0052347633189388674 0.019320546773572766
leaf_weight=64 16172 5297 448 93 78 10.999999999999998 17 21 14.999999999999998 25 12.999999999999998 19 14.000000000000002 11.999999999999998
leaf_count=64 16172 5297 448 93 78 11 17 21 15 25 13 19 14 12
internal_value=0 7.59711e-05 -0.000535482 0.00108416 0.0020511 0.00300045 0.00476131 0.00579328 -0.00160681 0.00845731 0.00659317 0.00936993 0.00649995 0.0117359
internal_weight=0 6127 830 382 289 225 147 136 36 100 83 58 45 26
internal_count=22299 6127 830 382 289 225 147 136 36 100 83 58 45 26
shrinkage=0.1


Tree=491
num_leaves=15
num_cat=0
split_feature=20 11 0 3 11 22 2 34 32 2 1 19 33 3
split_gain=0.0052981 0.0249324 0.0254888 0.0608713 0.0986765 0.0850205 0.0823205 0.0903946 0.111571 0.429958 0.283968 0.125629 0.434603 0.185006
threshold=-5.4229999999999992 0.00011419900000000001 -5.482454999999999 -6.401514999999999 -9.1076949999999978e-05 -3.0024699999999993 -2.9820849999999997 0.13257400000000003 -0.047097449999999992 2.2748750000000002 4.8692650000000013 6.2242400000000009e-07 -2.7429199999999997e-06 -6.8616649999999995
decision_type=2 2 2 2 2 2 2 2 2 2 2 2 2 2
left_child=1 2 3 4 -1 -6 -7 8 9 -8 -11 12 13 -10
right_child=-2 -3 -4 -5 5 6 7 -9 11 10 -12 -13 -14 -15
leaf_value=-0.00062860407089829098 -2.6927455328727632e-05 0.00066065920069104599 -0.00014596139566114294 -0.00051292422090893481 -0.0036878429877106101 -0.0026438530793206558 -0.0056526791211217644 -0.00016240144153104982 0.013968144967517955 0.0039973557887909303 0.024635976304610573 0.00086191983404701629 -0.0008306780979954496 0.0017948235439903598
leaf_weight=280 17085 664 3238 485 28 36 14.999999999999998 113 47 12.000000000000002 14.999999999999998 198 66 17
leaf_count=280 17085 664 3238 485 28 36 15 113 47 12 15 198 66 17
internal_value=0 8.82347e-05 4.69843e-06 0.000376525 0.000898149 0.00167967 0.00196924 0.00231308 0.0030691 0.00792185 0.0154633 0.00244771 0.004863 0.0107346
internal_weight=0 5214 4550 1312 827 547 519 483 370 42 27 328 130 64
internal_count=22299 5214 4550 1312 827 547 519 483 370 42 27 328 130 64
shrinkage=0.1


Tree=492
num_leaves=15
num_cat=0
split_feature=16 16 36 17 17 14 33 33 21 22 12 33 22 10
split_gain=0.00542485 0.0206126 0.117152 0.103031 0.0972909 0.0840999 0.0835181 0.0817457 0.0727277 0.112724 0.106436 0.0853604 0.0692296 0.0811376
threshold=-1.889335e-06 -2.4835049999999993e-07 0.00014074900000000004 2.0730950000000006e-06 8.2810650000000014e-07 0.00020650150000000003 -2.6599849999999993e-06 -5.8536399999999991e-05 4.0469550000000014 2.3249300000000006 0.00016167850000000004 9.0050600000000018e-06 2.5736250000000003 3.0466750000000004e-05
decision_type=2 2 2 2 2 2 2 2 2 2 2 2 2 2
left_child=-1 2 3 -2 5 -4 7 -7 12 10 11 -10 -6 -14
right_child=1 -3 4 -5 8 6 -8 -9 9 -11 -12 -13 13 -15
leaf_value=8.3510041811130315e-05 0.00072683693275338518 1.6828286376204345e-05 -0.00033026974645277519 -0.0019489366356483296 5.581561810620998e-05 0.00053995995695004244 -0.0014000439515823014 -0.0049910041751799229 0.0011289824228671412 0.0099590061619357368 0.010325426987203007 -0.0083470243981785385 -0.010984858290220683 -0.0011009940123387976
leaf_weight=5767 1081 14137 295 166 223 32 291 162 70 17 10.999999999999998 10.999999999999998 12.999999999999998 23
leaf_count=5767 1081 14137 295 166 223 32 291 162 70 17 11 11 13 23
internal_value=0 -2.91315e-05 -0.000300419 0.000370639 -0.00102935 -0.00166167 -0.0024715 -0.00407868 0.000310911 0.00247793 0.00109556 -0.000157883 -0.000601078 -0.00467017
internal_weight=0 16532 2395 1247 1148 780 485 194 368 109 92 81 259 36
internal_count=22299 16532 2395 1247 1148 780 485 194 368 109 92 81 259 36
shrinkage=0.1


Tree=493
num_leaves=15
num_cat=0
split_feature=10 31 20 16 19 3 15 14 24 27 13 23 9 39
split_gain=0.00562969 0.0242048 0.0517018 0.10182 0.193274 0.063194 0.0719846 0.0948588 0.206114 0.088912 0.121271 0.0827825 0.0863533 0.0840304
threshold=2.4033300000000002e-05 -0.094540149999999989 -0.92275299999999982 -5.8300299999999994e-07 0.00022437500000000005 -7.585564999999999 9.6138300000000019e-07 0.0017105150000000003 0.26645500000000005 3.0126850000000007 5.9305750000000007e-05 -7.6950299999999991 5.704935000000001e-06 0.00068107450000000011
decision_type=2 2 2 2 2 2 2 2 2 2 2 2 2 2
left_child=1 2 3 4 -1 6 9 8 -8 10 11 12 -4 -14
right_child=-2 -3 5 -5 -6 -7 7 -9 -10 -11 -12 -13 13 -15
leaf_value=0.017725385594530962 -3.5360762070161031e-05 0.0001681097084344936 -0.0026389486966476145 -0.00034598908265592062 0.0020103681373358187 0.0006129323386749202 -0.00011174446786753831 -0.0001447129759466598 0.017471530074253679 7.9300461631687184e-05 0.00064881924930808093 0.00026476717649793791 -0.0073870504598655719 0.0019209534564817495
leaf_weight=9.9999999999999982 14913 5746 215 91 36 415 20.000000000000004 304 9.9999999999999982 269 115 62 82 10.999999999999998
leaf_count=10 14913 5746 215 91 36 415 20 304 10 269 115 62 82 11
internal_value=0 7.13966e-05 -0.000267453 0.00159228 0.00542668 -0.00043697 -0.000837438 0.000384694 0.00574935 -0.00137881 -0.00218753 -0.0030691 -0.0037402 -0.0062861
internal_weight=0 7386 1640 137 46 1503 1088 334 30 754 485 370 308 93
internal_count=22299 7386 1640 137 46 1503 1088 334 30 754 485 370 308 93
shrinkage=0.1


Tree=494
num_leaves=15
num_cat=0
split_feature=21 8 5 23 3 8 33 12 36 18 37 18 25 37
split_gain=0.00518818 0.087561 0.095685 0.0830104 0.320182 0.377779 0.539912 0.187474 0.396793 0.611499 0.277158 0.391969 0.255153 0.238108
threshold=4.2795900000000016 -1.0399949999999999e-05 1.9404950000000001e-05 -7.8285449999999992 -7.7975399999999988 -1.7582949999999997e-05 5.0276050000000003e-06 0.00017642100000000004 0.00065950650000000009 3.2744350000000007e-06 2.5059850000000005e-07 2.0667250000000005e-06 0.42159850000000004 1.1198050000000003e-08
decision_type=2 2 2 2 2 2 2 2 2 2 2 2 2 2
left_child=-1 2 3 4 5 6 -2 8 10 12 11 13 -10 -7
right_child=1 -3 -4 -5 -6 7 -8 -9 9 -11 -12 -13 -14 -15
leaf_value=3.1537950815431468e-05 0.027462030797372181 -0.00032046898323925344 -0.00024811795892439303 0.00013590975857280887 -0.0012134028434839792 0.0098360755714525325 -0.002535511795431376 0.00043288216590894359 -0.014574891875963659 0.017843520864456272 -0.00085512229436125351 -0.0033154424978420142 0.00071859345771372327 0.021628615098155064
leaf_weight=15621 15.000000000000002 4561 1007 496 217 67 9.9999999999999982 179 24 11.999999999999998 29 18 20 23
leaf_count=15621 15 4561 1007 496 217 67 10 179 24 12 29 18 20 23
internal_value=0 -7.37727e-05 0.000457725 0.00109807 0.00187532 0.00356362 0.015463 0.00276393 0.00492588 -0.00216613 0.00782481 0.0101555 -0.00762331 0.0128497
internal_weight=0 6678 2117 1110 614 397 25 372 193 56 137 108 44 90
internal_count=22299 6678 2117 1110 614 397 25 372 193 56 137 108 44 90
shrinkage=0.1


Tree=495
num_leaves=15
num_cat=0
split_feature=16 26 1 22 8 5 1 35 15 19 33 34 3 16
split_gain=0.00518147 0.020121 0.0280304 0.0319293 0.0515027 0.0213478 0.0194224 0.0167634 0.0804053 0.116155 0.301248 0.470913 0.221156 0.215916
threshold=4.5816150000000005e-06 -0.0021265849999999998 -10.174899999999999 0.36188950000000003 -1.3876299999999998e-05 1.4702600000000002e-05 -7.6665399999999986 0.0012092200000000002 1.6360850000000001e-07 1.1605450000000001e-06 -3.1858049999999996e-06 0.04522215000000001 -11.947549999999998 1.2023650000000002e-06
decision_type=2 2 2 2 2 2 2 2 2 2 2 2 2 2
left_child=7 2 -2 6 -5 -6 -4 -1 -9 10 11 -10 -13 -14
right_child=1 -3 3 4 5 -7 -8 8 9 -11 -12 12 13 -15
leaf_value=-8.4624356781712892e-05 -0.006159395012073219 0.00012656962361804497 0.0042961311322208288 -0.0092124400244210838 -0.0044941428777140876 0.00070887990321194679 -0.00016650257971906647 -0.0001415089437732205 0.02207933892204892 0.00034053921232284675 -0.00089205475142378309 0.013984277309565288 -0.00019213904885052727 0.012190929328447536
leaf_weight=12772 9.9999999999999982 4775 10.999999999999998 9.9999999999999982 11.999999999999998 23 86 3179 15.999999999999998 1166 122 18 82 17
leaf_count=12772 10 4775 11 10 12 23 86 3179 16 1166 122 18 82 17
internal_value=0 9.05144e-05 -0.00104214 -0.000681772 -0.00288333 -0.00107501 0.000339569 -2.56714e-05 0.000138013 0.000763346 0.00269665 0.00598855 0.0037881 0.00193425
internal_weight=0 4927 152 142 45 35 97 17372 4600 1421 255 133 117 99
internal_count=22299 4927 152 142 45 35 97 17372 4600 1421 255 133 117 99
shrinkage=0.1


Tree=496
num_leaves=15
num_cat=0
split_feature=14 37 37 39 18 21 14 20 5 20 11 0 37 19
split_gain=0.00574169 0.0181909 0.0313763 0.0303949 0.0624398 0.0192194 0.0347338 0.0187651 0.11222 0.0920694 0.0537193 0.116241 0.163289 0.199654
threshold=0.00012106850000000002 -1.0689549999999999e-07 -1.0494999999999998e-07 1.9298500000000003e-06 -6.1378149999999986e-07 10.337350000000002 9.0643750000000004e-05 9.7122600000000023 8.0712700000000014e-06 10.565400000000002 1.0458900000000001e-05 11.980000000000002 3.392235000000001e-08 0.00010639850000000001
decision_type=2 2 2 2 2 2 2 2 2 2 2 2 2 2
left_child=1 3 -3 4 -1 -5 -7 -4 9 -9 -10 12 13 -12
right_child=-2 2 7 5 -6 6 -8 8 10 -11 11 -13 -14 -15
leaf_value=0.0099205903708934791 -2.628306417610224e-05 -0.0041998218375940474 -9.540953768851934e-05 0.00036771868316893419 0.00093145905266283084 0.00042764232819899922 -0.0056591782439500103 0.014745600000023838 -0.00057960524441700223 0.0011758275656029583 0.0042701340836679763 -0.0015838099781831261 -0.001643838831740949 0.021893200427293778
leaf_weight=9.9999999999999982 17582 18 2863 1421 34 25 14.999999999999998 10.000000000000002 225 9.9999999999999982 18.000000000000004 40 18 9.9999999999999982
leaf_count=10 17582 18 2863 1421 34 25 15 10 225 10 18 40 18 10
internal_value=0 9.79667e-05 -3.64565e-05 0.000384855 0.00297444 0.000306866 -0.00185492 -1.29936e-05 0.000699867 0.00796071 0.000232932 0.00235875 0.00578707 0.0105641
internal_weight=0 4717 3212 1505 44 1461 40 3194 331 20 311 86 46 28
internal_count=22299 4717 3212 1505 44 1461 40 3194 331 20 311 86 46 28
shrinkage=0.1


Tree=497
num_leaves=15
num_cat=0
split_feature=16 20 37 11 0 4 7 36 17 38 21 16 25 3
split_gain=0.00529457 0.01863 0.0276002 0.0558037 0.0587028 0.0221262 0.021739 0.07459 0.113023 0.143298 0.158628 0.205737 0.108035 0.0438369
threshold=-1.7593899999999998e-06 -14.666949999999998 0.00015588300000000003 -0.00017453449999999999 5.0473950000000007 0.30610150000000008 3.4892550000000009e-05 -0.0089576949999999982 3.8899150000000009e-06 -0.012671449999999999 7.5504100000000012 -7.3593999999999994e-06 5.2550450000000009 -11.086249999999998
decision_type=2 2 2 2 2 2 2 2 2 2 2 2 2 2
left_child=1 5 6 -4 -5 -1 7 8 9 -3 11 12 -11 -12
right_child=-2 2 3 4 -6 -7 -8 -9 -10 10 13 -13 -14 -15
leaf_value=-0.0048033366459147896 -2.9065739727750998e-05 -0.00079185406573052555 0.0087367310051128955 -0.0017998521237772098 0.0071692359098233282 0.00029870507731924163 -2.1009627631025539e-05 0.00016418866467259288 -0.00090399124913594943 -0.0022757856457610607 -0.0039537775143980965 0.020287486593952055 0.012423546202480793 0.0054096529423259196
leaf_weight=17 16447 29 10.999999999999998 27 9.9999999999999982 17 4627 1003 55 10.000000000000002 10.000000000000002 15.999999999999998 9.9999999999999982 9.9999999999999982
leaf_count=17 16447 29 11 27 10 17 4627 1003 55 10 10 16 10 10
internal_value=0 8.1689e-05 9.53288e-05 0.00248334 0.000624226 -0.00225232 7.54632e-05 0.000465997 0.00262823 0.00491379 0.0078685 0.0118355 0.00507388 0.000727938
internal_weight=0 5852 5818 48 37 34 5770 1143 140 85 56 36 20 20
internal_count=22299 5852 5818 48 37 34 5770 1143 140 85 56 36 20 20
shrinkage=0.1


Tree=498
num_leaves=15
num_cat=0
split_feature=3 36 0 19 4 2 2 35 21 15 11 1 20 0
split_gain=0.00545338 0.0231527 0.0477065 0.0298002 0.0310703 0.0284221 0.0241605 0.0242547 0.0214165 0.0254256 0.0213348 0.0211155 0.0191319 0.109862
threshold=-7.4146649999999985 0.43230650000000009 7.8525350000000005 5.4875850000000004e-05 -0.45633449999999992 2.0105200000000005 2.2437250000000004 -0.94314649999999989 15.515700000000001 3.1310400000000009e-08 0.00011419900000000001 -6.9002049999999988 7.3616200000000012 7.3478050000000001
decision_type=2 2 2 2 2 2 2 2 2 2 2 2 2 2
left_child=1 12 3 4 -3 10 -7 -8 9 -6 11 -5 -1 -14
right_child=-2 2 -4 5 8 6 7 -9 -10 -11 -12 -13 13 -15
leaf_value=-0.0001064249902695742 6.4279816709320858e-05 0.0073990539088845259 0.0065677841792681395 0.0022969788248883563 0.0019117375376351579 0.00601073489471508 -0.0026189775397402366 0.0026184732277518682 0.0054689814082600858 -0.0028845229519841573 0.00069675231679866556 -0.0026291776045378468 -2.3070274090387466e-05 0.0023465379501931656
leaf_weight=11615 8291 9.9999999999999982 13.999999999999998 9.9999999999999982 42 10.999999999999998 13.999999999999998 24 10.999999999999998 14.999999999999998 48 67 1909 218
leaf_count=11615 8291 10 14 10 42 11 14 24 11 15 48 67 1909 218
internal_value=0 -3.80457e-05 0.000886008 0.000570354 0.00219454 -0.000157731 0.00188359 0.000688886 0.00142918 0.000649564 -0.000957928 -0.00198942 -5.59323e-05 0.000219795
internal_weight=0 14008 266 252 78 174 49 38 68 57 125 77 13742 2127
internal_count=22299 14008 266 252 78 174 49 38 68 57 125 77 13742 2127
shrinkage=0.1


Tree=499
num_leaves=15
num_cat=0
split_feature=4 3 39 18 34 15 35 34 0 12 0 29 20 16
split_gain=0.00525601 0.010227 0.0177256 0.0151616 0.0403961 0.0525949 0.128853 0.0835375 0.126015 0.224123 0.0969881 0.079967 0.110847 0.0681514
threshold=0.93067350000000004 -5.6684649999999985 3.5443700000000003e-06 -5.7365999999999993e-05 0.050858250000000008 -1.191415e-07 -0.0093454599999999981 0.43092550000000007 5.7773700000000003 -1.7711699999999998e-05 -7.8306499999999994 0.049799150000000007 -1.0664099999999996 2.8113400000000003e-06
decision_type=2 2 2 2 2 2 2 2 2 2 2 2 2 2
left_child=1 3 -3 -1 -5 6 7 8 10 -10 -6 12 -12 -9
right_child=-2 2 -4 4 5 -7 -8 13 9 -11 11 -13 -14 -15
leaf_value=9.0368564592542043e-05 0.00010335336723967552 0.00059035719274276794 9.6168723805396324e-06 -0.00031465204037770764 0.0092121765350124656 0.00027822007506345841 -0.00096621640972173158 -0.00019700271763561412 0.02134532856754958 0.0022613282810198146 0.0085129809086484948 -0.006664119331565287 -0.0012016881551397476 0.0069848940109035794
leaf_weight=4897 4031 695 2156 5367 13.999999999999998 3693 1102 235 10.000000000000002 15.999999999999998 17 13.999999999999998 38 13.999999999999998
leaf_count=4897 4031 695 2156 5367 14 3693 1102 235 10 16 17 14 38 14
internal_value=0 -2.28059e-05 0.000151186 -5.49815e-05 -0.000122641 7.73439e-05 -0.000430763 0.00121748 0.00352627 0.00960133 0.00162324 8.34617e-05 0.00180103 0.000206799
internal_weight=0 18268 2851 15417 10520 5153 1460 358 109 26 83 69 55 249
internal_count=22299 18268 2851 15417 10520 5153 1460 358 109 26 83 69 55 249
shrinkage=0.1


Tree=500
num_leaves=15
num_cat=0
split_feature=11 31 19 20 29 19 33 25 1 22 21 7 24 20
split_gain=0.00537213 0.0491829 0.0771735 0.175073 0.128447 0.0854576 0.269383 0.280509 0.73877 0.793226 0.398913 0.337908 0.282686 0.278386
threshold=1.8404100000000006e-05 -0.046675499999999988 2.5389100000000003e-09 5.1367550000000017 -0.010738749999999998 9.6951700000000012e-06 1.0000000180025095e-35 0.9355785000000002 3.1038250000000001 0.49186450000000004 2.7366300000000003 4.4195250000000003e-05 -0.15907199999999996 8.4191850000000006
decision_type=2 2 2 2 2 2 2 2 2 2 2 2 2 2
left_child=-1 2 3 4 -2 6 7 8 9 13 -10 12 -12 -4
right_child=1 -3 5 -5 -6 -7 -8 -9 10 -11 11 -13 -14 -15
leaf_value=3.486809122949382e-05 -0.003171257261807719 -0.00025288361475393002 0.018480030385007225 -0.0087379354052245627 0.011460157674737275 6.4175244789422796e-05 -0.0010137464099476226 0.00040720200352689683 -0.0070385920886312514 -0.0019737413529690136 0.024845979159528561 -0.0060041755799829849 0.0061864993602578199 0.037457641485062518
leaf_weight=14820 15.000000000000002 4941 26 29 9.9999999999999982 1953 237 146 36 17 10.999999999999998 15.999999999999998 31 10.999999999999998
leaf_count=14820 15 4941 26 29 10 1953 237 146 36 17 11 16 31 11
internal_value=0 -6.90928e-05 0.000288713 -0.00345125 0.00268131 0.000370016 0.00149489 0.00351716 0.00658508 0.0159067 0.00123012 0.00636242 0.0110735 0.024122
internal_weight=0 7479 2538 54 25 2484 531 294 148 54 94 58 42 37
internal_count=22299 7479 2538 54 25 2484 531 294 148 54 94 58 42 37
shrinkage=0.1


Tree=501
num_leaves=15
num_cat=0
split_feature=22 13 0 13 11 8 3 5 11 13 15 12 6 22
split_gain=0.0053878 0.0736391 0.0663728 0.0592202 0.287266 0.225474 0.0434686 0.0247186 0.0151844 0.0166259 0.0283439 0.0172247 0.0149383 0.0139968
threshold=2.9368200000000004 -1.5352949999999997e-05 -4.5652049999999988 -2.4819449999999997e-06 -1.4196549999999999e-05 -3.0801049999999995e-06 -8.5183349999999987 7.6070650000000005e-06 6.544675000000001e-06 7.4326200000000012e-06 2.0696850000000002e-08 -7.6041099999999993e-05 -5.7310349999999995e-07 2.8593400000000004
decision_type=2 2 2 2 2 2 2 2 2 2 2 2 2 2
left_child=13 2 6 4 5 -3 -2 -5 9 10 -9 -11 -13 -1
right_child=1 3 -4 7 -6 -7 -8 8 -10 11 -12 12 -14 -15
leaf_value=-1.3558441242703803e-06 -0.0090348890256684491 0.0019869865553284231 -0.00013144377385793229 -0.0043521655374206608 -0.00033256749230776988 0.021439972118689463 -0.0024807129111140969 -0.00034303444230722051 0.0011845765424504016 0.00064449784584116735 0.0061000871810723443 -0.00081613155172551455 -0.0041565217305105763 -0.00097717263451085196
leaf_weight=21575 17 11.000000000000002 72 10.999999999999998 63 12.999999999999998 25 18.000000000000004 161 76 10.999999999999998 82 15.999999999999998 148
leaf_count=21575 17 11 72 11 63 13 25 18 161 76 11 82 16 148
internal_value=0 0.000301864 -0.00197434 0.000863525 0.00321408 0.012524 -0.00513359 0.000318197 0.000459335 -0.000115857 0.00210091 -0.000485318 -0.0013615 -8.00414e-06
internal_weight=0 576 114 462 87 24 42 375 364 203 29 174 98 21723
internal_count=22299 576 114 462 87 24 42 375 364 203 29 174 98 21723
shrinkage=0.1


Tree=502
num_leaves=15
num_cat=0
split_feature=20 11 3 11 11 20 20 3 14 26 18 21 16 2
split_gain=0.0051642 0.0305303 0.0235598 0.0578593 0.101091 0.185157 0.085348 0.058292 0.0458822 0.0486404 0.0832695 0.0451225 0.0625171 0.0664979
threshold=-2.7391899999999993 0.00011419900000000001 -8.3380249999999982 -1.3465549999999998e-05 -1.5369699999999996e-05 -4.801804999999999 -8.1590649999999982 -10.143599999999998 0.0038217500000000005 -0.00011757449999999998 4.573715000000001e-06 8.9549450000000004 -1.7273549999999995e-07 1.0615900000000003
decision_type=2 2 2 2 2 2 2 2 2 2 2 2 2 2
left_child=1 2 3 4 -1 -6 7 -5 9 10 -8 -11 -13 -14
right_child=-2 -3 -4 6 5 -7 8 -9 -10 11 -12 12 13 -15
leaf_value=6.9233498331066265e-05 -3.6693401746236372e-05 0.00057079311776215918 0.00016555674653609086 0.0015002986300633502 -0.0019098816714672876 0.016891243249410767 0.00099716755604295406 -0.00098556808756780048 0.00010056060616067317 -0.0022849233937002685 -0.0039616105654038791 0.0070081102118516973 0.00068080272577289089 -0.0083344711223617193
leaf_weight=2040 14101 1035 3693 246 11.000000000000002 9.9999999999999982 147 153 219 533 44 11.999999999999998 45 9.9999999999999982
leaf_count=2040 14101 1035 3693 246 11 10 147 153 219 533 44 12 45 10
internal_value=0 6.31146e-05 -1.02411e-05 -0.000197337 0.000140291 0.00704303 -0.000691198 0.000547072 -0.00118038 -0.00153502 -0.000145169 -0.00197746 0.000468489 -0.000958338
internal_weight=0 8198 7163 3470 2061 21 1409 399 1010 791 191 600 67 55
internal_count=22299 8198 7163 3470 2061 21 1409 399 1010 791 191 600 67 55
shrinkage=0.1


Tree=503
num_leaves=15
num_cat=0
split_feature=10 25 9 14 38 9 26 4 19 26 6 10 9 29
split_gain=0.00557857 0.0238688 0.0952292 0.0300917 0.0217663 0.0430732 0.0418538 0.0991447 0.209615 0.134336 0.105778 0.098004 0.0911889 0.0914775
threshold=2.4033300000000002e-05 0.15031150000000001 1.7884200000000004e-05 0.00014721100000000004 -0.0022085149999999999 -2.4015299999999997e-05 -0.00016675349999999999 0.16733500000000004 1.4797350000000001e-06 -0.00014758899999999997 1.7945450000000003e-06 2.0888100000000004e-05 1.0400200000000001e-05 -0.0010027384999999999
decision_type=2 2 2 2 2 2 2 2 2 2 2 2 2 2
left_child=1 2 3 -1 5 -3 -7 -8 -9 -10 11 12 13 -11
right_child=-2 4 -4 -5 -6 6 7 8 9 10 -12 -13 -14 -15
leaf_value=0.0055172462132759394 -3.5199865689236976e-05 0.0061543760892863461 0.009253924580324176 -0.00031808412711957078 -2.9023534753143655e-05 -0.0001330706456543546 0.00011056208878777049 0.014324704820501211 0.010059433141173538 -0.0041921243818219892 0.0087875092293446273 -0.0047627874023887812 0.0087288649628559749 0.003042122279293835
leaf_weight=9.9999999999999982 14913 12.999999999999998 13.999999999999998 76 6026 713 365 14.999999999999998 18 28.999999999999993 14.999999999999998 33 14.999999999999998 44.000000000000007
leaf_count=10 14913 13 14 76 6026 713 365 15 18 29 15 33 15 44
internal_value=0 7.10717e-05 0.00160553 0.000360443 5.00113e-05 0.000427999 0.000368301 0.00103774 0.00304021 0.00194107 0.000866584 -0.000115349 0.00162744 0.000168243
internal_weight=0 7386 100 86 7286 1260 1247 534 169 154 136 121 88 73
internal_count=22299 7386 100 86 7286 1260 1247 534 169 154 136 121 88 73
shrinkage=0.1


Tree=504
num_leaves=15
num_cat=0
split_feature=7 27 33 39 38 39 25 36 16 7 4 36 8 21
split_gain=0.00490656 0.019564 0.0448422 0.0272644 0.131124 0.0567092 0.0672341 0.0539295 0.0732059 0.0377878 0.0414643 0.0401424 0.0357404 0.0436568
threshold=2.3357900000000006e-05 0.15408750000000002 3.975485000000001e-06 4.2131800000000009e-06 0.00015228100000000001 1.0485200000000001e-05 0.21351350000000005 0.00052102350000000008 -2.1438899999999996e-08 2.2625000000000004e-05 -0.34999249999999998 -0.00040777949999999994 -9.1771399999999983e-06 8.9549450000000004
decision_type=2 2 2 2 2 2 2 2 2 2 2 2 2 2
left_child=1 2 -1 4 7 9 -7 12 -9 10 -5 -11 13 -3
right_child=-2 3 -4 5 -6 6 -8 8 -10 11 -12 -13 -14 -15
leaf_value=1.2740069779299075e-05 -9.2346832148957299e-06 -0.00054521641656968072 -0.0058163356891942812 0.00081225981053788796 0.0098267479117459845 0.0087096928467508411 0.00041612428831621094 -0.00059826866665389376 0.011501805000007153 0.0065555461682379225 -0.0037990008135891868 -0.0012041943834628912 0.00076557882386473343 -0.0085139551945030683
leaf_weight=59 21467 22 17 26 17 9.9999999999999982 434 10.000000000000002 9.9999999999999982 10.000000000000002 78 20 109 9.9999999999999982
leaf_count=59 21467 22 17 26 17 10 434 10 10 10 78 20 109 10
internal_value=0 0.00023827 -0.00129113 0.00039202 0.00147418 5.87597e-05 0.000602916 0.000592231 0.00545177 -0.00174427 -0.00264619 0.00138239 -9.70654e-05 -0.00303545
internal_weight=0 832 76 756 178 578 444 161 20 134 104 30 141 32
internal_count=22299 832 76 756 178 578 444 161 20 134 104 30 141 32
shrinkage=0.1


Tree=505
num_leaves=15
num_cat=0
split_feature=16 34 20 13 5 23 23 3 34 16 34 23 25 13
split_gain=0.00492001 0.0174369 0.0313403 0.028593 0.0620177 0.145038 0.0687586 0.0359272 0.0273624 0.0548652 0.168332 0.145248 0.0630409 0.0472001
threshold=-1.7593899999999998e-06 0.016895350000000003 0.24328550000000002 -2.2178399999999994e-05 1.2121400000000002e-05 -11.688049999999999 -15.973899999999999 -13.528999999999998 0.072701400000000013 -2.2556699999999994e-06 0.5512450000000001 -12.856149999999998 0.34839550000000002 -2.0964499999999996e-05
decision_type=2 2 2 2 2 2 2 2 2 2 2 2 2 2
left_child=1 -1 8 4 5 6 -4 -8 -3 13 11 12 -11 -10
right_child=-2 2 3 -5 -6 -7 7 -9 9 10 -12 -13 -14 -15
leaf_value=0.000341205055658125 -2.8018780493911819e-05 -0.0002297031132492879 -0.0019830258749425405 -0.0001272290726957124 -0.00055723034814718635 0.00094570588320493695 -0.016001504050059748 -0.0077196992002427581 0.0014118510065417808 0.0071811135578900556 -0.0027566716402631117 0.013776226605803363 -0.0040475004911422734 9.4494898933057691e-06
leaf_weight=1767 16447 825 10.000000000000002 1493 352 30 11.000000000000002 9.9999999999999982 319 10.000000000000002 27 19 9.9999999999999982 969
leaf_count=1767 16447 825 10 1493 352 30 11 10 319 10 27 19 10 969
internal_value=0 7.87466e-05 -3.4782e-05 -0.00033094 -0.00106736 -0.00401103 -0.00880786 -0.0120578 0.000224271 0.00050088 0.00331294 0.00751499 0.00156681 0.000356783
internal_weight=0 5852 4085 1906 413 61 31 21 2179 1354 66 39 20 1288
internal_count=22299 5852 4085 1906 413 61 31 21 2179 1354 66 39 20 1288
shrinkage=0.1


Tree=506
num_leaves=15
num_cat=0
split_feature=4 26 34 0 0 31 3 29 4 35 4 11 33 11
split_gain=0.00456564 0.00850337 0.00836874 0.0254621 0.046867 0.0759047 0.120285 0.0474202 0.159844 0.0559073 0.056235 0.0514678 0.0524571 0.0832049
threshold=-2.4210399999999992 0.018145200000000004 0.0080391900000000016 7.4476300000000011 9.0247150000000023 -0.032120949999999988 -6.043429999999999 -0.0034212999999999995 0.10112150000000002 -0.00028032599999999996 -0.039682999999999996 2.5330200000000004e-05 -2.5789099999999994e-06 1.0458900000000001e-05
decision_type=2 2 2 2 2 2 2 2 2 2 2 2 2 2
left_child=1 -1 3 -2 7 6 -6 8 -5 10 -9 12 13 -11
right_child=2 -3 -4 4 5 -7 -8 9 -10 11 -12 -13 -14 -15
leaf_value=0.00013635580336251798 0.00024836013771176944 -0.0012802312992578157 -4.8637155105895604e-05 -0.015494943223893637 0.013276603614742102 -0.00018113636678137091 -0.0012005488553162044 0.009073403128422794 0.001321729698863167 -0.00064169520046561933 -0.00090120128857401702 0.00034709476730934095 -0.0019748047007049213 -0.012774649341232503
leaf_weight=2913 2875 43 15837 10.000000000000002 11.000000000000002 408 11.999999999999998 10.000000000000002 12.999999999999998 10.000000000000002 12.999999999999998 63 68 12.999999999999998
leaf_count=2913 2875 43 15837 10 11 408 12 10 13 10 13 63 68 13
internal_value=0 0.000115749 -1.76888e-05 0.000122108 -0.000453127 0.00013395 0.00572331 -0.00171828 -0.00598987 -0.00116321 0.00343558 -0.00185005 -0.00337114 -0.00749945
internal_weight=0 2956 19343 3506 631 431 23 200 23 177 23 154 91 23
internal_count=22299 2956 19343 3506 631 431 23 200 23 177 23 154 91 23
shrinkage=0.1


Tree=507
num_leaves=15
num_cat=0
split_feature=10 26 18 4 26 14 28 1 16 10 17 37 13 0
split_gain=0.00434731 0.0209174 0.0885359 0.0720784 0.0800169 0.0978466 0.0878908 0.286352 0.562501 0.251858 0.0833108 0.106856 0.072008 0.0689567
threshold=2.4033300000000002e-05 8.4939000000000008e-05 -9.6796299999999971e-07 -0.20699899999999996 0.0017507950000000003 0.0041718550000000012 0.017621250000000001 4.9305950000000012 -7.3593999999999994e-06 1.5181450000000002e-05 3.0187000000000004e-06 1.4877750000000002e-07 -1.2230399999999999e-05 4.1933950000000015
decision_type=2 2 2 2 2 2 2 2 2 2 2 2 2 2
left_child=1 -1 3 4 6 -6 10 -8 -9 -10 12 -12 -3 -5
right_child=-2 2 -4 13 5 -7 7 8 9 -11 11 -13 -14 -15
leaf_value=0.00016349727544476939 -3.107346668658588e-05 -0.0070436081996089533 0.00037502308010990373 -0.0031168196961249509 -0.0067960012011612078 -0.00060638088679469725 -0.0014908943341269104 -0.00059323549841440492 0.0085937312082387477 0.030081857088953258 -0.00025421702448511494 0.012923068664968014 -0.00069092743649721991 0.00090485389129135697
leaf_weight=5437 14913 19 1098 218 39 74 76 31 10.000000000000002 11.999999999999998 16.000000000000004 9.9999999999999982 293 53
leaf_count=5437 14913 19 1098 218 39 74 76 31 10 12 16 10 293 53
internal_value=0 6.27401e-05 -0.000218336 -0.000983915 -0.000354831 -0.00274262 0.000222943 0.00244358 0.00808546 0.0203145 -0.000624577 0.00481397 -0.00107779 -0.00233029
internal_weight=0 7386 1949 851 580 113 467 129 53 22 338 26 312 271
internal_count=22299 7386 1949 851 580 113 467 129 53 22 338 26 312 271
shrinkage=0.1


Tree=508
num_leaves=15
num_cat=0
split_feature=11 31 5 20 5 36 14 8 16 23 22 6 21 28
split_gain=0.00441627 0.0422755 0.0916625 0.103571 0.0820367 0.103747 0.21285 0.153267 0.126162 0.120162 0.114789 0.107022 0.666715 0.189496
threshold=1.8404100000000006e-05 -0.046675499999999988 1.5212750000000003e-05 -3.5336099999999995 1.4702600000000002e-05 0.0049060300000000013 0.0046168100000000016 1.2063050000000001e-05 2.2651350000000005e-06 -6.8980549999999985 -1.0504299999999998 1.7574450000000003e-06 -2.1386499999999997 -0.0046461499999999991
decision_type=2 2 2 2 2 2 2 2 2 2 2 2 2 2
left_child=-1 4 3 -3 5 6 7 9 -7 10 -2 -12 13 -13
right_child=1 2 -4 -5 -6 8 -8 -9 -10 -11 11 12 -14 -15
leaf_value=3.1614239169828472e-05 -0.0024585382290145692 6.3309294671527996e-05 0.00015393980019583162 -0.0013173799653938454 -0.00020966604868271892 -0.0019089586312744629 -0.00057529627706094774 0.011686691297463289 0.0026389444604009282 -0.0038261201786480925 0.0026779104579907633 0.028372279253716645 -0.00061828812218404244 0.010945881371541571
leaf_weight=14820 36 967 2734 1240 1485 216 286 19 85 28 316 13.000000000000002 42 11.999999999999998
leaf_count=14820 36 967 2734 1240 1485 216 286 19 85 28 316 13 42 12
internal_value=0 -6.26451e-05 -0.000233042 -0.000712429 0.000269085 0.000944246 0.00157223 0.00289024 -0.000624667 0.00251634 0.00294018 0.00344763 0.00707794 0.0200076
internal_weight=0 7479 4941 2207 2538 1053 752 466 301 447 419 383 67 25
internal_count=22299 7479 4941 2207 2538 1053 752 466 301 447 419 383 67 25
shrinkage=0.1


Tree=509
num_leaves=15
num_cat=0
split_feature=13 13 34 33 33 5 23 25 38 34 25 17 12 1
split_gain=0.00475647 0.0193159 0.0672152 0.079579 0.129539 0.21363 0.194309 0.143133 0.13887 0.10577 0.0873513 0.0653098 0.0649318 0.0642481
threshold=5.5414750000000007e-05 2.8108550000000004e-05 0.0070577850000000013 -1.3480899999999998e-05 -3.0237949999999997e-05 1.1058900000000002e-05 -13.123899999999997 1.0560900000000004 -0.0025292699999999997 0.096511600000000017 54.163350000000008 -2.6149399999999997e-08 0.00012058300000000002 4.9871300000000014
decision_type=2 2 2 2 2 2 2 2 2 2 2 2 2 2
left_child=1 -1 -3 4 12 6 9 -8 -7 -6 -5 -12 -4 -10
right_child=-2 2 3 10 5 8 7 -9 13 -11 11 -13 -14 -15
leaf_value=1.4459859261045422e-05 7.3162504892162518e-05 0.0010509327685189747 -4.7980827480897047e-05 -0.0010060764741507305 -0.0047458187929199378 0.0096035465660194563 0.020670176508526004 0.0052249390806537125 -0.0019542692085806998 0.0082735113441370998 0.01079362763769247 -0.00010339352725581689 -0.0041378499105624716 0.0036296743800415207
leaf_weight=13781 6354 312 223 1381 12.000000000000002 14.999999999999998 15.000000000000002 9.9999999999999982 87 12.999999999999998 11.000000000000002 10.999999999999998 47 27
leaf_count=13781 6354 312 223 1381 12 15 15 10 87 13 11 11 47 27
internal_value=0 -2.91549e-05 -0.000306907 -0.000535657 0.000623078 0.00270917 0.00825816 0.0144921 0.000558395 0.00202423 -0.000906485 0.00534512 -0.000759921 -0.000631756
internal_weight=0 15945 2164 1852 449 179 50 25 129 25 1403 22 270 114
internal_count=22299 15945 2164 1852 449 179 50 25 129 25 1403 22 270 114
shrinkage=0.1


Tree=510
num_leaves=15
num_cat=0
split_feature=6 33 33 14 19 33 38 10 33 13 37 10 33 7
split_gain=0.00451497 0.0976316 0.066781 0.0510109 0.0373744 0.309248 0.0688326 0.0387707 0.0376249 0.0923268 0.0926379 0.0466689 0.0699339 0.0415448
threshold=1.2416850000000003e-06 9.9369500000000019e-07 7.1091050000000012e-07 0.00026056950000000005 5.8759050000000008e-05 1.7936250000000003e-06 0.0029981700000000005 5.3141350000000002e-05 4.8708550000000005e-06 -2.1012449999999996e-06 -2.5319899999999996e-08 2.1560750000000005e-05 1.68409e-06 2.9419150000000004e-05
decision_type=2 2 2 2 2 2 2 2 2 2 2 2 2 2
left_child=2 -2 -1 4 8 -6 7 -7 9 10 -4 12 13 -11
right_child=1 -3 3 -5 5 6 -8 -9 -10 11 -12 -13 -14 -15
leaf_value=-0.00016166522325077655 0.00027350300356981933 -0.00044358258593139215 0.011304778715462555 8.9861771225698591e-05 0.019267763844691217 -0.003978311344704148 0.006285273364483146 0.0012976117631963765 0.00092886993788688786 -0.0031850230259199926 -0.0012971181515604258 0.00016064036552925702 -0.0008823690746950927 -0.011912305746227503
leaf_weight=8028 4053 3572 14.000000000000002 4719 9.9999999999999982 26 15.999999999999998 30 1225 12.000000000000002 9.9999999999999982 481 93 9.9999999999999982
leaf_count=8028 4053 3572 14 4719 10 26 16 30 1225 12 10 481 93 10
internal_value=0 -6.24222e-05 3.24362e-05 0.0002669 0.000700446 0.00278944 0.000500787 -0.00115192 0.000607602 -2.71612e-05 0.00605399 -0.00027204 -0.00208177 -0.00715197
internal_weight=0 7625 14674 6646 1927 82 72 56 1845 620 24 596 115 22
internal_count=22299 7625 14674 6646 1927 82 72 56 1845 620 24 596 115 22
shrinkage=0.1


Tree=511
num_leaves=15
num_cat=0
split_feature=18 19 38 33 38 18 4 26 18 32 33 36 15 24
split_gain=0.00472679 0.0227467 0.155337 0.0180145 0.0130402 0.0398022 0.0226945 0.0103399 0.0182178 0.038162 0.0619792 0.051373 0.0498717 0.0131671
threshold=-0.00019607549999999996 2.1170350000000003e-05 0.0074256350000000007 -5.2296799999999995e-06 5.6022800000000013 -0.0037265499999999995 -2.1235899999999996 5.7378300000000006e-05 -0.00046330299999999992 0.3142795000000001 1.9192950000000004e-05 0.042575800000000004 -4.3415099999999989e-06 -0.79481749999999984
decision_type=2 2 2 2 2 2 2 2 2 2 2 2 2 2
left_child=1 2 3 -1 7 -6 -7 -3 13 10 -10 -11 -12 -9
right_child=-2 4 -4 -5 5 6 -8 8 9 11 12 -13 -14 -15
leaf_value=-0.0020478384053733731 -2.2574823366976708e-05 0.00020103134327749145 0.011779618820247169 0.001087873807135214 0.0022676129808782467 -0.001481557861817154 -0.0080637978762388204 0.0010009058610810299 -0.00059509786810322011 0.0074696512349570771 -0.0013078920433626457 -0.0019915124909444292 -0.0088605567101492644 -7.8772627149143202e-05
leaf_weight=28 17977 2562 12.999999999999998 53 13.999999999999998 10.999999999999998 10.000000000000002 124 181 12.000000000000002 17 10.999999999999998 18 1268
leaf_count=28 17977 2562 13 53 14 11 10 124 181 12 17 11 18 1268
internal_value=0 9.38981e-05 0.00163248 3.92391e-06 5.96913e-05 -0.00186253 -0.00461596 7.57365e-05 -0.000121079 -0.000927647 -0.00133999 0.00294475 -0.00519212 1.74056e-05
internal_weight=0 4322 94 81 4228 35 21 4193 1631 239 216 23 35 1392
internal_count=22299 4322 94 81 4228 35 21 4193 1631 239 216 23 35 1392
shrinkage=0.1


Tree=512
num_leaves=15
num_cat=0
split_feature=4 20 13 33 32 16 34 8 24 31 3 29 35 27
split_gain=0.00480439 0.00938125 0.0098517 0.0207713 0.0252147 0.0277275 0.0197169 0.0152436 0.0133764 0.0139026 0.0230455 0.0129816 0.033731 0.0142536
threshold=0.93067350000000004 14.086350000000001 -8.9274649999999981e-06 2.2102800000000005e-06 -1.0055674999999997 -4.0570549999999991e-06 2.6566550000000002 -1.7891249999999996e-05 -0.094023049999999983 -3.1273699999999995 -12.923849999999998 -0.23567949999999996 0.12480300000000001 2.7316700000000007
decision_type=2 2 2 2 2 2 2 2 2 2 2 2 2 2
left_child=-1 2 3 7 5 -5 -6 -2 -4 10 -10 -11 13 -13
right_child=1 -3 8 4 6 -7 -8 -9 9 11 -12 12 -14 -15
leaf_value=-2.1804056660162398e-05 0.0025397312499720742 -0.0012908462538083164 0.00026283414767037326 -0.00055578783736564196 -0.0003007267497450812 0.0068910255644004798 -0.0043197677399103461 0.00070731368937311089 0.0059179950528778121 -0.0033139756737420195 -0.00046735784898583704 -7.6396695773592148e-05 0.0053780155891383239 -0.00097863319662912533
leaf_weight=18268 54 48 1592 10.000000000000002 200 9.9999999999999982 12.999999999999998 285 10.000000000000002 12.999999999999998 12.999999999999998 1575 10.999999999999998 197
leaf_count=18268 54 48 1592 10 200 10 13 285 10 13 13 1575 11 197
internal_value=0 9.88133e-05 0.00011556 0.000499615 -0.000227253 0.00316762 -0.00054602 0.000999203 5.11572e-05 -0.000134104 0.00230888 -0.000165389 -0.000142433 -0.000176702
internal_weight=0 4031 3983 572 233 20 213 339 3411 1819 23 1796 1783 1772
internal_count=22299 4031 3983 572 233 20 213 339 3411 1819 23 1796 1783 1772
shrinkage=0.1


Tree=513
num_leaves=15
num_cat=0
split_feature=10 28 21 26 8 33 36 16 15 30 24 1 33 26
split_gain=0.00447339 0.0218097 0.0260454 0.0777908 0.133723 0.0274037 0.0307224 0.0594102 0.0275145 0.0260816 0.0199826 0.0194188 0.0192511 0.0261035
threshold=9.3887650000000016e-06 0.047249250000000007 -4.6064149999999993 5.9383900000000006e-05 5.7286400000000008e-06 2.3357300000000004e-05 -0.0017994199999999997 1.1245350000000001e-07 -1.5669949999999999e-06 0.0034018700000000004 -0.10350699999999997 4.3387400000000005 -8.315239999999999e-06 9.4085400000000006e-05
decision_type=2 2 2 2 2 2 2 2 2 2 2 2 2 2
left_child=1 2 3 -1 -5 6 7 -4 -8 -7 12 -12 -10 -14
right_child=-2 -3 5 4 -6 9 8 -9 10 -11 11 -13 13 -15
leaf_value=-0.00058662203826113707 -4.9771739044414928e-06 0.0037667919040864544 0.0067026813350179598 -0.0010021213109471965 0.012819354868094837 -0.0076021877024322728 0.0037760067731142048 -0.0022777014268705481 0.00016986666820370235 -0.00068725319385218135 0.0010645321905369287 -0.0024861237766648022 -0.00776651262377317 -0.0016442603152245284
leaf_weight=54 22027 18 17.000000000000004 14.000000000000002 13.999999999999998 10.000000000000002 11.999999999999998 12.999999999999998 12.999999999999998 11.999999999999998 43 24 13.000000000000002 14.999999999999998
leaf_count=54 22027 18 17 14 14 10 12 13 13 12 43 24 13 15
internal_value=0 0.000403059 0.000164685 0.00163126 0.00590862 -0.000534499 -5.1099e-05 0.00281118 -0.000766669 -0.00383041 -0.00127141 -0.000207345 -0.00301025 -0.00448673
internal_weight=0 272 254 82 28 172 150 30 120 22 108 67 41 28
internal_count=22299 272 254 82 28 172 150 30 120 22 108 67 41 28
shrinkage=0.1


Tree=514
num_leaves=15
num_cat=0
split_feature=22 2 0 2 22 31 3 6 12 17 8 5 20 30
split_gain=0.00450588 0.433348 0.0480684 0.0320142 0.0966698 0.0536509 0.0327856 0.050078 0.0255815 0.0343779 0.0208594 0.0171307 0.0195909 0.0211664
threshold=2.9368200000000004 3.0221750000000003 -5.6776899999999992 2.9665000000000004 2.2108700000000003 0.63298300000000007 -7.7975399999999988 7.7576600000000007e-07 1.4781400000000002e-05 1.7935050000000002e-06 -1.02808e-05 1.3223650000000002e-05 -5.4777449999999996 0.00030585700000000004
decision_type=2 2 2 2 2 2 2 2 2 2 2 2 2 2
left_child=3 2 8 -1 11 6 7 -6 9 -2 -10 12 13 -5
right_child=1 -3 -4 4 5 -7 -8 -9 10 -11 -12 -13 -14 -15
leaf_value=9.4339452080902616e-06 -0.0017049994799096817 0.01650316242594272 0.0002988266547091746 -0.0072746188900782707 -0.004372909683734179 0.00065435144245963204 -0.0026936466875486067 -0.013954643160104752 -0.0021238131378777327 0.0042025196763764453 -0.0062394513846620141 0.00019158921404104567 -0.00063112070378322017 -0.0015365405085807048
leaf_weight=21317 55 15.999999999999998 439 10.000000000000002 9.9999999999999982 10.999999999999998 10.000000000000002 11.999999999999998 35 11.999999999999998 19 222 113 18
leaf_count=21317 55 16 439 10 10 11 10 12 35 12 19 222 113 18
internal_value=0 0.000276055 -0.000187577 -7.31979e-06 -0.000886973 -0.00537031 -0.00744129 -0.00959931 -0.0019523 -0.000646936 -0.00357191 -0.000355889 -0.00121788 -0.00358585
internal_weight=0 576 560 21723 406 43 32 22 121 67 54 363 141 28
internal_count=22299 576 560 21723 406 43 32 22 121 67 54 363 141 28
shrinkage=0.1


Tree=515
num_leaves=15
num_cat=0
split_feature=23 4 18 33 7 38 14 23 8 28 18 14 4 13
split_gain=0.00444393 0.0243951 0.0699207 0.0854502 0.0399473 0.0656616 0.0712483 0.0840897 0.0337474 0.0311994 0.0290535 0.0230241 0.0235866 0.0215831
threshold=-15.973899999999999 -0.28239699999999995 -3.2995149999999995e-05 2.3357300000000004e-05 4.3316800000000012e-05 0.0011311700000000001 0.0060041400000000007 -17.648549999999997 -7.5996549999999988e-06 -0.019758399999999999 -0.00096328849999999992 0.0031007600000000006 -0.57280299999999984 1.0362200000000002e-05
decision_type=2 2 2 2 2 2 2 2 2 2 2 2 2 2
left_child=1 4 3 -3 5 11 7 13 -8 -10 -11 -1 -13 -7
right_child=-2 2 -4 -5 -6 6 8 -9 9 10 -12 12 -14 -15
leaf_value=0.0020336281718261054 -1.5507156816433773e-05 -0.0011474258539965372 0.00025177133867031556 0.01114814470593746 0.0002586010086057504 0.00078001053453507748 -0.004723147476195462 -0.011251094731657457 0.0038379055502660133 0.00023067923448252261 -0.0059444907889701429 -0.00014726568205798864 -0.005291489046067 -0.0044749623576299871
leaf_weight=46 19898 10.000000000000002 1716 12.999999999999998 391 10.999999999999998 18 18 17 32 9.9999999999999982 82 9.9999999999999982 27
leaf_count=46 19898 10 1716 13 391 11 18 18 17 32 10 82 10 27
internal_value=0 0.000128514 0.000325182 0.00580224 -0.000388111 -0.00132119 -0.00290676 -0.00562078 -0.000932928 0.000223411 -0.0012396 0.000206929 -0.00070642 -0.00295379
internal_weight=0 2401 1739 23 662 271 133 56 77 59 42 138 92 38
internal_count=22299 2401 1739 23 662 271 133 56 77 59 42 138 92 38
shrinkage=0.1


Tree=516
num_leaves=15
num_cat=0
split_feature=4 24 18 27 4 39 37 37 35 15 1 32 33 13
split_gain=0.00426929 0.016643 0.0253728 0.0568446 0.0144653 0.0674769 0.157741 0.0729562 0.0691788 0.0626163 0.0419949 0.0259727 0.0304045 0.0194651
threshold=-0.6437274999999999 0.070001250000000001 -4.1882149999999993e-05 0.35394600000000004 -1.1063349999999998 0.012945550000000002 1.5926050000000004e-06 -1.1460199999999996e-06 -0.0016469549999999996 5.3243950000000016e-06 -3.7123699999999995 -0.087164299999999986 -4.7697749999999987e-06 3.2114050000000008e-05
decision_type=2 2 2 2 2 2 2 2 2 2 2 2 2 2
left_child=1 4 -3 -4 -1 6 7 -6 10 -7 -9 13 -13 -10
right_child=-2 2 3 -5 5 9 -8 8 11 -11 -12 12 -14 -15
leaf_value=-1.0201777158818923e-05 -2.2083714956158345e-05 0.00024502095821981435 -0.00098260003360337543 0.0092259764415211967 0.0075259983283467585 -0.0085370910027995715 0.010098824995969024 -0.0099926787789709967 -0.0055283636436797672 0.0003777551679657056 -0.0029551226441981273 -0.0024770904685283315 0.0010079160431126619 -0.00024160272800005401
leaf_weight=1980 17772 2245 12.000000000000002 9.9999999999999982 9.9999999999999982 20 13.999999999999998 10.999999999999998 15.000000000000002 12.999999999999998 37 32 115 12.999999999999998
leaf_count=1980 17772 2245 12 10 10 20 14 11 15 13 37 32 115 13
internal_value=0 8.66958e-05 0.000278139 0.00365766 -0.00010534 -0.000778105 -0.000210681 -0.000830137 -0.00120485 -0.00502518 -0.0045679 -0.000282416 0.000249275 -0.0030738
internal_weight=0 4527 2267 22 2260 280 247 233 223 33 48 175 147 28
internal_count=22299 4527 2267 22 2260 280 247 233 223 33 48 175 147 28
shrinkage=0.1


Tree=517
num_leaves=15
num_cat=0
split_feature=23 3 23 3 14 6 21 8 23 18 27 1 22 28
split_gain=0.00415072 0.0301493 0.0572694 0.215602 0.0941767 0.0978857 0.0967891 0.135289 0.0956907 0.0613223 0.0561975 0.0523359 0.174206 0.150995
threshold=-7.6950299999999991 -6.8774499999999987 -6.9441449999999989 -6.283129999999999 0.00066813050000000013 -4.0740349999999994e-06 -4.9352399999999994 9.4840850000000019e-06 -7.1911899999999989 4.4274800000000002e-07 0.26944150000000006 -9.9732449999999968 -0.96137699999999982 -0.0030315549999999996
decision_type=2 2 2 2 2 2 2 2 2 2 2 2 2 2
left_child=-1 11 3 4 5 8 7 -7 -3 -8 -11 12 13 -2
right_child=1 2 -4 -5 -6 6 9 -9 -10 10 -12 -13 -14 -15
leaf_value=-2.7274141101903064e-05 0.012249617216788466 -0.0041575863686157391 0.00017695038577888051 0.00011739122276602346 -2.8275411800834639e-05 -0.0060292463324283473 -0.0028177937684397748 -0.018523336975620346 0.0059453851258149375 -0.0040467433525588018 -0.014404641538858416 0.00017021465831169486 -0.0013494840444144892 -0.0013969003804959357
leaf_weight=15932 25 25 1262 585 58 26 70 12.999999999999998 14.999999999999998 11.000000000000002 9.9999999999999982 4208 47 11.999999999999998
leaf_count=15932 25 25 1262 585 58 26 70 13 15 11 10 4208 47 12
internal_value=0 6.82475e-05 -0.000244715 -0.000899256 -0.00350776 -0.00469488 -0.00602592 -0.0101939 -0.000368972 -0.00423963 -0.00897908 0.000219552 0.00269109 0.00782372
internal_weight=0 6367 2075 813 228 170 130 39 40 91 21 4292 84 37
internal_count=22299 6367 2075 813 228 170 130 39 40 91 21 4292 84 37
shrinkage=0.1


Tree=518
num_leaves=15
num_cat=0
split_feature=10 28 28 32 28 25 0 25 1 22 14 24 34 26
split_gain=0.00427985 0.0184149 0.0178658 0.0301032 0.0160014 0.0604415 0.0326832 0.0210978 0.0202344 0.0136052 0.0132017 0.0144715 0.00886468 0.00783279
threshold=9.3887650000000016e-06 0.047249250000000007 0.028347250000000004 -0.12523299999999996 -0.0049021949999999989 0.31821700000000003 -0.8145349999999999 0.55783300000000013 -3.8450599999999997 -1.3185399999999998 0.0013882200000000001 -0.081120499999999984 0.075295400000000026 0.00027162700000000003
decision_type=2 2 2 2 2 2 2 2 2 2 2 2 2 2
left_child=1 2 3 -1 5 -5 -7 -8 9 -9 11 -6 -12 -10
right_child=-2 -3 -4 4 10 6 7 8 13 -11 12 -13 -14 -15
leaf_value=0.0052522961748763921 -4.8683096555360825e-06 0.0034851179277110428 -0.0034358222279339459 0.007709515374153853 -0.0041507944100119768 0.0041129928191795074 -0.004406910472048017 -0.00020087236227577941 0.00072494931962518441 -0.0046200357377529158 0.00039037693879949171 -0.0002478321360716731 -0.0027720876317471267 0.0041253437567502259
leaf_weight=11.999999999999998 22027 18 12.999999999999998 11.999999999999998 19 17 12.999999999999998 19.000000000000004 21.000000000000007 10.999999999999995 78 19 9.9999999999999982 9.9999999999999982
leaf_count=12 22027 18 13 12 19 17 13 19 21 11 78 19 10 10
internal_value=0 0.000394244 0.000175205 0.000369991 0.00011415 0.0010387 0.000159027 -0.000749317 3.01706e-05 -0.00182123 -0.00064163 -0.00219931 3.1006e-05 0.00182185
internal_weight=0 272 254 241 229 103 91 74 61 30 126 38 88 31
internal_count=22299 272 254 241 229 103 91 74 61 30 126 38 88 31
shrinkage=0.1


Tree=519
num_leaves=15
num_cat=0
split_feature=14 14 22 29 33 33 23 25 21 1 14 28 1 22
split_gain=0.00416366 0.0142042 0.0479164 0.0507478 0.0542124 0.0455052 0.0404129 0.0375714 0.0126209 0.163472 0.156407 0.19197 0.0358022 0.0353201
threshold=0.00018093550000000002 0.00018603950000000002 0.61519100000000015 -0.0050592849999999993 -3.1858049999999996e-06 9.0050600000000018e-06 -7.6950299999999991 0.7496210000000002 12.314950000000001 11.152950000000002 9.0643750000000004e-05 0.0051941500000000007 8.3758000000000017 1.3428500000000001
decision_type=2 2 2 2 2 2 2 2 2 2 2 2 2 2
left_child=8 2 3 5 -5 -2 7 -4 -1 12 -11 -12 -10 -14
right_child=1 -3 6 4 -6 -7 -8 -9 9 10 11 -13 13 -15
leaf_value=4.4030586273737562e-05 -0.010520073728492625 -1.986744506360457e-05 0.008185244012962686 -0.0035119076768751257 0.0049137943889945752 -0.0019804562442004682 -0.0037100662756711245 0.00037547583758298843 4.0393879595982907e-05 -0.00043263437692075968 0.0030350595805793989 0.022629460375756028 -0.00029517343733459706 -0.008699941167142242
leaf_weight=6094 13.000000000000002 15923 11.000000000000002 21 11.999999999999998 11.999999999999998 9.9999999999999982 13.999999999999998 133 15.999999999999998 10.000000000000002 9.9999999999999982 10.000000000000002 9.9999999999999982
leaf_count=6094 13 15923 11 21 12 12 10 14 133 16 10 10 10 10
internal_value=0 -2.70646e-05 -0.00125933 -0.0030226 -0.000448016 -0.00642106 0.00166268 0.00381177 6.89904e-05 0.000873779 0.00693675 0.0128323 -0.000552802 -0.00449756
internal_weight=0 16016 93 58 33 25 35 25 6283 189 36 20 153 20
internal_count=22299 16016 93 58 33 25 35 25 6283 189 36 20 153 20
shrinkage=0.1


Tree=520
num_leaves=15
num_cat=0
split_feature=35 12 35 3 12 18 13 16 33 25 13 33 20 33
split_gain=0.00413111 0.0278857 0.0364818 0.0628485 0.0695496 0.118499 0.0240133 0.0740914 0.0773141 0.0502779 0.0358934 0.114637 0.273987 0.0384131
threshold=0.0012092200000000002 -4.2291949999999997e-05 0.0013210400000000001 -12.395199999999997 5.0650700000000006e-05 -3.5889049999999996e-06 -5.3808099999999991e-05 4.7253100000000003e-05 6.9537150000000011e-06 2.2965900000000006 -4.0032299999999993e-05 1.6902450000000003e-05 1.3654600000000003 2.5984300000000004e-06
decision_type=2 2 2 2 2 2 2 2 2 2 2 2 2 2
left_child=-1 6 3 -3 5 -5 7 8 -2 -10 11 13 -13 -8
right_child=1 2 -4 4 -6 -7 10 -9 9 -11 -12 12 -14 -15
leaf_value=-2.6216003479094933e-05 -0.00083575491586757109 0.0074711751542054124 0.00018772047708681911 0.013213297515030718 -0.002197190846192442 0.00087002192823482408 0.00045306228356873008 0.0015592549314570369 -0.010447869430247107 -0.00255009130840855 -0.00021409390268146752 -0.0013539445453456471 0.016015907510882246 -0.0054363937711709052
leaf_weight=16265 49 18 3623 9.9999999999999982 38 35 53 49 19 13.999999999999998 2075 21 15.999999999999998 13.999999999999998
leaf_count=16265 49 18 3623 10 38 35 53 49 19 14 2075 21 16 14
internal_value=0 7.06668e-05 0.000239979 0.00211457 0.000952897 0.00361297 -0.000202286 -0.00151725 -0.00335564 -0.0070973 -0.000123231 0.00168966 0.00615734 -0.00077757
internal_weight=0 6034 3724 101 83 45 2310 131 82 33 2179 104 37 67
internal_count=22299 6034 3724 101 83 45 2310 131 82 33 2179 104 37 67
shrinkage=0.1


Tree=521
num_leaves=15
num_cat=0
split_feature=2 33 22 13 22 1 6 13 8 31 13 22 13 33
split_gain=0.00420375 0.0353253 0.0548643 0.401504 0.581783 0.545238 0.607384 0.509706 0.359348 0.243772 0.136772 0.110002 0.0973283 0.100331
threshold=-0.99925949999999986 -3.7460849999999998e-06 -1.0504299999999998 -5.4235199999999987e-06 -1.4951299999999998 -7.9871449999999991 3.7005600000000007e-07 -1.2230399999999999e-05 1.2877700000000002e-05 -0.011002899999999998 -5.4235199999999987e-06 -0.062333349999999989 1.9127050000000002e-05 -7.6860149999999987e-07
decision_type=2 2 2 2 2 2 2 2 2 2 2 2 2 2
left_child=1 -1 3 4 -3 9 -7 8 -8 -6 11 -4 13 -5
right_child=-2 2 10 12 5 6 7 -9 -10 -11 -12 -13 -14 -15
leaf_value=-0.00021553319067919906 -3.2930461076127478e-05 -0.00088644664071755848 -0.0033270801627115461 0.0030452384443624934 -9.6529880497735321e-05 0.0031641121341279992 0.0042075534136249452 0.040798991825431591 0.028205030970275404 0.012982773440154761 0.00029328204466724274 -0.00046593751152502588 -0.00074161596256682968 -8.6182659503334332e-05
leaf_weight=2999 14156 114 190 170 57 23 13.000000000000002 11.999999999999998 11.999999999999998 19 3091 459 727 257
leaf_count=2999 14156 114 190 170 57 23 13 12 12 19 3091 459 727 257
internal_value=0 5.72472e-05 0.000216281 0.000749304 0.00438255 0.0087992 0.0159254 0.023858 0.0157263 0.0031733 1.6183e-05 -0.00130356 -3.77931e-05 0.00116052
internal_weight=0 8143 5144 1404 250 136 60 37 25 76 3740 649 1154 427
internal_count=22299 8143 5144 1404 250 136 60 37 25 76 3740 649 1154 427
shrinkage=0.1


Tree=522
num_leaves=15
num_cat=0
split_feature=31 0 11 20 3 14 34 11 7 0 2 22 19 32
split_gain=0.00460366 0.0245728 0.023945 0.0400501 0.0905274 0.0619438 0.0577883 0.0471886 0.0436621 0.0409347 0.0391685 0.0882946 0.244712 0.432189
threshold=0.072599000000000011 7.2773450000000013 -1.3465549999999998e-05 -3.3410599999999993 -12.923849999999998 0.0076471900000000008 0.6802220000000001 -6.9804499999999994e-06 3.2047650000000012e-05 3.1068900000000004 -2.2669549999999998 -2.3085999999999998 1.8396200000000002e-05 0.19034450000000003
decision_type=2 2 2 2 2 2 2 2 2 2 2 2 2 2
left_child=-1 2 10 7 5 6 -5 8 -4 -8 -2 -12 13 -13
right_child=1 -3 3 4 -6 -7 9 -9 -10 -11 11 12 -14 -15
leaf_value=-2.706848810228487e-05 -0.00034807938149495829 0.0005278274344386911 -0.0032169591814454183 -0.0083310757691352211 -0.00032894700135514869 -0.0011254898956394755 -0.0069496151308571386 0.00019263947619324118 -0.00034352508247628488 0.00087934685990844353 -0.00054971964271169154 -0.00023504497443835412 0.00055301492591243006 0.013172779680727135
leaf_weight=16458 790 999 80 34 536 64 11.000000000000002 1678 156 17 504 53 875 44
leaf_count=16458 790 999 80 34 536 64 11 1678 156 17 504 53 875 44
internal_value=0 7.627e-05 -1.68952e-05 -0.000225465 -0.000895922 -0.00330782 -0.00556054 6.42758e-06 -0.00131757 -0.00219632 0.000220208 0.000524373 0.00108131 0.00584685
internal_weight=0 5841 4842 2576 662 126 62 1914 236 28 2266 1476 972 97
internal_count=22299 5841 4842 2576 662 126 62 1914 236 28 2266 1476 972 97
shrinkage=0.1


Tree=523
num_leaves=15
num_cat=0
split_feature=4 38 5 26 5 33 24 38 29 19 35 3 17 13
split_gain=0.00454409 0.00943762 0.0118828 0.00854885 0.012321 0.0311431 0.0115011 0.012865 0.0108509 0.0417197 0.0183618 0.0190778 0.0104315 0.0246431
threshold=0.93067350000000004 5.6022800000000013 1.7532700000000006e-05 5.7979000000000009e-05 1.2121400000000002e-05 -3.8491799999999989e-05 1.3124250000000002 -0.0042965999999999994 0.089235900000000021 0.00044270400000000004 -0.047080199999999996 -11.753499999999999 1.5913500000000003e-05 0.00016776800000000002
decision_type=2 2 2 2 2 2 2 2 2 2 2 2 2 2
left_child=-1 3 -3 8 5 -5 7 -6 10 -10 11 -2 13 -12
right_child=1 2 -4 4 6 -7 -8 -9 9 -11 12 -13 -14 -15
leaf_value=-2.1205171742548918e-05 0.0060556104456190932 -0.0045137964468449339 -4.3518375605344776e-07 0.0053314903768477964 -0.0024468747731972193 0.00063971015702063818 0.0033837837466059932 0.00017284865978561877 -0.0055379461045103042 -0.00016747311011320413 0.00022768468827151652 0.00070615403645206247 -0.00014439778648744415 0.0038833283398018561
leaf_weight=18268 10.000000000000002 10.000000000000002 13.999999999999998 14.999999999999998 19 249 10.999999999999998 1400 17 97 626 20 1524 19
leaf_count=18268 10 10 14 15 19 249 11 1400 17 97 626 20 1524 19
internal_value=0 9.60993e-05 -0.001881 0.000107941 0.000278618 0.000906289 0.000162741 0.000137771 -1.70597e-05 -0.000968333 3.22559e-05 0.00248931 -1.72816e-06 0.00033537
internal_weight=0 4031 24 4007 1694 264 1430 1419 2313 114 2199 30 2169 645
internal_count=22299 4031 24 4007 1694 264 1430 1419 2313 114 2199 30 2169 645
shrinkage=0.1


Tree=524
num_leaves=15
num_cat=0
split_feature=20 11 0 3 14 20 0 0 22 5 21 7 20 10
split_gain=0.00397751 0.0455831 0.0803941 0.155348 0.207524 0.191574 0.219921 0.193817 0.173304 0.201824 0.173165 0.151011 0.322294 0.206337
threshold=4.3779750000000011 -4.8309049999999991e-05 4.2745250000000015 -7.9089249999999991 0.0023278500000000007 9.4874600000000004 8.8772900000000021 8.0669700000000013 -0.40206949999999991 1.4271600000000002e-05 7.8746950000000009 3.247790000000001e-05 6.4118800000000009 5.5065450000000007e-05
decision_type=2 2 2 2 2 2 2 2 2 2 2 2 2 2
left_child=-1 -2 -3 4 5 6 10 -7 -9 -10 11 12 -4 -13
right_child=1 2 3 -5 -6 7 -8 8 9 -11 -12 13 -14 -15
leaf_value=-2.7859327438356579e-05 0.00056381515497101558 -0.00040243218024246303 0.0074122462649532459 -0.00034057839609615221 -0.00058435819383024438 -0.0024823964913862333 -0.0038679791073239337 -0.0059821787523105744 0.016479719662782048 0.00026614430077773123 -0.0019882826539886571 0.007518415687748266 -0.0041217113286256789 0.00092542286376377238
leaf_weight=15538 1437 3081 47 1275 355 122 37 9.9999999999999982 17.000000000000004 13.999999999999998 41 214 50 61
leaf_count=15538 1437 3081 47 1275 355 122 37 10 17 14 41 214 50 61
internal_value=0 6.40258e-05 -7.08723e-05 0.000384561 0.00133968 0.00245392 0.00351788 -0.000483392 0.00546487 0.00915746 0.00417957 0.00485936 0.00146691 0.00605597
internal_weight=0 6761 5324 2243 968 613 450 163 41 31 413 372 97 275
internal_count=22299 6761 5324 2243 968 613 450 163 41 31 413 372 97 275
shrinkage=0.1


Tree=525
num_leaves=15
num_cat=0
split_feature=3 23 3 23 14 3 23 14 7 20 0 5 25 28
split_gain=0.00516111 0.0207401 0.0903547 0.426682 0.357691 0.10961 0.315521 0.188173 0.116716 0.200084 0.213987 0.17092 0.223692 0.192472
threshold=-7.4146649999999985 -8.6210549999999966 -8.6023199999999989 -9.9859899999999993 0.00073300000000000004 -10.813299999999998 -10.976349999999998 0.0024903750000000004 6.0285150000000007e-05 7.4969050000000008 5.4646700000000008 2.1876800000000004e-05 0.73949450000000005 -0.004176029999999999
decision_type=2 2 2 2 2 2 2 2 2 2 2 2 2 2
left_child=1 2 5 -4 -5 -1 -7 8 11 -10 -11 13 -13 -8
right_child=-2 -3 3 4 -6 6 7 -9 9 10 -12 12 -14 -15
leaf_value=-0.0002782402211242654 6.2533621599085646e-05 0.00011137784314205555 8.4915080222644739e-05 -0.0060212341707071518 -0.00013101562343650953 -0.00036483939639339933 0.0064356091335402241 0.0002340761299156047 -0.0015530963788256656 -3.2060418743640174e-05 0.019774767123162746 0.0033723761048167935 0.021690073326074831 0.0019280083229308736
leaf_weight=4127 8291 5632 1389 245 178 1458 137 385 101 12.000000000000002 9.9999999999999982 15.000000000000002 11.999999999999998 307
leaf_count=4127 8291 5632 1389 245 178 1458 137 385 101 12 10 15 12 307
internal_value=0 -3.70122e-05 -0.000136789 -0.000761907 -0.00354261 3.57754e-05 0.000567553 0.00195614 0.0030723 0.00032927 0.00897104 0.00378863 0.0115136 0.00331887
internal_weight=0 14008 8376 1812 423 6564 2437 979 594 123 22 471 27 444
internal_count=22299 14008 8376 1812 423 6564 2437 979 594 123 22 471 27 444
shrinkage=0.1


Tree=526
num_leaves=15
num_cat=0
split_feature=23 3 14 3 23 35 9 20 16 2 21 21 0 35
split_gain=0.00488332 0.0256911 0.0616977 0.0422059 0.140014 0.0841641 0.0731628 0.0543069 0.0938307 0.0938276 0.180104 0.129778 0.0686737 0.0410357
threshold=-15.973899999999999 -6.0235649999999987 0.00077369700000000016 -15.821599999999998 -16.491149999999998 -0.0012853949999999997 4.8278650000000006e-05 2.2422150000000003 7.1204500000000006e-06 1.4101200000000003 -3.2927399999999998 4.5487400000000013 1.3520500000000002 0.00031895450000000004
decision_type=2 2 2 2 2 2 2 2 2 2 2 2 2 2
left_child=1 2 -1 4 6 -6 7 8 9 10 -4 -11 -9 -12
right_child=-2 -3 3 -5 5 -7 -8 12 -10 11 13 -13 -14 -15
leaf_value=0.001024909189143735 -1.6255720859451937e-05 -0.00054453694061457286 0.0086588297711892269 -0.00039030823692669139 0.0022932029329240317 0.014969039081849836 0.008156190533190966 -0.0056329356358301918 -0.0036999351025799351 0.001791342347860336 -0.006968357977974746 0.016706967684149279 0.0025274971282730502 -0.0002159314954446422
leaf_weight=723 19898 452 18 1037 10.000000000000002 10.999999999999998 10.999999999999998 33 31 14.000000000000002 18 9.9999999999999982 14.999999999999998 18
leaf_count=723 19898 452 18 1037 10 11 11 33 31 14 18 10 15 18
internal_value=0 0.000134717 0.000292246 -0.000139822 0.00123454 0.00893293 0.000272237 -0.000280141 0.000954057 0.00280372 0.000491513 0.00800619 -0.0030828 -0.00359214
internal_weight=0 2401 1949 1226 189 21 168 157 109 78 54 24 48 36
internal_count=22299 2401 1949 1226 189 21 168 157 109 78 54 24 48 36
shrinkage=0.1


Tree=527
num_leaves=15
num_cat=0
split_feature=16 35 13 32 15 37 4 32 31 7 30 17 26 35
split_gain=0.00497044 0.0168041 0.0352503 0.035716 0.0437596 0.081444 0.12896 0.18989 0.0900877 0.0716503 0.0995404 0.0516882 0.0430467 0.0422182
threshold=4.5816150000000005e-06 -0.00026799349999999996 2.2173350000000003e-05 -1.6966949999999998 -6.5808149999999991e-06 1.3520100000000005e-07 0.210429 0.05716245000000001 -0.37612899999999994 4.9983200000000006e-05 0.0010736500000000002 4.1337350000000007e-06 0.00015089000000000001 -0.00036602049999999995
decision_type=2 2 2 2 2 2 2 2 2 2 2 2 2 2
left_child=-1 2 3 12 -5 11 7 -7 -9 10 -10 13 -2 -6
right_child=1 -3 -4 4 5 6 -8 8 9 -11 -12 -13 -14 -15
leaf_value=-2.5143229882455377e-05 0.0096658011630643137 -6.2852541858432961e-05 2.3541257504360158e-05 -0.00020214424589428163 0.0012535277353697197 0.018112950437617573 -0.00068285309268716488 0.010105322523870404 0.011796032307812799 -0.0019740323622245344 -0.00015929448107878367 -0.0011988079235677354 0.0015600746252426977 0.0080879653338342909
leaf_weight=17372 10.000000000000002 2945 1345 265 94 10.999999999999998 47 18 13.000000000000002 25 14.999999999999998 110 19 9.9999999999999982
leaf_count=17372 10 2945 1345 265 94 11 47 18 13 25 15 110 19 10
internal_value=0 8.8652e-05 0.000313768 0.000926571 0.000763037 0.00150873 0.00349343 0.00588715 0.00399301 0.00191714 0.00539139 0.000312348 0.00435515 0.00191069
internal_weight=0 4927 1982 637 608 343 129 82 71 53 28 214 29 104
internal_count=22299 4927 1982 637 608 343 129 82 71 53 28 214 29 104
shrinkage=0.1


Tree=528
num_leaves=15
num_cat=0
split_feature=13 13 34 37 37 4 24 4 24 33 33 12 4 22
split_gain=0.00529257 0.0153436 0.0545545 0.0703877 0.124518 0.0848395 0.130847 0.115586 0.0834391 0.0736911 0.0925665 0.189527 0.128932 0.174968
threshold=5.5414750000000007e-05 2.8108550000000004e-05 0.0070577850000000013 1.8293850000000001e-07 1.8026200000000003e-07 -0.073493349999999985 -1.0078699999999998 -1.1063349999999998 0.97722050000000016 -1.1859599999999999e-05 -3.0237949999999997e-05 0.00011129550000000002 0.26399550000000005 0.49186450000000004
decision_type=2 2 2 2 2 2 2 2 2 2 2 2 2 2
left_child=1 -1 -3 4 -4 6 7 -5 9 10 -7 12 13 -12
right_child=-2 2 3 5 -6 8 -8 -9 -10 -11 11 -13 -14 -15
leaf_value=8.1182138744965762e-06 7.7175439861573196e-05 0.00094498667465417485 -0.00076827973806286849 0.014206627001985904 -0.010602845469167314 0.0015808362422928138 -0.0019062618558762 -0.00064815545285289936 -0.0039523591026663779 0.00057499074086081231 0.019094118438661094 0.018725386411163277 -0.0015604453937460979 0.00081761768934401609
leaf_weight=13781 6354 312 1331 10.000000000000002 12.999999999999998 75 184 10.999999999999998 25 150 10.000000000000002 10.999999999999998 21 10.999999999999998
leaf_count=13781 6354 312 1331 10 13 75 184 11 25 150 10 11 21 11
internal_value=0 -3.0754e-05 -0.000278304 -0.000484388 -0.000863406 0.000518369 -0.00105276 0.00642555 0.00158134 0.00207898 0.00384147 0.00704047 0.00398013 0.00952071
internal_weight=0 15945 2164 1852 1344 508 205 21 303 278 128 53 42 21
internal_count=22299 15945 2164 1852 1344 508 205 21 303 278 128 53 42 21
shrinkage=0.1


Tree=529
num_leaves=15
num_cat=0
split_feature=11 28 13 7 5 10 33 29 5 29 19 19 33 14
split_gain=0.0049156 0.0318812 0.0802322 0.0612821 0.0596739 0.0570306 0.0534355 0.0438696 0.195121 0.0718407 0.0627766 0.127937 0.15444 0.0429781
threshold=1.8404100000000006e-05 0.012125900000000002 2.2173350000000003e-05 4.8742200000000009e-05 9.3138400000000033e-06 4.4615250000000003e-05 -1.117395e-06 -0.016926749999999994 1.0489950000000001e-05 -0.019926299999999997 2.1900450000000003e-07 1.3306300000000002e-06 -1.9125599999999995e-05 0.00017223500000000005
decision_type=2 2 2 2 2 2 2 2 2 2 2 2 2 2
left_child=-1 -2 3 5 6 13 -4 8 -6 10 -10 12 -12 -3
right_child=1 2 4 -5 7 -7 -8 -9 9 -11 11 -13 -14 -15
leaf_value=3.3353631517909409e-05 3.4120289415956734e-05 0.0020584083405201853 -0.0089789578440384234 -0.00039065698688244601 0.011708665063933414 -0.0082210412510903552 -0.00089235461346106606 -0.00022996198373423881 -0.0050614407635293903 0.0085707994643598791 0.013954541906714435 -3.0429646486438631e-05 -0.0020891731535084548 -0.0024580503130272272
leaf_weight=14820 6053 23 12.999999999999998 307 17 15.999999999999998 22 511 20 10.999999999999998 15.000000000000002 210 9.9999999999999982 251
leaf_count=14820 6053 23 13 307 17 16 22 511 20 11 15 210 10 251
internal_value=0 -6.60918e-05 -0.000491466 -0.00137537 0.000145072 -0.00241781 -0.00389595 0.000323203 0.00132203 0.000658219 0.000316892 0.000774622 0.00753706 -0.00207893
internal_weight=0 7479 1426 597 829 290 35 794 283 266 255 235 25 274
internal_count=22299 7479 1426 597 829 290 35 794 283 266 255 235 25 274
shrinkage=0.1


Tree=530
num_leaves=15
num_cat=0
split_feature=31 5 21 0 11 10 20 19 28 34 20 21 38 19
split_gain=0.00506293 0.0227065 0.0391678 0.0200381 0.0182018 0.0418941 0.197173 0.271557 0.247408 0.115609 0.0742244 0.07286 0.0593799 0.0618271
threshold=0.072599000000000011 6.4921000000000009e-06 -0.61466499999999991 7.2773450000000013 -1.3465549999999998e-05 1.7996800000000004e-05 -3.5336099999999995 3.2503650000000009e-05 -0.025617649999999995 0.16356600000000002 0.059550600000000002 7.2199450000000009 0.0017706250000000003 2.9823300000000003e-05
decision_type=2 2 2 2 2 2 2 2 2 2 2 2 2 2
left_child=-1 2 -2 4 5 6 11 8 -8 -9 -11 12 -3 -14
right_child=1 3 -4 -5 -6 -7 7 9 -10 10 -12 -13 13 -15
leaf_value=-2.8386590473538129e-05 -0.0074068014467643037 0.00019075145204213538 0.00034477387016522702 0.0005014869982149754 -0.00017295343068895794 4.7346151399741489e-05 0.021445662993937728 0.010837795701809228 0.001394763607531786 -0.002098471170624676 0.0055241924581221416 0.0059765710342617245 -0.0089646856598847077 -0.0017056520420407073
leaf_weight=16458 11.000000000000002 124 15.999999999999998 997 2568 1949 16.000000000000004 11.999999999999998 9.9999999999999982 44 18 15.999999999999998 15.999999999999998 44
leaf_count=16458 11 124 16 997 2568 1949 16 12 10 44 18 16 16 44
internal_value=0 7.9984e-05 -0.00281328 9.34202e-05 8.96044e-06 0.000216677 0.00131676 0.00494235 0.0137338 0.00185346 0.00011456 -0.000496027 -0.00105886 -0.00364139
internal_weight=0 5841 27 5814 4817 2249 300 100 26 74 62 200 184 60
internal_count=22299 5841 27 5814 4817 2249 300 100 26 74 62 200 184 60
shrinkage=0.1


Tree=531
num_leaves=15
num_cat=0
split_feature=18 19 37 35 37 20 18 3 4 22 9 13 13 21
split_gain=0.00489577 0.0185507 0.119168 0.0205158 0.0192675 0.0116442 0.0603963 0.0135838 0.0130561 0.0113769 0.0114885 0.0120983 0.0110563 0.0109082
threshold=-0.00019607549999999996 2.1170350000000003e-05 -5.1859049999999995e-07 -0.00081900949999999995 -1.6129099999999998e-07 18.386200000000002 -2.8202949999999996e-06 -9.7137299999999982 1.1082250000000002 -2.5400249999999995 -3.1144849999999997e-05 6.7684000000000011e-05 5.3955750000000013e-05 -16.273949999999996
decision_type=2 2 2 2 2 2 2 2 2 2 2 2 2 2
left_child=1 2 -1 -4 -5 13 -7 8 -8 10 -3 12 -12 -2
right_child=5 9 3 4 -6 6 7 -9 -10 -11 11 -13 -14 -15
leaf_value=0.011265471378679981 -0.0013860371769439199 -0.00038161082394505319 -0.0026966795599467955 0.0050774228246882568 0.00029876280836847236 0.00741764112160756 0.0036233483318937939 -0.0010255660748330426 -0.00085204770280556243 1.2527750446894211e-05 0.0014561205768387016 0.00045548935773551038 0.0049781340966001154 -2.4063263108045255e-05
leaf_weight=10.999999999999998 59 94 19 9.9999999999999982 54 12.999999999999998 16.000000000000004 46 10.999999999999998 3840 82 202 9.9999999999999982 17832
leaf_count=11 59 94 19 10 54 13 16 46 11 3840 82 202 10 17832
internal_value=0 9.55618e-05 0.00148501 0.000188801 0.00104543 -2.29748e-05 0.00113784 1.95207e-05 0.00180004 6.46706e-05 0.000580723 0.000888408 0.00183895 -2.85547e-05
internal_weight=0 4322 94 83 64 17977 86 73 27 4228 388 294 92 17891
internal_count=22299 4322 94 83 64 17977 86 73 27 4228 388 294 92 17891
shrinkage=0.1


Tree=532
num_leaves=15
num_cat=0
split_feature=4 14 23 21 8 18 10 1 1 18 23 11 15 23
split_gain=0.00482423 0.00883271 0.0234327 0.0336563 0.0369624 0.0388236 0.0639776 0.104681 0.0288295 0.0282763 0.0456644 0.0769007 0.0523722 0.062303
threshold=0.93067350000000004 0.00022219550000000004 -7.2804749999999991 -11.313099999999997 1.7153700000000001e-05 -1.5775299999999999e-06 1.2705150000000003e-05 -4.9188699999999992 -1.4756699999999998 -0.00019607549999999996 -16.491149999999998 0.00013973350000000005 2.9158450000000003e-08 -16.786249999999999
decision_type=2 2 2 2 2 2 2 2 2 2 2 2 2 2
left_child=1 -1 3 4 5 6 -3 -8 -7 -5 11 12 -11 -14
right_child=-2 2 -4 9 -6 8 7 -9 -10 10 -12 -13 13 -15
leaf_value=6.7904138719009552e-05 9.9017117382404311e-05 -0.0072258562408387657 0.00019553844488392173 0.00010395389340295026 -0.0057934197229578309 -0.0072257023009504864 0.010793702652445064 -0.00027080456505754522 -0.0016337314413653479 0.0011116434799977851 -0.00037588177995494639 0.0073461475549265742 -3.422743953618569e-05 -0.0040038737285129251
leaf_weight=6852 4031 9.9999999999999982 2490 3307 19 13.999999999999998 9.9999999999999982 59 27 378 4790 15.999999999999998 249 47
leaf_count=6852 4031 10 2490 3307 19 14 10 59 27 378 4790 16 249 47
internal_value=0 -2.1849e-05 -7.57198e-05 -0.00015139 -0.00169528 -0.00104641 0.00024938 0.00133275 -0.00354318 -0.000126967 -0.000266321 0.000494253 0.000331597 -0.000664543
internal_weight=0 18268 11416 8926 139 120 79 69 41 8787 5480 690 674 296
internal_count=22299 18268 11416 8926 139 120 79 69 41 8787 5480 690 674 296
shrinkage=0.1


Tree=533
num_leaves=15
num_cat=0
split_feature=10 25 9 24 13 13 32 32 6 29 33 26 2 33
split_gain=0.00514229 0.0193 0.0700432 0.0257159 0.0227464 0.0193969 0.041964 0.13945 0.0807074 0.0675465 0.20269 0.0591419 0.0682231 0.0588682
threshold=2.4033300000000002e-05 0.15031150000000001 1.7884200000000004e-05 -0.082671749999999988 -1.0213099999999999e-05 -4.7213149999999994e-05 0.23476300000000003 0.055022800000000004 3.4136500000000007e-07 0.018948950000000003 2.5436850000000004e-05 9.2492850000000013e-05 -0.99925949999999986 1.0061280000000002e-05
decision_type=2 2 2 2 2 2 2 2 2 2 2 2 2 2
left_child=1 2 3 -1 -5 6 7 9 -9 10 -3 12 -8 -10
right_child=-2 5 -4 4 -6 -7 11 8 13 -11 -12 -13 -14 -15
leaf_value=-0.0018112295265327151 -3.3795402059527846e-05 -0.00042644210612429893 0.008007506084894497 0.0055740235936051858 0.00062394391691380341 8.1734600533487441e-05 0.010809011579575865 0.00056318441427058799 -0.0051439511711942019 -0.0055433132663546582 0.014274331312626601 -0.002314792270772159 0.0011637265201319348 -0.014160281592713937
leaf_weight=33 14913 151 13.999999999999998 11.999999999999998 41 7009 10.999999999999998 10.999999999999998 15.000000000000002 21 9.9999999999999982 22 22 13.999999999999998
leaf_count=33 14913 151 14 12 41 7009 11 11 15 21 10 22 22 14
internal_value=0 6.8236e-05 0.00144804 0.000380226 0.00174472 4.92981e-05 -0.00077145 -0.00138409 -0.0067302 -0.000209116 0.000486649 0.00170138 0.00437882 -0.00949666
internal_weight=0 7386 100 86 53 7286 277 222 40 182 161 55 33 29
internal_count=22299 7386 100 86 53 7286 277 222 40 182 161 55 33 29
shrinkage=0.1


Tree=534
num_leaves=15
num_cat=0
split_feature=2 22 22 0 6 1 21 14 23 0 23 11 14 21
split_gain=0.0045912 0.0247476 0.091399 0.464146 0.30082 0.35796 0.690151 0.579356 0.394393 0.392894 0.322576 0.166667 0.420771 0.181561
threshold=-0.99925949999999986 -1.6695199999999997 -1.0504299999999998 -0.69676399999999983 -1.1593049999999998e-06 -7.9871449999999991 -8.4573449999999983 0.0032342650000000005 -13.432749999999997 2.5597050000000006 -8.546364999999998 1.2332500000000003e-05 0.00023124450000000003 -10.562449999999998
decision_type=2 2 2 2 2 2 2 2 2 2 2 2 2 2
left_child=1 -1 3 -3 -5 10 -7 8 -8 -10 -6 12 13 -12
right_child=-2 2 -4 4 5 6 7 -9 9 -11 11 -13 -14 -15
leaf_value=-0.00023704277041456737 -3.4414577829318145e-05 -0.0006583606192244254 5.0873567586846566e-06 -0.0016997037554092995 -0.002484436909092919 -0.0025921203289932062 0.0067845346914096319 0.0058904675697605755 0.039724964648485177 0.017197481989860538 0.010575955305714162 -0.0039611816487608439 0.026101073125998183 -0.0023925718655319586
leaf_weight=2088 14156 538 5204 68 68 31 10.999999999999998 37 16.000000000000004 14.999999999999998 24.999999999999996 10.999999999999998 11.999999999999998 19.000000000000004
leaf_count=2088 14156 538 5204 68 68 31 11 37 16 15 25 11 12 19
internal_value=0 5.98272e-05 0.0001622 0.00112297 0.0041848 0.00581805 0.0100526 0.0150144 0.0230522 0.0288246 0.00236769 0.00729224 0.00950273 0.00497591
internal_weight=0 8143 6055 851 313 245 110 79 42 31 135 67 56 44
internal_count=22299 8143 6055 851 313 245 110 79 42 31 135 67 56 44
shrinkage=0.1


Tree=535
num_leaves=15
num_cat=0
split_feature=20 11 34 0 3 14 14 3 24 36 9 20 12 18
split_gain=0.00522899 0.0181554 0.0302084 0.065745 0.0914729 0.129194 0.0809541 0.130366 0.0908759 0.159278 0.0795542 0.2643 0.203363 0.173959
threshold=-5.4229999999999992 4.2282750000000004e-05 0.070512600000000009 -5.6776899999999992 -6.0971649999999995 0.0016310700000000003 0.00056584850000000015 -6.401514999999999 -0.20467949999999999 0.00089701950000000005 -3.5302349999999999e-05 -8.1590649999999982 3.2520700000000009e-05 -1.3109199999999999e-06
decision_type=2 2 2 2 2 2 2 2 2 2 2 2 2 2
left_child=1 2 3 6 5 -5 7 8 -1 10 -10 -12 13 -13
right_child=-2 -3 -4 4 -6 -7 -8 -9 9 -11 11 12 -14 -15
leaf_value=-0.0034560968107341427 -2.6751253731288261e-05 0.0004359217347698638 0.00037804555000257043 -0.0017022753658496811 0.00083354515360742907 0.00018496537310729909 -0.00094218344316665959 -0.00038228369785364594 0.0010648946831497597 0.012464993918205009 -0.00058764933984583386 -0.0034476184429457555 0.021485761019655252 0.010209971830728606
leaf_weight=23 17085 1163 1331 846 387 635 261 282 160 17 52 12.999999999999998 10.999999999999998 33
leaf_count=23 17085 1163 1331 846 387 635 261 282 160 17 52 13 11 33
internal_value=0 8.76573e-05 -1.23258e-05 -0.000203349 -0.00053538 -0.000893094 0.000524624 0.0011724 0.00259124 0.00307757 0.00248431 0.00456785 0.00927111 0.00635022
internal_weight=0 5214 4051 2720 1868 1481 852 591 309 286 269 109 57 46
internal_count=22299 5214 4051 2720 1868 1481 852 591 309 286 269 109 57 46
shrinkage=0.1


Tree=536
num_leaves=15
num_cat=0
split_feature=3 20 0 9 23 3 5 11 31 0 28 34 39 3
split_gain=0.00470925 0.0321511 0.0555827 0.0375591 0.0922948 0.13336 0.205076 0.0412106 0.0359811 0.0356268 0.0342535 0.0218994 0.0409601 0.0386406
threshold=-9.049294999999999 7.3616200000000012 7.8525350000000005 2.6990300000000001e-05 -9.8381649999999983 -13.194549999999998 1.4239100000000002e-05 6.2720100000000016e-05 -0.041132999999999996 5.5612450000000004 -0.0053193299999999997 0.037551950000000008 0.00014406550000000003 -6.0725999999999987
decision_type=2 2 2 2 2 2 2 2 2 2 2 2 2 2
left_child=1 -1 3 -3 5 -5 -7 8 9 -6 -8 13 -13 -2
right_child=11 2 -4 4 7 6 10 -9 -10 -11 -12 12 -14 -15
leaf_value=-0.00012859214780002072 -0.00029010003733548985 0.00056917084076048795 0.0059017921254659695 -0.0064194492826407604 -0.0013225667009299452 0.016897175926715136 0.0053315210156142717 -0.00074608169599847684 -0.0010469146943823608 -0.0082926427754996864 -0.0020152589306235312 0.00040611400554728882 -8.5080353958537453e-05 0.00025578397810891053
leaf_weight=8283 3783 1153 18 10.999999999999998 10.999999999999998 11.999999999999998 10.999999999999998 189 27 22 15.000000000000002 3418 3373 1973
leaf_count=8283 3783 1153 18 11 11 12 11 189 27 22 15 3418 3373 1973
internal_value=0 -5.21262e-05 0.000379029 0.000310518 -0.000690243 0.00327694 0.00608379 -0.00147093 -0.00375422 -0.00596928 0.00109299 4.05145e-05 0.000162144 -0.000102986
internal_weight=0 9752 1469 1451 298 49 38 249 60 33 26 12547 6791 5756
internal_count=22299 9752 1469 1451 298 49 38 249 60 33 26 12547 6791 5756
shrinkage=0.1


Tree=537
num_leaves=15
num_cat=0
split_feature=2 22 19 0 23 1 22 19 0 29 33 19 25 1
split_gain=0.00504504 0.170833 0.12786 0.127126 0.103337 0.0944496 0.0686378 0.0441348 0.0609542 0.0297215 0.0238515 0.0217037 0.0183044 0.0197871
threshold=-2.7883099999999996 -2.7756699999999994 7.3004200000000008e-05 -8.6447399999999988 -8.1679949999999977 -1.4756699999999998 -2.3659499999999993 3.9135900000000011e-06 -10.206549999999998 0.0043060250000000007 -4.4135199999999997e-07 2.5573700000000003e-06 0.91432000000000013 -2.9345299999999996
decision_type=2 2 2 2 2 2 2 2 2 2 2 2 2 2
left_child=1 2 3 4 -1 -5 7 8 -3 10 11 12 13 -8
right_child=-2 6 -4 5 -6 -7 9 -9 -10 -11 -12 -13 -14 -15
leaf_value=-0.0026797872371389533 -1.0989516902436018e-05 -0.0016649520271183813 -0.0011674306196423627 0.020070060417056078 0.0085172045099384652 0.007523507531732321 0.00078655386622995143 -0.00077143042839856622 -0.01026447195908986 -0.00085232135935621759 0.00097258550629914723 0.00055575198222493154 0.00055264443060598124 -0.0023898020789671977
leaf_weight=15.999999999999998 21169 17 27 10.000000000000002 17 14.999999999999998 25 36 15.999999999999998 257 362 189 52 91
leaf_count=16 21169 17 27 10 17 15 25 36 16 257 362 189 52 91
internal_value=0 0.000205874 0.00451704 0.00716326 0.00308836 0.0125421 -0.000144796 -0.00319286 -0.00583442 7.06925e-05 0.000400615 -0.000179366 -0.00100637 -0.00170524
internal_weight=0 1130 85 58 33 25 1045 69 33 976 719 357 168 116
internal_count=22299 1130 85 58 33 25 1045 69 33 976 719 357 168 116
shrinkage=0.1


Tree=538
num_leaves=15
num_cat=0
split_feature=20 0 23 3 3 29 23 26 26 20 34 0 23 11
split_gain=0.00496466 0.022695 0.0299598 0.0246097 0.0228838 0.0425551 0.0702624 0.0299257 0.0400599 0.024229 0.0283893 0.0240828 0.138289 0.137789
threshold=-2.7391899999999993 -10.206549999999998 -6.1690649999999989 -8.3380249999999982 -8.4709699999999994 0.0036977400000000001 -7.2147949999999996 -0.00017056349999999997 -0.00010270049999999998 -7.0662949999999993 0.016088000000000002 -4.5652049999999988 -8.7470849999999984 -9.474599999999999e-05
decision_type=2 2 2 2 2 2 2 2 2 2 2 2 2 2
left_child=1 2 -1 4 11 6 -6 -7 -9 10 -10 12 13 -3
right_child=-2 3 -4 -5 5 7 -8 8 9 -11 -12 -13 -14 -15
leaf_value=-0.00064697958485002561 -3.5977495634449685e-05 -0.00035259881182583754 0.0046227653002874416 0.0003093300432216491 -0.010596278903540222 -0.0030030051929756038 -0.0004737324379675556 0.0062686160884120254 0.00071036816270162264 0.0014612269231399884 -0.0058984043990046933 -0.00014020878112880791 -0.0011098425020742023 0.0028022047151055646
leaf_weight=561 14101 247 10.999999999999998 3370 12.000000000000002 31 15.999999999999998 10.999999999999998 13.000000000000002 34 12.999999999999998 3211 353 315
leaf_count=561 14101 247 11 3370 12 31 16 11 13 34 13 3211 353 315
internal_value=0 6.18832e-05 -0.000545638 0.000107451 -5.24009e-05 -0.00135874 -0.00481197 -0.000410795 0.000721014 -0.000296046 -0.00259402 -1.12414e-05 0.000441342 0.00141566
internal_weight=0 8198 572 7626 4256 130 28 102 71 60 26 4126 915 562
internal_count=22299 8198 572 7626 4256 130 28 102 71 60 26 4126 915 562
shrinkage=0.1


Tree=539
num_leaves=15
num_cat=0
split_feature=4 23 7 23 4 16 15 19 37 16 0 7 7 13
split_gain=0.00526162 0.00865221 0.0322821 0.0494951 0.0744833 0.127703 0.0670951 0.0589307 0.0393949 0.0691613 0.0861821 0.0528378 0.032306 0.0388343
threshold=0.93067350000000004 -7.6950299999999991 3.581860000000001e-05 -7.5900949999999989 0.10254900000000002 -2.1360349999999997e-07 2.4708200000000003e-08 4.5111750000000007e-08 -2.0995299999999997e-07 6.2123600000000012e-08 -0.15708849999999996 2.7650250000000002e-05 3.8717850000000007e-05 3.2492750000000005e-05
decision_type=2 2 2 2 2 2 2 2 2 2 2 2 2 2
left_child=1 -1 3 4 6 -6 -3 -8 9 11 -11 -5 13 -4
right_child=-2 2 12 8 5 -7 7 -9 -10 10 -12 -13 -14 -15
leaf_value=-6.6475715308971062e-05 0.00010340844454261066 0.0023184313865922709 -0.001641481052131448 0.0033281614424930401 0.001027554867323488 0.012768967976444402 -0.0094675559177994709 -6.5636241633910681e-05 0.00039908897336835551 -0.0096841403283178806 -0.0014703837588471785 -0.0014691957653949744 7.2158605390336246e-06 0.00050007729211844687
leaf_weight=13026 4031 83 267 38 22 15.999999999999998 10.000000000000002 20 1702 18 44 58 2840 124
leaf_count=13026 4031 83 267 38 22 16 10 20 1702 18 44 58 2840 124
internal_value=0 -2.2818e-05 8.56683e-05 0.000400222 0.0021414 0.00597131 0.000853465 -0.00319961 0.000258868 -0.00125161 -0.00385502 0.000429758 -0.000110112 -0.000962317
internal_weight=0 18268 5242 2011 151 38 113 30 1860 158 62 96 3231 391
internal_count=22299 18268 5242 2011 151 38 113 30 1860 158 62 96 3231 391
shrinkage=0.1


Tree=540
num_leaves=15
num_cat=0
split_feature=0 20 0 15 20 5 33 11 37 24 34 0 24 14
split_gain=0.00519728 0.0205505 0.06402 0.0803087 0.0502673 0.0429023 0.0556303 0.0421223 0.0418566 0.0574252 0.0259605 0.0178776 0.0341471 0.0161687
threshold=-9.3304649999999985 -9.2956449999999986 -12.210999999999999 -4.5120349999999995e-07 -3.1226749999999996 1.7238000000000003e-05 -4.6579499999999992e-06 -1.0731849999999998e-05 -2.1173049999999996e-08 0.075621650000000012 0.0032052050000000005 -9.5826849999999997 -0.15553049999999999 0.00013973650000000004
decision_type=2 2 2 2 2 2 2 2 2 2 2 2 2 2
left_child=1 2 -1 -4 10 6 -5 8 9 -8 -3 -12 -13 -10
right_child=-2 4 3 5 -6 -7 7 -9 13 -11 11 12 -14 -15
leaf_value=-0.0014580578076689003 -1.5394013067831534e-05 -0.0053658491073292685 -0.0038482749873461823 -0.0018844704101370138 0.00037986572305554665 0.00062855907957642693 0.013270837243865519 0.00014782395949375563 0.0018281548043402524 0.0044417529868391844 -0.00048793758488419346 -0.0064659136657913528 -0.000553208461496979 0.0070192866399884229
leaf_weight=65 20241 11.999999999999998 18 10.999999999999998 1321 39 17 10.999999999999998 15.000000000000005 12.999999999999998 483 14.999999999999998 28 9.9999999999999982
leaf_count=65 20241 12 18 11 1321 39 17 11 15 13 483 15 28 10
internal_value=0 0.000151404 0.00111724 0.00236645 4.80151e-05 0.0033308 0.00469947 0.00579679 0.00692659 0.0094449 -0.000766808 -0.000661887 -0.00261578 0.00390461
internal_weight=0 2058 199 134 1859 116 77 66 55 30 538 526 43 25
internal_count=22299 2058 199 134 1859 116 77 66 55 30 538 526 43 25
shrinkage=0.1


Tree=541
num_leaves=15
num_cat=0
split_feature=20 11 34 0 14 0 20 14 34 0 18 22 2 33
split_gain=0.00461859 0.0168628 0.024623 0.0226349 0.0429029 0.0542649 0.39523 0.248236 0.278638 0.148957 0.118009 0.117596 0.124369 0.0846819
threshold=-4.8296149999999995 4.2282750000000004e-05 0.14344500000000002 -4.2055399999999992 0.0043134550000000016 -6.3288699999999993 -5.9904249999999992 0.00037720150000000008 0.030794550000000004 -4.5652049999999988 2.4958100000000002e-06 -2.3322399999999992 2.4567750000000004 1.3325250000000001e-05
decision_type=2 2 2 2 2 2 2 2 2 2 2 2 2 2
left_child=1 3 -3 4 5 -1 13 8 -8 10 11 -9 -13 -7
right_child=-2 2 -4 -5 -6 6 7 9 -10 -11 -12 12 -14 -15
leaf_value=0.00011722607995041093 -2.6917421215622464e-05 0.00066714542708557032 -0.00031296434684569083 -0.0002034743605884696 -0.00067511847955387485 -0.00095004761805861284 0.026492429194816692 0.013854761668092883 0.0044582503974776371 0.015026640197770162 -0.0035635517607509183 -0.0020606155709727951 0.0098938142182305455 0.0039239681480067682
leaf_weight=1055 16520 929 354 2628 394 273 12.000000000000002 11.999999999999998 10.999999999999998 10.999999999999998 22 23 13.999999999999998 41
leaf_count=1055 16520 929 354 2628 394 273 12 12 11 11 22 23 14 41
internal_value=0 7.69468e-05 0.000396718 -1.43045e-05 0.00025183 0.000499603 0.00146239 0.00677354 0.0159543 0.00419843 0.00252082 0.00525258 0.00246268 -0.000313632
internal_weight=0 5779 1283 4496 1868 1474 419 105 23 82 71 49 37 314
internal_count=22299 5779 1283 4496 1868 1474 419 105 23 82 71 49 37 314
shrinkage=0.1


Tree=542
num_leaves=15
num_cat=0
split_feature=4 37 4 7 7 2 4 0 30 0 3 3 20 24
split_gain=0.00470582 0.00799998 0.0324609 0.0556984 0.0514633 0.0750293 0.0327281 0.0272749 0.0191279 0.0202018 0.0192823 0.0137173 0.0401879 0.0173333
threshold=0.93067350000000004 1.9041600000000001e-05 -0.24203399999999997 2.6262200000000004e-05 3.2189500000000007e-05 1.3169650000000002 -0.19053199999999998 8.365140000000002 0.027292350000000003 6.5759800000000004 -9.6708399999999983 -14.166599999999997 -10.745749999999997 -1.4089199999999997
decision_type=2 2 2 2 2 2 2 2 2 2 2 2 2 2
left_child=1 -1 3 -3 5 -5 -4 8 10 11 -6 12 -10 -13
right_child=-2 2 6 4 7 -7 -8 -9 9 -11 -12 13 -14 -15
leaf_value=-3.448155546140983e-05 9.7794426456854712e-05 -0.0075619770679622896 0.0062246006066826263 -0.00089136934063086893 -0.0055142511755028462 0.0097173025171893353 0.00069851086708230662 -0.0047862450839602395 -0.002842706377365781 0.0040824402345937087 -0.00035402092927445971 -0.0022047994594546392 0.0047157245831947556 0.00023642681780708673
leaf_weight=17599 4031 10.999999999999998 10.999999999999998 15.000000000000002 14.000000000000002 11.999999999999998 417 15.999999999999998 12.000000000000002 10.999999999999998 14.999999999999998 52 17 66
leaf_count=17599 4031 11 11 15 14 12 417 16 12 11 15 52 17 66
internal_value=0 -2.15792e-05 0.000317835 -0.000610449 -0.000277984 0.0038236 0.000840537 -0.000823515 -0.000484457 -5.11628e-05 -0.00284517 -0.00036048 0.0015881 -0.000839368
internal_weight=0 18268 669 241 230 27 428 203 187 158 29 147 29 118
internal_count=22299 18268 669 241 230 27 428 203 187 158 29 147 29 118
shrinkage=0.1


Tree=543
num_leaves=15
num_cat=0
split_feature=4 26 19 4 36 30 30 5 32 33 37 4 7 20
split_gain=0.00513248 0.0150893 0.0266363 0.0214546 0.0312862 0.136994 0.0259261 0.0484559 0.0371051 0.0219031 0.0263664 0.0300999 0.0274332 0.0203592
threshold=-0.6437274999999999 5.7378300000000006e-05 9.6951700000000012e-06 -1.2804649999999997 0.029432000000000003 0.012699200000000003 0.0039320250000000013 1.5976850000000006e-05 -0.32337199999999994 2.2192050000000004e-05 -2.4886049999999993e-07 -0.78269099999999991 2.7354700000000004e-05 19.898050000000001
decision_type=2 2 2 2 2 2 2 2 2 2 2 2 2 2
left_child=1 2 -1 13 6 -6 8 -8 -5 10 11 -10 -12 -3
right_child=-2 3 -4 4 5 -7 7 -9 9 -11 12 -13 -14 -15
leaf_value=0.0051535296931185508 -2.4213525916354015e-05 5.1057720286326314e-05 0.00022276307195887168 0.0045231194759253416 0.010373970664416747 -0.00358119852402631 6.1356200603768229e-05 -0.0076060007959741216 -0.0015167628216712567 -0.0043422000959981236 0.0045802398119121788 -0.0075347758141684944 -0.00060890256418792569 -0.0044761745817959312
leaf_weight=10.999999999999998 17772 1490 2728 11.999999999999998 12.000000000000002 17 15.999999999999998 17 34 20 10.999999999999998 10.999999999999998 138 9.9999999999999982
leaf_count=11 17772 1490 2728 12 12 17 16 17 34 20 11 11 138 10
internal_value=0 9.50569e-05 0.000242565 -0.000130908 -0.000921451 0.00219335 -0.00127021 -0.00388849 -0.000887898 -0.00119132 -0.000866487 -0.00298783 -0.000225812 2.08762e-05
internal_weight=0 4527 2739 1788 288 29 259 33 226 214 194 45 149 1500
internal_count=22299 4527 2739 1788 288 29 259 33 226 214 194 45 149 1500
shrinkage=0.1


Tree=544
num_leaves=15
num_cat=0
split_feature=29 25 2 10 22 2 1 25 1 1 5 21 19 22
split_gain=0.00451976 0.0196794 0.0447871 0.109563 0.169559 0.0286296 0.0431691 0.0381576 0.0246998 0.0495288 0.12372 0.0437401 0.075689 0.0246359
threshold=0.0058271950000000012 0.33736400000000005 2.7196500000000001 5.876315000000001e-05 2.7476650000000005 2.1843350000000004 4.1224250000000007 0.23926750000000002 -4.5388949999999992 -3.9636449999999992 1.2241900000000002e-05 -1.51006 6.2242400000000009e-07 2.8207600000000004
decision_type=2 2 2 2 2 2 2 2 2 2 2 2 2 2
left_child=-1 2 5 4 -4 8 -7 -8 11 10 -10 12 -2 -11
right_child=1 -3 3 -5 -6 6 7 -9 9 13 -12 -13 -14 -15
leaf_value=-2.8488959318153672e-05 -0.0090270201010363444 7.0984867038978715e-06 -0.00018372654555026777 -0.0016312212648335843 0.017374455827203664 0.0029718534268725377 -0.0090007216203957796 -0.001732051772817683 0.01330937728370455 0.0011864820796935731 -0.00046734892130189114 0.00052675536607740077 -0.00067045909574403595 -0.00062780933171554783
leaf_weight=15923 13.999999999999998 5628 11.000000000000002 20 10.999999999999998 12.999999999999998 9.9999999999999982 26 11.000000000000002 289 15.999999999999998 178 48 101
leaf_count=15923 14 5628 11 20 11 13 10 26 11 289 16 178 48 101
internal_value=0 7.11464e-05 0.000553047 0.00372556 0.00859536 0.000364314 -0.00196748 -0.00375113 0.000538223 0.00100338 0.00514539 -0.000269991 -0.00255742 0.000716627
internal_weight=0 6376 748 42 22 706 49 36 657 417 27 240 62 390
internal_count=22299 6376 748 42 22 706 49 36 657 417 27 240 62 390
shrinkage=0.1


Tree=545
num_leaves=15
num_cat=0
split_feature=0 20 20 0 15 2 23 7 7 16 24 34 1 2
split_gain=0.0046238 0.0161507 0.0395299 0.0513137 0.0658133 0.0503725 0.0480505 0.0376145 0.0319263 0.0671861 0.0220867 0.0213775 0.0203949 0.018126
threshold=-9.3304649999999985 -3.0347149999999998 -9.2956449999999986 -12.210999999999999 -5.2492849999999988e-07 2.8117850000000004 -7.8671899999999999 7.2134800000000013e-05 5.3943000000000002e-05 3.9387100000000006e-08 0.075621650000000012 0.0032052050000000005 -2.8792999999999993 2.8117850000000004
decision_type=2 2 2 2 2 2 2 2 2 2 2 2 2 2
left_child=1 2 3 -1 -5 6 12 8 9 10 -8 -4 -6 -13
right_child=-2 -3 11 4 5 -7 7 -9 -10 -11 -12 13 -14 -15
leaf_value=-0.0013146940253388423 -1.4519903285893408e-05 0.00035828595332078442 -0.0048233796522254126 -0.004378990600837694 0.0012793078192343647 0.0087442343696378742 -0.0023884823878428762 -0.00094261405562671519 0.0081796832586405795 0.0091196537519303653 0.003134254769732555 -0.00028872828140469819 -0.0037797029564778013 -0.0017759557442714139
leaf_weight=65 20241 1293 11.999999999999998 13.999999999999998 17 12.999999999999998 14.000000000000002 14.999999999999998 18 12.999999999999998 14.999999999999998 454 14.999999999999998 100
leaf_count=65 20241 1293 12 14 17 13 14 15 18 13 15 454 15 100
internal_value=0 0.000142807 -0.000221394 0.000990917 0.00210931 0.00286628 0.00215213 0.00353634 0.00465608 0.00314597 0.000468106 -0.00064763 -0.0010921 -0.000557181
internal_weight=0 2058 765 199 134 120 107 75 60 42 29 566 32 554
internal_count=22299 2058 765 199 134 120 107 75 60 42 29 566 32 554
shrinkage=0.1


Tree=546
num_leaves=15
num_cat=0
split_feature=10 37 36 38 27 36 7 23 37 0 23 34 22 2
split_gain=0.00435495 0.0196749 0.0450788 0.0227246 0.0409835 0.0175964 0.00718571 0.0112435 0.0108315 0.00612397 0.00610375 0.00563607 0.00497929 0.311344
threshold=8.9851850000000023e-06 -1.4744749999999998e-06 0.012034750000000002 0.00093527850000000017 0.87808300000000006 0.0016365050000000001 1.8309950000000006e-05 -10.543449999999998 1.4332350000000001e-07 -0.15708849999999996 -8.1980949999999986 0.010956550000000001 2.9368200000000004 3.0221750000000003
decision_type=2 2 2 2 2 2 2 2 2 2 2 2 2 2
left_child=1 -1 3 5 -5 6 7 -3 9 11 -11 -8 -2 -14
right_child=12 2 -4 4 -6 -7 8 -9 -10 10 -12 -13 13 -15
leaf_value=-0.0034198224893771112 -1.169164103161057e-05 0.004146525050746276 0.0058195659017656002 0.006417707183087866 -0.00065979247123727379 -0.0034945189952850344 0.00020531542909642066 -0.00024376334456194726 -0.0026254139648859993 -0.0019826333086444621 0.00062561191658268788 0.0032701900391839444 -0.00010942818257635506 0.014040117152035236
leaf_weight=11.999999999999998 21550 10.000000000000002 15.999999999999998 14.999999999999998 18 15.999999999999998 14.999999999999995 13.999999999999998 17 16.999999999999993 19.000000000000014 9.9999999999999982 554 15.999999999999998
leaf_count=12 21550 10 16 15 18 16 15 14 17 17 19 10 554 16
internal_value=0 0.000491264 0.0007723 0.00023749 0.00255725 -0.000411257 7.23923e-05 0.00158552 -0.000393186 0.00022891 -0.000606059 0.00143127 -3.97542e-06 0.000287752
internal_weight=0 179 167 151 33 118 102 24 78 61 36 25 22120 570
internal_count=22299 179 167 151 33 118 102 24 78 61 36 25 22120 570
shrinkage=0.1


Tree=547
num_leaves=15
num_cat=0
split_feature=4 24 19 20 19 10 33 4 37 5 12 9 36 3
split_gain=0.00440975 0.012169 0.0212071 0.015648 0.0134924 0.0105012 0.0299788 0.0594632 0.0217163 0.0164054 0.0104638 0.0102198 0.00954064 0.0297031
threshold=-0.6437274999999999 0.070001250000000001 9.6951700000000012e-06 19.898050000000001 1.1867000000000002e-05 1.4541750000000002e-05 2.1424800000000002e-05 -0.88553049999999989 1.3098100000000003e-07 1.0906050000000002e-05 -0.0018136649999999997 -8.4923149999999993e-06 0.43230650000000009 -7.4146649999999985
decision_type=2 2 2 2 2 2 2 2 2 2 2 2 2 2
left_child=1 3 -3 4 -1 6 8 9 11 -8 -4 -6 -2 -14
right_child=12 2 10 -5 5 -7 7 -9 -10 -11 -12 -13 13 -15
leaf_value=-0.003270842120624506 -3.2615137462624473e-05 0.0046319546262648973 -0.00071182196859029192 -0.00402308707125485 -0.0026026085546214345 2.6121401590409858e-05 0.00092394863696474783 -0.0098065202357247479 0.0044452331663342197 -0.0034220603450194178 0.00027967769780636801 -4.3089161399387731e-05 0.0013702425947665509 -0.00051676973890170733
leaf_weight=12.999999999999998 17436 10.999999999999998 112 9.9999999999999982 18 2047 19 9.9999999999999982 9.9999999999999982 15.999999999999998 2144 117 182 154
leaf_count=13 17436 11 112 10 18 2047 19 10 10 16 2144 117 182 154
internal_value=0 8.81104e-05 0.000251811 -7.60976e-05 -5.85554e-05 -3.98877e-05 -0.000751048 -0.00300585 -5.12831e-05 -0.0010628 0.000230454 -0.000384358 -2.24441e-05 0.000505362
internal_weight=0 4527 2267 2260 2250 2237 190 45 145 35 2256 135 17772 336
internal_count=22299 4527 2267 2260 2250 2237 190 45 145 35 2256 135 17772 336
shrinkage=0.1


Tree=548
num_leaves=15
num_cat=0
split_feature=2 33 22 22 2 2 13 3 14 23 23 3 34 11
split_gain=0.00438994 0.0471819 0.0596676 0.0846031 0.592066 0.285551 0.163146 0.164224 0.208329 0.358297 0.23085 0.227587 0.206076 0.193688
threshold=1.7572250000000003 9.9369500000000019e-07 1.7583250000000004 2.3063800000000003 2.3013650000000005 2.3013650000000005 4.8591750000000008e-05 -6.4339449999999987 0.00048853650000000009 -9.021824999999998 -10.272399999999999 -10.143599999999998 0.012913950000000002 -3.4234449999999995e-05
decision_type=2 2 2 2 2 2 2 2 2 2 2 2 2 2
left_child=-1 -2 -3 4 6 -5 7 8 9 -4 -10 -12 -11 -13
right_child=1 2 3 5 -6 -7 -8 -9 10 12 11 13 -14 -15
leaf_value=2.1746199625026936e-05 0.00021914152518207709 -0.00095374244022515195 -0.0024422266567125919 -0.0034466656334180656 -0.0028091863451406044 0.0011897048062769705 -0.000942223377703493 -0.00098528308131230562 0.0096849503622136335 0.012918954632348482 -0.0086917273907197844 -0.00030578907432132643 0.030292150107297029 0.016888081431388854
leaf_weight=17980 2300 1073 9.9999999999999982 221 187 333 38 26 55 18.000000000000004 18 19.000000000000004 10.999999999999998 9.9999999999999982
leaf_count=17980 2300 1073 10 221 187 333 38 26 55 18 18 19 11 10
internal_value=0 -9.05294e-05 -0.0004433 0.00013567 0.00125991 -0.000659822 0.00497172 0.00631741 0.007664 0.0138803 0.00528718 0.000140845 0.0195088 0.00562313
internal_weight=0 4319 2019 946 392 554 205 167 141 39 102 47 29 29
internal_count=22299 4319 2019 946 392 554 205 167 141 39 102 47 29 29
shrinkage=0.1


Tree=549
num_leaves=15
num_cat=0
split_feature=4 3 23 23 17 3 33 11 35 2 22 2 21 21
split_gain=0.00500451 0.00880354 0.0177851 0.0167572 0.0357408 0.0416013 0.0757832 0.0471399 0.0332574 0.0260102 0.0710536 0.0489991 0.210374 0.072708
threshold=0.93067350000000004 -5.6684649999999985 -17.135599999999997 -16.491149999999998 0.000119499 -12.923849999999998 -0.00010740549999999999 -5.6963349999999994e-05 0.0018231050000000002 2.1843350000000004 1.5954800000000002 1.4101200000000003 4.1310200000000012 4.2108050000000015
decision_type=2 2 2 2 2 2 2 2 2 2 2 2 2 2
left_child=1 3 -3 4 5 6 7 -1 -6 11 -11 13 -13 -8
right_child=-2 2 -4 -5 8 -7 9 -9 -10 10 -12 12 -14 -15
leaf_value=-0.0012130905454978344 0.00010085032426389103 -0.00079290399797802007 0.00020610414315834857 -8.6232307873505766e-05 0.00018892971798777574 0.0004815915626958719 -0.00083636307969194772 0.0074396103456178132 0.0081570802171799274 -3.7514131205777322e-05 -0.010919729326851667 -0.0021383559163730367 0.013323243955771127 -0.0058853715623948073
leaf_weight=10.000000000000002 4031 191 2660 13925 10.000000000000002 1163 177 17 10.999999999999998 15.000000000000002 9.9999999999999982 33 11.999999999999998 34
leaf_count=10 4031 191 2660 13925 10 1163 177 17 11 15 10 33 12 34
internal_value=0 -2.22535e-05 0.000139177 -5.21061e-05 0.000266397 0.000207918 -0.000825465 0.00423491 0.00436272 -0.00131169 -0.0043904 -0.00101104 0.00198474 -0.00164995
internal_weight=0 18268 2851 15417 1492 1471 308 27 21 281 25 256 45 211
internal_count=22299 18268 2851 15417 1492 1471 308 27 21 281 25 256 45 211
shrinkage=0.1


Tree=550
num_leaves=15
num_cat=0
split_feature=4 32 1 1 19 7 29 12 33 28 26 4 20 20
split_gain=0.00455979 0.0113408 0.039468 0.0240209 0.0212529 0.0363133 0.0163627 0.0167955 0.0142679 0.0114927 0.0100972 0.0203943 0.0271256 0.0427367
threshold=-0.6437274999999999 3.6334300000000006 -10.174899999999999 -7.2266699999999995 0.0013108400000000002 3.995050000000001e-05 0.97987900000000006 -0.00015921049999999997 0.0019555150000000006 -0.35794499999999996 5.7378300000000006e-05 -1.2804649999999997 9.0406650000000024 10.309600000000001
decision_type=2 2 2 2 2 2 2 2 2 2 2 2 2 2
left_child=1 6 -3 -4 5 -5 8 -8 9 -1 11 -11 -13 -14
right_child=-2 2 3 4 -6 -7 7 -9 -10 10 -12 12 13 -15
leaf_value=0.003508888562209904 -2.2822689939963379e-05 -0.0068502403539605437 0.0030600220378902226 -0.0062022308106808102 0.00025326364444318549 -0.00034306506609677208 0.00015932860260363664 -0.0051314694263661902 0.0035756275562259057 0.00011417631360996467 -7.5471009593255467e-05 0.00066462064308345475 0.0091244974685832838 0.00079100718630797928
leaf_weight=9.9999999999999982 17772 9.9999999999999982 18 17 67 28 12.000000000000002 11.999999999999998 11.999999999999998 2211 1697 407 10.000000000000002 15.999999999999998
leaf_count=10 17772 10 18 17 67 28 12 12 12 2211 1697 407 10 16
internal_value=0 8.95968e-05 -0.000796408 -0.000330728 -0.00087567 -0.00255653 0.000117871 -0.00248607 0.000132195 0.000122698 0.000114898 0.000237082 0.000864669 0.0039962
internal_weight=0 4527 140 130 112 45 4387 24 4363 4351 4341 2644 433 26
internal_count=22299 4527 140 130 112 45 4387 24 4363 4351 4341 2644 433 26
shrinkage=0.1


Tree=551
num_leaves=15
num_cat=0
split_feature=9 20 36 37 4 18 10 33 2 34 9 5 26 35
split_gain=0.0044284 0.0152851 0.0220919 0.0225938 0.0251342 0.0225874 0.0606757 0.0161477 0.044811 0.0456067 0.113241 0.0436696 0.09627 0.0515297
threshold=-5.5069899999999999e-05 -3.5336099999999995 -0.0041198099999999989 2.7198850000000005e-07 -0.24203399999999997 4.8090950000000018e-07 6.677965000000001e-05 3.7289950000000003e-06 3.0381150000000003 0.022871950000000005 -6.7972749999999991e-05 1.7175900000000003e-05 -8.0758999999999977e-05 0.0010857650000000003
decision_type=2 2 2 2 2 2 2 2 2 2 2 2 2 2
left_child=1 2 5 7 -5 -1 -7 11 9 10 -9 12 -4 -14
right_child=-2 -3 3 4 -6 6 -8 8 -10 -11 -12 -13 13 -15
leaf_value=-0.00068381220480659985 -1.376411938799441e-05 0.00034006144214218371 0.0096546963970952984 0.0068566891411319351 0.00038441467292917269 -0.01018446504604071 -0.00072037877648004468 -0.0012222549827129116 -0.0071381126276471411 -0.001717169342815136 0.010452897244249471 -0.00025715093918344276 -0.0020833444574738427 0.0051362138210485388
leaf_weight=100 20357 1306 14.999999999999998 10.000000000000002 14.999999999999998 10.000000000000002 21 27 10.999999999999998 91 11.999999999999998 280 29 14.999999999999998
leaf_count=100 20357 1306 15 10 15 10 21 27 11 91 12 280 29 15
internal_value=0 0.000144282 -0.000257742 4.24351e-05 0.00297332 -0.00141491 -0.00377331 -0.000110215 -0.00100956 -0.000490989 0.0023701 0.000263848 0.00273638 0.000377869
internal_weight=0 1942 636 505 25 131 31 480 141 130 39 339 59 44
internal_count=22299 1942 636 505 25 131 31 480 141 130 39 339 59 44
shrinkage=0.1


Tree=552
num_leaves=15
num_cat=0
split_feature=4 38 4 13 20 9 7 7 18 32 25 31 34 33
split_gain=0.00448265 0.0244425 0.0597331 0.0956321 0.0484891 0.0487353 0.0391499 0.0315506 0.0208089 0.0966173 0.25037 0.0736683 0.124793 0.0727268
threshold=0.313587 -0.083844549999999976 1.1082250000000002 -2.6909549999999997e-05 -5.9904249999999992 2.1463650000000002e-05 4.2463800000000012e-05 3.5305950000000007e-05 8.0248250000000016e-06 0.21449650000000003 1.2542100000000003 -0.15882949999999998 0.070512600000000009 -8.0913049999999986e-06
decision_type=2 2 2 2 2 2 2 2 2 2 2 2 2 2
left_child=8 2 3 -2 -5 6 -6 -4 -1 11 -11 12 -10 -13
right_child=1 -3 7 4 5 -7 -8 -9 9 10 -12 13 -14 -15
leaf_value=-6.6247962407808318e-06 -0.010123129049316049 0.00012377906634822541 0.0043933192297117788 0.0027507884623972998 -0.0098208301915572224 0.0015298824040935589 -0.0018999625521246345 -0.00030493781215132484 0.012159574530087411 0.012506766211682639 -0.00066525914623828924 -0.0051821749046731778 -0.0001905133802857664 -0.0012297114322633285
leaf_weight=16450 15.999999999999998 5160 15.999999999999998 19 13.000000000000002 12.999999999999998 11.999999999999998 134 9.9999999999999982 19 60 56 45 276
leaf_count=16450 16 5160 16 19 13 13 12 134 10 19 60 56 45 276
internal_value=0 7.94807e-05 -0.00094554 -0.0032916 -0.00137398 -0.00343637 -0.00601881 0.00019621 -2.52923e-05 -0.000684263 0.0025027 -0.00133483 0.00205496 -0.00189639
internal_weight=0 5383 223 73 57 38 25 150 16916 466 79 387 55 332
internal_count=22299 5383 223 73 57 38 25 150 16916 466 79 387 55 332
shrinkage=0.1


Tree=553
num_leaves=15
num_cat=0
split_feature=10 31 31 0 3 23 19 23 13 3 20 0 30 22
split_gain=0.00430374 0.0172484 0.0448023 0.129316 0.0443369 0.0561846 0.0744621 0.116127 0.0485898 0.0453245 0.0398326 0.134562 0.168692 0.0414537
threshold=2.4033300000000002e-05 -0.094540149999999989 -0.089111699999999988 3.2421850000000005 -10.579399999999998 -13.784899999999999 3.0598350000000003e-07 -10.776849999999998 -6.0817849999999996e-05 -11.086249999999998 2.7581050000000005 2.5597050000000006 0.0031863300000000007 -1.3551949999999999
decision_type=2 2 2 2 2 2 2 2 2 2 2 2 2 2
left_child=1 4 3 -3 5 8 7 -7 -1 10 11 13 -13 -8
right_child=-2 2 -4 -5 -6 6 9 -9 -10 -11 -12 12 -14 -15
leaf_value=-0.0088091398216783995 -3.0917364347224472e-05 0.00025534379443653473 0.00011686830332856575 0.011701513797743247 0.00028815271712315818 -0.0098963225358410893 0.0059401132438021403 -0.00076111938458500218 -0.0016982364175404418 -0.0037966107457088165 -2.3631158613875612e-05 0.018763607636792579 0.00039559189230203628 -0.00039012406064042204
leaf_weight=9.9999999999999982 14913 41 5692 12.999999999999998 833 19 11.999999999999998 52 246 26 347 10.000000000000002 9.9999999999999982 75
leaf_count=10 14913 41 5692 13 833 19 12 52 246 26 347 10 10 75
internal_value=0 6.24249e-05 0.000144066 0.0030109 -0.000223617 -0.000751876 -0.000183133 -0.00320575 -0.00197601 0.000263963 0.000496507 0.00218331 0.0095796 0.000483012
internal_weight=0 7386 5746 54 1640 807 551 71 256 480 454 107 20 87
internal_count=22299 7386 5746 54 1640 807 551 71 256 480 454 107 20 87
shrinkage=0.1


Tree=554
num_leaves=15
num_cat=0
split_feature=20 5 9 22 13 28 1 9 14 21 0 9 36 20
split_gain=0.00416319 0.023026 0.0478402 0.1107 0.244943 0.142573 0.0740309 0.0805282 0.0508475 0.0332948 0.124679 0.0441474 0.0329644 0.0296224
threshold=-6.4537699999999996 1.0742400000000002e-05 -2.5360299999999998e-05 2.5285000000000006 -3.2874249999999997e-06 0.0039270800000000003 -2.5079849999999992 -3.0404999999999998e-05 0.00011168900000000001 7.4229750000000001 -2.7174149999999995 -2.3277349999999995e-05 -0.000171867 -9.5362249999999982
decision_type=2 2 2 2 2 2 2 2 2 2 2 2 2 2
left_child=1 2 3 6 5 -5 7 -1 -8 11 -11 12 -4 -6
right_child=-2 -3 9 4 13 -7 8 -9 -10 10 -12 -13 -14 -15
leaf_value=0.00056772815267322572 -2.0253929452871012e-05 -2.3849116226760507e-05 -0.0079905683929609918 0.0067675465935220312 0.0019345566316042091 0.022182533368468288 -0.0062755690608173615 0.012152790178079159 0.00015684273958493792 0.012592701757093892 0.00048681749950016016 0.00011610331204925018 -0.00021658714395016433 -0.0057625064253807069
leaf_weight=15.000000000000002 18282 3253 12.000000000000002 15.000000000000002 10.000000000000002 9.9999999999999982 14.999999999999998 9.9999999999999982 68 9.9999999999999982 57 522 9.9999999999999982 9.9999999999999982
leaf_count=15 18282 3253 12 15 10 10 15 10 68 10 57 522 10 10
internal_value=0 9.21788e-05 0.000586209 0.00216755 0.00633465 0.0129335 0.000431256 0.00520175 -0.00100564 0.000190227 0.00229367 -6.8836e-05 -0.00445694 -0.00191397
internal_weight=0 4017 764 153 45 25 108 25 83 611 67 544 22 20
internal_count=22299 4017 764 153 45 25 108 25 83 611 67 544 22 20
shrinkage=0.1


Tree=555
num_leaves=15
num_cat=0
split_feature=2 33 5 20 28 3 32 31 21 32 12 21 33 19
split_gain=0.00425488 0.0229448 0.0262247 0.0211963 0.020414 0.0259491 0.015625 0.0557623 0.0390105 0.0189539 0.02399 0.0167768 0.055827 0.099418
threshold=-2.7883099999999996 -1.0153099999999998e-05 6.8464300000000006e-06 -9.0239949999999975 -0.018437049999999996 -14.372349999999999 -0.00093448049999999986 0.39300250000000009 -3.0737249999999996 -0.0093294549999999987 -2.1522699999999996e-05 -3.0339349999999996 -1.6373449999999999e-06 1.3306300000000002e-06
decision_type=2 2 2 2 2 2 2 2 2 2 2 2 2 2
left_child=1 2 -1 -4 5 -5 9 11 -9 -3 -11 -8 13 -13
right_child=-2 6 3 4 -6 -7 7 8 -10 10 -12 12 -14 -15
leaf_value=-0.0050049230384712033 -1.0092302964718564e-05 0.00020253007968731304 0.0038937017961870879 -0.0069059712626039979 -0.00010046989231788738 -0.00126268652939788 0.00017132713378798569 0.0015476062851534644 0.0099694899664345121 0.00046539862123609057 -0.0047728820186522282 0.01065416914061643 0.00046831615567151906 -0.0013867858176430069
leaf_weight=12.999999999999998 21169 383 10.999999999999998 9.9999999999999982 187 44 292 11.000000000000002 10.999999999999998 17 18 16.000000000000004 105 11.999999999999998
leaf_count=13 21169 383 11 10 187 44 292 11 11 17 18 16 105 12
internal_value=0 0.000189065 -0.000625053 -0.000399107 -0.000595045 -0.00230774 0.000438477 0.000849472 0.00575855 -1.03129e-06 -0.00222857 0.000595355 0.0015263 0.00549376
internal_weight=0 1130 265 252 241 54 865 447 22 418 35 425 133 28
internal_count=22299 1130 265 252 241 54 865 447 22 418 35 425 133 28
shrinkage=0.1


Tree=556
num_leaves=15
num_cat=0
split_feature=6 33 33 14 23 6 15 29 5 38 14 29 6 22
split_gain=0.00406699 0.0936572 0.056886 0.04097 0.0492529 0.0526622 0.0352578 0.0884506 0.109174 0.16686 0.198486 0.143783 0.129531 0.0957993
threshold=1.2416850000000003e-06 -7.0266599999999987e-07 7.1091050000000012e-07 0.00026056950000000005 -7.4021049999999997 6.620390000000001e-07 2.7995300000000005e-07 -0.0046566299999999993 1.4239100000000002e-05 0.0034939650000000004 0.0022170600000000003 -0.014712149999999998 1.8766700000000002e-06 -0.34255499999999994
decision_type=2 2 2 2 2 2 2 2 2 2 2 2 2 2
left_child=2 -2 -1 4 -4 -6 -3 8 9 10 11 -8 -13 -14
right_child=1 6 3 -5 5 -7 7 -9 -10 -11 -12 12 13 -15
leaf_value=-0.00014836006900740176 0.00030343420349617162 -0.0006217592398133178 0.00091194687063742496 8.8521871844322527e-05 -0.00051397545154374224 0.0050083347492747843 0.017878042000035448 -0.00058688971590800762 0.00024670323071904226 -0.00208989037999085 -0.00093457888277178572 -0.0028504351619631054 0.01361656596085855 0.0017246347386389964
leaf_weight=8028 3682 2527 1484 4719 425 18 14.999999999999998 911 386 35 27 10.999999999999998 21 10.000000000000002
leaf_count=8028 3682 2527 1484 4719 425 18 15 911 386 35 27 11 21 10
internal_value=0 -5.92445e-05 3.0785e-05 0.000247182 0.000635724 -0.000289593 -0.000397916 1.55452e-06 0.00106308 0.00371118 0.00612829 0.00947386 0.00647237 0.00978046
internal_weight=0 7625 14674 6646 1927 443 3943 1416 505 119 84 57 42 31
internal_count=22299 7625 14674 6646 1927 443 3943 1416 505 119 84 57 42 31
shrinkage=0.1


Tree=557
num_leaves=15
num_cat=0
split_feature=11 37 3 36 16 20 20 29 3 19 33 19 37 5
split_gain=0.00437021 0.0288918 0.0303849 0.029096 0.0461062 0.0172157 0.0149878 0.0352632 0.0803222 0.0247711 0.0189785 0.0338198 0.0107695 0.0428057
threshold=-0.00011564799999999999 -7.1628749999999996e-06 -16.232699999999998 -2.8015299999999996 -1.7593899999999998e-06 -0.6291874999999999 -2.8021899999999995 0.048127750000000004 -13.643249999999998 8.0527250000000027e-09 -5.2459299999999994e-05 0.00037365450000000007 -2.3669749999999995e-06 8.5637850000000016e-06
decision_type=2 2 2 2 2 2 2 2 2 2 2 2 2 2
left_child=1 2 -1 4 -3 -4 9 10 -9 -5 11 -8 13 -2
right_child=12 3 5 6 -6 -7 7 8 -10 -11 -12 -13 -14 -15
leaf_value=-0.0069979619979858403 -0.0024524763692170383 0.0079906543328737197 6.4863243356480128e-05 0.0047812221292406329 -0.00097241105342453179 -0.0036315217717654176 -0.0063421622172675348 0.01102204959373921 4.5564041356556119e-05 -0.00022007435763278239 0.00032373094062329013 -0.00044543485519603739 -3.346471029933096e-05 0.00050753151646480688
leaf_weight=9.9999999999999982 52 12.000000000000002 42 9.9999999999999982 10.999999999999998 18 10.999999999999998 10.000000000000002 20 1024 1719 84 18468 808
leaf_count=10 52 12 42 10 11 18 11 10 20 1024 1719 84 18468 808
internal_value=0 0.000112915 -0.00189461 0.000161356 0.00370397 -0.00104405 0.000133044 0.000303929 0.00370439 -0.000171706 0.000247692 -0.00112821 -1.73567e-05 0.000328554
internal_weight=0 2971 70 2901 23 60 2878 1844 30 1034 1814 95 19328 860
internal_count=22299 2971 70 2901 23 60 2878 1844 30 1034 1814 95 19328 860
shrinkage=0.1


Tree=558
num_leaves=15
num_cat=0
split_feature=4 38 4 13 10 10 2 7 18 24 31 32 8 24
split_gain=0.0041937 0.0194251 0.0473196 0.078405 0.0406088 0.0630617 0.02744 0.0251888 0.0176539 0.0755106 0.148339 0.140824 0.235629 0.112535
threshold=0.313587 -0.083844549999999976 1.1082250000000002 -3.2281699999999993e-05 2.5887750000000006e-05 3.6461800000000011e-05 -1.2314849999999999 3.5305950000000007e-05 8.0248250000000016e-06 0.18066700000000005 0.11286950000000001 0.21449650000000003 -3.5533999999999993e-06 0.11443150000000001
decision_type=2 2 2 2 2 2 2 2 2 2 2 2 2 2
left_child=8 2 3 -2 6 -6 -5 -4 -1 13 11 12 -11 -10
right_child=1 -3 7 4 5 -7 -8 -9 9 10 -12 -13 -14 -15
leaf_value=-7.2693468367909171e-06 -0.0099656840571417261 0.0001163672260604683 0.0039294746587984269 -0.00028899980031631199 0.0057599348419656356 -0.0031359188505174483 -0.0066988877732964127 -0.0002684736387185586 -0.00053871395853339677 0.013278555617268598 -0.0024388029388236732 0.012736693874467166 -0.0017473112337472963 -0.0052211728560255972
leaf_weight=16450 12.999999999999998 5160 15.999999999999998 11.000000000000002 14.999999999999998 17 17 134 277 13.999999999999998 55 15.999999999999998 41 63
leaf_count=16450 13 5160 16 11 15 17 17 134 277 14 55 16 41 63
internal_value=0 7.68764e-05 -0.000836903 -0.00292501 -0.00139953 0.00103401 -0.00418072 0.000179308 -2.44636e-05 -0.000631426 0.00145963 0.00447954 0.00207745 -0.00140635
internal_weight=0 5383 223 73 60 32 28 150 16916 466 126 71 55 340
internal_count=22299 5383 223 73 60 32 28 150 16916 466 126 71 55 340
shrinkage=0.1


Tree=559
num_leaves=15
num_cat=0
split_feature=10 22 19 22 12 20 6 20 20 0 0 26 16 18
split_gain=0.00401826 0.0166995 0.082729 0.0773887 0.373516 0.29163 0.203795 0.855842 0.284462 0.883274 0.320209 0.218948 0.436346 0.298507
threshold=2.4033300000000002e-05 0.77413600000000016 2.1170350000000003e-05 1.7472750000000004 4.7254350000000009e-05 4.600575000000001 -1.9078049999999997e-06 2.7581050000000005 0.31681300000000007 0.71571850000000004 0.82669950000000003 -5.1743499999999997e-05 3.0262300000000002e-07 -3.9818949999999993e-07
decision_type=2 2 2 2 2 2 2 2 2 2 2 2 2 2
left_child=1 -1 3 4 -3 6 7 -6 9 -8 -10 12 -12 -13
right_child=-2 2 -4 -5 5 -7 8 -9 10 -11 11 13 -14 -15
leaf_value=-5.8189116525646108e-05 -2.9874357251757845e-05 -0.00043219195972770308 -0.00022124797156980138 0.00011132141292260819 -0.0011668497274513355 -0.0015593926623886658 0.023500337769343918 0.0333764801804836 -0.0049504263053677285 -0.00140011033388497 0.0043782049028033556 0.0078384030721079176 0.029571149051189422 -0.01371023284038529
leaf_weight=4556 14913 341 1605 641 16.000000000000004 57 28 12.999999999999998 40 29 22 18.000000000000004 9.9999999999999982 9.9999999999999982
leaf_count=4556 14913 341 1605 641 16 57 28 13 40 29 22 18 10 10
internal_value=0 6.0319e-05 0.000251105 0.000869983 0.00170269 0.00469856 0.00661632 0.0143181 0.0051937 0.0108317 0.00198004 0.00660035 0.012251 0.000142462
internal_weight=0 7386 2830 1225 584 243 186 29 157 57 100 60 32 28
internal_count=22299 7386 2830 1225 584 243 186 29 157 57 100 60 32 28
shrinkage=0.1


Tree=560
num_leaves=15
num_cat=0
split_feature=4 32 1 3 20 10 21 13 21 13 3 16 10 5
split_gain=0.00449926 0.00993677 0.0280345 0.0373724 0.0275253 0.0224111 0.0169067 0.0309335 0.014822 0.0163931 0.013439 0.0193896 0.0130674 0.0154844
threshold=-0.6437274999999999 3.6334300000000006 -1.877435 -16.135999999999999 26.818400000000004 2.8995250000000003e-05 -7.8836949999999986 -1.6986749999999998e-05 -3.1439699999999995 1.2728900000000001e-05 -8.6694649999999971 1.0079050000000002e-07 2.6725800000000004e-05 1.4079600000000002e-05
decision_type=2 2 2 2 2 2 2 2 2 2 2 2 2 2
left_child=-1 -2 3 -3 5 -4 7 -5 12 -10 -9 -12 13 -8
right_child=1 2 4 6 -6 -7 8 10 9 -11 11 -13 -14 -15
leaf_value=8.9000133703730482e-05 -3.4994799037455881e-05 0.0055678645079024133 0.002044931414555042 0.0050671420812320248 0.0062880052905529742 0.00010399637286688545 -0.0066134149853426657 0.0014872862991117141 0.00099459601333364857 -0.0016504255069621822 0.00032963917037704944 -0.0054357152391457933 -0.0011100575096982842 -0.0017326246535118957
leaf_weight=4527 17302 9.9999999999999982 104 12.999999999999998 9.9999999999999982 139 13.000000000000002 18.999999999999996 42 53 14.000000000000005 9.9999999999999982 30 12.999999999999998
leaf_count=4527 17302 10 104 13 10 139 13 19 42 53 14 10 30 13
internal_value=0 -2.26707e-05 0.000431014 -0.000402913 0.00114628 0.000934685 -0.000691356 0.000792662 -0.00124172 -0.000481048 -0.000499622 -0.00207259 -0.00253215 -0.00417302
internal_weight=0 17772 470 217 253 243 207 56 151 95 43 24 56 26
internal_count=22299 17772 470 217 253 243 207 56 151 95 43 24 56 26
shrinkage=0.1


Tree=561
num_leaves=15
num_cat=0
split_feature=12 21 1 23 23 32 3 34 19 21 3 21 8 14
split_gain=0.00460314 0.0380945 0.0273744 0.0328818 0.0223004 0.0445317 0.278528 0.262773 0.485695 0.37983 0.141828 0.159012 0.190361 0.161424
threshold=-8.085454999999998e-05 -11.744649999999998 -5.8350899999999983 -7.6100699999999994 -12.154599999999999 0.09842285000000002 -12.527449999999998 0.37240250000000003 1.8396200000000002e-05 -4.1799449999999991 -11.019649999999997 -4.6311699999999991 1.1307300000000001e-05 0.0060041400000000007
decision_type=2 2 2 2 2 2 2 2 2 2 2 2 2 2
left_child=1 2 3 -1 5 10 7 8 9 -7 11 12 -3 -13
right_child=-2 4 -4 -5 -6 6 -8 -9 -10 -11 -12 13 -14 -15
leaf_value=-0.0063883360578782028 -2.7016725212270428e-05 -0.0015343634124078292 -0.00015328755542548013 -0.0016227139442324533 0.00026132731914150673 0.026803380716592069 -0.0012435610456316317 0.0004350482904339693 0.002794347849878618 0.0024960410594940187 0.00053917535823565905 -0.0040445510967652689 0.014540748658160178 -0.00056147876837899392
leaf_weight=18 16474 17.000000000000004 98 74 3805 18.000000000000004 381 164 79 9.9999999999999982 604 232 12.999999999999998 312
leaf_count=18 16474 17 98 74 3805 18 381 164 79 10 604 232 13 312
internal_value=0 7.64075e-05 -0.00131628 -0.00255512 0.000123366 -0.000163488 0.00049958 0.00295027 0.00680537 0.0181222 -0.000530484 -0.00165605 0.00543152 -0.00204691
internal_weight=0 5825 190 92 5635 1830 652 271 107 28 1178 574 30 544
internal_count=22299 5825 190 92 5635 1830 652 271 107 28 1178 574 30 544
shrinkage=0.1


Tree=562
num_leaves=15
num_cat=0
split_feature=14 37 39 3 37 20 5 9 16 22 5 3 25 17
split_gain=0.00486093 0.0151911 0.0228678 0.0325406 0.0220826 0.0163342 0.0886871 0.0744831 0.0298081 0.113938 0.0288706 0.0432073 0.0238467 0.0580005
threshold=0.00012106850000000002 -1.0689549999999999e-07 1.9298500000000003e-06 -6.8616649999999995 -1.0494999999999998e-07 9.7122600000000023 8.0712700000000014e-06 3.1953100000000011e-05 2.8559200000000001e-07 -0.062333349999999989 1.5341650000000002e-05 -6.401514999999999 0.19156000000000004 2.1195350000000003e-07
decision_type=2 2 2 2 2 2 2 2 2 2 2 2 2 2
left_child=1 2 3 -1 -3 -6 7 -7 10 -10 12 -12 13 -8
right_child=-2 4 -4 -5 5 6 8 -9 9 -11 11 -13 -14 -15
leaf_value=0.0073087653483856806 -2.4183311344610299e-05 -0.003525461053423998 0.0002846625632332113 0.0010283834569043283 -8.9909591227967526e-05 0.0010042659309692677 0.0065205876482650627 0.013209433667361737 0.010366718392246045 -0.0016588406008668244 0.0063711001537740232 0.00033081773232188972 -0.0017731784654791806 -0.0037912647868506609
leaf_weight=10.999999999999998 17582 18 1461 33 2863 10.000000000000002 12.000000000000002 9.9999999999999982 12.999999999999998 20 12.999999999999998 133 110 9.9999999999999982
leaf_count=11 17582 18 1461 33 2863 10 12 10 13 20 13 133 110 10
internal_value=0 9.01401e-05 0.000352309 0.00259848 -3.27005e-05 -1.30168e-05 0.000652071 0.00710685 0.000236972 0.0030785 -0.000100332 0.000868651 -0.00117209 0.00183338
internal_weight=0 4717 1505 44 3212 3194 331 20 311 33 278 146 132 22
internal_count=22299 4717 1505 44 3212 3194 331 20 311 33 278 146 132 22
shrinkage=0.1


Tree=563
num_leaves=15
num_cat=0
split_feature=29 25 9 9 5 15 3 14 1 13 21 20 3 9
split_gain=0.00484735 0.0171671 0.0206249 0.0500407 0.116044 0.0241191 0.0412909 0.0725332 0.0408026 0.0350539 0.0519512 0.0281746 0.0249277 0.0273558
threshold=0.0058271950000000012 0.33736400000000005 -5.6320399999999997e-05 -4.798869999999999e-05 1.6842000000000002e-05 -1.9934349999999997e-06 -12.923849999999998 0.0016623800000000004 -4.4196899999999983 -1.9937449999999997e-05 2.1413450000000007 -2.8021899999999995 -12.020399999999999 -9.3650599999999984e-06
decision_type=2 2 2 2 2 2 2 2 2 2 2 2 2 2
left_child=-1 2 -2 4 -4 9 7 -7 -9 10 -5 -11 -8 -14
right_child=1 -3 3 5 -6 6 12 8 -10 11 -12 -13 13 -15
leaf_value=-2.9503343659283694e-05 -0.0011642023286020215 1.3859420017855627e-05 0.013464041460538279 0.0017291425013631258 2.8524138583129062e-05 -0.0088307862026760203 0.0042869965025388148 -0.0063287330698221927 0.00071915146836545321 0.00024072633249387664 0.010084727242461998 0.0048658572230488063 -0.00086185080178526529 0.00091558524035612
leaf_weight=15923 66 5628 10.000000000000002 23 18 12.999999999999998 17 9.9999999999999982 46 108 10.999999999999998 14.999999999999998 124 287
leaf_count=15923 66 5628 10 23 18 13 17 10 46 108 11 15 124 287
internal_value=0 7.36797e-05 0.000523771 0.000687124 0.00482692 0.000509884 0.000168563 -0.00210154 -0.000539399 0.00159037 0.00443242 0.000804767 0.000534538 0.000379327
internal_weight=0 6376 748 682 28 654 497 69 56 157 34 123 428 411
internal_count=22299 6376 748 682 28 654 497 69 56 157 34 123 428 411
shrinkage=0.1


Tree=564
num_leaves=15
num_cat=0
split_feature=35 15 15 20 11 16 21 20 17 38 0 17 4 24
split_gain=0.00413254 0.0245727 0.0403284 0.0639622 0.159155 0.15736 0.18129 0.0905375 0.0575357 0.0800017 0.0782316 0.0617425 0.13386 0.10578
threshold=-0.0086243949999999982 -2.4313149999999992e-07 -1.8560199999999996e-05 6.7975600000000016 1.9789500000000001e-05 2.4464550000000004e-06 3.5797050000000001 10.173200000000003 -6.4621499999999996e-06 0.068098300000000014 3.8760700000000008 1.6268950000000003e-06 0.33837000000000006 0.48185350000000005
decision_type=2 2 2 2 2 2 2 2 2 2 2 2 2 2
left_child=1 2 -1 8 -5 6 7 -6 -4 11 -11 12 -10 -14
right_child=-2 -3 3 4 5 -7 -8 -9 9 10 -12 -13 13 -15
leaf_value=-0.00018569586416489767 -1.6028759372049294e-05 -9.4997188244954413e-05 0.0073162639537864994 0.00011667108487537398 -0.0045537992555182418 0.018080297633158892 0.016056282445788383 0.0069367962734152872 0.0009393872519780906 -0.00040185546430830774 -0.0079723588545762367 -0.00050013456555411911 0.0033012180283549237 0.015721472313938042
leaf_weight=409 19584 1822 11.999999999999998 70 16.000000000000004 10.999999999999998 9.9999999999999982 11.999999999999998 119 39 21 146 16.000000000000004 11.999999999999998
leaf_count=409 19584 1822 12 70 16 11 10 12 119 39 21 146 16 12
internal_value=0 0.00011562 0.000545344 0.0011631 0.00317642 0.00754749 0.00449852 0.000370742 0.000506706 0.00027522 -0.00305153 0.000956466 0.00240316 0.00862418
internal_weight=0 2715 893 484 119 49 38 28 365 353 60 293 147 28
internal_count=22299 2715 893 484 119 49 38 28 365 353 60 293 147 28
shrinkage=0.1


Tree=565
num_leaves=15
num_cat=0
split_feature=14 21 20 11 19 25 16 22 9 16 1 33 16 14
split_gain=0.00423835 0.0123185 0.0167519 0.0855291 0.182289 0.213881 0.0768015 0.0300292 0.0291008 0.0297336 0.0163995 0.0164253 0.0306048 0.0343827
threshold=0.00012106850000000002 1.7576700000000003 9.6669500000000017 1.0458900000000001e-05 9.7548300000000016e-05 0.68318150000000022 1.2403650000000003e-07 -0.24703349999999999 1.7320450000000005e-05 7.1900850000000015e-08 12.482900000000003 2.2102800000000005e-06 -6.1995849999999993e-08 0.00010127800000000002
decision_type=2 2 2 2 2 2 2 2 2 2 2 2 2 2
left_child=1 2 -1 8 6 -6 7 -5 -4 -10 11 12 -3 -14
right_child=-2 10 3 4 5 -7 -8 -9 9 -11 -12 -13 13 -15
leaf_value=0.00014919625379224708 -2.2581584912017468e-05 0.00043378298830806095 0.00057671551053808414 -0.00014795301016420128 0.01973508423280481 0.00028245053719729187 -0.0059301550051064364 0.0076017822651192517 -0.0062216828976358685 -0.00021293053025146945 -0.001052355603065099 0.00035489091423985175 -0.00037141711512474554 -0.0023905390854948921
leaf_weight=2426 17582 419 139 9.9999999999999982 13.000000000000002 9.9999999999999982 13.999999999999998 10.000000000000002 13.999999999999998 20 166 733 646 97
leaf_count=2426 17582 419 139 10 13 10 14 10 14 20 166 733 646 97
internal_value=0 8.41699e-05 0.000226524 0.00104217 0.0044017 0.0112774 -0.000249526 0.00372691 -6.47325e-05 -0.00268712 -9.92813e-05 -1.57929e-05 -0.000249624 -0.000635017
internal_weight=0 4717 2656 230 57 23 34 20 173 34 2061 1895 1162 743
internal_count=22299 4717 2656 230 57 23 34 20 173 34 2061 1895 1162 743
shrinkage=0.1


Tree=566
num_leaves=15
num_cat=0
split_feature=12 21 7 8 36 5 28 4 17 18 38 39 16 26
split_gain=0.00430687 0.0317694 0.04917 0.0326357 0.0266992 0.0695559 0.0391577 0.0820094 0.148051 0.203844 0.333791 0.172396 0.231354 0.252886
threshold=-8.085454999999998e-05 -8.3840799999999991 3.9357900000000012e-05 8.6512400000000022e-06 0.035006350000000006 8.2576650000000015e-06 -0.0089821649999999986 -0.27336699999999997 4.3200650000000013e-06 -7.3056799999999988e-06 0.0015275600000000001 2.4573350000000004e-05 -2.4343299999999997e-06 7.4267950000000011e-05
decision_type=2 2 2 2 2 2 2 2 2 2 2 2 2 2
left_child=1 2 3 -1 6 -6 7 -3 9 10 -9 12 -11 -14
right_child=-2 4 -4 -5 5 -7 -8 8 -10 11 -12 -13 13 -15
leaf_value=-0.00034819198181485037 -2.6132855621410301e-05 -0.00037147038656057906 -6.8622626957462532e-06 -0.0029834389000888192 -0.0089005490671843299 -0.00044154908350353895 7.8158583711181555e-05 0.0011221093560258545 -3.8541938187740423e-05 -0.0026014329372794076 0.023014793573663789 0.0012890697832887231 0.025763809970918695 0.0037914947234094147
leaf_weight=79 16474 364 438 116 9.9999999999999982 348 3903 15.000000000000002 288 10.999999999999998 12.999999999999998 219 11.000000000000002 9.9999999999999982
leaf_count=79 16474 364 438 116 10 348 3903 15 288 11 13 219 11 10
internal_value=0 7.39078e-05 -0.000594932 -0.00191583 0.000155452 -0.000677834 0.000217164 0.00079991 0.00155191 0.00319366 0.0112866 0.00229087 0.00914691 0.0153008
internal_weight=0 5825 633 195 5192 358 4834 931 567 279 28 251 32 21
internal_count=22299 5825 633 195 5192 358 4834 931 567 279 28 251 32 21
shrinkage=0.1


Tree=567
num_leaves=15
num_cat=0
split_feature=23 3 23 3 14 6 23 0 20 18 1 22 32 26
split_gain=0.00462304 0.0307541 0.0400511 0.177481 0.095488 0.118032 0.0669128 0.0616568 0.0994622 0.0511682 0.0348658 0.123894 0.146561 0.0471699
threshold=-7.6950299999999991 -6.8774499999999987 -6.9441449999999989 -6.3282549999999995 0.00031573000000000001 -4.0740349999999994e-06 -7.1911899999999989 4.6053300000000013 5.4892650000000005 4.8090950000000018e-07 -9.9732449999999968 -1.4209349999999998 0.051755150000000007 4.7656750000000011e-05
decision_type=2 2 2 2 2 2 2 2 2 2 2 2 2 2
left_child=-1 10 3 4 5 6 -3 9 -9 -7 11 12 -2 -13
right_child=1 2 -4 -5 -6 7 -8 8 -10 -11 -12 13 -14 -15
leaf_value=-2.8784143585291671e-05 0.0020764415593523726 -0.0036903040201971579 0.00010856601421926137 6.6504779875449578e-05 -0.00033874921866559556 -0.0028789334197929922 0.0056453971890732648 -0.0048411332093001832 -0.014826695571996666 -0.0092809485983760924 0.00018457078017271111 0.002023112550765897 0.016580724275924944 -0.0039247821919464821
leaf_weight=15932 19.000000000000004 17.000000000000004 1262 608 70 47 13.999999999999998 21 19 17 4208 30 10.999999999999998 24
leaf_count=15932 19 17 1262 608 70 47 14 21 19 17 4208 30 11 24
internal_value=0 7.20259e-05 -0.00024406 -0.000791432 -0.00333595 -0.00489005 0.000525819 -0.00650439 -0.00958428 -0.00457947 0.00022484 0.00224213 0.00739468 -0.000620396
internal_weight=0 6367 2075 813 205 135 31 104 40 64 4292 84 30 54
internal_count=22299 6367 2075 813 205 135 31 104 40 64 4292 84 30 54
shrinkage=0.1


Tree=568
num_leaves=15
num_cat=0
split_feature=28 19 11 0 7 22 33 13 3 29 0 20 1 31
split_gain=0.00466175 0.0184172 0.0444138 0.0384713 0.0365705 0.166222 0.034675 0.0336174 0.0754144 0.0871577 0.101525 0.0891369 0.0561913 0.0601771
threshold=-0.0035724649999999995 0.00044270400000000004 1.7598900000000002e-05 4.1933950000000015 2.6262200000000004e-05 -1.1769699999999998 -7.5866849999999995e-06 -9.4330749999999995e-06 -6.5086049999999993 -0.0027837849999999996 2.6314100000000002 1.4893350000000003 -7.1577199999999985 0.058427050000000001
decision_type=2 2 2 2 2 2 2 2 2 2 2 2 2 2
left_child=1 2 3 7 5 6 -5 8 9 10 -1 12 13 -11
right_child=-2 -3 -4 4 -6 -7 -8 -9 -10 11 -12 -13 -14 -15
leaf_value=-0.0035254283012929248 3.4203155852883338e-05 0.00011335447306217128 -0.00078333756328830711 0.0018541385327504639 0.00044651960653902304 0.012965394966662503 -0.0049260273702781297 -4.7060314882840566e-05 0.00024240732459843828 -0.01160922639071941 -0.013821788411587477 0.008407449880614877 -0.00012601121472350011 -0.0015944759485622248
leaf_weight=74 14298 3445 996 23.999999999999996 632 12.999999999999998 11.000000000000002 2463 222 10.000000000000002 10.999999999999998 9.9999999999999982 75 14.999999999999998
leaf_count=74 14298 3445 996 24 632 13 11 2463 222 10 11 10 75 15
internal_value=0 -6.1122e-05 -0.000193052 -2.79041e-05 0.000648623 0.00330965 -0.000276771 -0.00018764 -0.00101797 -0.00245286 -0.0048579 -0.000594416 -0.0014946 -0.00560038
internal_weight=0 8001 4556 3560 680 48 35 2880 417 195 85 110 100 25
internal_count=22299 8001 4556 3560 680 48 35 2880 417 195 85 110 100 25
shrinkage=0.1


Tree=569
num_leaves=15
num_cat=0
split_feature=3 23 13 5 34 14 18 38 33 0 4 37 2 4
split_gain=0.00429322 0.0265258 0.0272503 0.0423978 0.0611409 0.038317 0.0426221 0.125358 0.142928 0.0426146 0.0583608 0.0372745 0.0706794 0.114781
threshold=-6.7849649999999988 -7.6950299999999991 5.5414750000000007e-05 1.6234500000000002e-05 0.71875300000000009 0.0013568100000000002 -1.7326649999999998e-05 0.20581350000000001 5.4934400000000007e-05 4.7747550000000007 -0.88553049999999989 -3.3063099999999991e-07 2.3295700000000008 0.04625255000000001
decision_type=2 2 2 2 2 2 2 2 2 2 2 2 2 2
left_child=1 2 3 4 11 6 7 8 -6 10 -7 12 -1 -14
right_child=-2 -3 -4 -5 5 9 -8 -9 -10 -11 -12 -13 13 -15
leaf_value=-0.00032646174747635111 6.8274532372108302e-05 0.00017975534284675514 0.00010003265038701508 9.0206478505559513e-05 0.0020823988328246691 0.0055225424947874515 0.0006106008467583506 -0.0034202765207737686 0.01602271155376608 -0.0040653834825441727 -0.00056180590801912015 -0.00072730858860262288 -0.001154336098091122 0.0055477511002599003
leaf_weight=662 6518 4417 4026 2712 19.000000000000004 17 472 15.999999999999998 11.999999999999998 31 217 3077 47 56
leaf_count=662 6518 4417 4026 2712 19 17 472 16 12 31 217 3077 47 56
internal_value=0 -2.81993e-05 -0.000109028 -0.000223729 -0.000407774 0.000397018 0.000896565 0.00376838 0.00747865 -0.000581342 -0.000119781 -0.000572001 5.26831e-05 0.00248952
internal_weight=0 15781 11364 7338 4626 784 519 47 31 265 234 3842 765 103
internal_count=22299 15781 11364 7338 4626 784 519 47 31 265 234 3842 765 103
shrinkage=0.1


Tree=570
num_leaves=15
num_cat=0
split_feature=8 21 7 21 12 20 1 3 26 23 7 3 35 25
split_gain=0.00401694 0.0336664 0.0922022 0.111109 0.0853076 0.079041 0.12214 0.140092 0.0442025 0.0263916 0.0591942 0.0589132 0.0345139 0.0338121
threshold=2.2903550000000002e-05 -9.4492299999999982 7.255200000000002e-05 -10.562449999999998 -0.00011321699999999998 0.48743000000000009 -11.0039 -6.1233399999999989 -5.7051699999999995e-05 -11.574049999999998 5.1723650000000004e-05 -6.1233399999999989 0.00099012700000000015 0.94921900000000015
decision_type=2 2 2 2 2 2 2 2 2 2 2 2 2 2
left_child=-1 2 3 5 -5 8 7 -7 -2 -3 11 12 13 -11
right_child=1 9 -4 4 -6 6 -8 -9 -10 10 -12 -13 -14 -15
leaf_value=1.2919641086419896e-05 0.0019589865265879775 0.0002241822485446742 -0.00065593934664755823 0.003003529189154505 0.015509418659348739 0.017633615173399442 -0.0042712573567405343 0.00089489678386598802 -0.0068843410923503908 -0.0036508449359098452 -0.00025342767481198816 -0.00016354478963254032 -0.00025389041485530988 -0.0084914259735102728
leaf_weight=20408 10.000000000000002 644 115 10.000000000000002 11.999999999999998 10.000000000000002 9.9999999999999982 10.000000000000002 12.999999999999998 60 881 76 21 19
leaf_count=20408 10 644 115 10 12 10 10 10 13 60 881 76 21 19
internal_value=0 -0.000139431 0.00112306 0.00385086 0.00982492 0.00137106 0.00475242 0.00926426 -0.00303942 -0.00028045 -0.000587908 -0.00226221 -0.00385719 -0.00481504
internal_weight=0 1891 190 75 22 53 30 20 23 1701 1057 176 100 79
internal_count=22299 1891 190 75 22 53 30 20 23 1701 1057 176 100 79
shrinkage=0.1


Tree=571
num_leaves=15
num_cat=0
split_feature=28 1 21 7 1 14 14 3 21 26 14 3 14 34
split_gain=0.00403372 0.0186224 0.0970016 0.139137 0.199013 0.0601437 0.340147 0.142579 0.0662001 0.077672 0.0676059 0.0477438 0.142322 0.241231
threshold=-0.0035724649999999995 -8.5536199999999987 -9.5771849999999983 2.5826300000000004e-05 -11.642049999999999 0.00018093550000000002 0.00029752400000000002 -6.3788349999999996 -10.006174999999997 -0.00052983999999999985 0.00063647700000000009 -6.3047499999999994 0.00029046550000000007 0.014313000000000001
decision_type=2 2 2 2 2 2 2 2 2 2 2 2 2 2
left_child=1 2 3 4 -1 7 -7 -5 9 -8 -11 12 13 -4
right_child=-2 -3 11 5 -6 6 8 -9 -10 10 -12 -13 -14 -15
leaf_value=-0.0024585226178169242 3.1815934196764996e-05 3.5069427711281879e-06 -0.015427398029714823 -0.011953963203863665 0.01575377187381188 0.016132978986327848 0.0045621590161075195 0.00015351589522435375 0.0052860489416429231 -0.0095348155392067785 -0.0013125339542914716 -0.00027905793211393756 -0.00020756026530891958 -0.0027370149906750562
leaf_weight=10.000000000000002 14298 6918 17 10.999999999999998 14.999999999999998 14.999999999999998 14.999999999999998 84 17 13.999999999999998 35 500 224 126
leaf_count=10 14298 6918 17 11 15 15 15 84 17 14 35 500 224 126
internal_value=0 -5.68559e-05 -0.000442443 0.00145364 0.00846885 0.000535422 0.00230066 -0.0012484 -0.000260875 -0.00173428 -0.00366176 -0.000914824 -0.00178099 -0.00424566
internal_weight=0 8001 1083 216 25 191 96 95 81 64 49 867 367 143
internal_count=22299 8001 1083 216 25 191 96 95 81 64 49 867 367 143
shrinkage=0.1


Tree=572
num_leaves=15
num_cat=0
split_feature=14 14 23 23 33 13 34 19 34 8 21 24 3 38
split_gain=0.00422014 0.0123547 0.0800379 0.0704527 0.0368909 0.167638 0.1608 0.22347 0.371814 0.243999 0.354524 0.190882 0.16435 0.120189
threshold=0.00018093550000000002 0.00088515050000000019 -13.919899999999997 -6.376644999999999 -6.3131549999999994e-06 1.4967150000000001e-05 0.059226050000000009 1.0086700000000001e-07 0.023958650000000001 -9.2925849999999987e-06 -2.0719899999999996 -0.17198749999999999 -12.020399999999999 -0.00067998549999999998
decision_type=2 2 2 2 2 2 2 2 2 2 2 2 2 2
left_child=-1 2 -2 4 5 -4 7 8 9 -7 -11 -10 -8 -9
right_child=1 -3 3 -5 -6 6 12 13 11 10 -12 -13 -14 -15
leaf_value=6.9456673988086391e-05 0.00066904356391901015 3.2294101105782315e-05 -0.0010906025309076067 0.0010977877215289518 -0.00065461825659463881 0.026501899647216005 -0.0098818508250748411 0.0056551851051421295 0.011901406434675058 0.020073983924729481 -0.0033496972794334091 -0.0010890060792798583 0.0003723375307673291 -0.0013131319032214418
leaf_weight=6283 952 10973 559 311 2786 11.999999999999998 17 34 14.999999999999998 14 12 46 194 91
leaf_count=6283 952 10973 559 311 2786 12 17 34 15 14 12 46 194 91
internal_value=0 -2.72475e-05 -0.000156803 -0.000348983 -0.000468016 5.49955e-05 0.00152715 0.00339317 0.00694231 0.0147069 0.00926305 0.00210536 -0.000453829 0.00058225
internal_weight=0 16016 5043 4091 3780 994 435 224 99 38 26 61 211 125
internal_count=22299 16016 5043 4091 3780 994 435 224 99 38 26 61 211 125
shrinkage=0.1


Tree=573
num_leaves=15
num_cat=0
split_feature=20 11 6 30 7 25 18 22 36 6 22 8 34 11
split_gain=0.0039911 0.0169222 0.0168993 0.033656 0.0490375 0.0353599 0.101043 0.0334207 0.0332837 0.0313914 0.0629298 0.11849 0.0990111 0.110637
threshold=-2.7391899999999993 0.00011011750000000001 4.5648550000000004e-06 8.8232750000000017e-05 4.8056250000000006e-05 0.18550200000000003 -1.3109199999999999e-06 2.3063800000000003 2.1638550000000003 2.0822850000000006e-06 2.4010450000000003 -9.2925849999999987e-06 0.4540705000000001 -8.2571149999999986e-06
decision_type=2 2 2 2 2 2 2 2 2 2 2 2 2 2
left_child=1 2 9 4 7 6 -5 -4 -7 -1 -11 12 13 -12
right_child=-2 -3 3 5 -6 8 -8 -9 -10 10 11 -13 -14 -15
leaf_value=3.2320794220285332e-05 -3.2257658773487217e-05 0.00042770908811136312 -0.0020283111603930587 0.010356393306782204 -7.9156928142288434e-05 0.0003338535638220657 0.0005466419044144762 -0.0098559087002649901 0.0061379147600382567 -0.00011326650343129511 -0.010587621025499379 -0.00064873404803459864 0.0034006792586296799 -0.00079919624584042198
leaf_weight=5259 14101 1063 12.000000000000002 13.999999999999998 61 825 42 9.9999999999999982 9.9999999999999982 669 36 170 9.9999999999999982 17
leaf_count=5259 14101 1063 12 14 61 825 42 10 10 669 36 170 10 17
internal_value=0 5.54849e-05 2.95007e-08 0.000387094 -0.00153888 0.000566506 0.00299908 -0.00558631 0.000403363 -6.1162e-05 -0.000606202 -0.00202154 -0.00572593 -0.00744794
internal_weight=0 8198 7135 974 83 891 56 22 835 6161 902 233 63 53
internal_count=22299 8198 7135 974 83 891 56 22 835 6161 902 233 63 53
shrinkage=0.1


Tree=574
num_leaves=15
num_cat=0
split_feature=10 35 16 36 16 1 15 25 9 14 1 21 18 24
split_gain=0.00470632 0.0159739 0.0367323 0.0176722 0.0686104 0.0444964 0.0310514 0.0158791 0.0518382 0.0201607 0.015426 0.0701035 0.195006 0.254305
threshold=2.4033300000000002e-05 -3.6067149999999999 -7.8065149999999993e-07 -0.60087599999999985 -6.4791699999999993e-06 3.7958100000000004 -1.8057149999999999e-06 0.15031150000000001 1.7884200000000004e-05 0.00014721100000000004 -7.6665399999999986 -7.5273399999999997 -2.8154299999999994e-07 0.093593150000000014
decision_type=2 2 2 2 2 2 2 2 2 2 2 2 2 2
left_child=1 2 -1 4 5 -3 -6 8 9 -5 11 12 13 -9
right_child=-2 3 -4 7 6 -7 -8 10 -10 -11 -12 -13 -14 -15
leaf_value=-0.006500991499827552 -3.2331062632699692e-05 0.001820874499919062 0.00081802390086522798 0.0046111456048674882 -0.0047360056623195618 0.010815462571653453 0.00089737396678483147 0.008197985530683868 0.0069518281878637421 -0.00016518886826050126 -3.9664664449563958e-05 2.8766421921103234e-05 -0.00052723612972506689 -0.0025488778664317403
leaf_weight=12.000000000000002 14913 11.000000000000002 15.999999999999998 9.9999999999999982 11.999999999999998 10.999999999999998 53 76 13.999999999999998 76 5539 1378 147 31
leaf_count=12 14913 11 16 10 12 11 53 76 14 76 5539 1378 147 31
internal_value=0 6.52793e-05 -0.0023187 7.43513e-05 0.00149113 0.00631817 -0.000142635 5.7399e-05 0.00130883 0.000390199 3.99478e-05 0.000310152 0.00183672 0.00508441
internal_weight=0 7386 28 7358 87 22 65 7271 100 86 7171 1632 254 107
internal_count=22299 7386 28 7358 87 22 65 7271 100 86 7171 1632 254 107
shrinkage=0.1


Tree=575
num_leaves=15
num_cat=0
split_feature=20 5 16 33 9 22 32 33 9 9 36 6 0 14
split_gain=0.00418109 0.0354058 0.0539605 0.139091 0.458968 0.0786019 0.0472262 0.0999955 0.317109 0.102465 0.0759713 0.0689656 0.0550955 0.0422045
threshold=4.3779750000000011 1.0742400000000002e-05 5.1028300000000007e-07 1.3741200000000002e-05 2.6242100000000001e-05 -0.63044599999999995 0.022651250000000005 1.7107900000000001e-06 3.0005750000000003e-05 3.1357450000000009e-05 0.0018366300000000003 -3.2223299999999997e-07 5.1681400000000011 0.0025550350000000002
decision_type=2 2 2 2 2 2 2 2 2 2 2 2 2 2
left_child=-1 2 -2 6 5 -5 7 9 -9 10 12 -12 -4 -8
right_child=1 -3 3 4 -6 -7 13 8 -10 -11 11 -13 -14 -15
leaf_value=-2.8563413947759697e-05 0.00015210511906964884 -4.4090414296360395e-05 0.0012158106068577961 0.0068798225596905325 0.018857941732398773 -0.0023411361475154991 -0.0071947247076493042 0.00087890042649472469 0.021136653963476422 -0.0069900820135242406 0.012252769507467743 0.0021628584790353974 -0.0032413368842427216 -0.00029994274705781473
leaf_weight=15538 931 5497 96 12.999999999999998 19 32 12.999999999999998 34 9.9999999999999982 18 10.000000000000002 21 39 28
leaf_count=15538 931 5497 96 13 19 32 13 34 10 18 10 21 39 28
internal_value=0 6.56439e-05 0.000542867 0.00163536 0.00582535 0.000322696 0.000638481 0.00120036 0.00548294 0.00017626 0.000953334 0.00541767 -7.18098e-05 -0.00248609
internal_weight=0 6761 1264 333 64 45 269 228 44 184 166 31 135 41
internal_count=22299 6761 1264 333 64 45 269 228 44 184 166 31 135 41
shrinkage=0.1


Tree=576
num_leaves=15
num_cat=0
split_feature=28 1 21 10 24 19 34 3 14 21 21 3 0 37
split_gain=0.00404675 0.0164402 0.0754631 0.0992697 0.200489 0.0841343 0.0452434 0.0877994 0.297374 0.0692772 0.0602584 0.0399378 0.114265 0.130296
threshold=-0.0035724649999999995 -8.5536199999999987 -9.3347499999999979 1.6084800000000002e-05 0.10805550000000001 2.2962050000000003e-07 0.03814420000000001 -6.3047499999999994 0.00029752400000000002 -8.2570699999999988 -8.0113049999999983 -6.9004699999999994 -3.6001199999999995 -3.251719999999999e-08
decision_type=2 2 2 2 2 2 2 2 2 2 2 2 2 2
left_child=1 2 3 4 5 -1 7 8 10 -10 -4 12 -5 -14
right_child=-2 -3 6 11 -6 -7 -8 -9 9 -11 -12 -13 13 -15
leaf_value=-0.0031612240599797055 3.1867279808384529e-05 -2.317668601437379e-07 -0.0166370186333855 -0.0069222689652815462 0.017900300275068733 0.0069419788545928901 -0.0004768467429720115 -0.00036651777869028935 0.0087468935910146681 -0.00094944899652286301 -0.0082112184661472659 -0.00063026392810963845 0.011667517964344691 0.00012214924714973441
leaf_weight=17 14298 6918 11.999999999999998 9.9999999999999982 9.9999999999999982 15.999999999999998 657 106 9.9999999999999982 28 29 148 17 23
leaf_count=17 14298 6918 12 10 10 16 657 106 10 28 29 148 17 23
internal_value=0 -5.69477e-05 -0.000419238 0.00114103 0.00549614 0.0017373 -0.000865825 -0.00224722 -0.0047707 0.00160222 -0.0106773 0.00019523 0.00263869 0.00502893
internal_weight=0 8001 1083 241 43 33 842 185 79 38 41 198 50 40
internal_count=22299 8001 1083 241 43 33 842 185 79 38 41 198 50 40
shrinkage=0.1


Tree=577
num_leaves=15
num_cat=0
split_feature=14 14 22 29 35 15 21 20 23 36 3 16 10 28
split_gain=0.00432337 0.0121254 0.0352286 0.0359632 0.0385328 0.0376528 0.0348547 0.0211638 0.0111175 0.0318152 0.10016 0.0803385 0.168184 0.0781455
threshold=0.00018093550000000002 0.00018603950000000002 0.61519100000000015 -0.0050592849999999993 0.00018548400000000003 3.938350000000001e-08 6.6942750000000011 0.40854400000000007 -8.4213949999999986 -0.0011744049999999997 -6.3643949999999991 1.0000000180025095e-35 2.0477500000000005e-05 -0.0143857
decision_type=2 2 2 2 2 2 2 2 2 2 2 2 2 2
left_child=8 2 3 5 -5 -2 7 -4 -1 10 11 12 -10 -14
right_child=1 -3 6 4 -6 -7 -8 -9 9 -11 -12 -13 13 -15
leaf_value=0.00018195589476133523 -0.0007858388684689997 -2.0929097735199968e-05 0.00096604178293741157 -0.004253919810289517 0.0026087072289859257 -0.0087076279707252995 -0.003321939448572018 0.0069894012575969101 0.011196898585185409 5.201016970350663e-05 0.00031164132792242118 -0.0057343327458569092 -0.0090608532726764689 -0.00070278046954296187
leaf_weight=3686 10.000000000000002 15923 14.000000000000002 14.999999999999998 18 14.999999999999998 10.999999999999998 9.9999999999999982 9.9999999999999982 2238 227 63 14.999999999999998 44
leaf_count=3686 10 15923 14 15 18 15 11 10 10 2238 227 63 15 44
internal_value=0 -2.75788e-05 -0.0011661 -0.00267802 -0.000510669 -0.00553891 0.00133935 0.00347577 7.03011e-05 -8.8174e-05 -0.000962079 -0.00315249 -0.000795162 -0.00282771
internal_weight=0 16016 93 58 33 25 35 24 6283 2597 359 132 69 59
internal_count=22299 16016 93 58 33 25 35 24 6283 2597 359 132 69 59
shrinkage=0.1


Tree=578
num_leaves=15
num_cat=0
split_feature=11 20 23 20 0 0 20 14 14 10 24 4 10 4
split_gain=0.00384526 0.00626278 0.00537301 0.00473529 0.0288941 0.0974378 0.278718 0.150686 0.112713 0.117808 0.2111 0.742345 0.373334 0.248168
threshold=0.00105597 4.7860750000000012 -6.3575349999999995 4.3779750000000011 8.8772900000000021 4.4138050000000009 9.5865750000000016 0.0023278500000000007 0.00013119700000000002 5.5065450000000007e-05 -0.1221095 -0.056547899999999991 2.9776650000000002e-05 -0.014310149999999999
decision_type=2 2 2 2 2 2 2 2 2 2 2 2 2 2
left_child=3 2 -2 -1 5 -5 7 8 -7 10 11 12 -10 -12
right_child=1 -3 -4 4 -6 6 -8 -9 9 -11 13 -13 -14 -15
leaf_value=-2.4934832845603276e-05 4.1841469366657108e-05 -0.00091408039874173077 -0.0019002869779554507 -5.7825019648591676e-05 -0.00046156428991193455 0.00032490155209798213 -0.0015714569774169761 -0.00042118408963700361 0.0065937076811678711 0.0003038156611867072 -0.0010672047861620911 -0.0013843275701704745 0.01984931084083482 0.0050422776579273285
leaf_weight=15253 283 119 14.999999999999998 4523 868 169 325 223 43 105 117 60 42 154
leaf_count=15253 283 119 15 4523 868 169 325 223 43 105 117 60 42 154
internal_value=0 -0.000300812 -5.59167e-05 5.73251e-06 7.62965e-05 0.000157335 0.000943417 0.00183863 0.00256898 0.00329691 0.00405238 0.00713201 0.0131435 0.0024046
internal_weight=0 417 298 21882 6629 5761 1238 913 690 521 416 145 85 271
internal_count=22299 417 298 21882 6629 5761 1238 913 690 521 416 145 85 271
shrinkage=0.1


Tree=579
num_leaves=15
num_cat=0
split_feature=3 20 0 23 13 37 1 0 29 0 8 37 3 23
split_gain=0.00466716 0.0225724 0.0999442 0.469053 0.254625 0.384579 0.0621426 0.034318 0.0339706 0.033704 0.0582804 0.0550244 0.0364199 0.067521
threshold=-8.2580449999999974 7.2040400000000009 7.4476300000000011 -8.1679949999999977 8.5891550000000009e-06 2.5853150000000005e-08 2.2554350000000003 8.2264200000000027 -0.0014137999999999998 3.9674000000000005 1.8026050000000003e-05 -4.1054299999999992e-06 -10.579399999999998 -7.5662549999999991
decision_type=2 2 2 2 2 2 2 2 2 2 2 2 2 2
left_child=1 7 9 4 5 -4 -6 -1 -9 12 11 -11 -3 -14
right_child=-2 2 3 -5 6 -7 -8 8 -10 10 -12 -13 13 -15
leaf_value=-7.8341686189265159e-05 4.8101275331715942e-05 0.0007243278585091638 0.030215776649614168 -0.004024362720305031 -0.00093393235777815156 0.004898479119098435 0.0092430554563179609 -0.0031901982241210394 -0.00039611560948485375 0.006382061787880958 0.0047281893650314918 -0.0011312509042494677 -0.0014835482066224532 0.00089424440452863887
leaf_weight=9644 10591 892 12.000000000000002 44 15.000000000000002 11.999999999999998 9.9999999999999982 70 115 9.9999999999999982 19 386 252 227
leaf_count=9644 10591 892 12 44 15 12 10 70 115 10 19 386 252 227
internal_value=0 -4.35122e-05 0.000274057 0.00347011 0.0101998 0.0175571 0.00313686 -0.000104222 -0.00145334 0.000107633 -0.000681944 -0.000941521 0.000346637 -0.000356703
internal_weight=0 11708 1879 93 49 24 25 9829 185 1786 415 396 1371 479
internal_count=22299 11708 1879 93 49 24 25 9829 185 1786 415 396 1371 479
shrinkage=0.1


Tree=580
num_leaves=15
num_cat=0
split_feature=20 11 10 6 22 2 29 33 28 12 5 23 8 6
split_gain=0.00448894 0.0142965 0.0179419 0.0313879 0.0346364 0.0318149 0.0285762 0.0284572 0.0348052 0.114631 0.229549 0.102166 0.0260486 0.0257087
threshold=-2.7391899999999993 0.00011419900000000001 2.9423900000000005e-05 4.5648550000000004e-06 2.8207600000000004 2.3013650000000005 -1.6016149999999996 4.2098350000000007e-05 0.0087844750000000017 3.9784250000000008e-05 2.3059150000000004e-05 -8.1484599999999983 2.2903550000000002e-05 2.2187500000000001e-06
decision_type=2 2 2 2 2 2 2 2 2 2 2 2 2 2
left_child=1 2 12 13 6 -6 -5 8 -8 -10 -11 -12 -1 -4
right_child=-2 -3 3 4 5 -7 7 -9 9 10 11 -13 -14 -15
leaf_value=0.00020297608964013801 -3.4210386857828608e-05 0.00040625027298686465 -0.00018675847233887198 0.005649007719264112 -0.00023191427524125175 -0.0042733894414725788 0.00043231444652900506 -0.0010869779425118715 -0.00016402145774918608 0.018169732267657914 -0.0036538883308821824 0.0080435227236843512 -0.002363870183180552 -0.0010658601359999059
leaf_weight=3403 14101 1035 2447 10.999999999999998 64 28 578 97 68 11.999999999999998 15.999999999999998 14.000000000000002 40 385
leaf_count=3403 14101 1035 2447 11 64 28 578 97 68 12 16 14 40 385
internal_value=0 5.88437e-05 8.64605e-06 -0.000143613 0.000375127 -0.00146193 0.00058745 0.000516524 0.000742599 0.002373 0.00648057 0.0018049 0.000173155 -0.000306269
internal_weight=0 8198 7163 3720 888 92 796 785 688 110 42 30 3443 2832
internal_count=22299 8198 7163 3720 888 92 796 785 688 110 42 30 3443 2832
shrinkage=0.1


Tree=581
num_leaves=15
num_cat=0
split_feature=22 2 2 2 14 34 2 22 4 4 2 5 32 35
split_gain=0.00441244 0.236202 0.0426314 0.0589236 0.0295659 0.0542076 0.018384 0.0767868 0.0475784 0.0838369 0.0165766 0.0150027 0.018028 0.0303843
threshold=2.9368200000000004 3.0381150000000003 2.9510950000000005 2.2598050000000005 0.0021213250000000007 0.088343250000000012 2.9665000000000004 2.3249300000000006 0.028911300000000004 0.43777950000000004 2.7367000000000004 1.3223650000000002e-05 0.055880250000000013 0.00035379050000000005
decision_type=2 2 2 2 2 2 2 2 2 2 2 2 2 2
left_child=6 2 3 -2 5 -5 -1 11 -9 -10 -7 12 13 -8
right_child=1 -3 -4 4 -6 10 7 8 9 -11 -12 -13 -14 -15
leaf_value=5.4522926879240381e-06 0.00019306774812861654 0.015508035849779845 0.0047926324833598407 -0.010691000199453397 0.00036200429112795976 -0.0004488749272080466 -0.00050078085944827257 -0.00035496302163944796 -0.013620794601350399 -0.0012231781038281042 -0.0054309053261849018 0.00026081918791816055 0.00040956295108319162 -0.004265779601315872
leaf_weight=21317 493 9.9999999999999982 18 10.999999999999998 15.999999999999998 17.000000000000004 58 12.999999999999998 12.000000000000002 9.9999999999999982 10.999999999999998 225 54 34
leaf_count=21317 493 10 18 11 16 17 58 13 12 10 11 225 54 34
internal_value=0 0.000273178 4.01063e-06 -0.00015328 -0.00325781 -0.00474287 -7.24349e-06 -0.000673835 -0.00515131 -0.00798551 -0.0024061 -0.000251431 -0.00104086 -0.00189219
internal_weight=0 576 566 548 55 39 21723 406 35 22 28 371 146 92
internal_count=22299 576 566 548 55 39 21723 406 35 22 28 371 146 92
shrinkage=0.1


Tree=582
num_leaves=15
num_cat=0
split_feature=11 28 13 5 7 9 31 5 19 19 8 29 29 35
split_gain=0.00436142 0.0229198 0.0539095 0.0442431 0.0435494 0.0640325 0.0416969 0.158769 0.0599461 0.120776 0.0961241 0.048975 0.0404236 0.0352337
threshold=1.8404100000000006e-05 0.012125900000000002 2.2173350000000003e-05 9.3138400000000033e-06 4.8742200000000009e-05 4.4382150000000007e-05 -0.19436299999999998 1.0432800000000001e-05 2.1900450000000003e-07 1.3306300000000002e-06 -1.4233499999999998e-05 -0.017404799999999995 0.0044356050000000013 -0.37774049999999998
decision_type=2 2 2 2 2 2 2 2 2 2 2 2 2 2
left_child=-1 -2 4 12 5 -3 7 -5 -9 10 -10 13 -4 -11
right_child=1 2 3 6 -6 -7 -8 8 9 11 -12 -13 -14 -15
leaf_value=3.1417323363767906e-05 2.2713497465000841e-05 -0.0017311828644547425 -0.0066834099225363602 0.011268842474867901 -0.00031735924438992249 -0.0095097679052163261 -0.00026067368257749816 -0.0050562234033885252 0.0014847924952240037 0.0043152141162221712 0.014142073364928365 0.0068178630619182851 0.00011630677070249531 -0.00044633451396102874
leaf_weight=14820 6053 279 18 14.999999999999998 307 10.999999999999998 529 17 12.000000000000002 17 11.999999999999998 10.999999999999998 17 181
leaf_count=14820 6053 279 18 15 307 11 529 17 12 17 12 11 17 181
internal_value=0 -6.22549e-05 -0.000422924 9.88508e-05 -0.00114747 -0.00202623 0.000252231 0.0012761 0.000676541 0.00109481 0.00781343 0.000323295 -0.00338069 -3.75147e-05
internal_weight=0 7479 1426 829 597 290 794 265 250 233 24 209 35 198
internal_count=22299 7479 1426 829 597 290 794 265 250 233 24 209 35 198
shrinkage=0.1


Tree=583
num_leaves=15
num_cat=0
split_feature=29 0 2 5 22 19 11 11 11 29 25 2 21 14
split_gain=0.00406736 0.0163157 0.0180458 0.0257417 0.0249447 0.0187507 0.0252207 0.0450213 0.0479492 0.120585 0.0266963 0.0222759 0.0225218 0.0225366
threshold=0.0058271950000000012 -12.210999999999999 3.0591050000000006 6.4921000000000009e-06 -1.6852149999999997 5.7530250000000008e-09 -7.3710949999999982e-05 -4.0662699999999993e-05 -2.3418399999999996e-05 0.019765450000000004 1.0014450000000001 -1.6954399999999998 -0.92106149999999987 0.00015685400000000003
decision_type=2 2 2 2 2 2 2 2 2 2 2 2 2 2
left_child=-1 -2 3 4 -3 6 -5 10 9 -9 -8 12 13 -10
right_child=1 2 -4 5 -6 -7 7 8 11 -11 -12 -13 -14 -15
leaf_value=-2.7025599850092903e-05 -0.00075205767218740685 -0.005918345992436764 0.003175795631633312 0.0051950541480133934 0.00029493672773241999 4.7501510976683489e-05 -0.0073784818237816732 0.013463163623819122 -0.00095145160040475377 -0.0011430701419997674 -0.00023946336470544337 0.00097401569367123206 0.0007769576208169972 -0.0056798465705166258
leaf_weight=15923 234 14.000000000000002 19 11.999999999999998 11.999999999999998 5550 11.000000000000002 10.000000000000002 63 12.999999999999998 9.9999999999999982 345 71 11.999999999999998
leaf_count=15923 234 14 19 12 12 5550 11 10 63 13 10 345 71 12
internal_value=0 6.74919e-05 9.87154e-05 8.91671e-05 -0.00305068 0.000102557 0.000661159 0.000559465 0.000744886 0.00520747 -0.00397895 0.000535845 -0.000499559 -0.00170799
internal_weight=0 6376 6142 6123 26 6097 547 535 514 23 21 491 146 75
internal_count=22299 6376 6142 6123 26 6097 547 535 514 23 21 491 146 75
shrinkage=0.1


Tree=584
num_leaves=15
num_cat=0
split_feature=2 22 22 13 1 6 8 23 11 12 34 0 20 11
split_gain=0.00395745 0.0242035 0.06175 0.376081 0.306768 0.392175 0.292941 0.179221 0.14426 0.224488 0.0922716 0.0650934 0.215787 0.36213
threshold=-1.039175 -1.6695199999999997 -1.0504299999999998 -5.4235199999999987e-06 -7.9871449999999991 4.0523350000000008e-07 1.2877700000000002e-05 -8.546364999999998 1.2699150000000002e-05 -5.5391499999999993e-05 0.28311400000000003 -0.96284049999999988 0.8733565000000002 -2.1306699999999998e-06
decision_type=2 2 2 2 2 2 2 2 2 2 2 2 2 2
left_child=1 -1 3 4 7 10 -7 -3 9 -9 -6 -5 13 -13
right_child=-2 2 -4 11 5 6 -8 8 -10 -11 -12 12 -14 -15
leaf_value=-0.00023946878447970196 -3.1421636406461631e-05 -0.0030591358270612547 2.790857370084334e-05 -0.00060366137260176142 -0.0028631542838411408 0.0088916305271494727 0.027196364893632776 0.018198973536491397 -0.0042778343597257677 0.0023339625929524612 0.0077173561652136196 0.023930123159661892 -0.0011131430054371505 0.0029336041206514223
leaf_weight=2052 14328 44 5081 525 15.999999999999998 18 17 14.999999999999995 10.999999999999998 22.000000000000004 17 9.9999999999999982 97 46
leaf_count=2052 14328 44 5081 525 16 18 17 15 11 22 17 10 97 46
internal_value=0 5.64809e-05 0.000159081 0.00095441 0.00531529 0.0104084 0.0177825 0.0015508 0.00577658 0.00876572 0.00258741 -7.47051e-05 0.00174034 0.00668298
internal_weight=0 7971 5919 838 160 68 35 92 48 37 33 678 153 56
internal_count=22299 7971 5919 838 160 68 35 92 48 37 33 678 153 56
shrinkage=0.1


Tree=585
num_leaves=15
num_cat=0
split_feature=2 22 5 0 23 19 22 19 11 29 33 19 39 25
split_gain=0.00419277 0.105953 0.0843082 0.0727078 0.0814769 0.0449341 0.0393916 0.0317035 0.053855 0.0174166 0.0178633 0.0154227 0.0153197 0.0133724
threshold=-2.7883099999999996 -2.7851799999999995 1.6084250000000004e-05 -8.6447399999999988 -8.1679949999999977 1.5129550000000005e-07 -2.3322399999999992 3.6465450000000008e-06 -1.9692799999999999e-05 0.0043060250000000007 -4.4135199999999997e-07 2.5573700000000003e-06 0.00017326550000000001 0.91432000000000013
decision_type=2 2 2 2 2 2 2 2 2 2 2 2 2 2
left_child=1 2 3 4 -1 -5 7 8 -3 10 11 13 -4 -8
right_child=-2 6 12 5 -6 -7 9 -9 -10 -11 -12 -13 -14 -15
leaf_value=-0.0035374229361133814 -1.0018365958386687e-05 -0.007309488146616471 -0.0015580850085192969 0.0062795309349894498 0.0077934100975592937 0.015759415635839106 -0.0014453205124450976 -0.00045806036573497859 0.00074297265472033855 -0.00061932099698427945 0.00084607872807217232 0.00046884986764881534 0.0031302374840015547 0.00048455364258888253
leaf_weight=11.000000000000002 21169 23 23 10.000000000000002 14.999999999999998 9.9999999999999982 116 47 12.999999999999998 249 362 189 9.9999999999999982 52
leaf_count=11 21169 23 23 10 15 10 116 47 13 249 362 189 10 52
internal_value=0 0.00018768 0.00371956 0.0064865 0.0029996 0.0110195 -7.77989e-05 -0.00216854 -0.00440166 0.000101469 0.000351089 -0.000150834 -0.000137381 -0.000847979
internal_weight=0 1130 79 46 26 20 1051 83 36 968 719 357 33 168
internal_count=22299 1130 79 46 26 20 1051 83 36 968 719 357 33 168
shrinkage=0.1


Tree=586
num_leaves=15
num_cat=0
split_feature=3 20 20 0 21 14 22 5 14 10 39 25 16 34
split_gain=0.00469164 0.0217495 0.0202133 0.0802954 0.241152 0.167457 0.138618 0.159939 0.0367544 0.0486791 0.0798603 0.128753 0.182421 0.0935033
threshold=-8.2580449999999974 26.818400000000004 7.2040400000000009 7.4476300000000011 5.7466550000000005 0.00082317850000000021 -0.24703349999999999 1.1548250000000001e-05 0.0010120500000000002 3.426720000000001e-05 8.2300850000000017e-06 1.3871900000000001 1.5982500000000002e-07 0.0086581400000000017
decision_type=2 2 2 2 2 2 2 2 2 2 2 2 2 2
left_child=2 -2 -1 8 5 6 -5 -8 9 -4 13 12 -12 -11
right_child=1 -3 3 4 -6 -7 7 -9 -10 10 11 -13 -14 -15
leaf_value=-0.00010107554853427206 5.2632743339515978e-05 -0.0046132109797326851 -0.001534991232145923 0.0011728398860074006 -0.0076451970113660481 0.00031285320797264028 0.0082121104075524361 0.023836351106874647 0.00037099927824560375 0.00091135479742661125 0.0013163387950044124 0.00019533469695418785 0.017626777244731783 -0.005777323945111483
leaf_weight=9829 10581 9.9999999999999982 267 12.999999999999998 17 34 19.000000000000004 9.9999999999999982 1336 57 16.000000000000004 65 11.999999999999998 33
leaf_count=9829 10581 10 267 13 17 34 19 10 1336 57 16 65 12 33
internal_value=0 4.82273e-05 -4.36262e-05 0.00025689 0.0031216 0.00552997 0.00975335 0.0135998 0.00010772 -0.000673928 0.000582377 0.00263741 0.00830653 -0.00154116
internal_weight=0 10591 11708 1879 93 76 42 29 1786 450 183 93 28 90
internal_count=22299 10591 11708 1879 93 76 42 29 1786 450 183 93 28 90
shrinkage=0.1


Tree=587
num_leaves=15
num_cat=0
split_feature=29 27 2 10 22 2 1 3 8 3 7 9 10 13
split_gain=0.00437154 0.0139198 0.0275192 0.0668158 0.108578 0.017651 0.0263859 0.0256413 0.0195294 0.030151 0.0539358 0.0292045 0.0839713 0.0376801
threshold=0.0058271950000000012 0.31467300000000004 2.7196500000000001 5.876315000000001e-05 2.7476650000000005 2.1843350000000004 4.1398150000000014 -8.544439999999998 1.14013e-05 -12.248949999999999 4.3158050000000006e-05 -1.7106999999999997e-05 1.8987800000000005e-05 -3.8532249999999993e-05
decision_type=2 2 2 2 2 2 2 2 2 2 2 2 2 2
left_child=-1 2 5 4 -4 8 -7 -8 11 10 -10 12 -2 -13
right_child=1 -3 3 -5 -6 6 7 -9 9 -11 -12 13 -14 -15
leaf_value=-2.8017942704681349e-05 0.010970948133617639 1.6104018695384329e-05 -0.00026019746014340351 -0.0012211429497983772 0.013790228929031978 0.0019900786193708577 -0.0065352585506983701 -0.00088422630616973724 -0.00930886563408421 0.00014352393346264681 -0.00023565916834693206 -0.0056805186267592945 0.0013600998243491632 0.00054497114527683678
leaf_weight=15923 9.9999999999999982 5628 11.000000000000002 20 10.999999999999998 14.999999999999998 12.999999999999995 21.000000000000004 10.000000000000002 158 19 9.9999999999999982 100 350
leaf_count=15923 10 5628 11 20 11 15 13 21 10 158 19 10 100 350
internal_value=0 6.99702e-05 0.000475262 0.00296208 0.00676502 0.000327321 -0.00150359 -0.00304492 0.000463873 -0.000400478 -0.00336435 0.000807775 0.00223381 0.000372041
internal_weight=0 6376 748 42 22 706 49 34 657 187 29 470 110 360
internal_count=22299 6376 748 42 22 706 49 34 657 187 29 470 110 360
shrinkage=0.1


Tree=588
num_leaves=15
num_cat=0
split_feature=16 20 0 26 9 34 20 5 9 7 13 29 9 0
split_gain=0.00408076 0.0167781 0.0340926 0.0207942 0.0290768 0.015795 0.0130404 0.0381658 0.0470068 0.138087 0.044382 0.0412142 0.0821979 0.0553732
threshold=4.5816150000000005e-06 10.049750000000001 8.5645450000000007 -0.0010712649999999998 7.8003300000000009e-06 0.21679700000000002 9.7122600000000023 1.0329650000000002e-05 3.1953100000000011e-05 3.7417800000000006e-05 -1.6785899999999995e-05 -0.0056611349999999994 2.3339450000000002e-05 8.5645450000000007
decision_type=2 2 2 2 2 2 2 2 2 2 2 2 2 2
left_child=6 -2 3 4 -3 -4 -1 8 10 -10 -8 12 -12 -13
right_child=1 2 5 -5 -6 -7 7 -9 9 -11 11 13 -14 -15
leaf_value=-4.7698573486029705e-05 0.00013088428382696034 0.0004256672829135574 -0.0022034242671603961 -1.8964105921648361e-05 -0.0068453016817908406 -0.0068558481731452042 0.0040281999015456278 3.227903870551562e-05 0.01205286086536944 -0.0007820877154651834 0.00028186151230086883 0.00083524939736869842 -0.0070816837324711836 0.0089029499189928179
leaf_weight=16045 4583 11.000000000000002 27 285 10.999999999999998 9.9999999999999982 36 1096 14.999999999999998 19 75 57 19 9.9999999999999982
leaf_count=16045 4583 11 27 285 11 10 36 1096 15 19 75 57 19 10
internal_value=0 8.0327e-05 -0.000593232 -0.000247625 -0.00320982 -0.00346084 -2.27821e-05 0.000278487 0.00144664 0.00488039 0.000854018 0.000144263 -0.00120651 0.00203938
internal_weight=0 4927 344 307 22 37 17372 1327 231 34 197 161 94 67
internal_count=22299 4927 344 307 22 37 17372 1327 231 34 197 161 94 67
shrinkage=0.1


Tree=589
num_leaves=15
num_cat=0
split_feature=3 23 14 0 3 23 14 23 8 3 3 23 7 19
split_gain=0.00418181 0.0219593 0.0391135 0.0391896 0.0393788 0.0317247 0.284901 0.148063 0.0795045 0.0959279 0.0545069 0.0850539 0.0998022 0.0809356
threshold=-8.2580449999999974 -7.2618449999999992 0.0071294650000000006 -3.3033299999999994 -10.645549999999998 -8.291344999999998 0.00056584850000000015 -7.6950299999999991 -1.9391749999999999e-05 -10.915599999999998 -10.813299999999998 -10.976349999999998 1.8309950000000006e-05 0.00058040000000000012
decision_type=2 2 2 2 2 2 2 2 2 2 2 2 2 2
left_child=1 5 3 -3 -5 10 7 8 -7 -10 -1 -12 -13 -14
right_child=-2 2 -4 4 -6 6 -8 -9 9 -11 11 12 13 -15
leaf_value=-0.00025272843177180128 4.5531539854708573e-05 0.001253682045698595 -0.00027209915111760236 0.00071703174154508708 -0.0005454180016630873 0.0032639903947710991 9.3834204803387963e-05 -0.00087164700682424443 0.00070040157910338354 -0.0068993100949614238 -0.00016228096316983818 0.0099663472035899769 0.0015918474707786727 4.4801582347634721e-05
leaf_weight=4379 10591 510 976 579 431 9.9999999999999982 1392 134 19 132 1781 11.999999999999998 666 687
leaf_count=4379 10591 510 976 579 431 10 1392 134 19 132 1781 12 666 687
internal_value=0 -4.11876e-05 0.000221913 0.000539121 0.000178303 -0.000112475 -0.000504413 -0.00332733 -0.00537119 -0.00594305 -2.4608e-05 0.000292919 0.000886846 0.000806319
internal_weight=0 11708 2496 1520 1010 9212 1687 295 161 151 7525 3146 1365 1353
internal_count=22299 11708 2496 1520 1010 9212 1687 295 161 151 7525 3146 1365 1353
shrinkage=0.1


Tree=590
num_leaves=15
num_cat=0
split_feature=31 5 20 3 2 10 25 21 21 22 20 22 19 19
split_gain=0.00421705 0.0148743 0.0270006 0.0137752 0.0126633 0.0470168 0.0701821 0.0868968 0.0713258 0.0491102 0.0393834 0.0316924 0.0286384 0.025007
threshold=0.072599000000000011 6.4921000000000009e-06 -4.6417749999999991 -19.356149999999996 -2.2669549999999998 2.6578700000000004e-05 0.2529685000000001 -4.4131349999999996 -6.1765049999999997 -2.5723499999999997 -5.1274949999999988 2.1382650000000005 6.9708700000000016e-08 4.5111750000000007e-08
decision_type=2 2 2 2 2 2 2 2 2 2 2 2 2 2
left_child=-1 2 -2 -3 5 6 -5 8 -8 -9 12 -12 -11 -6
right_child=1 3 -4 4 13 -7 7 9 -10 10 11 -13 -14 -15
leaf_value=-2.5906976917143093e-05 -0.006082591190087523 -0.0023585671982879791 0.00035335674183443192 0.0054543077526614074 0.0007168328496920469 -8.0334469309407163e-06 -0.0031621346157044167 -0.0075333737514235765 -0.015105816163122655 -0.00043862650815684062 -0.0072895731031894636 8.1304670311510568e-05 0.0064942310902882704 6.469994490338935e-05
leaf_weight=16458 11.000000000000002 23 15.999999999999998 9.9999999999999982 682 753 10.000000000000002 10.999999999999998 9.9999999999999982 12.999999999999998 10.000000000000005 13.999999999999998 10.999999999999998 4267
leaf_count=16458 11 23 16 10 682 753 10 11 10 13 10 14 11 4267
internal_value=0 7.29973e-05 -0.0022687 8.3872e-05 9.35726e-05 -0.000264936 -0.0024385 -0.00343759 -0.00913398 -0.00150661 -0.000125481 -0.00298989 0.00273893 0.000154568
internal_weight=0 5841 27 5814 5791 842 89 79 20 59 48 24 24 4949
internal_count=22299 5841 27 5814 5791 842 89 79 20 59 48 24 24 4949
shrinkage=0.1


Tree=591
num_leaves=15
num_cat=0
split_feature=4 26 3 1 16 16 16 10 13 7 20 17 4 12
split_gain=0.00382435 0.0171059 0.0248866 0.0262541 0.043401 0.0827729 0.0666565 0.0621795 0.029927 0.0525167 0.0519953 0.0376402 0.0297962 0.0195207
threshold=0.313587 -0.00066057799999999988 -17.461949999999998 -5.0012199999999991 7.8753600000000015e-06 4.7775650000000007e-07 1.5605150000000004e-05 3.2922000000000008e-05 -1.6785899999999995e-05 3.5735950000000008e-05 2.2853950000000003 1.2084200000000002e-05 1.1082250000000002 0.00013874850000000002
decision_type=2 2 2 2 2 2 2 2 2 2 2 2 2 2
left_child=-1 2 -2 12 5 8 7 -6 11 10 -10 -5 -4 -8
right_child=1 -3 3 4 6 -7 13 -9 9 -11 -12 -13 -14 -15
leaf_value=-2.3361437506527509e-05 -0.0050615268846740946 0.0001219129802981784 -0.0044912998613532793 -0.0050515347871145123 -0.011561486124992366 0.0078491435906685447 -0.0035948059661313893 -0.00092881539603695273 0.010436199199069627 -4.9661209667454274e-05 0.00047307821922004228 0.0021023049950599673 -0.00060937304619513048 0.0002763162001337141
leaf_weight=16916 11.999999999999998 5012 30 19.000000000000004 11.000000000000002 17 14.999999999999998 10.999999999999998 11.000000000000002 66 9.9999999999999982 11.999999999999998 58 99
leaf_count=16916 12 5012 30 19 11 17 15 11 11 66 10 12 58 99
internal_value=0 7.3413e-05 -0.000581795 -0.000432054 5.52589e-05 0.00132545 -0.00120559 -0.00624515 0.000385592 0.00133622 0.00569186 -0.00228231 -0.00193276 -0.000233042
internal_weight=0 5383 371 359 271 135 136 22 118 87 21 31 88 114
internal_count=22299 5383 371 359 271 135 136 22 118 87 21 31 88 114
shrinkage=0.1


Tree=592
num_leaves=15
num_cat=0
split_feature=33 6 5 6 33 13 33 10 30 14 23 3 3 19
split_gain=0.00455023 0.0657935 0.0274555 0.0272356 0.0406357 0.0348114 0.0339298 0.0348032 0.0869068 0.0323195 0.0370616 0.051009 0.0866927 0.0895862
threshold=-1.3162999999999997e-05 1.5846850000000003e-06 1.6986100000000003e-05 1.2416850000000003e-06 7.1091050000000012e-07 -4.0032299999999993e-05 7.1091050000000012e-07 8.6105100000000007e-06 0.00045453800000000004 0.00026056950000000005 -7.4021049999999997 -5.9294499999999992 -6.9557349999999998 2.3980750000000006e-05
decision_type=2 2 2 2 2 2 2 2 2 2 2 2 2 2
left_child=1 -1 -3 6 5 -5 7 8 -2 10 -8 12 -12 -14
right_child=3 2 -4 4 -6 -7 9 -9 -10 -11 11 -13 13 -15
leaf_value=-0.00016468239065012472 -0.0014098192448727784 0.0012099908355082791 0.00026618584279276548 0.0010316761592445804 -0.00040662905501239252 -3.4213509290339765e-05 0.00080202697460633916 -0.00014089004568744432 0.01079604208469391 7.6405093590802938e-05 0.00091130007484727625 0.0010269490550854244 -0.0034612748903741909 0.0063505432964302598
leaf_weight=2921 14.000000000000002 576 663 354 3640 2279 1484 5196 9.9999999999999982 4719 114 185 134 9.9999999999999982
leaf_count=2921 14 576 663 354 3640 2279 1484 5196 10 4719 114 185 134 10
internal_value=0 9.43266e-05 0.000704952 -2.16329e-05 -0.000190162 0.000109093 6.74608e-05 -0.000123341 0.00367596 0.000217324 0.000562416 -0.000240252 -0.0011489 -0.0027799
internal_weight=0 4160 1239 18139 6273 2633 11866 5220 24 6646 1927 443 258 144
internal_count=22299 4160 1239 18139 6273 2633 11866 5220 24 6646 1927 443 258 144
shrinkage=0.1


Tree=593
num_leaves=15
num_cat=0
split_feature=4 34 1 14 33 4 24 35 0 4 0 24 4 3
split_gain=0.00414598 0.00918572 0.0134816 0.00981425 0.00915722 0.00725983 0.0334645 0.0269996 0.144071 0.112601 0.0900815 0.0862234 0.343324 0.329675
threshold=-3.1017349999999992 0.0080391900000000016 10.749450000000001 0.0044422700000000008 0.00032810050000000007 -0.0070907799999999988 -0.17198749999999999 0.00017628900000000002 -3.3033299999999994 -0.29999149999999991 -3.4067449999999995 -0.097223799999999985 -0.16117699999999999 -7.1065299999999993
decision_type=2 2 2 2 2 2 2 2 2 2 2 2 2 2
left_child=1 2 3 -1 -3 6 -2 10 -9 -10 -8 12 -12 -14
right_child=5 4 -4 -5 -6 -7 7 8 9 -11 11 -13 13 -15
leaf_value=0.0006487742790475885 -0.00038259315075043836 0.00025056696949759719 -0.0034506288213798637 -0.00044096945073965284 -0.001057749735561877 3.7924158625493415e-05 -0.00049067126470957938 0.0008418051083225464 0.00028300307669800622 -0.0013960428250771786 -0.00075060461632185725 0.00029686856802389126 0.0089229425258639441 0.00076032946196495144
leaf_weight=108 2618 1959 12.999999999999998 352 55 11178 1161 872 654 1026 231 1874 101 97
leaf_count=108 2618 1959 13 352 55 11178 1161 872 654 1026 231 1874 101 97
internal_value=0 0.000121702 -0.000274866 -0.000185117 0.000214838 -1.52772e-05 -8.41544e-05 4.57181e-05 -0.000201098 -0.000742414 0.000227552 0.000589627 0.00186848 0.00492409
internal_weight=0 2487 473 460 2014 19812 8634 6016 2552 1680 3464 2303 429 198
internal_count=22299 2487 473 460 2014 19812 8634 6016 2552 1680 3464 2303 429 198
shrinkage=0.1


Tree=594
num_leaves=15
num_cat=0
split_feature=28 1 23 21 13 3 19 3 6 3 12 10 22 22
split_gain=0.00378265 0.0150493 0.0327552 0.0405988 0.141575 0.240348 0.0646562 0.0552157 0.0498802 0.0459636 0.0453664 0.0352845 0.0333735 0.0862842
threshold=-0.0035724649999999995 -6.9879999999999987 -10.340999999999999 -7.6390449999999985 -1.3180249999999998e-05 -6.7849649999999988 5.3169250000000006e-09 -6.0971649999999995 2.6066650000000005e-06 -5.8792649999999993 -0.00014040099999999999 1.6084800000000002e-05 -0.007343264999999999 -0.66975449999999992
decision_type=2 2 2 2 2 2 2 2 2 2 2 2 2 2
left_child=-1 2 -2 4 5 -4 7 -6 -5 10 -10 -8 13 -12
right_child=1 -3 3 8 6 -7 11 -9 9 -11 12 -13 -14 -15
leaf_value=-5.5058047988380184e-05 0.00067490296459400646 -1.964914912190021e-05 0.02036728364415466 0.00016140366245944414 0.010428886152803895 0.0012140377093792746 -0.0053603669395670302 0.00016186606689271604 0.00020387597383672064 0.00034619973299235604 -0.0016022470484201154 -0.00022140246547667315 -0.0019884688441448336 -0.010935726016759873
leaf_weight=8001 1066 11513 10.000000000000002 1151 10.000000000000002 19 15.999999999999998 10.999999999999998 77 143 26 81 159 15.999999999999998
leaf_count=8001 1066 11513 10 1151 10 19 16 11 77 143 26 81 159 16
internal_value=0 3.08099e-05 0.000239404 -3.06611e-05 0.00155857 0.00781861 2.0084e-05 0.00505092 -0.000179272 -0.00111067 -0.00186007 -0.00106907 -0.00265073 -0.00515786
internal_weight=0 14298 2785 1719 147 29 118 21 1572 421 278 97 201 42
internal_count=22299 14298 2785 1719 147 29 118 21 1572 421 278 97 201 42
shrinkage=0.1


Tree=595
num_leaves=15
num_cat=0
split_feature=33 6 14 18 39 6 33 13 33 14 21 2 13 31
split_gain=0.00382749 0.0535851 0.0232283 0.0264921 0.0228818 0.020822 0.0336614 0.0288016 0.0284785 0.0338354 0.0556014 0.257839 0.299963 0.462051
threshold=-1.3162999999999997e-05 1.5846850000000003e-06 0.00092261950000000002 -1.2431249999999999e-06 0.34498650000000003 1.2416850000000003e-06 3.9863900000000005e-07 -4.0032299999999993e-05 7.1091050000000012e-07 0.00078556150000000011 9.2343300000000017 0.95957850000000011 2.9744050000000006e-06 -0.0083704949999999969
decision_type=2 2 2 2 2 2 2 2 2 2 2 2 2 2
left_child=1 -1 3 -3 -4 8 7 -7 9 10 -2 -12 -13 -14
right_child=5 2 4 -5 -6 6 -8 -9 -10 -11 11 12 13 -15
leaf_value=-0.00014723506823460938 -0.00057119208385875164 0.0017798700814133644 -5.3298341392014588e-06 0.00054386616417164606 0.0048285708460025492 0.00096460293559703285 -0.00035948072033701131 -2.0114472627586767e-05 0.00019535688711671851 0.00011605252415925702 -0.0013488810738022806 -0.0028070227602835407 0.014844710850791837 -0.0026453737149258025
leaf_weight=2921 2099 269 472 488 9.9999999999999982 343 3714 2216 6646 2843 178 33 44 23
leaf_count=2921 2099 269 472 488 10 343 3714 2216 6646 2843 178 33 44 23
internal_value=0 8.65116e-05 0.00063758 0.00098308 9.49586e-05 -1.98406e-05 -0.000167197 0.000111874 5.80598e-05 -0.000116744 -0.000395179 0.000933781 0.00499692 0.00884065
internal_weight=0 4160 1239 757 482 18139 6273 2559 11866 5220 2377 278 100 67
internal_count=22299 4160 1239 757 482 18139 6273 2559 11866 5220 2377 278 100 67
shrinkage=0.1


Tree=596
num_leaves=15
num_cat=0
split_feature=23 3 3 13 34 5 35 3 21 10 31 20 16 20
split_gain=0.00386305 0.0252953 0.0306753 0.0253752 0.0366918 0.0382122 0.0774701 0.0641928 0.0558636 0.0479281 0.149686 0.332753 0.324366 0.258083
threshold=-7.9975599999999991 -6.7849649999999988 -6.1514349999999984 5.5414750000000007e-05 0.5512450000000001 1.6234500000000002e-05 -0.0020770149999999993 -12.748049999999997 7.4229750000000001 2.325825e-05 -0.055558899999999987 -2.4769049999999995 1.3098600000000003e-06 3.2916800000000004
decision_type=2 2 2 2 2 2 2 2 2 2 2 2 2 2
left_child=1 3 -3 4 5 -1 7 -7 -9 10 -8 -12 13 -13
right_child=-2 2 -4 -5 -6 6 9 8 -10 -11 11 12 -14 -15
leaf_value=-0.00055185233333734116 5.9673348413182714e-05 0.00060873356402463838 1.119211668851613e-05 9.6512276948640562e-05 0.00020412969836244377 -0.0042906179599517379 -0.0023034964167891305 -0.00044817336642673971 -0.0077131750570102178 5.3108242725794474e-05 -0.0012308343719862598 0.014452790570509272 -0.0015869643042484918 0.00022542002501294893
leaf_weight=3402 7298 1185 3124 3788 1543 61 74 280 10.999999999999998 1340 95 51 30 17
leaf_count=3402 7298 1185 3124 3788 1543 61 74 280 11 1340 95 51 30 17
internal_value=0 -2.90311e-05 0.000175519 -0.000111467 -0.000225579 -0.000349258 2.56836e-06 -0.00134108 -0.000722795 0.000296884 0.00152033 0.00298646 0.00707465 0.0108959
internal_weight=0 15001 4309 10692 6904 5361 1959 352 291 1607 267 193 98 68
internal_count=22299 15001 4309 10692 6904 5361 1959 352 291 1607 267 193 98 68
shrinkage=0.1


Tree=597
num_leaves=15
num_cat=0
split_feature=20 0 6 33 2 20 10 25 13 38 23 13 22 20
split_gain=0.00406209 0.0147803 0.0170869 0.0243325 0.0274103 0.0440315 0.022709 0.034864 0.0216745 0.0212145 0.0204311 0.0183563 0.0307046 0.0176911
threshold=-2.7391899999999993 -9.3304649999999985 4.2190250000000007e-06 -2.7429199999999997e-06 2.0605700000000007 -1.8193249999999999 4.0174000000000005e-05 0.55084100000000014 -6.0817849999999996e-05 -4.166879999999999e-05 -6.4589649999999992 -4.2074949999999996e-05 -0.50769049999999993 9.0406650000000024
decision_type=2 2 2 2 2 2 2 2 2 2 2 2 2 2
left_child=-1 -2 13 -4 8 -6 7 -7 9 -5 -8 12 -10 -3
right_child=1 2 3 4 5 6 10 -9 11 -11 -12 -13 -14 -15
leaf_value=5.5976170942971896e-05 0.00029273676124704016 -7.1676191298980111e-05 0.00011360713120968629 -0.0060215432053575156 -0.0067580125352833427 -0.0076702131262908748 -0.0011344153272477529 -0.00087408324858794613 -0.0017095491099594663 -0.001073986807694802 0.0028908020351082089 -0.00039350591347898857 0.0052462347581361734 0.00028098604670080538
leaf_weight=8198 1271 9340 698 12.999999999999998 15.999999999999998 13.000000000000002 127 18 11.000000000000002 26 13.999999999999998 861 14.999999999999998 1678
leaf_count=8198 1271 9340 698 13 16 13 127 18 11 26 14 861 15 1678
internal_value=0 -3.25433e-05 -6.4767e-05 -0.000349338 -0.000639406 -0.00174029 -0.00127352 -0.00372407 -0.0004159 -0.00272317 -0.000734748 -0.000314453 0.0023034 -1.79671e-05
internal_weight=0 14101 12830 1812 1114 188 172 31 926 39 141 887 26 11018
internal_count=22299 14101 12830 1812 1114 188 172 31 926 39 141 887 26 11018
shrinkage=0.1


Tree=598
num_leaves=15
num_cat=0
split_feature=12 12 21 7 1 27 13 23 23 32 3 34 19 21
split_gain=0.00364159 0.00435863 0.0291718 0.0411559 0.0319894 0.0356097 0.0333055 0.053215 0.0282477 0.0384822 0.226485 0.189792 0.350019 0.266181
threshold=-0.0022080799999999999 -8.085454999999998e-05 -8.3840799999999991 3.9357900000000012e-05 -5.0012199999999991 18.588900000000006 5.2343750000000002e-05 -6.7339399999999996 -12.154599999999999 0.09842285000000002 -12.527449999999998 0.37240250000000003 1.8396200000000002e-05 -4.1799449999999991
decision_type=2 2 2 2 2 2 2 2 2 2 2 2 2 2
left_child=-1 2 3 4 5 6 7 -2 9 -4 11 12 13 -11
right_child=1 -3 8 -5 -6 -7 -8 -9 -10 10 -12 -13 -14 -15
leaf_value=-0.00031239834051918834 -0.0072618628729526936 -2.0432268470265371e-05 -0.00051714240860916067 -3.6213184161785302e-07 -0.00024095261318507258 0.0018739912184953158 -0.0010238144099795525 -0.001455555697126935 0.00033900055002252335 0.022871978167030543 -0.001197391421595773 0.00045013424414531164 0.0025021585367309552 0.0025235408544540408
leaf_weight=367 38 16474 1097 402 80 13.999999999999998 35 27 3179 18.000000000000004 338 145 75 9.9999999999999982
leaf_count=367 38 16474 1097 402 80 14 35 27 3179 18 338 145 75 10
internal_value=0 5.22753e-06 8.26771e-05 -0.000577635 -0.00177384 -0.00284955 -0.00351084 -0.00485001 0.00016362 -0.000167654 0.000486594 0.0027817 0.00606401 0.0156047
internal_weight=0 21932 5458 596 194 114 100 65 4862 1683 586 248 103 28
internal_count=22299 21932 5458 596 194 114 100 65 4862 1683 586 248 103 28
shrinkage=0.1


Tree=599
num_leaves=15
num_cat=0
split_feature=22 2 0 18 18 3 14 3 6 19 13 2 22 22
split_gain=0.00375102 0.0338405 0.0141698 0.00841625 0.00676731 0.00992207 0.0109129 0.0103368 0.0071078 0.00523426 0.00570421 0.00490728 0.10604 0.0677387
threshold=3.0427950000000004 2.9119300000000004 -6.732079999999999 -4.1351699999999993e-07 1.4970650000000002e-07 -12.169249999999998 0.0025550350000000002 -10.514199999999999 1.4449850000000004e-07 1.2548550000000002e-05 1.9127050000000002e-05 2.9665000000000004 2.9715150000000006 2.3249300000000006
decision_type=2 2 2 2 2 2 2 2 2 2 2 2 2 2
left_child=11 2 3 -2 5 6 -4 -7 -8 10 -6 -1 13 -13
right_child=1 -3 4 -5 9 7 8 -9 -10 -11 -12 12 -14 -15
leaf_value=2.1977371999719552e-06 -0.0041819631052203475 0.006084292475134135 -0.004257873701862991 -0.00072898952930700034 0.00034827906638383853 0.0035583415906876325 -0.0019839963429452226 0.00014821659546214507 0.0015352080089294099 0.00059358689320920116 0.003327072779130605 -0.0002189005074708771 0.0085484958612001873 -0.0047059475025791374
leaf_weight=21626 9.9999999999999982 9.9999999999999982 9.9999999999999982 24 10.000000000000002 9.9999999999999982 12.000000000000002 80 10.999999999999998 57 18 371 12.999999999999998 37
leaf_count=21626 10 10 10 24 10 10 12 80 11 57 18 371 13 37
internal_value=0 0.000383625 0.00014806 -0.00174457 0.000457432 -1.67371e-05 -0.00149998 0.000527119 -0.000300899 0.00114358 0.00226322 -4.38488e-06 -0.000342522 -0.000625814
internal_weight=0 252 242 34 208 123 33 90 23 85 28 22047 421 408
internal_count=22299 252 242 34 208 123 33 90 23 85 28 22047 421 408
shrinkage=0.1


Tree=600
num_leaves=15
num_cat=0
split_feature=16 20 0 23 35 19 32 2 24 35 36 19 36 16
split_gain=0.00348399 0.0141646 0.0276999 0.0180451 0.0130736 0.0303891 0.127673 0.361454 0.0680658 0.0807322 0.0452805 0.0267542 0.0767768 0.0340695
threshold=4.5816150000000005e-06 10.049750000000001 8.5645450000000007 -5.9060399999999991 -0.00055251249999999986 2.1170350000000003e-05 -0.38019549999999996 0.90870650000000008 -0.64547099999999991 0.0051088850000000014 0.0088895700000000012 6.646290000000001e-05 0.14832100000000004 5.0821450000000006e-06
decision_type=2 2 2 2 2 2 2 2 2 2 2 2 2 2
left_child=-1 4 3 -3 11 6 7 -6 -8 -10 -11 12 -2 -13
right_child=1 2 -4 -5 5 -7 8 -9 9 10 -12 13 -14 -15
leaf_value=-2.1050497561498313e-05 -0.00023584108889207172 -5.9368912256827145e-05 -0.0031294648178437773 -0.0036157758803650117 -0.00194996627435709 -8.6575510238956599e-05 0.0075369546034683779 0.022594355817418546 0.00061575161416596114 -0.0019627701391332912 -0.01077320188516751 0.0049577749713481519 -0.0085089554774943586 0.00045299597617868854
leaf_weight=17372 172 292 37 14.999999999999998 15.000000000000002 2821 11.999999999999998 9.9999999999999982 149 14.000000000000002 9.9999999999999982 17 11.999999999999998 1351
leaf_count=17372 172 292 37 15 15 2821 12 10 149 14 10 17 12 1351
internal_value=0 7.42215e-05 -0.000544659 -0.000233135 0.000120675 -1.83374e-07 0.00116035 0.00786776 0.000253944 -0.000251236 -0.00563378 0.000356706 -0.000775392 0.000508976
internal_weight=0 4927 344 307 4583 3031 210 25 185 173 24 1552 184 1368
internal_count=22299 4927 344 307 4583 3031 210 25 185 173 24 1552 184 1368
shrinkage=0.1


Tree=601
num_leaves=15
num_cat=0
split_feature=21 6 4 17 5 4 20 5 16 22 2 2 23 11
split_gain=0.00372654 0.0135658 0.00869792 0.00463599 0.00917594 0.00671115 0.00392824 0.0184424 0.0404016 0.0473649 0.0492397 0.0458102 0.0431851 0.0636285
threshold=26.346850000000003 -4.0740349999999994e-06 0.71325300000000014 2.3321300000000001e-07 1.8870700000000006e-05 -0.27336699999999997 -6.4537699999999996 1.0742400000000002e-05 -1.0568999999999999e-07 2.9368200000000004 2.1089200000000008 2.9510950000000005 -10.053299999999998 -2.2497199999999995e-05
decision_type=2 2 2 2 2 2 2 2 2 2 2 2 2 2
left_child=6 -2 3 4 5 -3 7 8 9 11 -11 12 13 -1
right_child=1 2 -4 -5 -6 -7 -8 -9 -10 10 -12 -13 -14 -15
leaf_value=0.0067784884812268006 -0.0037903668601453923 -0.0017861558484252211 -0.0027582840621471409 -0.0011940676001055788 0.0036371839325875046 0.0015699538151518649 -1.7275790668668867e-05 -1.1931087812289685e-05 -8.8971125835221582e-05 0.0015541732350053883 0.011055369600653649 -0.0029452893829259737 0.00072071137298131941 0.00061442668899390441
leaf_weight=33 11.999999999999998 10.999999999999995 9.9999999999999982 11.999999999999998 9.9999999999999982 13.000000000000005 18282 3199 433 12.000000000000002 9.9999999999999982 26 202 34
leaf_count=33 12 11 10 12 10 13 18282 3199 433 12 10 26 202 34
internal_value=0 -0.000739155 -8.53237e-05 0.000495755 0.00109216 3.17369e-05 2.26092e-06 9.27066e-05 0.000539021 0.00139682 0.0058729 0.00106301 0.00145042 0.00365046
internal_weight=0 68 56 46 34 24 22231 3949 750 317 22 295 269 67
internal_count=22299 68 56 46 34 24 22231 3949 750 317 22 295 269 67
shrinkage=0.1


Tree=602
num_leaves=15
num_cat=0
split_feature=14 23 7 26 8 23 28 23 23 3 14 37 1 1
split_gain=0.00375608 0.0114095 0.0330389 0.0463329 0.107471 0.305087 0.312545 0.0873283 0.0571532 0.0758646 0.0545406 0.0498331 0.074659 0.0719653
threshold=0.00018093550000000002 -9.0820099999999986 3.147515000000001e-05 -6.6333949999999989e-05 1.2719100000000002e-05 -7.6167649999999991 -0.0063236349999999993 -8.5696299999999983 -8.9145449999999986 -9.7904999999999998 0.00030579350000000007 -1.8000399999999998e-07 6.9581500000000007 10.225600000000002
decision_type=2 2 2 2 2 2 2 2 2 2 2 2 2 2
left_child=-1 -2 3 4 7 6 -6 10 9 -5 -3 12 -10 -13
right_child=1 2 -4 8 5 -7 -8 -9 11 -11 -12 13 -14 -15
leaf_value=6.5526694042626141e-05 -0.00010279342132350506 -0.008281791815534234 -4.3978392176009432e-05 0.00093673910346946544 0.026244243564592158 -0.0024334306551498318 0.0018172875279560685 0.001304907642594582 -0.0012815400262615037 0.010440161839748423 -0.0010955916273645884 5.6172928968975092e-05 -0.010410627452656626 0.0075517829579229536
leaf_weight=6283 8732 13.999999999999998 5735 28 11.000000000000002 21 9.9999999999999982 430 86 11.999999999999998 43 871 9.9999999999999982 12.999999999999998
leaf_count=6283 8732 14 5735 28 11 21 10 430 86 12 43 871 10 13
internal_value=0 -2.57058e-05 6.67062e-05 0.000476504 0.00123594 0.00608946 0.0146124 0.000817361 8.26389e-05 0.00378777 -0.00286062 -6.85907e-05 -0.00223249 0.000166402
internal_weight=0 16016 7284 1549 529 42 21 487 1020 40 57 980 96 884
internal_count=22299 16016 7284 1549 529 42 21 487 1020 40 57 980 96 884
shrinkage=0.1


Tree=603
num_leaves=15
num_cat=0
split_feature=23 14 3 3 23 1 1 14 37 3 23 14 15 24
split_gain=0.00353917 0.0288061 0.0585793 0.0336871 0.0722975 0.146884 0.0824029 0.0753438 0.133448 0.0682963 0.0873529 0.120306 0.0660896 0.0641365
threshold=-14.71815 0.00077369700000000016 -6.043429999999999 -14.551649999999997 -16.680599999999995 4.7165450000000009 4.1674900000000017 0.0031007600000000006 2.0601600000000001e-07 -12.629099999999998 -17.204649999999997 0.0073645800000000016 1.3040750000000002e-08 -0.19247849999999997
decision_type=2 2 2 2 2 2 2 2 2 2 2 2 2 2
left_child=1 2 -1 4 -3 6 7 8 -6 10 -5 -12 -10 -9
right_child=-2 3 -4 9 5 -7 -8 13 12 -11 11 -13 -14 -15
leaf_value=0.00086331280369700324 -1.6912372081410672e-05 -0.00061028167036115087 -0.0003928414253406388 9.1820775919347259e-05 -0.001106010169411699 0.013149647346951746 -0.0061172511495117638 0.0031376197828545367 0.0056230924651026713 -2.3967597365987052e-05 -0.0052310740133345301 4.9219012188087349e-05 0.017120015099644663 -0.00093915541392350355
leaf_weight=1013 18894 248 586 152 14.999999999999998 10.999999999999998 13.999999999999998 70 10.000000000000002 1009 110 71 9.9999999999999982 86
leaf_count=1013 18894 248 586 152 15 11 14 70 10 1009 110 71 10 86
internal_value=0 9.3845e-05 0.000402959 -0.000179839 0.000554659 0.00189218 0.00128812 0.00183093 0.00602403 -0.000433793 -0.00167558 -0.0031598 0.0113716 0.000890167
internal_weight=0 3405 1599 1806 464 216 205 191 35 1342 333 181 20 156
internal_count=22299 3405 1599 1806 464 216 205 191 35 1342 333 181 20 156
shrinkage=0.1


Tree=604
num_leaves=15
num_cat=0
split_feature=16 31 19 36 3 24 3 3 22 28 32 28 11 14
split_gain=0.00361199 0.0158612 0.0235913 0.0878523 0.191251 0.0594748 0.0630236 0.0437138 0.0277397 0.0242946 0.0259897 0.019451 0.0327525 0.01899
threshold=-1.3564599999999998e-06 -0.10408799999999999 4.442305000000001e-06 -0.0081398299999999989 -6.5485099999999994 0.16293600000000005 -13.869899999999999 -10.915599999999998 1.7780750000000001 -0.0066228699999999986 0.042014900000000001 -0.40562749999999997 6.9856950000000016e-05 0.00068828850000000007
decision_type=2 2 2 2 2 2 2 2 2 2 2 2 2 2
left_child=1 11 3 4 -3 6 -5 8 -7 13 -11 12 -1 -8
right_child=-2 2 -4 5 -6 7 9 -9 -10 10 -12 -13 -14 -15
leaf_value=0.00035815033224047868 -2.5018101429097417e-05 0.014141375583906969 8.3193703191984555e-05 0.0068729968793276282 -0.0013506126120987842 -0.0088855645056658706 -0.00019263302523945137 -0.00044794444810144878 -0.0020860966042770697 0.00090534661726213758 0.0052203749368588135 -0.0003142930398341407 0.0065033471592786636 -0.0049401259684765881
leaf_weight=41 16084 14.999999999999998 4466 18 17 12.000000000000002 36 61 11.999999999999998 201 14.999999999999998 1299 10.999999999999998 10.999999999999998
leaf_count=41 16084 15 4466 18 17 12 36 61 12 201 15 1299 11 11
internal_value=0 6.47452e-05 0.000148938 0.000886668 0.00591126 0.000447359 0.00114846 -0.00187041 -0.00548583 0.00075667 0.001205 -0.000238376 0.0016581 -0.00130375
internal_weight=0 6215 4864 398 32 366 281 85 24 263 216 1351 52 47
internal_count=22299 6215 4864 398 32 366 281 85 24 263 216 1351 52 47
shrinkage=0.1


Tree=605
num_leaves=15
num_cat=0
split_feature=4 20 18 0 4 38 37 19 13 37 20 9 22 9
split_gain=0.00352792 0.00905418 0.039749 0.0123809 0.0102563 0.0227139 0.0254598 0.124791 0.0692148 0.0572057 0.0908125 0.30119 0.0548855 0.0517292
threshold=-0.6437274999999999 18.386200000000002 -2.8202949999999996e-06 4.1933950000000015 -0.0070907799999999988 -0.034001399999999994 -1.14928e-07 0.00062793100000000008 1.3357000000000001e-05 -5.9992199999999983e-08 5.3881000000000006 2.3044300000000002e-05 -1.5341449999999999 -4.0819249999999994e-05
decision_type=2 2 2 2 2 2 2 2 2 2 2 2 2 2
left_child=-1 4 -3 -4 5 -2 7 -7 -8 10 -10 -12 -9 -14
right_child=1 2 3 -5 -6 6 8 12 9 -11 11 -13 13 -15
leaf_value=7.8809642128839356e-05 0.00065039111275776087 0.0060980293684853963 0.0010076899499613411 -0.0017645715425411862 3.3478585832005276e-05 -9.2397070040150495e-05 0.0002571868427176318 -0.00047933920392214568 1.8403753356678509e-05 -0.00083572319659863887 -0.00095630299077707932 0.019309754128864206 3.085845199293121e-05 -0.0038196239869206249
leaf_weight=4527 358 12.999999999999998 49 24 11118 1596 2814 124 154 1261 22 10.999999999999998 43 185
leaf_count=4527 358 13 49 24 11118 1596 2814 124 154 1261 22 11 43 185
internal_value=0 -2.00749e-05 0.00100351 9.62615e-05 -2.50522e-05 -0.00012413 -0.000168781 -0.000468279 -3.18912e-05 -0.000593677 0.00103852 0.00579905 -0.00217256 -0.00309344
internal_weight=0 17772 86 73 17686 6568 6210 1948 4262 1448 187 33 352 228
internal_count=22299 17772 86 73 17686 6568 6210 1948 4262 1448 187 33 352 228
shrinkage=0.1


Tree=606
num_leaves=15
num_cat=0
split_feature=37 13 6 5 24 24 14 14 20 6 26 25 6 26
split_gain=0.00380228 0.0250734 0.0410547 0.0634531 0.107044 0.153718 0.0963488 0.0833242 0.0367959 0.108538 0.0380586 0.0512258 0.0343823 0.0409227
threshold=-3.9559199999999996e-07 -2.4393049999999995e-05 4.0523350000000008e-07 1.5498450000000001e-05 0.24689300000000003 0.35941150000000005 0.0022637200000000003 0.0013568100000000002 4.0363950000000015 4.674940000000001e-06 -9.5432099999999997e-05 1.2179900000000001 -7.1229549999999982e-07 -0.00012345649999999996
decision_type=2 2 2 2 2 2 2 2 2 2 2 2 2 2
left_child=1 2 12 4 -4 -6 7 -7 10 -10 11 -5 -1 -14
right_child=-2 -3 3 8 5 6 -8 -9 9 -11 -12 -13 13 -15
leaf_value=0.00037716215820839035 -1.8055395465008142e-05 -1.6036515861826072e-05 0.00097809470345025843 -0.0080731508031021814 0.015611777135304043 0.0052427812673461922 0.010859016202051533 -0.006806537762961605 0.011024704591060679 -0.00012729135305562523 0.00076062847018647521 -0.00092571742372724725 -0.0068379961906055763 -0.00073283263407046767
leaf_weight=97 18720 3048 93 11.999999999999998 13.999999999999998 12.000000000000002 10.999999999999998 10.999999999999998 11.999999999999998 32 128 61 17 31
leaf_count=97 18720 3048 93 12 14 12 11 11 12 32 128 61 17 31
internal_value=0 9.4439e-05 0.000728581 0.0012675 0.00295758 0.00679282 0.00316149 -0.000519937 0.000294845 0.00291416 -0.000278538 -0.00210064 -0.000706062 -0.00289508
internal_weight=0 3579 531 386 141 48 34 23 245 44 201 73 145 48
internal_count=22299 3579 531 386 141 48 34 23 245 44 201 73 145 48
shrinkage=0.1


Tree=607
num_leaves=15
num_cat=0
split_feature=2 22 19 3 15 3 22 19 3 20 29 19 19 8
split_gain=0.00356107 0.0869765 0.0725486 0.0832756 0.110681 0.0588164 0.0380006 0.0244723 0.0407864 0.0206753 0.0151917 0.0129568 0.0206219 0.0156855
threshold=-2.7883099999999996 -2.7756699999999994 7.3004200000000008e-05 -7.701249999999999 5.8971400000000008e-08 -8.9681399999999982 -2.3659499999999993 3.9135900000000011e-06 -7.1424999999999992 -9.0239949999999975 0.0043060250000000007 7.3004200000000008e-05 2.8523100000000005e-09 3.2378200000000003e-06
decision_type=2 2 2 2 2 2 2 2 2 2 2 2 2 2
left_child=1 2 3 4 5 -1 7 8 -3 -5 -8 12 -12 -14
right_child=-2 6 -4 9 -6 -7 10 -9 -10 -11 11 -13 13 -15
leaf_value=0.0084869199742873512 -9.2328733093673749e-06 -0.0079360410643857914 -0.0010327712300716451 0.0037534953281283369 0.016563678532838823 -0.0014139579795300957 0.00031896253789156408 -0.00054212489566351813 -0.00090158794183105989 -0.0024031853929045613 0.0013353143826991853 0.0003351113627563932 -0.0029224481373343486 -0.00071680689510877102
leaf_weight=14.999999999999998 21169 15.999999999999998 27 10.000000000000002 10.999999999999998 10.000000000000002 719 36 17 11.999999999999998 28 97 56 76
leaf_count=15 21169 16 27 10 11 10 719 36 17 12 28 97 56 76
internal_value=0 0.000172965 0.00324914 0.00524244 0.00820457 0.00452657 -7.72497e-05 -0.00234522 -0.00431223 0.000395306 8.30884e-05 -0.000576809 -0.00112966 -0.00165253
internal_weight=0 1130 85 58 36 25 1045 69 33 22 976 257 160 132
internal_count=22299 1130 85 58 36 25 1045 69 33 22 976 257 160 132
shrinkage=0.1


Tree=608
num_leaves=15
num_cat=0
split_feature=16 26 10 1 16 19 3 32 39 2 3 7 5 21
split_gain=0.0035946 0.0129657 0.018239 0.018929 0.0209894 0.0298799 0.0242972 0.0153037 0.0675821 0.233562 0.0258098 0.0254257 0.0297255 0.0203508
threshold=4.5816150000000005e-06 -0.0021265849999999998 1.7481950000000003e-05 -10.174899999999999 1.4384100000000002e-05 0.00017480000000000002 -10.069899999999999 -0.38019549999999996 0.00024261950000000002 1.0828950000000002 -17.753849999999996 2.7104750000000005e-05 9.5818600000000011e-06 -7.6390449999999985
decision_type=2 2 2 2 2 2 2 2 2 2 2 2 2 2
left_child=-1 2 -2 -4 6 -6 -5 8 9 -3 -10 -12 -13 -14
right_child=1 7 3 4 5 -7 -8 -9 10 -11 11 12 13 -15
leaf_value=-2.138203363773385e-05 -0.0039207251417204088 -0.001475204861612598 -0.0046316182240843775 0.00054297301394399243 0.0052187337656505409 -0.00010060432783079291 -0.0056970492148628602 4.5180761925590848e-05 0.0053553019260289148 0.016834817523737333 -0.004138866815572748 0.0052569421629110975 -0.0042484669154509904 0.00031946300479577551
leaf_weight=17372 17 19.000000000000004 9.9999999999999982 12.000000000000002 11.999999999999998 88 12.999999999999998 4305 9.9999999999999982 10.999999999999998 12.999999999999998 11.999999999999998 9.9999999999999982 395
leaf_count=17372 17 19 10 12 12 88 13 4305 10 11 13 12 10 395
internal_value=0 7.53904e-05 -0.000833835 -0.000445115 -0.000110195 0.000537716 -0.00270184 0.000104333 0.000646145 0.00523847 0.000333032 0.000216235 0.000352006 0.000206675
internal_weight=0 4927 152 135 125 100 25 4775 470 30 440 430 417 405
internal_count=22299 4927 152 135 125 100 25 4775 470 30 440 430 417 405
shrinkage=0.1


Tree=609
num_leaves=15
num_cat=0
split_feature=14 21 1 14 28 1 23 3 3 23 3 23 11 29
split_gain=0.0034249 0.0105955 0.124969 0.129525 0.0759216 0.0295704 0.0164173 0.047717 0.163076 0.117384 0.0599719 0.351173 0.111194 0.139813
threshold=0.00018093550000000002 12.314950000000001 11.152950000000002 7.7028400000000009e-05 0.0051941500000000007 8.6383650000000021 -7.0597849999999989 -7.0634999999999986 -7.7975399999999988 -6.8666249999999991 -6.5745499999999995 -6.6475649999999993 1.7598900000000002e-05 -0.0017989349999999998
decision_type=2 2 2 2 2 2 2 2 2 2 2 2 2 2
left_child=1 6 5 -4 -5 -3 -1 8 -8 -10 11 12 13 -9
right_child=-2 2 3 4 -6 -7 7 10 9 -11 -12 -13 -14 -15
leaf_value=0.00011750179117960681 -2.4546387293759009e-05 6.0284428473096339e-05 -0.0035708784277085218 0.0048181048128753887 0.01565773797531923 -0.0042546178602303067 0.0018337922382273412 0.014167872300293994 -0.010364388829097152 -0.002465093267739193 -0.00036676446684134916 -0.0033214872929038133 -0.0027655662122097885 0.0045576588182551113
leaf_weight=4976 16016 135 9.9999999999999982 14.000000000000002 11.999999999999998 18 71 24 25 76 801 69 10.999999999999998 41
leaf_count=4976 16016 135 10 14 12 18 71 24 25 76 801 69 11 41
internal_value=0 6.25712e-05 0.000799962 0.00610104 0.00982101 -0.000447351 3.97017e-05 -0.000306571 -0.00183871 -0.00442036 -2.80013e-05 0.00184337 0.00653252 0.00810605
internal_weight=0 6283 189 36 26 153 6094 1118 172 101 946 145 76 65
internal_count=22299 6283 189 36 26 153 6094 1118 172 101 946 145 76 65
shrinkage=0.1


Tree=610
num_leaves=15
num_cat=0
split_feature=20 9 9 14 0 20 26 20 0 4 3 30 25 28
split_gain=0.00345387 0.027063 0.05363 0.0923257 0.155815 0.284964 0.226994 0.217357 0.202136 0.166816 0.203802 0.162888 0.265878 0.175151
threshold=4.3779750000000011 5.6542450000000013e-05 2.5889650000000004e-05 0.0023278500000000007 8.4447750000000017 8.9514000000000014 -0.00058987849999999991 8.9514000000000014 7.9518100000000009 0.088728400000000013 -5.9294499999999992 0.00056729000000000013 0.81365550000000009 -0.0053193299999999997
decision_type=2 2 2 2 2 2 2 2 2 2 2 2 2 2
left_child=-1 2 -2 4 5 6 -4 -6 -7 10 -9 13 -13 -8
right_child=1 -3 3 -5 7 8 11 9 -10 -11 -12 12 -14 -15
leaf_value=-2.5960820630447048e-05 -3.3910938305500679e-05 -0.00057565384630327233 -0.0053613346505803376 -0.00057267189583998094 -0.0017323364678205313 -0.0028778093023055559 -0.0029869738464993944 0.0073919105137763329 0.009458432123064995 -0.0017506034913822078 -0.0020653937132127822 0.019768584003288518 0.0056013095316787562 0.0045731516313502899
leaf_weight=15538 4801 610 24 410 293 116 36 86 14.999999999999998 56 31 17 60 206
leaf_count=15538 4801 610 24 410 293 116 36 86 15 56 31 17 60 206
internal_value=0 5.96627e-05 0.000122668 0.000679507 0.00122567 0.00250224 0.00401752 -7.28139e-05 -0.00146526 0.00273782 0.00488613 0.00472314 0.00872915 0.0034485
internal_weight=0 6761 6151 1350 940 474 343 466 131 173 117 319 77 242
internal_count=22299 6761 6151 1350 940 474 343 466 131 173 117 319 77 242
shrinkage=0.1


Tree=611
num_leaves=15
num_cat=0
split_feature=18 32 18 34 7 12 36 36 8 20 1 18 12 35
split_gain=0.00382385 0.0118803 0.0503923 0.0562652 0.0740794 0.0702277 0.0578468 0.0524871 0.0311868 0.0247318 0.0162273 0.0214401 0.0651352 0.0426237
threshold=-5.7365999999999993e-05 0.28587350000000006 -0.00019607549999999996 0.35781150000000006 4.4604850000000007e-05 -0.00012385649999999997 0.042575800000000004 0.038699100000000007 -2.2743699999999998e-06 -2.7391899999999993 -10.412999999999998 -0.00053097449999999987 -0.00030348099999999992 0.25632850000000007
decision_type=2 2 2 2 2 2 2 2 2 2 2 2 2 2
left_child=1 -1 10 4 8 6 -5 -7 -4 -9 -3 -12 -13 -14
right_child=-2 2 3 5 -6 7 -8 9 -10 -11 11 12 13 -15
leaf_value=0.00013743488294903883 -2.2420707255132415e-05 -0.0025882579560857267 -0.005556432795710861 -0.0011099221783557106 0.0004331605392508209 3.7984852291022745e-05 0.0081538057903974108 -0.0099855875491630247 -0.013454125486314295 -0.0037182153866845459 -0.00010292864762462117 0.0091821886785328401 -0.00016767641176314405 0.0067826405283994973
leaf_weight=4365 17244 22 10 14.000000000000002 11.999999999999998 30 12.999999999999998 10.000000000000002 10 17 457 9.9999999999999982 75 9.9999999999999982
leaf_count=4365 17244 22 10 14 12 30 13 10 10 17 457 10 75 10
internal_value=0 7.64832e-05 -0.000309102 -0.00221011 -0.00577836 -0.000850779 0.00335039 -0.00284081 -0.00950528 -0.00603946 7.5074e-05 0.000181221 0.00154813 0.000650008
internal_weight=0 5055 690 116 32 84 27 57 20 27 574 552 95 85
internal_count=22299 5055 690 116 32 84 27 57 20 27 574 552 95 85
shrinkage=0.1


Tree=612
num_leaves=15
num_cat=0
split_feature=4 13 35 24 3 4 24 12 3 13 33 24 23 17
split_gain=0.00385071 0.00900658 0.0175282 0.0215483 0.0730153 0.0802836 0.0159513 0.0183894 0.0117802 0.00911247 0.00901576 0.00794466 0.00973318 0.114129
threshold=0.93067350000000004 7.1787900000000018e-05 0.22827000000000003 0.63004300000000013 -9.6412999999999993 1.8906600000000002 0.41062350000000009 0.00012976200000000004 -9.7137299999999982 2.0248650000000004e-06 -1.2365199999999998e-05 -0.10280249999999998 -17.204649999999997 1.5913500000000003e-05
decision_type=2 2 2 2 2 2 2 2 2 2 2 2 2 2
left_child=-1 2 3 6 5 -5 -2 10 -4 -6 -8 -3 13 -13
right_child=1 11 8 4 9 -7 7 -9 -10 -11 -12 12 -14 -15
leaf_value=-1.9520384448334539e-05 0.00035371635728488962 0.00017428658620993653 -0.0037204681827193672 0.013327864892780775 0.00046310780385016068 0.0011958130266672621 0.0014471813996351558 -0.0047100566793233161 -0.00038329631747079215 -0.0032307163542348218 -0.0017375843711488416 0.010904380774591119 -0.00023792155425113551 -0.00044292177372904588
leaf_weight=18268 1225 1184 17 10.000000000000002 17.000000000000004 11.999999999999998 15.999999999999998 12.999999999999998 28 10.999999999999998 20 9.9999999999999982 1390 78
leaf_count=18268 1225 1184 17 10 17 12 16 13 28 11 20 10 1390 78
internal_value=0 8.8464e-05 0.000296901 0.000362869 0.00239927 0.00671038 0.000282947 -0.00148628 -0.00164401 -0.000988037 -0.000322133 -1.87302e-05 -0.000173353 0.000846544
internal_weight=0 4031 1369 1324 50 22 1274 49 45 28 36 2662 1478 88
internal_count=22299 4031 1369 1324 50 22 1274 49 45 28 36 2662 1478 88
shrinkage=0.1


Tree=613
num_leaves=15
num_cat=0
split_feature=29 9 11 25 5 10 38 9 36 7 11 17 6 11
split_gain=0.00357322 0.0150252 0.0140458 0.0386386 0.0507164 0.0640242 0.0565966 0.073697 0.0905315 0.0328847 0.0303724 0.042603 0.093044 0.0591478
threshold=-0.025585199999999995 8.0290650000000024e-05 2.5330200000000004e-05 2.2076200000000004 1.0906050000000002e-05 2.6378050000000004e-05 0.0066005900000000008 4.0382100000000008e-05 -5.2951099999999988e-05 3.6522950000000006e-05 1.5224150000000002e-06 5.013010000000001e-07 -1.3846699999999999e-06 2.3278100000000003e-05
decision_type=2 2 2 2 2 2 2 2 2 2 2 2 2 2
left_child=1 2 10 4 5 -4 7 9 -9 -6 -1 -12 -13 -14
right_child=-2 -3 3 -5 6 -7 -8 8 -10 -11 11 12 13 -15
leaf_value=0.00026537685310932575 -1.4773064361186264e-05 -0.0009038256616130633 0.0011829605372622605 0.0002394612436012913 0.0053557624854147431 0.012498807543888688 -0.0035633603392757084 0.0012547760418700898 0.014401365239173175 -0.0011677841116633156 -0.0011700351938655643 0.0086742075426237929 0.00099743659702220444 -0.0058196947677060969
leaf_weight=1289 19626 139 10.000000000000002 651 9.9999999999999982 9.9999999999999982 19 11.000000000000002 9.9999999999999982 34 377 13.999999999999998 84 14.999999999999998
leaf_count=1289 19626 139 10 651 10 10 19 11 10 34 377 14 84 15
internal_value=0 0.000108468 0.000163997 0.000525394 0.00231522 0.00684088 0.00123768 0.00264106 0.00751506 0.00031484 1.06215e-05 -0.000659541 0.00104361 -3.54621e-05
internal_weight=0 2673 2534 755 104 20 84 65 21 44 1779 490 113 99
internal_count=22299 2673 2534 755 104 20 84 65 21 44 1779 490 113 99
shrinkage=0.1


Tree=614
num_leaves=15
num_cat=0
split_feature=14 23 7 17 33 3 8 1 1 14 37 1 22 1
split_gain=0.00367974 0.010411 0.0285117 0.0378096 0.062761 0.118968 0.106319 0.0606878 0.0817309 0.0546098 0.0535703 0.101924 0.243402 0.122517
threshold=0.00018093550000000002 -9.0820099999999986 3.0572450000000002e-05 6.431255000000001e-08 -1.6373449999999999e-06 -7.8249449999999987 1.3100250000000002e-05 10.225600000000002 7.1214050000000011 0.00029752400000000002 5.0179100000000009e-09 8.503045000000002 0.88369650000000011 -7.8225399999999992
decision_type=2 2 2 2 2 2 2 2 2 2 2 2 2 2
left_child=-1 -2 3 4 5 9 -7 8 -6 -3 -5 13 -13 -12
right_child=1 2 -4 10 7 6 -8 -9 -10 -11 11 12 -14 -15
leaf_value=6.4857359292673812e-05 -9.9080393045895777e-05 0.0056583875728150211 -3.3630884335520768e-05 0.00025500901403729606 0.0010605832531185944 -0.0033244245869961256 -0.014658838342875243 0.0067540100601036109 -0.0032526451192668401 -0.0006078439620016442 0.0073041654381086124 -0.0015674804675985463 0.019988880380988124 0.00073394066813231205
leaf_weight=6283 8732 14.999999999999998 5885 447 317 48 9.9999999999999982 15.999999999999998 51 191 32 11.000000000000002 9.9999999999999982 251
leaf_count=6283 8732 15 5885 447 317 48 10 16 51 191 32 11 10 251
internal_value=0 -2.54432e-05 6.28324e-05 0.000468613 -9.10478e-05 -0.00127797 -0.00527863 0.000724959 0.000462826 -0.000151565 0.000951515 0.00197565 0.00869745 0.00147686
internal_weight=0 16016 7284 1399 648 264 58 384 368 206 751 304 21 283
internal_count=22299 16016 7284 1399 648 264 58 384 368 206 751 304 21 283
shrinkage=0.1


Tree=615
num_leaves=15
num_cat=0
split_feature=4 26 19 38 38 37 34 39 1 24 19 20 23 17
split_gain=0.00373424 0.0184695 0.0258476 0.0597006 0.113439 0.108493 0.0474309 0.0649116 0.030099 0.0277502 0.0257263 0.0789123 0.0537855 0.0251526
threshold=-0.39397899999999991 -4.5929699999999995e-05 1.7628450000000002e-05 0.0074256350000000007 0.014489400000000001 -1.6936599999999996e-07 1.7098000000000002 0.0022583000000000004 -2.7452449999999997 -0.17614349999999998 8.1708200000000029e-06 9.2292700000000014 -6.8442899999999991 -2.2431399999999998e-07
decision_type=2 2 2 2 2 2 2 2 2 2 2 2 2 2
left_child=1 10 3 5 -5 9 7 8 -6 -3 11 12 -1 -7
right_child=-2 2 -4 4 6 13 -8 -9 -10 -11 -12 -13 -14 -15
leaf_value=0.00027792867860230416 -2.2745280121715828e-05 -0.0086343925723877668 -1.3101617046360773e-05 0.010743495199660009 -0.0050223302180794158 -0.00044268499964575131 -0.0038650892077661727 0.0075965570133680917 0.00221957773513471 -0.0026426772481169215 0.00018437295289800207 0.010145959299989045 0.0075972804842008787 -0.0054101301018487325
leaf_weight=115 17036 26 2290 10.999999999999998 10.999999999999998 139 23 12.999999999999998 12.000000000000002 10.999999999999998 2580 9.9999999999999982 10.999999999999998 10.999999999999998
leaf_count=115 17036 26 2290 11 11 139 23 13 12 11 2580 10 11 11
internal_value=0 7.3625e-05 -0.000119821 -0.00107075 0.00142037 -0.00200325 -0.000317839 0.00194846 -0.00124394 -0.00685307 0.000255034 0.00159553 0.00091692 -0.000806964
internal_weight=0 5263 2547 257 70 187 59 36 23 37 2716 136 126 150
internal_count=22299 5263 2547 257 70 187 59 36 23 37 2716 136 126 150
shrinkage=0.1


Tree=616
num_leaves=15
num_cat=0
split_feature=5 5 34 23 7 22 15 29 11 20 31 31 31 5
split_gain=0.00360409 0.0303527 0.0543345 0.0412219 0.0521259 0.0660089 0.0256349 0.02042 0.038962 0.0768257 0.0602963 0.0491578 0.0722822 0.0616078
threshold=1.5212750000000003e-05 1.5066350000000002e-05 0.0056435200000000008 -9.9247749999999986 4.0092200000000002e-05 -1.8321399999999997 -2.2983349999999997e-08 -0.0045532449999999992 1.6643550000000004e-05 -3.5336099999999995 -0.055558899999999987 -0.042788049999999987 -0.047638799999999995 1.3258200000000003e-05
decision_type=2 2 2 2 2 2 2 2 2 2 2 2 2 2
left_child=1 7 -3 -4 5 -5 -7 -1 -9 -10 -11 12 13 -12
right_child=-2 2 3 4 -6 6 -8 8 9 10 11 -13 -14 -15
leaf_value=0.00018157129368987084 3.9866958627962744e-05 0.0040767630979911809 -0.00053196067649191635 -0.00042578643187880517 -0.00098040947100214138 -0.0057684566616080703 -0.01250300216287052 4.0669081023901015e-05 0.00018981800529228854 0.0047706180045174228 0.003068284754856274 -0.00095215784058292382 -0.011044982547173277 -0.0073719468113267799
leaf_weight=3462 11243 17 98 11.999999999999998 35 9.9999999999999982 13.000000000000002 5121 1021 18 13.000000000000002 1214 11.999999999999998 9.9999999999999982
leaf_count=3462 11243 17 98 12 35 10 13 5121 1021 18 13 1214 12 10
internal_value=0 -4.05413e-05 -0.00131067 -0.00185583 -0.00370925 -0.00643809 -0.00957494 -1.89265e-05 -0.000112613 -0.000455689 -0.000975864 -0.00105868 -0.00475347 -0.00147095
internal_weight=0 11056 185 168 70 35 23 10871 7409 2288 1267 1249 35 23
internal_count=22299 11056 185 168 70 35 23 10871 7409 2288 1267 1249 35 23
shrinkage=0.1


Tree=617
num_leaves=15
num_cat=0
split_feature=4 13 34 24 3 3 35 18 23 11 24 21 3 39
split_gain=0.00353449 0.00712503 0.014423 0.0312998 0.0488259 0.0256326 0.0111755 0.00800268 0.00747694 0.00715853 0.00724065 0.00633368 0.00624265 0.0154656
threshold=0.93067350000000004 7.1787900000000018e-05 2.6566550000000002 0.63004300000000013 -9.7904999999999998 -15.456499999999998 0.03949165000000001 0.00023698150000000002 -6.4198449999999996 -0.0005447824999999999 0.25594300000000009 -8.1112199999999977 -5.6684649999999985 3.5443700000000003e-06
decision_type=2 2 2 2 2 2 2 2 2 2 2 2 2 2
left_child=12 2 3 6 -5 -4 9 -8 -3 -2 -11 -7 -1 -14
right_child=1 8 5 4 -6 11 7 -9 -10 10 -12 -13 13 -15
leaf_value=-4.384013943557388e-05 -0.0016478359757456928 3.7821552838370673e-05 -0.0055158524075523026 0.007613389577406148 6.5971336443908522e-05 -0.0023065461226416612 -0.0028658726498381132 -0.00027118402932371414 -0.00059079608586105718 0.0004454015504990862 -0.00036807191144526158 0.00014357218242366798 0.00052745569389005774 -1.5000723496000666e-05
leaf_weight=15417 18 2457 10.999999999999998 14.999999999999998 20 12.999999999999998 18 35 205 1061 122 56 695 2156
leaf_count=15417 18 2457 11 15 20 13 18 35 205 1061 122 56 695 2156
internal_value=0 8.4754e-05 0.000270145 0.000351007 0.00330058 -0.00103274 0.000268683 -0.0011524 -1.05881e-05 0.000331395 0.00036151 -0.000318044 -1.87017e-05 0.000117236
internal_weight=0 4031 1369 1289 35 80 1254 53 2662 1201 1183 69 18268 2851
internal_count=22299 4031 1369 1289 35 80 1254 53 2662 1201 1183 69 18268 2851
shrinkage=0.1


Tree=618
num_leaves=15
num_cat=0
split_feature=37 3 19 13 5 22 0 32 33 25 10 32 22 7
split_gain=0.00345693 0.0250572 0.0241121 0.0234401 0.0347405 0.0698738 0.13745 0.0478272 0.0995467 0.0987063 0.0623492 0.0203948 0.0192525 0.0234667
threshold=-3.9559199999999996e-07 -17.279499999999995 8.1708200000000029e-06 -2.4393049999999995e-05 1.5732750000000003e-05 2.3532100000000002 -4.2055399999999992 -0.32337199999999994 1.6902450000000003e-05 3.0130200000000005 2.325825e-05 2.7946350000000004 2.3063800000000003 4.061015000000001e-05
decision_type=2 2 2 2 2 2 2 2 2 2 2 2 2 2
left_child=1 2 -1 4 5 7 -7 10 -9 -10 -3 -4 13 -6
right_child=-2 3 11 -5 12 6 -8 8 9 -11 -12 -13 -14 -15
leaf_value=-0.004510787363396958 -1.721593719455288e-05 -0.0064484626178027069 -0.00015258615352007945 3.1283574020900418e-05 0.0046441651235979335 0.01287222847342491 -0.0022632486000657083 0.00045948573113471433 0.012731639991203941 -9.4527234323322774e-05 0.0027513697085221516 -0.0045565692164624728 -0.0016521172886666824 0.00029549854640715037
leaf_weight=20 18720 17.000000000000004 85 2958 12.999999999999998 15.000000000000002 9.9999999999999982 89 15.000000000000002 9.9999999999999982 12.999999999999998 11.999999999999998 49 273
leaf_count=20 18720 17 85 2958 13 15 10 89 15 10 13 12 49 273
internal_value=0 9.00482e-05 -0.00134927 0.000138691 0.000769067 0.00193798 0.00681804 0.00109075 0.00202565 0.00760117 -0.00246187 -0.000697409 0.000179378 0.000493165
internal_weight=0 3579 117 3462 504 169 25 144 114 25 30 97 335 286
internal_count=22299 3579 117 3462 504 169 25 144 114 25 30 97 335 286
shrinkage=0.1


Tree=619
num_leaves=15
num_cat=0
split_feature=18 28 18 20 6 10 36 34 1 10 2 18 33 31
split_gain=0.00357258 0.00986315 0.0437352 0.028204 0.0441168 0.0369293 0.0231567 0.0221778 0.0639058 0.0179708 0.0158307 0.0153453 0.0884045 0.0968411
threshold=-5.7365999999999993e-05 -0.020600649999999995 -0.00019607549999999996 1.1294450000000003 -2.5170299999999993e-07 2.8371600000000005e-05 0.0096991700000000017 0.37802400000000008 -5.2585749999999996 1.1829650000000001e-05 -0.4437394999999999 -0.00023542999999999999 2.1424800000000002e-05 0.07145905000000001
decision_type=2 2 2 2 2 2 2 2 2 2 2 2 2 2
left_child=1 2 9 4 6 -5 -4 10 -9 -1 -6 -3 -13 -14
right_child=-2 11 3 5 7 -7 -8 8 -10 -11 -12 12 13 -15
leaf_value=0.0034988958501101781 -2.1671542890828009e-05 4.6428848852599739e-05 -0.00077367897399447164 -0.0073317013252036352 -0.0047253607169047661 -0.00091612356002716453 -0.0066620701211778559 0.0088128565112128854 -0.00045765257392335552 -9.2666945311609222e-07 0.00014328034115297831 0.00014904487983971663 0.0083726089086017721 0.0012689708175278864
leaf_weight=14.999999999999998 17244 3481 11.000000000000002 19 11.000000000000002 17 17 9.9999999999999982 29 670 17 669 28 61
leaf_count=15 17244 3481 11 19 11 17 17 10 29 670 17 669 28 61
internal_value=0 7.39276e-05 -0.000244444 -0.00191854 -0.00101529 -0.00430212 -0.00434877 0.000377813 0.0019194 7.57118e-05 -0.0017694 0.000135214 0.000542944 0.00350382
internal_weight=0 5055 816 131 95 36 28 67 39 685 28 4239 758 89
internal_count=22299 5055 816 131 95 36 28 67 39 685 28 4239 758 89
shrinkage=0.1


Tree=620
num_leaves=15
num_cat=0
split_feature=2 37 26 22 8 7 22 7 10 9 19 26 21 10
split_gain=0.00335048 0.0322243 0.0313409 0.0363683 0.231169 0.219014 0.184623 0.0426059 0.100976 0.168918 0.0541518 0.0232109 0.0219452 0.0246361
threshold=-1.8099099999999997 -2.8905149999999998e-08 -0.00010012344999999998 -1.8970999999999998 1.2962600000000002e-05 5.9618050000000008e-05 -2.1806549999999993 2.8214400000000002e-05 2.8995250000000003e-05 -2.1205799999999996e-05 4.9388600000000005e-08 -7.6952549999999989e-05 -5.4176849999999996 1.5181450000000002e-05
decision_type=2 2 2 2 2 2 2 2 2 2 2 2 2 2
left_child=1 12 -3 4 7 6 -6 -4 9 -9 -10 -7 -1 -14
right_child=-2 2 3 -5 5 11 -8 8 10 -11 -12 -13 13 -15
leaf_value=-0.0007549173486822116 -2.075344057872138e-05 -0.00027137463269297018 -0.006116760658243528 0.00037951392532356511 0.0073651903412408279 0.0042721191537566467 0.024311909475945869 0.0154731275094673 -0.0084851689552041618 -0.0010946762486128137 -0.00079916622637855742 -0.0019475883146515115 0.0014036191910625868 -0.00013145999710643063
leaf_weight=554 17331 705 12.999999999999998 1868 18.000000000000004 10.000000000000002 9.9999999999999982 10.000000000000002 10.999999999999998 15.999999999999998 55 14.999999999999998 112 1571
leaf_count=554 17331 705 13 1868 18 10 10 10 11 16 55 15 112 1571
internal_value=0 7.23989e-05 0.0003029 0.000502734 0.00195954 0.00734339 0.0134176 -0.000758023 -8.10281e-07 0.00527756 -0.00208017 0.000540295 -0.000209004 -2.93038e-05
internal_weight=0 4968 2731 2026 158 53 28 105 92 26 66 25 2237 1683
internal_count=22299 4968 2731 2026 158 53 28 105 92 26 66 25 2237 1683
shrinkage=0.1


Tree=621
num_leaves=15
num_cat=0
split_feature=28 12 15 15 5 7 5 1 35 32 3 5 19 12
split_gain=0.00357215 0.0225464 0.0240972 0.0228712 0.0222031 0.0236365 0.0194278 0.0153836 0.0301618 0.0148731 0.0421872 0.0470177 0.0470272 0.0375826
threshold=-0.085570549999999981 2.3227550000000001e-05 1.0092000000000002e-07 1.9066e-05 8.0712700000000014e-06 1.8309950000000006e-05 1.3258200000000003e-05 -3.9636449999999992 0.0013210400000000001 0.83495000000000019 -11.019649999999997 1.2401900000000002e-05 1.8368750000000003e-06 -0.00016605649999999996
decision_type=2 2 2 2 2 2 2 2 2 2 2 2 2 2
left_child=1 4 -3 6 7 -6 -4 8 -1 -2 11 13 -13 -11
right_child=9 2 3 -5 5 -7 -8 -9 -10 10 -12 12 -14 -15
leaf_value=-0.00091261018175058616 -1.2236108005879182e-06 0.0010620140352357204 -0.004572441532988759 0.00069553739746392828 0.0040300749059367395 -0.00011641452119707786 -0.00077546936126264674 -0.00071968995669687344 -0.0082176163420081133 0.0044972456812572021 0.00015428665277413754 -0.010685488730669022 -0.0030184194935281997 -0.002409348320215941
leaf_weight=13.000000000000002 20639 402 17 99 13.999999999999998 762 65 33 9.9999999999999982 12.999999999999998 162 9.9999999999999982 40 20
leaf_count=13 20639 402 17 99 14 762 65 33 10 13 162 10 40 20
internal_value=0 0.000153763 0.000630619 -0.000327507 -0.000180381 -4.16067e-05 -0.00156265 -0.00210339 -0.0040887 -1.04182e-05 -0.00078498 -0.00261825 -0.00455183 0.000311431
internal_weight=0 1415 583 181 832 776 82 56 23 20884 245 83 50 33
internal_count=22299 1415 583 181 832 776 82 56 23 20884 245 83 50 33
shrinkage=0.1


Tree=622
num_leaves=15
num_cat=0
split_feature=29 2 2 30 10 22 20 22 3 19 5 22 15 28
split_gain=0.00359428 0.0136312 0.0525353 0.0791482 0.0332745 0.0375768 0.0471128 0.0500586 0.0267973 0.0360894 0.0221508 0.0947151 0.086341 0.0330545
threshold=0.0059710400000000012 -2.2669549999999998 -2.2449399999999993 0.0013770250000000003 2.6578700000000004e-05 -2.6871649999999998 -5.1274949999999988 -1.9494249999999997 -12.676799999999998 1.8055650000000004e-08 1.2493400000000001e-05 -2.6473049999999998 1.1598450000000002e-07 -0.015852449999999997
decision_type=2 2 2 2 2 2 2 2 2 2 2 2 2 2
left_child=-1 4 3 -3 5 -2 8 -8 -7 -10 11 12 -6 -13
right_child=1 2 -4 -5 10 6 7 -9 9 -11 -12 13 -14 -15
leaf_value=-2.4923281739716292e-05 -0.0076239796355366714 0.01155634413938969 0.00010589648133015359 -0.0007359741820354513 0.0020120442214914976 -0.0025166867688919108 -0.0078245661413187499 -0.00066839355327512904 -0.00016146261388292677 0.0078291877778247001 -0.00036653960865907701 -0.0022816213360551669 0.013722289688885211 0.00094956284048054946
leaf_weight=16096 10.999999999999998 10.000000000000002 5282 10.999999999999998 17.000000000000004 11.999999999999998 17 23 13.000000000000002 9.9999999999999982 643 47 9.9999999999999982 97
leaf_count=16096 11 10 5282 11 17 12 17 23 13 10 643 47 10 97
internal_value=0 6.46728e-05 0.000125743 0.00511751 -0.000295164 -0.00216584 -0.00136531 -0.00370977 0.00131407 0.00331273 -9.75257e-05 0.000914029 0.00634917 -0.00010506
internal_weight=0 6203 5303 21 900 86 75 40 35 23 814 171 27 144
internal_count=22299 6203 5303 21 900 86 75 40 35 23 814 171 27 144
shrinkage=0.1


Tree=623
num_leaves=15
num_cat=0
split_feature=2 22 19 31 14 32 22 19 0 21 23 0 14 33
split_gain=0.0034737 0.0637307 0.0581369 0.0999101 0.141613 0.0548306 0.0293372 0.0202728 0.0336957 0.0169375 0.0126238 0.0141716 0.0188817 0.0214261
threshold=-2.7883099999999996 -2.7756699999999994 1.8368750000000003e-06 0.56748650000000012 0.00020115150000000003 0.27938250000000003 -2.3659499999999993 3.9135900000000011e-06 -11.792799999999998 -5.0581049999999985 -7.6950299999999991 -9.7830299999999983 0.0031007600000000006 2.7627650000000006e-06
decision_type=2 2 2 2 2 2 2 2 2 2 2 2 2 2
left_child=1 2 3 4 -1 -4 7 8 -3 -10 11 -8 13 -13
right_child=-2 6 5 -5 -6 -7 10 -9 9 -11 -12 12 -14 -15
leaf_value=0.0028926740157961222 -9.1189021981308901e-06 0.0004007653522421606 -0.001758604846668966 -0.0026389480084286665 0.016917104553431272 0.0063937778245996349 0.00043186002288795645 -0.00039498889135150723 -0.0089497384699908176 -0.0032633272698149073 0.00068358077953459718 -0.002084969375457664 0.00022070874719526667 -0.00014609001399746731
leaf_weight=18.000000000000004 21169 11.999999999999998 33 10.999999999999998 11.999999999999998 10.999999999999998 279 36 10.999999999999998 10.000000000000002 267 113 202 115
leaf_count=18 21169 12 33 11 12 11 279 36 11 10 267 113 202 115
internal_value=0 0.00017083 0.00280403 0.00551329 0.00850245 0.000279491 -4.33536e-05 -0.0020361 -0.0038264 -0.00624192 9.75269e-05 -0.000123173 -0.000483299 -0.00110703
internal_weight=0 1130 85 41 30 44 1045 69 33 21 976 709 430 228
internal_count=22299 1130 85 41 30 44 1045 69 33 21 976 709 430 228
shrinkage=0.1


Tree=624
num_leaves=15
num_cat=0
split_feature=37 3 19 21 13 5 9 32 4 4 24 25 3 23
split_gain=0.00353857 0.0208926 0.0186821 0.0182903 0.0180352 0.0282537 0.055343 0.0720646 0.0478225 0.0438355 0.0731258 0.159646 0.0266484 0.0233927
threshold=-3.9559199999999996e-07 -17.279499999999995 8.1708200000000029e-06 -2.4913699999999994 -2.4393049999999995e-05 1.5976850000000006e-05 -2.4015299999999997e-05 -0.20515949999999997 0.5596285000000002 -0.12416399999999998 0.24689300000000003 2.1382100000000004 -13.799749999999998 -11.830699999999998
decision_type=2 2 2 2 2 2 2 2 2 2 2 2 2 2
left_child=1 2 3 -1 5 6 7 -3 9 -8 13 -12 -9 -11
right_child=-2 4 -4 -5 -6 -7 8 12 -10 10 11 -13 -14 -15
leaf_value=-0.00098192946054041362 -1.7418043635285474e-05 0.010104467300698161 -0.0006493852283645388 -0.0070301268529146914 4.130827409629358e-05 0.00014955395482688636 -0.0011108428378381928 -0.0021125556752932344 -0.0053734208612392347 -0.0017430068595179671 0.015510578950246171 -0.00020792204886674882 0.0040152533119544379 0.0031054380671669012
leaf_weight=10.000000000000002 18720 15.999999999999998 97 9.9999999999999982 2958 332 46 10.999999999999998 11.999999999999998 23.999999999999996 12.000000000000002 13.999999999999998 20.000000000000004 17.000000000000004
leaf_count=10 18720 16 97 10 2958 332 46 11 12 24 12 14 20 17
internal_value=0 9.11053e-05 -0.00122317 -0.00400603 0.000135522 0.000688466 0.00172869 0.00465401 0.000628772 0.00126617 0.00289815 0.00704677 0.00184087 0.000267324
internal_weight=0 3579 117 20 3462 504 172 47 125 113 67 26 31 41
internal_count=22299 3579 117 20 3462 504 172 47 125 113 67 26 31 41
shrinkage=0.1


Tree=625
num_leaves=15
num_cat=0
split_feature=33 6 23 3 23 14 19 33 23 3 25 5 3 13
split_gain=0.00369041 0.0394523 0.0243759 0.0447637 0.0849204 0.0336788 0.03588 0.0266152 0.0260162 0.024376 0.0229877 0.0213302 0.034396 0.0199069
threshold=-1.3162999999999997e-05 1.1511000000000003e-06 -15.690899999999997 -16.232699999999998 -17.648549999999997 0.00086775350000000003 0.00012994800000000004 -3.4138749999999996e-05 -10.089149999999998 -6.1514349999999984 3.4990450000000002 1.7096650000000002e-05 -6.3282549999999995 3.6063350000000008e-05
decision_type=2 2 2 2 2 2 2 2 2 2 2 2 2 2
left_child=1 -1 3 4 -3 8 7 -7 9 -4 13 -10 -13 -8
right_child=-2 2 5 -5 -6 6 10 -9 11 -11 -12 12 -14 -15
leaf_value=-0.00013284905434189141 -1.9482059766597298e-05 0.00033305688162467304 0.0017174596596333262 0.00090837604311150776 0.012398618087172509 -0.0070260825899562647 -0.002084022697440728 -0.00027137103956192732 0.00067348321846482989 0.00023423150529756264 0.00083052416693566279 -0.0042900691278434057 0.00045975300536449669 -0.00015173693596014532
leaf_weight=2773 18139 14.000000000000002 262 383 9.9999999999999982 14.000000000000002 81 9.9999999999999982 71 192 133 30 31 156
leaf_count=2773 18139 14 262 383 10 14 81 10 71 192 133 30 31 156
internal_value=0 8.49483e-05 0.000520386 0.0011709 0.00536037 0.000250223 -0.000464711 -0.00421162 0.000730912 0.00109019 -0.000221668 -0.000504791 -0.00187623 -0.000812138
internal_weight=0 4160 1387 407 24 980 394 24 586 454 370 132 61 237
internal_count=22299 4160 1387 407 24 980 394 24 586 454 370 132 61 237
shrinkage=0.1


Tree=626
num_leaves=15
num_cat=0
split_feature=4 38 4 19 18 31 32 17 34 7 7 25 24 4
split_gain=0.00338396 0.015902 0.0338146 0.0475675 0.0496736 0.0573439 0.040414 0.0183386 0.0550727 0.0184999 0.0181832 0.0260687 0.0130346 0.0148858
threshold=0.313587 -0.083844549999999976 1.1082250000000002 0.0007816975000000001 0.00022125750000000002 -2.8241349999999996 3.1554550000000003 7.5621050000000012e-06 3.0089350000000006 3.2652550000000003e-05 7.0934400000000023e-05 42.475300000000004 -1.7384499999999996 3.4442300000000006
decision_type=2 2 2 2 2 2 2 2 2 2 2 2 2 2
left_child=-1 2 3 4 5 -2 -7 8 -4 -9 11 -11 13 -3
right_child=1 12 7 -5 -6 6 -8 9 -10 10 -12 -13 -14 -15
leaf_value=-2.1975224708628677e-05 0.0024739914170752932 -0.0033665634367776955 0.0083221070514991856 -0.007340921407831047 0.003555165557190776 -0.0093619943912407067 -0.0017636890456612622 0.0037323624547570947 -0.0012584923719987273 -0.00074736732329331234 0.0014134983762954202 -0.0056078134444900434 0.00011952705116095204 0.00031589786438936639
leaf_weight=16916 12.999999999999995 23 10.000000000000002 15.999999999999998 15.999999999999998 14.000000000000005 13.999999999999998 9.9999999999999982 14.999999999999998 73 29 12.999999999999998 5116 21
leaf_count=16916 13 23 10 16 16 14 14 10 15 73 29 13 5116 21
internal_value=0 6.90568e-05 -0.000757715 -0.00252287 -0.00117044 -0.00301458 -0.00556284 0.000101329 0.00257375 -0.000393154 -0.000751895 -0.00148209 0.000104787 -0.00160903
internal_weight=0 5383 223 73 57 41 28 150 25 125 115 86 5160 44
internal_count=22299 5383 223 73 57 41 28 150 25 125 115 86 5160 44
shrinkage=0.1


Tree=627
num_leaves=15
num_cat=0
split_feature=4 26 19 29 37 30 19 20 23 11 26 29 19 36
split_gain=0.00358971 0.015407 0.0207955 0.0242753 0.056579 0.0352527 0.0206115 0.062406 0.0433988 0.0152948 0.0319606 0.0195 0.0192059 0.0116841
threshold=-0.39397899999999991 -4.5929699999999995e-05 9.6951700000000012e-06 0.041198700000000012 -1.9252599999999996e-07 0.0013770250000000003 8.1708200000000029e-06 9.2292700000000014 -6.8442899999999991 -3.1724349999999994e-05 -0.00012948149999999996 0.023974500000000006 5.5577300000000006e-06 -0.00035140299999999997
decision_type=2 2 2 2 2 2 2 2 2 2 2 2 2 2
left_child=1 6 3 4 5 -3 7 8 9 10 -1 12 -11 -6
right_child=-2 2 -4 -5 13 -7 -8 -9 -10 11 -12 -13 -14 -15
leaf_value=-0.0056783934395449841 -2.2300753596402457e-05 -0.01064392730593681 -3.0025768594379647e-05 0.0022614777489151391 -0.0022500733854374975 -0.0027464491100265432 0.00017462621092373984 0.0090415038727223868 0.0068350147794593464 0.00097482711397355699 0.00091365965475377294 0.0045215615751938183 -0.0037532138545066118 -0.00011727266171960981
leaf_weight=12.000000000000002 17036 10.000000000000002 2385 18 37 12.999999999999998 2580 9.9999999999999982 10.999999999999998 61 19 12.999999999999998 9.9999999999999982 84
leaf_count=12 17036 10 2385 18 37 13 2580 10 11 61 19 13 10 84
internal_value=0 7.21861e-05 -0.000104496 -0.00120087 -0.00163366 -0.00618014 0.000237875 0.00143773 0.000834259 0.000260273 -0.0016381 0.000960864 0.000308906 -0.000769451
internal_weight=0 5263 2547 162 144 23 2716 136 126 115 31 84 71 121
internal_count=22299 5263 2547 162 144 23 2716 136 126 115 31 84 71 121
shrinkage=0.1


Tree=628
num_leaves=15
num_cat=0
split_feature=2 33 22 6 3 22 0 22 2 31 23 6 2 34
split_gain=0.00350894 0.0286888 0.0388832 0.075796 0.0905908 0.0800629 0.0883666 0.069476 0.941956 0.177098 0.197195 0.12459 0.117821 0.0569001
threshold=1.7572250000000003 9.9369500000000019e-07 1.7583250000000004 5.9574350000000011e-07 -6.283129999999999 1.4147800000000001 -5.7331999999999992 2.0054050000000001 1.9945700000000002 0.040894450000000006 -8.2241149999999994 1.2416850000000003e-06 1.9945700000000002 0.31666400000000006
decision_type=2 2 2 2 2 2 2 2 2 2 2 2 2 2
left_child=-1 -2 3 -3 5 13 -7 8 9 10 -4 -10 -9 -5
right_child=1 2 7 4 -6 6 -8 12 11 -11 -12 -13 -14 -15
leaf_value=1.9442042704097275e-05 0.00016053600883401118 0.0002985967533779614 0.031760638952255248 -0.0025451990415579339 0.00023914524789930564 -0.00094391858369550293 -0.010367280010056372 -0.0032829590825319945 0.0010523284878357889 0.0072367251912752789 0.013082195033964053 -0.0056353138800720147 0.00022908825414175811 0.00012979007148773437
leaf_weight=17980 2300 411 9.9999999999999982 294 218 17 24 111 52 14.999999999999998 13.000000000000002 60 685 109
leaf_count=17980 2300 411 10 294 218 17 24 111 52 15 13 60 685 109
internal_value=0 -8.09372e-05 -0.000356018 -0.000768076 -0.00143032 -0.00225001 -0.00646003 0.000111358 0.00208552 0.0156902 0.0212033 -0.00253034 -0.000260657 -0.00182169
internal_weight=0 4319 2019 1073 662 444 41 946 150 38 23 112 796 403
internal_count=22299 4319 2019 1073 662 444 41 946 150 38 23 112 796 403
shrinkage=0.1


Tree=629
num_leaves=15
num_cat=0
split_feature=2 37 18 4 21 23 23 11 14 29 22 1 1 5
split_gain=0.00325745 0.0257034 0.0219334 0.0568809 0.0594333 0.0451845 0.0492779 0.0381712 0.0309051 0.0537503 0.0244869 0.123453 0.062052 0.0604685
threshold=-1.8099099999999997 -2.8905149999999998e-08 1.0692350000000002e-06 0.313587 -3.5364649999999993 -12.677849999999998 -11.391099999999998 -1.7311249999999998e-05 0.000235851 0.023974500000000006 -2.7756699999999994 -3.1189549999999993 -1.5584699999999998 1.4988650000000003e-05
decision_type=2 2 2 2 2 2 2 2 2 2 2 2 2 2
left_child=1 2 10 4 5 -4 -7 -8 -6 -10 11 -1 13 -13
right_child=-2 -3 3 -5 8 6 7 -9 9 -11 -12 12 -14 -15
leaf_value=-0.0033266309575033168 -2.0463276391304077e-05 0.00027724875163934588 0.00044498616415593366 -4.4657987318016653e-05 0.00099335723253528752 -0.01167307629948482 -0.0026557349835374311 -0.0088232068470321025 -0.00088941175320845416 -0.0075820874015334995 0.00019184580606502428 0.011395866998160876 -0.0016076827175257838 0.001872067808484038
leaf_weight=91 17331 2731 18 570 63 9.9999999999999982 44 12.999999999999998 84 13.999999999999998 1286 12.000000000000002 17 14.999999999999998
leaf_count=91 17331 2731 18 570 63 10 44 13 84 14 1286 12 17 15
internal_value=0 7.13867e-05 -0.000179936 -0.000593148 -0.00186404 -0.00400324 -0.00519828 -0.00406235 -0.000734648 -0.00184551 5.73477e-05 -0.00122387 0.00312502 0.00610487
internal_weight=0 4968 2237 816 246 85 67 57 161 98 1421 135 44 27
internal_count=22299 4968 2237 816 246 85 67 57 161 98 1421 135 44 27
shrinkage=0.1


Tree=630
num_leaves=15
num_cat=0
split_feature=35 15 19 30 7 18 20 31 22 9 34 20 7 30
split_gain=0.00349235 0.0227301 0.0635233 0.140504 0.13398 0.0557204 0.108498 0.0576085 0.0992823 0.0538538 0.093039 0.0599108 0.0404821 0.0512062
threshold=0.0012092200000000002 1.6360850000000001e-07 1.1605450000000001e-06 0.00035942700000000005 5.1990600000000003e-05 1.1170000000000001e-05 3.2916800000000004 -0.55108449999999987 0.32001350000000006 4.7703550000000005e-05 0.04522215000000001 3.5557050000000001 6.967515000000001e-05 0.00024192350000000002
decision_type=2 2 2 2 2 2 2 2 2 2 2 2 2 2
left_child=-1 12 3 4 -3 7 -7 8 -5 10 -9 -11 -2 -14
right_child=1 2 -4 5 -6 6 -8 9 -10 11 -12 -13 13 -15
leaf_value=-2.410414626713856e-05 -0.00023414153122562292 0.016557432369639472 0.00012669804493910283 -0.00042637535933560375 0.001614232212402082 -0.00056636411895548606 0.011915285419672728 0.0080623883319397762 0.012081413705494594 -0.00029741801759775944 -0.00024552238217547982 -0.0095260295240829403 0.0068406535231938159 0.00050201346115197505
leaf_weight=16265 3134 12.000000000000002 1983 15.000000000000002 11.999999999999998 15.000000000000002 12.999999999999998 14.999999999999998 10.999999999999998 17.000000000000004 133 11.999999999999998 12.999999999999998 649
leaf_count=16265 3134 12 1983 15 12 15 13 15 11 17 133 12 13 649
internal_value=0 6.49741e-05 0.000317747 0.00180344 0.00908583 0.00104682 0.00522869 0.000470014 0.00486538 -0.000175633 0.000596496 -0.00411615 -8.40528e-05 0.000626488
internal_weight=0 6034 2238 255 24 231 28 203 26 177 148 29 3796 662
internal_count=22299 6034 2238 255 24 231 28 203 26 177 148 29 3796 662
shrinkage=0.1


Tree=631
num_leaves=15
num_cat=0
split_feature=8 23 33 23 1 28 23 12 28 1 28 20 23 3
split_gain=0.00340373 0.0118392 0.012848 0.0124806 0.0100862 0.0322061 0.0275236 0.0325264 0.027099 0.0334227 0.0120552 0.0119761 0.0188181 0.0477509
threshold=2.2903550000000002e-05 -6.0025199999999987 7.1091050000000012e-07 -6.1048599999999995 -10.501599999999998 -0.032671749999999992 -8.1679949999999977 -4.2291949999999997e-05 -0.025617649999999995 -11.81865 -0.0013239199999999999 11.348350000000002 -7.2618449999999992 -5.9800399999999998
decision_type=2 2 2 2 2 2 2 2 2 2 2 2 2 2
left_child=4 3 -3 -2 5 6 -1 -8 9 -7 11 12 -10 -14
right_child=1 2 -4 -5 -6 8 7 -9 10 -11 -12 -13 13 -15
leaf_value=-0.00027336043970169525 -0.0001258316583731581 0.0001046920224325731 -0.0048478881891986193 0.0026791051335749217 -3.36467233559578e-06 9.9391129333525861e-05 -0.0084962903102859828 -0.001566994804445477 -0.0003516704128534848 0.0082752909371629352 0.00077067702280105141 -0.0034348500199848789 0.00480925238656777 -0.00060665598692849466
leaf_weight=77 1854 10.000000000000002 10.999999999999998 15.999999999999998 19490 10.000000000000002 10.000000000000002 21 228 9.9999999999999982 484 9.9999999999999982 27 41
leaf_count=77 1854 10 11 16 19490 10 10 21 228 10 484 10 27 41
internal_value=0 -0.000128348 -0.00248952 -0.000101832 1.18927e-05 0.000335821 -0.00128628 -0.00380225 0.000552101 0.00418734 0.00046007 -3.12171e-05 8.37705e-05 0.00154378
internal_weight=0 1891 21 1870 20408 918 108 31 810 20 790 306 296 68
internal_count=22299 1891 21 1870 20408 918 108 31 810 20 790 306 296 68
shrinkage=0.1


Tree=632
num_leaves=15
num_cat=0
split_feature=37 17 17 17 6 7 18 22 1 28 2 15 33 12
split_gain=0.00352371 0.0166211 0.0285293 0.0246427 0.0386376 0.0482107 0.0470423 0.0408421 0.037078 0.0359745 0.0550794 0.0460393 0.0322247 0.0298587
threshold=-3.9559199999999996e-07 1.8942500000000004e-05 2.0317800000000004e-05 1.5373600000000002e-07 2.9629900000000005e-07 2.7586800000000002e-05 -1.0136849999999998e-05 2.7365150000000003 2.1063450000000006 0.014898700000000003 -0.85010399999999986 -2.3327649999999996e-07 1.9192950000000004e-05 -0.00028008849999999996
decision_type=2 2 2 2 2 2 2 2 2 2 2 2 2 2
left_child=1 3 -3 -1 5 12 9 13 -9 10 -6 -11 -5 -8
right_child=-2 2 -4 4 6 -7 7 8 -10 11 -12 -13 -14 -15
leaf_value=0.00025254394008813232 -1.7381420836215846e-05 0.0047595845768228177 0.00047354641615120771 -0.0021500458810478451 -0.0060609693018098681 -0.0007284862898464527 -0.0034327749576833519 0.00016418570701621084 -0.0062642924939556163 -0.0075513280613813544 0.00059220449524941183 -0.00076610053889453417 -0.0080128934614670782 0.00069549556113779115
leaf_weight=1697 18720 15.999999999999998 529 25 14.999999999999998 458 18 19 17 20 73 20 14.999999999999998 657
leaf_count=1697 18720 16 529 25 15 458 18 19 17 20 73 20 15 657
internal_value=0 9.09137e-05 0.000599375 -4.2162e-07 -0.000321501 -0.00101926 9.26639e-05 0.000410376 -0.00287148 -0.00167213 -0.000541859 -0.00415871 -0.00434861 0.000585408
internal_weight=0 3579 545 3034 1337 498 839 711 36 128 88 40 40 675
internal_count=22299 3579 545 3034 1337 498 839 711 36 128 88 40 40 675
shrinkage=0.1


Tree=633
num_leaves=15
num_cat=0
split_feature=22 5 0 7 0 14 3 9 0 10 37 28 37 37
split_gain=0.00326664 0.0169514 0.0174413 0.0136339 0.00690268 0.00617155 0.00563137 0.00547348 0.00387421 0.00365694 0.0181402 0.0316764 0.026495 0.044391
threshold=3.0427950000000004 8.0712700000000014e-06 -6.732079999999999 7.0235350000000005e-05 -5.3171499999999989 0.0014346750000000003 -16.889399999999998 -4.6939049999999996e-05 -4.5652049999999988 9.3887650000000016e-06 -1.5535299999999998e-06 0.047249250000000007 -2.964239999999999e-07 -3.3689249999999996e-07
decision_type=2 2 2 2 2 2 2 2 2 2 2 2 2 2
left_child=9 -2 3 7 5 -4 -6 -3 -8 10 -1 12 13 -12
right_child=1 2 4 -5 6 -7 8 -9 -10 -11 11 -13 -14 -15
leaf_value=-0.0027971579898696617 0.0038746536566087834 -0.004484553047670768 0.0038883605675602488 0.0011695973490449514 -0.0018544004468077965 0.00045586197637021548 -0.0014284899423364552 -0.0016349932927239152 0.00060076451667578261 -8.601291867190526e-06 0.0004126635301732817 0.0053848720979518616 -0.00014697504877641502 0.0077656211525512237
leaf_weight=17 12.999999999999998 12.999999999999998 11.000000000000002 10.999999999999998 10.999999999999998 9.9999999999999982 9.9999999999999982 14.000000000000002 159 21780 26 12.999999999999998 199 11.999999999999998
leaf_count=17 13 13 11 11 11 10 10 14 159 21780 26 13 199 12
internal_value=0 0.000357999 0.000166717 -0.00179799 0.000538153 0.00225384 0.00033799 -0.003007 0.00048069 -4.09198e-06 0.000363747 0.000578688 0.000315058 0.00273465
internal_weight=0 252 239 38 201 21 180 27 169 22047 267 250 237 38
internal_count=22299 252 239 38 201 21 180 27 169 22047 267 250 237 38
shrinkage=0.1


Tree=634
num_leaves=15
num_cat=0
split_feature=12 19 23 23 5 12 21 3 36 8 1 19 0 34
split_gain=0.00318786 0.0069899 0.0103244 0.00856894 0.0172524 0.00678123 0.0238732 0.0358473 0.07162 0.204322 0.0413177 0.0360673 0.0922303 0.0316808
threshold=-0.00071449049999999987 0.00022854250000000002 -10.976349999999998 -18.605599999999995 1.3712350000000003e-05 -8.085454999999998e-05 -8.3840799999999991 -9.5935949999999988 0.14832100000000004 2.5072300000000004e-05 -5.0012199999999991 2.9823300000000003e-05 -2.1517299999999997 0.0070577850000000013
decision_type=2 2 2 2 2 2 2 2 2 2 2 2 2 2
left_child=1 2 -1 4 -3 6 7 10 11 -10 13 12 -9 -2
right_child=5 3 -4 -5 -6 -7 -8 8 9 -11 -12 -13 -14 -15
leaf_value=-0.004106623740782113 -8.6982051707860651e-05 0.0049074582615867262 -0.00017482395025367355 -0.00017253734044827166 0.00014891386090312155 -2.0956467638054484e-05 0.00019476177688945346 -0.0016352869082159789 0.016309026952367269 -0.0034411602653563024 -0.0002333262703764523 -0.00087843090138969382 0.0078340521172827315 -0.0037376550521345483
leaf_weight=11.000000000000002 33 9.9999999999999982 17 1140 32 16474 4123 24 10.000000000000002 10.999999999999998 155 156 18 85
leaf_count=11 33 10 17 1140 32 16474 4123 24 10 11 155 156 18 85
internal_value=0 -0.000157849 -0.00171946 -0.000120857 0.0012819 9.05674e-06 0.000116194 -0.000542212 0.000410814 0.00596369 -0.00130673 -0.000178127 0.002423 -0.0027167
internal_weight=0 1210 28 1182 42 21089 4615 492 219 21 273 198 42 118
internal_count=22299 1210 28 1182 42 21089 4615 492 219 21 273 198 42 118
shrinkage=0.1


Tree=635
num_leaves=15
num_cat=0
split_feature=21 12 12 0 24 15 5 3 14 17 17 7 21 2
split_gain=0.00299295 0.0345171 0.047082 0.0307773 0.0345094 0.0258323 0.0303497 0.0190449 0.0245267 0.015846 0.00993647 0.00637169 0.00452585 0.026308
threshold=-14.205299999999998 -5.5952699999999997e-05 -4.0428499999999987e-05 2.8195500000000004 0.14657200000000001 -1.6547449999999998e-06 1.6740450000000003e-05 -8.7082099999999976 0.00025358600000000003 2.2501100000000003e-08 4.5515950000000005e-07 3.0138200000000002e-05 -13.626249999999997 -1.7372549999999998
decision_type=2 2 2 2 2 2 2 2 2 2 2 2 2 2
left_child=1 3 -3 4 9 6 -4 -7 11 -1 -10 -9 13 -2
right_child=12 2 5 -5 -6 7 -8 8 10 -11 -12 -13 -14 -15
leaf_value=0.0013866525740013455 -0.0034349111732668602 0.0078191138315014536 0.0075255374572324452 0.0017917655391262517 -0.0077629833171765014 0.0016894642313543175 0.00061006819130852822 -0.0015845372072922496 -0.0017824294638227327 -0.003565476314543048 -0.0061378417443484073 0.0010408102126348241 -4.969076306599669e-08 0.00013569860045390669
leaf_weight=12.000000000000002 26 9.9999999999999982 11.000000000000002 17 11.999999999999998 42 14.999999999999998 12.999999999999998 11.000000000000002 13.999999999999998 9.9999999999999982 32 21974 100
leaf_count=12 26 10 11 17 12 42 15 13 11 14 10 32 21974 100
internal_value=0 0.000386079 0.00120002 -0.00174496 -0.00332717 0.000706054 0.00353584 2.48083e-05 -0.00103452 -0.00127988 -0.00385644 0.000282377 -3.47646e-06 -0.000601094
internal_weight=0 199 144 55 38 134 26 108 66 26 21 45 22100 126
internal_count=22299 199 144 55 38 134 26 108 66 26 21 45 22100 126
shrinkage=0.1


Tree=636
num_leaves=15
num_cat=0
split_feature=37 9 20 0 29 16 20 18 4 6 29 13 5 0
split_gain=0.00295634 0.0148031 0.0330206 0.0245504 0.0517461 0.175831 0.0434617 0.17181 0.127432 0.0444312 0.0236077 0.0270455 0.0241944 0.0229207
threshold=-3.9559199999999996e-07 3.3494450000000006e-05 5.9946400000000013 4.1933950000000015 -0.069435449999999996 -2.6095649999999993e-07 3.7729450000000004 -1.1787699999999999e-06 -0.25668149999999995 3.5215750000000007e-06 0.0017903400000000003 2.3375550000000004e-05 1.1155750000000001e-05 3.4826800000000007
decision_type=2 2 2 2 2 2 2 2 2 2 2 2 2 2
left_child=1 3 -3 13 5 -5 10 8 -8 -9 11 -6 -13 -1
right_child=-2 2 -4 4 6 -7 7 9 -10 -11 -12 12 -14 -15
leaf_value=0.00012706584792388146 -1.5920700328899487e-05 -9.408329351026896e-05 -0.0023342684180434311 0.013895112741738559 -0.00021349430418289876 0.00037563329852009948 0.0027879216009750953 -0.0036224014790301831 0.018385327435098589 0.0043113386887125666 0.00047617605200622629 -0.0081092208926565931 -0.0014491549964683751 -0.0013201979891037691
leaf_weight=2259 18720 667 73 12.999999999999998 46 37 11.000000000000002 24 9.9999999999999982 9.9999999999999982 292 10.000000000000002 11.999999999999998 115
leaf_count=2259 18720 667 73 13 46 37 11 24 10 10 292 10 12 115
internal_value=0 8.32734e-05 -0.000315075 0.000187105 0.000851552 0.0038907 0.00048539 0.00310357 0.0102153 -0.00128895 8.53906e-05 -0.00159269 -0.00447646 5.69583e-05
internal_weight=0 3579 740 2839 465 50 415 55 21 34 360 68 22 2374
internal_count=22299 3579 740 2839 465 50 415 55 21 34 360 68 22 2374
shrinkage=0.1


Tree=637
num_leaves=15
num_cat=0
split_feature=23 13 33 3 3 37 10 19 14 3 25 15 26 25
split_gain=0.00298516 0.0248963 0.0538612 0.074779 0.162226 0.119364 0.185091 0.0725806 0.0699297 0.0477747 0.0408628 0.0391669 0.0444184 0.0234019
threshold=-7.9975599999999991 -1.6986749999999998e-05 -1.2724099999999997e-07 -7.9422599999999992 -7.6471949999999991 4.6225400000000007e-08 5.4869550000000011e-05 0.00073582300000000014 0.00029046550000000007 -7.7590199999999987 0.16128050000000002 -1.0625149999999999e-07 -8.2167399999999989e-05 0.20469900000000002
decision_type=2 2 2 2 2 2 2 2 2 2 2 2 2 2
left_child=-1 2 9 7 -5 10 -7 8 -4 -2 -6 12 -12 -13
right_child=1 -3 3 4 5 6 -8 -9 -10 -11 11 13 -14 -15
leaf_value=-2.5520124199211638e-05 0.0015835685321966106 -3.3450239143511837e-05 -0.011100067400063078 0.013019538010385905 0.0056138709071092315 0.015275192676255336 0.00083629082634745699 -0.00049803192228622115 -0.002615581587107116 -0.0001897292285568917 0.0071054693521000441 0.00239210051484406 -0.00017192134143372711 -0.0027071207243716346
leaf_weight=15001 491 6000 11.999999999999998 10.999999999999998 9.9999999999999982 12.999999999999998 28 300 51 220 9.9999999999999982 9.9999999999999982 52 90
leaf_count=15001 491 6000 12 11 10 13 28 300 51 220 10 10 52 90
internal_value=0 5.24565e-05 0.00044956 -0.000259392 0.00117742 0.000565856 0.00541448 -0.00114602 -0.00423167 0.00103487 -0.000589921 -0.000972871 0.00100185 -0.0021972
internal_weight=0 7298 1298 587 224 213 41 363 63 711 172 162 62 100
internal_count=22299 7298 1298 587 224 213 41 363 63 711 172 162 62 100
shrinkage=0.1


Tree=638
num_leaves=15
num_cat=0
split_feature=10 23 13 13 27 3 23 31 3 3 3 34 3 11
split_gain=0.00316154 0.00903151 0.00914274 0.00793175 0.0121693 0.0136482 0.0289611 0.00935972 0.0513473 0.022165 0.0344394 0.135079 0.01691 0.0496297
threshold=6.7337650000000014e-05 -6.0025199999999987 1.5247800000000002e-05 0.00013189800000000003 0.94359900000000019 -13.453149999999999 -12.387749999999999 -0.057195799999999991 -9.7137299999999982 -9.2069399999999977 -7.9422599999999992 0.020958400000000005 -9.7137299999999982 9.6533400000000007e-05
decision_type=2 2 2 2 2 2 2 2 2 2 2 2 2 2
left_child=-1 3 -3 4 5 6 -2 8 -7 -10 11 -11 13 -9
right_child=1 2 -4 -5 -6 7 -8 12 9 10 -12 -13 -14 -15
leaf_value=-1.5653636122184269e-05 -0.0058462735593572922 -0.0034866957176875862 -0.00018757234294233577 -0.00018878876859669685 -0.00011496742822390406 0.0072944557878751471 0.00066662233892000389 -0.0060186733981709047 -0.0032619091848443658 0.012437210441567004 0.00025839961663101955 0.00049638653018822278 0.00032946478231199287 0.0014535059523768724
leaf_weight=19013 11.000000000000002 13.999999999999998 21 706 864 11.999999999999998 18 15.999999999999998 13.999999999999998 11.999999999999998 225 45 1308 20
leaf_count=19013 11 14 21 706 864 12 18 16 14 12 225 45 1308 20
internal_value=0 9.05729e-05 -0.00150722 0.000107775 0.000190043 0.000346813 -0.00180379 0.000384565 0.000881788 0.000621815 0.000814624 0.00301024 0.000270619 -0.00186746
internal_weight=0 3286 35 3251 2545 1681 29 1652 308 296 282 57 1344 36
internal_count=22299 3286 35 3251 2545 1681 29 1652 308 296 282 57 1344 36
shrinkage=0.1


Tree=639
num_leaves=15
num_cat=0
split_feature=21 6 6 6 5 30 16 16 3 0 2 16 19 39
split_gain=0.00284815 0.0108283 0.00576012 0.00730517 0.00379496 0.00351501 0.0175869 0.0390122 0.0221193 0.0242873 0.0226425 0.0184643 0.0441698 0.0232416
threshold=26.346850000000003 -4.0740349999999994e-06 -3.2223299999999997e-07 9.1473000000000009e-07 1.3823800000000003e-05 0.027292350000000003 1.5829450000000001e-06 1.0318250000000003e-06 -16.232699999999998 -0.64980049999999989 2.1400250000000005 -7.0380199999999989e-07 3.2503650000000009e-05 1.0444035000000003
decision_type=2 2 2 2 2 2 2 2 2 2 2 2 2 2
left_child=5 -2 4 -4 -3 -1 7 8 9 10 -7 12 -10 -14
right_child=1 2 3 -5 -6 6 -8 -9 11 -11 -12 -13 13 -15
leaf_value=-5.8835758878483697e-06 -0.0033722164759334796 -0.00023997819516807786 -0.0026298376149497928 0.00034851179167162628 0.0023977137054316702 -0.0022764044128548858 -0.00051336458935320902 0.006689832457341254 -0.0036570154053657059 0.0064939769169238097 0.0042982849106192591 0.00073638005631649728 0.00063961481846712474 -0.0022690074207882089
leaf_weight=21395 11.999999999999998 10.000000000000002 13.999999999999998 20 11.999999999999998 11.000000000000002 243 9.9999999999999982 36 11.999999999999998 9.9999999999999982 317 164 33
leaf_count=21395 12 10 14 20 12 11 243 10 36 12 10 317 164 33
internal_value=0 -0.000646196 -6.20484e-05 -0.000877867 0.00119876 1.97658e-06 0.000203134 0.000496742 0.000390514 0.00290516 0.0008544 0.000239635 -0.000436193 0.000152384
internal_weight=0 68 56 34 22 22231 836 593 583 33 21 550 233 197
internal_count=22299 68 56 34 22 22231 836 593 583 33 21 550 233 197
shrinkage=0.1


Tree=640
num_leaves=15
num_cat=0
split_feature=4 36 4 21 5 17 22 2 4 7 14 26 10 8
split_gain=0.00297942 0.0141424 0.0399171 0.0358734 0.0139414 0.0134486 0.0207278 0.0233281 0.0172115 0.0204233 0.0212309 0.011887 0.0119321 0.0303323
threshold=0.313587 -0.045971249999999998 0.61727300000000007 2.8597700000000006 1.2401900000000002e-05 3.2270850000000002e-06 -0.75226799999999983 -0.93421799999999988 1.8906600000000002 3.6416300000000006e-05 0.014920400000000002 5.3627400000000008e-05 2.6033950000000002e-05 -1.9915799999999997e-05
decision_type=2 2 2 2 2 2 2 2 2 2 2 2 2 2
left_child=-1 2 3 4 -2 6 7 -4 9 -7 -11 -3 13 -13
right_child=1 11 5 -5 -6 8 -8 -9 -10 10 -12 12 -14 -15
leaf_value=-2.061989296297743e-05 -0.0031718582688232081 -3.3645492454419352e-05 0.0069108336489245442 0.00024190749229294146 -0.0075596119153002895 0.0014181068981997669 -0.00022155770796146229 0.00039817524269561877 3.7947107557556592e-05 -0.0018117079534729582 -0.0070202035550028094 0.0053871681278486417 0.00011420635755267743 0.00051505028434831472
leaf_weight=16916 14.000000000000002 2744 11.000000000000002 18 14.999999999999998 13.999999999999998 37 10.999999999999998 174 36 9.9999999999999982 12.999999999999998 1537 749
leaf_count=16916 14 2744 11 18 15 14 37 11 174 36 10 13 1537 749
internal_value=0 6.47977e-05 -0.000559446 -0.00326481 -0.00544139 -0.00012548 0.00122375 0.0036545 -0.000465672 -0.00192617 -0.00294399 0.000106884 0.000274615 0.00059817
internal_weight=0 5383 340 47 29 293 59 22 234 60 46 5043 2299 762
internal_count=22299 5383 340 47 29 293 59 22 234 60 46 5043 2299 762
shrinkage=0.1


Tree=641
num_leaves=15
num_cat=0
split_feature=2 22 2 6 3 20 17 22 1 2 19 12 32 3
split_gain=0.00302326 0.0265654 0.0887429 0.0595732 0.0718135 0.0960082 0.0527893 0.0547166 0.156602 0.140036 0.106017 0.0754589 0.115995 0.0770876
threshold=-1.5001649999999997 -2.3894049999999996 -2.3810049999999996 -2.3194649999999999e-07 -11.535199999999998 -5.7761349999999991 6.3507900000000012e-07 -2.8150449999999996 -2.7452449999999997 -2.8593649999999999 2.3980750000000006e-05 -9.6573999999999987e-05 0.20220150000000001 -6.8616649999999995
decision_type=2 2 2 2 2 2 2 2 2 2 2 2 2 2
left_child=1 2 6 4 5 -4 7 8 -1 -9 11 -11 13 -13
right_child=-2 -3 3 -5 -6 -7 -8 9 -10 10 -12 12 -14 -15
leaf_value=-0.0036663371781330738 -2.266402409636062e-05 0.00014224582213273821 -0.0026830245035164286 -0.00010752911245127998 -0.0015972651201091007 -0.011933363963137655 -0.001320507638005438 -0.0024348779701963501 0.0038288529283454411 0.013466950184242292 -0.0015144912302135849 0.00923029062619736 -0.0020179691514931619 0.0023327232553408696
leaf_weight=63 16172 5297 33 195 203 17 100 43 50 10.999999999999998 26 43 20 26
leaf_count=63 16172 5297 33 195 203 17 100 43 50 11 26 43 20 26
internal_value=0 5.98209e-05 -0.000466209 -0.00142103 -0.00243341 -0.00582814 0.000653577 0.00135361 -0.000349881 0.00249263 0.00417423 0.0056533 0.00468757 0.00663121
internal_weight=0 6127 830 448 253 50 382 282 113 169 126 100 89 69
internal_count=22299 6127 830 448 253 50 382 282 113 169 126 100 89 69
shrinkage=0.1


Tree=642
num_leaves=15
num_cat=0
split_feature=21 1 1 23 3 3 23 14 23 28 23 14 3 23
split_gain=0.00300683 0.0532145 0.0757234 0.0923857 0.156426 0.14061 0.278818 0.268364 0.245301 0.16581 0.23553 0.617507 0.254159 0.253522
threshold=4.2795900000000016 4.4728450000000004 9.9917400000000018 -7.7487749999999993 -7.585564999999999 -7.7975399999999988 -7.8285449999999992 0.0020371300000000003 -13.661999999999997 0.002398355 -8.2241149999999994 0.00051153500000000014 -8.494749999999998 -8.546364999999998
decision_type=2 2 2 2 2 2 2 2 2 2 2 2 2 2
left_child=-1 -2 3 5 -5 7 -7 8 -3 -10 12 -12 -11 -14
right_child=1 2 -4 4 -6 6 -8 -9 9 10 11 -13 13 -15
leaf_value=2.4009363808980354e-05 -0.00026015762401505459 -0.0019564389180139466 -0.00069704410692203738 -0.0013588175049901541 0.0018260539307479028 -0.00097176091448501409 0.015213765297085048 0.0001043387532293197 -0.0051616174727678304 0.0065218972133602067 0.022797320752094188 -0.00306704946483175 -0.0045847389063018622 0.0081418452258019344
leaf_weight=15621 4387 59 543 445 236 328 10.999999999999998 365 14.999999999999998 178 24 14.999999999999998 49 23
leaf_count=15621 4387 59 543 445 236 328 11 365 15 178 24 15 49 23
internal_value=0 -5.61621e-05 0.000334466 0.000654895 -0.000255103 0.00123569 -0.000446567 0.00201905 0.00394431 0.00508952 0.00562158 0.0128495 0.00449403 -0.000519302
internal_weight=0 6678 2291 1748 681 1067 339 728 363 304 289 39 250 72
internal_count=22299 6678 2291 1748 681 1067 339 728 363 304 289 39 250 72
shrinkage=0.1


Tree=643
num_leaves=15
num_cat=0
split_feature=23 3 3 20 0 23 3 14 0 37 4 20 37 19
split_gain=0.00363285 0.0273791 0.0354933 0.0982801 0.204037 0.0556625 0.0734237 0.105553 0.0577294 0.0539707 0.133623 0.0538453 0.0465974 0.0452263
threshold=-7.6950299999999991 -6.8774499999999987 -5.8561999999999985 12.218850000000002 10.2155 -6.9910599999999992 -6.3282549999999995 0.00027748600000000002 -7.730249999999999 -1.4670549999999998e-07 0.19097900000000004 -2.0701799999999997 -1.1214899999999999e-07 0.00015446050000000002
decision_type=2 2 2 2 2 2 2 2 2 2 2 2 2 2
left_child=-1 -2 3 5 -5 6 7 8 -3 10 11 -7 -11 -10
right_child=1 2 -4 4 -6 9 -8 -9 13 12 -12 -13 -14 -15
leaf_value=-2.5516028134296716e-05 0.00020803365435188853 -0.00086439243101873824 0.00018542008951179679 -0.00050384880858473486 0.012574033806210055 -0.0023044561113541324 -0.00033348762709656688 -0.000247741887682683 -0.0051585021722459386 0.00583974654481818 0.0067194488923996683 -0.0098434700770303613 -0.00021208390006321188 -0.010577298325952143
leaf_weight=15932 4292 24 1022 40 17 18 157 70 67 12.999999999999998 9.9999999999999982 20 597 20
leaf_count=15932 4292 24 1022 40 17 18 157 70 67 13 10 20 597 20
internal_value=0 6.38482e-05 -0.00023439 -0.000641841 0.00339657 -0.000872955 -0.00191601 -0.00328869 -0.00520641 -0.000337162 -0.00356573 -0.00627236 -8.31105e-05 -0.0064042
internal_weight=0 6367 2075 1053 57 996 338 181 111 658 48 38 610 87
internal_count=22299 6367 2075 1053 57 996 338 181 111 658 48 38 610 87
shrinkage=0.1


Tree=644
num_leaves=15
num_cat=0
split_feature=14 14 23 23 20 3 7 37 21 10 21 21 23 2
split_gain=0.0040669 0.0142238 0.0663616 0.038535 0.0282581 0.0367332 0.0278065 0.0451841 0.0463427 0.0417337 0.0609414 0.182679 0.0596747 0.0425121
threshold=0.00022219550000000004 0.00088515050000000019 -14.71815 -6.376644999999999 2.3388550000000001 -9.6708399999999983 5.1723650000000004e-05 -7.2009699999999991e-08 7.7471000000000005 4.6691650000000009e-05 3.4655050000000007 -1.3130299999999997 -10.976349999999998 0.27051300000000006
decision_type=2 2 2 2 2 2 2 2 2 2 2 2 2 2
left_child=-1 2 -2 6 5 -5 9 8 -8 -4 11 12 -11 -12
right_child=1 -3 3 4 -6 -7 7 -9 -10 10 13 -13 -14 -15
leaf_value=6.3611544506891017e-05 0.00074053959355274777 3.22297089353385e-05 -0.00054000216862055408 0.0021922259626196735 0.0019710602862286872 -0.0012027719454084892 -0.0004512172992025351 0.00049485639406626162 -0.0037585521766838308 -0.010586244938895107 -0.0029777408779288325 0.0082309258566965592 -0.0021704261003631271 -0.010790741472290113
leaf_weight=6928 664 10973 2301 47 118 99 361 669 48 10.999999999999998 15.000000000000002 15.999999999999998 36 12.999999999999998
leaf_count=6928 664 10973 2301 47 118 99 361 669 48 11 15 16 36 13
internal_value=0 -2.86709e-05 -0.000180618 -0.000344423 0.000820247 -0.000109862 -0.000433032 -1.13553e-05 -0.000839364 -0.000623069 -0.00272346 -0.000998242 -0.00414009 -0.00660521
internal_weight=0 15371 4398 3734 264 146 3470 1078 409 2392 91 63 47 28
internal_count=22299 15371 4398 3734 264 146 3470 1078 409 2392 91 63 47 28
shrinkage=0.1


Tree=645
num_leaves=15
num_cat=0
split_feature=14 37 30 19 7 26 7 11 20 37 2 18 20 23
split_gain=0.0034252 0.0122406 0.0181197 0.0285199 0.0154709 0.0312895 0.0132363 0.031075 0.0646329 0.0295128 0.0650504 0.0462057 0.0702323 0.0513158
threshold=0.00012106850000000002 -1.0689549999999999e-07 0.00015755100000000002 0.00064574900000000015 1.2760950000000002e-05 -5.5827049999999989e-05 3.7938300000000009e-05 1.5303550000000004e-05 8.6114600000000028 1.1198050000000003e-08 2.1089200000000008 1.4970650000000002e-07 8.4191850000000006 -6.287234999999999
decision_type=2 2 2 2 2 2 2 2 2 2 2 2 2 2
left_child=1 2 3 -1 5 -3 7 9 -9 10 11 -6 13 -13
right_child=-2 4 -4 -5 6 -7 -8 8 -10 -11 -12 12 -14 -15
leaf_value=0.0010618618067330342 -2.0300143448112274e-05 -0.0067883781666750994 0.00022933219082549362 0.0067761626929859625 -0.00020175197803516364 0.00094042864035476345 -0.0001799169558313943 0.00092283563328322122 0.0098482948541641236 0.00052451198254644901 0.0035824255060611502 -0.00064070012216012242 -0.0084834139931070467 -0.0073816707160753699
leaf_weight=69 17582 10.000000000000002 1426 9.9999999999999982 306 10.999999999999998 1944 43 9.9999999999999982 736 36 86 17 12.999999999999998
leaf_count=69 17582 10 1426 10 306 11 1944 43 10 736 36 86 17 13
internal_value=0 7.56661e-05 0.000311002 0.00178519 -3.46017e-05 -0.00273996 -1.67977e-05 0.000237496 0.00260688 0.000132322 -0.000497923 -0.00084601 -0.00254552 -0.00152588
internal_weight=0 4717 1505 79 3212 21 3191 1247 53 1194 458 422 116 99
internal_count=22299 4717 1505 79 3212 21 3191 1247 53 1194 458 422 116 99
shrinkage=0.1


Tree=646
num_leaves=15
num_cat=0
split_feature=2 33 21 9 7 21 21 2 32 7 29 3 19 23
split_gain=0.00353224 0.0229835 0.0323024 0.0374613 0.0307997 0.0680325 0.124392 0.128854 0.0831524 0.0527795 0.0396836 0.0628293 0.0769064 0.148555
threshold=1.7572250000000003 9.9369500000000019e-07 3.7675050000000003 -1.5509249999999997e-05 2.7650250000000002e-05 9.2343300000000017 6.9100200000000012 2.1089200000000008 -0.12523299999999996 2.5826300000000004e-05 0.0056650000000000008 -7.9709549999999991 0.0052162500000000013 -12.295749999999998
decision_type=2 2 2 2 2 2 2 2 2 2 2 2 2 2
left_child=-1 2 -2 -4 5 6 8 -8 9 -3 -6 12 13 -12
right_child=1 4 3 -5 10 -7 7 -9 -10 -11 11 -13 -14 -15
leaf_value=1.950649159707682e-05 0.00040940063042016689 -0.0031531623465793123 -2.5443914961773928e-05 -0.0017046634404756505 -0.00052891266232396334 -0.0070281112100929024 0.013794210079041389 -0.00091152824461460114 -0.0008276617121873984 -0.011815126034586381 -0.00083232174002720663 -0.00079025376660768031 -0.00024220272278126822 0.0048501823859241847
leaf_weight=17980 1497 17.000000000000004 635 168 1203 20 11.000000000000002 12.999999999999998 133 11.999999999999998 75 242 174 119
leaf_count=17980 1497 17 635 168 1203 20 11 13 133 12 75 242 174 119
internal_value=0 -8.12055e-05 0.000134927 -0.000376763 -0.000327419 -0.00148612 -0.000890203 0.0058286 -0.00188558 -0.00673742 -0.000195763 0.000461251 0.00128425 0.00265334
internal_weight=0 4319 2300 803 2019 206 186 24 162 29 1813 610 368 194
internal_count=22299 4319 2300 803 2019 206 186 24 162 29 1813 610 368 194
shrinkage=0.1


Tree=647
num_leaves=15
num_cat=0
split_feature=38 4 4 4 39 12 2 4 24 17 20 14 32 18
split_gain=0.00311045 0.0243634 0.0610948 0.08103 0.159838 0.0381684 0.0396891 0.0245357 0.0235604 0.0332814 0.0948765 0.0216264 0.0243023 0.0162608
threshold=0.18471500000000005 -0.25668149999999995 -1.0451899999999996 -1.4166899999999998 0.10961950000000001 -0.00017922449999999997 2.5598800000000006 -0.20699899999999996 -1.6604849999999998 -2.8658149999999996e-05 -6.6325599999999989 0.00056584850000000015 4.909860000000001 4.7424050000000009e-05
decision_type=2 2 2 2 2 2 2 2 2 2 2 2 2 2
left_child=-1 2 3 8 -5 -4 11 -3 9 -2 -11 -7 -13 -9
right_child=1 7 5 4 -6 6 -8 13 -10 10 -12 12 -14 -15
leaf_value=-7.2045179553444386e-06 -0.00068062640506575604 0.0041928844836850963 0.0029509421484544877 0.015437944550067181 -0.0020304830744862557 -0.001848968049744144 0.002215851596556604 0.00081963421416179644 -0.0013915732402579283 -0.0020260831870307972 0.011432288832147607 -0.0076593175513186944 -0.0027410036094806856 -0.00035845154677342756
leaf_weight=21499 34 18 9.9999999999999982 10.000000000000002 10.999999999999998 20 9.9999999999999982 363 87 11.000000000000002 9.9999999999999982 27 15.999999999999998 173
leaf_count=21499 34 18 10 10 11 20 10 363 87 11 10 27 16 173
internal_value=0 0.000193612 -0.000634541 0.000490012 0.00628782 -0.002843 -0.00363669 0.000561348 -0.00036741 0.00125263 0.00438267 -0.00456567 -0.00582925 0.000439394
internal_weight=0 800 246 163 21 83 73 554 142 55 21 63 43 536
internal_count=22299 800 246 163 21 83 73 554 142 55 21 63 43 536
shrinkage=0.1


Tree=648
num_leaves=15
num_cat=0
split_feature=23 7 16 36 36 3 16 28 18 28 11 30 2 16
split_gain=0.00341069 0.0226474 0.0269586 0.0455683 0.0551669 0.0712329 0.208677 0.182125 0.375743 0.0988225 0.0758946 0.0756437 0.135799 0.0908416
threshold=-7.6950299999999991 3.5416950000000007e-05 -7.382019999999998e-08 5.7702100000000011e-05 0.013287600000000002 -7.585564999999999 6.2123600000000012e-08 0.0053280350000000009 4.8090950000000018e-07 0.0032563300000000004 8.2773850000000021e-06 0.00032103350000000009 0.74062700000000004 1.9856700000000003e-07
decision_type=2 2 2 2 2 2 2 2 2 2 2 2 2 2
left_child=-1 2 -2 -4 5 -5 10 9 -9 11 -7 13 -13 -8
right_child=1 -3 3 4 -6 6 7 8 -10 -11 -12 12 -14 -15
leaf_value=-2.4723544456470072e-05 0.00080211185944561645 -6.8895568620741133e-05 -0.00062551982607564924 2.457373378671367e-06 -0.001230761107897548 0.00037063706978577622 0.0056715264273979882 0.0024015237355516071 0.023123986075321835 -0.0061952872625128793 -0.0063169332966208462 0.011979067635611105 -0.0011437871085945518 -0.0024579546574386769
leaf_weight=15932 771 4300 559 330 138 112 27 21 14.999999999999998 10.999999999999998 20 23 11.999999999999998 28
leaf_count=15932 771 4300 559 330 138 112 27 21 15 11 20 23 12 28
internal_value=0 6.18652e-05 0.000333888 5.53381e-05 0.000571756 0.000987026 0.00219486 0.0049288 0.0110359 0.00275201 -0.000642631 0.00384557 0.0074798 0.00153288
internal_weight=0 6367 2067 1296 737 599 269 137 36 101 132 90 35 55
internal_count=22299 6367 2067 1296 737 599 269 137 36 101 132 90 35 55
shrinkage=0.1


Tree=649
num_leaves=15
num_cat=0
split_feature=18 32 1 1 12 19 17 17 20 20 37 18 33 34
split_gain=0.00325722 0.010968 0.033511 0.0257932 0.0448995 0.0307549 0.0117707 0.0298704 0.0246337 0.0229494 0.0111275 0.0263141 0.123741 0.104277
threshold=-3.8501649999999994e-05 2.7946350000000004 -10.174899999999999 -5.7527549999999996 -0.00029061699999999996 1.8396200000000002e-05 -1.8266099999999999e-06 -1.0003629999999999e-05 -0.6291874999999999 -3.742435 3.3086850000000002e-08 -0.00012229499999999999 1.5446900000000003e-05 0.25712300000000005
decision_type=2 2 2 2 2 2 2 2 2 2 2 2 2 2
left_child=1 10 -3 4 -4 -5 7 -7 -8 -9 -1 -12 -13 -14
right_child=-2 2 3 5 -6 6 8 9 -10 -11 11 12 13 -15
leaf_value=-1.3139409791043972e-05 -2.142511615078893e-05 -0.0057734686066396538 -0.00029403237325216958 -0.0057346726922939224 0.0074212699027901346 -0.0001401453884682269 -0.00080362209571628943 -0.00067810444161295867 0.0037271690147463233 -0.0070501364051149444 0.00014747845772457671 -0.00018659253716845451 0.01051007390302733 0.0021960353452110822
leaf_weight=3286 16967 11.999999999999998 24 11.999999999999998 10.999999999999998 72 36 10.000000000000002 18 12.999999999999998 1598 170 22 48
leaf_count=3286 16967 12 24 12 11 72 36 10 18 13 1598 170 22 48
internal_value=0 6.8177e-05 -0.000643679 -0.00032961 0.00213078 -0.000864476 -0.000472246 -0.00114235 0.000706642 -0.00427969 9.70736e-05 0.000294114 0.00127046 0.00480902
internal_weight=0 5332 208 196 35 161 149 95 54 23 5124 1838 240 70
internal_count=22299 5332 208 196 35 161 149 95 54 23 5124 1838 240 70
shrinkage=0.1


Tree=650
num_leaves=15
num_cat=0
split_feature=4 26 18 30 19 32 17 39 37 13 34 34 3 25
split_gain=0.00328183 0.0115812 0.0214167 0.078089 0.0788353 0.139638 0.0754669 0.0996289 0.0466278 0.108681 0.0578755 0.0457609 0.0439986 0.0539064
threshold=0.313587 -5.5827049999999989e-05 4.8090950000000018e-07 0.00033524500000000002 1.2466600000000002e-08 -0.026047149999999998 2.3321300000000001e-07 1.2750100000000002e-05 -1.2652949999999997e-07 2.7436450000000004e-05 0.021950800000000003 0.060838350000000006 -9.7434249999999967 3.4990450000000002
decision_type=2 2 2 2 2 2 2 2 2 2 2 2 2 2
left_child=1 -1 -3 4 5 -4 7 -5 9 -6 -11 -9 13 -8
right_child=-2 2 3 6 8 -7 12 11 -10 10 -12 -13 -14 -15
leaf_value=6.8988725546522938e-05 6.8006710424315254e-05 -3.1040282866251019e-05 -0.015884976424276824 0.010448786095631393 -0.0010734570545936572 -0.001285943269460021 -0.0040800946554712331 -0.0012161853503477708 -0.00062375754380056931 -0.0032119156016657741 -0.012529275317986808 0.0013120496941299708 -9.0403272800195297e-05 0.00082227833081560675
leaf_weight=7690 5383 7763 10.000000000000002 10.999999999999998 82 19 75 89 557 12.000000000000002 14.999999999999998 366 195 32
leaf_count=7690 5383 7763 10 11 82 19 75 89 557 12 15 366 195 32
internal_value=0 -2.16411e-05 -9.71823e-05 -0.000448146 -0.00121615 -0.00632009 0.000246854 0.00104486 -0.000993902 -0.00288537 -0.00838823 0.000817516 -0.000984513 -0.00261396
internal_weight=0 16916 9226 1463 695 29 768 466 666 109 27 455 302 107
internal_count=22299 16916 9226 1463 695 29 768 466 666 109 27 455 302 107
shrinkage=0.1


Tree=651
num_leaves=15
num_cat=0
split_feature=2 35 4 4 22 22 15 4 37 24 17 36 19 24
split_gain=0.00333908 0.0211323 0.109027 0.0824894 0.111226 0.100781 0.131925 0.197549 0.240686 0.343816 0.274989 0.216368 0.181608 0.095849
threshold=1.7572250000000003 -0.00016505499999999997 0.034634100000000008 0.04625255000000001 1.6587800000000004 1.7780750000000001 2.2519200000000005e-06 -0.19053199999999998 3.847765000000001e-08 -0.59561249999999988 1.7935050000000002e-06 -0.0012501299999999997 0.00071187650000000013 -0.68962449999999986
decision_type=2 2 2 2 2 2 2 2 2 2 2 2 2 2
left_child=-1 2 -2 5 -5 -3 7 8 -7 -10 -11 12 -9 -8
right_child=1 3 -4 4 -6 6 13 11 9 10 -12 -13 -14 -15
leaf_value=1.8965631227414941e-05 -0.0010434097547907591 0.00018274672473056014 0.00044586079203617711 -1.3567719098921345e-05 -0.0025735076512331903 -0.0010150201877372133 0.0058677913792457223 0.0017437505728698202 -0.0022664272649721667 0.0048617556691169725 0.025171433226205409 0.0052440552368449673 -0.0095504096127115197 -0.0022181379667754416
leaf_weight=17980 1013 1040 955 806 215 18 18 35 10.999999999999998 10.000000000000002 20 75 24 79
leaf_count=17980 1013 1040 955 806 215 18 18 35 11 10 20 75 24 79
internal_value=0 -7.89539e-05 -0.00032072 0.000123426 -0.000552634 0.000642417 0.00229089 0.00380296 0.00862449 0.0128565 0.0184015 0.00168004 -0.00285048 -0.000717656
internal_weight=0 4319 1968 2351 1021 1330 290 193 59 41 30 134 59 97
internal_count=22299 4319 1968 2351 1021 1330 290 193 59 41 30 134 59 97
shrinkage=0.1


Tree=652
num_leaves=15
num_cat=0
split_feature=8 28 12 28 14 23 23 3 14 3 23 3 3 34
split_gain=0.00313116 0.00782328 0.00442868 0.0360305 0.051108 0.16535 0.110245 0.0879097 0.10929 0.0838097 0.0696837 0.200334 0.169543 0.0878858
threshold=-6.4394399999999995e-05 0.030456700000000003 4.1008050000000008e-05 0.0027353000000000004 0.0007529835000000001 -12.295749999999998 -10.107649999999998 -10.915599999999998 0.0071294650000000006 -5.9294499999999992 -7.7439199999999992 -7.701249999999999 -7.551264999999999 0.28311400000000003
decision_type=2 2 2 2 2 2 2 2 2 2 2 2 2 2
left_child=1 -1 -2 4 5 -4 7 8 -6 10 11 13 -12 -7
right_child=2 -3 3 -5 6 9 -8 -9 -10 -11 12 -13 -14 -15
leaf_value=0.00035027176203734781 2.6319856239587909e-05 -0.0006679220725220211 0.001035295453267562 0.00018412118967228654 -0.0028563628600808168 -0.0048925913795431746 0.00049971482666066078 0.00032785699818767083 -0.00033811683911224953 0.00033102705292057598 0.00083970099210476821 0.00019745962041806719 -0.0035975693203711316 -5.725662065908017e-05
leaf_weight=569 14172 87 382 3211 314 258 1689 443 382 222 229 159 138 44
leaf_count=569 14172 87 382 3211 314 258 1689 443 382 222 229 159 138 44
internal_value=0 0.000215237 -6.52384e-06 -6.88262e-05 -0.000259487 -0.000746239 -1.30126e-05 -0.000773326 -0.00147422 -0.00139438 -0.00185699 -0.00267551 -0.000828809 -0.00418811
internal_weight=0 656 21643 7471 4260 1432 2828 1139 696 1050 828 461 367 302
internal_count=22299 656 21643 7471 4260 1432 2828 1139 696 1050 828 461 367 302
shrinkage=0.1


Tree=653
num_leaves=15
num_cat=0
split_feature=10 26 4 35 20 8 26 17 13 3 34 32 22 17
split_gain=0.00318961 0.0145828 0.0527568 0.0397369 0.0520943 0.069253 0.0467261 0.0508564 0.0590127 0.0727948 0.0712492 0.0571009 0.0559414 0.0646412
threshold=2.4033300000000002e-05 8.4939000000000008e-05 0.025549650000000004 -0.0020770149999999993 -3.5336099999999995 -1.8359649999999996e-05 8.8955500000000013e-05 2.6007000000000004e-06 3.2114050000000008e-05 -8.1493299999999973 0.21014650000000004 0.13129150000000003 0.81532150000000014 -3.1874399999999996e-06
decision_type=2 2 2 2 2 2 2 2 2 2 2 2 2 2
left_child=1 -1 3 6 -5 -6 -3 8 9 10 -8 -9 -10 -14
right_child=-2 2 -4 4 5 -7 7 11 12 -11 -12 -13 13 -15
leaf_value=0.00013786906084453467 -2.6616324391541045e-05 -0.0079508201557804241 0.0003547736400015747 -0.0010510693805962934 0.0085359610871157867 0.00045129136486694833 -0.0078409650132326963 -0.00048091215547174209 -0.0010351247779752119 -0.00078059964962449166 -0.0024504123908061092 0.0087738857604563233 -0.00080973096579934137 0.0095698360953671621
leaf_weight=5437 14913 10.999999999999998 946 348 10.999999999999998 288 41 20.000000000000004 93 96 61 9.9999999999999982 12.000000000000002 11.999999999999998
leaf_count=5437 14913 11 946 348 11 288 41 20 93 96 61 10 12 12
internal_value=0 5.37408e-05 -0.000180947 -0.000686222 -0.000219327 0.000748721 -0.00153476 -0.00133019 -0.00170488 -0.00275703 -0.0046172 0.00260402 7.56808e-05 0.00438005
internal_weight=0 7386 1949 1003 647 299 356 345 315 198 102 30 117 24
internal_count=22299 7386 1949 1003 647 299 356 345 315 198 102 30 117 24
shrinkage=0.1


Tree=654
num_leaves=15
num_cat=0
split_feature=22 13 2 2 22 2 19 1 33 38 22 19 17 22
split_gain=0.00315427 0.0250171 0.0395546 0.0713532 0.0625551 0.271727 0.06238 0.0607248 0.0715598 0.0998179 0.0506016 0.0586523 0.0386752 0.057505
threshold=-2.3322399999999992 -2.4819449999999997e-06 -2.3238799999999995 -1.63242 -2.3894049999999996 -2.4058349999999993 2.9823300000000003e-05 -9.7111849999999986 -2.7429199999999997e-06 -0.0056299999999999987 -2.4478399999999998 1.0086700000000001e-07 6.3507900000000012e-07 -2.8150449999999996
decision_type=2 2 2 2 2 2 2 2 2 2 2 2 2 2
left_child=1 -1 4 6 12 -6 7 -4 9 -9 11 -11 13 -3
right_child=-2 2 3 -5 5 -7 -8 8 -10 10 -12 -13 -14 -15
leaf_value=0.00051058269027152027 -1.4882795097822472e-05 -0.00069600766337686321 -0.00083022994231609834 3.6319306917106295e-05 -0.00092071896603253354 0.01869934200309217 -0.00015761155876713349 0.00085674781876150525 0.00017388385668810872 -0.01114531796774827 -0.012880738425467695 -0.0038686462894677084 -0.0012186115914267829 0.0021093299651208024
leaf_weight=979 19280 123 92 1214 24 9.9999999999999982 176 18 27 15.999999999999998 13.999999999999998 36 110 180
leaf_count=979 19280 123 92 1214 24 10 176 18 27 16 14 36 110 180
internal_value=0 9.50448e-05 -0.000104373 -0.000337627 0.000726889 0.00484989 -0.00153544 -0.00273001 -0.0043046 -0.00574411 -0.00754434 -0.00610762 0.000387465 0.00097053
internal_weight=0 3019 2040 1593 447 34 379 203 111 84 66 52 413 303
internal_count=22299 3019 2040 1593 447 34 379 203 111 84 66 52 413 303
shrinkage=0.1


Tree=655
num_leaves=15
num_cat=0
split_feature=6 33 33 13 35 6 13 33 34 4 22 1 28 38
split_gain=0.00324275 0.0515927 0.0316577 0.0260345 0.0432159 0.0665686 0.0431081 0.122496 0.239432 0.170614 0.096754 0.156588 0.277068 0.072053
threshold=1.2416850000000003e-06 7.1091050000000012e-07 7.1091050000000012e-07 -1.1863749999999998e-05 -0.014766899999999998 7.5095950000000003e-07 -4.3259849999999987e-06 2.9977200000000002e-06 0.014313000000000001 -0.14377949999999998 -1.1419599999999999 -5.1426499999999988 -0.078249449999999984 0.11020600000000001
decision_type=2 2 2 2 2 2 2 2 2 2 2 2 2 2
left_child=2 -2 -1 4 5 -4 7 8 -5 -10 11 12 -9 -12
right_child=1 -3 3 6 -6 -7 -8 10 9 -11 13 -13 -14 -15
leaf_value=-0.00010615269144688728 0.00019570396920305717 -0.00032506987278392509 0.00044615497821281244 0.00072332503355888509 -0.00067871719897166425 0.007751962287972371 0.00019843038624566098 -0.00071218067314475757 0.0046386696584522708 0.02268629791003398 -0.0012765469495759677 -0.0016192148776577886 0.022827904671430588 0.0057657147874124355
leaf_weight=8028 3985 3640 74 37 621 14.999999999999998 5665 10.000000000000002 10.000000000000002 10.999999999999998 158 19 9.9999999999999982 15.999999999999998
leaf_count=8028 3985 3640 74 37 621 15 5665 10 10 11 158 19 10 16
internal_value=0 -5.29015e-05 2.7489e-05 0.000188921 -0.000383364 0.00167747 0.000257371 0.00148948 0.00556378 0.0140922 0.000380043 0.00488185 0.0110579 -0.000628983
internal_weight=0 7625 14674 6646 710 89 5936 271 58 21 213 39 20 174
internal_count=22299 7625 14674 6646 710 89 5936 271 58 21 213 39 20 174
shrinkage=0.1


Tree=656
num_leaves=15
num_cat=0
split_feature=2 22 10 5 39 7 19 5 33 0 9 22 21 2
split_gain=0.00301668 0.0204676 0.0272168 0.0224588 0.0287372 0.0554834 0.0336082 0.0194785 0.0184301 0.0463068 0.0303885 0.105662 0.0347936 0.0549859
threshold=-1.5001649999999997 -2.3894049999999996 2.7647700000000003e-05 1.3386400000000003e-05 7.7181000000000015e-06 4.5000550000000007e-05 1.8546550000000004e-07 1.2774900000000002e-05 -4.4135199999999997e-07 0.65578100000000006 1.0140485000000003e-06 -1.2140099999999998 -3.5364649999999993 -2.4058349999999993
decision_type=2 2 2 2 2 2 2 2 2 2 2 2 2 2
left_child=8 2 -2 4 5 6 -4 -6 9 -1 12 -12 13 -10
right_child=1 -3 3 -5 7 -7 -8 -9 10 -11 11 -13 -14 -15
leaf_value=-8.4058900796687188e-05 0.00071502482630087373 -6.4551029209477582e-05 -0.0049926063045859339 0.00020161318846962848 0.00028470919284154662 -0.0080987088681597798 -2.5442474725423381e-05 -0.0031138821995945797 0.00061445813545186513 -0.0068995712418109178 0.011880084378644825 0.00038758482194680257 0.00044735248035632192 -0.00092292019130830625
leaf_weight=3206 830 14201 18 884 150 13.999999999999998 56 19 395 9.9999999999999982 9.9999999999999982 40 1900 566
leaf_count=3206 830 14201 18 884 150 14 56 19 395 10 10 40 1900 566
internal_value=0 -2.26393e-05 0.000279333 -3.76029e-05 -0.000860432 -0.00232584 -0.00123367 -9.7381e-05 5.97558e-05 -0.000105251 0.000242052 0.00268608 0.000199339 -0.000291011
internal_weight=0 16172 1971 1141 257 88 74 169 6127 3216 2911 50 2861 961
internal_count=22299 16172 1971 1141 257 88 74 169 6127 3216 2911 50 2861 961
shrinkage=0.1


Tree=657
num_leaves=15
num_cat=0
split_feature=9 36 10 9 36 22 37 25 22 13 13 3 19 28
split_gain=0.00287183 0.0100231 0.0214375 0.0159415 0.0308174 0.0369271 0.0312027 0.0430331 0.0173564 0.0155926 0.0184335 0.0120693 0.0115418 0.0145016
threshold=-2.6846599999999998e-05 0.12359200000000001 2.8995250000000003e-05 -2.8250649999999997e-05 -0.00021249849999999996 2.0696000000000008 -1.6253999999999998e-08 0.2234285 -2.2305649999999999 2.2173350000000003e-05 3.6063350000000008e-05 -14.006349999999999 3.9751850000000005e-05 -0.28182749999999995
decision_type=2 2 2 2 2 2 2 2 2 2 2 2 2 2
left_child=1 3 -3 -1 5 8 7 -6 -5 -4 -11 -10 13 -12
right_child=-2 2 9 4 6 -7 -8 -9 11 10 12 -13 -14 -15
leaf_value=-6.053106175155391e-05 2.1389121597011453e-05 0.0038571347482502464 0.0010071546357276466 0.0029860243802734962 -0.0099813030974473804 0.0060205480223521589 -0.00030427891209623535 -0.0025430058434306249 -0.0038758987975038156 -0.0042466287491455057 0.0047308183601126059 -0.00041669211505601807 -0.0006457630915550302 -0.0002551536973831909
leaf_weight=5395 16454 18 143 11.999999999999998 9.9999999999999982 9.9999999999999982 38 35 12.999999999999998 11.999999999999998 10.000000000000002 45 90 13.999999999999998
leaf_count=5395 16454 18 143 12 10 10 38 35 13 12 10 45 90 14
internal_value=0 -6.02116e-05 0.00051606 -8.99687e-05 -0.0010643 0.000336249 -0.00241423 -0.00419596 -0.000475793 0.000292494 -0.000518589 -0.00119203 -0.000126164 0.00182233
internal_weight=0 5845 287 5558 163 80 83 45 70 269 126 58 114 24
internal_count=22299 5845 287 5558 163 80 83 45 70 269 126 58 114 24
shrinkage=0.1


Tree=658
num_leaves=15
num_cat=0
split_feature=6 33 6 14 3 23 33 27 23 26 4 23 3 23
split_gain=0.0027168 0.0345578 0.0245125 0.0234551 0.0316368 0.188307 0.162203 0.145374 0.11181 0.0913857 0.111281 0.0476124 0.129661 0.121547
threshold=3.4136500000000007e-07 2.3642500000000007e-06 3.7005600000000007e-07 0.0026819750000000005 -13.073449999999998 -12.434149999999997 4.4691550000000008e-05 0.42188850000000006 -10.673999999999998 5.5371100000000009e-05 0.017115750000000002 -13.432749999999997 -10.813299999999998 -16.786249999999999
decision_type=2 2 2 2 2 2 2 2 2 2 2 2 2 2
left_child=-1 -2 -3 4 5 6 7 9 -7 -4 -11 12 13 -6
right_child=1 2 3 -5 11 8 -8 -9 -10 10 -12 -13 -14 -15
leaf_value=3.0983367805283563e-05 0.00011467647825001316 -0.0029817327708852562 0.0078537619344013591 0.0001161352618430353 -0.00026599512545674644 -0.011148183986162102 -0.0041439446909674283 0.014843527227640152 -0.0028928308133035902 0.0042854139438042267 -0.0097460442967712887 -6.7493624105681129e-05 -0.00058125649537080876 -0.008949050613629975
leaf_weight=12472 5869 33 17 1234 28 21 29 11.999999999999998 75 13.000000000000002 9.9999999999999982 1883 565 38
leaf_count=12472 5869 33 17 1234 28 21 29 12 75 13 10 1883 565 38
internal_value=0 -3.93227e-05 -0.000267676 -0.000244857 -0.000410396 -0.00170261 0.00184829 0.00519012 -0.00469869 0.0022941 -0.00181522 -0.000319416 -0.00107119 -0.00526533
internal_weight=0 9827 3958 3925 2691 177 81 52 96 40 23 2514 631 66
internal_count=22299 9827 3958 3925 2691 177 81 52 96 40 23 2514 631 66
shrinkage=0.1


Tree=659
num_leaves=15
num_cat=0
split_feature=12 12 30 24 6 33 32 32 19 18 6 32 7 6
split_gain=0.00293433 0.00577053 0.0210668 0.0401192 0.0912903 0.183329 0.0319677 0.0592976 0.154199 0.077062 0.137868 0.0487151 0.059706 0.068404
threshold=-0.00071449049999999987 -8.085454999999998e-05 0.00038787450000000008 -0.17835649999999997 5.9574350000000011e-07 2.2102800000000005e-06 0.12109650000000001 0.14436900000000003 7.1531400000000013e-07 5.8316350000000001e-06 1.1511000000000003e-06 0.029948950000000005 3.0138200000000002e-05 8.4659900000000015e-07
decision_type=2 2 2 2 2 2 2 2 2 2 2 2 2 2
left_child=-1 2 3 4 -2 -6 11 8 -8 -10 -11 -4 13 -13
right_child=1 -3 6 -5 5 -7 7 -9 9 10 -12 12 -14 -15
leaf_value=-0.00015144228063172048 0.00019068057480236067 -1.8997247196019074e-05 -0.00011701398328180873 0.0002495046559949167 0.00063470284630431483 0.017202858777124099 0.012474480416027032 0.00011002702723801285 -0.0023833046057809368 -0.00078940742569341769 0.012901919725118206 -0.0028603623879866467 -0.00093889054806075168 -0.012209435598924756
leaf_weight=1210 58 16474 1129 2040 17.000000000000004 10.999999999999998 13.999999999999998 1010 34 19.000000000000004 11.999999999999998 36 225 9.9999999999999982
leaf_count=1210 58 16474 1129 2040 17 11 14 1010 34 19 12 36 225 10
internal_value=0 8.68913e-06 0.00010752 0.000338697 0.00245443 0.00714362 -8.99416e-05 0.000316402 0.00295487 0.000904491 0.00451046 -0.000406019 -0.00161003 -0.00489277
internal_weight=0 21089 4615 2126 86 28 2489 1089 79 65 31 1400 271 46
internal_count=22299 21089 4615 2126 86 28 2489 1089 79 65 31 1400 271 46
shrinkage=0.1


Tree=660
num_leaves=15
num_cat=0
split_feature=37 3 3 8 8 14 32 25 19 22 24 12 19 6
split_gain=0.00282959 0.015167 0.0320891 0.0197588 0.0719836 0.0651519 0.0553691 0.069942 0.0375142 0.0472445 0.0355389 0.0538922 0.0538646 0.0245389
threshold=-3.3063099999999991e-07 -10.579399999999998 -10.514199999999999 1.2651950000000002e-05 1.0567950000000003e-05 0.0073645800000000016 0.47118950000000009 0.80347100000000016 4.7226850000000004e-07 -0.71469499999999997 -0.32934699999999995 -0.00014554349999999997 0.00043062950000000009 2.9629900000000005e-07
decision_type=2 2 2 2 2 2 2 2 2 2 2 2 2 2
left_child=1 3 -3 4 13 6 7 -6 9 -5 12 -12 -10 -1
right_child=-2 2 -4 8 5 -7 -8 -9 10 -11 11 -13 -14 -15
leaf_value=-0.00071632297831441042 -1.6758557261512327e-05 0.0046779593085375382 0.00018623099923257611 -0.01007568792439997 0.0085045182968800283 0.00016628226290372875 0.011476272670552136 -0.00052869537612423303 0.0081508501339703811 -0.0012020848635196065 -0.0009179414652112207 -0.0086071823071688421 2.7685520932251632e-06 0.00025214489006329888
leaf_weight=587 18258 15.999999999999998 2675 10.000000000000002 14.999999999999998 54 10.999999999999998 20 9.9999999999999982 14.999999999999998 103 9.9999999999999982 43 472
leaf_count=587 18258 16 2675 10 15 54 11 20 10 15 103 10 43 472
internal_value=0 7.57183e-05 0.000212938 -0.000197806 -4.24996e-05 0.00252212 0.00528767 0.00334268 -0.00114021 -0.00475153 -0.000596339 -0.00159841 0.00154014 -0.000284673
internal_weight=0 4041 2691 1350 1159 100 46 35 191 25 166 113 53 1059
internal_count=22299 4041 2691 1350 1159 100 46 35 191 25 166 113 53 1059
shrinkage=0.1


Tree=661
num_leaves=15
num_cat=0
split_feature=7 37 37 6 7 6 33 30 0 12 29 29 13 36
split_gain=0.00293519 0.0221123 0.0345705 0.0691717 0.0538919 0.0534719 0.0909226 0.0522511 0.0642768 0.0576756 0.0470171 0.047004 0.0743659 0.039197
threshold=3.1060600000000012e-05 -2.1885549999999997e-08 6.8100550000000018e-08 3.2261450000000005e-06 3.0924700000000006e-05 2.7132950000000004e-06 1.7107900000000001e-06 0.00033939550000000005 3.8760700000000008 4.2165300000000008e-05 -0.0021429549999999998 -0.0026030899999999993 -8.9274649999999981e-06 0.0071134400000000013
decision_type=2 2 2 2 2 2 2 2 2 2 2 2 2 2
left_child=1 -1 3 4 5 13 -7 8 -4 11 -5 12 -10 -3
right_child=-2 2 7 10 -6 6 -8 -9 9 -11 -12 -13 -14 -15
leaf_value=-0.00015633990887742221 -1.8511293839097083e-05 0.00059506252790175057 -0.00041959773089996925 -0.0074400397086719751 0.0065047808635212926 0.0014826173665754212 0.012702812011702919 0.00023428872525936974 -0.010992432228764911 -0.010770348798277238 -0.00068737806547593716 0.0026808266013783094 -0.0014154826323501766 0.0068918571295216689
leaf_weight=2217 17693 866 170 15.999999999999998 17 26 9.9999999999999982 1185 11.999999999999995 10.999999999999998 29 11.999999999999998 25.000000000000004 9.9999999999999982
leaf_count=2217 17693 866 170 16 17 26 10 1185 12 11 29 12 25 10
internal_value=0 7.11073e-05 0.000282179 0.000740683 0.000926157 0.00082217 0.00459934 -3.34273e-05 -0.00141275 -0.00422667 -0.00308832 -0.00275768 -0.00452152 0.000666944
internal_weight=0 4606 2389 974 929 912 36 1415 230 60 45 49 37 876
internal_count=22299 4606 2389 974 929 912 36 1415 230 60 45 49 37 876
shrinkage=0.1


Tree=662
num_leaves=15
num_cat=0
split_feature=20 9 0 20 3 14 23 30 26 4 22 6 15 26
split_gain=0.00270959 0.0211579 0.0381464 0.0712475 0.12278 0.173917 0.153975 0.18195 0.163142 0.681649 0.273593 0.345421 0.209781 0.253115
threshold=4.3779750000000011 5.6542450000000013e-05 4.2745250000000015 10.309600000000001 -7.1424999999999992 0.0023278500000000007 -6.9910599999999992 0.0015579700000000003 9.1169900000000016e-05 -0.061004349999999992 0.10514900000000002 -5.909564999999999e-07 8.7850400000000017e-09 -5.8682399999999992e-05
decision_type=2 2 2 2 2 2 2 2 2 2 2 2 2 2
left_child=-1 2 -2 4 5 6 7 8 12 10 -10 -12 13 -4
right_child=1 -3 3 -5 -6 -7 -8 -9 9 -11 11 -13 -14 -15
leaf_value=-2.2994142502024392e-05 -4.5162777277115297e-05 -0.00050890011084790828 -0.005100937092383565 -0.00080429963652607975 -0.00035243668588806404 -0.00036018102930985012 -0.0019413034166518629 -0.00076101570432203719 0.028887762014682478 -0.0031334767042827828 0.019611689220700002 -0.0035685025900602332 0.0053010671468221807 0.0041307395526073935
leaf_weight=15538 4454 610 54 331 534 295 64 90 12.999999999999998 29 18 10.000000000000002 193 66
leaf_count=15538 4454 610 54 331 534 295 64 90 13 29 18 10 193 66
internal_value=0 5.28447e-05 0.000108553 0.000512002 0.000830959 0.00159049 0.00266209 0.00328496 0.00423572 0.00859994 0.0168992 0.011333 0.00325969 -2.35149e-05
internal_weight=0 6761 6151 1697 1366 832 537 473 383 70 41 28 313 120
internal_count=22299 6761 6151 1697 1366 832 537 473 383 70 41 28 313 120
shrinkage=0.1


Tree=663
num_leaves=15
num_cat=0
split_feature=14 21 20 11 1 25 20 0 1 21 14 23 15 3
split_gain=0.00319443 0.0101877 0.0160795 0.0736043 0.14498 0.186406 0.0580591 0.0229509 0.0128295 0.0287097 0.069833 0.021437 0.0437358 0.0677565
threshold=0.00012106850000000002 0.83299200000000007 9.6669500000000017 1.0458900000000001e-05 1.1666900000000002 0.68318150000000022 11.486400000000001 8.365140000000002 10.345250000000002 12.314950000000001 7.7028400000000009e-05 -6.6475649999999993 5.5941850000000004e-08 -5.9294499999999992
decision_type=2 2 2 2 2 2 2 2 2 2 2 2 2 2
left_child=1 2 -1 7 5 -5 -6 -4 11 -10 -11 -3 -13 -14
right_child=-2 8 3 4 6 -7 -8 -9 9 10 -12 12 13 -15
leaf_value=0.00013148440588475177 -1.9604375052055789e-05 0.00015755790578235766 0.00038621500561809326 0.015793354228577191 0.0025095670649534435 -0.00048514358350075786 -0.0072036211099475627 -0.0033927493469996586 -0.00089962501100010494 -0.0040094311428467986 0.0060024991361914502 6.8520998471891892e-05 -0.0054641145054077694 0.000416241343999799
leaf_weight=2301 17582 1586 150 17.000000000000004 16.000000000000004 11.999999999999998 9.9999999999999982 18 330 11.000000000000002 19 168 43 36
leaf_count=2301 17582 1586 150 17 16 12 10 18 330 11 19 168 43 36
internal_value=0 7.30727e-05 0.00021006 0.00102083 0.00419604 0.00905742 -0.00122627 -1.8674e-05 -8.45902e-05 -0.000630368 0.00233146 2.26002e-05 -0.00084397 -0.00278446
internal_weight=0 4717 2524 223 55 29 26 168 2193 360 30 1833 247 79
internal_count=22299 4717 2524 223 55 29 26 168 2193 360 30 1833 247 79
shrinkage=0.1


Tree=664
num_leaves=15
num_cat=0
split_feature=4 34 24 20 2 4 13 33 31 19 34 3 13 5
split_gain=0.00311708 0.00660879 0.00680473 0.00805239 0.0222337 0.0184252 0.00663962 0.00623713 0.0102679 0.00608955 0.00601593 0.0190639 0.0296153 0.0199588
threshold=-2.4210399999999992 0.0054456350000000008 -0.64547099999999991 -9.2956449999999986 0.71014700000000019 -2.7012999999999994 7.5718650000000014e-05 -1.2823249999999998e-05 -0.042788049999999987 0.0016286250000000001 0.008378685000000002 -9.7434249999999967 7.4017900000000015e-05 1.1548250000000001e-05
decision_type=2 2 2 2 2 2 2 2 2 2 2 2 2 2
left_child=1 -1 3 4 -3 9 7 -4 -9 -5 11 12 -2 -13
right_child=10 2 6 5 -6 -7 -8 8 -10 -11 -12 13 -14 -15
leaf_value=-0.00031705691859373604 0.00072570245804708534 0.00037066026739517429 0.00094338769282250364 -0.0017597725514012078 -0.0050565740980136288 0.0031909169132510826 7.5616098479354461e-05 -0.00028125330719472904 0.00056318773603269176 -0.00015088308305125 -4.1302376536354626e-05 -0.00062024876853512096 -0.00035768378843386022 8.7283064760002927e-05
leaf_weight=343 891 18.000000000000004 181 30 12.999999999999998 14.999999999999998 1602 217 428 109 15739 508 352 1853
leaf_count=343 891 18 181 30 13 15 1602 217 428 109 15739 508 352 1853
internal_value=0 9.56403e-05 0.000149814 -0.000434807 -0.00190528 -0.000138803 0.000194359 0.000424656 0.000279089 -0.000498125 -1.46158e-05 0.000101927 0.000418903 -6.49517e-05
internal_weight=0 2956 2613 185 31 154 2428 826 645 139 19343 3604 1243 2361
internal_count=22299 2956 2613 185 31 154 2428 826 645 139 19343 3604 1243 2361
shrinkage=0.1


Tree=665
num_leaves=15
num_cat=0
split_feature=3 23 3 23 19 12 33 4 37 33 17 17 10 38
split_gain=0.00305706 0.0173397 0.0667226 0.234726 0.296967 0.41889 0.250113 0.247446 0.278999 0.16951 0.138296 0.19137 0.152841 0.105274
threshold=-7.4146649999999985 -8.2241149999999994 -8.3380249999999982 -7.2618449999999992 2.1170350000000003e-05 6.3535300000000015e-05 -3.0503249999999999e-06 -0.021694649999999996 -3.5874599999999994e-08 3.9863900000000005e-07 2.9095600000000005e-07 1.8737900000000001e-06 3.6731000000000005e-05 0.00034610650000000006
decision_type=2 2 2 2 2 2 2 2 2 2 2 2 2 2
left_child=1 -1 -3 4 5 6 7 8 -4 -6 -11 12 -12 -13
right_child=-2 2 3 -5 9 -7 -8 -9 -10 10 11 13 -14 -15
leaf_value=-0.00011079673154690067 4.812759188230583e-05 -5.5772287090419445e-05 0.015090211983770127 -0.0005291296868347999 -0.0015199544174809526 0.022076841667294504 0.00079456225115184993 0.015523520643792808 -0.006473612771369517 -0.00012444271544356729 0.0070867410125701044 0.0056358363456092764 0.02189854651012204 -0.006543686850504442
leaf_weight=9053 8291 4014 10.000000000000002 524 153 14.999999999999998 78 31 14.999999999999998 54 19.000000000000004 20.000000000000004 10.999999999999998 10.999999999999998
leaf_count=9053 8291 4014 10 524 153 15 78 31 15 54 19 20 11 11
internal_value=0 -2.84856e-05 0.0001219 0.000879795 0.00265024 0.00622923 0.00445525 0.00955405 0.00215192 0.00066043 0.00356129 0.00682407 0.0125177 0.00131407
internal_weight=0 14008 4955 941 417 149 134 56 25 268 115 61 30 31
internal_count=22299 14008 4955 941 417 149 134 56 25 268 115 61 30 31
shrinkage=0.1


Tree=666
num_leaves=15
num_cat=0
split_feature=4 38 19 26 0 31 9 31 35 7 25 10 19 32
split_gain=0.00343267 0.0121212 0.0156289 0.026718 0.103859 0.0610531 0.0440275 0.0197948 0.0168644 0.0362272 0.0319745 0.0694102 0.0205248 0.0417827
threshold=-0.39397899999999991 -2.2015949999999997e-05 0.00062793100000000008 0.0031701500000000005 5.1681400000000011 -1.2402049999999998 2.1463650000000002e-05 1.4631250000000002 0.0051088850000000014 3.0138200000000002e-05 5.2550450000000009 1.8584e-05 1.2548550000000002e-05 0.34468400000000005
decision_type=2 2 2 2 2 2 2 2 2 2 2 2 2 2
left_child=1 -1 3 5 7 6 -3 -5 10 -10 -7 -12 13 -11
right_child=-2 2 -4 4 -6 8 -8 -9 9 12 11 -13 -14 -15
leaf_value=0.0002226667151295767 -2.1807502055896192e-05 -0.0022014595059628938 0.0001120375963723205 -0.0028224818388243086 0.0088479043046633399 -0.00029112469972167538 -0.010399015333387071 0.0017577172053279356 -0.0056604061987908447 -0.0022819316441503655 0.0097980513703078004 -0.0009575846830072503 -0.0013064468052565704 0.0060629992745816711
leaf_weight=2626 17036 19.000000000000004 1620 23 14.999999999999998 745 9.9999999999999982 15.999999999999998 17 12.000000000000002 10.000000000000002 14.999999999999998 123 11.999999999999998
leaf_count=2626 17036 19 1620 23 15 745 10 16 17 12 10 15 123 12
internal_value=0 7.05895e-05 -8.08533e-05 -0.000388113 0.00177639 -0.000509487 -0.0050282 -0.000943426 -0.000369184 -0.00128992 -0.000173079 0.00334467 -0.000784491 0.00189053
internal_weight=0 5263 2637 1017 54 963 29 39 934 164 770 25 147 24
internal_count=22299 5263 2637 1017 54 963 29 39 934 164 770 25 147 24
shrinkage=0.1


Tree=667
num_leaves=15
num_cat=0
split_feature=37 19 3 25 14 27 18 19 23 11 23 21 33 15
split_gain=0.00299851 0.0131759 0.0382787 0.0498008 0.0470067 0.129052 0.078289 0.0296399 0.0438264 0.0546207 0.134828 0.0418469 0.0353467 0.0381885
threshold=-3.3063099999999991e-07 2.1753950000000005e-08 -14.372349999999999 1.9655500000000001 0.00050069100000000005 0.94359900000000019 1.7903400000000001e-07 3.7531650000000006e-07 -14.654899999999998 -3.7057499999999995e-05 -12.0832 -7.6390449999999985 -2.3650199999999996e-05 -1.8158299999999997e-07
decision_type=2 2 2 2 2 2 2 2 2 2 2 2 2 2
left_child=1 2 3 -1 -4 6 -6 8 -3 10 -10 -11 -13 -14
right_child=-2 7 4 -5 5 -7 -8 -9 9 11 -12 12 13 -15
leaf_value=-0.0079243937740102379 -1.7251552999034e-05 0.00088856541739199739 0.00038049075964001841 0.0010091966215091256 0.016170311854220919 3.3666580342329469e-05 0.0036571967415511609 0.00010570615851523736 -0.014964117188937956 -0.0061926112758616605 0.00023897440239254919 -0.003158538524021811 0.0032446705985107816 -0.0007399065121149658
leaf_weight=12.000000000000002 18258 103 449 12.999999999999998 10.000000000000002 39 9.9999999999999982 3149 10.000000000000002 14.999999999999998 13.999999999999998 47 29 141
leaf_count=12 18258 103 449 13 10 39 10 3149 10 15 14 47 29 141
internal_value=0 7.79458e-05 0.000541192 -0.00327893 0.00072919 0.00338285 0.00991375 7.56088e-06 -0.000853329 -0.00155417 -0.00609565 -0.00108436 -0.000731257 -6.01845e-05
internal_weight=0 4041 533 25 508 59 20 3508 359 256 24 232 217 170
internal_count=22299 4041 533 25 508 59 20 3508 359 256 24 232 217 170
shrinkage=0.1


Tree=668
num_leaves=15
num_cat=0
split_feature=14 34 3 23 6 3 29 32 9 9 12 35 21 3
split_gain=0.00298282 0.0158934 0.0422209 0.0482205 0.0431598 0.0450761 0.0365635 0.045628 0.0456324 0.0318188 0.0309842 0.100504 0.092102 0.0497217
threshold=0.0013165550000000003 0.051869950000000005 -6.0725999999999987 -6.5050549999999996 -5.2677149999999989e-06 -7.6471949999999991 -0.0030805899999999998 -0.013345949999999997 5.0628700000000005e-05 -3.0404999999999998e-05 3.9137250000000005e-05 0.00016589150000000002 10.826150000000002 -6.9557349999999998
decision_type=2 2 2 2 2 2 2 2 2 2 2 2 2 2
left_child=1 2 3 -1 6 -6 -5 -8 9 -9 -7 12 13 -12
right_child=-2 -3 -4 4 5 10 7 8 -10 -11 11 -13 -14 -15
leaf_value=-0.00045672087611383369 4.060491024653565e-05 8.5593527879810954e-05 0.00022944740830047121 0.0070686418786863221 0.00099204773086339934 -0.00022961900157293267 -0.0035199771993435348 0.0026377652954709327 -0.001701919650937119 0.0098248309540477606 0.0007875253615731543 -0.0098800946246289344 0.0062186935800127687 -0.0085203351569361954
leaf_weight=3710 9988 5895 2073 15.999999999999998 319 196 12.999999999999998 13.999999999999995 11.999999999999998 11.000000000000005 10.999999999999998 14.999999999999998 13.999999999999998 12.000000000000002
leaf_count=3710 9988 5895 2073 16 319 196 13 14 12 11 11 15 14 12
internal_value=0 -3.2943e-05 -0.000141854 -0.000319084 0.000487606 0.000205885 0.00290784 0.00157638 0.003367 0.00580007 -0.000805348 -0.0029754 -0.000176204 -0.00406875
internal_weight=0 12311 6416 4343 633 567 66 50 37 25 248 52 37 23
internal_count=22299 12311 6416 4343 633 567 66 50 37 25 248 52 37 23
shrinkage=0.1


Tree=669
num_leaves=15
num_cat=0
split_feature=10 33 22 20 20 0 33 19 6 34 23 23 2 20
split_gain=0.00297854 0.0140759 0.0293146 0.0202054 0.0349901 0.0295913 0.0196112 0.0360743 0.0186279 0.0335655 0.0152937 0.0128084 0.0113197 0.00599406
threshold=9.3887650000000016e-06 -2.6599849999999993e-06 1.2871600000000003 2.6375650000000004 1.2539600000000002 3.3844200000000004 -7.157139999999999e-06 1.6630700000000002e-06 6.8013650000000004e-08 0.035589150000000007 -12.196199999999999 -13.391449999999997 -1.5721549999999997 -3.4286299999999996
decision_type=2 2 2 2 2 2 2 2 2 2 2 2 2 2
left_child=1 2 6 4 8 10 12 -8 11 -10 -5 -3 -1 -13
right_child=-2 3 -4 5 -6 -7 7 -9 9 -11 -12 13 -14 -15
leaf_value=-0.0029080513363274243 -4.0613053745073784e-06 -0.0045996626070700583 0.0060827394447352905 -0.0034966874541714787 -0.0055806060907586177 0.0052255563097008111 0.0077082309406250691 0.00035218755461755794 -0.00132333470886806 0.0057723163064414022 0.00098360150841472218 0.00033135627746998112 0.00034680481364678903 -0.0018654900040216843
leaf_weight=12.999999999999998 22027 9.9999999999999982 10.999999999999998 9.9999999999999982 14.999999999999998 13.999999999999998 10.000000000000002 20 15.000000000000002 11.999999999999998 32 26.999999999999996 60 23.000000000000004
leaf_count=13 22027 10 11 10 15 14 10 20 15 12 32 27 60 23
internal_value=0 0.000328891 0.00117579 -0.000282161 -0.00112007 0.00124404 0.000651744 0.0028042 -0.000351017 0.00183029 -8.3134e-05 -0.0013326 -0.000232827 -0.000679193
internal_weight=0 272 114 158 102 56 103 30 87 27 42 60 73 50
internal_count=22299 272 114 158 102 56 103 30 87 27 42 60 73 50
shrinkage=0.1


Tree=670
num_leaves=15
num_cat=0
split_feature=7 37 2 22 17 22 36 26 14 4 38 33 30 12
split_gain=0.00279435 0.0162604 0.0321299 0.0562207 0.0489675 0.0806288 0.180154 0.125061 0.0538606 0.0941903 0.0858928 0.100428 0.063678 0.0666346
threshold=3.1060600000000012e-05 -2.1885549999999997e-08 1.0101150000000001 0.26354600000000006 2.2501100000000003e-08 0.96963500000000014 -0.00032488999999999993 7.7656550000000015e-05 0.00021571900000000004 0.053110600000000008 -0.0060547399999999994 7.6094200000000009e-06 0.00054660100000000007 8.0933800000000008e-05
decision_type=2 2 2 2 2 2 2 2 2 2 2 2 2 2
left_child=1 2 -1 -4 5 -5 7 -7 -6 12 -11 -12 13 -10
right_child=-2 -3 3 4 8 6 -8 -9 9 10 11 -13 -14 -15
leaf_value=0.0001713874907655777 -1.8061712258317703e-05 0.00025038008030935538 0.00020993967537404003 -0.0053174464816325593 -0.00052284751002224623 0.015225772413292097 -0.0013111822768459443 0.00097724377092990025 -0.011578917786478998 -0.0089181345386000789 -0.0018372761157007531 0.0062601897865533834 -0.0017471452206373216 -0.0042777049429714676
leaf_weight=1378 17693 2389 417 19 138 14.000000000000002 54 10.999999999999998 25 12.999999999999998 79 19 25 25
leaf_count=1378 17693 2389 417 19 138 14 54 11 25 13 79 19 25 25
internal_value=0 6.93803e-05 -0.000125662 -0.000613545 -0.00142727 0.000531379 0.00193806 0.00895642 -0.0020197 -0.00313028 -0.00128051 -0.000267359 -0.00586792 -0.00792831
internal_weight=0 4606 2217 839 422 98 79 25 324 186 111 98 75 50
internal_count=22299 4606 2217 839 422 98 79 25 324 186 111 98 75 50
shrinkage=0.1


Tree=671
num_leaves=15
num_cat=0
split_feature=16 38 3 26 16 32 4 25 26 16 18 21 16 21
split_gain=0.00296342 0.0114973 0.0206028 0.0361476 0.0355688 0.025709 0.0163084 0.0209915 0.0378639 0.0595717 0.0445326 0.0526963 0.0286624 0.0493297
threshold=-1.3564599999999998e-06 -0.00034121999999999993 -16.772799999999997 -5.5827049999999989e-05 -4.9471599999999996e-05 0.17633000000000001 -0.34999249999999998 1.0560900000000004 -0.00015931899999999997 -3.7555499999999996e-06 -1.4324099999999999e-05 3.7675050000000003 -2.2556699999999994e-06 -5.3772449999999994
decision_type=2 2 2 2 2 2 2 2 2 2 2 2 2 2
left_child=1 2 3 4 -1 -6 -4 8 9 -8 11 -10 -9 -14
right_child=-2 -3 6 -5 5 -7 7 12 10 -11 -12 -13 13 -15
leaf_value=-0.0010654861504886429 -2.2660905770700651e-05 0.00014824868142642526 0.00013441102754892646 0.0068904467741958799 0.00097809437338582952 0.0058874901704257356 -0.0010455988914858411 -0.00035102708747694454 -0.00091819732822477824 -0.0079342840067846213 -0.00033975907731453089 -0.0082675998506601903 0.0064874911307603788 0.00042735689855817328
leaf_weight=58 16084 4334 718 9.9999999999999982 32 15.999999999999998 37 431 25 19 438 15.999999999999998 17 64
leaf_count=58 16084 4334 718 10 32 16 37 431 25 19 438 16 17 64
internal_value=0 5.86449e-05 -0.000147811 0.00114315 0.00060095 0.00261456 -0.000232655 -0.000484378 -0.00092241 -0.00338283 -0.000634762 -0.00378626 -2.66689e-05 0.00169924
internal_weight=0 6215 1881 116 106 48 1765 1047 535 56 479 41 512 81
internal_count=22299 6215 1881 116 106 48 1765 1047 535 56 479 41 512 81
shrinkage=0.1


Tree=672
num_leaves=15
num_cat=0
split_feature=22 2 9 28 5 18 3 24 19 19 19 15 26 2
split_gain=0.00279549 0.0477903 0.0151938 0.0149612 0.00879895 0.00748465 0.0104722 0.00686874 0.00555977 0.00496645 0.00387935 0.00346453 0.00338012 0.00329123
threshold=3.0357900000000004 2.9665000000000004 -2.9161399999999998e-05 0.00074288900000000016 2.0993150000000001e-05 1.3819700000000003e-07 -15.016799999999998 0.24000900000000003 0.0015085650000000001 0.00071187650000000013 0.00011323750000000002 7.1625800000000011e-08 8.8955500000000013e-05 2.9665000000000004
decision_type=2 2 2 2 2 2 2 2 2 2 2 2 2 2
left_child=13 2 3 4 -2 6 -4 8 9 11 12 -8 -7 -1
right_child=1 -3 5 -5 -6 10 7 -9 -10 -11 -12 -13 -14 -15
leaf_value=1.1419366741712983e-06 -0.0044160857139264832 0.0070981064625084403 -0.0025849445099343678 -1.3511353659681803e-05 -0.00087937743907483918 0.00093038254971837715 0.00033807872931230007 0.001782925410778262 0.0012365985766518862 -0.0024458139192905619 0.00054109868794144627 -0.0011876817625968462 0.00268514685879421 -0.00028216649013202143
leaf_weight=21565 17.000000000000004 9.9999999999999982 13.999999999999998 43 11.999999999999998 21 46 25 25 10.999999999999998 47 22 23 418
leaf_count=21565 17 10 14 43 12 21 46 25 25 11 47 22 23 418
internal_value=0 0.000295315 7.3002e-05 -0.00119732 -0.00295262 0.00046387 1.27101e-05 0.000294626 -6.31381e-05 -0.000474447 0.00117284 -0.00015555 0.00184765 -4.24509e-06
internal_weight=0 316 306 72 29 234 143 129 104 79 91 68 44 21983
internal_count=22299 316 306 72 29 234 143 129 104 79 91 68 44 21983
shrinkage=0.1


Tree=673
num_leaves=15
num_cat=0
split_feature=4 33 10 22 35 5 32 6 10 38 17 7 24 13
split_gain=0.00271161 0.0122182 0.0223631 0.0599764 0.0384458 0.018844 0.0169424 0.0348336 0.0329171 0.012188 0.0540811 0.0278302 0.0149214 0.0941096
threshold=0.313587 -3.9620049999999993e-05 1.7614950000000003e-05 1.1696050000000002 0.0036881100000000001 1.0599100000000002e-05 -4.0794749999999995 6.8013650000000004e-08 1.9152950000000004e-05 -0.083844549999999976 1.1281350000000002e-05 4.1321750000000011e-05 0.53476600000000007 3.2492750000000005e-05
decision_type=2 2 2 2 2 2 2 2 2 2 2 2 2 2
left_child=-1 2 3 4 5 -2 7 -4 -8 10 -3 -12 -11 -14
right_child=1 9 6 -5 -6 -7 8 -9 -10 12 11 -13 13 -15
leaf_value=-1.9671350162166317e-05 0.00084039471694268291 -0.0058103571749395797 -0.0052292020001105917 0.0049104935447262096 -0.0060759877423361801 -0.0033475427533544246 0.005738539905869402 0.0014216015576883885 -7.9498059313270079e-05 9.8820566619351908e-05 0.005430420264601706 -0.0010306444321759045 0.0052575024362579974 -0.0010435856292869653
leaf_weight=16916 22 18 18 10.999999999999998 26 21 9.9999999999999982 13.999999999999998 353 4759 10.000000000000002 20 38 63
leaf_count=16916 22 18 18 11 26 21 10 14 353 4759 10 20 38 63
internal_value=0 6.18169e-05 -0.000422464 -0.00194712 -0.00304037 -0.00120488 -0.000113672 -0.00231948 8.07785e-05 0.000108686 -0.00147698 0.00112304 0.000124347 0.00132712
internal_weight=0 5383 475 80 69 43 395 32 363 4908 48 30 4860 101
internal_count=22299 5383 475 80 69 43 395 32 363 4908 48 30 4860 101
shrinkage=0.1


Tree=674
num_leaves=15
num_cat=0
split_feature=8 21 7 17 21 7 7 23 14 21 3 24 23 16
split_gain=0.00263793 0.0137092 0.0826791 0.0710424 0.0194547 0.0332362 0.0164287 0.0238103 0.0431678 0.0123922 0.0236261 0.00840918 0.00627648 0.00679545
threshold=2.9407650000000003e-05 -9.7378749999999972 6.5732150000000011e-05 1.149215e-07 -7.5273399999999997 5.9256050000000007e-05 4.6672250000000007e-05 -9.1575349999999975 0.00018093550000000002 -7.0364199999999988 -5.5799549999999991 -0.32302649999999994 -6.1118099999999993 6.5284050000000013e-08
decision_type=2 2 2 2 2 2 2 2 2 2 2 2 2 2
left_child=-1 2 3 -2 5 -3 7 -6 -9 10 -8 -4 -11 -14
right_child=1 4 11 -5 6 -7 9 8 -10 12 -12 -13 13 -15
leaf_value=8.5926859358748929e-06 0.01260691372794099 -0.0057259246343164712 0.001950985608765712 0.0013957369535301742 0.00021571331657469276 -0.00078778030143914065 0.0059097185474820419 -0.00044292440824602415 -0.0091821360745234417 -4.1181803324362859e-05 -0.00067165808480543394 -0.00078655183020689555 0.00024764114030404008 -0.003219737248638502
leaf_weight=20989 10.000000000000002 15.999999999999998 12.999999999999998 12.999999999999998 25 92 10.000000000000002 13.000000000000002 9.9999999999999982 991 11.999999999999998 82 10.000000000000002 12.999999999999998
leaf_count=20989 10 16 13 13 25 92 10 13 10 991 12 82 10 13
internal_value=0 -0.000137673 0.000890502 0.00627016 -0.000239456 -0.00151936 -0.000111938 -0.00192055 -0.00424258 -2.8141e-05 0.00231988 -0.000411941 -7.90842e-05 -0.00171218
internal_weight=0 1310 118 23 1192 108 1084 48 23 1036 22 95 1014 23
internal_count=22299 1310 118 23 1192 108 1084 48 23 1036 22 95 1014 23
shrinkage=0.1


Tree=675
num_leaves=15
num_cat=0
split_feature=38 4 4 4 39 7 5 18 14 4 7 20 18 18
split_gain=0.00258385 0.0189714 0.0474591 0.0597873 0.120416 0.0306619 0.0396295 0.0219778 0.018964 0.0516594 0.0403368 0.0138157 0.0135665 0.0207791
threshold=0.18471500000000005 -0.25668149999999995 -1.0451899999999996 -1.4166899999999998 0.10961950000000001 3.6416300000000006e-05 1.4841400000000002e-05 -2.4415699999999997e-05 0.026760750000000003 -2.7012999999999994 4.6672250000000007e-05 -2.0701799999999997 4.7424050000000009e-05 2.4757200000000004e-05
decision_type=2 2 2 2 2 2 2 2 2 2 2 2 2 2
left_child=-1 2 3 8 -5 -4 -7 -3 10 -10 11 -2 13 -9
right_child=1 7 5 4 -6 6 -8 12 9 -11 -12 -13 -14 -15
leaf_value=-6.5663967477217234e-06 -0.0024997174154123055 0.0051465093158185489 -0.004592375411946131 0.013358976133167739 -0.0018029733730310746 0.0048172728810459385 -0.0023208071525940405 0.0006197562693952811 -0.00040814261931013704 0.0069125327592094738 0.00010271236267350294 -0.0074061291546306824 -0.00031573528707289203 0.0048499691717249034
leaf_weight=21499 12.000000000000002 9.9999999999999982 38 10.000000000000002 10.999999999999998 9.9999999999999982 35 359 49 11.999999999999998 58 10.999999999999998 173 11.999999999999998
leaf_count=21499 12 10 38 10 11 10 35 359 49 12 58 11 173 12
internal_value=0 0.000176464 -0.000554325 0.000436821 0.005417 -0.00250079 -0.000734567 0.000500966 -0.000299685 0.00103199 -0.00130255 -0.00484626 0.00041557 0.000756583
internal_weight=0 800 246 163 21 83 45 554 142 61 81 23 544 371
internal_count=22299 800 246 163 21 83 45 554 142 61 81 23 544 371
shrinkage=0.1


Tree=676
num_leaves=15
num_cat=0
split_feature=8 28 18 34 0 13 33 20 33 23 3 3 24 14
split_gain=0.00260696 0.00616664 0.00450713 0.00466214 0.00340279 0.00610793 0.0052671 0.0146576 0.00411951 0.00328463 0.0232962 0.0299773 0.0216992 0.0244312
threshold=-6.4394399999999995e-05 0.030456700000000003 3.0948650000000007e-05 4.2965400000000011 -2.9827199999999991 -1.2876999999999997e-05 -7.4301749999999995e-06 -1.8193249999999999 1.0642000000000001e-06 -16.786249999999999 -13.799749999999998 -6.0725999999999987 0.25735650000000004 0.012822650000000003
decision_type=2 2 2 2 2 2 2 2 2 2 2 2 2 2
left_child=1 4 3 -3 -1 8 7 -7 -6 10 12 -12 -2 -14
right_child=9 2 -4 -5 5 6 -8 -9 -10 -11 11 -13 13 -15
leaf_value=9.7468164186175624e-05 -0.0011011328713705982 -0.00064531785404224964 0.00064948837475226767 -0.0029926137253642082 0.0026999963669195066 0.00090624825856850842 0.00061645603879529199 -0.0031117888530328252 0.0005301999347284437 -1.7543191550699389e-05 0.00054081137483416131 -0.00053636844547240588 0.002747889214328357 -0.0011770185576912401
leaf_weight=316 242 55 22 9.9999999999999982 21 23 179 14.999999999999998 14.999999999999998 19883 1118 336 35 29
leaf_count=316 242 55 22 10 21 23 179 15 15 19883 1118 336 35 29
internal_value=0 0.000196396 -0.0005877 -0.00100644 0.000316284 0.000589587 0.000389459 -0.000679819 0.00179591 -5.95276e-06 0.000124986 0.000291889 -0.000668077 0.000969415
internal_weight=0 656 87 65 569 253 217 38 36 21643 1760 1454 306 64
internal_count=22299 656 87 65 569 253 217 38 36 21643 1760 1454 306 64
shrinkage=0.1


Tree=677
num_leaves=15
num_cat=0
split_feature=3 23 0 13 33 1 31 19 24 20 11 11 23 21
split_gain=0.00266909 0.0141071 0.0200136 0.0413182 0.0608362 0.0586413 0.040945 0.0640109 0.0378915 0.0356503 0.0274695 0.0239559 0.0388472 0.0332231
threshold=-7.4146649999999985 -7.7439199999999992 -3.9455449999999996 2.8998000000000006e-05 -3.0503249999999999e-06 -5.530384999999999 0.026747950000000003 2.5573700000000003e-06 -0.23253149999999997 -1.8193249999999999 1.3361950000000002e-05 -1.7311249999999998e-05 -6.376644999999999 8.9549450000000004
decision_type=2 2 2 2 2 2 2 2 2 2 2 2 2 2
left_child=1 -1 3 4 5 -3 -5 8 -8 10 -4 -6 13 -13
right_child=-2 2 9 6 11 -7 7 -9 -10 -11 -12 12 -14 -15
leaf_value=-8.8962651655598995e-05 4.4970103391753707e-05 0.010373151404783129 -0.00018032484123506475 0.00038677215830433607 0.00078088385878225767 0.002389382787767555 -0.0016003512354059648 -0.00059717318402888154 -0.0093274319839353366 -0.00029980331667310914 0.00084944864574373945 -0.0011668095840529228 0.0035602189939130443 -0.0078035044272176243
leaf_weight=10107 8291 9.9999999999999982 432 408 418 115 11.000000000000002 123 14.999999999999998 1676 647 24 10.999999999999998 10.999999999999998
leaf_count=10107 8291 10 432 408 418 115 11 123 15 1676 647 24 11 11
internal_value=0 -2.66167e-05 0.000134914 0.000486105 0.00107002 0.00302808 -0.000131355 -0.00155012 -0.00605828 -1.11715e-05 0.000437157 0.000542521 -0.00162347 -0.00325263
internal_weight=0 14008 3901 1146 589 125 557 149 26 2755 1079 464 46 35
internal_count=22299 14008 3901 1146 589 125 557 149 26 2755 1079 464 46 35
shrinkage=0.1


Tree=678
num_leaves=15
num_cat=0
split_feature=10 20 8 2 3 4 9 24 31 0 14 23 8 3
split_gain=0.00295574 0.0115931 0.0196732 0.0154452 0.0219745 0.0596923 0.0302852 0.0234581 0.0203714 0.0163702 0.0155386 0.0152879 0.0258227 0.0217115
threshold=2.4033300000000002e-05 8.6114600000000028 -1.8998149999999997e-05 -1.8232249999999997 -7.7590199999999987 -0.052919949999999986 1.5257600000000001e-05 0.077730050000000009 -0.020515799999999997 5.273975000000001 0.00013973650000000004 -6.7185449999999998 -1.9391749999999999e-05 -9.2069399999999977
decision_type=2 2 2 2 2 2 2 2 2 2 2 2 2 2
left_child=1 11 -3 -4 9 6 7 10 -7 -5 -6 13 -13 -1
right_child=-2 2 3 4 5 8 -8 -9 -10 -11 -12 12 -14 -15
leaf_value=-9.9499151738324519e-05 -2.5621973052402976e-05 -0.0030388717132154852 0.0016661818188184027 0.00055208461728690442 -0.001047207126752115 0.00039816673388374103 -0.0071822829349132786 0.0008408775380016059 0.0051821409445256001 0.0038073532690759749 -0.0056399276052081192 -0.0046680116013054175 -0.00033294290285456582 0.00028902818187899205
leaf_weight=3409 14913 15.999999999999998 99 448 13.000000000000002 81 13.999999999999998 19 9.9999999999999982 15.999999999999998 17 13.999999999999998 742 2488
leaf_count=3409 14913 16 99 448 13 81 14 19 10 16 17 14 742 2488
internal_value=0 5.17331e-05 0.000429177 0.000506567 0.000320804 -0.000714252 -0.00308044 -0.00190849 0.000923878 0.000664335 -0.00364975 1.01479e-05 -0.000413222 6.44242e-05
internal_weight=0 7386 733 717 618 154 63 49 91 464 30 6653 756 5897
internal_count=22299 7386 733 717 618 154 63 49 91 464 30 6653 756 5897
shrinkage=0.1


Tree=679
num_leaves=15
num_cat=0
split_feature=14 23 30 18 14 23 26 13 33 30 5 4 18 26
split_gain=0.00275039 0.0268339 0.0243296 0.0315135 0.023936 0.0404274 0.0384257 0.0338927 0.176338 0.220016 0.125351 0.150662 0.177609 0.12784
threshold=0.00088515050000000019 -12.608449999999999 0.00018735350000000003 1.8006550000000003e-08 0.00012106850000000002 -6.4482599999999985 0.084359600000000021 -1.5810349999999997e-05 3.975485000000001e-06 0.00039492550000000008 2.9758600000000003e-05 0.14464150000000003 -9.6796299999999971e-07 6.8728900000000019e-05
decision_type=2 2 2 2 2 2 2 2 2 2 2 2 2 2
left_child=1 2 3 -1 -3 7 -7 8 -6 10 11 12 13 -10
right_child=-2 4 -4 -5 5 6 -8 -9 9 -11 -12 -13 -14 -15
leaf_value=-0.0068588210735470029 3.5680422596191301e-05 7.3490503848604876e-05 0.00025074754791868037 0.00089760276707238527 -0.00085011340227731248 0.00075228707713060586 -0.0038320717377294056 -0.00052106649125292597 0.0042930772148698955 3.8238521882243484e-05 -0.00088606699594363054 -0.0014614095474826173 0.020243656025691469 0.013564615289215
leaf_weight=11.000000000000002 10973 3517 2905 9.9999999999999982 660 485 19 3344 58 239 28 19 10.999999999999998 20
leaf_count=11 10973 3517 2905 10 660 485 19 3344 58 239 28 19 11 20
internal_value=0 -3.45684e-05 0.000226231 -0.00316529 -0.000125413 -0.000268675 0.000579464 -0.000366291 0.000133776 0.00186542 0.00507643 0.00662226 0.00834799 0.00667039
internal_weight=0 11326 2926 21 8400 4883 504 4379 1035 375 136 108 89 78
internal_count=22299 11326 2926 21 8400 4883 504 4379 1035 375 136 108 89 78
shrinkage=0.1


Tree=680
num_leaves=15
num_cat=0
split_feature=6 33 22 13 10 11 7 25 25 13 22 21 1 11
split_gain=0.0030709 0.0452436 0.0269281 0.0607462 0.06217 0.0426934 0.0400785 0.0355574 0.0327905 0.0301645 0.0588221 0.0296431 0.132488 0.106786
threshold=1.2416850000000003e-06 1.68409e-06 -1.2431299999999996 -9.9195999999999973e-06 2.1791100000000006e-05 1.3962300000000002e-05 5.1990600000000003e-05 3.0130200000000005 3.8218900000000002 -6.6386149999999988e-06 -1.3841599999999998 -2.1789199999999993 -2.0040299999999998 9.4427700000000018e-06
decision_type=2 2 2 2 2 2 2 2 2 2 2 2 2 2
left_child=-1 -2 3 4 7 -6 8 -3 -7 10 -5 12 13 -4
right_child=1 2 11 9 5 6 -8 -9 -10 -11 -12 -13 -14 -15
leaf_value=2.6750729272207581e-05 0.00016352042900115381 -0.01070714316044289 -0.00020767656468487187 -0.00037726127993664699 -0.00045330338697942139 -0.010002469697168892 -0.0014365426130649268 -0.0027756043741828766 -0.0031582316483504008 -0.00033888766181971466 0.0093995426094625155 -0.0004773986210166014 -0.00093109268397729246 0.0025081465260621697
leaf_weight=14674 4286 13.000000000000002 274 16.000000000000004 102 14.000000000000002 33 9.9999999999999982 13.999999999999998 134 9.9999999999999982 1855 557 307
leaf_count=14674 4286 13 274 16 102 14 33 10 14 134 10 1855 557 307
internal_value=0 -5.14807e-05 -0.00032746 -0.0011627 -0.00239162 -0.00170486 -0.00379763 -0.00725865 -0.00658035 0.000265927 0.00338305 -0.000230904 0.000170895 0.00122736
internal_weight=0 7625 3339 346 186 163 61 23 28 160 26 2993 1138 581
internal_count=22299 7625 3339 346 186 163 61 23 28 160 26 2993 1138 581
shrinkage=0.1


Tree=681
num_leaves=15
num_cat=0
split_feature=5 5 34 0 29 23 29 11 31 23 29 3 14 30
split_gain=0.00265567 0.0226923 0.0402057 0.0316054 0.0416398 0.0616409 0.0153481 0.0266859 0.0369284 0.0396166 0.0535042 0.0539986 0.100901 0.103758
threshold=1.5212750000000003e-05 1.5066350000000002e-05 0.0055652500000000008 -0.87947599999999981 0.0018470300000000002 -8.6729999999999983 -0.0045532449999999992 9.9046150000000027e-06 -0.055558899999999987 -7.3688999999999991 0.0059710400000000012 -7.7590199999999987 0.0018826950000000002 9.6969000000000013e-05
decision_type=2 2 2 2 2 2 2 2 2 2 2 2 2 2
left_child=1 6 -3 -4 5 -5 -1 -8 -9 10 11 12 13 -10
right_child=-2 2 3 4 -6 -7 7 8 9 -11 -12 -13 -14 -15
leaf_value=0.00015771219169382209 3.4221754750473528e-05 0.0036581442167516799 -0.00039410915843897485 -0.0023708624687666696 -0.0006662847075079169 -0.01072028644848615 5.5558804271211498e-05 0.0040613277864299325 0.0011103685590034514 0.00026170100168092757 -4.5375243667263916e-05 0.00011873899354999964 -0.00030592023846147284 -0.0031318248133904592
leaf_weight=3462 11243 15.999999999999998 96 24 35 13.999999999999998 4493 19 68 754 997 295 404 379
leaf_count=3462 11243 16 96 24 35 14 4493 19 68 754 997 295 404 379
internal_value=0 -3.48006e-05 -0.00113302 -0.00158662 -0.00315486 -0.00544697 -1.61113e-05 -9.73338e-05 -0.000332912 -0.000361732 -0.000581082 -0.00104714 -0.00145129 -0.00248648
internal_weight=0 11056 185 169 73 38 10871 7409 2916 2897 2143 1146 851 447
internal_count=22299 11056 185 169 73 38 10871 7409 2916 2897 2143 1146 851 447
shrinkage=0.1


Tree=682
num_leaves=15
num_cat=0
split_feature=6 33 33 13 21 1 20 37 12 1 4 0 34 1
split_gain=0.00250094 0.037278 0.0262497 0.0231608 0.0390849 0.137466 0.185339 0.17916 0.137015 0.069276 0.0546511 0.0395435 0.0337026 0.0714013
threshold=1.2416850000000003e-06 3.9863900000000005e-07 7.1091050000000012e-07 -4.7535799999999991e-06 8.0967850000000023 8.503045000000002 -2.4123549999999994 -1.7875299999999996e-08 4.8104400000000007e-05 6.8084300000000004 0.19097900000000004 3.5421500000000004 0.059226050000000009 8.3758000000000017
decision_type=2 2 2 2 2 2 2 2 2 2 2 2 2 2
left_child=2 -2 -1 4 12 9 8 -8 -7 10 -6 -12 13 -3
right_child=1 3 -4 -5 5 6 7 -9 -10 -11 11 -13 -14 -15
leaf_value=-9.7551654246882637e-05 0.00016901005013938725 0.00042073975641047456 0.00017113889509071513 6.334295459118769e-05 -0.0027606100017237623 0.001395425136963075 -0.014599381375592198 0.0038947495134462693 0.013159732102131887 -0.0089844358677510176 0.0066598472227765732 -0.0011288165684163688 -0.00071680761031129312 -0.0018933035878664949
leaf_weight=8028 3911 918 6646 1318 192 22 10.000000000000002 10.999999999999998 18 15.999999999999998 11.000000000000002 15.999999999999998 1026 156
leaf_count=8028 3911 918 6646 1318 192 22 10 11 18 16 11 16 1026 156
internal_value=0 -4.64583e-05 2.4141e-05 -0.000273356 -0.000458568 -0.00153435 0.00269546 -0.00491198 0.00668936 -0.0026323 -0.00216822 0.00204434 -0.000306934 8.46217e-05
internal_weight=0 7625 14674 3714 2396 296 61 21 40 235 219 27 2100 1074
internal_count=22299 7625 14674 3714 2396 296 61 21 40 235 219 27 2100 1074
shrinkage=0.1


Tree=683
num_leaves=15
num_cat=0
split_feature=22 2 2 7 3 19 15 4 10 38 26 29 36 36
split_gain=0.00236289 0.0174365 0.0118583 0.00475713 0.00706616 0.0048025 0.00562061 0.00578232 0.00286822 0.0169907 0.0322366 0.0318256 0.0175841 0.0161061
threshold=3.0427950000000004 2.8833850000000005 2.5598800000000006 2.6262200000000004e-05 -15.126499999999998 1.6630700000000002e-06 -1.6592599999999997e-07 0.10254900000000002 8.9851850000000023e-06 0.00093527850000000017 0.00044376400000000008 0.0075160400000000007 0.010281650000000002 0.0018366300000000003
decision_type=2 2 2 2 2 2 2 2 2 2 2 2 2 2
left_child=8 2 3 -2 -5 6 -6 -8 9 12 11 -11 13 -1
right_child=1 -3 -4 4 5 -7 7 -9 -10 10 -12 -13 -14 -15
leaf_value=-0.00020796194127927137 0.001621473917697111 0.0037341549493638535 -0.0031038248699835759 -0.0019130145548842848 -0.0024448377620198396 0.00058447196256466224 -0.00073315535971362682 0.0019727220335467297 -6.7065125619085591e-06 0.0064351262201348116 -0.0025607483665226029 0.0006391226220875979 0.0037986776744946844 -0.0044079657876864081
leaf_weight=105 23 13.999999999999998 10.999999999999998 15.999999999999998 11.999999999999998 137 28 10.999999999999998 21872 18 11.999999999999998 20 9.9999999999999982 9.9999999999999982
leaf_count=105 23 14 11 16 12 137 28 11 21872 18 12 20 10 10
internal_value=0 0.000304476 0.00010273 0.000258114 0.000104402 0.000276097 -0.000552284 3.00408e-05 -3.4802e-06 0.000399753 0.00195771 0.0033846 -0.000223431 -0.00057318
internal_weight=0 252 238 227 204 188 51 39 22047 175 50 38 125 115
internal_count=22299 252 238 227 204 188 51 39 22047 175 50 38 125 115
shrinkage=0.1


Tree=684
num_leaves=15
num_cat=0
split_feature=10 23 3 14 22 3 3 32 3 35 34 33 5 3
split_gain=0.00237048 0.00852846 0.0154153 0.0264169 0.0175624 0.0361996 0.0232123 0.0439005 0.0114299 0.0286833 0.0233191 0.0110481 0.0293362 0.0207109
threshold=6.7337650000000014e-05 -9.4058299999999981 -5.9294499999999992 0.0012512500000000002 -0.31470399999999993 -9.5356449999999988 -8.7082099999999976 0.13843550000000002 -13.194549999999998 0.004933540000000001 0.14197300000000004 6.171985000000001e-06 2.9758600000000003e-05 -6.0725999999999987
decision_type=2 2 2 2 2 2 2 2 2 2 2 2 2 2
left_child=-1 2 3 4 6 -6 7 -2 9 10 -5 -3 13 -13
right_child=1 11 -4 8 5 -7 -8 -9 -10 -11 -12 12 -14 -15
leaf_value=-1.3554523236933713e-05 -0.0063030318423573442 2.4582419382416642e-05 -0.00012905037239491947 -0.000531177285593003 0.0067338896828564787 0.0013193342154142846 0.000790658232235509 0.0014831419459854563 0.00013999300243128538 0.0027265047781508079 -0.0062059100517737019 -0.0038436756333491452 -3.0950712386789235e-05 -0.00011059030607018781
leaf_weight=19013 14.000000000000002 1424 664 15.000000000000002 12.999999999999998 246 166 14.999999999999998 466 10.999999999999998 13.999999999999998 42 173 23
leaf_count=19013 14 1424 664 15 13 246 166 15 466 11 14 42 173 23
internal_value=0 7.84273e-05 0.000241403 0.000497634 0.00105143 0.00159111 0.000334636 -0.0022757 7.46822e-07 -0.00162147 -0.0032707 -8.08225e-05 -0.000711481 -0.00252274
internal_weight=0 3286 1624 960 454 259 195 29 506 40 29 1662 238 65
internal_count=22299 3286 1624 960 454 259 195 29 506 40 29 1662 238 65
shrinkage=0.1


Tree=685
num_leaves=15
num_cat=0
split_feature=21 2 2 22 14 14 19 6 19 14 8 7 22 10
split_gain=0.00241688 0.0246678 0.0404894 0.285558 0.261929 0.376472 0.127212 0.0670761 0.0312129 0.163876 0.0414391 0.059992 0.25046 0.041817
threshold=9.626260000000002 1.3786450000000003 1.0101150000000001 1.3796950000000001 0.00048074400000000002 0.00019877000000000002 1.1024150000000001e-08 -1.3533949999999999e-06 6.9708700000000016e-08 0.00014316350000000003 -1.2785949999999997e-05 2.9031850000000002e-05 1.4904750000000002 1.6392600000000003e-05
decision_type=2 2 2 2 2 2 2 2 2 2 2 2 2 2
left_child=-1 2 -2 4 5 6 -4 -5 9 -3 11 12 -10 -13
right_child=1 8 3 7 -6 -7 -8 -9 10 -11 -12 13 -14 -15
leaf_value=-1.0500450790092684e-05 0.00015615229266057975 0.0030134991406359606 0.00039818888180889181 -0.0057772412937244074 -2.575161669290427e-05 0.02880315262125805 0.014367986986921592 0.00045917179876206709 -0.0046562703183064087 -0.011138970892255505 -0.0011185256978282459 0.0050875765242381025 0.014973379012483818 -0.00018328119078332532
leaf_weight=20240 1306 18 16.000000000000004 34 33 9.9999999999999982 10.999999999999998 35 13.000000000000002 14.999999999999998 285 15.999999999999998 12.999999999999998 254
leaf_count=20240 1306 18 16 34 33 10 11 35 13 15 285 16 13 254
internal_value=0 0.00010322 0.000328845 0.00195141 0.00645144 0.0122284 0.00608959 -0.00261384 -0.000427771 -0.00341944 -0.000257848 0.000570845 0.00515855 0.000129066
internal_weight=0 2059 1445 139 70 37 27 69 614 33 581 296 26 270
internal_count=22299 2059 1445 139 70 37 27 69 614 33 581 296 26 270
shrinkage=0.1


Tree=686
num_leaves=15
num_cat=0
split_feature=35 3 19 5 9 36 13 6 17 20 5 36 18 5
split_gain=0.00252953 0.0170664 0.0189745 0.0407029 0.0467383 0.0349873 0.0399901 0.0577619 0.0289722 0.033675 0.0355602 0.0530287 0.0505692 0.0336731
threshold=-0.0086243949999999982 -15.632649999999998 0.0022561000000000005 1.1219200000000001e-05 3.2447800000000005e-05 0.0082214700000000016 0.00026821650000000006 1.1511000000000003e-06 1.4333800000000002e-06 18.386200000000002 1.5902750000000006e-05 -0.022684299999999994 0.00070560550000000005 1.9404950000000001e-05
decision_type=2 2 2 2 2 2 2 2 2 2 2 2 2 2
left_child=1 -1 8 4 5 -4 7 -7 -3 10 11 -10 -13 -11
right_child=-2 2 3 -5 -6 6 -8 -9 9 13 -12 12 -14 -15
leaf_value=-0.00078683966437138896 -1.254039638286846e-05 0.00021745263204573344 -7.1718505721285263e-05 0.00025885612049023624 0.007775840459258429 0.010974920816862811 0.00046556736837374043 0.00086580871837213633 0.00066610019275685777 0.0073937093419954155 -0.00017982121065108055 -0.0047953534126930677 -0.00013628057752023724 -0.00081275849370285877
leaf_weight=205 19584 1477 55 492 13.999999999999998 13.000000000000002 20 9.9999999999999982 48 10.000000000000002 253 74 34 9.9999999999999982
leaf_count=205 19584 1477 55 492 14 13 20 10 48 10 253 74 34 10
internal_value=0 9.04571e-05 0.000162109 0.000650526 0.00237108 0.00159897 0.00373589 0.00657965 7.33232e-06 -0.000716089 -0.000912009 -0.00209947 -0.00332861 0.00329048
internal_weight=0 2715 2510 604 112 98 43 23 1906 429 409 156 108 20
internal_count=22299 2715 2510 604 112 98 43 23 1906 429 409 156 108 20
shrinkage=0.1


Tree=687
num_leaves=15
num_cat=0
split_feature=16 16 21 26 26 36 36 22 13 17 30 8 1 17
split_gain=0.00241938 0.0150714 0.0626673 0.102705 0.0937663 0.0311176 0.064121 0.0207796 0.0476912 0.018793 0.0117335 0.0176905 0.0172779 0.0153046
threshold=-1.1912999999999997e-06 -1.0039629999999999e-06 5.0816100000000004 7.4267950000000011e-05 0.000119919 7.9784000000000007e-05 -0.00025458649999999996 -1.9750549999999998 2.3375550000000004e-05 -2.6149399999999997e-08 0.00068457000000000012 -7.2692199999999986e-06 -0.7272964999999999 -2.2431399999999998e-07
decision_type=2 2 2 2 2 2 2 2 2 2 2 2 2 2
left_child=-1 2 5 9 -5 6 7 -2 -9 -4 11 -7 -13 -12
right_child=1 -3 3 4 -6 10 -8 8 -10 -11 13 12 -14 -15
leaf_value=5.2462106364490566e-05 -0.0030357294812953725 -1.0353732960574564e-05 0.0030467801763174617 -0.016126787140965458 -0.0032467930183674287 0.0010588344931602479 0.0077249854603516207 -0.0020009636727627367 0.0050941586235745094 -0.0024411139020230621 -0.0028966394648887207 -0.0010365851567864105 -0.0061274424816171319 0.0020336116088882964
leaf_weight=6305 14.999999999999998 15815 13.000000000000002 10.000000000000002 12.999999999999998 9.9999999999999982 13.999999999999998 20 18 11.999999999999998 10.000000000000002 12 15 17
leaf_count=6305 15 15815 13 10 13 10 14 20 18 12 10 12 15 17
internal_value=0 -2.06811e-05 -0.000933124 -0.0040242 -0.00884679 0.000199482 0.00170581 0.000115842 0.00135988 0.000412591 -0.00137746 -0.00253412 -0.00386484 0.000207593
internal_weight=0 15994 179 48 23 131 67 53 38 25 64 37 27 27
internal_count=22299 15994 179 48 23 131 67 53 38 25 64 37 27 27
shrinkage=0.1


Tree=688
num_leaves=15
num_cat=0
split_feature=3 23 23 14 3 23 14 23 3 26 3 10 20 23
split_gain=0.00230235 0.0350411 0.0595264 0.109971 0.0981996 0.109214 0.0760193 0.198304 0.113177 0.1165 0.0640397 0.0719455 0.064304 0.047012
threshold=-14.166599999999997 -10.272399999999999 -14.149949999999999 0.0071294650000000006 -14.261949999999997 -11.830699999999998 0.0028496800000000007 -15.441949999999999 -14.650449999999998 5.4786850000000006e-05 -16.417249999999999 1.6392600000000003e-05 -3.0532049999999997 -16.786249999999999
decision_type=2 2 2 2 2 2 2 2 2 2 2 2 2 2
left_child=1 2 6 4 5 -4 7 10 9 -9 -1 -12 -13 -14
right_child=-2 -3 3 -5 -6 -7 -8 8 -10 -11 11 12 13 -15
leaf_value=0.0066304780077189214 -1.2428651958694871e-05 0.00040092706456274342 -0.004282320838294172 7.6746965846883266e-05 0.0067888547835702256 7.993854180742266e-06 -9.8364738701576303e-05 0.012623763810843226 0.016420982950008833 -0.0019907089124899359 0.0050060442515781952 0.0021233665698673575 -0.0018460034831043561 -0.0092829517691450925
leaf_weight=11.999999999999998 19397 1580 178 434 10.999999999999998 89 499 10.000000000000002 12.999999999999998 11.999999999999998 13.999999999999998 15.999999999999998 16.999999999999993 17.000000000000007
leaf_count=12 19397 1580 178 434 11 89 499 10 13 12 14 16 17 17
internal_value=0 8.30733e-05 -0.000296813 -0.000917916 -0.00247073 -0.00285222 0.000428147 0.00279508 0.00902348 0.00465223 -7.32634e-05 -0.00133021 -0.00310437 -0.00556448
internal_weight=0 2902 1322 712 278 267 610 111 35 22 76 64 50 34
internal_count=22299 2902 1322 712 278 267 610 111 35 22 76 64 50 34
shrinkage=0.1


Tree=689
num_leaves=15
num_cat=0
split_feature=37 13 4 7 39 3 26 10 22 25 18 4 37 4
split_gain=0.00265079 0.0142468 0.0310809 0.0422302 0.10289 0.162987 0.0673349 0.167731 0.0446002 0.0345297 0.0553356 0.0307623 0.0228773 0.0300913
threshold=-3.3063099999999991e-07 -2.4393049999999995e-05 -0.061004349999999992 4.942240000000001e-05 3.6832150000000006e-05 -12.169249999999998 -0.00033447949999999995 2.8142500000000004e-05 2.2108700000000003 0.7496210000000002 5.8316350000000001e-06 0.057852600000000011 -4.0771349999999993e-07 -0.31037149999999997
decision_type=2 2 2 2 2 2 2 2 2 2 2 2 2 2
left_child=1 2 12 4 5 -4 7 -6 9 10 -8 -11 -1 -14
right_child=-2 -3 3 -5 6 -7 8 -9 -10 11 -12 -13 13 -15
leaf_value=9.4843570138240601e-05 -1.6220461106589364e-05 -5.0418553537505111e-06 0.00043439894745295692 4.0567118118494105e-05 -0.0014743493071624207 0.018074054531753064 0.008863850451038718 0.014637238105448584 -0.0045666686492040753 0.004155657850205898 -0.00055309035621273022 -0.00087572846514376583 0.00011340077966451647 -0.0055224669780323497
leaf_weight=227 18258 3442 11.000000000000002 167 14.000000000000002 9.9999999999999982 13.000000000000002 11.999999999999998 15.999999999999998 14.999999999999998 11.999999999999998 64 20 18
leaf_count=227 18258 3442 11 167 14 10 13 12 16 15 12 64 20 18
internal_value=0 7.32871e-05 0.000523384 0.00116501 0.00228946 0.00883423 0.00134809 0.00596177 0.000348454 0.00110463 0.00434372 7.95981e-05 -0.000285309 -0.00255622
internal_weight=0 4041 599 334 167 21 146 26 120 104 25 79 265 38
internal_count=22299 4041 599 334 167 21 146 26 120 104 25 79 265 38
shrinkage=0.1


Tree=690
num_leaves=15
num_cat=0
split_feature=12 23 28 36 21 10 10 20 20 9 11 11 35 5
split_gain=0.00235151 0.00598875 0.00526521 0.0050358 0.004183 0.00402607 0.00380581 0.00986047 0.0486113 0.0136161 0.0222213 0.052699 0.0710544 0.0257333
threshold=-0.00084507899999999999 -6.4198449999999996 0.0049085850000000009 -2.8015299999999996 -4.3227599999999988 2.3949050000000004e-05 6.7337650000000014e-05 9.4874600000000004 9.0406650000000024 8.9000550000000006e-05 5.3999050000000006e-05 2.8778950000000003e-05 -0.0011341249999999999 1.6489900000000003e-05
decision_type=2 2 2 2 2 2 2 2 2 2 2 2 2 2
left_child=1 3 -3 -1 5 -5 -2 8 -8 10 11 13 -13 -9
right_child=6 2 -4 4 -6 -7 7 9 -10 -11 -12 12 -14 -15
leaf_value=0.0021521521266549826 -9.8315731816344658e-06 -0.0016007667222293093 0.00017662573943380268 -0.00099456340504846478 3.1817433243697662e-05 -0.0001711165536496817 0.00013658185256125519 -0.0031974259055762865 0.005212917004858977 -0.0015057431927690394 -0.0023728906730839023 -0.00094811759307049175 0.01069873921911825 0.0003776103208365385
leaf_weight=9.9999999999999982 18331 50 25 87 664 187 2638 24 19 85 33 10.000000000000002 10.999999999999998 125
leaf_count=10 18331 50 25 87 664 187 2638 24 19 85 33 10 11 125
internal_value=0 -0.000148094 -0.0010083 -8.00396e-05 -0.000103837 -0.000432576 7.12071e-06 0.000112639 0.000172882 -0.000443144 1.78636e-06 0.000462753 0.00515262 -0.000198234
internal_weight=0 1023 75 948 938 274 21276 2945 2657 288 203 170 21 149
internal_count=22299 1023 75 948 938 274 21276 2945 2657 288 203 170 21 149
shrinkage=0.1


Tree=691
num_leaves=15
num_cat=0
split_feature=8 21 10 15 21 7 7 23 14 21 37 23 6 10
split_gain=0.00243267 0.0106354 0.0691201 0.0591658 0.0161601 0.0264535 0.0126782 0.0189771 0.033895 0.00970743 0.0220217 0.00513441 0.00570083 0.00494826
threshold=2.9407650000000003e-05 -9.7378749999999972 4.5239100000000005e-05 7.1625800000000011e-08 -7.5273399999999997 5.9256050000000007e-05 4.6672250000000007e-05 -9.1575349999999975 0.00018093550000000002 -7.0364199999999988 1.1198050000000003e-08 -6.1118099999999993 -6.442379999999999e-06 6.7337650000000014e-05
decision_type=2 2 2 2 2 2 2 2 2 2 2 2 2 2
left_child=13 2 3 -2 5 -3 7 -6 -9 10 -8 -11 -13 -1
right_child=1 4 -4 -5 6 -7 9 8 -10 11 -12 12 -14 -15
leaf_value=-9.137361202024273e-06 -0.00024446055414790112 -0.0051412364016869107 -0.00051323558055509761 0.0094111612716612104 0.00021271363319829109 -0.00073568837998881588 -0.00084203390288166684 -0.00040054752272016426 -0.0081444496754556894 -4.2831323764777802e-05 0.0055119500029832125 -0.00017336789692658033 -0.0033492279611527921 0.00014382873958062483
leaf_weight=18603 11.000000000000002 15.999999999999998 92 14.999999999999998 25 92 12.000000000000002 13.000000000000002 9.9999999999999982 991 9.9999999999999982 13.000000000000002 9.9999999999999982 2386
leaf_count=18603 11 16 92 15 25 92 12 13 10 991 10 13 10 2386
internal_value=0 -0.000132208 0.000773396 0.00532609 -0.000221857 -0.00138836 -0.000105637 -0.00169445 -0.00376746 -3.20239e-05 0.00204614 -7.71123e-05 -0.00155418 8.25161e-06
internal_weight=0 1310 118 26 1192 108 1084 48 23 1036 22 1014 23 20989
internal_count=22299 1310 118 26 1192 108 1084 48 23 1036 22 1014 23 20989
shrinkage=0.1


Tree=692
num_leaves=15
num_cat=0
split_feature=15 35 15 3 4 11 37 26 34 2 38 6 38 28
split_gain=0.00228783 0.0156438 0.0441833 0.0551973 0.0774719 0.120948 0.11755 0.159138 0.187183 0.131515 0.0870214 0.0721813 0.0710314 0.0916582
threshold=3.2894150000000011e-08 -0.00016505499999999997 4.8704800000000014e-06 -6.5485099999999994 0.017115750000000002 9.4427700000000018e-06 4.9602750000000011e-08 5.9086750000000001e-05 0.12842450000000002 -0.99925949999999986 0.00011309350000000002 2.2187500000000001e-06 0.00020902850000000003 0.0057016750000000007
decision_type=2 2 2 2 2 2 2 2 2 2 2 2 2 2
left_child=-1 2 3 4 5 -2 12 10 9 -9 11 -8 -7 -14
right_child=1 -3 -4 -5 -6 6 7 8 -10 -11 -12 -13 13 -15
leaf_value=2.9179520104812496e-05 -0.00092879562924002711 7.4209254555730966e-05 0.00017421818690698269 0.00014264935379923598 -0.0016100011112667881 0.00141317502985818 -0.0020947348537447398 0.022809158638119699 -0.00091403262832990065 0.0086411005403772955 -0.0059138159899573238 0.0064419739109535636 -0.011009192924636107 -0.00056328865217177991
leaf_weight=12186 581 5703 1979 931 696 85 15.999999999999998 9.9999999999999982 12.999999999999998 19.000000000000004 13.999999999999998 26 11.999999999999998 28
leaf_count=12186 581 5703 1979 931 696 85 16 10 13 19 14 26 12 28
internal_value=0 -3.51608e-05 -0.000176598 -0.000462186 -0.000837588 -0.000168931 0.00181081 0.0044038 0.00905691 0.0135266 0.000913967 0.00318989 -0.0002221 -0.00369706
internal_weight=0 10113 4410 2431 1500 804 223 98 42 29 56 42 125 40
internal_count=22299 10113 4410 2431 1500 804 223 98 42 29 56 42 125 40
shrinkage=0.1


Tree=693
num_leaves=15
num_cat=0
split_feature=6 33 33 13 13 37 34 35 14 13 33 18 3 34
split_gain=0.00256203 0.0307708 0.0217442 0.0209047 0.0376002 0.0823515 0.0598587 0.0407602 0.0382081 0.0374686 0.163143 0.173365 0.225936 0.306541
threshold=1.2416850000000003e-06 3.9863900000000005e-07 7.1091050000000012e-07 -1.1863749999999998e-05 -1.4439899999999999e-05 2.7198850000000005e-07 0.14344500000000002 -0.023074749999999998 0.0029087850000000001 2.3983450000000006e-06 2.0371250000000004e-06 -9.6796299999999971e-07 -6.8361399999999994 0.0045832400000000014
decision_type=2 2 2 2 2 2 2 2 2 2 2 2 2 2
left_child=2 -2 -1 4 7 6 -6 8 -4 10 11 -5 13 -13
right_child=1 -3 3 9 5 -7 -8 -9 -10 -11 -12 12 -14 -15
leaf_value=-8.6323698483518332e-05 0.00014873896576445163 -0.00025316713344556493 0.0056890871766622046 -0.0012616915723170949 -0.0028601666146781872 -0.008652240259791999 0.0059398107090435758 -0.00042257462326931208 0.00062093943726686837 0.00012769836961137654 0.00036607422879777275 0.0019443103398841162 1.01846281292015e-05 0.021872628417699352
leaf_weight=8028 3911 3714 21 27 26 17 10.999999999999998 584 51 5236 622 12.999999999999998 19 19
leaf_count=8028 3911 3714 21 27 26 17 11 584 51 5236 622 13 19 19
internal_value=0 -4.70222e-05 2.4434e-05 0.000158223 -0.000354591 -0.00289101 -0.000243957 -0.0001458 0.00209915 0.00021956 0.000906689 0.00521774 0.00864803 0.0137767
internal_weight=0 7625 14674 6646 710 54 37 656 72 5936 700 78 51 32
internal_count=22299 7625 14674 6646 710 54 37 656 72 5936 700 78 51 32
shrinkage=0.1


Tree=694
num_leaves=15
num_cat=0
split_feature=3 23 23 14 3 23 14 23 18 33 1 22 4 36
split_gain=0.00237018 0.0286394 0.0488508 0.088468 0.0796852 0.0892017 0.0617839 0.159332 0.100033 0.121783 0.0757913 0.329926 0.0533247 0.0648319
threshold=-14.166599999999997 -10.272399999999999 -14.149949999999999 0.0071294650000000006 -14.261949999999997 -12.811799999999998 0.0028496800000000007 -15.441949999999999 -1.7326649999999998e-05 -4.9403999999999993e-06 4.7957150000000004 1.3614300000000001 0.12751550000000003 -0.00035140299999999997
decision_type=2 2 2 2 2 2 2 2 2 2 2 2 2 2
left_child=1 2 6 4 5 -4 7 12 -9 -10 -8 -12 -1 -14
right_child=-2 -3 3 -5 -6 -7 10 8 9 -11 11 -13 13 -15
leaf_value=-0.0016226519082140709 -1.2610421118664713e-05 0.00037164444682635415 -0.0047418651552024217 7.0328376780871377e-05 0.0061265822499990468 -0.0010282567034282347 -0.0003831995002994827 0.015069068194581911 0.011444941387592486 -0.0034353632310574703 -0.0034537541922569888 0.018528630089184102 0.010086216293275354 -0.0013007845729589463
leaf_weight=56 19397 1580 110 434 10.999999999999998 157 470 12.999999999999998 11 11 18.000000000000004 10.999999999999998 10.000000000000002 9.9999999999999982
leaf_count=56 19397 1580 110 434 11 157 470 13 11 11 18 11 10 10
internal_value=0 8.42882e-05 -0.000259148 -0.000821807 -0.00221456 -0.00255821 0.000397595 0.00253143 0.00811438 0.00400479 -7.7067e-05 0.00488439 -3.96604e-05 0.00439272
internal_weight=0 2902 1322 712 278 267 610 111 35 22 499 29 76 20
internal_count=22299 2902 1322 712 278 267 610 111 35 22 499 29 76 20
shrinkage=0.1


Tree=695
num_leaves=15
num_cat=0
split_feature=37 7 34 18 6 34 5 13 33 13 33 34 27 26
split_gain=0.00248682 0.0136778 0.0239288 0.0408715 0.0155867 0.0131593 0.0349026 0.0130144 0.0709564 0.0357458 0.11728 0.205322 0.0327962 0.0228558
threshold=-3.3063099999999991e-07 4.3519750000000006e-05 0.038470900000000009 -2.2311849999999999e-07 -7.0412449999999994e-06 0.039383950000000008 1.6234500000000002e-05 -5.3808099999999991e-05 4.4691550000000008e-05 -4.0032299999999993e-05 1.6902450000000003e-05 0.39052300000000001 2.9254300000000004 -9.5432099999999997e-05
decision_type=2 2 2 2 2 2 2 2 2 2 2 2 2 2
left_child=1 2 3 -1 -4 6 -3 8 12 10 -9 -12 13 -6
right_child=-2 5 4 -5 7 -7 -8 9 -10 -11 11 -13 -14 -15
leaf_value=0.0075715026197334112 -1.5710765316822347e-05 -0.0066898448921909387 0.0038000124671574067 3.7181250647538242e-05 -0.0086568050940210636 -7.7621358862412071e-05 -0.00036214332365142629 -0.00088968283825499182 0.0061260928213596345 0.00015464385156593765 0.018042980066754599 -0.0017554613621905447 0.00040489918862779938 -0.002604707435239106
leaf_weight=12.000000000000002 18258 10.999999999999998 11.999999999999998 18 11.999999999999998 1876 42 34 9.9999999999999982 1965 11.000000000000002 9.9999999999999982 14.999999999999998 13.000000000000002
leaf_count=12 18258 11 12 18 12 1876 42 34 10 1965 11 10 15 13
internal_value=0 7.09842e-05 0.00024681 0.00305091 0.000206405 -0.000121522 -0.00167544 0.000185573 -0.00140817 0.000225022 0.00273944 0.00861515 -0.00329173 -0.00550971
internal_weight=0 4041 2112 30 2082 1929 53 2070 50 2020 55 21 40 25
internal_count=22299 4041 2112 30 2082 1929 53 2070 50 2020 55 21 40 25
shrinkage=0.1


Tree=696
num_leaves=15
num_cat=0
split_feature=29 7 29 18 9 9 25 7 35 0 21 11 14 7
split_gain=0.00231633 0.0123512 0.0257252 0.0369654 0.0241329 0.0381952 0.127834 0.0176476 0.0718567 0.0434856 0.0389795 0.037171 0.0359235 0.0272721
threshold=-0.020851599999999998 2.9906400000000006e-05 -0.39630949999999993 -1.0136849999999998e-05 2.6990300000000001e-05 2.4512850000000004e-05 3.2512000000000003 3.1866550000000001e-05 0.053779950000000007 4.5268550000000003 3.3299250000000002 1.6086700000000003e-05 0.00013390200000000003 3.3045000000000006e-05
decision_type=2 2 2 2 2 2 2 2 2 2 2 2 2 2
left_child=1 2 3 -1 5 -4 -7 8 9 -3 12 -10 -11 -9
right_child=-2 7 4 -5 -6 6 -8 13 11 10 -12 -13 -14 -15
leaf_value=-0.005019364205777253 -1.2641075668427355e-05 -0.00073616175837110977 0.00068620757059969823 0.00016219406854361298 -0.0038128375075757504 0.011712211571060692 -0.0020589121517592241 0.0018769043134670938 0.00097619982727337618 -0.0024951542854647741 -0.00088666019469706549 0.0084432267211377622 -0.0099187637943941812 -2.5538443646757337e-06
leaf_weight=19 19326 98 402 50 10.999999999999998 13.000000000000002 13.999999999999998 80 20.000000000000004 11.000000000000002 18 9.9999999999999982 15.999999999999998 2211
leaf_count=19 19326 98 402 50 11 13 14 80 20 11 18 10 16 2211
internal_value=0 8.21734e-05 0.000530629 -0.00126461 0.000812155 0.000930745 0.00457163 -1.04662e-05 -0.000984361 -0.00191784 -0.00449126 0.00346521 -0.00689433 6.30754e-05
internal_weight=0 2973 509 69 440 429 27 2464 173 143 45 30 27 2291
internal_count=22299 2973 509 69 440 429 27 2464 173 143 45 30 27 2291
shrinkage=0.1


Tree=697
num_leaves=15
num_cat=0
split_feature=38 4 4 4 38 12 2 4 18 32 24 17 20 7
split_gain=0.00247854 0.014873 0.0355811 0.0490242 0.0741407 0.024863 0.0282417 0.0192805 0.0176584 0.0190199 0.0159682 0.0235517 0.0716666 0.0117724
threshold=0.18471500000000005 -0.25668149999999995 -1.0451899999999996 -1.4166899999999998 0.8307460000000001 -0.00017922449999999997 2.5598800000000006 -0.20699899999999996 -2.4415699999999997e-05 5.8233050000000013 -1.6604849999999998 -2.8658149999999996e-05 -6.6325599999999989 3.9449600000000003e-05
decision_type=2 2 2 2 2 2 2 2 2 2 2 2 2 2
left_child=-1 2 3 10 -5 -4 8 -3 9 -7 11 -2 -13 -12
right_child=1 7 5 4 -6 6 -8 -9 -10 -11 13 12 -14 -15
leaf_value=-6.4311855779710267e-06 -0.0005755374701145818 0.003679366461518738 0.0025166641362011433 0.010558947853066701 -0.0013381643407046795 -0.0059465699534484891 0.0021367136691696942 0.00035204254212006694 -0.00082984211553326429 -0.0015273621754853853 -0.0030107871527434329 -0.0018861477877098046 0.0098107740283012394 -0.00040813071601506737
leaf_weight=21499 34 18 9.9999999999999982 11.000000000000002 9.9999999999999982 32 9.9999999999999982 536 17 13.999999999999998 24 11.000000000000002 9.9999999999999982 63
leaf_count=21499 34 18 10 11 10 32 10 536 17 14 24 11 10 63
internal_value=0 0.00017283 -0.000474225 0.000383972 0.00489366 -0.0021596 -0.00280018 0.000460151 -0.00358382 -0.00460159 -0.000282953 0.00105076 0.00368381 -0.0011261
internal_weight=0 800 246 163 21 83 73 554 63 46 142 55 21 87
internal_count=22299 800 246 163 21 83 73 554 63 46 142 55 21 87
shrinkage=0.1


Tree=698
num_leaves=15
num_cat=0
split_feature=31 0 2 21 29 19 23 5 16 30 28 19 14 11
split_gain=0.0021549 0.0135932 0.0287176 0.0933313 0.131686 0.100485 0.100612 0.0712589 0.0670172 0.0440999 0.0233253 0.0201967 0.034363 0.0598079
threshold=0.074667200000000003 -4.6645649999999987 2.0303200000000006 2.3514850000000003 0.013007550000000001 0.0015085650000000001 -12.250049999999998 1.5267800000000003e-05 -3.4484549999999995e-05 0.028342650000000004 0.085049750000000007 1.8055650000000004e-08 0.0024903750000000004 -1.0176299999999998e-05
decision_type=2 2 2 2 2 2 2 2 2 2 2 2 2 2
left_child=-1 -2 11 9 -5 -6 8 -8 -7 10 -4 12 13 -3
right_child=1 2 3 4 5 6 7 -9 -10 -11 -12 -13 -14 -15
leaf_value=-1.8147921832750325e-05 -0.00019585041946086252 0.0049896076307049952 -0.00021061665005365858 0.014275329955853523 0.011583204232156278 -0.0018074298901906748 -0.010733548901043825 0.00069629516995822391 0.0080005757608696045 0.0054767457947421539 -0.0046428978299865361 -8.2382491458850292e-06 -0.0036425827821302743 0.00052664294821335464
leaf_weight=16631 1580 32 137 10.999999999999998 9.9999999999999982 10.999999999999998 10.000000000000005 11.999999999999998 19 12.999999999999998 12.999999999999998 3315 18 487
leaf_count=16631 1580 32 137 11 10 11 10 12 19 13 13 3315 18 487
internal_value=0 5.32495e-05 0.000149526 0.00122032 0.00419192 0.00240292 0.000637486 -0.00449909 0.00440431 -0.000110518 -0.000594748 8.39217e-05 0.000652842 0.000801816
internal_weight=0 5668 4088 236 73 62 52 22 30 163 150 3852 537 519
internal_count=22299 5668 4088 236 73 62 52 22 30 163 150 3852 537 519
shrinkage=0.1


Tree=699
num_leaves=15
num_cat=0
split_feature=11 10 20 20 19 11 5 9 11 37 5 14 23 24
split_gain=0.00208386 0.00306914 0.00835131 0.0359868 0.0540889 0.0131927 0.0218906 0.0175241 0.0337835 0.0508043 0.0205796 0.0125586 0.00774568 0.00762536
threshold=0.00105597 6.677965000000001e-05 9.4874600000000004 9.0406650000000024 0.00048168300000000006 6.1237350000000008e-05 3.1622900000000005e-05 8.9000550000000006e-05 2.8778950000000003e-05 1.4625800000000002e-08 1.6489900000000003e-05 0.00019150250000000003 -18.127749999999995 -0.078674499999999981
decision_type=2 2 2 2 2 2 2 2 2 2 2 2 2 2
left_child=1 -1 3 12 -5 7 -7 8 10 -10 13 -9 -3 -4
right_child=-2 2 5 4 -6 6 -8 11 9 -11 -12 -13 -14 -15
leaf_value=-1.0848946440617518e-05 -0.00022144552173728222 -0.00060348928111904701 -0.0048214824954894439 0.0095787989953532784 -0.00082205326994881037 -0.0059558123489841823 -0.00088323799876921017 -0.00092622196243610235 0.0092881877440959184 8.6352182552218448e-05 0.0002760897654671643 -0.005054639775771648 0.00016017320478187077 -0.0012440806827866116
leaf_weight=18833 417 140 11.000000000000002 10.000000000000002 9.9999999999999982 9.9999999999999982 57 28 10.000000000000002 14.999999999999998 146 9.9999999999999982 2589 12.999999999999998
leaf_count=18833 417 140 11 10 10 10 57 28 10 15 146 10 2589 13
internal_value=0 4.22003e-06 9.72978e-05 0.000151971 0.00437837 -0.000403688 -0.00164034 -4.80846e-05 0.000334753 0.00376709 -0.000170001 -0.00201265 0.000120997 -0.00288372
internal_weight=0 21882 3049 2749 20 300 67 233 195 25 170 38 2729 24
internal_count=22299 21882 3049 2749 20 300 67 233 195 25 170 38 2729 24
shrinkage=0.1


Tree=700
num_leaves=15
num_cat=0
split_feature=35 15 7 31 15 15 6 7 15 7 9 20 3 11
split_gain=0.00217063 0.0141675 0.0295448 0.0374704 0.0292914 0.0218487 0.0173906 0.0276203 0.0174118 0.017202 0.0834245 0.145219 0.0355741 0.0213748
threshold=-0.0086243949999999982 6.8396650000000006e-07 3.1736250000000006e-05 -0.39495049999999993 6.2919150000000003e-07 2.5858200000000004e-06 6.1369000000000013e-06 6.8999500000000016e-05 1.1744650000000001e-05 3.5305950000000007e-05 2.6242100000000001e-05 8.4191850000000006 -11.287699999999999 -7.3710949999999982e-05
decision_type=2 2 2 2 2 2 2 2 2 2 2 2 2 2
left_child=1 4 3 5 9 -3 8 -8 -4 10 13 12 -12 -1
right_child=-2 2 6 -5 -6 -7 7 -9 -10 -11 11 -13 -14 -15
leaf_value=0.0023900967498944781 -1.1616746391150253e-05 -0.0077698499468776099 -0.0010188508167211696 6.0525113007142436e-05 0.0051515075882586341 -0.0027210689817244809 0.0049987228609097659 0.00041667245252913725 0.00013129971678408058 -3.5489048151839753e-05 0.006204509579886993 0.01503094093874097 0.00056526345314606178 8.4530356449953787e-05
leaf_weight=43 19584 11.999999999999998 200 42 11.999999999999998 30 15.999999999999998 74 385 1212 14.999999999999998 9.9999999999999982 44 620
leaf_count=43 19584 12 200 42 12 30 16 74 385 1212 15 10 44 620
internal_value=0 8.37946e-05 -0.000282918 -0.00205153 0.000226093 -0.00416358 -6.28244e-05 0.00123126 -0.000261914 0.000195689 0.000578459 0.00388766 0.00199897 0.000234062
internal_weight=0 2715 759 84 1956 42 675 90 585 1944 732 69 59 663
internal_count=22299 2715 759 84 1956 42 675 90 585 1944 732 69 59 663
shrinkage=0.1


Tree=701
num_leaves=15
num_cat=0
split_feature=6 33 13 6 37 4 38 17 19 34 34 23 20 11
split_gain=0.00218282 0.0260754 0.0218875 0.0338133 0.073938 0.129913 0.0937779 0.1119 0.133947 0.180593 0.15085 0.144283 0.0670111 0.187438
threshold=1.2416850000000003e-06 1.68409e-06 -3.8629749999999992e-06 2.7132950000000004e-06 -1.3234699999999999e-07 0.053110600000000008 -0.0056299999999999987 4.5515950000000005e-07 0.0029184550000000004 0.042265750000000012 0.082037000000000013 -11.059199999999999 5.8804000000000007 1.0458900000000001e-05
decision_type=2 2 2 2 2 2 2 2 2 2 2 2 2 2
left_child=-1 -2 3 4 5 -3 -7 -8 9 -9 -11 -10 -5 -14
right_child=1 2 -4 12 -6 6 7 8 11 10 -12 -13 13 -15
leaf_value=2.2553413295804087e-05 0.00011981864977865525 -0.0021920712591963821 9.8916511732529777e-05 -0.00052184709140882146 -0.0017537595318412571 -0.0015986894419054605 -0.00082703924315326186 0.0017410003472692693 0.0077994714956730595 0.024819163673303335 0.0078489930462092156 -0.0079276647703954966 -0.00088015573583582931 0.0040537678518615906
leaf_weight=14674 4286 100 1156 1186 456 36 27 12.999999999999998 14.000000000000002 11.000000000000002 9.9999999999999982 9.9999999999999982 191 129
leaf_count=14674 4286 100 1156 1186 456 36 27 13 14 11 10 10 191 129
internal_value=0 -4.34031e-05 -0.000252917 -0.00043923 -0.00102623 0.000474931 0.00267906 0.00449082 0.00696637 0.0110039 0.0167381 0.0012465 -0.000175355 0.00110883
internal_weight=0 7625 3339 2183 677 221 121 85 58 34 21 24 1506 320
internal_count=22299 7625 3339 2183 677 221 121 85 58 34 21 24 1506 320
shrinkage=0.1


Tree=702
num_leaves=15
num_cat=0
split_feature=8 21 7 15 3 35 22 34 7 3 21 23 25 24
split_gain=0.00211515 0.0126453 0.042944 0.12523 0.106961 0.0921236 0.0554598 0.0172014 0.0525118 0.0575001 0.0477547 0.0228231 0.0157091 0.0128605
threshold=2.2903550000000002e-05 -9.4492299999999982 7.255200000000002e-05 6.2864100000000005e-08 -5.9423249999999994 -8.2284449999999991e-05 -1.4672799999999997 0.023958650000000001 6.5277000000000019e-05 -6.1233399999999989 -5.7759599999999987 -6.4960549999999992 0.18550200000000003 -0.13659949999999996
decision_type=2 2 2 2 2 2 2 2 2 2 2 2 2 2
left_child=-1 2 3 6 5 -5 -2 8 9 10 -3 12 -12 -14
right_child=1 7 -4 4 -6 -7 -8 -9 -10 -11 11 -13 13 -15
leaf_value=9.3750456326777826e-06 -0.0055845645424495967 -0.0092882531337506544 -0.00054154353051948741 0.0035438039953905073 -0.00079103333051674647 0.015772918026362145 0.0021614262169398564 4.9573341546425116e-05 -6.5648848502348128e-05 -0.00010974865304484007 -0.0054147664768000453 -0.0073260600958019494 -0.0040737650500467211 -0.00040429107191610245
leaf_weight=20408 18 13.999999999999998 115 11 12.999999999999998 14 19 1093 451 72 11.999999999999998 9.9999999999999982 12.999999999999991 36.000000000000007
leaf_count=20408 18 14 115 11 13 14 19 1093 451 72 12 10 13 36
internal_value=0 -0.000101177 0.000672562 0.00253419 0.0065663 0.0103921 -0.00160689 -0.000187603 -0.000613974 -0.0021891 -0.00395043 -0.0028979 -0.00217198 -0.00137782
internal_weight=0 1891 190 75 38 25 37 1701 608 157 85 71 61 49
internal_count=22299 1891 190 75 38 25 37 1701 608 157 85 71 61 49
shrinkage=0.1


Tree=703
num_leaves=15
num_cat=0
split_feature=20 0 20 3 23 33 25 13 25 10 3 23 33 18
split_gain=0.00206068 0.0212487 0.0403342 0.0698983 0.230362 0.25499 0.258209 0.342306 0.190359 0.129554 0.101218 0.0538273 0.0575848 0.176908
threshold=-1.1402199999999998 7.5518050000000008 7.3616200000000012 -7.9422599999999992 -7.7652849999999995 -6.0875599999999989e-06 0.22501450000000003 4.8591750000000008e-05 3.0130200000000005 3.7116500000000003e-05 -8.1239699999999981 -7.9426749999999986 3.975485000000001e-06 -6.1378149999999986e-07
decision_type=2 2 2 2 2 2 2 2 2 2 2 2 2 2
left_child=-1 -2 -3 4 5 -4 9 8 10 -7 -8 -5 -13 -14
right_child=1 2 3 11 -6 6 7 -9 -10 -11 -12 12 13 -15
leaf_value=3.3542368820088814e-05 3.2479872111635091e-05 -0.00062003549505555678 -0.0069887952520870239 -0.001420256210217046 -0.0030087010078811245 0.0076750195500525538 0.031320471614599228 -0.0021381122017787263 0.0078286609961651273 -0.007349583273753524 0.017092470452189434 6.6309257747388054e-05 0.01074579876675714 -0.0012212863293825649
leaf_weight=10056 10138 1422 12.999999999999998 212 48 11.000000000000002 9.9999999999999982 10.999999999999998 10.999999999999998 11.999999999999998 10.000000000000005 294 21 30
leaf_count=10056 10138 1422 13 212 48 11 10 11 11 12 10 294 21 30
internal_value=0 -2.75506e-05 -0.000316667 0.000314945 0.00244193 0.00579617 0.00835316 0.0130173 0.018395 -0.000163904 0.0242065 -0.000166205 0.0006044 0.00370634
internal_weight=0 12243 2105 683 126 78 65 42 31 23 20 557 345 51
internal_count=22299 12243 2105 683 126 78 65 42 31 23 20 557 345 51
shrinkage=0.1


Tree=704
num_leaves=15
num_cat=0
split_feature=3 23 3 23 14 23 25 3 3 23 14 5 20 5
split_gain=0.00213743 0.014625 0.0333648 0.091204 0.121817 0.0797061 0.0597236 0.0574865 0.0385397 0.0583058 0.0967585 0.0730011 0.0761949 0.0640013
threshold=-7.4146649999999985 -6.7907799999999989 -6.7531799999999995 -6.4403949999999996 0.00019877000000000002 -6.6726449999999993 0.68318150000000022 -7.1065299999999993 -6.3788349999999996 -6.4589649999999992 0.00015685400000000003 1.2493400000000001e-05 -2.1028949999999997 1.1058900000000002e-05
decision_type=2 2 2 2 2 2 2 2 2 2 2 2 2 2
left_child=-1 -2 3 4 5 6 -3 -7 9 10 11 13 -13 -4
right_child=1 2 8 -5 -6 7 -8 -9 -10 -11 -12 12 -14 -15
leaf_value=-2.3818718915870165e-05 9.6703297249912942e-05 -0.0065812385516862059 0.0071863081306219106 0.00045984615591868506 -8.8932455429809162e-05 -0.004080333818609898 0.002679264221716529 -0.012399856906141276 -0.0002991516969677944 -0.0004878323080957161 -0.0010564478380339487 0.0042522176253524686 0.016022353663786567 -0.0013696312283476195
leaf_weight=14008 7022 15.000000000000002 17 145 63 12.999999999999998 12.999999999999998 23 814 91 35 11.000000000000002 10.999999999999998 18
leaf_count=14008 7022 15 17 145 63 13 13 23 814 91 35 11 11 18
internal_value=0 4.02427e-05 -0.000272181 -0.00125388 -0.00321049 -0.00628327 -0.00228172 -0.00939558 -4.35681e-06 0.00130692 0.00308216 0.00562341 0.0101373 0.00278611
internal_weight=0 8291 1269 272 127 64 28 36 997 183 92 57 22 35
internal_count=22299 8291 1269 272 127 64 28 36 997 183 92 57 22 35
shrinkage=0.1


Tree=705
num_leaves=15
num_cat=0
split_feature=21 1 1 1 12 26 15 21 28 4 34 12 14 17
split_gain=0.00209655 0.0422927 0.155424 0.0727173 0.0917366 0.077512 0.0587889 0.0539166 0.0392115 0.115602 0.0888111 0.112581 0.137099 0.13816
threshold=9.7994750000000028 9.3428500000000003 9.487775000000001 6.8084300000000004 0.00011522950000000003 -8.3114149999999988e-05 -5.5989399999999988e-08 11.340100000000001 0.0051941500000000007 0.064882950000000009 0.038470900000000009 8.7575050000000018e-05 0.00013119700000000002 5.1530400000000007e-08
decision_type=2 2 2 2 2 2 2 2 2 2 2 2 2 2
left_child=-1 3 -3 -2 5 -5 7 -7 9 -4 11 12 -10 -14
right_child=1 2 8 4 -6 6 -8 -9 10 -11 -12 -13 13 -15
leaf_value=-9.3768055869813625e-06 0.00013940649442549017 0.010849526865058579 0.0018485810209760351 0.0017483381527092529 0.00038309273856157238 -0.013409215773156444 -0.0027108922939408911 -0.0055381352205902505 0.0018188963551438065 -0.0051779791277926724 -0.0013576736492622232 -0.0022000734827915124 0.0037213814483645054 0.018343944554882391
leaf_weight=20392 1491 15.999999999999998 61 17 80 13.999999999999998 33 23 32 38 54 22 12.000000000000002 13.999999999999998
leaf_count=20392 1491 16 61 17 80 14 33 23 32 38 54 22 12 14
internal_value=0 0.000100268 0.00131547 -8.22324e-05 -0.00206106 -0.00430855 -0.00577951 -0.00851638 0.000660776 -0.000848482 0.00177582 0.00389094 0.00620132 0.0115951
internal_weight=0 1907 249 1658 167 87 70 37 233 99 134 80 58 26
internal_count=22299 1907 249 1658 167 87 70 37 233 99 134 80 58 26
shrinkage=0.1


Tree=706
num_leaves=15
num_cat=0
split_feature=16 20 0 1 26 9 21 35 13 5 25 7 33 20
split_gain=0.0020909 0.0108074 0.0160329 0.0127873 0.0119575 0.0169275 0.00876972 0.00713725 0.0213271 0.0368023 0.0865211 0.0474037 0.0608365 0.0243652
threshold=4.5816150000000005e-06 10.049750000000001 8.5645450000000007 -0.84187849999999986 -0.0010712649999999998 7.8003300000000009e-06 -0.68222149999999993 -0.00055251249999999986 -2.2745549999999994e-05 1.6637450000000004e-05 0.30212250000000002 2.9745500000000005e-05 1.5446900000000003e-05 6.5510500000000009
decision_type=2 2 2 2 2 2 2 2 2 2 2 2 2 2
left_child=-1 7 4 -4 5 -3 -5 8 9 10 -2 -12 -13 -11
right_child=1 2 3 6 -6 -7 -8 -9 -10 13 11 12 -14 -15
leaf_value=-1.630759830185843e-05 0.010365327963462243 0.00028151131277395915 -0.0051328871491326334 0.00095134777948260299 -7.2686132957243361e-05 -0.0052662084810435779 -0.0028217881452292201 8.7766107517624954e-06 0.00010158824872945616 -8.2971570612725746e-05 -0.0039735643766247311 0.00034878560554181391 0.0076754012419020428 0.003260580607689917
leaf_weight=17372 12.999999999999998 11.000000000000002 11.999999999999998 11 285 10.999999999999998 14 3031 1280 170 12.999999999999998 34 17 25
leaf_count=17372 13 11 12 11 285 11 14 3031 1280 170 13 34 17 25
internal_value=0 5.74986e-05 -0.000483087 -0.00244959 -0.000246082 -0.00249235 -0.00116161 9.8075e-05 0.000272471 0.00107663 0.00292771 0.00141694 0.00279099 0.000345689
internal_weight=0 4927 344 37 307 22 25 4583 1552 272 77 64 51 195
internal_count=22299 4927 344 37 307 22 25 4583 1552 272 77 64 51 195
shrinkage=0.1


Tree=707
num_leaves=15
num_cat=0
split_feature=38 19 7 25 10 10 0 29 0 9 25 10 10 5
split_gain=0.00209007 0.0141139 0.0169788 0.0294743 0.0271111 0.0165586 0.01796 0.0168635 0.0163319 0.0157799 0.0356019 0.0132559 0.0309729 0.016932
threshold=0.18471500000000005 1.8546550000000004e-07 2.6396600000000004e-05 9.792365000000002 1.1583900000000001e-05 1.36479e-05 9.3023450000000008 -0.49118799999999996 8.8772900000000021 5.6542450000000013e-05 60.368000000000002 2.8142500000000004e-05 2.7229700000000005e-05 1.3712350000000003e-05
decision_type=2 2 2 2 2 2 2 2 2 2 2 2 2 2
left_child=-1 -2 3 -3 -5 -4 8 -8 9 11 -11 12 13 -7
right_child=1 2 5 4 -6 6 7 -9 -10 10 -12 -13 -14 -15
leaf_value=-5.9057328754242424e-06 0.00094959750217226855 0.002396507353775881 -0.0025557425045205848 -0.00064874198132505007 -0.0066610717416430518 0.001470314260992847 -0.0050846941250545742 -0.00065136397964894201 0.0043607557518407702 -0.00019575627067954174 0.0070253335320475431 -0.00028490896884535312 0.0059477068192791199 -0.00050833116156041044
leaf_weight=21499 176 10.999999999999998 23 15.000000000000002 14.999999999999998 86 10.999999999999998 39 9.9999999999999982 18.000000000000004 10.999999999999998 287 10.999999999999998 87
leaf_count=21499 176 11 23 15 15 86 11 39 10 18 11 287 11 87
internal_value=0 0.000158709 -6.43619e-05 -0.00203136 -0.00365491 7.39688e-05 0.000181975 -0.0016267 0.000359296 0.000279266 0.00254328 0.000139869 0.000802429 0.000475273
internal_weight=0 800 624 41 30 583 560 50 510 500 29 471 184 173
internal_count=22299 800 624 41 30 583 560 50 510 500 29 471 184 173
shrinkage=0.1


Tree=708
num_leaves=15
num_cat=0
split_feature=16 16 21 26 5 21 23 21 8 21 34 35 36 19
split_gain=0.00216193 0.0107891 0.0461987 0.0713938 0.102462 0.0270127 0.0611451 0.0320891 0.0168563 0.0157432 0.017319 0.0129086 0.0104353 0.027958
threshold=-1.1912999999999997e-06 -1.0039629999999999e-06 4.5487400000000013 7.4267950000000011e-05 1.4649350000000002e-05 0.74609700000000012 -9.4853949999999987 3.7675050000000003 -7.2692199999999986e-06 -6.5036099999999992 0.050858250000000008 -0.00075907999999999998 0.00055087650000000012 8.1708200000000029e-06
decision_type=2 2 2 2 2 2 2 2 2 2 2 2 2 2
left_child=12 2 5 8 -5 9 7 -7 -4 10 -2 -11 13 -1
right_child=1 -3 3 4 -6 6 -8 -9 -10 11 -12 -13 -14 -15
leaf_value=0.00093031610565869809 -0.00046379973375058566 -1.0811922665656519e-05 0.0035869191330857569 -0.013814093886564172 -0.00099996574437962132 -0.0027987903595203529 0.0091797907929867511 0.004422340467572213 -0.0017134462009804946 -0.0037168786372058097 0.0045552963111549624 -0.00061804730340088833 -0.00011792979776257059 5.8236054507663292e-05
leaf_weight=410 22 15815 10.000000000000002 12.000000000000002 12.999999999999998 16.000000000000004 9.9999999999999982 9.9999999999999982 14.999999999999998 20 9.9999999999999982 41 2339 3556
leaf_count=410 22 15815 10 12 13 16 10 10 15 20 10 41 2339 3556
internal_value=0 -1.95498e-05 -0.000791557 -0.00337202 -0.00715075 0.000208624 0.00253446 -2.14323e-05 0.0004067 -0.0006917 0.00110467 -0.00163406 4.95923e-05 0.000148391
internal_weight=0 15994 179 50 25 129 36 26 25 93 32 61 6305 3966
internal_count=22299 15994 179 50 25 129 36 26 25 93 32 61 6305 3966
shrinkage=0.1


Tree=709
num_leaves=15
num_cat=0
split_feature=12 23 20 19 26 37 12 21 7 8 39 32 19 21
split_gain=0.00203225 0.00487496 0.00660547 0.00480237 0.0082818 0.00523358 0.00335765 0.0195053 0.0271664 0.0219171 0.0206062 0.0731766 0.148016 0.252333
threshold=-0.00084507899999999999 -6.2653649999999992 -2.2734949999999996 0.0015695500000000001 0.012205600000000002 2.9127400000000004e-07 -8.085454999999998e-05 -8.3840799999999991 3.9779750000000005e-05 8.6512400000000022e-06 0.00068107450000000011 0.25897100000000006 3.6465450000000008e-06 -5.5189749999999993
decision_type=2 2 2 2 2 2 2 2 2 2 2 2 2 2
left_child=1 3 -3 5 -5 -1 7 8 9 -2 11 -9 13 -13
right_child=6 2 -4 4 -6 -7 -8 10 -10 -11 -12 12 -14 -15
leaf_value=-0.000533499017238196 -0.0001268109590268861 -0.0029378420290803271 -0.00039688284772350206 -7.2432793316338755e-05 0.002296725521591725 -0.0030733214004430923 -1.4828176904360351e-05 0.00013197550075591294 6.402754365415513e-05 -0.0022871978390050294 -0.00029828342263093761 0.021016838673967871 0.00068425103794680963 0.0032113988406192034
leaf_weight=43 78 13.999999999999998 38 903 14.999999999999998 9.9999999999999982 16474 3216 324 118 826 9.9999999999999982 191 39
leaf_count=43 78 14 38 903 15 10 16474 3216 324 118 826 10 191 39
internal_value=0 -0.000137674 -0.00108099 -8.71572e-05 -3.37211e-05 -0.00101271 6.61971e-06 8.02e-05 -0.000498146 -0.00142745 0.000150433 0.000257679 0.0019421 0.00684516
internal_weight=0 1023 52 971 918 53 21276 4802 520 196 4282 3456 240 49
internal_count=22299 1023 52 971 918 53 21276 4802 520 196 4282 3456 240 49
shrinkage=0.1


Tree=710
num_leaves=15
num_cat=0
split_feature=29 7 29 0 9 36 16 11 23 11 17 18 11 21
split_gain=0.00203324 0.0114567 0.020807 0.0336388 0.0309576 0.0973978 0.135553 0.0425513 0.0279318 0.0271044 0.0238864 0.0169626 0.0176364 0.0162727
threshold=-0.020851599999999998 2.9906400000000006e-05 -0.095532949999999991 4.9466800000000006 1.6784550000000002e-05 0.0034334850000000004 6.2123600000000012e-08 2.0989800000000004e-05 -9.6992549999999991 -8.2216199999999974e-05 4.7035700000000006e-07 -3.9615599999999992e-06 1.5774950000000004e-05 10.010650000000002
decision_type=2 2 2 2 2 2 2 2 2 2 2 2 2 2
left_child=1 2 3 9 7 11 -7 -4 -9 -1 -5 -6 -13 -11
right_child=-2 -3 4 10 5 6 -8 8 -10 13 -12 12 -14 -15
leaf_value=-0.0037908331813135496 -1.1843438770912447e-05 -1.223342758314467e-05 0.0010137209387989167 -0.0011022505669021291 0.0024505301378667356 -0.0012097931894822975 0.013820923794992269 -0.0060645209345966573 0.00026850602231346646 0.0011224058364174339 -0.0068011182903622586 0.00066437132889404869 -0.0052747252560220656 -0.001575498973640303
leaf_weight=14.999999999999998 19326 2464 221 19.000000000000004 11.999999999999998 10.000000000000002 14.999999999999998 15.000000000000002 12.999999999999998 130 11.999999999999998 10.000000000000002 9.9999999999999982 27
leaf_count=15 19326 2464 221 19 12 10 15 15 13 130 12 10 10 27
internal_value=0 7.69883e-05 0.000508899 -0.000276081 0.00102965 0.00313191 0.00780864 0.000548414 -0.00312419 0.000270417 -0.00330826 -0.000521787 -0.00230518 0.000658435
internal_weight=0 2973 509 203 306 57 25 249 28 172 31 32 20 157
internal_count=22299 2973 509 203 306 57 25 249 28 172 31 32 20 157
shrinkage=0.1


Tree=711
num_leaves=15
num_cat=0
split_feature=21 1 1 1 12 26 15 3 23 23 3 23 3 28
split_gain=0.00212635 0.0338988 0.125898 0.0567715 0.0718141 0.0606564 0.0444339 0.0453697 0.032371 0.0320568 0.0732584 0.0962247 0.0707011 0.0553274
threshold=9.7994750000000028 9.3428500000000003 9.487775000000001 6.8084300000000004 0.00011522950000000003 -8.3114149999999988e-05 -5.5989399999999988e-08 -7.9422599999999992 -8.8812249999999988 -7.0796749999999991 -7.1065299999999993 -6.6606249999999987 -6.6006299999999998 0.0049085850000000009
decision_type=2 2 2 2 2 2 2 2 2 2 2 2 2 2
left_child=-1 3 -3 -2 5 -5 7 -7 -6 -4 -11 -12 -13 -14
right_child=1 2 9 4 8 6 -8 -9 -10 10 11 12 13 -15
leaf_value=-9.443211306991894e-06 0.00013342486298544966 0.0097697242745198309 -0.00075303027074551218 0.001558617743499139 0.0053896999134766784 -0.011968305933156185 -0.0024328296473179242 -0.0047479940011449489 -0.00045150198441568638 -0.0045138903872986493 0.0094655940925483326 -0.0066506902966648341 -0.00030396081115627153 0.00468295882947536
leaf_weight=20392 1491 15.999999999999998 100 17 10.999999999999998 13.999999999999998 33 23 69 17 17 9.9999999999999982 44 45
leaf_count=20392 1491 16 100 17 11 14 33 23 69 17 17 10 44 45
internal_value=0 0.000100979 0.00118893 -6.2411e-05 -0.00181086 -0.00379939 -0.00510062 -0.00748 0.000351663 0.000599691 0.00161677 0.00251523 0.00132174 0.00221752
internal_weight=0 1907 249 1658 167 87 70 37 80 233 133 116 99 89
internal_count=22299 1907 249 1658 167 87 70 37 80 233 133 116 99 89
shrinkage=0.1


Tree=712
num_leaves=15
num_cat=0
split_feature=18 20 18 23 38 24 11 18 35 38 5 23 3 15
split_gain=0.00211267 0.00917996 0.0525481 0.135768 0.141386 0.0686249 0.0296619 0.0255951 0.0429074 0.0713789 0.0642455 0.0370194 0.0324517 0.0245946
threshold=-3.8501649999999994e-05 2.9593550000000004 -5.7365999999999993e-05 -11.732499999999998 0.0011311700000000001 1.0000000180025095e-35 6.9856950000000016e-05 -5.7365999999999993e-05 0.00064504550000000008 0.0002581690000000001 2.5726150000000004e-05 -13.738999999999999 -11.831149999999999 -2.2687849999999997e-05
decision_type=2 2 2 2 2 2 2 2 2 2 2 2 2 2
left_child=1 7 13 4 -4 -5 -7 -1 9 -9 11 -10 -11 -3
right_child=-2 2 3 5 -6 6 -8 8 10 12 -12 -13 -14 -15
leaf_value=2.0562060626066607e-05 -1.7255015539003071e-05 -0.00039576402259126268 0.0018004663479091088 -0.0032667261162965464 0.018229672140441838 0.0015618373906510254 0.0078252390655688935 -0.001091801587259847 0.0030202543191415699 -0.010859929824558395 0.007851249805058946 -0.0024625270170924654 -0.0035056022616724173 0.00036535678046478178
leaf_weight=3142 16967 636 11.000000000000002 29 9.9999999999999982 31 9.9999999999999982 97 19 12.000000000000002 10.999999999999998 35 11.999999999999998 1277
leaf_count=3142 16967 636 11 29 10 31 10 97 19 12 11 35 12 1277
internal_value=0 5.49073e-05 0.000223997 0.00257183 0.0096239 0.000456204 0.0030895 -4.69126e-05 -0.00118673 -0.00229993 0.000885541 -0.0005334 -0.00718277 0.000112313
internal_weight=0 5332 2004 91 21 70 41 3328 186 121 65 54 24 1913
internal_count=22299 5332 2004 91 21 70 41 3328 186 121 65 54 24 1913
shrinkage=0.1


Tree=713
num_leaves=15
num_cat=0
split_feature=0 31 9 34 23 3 8 23 17 34 21 3 5 34
split_gain=0.00213411 0.0254719 0.018619 0.0124664 0.0135956 0.11774 0.0549385 0.0120397 0.0105605 0.0102835 0.00845337 0.00809506 0.00695386 0.0197663
threshold=11.109350000000001 -0.016734899999999994 1.4369350000000003e-05 0.0030977750000000005 -6.9149849999999988 -5.9630249999999991 4.9759900000000013e-06 -7.1304499999999988 4.1337350000000007e-06 0.14197300000000004 -2.9759999999999995 -6.6325449999999995 8.4746200000000015e-06 0.038470900000000009
decision_type=2 2 2 2 2 2 2 2 2 2 2 2 2 2
left_child=-1 2 -2 -4 7 6 -6 12 10 11 -7 -3 13 -5
right_child=1 9 3 4 5 8 -8 -9 -10 -11 -12 -13 -14 -15
leaf_value=-7.94881297646451e-06 -0.0042618609382770959 0.0024271803108233685 -0.0029528732199276633 -0.0045980446639337707 0.01283497638884 -0.0042265839610869686 0.0023527564201503994 -0.0032778646389488133 0.00066916793689415506 -6.2243000584083204e-05 -0.0010861597245093435 0.00065093342458243033 -0.0001936494784091632 6.256151402619883e-05
leaf_weight=20918 11.999999999999998 27 17 13.999999999999998 10.000000000000002 14.999999999999998 9.9999999999999982 13.999999999999998 15.999999999999998 227 20 516 457 26
leaf_count=20918 12 27 17 14 10 15 10 14 16 227 20 516 457 26
internal_value=0 0.000120401 -0.000361723 -0.000283591 -0.000205622 0.00109101 0.00759387 -0.000385781 -0.00145912 0.000502969 -0.00243206 0.000739255 -0.000304314 -0.00156865
internal_weight=0 1381 611 599 582 71 20 511 51 770 35 543 497 40
internal_count=22299 1381 611 599 582 71 20 511 51 770 35 543 497 40
shrinkage=0.1


Tree=714
num_leaves=15
num_cat=0
split_feature=27 19 19 22 11 31 1 27 23 33 2 11 13 23
split_gain=0.00203521 0.0167561 0.037317 0.0361735 0.123704 0.35923 0.322827 0.169557 0.083202 0.061179 0.0668757 0.0563223 0.0562022 0.0552747
threshold=0.41097200000000006 1.1444150000000001e-07 1.0086700000000001e-07 0.61519100000000015 2.4077300000000004e-05 -0.014066299999999999 4.1224250000000007 0.23943400000000004 -11.732499999999998 -7.157139999999999e-06 1.1369850000000004 1.2332500000000003e-05 3.3186700000000005e-05 -6.3108999999999993
decision_type=2 2 2 2 2 2 2 2 2 2 2 2 2 2
left_child=1 2 3 11 9 6 -6 -8 -7 10 12 -1 -5 -13
right_child=-2 -3 -4 4 5 8 7 -9 -10 -11 -12 13 -14 -15
leaf_value=-0.0001010086455530387 -2.7718701320716502e-05 9.8304378761331502e-05 -0.0034104668250721365 -0.00074480078066437017 -0.0033899290231056514 -0.00635388135576106 0.025781732482405801 0.0092976128992935028 0.0015378752975569419 0.00029255751020724655 -0.0099267784506082545 -0.0019883372134644512 -0.0082385458179156899 0.0034395172994118187
leaf_weight=850 12107 8089 36 111 9.9999999999999982 19 13.000000000000002 11.999999999999998 45 663 9.9999999999999982 303 10.999999999999998 20
leaf_count=850 12107 8089 36 111 10 19 13 12 45 663 10 303 11 20
internal_value=0 3.29268e-05 -0.000218542 -0.00016295 0.000316237 0.00364965 0.0117953 0.0178694 -0.00080499 -9.88667e-05 -0.00206488 -0.000528161 -0.00142047 -0.00165225
internal_weight=0 10192 2103 2067 894 99 35 25 64 795 132 1173 122 323
internal_count=22299 10192 2103 2067 894 99 35 25 64 795 132 1173 122 323
shrinkage=0.1


Tree=715
num_leaves=15
num_cat=0
split_feature=38 19 7 25 15 10 0 2 1 17 16 4 18 22
split_gain=0.00209168 0.0111632 0.0115086 0.0219385 0.0285703 0.0131807 0.0147193 0.0170882 0.0222355 0.0814737 0.0239944 0.140766 0.0247684 0.0237917
threshold=0.18471500000000005 1.8546550000000004e-07 2.6396600000000004e-05 9.792365000000002 -5.4020449999999995e-08 1.36479e-05 9.3023450000000008 -0.73975849999999987 -1.3611349999999998 3.0187000000000004e-06 -1.3472549999999999e-05 -2.0605549999999995 -0.00017200049999999999 2.0696000000000008
decision_type=2 2 2 2 2 2 2 2 2 2 2 2 2 2
left_child=-1 -2 3 -3 -5 -4 7 -7 9 -9 11 13 -12 -10
right_child=1 2 5 4 -6 6 -8 8 10 -11 12 -13 -14 -15
leaf_value=-5.9080016828291792e-06 0.00086214241974444546 0.0021610706780021164 -0.0022719320233749308 -0.0057583819937837479 0.00046922988974704177 -0.00034961285345391243 -0.0014667462179713767 0.010336127712137322 0.0007497006352656546 0.00012620799114099806 -0.0042942254732434562 0.010302415839396417 0.00022728851339339149 -0.0043421440020514034
leaf_weight=21499 176 10.999999999999998 23 17 13.000000000000002 214 50 10.999999999999998 39 27 12.999999999999998 15.999999999999998 178 11.999999999999998
leaf_count=21499 176 11 23 17 13 214 50 11 39 27 13 16 178 12
internal_value=0 0.00015877 -3.96169e-05 -0.00165904 -0.00305975 7.42707e-05 0.000170633 0.00033116 0.00082334 0.00308171 0.000490712 0.00211897 -8.04585e-05 -0.00044838
internal_weight=0 800 624 41 30 583 560 510 296 38 258 67 191 51
internal_count=22299 800 624 41 30 583 560 510 296 38 258 67 191 51
shrinkage=0.1


Tree=716
num_leaves=15
num_cat=0
split_feature=0 31 20 10 20 17 20 37 3 23 34 3 23 22
split_gain=0.00210559 0.020293 0.0203521 0.0143958 0.0145597 0.0247226 0.0140325 0.0126752 0.0106286 0.027669 0.00814453 0.00660626 0.00650606 0.0162612
threshold=11.109350000000001 -0.016734899999999994 13.431500000000002 1.8987800000000005e-05 10.565400000000002 1.1750250000000002e-07 9.8038950000000025 1.4625800000000002e-08 -5.9630249999999991 -7.5188149999999991 0.14197300000000004 -6.6325449999999995 -6.6267649999999989 2.3063800000000003
decision_type=2 2 2 2 2 2 2 2 2 2 2 2 2 2
left_child=-1 2 3 -2 6 -6 8 -7 9 -5 11 -3 -13 -14
right_child=1 10 -4 4 5 7 -8 -9 -10 -11 -12 12 13 -15
leaf_value=-7.8955206135843301e-06 -0.0038396634374900408 0.0021961718924878235 0.0030019140420740262 -0.00051718139559420943 -0.0050583885922712984 0.0010870121097220611 0.0026476354657086845 -0.0026121042530576235 -2.7508386052500963e-05 -0.0051259594969451433 -4.194506087867617e-05 0.00076240584566924802 0.00031661817448091529 -0.0037667259912599221
leaf_weight=20918 11.999999999999998 27 18 99 17 22 17 15.999999999999998 395 14.999999999999998 227 419 86 10.999999999999998
leaf_count=20918 12 27 18 99 17 22 17 16 395 15 227 419 86 11
internal_value=0 0.000119593 -0.000310736 -0.000411289 -0.000340479 -0.00188858 -0.000178605 -0.000470511 -0.000272998 -0.0011236 0.000461063 0.000671344 0.000591557 -0.000146441
internal_weight=0 1381 611 593 581 55 526 38 509 114 770 543 516 97
internal_count=22299 1381 611 593 581 55 526 38 509 114 770 543 516 97
shrinkage=0.1


Tree=717
num_leaves=15
num_cat=0
split_feature=10 22 22 8 22 24 4 20 2 2 29 13 8 23
split_gain=0.00216967 0.0299685 0.154321 0.109951 0.0581046 0.0504438 0.049021 0.0406541 0.252359 0.0541076 0.0938878 0.0352614 0.0284481 0.0384646
threshold=1.2977750000000001e-05 1.4147800000000001 1.4758950000000002 -1.1950199999999998e-05 1.5954800000000002 -0.18833199999999997 0.055429400000000011 -1.0241449999999996 1.6165750000000003 1.5541350000000003 0.0031093400000000004 -2.7523749999999996e-06 -1.1950199999999998e-05 -7.2147949999999996
decision_type=2 2 2 2 2 2 2 2 2 2 2 2 2 2
left_child=1 12 -3 -4 5 -5 -7 9 -9 -6 -11 -12 13 -1
right_child=-2 2 3 4 7 6 -8 8 -10 10 11 -13 -14 -15
leaf_value=-0.0048056379830713611 -8.6285346330995808e-06 0.010457706934175803 0.0088587553799152376 0.00078722722828388218 0.000815794679877406 -0.0020884044235572213 -0.011990023124963046 -0.0023873375579668114 0.015501773375823783 0.0036912632977442912 -0.0073332204745383935 -0.002065198292904016 -5.3476749243330729e-05 0.0011851772494778476
leaf_weight=29 20714 15.999999999999998 14.999999999999998 13.999999999999998 266 10.000000000000002 9.9999999999999982 23 11.999999999999998 19 24 27 1103 17
leaf_count=29 20714 16 15 14 266 10 10 23 12 19 24 27 1103 17
internal_value=0 0.000112764 0.000818651 0.000451449 0.000140067 -0.00381656 -0.00703921 0.000502669 0.00374607 0.000164815 -0.00230891 -0.00454427 -0.000155092 -0.00259164
internal_weight=0 1585 436 420 405 34 20 371 35 336 70 51 1149 46
internal_count=22299 1585 436 420 405 34 20 371 35 336 70 51 1149 46
shrinkage=0.1


Tree=718
num_leaves=15
num_cat=0
split_feature=15 32 10 18 19 0 4 18 25 23 25 8 3 11
split_gain=0.00210441 0.0120828 0.019742 0.0177239 0.0688798 0.0650235 0.0708455 0.0569354 0.0549492 0.0400914 0.0692681 0.0331845 0.0272941 0.0250928
threshold=2.4708200000000003e-08 -0.27852799999999994 8.9851850000000023e-06 -1.4324099999999999e-05 1.1605450000000001e-06 -1.7296249999999997 -0.39397899999999991 -6.9364099999999992e-06 4.0464100000000007 -12.0832 4.7215450000000008 -9.1771399999999983e-06 -15.632649999999998 2.8354900000000005e-05
decision_type=2 2 2 2 2 2 2 2 2 2 2 2 2 2
left_child=1 2 -1 4 -4 8 -7 9 -6 -5 -11 -10 -9 -8
right_child=-2 -3 3 7 5 6 13 12 11 10 -12 -13 -14 -15
leaf_value=-0.0046655510738492015 -3.2623613320713731e-05 6.7329886630140446e-05 0.0072412997068438158 -0.00058424195158295338 0.0090586645329104997 0.0001152060379130225 -0.00098105023615062208 -0.0024089579975614989 0.0052990120369941001 -0.01121588801699025 -0.0010788119899538848 -0.0025008723391996071 -0.00013771224016650776 -0.0071697100457784385
leaf_weight=9.9999999999999982 10480 10329 13.999999999999998 22 13.999999999999998 337 10.000000000000002 56 9.9999999999999982 14.000000000000002 12.999999999999998 12.000000000000002 959 19
leaf_count=10 10480 10329 14 22 14 337 10 56 10 14 13 12 959 19
internal_value=0 2.89276e-05 -0.000237285 -0.000207364 0.000346078 0.000105946 -0.000292925 -0.000423748 0.00416114 -0.00375307 -0.00633507 0.00104453 -0.000263022 -0.00503569
internal_weight=0 11819 1490 1480 416 402 366 1064 36 49 27 22 1015 29
internal_count=22299 11819 1490 1480 416 402 366 1064 36 49 27 22 1015 29
shrinkage=0.1


Tree=719
num_leaves=15
num_cat=0
split_feature=35 12 1 7 17 4 22 15 33 24 33 4 15 20
split_gain=0.00220888 0.0124081 0.0436875 0.0374245 0.0243904 0.0473516 0.16699 0.149464 0.2285 0.180824 0.0631943 0.046667 0.127486 0.189779
threshold=0.0012092200000000002 9.6008300000000017e-06 0.47042300000000004 5.0434150000000009e-05 8.0353450000000009e-08 -0.19847699999999999 1.7780750000000001 2.5858200000000004e-06 0.00010021745000000002 -0.26403149999999992 -2.4512849999999995e-06 0.93067350000000004 1.7408950000000001e-07 0.059550600000000002
decision_type=2 2 2 2 2 2 2 2 2 2 2 2 2 2
left_child=-1 -2 3 -3 -4 6 -6 8 9 -8 11 12 -7 -14
right_child=1 2 4 -5 5 10 7 -9 -10 -11 -12 -13 13 -15
leaf_value=-1.9169860151370305e-05 -8.2470892410851124e-05 0.001410324515826586 -0.00020283563916441845 0.0090402597210777463 0.00021411543790376389 0.00052896245000719374 0.020639796068684924 -0.0015057995027746075 -0.0029598729684948925 0.0038683510199189171 -0.00046960704347515764 -0.0002641780748781601 -0.0010025950969152508 0.0074557573515145739
leaf_weight=16265 3218 18.000000000000004 1093 9.9999999999999982 169 382 18 15.999999999999998 9.9999999999999982 10.000000000000002 723 253 42 72
leaf_count=16265 3218 18 1093 10 169 382 18 16 10 10 723 253 42 72
internal_value=0 5.16735e-05 0.000204968 0.0041353 0.000165495 0.000403009 0.00176096 0.00660201 0.0100158 0.01465 0.000197287 0.000841031 0.00140478 0.00433952
internal_weight=0 6034 2816 28 2788 1695 223 54 38 28 1472 749 496 114
internal_count=22299 6034 2816 28 2788 1695 223 54 38 28 1472 749 496 114
shrinkage=0.1


Tree=720
num_leaves=15
num_cat=0
split_feature=4 31 4 21 9 0 20 3 28 6 29 18 20 23
split_gain=0.0023571 0.00675494 0.0161534 0.0984051 0.0136513 0.0080682 0.0131328 0.0126301 0.0066993 0.00637766 0.00614611 0.00575476 0.0129144 0.00540767
threshold=1.6896300000000002 0.025111600000000005 1.7689400000000002 -3.2927399999999998 8.3290000000000028e-06 -1.6137749999999997 1.0000000180025095e-35 -15.126499999999998 -0.005806239999999999 7.5095950000000003e-07 0.97987900000000006 0.00023698150000000002 7.9978200000000008 -10.632649999999998
decision_type=2 2 2 2 2 2 2 2 2 2 2 2 2 2
left_child=-1 5 3 -3 10 6 7 -2 -9 -5 -4 12 -7 -13
right_child=1 2 4 9 -6 11 -8 8 -10 -11 -12 13 -14 -15
leaf_value=-1.3804422722432303e-05 -0.0033136588723088308 0.010166872098025951 -0.00014603785994599493 0.00028550851488530905 0.00056652996916774342 -0.00020207165266250874 0.00041248136312950051 0.0010178231406825944 -0.00058280581639350189 -0.0031197454357011754 0.0021378558808161567 -0.00043375135516868251 -0.0034802677294732461 7.9165094216095187e-06
leaf_weight=18893 14.999999999999998 10.999999999999998 651 11.000000000000002 558 41 674 32 143 10.999999999999998 11.999999999999998 422 17 808
leaf_count=18893 15 11 651 11 558 41 674 32 143 11 12 422 17 808
internal_value=0 7.65728e-05 0.000261058 0.00244421 0.000202054 -3.09291e-05 0.000205482 -0.00052882 -0.000290119 -0.00141712 -0.0001047 -0.000189516 -0.00116292 -0.000143615
internal_weight=0 3406 1254 33 1221 2152 864 190 175 22 663 1288 58 1230
internal_count=22299 3406 1254 33 1221 2152 864 190 175 22 663 1288 58 1230
shrinkage=0.1


Tree=721
num_leaves=15
num_cat=0
split_feature=14 36 3 30 7 5 34 19 5 15 37 34 23 16
split_gain=0.00217421 0.00932441 0.0136912 0.0302779 0.0438479 0.0450196 0.0394098 0.100672 0.0800017 0.0794266 0.121354 0.0653406 0.035845 0.0659253
threshold=0.00012106850000000002 -8.0606249999999984e-05 -6.4339449999999987 7.503375000000001e-05 3.0012350000000004e-05 1.1795000000000003e-05 0.0073015700000000011 0.00043062950000000009 1.5341650000000002e-05 -1.2628849999999999e-08 6.2250650000000012e-09 0.0053773400000000004 -6.9149849999999988 1.4193900000000001e-07
decision_type=2 2 2 2 2 2 2 2 2 2 2 2 2 2
left_child=1 -1 3 4 -3 -6 7 8 9 11 -11 -5 -8 -14
right_child=-2 2 -4 6 5 -7 12 -9 -10 10 -12 -13 13 -15
leaf_value=-9.952880599890763e-05 -1.6173606089817714e-05 0.0075056431939204546 6.3067439078810959e-05 -0.0012974801571824803 -0.0032998153673751019 0.004261122389127397 0.00038894239292975756 -0.011076775118708611 0.0079281165543943644 -0.0035720266608728294 0.009410572921236357 -0.011769472401250494 0.0014743787451770227 0.0099814804408445285
leaf_weight=2058 17582 14.999999999999998 2071 12.999999999999998 13.999999999999998 18 403 9.9999999999999982 9.9999999999999982 18.000000000000007 11.999999999999998 10.999999999999998 53 10.999999999999998
leaf_count=2058 17582 15 2071 13 14 18 403 10 10 18 12 11 53 11
internal_value=0 6.0285e-05 0.000183977 0.000609833 0.00304441 0.000953212 0.000398326 -0.00174578 -0.000287811 -0.00180928 0.00162101 -0.00609714 0.000738077 0.00293654
internal_weight=0 4717 2659 588 47 32 541 74 64 54 30 24 467 64
internal_count=22299 4717 2659 588 47 32 541 74 64 54 30 24 467 64
shrinkage=0.1


Tree=722
num_leaves=15
num_cat=0
split_feature=37 17 7 14 10 23 33 33 25 17 11 18 20 14
split_gain=0.00216545 0.0128638 0.033954 0.038437 0.0504755 0.0961093 0.0427918 0.04062 0.0260737 0.0210801 0.04897 0.0330876 0.0327674 0.0352081
threshold=-3.9559199999999996e-07 4.8795250000000005e-06 3.6416300000000006e-05 0.006874540000000001 2.8995250000000003e-05 -13.359599999999999 1.8947750000000002e-05 -4.9403999999999993e-06 2.1382100000000004 1.5373600000000002e-07 6.1237350000000008e-05 -1.0896599999999998e-05 -2.9317749999999996 0.0016310700000000003
decision_type=2 2 2 2 2 2 2 2 2 2 2 2 2 2
left_child=1 9 3 4 6 -6 7 -3 -8 -1 11 -11 -12 -14
right_child=-2 2 -4 -5 5 -7 8 -9 -10 10 12 -13 13 -15
leaf_value=0.00017671874782677668 -1.3625728948809857e-05 0.001667618812219492 6.772113461904639e-05 0.00026873558959373943 0.0005623596918303517 0.014426655359566214 0.0093573945574462383 -0.0054240248433779928 0.0021360759856179357 -0.002263913919099044 -0.00021032791202222663 -3.1253568366342591e-05 -0.0087297079485974139 -0.002687680850466413
leaf_weight=1697 18720 42 687 108 10.000000000000002 9.9999999999999982 10.000000000000002 9.9999999999999982 9.9999999999999982 72 28 850 13.999999999999998 31
leaf_count=1697 18720 42 687 108 10 10 10 10 10 72 28 850 14 31
internal_value=0 7.12695e-05 0.000401547 0.00154824 0.00305027 0.00749451 0.00181576 0.000303841 0.00574674 -3.75553e-05 -0.000403006 -0.000205604 -0.00289621 -0.00456742
internal_weight=0 3579 887 200 92 20 72 52 20 2692 995 922 73 45
internal_count=22299 3579 887 200 92 20 72 52 20 2692 995 922 73 45
shrinkage=0.1


Tree=723
num_leaves=15
num_cat=0
split_feature=37 5 8 20 10 22 10 26 20 33 22 7 10 26
split_gain=0.00203772 0.0162865 0.0246615 0.0360378 0.012098 0.0231721 0.0198694 0.0469268 0.0168889 0.0104309 0.00755961 0.00617031 0.0169577 0.0183153
threshold=1.9041600000000001e-05 1.0329650000000002e-05 2.6929250000000006e-06 5.2773900000000014 1.5890450000000003e-05 0.73928000000000005 1.8855100000000005e-05 0.0024349350000000005 -6.6325599999999989 0.0016195950000000004 1.5954800000000002 4.4828350000000003e-05 3.0901750000000013e-05 -0.0063878499999999996
decision_type=2 2 2 2 2 2 2 2 2 2 2 2 2 2
left_child=-1 2 3 10 5 9 7 -6 -7 -3 -2 12 13 -8
right_child=1 4 -4 -5 6 8 11 -9 -10 -11 -12 -13 -14 -15
leaf_value=-5.8915103899585835e-06 0.00049351564093205313 0.0014356314686592669 -0.00018897353279058853 0.0068995289752880736 0.0064818421316643546 -0.00097346882908963214 0.0023294940943632161 -0.0019080428416297463 -0.0059789625096267895 -0.002259630481289192 0.0034129483392462134 0.00024209125385873817 -0.0014700775415378538 -0.00034052231012851581
leaf_weight=21483 34 25 62 14.999999999999998 15.000000000000002 13.000000000000002 33 11.999999999999998 13.999999999999998 10.999999999999998 11.999999999999998 361 93 116
leaf_count=21483 34 25 62 15 15 13 33 12 14 11 12 361 93 116
internal_value=0 0.000155107 0.00121554 0.00264308 -3.31084e-05 -0.00135438 9.90184e-05 0.002753 -0.00356891 0.000306524 0.00125511 -1.98168e-05 -0.000410514 0.000250824
internal_weight=0 816 123 61 693 63 630 27 27 36 46 603 242 149
internal_count=22299 816 123 61 693 63 630 27 27 36 46 603 242 149
shrinkage=0.1


Tree=724
num_leaves=15
num_cat=0
split_feature=4 34 1 13 3 23 26 8 4 24 10 26 20 38
split_gain=0.00200056 0.00711587 0.00814928 0.00664984 0.00468427 0.00433967 0.00420489 0.00391533 0.00379538 0.036083 0.0228537 0.0382882 0.0701319 0.0219756
threshold=-3.1017349999999992 0.0080391900000000016 10.749450000000001 6.0775750000000005e-05 -7.3077349999999992 -6.1690649999999989 0.084359600000000021 2.2903550000000002e-05 -0.0070907799999999988 -0.16671349999999999 8.9851850000000023e-06 0.00027938450000000004 -3.5105649999999997 0.00046317950000000004
decision_type=2 2 2 2 2 2 2 2 2 2 2 2 2 2
left_child=1 2 3 7 6 -5 -3 -1 9 10 11 12 -2 -10
right_child=8 4 -4 5 -6 -7 -8 -9 13 -11 -12 -13 -14 -15
leaf_value=0.0006844290812715861 -0.0010057078620108464 0.0001231565553705703 -0.0027335870939378558 -0.00033784017836531411 0.00057348224489678324 -0.0018232681859184858 -0.0016168137164121227 -0.0007093440797179937 -6.7482258420578246e-05 7.7223118601365561e-05 -0.00040027337815841651 -0.0030678161419928074 0.0086643084278330198 0.00023406735936797203
leaf_weight=104 15 1752 12.999999999999998 310 248 21 13.999999999999998 25 7644 5941 2652 10.999999999999998 15 3534
leaf_count=104 15 1752 13 310 248 21 14 25 7644 5941 2652 11 15 3534
internal_value=0 8.45395e-05 -0.0002645 -0.000194722 0.000166514 -0.000432082 0.000109363 0.000414318 -1.06122e-05 -6.04134e-05 -0.000364052 0.00197885 0.0038293 2.78547e-05
internal_weight=0 2487 473 460 2014 331 1766 129 19812 8634 2693 41 30 11178
internal_count=22299 2487 473 460 2014 331 1766 129 19812 8634 2693 41 30 11178
shrinkage=0.1


Tree=725
num_leaves=15
num_cat=0
split_feature=33 3 24 8 15 7 23 6 3 6 26 12 21 2
split_gain=0.00199636 0.0215115 0.0290216 0.039159 0.0319255 0.0277294 0.0185578 0.018085 0.0285332 0.0263052 0.0248251 0.0175859 0.0174358 0.030233
threshold=4.866550000000001e-05 -15.526149999999999 -0.57342799999999994 -4.3683999999999995e-06 -1.8560199999999996e-05 4.0488250000000007e-05 -15.099999999999998 -8.257774999999999e-07 -6.3788349999999996 -6.4123649999999984e-07 0.00023191500000000002 -0.00030348099999999992 8.0172650000000019 0.30174350000000005
decision_type=2 2 2 2 2 2 2 2 2 2 2 2 2 2
left_child=-1 2 3 6 -4 -5 -2 8 -3 10 -9 -6 -10 -14
right_child=1 7 4 5 11 -7 -8 9 12 -11 -12 -13 13 -15
leaf_value=-8.8207585066198201e-06 0.0058025388174097643 0.0010085155081408933 -0.0076490122316913173 -0.0063505475451661785 0.0010281150622176939 -0.00053040630718896868 0.0010216291528195142 -0.0070656001544557494 -5.8583310955226701e-05 2.4278796371343487e-05 -0.00091003562066409934 -0.0030540458061882568 0.00064477669970633878 -0.0060523239829178366
leaf_weight=20516 10.999999999999998 480 10.999999999999998 10.999999999999998 15.999999999999998 32 31 10.000000000000002 144 960 19 31 13.000000000000002 13.999999999999998
leaf_count=20516 11 480 11 11 16 32 31 10 144 960 19 31 13 14
internal_value=0 0.000101496 -0.00107479 0.000101993 -0.00279939 -0.00201928 0.00227377 0.000204062 0.000613366 -6.5358e-05 -0.00303264 -0.00166437 -0.000495827 -0.00282779
internal_weight=0 1783 143 85 58 43 42 1640 651 989 29 47 171 27
internal_count=22299 1783 143 85 58 43 42 1640 651 989 29 47 171 27
shrinkage=0.1


Tree=726
num_leaves=15
num_cat=0
split_feature=3 27 30 39 19 23 14 23 1 35 33 13 10 23
split_gain=0.00199663 0.0135793 0.0157135 0.0114513 0.0192119 0.0215125 0.0173876 0.0344817 0.0274601 0.0392422 0.0260667 0.052184 0.134774 0.212919
threshold=-6.3643949999999991 28.234150000000003 0.020567500000000006 0.0010716850000000004 9.8201550000000019e-07 -6.332984999999999 0.0017105150000000003 -6.5050549999999996 -10.174899999999999 0.00013592550000000005 -1.2823249999999998e-05 2.7436450000000004e-05 2.7866050000000004e-05 -11.688049999999999
decision_type=2 2 2 2 2 2 2 2 2 2 2 2 2 2
left_child=3 -2 -3 6 5 -5 7 10 9 -9 11 -1 13 -13
right_child=1 2 -4 4 -6 -7 -8 8 -10 -11 -12 12 -14 -15
leaf_value=-0.00013830577289432411 8.3305123705788996e-05 -0.0046580081246793267 -0.0005770189098300674 0.00052639327720819845 3.1594113724980445e-05 0.0030505051862241492 5.6351030141791491e-05 -0.0054052640134209977 0.00068896466234675679 0.001653871811660273 -0.00032092719773004332 0.0018057193603858144 -0.00020613440898679461 0.013884179487213261
leaf_weight=806 5126 9.9999999999999982 167 544 2062 36 7294 18 605 13.999999999999998 5403 54 140 20
leaf_count=806 5126 10 167 544 2062 36 7294 18 605 14 5403 54 140 20
internal_value=0 5.35696e-05 -0.000807583 -1.67145e-05 0.000174611 0.000683062 -5.193e-05 -0.0001638 0.000537964 -0.00231689 -0.000233397 0.000230254 0.00161838 0.00507017
internal_weight=0 5303 177 16996 2642 580 14354 7060 637 32 6423 1020 214 74
internal_count=22299 5303 177 16996 2642 580 14354 7060 637 32 6423 1020 214 74
shrinkage=0.1


Tree=727
num_leaves=15
num_cat=0
split_feature=27 14 3 30 7 23 23 5 23 14 22 21 8 33
split_gain=0.00212472 0.0148807 0.0363874 0.0425431 0.0436793 0.0552328 0.119214 0.159864 0.0979947 0.0868438 0.0838386 0.0575085 0.0506281 0.0538242
threshold=0.42484400000000005 0.0036781400000000003 -12.169249999999998 0.0055809450000000012 6.967515000000001e-05 -13.784899999999999 -12.434149999999997 1.1448250000000002e-05 -10.173099999999998 0.0010420150000000001 -0.34255499999999994 4.4618100000000007 1.3477600000000003e-05 5.2671350000000007e-06
decision_type=2 2 2 2 2 2 2 2 2 2 2 2 2 2
left_child=-1 2 3 4 5 12 7 -7 9 -8 -9 -11 13 -2
right_child=1 -3 -4 -5 -6 6 8 10 -10 11 -12 -13 -14 -15
leaf_value=3.2762982545563149e-05 -0.0037891476668396986 0.00013659193312777625 -2.4726613224080432e-05 0.00051915534657802299 0.0035959898144938053 0.010380807231095704 -0.011565587956171769 -0.0060643562674522391 -0.00045628866368991163 -0.0018397089584420126 0.0054295233704827056 -0.0099128932319581513 -0.0082360898082455003 -0.00014388529752853188
leaf_weight=10486 91 3716 7079 234 20 22 12.999999999999998 15.000000000000002 439 75 10.999999999999998 9.9999999999999982 14.999999999999998 73
leaf_count=10486 91 3716 7079 234 20 22 13 15 439 75 11 10 15 73
internal_value=0 -2.90826e-05 -0.000105116 -0.000664134 -0.00101731 -0.00113808 -0.000667749 0.00410702 -0.00109454 -0.00395367 -0.00120156 -0.0027895 -0.00267518 -0.00216656
internal_weight=0 11813 8097 1018 784 764 585 48 537 98 26 85 179 164
internal_count=22299 11813 8097 1018 784 764 585 48 537 98 26 85 179 164
shrinkage=0.1


Tree=728
num_leaves=15
num_cat=0
split_feature=37 11 10 10 22 29 8 26 21 2 10 36 8 9
split_gain=0.00214501 0.0203363 0.0207266 0.0345953 0.0540628 0.0811629 0.208164 0.174187 0.0489938 0.0925776 0.0301674 0.0869155 0.0789042 0.039363
threshold=-5.9992199999999983e-08 -2.0437249999999995e-05 1.6392600000000003e-05 1.3097650000000002e-05 1.2663300000000002 0.0015691550000000002 -9.0138649999999978e-06 7.4267950000000011e-05 7.8746950000000009 1.7572250000000003 1.7157300000000003e-05 -0.0053170099999999996 1.2719100000000002e-05 -1.1274199999999998e-05
decision_type=2 2 2 2 2 2 2 2 2 2 2 2 2 2
left_child=1 -1 3 4 -3 6 7 -6 -5 -10 11 12 -4 -13
right_child=-2 2 10 8 5 -7 -8 -9 9 -11 -12 13 -14 -15
leaf_value=-0.00017855337108253972 -2.5142823207316737e-05 -0.00045283441899682557 0.0020150531946759045 -0.00052805117040496746 0.022091039785300373 0.0004322748454886007 -0.00087307259561314899 0.0042208927217870949 -0.0014263411012334041 -0.011083246390514362 0.00019079099384153398 0.005183982830494642 0.014042427539825439 -0.00040963017673232411
leaf_weight=2905 13456 362 12.000000000000002 405 10.000000000000002 143 26 11.999999999999998 42 12.999999999999998 4810 14.999999999999998 9.9999999999999982 78
leaf_count=2905 13456 362 12 405 10 143 26 12 42 13 4810 15 10 78
internal_value=0 3.82587e-05 0.000144328 -0.00026762 0.000265372 0.00162658 0.00518461 0.0123437 -0.000908368 -0.00370888 0.00022906 0.00182968 0.00748204 0.000492565
internal_weight=0 8843 5938 1013 553 191 48 22 460 55 4925 115 22 93
internal_count=22299 8843 5938 1013 553 191 48 22 460 55 4925 115 22 93
shrinkage=0.1


Tree=729
num_leaves=15
num_cat=0
split_feature=37 3 13 2 3 16 10 19 37 16 16 1 20 3
split_gain=0.00210646 0.0116119 0.0169225 0.0168673 0.0104684 0.00745994 0.00514193 0.00473539 0.00309604 0.0113421 0.0396975 0.0124922 0.0136961 0.0144504
threshold=0.0003820330000000001 -5.8792649999999993 2.0036550000000004e-05 0.71014700000000019 -13.131549999999999 1.9330750000000001e-05 5.010705000000001e-05 2.9823300000000003e-05 1.9041600000000001e-05 1.5829450000000001e-06 7.022870000000001e-07 3.2705200000000008 -6.6325599999999989 -8.0062849999999983
decision_type=2 2 2 2 2 2 2 2 2 2 2 2 2 2
left_child=8 2 4 5 -2 7 -6 -4 -1 10 -10 12 -11 -14
right_child=1 -3 3 -5 6 -7 -8 -9 9 11 -12 -13 13 -15
leaf_value=-4.4078787972640268e-06 0.0040108525088395587 -0.0026177085633389656 0.00013807020150125024 -0.0041043916577473286 0.0011639486951025902 0.0014963091598474421 -0.0014338921662420036 -0.0029393924190662802 0.00033601427452449421 0.00019680497173050587 0.0067009710831916897 0.00069608404869751003 -0.00095763109767666235 -0.0039678969491354146
leaf_weight=21483 10.999999999999998 20 10.000000000000002 14.999999999999998 32 15.999999999999998 9.9999999999999982 9.9999999999999982 487 55 9.9999999999999982 65 52 23
leaf_count=21483 11 20 10 15 32 16 10 10 487 55 10 65 52 23
internal_value=0 -0.000411012 1.33525e-05 -0.00128702 0.00126466 -0.000113119 0.000545415 -0.00140066 2.29833e-06 0.000210491 0.000464082 -0.00043584 -0.0010018 -0.00188078
internal_weight=0 124 104 51 53 36 42 20 22175 692 497 195 130 75
internal_count=22299 124 104 51 53 36 42 20 22175 692 497 195 130 75
shrinkage=0.1


Tree=730
num_leaves=15
num_cat=0
split_feature=12 32 32 12 9 19 33 20 0 0 19 32 1 4
split_gain=0.00198264 0.0136925 0.026737 0.0347943 0.0380516 0.0238521 0.043967 0.0613384 0.0978012 0.0866172 0.0903949 0.156909 0.0816987 0.0873433
threshold=4.1008050000000008e-05 -0.020873649999999997 -0.0063500599999999994 5.2474650000000011e-05 1.5257600000000001e-05 0.0012740200000000001 1.0863100000000001e-05 6.4716200000000006 6.3146000000000013 5.4646700000000008 1.1444150000000001e-07 -0.047097449999999992 10.462750000000002 -0.31037149999999997
decision_type=2 2 2 2 2 2 2 2 2 2 2 2 2 2
left_child=-1 5 3 4 -3 6 7 8 12 -9 11 -11 13 -2
right_child=1 2 -4 -5 -6 -7 -8 9 -10 10 -12 -13 -14 -15
leaf_value=2.2442745315401497e-05 -0.00036390007138324557 -0.0053311016622914894 -5.6734583162173745e-05 -0.00050238807000004069 -0.00056429772521369157 -0.00020589141528138153 -0.0005236868517271145 -0.0014771767707480478 -0.00094487332639684417 -0.00084138925070874359 0.00042789023405830821 0.016873511662706734 -0.00049319557735560688 0.0022565772439115997
leaf_weight=14235 157 33 3891 567 34 1439 475 271 234 10.000000000000002 73 9.9999999999999982 200 670
leaf_count=14235 157 33 3891 567 34 1439 475 271 234 10 73 10 200 670
internal_value=0 -3.96171e-05 -0.000154855 -0.000757045 -0.00291213 0.000107728 0.000322631 0.000570017 0.000900107 -0.00057351 0.00205975 0.00801606 0.00132048 0.0017591
internal_weight=0 8064 4525 634 67 3539 2100 1625 1261 364 93 20 1027 827
internal_count=22299 8064 4525 634 67 3539 2100 1625 1261 364 93 20 1027 827
shrinkage=0.1


Tree=731
num_leaves=15
num_cat=0
split_feature=18 32 1 1 16 19 4 18 31 18 7 37 19 32
split_gain=0.00204217 0.00849703 0.0217873 0.0175549 0.032898 0.0191813 0.00926987 0.0252536 0.0238711 0.0108606 0.0104047 0.00906171 0.0178085 0.0483114
threshold=-3.8501649999999994e-05 2.7946350000000004 -10.174899999999999 -5.7527549999999996 4.1562800000000001e-05 1.8396200000000002e-05 -2.0605549999999995 -0.00089417599999999989 -1.4479849999999999 -0.00031479449999999998 4.185740000000001e-05 3.3086850000000002e-08 7.5845250000000009e-06 -0.13128899999999996
decision_type=2 2 2 2 2 2 2 2 2 2 2 2 2 2
left_child=1 11 -3 4 -4 -5 -7 -8 -9 -10 -11 12 13 -1
right_child=-2 2 3 5 -6 6 7 8 9 10 -12 -13 -14 -15
leaf_value=-0.0028556639059388548 -1.6964701076957564e-05 -0.0047088348879090825 0.0065579846501350406 -0.0046067670278716836 -0.00022856372862588615 0.00017001817405284586 -0.0057572464172897693 0.003898630391340703 -0.0036793589886898806 0.0021782551048090668 -0.0022785876665941695 0.00025722977969407616 -6.5753565153670694e-05 0.0021502801447296611
leaf_weight=24 16967 11.999999999999998 9.9999999999999982 11.999999999999998 25 92 10.999999999999998 9.9999999999999982 14.999999999999995 10.000000000000005 10.999999999999998 1838 3164 98
leaf_count=24 16967 12 10 12 25 92 11 10 15 10 11 1838 3164 98
internal_value=0 5.39835e-05 -0.000572575 -0.000319334 0.00171045 -0.000760592 -0.000450832 -0.00145291 -0.000423609 -0.00162423 -0.000156282 7.94176e-05 -2.00404e-05 0.0011655
internal_weight=0 5332 208 196 35 161 149 57 46 36 21 5124 3286 122
internal_count=22299 5332 208 196 35 161 149 57 46 36 21 5124 3286 122
shrinkage=0.1


Tree=732
num_leaves=15
num_cat=0
split_feature=20 0 20 22 0 20 22 19 32 25 20 4 4 26
split_gain=0.00213894 0.0132802 0.0318273 0.0581827 0.0690278 0.138913 0.0683855 0.115655 0.140783 0.0778895 0.045227 0.0656074 0.0903942 0.283002
threshold=-1.1402199999999998 7.5518050000000008 7.3616200000000012 0.96963500000000014 8.4447750000000017 7.8672150000000007 -0.66975449999999992 1.7628450000000002e-05 -0.0077238599999999991 0.66376400000000013 8.9514000000000014 0.088728400000000013 0.053110600000000008 -5.7952199999999997e-05
decision_type=2 2 2 2 2 2 2 2 2 2 2 2 2 2
left_child=-1 -2 -3 4 5 -4 -7 8 9 -8 -6 12 -12 -14
right_child=1 2 3 -5 10 6 7 -9 -10 -11 11 -13 13 -15
leaf_value=3.4173362051945241e-05 1.9388934150934512e-05 -0.00052611771942896594 0.013354812719097192 -0.0051518103054197708 -0.0012952641451739596 0.0078146014998977387 0.012631956268759332 -0.0027167052631848492 -0.0042458047888850655 0.0021093454891039681 0.00067386833786369567 -0.0013414624977462076 0.014416621145792306 -0.001848222101714624
leaf_weight=10056 10138 1422 10.999999999999998 19 183 14.999999999999998 17.000000000000004 50 12.999999999999998 11.999999999999998 205 115 20 23
leaf_count=10056 10138 1422 11 19 183 15 17 50 13 12 205 115 20 23
internal_value=0 -2.80689e-05 -0.000256633 0.000304432 0.000460559 0.00265379 0.00155368 0.000532877 0.00440143 0.00827777 -1.34344e-05 0.000632777 0.00154825 0.00571682
internal_weight=0 12243 2105 683 664 118 107 92 42 29 546 363 248 43
internal_count=22299 12243 2105 683 664 118 107 92 42 29 546 363 248 43
shrinkage=0.1


Tree=733
num_leaves=15
num_cat=0
split_feature=9 26 3 17 36 5 35 16 19 20 3 16 1 35
split_gain=0.00257112 0.0247867 0.0423568 0.073001 0.0147539 0.0219271 0.0285017 0.0561694 0.0376843 0.0258097 0.0159374 0.0371773 0.013945 0.013318
threshold=3.6719800000000007e-05 0.046007150000000004 -6.9004699999999994 4.1337350000000007e-06 0.027526950000000005 2.2139150000000003e-05 0.0090203400000000017 9.5067250000000015e-07 0.0025367250000000005 3.1591850000000004 -9.2069399999999977 4.7253100000000003e-05 3.7059600000000006 0.0010504350000000004
decision_type=2 2 2 2 2 2 2 2 2 2 2 2 2 2
left_child=-1 4 3 -3 13 6 7 -6 9 -9 11 -7 -8 -2
right_child=1 2 -4 -5 5 10 12 8 -10 -11 -12 -13 -14 -15
leaf_value=-1.6131527168613987e-05 -1.1030764832202479e-05 0.011204484994099895 -0.0013746692593364666 -0.00060083479853346956 -0.00064901245302314279 0.0073445208370685579 -0.00071785069751943394 -0.004763309145346283 -0.0014153274891820426 -0.011782789317129012 -0.00025957289350950202 4.1001525064727865e-05 0.0023856472450360243 0.00041283951417061713
leaf_weight=18193 2734 11.000000000000002 14.999999999999998 9.9999999999999982 54 9.9999999999999982 74 10.000000000000002 11.999999999999998 10.999999999999998 107 23 18 1017
leaf_count=18193 2734 11 15 10 54 10 74 10 12 11 107 23 18 1017
internal_value=0 7.14761e-05 0.00268392 0.0055829 4.83685e-05 -0.000604513 -0.00133773 -0.00263534 -0.00588569 -0.00844018 0.000332957 0.00225419 -0.000110645 0.000103892
internal_weight=0 4106 36 21 4070 319 179 87 33 21 140 33 92 3751
internal_count=22299 4106 36 21 4070 319 179 87 33 21 140 33 92 3751
shrinkage=0.1


Tree=734
num_leaves=15
num_cat=0
split_feature=3 23 3 14 23 23 37 3 20 19 28 5 2 3
split_gain=0.00255185 0.0151307 0.0268607 0.0707704 0.091074 0.0691635 0.0607185 0.047119 0.02958 0.0246865 0.0351542 0.0209345 0.0208283 0.0202778
threshold=-7.4146649999999985 -6.8361599999999987 -6.7531799999999995 0.00019877000000000002 -6.4198449999999996 -6.6726449999999993 3.9517650000000004e-08 -7.1065299999999993 -1.7617049999999999 0.00022854250000000002 -0.0087035649999999982 1.4079600000000002e-05 -0.87969149999999996 -6.3788349999999996
decision_type=2 2 2 2 2 2 2 2 2 2 2 2 2 2
left_child=-1 -2 3 4 5 6 -3 -7 -5 10 -10 -9 -6 -4
right_child=1 2 13 8 12 7 -8 11 9 -11 -12 -13 -14 -15
leaf_value=-2.6025546620564695e-05 0.00010214576381693865 -0.0052187962410971513 0.0008993284286809381 0.0024038792461898105 0.0022438792997728223 -0.0035683045307031043 0.00403095717668872 -0.014540209136903282 -0.0076028275024145851 0.00084638680069189188 -0.00081018795899581166 -0.008454324892507149 -0.0014553510157727741 -0.00024590639991725242
leaf_weight=14008 6994 20.000000000000004 190 49 23 12.999999999999998 10.999999999999998 10.000000000000002 9.9999999999999982 51 32 12.999999999999998 45 830
leaf_count=14008 6994 20 190 49 23 13 11 10 10 51 32 13 45 830
internal_value=0 4.39713e-05 -0.000269731 -0.001143 -0.00278232 -0.00539898 -0.00193663 -0.00838045 0.000415504 -0.000632135 -0.00242748 -0.0111004 -0.000204141 -3.25783e-05
internal_weight=0 8291 1297 277 135 67 31 36 142 93 42 23 68 1020
internal_count=22299 8291 1297 277 135 67 31 36 142 93 42 23 68 1020
shrinkage=0.1


Tree=735
num_leaves=15
num_cat=0
split_feature=3 23 14 0 20 11 37 20 1 29 12 12 13 33
split_gain=0.00206699 0.0136479 0.0184184 0.0300819 0.0362066 0.0253464 0.0253229 0.024478 0.0307482 0.0228385 0.0374896 0.0488648 0.0444628 0.0360586
threshold=-7.4146649999999985 -7.7439199999999992 0.0071294650000000006 -3.4067449999999995 -1.8193249999999999 1.3361950000000002e-05 -1.2698049999999998e-06 -9.5362249999999982 -8.955524999999998 0.0024135800000000007 -4.7522649999999995e-05 -9.8295499999999987e-05 3.6528400000000008e-05 1.68409e-06
decision_type=2 2 2 2 2 2 2 2 2 2 2 2 2 2
left_child=1 -1 3 6 5 7 -3 -5 -9 -8 11 -11 -13 -12
right_child=-2 2 -4 4 -6 -7 9 8 -10 10 13 12 -14 -15
leaf_value=-8.4745755666902807e-05 3.9574150238243623e-05 0.0046078403644702016 -0.00015839507535635292 0.0010232979310581423 -0.00031906102159700824 0.0010936721513550597 0.0010670454928659574 -0.0063776372023858141 -0.00062632236985144018 0.00039077342466212986 0.0016970070173914287 -0.001960837510009499 -0.0092775145617242042 -0.0013680656950912505
leaf_weight=10107 8291 17 1379 98 1025 424 559 9.9999999999999982 132 43 122 23 12.999999999999998 56
leaf_count=10107 8291 17 1379 98 1025 424 559 10 132 43 122 23 13 56
internal_value=0 -2.3423e-05 0.000135457 0.000296131 5.35889e-05 0.000628839 0.000787913 -0.000192366 -0.00103134 0.000708331 -7.19086e-05 -0.00188486 -0.00460297 0.000732714
internal_weight=0 14008 3901 2522 1689 664 833 240 142 816 257 79 36 178
internal_count=22299 14008 3901 2522 1689 664 833 240 142 816 257 79 36 178
shrinkage=0.1


Tree=736
num_leaves=15
num_cat=0
split_feature=37 0 9 16 3 19 6 35 13 2 19 11 3 1
split_gain=0.002124 0.00983331 0.0212419 0.0155222 0.0112452 0.00441256 0.00429275 0.00292728 0.0168751 0.0268902 0.0570519 0.0208633 0.0156288 0.0112193
threshold=0.0003820330000000001 -4.6645649999999987 -2.1780149999999995e-05 -8.9098399999999984e-06 -6.4853999999999994 0.00017480000000000002 -1.1593049999999998e-06 0.22827000000000003 1.0000000180025095e-35 2.1843350000000004 0.0063594750000000007 6.1237350000000008e-05 -16.772799999999997 7.1214050000000011
decision_type=2 2 2 2 2 2 2 2 2 2 2 2 2 2
left_child=7 6 -3 -4 5 -5 -2 -1 11 12 -11 -9 -10 -14
right_child=1 2 3 4 -6 -7 -8 8 9 10 -12 -13 13 -15
leaf_value=-3.7251175063455068e-06 -0.00058413092629052701 0.0042674439029228364 -0.0035806616696600728 0.0020848667983608764 -0.0019945052846143132 0.00013592851330311253 -0.0027817088097799574 -0.00014951543234928977 0.0043131011028890503 0.0095617027301341268 -0.0008746387352320281 -0.00334024685265752 8.8735424275913481e-06 0.0013804590049977905
leaf_weight=21580 15.999999999999998 10.999999999999998 12.999999999999998 21 17 26 20 188 9.9999999999999982 10.000000000000002 10.999999999999998 23 277 76
leaf_count=21580 16 11 13 21 17 26 20 188 10 10 11 23 277 76
internal_value=0 -0.00041272 0.000156853 -0.000430375 0.000209527 0.00100673 -0.00180501 2.30788e-06 0.000221118 0.000615885 0.00409505 -0.00049732 0.000414611 0.000304172
internal_weight=0 124 88 77 64 47 36 22175 595 384 21 211 363 353
internal_count=22299 124 88 77 64 47 36 22175 595 384 21 211 363 353
shrinkage=0.1


Tree=737
num_leaves=15
num_cat=0
split_feature=16 39 16 37 3 12 20 0 26 13 34 16 13 37
split_gain=0.00208845 0.00748536 0.0156707 0.0151594 0.0132935 0.0105675 0.00965319 0.0106473 0.00959722 0.00864858 0.00765383 0.0101312 0.010183 0.00841344
threshold=3.9767050000000016e-06 0.10001495000000001 1.4384100000000002e-05 0.00014997500000000003 -15.973449999999998 0.00040041850000000005 -7.1329849999999988 2.3619700000000003 0.046007150000000004 0.00011267700000000002 4.6300500000000016 2.0537550000000005e-05 3.755075000000001e-05 2.2124750000000004e-06
decision_type=2 2 2 2 2 2 2 2 2 2 2 2 2 2
left_child=-1 8 3 -3 -4 6 9 -8 10 -6 13 12 -12 -2
right_child=1 2 4 -5 5 -7 7 -9 -10 -11 11 -13 -14 -15
leaf_value=-1.6660687152677169e-05 8.659903319918353e-05 -0.00045401825765637978 -0.0033719807683320886 -0.0045037681961225141 0.0025928549015791051 0.0026483621042643793 -0.0024912835855502636 0.00062303348788286957 0.0031724029005272313 -0.00023697607555530137 0.00091559655071857054 0.0003196084576372344 0.0052363436110317713 -0.00050904179707431465
leaf_weight=17201 4610 19 10.999999999999998 18 18 15.999999999999998 26 19 9.9999999999999982 27 12.000000000000002 52 9.9999999999999982 250
leaf_count=17201 4610 19 11 18 18 16 26 19 10 27 12 52 10 250
internal_value=0 5.62143e-05 -0.000630356 -0.00242417 -6.30829e-05 0.000280293 -0.000140697 -0.00117635 7.76002e-05 0.000894956 7.13278e-05 0.00108068 0.00287957 5.59591e-05
internal_weight=0 5098 154 37 117 106 90 45 4944 45 4934 74 22 4860
internal_count=22299 5098 154 37 117 106 90 45 4944 45 4934 74 22 4860
shrinkage=0.1


Tree=738
num_leaves=15
num_cat=0
split_feature=35 15 15 7 31 7 7 9 20 13 20 4 17 24
split_gain=0.00208894 0.00985705 0.0244409 0.0211342 0.0257157 0.0204529 0.0131176 0.056193 0.088427 0.0272351 0.0687668 0.0230358 0.041034 0.0298718
threshold=-0.0086243949999999982 6.8396650000000006e-07 6.2919150000000003e-07 3.1736250000000006e-05 -0.39495049999999993 2.9259550000000003e-05 3.5305950000000007e-05 2.6242100000000001e-05 8.4191850000000006 2.3140250000000003e-05 0.17695500000000003 0.23939700000000003 3.4267750000000009e-07 0.97722050000000016
decision_type=2 2 2 2 2 2 2 2 2 2 2 2 2 2
left_child=1 2 6 4 5 -3 7 11 9 -9 -11 -1 -13 -14
right_child=-2 3 -4 -5 -6 -7 -8 8 -10 10 -12 12 13 -15
leaf_value=-4.3879903399868779e-05 -1.1396054827487405e-05 -0.0013651467412604359 0.0047000570863019678 -3.7529245121900377e-05 3.0165643961698239e-05 -0.0057836561620933941 -2.8752585778792529e-05 0.00021090485985414723 0.011918788151815534 -0.0011140064382925625 0.010613461241591723 0.0060501648222698887 0.00012905320574813146 0.0059001312777400023
leaf_weight=549 19584 22 11.999999999999998 675 42 20 1212 39 9.9999999999999982 10.000000000000002 9.9999999999999982 17 87 9.9999999999999982
leaf_count=549 19584 22 12 675 42 20 1212 39 10 10 10 17 87 10
internal_value=0 8.22027e-05 0.000200896 -0.000223678 -0.00171952 -0.0034692 0.000173123 0.000507376 0.0032233 0.00174949 0.00474973 0.000224723 0.00151826 0.00072401
internal_weight=0 2715 1956 759 84 42 1944 732 69 59 20 663 114 97
internal_count=22299 2715 1956 759 84 42 1944 732 69 59 20 663 114 97
shrinkage=0.1


Tree=739
num_leaves=15
num_cat=0
split_feature=9 26 17 3 28 36 4 4 29 10 29 4 36 16
split_gain=0.00200178 0.0192535 0.0345587 0.0602613 0.0127857 0.0186139 0.0278515 0.0402623 0.0213858 0.0686625 0.173851 0.197909 0.0856624 0.12152
threshold=3.6719800000000007e-05 0.046007150000000004 1.4942100000000001e-06 -6.8616649999999995 0.026734550000000006 0.035006350000000006 -0.23257249999999996 -1.5067699999999997 -0.013459599999999999 6.5667000000000007e-05 -0.015049649999999999 0.93067350000000004 0.0075823650000000015 5.1028300000000007e-07
decision_type=2 2 2 2 2 2 2 2 2 2 2 2 2 2
left_child=-1 4 3 -3 5 8 7 -7 9 10 12 -12 -2 -14
right_child=1 2 -4 -5 -6 6 -8 -9 -10 -11 11 -13 13 -15
leaf_value=-1.4233866670704574e-05 0.00024809382854176456 0.01004113606600599 -0.001755637383589951 -0.0002058545399146775 -0.00042557728094023192 -0.00041979576876063066 -0.00016986054933029268 -0.0067343289110188683 5.7460261238264293e-05 -0.00069037410937653485 0.015135687916986888 -0.0017189885023981334 -0.00061701478523900721 0.011911511700600386
leaf_weight=18193 229 10.999999999999998 12.999999999999998 12.000000000000002 510 23 119 18 2918 192 19.000000000000004 10.999999999999998 15.000000000000002 15.999999999999998
leaf_count=18193 229 11 13 12 510 23 119 18 2918 192 19 11 15 16
internal_value=0 6.30679e-05 0.00236553 0.00469488 4.27022e-05 0.000109787 -0.000944291 -0.00319203 0.000159391 0.000776473 0.00174763 0.00895564 0.000915933 0.00584932
internal_weight=0 4106 36 23 4070 3560 160 41 3400 482 290 30 260 31
internal_count=22299 4106 36 23 4070 3560 160 41 3400 482 290 30 260 31
shrinkage=0.1


Tree=740
num_leaves=15
num_cat=0
split_feature=37 17 7 14 10 23 33 22 4 3 18 26 2 6
split_gain=0.00214661 0.010728 0.0283511 0.0323491 0.0388656 0.0779198 0.0345476 0.0298386 0.0182743 0.0197114 0.0169419 0.0513358 0.0281042 0.0264826
threshold=-3.9559199999999996e-07 4.8795250000000005e-06 3.6416300000000006e-05 0.006874540000000001 2.8995250000000003e-05 -13.359599999999999 3.6281750000000005e-05 -1.0783749999999996 0.9753535000000001 -16.135999999999999 5.8316350000000001e-06 -0.00030027499999999997 -1.9124199999999998 1.9861950000000006e-06
decision_type=2 2 2 2 2 2 2 2 2 2 2 2 2 2
left_child=1 10 3 4 6 -6 7 -3 -5 -10 -1 12 -12 -14
right_child=-2 2 -4 8 5 -7 -8 -9 9 -11 11 -13 13 -15
leaf_value=7.2189077928208153e-05 -1.3566315556988151e-05 0.0023586388665104386 6.7533238923125105e-05 -0.0036161809821020473 0.00045633905101567492 0.01293991519138217 0.0063816369715753432 -0.0023382911314478237 0.0043082298549751829 0.00012383355251153089 -0.0073822935899862871 -0.0001200314414109899 -0.0035754339568115573 0.0015307976265570948
leaf_weight=2319 18720 38 687 10.999999999999998 10.000000000000002 9.9999999999999982 12.999999999999998 21 12.999999999999998 84 12.999999999999998 309 37 13.999999999999998
leaf_count=2319 18720 38 687 11 10 10 13 21 13 84 13 309 37 14
internal_value=0 7.09588e-05 0.000372575 0.0014204 0.00279835 0.00669813 0.00171508 0.00068685 0.000246583 0.000684629 -2.84223e-05 -0.000653939 -0.00323171 -0.00217372
internal_weight=0 3579 887 200 92 20 72 59 108 97 2692 373 64 51
internal_count=22299 3579 887 200 92 20 72 59 108 97 2692 373 64 51
shrinkage=0.1


Tree=741
num_leaves=15
num_cat=0
split_feature=10 20 1 14 19 21 16 26 33 19 5 20 3 14
split_gain=0.00203929 0.0110261 0.0223552 0.0190056 0.0259928 0.0518423 0.0235527 0.0177437 0.0125046 0.0128586 0.0154845 0.0121787 0.0468492 0.14315
threshold=2.4033300000000002e-05 8.6114600000000028 7.2671150000000013 9.3791550000000008e-05 1.3306300000000002e-06 -1.2629549999999998 -3.4141999999999996e-08 -0.00010819599999999998 5.1210650000000004e-05 4.442305000000001e-06 1.1856450000000002e-05 6.4716200000000006 -7.701249999999999 0.0009480370000000001
decision_type=2 2 2 2 2 2 2 2 2 2 2 2 2 2
left_child=1 11 8 -4 5 -5 -7 -6 -3 -10 -11 -1 13 -13
right_child=-2 2 3 4 7 6 -8 -9 9 10 -12 12 -14 -15
leaf_value=4.9694564293384015e-05 -2.12823435149331e-05 0.00085655992397367883 0.001324873479806181 0.0016524596745148301 0.0034075713168325219 -0.0021160265920722541 -0.0078354802163731734 -0.0007727251779711383 0.0018871827026097372 -0.0034289553073573518 0.00046823838186499318 -0.0038128871083571883 0.00079040190959535751 7.3691849898900168e-05
leaf_weight=5929 14913 517 38 14.999999999999998 11.999999999999998 12.000000000000002 18 66 13.999999999999998 22 19 128 231 365
leaf_count=5929 14913 517 38 15 12 12 18 66 14 22 19 128 231 365
internal_value=0 4.2971e-05 0.000411069 -0.000629863 -0.00123376 -0.00314765 -0.0055477 -0.000129603 0.000704059 -0.000729453 -0.00162294 2.41543e-06 -0.000384764 -0.0009354
internal_weight=0 7386 733 161 123 45 30 78 572 55 41 6653 724 493
internal_count=22299 7386 733 161 123 45 30 78 572 55 41 6653 724 493
shrinkage=0.1


Tree=742
num_leaves=15
num_cat=0
split_feature=10 23 23 5 20 38 3 23 11 38 1 23 33 5
split_gain=0.0020365 0.00611945 0.00841078 0.0104532 0.0269466 0.0134889 0.0325633 0.0314171 0.0262598 0.014359 0.0077052 0.00956962 0.0106262 0.00999493
threshold=6.677965000000001e-05 -17.135599999999997 -9.6992549999999991 3.0515950000000004e-05 7.4969050000000008 0.00082319350000000012 -8.9964949999999977 -10.888949999999998 -5.9570049999999997e-05 0.00097066749999999999 5.0712900000000003 -6.1690649999999989 -3.9620049999999993e-05 8.4633750000000013e-05
decision_type=2 2 2 2 2 2 2 2 2 2 2 2 2 2
left_child=-1 -2 3 4 5 6 7 -3 -7 -10 -4 12 -12 -13
right_child=1 2 10 -5 -6 8 -8 -9 9 -11 11 13 -14 -15
leaf_value=-1.2740034654508197e-05 -0.000439432763272485 -0.00079127803404370088 -0.00016817877515000438 0.00011366035452324364 0.0046158889527706543 0.0057933674892410641 0.00055113297937666329 -0.0075051928544417031 0.0042083698130833602 0.00058173250209387153 0.0032153529114461541 -0.0038551783845336587 0.00031722509587340896 1.337009495781625e-05
leaf_weight=18934 219 23 1268 958 17 11.999999999999998 212 9.9999999999999982 11.999999999999998 121 12.999999999999998 11.000000000000002 472 17
leaf_count=18934 219 23 1268 958 17 12 212 10 12 121 13 11 472 17
internal_value=0 7.16849e-05 0.000107265 0.000294034 0.000718598 0.000548716 9.62811e-05 -0.0028258 0.00131318 0.000908948 -3.5879e-05 0.000291131 0.000394907 -0.00150642
internal_weight=0 3365 3146 1365 407 390 245 33 145 133 1781 513 485 28
internal_count=22299 3365 3146 1365 407 390 245 33 145 133 1781 513 485 28
shrinkage=0.1


Tree=743
num_leaves=15
num_cat=0
split_feature=24 4 17 13 19 8 38 3 12 19 22 22 12 10
split_gain=0.00184511 0.0155855 0.0293257 0.0189364 0.018126 0.0299384 0.117068 0.10713 0.0287735 0.0249592 0.108377 0.0245159 0.0674585 0.0560993
threshold=-0.24914549999999999 -0.021694649999999996 2.242525e-07 6.7684000000000011e-05 0.00089616750000000008 -1.4020149999999998e-05 0.0022961300000000004 -6.6006299999999998 0.00027369900000000002 0.00097954850000000018 -0.24703349999999999 -1.3040749999999999 -0.00032293099999999999 1.0455700000000001e-05
decision_type=2 2 2 2 2 2 2 2 2 2 2 2 2 2
left_child=1 4 3 -3 5 6 7 -1 11 10 -6 12 -7 -14
right_child=-2 2 -4 -5 9 8 -8 -9 -10 -11 -12 -13 13 -15
leaf_value=0.013968817451192684 -1.490937035238595e-05 0.00066327341762719425 -1.2244879373200953e-05 0.0043736583154116359 -0.0027671008227536306 0.00722808727206519 -3.2495032004235287e-05 0.00030627359149300245 -0.0045269435426841175 0.0001432053764116691 0.010719583869319071 -0.00082400011371805729 0.0058965958779056867 -0.00034297863989334477
leaf_weight=12.000000000000002 17577 786 1614 13.999999999999998 13.000000000000002 12.999999999999998 241 10.999999999999998 18 831 10.999999999999998 777 14.999999999999998 366
leaf_count=12 17577 786 1614 14 13 13 241 11 18 831 11 777 15 366
internal_value=0 5.54981e-05 0.00023314 0.000728205 -0.000130303 -0.000345276 0.000618044 0.00743456 -0.000559167 0.000235025 0.0034143 -0.000498176 0.000144375 -9.73261e-05
internal_weight=0 4722 2414 800 2308 1453 264 23 1189 855 24 1171 394 381
internal_count=22299 4722 2414 800 2308 1453 264 23 1189 855 24 1171 394 381
shrinkage=0.1


Tree=744
num_leaves=15
num_cat=0
split_feature=2 22 19 0 22 21 0 22 19 0 21 21 36 12
split_gain=0.00202975 0.0364016 0.0342474 0.046941 0.0477419 0.0393799 0.0268561 0.0200877 0.0176694 0.0252242 0.0132721 0.00867689 0.0140869 0.0153106
threshold=-2.7883099999999996 -2.7756699999999994 0.00010639850000000001 -8.6447399999999988 -2.9214799999999994 -0.92106149999999987 -9.9535099999999979 -2.3659499999999993 3.9135900000000011e-06 -11.792799999999998 -5.0581049999999985 -4.9352399999999994 -0.00056276249999999992 -1.6098999999999996e-05
decision_type=2 2 2 2 2 2 2 2 2 2 2 2 2 2
left_child=1 2 3 5 -5 6 -1 8 9 -3 -11 12 -9 -14
right_child=-2 7 -4 4 -6 -7 -8 11 -10 10 -12 -13 13 -15
leaf_value=0.00039105275735402343 -6.9705607439310588e-06 0.0003057423222344369 -0.00090307522813628356 0.0031744987082978088 0.01209468947723508 -0.0038866737084886568 0.007284137438982723 -0.00056840409190468341 -0.00014811968632986669 -0.0078385533680292701 -0.0028048999141901724 -8.8269725916496786e-05 0.00067588604836862649 0.0032286783173081598
leaf_weight=12.999999999999998 21169 11.999999999999998 26 15.000000000000002 9.9999999999999982 10.999999999999998 10.000000000000002 73 36 10.999999999999998 10.000000000000002 729 146 28
leaf_count=13 21169 12 26 15 10 11 10 73 36 11 10 729 146 28
internal_value=0 0.000130584 0.00212066 0.00345315 0.00674258 0.00103446 0.00338805 -3.12883e-05 -0.00168024 -0.00335164 -0.00544158 8.52871e-05 0.000597526 0.00108668
internal_weight=0 1130 85 59 25 34 23 1045 69 33 21 976 247 174
internal_count=22299 1130 85 59 25 34 23 1045 69 33 21 976 247 174
shrinkage=0.1


Tree=745
num_leaves=15
num_cat=0
split_feature=27 19 33 20 3 37 16 33 3 12 33 29 17 22
split_gain=0.00197283 0.0155545 0.0312591 0.0888374 0.0847045 0.0460188 0.0561208 0.165169 0.196695 0.0442655 0.136803 0.0583604 0.0479896 0.11864
threshold=0.42484400000000005 1.8055650000000004e-08 -3.6110449999999996e-06 7.4047900000000011 -6.3047499999999994 7.8091250000000024e-09 5.244890000000001e-08 -1.2092149999999998e-06 -5.9294499999999992 -7.7806649999999998e-05 -7.6806599999999981e-06 0.0043060250000000007 4.9940450000000007e-08 0.79437250000000015
decision_type=2 2 2 2 2 2 2 2 2 2 2 2 2 2
left_child=1 2 3 9 -5 -4 -7 8 -8 10 11 -1 13 -11
right_child=-2 -3 5 4 -6 6 7 -9 -10 12 -12 -13 -14 -15
leaf_value=-0.0035149023573224736 -2.8023823454292041e-05 7.9575174093634714e-05 -0.00045553698168182408 -0.011187290152884086 -0.00032001890582390702 6.653643538199676e-05 0.01418049494651231 0.00039404144592481317 -0.0027340388111770156 -0.00080228451506367748 -0.010637078006916188 0.0056393086175935778 -0.000938478649505586 0.0063283394912390838
leaf_weight=15.000000000000002 11813 9076 627 16.000000000000004 12.999999999999998 217 22 80 9.9999999999999982 70 17 12.999999999999998 275 35
leaf_count=15 11813 9076 627 16 13 217 22 80 10 70 17 13 275 35
internal_value=0 3.15702e-05 -0.000277432 -0.000960681 -0.00631575 4.70403e-05 0.00100484 0.0028228 0.0088947 -0.000595276 -0.00356095 0.000735267 -0.000244078 0.00157459
internal_weight=0 10486 1410 454 29 956 329 112 32 425 45 28 380 105
internal_count=22299 10486 1410 454 29 956 329 112 32 425 45 28 380 105
shrinkage=0.1


Tree=746
num_leaves=15
num_cat=0
split_feature=3 23 13 30 14 18 0 23 3 26 14 14 13 19
split_gain=0.00213015 0.0111947 0.00748649 0.00725993 0.00786697 0.00619426 0.00608677 0.00606707 0.0229854 0.0233595 0.027247 0.0332016 0.0199396 0.04225
threshold=-5.566959999999999 -16.680599999999995 4.9653150000000004e-05 0.00017977200000000003 0.00014316350000000003 1.3819700000000003e-07 11.602600000000001 -16.786249999999999 -13.799749999999998 -8.3114149999999988e-05 0.0102021 0.0048436200000000007 0.00012463050000000001 0.00055879550000000012
decision_type=2 2 2 2 2 2 2 2 2 2 2 2 2 2
left_child=7 2 -2 4 5 6 -3 8 9 10 11 -1 -11 -14
right_child=1 3 -4 -5 -6 -7 -8 -9 -10 12 -12 -13 13 -15
leaf_value=0.00053311674797441812 -0.00046895853825528475 -0.00021717438211181036 -0.002867784640485687 3.6202043905430686e-05 0.0010525567317308979 0.00080933414180612325 0.00067085480623743632 -2.7955427794200027e-05 0.00035547653783852656 -0.0016930168762141009 -0.00094326910017009471 0.0070246884679923266 0.0054587877158505417 -0.00080270626183067046
leaf_weight=20 184 277 13.999999999999998 1757 153 139 107 18046 1316 163 34 12.999999999999998 12.999999999999998 63
leaf_count=20 184 277 14 1757 153 139 107 18046 1316 163 34 13 13 63
internal_value=0 8.45049e-05 -0.000638573 0.00014335 0.000421838 0.000237326 3.02713e-05 -1.13043e-05 0.000173953 -0.000606719 0.00104346 0.0030904 -0.00106932 0.000268339
internal_weight=0 2631 198 2433 676 523 384 19668 1622 306 67 33 239 76
internal_count=22299 2631 198 2433 676 523 384 19668 1622 306 67 33 239 76
shrinkage=0.1


Tree=747
num_leaves=15
num_cat=0
split_feature=35 15 15 4 26 38 20 21 11 36 21 18 23 0
split_gain=0.00209904 0.00895012 0.0366698 0.05965 0.039037 0.0559178 0.0426299 0.0350694 0.0774605 0.0289916 0.0238481 0.0210911 0.0151335 0.015582
threshold=-0.0086243949999999982 -6.3640099999999988e-07 -1.5669949999999999e-06 0.33837000000000006 -0.00045858999999999993 -0.04896579999999999 0.31681300000000007 -7.0840099999999984 2.5330200000000004e-05 -0.007024574999999999 -12.364599999999998 -0.00012229499999999999 -6.0837299999999983 8.365140000000002
decision_type=2 2 2 2 2 2 2 2 2 2 2 2 2 2
left_child=1 2 10 4 5 -4 9 -8 -9 -6 11 -1 13 -12
right_child=-2 -3 3 -5 6 -7 7 8 -10 -11 12 -13 -14 -15
leaf_value=0.0005764602576024256 -1.1423558473173682e-05 -3.1838071402590271e-05 -0.00027069292962551107 0.0072724717808240608 -0.00026660685588677336 0.010304541084915401 -0.002346127122804961 0.00013544433323356013 0.0091437231782557707 -0.0072420862249352727 5.0256831307813888e-05 0.006685068360529841 0.0038124045450240378 -0.0016995257914719072
leaf_weight=13.000000000000002 19584 1945 10.000000000000002 18 13.000000000000002 9.9999999999999982 17 30 13.999999999999998 10.999999999999998 558 9.9999999999999982 9.9999999999999982 56
leaf_count=13 19584 1945 10 18 13 10 17 30 14 11 558 10 10 56
internal_value=0 8.24011e-05 0.000370966 0.0019537 0.00104191 0.00501692 0.000106617 0.00151133 0.00300171 -0.0034637 7.00751e-05 0.00323238 -4.64841e-05 -0.000109332
internal_weight=0 2715 770 123 105 20 85 61 44 24 647 23 624 614
internal_count=22299 2715 770 123 105 20 85 61 44 24 647 23 624 614
shrinkage=0.1


Tree=748
num_leaves=15
num_cat=0
split_feature=10 14 23 3 14 3 23 5 28 8 39 30 4 4
split_gain=0.00198316 0.00567568 0.0144406 0.0155707 0.0170584 0.0139616 0.0183745 0.0393015 0.0176446 0.0805809 0.195967 0.0859894 0.148207 0.204558
threshold=6.677965000000001e-05 0.0033772100000000007 -16.786249999999999 -6.0725999999999987 0.0029087850000000001 -6.0725999999999987 -6.5050549999999996 3.6260300000000009e-05 -0.022235149999999999 1.2063050000000001e-05 5.0093700000000005e-05 0.0028365400000000007 -0.23257249999999996 -0.42967699999999992
decision_type=2 2 2 2 2 2 2 2 2 2 2 2 2 2
left_child=1 2 3 4 -1 6 8 -8 9 -4 -11 12 13 -12
right_child=-2 -3 5 -5 -6 -7 7 -9 -10 10 11 -13 -14 -15
leaf_value=0.00059875537033652216 7.0739977056736151e-05 6.360700484157399e-05 -0.00030426228887800601 -0.00036946232696555812 -0.0032018954943244661 0.00012358410436469954 0.0003597108418283663 -0.0049791091920009687 -0.00025035800517040068 0.01279446399770677 0.00094314352967418138 -0.00044761971863857536 0.0010207893922510366 0.018683075772311826
leaf_weight=743 3365 6449 834 252 11.999999999999998 2531 913 13.999999999999998 6918 14.999999999999998 13.000000000000002 154 73 12.999999999999998
leaf_count=743 3365 6449 834 252 12 2531 913 14 6918 15 13 154 73 13
internal_value=0 -1.25721e-05 -5.19216e-05 0.00031117 0.000538348 -8.37768e-05 -0.000142437 0.000279081 -0.000191158 0.000180478 0.00168896 0.00103053 0.00332988 0.00981311
internal_weight=0 18934 12485 1007 755 11478 8947 927 8020 1102 268 253 99 26
internal_count=22299 18934 12485 1007 755 11478 8947 927 8020 1102 268 253 99 26
shrinkage=0.1


Tree=749
num_leaves=15
num_cat=0
split_feature=28 19 9 11 31 3 3 14 26 9 23 19 25 9
split_gain=0.00201559 0.0129731 0.0220453 0.0310261 0.0272392 0.0250391 0.0196303 0.048062 0.0250105 0.0198869 0.0134434 0.012638 0.0178742 0.028171
threshold=-0.012304599999999997 2.1753950000000005e-08 -1.8589449999999995e-05 -1.2230999999999997e-05 0.013567950000000002 -6.5086049999999993 -8.2381549999999972 0.00022219550000000004 0.00025713750000000006 -2.5762899999999995e-06 -15.808049999999998 0.0016992400000000001 0.55783300000000013 1.7884200000000004e-05
decision_type=2 2 2 2 2 2 2 2 2 2 2 2 2 2
left_child=1 2 4 -4 -1 10 8 -8 9 -5 -6 -3 13 -13
right_child=-2 11 3 6 5 -7 7 -9 -10 -11 -12 12 -14 -15
leaf_value=0.00077482917754133135 1.5555706067164587e-05 -0.00025282624850201415 0.0055788987674392186 -0.005508535473861478 3.2819504849612716e-05 -0.00011858231555379463 0.00075031770939038662 0.0069589072748875401 0.0018833689022295435 -0.00088910387216334342 -0.0038847845045004992 0.00020423678525715883 0.00021587871323954083 -0.0031853288693194531
leaf_weight=94 17590 2651 12.999999999999998 10.999999999999998 10.999999999999998 60 305 12.999999999999998 29 61 43 61 1316 41
leaf_count=94 17590 2651 13 11 11 60 305 13 29 61 43 61 1316 41
internal_value=0 -5.81068e-05 0.000360408 0.000767655 -0.000485412 -0.00152456 0.00061838 0.00100413 -0.000596154 -0.00159485 -0.00308675 -0.000123934 0.000117036 -0.00115824
internal_weight=0 4709 640 432 208 114 419 318 101 72 54 4069 1418 102
internal_count=22299 4709 640 432 208 114 419 318 101 72 54 4069 1418 102
shrinkage=0.1


Tree=750
num_leaves=15
num_cat=0
split_feature=12 21 19 23 3 12 21 19 21 26 11 23 19 28
split_gain=0.00192266 0.00406088 0.00602176 0.00503629 0.0184151 0.00397835 0.0146233 0.0311437 0.0910791 0.0188546 0.0224702 0.0129985 0.0126404 0.00774425
threshold=-0.00071449049999999987 -4.8300649999999994 0.00012994800000000004 -18.605599999999995 -13.799749999999998 -0.00032293099999999999 -4.9075749999999987 3.2503650000000009e-05 -2.1386499999999997 -0.00048818649999999994 -5.135729999999999e-05 -11.990499999999999 1.7628450000000002e-05 -0.085570549999999981
decision_type=2 2 2 2 2 2 2 2 2 2 2 2 2 2
left_child=1 -1 -3 4 -4 6 9 8 -8 10 -2 -10 -11 -14
right_child=5 2 3 -5 -6 -7 7 -9 11 12 -12 -13 13 -15
leaf_value=-0.00043072289350917184 -0.00080400708441932985 -0.0021502027180618963 0.0048276037874165926 -3.2907061746820339e-05 -0.00017158884604993679 -3.5452203002929822e-06 0.011344924355507829 0.00024048759007316823 -0.0017817020881921058 -0.0035337895467334119 0.0046695868639896315 0.0019977235154678614 -0.0023296676860561339 -0.00036107555685678088
leaf_weight=316 15.000000000000002 12.999999999999998 9.9999999999999982 843 28 19908 9.9999999999999982 846 13.999999999999995 14.999999999999998 14.999999999999998 26.000000000000004 22 218
leaf_count=316 15 13 10 843 28 19908 10 846 14 15 15 26 22 218
internal_value=0 -0.000122587 -1.36708e-05 1.78557e-05 0.00114399 7.03353e-06 0.000185359 0.000383816 0.00280892 -0.000438562 0.00193279 0.000674925 -0.000717545 -0.00054153
internal_weight=0 1210 894 881 38 21089 1181 896 50 285 30 40 255 240
internal_count=22299 1210 894 881 38 21089 1181 896 50 285 30 40 255 240
shrinkage=0.1


Tree=751
num_leaves=15
num_cat=0
split_feature=2 22 19 21 1 32 20 13 0 25 36 19 39 33
split_gain=0.00202174 0.0295917 0.0296904 0.0627037 0.0442665 0.036439 0.0162735 0.0238679 0.0370299 0.0174339 0.0140402 0.0129917 0.00933744 0.0102476
threshold=-2.7883099999999996 -2.7756699999999994 1.8368750000000003e-06 -1.6385599999999998 -1.1369799999999997 0.27938250000000003 -6.9057099999999991 1.5247800000000002e-05 -11.792799999999998 0.25570350000000003 -0.0010186399999999997 1.5129550000000005e-07 1.8038650000000001e-06 -1.8536799999999998e-06
decision_type=2 2 2 2 2 2 2 2 2 2 2 2 2 2
left_child=1 2 3 -1 -5 -4 7 8 -3 -10 -11 -9 13 -8
right_child=-2 6 5 4 -6 -7 12 11 9 10 -12 -13 -14 -15
leaf_value=0.0087491203159061112 -6.9567999300494087e-06 0.00023970455734123445 -0.0015409757961275649 -0.0027035670405408992 0.0058858112152665835 0.005104962211440911 -0.00033186986339369827 0.0035837785340845588 -0.0081102592265233399 -0.0061364959552884105 -0.0013599554944448752 -0.00031412275700674051 -1.0925256503969469e-05 0.0013906401614158059
leaf_weight=15.999999999999998 21169 29 33 14.999999999999998 10.000000000000002 10.999999999999998 51 9.9999999999999982 9.9999999999999982 9.9999999999999982 16.000000000000004 59 753 107
leaf_count=16 21169 29 33 15 10 11 51 10 10 10 16 59 753 107
internal_value=0 0.000130326 0.00192462 0.00386074 0.000732184 0.000120509 -1.56215e-05 -0.00104456 -0.00241962 -0.00456186 -0.00319709 0.00025079 0.000135726 0.00083464
internal_weight=0 1130 85 41 25 44 1045 134 65 36 26 69 911 158
internal_count=22299 1130 85 41 25 44 1045 134 65 36 26 69 911 158
shrinkage=0.1


Tree=752
num_leaves=15
num_cat=0
split_feature=14 37 15 34 18 8 7 21 37 6 6 13 9 23
split_gain=0.00186151 0.0114153 0.0143196 0.0263261 0.075353 0.106068 0.017858 0.0177655 0.0171229 0.0304289 0.0387401 0.0155567 0.0219838 0.0240047
threshold=0.00022219550000000004 -8.543829999999999e-08 -4.3067749999999999e-08 0.011264350000000001 -5.1694099999999984e-07 -9.6943399999999974e-06 2.4114500000000004e-05 3.1700450000000004 -1.0182999999999999e-07 2.0348850000000004e-06 -3.6880899999999996e-06 2.0036550000000004e-05 5.3797050000000004e-05 -10.976349999999998
decision_type=2 2 2 2 2 2 2 2 2 2 2 2 2 2
left_child=1 2 3 4 5 -1 -4 -6 11 10 -10 -5 13 -13
right_child=-2 -3 6 8 7 -7 -8 -9 9 -11 -12 12 -14 -15
leaf_value=0.011032809693521509 -1.9397385905210572e-05 -5.2390469003441476e-05 0.0013151894501860109 0.00045717537408175823 0.0015467636089179788 -0.0014312453250485387 -5.2849072033174769e-05 -0.0025853524483911892 0.0010318387513204167 -0.00086889145604800437 0.0094593875017017093 -0.00011272126791515835 0.00058718996725722473 -0.0042916872361924369
leaf_weight=18.000000000000004 15371 4462 102 666 23 10.999999999999998 1479 19 11.999999999999998 15.999999999999998 10.000000000000002 27 55 28
leaf_count=18 15371 4462 102 666 23 11 1479 19 12 16 10 27 55 28
internal_value=0 4.30366e-05 0.000215703 0.000537783 0.00238452 0.00630506 3.54115e-05 -0.000322527 0.000376704 0.00244931 0.00486254 0.000275211 -0.000826502 -0.00224019
internal_weight=0 6928 2466 885 71 29 1581 42 814 38 22 776 110 55
internal_count=22299 6928 2466 885 71 29 1581 42 814 38 22 776 110 55
shrinkage=0.1


Tree=753
num_leaves=15
num_cat=0
split_feature=37 15 12 6 13 14 15 12 37 5 2 4 7 16
split_gain=0.00182683 0.00852816 0.0125503 0.0111244 0.00663433 0.00974282 0.00611838 0.00464893 0.00309647 0.0117158 0.0222971 0.0264276 0.00969198 0.0146442
threshold=0.0003820330000000001 5.088270000000001e-08 -7.6041099999999993e-05 1.8907750000000003e-07 -4.3259849999999987e-06 0.00025358600000000003 -4.5466599999999991e-08 4.7254350000000009e-05 1.9041600000000001e-05 1.0215050000000001e-05 -0.40582999999999997 -0.19053199999999998 2.6075500000000005e-05 -2.4959749999999996e-08
decision_type=2 2 2 2 2 2 2 2 2 2 2 2 2 2
left_child=8 4 -3 -4 5 -2 7 -6 -1 10 -10 -12 13 -11
right_child=1 2 3 -5 6 -7 -8 -9 9 12 11 -13 -14 -15
leaf_value=-4.5663193578719743e-06 -0.00046331766992807377 0.00043921803728499942 -0.0047879914620092929 -0.0008015138367357265 -9.4896961342204702e-05 0.0038494464221664453 0.0012713999956544928 -0.002377972733229399 -0.00033772606901558383 -0.0048517326032742848 0.0065385271016006859 0.0013485558193860926 0.00012452064160259124 8.8611722458153966e-05
leaf_weight=21483 10.000000000000002 21 14.000000000000002 13.999999999999998 22 10.999999999999998 17 14.999999999999998 49 10.000000000000002 12.999999999999998 40 565 14.999999999999998
leaf_count=21483 10 21 14 14 22 11 17 15 49 10 13 40 565 15
internal_value=0 -0.00038276 -0.00140877 -0.00279475 0.000287563 0.00179575 -0.000298954 -0.00102047 2.14035e-06 0.000210348 0.00119995 0.00262157 3.92644e-05 -0.00188753
internal_weight=0 124 49 28 75 21 54 37 22175 692 102 53 590 25
internal_count=22299 124 49 28 75 21 54 37 22175 692 102 53 590 25
shrinkage=0.1


Tree=754
num_leaves=15
num_cat=0
split_feature=27 14 3 36 36 23 4 0 23 9 21 37 23 18
split_gain=0.00190471 0.0142265 0.0315711 0.0380293 0.0427287 0.0639379 0.063263 0.0593036 0.127772 0.0564677 0.0524502 0.0507836 0.0402353 0.0449343
threshold=0.42484400000000005 0.0036781400000000003 -12.169249999999998 0.024700700000000003 0.0043086450000000007 -13.784899999999999 -0.26123949999999996 0.29726450000000004 -12.154599999999999 3.2804250000000004e-05 -4.5105099999999991 1.9926000000000003e-07 -16.491149999999998 1.2608950000000002e-05
decision_type=2 2 2 2 2 2 2 2 2 2 2 2 2 2
left_child=-1 2 3 4 -2 9 10 8 -8 12 -7 -9 -6 -14
right_child=1 -3 -4 -5 5 6 7 11 -10 -11 -12 -13 13 -15
leaf_value=3.102034144797557e-05 -0.00050182168648328716 0.00013445592656911623 -2.6998569265583662e-05 0.00077214817575600692 -0.002763792164623738 -0.0097554974114665589 0.012709957361221314 -0.00056632218919204253 0.00021333670243620873 0.0013635086826980114 -0.0014197131968103349 -0.0082819585296833378 -0.0058895358372302265 -0.014033958651125431
leaf_weight=10486 656 3716 7079 164 19.999999999999996 13.000000000000002 9.9999999999999982 38 45 11.999999999999998 18 10.999999999999998 21.000000000000007 9.9999999999999982
leaf_count=10486 656 3716 7079 164 20 13 10 38 45 12 18 11 21 10
internal_value=0 -2.75357e-05 -0.000101879 -0.000622588 -0.00089043 -0.00217794 -0.000950358 0.000231519 0.00248545 -0.00480847 -0.00491536 -0.0022984 -0.0062607 -0.00851677
internal_weight=0 11813 8097 1018 854 198 135 104 55 63 31 49 51 31
internal_count=22299 11813 8097 1018 854 198 135 104 55 63 31 49 51 31
shrinkage=0.1


Tree=755
num_leaves=15
num_cat=0
split_feature=33 19 3 3 33 3 23 23 5 22 7 10 26 5
split_gain=0.00182336 0.0294666 0.0220821 0.0481728 0.0448389 0.063532 0.0502715 0.0377549 0.024283 0.0210531 0.0268997 0.0312677 0.0247809 0.0192909
threshold=5.0840600000000008e-06 5.2381950000000008e-07 -5.9423249999999994 -8.7743599999999997 2.8403000000000002e-05 -14.883399999999998 -8.0189849999999989 -9.021824999999998 1.05375e-05 2.5736250000000003 3.2189500000000007e-05 4.1103500000000004e-05 5.7979000000000009e-05 8.8061300000000007e-06
decision_type=2 2 2 2 2 2 2 2 2 2 2 2 2 2
left_child=-1 2 3 4 5 -2 8 -5 -7 10 12 -12 -10 -3
right_child=1 13 -4 7 -6 6 -8 -9 9 -11 11 -13 -14 -15
leaf_value=-1.8684581997491025e-05 0.002306473353834008 -0.00084441913727370749 -0.00018398192200251503 0.0015650358689140249 0.0009980575356739285 -0.00072354657575488099 0.0029269445994445547 -0.00032125386999475519 -0.0089261490168670802 -3.3256461999068662e-05 -0.0011248132343544572 -0.0052559882568727649 -0.0030762508763083527 -2.5277951817705821e-05
leaf_weight=15627 50 306 444 541 211 80 22 132 15.000000000000002 21 53 28 13.999999999999998 4755
leaf_count=15627 50 306 444 541 211 80 22 132 15 21 53 28 14 4755
internal_value=0 4.37626e-05 0.000416246 0.000644611 -0.0001053 -0.000927944 -0.00162203 0.00119507 -0.00209633 -0.00293466 -0.00348857 -0.00255287 -0.00610206 -7.48052e-05
internal_weight=0 6672 1611 1167 494 283 233 673 211 131 110 81 29 5061
internal_count=22299 6672 1611 1167 494 283 233 673 211 131 110 81 29 5061
shrinkage=0.1


Tree=756
num_leaves=15
num_cat=0
split_feature=9 26 7 29 31 5 29 31 19 0 24 3 20 3
split_gain=0.00188546 0.0153306 0.0290774 0.0115813 0.0458674 0.0536012 0.0787526 0.0891901 0.0649719 0.0575006 0.0332073 0.037911 0.0318207 0.0704405
threshold=3.6719800000000007e-05 0.046007150000000004 6.8999500000000016e-05 -0.0026661599999999995 -0.046675499999999988 1.4841400000000002e-05 -0.0031722149999999995 -0.029535649999999997 3.6380250000000006e-08 8.4447750000000017 -0.13513099999999997 -6.8774499999999987 4.5594050000000008 -7.9709549999999991
decision_type=2 2 2 2 2 2 2 2 2 2 2 2 2 2
left_child=-1 3 -3 4 12 6 7 8 -6 -8 11 -7 -2 -14
right_child=1 2 -4 -5 5 10 9 -9 -10 -11 -12 -13 13 -15
leaf_value=-1.3814127639165593e-05 -0.00047761267375169786 0.005120297324131517 -0.00057252293366840789 0.00018844272990997275 -0.0087236913355688266 -0.0083111521195281604 -0.0045302560739219171 -0.012164286923195634 -0.0009214766567802636 0.0051361060613999143 -0.00010209211059266314 -8.8023741475560442e-06 0.0015813608941749294 -0.00028898593078957379
leaf_weight=18193 554 17 19 2335 14.999999999999998 11.000000000000002 10.000000000000002 13.999999999999998 37 15.999999999999998 242 10.999999999999998 349 476
leaf_count=18193 554 17 19 2335 15 11 10 14 37 16 242 11 349 476
internal_value=0 6.12081e-05 0.00211575 4.30352e-05 -0.000152657 -0.00116461 -0.00324321 -0.00507955 -0.00317212 0.00141827 -0.000440249 -0.00415998 0.000108586 0.000502227
internal_weight=0 4106 36 4070 1735 356 92 66 52 26 264 22 1379 825
internal_count=22299 4106 36 4070 1735 356 92 66 52 26 264 22 1379 825
shrinkage=0.1


Tree=757
num_leaves=15
num_cat=0
split_feature=27 19 38 2 21 1 34 3 3 1 37 36 9 34
split_gain=0.00193257 0.0130702 0.0275456 0.0480055 0.0918737 0.148311 0.0711979 0.115389 0.0916232 0.0847861 0.0833131 0.0619289 0.0499235 0.0605493
threshold=0.42484400000000005 1.8055650000000004e-08 -4.166879999999999e-05 1.0101150000000001 7.1056500000000016 10.462750000000002 0.049232450000000004 -12.923849999999998 -6.4339449999999987 5.274020000000001 -2.8905149999999998e-08 -0.00065894149999999986 4.1576950000000002e-05 0.0044708300000000012
decision_type=2 2 2 2 2 2 2 2 2 2 2 2 2 2
left_child=1 2 3 6 -5 -6 8 -8 9 11 -11 -1 13 -13
right_child=-2 -3 -4 4 5 -7 7 -9 -10 10 -12 12 -14 -15
leaf_value=-0.0080988455344648928 -2.773637172323267e-05 7.5251051993754003e-05 0.00013899123425655508 -0.00056158666187911877 0.015141596983779558 0.0002396006226156126 0.011266549900174143 4.267205005333281e-05 -4.152322748095252e-05 -0.0008463380773636427 -0.011589340652738299 0.0058824928604405032 -0.0075045826612040404 -0.0018039503290686603
leaf_weight=17 11813 9076 791 80 11.000000000000002 17 9.9999999999999982 109 168 10.999999999999998 21 10.999999999999998 13.999999999999998 150
leaf_count=17 11813 9076 791 80 11 17 10 109 168 11 21 11 14 150
internal_value=0 3.12464e-05 -0.000252006 -0.000751649 0.00116392 0.00609396 -0.00115651 0.000985855 -0.00180687 -0.00313087 -0.00789643 -0.00233661 -0.00177685 -0.00127879
internal_weight=0 10486 1410 619 108 28 511 119 392 224 32 192 175 161
internal_count=22299 10486 1410 619 108 28 511 119 392 224 32 192 175 161
shrinkage=0.1


Tree=758
num_leaves=15
num_cat=0
split_feature=12 28 14 23 3 5 32 23 3 14 23 36 32 36
split_gain=0.00191548 0.0124153 0.0252619 0.0924809 0.0773951 0.0592124 0.0811473 0.0569431 0.0647146 0.0658851 0.0570118 0.0548461 0.109548 0.0710308
threshold=4.1008050000000008e-05 0.0027353000000000004 0.00070241750000000016 -12.295749999999998 -5.9294499999999992 9.2199400000000024e-06 -0.025361699999999997 -10.089149999999998 -10.915599999999998 0.004937775000000001 -17.204649999999997 0.00028524350000000003 -0.020499799999999995 0.00079568000000000011
decision_type=2 2 2 2 2 2 2 2 2 2 2 2 2 2
left_child=-1 2 3 -2 5 -5 -7 8 9 10 -4 12 -12 -13
right_child=1 -3 7 4 -6 6 -8 -9 -10 -11 11 13 -14 -15
leaf_value=2.2059323005750124e-05 0.00080319439853852198 0.00010411789519959579 0.0013262825236827333 0.0032373376477223175 0.0003404530953799116 -0.0091582849023065394 -0.0014767897724612335 0.00038103527322103456 0.00035129761081759717 -0.00032644027192487986 0.0076680345460772518 -0.0095320651688697664 -0.0023454411122000867 -0.0032262224502751218
leaf_weight=14235 418 3462 38 26 338 13.999999999999998 778 1798 516 425 11.999999999999998 22 122 95
leaf_count=14235 418 3462 38 26 338 14 778 1798 516 425 12 22 122 95
internal_value=0 -3.89403e-05 -0.00014656 -0.000471524 -0.000932452 -0.00145842 -0.00161257 2.23608e-05 -0.000501945 -0.00111857 -0.00228348 -0.00282998 -0.00144871 -0.00441194
internal_weight=0 8064 4602 1574 1156 818 792 3028 1230 714 289 251 134 117
internal_count=22299 8064 4602 1574 1156 818 792 3028 1230 714 289 251 134 117
shrinkage=0.1


Tree=759
num_leaves=15
num_cat=0
split_feature=7 21 1 3 10 27 9 10 11 38 13 33 37 31
split_gain=0.00219778 0.0141467 0.0642239 0.0176837 0.0203218 0.0133401 0.0567674 0.107574 0.0656758 0.0614927 0.0119519 0.0584039 0.0475534 0.0288206
threshold=3.3177900000000013e-05 -14.205299999999998 -9.9732449999999968 -11.892099999999997 2.2841800000000005e-05 0.13415900000000003 2.1463650000000002e-05 1.9522450000000001e-05 -2.0437249999999995e-05 4.2024250000000007e-05 -4.3587799999999996e-05 4.2176850000000009e-06 -1.640245e-06 0.091055600000000014
decision_type=2 2 2 2 2 2 2 2 2 2 2 2 2 2
left_child=1 2 -1 -4 -5 6 7 -3 -9 -8 11 -7 -13 -14
right_child=-2 5 3 4 -6 10 9 8 -10 -11 -12 12 13 -15
leaf_value=0.0084791799541562799 -1.9032570950118689e-05 -0.00017185804793067898 0.0030141130060656 -0.0021841094452611288 0.0026413870858959855 0.00065873867285951417 0.0026192328776232891 0.0031189081220266714 0.013816340559754859 -0.0079985202833389238 4.149571257253438e-05 0.0032794830249622468 -0.0058666304864517941 -0.001228368695869687
leaf_weight=10.999999999999998 16306 45 15.999999999999998 32 11.999999999999998 107 10.000000000000002 12.000000000000002 10.999999999999998 11.999999999999998 5657 9.9999999999999982 37 21
leaf_count=11 16306 45 16 32 12 107 10 12 11 12 5657 10 37 21
internal_value=0 5.17846e-05 0.00145496 0.000167183 -0.000868065 3.49617e-05 0.00124315 0.00267166 0.00823507 -0.00317227 1.63169e-05 -0.000797607 -0.00308921 -0.00418726
internal_weight=0 5993 71 60 44 5922 90 68 23 22 5832 175 68 58
internal_count=22299 5993 71 60 44 5922 90 68 23 22 5832 175 68 58
shrinkage=0.1


Tree=760
num_leaves=15
num_cat=0
split_feature=13 33 33 34 7 4 34 18 5 0 31 33 5 3
split_gain=0.00197397 0.0523675 0.0625999 0.0941758 0.106435 0.0458236 0.0408153 0.0939334 0.127483 0.162422 0.130648 0.0660531 0.168021 0.202937
threshold=-1.6986749999999998e-05 -1.2724099999999997e-07 5.0840600000000008e-06 0.024686550000000005 3.4892550000000009e-05 0.13641700000000004 0.064522300000000019 -1.7326649999999998e-05 2.0134900000000006e-05 6.2336900000000011 0.080014650000000007 7.6094200000000009e-06 1.6396850000000005e-05 -9.265604999999999
decision_type=2 2 2 2 2 2 2 2 2 2 2 2 2 2
left_child=1 -1 3 -3 5 -5 7 -4 9 10 11 -9 -13 -14
right_child=-2 2 6 4 -6 -7 -8 8 -10 -11 -12 12 13 -15
leaf_value=0.00041811804977936757 -1.4003670078696138e-05 -0.00044936262639059345 -0.0016938649618262473 -0.0056800872154001668 -0.0021205698268451051 -0.014543194137513638 -0.00024946569753603928 -0.00079378786512260919 -0.00025754709001050594 0.014672060095024511 0.013922844135668128 0.00089473911095410601 0.02181292433291673 0.0016665962780825793
leaf_weight=2050 18255 543 97 14.000000000000002 129 9.9999999999999982 922 49 137 12.999999999999998 9.9999999999999982 50 10.000000000000002 9.9999999999999982
leaf_count=2050 18255 543 97 14 129 10 922 49 137 13 10 50 10 10
internal_value=0 6.32139e-05 -0.000301657 -0.00106683 -0.00325821 -0.00937305 0.000108633 0.000986737 0.0019187 0.00401832 0.00294469 0.00202216 0.00399332 0.0117398
internal_weight=0 4044 1994 696 153 24 1298 376 279 142 129 119 70 20
internal_count=22299 4044 1994 696 153 24 1298 376 279 142 129 119 70 20
shrinkage=0.1


Tree=761
num_leaves=15
num_cat=0
split_feature=11 25 9 37 39 29 31 15 21 28 20 37 36 20
split_gain=0.00211243 0.00222966 0.00222429 0.0137657 0.014668 0.0132821 0.0417077 0.0116635 0.0095996 0.0105956 0.00899032 0.00883806 0.00775072 0.00769913
threshold=0.00105597 2.7097750000000005 6.7214600000000012e-05 2.3417550000000004e-08 7.1810450000000008e-07 -0.0094299549999999985 -0.076423899999999989 3.1181850000000006e-07 -0.92106149999999987 -0.012841499999999997 11.486400000000001 1.7515050000000001e-08 0.00037448450000000002 2.6375650000000004
decision_type=2 2 2 2 2 2 2 2 2 2 2 2 2 2
left_child=2 -2 -1 5 -5 7 -7 12 9 -9 11 -8 -4 -6
right_child=1 -3 3 4 13 6 10 8 -10 -11 -12 -13 -14 -15
leaf_value=-3.5117903333063248e-06 -0.00033212296821574647 0.00026684515568807624 0.00070984389331507766 -0.0035869807363129581 0.00022309017610806924 0.0058252811536658559 0.00036991021041205864 -0.0011439843211943901 -0.00037331925070082598 -0.0051306444557364253 0.0031921492714900527 0.0032326008045029915 -0.0021455633110070431 -0.00057715731686342777
leaf_weight=20658 341 76 70 12.999999999999998 237 14.999999999999998 551 15.000000000000002 33 11.999999999999998 11.999999999999998 10.999999999999998 10.999999999999998 244
leaf_count=20658 341 76 70 13 237 15 551 15 33 12 12 11 11 244
internal_value=0 -0.000222959 4.24886e-06 0.000135229 -0.000272439 0.000411103 0.000619803 -0.000460703 -0.00151745 -0.00291583 0.000483772 0.000425942 0.000322073 -0.000182857
internal_weight=0 417 21882 1224 494 730 589 141 60 27 574 562 81 481
internal_count=22299 417 21882 1224 494 730 589 141 60 27 574 562 81 481
shrinkage=0.1


Tree=762
num_leaves=15
num_cat=0
split_feature=7 8 23 22 22 34 34 1 32 8 20 29 32 15
split_gain=0.00195329 0.0133261 0.0295435 0.0570084 0.16244 0.038595 0.0475882 0.0453089 0.0199198 0.018504 0.0462633 0.0139495 0.0125305 0.0640213
threshold=3.3177900000000013e-05 1.5006450000000001e-05 -8.0189849999999989 -1.6134299999999999 -2.1806549999999993 0.019476150000000005 0.021950800000000003 -11.201449999999999 0.09842285000000002 1.4432350000000003e-05 -1.5805649999999998 0.023974500000000006 -0.16262299999999996 -9.7363449999999978e-09
decision_type=2 2 2 2 2 2 2 2 2 2 2 2 2 2
left_child=1 9 5 4 -4 7 -7 -3 -8 12 -11 -10 13 -1
right_child=-2 2 3 -5 -6 6 8 -9 11 10 -12 -13 -14 -15
leaf_value=-0.0010937886398710178 -1.7942758780297998e-05 0.00024082230714460209 -0.0015768818049268286 0.00078042183552996347 0.016033126916736366 0.0072470330225769437 0.0009562031182638825 -0.0088732498418539769 -0.0024771213519695291 0.002571181675884872 -0.0062097887725879753 0.0015789206880568105 9.5180468949984537e-05 0.0005519049542619921
leaf_weight=492 16306 12.000000000000002 11.000000000000002 62 9.9999999999999982 9.9999999999999982 94 9.9999999999999982 37 10.000000000000002 14.999999999999998 10.999999999999998 4764 455
leaf_count=492 16306 12 11 62 10 10 94 10 37 10 15 11 4764 455
internal_value=0 4.88194e-05 0.000753296 0.00230568 0.00680884 1.27898e-05 0.000579395 -0.00390194 0.000109843 1.72555e-05 -0.0026974 -0.00154761 2.91389e-05 -0.000303091
internal_weight=0 5993 257 83 21 174 152 22 142 5736 25 48 5711 947
internal_count=22299 5993 257 83 21 174 152 22 142 5736 25 48 5711 947
shrinkage=0.1


Tree=763
num_leaves=15
num_cat=0
split_feature=15 37 12 28 17 28 5 15 0 34 17 24 4 25
split_gain=0.00198944 0.0129338 0.0260504 0.0210062 0.0579897 0.080825 0.14856 0.0949051 0.124059 0.0811836 0.0608909 0.0513034 0.067481 0.041234
threshold=2.9158450000000003e-08 3.847765000000001e-08 -3.0261949999999996e-05 -0.005806239999999999 6.7056350000000014e-08 -0.0076100799999999991 1.4403400000000002e-05 -6.5567699999999979e-08 -3.7243749999999998 0.26707350000000007 5.1530400000000007e-08 0.25594300000000009 -0.061004349999999992 42.475300000000004
decision_type=2 2 2 2 2 2 2 2 2 2 2 2 2 2
left_child=1 -1 3 4 10 7 -7 -6 -9 -10 11 13 -13 -3
right_child=-2 2 -4 -5 5 6 -8 8 9 -11 -12 12 -14 -15
leaf_value=0.00010377986168009774 -3.2238666306258972e-05 -0.0020529850036645689 -0.00028670130653427251 -6.2826552080492566e-05 0.00041332541133029727 0.014440748876390545 4.8855129716685044e-05 -0.0010977822049365689 0.016737694276327431 0.0042883203842211523 -0.0074244667990849573 0.00030240965995919679 0.0099686017679050578 0.0044143082531677051
leaf_weight=7805 10300 95 2833 842 299 13.000000000000002 15.999999999999998 14.999999999999998 11.000000000000002 9.9999999999999982 12.999999999999998 26 9.9999999999999982 10.999999999999998
leaf_count=7805 10300 95 2833 842 299 13 16 15 11 10 13 26 10 11
internal_value=0 2.76738e-05 -0.000113959 0.000245614 0.000746014 0.00143579 0.00650039 0.000997359 0.00584809 0.0108094 -0.000873842 -0.000274137 0.00298746 -0.00138185
internal_weight=0 11999 4194 1361 519 364 29 335 36 21 155 142 36 106
internal_count=22299 11999 4194 1361 519 364 29 335 36 21 155 142 36 106
shrinkage=0.1


Tree=764
num_leaves=15
num_cat=0
split_feature=33 19 3 14 33 13 23 20 23 4 13 35 13 21
split_gain=0.00218185 0.0257761 0.0194912 0.0419546 0.0309744 0.0521828 0.0428872 0.0247205 0.0220421 0.0202531 0.0197454 0.0191376 0.0474611 0.0256065
threshold=5.0840600000000008e-06 5.2381950000000008e-07 -6.0725999999999987 0.00029046550000000007 2.8403000000000002e-05 6.4694650000000006e-05 -8.0189849999999989 -6.6962749999999991 -9.0515149999999966 0.084340650000000003 6.8656200000000014e-06 -0.00026799349999999996 1.9127050000000002e-05 -2.1386499999999997
decision_type=2 2 2 2 2 2 2 2 2 2 2 2 2 2
left_child=-1 2 3 8 5 6 7 -5 -2 10 -9 12 -12 -14
right_child=1 -3 -4 4 -6 -7 -8 9 -10 -11 11 -13 13 -15
leaf_value=-2.0439036960383507e-05 0.0014794454591674458 -6.3022823401702745e-05 -0.00011999696575849537 0.0014030803942163899 0.00082181997065293086 0.0027848442085087301 0.0025329346571547483 -1.5471195284691123e-06 -4.7328811291290317e-05 -0.0009401000685483954 -0.0094139602559153001 -0.0019518617627163155 -0.00034547356986685808 -0.0056877366650630451
leaf_weight=15627 493 5061 503 22 224 36 26 18 117 81 15.999999999999998 39 19 17
leaf_count=15627 493 5061 503 22 224 36 26 18 117 81 16 39 19 17
internal_value=0 4.78718e-05 0.00039625 0.000630612 -5.04243e-05 -0.0007635 -0.00130022 -0.00177033 0.00118661 -0.00213778 -0.00302779 -0.00362639 -0.00488229 -0.00286821
internal_weight=0 6672 1611 1108 498 274 238 212 610 190 109 91 52 36
internal_count=22299 6672 1611 1108 498 274 238 212 610 190 109 91 52 36
shrinkage=0.1


Tree=765
num_leaves=15
num_cat=0
split_feature=13 22 1 7 22 18 17 0 22 33 22 1 3 12
split_gain=0.00193177 0.0440418 0.0877445 0.0859013 0.0848778 0.0385652 0.067259 0.0327606 0.0933749 0.0235926 0.0514193 0.157848 0.0775269 0.132672
threshold=-1.6986749999999998e-05 2.6208450000000005 4.4127500000000008 4.924475000000001e-05 3.0357900000000004 -2.6498299999999996e-06 1.1159400000000002e-06 -5.6776899999999992 2.8593400000000004 -1.2724099999999997e-07 1.856025 3.3901000000000008 -6.3282549999999995 0.00011129550000000002
decision_type=2 2 2 2 2 2 2 2 2 2 2 2 2 2
left_child=1 9 7 4 5 -4 -7 8 -3 -1 -11 -12 13 -13
right_child=-2 2 3 -5 -6 6 -8 -9 -10 10 11 12 -14 -15
leaf_value=0.00038427298899511997 -1.3853180537978133e-05 0.0078859374496257958 -0.0049357283896265119 -0.00090628302613781253 0.001264297114685178 -0.0059305265313014371 -0.017262059043754229 -0.00048257775835853893 -0.002613314626796637 -0.00045943281748468093 -0.0010640994135546597 0.00670167522314985 -0.0010867102054304425 0.00135324194652181
leaf_weight=2036 18255 18 12.999999999999998 55 9.9999999999999982 10.000000000000002 10.999999999999998 155 15.999999999999998 1239 239 76 47 119
leaf_count=2036 18255 18 13 55 10 10 11 155 16 1239 239 76 47 119
internal_value=0 6.25346e-05 -0.00112924 -0.00354096 -0.0068343 -0.00921625 -0.0118661 0.000134044 0.00294511 0.000153917 -0.000118761 0.000758769 0.00255904 0.00343776
internal_weight=0 4044 288 99 44 34 21 189 34 3756 1720 481 242 195
internal_count=22299 4044 288 99 44 34 21 189 34 3756 1720 481 242 195
shrinkage=0.1


Tree=766
num_leaves=15
num_cat=0
split_feature=33 6 19 36 11 20 15 20 25 28 11 21 34 13
split_gain=0.00213939 0.0213687 0.0161229 0.0178603 0.0507935 0.10206 0.0613206 0.0438147 0.0399003 0.0374764 0.166498 0.232731 0.247297 0.279799
threshold=5.0840600000000008e-06 -1.9964199999999993e-06 1.8546550000000004e-07 0.0015212650000000002 2.4077300000000004e-05 3.7729450000000004 3.938350000000001e-08 1.6096350000000001 1.5537750000000001 0.0027353000000000004 2.4077300000000004e-05 5.542580000000001 0.082037000000000013 3.2114050000000008e-05
decision_type=2 2 2 2 2 2 2 2 2 2 2 2 2 2
left_child=2 -2 3 9 -5 7 -7 8 -6 -1 -11 12 13 -12
right_child=1 -3 -4 4 5 6 -8 -9 -10 10 11 -13 -14 -15
leaf_value=-0.00036027885193260721 0.00033018943580040444 -6.585314162717427e-05 3.4489878769052251e-05 -0.00031103400673078592 -0.0043612263122728718 -0.003392423553304979 -0.012454753981104918 0.0048368107294663792 0.00079631192740635024 -0.00010383967731905962 0.0056603006856596992 -0.00030020697204371805 -0.00055021572015469982 0.022578924981986777
leaf_weight=1835 1908 4764 12111 613 30 16.000000000000004 13.999999999999998 11.999999999999998 30 838 23 67 21 17
leaf_count=1835 1908 4764 12111 613 30 16 14 12 30 838 23 67 21 17
internal_value=0 4.74036e-05 -2.02391e-05 -0.000208755 -0.000654846 -0.00272109 -0.00762151 -0.000679246 -0.00178246 -9.48836e-05 0.000409257 0.00376844 0.00823728 0.0128507
internal_weight=0 6672 15627 3516 715 102 30 72 60 2801 966 128 61 40
internal_count=22299 6672 15627 3516 715 102 30 72 60 2801 966 128 61 40
shrinkage=0.1


Tree=767
num_leaves=15
num_cat=0
split_feature=21 1 21 1 13 33 19 1 34 19 25 8 13 19
split_gain=0.00217224 0.0234872 0.054644 0.0489121 0.0518294 0.0719335 0.0920082 0.108266 0.146996 0.0913793 0.0682858 0.0489759 0.0489297 0.0589904
threshold=4.2795900000000016 9.9917400000000018 10.261200000000001 4.4728450000000004 2.0573500000000002e-05 -5.098104999999999e-06 2.5573700000000003e-06 5.1389850000000008 0.018572000000000002 7.5917050000000013e-08 0.48352500000000004 -5.918979999999999e-06 4.1568450000000003e-05 0.00022437500000000005
decision_type=2 2 2 2 2 2 2 2 2 2 2 2 2 2
left_child=-1 3 -3 11 -5 6 7 -6 -9 10 -10 -2 -8 -14
right_child=1 2 -4 4 5 -7 12 8 9 -11 -12 -13 13 -15
leaf_value=2.0407033668916386e-05 -0.00093569630067354397 -0.001408134357662278 0.00070038715972220835 0.00096899858073015211 0.013185512223704296 -0.00074832313358635645 -0.0048726596259879643 0.011825964075978846 0.002087808392388979 0.0049985197611162081 -0.0066769804735668003 -2.4341201343665999e-05 0.0050568329534144141 -0.00035598252366180535
leaf_weight=15621 702 355 188 925 10.999999999999998 568 19 13.999999999999998 15.999999999999998 26 20 3685 24 125
leaf_count=15621 702 355 188 925 11 568 19 14 16 26 20 3685 24 125
internal_value=0 -4.77356e-05 -0.000678112 8.05813e-06 0.000455373 -0.000121909 0.0012734 0.003913 0.00257093 0.000481078 -0.00278152 -0.000170175 -9.35378e-05 0.00051588
internal_weight=0 6678 543 6135 1748 823 255 87 76 62 36 4387 168 149
internal_count=22299 6678 543 6135 1748 823 255 87 76 62 36 4387 168 149
shrinkage=0.1


Tree=768
num_leaves=15
num_cat=0
split_feature=10 24 3 20 0 15 32 33 3 19 29 7 21 0
split_gain=0.002075 0.00814933 0.0154733 0.0141182 0.0228124 0.0154261 0.0125325 0.0107586 0.0231602 0.0348634 0.0102748 0.0452122 0.0462935 0.0115291
threshold=4.9137750000000006e-05 -0.3633134999999999 -16.417249999999999 9.2292700000000014 4.3549000000000015 2.9158450000000003e-08 0.49853700000000006 0.0016195950000000004 -7.2760499999999988 0.0018939200000000001 -0.025585199999999995 5.252850000000001e-05 -3.0339349999999996 10.807000000000002
decision_type=2 2 2 2 2 2 2 2 2 2 2 2 2 2
left_child=-1 2 6 7 -5 -6 -2 -4 9 -9 11 12 -3 -13
right_child=1 10 3 4 5 -7 -8 8 -10 -11 -12 13 -14 -15
leaf_value=-1.818332249135809e-05 -0.00088565896181130974 0.0079355528003361552 -0.00013389275242292517 0.00014423248197626659 -0.0056568040745332837 -0.0013306594727670446 -0.0051700137153437194 0.0080279337335377905 -0.00095091548670704162 0.00073324018158018591 5.5260783803813855e-05 0.00048786063127305895 0.00099131793394917627 -0.00095550881556140561
leaf_weight=16453 18.000000000000004 15.999999999999998 660 39 15.999999999999998 17 10.999999999999998 10.000000000000002 24 19 4607 318 24 67
leaf_count=16453 18 16 660 39 16 17 11 10 24 19 4607 318 24 67
internal_value=0 5.11752e-05 -0.00024238 -0.00015858 -0.00149313 -0.00342818 -0.00251076 -2.38153e-05 0.00134696 0.00324865 9.86621e-05 0.000569132 0.00376901 0.000236677
internal_weight=0 5846 814 785 72 33 29 713 53 29 5032 425 40 385
internal_count=22299 5846 814 785 72 33 29 713 53 29 5032 425 40 385
shrinkage=0.1


Tree=769
num_leaves=15
num_cat=0
split_feature=10 22 22 5 29 29 29 25 28 22 1 29 37 35
split_gain=0.00200196 0.0218125 0.10834 0.080741 0.12785 0.0458661 0.0472967 0.0328111 0.0949257 0.0389183 0.024062 0.0636871 0.0245226 0.050218
threshold=1.2977750000000001e-05 1.4147800000000001 1.4758950000000002 1.2121400000000002e-05 0.0038494350000000004 -0.00027055849999999996 -0.0011890299999999998 0.24611400000000003 0.0037951050000000004 1.7055750000000003 4.3387400000000005 0.0031093400000000004 1.4416700000000003e-06 0.0024982850000000007
decision_type=2 2 2 2 2 2 2 2 2 2 2 2 2 2
left_child=1 -1 -3 5 -5 6 -4 8 -7 -9 -11 -12 13 -13
right_child=-2 2 3 4 -6 7 -8 9 -10 10 11 12 -14 -15
leaf_value=-0.00012020007151781288 -8.2883437689316976e-06 0.0087869118899106986 -0.00069978911813129395 0.014664063844829793 -0.00037577917403093758 0.00051479533373841404 -0.0093668704814626833 -0.0053883663112563752 0.0084416460271717775 0.00080581938437286518 0.0062910317932255572 -0.0018019761684966292 0.0018220821699987237 -0.0094654944166541119
leaf_weight=1149 20714 15.999999999999998 17.000000000000004 10.000000000000002 12.999999999999998 94 9.9999999999999982 13.999999999999998 18 152 9.9999999999999982 59 12.999999999999998 9.9999999999999982
leaf_count=1149 20714 16 17 10 13 94 10 14 18 152 10 59 13 10
internal_value=0 0.000108318 0.000710538 0.000402867 0.00616328 6.91399e-05 -0.00390982 0.000359496 0.00178875 -0.000260956 3.32393e-05 -0.0012432 -0.00216201 -0.00291263
internal_weight=0 1585 436 420 23 397 27 370 112 258 244 92 82 69
internal_count=22299 1585 436 420 23 397 27 370 112 258 244 92 82 69
shrinkage=0.1


Tree=770
num_leaves=15
num_cat=0
split_feature=37 19 12 10 16 10 7 0 13 37 5 2 20 20
split_gain=0.00199081 0.00797823 0.0129989 0.0098079 0.00702378 0.00569414 0.00520201 0.0041712 0.00314715 0.00228673 0.00943565 0.0204812 0.0380166 0.0119489
threshold=0.0003820330000000001 0.052501400000000011 0.00024559750000000008 2.3440800000000004e-05 1.5605150000000004e-05 1.9775750000000001e-05 5.8880900000000007e-05 -4.4451199999999993 1.4788400000000001e-05 1.9041600000000001e-05 9.9203700000000004e-06 -0.17804499999999998 5.2773900000000014 -10.745749999999997
decision_type=2 2 2 2 2 2 2 2 2 2 2 2 2 2
left_child=9 2 3 5 6 -2 7 8 -5 -1 11 -11 13 -13
right_child=1 -3 -4 4 -6 -7 -8 -9 -10 10 -12 12 -14 -15
leaf_value=-3.5290879095770241e-06 0.00019571056781227092 0.0020509634176657226 -0.0041028034046757967 -0.00060891520639415851 0.0015540788322687151 0.0032029730826616289 -0.0027959655758048245 2.7511096933657029e-05 -0.0031177611369639638 -0.00027355473436301161 3.656482350076355e-05 0.003771168319508435 0.0081183504732325676 -0.00026540837372356849
leaf_weight=21483 17.000000000000004 11.999999999999998 9.9999999999999982 9.9999999999999947 9.9999999999999982 9.9999999999999982 17 28.000000000000007 9.9999999999999982 49 600 10.999999999999995 9.9999999999999982 22.000000000000004
leaf_count=21483 17 12 10 10 10 10 17 28 10 49 600 11 10 22
internal_value=0 -0.00039957 -0.000662128 -0.000324807 -0.000913161 0.00130951 -0.00129274 -0.000760343 -0.00186334 2.23435e-06 0.000181159 0.00112417 0.00271692 0.00108012
internal_weight=0 124 112 102 75 27 65 48 20 22175 692 92 43 33
internal_count=22299 124 112 102 75 27 65 48 20 22175 692 92 43 33
shrinkage=0.1


Tree=771
num_leaves=15
num_cat=0
split_feature=0 20 31 23 17 23 3 3 23 17 32 8 21 29
split_gain=0.00200871 0.0143385 0.0167931 0.0131867 0.0608024 0.0142456 0.0140372 0.0106632 0.0278683 0.00777462 0.00724087 0.0101845 0.00665394 0.00647519
threshold=11.109350000000001 13.431500000000002 -0.016734899999999994 -6.7185449999999998 1.4183350000000001e-07 -6.8832049999999994 -5.6534899999999988 -5.9630249999999991 -7.5188149999999991 4.1337350000000007e-06 -0.040839899999999991 6.9398900000000006e-07 -1.51006 0.0053044000000000008
decision_type=2 2 2 2 2 2 2 2 2 2 2 2 2 2
left_child=-1 2 3 5 -5 7 -6 8 10 -8 -2 12 -12 -4
right_child=1 -3 13 4 6 -7 9 -9 -10 -11 11 -13 -14 -15
leaf_value=-7.7117514777377772e-06 0.00052264745216234587 0.0029207411092809507 0.00070299753660689674 -0.0064113366748451408 0.0036635975167155265 0.0032472596950052926 -0.0021022739690071085 1.6142915408152799e-05 -0.0056267875401924058 0.00096895375345411598 0.0010980699051287956 -0.0024127664695911604 -0.0015820851403987035 0.00012100636327533276
leaf_weight=20918 40 18 353 19 9.9999999999999982 11.999999999999998 17 395 11.999999999999998 15.999999999999998 22 34 15.999999999999998 417
leaf_count=20918 40 18 353 19 10 12 17 395 12 16 22 34 16 417
internal_value=0 0.00011681 7.97807e-05 -0.000320197 -0.00170024 -0.000159062 0.000381409 -0.000237821 -0.00104682 -0.000613194 -0.000556107 -0.00115542 -3.04164e-05 0.000387815
internal_weight=0 1381 1363 593 62 531 43 519 124 33 112 72 38 770
internal_count=22299 1381 1363 593 62 531 43 519 124 33 112 72 38 770
shrinkage=0.1


Tree=772
num_leaves=15
num_cat=0
split_feature=18 20 4 23 32 4 21 22 12 23 24 29 23 24
split_gain=0.00198971 0.00771539 0.0587834 0.154848 0.145162 0.0258519 0.0441914 0.0379325 0.0423315 0.0421555 0.0335882 0.0217344 0.0595066 0.0198367
threshold=-3.8501649999999994e-05 2.9593550000000004 -0.41304449999999998 -12.562849999999999 -0.026047149999999998 -0.36919499999999994 2.3514850000000003 2.1780800000000005 0.00019895350000000001 -8.7865549999999981 -0.26403149999999992 0.0075160400000000007 -12.491699999999998 0.12841850000000002
decision_type=2 2 2 2 2 2 2 2 2 2 2 2 2 2
left_child=1 5 -3 4 -4 -1 11 8 10 13 -8 12 -7 -9
right_child=-2 2 3 -5 -6 6 7 9 -10 -11 -12 -13 -14 -15
leaf_value=2.871291500129585e-05 -1.6745358569804074e-05 5.9303180108262829e-05 0.0017167624842841175 0.00067606996210057158 0.017271095304749906 -0.0064523411945750318 -0.0073243485001677827 -0.010604581950853266 0.0041526606927315395 -0.00065912831968699512 -0.00083459402627215299 0.0018941385216647987 0.00088518499285869664 -0.0048546918396217137
leaf_weight=3137 16967 1863 12.000000000000002 117 11.999999999999998 14.999999999999998 10.999999999999998 12.000000000000002 11.999999999999998 12.999999999999998 29 45 42 11.999999999999998
leaf_count=3137 16967 1863 12 117 12 15 11 12 12 13 29 45 42 12
internal_value=0 5.32855e-05 0.000208302 0.00217698 0.00949393 -4.00594e-05 -0.00116958 -0.00279797 -0.00105652 -0.0052454 -0.00261928 0.000251264 -0.00104574 -0.00772964
internal_weight=0 5332 2004 141 24 3328 191 89 52 37 40 102 57 24
internal_count=22299 5332 2004 141 24 3328 191 89 52 37 40 102 57 24
shrinkage=0.1


Tree=773
num_leaves=15
num_cat=0
split_feature=33 19 14 14 25 3 20 25 19 3 26 4 13 15
split_gain=0.0020353 0.0184791 0.0180874 0.0211393 0.035044 0.0341773 0.0285667 0.0182332 0.0169737 0.0226441 0.0289472 0.0731145 0.0310812 0.0292288
threshold=5.0840600000000008e-06 4.7226850000000004e-07 0.004937775000000001 0.00037720150000000008 0.81365550000000009 -6.0725999999999987 -6.6962749999999991 0.97929350000000015 3.5549150000000012e-05 -6.9915399999999996 -0.0009214449999999999 -0.31037149999999997 -9.9195999999999973e-06 1.4013550000000004e-07
decision_type=2 2 2 2 2 2 2 2 2 2 2 2 2 2
left_child=-1 2 3 5 6 7 -5 -2 9 10 11 -3 -12 -13
right_child=1 8 -4 4 -6 -7 -8 -9 -10 -11 12 13 -14 -15
leaf_value=-1.9740654544390359e-05 0.0015248095796099616 0.0072837191199262939 0.0030699892349124033 0.0023223659454379231 0.00063423039955428327 -0.00011144582157998451 -0.0016625116754507949 0.00047713230334963362 3.6591994989110196e-05 0.0002062312376056568 -0.0065840422350447632 0.0016527847459656183 -0.00095204433295204081 -0.0046038641012273729
leaf_weight=15627 323 14.999999999999998 24 20 191 495 179 342 4227 329 9.9999999999999982 16.000000000000004 487 13.999999999999998
leaf_count=15627 323 15 24 20 191 495 179 342 4227 329 10 16 487 14
internal_value=0 4.62361e-05 0.000345745 0.000303563 -0.000333344 0.000517696 -0.00126202 0.000986004 -4.62368e-05 -0.000448209 -0.000845461 0.00158325 -0.00106536 -0.00126698
internal_weight=0 6672 1574 1550 390 1160 199 665 5098 871 542 45 497 30
internal_count=22299 6672 1574 1550 390 1160 199 665 5098 871 542 45 497 30
shrinkage=0.1


Tree=774
num_leaves=15
num_cat=0
split_feature=22 2 2 7 3 3 6 7 11 25 14 3 3 23
split_gain=0.00198689 0.00942043 0.00831099 0.00337352 0.00469756 0.00374779 0.00546837 0.00458827 0.0039356 0.00358147 0.00373875 0.00234127 0.00209285 0.0095687
threshold=3.0427950000000004 2.8833850000000005 2.5598800000000006 2.6262200000000004e-05 -15.126499999999998 -8.9681399999999982 2.4522650000000007e-06 3.247790000000001e-05 -2.7380199999999996e-05 0.25104350000000003 0.0035589150000000006 -8.544439999999998 -5.6684649999999985 -13.391449999999997
decision_type=2 2 2 2 2 2 2 2 2 2 2 2 2 2
left_child=12 2 3 11 -5 9 7 -7 -9 -6 -11 -2 -1 -14
right_child=1 -3 -4 4 5 6 -8 8 -10 10 -12 -13 13 -15
leaf_value=-1.5440151515183322e-05 0.0022939896246848192 0.0028001244865923322 -0.0025535319529643111 -0.0015133486784179697 -0.00079497640532887699 -0.0023458118634152926 0.0010408278511992346 -0.0019517999698026964 0.00011716276744014716 0.0018168921027716029 0.00032270827192185222 0.00025873655220493675 -0.00026878263829530627 0.00016699517911090395
leaf_weight=19038 13.000000000000002 13.999999999999998 10.999999999999998 15.999999999999998 11.999999999999998 11.999999999999998 30 10.999999999999991 56.000000000000007 34 33 9.9999999999999982 640 2369
leaf_count=19038 13 14 11 16 12 12 30 11 56 34 33 10 640 2369
internal_value=0 0.000279202 0.000130913 0.000260996 0.000131553 0.000271545 -0.000108565 -0.000545043 -0.000222518 0.000796 0.00108095 0.0014091 -3.19131e-06 7.43073e-05
internal_weight=0 252 238 227 204 188 109 79 67 79 67 23 22047 3009
internal_count=22299 252 238 227 204 188 109 79 67 79 67 23 22047 3009
shrinkage=0.1


Tree=775
num_leaves=15
num_cat=0
split_feature=21 1 21 23 15 35 34 14 12 21 5 21 3 1
split_gain=0.00189318 0.0191563 0.0435584 0.0504578 0.0969133 0.0741477 0.0538721 0.0648055 0.111472 0.0461055 0.0623598 0.0483218 0.0540296 0.039669
threshold=4.2795900000000016 9.9917400000000018 9.9042750000000019 -7.5388899999999994 -4.0306699999999995e-08 -0.00013653549999999997 0.0035974100000000005 9.3791550000000008e-05 8.0933800000000008e-05 12.314950000000001 2.9403650000000004e-05 10.970250000000002 -5.9423249999999994 4.4728450000000004
decision_type=2 2 2 2 2 2 2 2 2 2 2 2 2 2
left_child=-1 13 -3 -4 5 -5 -6 -8 -9 11 -11 -7 -13 -2
right_child=1 2 3 4 6 9 7 8 -10 10 -12 12 -14 -15
leaf_value=1.9051173211778312e-05 -0.00015468747682600262 -0.0012869929498039857 -0.0022789487339050928 0.0051914092379673898 -0.00072943185722189286 -0.00021438206227578443 -0.00025459351441399616 0.012718069334302777 0.00038896840785376048 -0.002074008028063437 0.0073849993897601969 -0.011885746840077139 -0.002183038061908023 0.00040866295428472368
leaf_weight=15621 4387 347 47 18 13.999999999999998 17 10.999999999999998 22 10.999999999999998 23 9.9999999999999982 12.000000000000002 10.999999999999998 1748
leaf_count=15621 4387 347 47 18 14 17 11 22 11 23 10 12 11 1748
internal_value=0 -4.4564e-05 -0.000613862 0.000577854 0.00147899 -0.000557074 0.00467351 0.00639263 0.00860837 -0.00197451 0.000792358 -0.00425717 -0.00724532 5.82378e-06
internal_weight=0 6678 543 196 149 91 58 44 33 73 33 40 23 6135
internal_count=22299 6678 543 196 149 91 58 44 33 73 33 40 23 6135
shrinkage=0.1


Tree=776
num_leaves=15
num_cat=0
split_feature=12 21 14 27 7 20 10 20 8 20 5 10 27 14
split_gain=0.00201622 0.0149552 0.0386529 0.128663 0.222738 0.0496231 0.0545602 0.122255 0.11544 0.0599378 0.047783 0.0383257 0.0333776 0.0289004
threshold=-8.085454999999998e-05 -7.0840099999999984 0.00088515050000000019 0.21379150000000002 4.6026350000000007e-05 3.5557050000000001 4.0409750000000004e-05 -3.742435 1.6682750000000002e-05 -4.1336199999999996 2.5027500000000004e-05 5.7097800000000008e-05 0.68596800000000013 0.0013882200000000001
decision_type=2 2 2 2 2 2 2 2 2 2 2 2 2 2
left_child=1 2 3 4 -1 6 7 -5 12 -8 -7 -11 -9 -4
right_child=-2 -3 13 5 -6 10 9 8 -10 11 -12 -13 -14 -15
leaf_value=0.015573720093816518 -1.788028737153043e-05 0.00012130127555602275 -0.002527392931288988 -0.0044778821555276713 0.00072977332653658051 -0.0078092114825267346 0.0021386758223260671 -0.0024434460094198574 0.013746296752315874 -0.0098052743542939389 -0.00047737057226186156 -0.002003335947280421 0.0057269335840828724 -0.0004232552917859154
leaf_weight=14.999999999999998 16474 4875 72 14.999999999999998 31 15.999999999999998 22 10.000000000000002 12.999999999999998 10.000000000000002 20 17 9.9999999999999982 699
leaf_count=15 16474 4875 72 15 31 16 22 10 13 10 20 17 10 699
internal_value=0 5.05682e-05 -0.000312404 0.00101142 0.00557019 -0.0005653 0.000611442 0.00300768 0.0064102 -0.00173589 -0.00373597 -0.00489294 0.00164174 -0.000619751
internal_weight=0 5825 950 179 46 133 97 48 33 49 36 27 20 771
internal_count=22299 5825 950 179 46 133 97 48 33 49 36 27 20 771
shrinkage=0.1


Tree=777
num_leaves=15
num_cat=0
split_feature=24 3 33 25 26 20 14 37 25 4 7 38 10 15
split_gain=0.0019641 0.0132792 0.0355605 0.0242485 0.0137528 0.0163601 0.0157064 0.0151384 0.0137113 0.0132769 0.0188361 0.0439723 0.0859012 0.143731
threshold=-0.24914549999999999 -16.417249999999999 -4.3465599999999993e-05 3.8218900000000002 0.00032170650000000006 2.4974000000000003 0.0071294650000000006 4.1155250000000007e-07 4.2534200000000011 -0.042141649999999996 3.6213150000000004e-05 0.0024264400000000006 2.5739400000000003e-05 2.45509e-07
decision_type=2 2 2 2 2 2 2 2 2 2 2 2 2 2
left_child=1 2 3 -1 6 8 7 -4 -6 10 -3 12 13 -12
right_child=-2 9 4 -5 5 -7 -8 -9 -10 -11 11 -13 -14 -15
leaf_value=-0.0071498454426266378 -1.5382595205112918e-05 -0.00048060352593485276 -0.0010348772792371384 -0.0013353801215998829 0.0047655873765636778 -0.00063498287121407113 -5.8441756740042677e-05 -0.0047830604169575965 0.00090915777729134312 0.00025965036116149882 0.015649159264285114 -5.2128231784965122e-05 0.00074126728031204266 -0.00051654477905355059
leaf_weight=13.000000000000002 17577 767 33 15.999999999999998 13.999999999999998 39 96 15.999999999999998 27 2367 11.000000000000002 1198 114 10.999999999999998
leaf_count=13 17577 767 33 16 14 39 96 16 27 2367 11 1198 114 11
internal_value=0 5.72596e-05 -0.000646076 -0.00394186 -0.000221285 0.000831264 -0.000802002 -0.00225877 0.00222599 9.72433e-05 -8.57255e-05 0.000141315 0.00184532 0.00756631
internal_weight=0 4722 254 29 225 80 145 49 41 4468 2101 1334 136 22
internal_count=22299 4722 254 29 225 80 145 49 41 4468 2101 1334 136 22
shrinkage=0.1


Tree=778
num_leaves=15
num_cat=0
split_feature=3 23 23 14 14 23 34 0 1 32 34 4 16 23
split_gain=0.00202368 0.0221599 0.038128 0.0766985 0.0458849 0.118196 0.0910733 0.117522 0.0535815 0.231287 0.0460541 0.0476241 0.0450366 0.0544467
threshold=-14.166599999999997 -11.135999999999997 -14.149949999999999 0.0073645800000000016 0.0028496800000000007 -15.441949999999999 0.23737500000000003 3.0260800000000003 4.7957150000000004 -0.099681949999999978 0.10165100000000001 0.12751550000000003 -3.2080299999999999e-07 -13.661999999999997
decision_type=2 2 2 2 2 2 2 2 2 2 2 2 2 2
left_child=1 2 4 12 5 10 7 -7 -6 -10 -1 -12 13 -4
right_child=-2 -3 3 -5 8 6 -8 -9 9 -11 11 -13 -14 -15
leaf_value=-0.0064115213975310323 -1.1652250627425126e-05 0.00030484072681638183 0.0037922448838468301 9.9109180298130798e-05 -0.00037831697022332438 0.0044748962989875239 -0.00059921670154753064 0.018668765276670458 0.015474685628644439 -0.0029305860503680177 -0.00077418129367288211 0.0052573643003900848 -0.0034189301176484419 -0.001974536869806798
leaf_weight=9.9999999999999982 19397 1733 22 336 470 14.000000000000002 10.999999999999998 9.9999999999999982 11.000000000000002 18 48 18 137 64
leaf_count=10 19397 1733 22 336 470 14 11 10 11 18 48 18 137 64
internal_value=0 7.78838e-05 -0.000258572 -0.000855159 0.000288137 0.00212704 0.00693557 0.010389 -0.000120918 0.00405072 -8.74126e-05 0.000870786 -0.00229298 -0.000499314
internal_weight=0 2902 1169 559 610 111 35 24 499 29 76 66 223 86
internal_count=22299 2902 1169 559 610 111 35 24 499 29 76 66 223 86
shrinkage=0.1


Tree=779
num_leaves=15
num_cat=0
split_feature=18 37 19 18 33 23 30 4 30 5 29 19 22 17
split_gain=0.00187776 0.00699356 0.012417 0.0318002 0.0619055 0.0914009 0.100998 0.0718719 0.0432324 0.0166668 0.0110858 0.0254226 0.050178 0.0151701
threshold=-3.8501649999999994e-05 3.3086850000000002e-08 6.4213950000000014e-06 -0.00012229499999999999 1.5446900000000003e-05 -16.265799999999995 0.0022859500000000006 -0.32811699999999994 0.0078375350000000014 2.7018450000000002e-05 -0.083470249999999982 0.00073582300000000014 -0.6068349999999999 8.7105550000000012e-05
decision_type=2 2 2 2 2 2 2 2 2 2 2 2 2 2
left_child=1 -1 -3 10 9 -6 -7 8 -8 -5 11 12 -4 -12
right_child=-2 2 3 4 5 6 7 -9 -10 -11 13 -13 -14 -15
leaf_value=-3.5691020101130871e-05 -1.6267462122956125e-05 -0.0011361926026058509 -0.0087854182673618199 0.00074366686244805658 -0.0038135571516856241 0.012179819384918494 0.0014632567142446838 -0.0043830269901081907 0.0099517199157465562 -0.002228494856440786 0.0002753707679908475 0.00013469069643987395 -0.0010124868960404883 -0.0012426393880994747
leaf_weight=3368 16967 67 9.9999999999999982 105 11.999999999999998 17 11.999999999999998 10.000000000000002 11.999999999999998 23 1434 144 49 69
leaf_count=3368 16967 67 10 105 12 17 12 10 12 23 1434 144 49 69
internal_value=0 5.17648e-05 0.00020174 0.000248994 0.00147264 0.00403879 0.0058864 0.00273969 0.00570749 0.000209607 0.000111998 -0.000581628 -0.00232993 0.000205682
internal_weight=0 5332 1964 1897 191 63 51 34 24 128 1706 203 59 1503
internal_count=22299 5332 1964 1897 191 63 51 34 24 128 1706 203 59 1503
shrinkage=0.1


Tree=780
num_leaves=15
num_cat=0
split_feature=29 7 32 8 9 9 9 7 21 7 11 13 31 7
split_gain=0.00194534 0.0122948 0.0178875 0.0378203 0.0271141 0.0170962 0.03264 0.0644058 0.0167564 0.0131653 0.019833 0.06392 0.110027 0.0496682
threshold=-0.020851599999999998 2.9906400000000006e-05 -0.87572199999999989 -6.8226299999999993e-06 1.3898600000000001e-05 2.6990300000000001e-05 2.4512850000000004e-05 2.7586800000000002e-05 4.695895000000001 4.4321050000000008e-05 3.0248850000000001e-05 -3.8629749999999992e-06 -0.34388749999999996 3.5305950000000007e-05
decision_type=2 2 2 2 2 2 2 2 2 2 2 2 2 2
left_child=1 2 3 4 8 6 -4 -8 -1 10 -3 12 13 -12
right_child=-2 9 5 -5 -6 -7 7 -9 -10 -11 11 -13 -14 -15
leaf_value=0.0010061691665802809 -1.1584616370498921e-05 -0.00054780066394709748 0.00069601479057869735 0.0012174362960186873 -0.0072160968324169522 -0.0032524892000947146 -0.0012954259037294168 0.0089297838043421503 -0.0030313385847526102 0.00018256382626442692 0.0072251134971156724 -0.00029026779780194731 0.011983897447741282 -0.00087983944723683024
leaf_weight=17 19326 770 366 55 9.9999999999999982 9.9999999999999982 11.000000000000002 13.999999999999998 26 1411 9.9999999999999982 230 11.999999999999998 31
leaf_count=17 19326 770 366 55 10 10 11 14 26 1411 10 230 12 31
internal_value=0 7.53058e-05 0.000522735 -0.000619555 -0.00252587 0.000830384 0.000934805 0.00443069 -0.00143511 -1.71216e-05 -0.000284696 0.000431171 0.00356194 0.00109698
internal_weight=0 2973 509 108 53 401 391 25 43 2464 1053 283 53 41
internal_count=22299 2973 509 108 53 401 391 25 43 2464 1053 283 53 41
shrinkage=0.1


Tree=781
num_leaves=15
num_cat=0
split_feature=2 21 5 37 0 13 28 8 21 36 1 29 29 31
split_gain=0.00186659 0.00748866 0.0123093 0.0101875 0.0169988 0.0199677 0.0165245 0.0098016 0.00983362 0.00786765 0.0107435 0.0105114 0.0103079 0.00937936
threshold=-2.7883099999999996 8.0967850000000023 1.2121400000000002e-05 1.3520100000000005e-07 -5.8968199999999991 4.9653150000000004e-05 -0.0045726199999999986 9.0272250000000006e-06 4.2108050000000015 0.27258550000000009 -3.0182099999999994 0.0079249750000000025 0.066650750000000009 0.50969050000000016
decision_type=2 2 2 2 2 2 2 2 2 2 2 2 2 2
left_child=1 3 -3 7 -5 6 -6 9 -9 10 11 -1 13 -12
right_child=-2 2 -4 4 5 -7 -8 8 -10 -11 12 -13 -14 -15
leaf_value=0.0010648849605786382 -6.6845261677865834e-06 0.0020442374196707035 0.00014150756429515634 -0.0001390413270573018 -0.00066403310745954491 0.00034571153923429346 -0.0057340151863172657 -0.0003352146317411098 -0.0033519723345167363 -0.0019127058249432595 0.00028047302399844445 0.0047792149381712078 0.0025832366547547283 -0.0023409690279679904
leaf_weight=32 21169 51 102 220 10.000000000000002 18 18 64 12.999999999999998 14.999999999999998 544 9.9999999999999982 19 13.999999999999998
leaf_count=32 21169 51 102 220 10 18 18 64 13 15 544 10 19 14
internal_value=0 0.000125225 0.000775751 2.3352e-05 -0.000504582 -0.00225282 -0.00392331 0.000220863 -0.000844537 0.000350257 0.000405095 0.00194925 0.000292695 0.000214702
internal_weight=0 1130 153 977 266 46 28 711 77 634 619 42 577 558
internal_count=22299 1130 153 977 266 46 28 711 77 634 619 42 577 558
shrinkage=0.1


Tree=782
num_leaves=15
num_cat=0
split_feature=10 20 20 28 1 14 20 8 22 21 24 18 36 6
split_gain=0.00188308 0.0192605 0.0428026 0.0635036 0.0596907 0.0960695 0.041731 0.112026 0.321296 0.23746 0.0967807 0.108934 0.0749333 0.0865249
threshold=1.2977750000000001e-05 0.8733565000000002 4.952325000000001 0.085049750000000007 -7.6665399999999986 0.00024581550000000004 -1.5805649999999998 -1.0399949999999999e-05 1.2663300000000002 6.2885700000000009 0.35941150000000005 2.7752400000000008e-06 0.00026842000000000006 -1.4189549999999998e-07
decision_type=2 2 2 2 2 2 2 2 2 2 2 2 2 2
left_child=1 6 3 4 5 -3 -1 8 -8 -10 11 12 13 -9
right_child=-2 2 -4 -5 -6 -7 7 10 9 -11 -12 -13 -14 -15
leaf_value=8.8569695549107282e-05 -8.0384944027559871e-06 -0.0012574030859395862 0.00041080145385252406 0.0047963079428026342 -0.0020178870380180461 0.0096277121124633894 -0.0046493520365662074 -0.0074336030210057904 0.025999064214993262 0.0042064070678316063 0.0080681878250713143 -0.0049357743342281196 0.0046667036928920427 0.002415905207056891
leaf_weight=709 20714 25 397 17 262 11.999999999999998 13.999999999999998 14.999999999999998 10.000000000000002 9.9999999999999982 14.999999999999998 37 40 22
leaf_count=709 20714 25 397 17 262 12 14 15 10 10 15 37 40 22
internal_value=0 0.000105053 -0.000280454 -0.0011489 -0.00148692 0.0022729 0.000420267 0.00186305 0.00696952 0.0151027 0.000517156 -0.0004764 0.00166642 -0.00157714
internal_weight=0 1585 713 316 299 37 872 163 34 20 129 114 77 37
internal_count=22299 1585 713 316 299 37 872 163 34 20 129 114 77 37
shrinkage=0.1


Tree=783
num_leaves=15
num_cat=0
split_feature=21 19 14 0 13 7 21 1 0 14 6 14 21 5
split_gain=0.00190336 0.0180274 0.0196139 0.0115746 0.0100837 0.0089847 0.00535463 0.0364863 0.0179723 0.00514808 0.00512415 0.00492155 0.0031043 0.0147757
threshold=-16.273949999999996 8.5067600000000005e-05 0.00048853650000000009 6.5759800000000004 8.2038750000000011e-06 3.2771900000000004e-05 -14.205299999999998 -10.412999999999998 -6.3288699999999993 0.00092261950000000002 5.5926150000000009e-07 0.00025358600000000003 -13.626249999999997 2.4494000000000003e-05
decision_type=2 2 2 2 2 2 2 2 2 2 2 2 2 2
left_child=1 2 4 5 -1 -3 7 -2 -9 11 -7 -10 13 -8
right_child=6 3 -4 -5 -6 10 12 8 9 -11 -12 -13 -14 -15
leaf_value=-0.0030019358562474894 0.0064598858065437531 0.0026822117296978832 -0.0054237052352012448 0.003833418850554153 0.00084111095509595355 -0.0021044245207061372 -0.0011282560145117076 -0.0029467495282005985 0.00078721812533331091 0.0013266671999065463 0.00039814408301026561 -0.0018918230351118838 1.3540757999559625e-06 0.0013595732372778003
leaf_weight=11.000000000000002 9.9999999999999982 9.9999999999999982 11.999999999999998 9.9999999999999982 18 14.999999999999998 94 15.999999999999998 16.000000000000004 51 18 11.999999999999998 21974 32
leaf_count=11 10 10 12 10 18 15 94 16 16 51 18 12 21974 32
internal_value=0 -0.000449034 -0.00202356 0.000768991 -0.000616596 5.63336e-05 1.90089e-06 0.000714329 0.000109533 0.000728527 -0.000739387 -0.000360942 -1.48395e-06 -0.000496426
internal_weight=0 94 41 53 29 43 22205 105 95 79 33 28 22100 126
internal_count=22299 94 41 53 29 43 22205 105 95 79 33 28 22100 126
shrinkage=0.1


Tree=784
num_leaves=15
num_cat=0
split_feature=3 23 23 14 14 23 3 26 1 22 34 4 34 16
split_gain=0.0019117 0.0177221 0.0304736 0.061242 0.0367573 0.0926866 0.0768049 0.062149 0.0406422 0.188259 0.0384725 0.0402691 0.0521265 0.0366577
threshold=-14.166599999999997 -11.135999999999997 -14.149949999999999 0.0073645800000000016 0.0028496800000000007 -15.441949999999999 -14.650449999999998 5.4786850000000006e-05 4.7957150000000004 1.3614300000000001 0.10165100000000001 0.051078050000000007 0.37240250000000003 -3.2080299999999999e-07
decision_type=2 2 2 2 2 2 2 2 2 2 2 2 2 2
left_child=1 2 4 13 5 10 7 -7 -6 -10 -1 -12 -13 -4
right_child=-2 -3 3 -5 8 6 -8 -9 9 -11 11 12 -14 -15
leaf_value=-0.0058317063748836518 -1.1325261485117878e-05 0.0002786613817253579 -0.00042510686921453929 9.4171159838922564e-05 -0.00032671864059466318 0.0083889211434870926 0.012261548838936367 -0.0022853348248948655 -0.0027678808789156992 0.013837331872094761 -0.0013625739601667267 0.0090377012923867836 0.00030002747662365441 -0.0030591651422655825
leaf_weight=9.9999999999999982 19397 1733 86 336 470 10.000000000000002 12.999999999999998 11.999999999999998 18.000000000000004 10.999999999999998 37 11.000000000000002 18 137
leaf_count=10 19397 1733 86 336 470 10 13 12 18 11 37 11 18 137
internal_value=0 7.56982e-05 -0.000225187 -0.000758539 0.000263573 0.00190944 0.00616758 0.0025666 -0.000102543 0.00353065 -5.15407e-05 0.000824242 0.00361432 -0.00204334
internal_weight=0 2902 1169 559 610 111 35 22 499 29 76 66 29 223
internal_count=22299 2902 1169 559 610 111 35 22 499 29 76 66 29 223
shrinkage=0.1


Tree=785
num_leaves=15
num_cat=0
split_feature=12 21 19 12 30 24 7 38 3 6 0 32 19 28
split_gain=0.0018973 0.00616759 0.00538482 0.00446862 0.0153797 0.0294103 0.0739468 0.0355047 0.0357949 0.0336817 0.0661499 0.0298457 0.161991 0.0396248
threshold=-0.00062380699999999988 -4.8300649999999994 0.00022854250000000002 -8.085454999999998e-05 0.00038787450000000008 -0.17835649999999997 2.7586800000000002e-05 0.00082319350000000012 -10.309599999999998 6.3637950000000002e-07 1.3520500000000002 0.076907550000000005 2.5573700000000003e-06 -0.0059968149999999991
decision_type=2 2 2 2 2 2 2 2 2 2 2 2 2 2
left_child=1 -1 -3 4 5 6 -2 11 -9 -8 -11 13 -13 -7
right_child=3 2 -4 -5 -6 7 9 8 -10 10 -12 12 -14 -15
leaf_value=-0.00047077254223863772 0.010212210495956242 -0.0018092475293087773 3.9688909602925821e-05 -1.6470709459935468e-05 -7.458310103474516e-05 -0.0014922830411635984 -0.00039946947430144063 -0.0081920826435089075 -9.1217963684660707e-05 -0.00070980114784712574 0.01030268038623035 0.012868159695062787 6.5062013267639234e-05 0.0003179939652356731
leaf_weight=358 9.9999999999999982 15.999999999999998 1015 16474 2404 130 50 10.000000000000002 11.999999999999998 12.000000000000002 9.9999999999999982 11.999999999999998 56 1730
leaf_count=358 10 16 1015 16474 2404 130 50 10 12 12 10 12 56 1730
internal_value=0 -0.000113175 1.09954e-05 7.51795e-06 9.66048e-05 0.000299132 0.00215436 0.000221117 -0.00377343 0.00103522 0.00429587 0.000266698 0.00232443 0.000191469
internal_weight=0 1389 1031 20910 4436 2032 82 1950 22 72 22 1928 68 1860
internal_count=22299 1389 1031 20910 4436 2032 82 1950 22 72 22 1928 68 1860
shrinkage=0.1


Tree=786
num_leaves=15
num_cat=0
split_feature=21 1 21 23 15 35 32 14 14 17 28 3 1 23
split_gain=0.00205305 0.0144002 0.0359128 0.0394946 0.0779853 0.0599956 0.0435017 0.0517941 0.090549 0.0394335 0.0338662 0.0399157 0.0322511 0.0491618
threshold=4.2795900000000016 9.9917400000000018 9.9042750000000019 -7.5388899999999994 -4.0306699999999995e-08 -0.00013653549999999997 -0.023940799999999995 9.3791550000000008e-05 0.00020115150000000003 9.6054800000000011e-08 0.0032563300000000004 -5.4172649999999996 4.7957150000000004 -7.7487749999999993
decision_type=2 2 2 2 2 2 2 2 2 2 2 2 2 2
left_child=-1 12 -3 -4 5 -5 7 -6 -9 10 -7 -12 -2 -14
right_child=1 2 3 4 6 9 -8 8 -10 -11 11 -13 13 -15
leaf_value=1.9839256774424156e-05 -0.00014219151737108682 -0.0011512056156952998 -0.001985376877115762 0.0046837695447417595 -0.0001927890963005749 1.1323732050026165e-06 -0.00065016831337873433 0.012227115187818671 0.001628281789765294 0.0012715529088449399 -0.0083117039874196046 -0.00050632177386432896 0.00081181433818112254 -0.00030377375310434637
leaf_weight=15621 4478 347 47 18 10.999999999999998 17 13.999999999999998 19 13.999999999999998 27 19.000000000000004 9.9999999999999982 1007 650
leaf_count=15621 4478 347 47 18 11 17 14 19 14 27 19 10 1007 650
internal_value=0 -4.64075e-05 -0.000539999 0.000542086 0.00133934 -0.000487105 0.00420497 0.00574978 0.00773064 -0.00176212 -0.00354275 -0.00562019 -2.72038e-06 0.000374197
internal_weight=0 6678 543 196 149 91 58 44 33 73 46 29 6135 1657
internal_count=22299 6678 543 196 149 91 58 44 33 73 46 29 6135 1657
shrinkage=0.1


Tree=787
num_leaves=15
num_cat=0
split_feature=1 21 12 21 23 21 23 7 28 17 1 17 12 23
split_gain=0.00216173 0.0516941 0.0562721 0.0458015 0.0296485 0.0294949 0.0597562 0.0573747 0.0260058 0.0403465 0.0542524 0.0312562 0.0111237 0.00859595
threshold=10.942650000000002 12.594800000000001 4.9838750000000011e-05 7.6290550000000001 -6.3955149999999987 11.340100000000001 -7.0796749999999991 3.6888250000000007e-05 0.0092546050000000008 2.3321300000000001e-07 13.382600000000002 6.7056350000000014e-08 3.859090000000001e-05 -6.9149849999999988
decision_type=2 2 2 2 2 2 2 2 2 2 2 2 2 2
left_child=-1 3 4 13 -3 8 -7 -8 9 10 11 -5 -10 -2
right_child=1 2 -4 5 -6 6 7 -9 12 -11 -12 -13 -14 -15
leaf_value=-7.4547458752395736e-06 0.00040424259482928649 0.0041765861888416111 0.0082828710932517421 -0.0047227935329179401 -0.0035238704271614539 -0.0045732864263382826 0.01000712018460035 -0.00045870564539324151 -0.0024313135177362714 -0.00095544534548632019 -0.0011297736922279001 -0.011532275242587695 0.00036725759297153175 -0.00051274556918260404
leaf_weight=21090 861 9.9999999999999982 15.999999999999998 14.000000000000002 10.000000000000002 10.999999999999998 10.000000000000002 10.999999999999998 20 48 20 12.999999999999998 49 116
leaf_count=21090 861 10 16 14 10 11 10 11 20 48 20 13 49 116
internal_value=0 0.000130042 0.00386259 1.54881e-05 0.000326358 -0.00137963 0.00139748 0.00452502 -0.0019215 -0.00299469 -0.00507732 -0.00800143 -0.000443922 0.000295368
internal_weight=0 1209 36 1173 20 196 32 21 164 95 47 27 69 977
internal_count=22299 1209 36 1173 20 196 32 21 164 95 47 27 69 977
shrinkage=0.1


Tree=788
num_leaves=15
num_cat=0
split_feature=10 6 26 26 13 26 13 33 22 22 0 8 37 10
split_gain=0.00200208 0.00572253 0.0256603 0.0270378 0.027679 0.0222866 0.0587092 0.0613757 0.0221662 0.0465381 0.11438 0.0162189 0.0154636 0.0232403
threshold=6.677965000000001e-05 4.2190250000000007e-06 9.4085400000000006e-05 9.9384300000000017e-05 -7.247369999999999e-06 6.6858450000000021e-05 -2.6909549999999997e-05 2.8541600000000007e-06 -0.34255499999999994 -0.63044599999999995 6.3146000000000013 2.9407650000000003e-05 -3.8551349999999991e-08 2.8034400000000004e-05
decision_type=2 2 2 2 2 2 2 2 2 2 2 2 2 2
left_child=1 -1 5 4 -4 -3 7 -7 9 11 -11 -5 -8 -14
right_child=-2 2 3 8 -6 6 12 -9 -10 10 -12 -13 13 -15
leaf_value=6.4509671989368315e-06 7.1076607823744538e-05 -0.00021845642492797609 0.0077870058733969906 0.00016447167944306785 0.0003467082971474156 -0.0018974170210244862 0.00031531137642413077 -0.01049376165207762 -0.00030937493023728283 -0.00017170501309201903 0.012298933265265079 0.0037139283992084007 -0.0046339895374043604 -0.00064391907330395455
leaf_weight=16898 3365 1344 10.000000000000002 160 9.9999999999999982 23 93 12.999999999999998 256 19.000000000000004 11.999999999999998 13.999999999999998 19 63
leaf_count=16898 3365 1344 10 160 10 23 93 13 256 19 12 14 19 63
internal_value=0 -1.26319e-05 -0.000171012 0.000467302 0.00406686 -0.000368459 -0.00132393 -0.00500165 0.000311139 0.00108603 0.00465564 0.00045006 -0.000567364 -0.00156845
internal_weight=0 18934 2036 481 20 1555 211 36 461 205 31 174 175 82
internal_count=22299 18934 2036 481 20 1555 211 36 461 205 31 174 175 82
shrinkage=0.1


Tree=789
num_leaves=15
num_cat=0
split_feature=2 37 21 13 12 19 6 26 22 22 30 26 10 3
split_gain=0.00189483 0.0164425 0.0182778 0.0677875 0.102616 0.0828063 0.121241 0.0717719 0.0484379 0.0262543 0.0219748 0.0159288 0.0175644 0.0268966
threshold=-1.8099099999999997 -9.0789099999999985e-08 -6.0287799999999994 1.9470050000000002e-05 -5.5391499999999993e-05 1.1605450000000001e-06 -3.9421399999999993e-06 5.264570000000001e-05 -1.9494249999999997 -1.0783749999999996 0.00026264200000000005 -9.5432099999999997e-05 1.4541750000000002e-05 -9.7904999999999998
decision_type=2 2 2 2 2 2 2 2 2 2 2 2 2 2
left_child=1 2 3 4 -1 6 8 -8 -5 -10 -6 12 13 -3
right_child=-2 11 -4 5 10 -7 7 -9 9 -11 -12 -13 -14 -15
leaf_value=0.0086112929726368751 -1.5607075972848514e-05 -0.00065264009824022662 -3.7115974296106351e-05 0.0041828791649701691 -0.0024700027424842119 -0.00059333380224266372 -0.0041389533024532559 -0.014142280091346039 -0.0062191587329531711 0.00021282707192850378 0.00095654826374632913 0.00030675304540167493 -0.00011146228904252377 -0.0067890241602435704
leaf_weight=15.999999999999998 17331 25 1378 11.999999999999998 27 158 13.000000000000002 15.999999999999998 14.999999999999998 11.000000000000002 61 2512 714 9.9999999999999982
leaf_count=16 17331 25 1378 12 27 158 13 16 15 11 61 2512 714 10
internal_value=0 5.44457e-05 -0.000197005 -0.000866691 0.00124462 -0.00184258 -0.00478858 -0.00965803 -0.00107241 -0.00349793 -9.47799e-05 0.00018607 -0.000218679 -0.00240589
internal_weight=0 4968 1707 329 104 225 67 29 38 26 88 3261 749 35
internal_count=22299 4968 1707 329 104 225 67 29 38 26 88 3261 749 35
shrinkage=0.1


Tree=790
num_leaves=15
num_cat=0
split_feature=3 33 31 0 19 23 17 34 32 23 17 23 24 14
split_gain=0.00184648 0.0142492 0.0256007 0.0252911 0.0229171 0.0544317 0.050857 0.0768666 0.0788606 0.0717909 0.0694638 0.048587 0.0447576 0.059933
threshold=-14.166599999999997 1.4206750000000003e-05 2.9641550000000003 -3.1500949999999994 0.0015695500000000001 -14.283699999999998 9.9913900000000012e-08 0.24396500000000002 0.036856500000000007 -15.224999999999998 6.7056350000000014e-08 -13.228949999999999 -0.30308699999999994 0.0044422700000000008
decision_type=2 2 2 2 2 2 2 2 2 2 2 2 2 2
left_child=1 4 -3 -4 5 6 10 8 -8 -9 12 -6 -1 -14
right_child=-2 2 3 -5 11 -7 7 9 -10 -11 -12 -13 13 -15
leaf_value=0.0058389732123989811 -1.1130392551831766e-05 -0.00054662386502748854 0.0059053191624116154 0.00044665433916038483 -0.0013849091262483914 0.00018953633176210712 0.0039029727169476881 8.9840524076939906e-05 0.014769435224694795 0.0090642015661366974 -0.0065737224183976652 0.00019661383092494861 0.0029216887895017864 -0.0028529882248676587
leaf_weight=19 19397 546 11.999999999999998 29 237 811 17.000000000000004 47 10.999999999999998 10.999999999999998 11.999999999999998 1077 41 32
leaf_count=19 19397 546 12 29 237 811 17 47 11 11 12 1077 41 32
internal_value=0 7.43957e-05 -0.000365656 0.00204431 0.000185977 0.00054646 0.00206996 0.00386911 0.00817194 0.00179187 0.000582206 -8.8638e-05 0.00151559 0.000390324
internal_weight=0 2902 587 41 2315 1001 190 86 28 58 104 1314 92 73
internal_count=22299 2902 587 41 2315 1001 190 86 28 58 104 1314 92 73
shrinkage=0.1


Tree=791
num_leaves=15
num_cat=0
split_feature=35 13 13 16 19 4 25 26 38 34 16 36 36 6
split_gain=0.0019247 0.00854188 0.0309229 0.023844 0.0324887 0.0245178 0.0465166 0.0622134 0.0217194 0.0213819 0.0291228 0.0187191 0.0257157 0.0258136
threshold=-0.0086243949999999982 -1.6986749999999998e-05 -1.7263949999999996e-05 2.4464550000000004e-06 0.00051101100000000013 -0.15678699999999998 3.8218900000000002 0.00013546850000000001 -0.039763049999999987 0.064522300000000019 1.6685900000000001e-06 0.012034750000000002 0.0013319150000000001 1.9115350000000006e-06
decision_type=2 2 2 2 2 2 2 2 2 2 2 2 2 2
left_child=1 2 3 9 -5 6 7 -6 -7 -1 11 12 -11 -14
right_child=-2 -3 -4 4 5 8 -8 -9 -10 10 -12 -13 13 -15
leaf_value=0.0038797331741079692 -1.0938883247715913e-05 -6.9141278426369277e-06 0.0059520923532545567 0.0069151865504682069 0.0018422911962261421 0.0029213466733280158 -2.6053026686572741e-05 0.01189698395319283 -0.00103174291720965 -0.00018505420983513864 -0.0053142882333221762 0.00083043883612899392 0.00078208635095506913 -0.0051077576090946151
leaf_weight=12.999999999999998 19584 2200 9.9999999999999982 9.9999999999999982 16.000000000000004 18 31 9.9999999999999982 61 167 10.999999999999998 134 10.999999999999998 23
leaf_count=13 19584 2200 10 10 16 18 31 10 61 167 11 134 11 23
internal_value=0 7.8905e-05 0.000445511 0.00033647 0.00141396 0.00100946 0.00259016 0.00570948 -0.000131039 -0.000101731 -0.000251323 -8.50768e-05 -0.000695421 -0.00320222
internal_weight=0 2715 515 505 146 136 57 26 79 359 346 335 201 34
internal_count=22299 2715 515 505 146 136 57 26 79 359 346 335 201 34
shrinkage=0.1


Tree=792
num_leaves=15
num_cat=0
split_feature=1 21 14 9 21 21 23 10 3 24 23 18 19 23
split_gain=0.00184897 0.0419706 0.0476807 0.0420081 0.037012 0.0239066 0.0484649 0.0464148 0.0279071 0.050915 0.0343096 0.0152755 0.013992 0.00702168
threshold=10.942650000000002 12.594800000000001 8.1463600000000017e-05 6.7075450000000003e-06 7.6290550000000001 11.340100000000001 -7.0796749999999991 2.6900800000000002e-05 -5.7482849999999992 0.13543350000000004 -7.0308899999999985 -2.8154299999999994e-07 1.1867000000000002e-05 -6.9149849999999988
decision_type=2 2 2 2 2 2 2 2 2 2 2 2 2 2
left_child=-1 4 -3 -4 13 8 -7 -8 9 10 11 -6 -11 -2
right_child=1 2 3 -5 5 6 7 -9 -10 12 -12 -13 -14 -15
leaf_value=-6.8944028029188751e-06 0.00036704451340156043 -0.0023847212037071586 0.002562759286956861 0.010824911883100868 -0.006208339263685048 -0.0041140101596035738 0.0090105125308036771 -0.00040277533910491252 -0.00049771053342539387 -0.0018652859609574073 -0.0082797140348702669 -0.0015267840839679476 0.0028700147934544546 -0.00046173157145325424
leaf_weight=21090 861 9.9999999999999982 16.000000000000004 9.9999999999999982 9.9999999999999982 10.999999999999998 10.000000000000002 10.999999999999998 87 12.000000000000002 19 23 12.999999999999998 116
leaf_count=21090 861 10 16 10 10 11 10 11 87 12 19 23 13 116
internal_value=0 0.000120267 0.0034835 0.00574051 1.70477e-05 -0.00123708 0.00126314 0.00407974 -0.00172493 -0.00311152 -0.0048945 -0.00294544 0.00059707 0.000268643
internal_weight=0 1209 36 26 1173 196 32 21 164 77 52 33 25 977
internal_count=22299 1209 36 26 1173 196 32 21 164 77 52 33 25 977
shrinkage=0.1


Tree=793
num_leaves=15
num_cat=0
split_feature=4 32 38 28 1 26 10 25 34 20 11 0 3 4
split_gain=0.00184089 0.00609999 0.010054 0.00610028 0.00573711 0.00354795 0.00406013 0.00521 0.00321859 0.00287021 0.0130914 0.0220717 0.053274 0.056478
threshold=3.6849500000000002 16.217600000000001 -0.80259099999999994 -0.18709999999999996 8.7655650000000023 -0.00073322349999999992 6.3528200000000006e-05 4.0464100000000007 0.0042898350000000014 4.3779750000000011 -3.5435049999999992e-05 4.2745250000000015 -7.9089249999999991 -1.4166899999999998
decision_type=2 2 2 2 2 2 2 2 2 2 2 2 2 2
left_child=9 2 -2 -4 5 6 7 -5 -7 -1 -11 -12 13 -13
right_child=1 -3 3 4 -6 8 -8 -9 -10 10 11 12 -14 -15
leaf_value=-3.3925613683776394e-05 -0.0025012400875774198 0.0025540427630767228 0.0010991990369432843 0.00062332859829025851 0.00087584011808281676 -0.00037164320948477328 0.00047051081462996087 -0.0018994650759168509 9.797319652870766e-05 0.0003248213800935095 -0.00021728182197160162 -0.00091833695693715643 -0.00021097828113630365 0.0011947454088773661
leaf_weight=14128 14.999999999999998 9.9999999999999982 59 10.999999999999998 84 160 20 32 1661 1336 2708 154 1213 708
leaf_count=14128 15 10 59 11 84 160 20 32 1661 1336 2708 154 1213 708
internal_value=0 9.02532e-05 7.81877e-05 9.72757e-05 6.72384e-05 3.1186e-05 -0.000706604 -0.0012541 5.67109e-05 -9.14702e-06 4.80636e-05 -2.92411e-05 0.000216163 0.000817234
internal_weight=0 2052 2042 2027 1968 1884 63 43 1821 20247 6119 4783 2075 862
internal_count=22299 2052 2042 2027 1968 1884 63 43 1821 20247 6119 4783 2075 862
shrinkage=0.1


Tree=794
num_leaves=15
num_cat=0
split_feature=3 25 30 14 23 23 1 22 26 24 4 23 3 14
split_gain=0.00224432 0.00994279 0.0085988 0.00800956 0.0662795 0.0356176 0.0302934 0.0662744 0.0205379 0.0657452 0.0618055 0.0741035 0.0846127 0.213918
threshold=-6.3643949999999991 30.297000000000004 0.023967750000000003 0.00044905900000000008 -12.856149999999998 -6.4403949999999996 8.6383650000000021 0.86206250000000006 5.9770400000000013e-05 -0.10456799999999998 -0.078387699999999991 -8.7865549999999981 -8.7082099999999976 0.00017761400000000004
decision_type=2 2 2 2 2 2 2 2 2 2 2 2 2 2
left_child=3 -2 -3 4 -1 8 -7 -8 10 -10 -6 -12 -13 -14
right_child=1 2 -4 -5 5 6 7 -9 9 -11 11 12 13 -15
leaf_value=0.00054665553671926219 8.0237256614414801e-05 -0.0029350095253903421 -0.00048323510158634577 2.3779850826511245e-05 -0.0010585448173297328 0.0010939110489038941 0.00087154842063633586 -0.0066714561873060813 -0.00049379388266746328 -0.0027335246040796242 -0.0007645097344976808 -0.0013582302416622369 -2.9676313187069386e-05 0.0038901738287590256
leaf_weight=1095 5152 15.999999999999998 135 12447 635 267 37 17 1038 150 533 151 417 209
leaf_count=1095 5152 16 135 12447 635 267 37 17 1038 150 533 151 417 209
internal_value=0 5.67953e-05 -0.000743026 -1.7721e-05 -0.000131276 -0.000346196 0.00065703 -0.0015031 -0.000448984 -0.000776588 -0.000248885 0.000143584 0.00076651 0.00127903
internal_weight=0 5303 151 16996 4549 3454 321 54 3133 1188 1945 1310 777 626
internal_count=22299 5303 151 16996 4549 3454 321 54 3133 1188 1945 1310 777 626
shrinkage=0.1


Tree=795
num_leaves=15
num_cat=0
split_feature=3 23 20 5 17 17 11 30 3 18 7 36 29 17
split_gain=0.00199634 0.0145137 0.0257828 0.0467148 0.0474407 0.150699 0.045661 0.0376921 0.0351501 0.0285391 0.0284996 0.0245116 0.0226497 0.0358166
threshold=-7.2760499999999988 -8.1679949999999977 12.218850000000002 9.627520000000002e-06 4.9118450000000005e-07 6.1410800000000009e-07 1.5224150000000002e-06 0.00048521050000000003 -5.8561999999999985 -7.6351549999999983e-09 5.6616600000000009e-05 -0.035183049999999993 -0.0098160749999999988 1.1750250000000002e-07
decision_type=2 2 2 2 2 2 2 2 2 2 2 2 2 2
left_child=-1 -2 8 -4 6 -6 -5 9 11 -8 -7 -3 13 -13
right_child=1 2 3 4 5 10 7 -9 -10 -11 -12 12 -14 -15
leaf_value=-2.2245253064568115e-05 0.00014454125992102691 0.0036501490594153963 0.007396300818601792 0.0015659025732391607 0.01414668661192991 0.0043167970419744966 -0.0098697257554158542 -0.00048774641720228829 0.00019854725275763484 -0.0023147078009787946 -0.0016119078301126137 -0.002754495068230816 -0.00038237668716534988 -0.00039443888165727827
leaf_weight=14361 4977 13.999999999999998 10.999999999999998 49 9.9999999999999982 11.999999999999998 10.000000000000002 30 1220 9.9999999999999982 25 112 1307 151
leaf_count=14361 4977 14 11 49 10 12 10 30 1220 10 25 112 1307 151
internal_value=0 4.02449e-05 -0.000135062 0.00111199 0.000638515 0.0032547 -0.00060351 -0.00272953 -0.000204886 -0.00609222 0.000310915 -0.000515611 -0.000552758 -0.00139948
internal_weight=0 7938 2961 157 146 47 99 50 2804 20 37 1584 1570 263
internal_count=22299 7938 2961 157 146 47 99 50 2804 20 37 1584 1570 263
shrinkage=0.1


Tree=796
num_leaves=15
num_cat=0
split_feature=1 21 1 21 14 25 26 7 21 3 14 30 33 23
split_gain=0.00178865 0.0374634 0.112919 0.319739 0.261204 0.131949 0.0815544 0.0972949 0.0670904 0.0574292 0.0556777 0.055319 0.049258 0.0497078
threshold=7.2671150000000013 7.2199450000000009 8.503045000000002 8.0967850000000023 0.00065207900000000018 0.24148300000000003 -6.8399149999999977e-05 4.0092200000000002e-05 3.5232400000000004 -7.1424999999999992 0.0010120500000000002 0.00062062700000000011 -1.2631999999999999e-05 -8.8550149999999981
decision_type=2 2 2 2 2 2 2 2 2 2 2 2 2 2
left_child=-1 8 3 4 5 -3 7 -5 -2 10 11 12 -10 -14
right_child=1 2 -4 6 -6 -7 -8 -9 9 -11 -12 -13 13 -15
leaf_value=-1.2705729744076449e-05 0.0001535789333647855 0.024305503959344187 5.5228148210465101e-05 0.010654545761644839 0.00060459019058678107 0.010543206043382127 -0.0015011839494978763 -0.00093681661644950509 -0.00014210030058166013 -0.00023238944296444502 -0.00060946338519107628 -0.0009590924531449656 -0.0094443392610691242 -0.0039775095396460255
leaf_weight=18563 2335 11.000000000000002 593 14.000000000000002 19 19 83 14.999999999999998 15.999999999999998 390 122 51 29 39
leaf_count=18563 2335 11 593 14 19 19 83 15 16 390 122 51 29 39
internal_value=0 6.31307e-05 0.000692881 0.0030415 0.00977895 0.0155894 9.38672e-05 0.00465901 -9.61018e-05 -0.000997191 -0.00215778 -0.00355701 -0.00513431 -0.00630895
internal_weight=0 3736 754 161 49 30 112 29 2982 647 257 135 84 68
internal_count=22299 3736 754 161 49 30 112 29 2982 647 257 135 84 68
shrinkage=0.1


Tree=797
num_leaves=15
num_cat=0
split_feature=27 5 6 2 13 13 6 24 15 15 28 13 2 36
split_gain=0.00194495 0.0193855 0.0212834 0.0302562 0.0215151 0.0635319 0.0186791 0.0343227 0.0219175 0.0242056 0.0203925 0.0201318 0.0159379 0.0177494
threshold=0.13511800000000004 7.7376450000000017e-06 -5.7515249999999991e-06 0.5837475000000002 -6.0817849999999996e-05 -4.5330799999999996e-05 -2.1117349999999995e-06 0.08854540000000001 -2.1261799999999995e-08 -9.7636649999999977e-08 0.0030982900000000005 7.8765850000000024e-06 2.3295700000000008 5.7702100000000011e-05
decision_type=2 2 2 2 2 2 2 2 2 2 2 2 2 2
left_child=1 -1 3 -3 -4 -6 7 8 9 -7 12 -12 -8 -14
right_child=-2 2 4 -5 5 6 10 -9 -10 -11 11 -13 13 -15
leaf_value=-0.004347311070358211 4.4406586231672043e-06 -0.00045092113745900302 -0.0033491845934323092 -0.0056150418398829066 0.0077784566645277666 0.00050441872825523701 -0.00027172491232230932 0.0057482694991146371 -0.0015472424336864304 0.0062936744792386869 -0.0057385505893482597 -5.8547396232218796e-05 0.0053704421184110358 0.00015227675903588535
leaf_weight=10.999999999999998 21806 39 17 15.999999999999998 10.999999999999998 25.999999999999996 266 14.999999999999998 30 10.000000000000002 13.000000000000002 11.999999999999998 11.000000000000002 15.999999999999998
leaf_count=11 21806 39 17 16 11 26 266 15 30 10 13 12 11 16
internal_value=0 -0.000196416 -0.000101686 -0.00195321 0.000136801 0.000281342 7.46545e-05 0.00143035 0.000449005 0.00211255 -0.000270664 -0.00301215 -3.67493e-05 0.0022782
internal_weight=0 493 482 55 427 410 399 81 66 36 318 25 293 27
internal_count=22299 493 482 55 427 410 399 81 66 36 318 25 293 27
shrinkage=0.1


Tree=798
num_leaves=15
num_cat=0
split_feature=5 22 28 31 22 28 6 29 21 28 11 25 33 19
split_gain=0.00195864 0.0192255 0.0184402 0.0101714 0.0193356 0.0116363 0.0110327 0.00928658 0.011164 0.0141019 0.00815328 0.010105 0.00729517 0.00969252
threshold=7.4520550000000004e-06 -2.8657299999999997 -0.18709999999999996 -0.047638799999999995 -0.5269879999999999 -0.012841499999999997 1.0007150000000002e-06 -0.0021993149999999994 -7.8836949999999986 -0.006961924999999999 2.2443050000000002e-05 0.28868650000000001 1.0642000000000001e-06 1.2466600000000002e-08
decision_type=2 2 2 2 2 2 2 2 2 2 2 2 2 2
left_child=1 -1 -3 4 5 -4 -6 10 9 -9 11 -5 13 -10
right_child=-2 2 3 7 6 -7 -8 8 12 -11 -12 -13 -14 -15
leaf_value=-0.0037133920976581674 -3.8970316680932137e-06 -0.0025983855547383429 0.00023475393963356809 0.001775172717752866 -0.0018921896330135095 0.0046385930664837359 0.0013527758383693606 0.0044107754307333383 -0.0020329710449844313 0.00038142104330242881 -0.00022419602144509556 0.0056684447638690478 0.00082821468331887584 0.00033173594061876289
leaf_weight=11.999999999999998 21920 20 15.000000000000002 20.000000000000004 54 9.9999999999999982 12.999999999999998 15.999999999999998 26 19 9.9999999999999982 9.9999999999999982 102 52
leaf_count=12 21920 20 15 20 54 10 13 16 26 19 10 10 102 52
internal_value=0 0.00022539 0.000354179 0.000524355 -0.00037701 0.00199629 -0.00126257 0.000849554 0.000589257 0.00222341 0.00224865 0.00307293 0.000271505 -0.0004565
internal_weight=0 379 367 347 92 25 67 255 215 35 40 30 180 78
internal_count=22299 379 367 347 92 25 67 255 215 35 40 30 180 78
shrinkage=0.1


Tree=799
num_leaves=15
num_cat=0
split_feature=11 10 32 10 22 15 20 15 21 21 3 3 14 23
split_gain=0.00177669 0.00260902 0.0050154 0.0117834 0.0333962 0.00973883 0.0125889 0.00785619 0.00644742 0.0176504 0.0337429 0.0159561 0.0338207 0.0274667
threshold=0.00105597 6.677965000000001e-05 -0.059468349999999996 7.4806600000000017e-05 0.44616150000000004 4.4256300000000006e-08 -6.3072899999999992 -5.1217499999999997e-06 1.3022850000000001 0.83299200000000007 -7.1424999999999992 -6.9557349999999998 0.00029046550000000007 -6.9910599999999992
decision_type=2 2 2 2 2 2 2 2 2 2 2 2 2 2
left_child=1 -1 3 4 -3 6 -6 -8 9 -4 -11 12 13 -10
right_child=-2 2 8 -5 5 -7 7 -9 11 10 -12 -13 -14 -15
leaf_value=-9.9969509926510933e-06 -0.00020447446605393666 0.0061542118356252709 7.0807493394940655e-05 0.00012429355045777697 0.0042994701339361761 -0.00017670681995306432 -0.00062984043311602872 0.0017817191084447716 -0.0045108226002316528 0.0069250039883296576 -0.00010503661146180498 0.00014945112690821938 -0.00030843269872786894 0.0011634930481456897
leaf_weight=18833 417 11.999999999999998 1504 737 12.999999999999998 70 22 35 38 11.000000000000002 18 376 202 10.999999999999998
leaf_count=18833 417 12 1504 737 13 70 22 35 38 11 18 376 202 11
internal_value=0 3.89662e-06 8.97141e-05 0.000289631 0.0010913 0.000657338 0.00149138 0.000850942 7.43344e-06 0.000117925 0.00256153 -0.000262715 -0.000880144 -0.003237
internal_weight=0 21882 3049 889 152 140 70 57 2160 1533 29 627 251 49
internal_count=22299 21882 3049 889 152 140 70 57 2160 1533 29 627 251 49
shrinkage=0.1


Tree=800
num_leaves=15
num_cat=0
split_feature=10 20 1 22 14 14 20 7 17 3 19 3 0 33
split_gain=0.00177592 0.00957005 0.0150512 0.0148835 0.015634 0.0170422 0.0268396 0.015336 0.0192032 0.0132759 0.0117443 0.016339 0.0235047 0.0144103
threshold=2.4033300000000002e-05 8.6114600000000028 7.2671150000000013 -0.48205149999999991 9.3791550000000008e-05 0.00065207900000000018 9.7122600000000023 2.8214400000000002e-05 9.2207650000000015e-08 -7.1682849999999991 1.3381100000000001e-05 -6.9359899999999994 5.7180000000000009 0.00013560600000000003
decision_type=2 2 2 2 2 2 2 2 2 2 2 2 2 2
left_child=1 -1 10 -4 -5 6 -6 9 -9 -8 -3 13 -13 -12
right_child=-2 2 3 4 5 -7 7 8 -10 -11 11 12 -14 -15
leaf_value=2.3172403207807541e-06 -1.9860518299466164e-05 0.0012634137249186012 0.0020114413723127827 0.0010224151434479556 -0.0056794319069013001 0.00032614946301489706 0.0024531900191990031 -0.00076802100811619296 -0.0063541752332821489 -0.0021206091676669366 0.00070604599327352482 2.1598491541765357e-08 -0.0053190707772349322 -0.0017876827847212553
leaf_weight=6653 14913 191 21 34 18 36 15.000000000000002 16.000000000000004 9.9999999999999982 10.999999999999998 317 27 11.999999999999998 25
leaf_count=6653 14913 191 21 34 18 36 15 16 10 11 317 27 12 25
internal_value=0 4.01002e-05 0.000383033 -0.000471087 -0.000843466 -0.00144196 -0.00235127 -0.00119921 -0.00291654 0.000518121 0.000623441 0.000302615 -0.00163662 0.000523756
internal_weight=0 7386 733 161 140 106 70 52 26 26 572 381 39 342
internal_count=22299 7386 733 161 140 106 70 52 26 26 572 381 39 342
shrinkage=0.1


Tree=801
num_leaves=15
num_cat=0
split_feature=20 4 24 9 4 9 29 4 30 4 33 8 8 34
split_gain=0.00172268 0.0096742 0.0141978 0.0292423 0.0300285 0.0183126 0.0626876 0.132123 0.0693754 0.0269379 0.0285742 0.0217732 0.0302964 0.0223161
threshold=-4.8296149999999995 -0.16117699999999999 0.093593150000000014 -2.1780149999999995e-05 -0.52630149999999987 -3.562729999999999e-05 0.032372300000000014 -1.1063349999999998 0.0031303350000000001 -0.19847699999999999 1.2551150000000001e-05 1.14013e-05 1.4432350000000003e-05 0.015784450000000002
decision_type=2 2 2 2 2 2 2 2 2 2 2 2 2 2
left_child=1 2 5 -4 -5 6 9 -8 -9 10 11 13 -13 -1
right_child=-2 -3 3 4 -6 -7 7 8 -10 -11 -12 12 -14 -15
leaf_value=-0.00083171490128041206 -1.6439229963229573e-05 -4.1965111351367453e-05 -0.00044936952351905214 0.00043452778809204798 0.0019828456681720468 -0.00021748238528159294 -0.00087760349917133634 0.012489797321177321 0.0035526251297836246 0.003982643125793682 -0.0052408416397296473 -0.0066020442977208979 -0.00060555914293824271 0.0025872558524965179
leaf_weight=42 16520 3924 212 397 183 840 38 15.999999999999998 19 12.999999999999998 12.999999999999998 10.999999999999998 36 35
leaf_count=42 16520 3924 212 397 183 840 38 16 19 13 13 11 36 35
internal_value=0 4.69936e-05 0.000235174 0.000555684 0.000923049 -3.62631e-06 0.00080193 0.00320531 0.00763819 -0.000367715 -0.000780523 -0.000312909 -0.00200899 0.000722363
internal_weight=0 5779 1855 792 580 1063 223 73 35 150 137 124 47 77
internal_count=22299 5779 1855 792 580 1063 223 73 35 150 137 124 47 77
shrinkage=0.1


Tree=802
num_leaves=15
num_cat=0
split_feature=4 23 3 3 20 12 23 38 4 5 19 22 4 34
split_gain=0.00185796 0.00570237 0.0114544 0.0119016 0.0152793 0.00922892 0.0099641 0.00713422 0.021715 0.0190474 0.0250144 0.0234983 0.0163251 0.0415947
threshold=-0.6437274999999999 -6.5050549999999996 -6.5485099999999994 -8.0934249999999981 -2.8021899999999995 -0.00013569999999999996 -6.4198449999999996 0.026441350000000002 -0.78269099999999991 2.6096450000000003e-05 7.8012700000000006e-05 -0.57501449999999987 -1.9281699999999999 1.6089400000000003
decision_type=2 2 2 2 2 2 2 2 2 2 2 2 2 2
left_child=1 7 3 -3 -5 -4 -7 -1 9 10 11 -9 -11 -14
right_child=-2 2 5 4 -6 6 -8 8 -10 12 -12 -13 13 -15
leaf_value=0.00013171282073802957 -1.456843959211221e-05 -0.00039728759522978708 -0.0036893186319503003 0.0034924003258837684 0.00015174660306632975 -0.00315564445918426 0.00037353724437707566 0.0071608576271682952 -0.0035377054690616211 -0.00054641765089304259 3.5036796356864697e-05 0.00030545233748853208 -0.0081200263918038765 -2.4152603000402454e-05
leaf_weight=3785 17772 266 15.999999999999998 19 49 11.999999999999995 24.000000000000004 10.000000000000002 20 76 214 9.9999999999999982 11.000000000000002 14.999999999999998
leaf_count=3785 17772 266 16 19 49 12 24 10 20 76 214 10 11 15
internal_value=0 5.71925e-05 -0.000310413 -9.5471e-05 0.00108516 -0.001691 -0.000802857 9.14585e-05 -0.000336527 -0.00014598 0.000351115 0.00373315 -0.00128638 -0.00344933
internal_weight=0 4527 386 334 68 52 36 4141 356 336 234 20 102 26
internal_count=22299 4527 386 334 68 52 36 4141 356 336 234 20 102 26
shrinkage=0.1


Tree=803
num_leaves=15
num_cat=0
split_feature=1 21 1 21 22 26 21 3 23 7 3 23 14 19
split_gain=0.00177738 0.0299219 0.102629 0.317269 0.220299 0.11622 0.0458861 0.0372215 0.0349929 0.0633526 0.0516336 0.184059 0.227177 0.119583
threshold=7.8138950000000014 7.7471000000000005 8.503045000000002 9.626260000000002 1.7583250000000004 7.6573700000000009e-05 3.8775950000000008 -9.4879399999999983 -8.969479999999999 2.8887350000000004e-05 -6.5745499999999995 -6.8361599999999987 0.00051153500000000014 1.8055650000000004e-08
decision_type=2 2 2 2 2 2 2 2 2 2 2 2 2 2
left_child=-1 6 3 4 5 -3 -2 -8 9 -4 11 12 13 -10
right_child=1 2 8 -5 -6 -7 7 -9 10 -11 -12 -13 -14 -15
leaf_value=-1.1966483651144925e-05 0.0001360438364689917 0.023822043215235067 -0.0077482611606163642 -0.0017156876271797552 0.0017655761592322962 0.0092251467495225361 -0.0057783115267132723 -0.00073179403535377472 0.0011454869150405839 -0.00048232582280650693 -0.00045752003169869781 -0.0019763481372466639 -0.00096470228394159594 0.010016041840426624
leaf_weight=18903 2184 12.000000000000002 13.999999999999998 45 15.999999999999998 9.9999999999999982 14.999999999999998 570 21 84 234 83 53 55
leaf_count=18903 2184 12 14 45 16 10 15 570 21 84 234 83 53 55
internal_value=0 6.66085e-05 0.000690399 0.00396577 0.0106938 0.0171871 -7.46398e-05 -0.000861192 0.000190663 -0.00152032 0.000566618 0.00169703 0.00406053 0.00756497
internal_weight=0 3396 627 83 38 22 2769 585 544 98 446 212 129 76
internal_count=22299 3396 627 83 38 22 2769 585 544 98 446 212 129 76
shrinkage=0.1


Tree=804
num_leaves=15
num_cat=0
split_feature=12 38 19 35 39 14 5 33 19 25 5 21 18 3
split_gain=0.00185326 0.008916 0.0378609 0.0313906 0.023738 0.0381655 0.0446711 0.0511133 0.0562475 0.0570507 0.0618882 0.0439483 0.0941579 0.0934899
threshold=4.2165300000000008e-05 -0.00021442549999999998 3.1220750000000008e-10 -0.0019915699999999994 9.4552400000000016e-06 0.0022637200000000003 1.5212750000000003e-05 -1.3883949999999998e-05 6.2467100000000007e-09 0.17889750000000001 9.6926850000000002e-06 6.2885700000000009 -2.8202949999999996e-06 -8.8871949999999984
decision_type=2 2 2 2 2 2 2 2 2 2 2 2 2 2
left_child=-1 2 3 -2 5 6 7 -4 -9 -10 -11 -8 -13 -14
right_child=1 -3 4 -5 -6 -7 11 8 9 10 -12 12 13 -15
leaf_value=2.150878257112712e-05 0.00065427690278738713 4.1301456576735027e-05 0.0031590157367575632 -0.0063335624753057748 9.5662009651514834e-06 0.0001363561392171682 -0.0014271146037797893 -0.0087751682382076982 -0.0077174430299136376 0.003517006865800604 -0.0029183584290149158 -0.0049648955619583527 0.011731114294768004 0.0013356195001477083
leaf_weight=14325 10.000000000000002 5074 12.999999999999998 18 2242 298 137 17 18 19 70 14.999999999999998 11.999999999999995 31.000000000000004
leaf_count=14325 10 5074 13 18 2242 298 137 17 18 19 70 15 12 31
internal_value=0 -3.86397e-05 -0.000178509 -0.00383791 -0.000142833 -0.000685179 -0.00142258 -0.00280647 -0.00343189 -0.00258295 -0.00154452 -0.000450311 0.00185697 0.00423669
internal_weight=0 7974 2900 28 2872 630 332 137 124 107 89 195 58 43
internal_count=22299 7974 2900 28 2872 630 332 137 124 107 89 195 58 43
shrinkage=0.1


Tree=805
num_leaves=15
num_cat=0
split_feature=1 21 25 21 3 32 9 35 18 3 16 4 4 2
split_gain=0.00181823 0.0361217 0.0385553 0.0293295 0.0255924 0.018803 0.0265036 0.0263215 0.0358584 0.0229086 0.0164607 0.012489 0.0233843 0.00913678
threshold=10.942650000000002 12.350850000000001 1.5352450000000002 8.0172650000000019 -6.3047499999999994 -0.17057449999999999 2.1169750000000002e-05 0.00049993250000000009 -2.8154299999999994e-07 -5.4868049999999995 5.3331600000000017e-07 0.096550350000000021 0.27459550000000005 1.4958200000000001
decision_type=2 2 2 2 2 2 2 2 2 2 2 2 2 2
left_child=-1 3 4 -2 -3 10 7 8 -7 11 -5 13 -13 -10
right_child=1 2 -4 5 -6 6 -8 -9 9 -11 -12 12 -14 -15
leaf_value=-6.8368575278287416e-06 0.00022509401074460194 0.0095528472866862977 -0.00042969781724322182 -0.00066599549570431316 0.002823886970201364 0.001992464017760205 0.0015535683971029358 -0.0072960917139425875 -0.00052652922882275141 -0.00071274607363457402 0.0035941694594489844 -0.0089310405155022914 -0.0023834310472011567 -0.0042704112100182103
leaf_weight=21090 996 10.000000000000002 18 30 12.999999999999998 19 20 9.9999999999999982 11.000000000000002 31 12.999999999999998 12.000000000000002 9.9999999999999982 15.999999999999998
leaf_count=21090 996 10 18 30 13 19 20 10 11 31 13 12 10 16
internal_value=0 0.000119263 0.00303669 1.68535e-05 0.00574952 -0.001189 -0.00179266 -0.00240665 -0.00191276 -0.00284025 0.000621961 -0.00418623 -0.00595485 -0.00274513
internal_weight=0 1209 41 1168 23 172 129 109 99 80 43 49 22 27
internal_count=22299 1209 41 1168 23 172 129 109 99 80 43 49 22 27
shrinkage=0.1


Tree=806
num_leaves=15
num_cat=0
split_feature=33 13 13 39 30 3 33 15 7 39 16 32 6 33
split_gain=0.0017766 0.0176358 0.023469 0.0621329 0.0401548 0.104377 0.0398007 0.187522 0.0809919 0.0351846 0.052507 0.0942251 0.0349511 0.0315253
threshold=5.0840600000000008e-06 -6.5923999999999991e-07 -1.7786599999999997e-05 3.6888550000000002e-06 0.00011162900000000001 -9.3355199999999972 6.6854550000000009e-06 4.2854450000000007e-07 2.6579250000000005e-05 9.2392850000000011e-05 5.3331600000000017e-07 0.19034450000000003 3.8647050000000008e-06 1.4850200000000002e-05
decision_type=2 2 2 2 2 2 2 2 2 2 2 2 2 2
left_child=-1 2 4 12 5 -2 7 8 -5 10 -8 -12 -4 -11
right_child=1 -3 3 6 -6 -7 9 -9 -10 13 11 -13 -14 -15
leaf_value=-1.8443479558091408e-05 -0.0029317381238797673 0.00016470066195935131 -0.0023065665901231113 0.0082712147897109397 5.2230094584247992e-05 0.01118441444228996 -0.00065855853098852274 0.014625956984236839 -0.001473325234737472 0.0017273352486329948 -0.0022108922711685038 -0.012578931841999291 -0.0081119854152867845 -0.00031384890996531174
leaf_weight=15627 10.000000000000002 4281 40 9.9999999999999982 1222 10.999999999999998 341 9.9999999999999982 58 89 71 9.9999999999999982 13.999999999999998 505
leaf_count=15627 10 4281 40 10 1222 11 341 10 58 89 71 10 14 505
internal_value=0 4.31979e-05 -0.000174348 -0.000500352 0.000126739 0.00446244 -0.000336904 0.00183999 -4.03046e-05 -0.000504028 -0.00120221 -0.0034909 -0.00381168 -8.01492e-06
internal_weight=0 6672 2391 1148 1243 21 1094 78 68 1016 422 81 54 594
internal_count=22299 6672 2391 1148 1243 21 1094 78 68 1016 422 81 54 594
shrinkage=0.1


Tree=807
num_leaves=15
num_cat=0
split_feature=12 32 5 23 7 25 34 32 17 28 16 1 23 10
split_gain=0.00177387 0.00811919 0.0195901 0.0530513 0.0216593 0.079628 0.0467784 0.0408474 0.0309999 0.0298392 0.0392479 0.0291905 0.0278754 0.0254498
threshold=4.2165300000000008e-05 -0.091684249999999981 7.7376450000000017e-06 -11.990499999999999 2.6396600000000004e-05 0.42159850000000004 0.51382200000000011 -0.87572199999999989 1.2644700000000002e-06 0.020291000000000003 -1.0720349999999998e-06 7.3648950000000015 -7.6950299999999991 2.0146750000000002e-05
decision_type=2 2 2 2 2 2 2 2 2 2 2 2 2 2
left_child=-1 2 3 -2 5 -4 9 8 11 -7 -11 -8 -12 -6
right_child=1 -3 4 -5 13 6 7 -9 -10 10 12 -13 -14 -15
leaf_value=2.1043051828851661e-05 0.0080938949673013232 -9.37907171322285e-05 0.0052862233852091082 -0.0013420577152059056 0.0009454485040295877 -0.0010316388341986263 0.0036882839431720115 0.0050404941663146022 -0.0054238565875074042 -0.0003617983184416186 -0.0095002544671297078 -0.0028923381496077545 -0.0030339508689939967 3.5723579096755918e-06
leaf_weight=14325 11.000000000000002 6097 17 12.999999999999998 364 24 14.000000000000002 12.999999999999998 12.999999999999998 10.999999999999998 20 12.999999999999998 10.000000000000002 1354
leaf_count=14325 11 6097 17 13 364 24 14 13 13 11 20 13 10 1354
internal_value=0 -3.78031e-05 0.00014406 0.00298275 0.000107293 -0.00111234 -0.00203417 0.00017079 -0.00141186 -0.00383206 -0.00547133 0.000519836 -0.00734482 0.000203132
internal_weight=0 7974 1877 24 1853 135 118 53 40 65 41 27 30 1718
internal_count=22299 7974 1877 24 1853 135 118 53 40 65 41 27 30 1718
shrinkage=0.1


Tree=808
num_leaves=15
num_cat=0
split_feature=5 25 13 39 5 27 4 4 12 37 21 0 37 35
split_gain=0.00177868 0.0227359 0.04395 0.0944389 0.0752699 0.0416975 0.0488938 0.0756145 0.111108 0.195734 0.092065 0.0733754 0.0526788 0.0703292
threshold=1.0873100000000001e-05 0.19987000000000002 -1.250265e-05 1.4013900000000002e-06 9.9873700000000016e-06 0.36125050000000009 0.025549650000000004 0.20003250000000003 3.3520050000000008e-05 1.0164215000000001e-07 8.0967850000000023 -4.4451199999999993 2.5853150000000005e-08 0.00044902750000000007
decision_type=2 2 2 2 2 2 2 2 2 2 2 2 2 2
left_child=1 2 3 -1 -5 6 -3 8 12 10 11 -10 13 -8
right_child=-2 5 -4 4 -6 -7 7 -9 9 -11 -12 -13 -14 -15
leaf_value=0.00051794212256173059 -1.4238410695291404e-05 7.0201818767731119e-05 -5.6394788716131023e-05 -0.0027398591428209329 -0.010225667136118693 -5.9374422550583659e-05 0.00073370193640918827 8.0844092718686245e-05 0.0071439058550620549 0.016323929290021105 0.011397150520133438 -0.00048724347358247971 -0.0021089404368560796 0.0057296904793474827
leaf_weight=81 17780 612 653 64 17 2586 109 234 18 13.999999999999998 11.999999999999998 42 39 38
leaf_count=81 17780 612 653 64 17 2586 109 234 18 14 12 42 39 38
internal_value=0 5.6021e-05 -0.000422159 -0.00189651 -0.00431095 0.000161236 0.000671521 0.00139881 0.00253265 0.00550496 0.00340128 0.0018021 0.00115835 0.00202518
internal_weight=0 4519 815 162 81 3704 1118 506 272 86 72 60 186 147
internal_count=22299 4519 815 162 81 3704 1118 506 272 86 72 60 186 147
shrinkage=0.1


Tree=809
num_leaves=15
num_cat=0
split_feature=19 22 2 21 19 10 22 0 21 28 18 34 2 2
split_gain=0.00181731 0.022074 0.0478267 0.0418704 0.0342797 0.0449936 0.0508048 0.0321569 0.0286629 0.0198937 0.0325963 0.0607976 0.0280228 0.0550061
threshold=2.1853450000000002e-06 1.6390350000000002 0.98298500000000011 5.2005200000000009 1.6747050000000002e-07 2.2964100000000003e-05 1.8169400000000002 -3.9455449999999996 0.38053450000000005 -0.018437049999999996 1.9826750000000005e-05 0.28311400000000003 -2.1940949999999995 -1.9404149999999998
decision_type=2 2 2 2 2 2 2 2 2 2 2 2 2 2
left_child=1 9 7 -4 5 6 -5 8 -3 10 12 -12 -1 -14
right_child=-2 2 3 4 -6 -7 -8 -9 -10 -11 11 -13 13 -15
leaf_value=-0.00067546684836510321 1.8408543769520033e-05 -0.0019806145892564959 0.00024348379435932968 -0.0098264544208844506 0.00072188964354452396 -4.1842950546803578e-05 -0.0031421921780689604 0.0010277872323639762 0.00026634970111494283 -0.00024248831219940686 0.0093065926106646636 -0.0012072636147918688 0.0034943221049616117 0.00023997609057853841
leaf_weight=291 15750 66 145 14.999999999999998 29 30 47 676 406 4050 11.000000000000002 10.999999999999998 56 716
leaf_count=291 15750 66 145 15 29 30 47 676 406 4050 11 11 56 716
internal_value=0 -4.42716e-05 0.000305592 -0.000902613 -0.00227604 -0.00322103 -0.00475935 0.000585541 -4.78445e-05 -0.000140612 0.000239665 0.00404966 0.000160813 0.000476043
internal_weight=0 6549 1414 266 121 92 62 1148 472 5135 1085 22 1063 772
internal_count=22299 6549 1414 266 121 92 62 1148 472 5135 1085 22 1063 772
shrinkage=0.1


Tree=810
num_leaves=15
num_cat=0
split_feature=2 22 22 22 8 2 17 15 3 33 20 14 19 7
split_gain=0.00187311 0.0223888 0.0579523 0.0436771 0.0704198 0.0658402 0.0944334 0.0692882 0.0775081 0.0720676 0.0547052 0.135738 0.0518438 0.0440138
threshold=-2.4807499999999996 -2.4478399999999998 -1.6134299999999999 -2.8657299999999997 5.2172700000000004e-06 -2.8593649999999999 5.5601450000000014e-07 6.8359600000000009e-06 -6.401514999999999 -2.6599849999999993e-06 -6.4030799999999992 0.0010120500000000002 1.8546550000000004e-07 7.0235350000000005e-05
decision_type=2 2 2 2 2 2 2 2 2 2 2 2 2 2
left_child=1 3 -3 4 -1 -5 7 8 9 10 12 -12 -7 -6
right_child=-2 2 -4 5 13 6 -8 -9 -10 -11 11 -13 -14 -15
leaf_value=0.0023429242671570844 -9.8620869866949821e-06 -0.0012264923750969021 0.00020610424512045719 -0.00083232989285674051 -0.0049359146502609245 0.016022078017704191 -0.0013969951869928212 -0.00075278965163498048 0.00042660489776416826 3.3900178968906403e-05 -0.0015584702390090863 0.01382049477913163 0.0068435063958168039 0.00031641745978655913
leaf_weight=45 19985 340 1666 65 39 15.999999999999998 35 19 19 9.9999999999999982 12.000000000000005 10.999999999999998 9.9999999999999982 27
leaf_count=45 19985 340 1666 65 39 16 35 19 19 10 12 11 10 27
internal_value=0 8.51745e-05 -3.67087e-05 0.000878998 -0.00070744 0.00177288 0.00305575 0.00466241 0.00598149 0.00777036 0.00934923 0.00579669 0.0124919 -0.00278723
internal_weight=0 2314 2006 308 111 197 132 97 78 59 49 23 26 66
internal_count=22299 2314 2006 308 111 197 132 97 78 59 49 23 26 66
shrinkage=0.1


Tree=811
num_leaves=15
num_cat=0
split_feature=3 23 3 20 0 0 14 23 9 3 9 20 20 8
split_gain=0.00198693 0.0123632 0.021178 0.0317988 0.0500227 0.0272817 0.0238817 0.0312114 0.041646 0.03869 0.0375959 0.165127 0.126099 0.102368
threshold=-7.2760499999999988 -8.7470849999999984 -6.0725999999999987 13.431500000000002 10.672100000000002 12.290650000000001 0.0007529835000000001 -7.1463699999999992 -3.3748749999999996e-06 -7.2050099999999988 -2.9604049999999996e-06 -1.2965399999999996 -0.10028595 1.5745250000000003e-05
decision_type=2 2 2 2 2 2 2 2 2 2 2 2 2 2
left_child=-1 -2 3 5 -5 6 7 8 -3 -10 11 13 -12 -9
right_child=1 2 -4 4 -6 -7 -8 10 9 -11 12 -13 -14 -15
leaf_value=-2.2192767317207166e-05 0.00015077992603248187 -0.00021146497736178088 0.00013061645678509774 0.00047651690863338963 0.008496170490980148 -0.0045454047853127127 0.00026125997376344993 0.00051183282896348351 0.0029606664692983032 -0.0022527834922891014 -0.0023938097109374428 -0.0033548554039978078 0.0017982444966698743 0.00924714890619119
leaf_weight=14361 4445 240 1856 35 9.9999999999999982 15.999999999999998 410 127 14.999999999999998 279 102 146 242 14.999999999999998
leaf_count=14361 4445 240 1856 35 10 16 410 127 15 279 102 146 242 15
internal_value=0 4.015e-05 -0.000100632 -0.000362816 0.00225866 -0.000436916 -0.000395206 -0.000626038 -0.00118889 -0.00198679 -0.000150463 -0.000993399 0.000555252 0.00143458
internal_weight=0 7938 3493 1637 45 1592 1576 1166 534 294 632 288 344 142
internal_count=22299 7938 3493 1637 45 1592 1576 1166 534 294 632 288 344 142
shrinkage=0.1


Tree=812
num_leaves=15
num_cat=0
split_feature=6 27 19 34 19 3 19 39 30 39 33 10 19 0
split_gain=0.00184908 0.0104294 0.0316593 0.0071598 0.0229585 0.0183938 0.0153238 0.0119995 0.0266385 0.00676942 0.0284105 0.0475276 0.0104878 0.00677591
threshold=-8.2341899999999975e-06 0.13474200000000003 2.8523100000000005e-09 0.0027474700000000006 8.7498650000000013e-05 -5.8561999999999985 1.2466600000000002e-08 8.1325450000000013e-07 7.1413200000000016e-05 2.1540250000000005e-06 -4.0322649999999987e-06 7.7777250000000001e-05 3.1220750000000008e-10 9.9437400000000018
decision_type=2 2 2 2 2 2 2 2 2 2 2 2 2 2
left_child=1 2 -1 4 5 6 -3 8 -5 10 11 -9 -11 -12
right_child=-2 3 -4 7 -6 -7 -8 9 -10 12 13 -13 -14 -15
leaf_value=-0.0065567439503502111 8.8740451924618757e-06 0.007295540135819463 0.00014032403875413973 -0.00045777684836965904 -0.0010873519186861812 0.00043981557874940336 0.0019952058559283615 0.0089658134314231554 -0.0059596870094537737 -0.0028582616443080561 -0.00024590804753713133 -0.00020409896969795228 -0.00010867130023489763 0.0011021242525110174
leaf_weight=9.9999999999999982 20365 10.000000000000002 24 44 35 25 11.999999999999998 10.000000000000002 10.999999999999998 13.999999999999998 156 12.999999999999998 1521 49
leaf_count=10 20365 10 24 44 35 25 12 10 11 14 156 13 1521 49
internal_value=0 -9.34436e-05 -0.0018294 -6.23791e-05 0.000851658 0.0022956 0.00440445 -0.000103606 -0.00155816 -5.82288e-05 0.000450207 0.00378282 -0.000133749 7.63046e-05
internal_weight=0 1934 34 1900 82 47 22 1818 55 1763 228 23 1535 205
internal_count=22299 1934 34 1900 82 47 22 1818 55 1763 228 23 1535 205
shrinkage=0.1


Tree=813
num_leaves=15
num_cat=0
split_feature=14 14 23 19 38 7 34 20 9 10 24 21 8 7
split_gain=0.00173642 0.0101027 0.0417571 0.0309535 0.0297392 0.0763466 0.202268 0.0476715 0.142529 0.0320864 0.050896 0.0798823 0.0747728 0.0546889
threshold=0.00022219550000000004 0.00044905900000000008 -13.311149999999998 0.010673500000000001 -0.00070684399999999998 2.8701700000000003e-05 0.052723050000000007 7.2945850000000005 3.7495800000000001e-05 1.8987800000000005e-05 0.11443150000000001 8.3248700000000024 -9.2925849999999987e-06 2.5584350000000005e-05
decision_type=2 2 2 2 2 2 2 2 2 2 2 2 2 2
left_child=-1 2 -2 4 5 6 -4 -7 -9 10 11 -6 -13 -12
right_child=1 -3 3 -5 9 7 -8 8 -10 -11 13 12 -14 -15
leaf_value=4.156535149316228e-05 0.00060683959176359361 1.415296458162457e-05 0.016790476036258044 0.0040709922059128682 -0.0017400585900935713 -0.00084510709533425958 0.00043457170775640879 -0.0011921309480636285 0.011094207489596946 -0.00046400203718771941 -0.00028776725812349472 0.010016235495762277 -0.0011471607101460298 -0.0068778673988109567
leaf_weight=6928 478 13199 9.9999999999999982 14.999999999999998 165 211 31 29 13.999999999999998 1141 20 12.000000000000002 11.999999999999998 34
leaf_count=6928 478 13199 10 15 165 211 31 29 14 1141 20 12 12 34
internal_value=0 -1.87343e-05 -0.000218586 -0.000451499 -0.000491902 0.000419681 0.00442382 -0.000226655 0.00280807 -0.000686207 -0.00172956 -0.000955983 0.00443454 -0.00443709
internal_weight=0 15371 2172 1694 1679 295 41 254 43 1384 243 189 24 54
internal_count=22299 15371 2172 1694 1679 295 41 254 43 1384 243 189 24 54
shrinkage=0.1


Tree=814
num_leaves=15
num_cat=0
split_feature=7 21 1 35 8 14 35 16 27 17 34 37 13 17
split_gain=0.00186924 0.0103202 0.0420089 0.0135906 0.0105016 0.0119956 0.00996796 0.0231408 0.0111417 0.0271107 0.0371321 0.022819 0.0654 0.033068
threshold=3.3177900000000013e-05 -14.205299999999998 -9.9732449999999968 0.00041554400000000006 9.0272250000000006e-06 0.0051846250000000009 0.25632850000000007 -1.2110649999999997e-05 2.7316700000000007 -6.0277049999999987e-08 0.078864150000000008 3.1511600000000009e-08 1.4967150000000001e-05 -2.0848999999999997e-06
decision_type=2 2 2 2 2 2 2 2 2 2 2 2 2 2
left_child=1 2 -1 4 5 -4 8 -8 -3 10 -10 12 -12 -14
right_child=-2 6 3 -5 -6 -7 7 -9 9 -11 11 -13 13 -15
leaf_value=0.006927173559299925 -1.7552454435148465e-05 7.1581478389092735e-05 0.00061760043267738724 -0.0031606143410317605 -0.0018510532644788989 0.0046340657971450129 0.0050311765361887723 0.0004686659284858095 -0.0073950572218745951 -5.7785496229560565e-05 0.0077367249270901082 -0.0022038208420342995 0.0013020144364041888 -0.0035611293834841083
leaf_weight=10.999999999999998 16306 4855 29 9.9999999999999982 10.999999999999998 9.9999999999999982 11.999999999999998 151 9.9999999999999982 745 9.9999999999999982 83 28.999999999999996 27.000000000000004
leaf_count=11 16306 4855 29 10 11 10 12 151 10 745 10 83 29 27
internal_value=0 4.77574e-05 0.00124623 0.000204722 0.00087779 0.00164746 3.33887e-05 0.000804556 1.1562e-05 -0.000310777 -0.00149618 -0.00110028 0.000287503 -0.00104272
internal_weight=0 5993 71 60 50 39 5922 163 5759 904 159 149 66 56
internal_count=22299 5993 71 60 50 39 5922 163 5759 904 159 149 66 56
shrinkage=0.1


Tree=815
num_leaves=15
num_cat=0
split_feature=11 20 20 3 23 14 33 23 11 14 7 26 8 29
split_gain=0.0017825 0.00977171 0.022112 0.040012 0.0903007 0.0500637 0.0511872 0.0347415 0.0275483 0.0250087 0.0243404 0.0269303 0.0254723 0.0199583
threshold=1.8404100000000006e-05 -3.5336099999999995 0.71838200000000019 -11.287699999999999 -10.632649999999998 0.0039742050000000006 -3.5003399999999998e-05 -16.786249999999999 3.6859900000000009e-05 0.026760750000000003 5.7341950000000011e-05 -5.5607199999999992e-05 -6.3033749999999988e-06 0.035284600000000006
decision_type=2 2 2 2 2 2 2 2 2 2 2 2 2 2
left_child=-1 -2 3 4 5 6 -3 -8 -7 13 11 -9 -13 -10
right_child=1 2 -4 -5 -6 8 7 10 9 -11 -12 12 -14 -15
leaf_value=2.0084930795166359e-05 0.00013373694450080799 -0.00010922513701471277 1.8606283944319786e-05 -5.3374866142232224e-05 0.0003326312656964013 0.0034329017050064672 -0.00094321410482128473 -0.0047891225155082444 -0.0022563513295384696 -0.00047000510358531986 -0.0027042086885653831 -0.0062596775882411736 -0.012307451378840668 -0.007055190061219037
leaf_weight=14820 2263 29 3669 995 242 11.999999999999998 18 31 65 98 19 15.000000000000002 12.999999999999998 9.9999999999999982
leaf_count=14820 2263 29 3669 995 242 12 18 31 65 98 19 15 13 10
internal_value=0 -3.97993e-05 -0.000115089 -0.000432173 -0.00111497 -0.00224503 -0.00379104 -0.00490326 -0.00120043 -0.00152182 -0.00581711 -0.00681957 -0.00906757 -0.0028962
internal_weight=0 7479 5216 1547 552 310 125 96 185 173 78 59 28 75
internal_count=22299 7479 5216 1547 552 310 125 96 185 173 78 59 28 75
shrinkage=0.1


Tree=816
num_leaves=15
num_cat=0
split_feature=37 13 4 14 4 30 23 23 32 7 6 6 6 22
split_gain=0.00174516 0.018349 0.0595498 0.0440498 0.0898716 0.122519 0.0615607 0.0766232 0.0869227 0.0708878 0.0704866 0.0432136 0.0428406 0.0336284
threshold=4.9602750000000011e-08 1.6952400000000004e-05 0.053110600000000008 0.00029752400000000002 0.4097745000000001 0.0036837650000000007 -7.8285449999999992 -15.441949999999999 -0.044672549999999998 3.8487200000000007e-05 9.1473000000000009e-07 8.4659900000000015e-07 1.1511000000000003e-06 1.0156250000000002
decision_type=2 2 2 2 2 2 2 2 2 2 2 2 2 2
left_child=-1 2 -2 -4 5 6 7 -5 9 11 -10 -9 -12 -13
right_child=1 -3 3 4 -6 -7 -8 8 10 -11 12 13 -14 -15
leaf_value=1.9520634879304093e-05 0.00014538561117505042 0.00012667529955208106 -0.00014071783688830218 -0.00067061380615603995 -0.00013589294289682695 0.00036035489434563386 0.0002100806731062058 -0.014818313077557833 0.0010663275895812722 -0.0043012928225678098 -0.010943465176969766 -0.0037453383347019541 -0.0039808818062929754 -0.011946360263973475
leaf_weight=14997 2220 3466 824 51 402 122 39 15.999999999999998 27 29 9.9999999999999982 10.000000000000002 76 9.9999999999999982
leaf_count=14997 2220 3466 824 51 402 122 39 16 27 29 10 10 76 10
internal_value=0 -4.00919e-05 -0.000190774 -0.000652577 -0.00118512 -0.00226662 -0.00346249 -0.00408795 -0.00506707 -0.00798073 -0.00339107 -0.0109447 -0.00479048 -0.00784585
internal_weight=0 7302 3836 1616 792 390 268 229 178 65 113 36 86 20
internal_count=22299 7302 3836 1616 792 390 268 229 178 65 113 36 86 20
shrinkage=0.1


Tree=817
num_leaves=15
num_cat=0
split_feature=5 23 19 1 10 20 20 6 9 28 0 3 0 5
split_gain=0.00181351 0.00363917 0.0111588 0.00343632 0.00285164 0.00774999 0.0199798 0.0382974 0.00660194 0.0105878 0.0258938 0.0432857 0.0177052 0.014492
threshold=0.00017387200000000002 -16.867799999999995 0.0010295650000000003 13.095150000000002 6.8379000000000017e-05 9.4874600000000004 9.0406650000000024 1.6704000000000003e-06 8.9000550000000006e-05 -0.00089316749999999989 9.461405000000001 -6.043429999999999 8.5645450000000007 1.8465700000000005e-05
decision_type=2 2 2 2 2 2 2 2 2 2 2 2 2 2
left_child=4 2 -2 -3 -1 6 -6 -8 9 12 13 -12 -7 -11
right_child=1 3 -4 -5 5 8 7 -9 -10 10 11 -13 -14 -15
leaf_value=-8.073678363462529e-06 -0.0039729333350260283 -0.00014679648218877866 -0.00019689783303975775 0.00096652455600821578 0.00013526739160074321 -0.00016287243729215225 0.0076858577644452423 -0.001065989922499284 -0.0012155172828799453 -0.0038979780394583943 0.0080292334134521113 -0.00035342991468496622 -0.0039942018483998254 0.00014850577700871058
leaf_weight=19068 9.9999999999999982 630 36 29 2255 49 10.000000000000002 9.9999999999999982 74 9.9999999999999982 11.000000000000002 13.999999999999998 15.999999999999998 77
leaf_count=19068 10 630 36 29 2255 49 10 10 74 10 11 14 16 77
internal_value=0 -0.00015783 -0.00101778 -9.78036e-05 5.15283e-06 0.000104996 0.000163177 0.00330993 -0.000422341 -9.07303e-05 0.000498471 0.00333494 -0.00110597 -0.000316607
internal_weight=0 705 46 659 21594 2526 2275 20 251 177 112 25 65 87
internal_count=22299 705 46 659 21594 2526 2275 20 251 177 112 25 65 87
shrinkage=0.1


Tree=818
num_leaves=15
num_cat=0
split_feature=6 27 19 34 19 3 19 39 30 6 20 19 34 28
split_gain=0.00193809 0.00843788 0.0254914 0.00576896 0.0182941 0.014626 0.0119953 0.00951271 0.0215465 0.00563448 0.00740167 0.0091273 0.044585 0.00550393
threshold=-8.2341899999999975e-06 0.13474200000000003 2.8523100000000005e-09 0.0027474700000000006 8.7498650000000013e-05 -5.8561999999999985 1.2466600000000002e-08 8.1325450000000013e-07 7.1413200000000016e-05 -7.634914999999998e-06 11.486400000000001 4.5111750000000007e-08 0.0098830250000000019 0.55062400000000011
decision_type=2 2 2 2 2 2 2 2 2 2 2 2 2 2
left_child=1 2 -1 4 5 6 -3 8 -5 10 11 12 -2 -9
right_child=9 3 -4 7 -6 -7 -8 13 -10 -11 -12 -13 -14 -15
leaf_value=-0.0058990319067379468 0.0078279782785102732 0.0064800880878465228 0.00011036034732872697 -0.00041018222942842513 -0.00097812275119524977 0.00038685207020898817 0.0017905953553660463 -4.401448888864085e-05 -0.0053583798930048948 4.0902033456953158e-06 -0.0020818056236021221 0.00029618847355629635 0.00020592994705745669 -0.0016011413622080634
leaf_weight=9.9999999999999982 9.9999999999999982 10.000000000000002 24 44 35 25 11.999999999999998 1740 10.999999999999998 20183 9.9999999999999982 129 33 23
leaf_count=10 10 10 24 44 35 25 12 1740 11 20183 10 129 33 23
internal_value=0 -9.56661e-05 -0.00165711 -6.77245e-05 0.000752744 0.00204169 0.00392218 -0.000104731 -0.00139982 9.08511e-06 0.000562999 0.000716766 0.0019785 -6.43287e-05
internal_weight=0 1934 34 1900 82 47 22 1818 55 20365 182 172 43 1763
internal_count=22299 1934 34 1900 82 47 22 1818 55 20365 182 172 43 1763
shrinkage=0.1


Tree=819
num_leaves=15
num_cat=0
split_feature=7 8 21 24 7 21 8 28 37 32 17 21 3 1
split_gain=0.00173262 0.00988264 0.051216 0.14384 0.0475816 0.0349565 0.0140512 0.0366435 0.0118665 0.0190173 0.0164149 0.0135591 0.0140656 0.0117843
threshold=3.3177900000000013e-05 1.5006450000000001e-05 -8.3840799999999991 0.12228600000000002 2.8214400000000002e-05 -7.6390449999999985 1.4432350000000003e-05 -0.0028842299999999993 2.2169050000000001e-07 0.066673350000000006 1.6235300000000002e-07 4.4618100000000007 -7.6874749999999992 -11.201449999999999
decision_type=2 2 2 2 2 2 2 2 2 2 2 2 2 2
left_child=1 6 3 4 -3 -4 -1 -8 9 11 -10 12 -7 -13
right_child=-2 2 5 -5 -6 8 7 -9 10 -11 -12 13 -14 -15
leaf_value=2.9152783006789013e-05 -1.6898855266153045e-05 -0.0051989142014645029 -0.0053950320855206393 0.014344416422536596 0.0038326136900910311 0.0047400427664714782 -0.00633160995688134 0.0013315215384444366 0.00074154373587054364 -0.0020373780345026818 0.0051856967758133338 0.0013265196594875305 0.00086903491010161817 -0.0017009480673651626
leaf_weight=5711 16306 10.000000000000002 10.999999999999998 9.9999999999999982 13.999999999999998 10.999999999999998 12.000000000000002 12.999999999999998 34 36 10.999999999999998 20 64 36
leaf_count=5711 16306 10 11 10 14 11 12 13 34 36 11 20 64 36
internal_value=0 4.59791e-05 0.000652649 0.00426799 6.94771e-05 0.000101431 1.87974e-05 -0.00234678 0.000386625 -1.74037e-06 0.00182789 0.000557672 0.00143678 -0.00061971
internal_weight=0 5993 257 34 24 223 5736 25 212 167 45 131 75 56
internal_count=22299 5993 257 34 24 223 5736 25 212 167 45 131 75 56
shrinkage=0.1


Tree=820
num_leaves=15
num_cat=0
split_feature=19 33 3 6 3 25 11 7 13 33 6 14 39 16
split_gain=0.00178599 0.028969 0.0322162 0.0225984 0.0510403 0.0864265 0.0438 0.0483104 0.0296047 0.165203 0.0790274 0.0852946 0.0720037 0.193214
threshold=2.1853450000000002e-06 -2.0239149999999996e-07 -14.883399999999998 -1.0093574999999998e-07 -5.9800399999999998 0.58296450000000011 1.9597750000000006e-06 2.4349600000000005e-05 2.1216950000000004e-05 -6.3131549999999994e-06 -8.9839199999999985e-06 0.00034865000000000004 2.1678450000000006e-05 5.1028300000000007e-07
decision_type=2 2 2 2 2 2 2 2 2 2 2 2 2 2
left_child=1 3 -3 8 5 6 7 -5 -1 12 -11 -12 13 -10
right_child=-2 2 -4 4 -6 -7 -8 -9 9 10 11 -13 -14 -15
leaf_value=5.2020103824250195e-05 1.8249205138594036e-05 0.0017064589954056181 0.00011437862351977423 -0.0026721945824101558 0.00027491660355513073 7.2773479033734793e-06 -0.001573408241217424 -0.011184863201342524 0.0031615323630740477 0.00014352917399134771 -0.0055897398321394579 -0.001909604871272333 -0.00031645122320608993 -0.0036772621097602848
leaf_weight=2104 15750 133 2865 10.000000000000002 98 46 13.999999999999998 20 201 133 80 296 497 52
leaf_count=2104 15750 133 2865 10 98 46 14 20 201 133 80 296 497 52
internal_value=0 -4.38884e-05 0.000185008 -0.000237138 -0.0013041 -0.00302347 -0.00619198 -0.00834731 -0.000177493 -0.000561047 -0.00195154 -0.00269261 0.000382632 0.00175593
internal_weight=0 6549 2998 3551 188 90 44 30 3363 1259 509 376 750 253
internal_count=22299 6549 2998 3551 188 90 44 30 3363 1259 509 376 750 253
shrinkage=0.1


Tree=821
num_leaves=15
num_cat=0
split_feature=37 13 4 3 27 4 7 2 28 36 7 8 21 19
split_gain=0.00177396 0.0147628 0.0483608 0.0804723 0.0685189 0.0909845 0.102698 0.0644948 0.0643225 0.046064 0.0457848 0.0345715 0.0523903 0.031709
threshold=4.9602750000000011e-08 1.6952400000000004e-05 0.053110600000000008 -8.544439999999998 0.54608000000000012 0.24788700000000002 3.7811850000000006e-05 -0.3858049999999999 0.0050208050000000006 0.00054275450000000017 2.5584350000000005e-05 8.2563350000000016e-06 3.1140600000000007 0.00092522000000000014
decision_type=2 2 2 2 2 2 2 2 2 2 2 2 2 2
left_child=-1 2 13 4 5 6 7 9 -9 -4 -6 12 -8 -2
right_child=1 -3 3 -5 10 -7 11 8 -10 -11 -12 -13 -14 -15
leaf_value=1.96810122615856e-05 -0.00010579809893465496 0.00010916362961003739 -0.00049346485796074075 -3.2792161271138554e-05 0.0026630219764302715 -0.00096788604371302728 0.0059587239792260015 -0.0069742645806400091 -0.016659489910428725 -0.0077491196814835784 -0.0010320003452751578 -0.0044649714812342277 -0.0032041840882112201 0.00073996581639197625
leaf_weight=14997 1608 3466 14.999999999999998 993 37 120 12.000000000000002 16.000000000000004 11.999999999999998 21 358 19 12.999999999999998 612
leaf_count=14997 1608 3466 15 993 37 120 12 16 12 21 358 19 13 612
internal_value=0 -4.04213e-05 -0.000175578 -0.000591741 -0.00148265 -0.00286301 -0.0049687 -0.00752556 -0.0111251 -0.00472593 -0.000685884 -0.00124964 0.00119401 0.000127358
internal_weight=0 7302 3836 1616 623 228 108 64 28 36 395 44 25 2220
internal_count=22299 7302 3836 1616 623 228 108 64 28 36 395 44 25 2220
shrinkage=0.1


Tree=822
num_leaves=15
num_cat=0
split_feature=10 21 6 22 0 22 9 1 14 14 0 5 30 10
split_gain=0.00194059 0.00835794 0.0193225 0.0144441 0.0157892 0.0242383 0.0393916 0.0240066 0.0376095 0.0195538 0.0246332 0.0122234 0.0086533 0.0336306
threshold=2.4033300000000002e-05 12.075900000000003 -4.0740349999999994e-06 1.856025 1.6043500000000004 1.4758950000000002 1.4708900000000002e-05 7.0507350000000004 0.00012578800000000002 0.0025550350000000002 -1.5076799999999999 1.1686600000000003e-05 8.8232750000000017e-05 2.3699000000000005e-05
decision_type=2 2 2 2 2 2 2 2 2 2 2 2 2 2
left_child=1 12 -3 4 7 6 -6 -4 -9 10 -10 -7 13 -1
right_child=-2 2 3 -5 5 11 -8 8 9 -11 -12 -13 -14 -15
leaf_value=0.00026384672373632638 -2.07609278170452e-05 -0.0048285084776580334 -0.00037479896726204143 0.0028997089660081727 0.0055569725111126907 -9.5557496088611725e-05 -0.00030099071706805766 0.0021014356613159183 -0.0032757061067968593 -0.0013694251189008356 -0.010294702500104901 -0.0045016569038853057 2.7539304012147703e-05 0.00393595380435447
leaf_weight=612 14913 9.9999999999999982 118 12.999999999999998 19 17.000000000000004 29 9.9999999999999982 10.000000000000002 9.9999999999999982 10.000000000000002 9.9999999999999982 6492 26
leaf_count=612 14913 10 118 13 19 17 29 10 10 10 10 10 6492 26
internal_value=0 4.19182e-05 -0.000519478 -0.000344314 -0.000525311 0.000669503 0.00201779 -0.00109247 -0.0032096 -0.00497994 -0.0067852 -0.00172745 6.20749e-05 0.000413494
internal_weight=0 7386 256 246 233 75 48 158 40 30 20 27 7130 638
internal_count=22299 7386 256 246 233 75 48 158 40 30 20 27 7130 638
shrinkage=0.1


Tree=823
num_leaves=15
num_cat=0
split_feature=38 18 16 17 20 31 12 0 23 17 15 14 23 4
split_gain=0.00173815 0.0151418 0.0213472 0.0304438 0.0764444 0.100891 0.175994 0.115244 0.15782 0.0635507 0.0332476 0.0290105 0.0214139 0.0259221
threshold=-0.0025865649999999994 -1.9718649999999997e-08 4.7775650000000007e-07 1.6805450000000002e-06 1.2539600000000002 -0.22692099999999996 0.00011522950000000003 4.4138050000000009 -11.96805 6.0640350000000013e-07 1.4151350000000003e-06 0.0035589150000000006 -11.990499999999999 0.61727300000000007
decision_type=2 2 2 2 2 2 2 2 2 2 2 2 2 2
left_child=1 -1 -3 4 10 7 -7 9 -9 -6 11 -4 -5 -14
right_child=-2 2 3 12 5 6 -8 8 -10 -11 -12 -13 13 -15
leaf_value=0.00013018226809059967 1.2042597542794363e-05 -0.00053601413260728 -0.00030055465656168498 0.00030988613704699321 0.00038639155065859937 0.00083911718490223069 0.018350729181177236 -0.0035112386537631116 0.011861064684960773 -0.0096601720387116084 -0.0040152147445561628 0.0049809917729968824 -0.006215655794367194 -0.00092135663111164137
leaf_weight=1863 18801 1108 78 205 17.000000000000004 12.000000000000002 10.999999999999998 11.000000000000002 17 9.9999999999999982 21 11.999999999999998 9.9999999999999982 123
leaf_count=1863 18801 1108 78 205 17 12 11 11 17 10 21 12 10 123
internal_value=0 -6.47264e-05 -0.000286815 0.000237118 0.00125353 0.00365268 0.00921424 0.00132693 0.00582195 -0.00333456 -0.00043235 0.000403652 -0.000331233 -0.00131942
internal_weight=0 3498 1635 527 189 78 23 55 28 27 111 90 338 133
internal_count=22299 3498 1635 527 189 78 23 55 28 27 111 90 338 133
shrinkage=0.1


Tree=824
num_leaves=15
num_cat=0
split_feature=6 27 2 11 34 8 25 23 22 10 22 34 11 20
split_gain=0.00166468 0.00714996 0.0200846 0.00491855 0.00654947 0.0153499 0.0107689 0.00732194 0.0277728 0.0365386 0.0136019 0.0119907 0.0426686 0.0113854
threshold=-8.2341899999999975e-06 0.13474200000000003 0.45638050000000002 3.8746350000000002e-05 0.0027474700000000006 -3.2269099999999992e-05 0.20817750000000004 -7.3079149999999986 -2.4761599999999997 7.0402300000000015e-05 -2.0257349999999996 0.0088064750000000028 1.4598750000000001e-05 -6.0705549999999988
decision_type=2 2 2 2 2 2 2 2 2 2 2 2 2 2
left_child=1 2 -1 4 5 -3 -7 11 9 -9 -10 12 13 -6
right_child=-2 3 -4 -5 7 6 -8 8 10 -11 -12 -13 -14 -15
leaf_value=4.2860901885433123e-05 8.4199464888764493e-06 -0.001891298867329689 -0.0052912887770798986 -0.00033437935338296806 0.0029078796067430329 0.0011126000347594994 0.0047909420891664931 -0.0066291918948991231 0.0027141844702782691 2.8881507323068731e-05 -0.0003070704925268586 2.1926448751344023e-06 0.0073701060004532333 -0.00015764399600263303
leaf_weight=24 20365 13.999999999999998 9.9999999999999982 494 14.999999999999998 39 9.9999999999999982 15.999999999999998 15.999999999999998 17 217 989 9.9999999999999982 63
leaf_count=24 20365 14 10 494 15 39 10 16 16 17 217 989 10 63
internal_value=0 -8.86619e-05 -0.00152601 -6.2941e-05 3.24292e-05 0.00102893 0.00186328 -1.43166e-05 -0.000484148 -0.00319928 -9.96023e-05 0.000101723 0.00122031 0.00043188
internal_weight=0 1934 34 1900 1406 63 49 1343 266 33 233 1077 88 78
internal_count=22299 1934 34 1900 1406 63 49 1343 266 33 233 1077 88 78
shrinkage=0.1


Tree=825
num_leaves=15
num_cat=0
split_feature=1 21 3 23 6 33 3 10 22 13 3 23 23 1
split_gain=0.00162536 0.0260687 0.0885904 0.242339 0.0458086 0.168126 0.197719 0.214974 0.0445774 0.0709645 0.0873956 0.237922 0.207468 0.156809
threshold=7.8138950000000014 7.5504100000000012 -9.0837049999999984 -8.2647199999999987 -2.9715599999999998e-06 -1.5362849999999998e-06 -6.8076899999999991 2.5739400000000003e-05 1.4311150000000004 5.8115950000000009e-06 -6.8774499999999987 -6.8442899999999991 -8.969479999999999 9.3428500000000003
decision_type=2 2 2 2 2 2 2 2 2 2 2 2 2 2
left_child=-1 -2 3 -3 5 6 7 -4 -6 10 11 12 -10 -14
right_child=1 2 4 -5 8 -7 -8 -9 9 -11 -12 -13 13 -15
leaf_value=-1.1443291931575043e-05 -7.212639979025569e-05 0.016069783976910487 0.02249608652835542 -0.0028910800781367079 -0.0011874850949562356 -0.0013496899603725118 0.0016830414759067321 0.0047517582295565977 -0.0025661586108617486 -0.0018136536447723368 -0.00011051935809252716 -0.0086472708626057614 0.0052688115054652807 0.017806830766953923
leaf_weight=18903 2738 13.000000000000002 11.000000000000002 13.999999999999998 219 95 71 18 14.999999999999998 69 82 10.999999999999998 21 19
leaf_count=18903 2738 13 11 14 219 95 71 18 15 69 82 11 21 19
internal_value=0 6.36963e-05 0.000628867 0.00623822 0.000388847 0.00166289 0.00452485 0.0114824 -0.000180967 0.000834828 0.00206959 0.00477822 0.00746332 0.0112244
internal_weight=0 3396 658 27 631 195 100 29 436 217 148 66 55 40
internal_count=22299 3396 658 27 631 195 100 29 436 217 148 66 55 40
shrinkage=0.1


Tree=826
num_leaves=15
num_cat=0
split_feature=1 30 23 28 28 28 18 23 23 23 1 23 3 30
split_gain=0.0019083 0.0076939 0.00967592 0.0334085 0.00971514 0.0174882 0.0107273 0.0445355 0.0270133 0.0250434 0.0136915 0.00952107 0.0109433 0.00908603
threshold=10.942650000000002 5.0662500000000005e-05 -6.1118099999999993 0.0063493000000000013 0.0035884850000000002 0.0032563300000000004 5.8209300000000002e-07 -6.7748899999999992 -6.4403949999999996 -6.5395699999999986 11.152950000000002 -6.3955149999999987 -6.0725999999999987 0.00026797100000000004
decision_type=2 2 2 2 2 2 2 2 2 2 2 2 2 2
left_child=-1 -2 4 -4 5 11 8 -8 9 10 -6 -3 -13 -12
right_child=1 2 3 -5 6 -7 7 -9 -10 -11 13 12 -14 -15
leaf_value=-7.004153897122894e-06 -0.0022084852048595035 0.00034725861709748252 -0.00079204491938820423 0.0062806825816303247 -0.0039903705679038967 0.003833651659078896 -9.0261239856438837e-05 0.0063283668753380583 -0.0047007042138526838 0.0043302908137610018 -0.0013539623583169857 -0.0039623429829424078 -0.0001274519402574262 -7.1530283344354179e-05
leaf_weight=21090 13.999999999999998 669 17.000000000000004 10.999999999999998 10.999999999999998 13.999999999999998 109 11.999999999999998 14.999999999999998 10.999999999999998 74 10.999999999999998 23 218
leaf_count=21090 14 669 17 11 11 14 109 12 15 11 74 11 23 218
internal_value=0 0.000122182 0.000149487 0.00198653 0.00010541 0.000333989 -0.000258792 0.000546297 -0.000554888 -0.00035684 -0.000527 0.000264294 -0.00136815 -0.00039653
internal_weight=0 1209 1195 28 1167 717 450 121 329 314 303 703 34 292
internal_count=22299 1209 1195 28 1167 717 450 121 329 314 303 703 34 292
shrinkage=0.1


Tree=827
num_leaves=15
num_cat=0
split_feature=19 22 2 21 1 20 0 20 28 0 4 35 11 28
split_gain=0.00167871 0.0171008 0.0365943 0.0334202 0.0288902 0.0286404 0.0272583 0.0237009 0.0184878 0.018032 0.0175197 0.0305613 0.0202801 0.0178656
threshold=2.1853450000000002e-06 1.6390350000000002 0.98298500000000011 5.2005200000000009 10.942650000000002 -3.742435 -3.9455449999999996 -3.5105649999999997 0.0037951050000000004 3.4826800000000007 0.17523900000000001 -0.0078427699999999989 -5.135729999999999e-05 0.00062296050000000016
decision_type=2 2 2 2 2 2 2 2 2 2 2 2 2 2
left_child=1 -1 6 -4 5 9 7 10 -6 -5 12 -12 -3 -14
right_child=-2 2 3 4 8 -7 -8 -9 -10 -11 11 -13 13 -15
leaf_value=-0.00012734578085309549 1.7692617682607508e-05 0.00268110284708779 0.00023247768710556055 0.00037045525148807267 0.0036046797875314953 -0.0054349229917587602 0.00091743974214064628 0.00092134599723273287 -0.0011689188595736661 -0.0044485716517859457 -0.007175787048181519 -0.0010989299613963037 -0.0046302356477826842 -0.00030972719924799022
leaf_weight=5135 15750 22 145 22 9.9999999999999982 34 676 159 43 11.999999999999998 9.9999999999999982 48 9.9999999999999982 223
leaf_count=5135 15750 22 145 22 10 34 676 159 43 12 10 48 10 223
internal_value=0 -4.25498e-05 0.00026539 -0.000791457 -0.00201849 -0.00338265 0.00051027 -7.28808e-05 -0.00026824 -0.00133038 -0.000577935 -0.00214666 -0.000221127 -0.000495157
internal_weight=0 6549 1414 266 121 68 1148 472 53 34 313 58 255 233
internal_count=22299 6549 1414 266 121 68 1148 472 53 34 313 58 255 233
shrinkage=0.1


Tree=828
num_leaves=15
num_cat=0
split_feature=1 21 35 17 21 16 21 10 5 25 1 20 21 1
split_gain=0.0016225 0.0269796 0.038373 0.0445375 0.0416965 0.0362165 0.0293155 0.0175685 0.0225399 0.0255415 0.0195575 0.00693788 0.00531463 0.0104269
threshold=10.942650000000002 11.340100000000001 0.00078372600000000011 5.5977400000000007e-08 12.314950000000001 7.6004200000000021e-08 8.0172650000000019 4.2713650000000007e-05 3.0955650000000009e-05 0.40642150000000005 11.839500000000003 4.4761000000000006 -10.562449999999998 12.291450000000001
decision_type=2 2 2 2 2 2 2 2 2 2 2 2 2 2
left_child=-1 6 3 -3 -5 -4 11 8 9 10 -8 12 13 -2
right_child=1 2 5 4 -6 -7 7 -9 -10 -11 -12 -13 -14 -15
leaf_value=-6.4583917283723865e-06 -0.0025437296342874028 0.0088124756414729825 -0.0039163332578027619 -0.0034476512949913728 0.0046059918764512989 0.0035374823280356149 -0.0067554206432153784 0.0004522651294973912 -0.0062935232904485676 -2.7884009782260715e-05 -0.0019786929788021251 0.0006015411394357116 9.9456073856741189e-05 0.00028629572721304916
leaf_weight=21090 23 12.999999999999998 16.000000000000004 10.000000000000002 18 10.999999999999998 11.999999999999998 40 10.999999999999998 52 30 291 652 30
leaf_count=21090 23 13 16 10 18 11 12 40 11 52 30 291 652 30
internal_value=0 0.000112661 0.00204771 0.00397545 0.00172969 -0.000879594 -2.66173e-06 -0.00133113 -0.00201052 -0.00150932 -0.00334347 0.00019074 2.11751e-05 -0.000941828
internal_weight=0 1209 68 41 28 27 1141 145 105 94 42 996 705 53
internal_count=22299 1209 68 41 28 27 1141 145 105 94 42 996 705 53
shrinkage=0.1


Tree=829
num_leaves=15
num_cat=0
split_feature=1 24 19 20 15 34 20 0 0 4 20 29 12 14
split_gain=0.00163814 0.0108479 0.0157623 0.0407169 0.0597986 0.038281 0.037744 0.157372 0.208907 0.063972 0.0376376 0.0486395 0.0322462 0.0266216
threshold=3.6073900000000001 -0.15553049999999999 1.4184450000000002e-07 8.1961600000000008 3.2894150000000011e-08 0.0048415450000000009 7.0773050000000008 6.1675450000000014 8.0669700000000013 0.084340650000000003 8.504920000000002 -0.0025325049999999996 5.0650700000000006e-05 6.1412450000000005e-05
decision_type=2 2 2 2 2 2 2 2 2 2 2 2 2 2
left_child=-1 -2 3 6 10 -6 -3 9 -9 -8 12 13 -5 -12
right_child=1 2 -4 4 5 -7 7 8 -10 -11 11 -13 -14 -15
leaf_value=2.0742057437497283e-05 0.00012765866707816189 -0.00034068014577922099 -2.1544355896173015e-05 -0.0090794184058904624 -0.0010722467582672832 -0.0087889975143803489 -0.0002300063814883205 0.013794035343208203 -0.00052059879380976786 -0.0098762580752372736 0.0012294069935083636 0.0056510295728003264 -0.0013905891062070928 -0.0019119634811060129
leaf_weight=14063 2728 1047 4195 10.000000000000002 10.000000000000002 18 22 19 22 9.9999999999999982 38 11.999999999999998 11.999999999999998 93
leaf_count=14063 2728 1047 4195 10 10 18 22 19 22 10 38 12 12 93
internal_value=0 -3.54171e-05 -0.000116185 -0.00041856 -0.00176004 -0.00603302 -0.000187394 0.00201111 0.00611301 -0.00324446 -0.00103493 -0.000442537 -0.00488551 -0.00100073
internal_weight=0 8236 5508 1313 193 28 1120 73 41 32 165 143 22 131
internal_count=22299 8236 5508 1313 193 28 1120 73 41 32 165 143 22 131
shrinkage=0.1


Tree=830
num_leaves=15
num_cat=0
split_feature=6 26 20 5 26 10 13 33 23 20 17 33 39 5
split_gain=0.00171065 0.0192324 0.0125918 0.0158352 0.0109229 0.0138776 0.0192556 0.0810558 0.0423056 0.0279194 0.046912 0.0389129 0.0219586 0.0450547
threshold=4.2190250000000007e-06 0.096042700000000022 12.574100000000003 2.1326100000000002e-05 8.4939000000000008e-05 4.9413250000000007e-05 -3.0406999999999999e-05 1.0061280000000002e-05 -12.387749999999999 6.4716200000000006 2.6007000000000004e-06 4.3506400000000006e-06 1.1147250000000004e-06 1.2181950000000001e-05
decision_type=2 2 2 2 2 2 2 2 2 2 2 2 2 2
left_child=-1 2 4 -4 5 6 7 9 -9 11 -11 -2 13 -8
right_child=1 -3 3 -5 -6 -7 12 8 -10 10 -12 -13 -14 -15
leaf_value=1.1794673607051158e-05 -0.00024478958408710445 0.0043140282534295691 -0.0034044459317810836 -0.00036912149194077678 0.000256009485704228 5.5166667026721624e-05 0.0049314631894230845 -0.0028404091042466451 -0.012038841750472784 -0.0014990145553989954 0.0077748889604117716 -0.0071411819383502013 -0.0001095218417724701 -0.0020594518398596292
leaf_weight=18876 45 9.9999999999999982 25 55 872 1375 9.9999999999999982 10.000000000000002 9.9999999999999982 12.000000000000002 9.9999999999999982 9.9999999999999982 861 118
leaf_count=18876 45 10 25 55 872 1375 10 10 10 12 10 10 861 118
internal_value=0 -6.50413e-05 -7.78718e-05 -0.00131766 -4.81139e-05 -0.000155873 -0.000423074 -0.00176762 -0.00743963 -0.000294372 0.0027164 -0.00149868 -0.000291202 -0.00151329
internal_weight=0 3423 3413 80 3333 2461 1086 97 20 77 22 55 989 128
internal_count=22299 3423 3413 80 3333 2461 1086 97 20 77 22 55 989 128
shrinkage=0.1


Tree=831
num_leaves=15
num_cat=0
split_feature=27 19 19 26 19 26 25 33 20 12 21 14 35 22
split_gain=0.00168263 0.012266 0.0278374 0.032375 0.0222388 0.0494326 0.0284812 0.0669747 0.0827503 0.0736039 0.0506148 0.0316957 0.0302383 0.0220954
threshold=0.42484400000000005 1.1444150000000001e-07 1.0086700000000001e-07 5.6888250000000005e-05 2.6393800000000007e-07 0.00010111150000000002 0.20358750000000003 -3.4528699999999996e-06 4.2412050000000008 -5.3139449999999991e-05 -4.8300649999999994 0.00037720150000000008 0.00041554400000000006 -2.6871649999999998
decision_type=2 2 2 2 2 2 2 2 2 2 2 2 2 2
left_child=1 2 13 -4 5 6 12 8 9 -8 -11 -12 -3 -1
right_child=-2 4 3 -5 -6 -7 7 -9 -10 10 11 -13 -14 -15
leaf_value=-0.0013237695029788919 -2.5880718069236917e-05 0.00042070758395274134 -0.0010812824162153096 -0.0077765706973150373 5.0946205204789911e-05 -0.0057023441588336769 0.0086202898106421347 0.00051638839549774339 0.010730278394476045 -0.0059709562174975897 -0.00035973743797512709 0.0068169993464834988 -0.005300943820620887 -4.8801036338085084e-05
leaf_weight=146 11813 121 26 9.9999999999999982 8004 10.999999999999998 13.999999999999998 122 15.999999999999998 9.9999999999999947 16.000000000000007 9.9999999999999982 9.9999999999999982 1970
leaf_count=146 11813 121 26 10 8004 11 14 122 16 10 16 10 10 1970
internal_value=0 2.91559e-05 -0.000183684 -0.00294108 8.41152e-05 0.000888615 0.00111589 0.00190464 0.00447081 0.00246777 7.51287e-05 0.00240055 -1.60597e-05 -0.000136771
internal_weight=0 10486 2152 36 8334 330 319 188 66 50 36 26 131 2116
internal_count=22299 10486 2152 36 8334 330 319 188 66 50 36 26 131 2116
shrinkage=0.1


Tree=832
num_leaves=15
num_cat=0
split_feature=7 23 30 14 9 37 31 32 24 31 4 7 37 21
split_gain=0.00167188 0.010084 0.0240691 0.0214733 0.00721134 0.00883058 0.00670151 0.0115493 0.0112875 0.00577869 0.00406888 0.00358138 0.0242137 0.0798614
threshold=1.2760950000000002e-05 -7.1033849999999985 0.00014404450000000003 0.00017223500000000005 -9.8065199999999981e-06 -5.6624099999999994e-07 -0.090617699999999982 0.080665950000000014 0.25594300000000009 -0.020515799999999997 -0.12416399999999998 2.0669200000000005e-05 4.9602750000000011e-08 -5.5189749999999993
decision_type=2 2 2 2 2 2 2 2 2 2 2 2 2 2
left_child=1 2 -1 -3 -4 -6 10 9 -9 -8 -7 12 -2 -14
right_child=11 3 4 -5 5 6 7 8 -10 -11 -12 -13 13 -15
leaf_value=0.0040201645411018817 -0.00033991629879892571 -0.005728595865657553 -0.0029237808304606004 -0.00033023436138007256 -0.0029738531121984123 -0.0021005283142181315 -0.001870128312813385 0.0050579786021262389 0.0003066676066373475 0.00044442182134321704 0.00034067296761680735 -1.2420131807462725e-06 0.010252585104608443 0.00046311467455234382
leaf_weight=13.999999999999998 128 9.9999999999999982 9.9999999999999982 28 9.9999999999999982 18.000000000000004 13.999999999999991 10.000000000000002 9.9999999999999982 47.000000000000007 10.999999999999998 21929 9.9999999999999982 50
leaf_count=14 128 10 10 28 10 18 14 10 10 47 11 21929 10 50
internal_value=0 -0.000301847 8.05302e-05 -0.00175086 -0.000343738 -0.000128735 0.000129913 0.000596944 0.00268232 -8.67864e-05 -0.00117456 2.48389e-06 0.000437087 0.00209469
internal_weight=0 182 144 38 130 120 110 81 20 61 29 22117 188 60
internal_count=22299 182 144 38 130 120 110 81 20 61 29 22117 188 60
shrinkage=0.1


Tree=833
num_leaves=15
num_cat=0
split_feature=37 13 4 3 27 14 5 7 7 23 23 29 34 33
split_gain=0.00169852 0.0120718 0.0283474 0.0510196 0.0495359 0.0468596 0.0800319 0.0477991 0.0435027 0.0456168 0.0465426 0.0478045 0.0333159 0.0362372
threshold=4.9602750000000011e-08 2.1532450000000004e-05 0.053110600000000008 -8.5183349999999987 11.533800000000001 0.0043134550000000016 7.9965000000000021e-06 3.3177900000000013e-05 3.8347250000000008e-05 -16.786249999999999 -9.8381649999999983 0.010438950000000002 0.0073015700000000011 -1.0960499999999998e-05
decision_type=2 2 2 2 2 2 2 2 2 2 2 2 2 2
left_child=-1 2 -2 4 5 6 -4 -8 9 -9 11 -11 -5 -14
right_child=1 -3 3 12 -6 -7 7 8 -10 10 -12 -13 13 -15
leaf_value=1.9257991212818207e-05 7.2493491303781104e-05 0.00011043805924535744 -0.0087841642445282038 -0.0035026224739677101 0.00060296573945820323 0.00013565438868161955 -0.00028693348027965319 0.0017984020058065655 -0.00172386560690859 -0.0093093392537963223 -0.0019624555138871074 -0.0019389062033345302 -0.00071114176114597219 0.00049410785175131274
leaf_weight=14997 2428 3093 17 27 132 126 140 9.9999999999999982 183 33 25 11.999999999999998 393 683
leaf_count=14997 2428 3093 17 27 132 126 140 10 183 33 25 12 393 683
internal_value=0 -3.95525e-05 -0.000149774 -0.000452786 -0.00113545 -0.00155573 -0.00206315 -0.00177963 -0.00257422 -0.00451941 -0.00542195 -0.00734389 -3.31585e-05 5.39005e-05
internal_weight=0 7302 4209 1781 678 546 420 403 263 80 70 45 1103 1076
internal_count=22299 7302 4209 1781 678 546 420 403 263 80 70 45 1103 1076
shrinkage=0.1


Tree=834
num_leaves=15
num_cat=0
split_feature=4 24 19 20 0 4 37 25 6 4 4 0 4 37
split_gain=0.00204828 0.0180768 0.0235555 0.0281711 0.107404 0.250119 0.366807 0.195233 0.12826 0.053709 0.0396047 0.0347397 0.108136 0.0910435
threshold=-0.0070907799999999988 -0.16671349999999999 0.00089616750000000008 4.4308650000000016 3.8113050000000004 -1.4166899999999998 1.1972150000000003e-07 4.2328550000000016 2.3224500000000005e-06 -0.11015499999999999 -2.1235899999999996 3.8760700000000008 -1.4166899999999998 -2.1885549999999997e-08
decision_type=2 2 2 2 2 2 2 2 2 2 2 2 2 2
left_child=1 2 -1 9 10 -6 -7 8 -8 11 -5 -4 -13 -14
right_child=-2 -3 3 4 5 6 7 -9 -10 -11 -12 12 13 -15
leaf_value=-0.00041307723936951561 3.0230221510558553e-05 5.5385590366703771e-05 0.00046181526940941532 0.00044799311947854494 -0.00097492158098180814 -0.0037777307839132845 0.013296111402186473 0.0037710339576005935 0.028944086879491807 -0.0031042089195627916 -0.0029063065964389052 0.00062894811682891682 -0.00050832399747958599 -0.0067326243897464048
leaf_weight=2237 11178 7656 632 132 54 14.999999999999998 11.000000000000005 9.9999999999999982 9.9999999999999982 57 48 165 47 47
leaf_count=2237 11178 7656 632 132 54 15 11 10 10 57 48 165 47 47
internal_value=0 -3.03852e-05 -0.000219898 0.00013201 0.00101332 0.00364097 0.00905962 0.0152712 0.0207475 -0.000128292 -0.000446487 6.20865e-05 -0.000913313 -0.00362047
internal_weight=0 11121 3465 1228 280 100 46 31 21 948 180 891 259 94
internal_count=22299 11121 3465 1228 280 100 46 31 21 948 180 891 259 94
shrinkage=0.1


Tree=835
num_leaves=15
num_cat=0
split_feature=13 19 36 34 38 32 11 35 19 6 28 13 31 19
split_gain=0.00227851 0.00800846 0.0306217 0.0271021 0.0267478 0.00994779 0.00714377 0.0133116 0.0371033 0.0728716 0.0129106 0.0136746 0.0114492 0.0382748
threshold=0.00010502750000000002 5.8759050000000008e-05 0.0035689400000000005 0.61395300000000008 -0.00085502699999999985 0.022651250000000005 0.00011949950000000001 0.00078372600000000011 1.3381100000000001e-05 7.7576600000000007e-07 -0.18709999999999996 -8.9909799999999984e-05 -0.49337099999999995 0.0011734150000000004
decision_type=2 2 2 2 2 2 2 2 2 2 2 2 2 2
left_child=6 2 4 -4 -2 -6 -1 -8 9 -9 -10 -12 13 -13
right_child=1 -3 3 -5 5 -7 7 8 10 -11 11 12 -14 -15
leaf_value=-1.0019415971031769e-07 0.0063068721909075977 -8.1090384270124291e-05 -0.0049798904918134206 0.0018363223574124278 0.0017548161430750043 -0.0017714765854179859 3.9153606424359827e-05 -0.00048689098912291213 -0.0027012150802571949 0.011071567070903258 -0.0025232516533623523 0.0077116905781440441 0.00055412751060746003 0.00034808853621749828
leaf_weight=16610 11.999999999999998 4500 14.000000000000002 9.9999999999999982 40 9.9999999999999982 780 12.000000000000002 11.999999999999998 9.9999999999999982 12.999999999999998 9.9999999999999982 242 24
leaf_count=16610 12 4500 14 10 40 10 780 12 12 10 13 10 242 24
internal_value=0 -6.2822e-05 0.000893083 -0.0021398 0.0020671 0.00104956 1.6265e-05 0.000262707 0.000802557 0.00476695 0.000512801 0.000646255 0.000795543 0.00251385
internal_weight=0 4586 86 24 62 50 17713 1103 323 22 301 289 276 34
internal_count=22299 4586 86 24 62 50 17713 1103 323 22 301 289 276 34
shrinkage=0.1


Tree=836
num_leaves=15
num_cat=0
split_feature=7 23 23 8 1 22 19 12 10 14 23 8 22 14
split_gain=0.00193586 0.00904903 0.0189492 0.0510094 0.076807 0.0250722 0.0351101 0.0250755 0.0291839 0.0372625 0.0172798 0.0281677 0.0821818 0.0426037
threshold=3.5305950000000007e-05 -7.7439199999999992 -7.5900949999999989 1.1470150000000002e-05 -10.412999999999998 -1.4672799999999997 1.2466600000000002e-08 6.3535300000000015e-05 1.4344850000000002e-05 0.00044905900000000008 -8.0189849999999989 1.2651950000000002e-05 -0.90996749999999993 0.00065207900000000018
decision_type=2 2 2 2 2 2 2 2 2 2 2 2 2 2
left_child=1 10 3 5 -5 6 -3 8 9 -7 -1 13 -13 -12
right_child=-2 2 -4 4 -6 7 -8 -9 -10 -11 11 12 -14 -15
leaf_value=1.8187369784158349e-05 -2.0275415685853348e-05 -0.0065098322182893763 0.00012608423266509956 -0.0012009229976683853 0.010273792751000398 0.010013050413690504 1.5530020910057616e-05 -0.0011535494856966229 0.0011341227857774355 0.0017477911664173008 -0.0023687768376476018 0.0082617561117960866 -0.0013594374592815128 0.00014359311747135344
leaf_weight=4788 15133 9.9999999999999982 1888 10.000000000000002 13.999999999999998 10.000000000000002 47 26 50 11.999999999999998 136 12.999999999999998 28 134
leaf_count=4788 15133 10 1888 10 14 10 47 26 50 12 136 13 28 134
internal_value=0 4.28172e-05 0.000219313 0.00120264 0.00549266 0.000538383 -0.00112927 0.00150835 0.00246959 0.00550473 -2.87296e-05 -0.00075104 0.00169118 -0.0011219
internal_weight=0 7166 2067 179 24 155 57 98 72 22 5099 311 41 270
internal_count=22299 7166 2067 179 24 155 57 98 72 22 5099 311 41 270
shrinkage=0.1


Tree=837
num_leaves=15
num_cat=0
split_feature=13 19 36 38 33 25 16 36 19 31 19 28 23 33
split_gain=0.00184259 0.00650825 0.0248044 0.0221616 0.0198782 0.00906215 0.00595726 0.0074304 0.0125559 0.0265797 0.00792355 0.0126519 0.0189379 0.00615465
threshold=0.00010502750000000002 5.8759050000000008e-05 0.0035689400000000005 -0.0010245199999999999 -1.1859599999999999e-05 0.21605850000000001 6.6670550000000008e-05 0.00022516100000000001 0.063964400000000018 -0.029966349999999996 0.043472150000000008 -0.017924649999999997 -12.491699999999998 1.8947750000000002e-05
decision_type=2 2 2 2 2 2 2 2 2 2 2 2 2 2
left_child=6 2 3 -2 -4 -5 13 8 -8 -10 -9 -12 -13 -1
right_child=1 -3 4 5 -6 -7 7 10 9 -11 11 12 -14 -15
leaf_value=2.8128887169539332e-05 0.0061731547769159085 -7.296248184808671e-05 -0.0045717279390933415 -0.0007815523590478633 0.0012042515318502079 0.0019933102299760589 0.00041343489223341547 0.00014227028492319152 0.0067452404834330059 0.00048131437839141916 0.0019067310098431667 -0.0045093262205174308 -0.00027807679975272291 -0.00013567596153738468
leaf_weight=14111 9.9999999999999982 4500 13.000000000000002 18 10.999999999999998 34 403 373 10.000000000000002 21 10.999999999999998 16.999999999999996 28.000000000000004 2739
leaf_count=14111 10 4500 13 18 11 34 403 373 10 21 11 17 28 2739
internal_value=0 -5.64938e-05 0.000805238 0.00186187 -0.0019244 0.00103278 1.46266e-05 0.000270881 0.000562614 0.00250194 -2.42514e-05 -0.0011334 -0.00187655 1.50209e-06
internal_weight=0 4586 86 62 24 52 17713 863 434 31 429 56 45 16850
internal_count=22299 4586 86 62 24 52 17713 863 434 31 429 56 45 16850
shrinkage=0.1


Tree=838
num_leaves=15
num_cat=0
split_feature=2 22 19 13 22 25 20 13 0 16 21 37 19 17
split_gain=0.00178862 0.0180979 0.0242796 0.0577656 0.0300449 0.0220604 0.0115484 0.0169383 0.0276624 0.0155639 0.00884718 0.00817393 0.00752096 0.00738667
threshold=-2.7883099999999996 -2.7756699999999994 1.8368750000000003e-06 1.3903400000000001e-05 -2.9974099999999999 1.3090250000000003 -6.9057099999999991 1.5247800000000002e-05 -11.792799999999998 -7.382019999999998e-08 -7.6390449999999985 -8.8442599999999985e-08 1.5129550000000005e-07 1.0000000180025095e-35
decision_type=2 2 2 2 2 2 2 2 2 2 2 2 2 2
left_child=1 2 3 4 -1 11 7 8 -3 -10 13 -4 -9 -8
right_child=-2 6 5 -5 -6 -7 10 12 9 -11 -12 -13 -14 -15
leaf_value=0.0038249770112228224 -6.5434195159640307e-06 0.000281765460486299 -0.00020575715690418809 0.0082184162301321816 -0.0029737647658643809 0.0027162079986951808 -7.0420585980173205e-05 0.0027688240422867241 -0.0059475215721047593 -0.0017890104185426027 -7.550883229664364e-07 -0.0036880206459989915 -0.00019692950196967707 0.0013944783236129496
leaf_weight=12.999999999999998 21169 29 14.000000000000002 14.999999999999998 13.000000000000002 17 55 9.9999999999999982 18 18 764 12.999999999999998 59 92
leaf_count=13 21169 29 14 15 13 17 55 10 18 18 764 13 59 92
internal_value=0 0.000122582 0.0015258 0.00327663 0.000425606 -0.000105667 8.44498e-06 -0.000858336 -0.00201671 -0.00386827 0.000135941 -0.0018824 0.00023289 0.000846387
internal_weight=0 1130 85 41 26 44 1045 134 65 36 911 27 69 147
internal_count=22299 1130 85 41 26 44 1045 134 65 36 911 27 69 147
shrinkage=0.1


Tree=839
num_leaves=15
num_cat=0
split_feature=0 36 20 3 13 22 16 26 19 0 15 20 3 20
split_gain=0.00177301 0.0122401 0.0202499 0.0383463 0.0552677 0.108572 0.0399037 0.0346203 0.0470559 0.046547 0.0148267 0.0139468 0.0275224 0.0230021
threshold=-6.9891999999999994 0.00014921300000000001 -7.3536449999999993 -5.8561999999999985 -4.7535799999999991e-06 2.3063800000000003 -2.6095649999999993e-07 -5.7952199999999997e-05 1.6630700000000002e-06 -9.7830299999999983 -5.1217499999999997e-06 -2.3186099999999996 -9.3355199999999972 -5.4229999999999992
decision_type=2 2 2 2 2 2 2 2 2 2 2 2 2 2
left_child=1 -1 3 4 5 -3 10 -8 9 -9 -6 12 13 -4
right_child=-2 2 11 -5 6 -7 7 8 -10 -11 -12 -13 -14 -15
leaf_value=-0.00011463390445452286 -1.2591028160037648e-05 -0.00010686895043096122 0.0062720333799370564 -0.00072718048424135449 0.00035862903750967235 0.011036920920014383 -0.00045316718498487836 0.0028585392469540239 0.00012374910293146967 0.01250706400722265 -0.0038826248471570367 0.00033107208469484707 -0.00053673783330807025 0.00085063940690209474
leaf_weight=1894 18592 17 9.9999999999999982 66 15.999999999999998 18 23 9.9999999999999982 13.999999999999998 10.000000000000002 17 1118 458 36
leaf_count=1894 18592 17 10 66 16 18 23 10 14 10 17 1118 458 36
internal_value=0 6.31487e-05 0.000248874 0.00122279 0.00225238 0.00562422 0.000941101 0.00254326 0.00457025 0.0076828 -0.00182626 0.00013419 -0.000302545 0.0020292
internal_weight=0 3707 1813 191 125 35 90 57 34 20 33 1622 504 46
internal_count=22299 3707 1813 191 125 35 90 57 34 20 33 1622 504 46
shrinkage=0.1


Tree=840
num_leaves=15
num_cat=0
split_feature=5 20 0 17 20 25 27 0 9 31 6 33 6 15
split_gain=0.00168572 0.0181939 0.0418562 0.0732539 0.0155914 0.0154353 0.0366686 0.0411379 0.0917404 0.2297 0.0543665 0.0872743 0.0676653 0.0336745
threshold=1.0873100000000001e-05 12.574100000000003 8.365140000000002 3.6942600000000004e-07 18.386200000000002 0.20358750000000003 0.36125050000000009 7.5518050000000008 3.1042050000000009e-05 -0.040373849999999996 -2.1510199999999995e-06 -3.7460849999999998e-06 -2.8622699999999997e-06 2.0594650000000002e-07
decision_type=2 2 2 2 2 2 2 2 2 2 2 2 2 2
left_child=1 5 4 -4 -3 -1 7 8 10 -10 11 12 -7 -12
right_child=-2 2 3 -5 -6 6 -8 -9 9 -11 13 -13 -14 -15
leaf_value=-0.00036470989837567296 -1.386135845407905e-05 0.0011692529457883762 -2.0242133177816865e-05 0.011568497698754072 -0.0021075588953681289 -0.0010219797135933358 -9.4719454895200161e-05 -0.00060195005927542091 0.01787934872237119 0.001193296253173189 0.0013631650030671398 0.00096441125456476595 -0.0098194199976407836 -0.00018025239805865569
leaf_weight=826 17780 53 12.000000000000002 9.9999999999999982 20 17 2516 225 10.999999999999998 33 536 50 18 192
leaf_count=826 17780 53 12 10 20 17 2516 225 11 33 536 50 18 192
internal_value=0 5.45375e-05 0.0014238 0.00524737 0.000271496 2.51342e-05 0.000114631 0.00060144 0.000917383 0.00536481 0.000676686 -0.0017165 -0.00554638 0.00095611
internal_weight=0 4519 95 22 73 4424 3598 1082 857 44 813 85 35 728
internal_count=22299 4519 95 22 73 4424 3598 1082 857 44 813 85 35 728
shrinkage=0.1


Tree=841
num_leaves=15
num_cat=0
split_feature=25 5 20 9 25 6 33 11 14 6 14 24 4 20
split_gain=0.00184485 0.0176421 0.0373547 0.0354434 0.0749725 0.0347563 0.0785129 0.0339471 0.0626767 0.0380588 0.0334293 0.0273386 0.0237566 0.0222734
threshold=0.18478900000000004 1.0163000000000002e-05 5.4892650000000005 2.4512850000000004e-05 0.16894050000000002 2.9932050000000003e-06 5.1041500000000011e-07 2.4624650000000001e-05 0.0012826400000000003 2.1699400000000004e-06 0.00042424250000000003 -0.07018294999999998 0.14191850000000003 -2.5775849999999996
decision_type=2 2 2 2 2 2 2 2 2 2 2 2 2 2
left_child=1 2 5 10 -5 7 -7 9 -9 12 11 -4 13 -1
right_child=-2 -3 3 4 -6 6 -8 8 -10 -11 -12 -13 -14 -15
leaf_value=6.3314074223059459e-05 -1.0765632261276113e-05 0.00019245793618936997 -0.0066996486434205017 0.0093007645104080435 -0.0004564491930068471 -0.00045139914977231202 -0.010591149042981368 -0.0076132463928508132 -0.00044232905724236529 0.0042042463991997974 0.0011901746189881426 -0.00059391600608995016 0.0011938941892207879 -0.0022316883966086208
leaf_weight=79 19559 2269 10.999999999999998 13.999999999999998 18 21 11.999999999999998 19 34 18 75 22 57 91
leaf_count=79 19559 2269 11 14 18 21 12 19 34 18 75 22 57 91
internal_value=0 7.68485e-05 -0.000480089 0.000889253 0.00381233 -0.00105927 -0.00413858 -0.000718269 -0.00301304 -0.000221851 2.31556e-05 -0.00262916 -0.000572819 -0.00116519
internal_weight=0 2740 471 140 32 331 33 298 53 245 108 33 227 170
internal_count=22299 2740 471 140 32 331 33 298 53 245 108 33 227 170
shrinkage=0.1


Tree=842
num_leaves=15
num_cat=0
split_feature=7 30 30 14 6 33 35 6 17 14 37 3 33 5
split_gain=0.00175068 0.00786959 0.0292447 0.070469 0.0265576 0.0676527 0.0293467 0.0270394 0.024023 0.0373441 0.111195 0.0276401 0.0421771 0.0779709
threshold=3.5305950000000007e-05 9.2816950000000013e-05 9.3240700000000017e-05 0.00070241750000000016 3.940420000000001e-06 1.7936250000000003e-06 -0.00013653549999999997 -5.3901199999999991e-06 2.6095550000000003e-08 0.00027030200000000004 -1.6982299999999999e-08 -9.4020749999999982 2.3642500000000007e-06 1.0109050000000003e-05
decision_type=2 2 2 2 2 2 2 2 2 2 2 2 2 2
left_child=1 4 3 -3 6 -6 -1 -8 9 10 -9 -10 -13 -14
right_child=-2 2 -4 -5 5 -7 7 8 11 -11 -12 12 13 -15
leaf_value=0.0012759977758886737 -1.9281322067634373e-05 -0.0086969720772825752 1.9397259378242633e-05 0.00076037551101762804 -0.0018792608077637845 0.0097528218571096663 -0.0052802708931267263 0.010763622178430004 0.00039999996864460865 0.00020307679086977587 -0.00074179185654169749 -0.00073183806658379421 -0.011985137145966288 -0.0007289104134542868
leaf_weight=203 15133 12.999999999999998 6348 20 10.000000000000002 9.9999999999999982 9.9999999999999982 13.999999999999998 184 138 21 169 10.000000000000002 15.999999999999998
leaf_count=203 15133 13 6348 20 10 10 10 14 184 138 21 169 10 16
internal_value=0 4.07179e-05 3.96187e-06 -0.00296525 0.000339495 0.00393678 0.000245448 -0.000126796 -3.34364e-05 0.000942992 0.00386037 -0.000479141 -0.00130869 -0.00505823
internal_weight=0 7166 6381 33 785 20 765 562 552 173 35 379 195 26
internal_count=22299 7166 6381 33 785 20 765 562 552 173 35 379 195 26
shrinkage=0.1


Tree=843
num_leaves=15
num_cat=0
split_feature=29 7 9 9 25 29 4 22 19 13 17 25 9 11
split_gain=0.00174435 0.0113054 0.0143945 0.0184075 0.0682419 0.0114689 0.0203685 0.0101926 0.0161665 0.014739 0.00888758 0.0224929 0.0297307 0.0110812
threshold=-0.020851599999999998 2.9906400000000006e-05 2.6990300000000001e-05 2.4512850000000004e-05 3.2512000000000003 -0.39630949999999993 -0.32811699999999994 0.94105050000000012 0.0030341400000000007 1.7836400000000001e-05 4.9118450000000005e-07 1.3871900000000001 1.2301350000000002e-05 7.7900200000000014e-06
decision_type=2 2 2 2 2 2 2 2 2 2 2 2 2 2
left_child=1 2 3 5 -5 6 -1 10 9 -9 13 -12 -13 -7
right_child=-2 -3 -4 4 -6 7 -8 8 -10 -11 11 12 -14 -15
leaf_value=-0.0040416026907041675 -1.0969835248835546e-05 -1.7321253994474815e-05 -0.0030777789805804126 0.0084600013456880459 -0.0010482003003643413 0.00081863468820025313 0.00015991360298357905 -0.00040911028564940877 0.0023934681255083821 -0.0045979507500305775 -0.0018396056598673266 0.0013001241447584888 0.0060748201301869227 -0.00092179602837528694
leaf_weight=14.999999999999998 19326 2464 10.999999999999998 13.000000000000002 18 217 50 28 12.999999999999998 11.999999999999998 14.999999999999998 56 17 44
leaf_count=15 19326 2464 11 13 18 217 50 28 13 12 15 56 17 44
internal_value=0 7.13095e-05 0.000500359 0.000579394 0.00293911 0.000422753 -0.000809667 0.000622025 -0.000670102 -0.00166576 0.000818251 0.00168733 0.00241204 0.000525229
internal_weight=0 2973 509 498 31 467 65 402 53 40 349 88 73 261
internal_count=22299 2973 509 498 31 467 65 402 53 40 349 88 73 261
shrinkage=0.1


Tree=844
num_leaves=15
num_cat=0
split_feature=1 21 1 21 29 26 21 10 23 3 3 23 3 3
split_gain=0.00165854 0.0229819 0.0718682 0.200243 0.166657 0.164344 0.040765 0.0504847 0.0229618 0.0396051 0.0582248 0.207032 0.246277 0.156249
threshold=7.8138950000000014 7.5504100000000012 8.503045000000002 9.626260000000002 0.0013697600000000002 7.6573700000000009e-05 5.6233250000000004 1.4541750000000002e-05 -8.969479999999999 -8.7743599999999997 -7.3418849999999987 -7.9228199999999989 -7.7975399999999988 -7.6874749999999992
decision_type=2 2 2 2 2 2 2 2 2 2 2 2 2 2
left_child=-1 6 3 4 5 -3 -2 -8 -4 -10 11 12 -11 -13
right_child=1 2 8 -5 -6 -7 7 -9 9 10 -12 13 -14 -15
leaf_value=-1.1559500986700752e-05 5.4770599144838335e-05 0.021090109703632495 -0.0011561430114947835 -0.0014964268046120804 0.00081843070358062452 0.0051892727197040446 -0.0067471659138391262 -0.00092748122959899169 -0.0051882215581523878 0.016640734476478472 -1.0540133506617357e-06 -0.0025732716932506559 -0.0016581643629857961 0.0083076215308050035
leaf_weight=18903 2504 13.000000000000002 105 45 19 12.999999999999998 15.999999999999998 218 11.999999999999998 19.000000000000004 344 59 11.999999999999998 17
leaf_count=18903 2504 13 105 45 19 13 16 218 12 19 344 59 12 17
internal_value=0 6.43431e-05 0.000594999 0.00322048 0.00793738 0.0131397 -6.31848e-05 -0.00132541 0.00017899 0.000481774 0.000632638 0.00266993 0.00955729 -0.000139388
internal_weight=0 3396 658 90 45 26 2738 234 568 463 451 107 31 76
internal_count=22299 3396 658 90 45 26 2738 234 568 463 451 107 31 76
shrinkage=0.1


Tree=845
num_leaves=15
num_cat=0
split_feature=1 30 23 1 22 23 14 32 30 26 3 28 38 34
split_gain=0.00182017 0.00571975 0.00670497 0.0303672 0.073394 0.0139692 0.0130048 0.00791734 0.016931 0.0178061 0.00921041 0.0310515 0.0108576 0.0232165
threshold=10.942650000000002 5.0662500000000005e-05 -6.1422399999999984 11.736000000000002 1.2119450000000003 -6.332984999999999 9.8390450000000016e-05 -0.058909399999999994 0.00026797100000000004 -5.5229049999999993e-05 -6.2342049999999993 0.00545481 -2.7657799999999995e-05 0.0042898350000000014
decision_type=2 2 2 2 2 2 2 2 2 2 2 2 2 2
left_child=-1 -2 5 -4 -5 7 -7 8 9 -3 11 12 -9 -14
right_child=1 2 3 4 -6 6 -8 10 -10 -11 -12 -13 13 -15
leaf_value=-6.8405077900715824e-06 -0.0018902062126601648 -0.00016827233290920651 -0.0033566409151535486 -0.0010320358521615463 0.0090643035247921951 0.00078382554231211517 -0.0037139193556261795 -0.00019886923133568881 -3.4713033065517349e-05 -0.0051270364222416121 0.00013657151989500142 0.0058608155852804579 0.0059163043403532359 0.00080208112760166985
leaf_weight=21090 13.999999999999998 15.000000000000002 9.9999999999999982 18.000000000000004 11.999999999999998 10.000000000000002 18 86 308 13.999999999999998 603 11.999999999999998 9.9999999999999982 79
leaf_count=21090 14 15 10 18 12 10 18 86 308 14 603 12 10 79
internal_value=0 0.000119327 0.00014287 0.00141571 0.0030065 9.87884e-05 -0.00210758 0.000153605 -0.000252208 -0.00256216 0.000326718 0.000939864 0.000602427 0.00137671
internal_weight=0 1209 1195 40 30 1155 28 1127 337 29 790 187 175 89
internal_count=22299 1209 1195 40 30 1155 28 1127 337 29 790 187 175 89
shrinkage=0.1


Tree=846
num_leaves=15
num_cat=0
split_feature=27 21 0 5 5 34 26 8 11 29 10 12 14 14
split_gain=0.00175861 0.00780747 0.00691939 0.00763436 0.0230499 0.0303527 0.0111279 0.00946853 0.0371378 0.0548302 0.102265 0.0174165 0.0228163 0.0198499
threshold=4.622910000000001 -16.273949999999996 -12.574549999999999 1.9054550000000005e-05 1.9469650000000001e-05 0.37802400000000008 0.0013908300000000002 1.5451500000000003e-05 -1.6653949999999998e-06 0.13038900000000003 2.1791100000000006e-05 -5.5952699999999997e-05 0.00048074400000000002 0.00054681050000000007
decision_type=2 2 2 2 2 2 2 2 2 2 2 2 2 2
left_child=1 -1 -2 7 5 -5 -7 11 9 10 -9 12 -4 -14
right_child=2 -3 3 4 -6 6 -8 8 -10 -11 -12 -13 13 -15
leaf_value=-0.0022192300180904566 -0.00075155553629038612 -9.315333959156688e-06 -0.0028516108628965039 -0.0071970557820168332 -2.207491940579961e-05 0.00042060188259876506 -0.0032696586299257786 0.014313745549297888 -0.00030524667379651946 -0.00028488726314643156 0.0012584345948804792 0.00034443879948347885 0.0042397332517430187 -0.00026503870720172735
leaf_weight=15.999999999999998 99 19246 34 9.9999999999999982 950 22 12.999999999999998 10.000000000000002 77 23 14.999999999999998 1326 9.9999999999999982 448
leaf_count=16 99 19246 34 10 950 22 13 10 77 23 15 1326 10 448
internal_value=0 -1.1151e-05 7.07246e-05 9.84325e-05 -0.000126828 -0.00233829 -0.000950066 0.000213787 0.00105566 0.00323878 0.00648056 0.000155903 -0.000352225 -0.000166681
internal_weight=0 19262 3037 2938 995 45 35 1943 125 48 25 1818 492 458
internal_count=22299 19262 3037 2938 995 45 35 1943 125 48 25 1818 492 458
shrinkage=0.1


Tree=847
num_leaves=15
num_cat=0
split_feature=4 18 20 9 17 9 21 21 35 32 3 24 10 23
split_gain=0.00173686 0.00442338 0.00519686 0.00903074 0.00832327 0.00506838 0.00706315 0.00961389 0.00450732 0.00769684 0.00720974 0.00683166 0.0036004 0.00328323
threshold=3.6849500000000002 0.0015276500000000004 4.3779750000000011 3.3494450000000006e-05 1.1281350000000002e-05 -4.798869999999999e-05 -3.6212399999999998 0.74609700000000012 3.1794550000000004 3.6334300000000006 -11.619699999999998 0.83991800000000005 9.6561300000000007e-05 -19.040899999999997
decision_type=2 2 2 2 2 2 2 2 2 2 2 2 2 2
left_child=-1 2 5 -4 -5 6 -2 -8 9 11 -11 13 -9 -3
right_child=1 8 3 4 -6 -7 7 12 -10 10 -12 -13 -14 -15
leaf_value=-8.8847981853108422e-06 0.0012173773711765534 0.0010367094157118118 0.00048373089583820514 -0.0029523738931554063 1.1690243554767222e-05 0.0010494078526971863 -0.0030237188419470424 -0.0012653415241099236 -0.0019958282529842111 0.0037718548590783031 0.00059480600536335269 -0.0013782501812758191 0.00085609549945123349 1.3684254456831541e-05
leaf_weight=20247 32 32 79 18 20 145 12.999999999999998 11.999999999999998 10.999999999999998 9.9999999999999982 25 35 24 1596
leaf_count=20247 32 32 79 18 20 145 13 12 11 10 25 35 24 1596
internal_value=0 8.76659e-05 0.000415393 -0.000125591 -0.00139234 0.00069546 6.18509e-05 -0.000692779 2.18903e-05 3.49616e-05 0.00150253 4.07457e-06 0.00014895 3.37929e-05
internal_weight=0 2052 343 117 38 226 81 49 1709 1698 35 1663 36 1628
internal_count=22299 2052 343 117 38 226 81 49 1709 1698 35 1663 36 1628
shrinkage=0.1


Tree=848
num_leaves=15
num_cat=0
split_feature=12 22 9 2 33 11 23 3 6 11 23 7 34 0
split_gain=0.00184338 0.00772766 0.0471414 0.0631247 0.076031 0.101306 0.218236 0.113462 0.0602681 0.0538397 0.0431212 0.0333835 0.0327439 0.0292566
threshold=4.2165300000000008e-05 2.4010450000000003 3.0443100000000001e-06 2.4258800000000007 1.0061280000000002e-05 -9.1076949999999978e-05 -12.387749999999999 -11.831149999999999 1.8766700000000002e-06 -8.5983699999999985e-06 -13.784899999999999 2.9259550000000003e-05 0.010956550000000001 -5.6776899999999992
decision_type=2 2 2 2 2 2 2 2 2 2 2 2 2 2
left_child=-1 -2 3 8 -5 -6 7 -7 11 10 -10 -3 -12 -14
right_child=1 2 -4 4 5 6 -8 -9 9 -11 12 -13 13 -15
leaf_value=2.1451374385128593e-05 -5.4803905742509386e-06 -0.003306085683531516 0.00042272615817521783 -0.0020138789656860018 -0.0007735074482027542 0.00852839231491089 0.01700378623432838 -0.0058943119967201085 -0.00085304801961263793 9.9422642961144457e-06 -0.0026832555251365357 -0.00026089509541028143 -0.0044675839133560677 -0.01094654284964275
leaf_weight=14325 7166 48 409 57 37 9.9999999999999982 12.999999999999998 12.000000000000002 12.999999999999998 21 10.999999999999998 144 9.9999999999999947 23.000000000000004
leaf_count=14325 7166 48 409 57 37 10 13 12 13 21 11 144 10 23
internal_value=0 -3.85366e-05 -0.000331706 -0.00110505 0.000714655 0.00287474 0.00673147 0.000661463 -0.00197446 -0.0043185 -0.00591319 -0.00102219 -0.00740823 -0.00898322
internal_weight=0 7974 808 399 129 72 35 22 270 78 57 192 44 33
internal_count=22299 7974 808 399 129 72 35 22 270 78 57 192 44 33
shrinkage=0.1


Tree=849
num_leaves=15
num_cat=0
split_feature=13 33 33 34 7 14 20 9 9 0 4 25 26 18
split_gain=0.00190796 0.0352679 0.052537 0.0663525 0.0698769 0.0346475 0.0319869 0.185884 0.365449 0.094424 0.0928855 0.116172 0.0967831 0.0669162
threshold=-1.6986749999999998e-05 -1.2724099999999997e-07 5.0840600000000008e-06 0.013087650000000001 5.0657850000000012e-05 0.0031007600000000006 5.8804000000000007 2.5420850000000006e-05 2.8995250000000003e-05 4.0042950000000008 0.034634100000000008 2.4854200000000004 7.7656550000000015e-05 1.6444000000000004e-07
decision_type=2 2 2 2 2 2 2 2 2 2 2 2 2 2
left_child=1 -1 3 -3 5 -5 -4 9 -9 -8 11 12 -10 -12
right_child=-2 2 6 4 -6 -7 7 8 10 -11 13 -13 -14 -15
leaf_value=0.00035340073559685087 -1.3767539885601156e-05 -0.00018888883634777921 -8.9957069411909861e-05 -0.0048907561513397502 -0.00072300035832777729 -0.00055605209047865616 -0.00036582283253550502 0.021824354041283106 0.0042360095120966418 -0.01045834350399673 -0.005249072062886424 -0.0012533224687407106 0.018148816330358388 0.0025130267607264929
leaf_weight=2050 18255 438 1071 93 142 23 127 10.999999999999998 10.000000000000002 9.9999999999999982 18 11.999999999999998 9.9999999999999982 29
leaf_count=2050 18255 438 1071 93 142 23 127 11 10 10 18 12 10 29
internal_value=0 6.2148e-05 -0.000237284 -0.00093826 -0.00221045 -0.00403129 0.000138585 0.00121686 0.00474745 -0.0011025 0.00236966 0.00652526 0.0111924 -0.000459692
internal_weight=0 4044 1994 696 258 116 1298 227 90 137 79 32 20 47
internal_count=22299 4044 1994 696 258 116 1298 227 90 137 79 32 20 47
shrinkage=0.1


Tree=850
num_leaves=15
num_cat=0
split_feature=4 26 27 19 17 19 37 39 16 9 14 21 33 20
split_gain=0.00180772 0.0159261 0.0179655 0.0407085 0.0778142 0.0160343 0.0490008 0.0701438 0.0682974 0.045489 0.0334224 0.072127 0.064523 0.0301625
threshold=-0.0070907799999999988 5.9383900000000006e-05 0.17544550000000003 7.5917050000000013e-08 4.6182050000000006e-08 1.6521000000000003e-09 -1.1247199999999999e-08 3.6888550000000002e-06 -1.3909199999999998e-08 -3.1477249999999994e-05 0.00022625800000000001 6.3992150000000008 -9.778199999999999e-06 5.5369500000000009
decision_type=2 2 2 2 2 2 2 2 2 2 2 2 2 2
left_child=1 5 3 4 -3 6 9 8 -8 -1 -9 12 -12 -11
right_child=-2 2 -4 -5 -6 -7 7 10 -10 13 11 -13 -14 -15
leaf_value=-0.0031986719501556193 2.83996666787026e-05 -0.0095614543246726191 -0.00014361749544576942 -0.00045267321798187019 0.0015117696761576967 9.981110591413087e-05 -0.00084991371591708494 0.00035573819329329129 -0.01016263903293293 0.00081373869577238637 -0.010067389404866844 0.0036465393463996328 -0.00036707738957678267 0.0058729610405862335
leaf_weight=27 11178 15.000000000000002 4148 104 10.999999999999998 6526 13.999999999999998 80 18 126 15.999999999999998 10.999999999999998 12.000000000000002 12.999999999999998
leaf_count=27 11178 15 4148 104 11 6526 14 80 18 126 16 11 12 13
internal_value=0 -2.85452e-05 -0.000179896 -0.00133746 -0.00487663 6.6074e-05 -0.000628464 -0.00193204 -0.00608832 0.000557322 -0.000814388 -0.00321465 -0.00591011 0.0012869
internal_weight=0 11121 4278 130 26 6843 317 151 32 166 119 39 28 139
internal_count=22299 11121 4278 130 26 6843 317 151 32 166 119 39 28 139
shrinkage=0.1


Tree=851
num_leaves=15
num_cat=0
split_feature=0 20 23 21 23 14 21 18 0 23 3 14 11 20
split_gain=0.00181361 0.00902048 0.0148815 0.0114104 0.0113403 0.0247666 0.00906241 0.015633 0.0152054 0.010004 0.0188137 0.0344209 0.028667 0.0199687
threshold=-9.3304649999999985 -3.1226749999999996 -6.1162449999999993 -10.688299999999998 -6.1048599999999995 9.2001000000000016e-05 10.337350000000002 -1.8308349999999999e-07 -10.735249999999999 -8.0189849999999989 -6.3643949999999991 0.00025358600000000003 -2.6408449999999996e-05 -10.027099999999999
decision_type=2 2 2 2 2 2 2 2 2 2 2 2 2 2
left_child=1 2 3 -1 -3 -6 9 8 -8 -5 11 12 -11 -14
right_child=-2 4 -4 6 5 -7 7 -9 -10 10 -12 -13 13 -15
leaf_value=-0.0031869846319470805 -9.0936050709637927e-06 0.00028394578864073471 0.0031625651557428331 -0.0003770749310582918 -0.005681063844822345 0.0010572942012610535 -0.0063783176802098733 0.00025834353132681416 -0.00099050230769948534 0.0075909406315380085 -0.00020808282726199513 -0.0011614325554826512 0.0042483281079007109 -0.00053079103475765256
leaf_weight=12.999999999999998 20241 1299 12.999999999999998 449 10.000000000000002 11.999999999999998 10.000000000000002 22 10.999999999999998 11.999999999999998 146 26 17.999999999999996 17.000000000000004
leaf_count=13 20241 1299 13 449 10 12 10 22 11 12 146 26 18 17
internal_value=0 8.94381e-05 -0.000190853 -0.000251067 0.000245816 -0.0020056 -0.000197386 -0.00160454 -0.00355613 -0.000106806 0.000447308 0.00175809 0.00337314 0.00192704
internal_weight=0 2058 737 724 1321 22 711 43 21 668 219 73 47 35
internal_count=22299 2058 737 724 1321 22 711 43 21 668 219 73 47 35
shrinkage=0.1


Tree=852
num_leaves=15
num_cat=0
split_feature=8 21 7 17 21 7 1 7 28 24 17 28 29 35
split_gain=0.00156724 0.0120442 0.0658252 0.0643417 0.0111074 0.0176144 0.0350779 0.00797973 0.0161165 0.00789616 0.00494147 0.00823445 0.00489412 0.00312854
threshold=2.6894400000000001e-05 -9.7378749999999972 6.5732150000000011e-05 1.149215e-07 -7.5273399999999997 5.9256050000000007e-05 -11.81865 4.2872450000000003e-05 -0.0028842299999999993 -0.3800464999999999 8.2810650000000014e-07 -0.007554884999999999 -0.0022871999999999997 -0.0024980399999999995
decision_type=2 2 2 2 2 2 2 2 2 2 2 2 2 2
left_child=-1 2 3 -2 5 6 -3 8 -6 -4 11 -11 -10 -9
right_child=1 4 9 -5 7 -7 -8 13 12 10 -12 -13 -14 -15
leaf_value=7.0479866361346125e-06 0.010673226982665556 0.00037133534788154056 0.0022142892449416897 0.00084914547701676684 -0.0049578274320811041 -0.00056567503296537324 -0.0080045704357326036 0.00028174175945822386 0.0010436838900204747 -0.0030307095431554546 7.7441081387461257e-05 -0.00026946123417238361 -0.0014492570254434315 -0.00013074925354552953
leaf_weight=20827 12.000000000000002 10.000000000000002 10.999999999999998 14.999999999999998 9.9999999999999982 100 9.9999999999999982 228 13.999999999999998 18 49 27 18 950
leaf_count=20827 12 10 11 15 10 100 10 228 14 18 49 27 18 950
internal_value=0 -9.97204e-05 0.000811663 0.0052154 -0.000189498 -0.0011075 -0.00381662 -9.92033e-05 -0.00145365 -0.000320728 -0.000617379 -0.00137396 -0.000358595 -5.09123e-05
internal_weight=0 1472 132 27 1340 120 20 1220 42 105 94 45 32 1178
internal_count=22299 1472 132 27 1340 120 20 1220 42 105 94 45 32 1178
shrinkage=0.1


Tree=853
num_leaves=15
num_cat=0
split_feature=20 0 23 3 23 14 23 25 20 14 3 14 13 23
split_gain=0.00182947 0.00775717 0.0168413 0.0196979 0.0815631 0.051781 0.0444585 0.0268996 0.0203802 0.0234138 0.018891 0.0204794 0.0154403 0.0142731
threshold=-2.7391899999999993 -6.732079999999999 -10.829899999999999 -7.6471949999999991 -7.6724749999999995 0.00066813050000000013 -9.4853949999999987 8.8966850000000015 7.956595000000001 0.00020650150000000003 -5.9294499999999992 0.00077369700000000016 2.3140250000000003e-05 -7.5662549999999991
decision_type=2 2 2 2 2 2 2 2 2 2 2 2 2 2
left_child=-1 2 10 4 5 6 -4 8 -8 -10 11 -2 -6 -5
right_child=1 -3 3 13 12 -7 7 -9 9 -11 -12 -13 -14 -15
leaf_value=3.7565615747865317e-05 0.0012035348860174001 -5.5464357125614199e-05 -0.00080708908426458954 0.00052564416759890841 0.0015115202058308677 -0.00018406114003423162 -0.0037017646296178259 0.00036591759833919991 -0.010635430281135165 -0.0048915492370724678 -0.00013313922046336303 -2.7704518787917306e-05 -0.00020656699931029889 -0.00025550896629802108
leaf_weight=8198 412 11697 60 550 136 122 53 10.999999999999998 11.000000000000002 20 336 201 85 407
leaf_count=8198 412 11697 60 550 136 122 53 11 11 20 336 201 85 407
internal_value=0 -2.18398e-05 0.000141765 -7.19926e-05 -0.000582051 -0.00172516 -0.00293816 -0.0042841 -0.00489303 -0.0069297 0.000469497 0.000799817 0.000850717 0.00019343
internal_weight=0 14101 2404 1455 498 277 155 95 84 31 949 613 221 957
internal_count=22299 14101 2404 1455 498 277 155 95 84 31 949 613 221 957
shrinkage=0.1


Tree=854
num_leaves=15
num_cat=0
split_feature=6 26 31 10 22 13 20 22 16 33 5 8 21 34
split_gain=0.0015418 0.0162152 0.0127543 0.0141961 0.0281288 0.0143103 0.0779971 0.223898 0.0718804 0.0763892 0.028829 0.0271358 0.0237405 0.0213219
threshold=4.2190250000000007e-06 0.096042700000000022 0.028259700000000002 4.9137750000000006e-05 2.3249300000000006 -1.8361899999999998e-05 6.4118800000000009 -0.72822499999999979 2.5681900000000007e-07 4.3506400000000006e-06 2.5027500000000004e-05 -1.3655999999999998e-05 7.5504100000000012 0.012167550000000001
decision_type=2 2 2 2 2 2 2 2 2 2 2 2 2 2
left_child=-1 2 3 4 5 6 8 -8 11 -10 -9 12 -2 -14
right_child=1 -3 -4 -5 -6 -7 7 10 9 -11 -12 -13 13 -15
leaf_value=1.1197463294756694e-05 -0.00076923396802467715 0.0039591812330763794 0.00017837309604269093 -1.0506454653525387e-06 -0.0045507903177434963 -0.00023080680617494674 0.014580987484871664 0.00049631595001777722 -0.0021493190430148736 -0.011027057655155659 -0.0042870053620491597 0.0021450807718792933 -0.0019075596472248428 -0.0081597710377536714
leaf_weight=18876 47 9.9999999999999982 1265 1236 17 696 10.999999999999998 42 21 18 18 20 12.000000000000002 9.9999999999999982
leaf_count=18876 47 10 1265 1236 17 696 11 42 21 18 18 20 12 10
internal_value=0 -6.1748e-05 -7.35292e-05 -0.000221879 -0.000521161 -0.00044462 -0.00119243 0.00146578 -0.0026669 -0.00624674 -0.00093868 -0.00109821 -0.0020383 -0.00474947
internal_weight=0 3423 3413 2148 912 895 199 71 128 39 60 89 69 22
internal_count=22299 3423 3413 2148 912 895 199 71 128 39 60 89 69 22
shrinkage=0.1


Tree=855
num_leaves=15
num_cat=0
split_feature=37 13 4 37 13 38 22 9 23 7 11 3 2 0
split_gain=0.00166918 0.0117324 0.0227589 0.0292156 0.0521913 0.131697 0.0315648 0.0746349 0.0698414 0.112083 0.0588847 0.0824713 0.0607338 0.0471207
threshold=4.9602750000000011e-08 1.2570300000000002e-05 1.0000000180025095e-35 -6.9315299999999985e-08 9.2683100000000031e-06 -0.00029090699999999992 2.1780800000000005 -2.8424999999999996e-05 -9.901234999999998 4.3519750000000006e-05 -5.135729999999999e-05 -6.3282549999999995 2.7367000000000004 -5.2617599999999998
decision_type=2 2 2 2 2 2 2 2 2 2 2 2 2 2
left_child=1 2 -1 6 -5 -6 -4 8 13 -10 -11 12 -12 -8
right_child=-2 -3 3 4 5 -7 7 -9 9 10 11 -13 -14 -15
leaf_value=-7.0034758057678357e-05 -3.9209438667205313e-05 -6.4015933472707758e-05 0.00073696874914423976 -0.00019580599134960916 0.010463214451738168 0.00061722271745869278 -0.0019125577972615782 -0.0012402262212621064 0.012231489872703186 -0.0034366485888676838 0.012809880077838898 -0.0010130077183834816 0.0025228023846549067 0.0039442722401064308
leaf_weight=3451 7302 7965 1624 1439 15.999999999999998 90 58 266 12.999999999999998 14.999999999999998 11.999999999999998 19.000000000000004 10.999999999999998 18
leaf_count=3451 7302 7965 1624 1439 16 90 58 266 13 15 12 19 11 18
internal_value=0 1.9091e-05 0.000113224 0.000289831 -3.80604e-05 0.00210341 0.000538648 -0.000243082 0.00157363 0.0038526 0.00194162 0.00386243 0.00788997 -0.000525414
internal_weight=0 14997 7032 3581 1545 106 2036 412 146 70 57 42 23 76
internal_count=22299 14997 7032 3581 1545 106 2036 412 146 70 57 42 23 76
shrinkage=0.1


Tree=856
num_leaves=15
num_cat=0
split_feature=25 5 20 2 3 14 14 24 6 25 25 9 25 14
split_gain=0.00156299 0.0147345 0.0308051 0.0277681 0.0485544 0.069147 0.0716053 0.0491961 0.0772827 0.0424534 0.0308424 0.0275641 0.0553855 0.0241269
threshold=0.18478900000000004 1.0163000000000002e-05 5.4892650000000005 -0.79334549999999993 -8.0062849999999983 0.0010420150000000001 0.00063647700000000009 -0.077734099999999987 2.0348850000000004e-06 0.16128050000000002 0.14890850000000003 2.4512850000000004e-05 0.16894050000000002 0.00042424250000000003
decision_type=2 2 2 2 2 2 2 2 2 2 2 2 2 2
left_child=1 2 3 10 5 6 7 8 -5 -9 -1 13 -13 -4
right_child=-2 -3 11 4 -6 -7 -8 9 -10 -11 -12 12 -14 -15
leaf_value=0.0053027928044850174 -9.9091852008668895e-06 0.00017638888774190641 -0.0022117801299883113 -0.001124400383030826 0.00050504429265856748 -0.00050628126470181887 -0.01132759032105761 0.0038050388684496284 -0.012978263523175635 -0.003532248186757383 -0.00025547670159506165 0.0081003621680013436 -0.00028598474681429154 0.0010329228556947782
leaf_weight=10.999999999999998 19559 2269 33 11.000000000000002 70 71 13.999999999999998 11.999999999999998 10.999999999999998 23 108 13.999999999999998 18 75
leaf_count=11 19559 2269 33 11 70 71 14 12 11 23 108 14 18 75
internal_value=0 7.07349e-05 -0.000438243 -0.000964201 -0.00165042 -0.00271298 -0.00491967 -0.0033458 -0.00705133 -0.00101661 0.000258313 0.00080527 0.00338304 4.14858e-05
internal_weight=0 2740 471 331 212 142 71 57 22 35 119 140 32 108
internal_count=22299 2740 471 331 212 142 71 57 22 35 119 140 32 108
shrinkage=0.1


Tree=857
num_leaves=15
num_cat=0
split_feature=10 20 23 8 28 12 18 6 38 12 14 12 36 16
split_gain=0.001562 0.00840212 0.0118436 0.0121923 0.012236 0.0322879 0.0193865 0.0227544 0.0244676 0.0186124 0.0627115 0.0330677 0.0202676 0.0352038
threshold=2.4033300000000002e-05 8.6114600000000028 -6.6726449999999993 -1.9391749999999999e-05 -0.0089821649999999986 4.7254350000000009e-05 -4.1351699999999993e-07 1.7172900000000002e-06 0.0002581690000000001 4.5841500000000012e-05 0.00019150250000000003 3.9137250000000005e-05 -0.00015982599999999998 -1.7367749999999997e-08
decision_type=2 2 2 2 2 2 2 2 2 2 2 2 2 2
left_child=1 2 -1 -4 5 6 -5 8 -8 11 -11 12 -6 -14
right_child=-2 -3 3 4 9 -7 7 -9 -10 10 -12 -13 13 -15
leaf_value=4.8394591928831503e-05 -1.8625993394619089e-05 0.00035893417310520296 -0.0033051090647599531 -0.003555362879948613 -0.00082813115988392388 0.0010396263602531839 -0.0057168684899806983 0.0032465396433095026 -0.00055321009063985776 -0.0081771560224958451 -0.00042377315164618038 0.0049637294234707958 -0.00076520122151123358 0.0020135732234196459
leaf_weight=5941 14913 733 13.999999999999998 48 125 49 11.999999999999998 10.999999999999998 39 10.999999999999998 202 14.999999999999998 80 106
leaf_count=5941 14913 733 14 48 125 49 12 11 39 11 202 15 80 106
internal_value=0 3.76076e-05 2.20512e-06 -0.000383205 -0.000324599 -0.00109548 -0.00204657 -0.000878479 -0.00176819 -9.71961e-05 -0.000824183 0.000377798 0.000156612 0.000818401
internal_weight=0 7386 6653 712 698 159 110 62 51 539 213 326 311 186
internal_count=22299 7386 6653 712 698 159 110 62 51 539 213 326 311 186
shrinkage=0.1


Tree=858
num_leaves=15
num_cat=0
split_feature=20 0 22 19 31 3 33 12 23 1 22 21 5 3
split_gain=0.00154952 0.0102906 0.0197103 0.0634209 0.0591419 0.0480837 0.0394077 0.0592271 0.0269973 0.0251654 0.0298298 0.0676085 0.116245 0.0479874
threshold=-1.0241449999999996 6.3840100000000009 0.88369650000000011 1.1867000000000002e-05 -0.0094674049999999982 -6.0725999999999987 -1.3162999999999997e-05 3.859090000000001e-05 -10.483449999999998 -4.5929049999999991 -0.90996749999999993 -7.6390449999999985 1.4271600000000002e-05 -6.2170999999999994
decision_type=2 2 2 2 2 2 2 2 2 2 2 2 2 2
left_child=-1 -2 9 4 5 6 -4 -8 -9 10 13 12 -12 -3
right_child=1 2 3 -5 -6 -7 7 8 -10 -11 11 -13 -14 -15
leaf_value=2.8730574734826582e-05 2.4510831860377972e-05 -0.0049551888260071005 -0.001519948778411326 9.6660940436153281e-05 0.00043965014852195361 -0.00066007573834447669 -0.0033250357114652895 -0.0055049168605667831 -0.011779551039899161 0.00013843480246560842 0.011889761236185827 -0.00068746433577831817 -0.0015230262596950136 -0.00066813454264038122
leaf_weight=10192 9466 39 39 411 75 62 49 12.000000000000002 15.999999999999998 1580 12.000000000000002 253 13.999999999999998 79
leaf_count=10192 9466 39 39 411 75 62 49 12 16 1580 12 253 14 79
internal_value=0 -2.41862e-05 -0.000198728 -0.00067012 -0.00191576 -0.00290821 -0.0041098 -0.00542154 -0.00909042 -4.04055e-05 -0.000752163 -0.000188436 0.00466749 -0.00208504
internal_weight=0 12107 2641 664 253 178 116 77 28 1977 397 279 26 118
internal_count=22299 12107 2641 664 253 178 116 77 28 1977 397 279 26 118
shrinkage=0.1


Tree=859
num_leaves=15
num_cat=0
split_feature=21 1 21 3 13 24 33 23 12 12 1 7 20 3
split_gain=0.00145593 0.0188504 0.0571357 0.0540079 0.0967118 0.093376 0.0673454 0.0889025 0.0661981 0.129127 0.0646307 0.0553696 0.0657581 0.0521867
threshold=-1.6385599999999998 -8.5536199999999987 -9.3347499999999979 -6.283129999999999 1.6332650000000004e-05 0.20699700000000001 -2.4808149999999998e-06 -6.3575349999999995 -0.00015921049999999997 -6.8710349999999982e-05 -10.174899999999999 4.171810000000001e-05 -4.6417749999999991 -6.3047499999999994
decision_type=2 2 2 2 2 2 2 2 2 2 2 2 2 2
left_child=1 2 3 4 5 6 -1 8 -8 -10 -11 -6 -13 -4
right_child=-2 -3 13 -5 11 -7 7 -9 9 10 -12 12 -14 -15
leaf_value=-0.004269655268977989 2.2228822895223938e-05 2.5973416666095395e-05 -0.001645607254712432 -0.0004729196186508489 -0.0053030406427569694 0.012823310665870932 -0.0010249620642174381 -0.0029802890694034952 0.017650580257177365 0.0080689510330557868 -0.00082449992187321039 0.0077089502624320717 -0.0015144794991871235 -0.00016195360324720496
leaf_weight=10.999999999999998 12693 8309 395 160 20 10.999999999999998 10.999999999999991 13.999999999999998 9.9999999999999911 21.999999999999989 13.000000000000023 10.999999999999998 26 593
leaf_count=11 12693 8309 395 160 20 11 11 14 10 22 13 11 26 593
internal_value=0 -2.93723e-05 -0.000383935 0.00080288 0.00217287 0.00417822 0.00300419 0.00414722 0.0059291 0.00762898 0.00476567 -0.00106384 0.00122762 -0.000755115
internal_weight=0 9606 1297 309 149 92 81 70 56 45 35 57 37 988
internal_count=22299 9606 1297 309 149 92 81 70 56 45 35 57 37 988
shrinkage=0.1


Tree=860
num_leaves=15
num_cat=0
split_feature=12 22 10 7 19 12 23 1 23 28 11 13 33 22
split_gain=0.00147982 0.00645791 0.0166295 0.0127934 0.0175764 0.015707 0.0224116 0.0365026 0.0127057 0.011427 0.0186998 0.0173372 0.0404034 0.0376736
threshold=4.2165300000000008e-05 -2.3894049999999996 2.53518e-05 4.5822350000000007e-05 0.0013473250000000001 5.7169200000000008e-05 -7.6100699999999994 4.4127500000000008 -10.483449999999998 0.0027353000000000004 -4.8309049999999991e-05 -8.9274649999999981e-06 1.0642000000000001e-06 2.3249300000000006
decision_type=2 2 2 2 2 2 2 2 2 2 2 2 2 2
left_child=-1 2 -2 4 5 -4 7 -7 -9 10 -3 13 -13 -12
right_child=1 9 3 -5 -6 6 -8 8 -10 -11 11 12 -14 -15
leaf_value=1.921998371470433e-05 0.00068863982387925215 0.00018156988626027399 7.2077003067299244e-06 0.0001823454225824062 0.00017324411305073525 -0.0081188527335013666 0.00058260517505307992 -0.00046534059976693242 -0.004696587727151133 6.3567282981162384e-05 -0.00056543415107580309 -0.00068033072186884013 0.00020399840276746946 -0.0034193780951147137
leaf_weight=14325 412 978 31 369 86 13.999999999999998 14.999999999999998 20 11.000000000000002 3407 497 949 1134 51
leaf_count=14325 412 978 31 369 86 14 15 20 11 3407 497 949 1134 51
internal_value=0 -3.4528e-05 0.000209012 -0.000152905 -0.000851818 -0.00182056 -0.0027649 -0.00388074 -0.00196675 -6.77822e-05 -0.00019178 -0.000330562 -0.000198896 -0.000831038
internal_weight=0 7974 958 546 177 91 60 45 31 7016 3609 2631 2083 548
internal_count=22299 7974 958 546 177 91 60 45 31 7016 3609 2631 2083 548
shrinkage=0.1


Tree=861
num_leaves=15
num_cat=0
split_feature=37 13 7 30 37 0 18 5 18 26 38 4 16 36
split_gain=0.00148196 0.0108461 0.0227401 0.0280872 0.0332254 0.105778 0.0257685 0.0754351 0.0290849 0.0487795 0.0812385 0.136321 0.0396084 0.0399522
threshold=4.9602750000000011e-08 2.1532450000000004e-05 2.7868950000000004e-05 0.00010983500000000001 6.1618100000000022e-08 3.2421850000000005 1.7287450000000003e-06 1.1733200000000001e-05 -1.7326649999999998e-05 0.0026598850000000003 0.0050166200000000011 -0.39397899999999991 -6.4402249999999988e-07 0.00065950650000000009
decision_type=2 2 2 2 2 2 2 2 2 2 2 2 2 2
left_child=-1 2 3 -2 5 -5 8 -8 9 10 -6 -12 13 -10
right_child=1 -3 -4 4 6 -7 7 -9 12 -11 11 -13 -14 -15
leaf_value=1.7988445688289762e-05 -0.0035169432715823259 0.00010522767019845291 -0.00024470290206910438 -0.0017268272725721959 0.0003667732155706402 0.011953280009329319 0.00071966984946116377 0.0086415992650602548 -0.0067758400976243929 -0.005148277911357582 0.00065325674231109362 0.014256602104824895 -1.781362409729343e-05 0.00049932749512103893
leaf_weight=14997 18 3093 3515 13.000000000000002 73 9.9999999999999982 85 13.999999999999998 18.000000000000004 9.9999999999999982 17.000000000000004 12.999999999999998 410 12.999999999999998
leaf_count=14997 18 3093 3515 13 73 10 85 14 18 10 17 13 410 13
internal_value=0 -3.6945e-05 -0.000141421 0.000381684 0.000485494 0.00422105 0.00035392 0.00183994 8.83672e-05 0.00151976 0.00216714 0.00654804 -0.000278407 -0.00372496
internal_weight=0 7302 4209 694 676 23 653 99 554 113 103 30 441 31
internal_count=22299 7302 4209 694 676 23 653 99 554 113 103 30 441 31
shrinkage=0.1


Tree=862
num_leaves=15
num_cat=0
split_feature=13 33 33 34 10 38 18 3 34 18 10 25 25 22
split_gain=0.00189303 0.0371514 0.0453308 0.0496055 0.0503892 0.0459133 0.0802869 0.0950812 0.137057 0.205243 0.123799 0.135844 0.152108 0.0864113
threshold=-1.3946599999999998e-05 1.0000000180025095e-35 3.975485000000001e-06 0.022368000000000002 5.1963300000000004e-05 0.00011309350000000002 -5.5633649999999984e-06 -7.8249449999999987 0.088343250000000012 9.7398000000000012e-06 3.1707200000000007e-05 0.16894050000000002 0.2234285 -0.5269879999999999
decision_type=2 2 2 2 2 2 2 2 2 2 2 2 2 2
left_child=1 -1 3 -3 -5 6 -4 8 9 10 11 -8 -13 -12
right_child=-2 2 5 4 -6 -7 7 -9 -10 -11 13 12 -14 -15
leaf_value=0.00033346517369173723 -1.5002262116324085e-05 -0.00047518708304669421 -0.00084843303595730311 -0.004024951191321533 -0.00011483172722644387 -0.00039658833545014988 0.0015687716447494249 -0.00018602295381060687 0.00038772424863603352 -0.00022310428711476719 -0.0038677587978203191 0.024761711172759535 0.010324106382688991 0.0069873563860627739
leaf_weight=2379 17626 500 230 90 52 968 10.999999999999998 200 126 47 10.999999999999998 9.9999999999999982 27 22
leaf_count=2379 17626 500 230 90 52 968 11 200 126 47 11 10 27 22
internal_value=0 5.65867e-05 -0.000230551 -0.00094363 -0.00259308 4.65658e-05 0.000673719 0.00144485 0.00272901 0.00503371 0.00808396 0.0113255 0.0142262 0.00336898
internal_weight=0 4673 2294 642 142 1652 684 454 254 128 81 48 37 33
internal_count=22299 4673 2294 642 142 1652 684 454 254 128 81 48 37 33
shrinkage=0.1


Tree=863
num_leaves=15
num_cat=0
split_feature=13 22 7 9 23 16 14 26 22 2 5 11 31 1
split_gain=0.0017251 0.0219574 0.0568613 0.0692569 0.0295226 0.0218763 0.0275431 0.0365501 0.0203779 0.125734 0.178104 0.260524 0.0725307 0.0540196
threshold=-1.6986749999999998e-05 2.6208450000000005 3.365850000000001e-05 -2.2475799999999996e-05 -8.7865549999999981 -9.6895549999999981e-06 0.0010120500000000002 -7.2147099999999992e-05 2.1171700000000002 2.1089200000000008 1.3964800000000001e-05 -3.8944799999999993e-05 0.11819550000000002 4.9871300000000014
decision_type=2 2 2 2 2 2 2 2 2 2 2 2 2 2
left_child=1 8 3 -3 -5 6 7 -4 -1 13 11 -11 -13 -10
right_child=-2 2 5 4 -6 -7 -8 -9 9 10 -12 12 -14 -15
leaf_value=4.9304751501008294e-05 -1.309117898199954e-05 -0.011202066978439689 0.00034428379731252776 -0.004191250235845264 0.00099459699796218613 -0.00061908537050508463 -0.00011140378492200398 0.008894145539961755 -0.00015460546425553429 0.0014642341394425819 0.0007625950389245356 0.021918578174981197 0.010151348710060119 -0.0045862488106221842
leaf_weight=3409 18255 9.9999999999999982 10.000000000000002 25.999999999999996 19.000000000000004 181 32 9.9999999999999982 144 27 121 11.000000000000002 9.9999999999999982 34
leaf_count=3409 18255 10 10 26 19 181 32 10 144 27 121 11 10 34
internal_value=0 5.90948e-05 -0.000782399 -0.00367447 -0.00200167 -9.97214e-05 0.00170806 0.00461921 0.000123618 0.00085369 0.00280726 0.0079615 0.0163151 -0.0010011
internal_weight=0 4044 288 55 45 233 52 20 3756 347 169 48 21 178
internal_count=22299 4044 288 55 45 233 52 20 3756 347 169 48 21 178
shrinkage=0.1


Tree=864
num_leaves=15
num_cat=0
split_feature=1 21 1 21 17 21 21 7 14 23 7 1 36 19
split_gain=0.00159389 0.0182393 0.0540926 0.220512 0.0499238 0.0636216 0.0299543 0.0211714 0.0207725 0.0193307 0.0372998 0.0249824 0.0922862 0.133412
threshold=7.8138950000000014 7.7471000000000005 8.503045000000002 8.0967850000000023 2.7419400000000005e-07 9.626260000000002 3.8775950000000008 2.8701700000000003e-05 0.00036072200000000006 -8.969479999999999 2.8887350000000004e-05 9.6934550000000019 0.00062130050000000004 1.0086700000000001e-07
decision_type=2 2 2 2 2 2 2 2 2 2 2 2 2 2
left_child=-1 6 3 -3 5 -5 -2 8 -8 10 -4 12 13 -11
right_child=1 2 9 4 -6 -7 7 -9 -10 11 -12 -13 -14 -15
leaf_value=-1.1331948859980431e-05 0.00012302128262971842 0.013902546356742582 -0.0058631577034248044 0.0072058597175568787 -0.0035464241161077682 -0.00045127061544917527 -0.0015534940887341187 -0.00042450538344438187 -0.0063843331276439126 0.010088314875231489 -0.00028793163052926373 -6.8739792287503365e-05 -0.001574262941376527 0.0012939933172015448
leaf_weight=18903 2184 14.999999999999998 13.999999999999998 17 21 30 81 494 9.9999999999999982 23 84 295 59 69
leaf_count=18903 2184 15 14 17 21 30 81 494 10 23 84 295 59 69
internal_value=0 6.30765e-05 0.000550098 0.00292801 0.000507156 0.00231833 -4.72024e-05 -0.000682704 -0.00208436 0.000187291 -0.00108439 0.00046672 0.00151282 0.00349257
internal_weight=0 3396 627 83 68 47 2769 585 91 544 98 446 151 92
internal_count=22299 3396 627 83 68 47 2769 585 91 544 98 446 151 92
shrinkage=0.1


Tree=865
num_leaves=15
num_cat=0
split_feature=22 2 0 25 9 5 9 5 13 37 25 11 6 16
split_gain=0.00180162 0.0243649 0.0112932 0.0127863 0.00405188 0.00459898 0.00311162 0.00577662 0.00453473 0.00429525 0.00407992 0.00392596 0.00324856 0.00238452
threshold=3.0357900000000004 2.9665000000000004 -4.8738149999999996 0.22902950000000002 -4.798869999999999e-05 2.0993150000000001e-05 2.5889650000000004e-05 1.1795000000000003e-05 -1.0726199999999997e-05 -3.9514549999999996e-08 0.46584850000000005 -5.3843699999999992e-06 1.0610450000000001e-06 3.5987200000000007e-05
decision_type=2 2 2 2 2 2 2 2 2 2 2 2 2 2
left_child=-1 2 3 -2 5 -5 8 -8 10 12 -4 -11 -10 -9
right_child=1 -3 6 4 -6 -7 7 13 9 11 -12 -13 -14 -15
leaf_value=-3.4079208625904142e-06 -0.0034665272858546816 0.0050944277364760636 0.00060968461111770016 -0.002714332447309667 0.00033384011491225697 -4.6472656374265044e-05 -0.0016852683867053951 0.00064315710765185943 0.0013836711769133969 -0.0015406511956825852 0.0028345219886806959 0.00041366972391887642 -0.0001706692221648011 -0.00096729487651662734
leaf_weight=21983 15.999999999999998 9.9999999999999982 15.999999999999998 12.000000000000002 39 13.999999999999998 17 56 46 17 17 26 19 10.999999999999998
leaf_count=21983 16 10 16 12 39 14 17 56 46 17 17 26 19 11
internal_value=0 0.000237077 7.834e-05 -0.000934164 -0.000310813 -0.00127779 0.000442841 -3.89644e-05 0.000729875 0.000416394 0.00175581 -0.000358969 0.000929326 0.000378755
internal_weight=0 316 306 81 65 26 225 84 141 108 33 43 65 67
internal_count=22299 316 306 81 65 26 225 84 141 108 33 43 65 67
shrinkage=0.1


Tree=866
num_leaves=15
num_cat=0
split_feature=3 23 3 20 0 5 26 24 4 20 3 2 36 35
split_gain=0.00173383 0.0127529 0.0214008 0.0494794 0.0876754 0.0225727 0.0396199 0.0894245 0.0427034 0.0247587 0.0476258 0.0202511 0.0303579 0.0201813
threshold=-7.2760499999999988 -8.0189849999999989 -5.8561999999999985 12.411000000000001 10.604550000000001 9.7154250000000019e-06 -9.6855999999999996e-05 0.18066700000000005 0.11021950000000001 2.7581050000000005 -6.5485099999999994 -0.59296049999999989 0.00074789600000000017 -0.00020020099999999998
decision_type=2 2 2 2 2 2 2 2 2 2 2 2 2 2
left_child=-1 -2 3 5 11 6 7 -3 9 13 -11 12 -5 -8
right_child=1 2 -4 4 -6 -7 8 -9 -10 10 -12 -13 -14 -15
leaf_value=-2.0731154194030894e-05 0.00013022403816493569 -0.0096653167665114292 0.00018367471860623809 -5.0214402532825869e-05 0.0081506748994191486 -0.00039776432471108896 0.0034451705733469376 0.0019060960452241653 0.0053434348246082664 -0.00021566525484606821 -0.0076205487595871098 -0.0012353568932188578 0.0064347085666006682 -0.0012741700450361179
leaf_weight=14361 5171 17.000000000000004 1193 21 18 1364 11.999999999999998 10.999999999999998 9.9999999999999982 19 15.999999999999998 38 10.999999999999998 37
leaf_count=14361 5171 17 1193 21 18 1364 12 11 10 19 16 38 11 37
internal_value=0 3.75057e-05 -0.000135767 -0.000377886 0.00192609 -0.000514326 -0.00181752 -0.0051194 -0.000833982 -0.00156939 -0.00360075 0.000325482 0.00217898 -0.000118413
internal_weight=0 7938 2767 1574 88 1486 122 28 94 84 35 70 32 49
internal_count=22299 7938 2767 1574 88 1486 122 28 94 84 35 70 32 49
shrinkage=0.1


Tree=867
num_leaves=15
num_cat=0
split_feature=23 14 19 5 13 39 10 17 13 35 30 12 26 12
split_gain=0.00163214 0.0146057 0.0153832 0.0236166 0.0211439 0.0193894 0.0221155 0.017959 0.016525 0.0155742 0.0152949 0.0120739 0.0156786 0.0153463
threshold=-6.3575349999999995 0.0091276500000000028 0.00053170200000000011 1.6269000000000006e-05 1.4147250000000001e-05 8.5733200000000007e-07 3.8031050000000006e-05 3.0187000000000004e-06 1.4788400000000001e-05 -0.0011341249999999999 7.1413200000000016e-05 -0.00014554349999999997 6.0292400000000006e-05 -3.7293899999999992e-05
decision_type=2 2 2 2 2 2 2 2 2 2 2 2 2 2
left_child=-1 2 4 5 11 -4 -7 -8 -6 -10 -11 12 -2 -13
right_child=1 -3 3 -5 8 6 7 -9 9 10 -12 13 -14 -15
leaf_value=-6.9594509009631588e-06 -0.00043907201821532312 -0.00050842759599936324 0.0001887165670632385 0.00013902277039492246 0.0036574045949451187 0.0018514226569095627 0.0087138619006145706 0.0029758524731732907 0.0026025895791639006 0.0011240641930537717 -0.00030425335743681597 0.00074634678638295414 -0.0051601117585960317 -0.00065104016216905995
leaf_weight=20915 17.000000000000004 303 40 167 17 57 10.000000000000002 11.999999999999998 31 123 192 107 11.999999999999998 296
leaf_count=20915 17 303 40 167 17 57 10 12 31 123 192 107 12 296
internal_value=0 0.000105171 0.00027716 0.000906103 5.08994e-05 0.00198259 0.00289089 0.00558404 0.000613497 0.000463941 0.000253471 -0.000421839 -0.00239261 -0.000280022
internal_weight=0 1384 1081 286 795 119 79 22 363 346 315 432 29 403
internal_count=22299 1384 1081 286 795 119 79 22 363 346 315 432 29 403
shrinkage=0.1


Tree=868
num_leaves=15
num_cat=0
split_feature=2 35 22 22 16 5 3 6 33 14 33 28 25 12
split_gain=0.00160996 0.0191759 0.0187508 0.0656004 0.0617379 0.0510751 0.0358425 0.0740373 0.0665166 0.0969844 0.0427348 0.0953638 0.0251331 0.0225519
threshold=2.2598050000000005 -0.00017437999999999999 2.2422950000000004 2.0469900000000005 -7.0380199999999989e-07 2.7018450000000002e-05 -8.7743599999999997 1.1117150000000003e-06 7.0646800000000006e-06 0.00051153500000000014 4.8708550000000005e-06 0.0033498450000000006 7.2423300000000017 3.551290000000001e-05
decision_type=2 2 2 2 2 2 2 2 2 2 2 2 2 2
left_child=-1 -2 3 -3 5 12 7 -4 -9 -10 13 -12 -5 -8
right_child=1 2 6 4 -6 -7 10 8 9 -11 11 -13 -14 -15
leaf_value=9.7256229317080602e-06 -0.00037296386404280223 0.00019427783607463406 7.7050867141224442e-05 -0.010826804712414741 0.0015153102245272344 -0.00051016972597258596 0.0048515914792293001 -0.00014220022858353333 0.0033942951005883509 0.015941889905794104 -0.0090910267109783113 0.00038476170706086457 -0.004354673763737083 -0.00024393395869992673
leaf_weight=19716 1173 1174 50 15.000000000000002 18 12.999999999999998 19 11.999999999999998 14.000000000000002 10.999999999999998 13.999999999999998 44 9.9999999999999982 15.999999999999998
leaf_count=19716 1173 1174 50 15 18 13 19 12 14 11 14 44 10 16
internal_value=0 -7.42355e-05 0.000174281 3.47778e-05 -0.00330903 -0.00559424 0.00112755 0.00258652 0.00597769 0.00891524 -0.000237286 -0.0019025 -0.00823795 0.00252221
internal_weight=0 2583 1410 1230 56 38 180 87 37 25 93 58 25 35
internal_count=22299 2583 1410 1230 56 38 180 87 37 25 93 58 25 35
shrinkage=0.1


Tree=869
num_leaves=15
num_cat=0
split_feature=1 21 1 21 26 14 23 16 9 29 1 9 29 10
split_gain=0.00152556 0.0153221 0.0522929 0.0296958 0.0221582 0.0407373 0.0430623 0.0306787 0.0282545 0.138869 0.0631796 0.0612349 0.054412 0.0355821
threshold=9.108175000000001 10.652300000000002 9.487775000000001 10.826150000000002 5.9086750000000001e-05 0.00013119700000000002 -7.5004549999999997 -1.0006304999999998e-08 6.7075450000000003e-06 -0.00092200399999999981 11.511950000000001 1.6530500000000004e-05 -0.0014008249999999999 1.5487650000000004e-05
decision_type=2 2 2 2 2 2 2 2 2 2 2 2 2 2
left_child=-1 -2 -3 -4 8 7 -7 -6 12 11 -11 -10 -5 -14
right_child=1 2 3 4 5 6 -8 -9 9 10 -12 -13 13 -15
leaf_value=-8.673206150502581e-06 -5.3547762767622067e-06 0.0062135974979302027 0.0052352509711151166 -0.0051408452501830954 0.0031439328693192107 0.00024111492728645146 0.0087424276969753772 -0.0038089244898098212 0.012826371826231475 -0.0090391260348648434 0.00069583233911544088 0.0024177852735962147 0.0043315475589285292 -0.001601368788209173
leaf_weight=20090 2004 17 11.999999999999998 30 11.000000000000002 11.000000000000002 12.999999999999998 14.999999999999998 10.000000000000002 12.000000000000002 14.999999999999998 12.999999999999998 14.999999999999998 31
leaf_count=20090 2004 17 12 30 11 11 13 15 10 12 15 13 15 31
internal_value=0 7.88795e-05 0.000902321 0.000422045 9.38724e-05 0.00187506 0.00484599 -0.000867331 -0.00061295 0.00123326 -0.00363082 0.00694326 -0.00182756 0.000333278
internal_weight=0 2209 205 188 176 50 24 26 126 50 27 23 76 46
internal_count=22299 2209 205 188 176 50 24 26 126 50 27 23 76 46
shrinkage=0.1


Tree=870
num_leaves=15
num_cat=0
split_feature=4 19 23 36 18 33 31 20 0 34 6 26 25 37
split_gain=0.00150846 0.00540753 0.007075 0.00748851 0.00397622 0.00411537 0.00332088 0.00242557 0.00324821 0.00231764 0.00228592 0.00220831 0.00214473 0.0023122
threshold=-5.5612799999999991 0.00076007650000000011 -13.359599999999999 -0.00010457849999999998 -0.0015514099999999998 1.7107900000000001e-06 -0.13294099999999998 -2.3186099999999996 6.2336900000000011 0.0025258100000000003 3.7417150000000003e-06 -8.6842599999999981e-05 54.163350000000008 -2.8624849999999998e-05
decision_type=2 2 2 2 2 2 2 2 2 2 2 2 2 2
left_child=1 2 -1 -4 9 6 -6 -7 -9 -3 -8 -5 13 -11
right_child=-2 4 3 11 5 7 10 8 -10 12 -12 -13 -14 -15
leaf_value=0.0013736678753048183 -6.4528607702486053e-06 -0.00094673602182989607 -0.0035452050103161204 0.0005795607133768499 -0.00014615037489420501 -0.00064443127137623854 0.00095497055709417686 0.00091073588832287205 -0.00085346160922199492 0.0016231695585884156 0.0021360371575650317 -0.0014325460613084332 -0.00096225157459756648 9.5074670084240568e-05
leaf_weight=9.9999999999999982 21006 22 12.999999999999998 9.9999999999999982 20 31 57 41 13.999999999999998 9.9999999999999982 23 12.000000000000002 19 1011
leaf_count=10 21006 22 13 10 20 31 57 41 14 10 23 12 19 1011
internal_value=0 0.000104833 -0.000972132 -0.00164236 0.000143666 0.00057018 0.00100639 6.29574e-05 0.000461667 6.89654e-05 0.00129453 -0.000517952 9.04514e-05 0.000110041
internal_weight=0 1293 45 35 1248 186 100 86 55 1062 80 22 1040 1021
internal_count=22299 1293 45 35 1248 186 100 86 55 1062 80 22 1040 1021
shrinkage=0.1


Tree=871
num_leaves=15
num_cat=0
split_feature=4 32 38 1 28 26 1 3 14 20 0 33 35 38
split_gain=0.00150633 0.00420505 0.0071121 0.00435443 0.0036163 0.00280971 0.00431301 0.00374488 0.00246537 0.00517773 0.00780543 0.00501826 0.00340614 0.00508024
threshold=3.6849500000000002 16.217600000000001 -0.80259099999999994 8.7655650000000023 -0.18709999999999996 -0.00073322349999999992 6.7498350000000009 -13.528999999999998 0.0016623800000000004 4.4308650000000016 5.0473950000000007 -4.3960799999999996e-06 0.03949165000000001 -0.034001399999999994
decision_type=2 2 2 2 2 2 2 2 2 2 2 2 2 2
left_child=-1 2 -2 4 -4 6 7 -6 9 -7 -11 -12 -10 -14
right_child=1 -3 3 -5 5 8 -8 -9 12 10 11 -13 13 -15
leaf_value=-8.2742001368921942e-06 -0.0020978394329237439 0.002127261076238938 0.00086312964795743708 0.00077162172072737091 -0.0014872449915856124 0.00067322639056160202 -0.0025282576610334219 0.00031362005756818689 -2.0186571856640332e-05 0.00040513703249113562 -0.0035091340076178301 -0.00061711623954276249 0.0027824317768681793 0.00034495490377224288
leaf_weight=20247 14.999999999999998 9.9999999999999982 54 89 17 162 9.9999999999999982 36 1517 48 10.000000000000002 14.999999999999998 9.9999999999999982 59
leaf_count=20247 15 10 54 89 17 162 10 36 1517 48 10 15 10 59
internal_value=0 8.16412e-05 7.16235e-05 8.76777e-05 5.62685e-05 3.31419e-05 -0.000623419 -0.000264016 5.58566e-05 0.000358133 -0.000341117 -0.00177392 1.10679e-05 0.000698212
internal_weight=0 2052 2042 2027 1938 1884 63 53 1821 235 73 25 1586 69
internal_count=22299 2052 2042 2027 1938 1884 63 53 1821 235 73 25 1586 69
shrinkage=0.1


Tree=872
num_leaves=15
num_cat=0
split_feature=22 2 0 25 2 14 15 15 4 26 5 4 19 19
split_gain=0.00143066 0.0193621 0.00908798 0.0105596 0.00317401 0.00262611 0.00256149 0.00332546 0.003129 0.00319355 0.00294242 0.0025254 0.00238071 0.00299859
threshold=3.0357900000000004 2.9665000000000004 -4.8738149999999996 0.22902950000000002 2.5598800000000006 5.9987500000000008e-05 2.4708200000000003e-08 -2.1261799999999995e-08 0.23939700000000003 -7.2147099999999992e-05 1.0873100000000001e-05 0.66577950000000008 3.7531650000000006e-07 1.8396200000000002e-05
decision_type=2 2 2 2 2 2 2 2 2 2 2 2 2 2
left_child=-1 2 3 -2 -5 -4 7 12 9 -8 -11 -10 -7 -14
right_child=1 -3 5 4 -6 6 8 -9 11 10 -12 -13 13 -15
leaf_value=-3.0368633481564717e-06 -0.0031398541941598523 0.0045413147889121321 -0.00088154924063322453 0.0001106991636042949 -0.0015478558574492734 -0.00042626773116781431 0.00095459077352037032 0.0024824214760552753 0.0021013954273340378 -0.0021526604269059713 -0.00028390095190439349 0.00034497682227083718 0.0020997292893298438 0.00056164795157096924
leaf_weight=21983 15.999999999999998 9.9999999999999982 14.999999999999998 50 14.999999999999998 17 14.999999999999998 10.999999999999998 10.999999999999998 10.999999999999998 36 32 15.999999999999998 61
leaf_count=21983 16 10 15 50 15 17 15 11 11 11 36 32 16 61
internal_value=0 0.000211264 6.9759e-05 -0.000838525 -0.000272044 0.000396741 0.000488048 0.000837298 0.000138798 -0.00031582 -0.00072127 0.000794293 0.000644783 0.000881249
internal_weight=0 316 306 81 65 225 210 105 105 62 47 43 94 77
internal_count=22299 316 306 81 65 225 210 105 105 62 47 43 94 77
shrinkage=0.1


Tree=873
num_leaves=15
num_cat=0
split_feature=3 22 19 1 0 12 25 31 2 19 28 9 14 31
split_gain=0.0014081 0.00776885 0.0350157 0.0721623 0.0418759 0.0385949 0.0304116 0.026186 0.0217871 0.043088 0.0225503 0.0214137 0.025684 0.0264361
threshold=-7.2760499999999988 -2.7756699999999994 1.4184450000000002e-07 -2.8062349999999996 -3.0413449999999993 -1.0157499999999997e-05 0.64650950000000018 0.26402450000000005 -2.7513749999999995 5.5577300000000006e-06 -0.024701949999999997 -2.5762899999999995e-06 0.00092261950000000002 0.26402450000000005
decision_type=2 2 2 2 2 2 2 2 2 2 2 2 2 2
left_child=1 2 3 4 6 -5 -1 -7 9 -4 -11 12 13 -10
right_child=-2 -3 8 5 -6 7 -8 -9 11 10 -12 -13 -14 -15
leaf_value=-0.011276072217151521 3.3799594184097039e-05 -3.5014387187788098e-07 0.0074958290904760362 0.0043131820058988522 -0.0018302668671822176 -0.0032349953166915164 -0.0039408723020460459 0.00094552590302994554 -0.0036517797579949302 0.0044650718732737026 -0.0010670128074707463 0.00029044655452791071 -0.00029166414603432116 0.00047185154293071137
leaf_weight=13.000000000000002 7938 13521 10.999999999999998 15.999999999999998 20 31 9.9999999999999982 29 53 9.9999999999999947 28.000000000000004 383 214 22
leaf_count=13 7938 13521 11 16 20 31 10 29 53 10 28 383 214 22
internal_value=0 -1.86826e-05 -0.00031377 -0.001903 -0.00517681 -5.07065e-05 -0.00808685 -0.00121441 -5.14705e-05 0.00198425 0.000388799 -0.000199909 -0.000849757 -0.00244218
internal_weight=0 14361 840 119 43 76 23 60 721 49 38 672 289 75
internal_count=22299 14361 840 119 43 76 23 60 721 49 38 672 289 75
shrinkage=0.1


Tree=874
num_leaves=15
num_cat=0
split_feature=20 10 9 20 10 8 10 7 33 3 36 14 20 0
split_gain=0.00157012 0.00779386 0.0253205 0.0701434 0.0763923 0.0939713 0.0541599 0.0397991 0.0262314 0.0304069 0.025793 0.0219836 0.0463922 0.0194858
threshold=-4.8296149999999995 2.8142500000000004e-05 -2.1205799999999996e-05 -6.9804849999999989 2.2606200000000004e-05 1.2335100000000002e-05 2.3440800000000004e-05 3.0572450000000002e-05 -1.6373449999999999e-06 -10.645549999999998 -0.00028187599999999997 0.00068828850000000007 -10.027099999999999 -2.1517299999999997
decision_type=2 2 2 2 2 2 2 2 2 2 2 2 2 2
left_child=1 2 3 7 -5 6 -6 8 9 -1 -8 12 -9 -4
right_child=-2 -3 13 4 5 -7 10 11 -10 -11 -12 -13 -14 -15
leaf_value=0.0012577674330613159 -1.5694436685836308e-05 -5.3812395372607625e-05 -0.00049379448652030937 0.0094818043136911008 -0.006258122175931931 0.0098046277542240354 0.0045279751423766461 -0.00051614558105939057 -0.00033331167192734556 0.007931251900101249 0.00025237614727514077 -0.00055388965122926724 -0.0087414287806799017 0.00023103644432383248
leaf_weight=18.000000000000004 16520 3356 474 15.999999999999998 9.9999999999999982 12.999999999999998 20.999999999999993 16.000000000000004 33 10.999999999999998 43.000000000000007 51 11.999999999999998 1705
leaf_count=18 16520 3356 474 16 10 13 21 16 33 11 43 51 12 1705
internal_value=0 4.48645e-05 0.000181538 0.00114757 0.00313133 0.00196343 0.000585925 -0.000301557 0.00159491 0.00378909 0.00165531 -0.00178992 -0.00404127 7.33633e-05
internal_weight=0 5779 2423 244 103 87 74 141 62 29 64 79 28 2179
internal_count=22299 5779 2423 244 103 87 74 141 62 29 64 79 28 2179
shrinkage=0.1


Tree=875
num_leaves=15
num_cat=0
split_feature=21 5 16 18 30 5 35 35 33 23 37 12 8 5
split_gain=0.00133065 0.00982064 0.0257143 0.0181312 0.0221815 0.0312152 0.0414513 0.0289987 0.0201305 0.0214818 0.0200397 0.043796 0.0328205 0.0172406
threshold=-2.8135399999999997 7.9965000000000021e-06 -2.6095649999999993e-07 5.8209300000000002e-07 0.0018210250000000002 7.8320150000000016e-06 0.00025828200000000003 0.0015357400000000003 -1.8500899999999994e-05 -7.2010749999999994 2.1319250000000004e-08 -2.1522699999999996e-05 6.2768400000000009e-06 7.7376450000000017e-06
decision_type=2 2 2 2 2 2 2 2 2 2 2 2 2 2
left_child=1 2 13 4 5 7 -7 10 -5 -10 12 -12 -4 -1
right_child=-2 -3 3 8 -6 6 -8 -9 9 -11 11 -13 -14 -15
leaf_value=-0.00020543990949927656 1.9064984699224001e-05 -5.2325760390175912e-05 0.0008440762821919634 0.0036611991794779902 -0.00051192833615982159 0.0015938408040840708 0.0097969572017477316 0.0057983542756678969 -0.0022774408823008547 0.0020923326537013055 0.0080182172696698795 0.00034643530838682478 -0.0046672537134817014 -0.0043480004103912508
leaf_weight=27 13858 8132 64 9.9999999999999982 47 14.000000000000002 10.999999999999998 12.999999999999998 45 14.999999999999998 10.999999999999998 23 12.999999999999998 15.999999999999998
leaf_count=27 13858 8132 64 10 47 14 11 13 45 15 11 23 13 16
internal_value=0 -3.12999e-05 0.000522041 0.000888817 0.00138221 0.00197969 0.00520321 0.00132979 -0.000492684 -0.001185 0.000806441 0.00282848 -8.6408e-05 -0.00174686
internal_weight=0 8441 309 266 196 149 25 124 70 60 111 34 77 43
internal_count=22299 8441 309 266 196 149 25 124 70 60 111 34 77 43
shrinkage=0.1


Tree=876
num_leaves=15
num_cat=0
split_feature=4 19 23 36 18 31 20 22 36 4 5 38 3 28
split_gain=0.00135696 0.00429852 0.00567408 0.00615378 0.00320075 0.00344588 0.00454095 0.00318839 0.00259845 0.00394035 0.0021711 0.00782811 0.0338353 0.0064403
threshold=-5.5612799999999991 0.00076007650000000011 -13.359599999999999 -0.00010457849999999998 -0.0015514099999999998 -0.11672499999999998 -2.3186099999999996 -1.9750549999999998 -0.0003659104999999999 -6.852009999999999 2.5815900000000001e-05 -0.14227649999999997 -12.923849999999998 -1.0654399999999997
decision_type=2 2 2 2 2 2 2 2 2 2 2 2 2 2
left_child=1 2 -1 -4 -3 8 7 -7 -6 -10 -2 12 -12 -13
right_child=10 4 3 -5 5 6 -8 -9 9 -11 11 13 -14 -15
leaf_value=0.0012399857584387065 9.5870326918973136e-06 6.7030332228450832e-05 -0.003185936805004111 -0.00044169734570790426 0.00060385896552664538 0.00097387143442364719 0.0012798876903025893 -0.00047938944852729851 -0.0024489074898883696 8.1519905324967123e-05 -0.0061393527165901941 0.001700139342851582 -0.00034662463143876805 -5.5806727493532647e-05
leaf_weight=9.9999999999999982 16958 1062 12.999999999999998 22 21 26 77 36 10.000000000000002 15.999999999999998 10.999999999999998 21 121 3895
leaf_count=10 16958 1062 13 22 21 26 77 36 10 16 11 21 121 3895
internal_value=0 9.94291e-05 -0.00086077 -0.00146099 0.000134052 0.000516722 0.000767007 0.000130043 -0.000223483 -0.000891721 -6.12024e-06 -7.19216e-05 -0.000829352 -4.63903e-05
internal_weight=0 1293 45 35 1248 186 139 62 47 26 21006 4048 132 3916
internal_count=22299 1293 45 35 1248 186 139 62 47 26 21006 4048 132 3916
shrinkage=0.1


Tree=877
num_leaves=15
num_cat=0
split_feature=4 36 38 13 29 31 19 31 17 0 22 1 20 17
split_gain=0.00134845 0.00397144 0.00541212 0.0035286 0.00413688 0.00446603 0.00655516 0.00395514 0.0053991 0.00373392 0.00586985 0.00410866 0.00400293 0.00316058
threshold=3.6849500000000002 -2.8015299999999996 -0.80259099999999994 2.8108550000000004e-05 0.089235900000000021 -0.078222149999999976 0.028618200000000003 -1.2402049999999998 0.00015360300000000001 -4.4451199999999993 1.4147800000000001 -3.4026999999999998 -6.1283249999999994 1.0472700000000001e-05
decision_type=2 2 2 2 2 2 2 2 2 2 2 2 2 2
left_child=-1 -2 -3 4 5 6 -4 8 -5 10 -7 -11 -12 -9
right_child=1 2 3 7 -6 9 -8 13 -10 11 12 -13 -14 -15
leaf_value=-7.8285781727395334e-06 0.0016984387782091896 -0.0018271825136616827 0.00014485166788455735 0.0029248961200937628 -0.0011366404386030304 0.00062560167678524388 -0.0024154534865043721 -0.0013349333606634496 0.00038769444473963147 0.00035054818703155101 -0.0027272103389259419 0.001339409818999661 -0.00014427604464193187 -2.1204042982366485e-06
leaf_weight=20247 14.999999999999998 14.999999999999998 110 9.9999999999999982 18 65 10.999999999999998 18 52 73 10.000000000000002 99 14.999999999999998 1541
leaf_count=20247 15 15 110 10 18 65 11 18 52 73 10 99 15 1541
internal_value=0 7.72442e-05 6.53061e-05 7.93454e-05 0.000344947 0.000414577 -8.79033e-05 1.36414e-05 0.000796921 0.000646639 0.000124754 0.000919719 -0.00117745 -1.75089e-05
internal_weight=0 2052 2037 2022 401 383 121 1621 62 262 90 172 25 1559
internal_count=22299 2052 2037 2022 401 383 121 1621 62 262 90 172 25 1559
shrinkage=0.1


Tree=878
num_leaves=15
num_cat=0
split_feature=2 37 26 22 8 7 6 6 7 31 5 22 22 36
split_gain=0.00135536 0.0111301 0.0150933 0.020071 0.15409 0.217495 0.0497082 0.0763298 0.0420788 0.0231373 0.0212249 0.10377 0.0657353 0.0200028
threshold=-1.8099099999999997 -1.1247199999999999e-08 -9.7800649999999983e-05 -1.8970999999999998 1.3100250000000002e-05 4.6956350000000007e-05 -3.6107399999999998e-06 -2.8097599999999995e-06 3.147515000000001e-05 0.073932400000000023 1.3300150000000002e-05 -1.4672799999999997 -1.8321399999999997 -0.0017089949999999998
decision_type=2 2 2 2 2 2 2 2 2 2 2 2 2 2
left_child=1 -1 -3 4 6 -6 -4 -8 -9 -10 11 -5 -12 -7
right_child=-2 2 3 10 5 13 7 8 9 -11 12 -13 -14 -15
leaf_value=-0.0001001756952544052 -1.319968954720106e-05 -0.00019122913655864022 -0.0070607121938585553 0.010380677711641924 0.015752233611419798 0.0035132674267515543 0.0082616732589667671 -0.0067635578399693422 -0.0016161643727231893 0.0028156711480972407 -0.0059906746351367076 0.00057061875289573204 0.00010509808391328145 -0.0026663111480460921
leaf_weight=2542 17331 703 10.999999999999998 10.999999999999998 15.999999999999998 9.9999999999999982 9.9999999999999982 10.999999999999998 31 19 18 546 1029 11.000000000000002
leaf_count=2542 17331 703 11 11 16 10 10 11 31 19 18 546 1029 11
internal_value=0 4.60475e-05 0.000199262 0.000358586 0.00161164 0.00696862 -0.000805531 0.000163581 -0.00116398 6.79331e-05 0.000265623 0.000764354 2.99699e-07 0.000276345
internal_weight=0 4968 2426 1723 119 37 82 71 61 50 1604 557 1047 21
internal_count=22299 4968 2426 1723 119 37 82 71 61 50 1604 557 1047 21
shrinkage=0.1


Tree=879
num_leaves=15
num_cat=0
split_feature=19 22 2 21 1 29 0 21 3 20 3 32 12 34
split_gain=0.00147189 0.015904 0.0267955 0.0238564 0.0237739 0.0241289 0.0193287 0.0186137 0.016877 0.0167511 0.0164655 0.0156565 0.0383837 0.162611
threshold=2.1853450000000002e-06 1.6390350000000002 0.98298500000000011 5.2005200000000009 10.942650000000002 0.0017903400000000003 -3.9455449999999996 0.38053450000000005 -8.3562799999999982 -3.742435 -13.252699999999999 0.12598850000000003 -0.00011321699999999998 0.37802400000000008
decision_type=2 2 2 2 2 2 2 2 2 2 2 2 2 2
left_child=1 11 6 -4 5 -5 7 8 -3 -7 -8 -1 13 -13
right_child=-2 2 3 4 -6 9 10 -9 -10 -11 -12 12 -14 -15
leaf_value=-0.00022757756392605542 1.6566917457665056e-05 -0.0048107269972276229 0.00021788456053713917 -0.0063173187929351123 -9.6203098381113898e-05 -0.00045758718806609988 0.0022279799536503663 0.00022880870783768923 -0.00078994590017004464 -0.0041468018875457343 0.00063782187455675883 0.0050486453496592781 -5.8440538981917868e-06 -0.0019606832168891186
leaf_weight=3753 15750 12.999999999999998 145 15.999999999999998 53 31.999999999999996 73 406 53 20.000000000000004 603 71 1249 62
leaf_count=3753 15750 13 145 16 53 32 73 406 53 20 603 71 1249 62
internal_value=0 -3.98426e-05 0.000257127 -0.000647223 -0.00168392 -0.00292141 0.000466671 -2.43861e-05 -0.00158192 -0.00187652 0.00080954 -0.000121618 0.00016613 0.00178114
internal_weight=0 6549 1414 266 121 68 1148 472 66 52 676 5135 1382 133
internal_count=22299 6549 1414 266 121 68 1148 472 66 52 676 5135 1382 133
shrinkage=0.1


Tree=880
num_leaves=15
num_cat=0
split_feature=3 23 3 20 0 36 19 20 0 20 1 20 20 21
split_gain=0.00150678 0.0110031 0.0189221 0.0397959 0.071182 0.0194727 0.0187009 0.0299838 0.0197776 0.0373802 0.095712 0.0646874 0.0482682 0.0495526
threshold=-7.2760499999999988 -8.0189849999999989 -5.8561999999999985 12.411000000000001 10.604550000000001 -0.035183049999999993 0.00053170200000000011 11.29255 8.8772900000000021 9.8038950000000025 4.7165450000000009 11.486400000000001 2.7944300000000006 -7.2915849999999987
decision_type=2 2 2 2 2 2 2 2 2 2 2 2 2 2
left_child=-1 -2 3 5 -5 -3 8 -8 -7 12 11 -11 -10 -14
right_child=1 2 -4 4 -6 6 7 -9 9 10 -12 -13 13 -15
leaf_value=-1.9326175157681986e-05 0.00012108706459273788 0.0035359939667008199 0.00017438960870469207 0.00027039270997712656 0.0073212351701739762 -0.00047252582713979785 -4.0236231708165132e-05 0.0045429503800066117 -0.00092357907897993848 0.00088247030600905425 0.0073661851463839413 -0.0083197981288487266 -0.00069993112895948197 -0.0060754262685920974
leaf_weight=14361 5171 11.999999999999998 1193 70 18 906 295 14.999999999999998 132 25 15.999999999999998 10.999999999999998 27 47
leaf_count=14361 5171 12 1193 70 18 906 295 15 132 25 16 11 27 47
internal_value=0 3.49639e-05 -0.000125984 -0.00035365 0.00171261 -0.000476013 -0.000508675 0.000181531 -0.000692492 -0.00146493 0.000930826 -0.00192933 -0.00206969 -0.0041141
internal_weight=0 7938 2767 1574 88 1486 1474 310 1164 258 52 36 206 74
internal_count=22299 7938 2767 1574 88 1486 1474 310 1164 258 52 36 206 74
shrinkage=0.1


Tree=881
num_leaves=15
num_cat=0
split_feature=2 22 22 19 22 2 17 3 17 26 15 20 15 23
split_gain=0.00146115 0.0148608 0.0430343 0.0373828 0.0361652 0.0463668 0.0714371 0.0527482 0.0881437 0.0605774 0.0621575 0.0582316 0.0682391 0.048503
threshold=-2.4807499999999996 -2.4478399999999998 -1.6134299999999999 1.1605450000000001e-06 -2.8657299999999997 -2.8593649999999999 8.2810650000000014e-07 -6.8076899999999991 -1.0030524999999998e-08 -0.00011333499999999998 -4.7402049999999993e-08 -9.0239949999999975 6.8359600000000009e-06 -6.690904999999999
decision_type=2 2 2 2 2 2 2 2 2 2 2 2 2 2
left_child=1 4 3 -3 -1 -6 7 8 11 -10 -11 -7 -13 -9
right_child=-2 2 -4 -5 5 6 -8 13 9 10 -12 12 -14 -15
leaf_value=-0.00072161721716936986 -8.710338515785432e-06 -0.0021103239973204574 0.00018516711470641946 -1.3043509752183022e-05 -0.00065089764566017463 -0.0045292465994134544 -0.0015871666119276217 -0.001591853629463003 0.015649451352655889 0.00085321481932293267 0.011066944538973845 0.0097581440893312263 -0.0014268895373970737 0.0066485454142093661
leaf_weight=111 19985 168 1666 172 65 9.9999999999999982 31 25 9.9999999999999982 11 13 12.000000000000002 9.9999999999999982 9.9999999999999982
leaf_count=111 19985 168 1666 172 65 10 31 25 10 11 13 12 10 10
internal_value=0 7.52274e-05 -2.40725e-05 -0.00104935 0.000721966 0.00153536 0.00261192 0.00390075 0.00556495 0.0091103 0.00638565 0.00179801 0.00467404 0.000762546
internal_weight=0 2314 2006 340 308 197 132 101 66 34 24 32 22 35
internal_count=22299 2314 2006 340 308 197 132 101 66 34 24 32 22 35
shrinkage=0.1


Tree=882
num_leaves=15
num_cat=0
split_feature=2 22 17 14 21 21 3 34 20 11 0 14 34 20
split_gain=0.00142958 0.0181186 0.0333519 0.0159416 0.0122266 0.0151595 0.0108269 0.0173437 0.0144243 0.0147633 0.0190836 0.0131564 0.00808824 0.00760556
threshold=-2.8593649999999999 -2.8800399999999997 3.1476000000000005e-07 0.00056584850000000015 6.1223850000000004 -8.4573449999999983 -13.748449999999998 0.078213750000000012 -8.0936749999999993 -4.4342899999999992e-05 -11.574899999999998 0.0023278500000000007 0.0029874800000000003 -0.082702849999999981
decision_type=2 2 2 2 2 2 2 2 2 2 2 2 2 2
left_child=1 2 3 -1 5 -3 7 -7 9 -8 -11 -9 -10 -13
right_child=-2 4 -4 -5 -6 6 8 11 12 10 -12 13 -14 -15
leaf_value=0.0021574806373488775 -5.3176121047244406e-06 0.0009579037089715713 -0.001504357606994317 0.0068629123192901417 0.00070030461744560561 0.00041911763245448602 -0.00021423562016827742 -0.005019275238737464 -0.0026915900578553028 -0.00023227405035868281 -0.0054407884681816491 -0.0028608285087530559 5.3575502639284525e-05 0.00035231506201223678
leaf_weight=18.000000000000004 21357 100 17 11.999999999999998 204 29 34 15.999999999999998 10.999999999999998 12.000000000000002 17 17 442 13.000000000000002
leaf_count=18 21357 100 17 12 204 29 34 16 11 12 17 17 442 13
internal_value=0 0.000120561 0.00203437 0.00403965 2.00589e-05 -0.000180766 -0.000373435 -0.00149611 -0.000210255 -0.00162801 -0.00328554 -0.00270353 -1.30841e-05 -0.00146847
internal_weight=0 942 47 30 895 691 591 75 516 63 29 46 453 30
internal_count=22299 942 47 30 895 691 591 75 516 63 29 46 453 30
shrinkage=0.1


Tree=883
num_leaves=15
num_cat=0
split_feature=27 4 4 30 19 19 38 5 1 18 28 32 4 11
split_gain=0.00137017 0.00620164 0.0202873 0.0322072 0.0161093 0.0138723 0.0136611 0.00999526 0.00994186 0.0162684 0.0387127 0.0148034 0.0231872 0.0284346
threshold=4.622910000000001 0.27459550000000005 0.23939700000000003 0.0071484900000000013 1.1867000000000002e-05 6.4213950000000014e-06 -0.026803249999999997 6.4921000000000009e-06 4.5184100000000011 0.00018843350000000004 0.15036450000000004 -1.6966949999999998 1.6896300000000002 -0.00010084049999999998
decision_type=2 2 2 2 2 2 2 2 2 2 2 2 2 2
left_child=-1 2 7 -4 5 -3 -7 -2 11 10 -10 12 13 -6
right_child=1 4 3 -5 8 6 -8 -9 9 -11 -12 -13 -14 -15
leaf_value=-9.8427366333520388e-06 -0.003050450298469514 -0.00071668234090288432 0.0062262506590091762 0.00047560998798417136 -0.0075311323502683077 -0.0063164591463282689 -0.0014002019109634254 0.00011829444485021895 -0.00083153739317574265 0.00028671623973039673 0.0077653258852660653 8.7876686689419598e-05 -5.381242247871919e-05 -0.0016359303173764297
leaf_weight=19262 9.9999999999999982 72 13.999999999999998 32 9.9999999999999982 10.000000000000002 12.999999999999998 2188 11.000000000000002 147 9.9999999999999982 393 82 45
leaf_count=19262 10 72 14 32 10 10 13 2188 11 147 10 393 82 45
internal_value=0 6.2427e-05 0.000147376 0.0022258 -0.000177957 -0.00139967 -0.00353771 0.000103878 -1.16786e-05 0.000658653 0.00326221 -0.000224161 -0.00111928 -0.00270779
internal_weight=0 3037 2244 46 793 95 23 2198 698 168 21 530 137 55
internal_count=22299 3037 2244 46 793 95 23 2198 698 168 21 530 137 55
shrinkage=0.1


Tree=884
num_leaves=15
num_cat=0
split_feature=37 5 16 6 15 21 2 22 16 33 15 12 19 36
split_gain=0.00139398 0.00938167 0.0296067 0.0192374 0.0213875 0.0130544 0.0440816 0.0256047 0.015581 0.014481 0.0102057 0.0214175 0.0700789 0.115355
threshold=4.9602750000000011e-08 7.8320150000000016e-06 2.8113400000000003e-06 -1.6641249999999997e-06 1.4933050000000001e-08 -3.0339349999999996 -0.53936999999999979 0.44616150000000004 5.3331600000000017e-07 2.2192050000000004e-05 -9.7363449999999978e-09 2.4376200000000002e-05 6.2242400000000009e-07 0.00022516100000000001
decision_type=2 2 2 2 2 2 2 2 2 2 2 2 2 2
left_child=-1 2 3 4 -2 6 -5 8 -7 -8 -3 -12 13 -13
right_child=1 10 -4 5 -6 7 9 -9 -10 -11 11 12 -14 -15
leaf_value=1.7446337914402465e-05 -0.00054319143295288074 -0.00014230499047468312 -0.0046945029195151573 0.005535346981795395 -0.0065136066451668738 -0.0013020394835621119 0.00082291213118217208 0.00051779552953890886 -0.0056088719594602791 -0.0034956314067433902 -6.7450915103209829e-05 -0.00084374916949182864 5.8271418965877736e-05 0.0036371209494997082
leaf_weight=14997 15.000000000000002 3371 17 17 9.9999999999999982 28 22 78 11.999999999999998 11.999999999999998 2522 92 953 153
leaf_count=14997 15 3371 17 17 10 28 22 78 12 12 2522 92 953 153
internal_value=0 -3.58316e-05 -0.000692932 -0.000342279 -0.00293136 4.07211e-05 0.0013776 -0.000537081 -0.00259409 -0.00070128 -1.6279e-05 9.79237e-05 0.000446066 0.00195451
internal_weight=0 7302 211 194 25 169 51 118 40 34 7091 3720 1198 245
internal_count=22299 7302 211 194 25 169 51 118 40 34 7091 3720 1198 245
shrinkage=0.1


Tree=885
num_leaves=15
num_cat=0
split_feature=19 33 13 25 13 33 34 13 13 33 23 37 4 16
split_gain=0.00169813 0.019433 0.0240319 0.0191882 0.0340093 0.0916787 0.0936537 0.107293 0.146586 0.113232 0.169302 0.105657 0.149995 0.0996127
threshold=2.1853450000000002e-06 -2.0239149999999996e-07 6.4694650000000006e-05 3.9052450000000003 2.1216950000000004e-05 -6.3131549999999994e-06 0.075295400000000026 3.755075000000001e-05 4.1568450000000003e-05 -1.8500899999999994e-05 -12.811799999999998 1.8026200000000003e-07 0.07672420000000002 5.3331600000000017e-07
decision_type=2 2 2 2 2 2 2 2 2 2 2 2 2 2
left_child=1 3 -3 4 -1 6 7 9 -9 -6 -11 13 -13 -12
right_child=-2 2 -4 -5 5 -7 -8 8 -10 10 11 12 -14 -15
leaf_value=-4.3438327111312307e-05 1.7794665726796666e-05 8.5622789581309611e-05 0.0015020272239664337 0.00039191373261832541 -0.0040140842209273782 -0.0017475162231986739 -0.0011228333734660107 -0.010389749216847122 0.00030518545000549324 0.016232836279086768 0.0055549458172868514 -0.0066125493855603672 0.0061347858918209871 -0.0020081589602211482
leaf_weight=1973 15750 2873 125 473 22 495 313 14.999999999999998 88 9.9999999999999982 102 24 14.999999999999998 21
leaf_count=1973 15750 2873 125 473 22 495 313 15 88 10 102 24 15 21
internal_value=0 -4.27952e-05 0.000144679 -0.000201074 -0.000292199 -0.000736367 8.41565e-05 0.00135617 -0.00125233 0.00274109 0.00360513 0.00282564 -0.00170973 0.00426368
internal_weight=0 6549 2998 3551 3078 1105 610 297 103 194 172 162 39 123
internal_count=22299 6549 2998 3551 3078 1105 610 297 103 194 172 162 39 123
shrinkage=0.1


Tree=886
num_leaves=15
num_cat=0
split_feature=15 37 37 19 18 33 13 23 18 38 18 21 9 3
split_gain=0.00161634 0.00984829 0.0220031 0.0238245 0.0593299 0.164883 0.0534488 0.0621415 0.039682 0.0320945 0.0312113 0.0648276 0.054854 0.0839742
threshold=2.9158450000000003e-08 3.5599700000000005e-08 2.8743400000000002e-09 6.4213950000000014e-06 2.0667250000000005e-06 -4.7697749999999987e-06 2.1216950000000004e-05 -7.4571249999999987 -2.9033649999999996e-05 -9.8278449999999987e-05 6.6736800000000013e-08 3.4655050000000007 1.4369350000000003e-05 -6.1782649999999988
decision_type=2 2 2 2 2 2 2 2 2 2 2 2 2 2
left_child=1 2 -1 4 8 -6 7 -7 -4 -8 -10 -12 -13 -14
right_child=-2 -3 3 -5 5 6 9 -9 10 -11 11 12 13 -15
leaf_value=2.6664890732269645e-05 -2.9058772961303855e-05 -9.5973492181135865e-05 0.0064617398131469441 0.00015973224393379205 0.015693022087216377 0.01065957237627696 -0.0059586615441367015 0.0013020592113025485 -0.00056359191019454918 0.0011809223290423262 -0.00023922966771075337 0.0014390222905031234 0.014885738398879762 0.0022242091701958669
leaf_weight=6666 10300 4314 10.999999999999998 648 9.9999999999999982 10.999999999999998 10.000000000000002 20.000000000000004 165 17 79 27 10.000000000000002 10.999999999999998
leaf_count=6666 10300 4314 11 648 10 11 10 20 165 17 79 27 10 11
internal_value=0 2.49442e-05 9.28217e-05 0.0005256 0.00116464 0.00383406 0.00178941 0.00462247 0.00056556 -0.00146337 0.000343443 0.00152188 0.00442036 0.00825351
internal_weight=0 11999 7685 1019 371 68 58 31 303 27 292 127 48 21
internal_count=22299 11999 7685 1019 371 68 58 31 303 27 292 127 48 21
shrinkage=0.1


Tree=887
num_leaves=15
num_cat=0
split_feature=19 33 13 30 14 4 14 23 23 6 32 29 11 9
split_gain=0.00167105 0.0169127 0.0167829 0.0175339 0.0222997 0.0210767 0.02067 0.0435261 0.0426408 0.0320549 0.036671 0.0207357 0.0302904 0.0253619
threshold=2.1853450000000002e-06 8.7255100000000015e-07 6.4694650000000006e-05 0.00012682750000000002 0.00037720150000000008 0.18455250000000004 0.00022219550000000004 -14.884599999999999 -7.4021049999999997 -3.6560149999999993e-07 0.23476300000000003 0.005042345000000001 -2.2497199999999995e-05 -4.0819249999999994e-05
decision_type=2 2 2 2 2 2 2 2 2 2 2 2 2 2
left_child=1 -1 3 4 5 -3 -5 -8 9 11 -11 12 -9 -13
right_child=-2 2 -4 6 -6 -7 7 8 -10 10 -12 13 -14 -15
leaf_value=-0.00018337957151025848 1.7652224655212774e-05 -5.4020763581317311e-05 0.0013241945933449367 0.00022831906193110539 0.0017101691159433956 0.0027263536009316646 0.0010454857745561131 -0.00044506449165828196 0.0008844408139936545 1.0831391305795738e-05 0.0065294008050113921 -0.0040921664331108332 -0.0024360599245514002 -0.00015628371996810218
leaf_weight=3702 15750 299 115 1333 139 30 173 113 137 63 9.9999999999999982 18 236 181
leaf_count=3702 15750 299 115 1333 139 30 173 113 137 63 10 18 236 181
internal_value=0 -4.24527e-05 0.000140797 9.09833e-05 0.000648188 0.000199509 -2.41986e-05 -0.000385752 -0.000712406 -0.00106469 0.000903786 -0.00132691 -0.00179141 -0.000512293
internal_weight=0 6549 2847 2732 468 329 2264 931 758 621 73 548 349 199
internal_count=22299 6549 2847 2732 468 329 2264 931 758 621 73 548 349 199
shrinkage=0.1


Tree=888
num_leaves=15
num_cat=0
split_feature=33 14 3 3 13 23 3 23 7 9 34 26 13 13
split_gain=0.00164811 0.0138324 0.0225702 0.0716337 0.0620139 0.0935781 0.0662765 0.0522321 0.047151 0.028494 0.0763393 0.032762 0.189699 0.161692
threshold=-1.2823249999999998e-05 0.0013568100000000002 -11.259049999999997 -11.162099999999999 3.6063350000000008e-05 -13.123899999999997 -11.947549999999998 -12.196199999999999 2.4114500000000004e-05 4.4908800000000006e-05 0.42361800000000005 -5.4549499999999997e-05 3.1346650000000006e-05 3.0627750000000008e-05
decision_type=2 2 2 2 2 2 2 2 2 2 2 2 2 2
left_child=1 2 4 7 8 -6 -7 -4 -1 11 -11 13 -13 -10
right_child=-2 -3 3 -5 5 6 -8 -9 9 10 -12 12 -14 -15
leaf_value=0.006686767990785567 -1.3217148250603372e-05 -0.00014515603985895134 -0.0011118909508998813 0.00017586776729815352 -0.00084459772639858873 0.0043966543627902864 0.014774481663480402 -0.010897531518712641 0.0010056619992148195 -0.0085342553175555957 0.0023029500188735817 -0.00038903969321896128 0.012915872288151428 -0.012200344112617049
leaf_weight=10.999999999999998 18036 1898 12.000000000000002 2117 19 16.000000000000004 9.9999999999999982 9.9999999999999982 59 13.000000000000002 12.999999999999998 61 12.999999999999998 10.999999999999998
leaf_count=11 18036 1898 12 2117 19 16 10 10 59 13 13 61 13 11
internal_value=0 5.59194e-05 0.00021729 0.000116874 0.00116768 0.00448987 0.00838813 -0.00555991 0.000341727 -6.8834e-05 -0.00311565 0.000481286 0.00194831 -0.00106957
internal_weight=0 4263 2365 2139 226 45 26 22 181 170 26 144 74 70
internal_count=22299 4263 2365 2139 226 45 26 22 181 170 26 144 74 70
shrinkage=0.1


Tree=889
num_leaves=15
num_cat=0
split_feature=19 33 3 27 19 10 6 19 6 31 14 36 14 14
split_gain=0.00166258 0.0147019 0.017426 0.0155766 0.0367122 0.0440584 0.0735885 0.0402879 0.0355425 0.0627053 0.0533933 0.183221 0.0982002 0.0674341
threshold=2.1853450000000002e-06 -2.0239149999999996e-07 -14.883399999999998 0.19290050000000003 3.8232650000000015e-09 1.7010500000000006e-05 -8.007419999999998e-07 4.2334800000000006e-09 -1.0796899999999997e-06 -0.032120949999999988 0.0007529835000000001 -0.00028187599999999997 0.00065207900000000018 0.00051153500000000014
decision_type=2 2 2 2 2 2 2 2 2 2 2 2 2 2
left_child=1 3 -3 4 5 6 -1 -6 10 -10 12 -12 13 -9
right_child=-2 2 -4 -5 7 -7 -8 8 9 -11 11 -13 -14 -15
leaf_value=0.010092065009909369 1.7607410735886261e-05 0.001239692166410877 6.8774299474088597e-05 -6.8530725216638704e-05 -0.0069710525726391515 7.1740744481050783e-05 -0.0015231056063203141 -0.0009498006865603112 -0.0076650316153015754 -0.0013981892255287677 0.011881506016167503 -0.000611571294225373 -0.0085864873588434431 0.0044302925057709223
leaf_weight=12.000000000000002 15750 133 2865 2767 10.999999999999998 180 9.9999999999999982 342 19 100 14.999999999999998 54 15.999999999999998 25
leaf_count=12 15750 133 2865 2767 11 180 10 342 19 100 15 54 16 25
internal_value=0 -4.23449e-05 0.00012072 -0.000180015 -0.000573482 0.000588055 0.00481244 -0.000976627 -0.000861147 -0.00239878 -0.000456329 0.00210432 -0.000917646 -0.000583309
internal_weight=0 6549 2998 3551 784 202 22 582 571 119 452 69 383 367
internal_count=22299 6549 2998 3551 784 202 22 582 571 119 452 69 383 367
shrinkage=0.1


Tree=890
num_leaves=15
num_cat=0
split_feature=33 13 8 5 20 5 5 36 25 30 1 1 5 28
split_gain=0.00150373 0.0111789 0.0127097 0.0287616 0.0215509 0.0285629 0.0224429 0.0536668 0.0218081 0.0444438 0.0248009 0.0280687 0.0387276 0.0244616
threshold=-1.2823249999999998e-05 -3.8629749999999992e-06 6.6360750000000007e-06 8.0712700000000014e-06 -2.8021899999999995 9.4083500000000012e-06 9.5818600000000011e-06 0.0015212650000000002 1.1091800000000003 0.0019152850000000003 -2.8062349999999996 -3.9966449999999996 1.4649350000000002e-05 -0.014906099999999999
decision_type=2 2 2 2 2 2 2 2 2 2 2 2 2 2
left_child=1 -1 -3 -4 5 -5 7 -6 10 -10 11 13 -13 -7
right_child=-2 2 3 4 6 8 -8 -9 9 -11 -12 12 -14 -15
leaf_value=0.0002996602114814524 -1.2624974555312179e-05 -0.0002187113918031398 0.0047099700397146603 -0.0040196684871001967 0.00033653652709391384 -0.0032875104497502288 0.00034439899780163509 0.0083738839011251297 0.0057044250324058037 5.6706017026694354e-05 0.0038085420359857385 -0.0088528650474141921 -0.00092383910752167654 -0.00012814564735859506
leaf_weight=1287 18036 1812 13.999999999999998 21 27 31 696 11.999999999999998 14.999999999999998 196 9.9999999999999982 11.000000000000002 13.999999999999998 117
leaf_count=1287 18036 1812 14 21 27 31 696 12 15 196 10 11 14 117
internal_value=0 5.3414e-05 -5.30775e-05 0.000204765 0.000149919 -0.000426188 0.000475204 0.00280957 -0.000234657 0.000458203 -0.00103353 -0.00131342 -0.00441261 -0.000789904
internal_weight=0 4263 2976 1164 1150 415 735 39 394 211 183 173 25 148
internal_count=22299 4263 2976 1164 1150 415 735 39 394 211 183 173 25 148
shrinkage=0.1


Tree=891
num_leaves=15
num_cat=0
split_feature=6 22 2 3 11 26 31 35 16 7 34 15 7 13
split_gain=0.00156742 0.0143446 0.0235017 0.02671 0.0277287 0.0128707 0.0094771 0.00857484 0.020087 0.0344669 0.0258097 0.0307333 0.090667 0.0310788
threshold=2.3224500000000005e-06 2.8358200000000005 1.9945700000000002 -7.9709549999999991 -3.1724349999999994e-05 -7.086359999999999e-05 0.053915200000000003 0.0021583650000000002 1.1588450000000001e-07 2.7104750000000005e-05 0.19966500000000001 4.5864850000000006e-07 5.2996200000000006e-05 -4.083924999999999e-05
decision_type=2 2 2 2 2 2 2 2 2 2 2 2 2 2
left_child=-1 7 6 4 -4 -5 -3 -2 9 -9 11 13 -13 -11
right_child=1 2 3 5 -6 -7 -8 8 -10 10 -12 12 -14 -15
leaf_value=1.5572899553811207e-05 -8.0324361633060464e-05 -0.0021541206749756577 -0.0021358041809155389 0.00080886594535383805 -0.0091399752441793693 -0.0026922483418491626 0.00027116597446468594 0.0056842445960053464 -0.00025033675946299633 0.0048054443462913496 -2.6674998108636467e-05 0.010645496170036496 0.00019732613683394766 0.00047162073197818603
leaf_weight=16579 4359 19 13.000000000000002 21 9.9999999999999982 21 106 12.999999999999998 506 18 393 12.999999999999998 23 205
leaf_count=16579 4359 19 13 21 10 21 106 13 506 18 393 13 23 205
internal_value=0 -4.51369e-05 -0.000899479 -0.00244179 -0.0051811 -0.000941691 -9.74776e-05 -1.57834e-05 0.000224468 0.000585748 0.00048409 0.00125911 0.00397028 0.000821436
internal_weight=0 5720 190 65 23 42 125 5530 1171 665 652 259 36 223
internal_count=22299 5720 190 65 23 42 125 5530 1171 665 652 259 36 223
shrinkage=0.1


Tree=892
num_leaves=15
num_cat=0
split_feature=27 14 19 39 32 32 1 22 30 17 19 19 34 36
split_gain=0.00153653 0.0122215 0.0213794 0.0372204 0.112086 0.0299194 0.155235 0.0283992 0.0407616 0.0459123 0.0162213 0.030965 0.0447541 0.0378531
threshold=0.42484400000000005 0.0036781400000000003 6.646290000000001e-05 0.00049969450000000013 -0.38019549999999996 0.27938250000000003 -2.8062349999999996 -2.3659499999999993 0.0035145550000000004 1.9674550000000001e-08 1.1444150000000001e-07 1.8546550000000004e-07 0.36683550000000004 -0.010022309999999998
decision_type=2 2 2 2 2 2 2 2 2 2 2 2 2 2
left_child=-1 10 3 4 -3 -6 -7 -5 9 -9 -2 12 13 -12
right_child=1 2 -4 7 5 6 -8 8 -10 -11 11 -13 -14 -15
leaf_value=2.7861447110306325e-05 0.00013383047209524106 0.010388882873978999 5.0779934507766271e-05 0.0029597845398322015 0.00053903198342738384 0.013446794043887742 -0.0014805375233807258 -0.00055806847230996924 -0.00011827418897196316 -0.0099202642031013966 -0.0074982598782158821 -0.00013360271509941084 0.00045636427808937662 -0.0018554748928345231
leaf_weight=10486 2260 13.999999999999998 3388 21 153 11.000000000000002 19 11.000000000000002 89 9.9999999999999982 12.999999999999998 5593 92 139
leaf_count=10486 2260 14 3388 21 153 11 19 11 89 10 13 5593 92 139
internal_value=0 -2.47317e-05 0.000125412 0.000896306 0.00176498 0.00110523 0.00399282 -0.000410018 -0.00105334 -0.00501626 -9.36379e-05 -0.00018171 -0.00128444 -0.00233808
internal_weight=0 11813 3716 328 197 183 30 131 110 21 8097 5837 244 152
internal_count=22299 11813 3716 328 197 183 30 131 110 21 8097 5837 244 152
shrinkage=0.1


Tree=893
num_leaves=15
num_cat=0
split_feature=2 22 17 14 21 21 3 23 14 20 19 0 23 12
split_gain=0.00150194 0.0146022 0.0275856 0.0129541 0.0100703 0.0120637 0.0091077 0.0261301 0.0152928 0.0115641 0.0123363 0.0117269 0.0185243 0.00703117
threshold=-2.8593649999999999 -2.8800399999999997 3.1476000000000005e-07 0.00056584850000000015 6.1223850000000004 -8.3840799999999991 -13.748449999999998 -14.098699999999999 0.0023278500000000007 -8.0936749999999993 7.3004200000000008e-05 -11.574899999999998 -8.1679949999999977 -1.0157499999999997e-05
decision_type=2 2 2 2 2 2 2 2 2 2 2 2 2 2
left_child=1 2 3 -1 5 -3 7 8 -7 10 11 -8 -13 -6
right_child=-2 4 -4 -5 13 6 9 -9 -10 -11 -12 12 -14 -15
leaf_value=0.0019687064548230002 -5.4505245441141892e-06 0.0008381780961229067 -0.0013766448779493016 0.0062103865939813355 0.00087507921738240717 -0.0071783166006207447 -0.00014353839393991692 -0.00017992464472970241 -0.0017750389069657434 2.1231860894827017e-06 0.00028057583159170465 -0.0071802931500133133 -0.0016238639527485549 -0.00088540543981183043
leaf_weight=18.000000000000004 21357 105 17 11.999999999999998 178 10.000000000000002 12.999999999999998 53 10.999999999999998 449 25 9.9999999999999982 15.000000000000002 26
leaf_count=18 21357 105 17 12 178 10 13 53 11 449 25 10 15 26
internal_value=0 0.000123574 0.00184167 0.00366538 3.33503e-05 -0.000148908 -0.000325774 -0.00136276 -0.00434803 -0.000175897 -0.00144464 -0.00257965 -0.00384644 0.000650704
internal_weight=0 942 47 30 895 691 586 74 21 512 63 38 25 204
internal_count=22299 942 47 30 895 691 586 74 21 512 63 38 25 204
shrinkage=0.1


Tree=894
num_leaves=15
num_cat=0
split_feature=19 19 20 20 10 38 32 32 22 32 4 28 35 9
split_gain=0.00140716 0.0139065 0.0320758 0.133373 0.20141 0.111202 0.0454868 0.0662037 0.0517709 0.030134 0.0290751 0.0244894 0.0187857 0.121769
threshold=2.1853450000000002e-06 8.1708200000000029e-06 -1.2965399999999996 0.40854400000000007 2.3061850000000004e-05 0.00019016500000000003 -0.38019549999999996 -0.74651849999999986 1.3614300000000001 -0.27852799999999994 -0.065667299999999998 -0.0047839749999999985 0.00078372600000000011 4.8550600000000009e-05
decision_type=2 2 2 2 2 2 2 2 2 2 2 2 2 2
left_child=-1 2 9 4 5 -4 7 -5 11 -2 -10 -8 -13 -14
right_child=1 -3 3 6 -6 -7 8 -9 10 -11 -12 12 13 -15
leaf_value=-3.8956625013337043e-05 -0.003858643744818189 -6.0064736465775184e-06 0.006817442542524076 0.00051496001556404828 -0.00013328548355212694 0.020260011134669187 -0.0010285579807811139 0.0098259941752379138 -0.0013452216517180202 -4.5016505868097944e-05 -0.0082154322711920202 0.00034277855351779634 0.00049706002940053757 0.012476776102557778
leaf_weight=6549 22 14917 16.000000000000004 21 29 9.9999999999999982 94 11.999999999999998 14.000000000000002 356 10.999999999999998 182 56 9.9999999999999982
leaf_count=6549 22 14917 16 21 29 10 94 12 14 356 11 182 56 10
internal_value=0 1.61985e-05 0.000413836 0.000979432 0.00559662 0.0119877 0.000344569 0.00390079 2.47998e-05 -0.000266974 -0.00436811 0.000345919 0.00086689 0.00231217
internal_weight=0 15750 833 455 55 26 400 33 367 378 25 342 248 66
internal_count=22299 15750 833 455 55 26 400 33 367 378 25 342 248 66
shrinkage=0.1


Tree=895
num_leaves=15
num_cat=0
split_feature=20 4 17 36 2 35 6 35 2 3 28 24 23 6
split_gain=0.00147386 0.00669048 0.0162687 0.0156621 0.062879 0.113483 0.0478095 0.0392192 0.0353167 0.0199264 0.0194476 0.0250448 0.0256974 0.0204866
threshold=-4.8296149999999995 -0.17493999999999996 -1.9113599999999997e-08 -0.00065894149999999986 2.0605700000000007 0.0010857650000000003 9.7516100000000019e-07 0.0022464450000000006 2.0105200000000005 -9.7904999999999998 0.00062296050000000016 0.16293600000000005 -8.6210549999999966 2.4522650000000007e-06
decision_type=2 2 2 2 2 2 2 2 2 2 2 2 2 2
left_child=1 2 -1 4 7 -6 -7 -4 -5 -9 13 12 -12 -10
right_child=-2 -3 3 8 5 6 -8 9 10 -11 11 -13 -14 -15
leaf_value=1.3625958851385363e-05 -1.520573259750854e-05 -2.8288822635039424e-05 0.0016098162924155239 0.00096346556790230021 -6.2223321724412658e-05 0.0035835866223682049 0.012044463180662955 -0.0042521522031165665 0.00091504289151128875 -8.9548636258215362e-05 -0.0087667886982671916 0.00090202491681504236 -0.0023047254100674762 -0.0029882951731499481
leaf_weight=1271 16520 4000 68 233 31 11.000000000000002 17 23 46 23 9.9999999999999982 10.999999999999998 16.000000000000004 19
leaf_count=1271 16520 4000 68 233 31 11 17 23 46 23 10 11 16 19
internal_value=0 4.34675e-05 0.000204808 0.000683141 0.00145581 0.00410587 0.00872055 8.42841e-05 0.000284121 -0.00217085 -0.00126771 -0.00309787 -0.00479013 -0.000225933
internal_weight=0 5779 1779 508 173 59 28 114 335 46 102 37 26 65
internal_count=22299 5779 1779 508 173 59 28 114 335 46 102 37 26 65
shrinkage=0.1


Tree=896
num_leaves=15
num_cat=0
split_feature=7 21 21 26 6 0 34 27 0 1 36 16 36 27
split_gain=0.00147603 0.017829 0.0957269 0.0280821 0.0498535 0.0276771 0.0341783 0.0473418 0.033201 0.0269349 0.020485 0.0295282 0.0194979 0.0271915
threshold=2.5051500000000006e-05 -7.2915849999999987 -6.8668499999999986 7.2118600000000004e-05 1.7574450000000003e-06 3.3844200000000004 0.008378685000000002 0.62631350000000008 4.0987050000000016 -4.5929049999999991 0.27258550000000009 8.2011600000000025e-08 -0.0025755649999999997 0.23188250000000002
decision_type=2 2 2 2 2 2 2 2 2 2 2 2 2 2
left_child=1 3 -3 4 5 6 -1 -8 -7 -9 11 -5 -4 -14
right_child=-2 2 12 10 -6 8 7 9 -10 -11 -12 -13 13 -15
leaf_value=0.00020709738059065724 6.6538803297085584e-06 0.0070972715430942029 0.00080003322272691451 -7.5862720902813112e-05 -0.0077069240544612215 0.0064218954934040064 -0.0076646303881288463 -0.0035992750624085179 -0.00063512500550132244 0.0005890011659565582 -0.0022631987075631818 0.005859341549997529 0.00050717444052609682 -0.00063527879213120392
leaf_weight=58 20901 19 215 19 11.999999999999998 10.000000000000002 17 34 20 28 11.999999999999998 14.999999999999998 312 627
leaf_count=58 20901 19 215 19 12 10 17 34 20 28 12 15 312 627
internal_value=0 -9.94798e-05 5.69258e-05 -0.000914874 -0.00148121 -0.00103386 -0.00163628 -0.00298965 0.00171722 -0.0017078 0.00128892 0.00254261 -5.89898e-05 -0.000255678
internal_weight=0 1398 1173 225 179 167 137 79 30 62 46 34 1154 939
internal_count=22299 1398 1173 225 179 167 137 79 30 62 46 34 1154 939
shrinkage=0.1


Tree=897
num_leaves=15
num_cat=0
split_feature=3 23 18 38 19 18 33 13 5 10 3 15 3 14
split_gain=0.00141552 0.0107463 0.0123658 0.0277293 0.0553191 0.0236721 0.0191094 0.0297827 0.0335515 0.0169372 0.0164964 0.0207303 0.0310037 0.0266129
threshold=-7.2760499999999988 -6.6126999999999994 3.7595800000000007e-06 -0.00085502699999999985 1.3381100000000001e-05 3.2744350000000007e-06 2.5984300000000004e-06 6.3145800000000008e-06 1.5498450000000001e-05 3.0466750000000004e-05 -5.8792649999999993 -4.9462599999999996e-08 -5.9630249999999991 0.0009480370000000001
decision_type=2 2 2 2 2 2 2 2 2 2 2 2 2 2
left_child=-1 -2 5 4 -4 6 10 8 -8 -10 11 13 -13 -3
right_child=1 2 3 -5 -6 -7 7 -9 9 -11 -12 12 -14 -15
leaf_value=-1.8731782595094642e-05 7.632564691317659e-05 -0.0029981111245224491 0.0093430854019243247 -6.8955030446187055e-05 -0.00013813131954520941 -0.0050544176039031968 0.005822077549160704 -0.00099247416704505067 0.0032387024955824019 -0.00096164878535394882 -2.832884545846432e-05 -0.00028815397116692669 -0.0057179264957085254 0.00064807414466765926
leaf_weight=14361 7006 87 10.000000000000002 130 15.999999999999998 10.999999999999998 19 48 15.999999999999998 24 295 239 10.999999999999998 26
leaf_count=14361 7006 87 10 130 16 11 19 48 16 24 295 239 11 26
internal_value=0 3.38885e-05 -0.000285118 0.000527286 0.00350849 -0.000448437 -0.000382207 0.0008572 0.00236202 0.000718492 -0.000583752 -0.00103513 -0.000527064 -0.00215917
internal_weight=0 7938 932 156 26 776 765 107 59 40 658 363 250 113
internal_count=22299 7938 932 156 26 776 765 107 59 40 658 363 250 113
shrinkage=0.1


Tree=898
num_leaves=15
num_cat=0
split_feature=27 14 3 3 37 22 28 31 21 36 12 21 1 33
split_gain=0.00145733 0.0102206 0.0174389 0.0331643 0.0979738 0.123082 0.0419364 0.0390216 0.031614 0.0278395 0.0349418 0.0374684 0.0257997 0.0206986
threshold=0.42484400000000005 0.0036781400000000003 -12.169249999999998 -11.892099999999997 8.7771000000000012e-08 0.15387700000000001 -0.017475099999999997 -0.17062949999999996 -4.9075749999999987 0.029432000000000003 -0.000223215 3.8775950000000008 -5.5865949999999991 -2.8321649999999994e-06
decision_type=2 2 2 2 2 2 2 2 2 2 2 2 2 2
left_child=-1 2 9 4 6 8 -4 -8 -6 10 11 -2 -11 -12
right_child=1 -3 3 -5 5 -7 7 -9 -10 12 13 -13 -14 -15
leaf_value=2.7133823314505248e-05 -0.0045552353395826436 0.00011321778736579581 0.0033510851454647151 -5.6420046126420627e-05 0.0058870824094628908 0.013674221782443617 -0.0076471510766582054 -0.00061788893311001767 -0.001474671933933028 0.0050746553111821417 -0.00108733480466872 0.00075849912644020828 0.00039902366730260042 -6.9122016510832408e-05
leaf_weight=10486 44 3716 17 6986 10 12.999999999999998 10.999999999999998 28 14 12.999999999999998 351 19 128 463
leaf_count=10486 44 3716 17 6986 10 13 11 28 14 13 351 19 128 463
internal_value=0 -2.40858e-05 -8.70992e-05 -3.14467e-05 0.00184451 0.00583758 -0.00079377 -0.0026005 0.00159273 -0.000474098 -0.000683782 -0.00295268 0.00083011 -0.000508179
internal_weight=0 11813 8097 7079 93 37 56 39 24 1018 877 63 141 814
internal_count=22299 11813 8097 7079 93 37 56 39 24 1018 877 63 141 814
shrinkage=0.1


Tree=899
num_leaves=15
num_cat=0
split_feature=33 3 19 19 14 34 30 2 1 35 8 1 30 7
split_gain=0.00148865 0.0136737 0.0402867 0.0422305 0.0886153 0.0529123 0.0340011 0.0683968 0.0428002 0.0425926 0.0327248 0.0264265 0.0331391 0.0267586
threshold=1.4850200000000002e-05 -9.8324999999999978 0.0024022850000000001 0.0030341400000000007 0.0048436200000000007 0.51382200000000011 0.0031303350000000001 1.4392700000000003 6.1081700000000003 -0.0012853949999999997 1.5571400000000005e-05 4.1398150000000014 0.0035145550000000004 2.6906950000000005e-05
decision_type=2 2 2 2 2 2 2 2 2 2 2 2 2 2
left_child=-1 2 6 4 5 -4 7 10 9 -9 -2 -8 -13 -14
right_child=1 -3 3 -5 -6 -7 11 8 -10 -11 -12 12 13 -15
leaf_value=1.22618653054911e-05 -0.00058272245211200347 8.9165125082627189e-05 0.012306257500313219 4.4027772104729799e-05 -0.00046914179054569576 0.0024571018014103176 -0.00058237612211974564 -0.0031355181883554908 -0.0010596467986761127 -0.010226564549116626 -0.0037648303243460962 0.0064373993780463936 0.0040955671212739419 -0.00019788400242881228
leaf_weight=18200 316 2533 12.000000000000002 675 31 9.9999999999999982 328 15.999999999999998 20 18 36 10.999999999999998 18 75
leaf_count=18200 316 2533 12 675 31 10 328 16 20 18 36 11 18 75
internal_value=0 -5.4444e-05 -0.000286731 0.000257447 0.00297552 0.00782937 -0.000759478 -0.00141654 -0.00473036 -0.0068896 -0.000908165 -0.000141965 0.00124702 0.000633107
internal_weight=0 4099 1566 728 53 22 838 406 54 34 352 432 104 93
internal_count=22299 4099 1566 728 53 22 838 406 54 34 352 432 104 93
shrinkage=0.1


Tree=900
num_leaves=15
num_cat=0
split_feature=16 20 19 0 37 33 18 14 7 32 28 3 6 8
split_gain=0.00141834 0.0127998 0.0222076 0.060501 0.214221 0.17514 0.14443 0.080811 0.039519 0.0213159 0.0265257 0.0361908 0.024484 0.0252081
threshold=1.0000000180025095e-35 5.1780250000000008 6.4213950000000014e-06 4.7747550000000007 -4.2306749999999996e-08 -4.0322649999999987e-06 -4.2751549999999987e-06 0.00050069100000000005 7.3118250000000018e-05 -8.420813499999998e-05 0.017033800000000005 -6.3788349999999996 -6.1252849999999986e-06 -1.5192549999999999e-05
decision_type=2 2 2 2 2 2 2 2 2 2 2 2 2 2
left_child=1 -1 3 9 5 7 -7 -5 -6 10 11 12 -3 -14
right_child=-2 2 -4 4 8 6 -8 -9 -10 -11 -12 -13 13 -15
leaf_value=-3.7022504209236211e-05 -2.4906538115923628e-05 -0.005017277351968611 1.8901052623036029e-05 0.0082669595686288965 -0.00078242606996354886 -0.0074165535834617895 0.0080985080062722162 0.01964697550671796 0.0053043659310787923 0.00085126779941740614 0.0010780776297410327 0.0008974881243256792 -0.0053944010466623771 -0.00082466857767520625
leaf_weight=8237 11289 18 1896 13.000000000000002 96 10.000000000000002 14.999999999999998 11.999999999999998 11.999999999999998 317 110 92 12.999999999999998 169
leaf_count=8237 11289 18 1896 13 96 10 15 12 12 317 110 92 13 169
internal_value=0 2.55377e-05 0.000211368 0.000627466 0.00239928 0.00781093 0.00189248 0.0137294 -0.000106116 0.000238111 -0.000245397 -0.000743967 -0.00149904 -0.00115108
internal_weight=0 11010 2773 877 158 50 25 25 108 719 402 292 200 182
internal_count=22299 11010 2773 877 158 50 25 25 108 719 402 292 200 182
shrinkage=0.1


Tree=901
num_leaves=15
num_cat=0
split_feature=23 14 3 28 1 3 35 16 18 3 36 5 16 12
split_gain=0.00139955 0.012351 0.0149373 0.0144209 0.0411356 0.0399808 0.0533206 0.0250053 0.0222169 0.0359336 0.0541351 0.0481597 0.0402319 0.0327982
threshold=-6.3575349999999995 0.0091276500000000028 -6.6945549999999994 -0.0063236349999999993 2.9666250000000005 -5.8792649999999993 0.0019543150000000003 1.4193900000000001e-07 2.0201400000000002e-07 -5.8792649999999993 7.9784000000000007e-05 2.2511200000000002e-05 -5.5813149999999993e-08 -5.136639999999999e-05
decision_type=2 2 2 2 2 2 2 2 2 2 2 2 2 2
left_child=-1 2 -2 4 5 6 -4 -6 9 10 11 12 -5 -12
right_child=1 -3 3 8 7 -7 -8 -9 -10 -11 13 -13 -14 -15
leaf_value=-6.4445220446824712e-06 0.00054327265877324366 -0.0004668652756549443 0.010453960904851553 0.0017563533519084256 0.00042126358430660159 0.00017832819277308382 0.0010269969236105681 -0.0045676791320147462 0.00081123275986947404 9.9520187116771319e-05 -0.0093873726839030346 0.0050136420811343549 -0.0053490703487220938 -0.0033214969446565563
leaf_weight=20915 676 303 12.000000000000002 14.999999999999998 27 28 11.999999999999998 15.999999999999998 86 120 10.999999999999998 13.999999999999998 17 47
leaf_count=20915 676 303 12 15 27 28 12 16 86 120 11 14 17 47
internal_value=0 9.73896e-05 0.000255548 -0.000224704 0.00085322 0.00274547 0.00574048 -0.00143509 -0.000555035 -0.00107958 -0.00244009 0.000121785 -0.0020184 -0.00447192
internal_weight=0 1384 1081 405 95 52 24 43 310 224 104 46 32 58
internal_count=22299 1384 1081 405 95 52 24 43 310 224 104 46 32 58
shrinkage=0.1


Tree=902
num_leaves=15
num_cat=0
split_feature=28 0 3 21 30 34 20 24 8 14 19 12 25 14
split_gain=0.00135736 0.0134541 0.0274546 0.0198555 0.032147 0.0178142 0.0185073 0.01333 0.0159804 0.0190091 0.0132329 0.0656412 0.0313899 0.0796124
threshold=0.028347250000000004 5.6415500000000014 -10.433649999999998 8.5180900000000026 0.0031303350000000001 0.099180800000000013 8.3091000000000026 0.71141950000000009 -1.2785949999999997e-05 7.7028400000000009e-05 2.1170350000000003e-05 0.00026153600000000009 1.3388400000000003 0.0025956900000000003
decision_type=2 2 2 2 2 2 2 2 2 2 2 2 2 2
left_child=-1 10 3 4 -3 6 -4 -7 9 -9 11 12 13 -2
right_child=1 2 5 -5 -6 7 -8 8 -10 -11 -12 -13 -14 -15
leaf_value=9.1071271753648819e-06 -0.0001667939921026118 -0.0073554232396418236 -0.0010279902143594929 -0.00018314064724282142 -0.0011949636674317946 0.00022254954918377826 -0.0054094959219748327 -0.00039106703434999159 -0.00030239398195565609 -0.0057014686454619681 -0.00012872011587203552 0.0063684037808141303 0.00043866230156669852 -0.010142538845539093
leaf_weight=19625 40 15.999999999999998 78 21 18 403 10.999999999999998 13.000000000000002 74 13.999999999999998 1311 18 647 9.9999999999999982
leaf_count=19625 40 16 78 21 18 403 11 13 74 14 1311 18 647 10
internal_value=0 -6.68389e-05 -0.000463463 -0.00260076 -0.004094 -0.000265231 -0.00156952 -3.4909e-05 -0.00106219 -0.00314461 6.0018e-05 0.000406082 0.000252105 -0.00216194
internal_weight=0 2674 648 55 34 593 89 504 101 27 2026 715 697 50
internal_count=22299 2674 648 55 34 593 89 504 101 27 2026 715 697 50
shrinkage=0.1


Tree=903
num_leaves=15
num_cat=0
split_feature=8 21 7 3 21 7 1 1 7 21 31 25 23 3
split_gain=0.00131586 0.00841683 0.0411732 0.0436665 0.00810621 0.013189 0.0272225 0.00681699 0.00637986 0.0160136 0.0077858 0.00616992 0.00578919 0.0128488
threshold=2.6894400000000001e-05 -9.7378749999999972 6.5732150000000011e-05 -6.0235649999999987 -7.5273399999999997 5.9256050000000007e-05 -11.81865 -11.642049999999999 4.6672250000000007e-05 -3.0339349999999996 -0.04849499999999999 4.9465650000000005 -11.96805 -6.3643949999999991
decision_type=2 2 2 2 2 2 2 2 2 2 2 2 2 2
left_child=-1 2 3 -2 5 6 -3 -4 9 -6 -11 -9 -12 -14
right_child=1 4 7 -5 8 -7 -8 11 -10 10 12 -13 13 -15
leaf_value=6.458064436914501e-06 0.0074878236686345178 0.00039445794071070835 -0.0017053436575224625 -0.00069681837816130032 -0.0047342773806303739 -0.00048181305692924072 -0.0069842343032360081 -0.0001140278481638951 -3.5037673578030148e-05 0.0014735880022271886 0.00092875124420970726 0.0025390684767626227 -0.004762898965273054 -0.00033443704504813789
leaf_weight=20827 16.000000000000004 10.000000000000002 24 10.999999999999998 9.9999999999999982 100 9.9999999999999982 71 1155 15.999999999999998 9.9999999999999947 9.9999999999999982 9.9999999999999947 19.000000000000011
leaf_count=20827 16 10 24 11 10 100 10 71 1155 16 10 10 10 19
internal_value=0 -9.13737e-05 0.000670505 0.00415334 -0.000166424 -0.000950659 -0.00329489 -0.000225081 -8.92866e-05 -0.00105325 -0.00038397 0.000213515 -0.00114605 -0.00186149
internal_weight=0 1472 132 27 1340 120 20 105 1220 65 55 81 39 29
internal_count=22299 1472 132 27 1340 120 20 105 1220 65 55 81 39 29
shrinkage=0.1


Tree=904
num_leaves=15
num_cat=0
split_feature=9 26 3 0 29 31 5 29 31 4 19 0 5 36
split_gain=0.00133118 0.011178 0.0229607 0.0412575 0.0113885 0.0297937 0.0341474 0.0450111 0.0622341 0.0539891 0.0497276 0.039455 0.0259742 0.0245641
threshold=3.6719800000000007e-05 0.046007150000000004 -6.9004699999999994 7.2773450000000013 -0.0026661599999999995 -0.046675499999999988 1.4841400000000002e-05 -0.0031722149999999995 -0.029535649999999997 0.04119865000000001 8.8558200000000015e-08 8.4447750000000017 1.5426550000000006e-05 0.00017520150000000003
decision_type=2 2 2 2 2 2 2 2 2 2 2 2 2 2
left_child=-1 4 3 -3 5 -2 7 8 9 13 -11 -9 -8 -7
right_child=1 2 -4 -5 -6 6 12 11 -10 10 -12 -13 -14 -15
leaf_value=-1.1607336678266411e-05 5.2405142725561706e-05 -0.00028595537243580269 -0.0011823773241121671 0.008588971639983357 0.0001801049536960111 0.0046037400670518921 0.0046034571714699268 -0.0040361370146274559 -0.0099391455296427011 -0.010226037132088093 -0.0018182282856501202 0.0039710078366624662 -0.00059238604143194075 -0.0019385080435313285
leaf_weight=18193 1379 11.000000000000002 14.999999999999998 9.9999999999999982 2335 11.000000000000002 9.9999999999999982 10.000000000000002 13.999999999999998 12.000000000000002 17 15.999999999999998 254 11.999999999999998
leaf_count=18193 1379 11 15 10 2335 11 10 10 14 12 17 16 254 12
internal_value=0 5.14302e-05 0.00180579 0.0039402 3.59125e-05 -0.000158145 -0.00097373 -0.00263279 -0.00402108 -0.00242776 -0.00529732 0.000891337 -0.000395574 0.00119039
internal_weight=0 4106 36 21 4070 1735 356 92 66 52 29 26 264 23
internal_count=22299 4106 36 21 4070 1735 356 92 66 52 29 26 264 23
shrinkage=0.1


Tree=905
num_leaves=15
num_cat=0
split_feature=33 13 13 34 25 11 7 0 0 34 31 3 3 36
split_gain=0.0014413 0.0128525 0.0310566 0.0700401 0.0334038 0.0470106 0.0506976 0.0408503 0.0690087 0.0325958 0.0278711 0.0655187 0.0347 0.027463
threshold=1.0863100000000001e-05 -7.8367499999999974e-06 -3.3363799999999994e-05 0.033734500000000008 0.7496210000000002 -1.9692799999999999e-05 2.8701700000000003e-05 -5.2033249999999986 -6.190974999999999 0.066104700000000016 -0.094540149999999989 -10.212499999999999 -11.753499999999999 -0.015244049999999997
decision_type=2 2 2 2 2 2 2 2 2 2 2 2 2 2
left_child=-1 2 13 -4 5 6 -5 8 -8 -6 11 -7 -12 -2
right_child=1 -3 3 4 9 10 7 -9 -10 -11 12 -13 -14 -15
leaf_value=1.3373509813593443e-05 -0.00099624665525695493 5.4604924918698496e-05 -0.0082870286481920626 -0.010322617180645467 0.0052533268928527839 -0.0074918788152798597 -0.0020300099888117987 0.0020978395561022417 -0.011420315764844417 -0.00024730615852841347 0.0048994132284341119 -0.00054121330597395583 -0.00039196578767907212 0.00064621422815967213
leaf_weight=17466 133 3456 11.999999999999998 9.9999999999999982 10.999999999999998 18 36 13.999999999999998 9.9999999999999982 522 13.999999999999998 55 108 434
leaf_count=17466 133 3456 12 10 11 18 36 14 10 522 14 55 108 434
internal_value=0 -4.83306e-05 -0.000306679 -0.000704016 -0.000589985 -0.00150755 -0.00373057 -0.0026319 -0.00407138 -0.000133785 -0.000709544 -0.00225508 0.000215242 0.000260946
internal_weight=0 4833 1377 810 798 265 70 60 46 533 195 73 122 567
internal_count=22299 4833 1377 810 798 265 70 60 46 533 195 73 122 567
shrinkage=0.1


Tree=906
num_leaves=15
num_cat=0
split_feature=27 19 21 3 14 35 38 36 33 13 13 23 36 3
split_gain=0.00146015 0.00964715 0.0214682 0.0212309 0.0185203 0.0623748 0.0783517 0.0914316 0.0702151 0.22618 0.0468105 0.151885 0.0589878 0.0272562
threshold=0.42484400000000005 1.1444150000000001e-07 -12.522549999999997 -6.6945549999999994 0.0007529835000000001 -0.00055251249999999986 -0.00080100199999999988 -0.00030718099999999996 -1.0960499999999998e-05 3.3186700000000005e-05 2.4703400000000005e-05 -9.8917349999999988 0.00086544950000000008 -12.020399999999999
decision_type=2 2 2 2 2 2 2 2 2 2 2 2 2 2
left_child=1 2 3 -1 13 6 -6 -8 9 -7 11 -10 -12 -4
right_child=-2 -3 4 -5 5 8 7 -9 10 -11 12 -13 -14 -15
leaf_value=0.00016844997726901266 -2.4109069629796546e-05 7.5900441592322999e-05 0.0039317357912659646 0.0055368955426204668 0.00519696885497648 -0.0049349636516787775 -0.010020763815983255 -0.00078434518032610928 0.010663365981438095 0.013692473527044058 0.00037715982572990471 -0.00039789199363440277 -0.00627421990968287 -0.0003484189040333507
leaf_weight=17.000000000000004 11813 8334 14.999999999999998 12.999999999999998 10.999999999999998 11.000000000000002 17 29 18 15.999999999999998 120 40 14.999999999999998 1830
leaf_count=17 11813 8334 15 13 11 11 17 29 18 16 120 40 15 1830
internal_value=0 2.71601e-05 -0.000161596 0.00249478 -0.00019915 0.000563298 -0.00238478 -0.0041978 0.00132712 0.00610352 0.000658916 0.00303491 -0.000361882 -0.000313621
internal_weight=0 10486 2152 30 2122 277 57 46 220 27 193 58 135 1845
internal_count=22299 10486 2152 30 2122 277 57 46 220 27 193 58 135 1845
shrinkage=0.1


Tree=907
num_leaves=15
num_cat=0
split_feature=1 21 1 21 14 25 21 19 21 21 7 12 23 32
split_gain=0.00135963 0.0157875 0.0446629 0.180874 0.161467 0.0878545 0.0524187 0.0529983 0.116552 0.0311966 0.0292466 0.0219084 0.0248914 0.0250186
threshold=7.2671150000000013 7.2199450000000009 8.503045000000002 8.0967850000000023 0.00065207900000000018 0.24148300000000003 8.3248700000000024 9.6951700000000012e-06 10.010650000000002 3.5232400000000004 3.434760000000001e-05 6.013050000000001e-05 -12.196199999999999 -0.052710499999999993
decision_type=2 2 2 2 2 2 2 2 2 2 2 2 2 2
left_child=-1 9 3 4 5 -3 -5 8 -8 -2 11 -11 -13 -14
right_child=1 2 -4 6 -6 -7 7 -9 -10 10 -12 12 13 -15
leaf_value=-1.1077653713711614e-05 0.00012193187454436284 0.018688858097249805 6.2824555970099216e-05 -0.0062461458388357784 -0.00020486854482442142 0.0074591228174731919 0.010696776703532253 -0.0012795012008639114 -0.00087587929067566353 -0.0010020245229536082 -0.00017185130934724784 -0.00087783433351432908 -0.008077299919289847 -0.0025475363512264776
leaf_weight=18563 2335 11.000000000000002 593 12.999999999999998 19 19 13.999999999999998 62 23 167 422 25 14.999999999999998 18
leaf_count=18563 2335 11 593 13 19 19 14 62 23 167 422 25 15 18
internal_value=0 5.50413e-05 0.000463851 0.00194093 0.00700833 0.0115767 -0.000276065 0.000507885 0.00350296 -4.83264e-05 -0.000662783 -0.00158355 -0.00325795 -0.00506107
internal_weight=0 3736 754 161 49 30 112 99 37 2982 647 225 58 33
internal_count=22299 3736 754 161 49 30 112 99 37 2982 647 225 58 33
shrinkage=0.1


Tree=908
num_leaves=15
num_cat=0
split_feature=5 20 0 3 28 32 8 21 15 10 25 14 14 0
split_gain=0.00137391 0.0122824 0.0861276 0.0205717 0.0114226 0.0346116 0.099445 0.148493 0.0298588 0.061467 0.0316933 0.0239669 0.0201913 0.0552016
threshold=1.0873100000000001e-05 13.431500000000002 8.365140000000002 -9.7137299999999982 0.0087844750000000017 -0.071257849999999984 -9.0138649999999978e-06 4.0112100000000011 3.1181850000000006e-07 2.6033950000000002e-05 0.35688600000000009 0.00024581550000000004 0.00012445200000000002 8.5645450000000007
decision_type=2 2 2 2 2 2 2 2 2 2 2 2 2 2
left_child=1 4 3 -3 5 6 7 -1 10 -10 -8 -12 -6 -14
right_child=-2 2 -4 -5 12 -7 8 -9 9 -11 11 -13 13 -15
leaf_value=-0.00093942540697753395 -1.2513876334891128e-05 0.0011460103700740329 0.0090398418135009713 -0.003235158788362134 0.00057095277084170102 4.7707077138866796e-05 0.00076808551116300814 0.014220080990344287 3.6294413508758656e-05 0.0095618949551135313 0.00020470433980032486 -0.0056323025704306719 -0.00032057222865058569 -0.0041857369035148088
leaf_weight=12.000000000000002 17780 28.999999999999996 11.999999999999998 17.000000000000004 218 3351 64 13.999999999999998 21.000000000000004 9.9999999999999982 12.000000000000002 17 703 39
leaf_count=12 17780 29 12 17 218 3351 64 14 21 10 12 17 703 39
internal_value=0 4.92358e-05 0.00149508 -0.000473117 3.04376e-05 0.00011423 0.00160036 0.00722339 0.000421338 0.00310907 -0.000474572 -0.00321699 -0.000275144 -0.000523728
internal_weight=0 4519 58 46 4461 3501 150 26 124 31 93 29 960 742
internal_count=22299 4519 58 46 4461 3501 150 26 124 31 93 29 960 742
shrinkage=0.1


Tree=909
num_leaves=15
num_cat=0
split_feature=1 23 2 22 22 3 5 3 23 28 24 14 30 22
split_gain=0.00133698 0.012161 0.0218984 0.0301378 0.0532098 0.0920457 0.0302056 0.0238499 0.0314399 0.0330023 0.023544 0.0218717 0.0173977 0.0168887
threshold=9.108175000000001 -6.9149849999999988 1.4958200000000001 0.93106700000000009 1.4560700000000002 -6.3282549999999995 1.2241900000000002e-05 -6.0725999999999987 -6.5395699999999986 0.0032563300000000004 -0.072489399999999996 9.0643750000000004e-05 0.00017346800000000003 1.7472750000000004
decision_type=2 2 2 2 2 2 2 2 2 2 2 2 2 2
left_child=-1 -2 3 6 5 -5 -3 8 9 -4 13 -7 -12 -10
right_child=1 2 7 4 -6 11 -8 -9 10 -11 12 -13 -14 -15
leaf_value=-8.1194823106438123e-06 0.00018197905475608324 -0.0046144280856584797 -0.0016176820522458811 0.010558419870212674 -0.0007925058177352184 -0.002687132687688889 -8.5190801764838402e-05 1.6448687493698901e-05 -0.00060201709673396843 -0.0076731899054721005 -0.0047277608215441245 0.0032715550415949634 -8.1942379308332298e-05 0.0044751357281347737
leaf_weight=20090 1822 17 18 14.999999999999998 40 11.000000000000002 110 82 19.000000000000004 18 19 13.999999999999998 13.999999999999998 9.9999999999999982
leaf_count=20090 1822 17 18 15 40 11 110 82 19 18 19 14 14 10
internal_value=0 7.38436e-05 -0.000435259 0.000266199 0.00178649 0.00436549 -0.000691467 -0.00124194 -0.00229487 -0.00464544 -0.000930026 0.000649732 -0.00275681 0.00114873
internal_weight=0 2209 387 207 80 40 127 180 98 36 62 25 33 29
internal_count=22299 2209 387 207 80 40 127 180 98 36 62 25 33 29
shrinkage=0.1


Tree=910
num_leaves=15
num_cat=0
split_feature=12 22 16 13 5 38 4 33 20 4 24 16 29 13
split_gain=0.00135767 0.00633783 0.0218664 0.047733 0.0560514 0.0822168 0.0755893 0.106727 0.144241 0.0399724 0.0217128 0.021567 0.0609703 0.0139263
threshold=4.2165300000000008e-05 2.4858650000000004 -4.1493199999999992e-07 5.8115950000000009e-06 1.6396850000000005e-05 -0.00041917899999999994 0.070100050000000011 2.5984300000000004e-06 -7.6352849999999988 0.20003250000000003 -0.081120499999999984 -2.6095649999999993e-07 0.0071452050000000008 -3.8629749999999992e-06
decision_type=2 2 2 2 2 2 2 2 2 2 2 2 2 2
left_child=1 -1 3 4 5 9 7 -7 -9 -3 -8 12 -4 -13
right_child=-2 2 11 -5 -6 6 10 8 -10 -11 -12 13 -14 -15
leaf_value=-3.0281918653490039e-06 -3.3072230237732435e-05 -0.0036217296283746906 -0.0090533655043691409 -8.8622820854423519e-06 -8.0030671106503599e-05 -5.1836233469657598e-05 -0.0012218583303575331 0.020856844362887469 0.0059813878215209107 0.0034607473202049733 0.004976116516627372 -0.00049172919875164263 -0.00027753751534251742 0.00034835568641828284
leaf_weight=12977 7974 17 9.9999999999999982 254 63 9.9999999999999982 13.000000000000002 10.999999999999998 16.000000000000004 14.999999999999998 9.9999999999999982 295 38 596
leaf_count=12977 7974 17 10 254 63 10 13 11 16 15 10 295 38 596
internal_value=0 1.84096e-05 0.000224788 0.000835049 0.00221797 0.00379161 0.00597477 0.00877322 0.0120418 -0.000301819 0.00147291 -4.10226e-05 -0.00210584 7.02131e-05
internal_weight=0 14325 1348 409 155 92 60 37 27 32 23 939 48 891
internal_count=22299 14325 1348 409 155 92 60 37 27 32 23 939 48 891
shrinkage=0.1


Tree=911
num_leaves=15
num_cat=0
split_feature=2 28 20 2 22 22 5 29 28 10 11 6 6 28
split_gain=0.00136768 0.0103381 0.00926086 0.00827316 0.0258079 0.336082 0.138036 0.0377273 0.0285692 0.0363728 0.0188781 0.0370261 0.00928185 0.00890227
threshold=0.50552200000000014 -0.073788849999999975 0.8733565000000002 0.32325100000000001 0.54899100000000012 0.32001350000000006 1.1856450000000002e-05 -0.0016854349999999997 -0.0019470349999999997 3.1707200000000007e-05 4.483350000000001e-05 -2.6481199999999994e-06 1.4918550000000001e-06 -0.012304599999999997
decision_type=2 2 2 2 2 2 2 2 2 2 2 2 2 2
left_child=3 2 -2 13 5 8 -7 10 -5 -10 11 -6 -11 -1
right_child=1 -3 -4 4 7 6 -8 -9 9 12 -12 -13 -14 -15
leaf_value=-0.00015840094916306333 7.4798198345135209e-05 -5.8129349644113248e-05 0.00088049359203289123 0.0004086144780699125 -0.0017480875401815867 0.015908135130609336 0.0036877537927163455 0.00050037006565079836 -0.0071344276043501772 -0.0014630596572304984 -0.00051504614052996312 -0.0080814583925530314 0.0017397534758360547 4.6857700702412545e-05
leaf_weight=2697 396 8563 223 255 40 19 18 193 10.999999999999998 51 52 11.999999999999998 10.999999999999998 9758
leaf_count=2697 396 8563 223 255 40 19 18 193 11 51 52 12 11 9758
internal_value=0 -2.96005e-05 0.000365057 2.07206e-05 0.000365198 0.00092842 0.00996308 -0.000326976 -9.0734e-05 -0.00183503 -0.00186234 -0.00320963 -0.000894819 2.41109e-06
internal_weight=0 9182 619 13117 662 365 37 297 328 73 104 52 62 12455
internal_count=22299 9182 619 13117 662 365 37 297 328 73 104 52 62 12455
shrinkage=0.1


Tree=912
num_leaves=15
num_cat=0
split_feature=37 13 4 3 0 6 30 24 4 7 21 30 33 33
split_gain=0.00132029 0.00949421 0.0195419 0.0345313 0.039232 0.0364732 0.0504503 0.0412536 0.0415709 0.0262569 0.0403427 0.0250587 0.0284733 0.0246965
threshold=4.9602750000000011e-08 2.1532450000000004e-05 0.053110600000000008 -8.5183349999999987 8.2264200000000027 8.4659900000000015e-07 0.00087741450000000003 -0.12855999999999998 0.24788700000000002 2.7868950000000004e-05 5.9592100000000015 0.00010678150000000001 -1.0960499999999998e-05 -9.4311049999999972e-06
decision_type=2 2 2 2 2 2 2 2 2 2 2 2 2 2
left_child=-1 2 -2 4 5 9 7 8 -7 10 -4 -5 -13 -11
right_child=1 -3 3 11 -6 6 -8 -9 -10 13 -12 12 -14 -15
leaf_value=1.6978951641708275e-05 5.1924594850725778e-05 9.8145527171783511e-05 0.0030074590374715628 -0.0030479351895067982 -0.0068692427467216145 -0.0071429593849225556 -0.00049279348960220323 -0.0017353187143606575 -0.0005692964849563746 -0.0016991525111487136 -0.0026316475698395687 -0.00064162875741997395 0.00042673254071893445 9.6125658992513301e-05
leaf_weight=14997 2428 3093 50 27 10.999999999999998 37 151 76 12.999999999999998 125 17 393 683 198
leaf_count=14997 2428 3093 50 27 11 37 151 76 13 125 17 393 683 198
internal_value=0 -3.48717e-05 -0.00013262 -0.000384206 -0.000945832 -0.000848145 -0.00172558 -0.00320297 -0.00543381 -0.000224939 0.00157664 -3.8981e-05 3.65225e-05 -0.000598641
internal_weight=0 7302 4209 1781 678 667 277 126 50 390 67 1103 1076 323
internal_count=22299 7302 4209 1781 678 667 277 126 50 390 67 1103 1076 323
shrinkage=0.1


Tree=913
num_leaves=15
num_cat=0
split_feature=13 33 33 34 7 37 6 22 2 9 10 26 30 22
split_gain=0.00172296 0.0221105 0.0371884 0.0421296 0.0482776 0.0376769 0.0313264 0.0272846 0.126888 0.0477744 0.0353504 0.0428062 0.0244058 0.0236631
threshold=-1.6986749999999998e-05 -1.2724099999999997e-07 5.0840600000000008e-06 0.013087650000000001 5.0657850000000012e-05 3.5599700000000005e-08 2.2187500000000001e-06 -1.2431299999999996 -1.2851699999999997 -1.5921849999999997e-05 2.6578700000000004e-05 -0.00011936399999999999 0.00062062700000000011 -0.72822499999999979
decision_type=2 2 2 2 2 2 2 2 2 2 2 2 2 2
left_child=1 -1 3 -3 5 6 12 8 -4 -10 11 -11 -5 -9
right_child=-2 2 7 4 -6 -7 -8 13 9 10 -12 -13 -14 -15
leaf_value=0.00028966883406768079 -1.3083083056209805e-05 -0.00017066671064403386 0.0098353692260570828 0.0010747057909611614 -0.00054513483550514322 -0.0091626007761806249 -0.0042179743985246605 0.0012348273065700217 7.5026115195618733e-05 -0.00084737112279981348 -0.0018473508511669936 -0.0088604406127706179 -0.0037286967881407368 8.5781276888363052e-05
leaf_weight=2050 18255 438 9.9999999999999982 28 142 9.9999999999999982 61 223 72 10.000000000000002 50 20 17 913
leaf_count=2050 18255 438 10 28 142 10 61 223 72 10 50 20 17 913
internal_value=0 5.90583e-05 -0.000178029 -0.000767787 -0.0017815 -0.00329499 -0.00274144 0.000138205 -0.00107589 -0.00179374 -0.00347563 -0.00618942 -0.000739913 0.000311342
internal_weight=0 4044 1994 696 258 116 106 1298 162 152 80 30 45 1136
internal_count=22299 4044 1994 696 258 116 106 1298 162 152 80 30 45 1136
shrinkage=0.1


Tree=914
num_leaves=15
num_cat=0
split_feature=33 5 33 6 24 28 11 24 5 16 34 23 7 33
split_gain=0.0015835 0.0112862 0.0206351 0.015209 0.0144381 0.0487349 0.0133641 0.0205931 0.00942189 0.00930757 0.0104925 0.00941219 0.00855817 0.0419866
threshold=1.8947750000000002e-05 8.6974300000000012e-06 2.0320650000000003e-05 -1.8581399999999997e-06 -0.50768199999999986 0.069295600000000013 2.0363950000000003e-05 -0.22396199999999997 8.3774500000000006e-06 -5.4122749999999991e-09 0.21014650000000004 -15.5177 3.0012350000000004e-05 1.9192950000000004e-05
decision_type=2 2 2 2 2 2 2 2 2 2 2 2 2 2
left_child=-1 2 -2 -4 8 6 9 -8 -5 10 -6 -12 13 -3
right_child=1 12 3 4 5 -7 7 -9 -10 -11 11 -13 -14 -15
leaf_value=1.1812384960288337e-05 -0.0051890981430187822 0.0064842001619664115 0.0013977670670582859 -0.00037654717503003135 0.0014109450644658259 -0.0082929184660315517 -0.0027567230194108553 0.002903107527850403 0.0025138487947905172 -0.0029574537518783474 -0.0039071560761082475 0.0002468386827968059 -7.8717569533836879e-05 0.00023354699565315032
leaf_weight=18637 9.9999999999999982 10.999999999999998 34 58 14.999999999999998 9.9999999999999982 10.000000000000002 18 13.999999999999998 32 11.999999999999995 10.000000000000005 2962 466
leaf_count=18637 10 11 34 58 15 10 10 18 14 32 12 10 2962 466
internal_value=0 -6.01167e-05 -0.000749529 -0.000541099 -0.000909375 -0.0016461 -0.000960857 0.000881739 0.000185474 -0.00170858 -0.000628468 -0.00201898 -1.54121e-05 0.000377692
internal_weight=0 3662 223 213 179 107 97 28 72 69 37 22 3439 477
internal_count=22299 3662 223 213 179 107 97 28 72 69 37 22 3439 477
shrinkage=0.1


Tree=915
num_leaves=15
num_cat=0
split_feature=13 22 7 2 10 1 1 7 8 21 4 21 30 22
split_gain=0.00146528 0.0146047 0.0407339 0.0478994 0.0472082 0.0151027 0.0195229 0.0168136 0.0159912 0.0520859 0.0276502 0.0194362 0.0251977 0.0139364
threshold=-1.6986749999999998e-05 2.6208450000000005 3.365850000000001e-05 -0.65601149999999986 2.2606200000000004e-05 4.4127500000000008 6.9581500000000007 5.2996200000000006e-05 -8.310299999999999e-06 2.9258550000000003 -0.045405999999999995 3.6917250000000004 0.00014655500000000001 2.1171700000000002
decision_type=2 2 2 2 2 2 2 2 2 2 2 2 2 2
left_child=1 13 3 -3 -5 8 7 -7 9 10 -4 -10 -13 -1
right_child=-2 2 5 4 -6 6 -8 -9 11 -11 -12 12 -14 -15
leaf_value=4.5629885662081739e-05 -1.206512970180502e-05 0.0008242995737964521 0.0035123590835913392 -0.0028240911584968371 -0.010735261419110678 -0.0061357424763793297 0.00039011157791105078 -0.0014718514907424553 0.00050660114287787562 0.0084822680894285438 -0.0030292029359510965 0.00064946227357722799 -0.0064495148080459339 0.00071084251791422978
leaf_weight=3409 18255 20 12 24 10.999999999999998 10.999999999999998 37 26 103 9.9999999999999982 14 10.000000000000002 9.9999999999999982 347
leaf_count=3409 18255 20 12 24 11 11 37 26 103 10 14 10 10 347
internal_value=0 5.44631e-05 -0.000631825 -0.00307964 -0.00531046 -5.40156e-05 -0.00123415 -0.00285841 0.00049523 0.00234895 -1.00205e-05 -4.7322e-05 -0.00290003 0.000107086
internal_weight=0 4044 288 55 35 233 74 37 159 36 26 123 20 3756
internal_count=22299 4044 288 55 35 233 74 37 159 36 26 123 20 3756
shrinkage=0.1


Tree=916
num_leaves=15
num_cat=0
split_feature=6 26 20 0 15 10 30 30 13 10 33 10 13 1
split_gain=0.00154558 0.0112428 0.0104101 0.0215157 0.0173444 0.0121384 0.00794707 0.0190071 0.0135666 0.0432972 0.0301429 0.0336535 0.0424583 0.0634094
threshold=4.2190250000000007e-06 0.096042700000000022 12.574100000000003 4.5268550000000003 3.938350000000001e-08 6.8379000000000017e-05 0.00022674450000000003 0.00022355950000000003 -3.5672199999999994e-05 4.5239100000000005e-05 5.0276050000000003e-06 5.608055000000001e-05 -1.4995699999999998e-05 6.1518400000000009
decision_type=2 2 2 2 2 2 2 2 2 2 2 2 2 2
left_child=-1 2 6 -4 -5 -6 7 8 9 -2 -10 12 13 -12
right_child=1 -3 3 4 5 -7 -8 -9 10 -11 11 -13 -14 -15
leaf_value=1.1211182482376322e-05 0.0055041869825799951 0.0032862996077165012 0.00028448434293915689 -0.0063209945907477631 -0.0033551199765255047 0.0011427292751614005 6.2406843045386727e-05 -0.0046069536406139382 -0.00018828423312980598 8.1907460485495371e-05 -0.0099365888435083115 0.00018136950704501943 -0.00097512024430519272 -4.9836933612823493e-06
leaf_weight=18876 15.999999999999998 9.9999999999999982 44 10.999999999999998 15.000000000000002 9.9999999999999982 2252 9.9999999999999982 772 185 18.000000000000004 40 30 9.9999999999999982
leaf_count=18876 16 10 44 11 15 10 2252 10 772 185 18 40 30 10
internal_value=0 -6.18236e-05 -7.16335e-05 -0.00119891 -0.00301196 -0.00155598 -4.45761e-05 -0.000267449 -0.000226931 0.000513532 -0.000398003 -0.00205007 -0.003589 -0.00638959
internal_weight=0 3423 3413 80 36 25 3333 1081 1071 201 870 98 58 28
internal_count=22299 3423 3413 80 36 25 3333 1081 1071 201 870 98 58 28
shrinkage=0.1


Tree=917
num_leaves=15
num_cat=0
split_feature=5 21 7 33 1 21 1 26 12 12 5 10 19 37
split_gain=0.00144931 0.00479931 0.0199543 0.0073064 0.00688577 0.00687821 0.0323481 0.00613254 0.00539828 0.0104302 0.0103987 0.00819147 0.0106919 0.00512128
threshold=2.5815900000000001e-05 -9.4492299999999982 4.2015850000000009e-05 -6.9049749999999999e-06 -11.81865 -10.345549999999998 -5.8972699999999998 0.084359600000000021 -7.6041099999999993e-05 -5.7757149999999993e-05 2.9058150000000006e-05 4.0174000000000005e-05 0.00030883100000000003 -3.8551349999999991e-08
decision_type=2 2 2 2 2 2 2 2 2 2 2 2 2 2
left_child=-1 2 -2 -4 -5 8 -7 -3 10 -10 -6 -12 -13 -11
right_child=1 7 3 4 5 6 -8 -9 9 13 11 12 -14 -15
leaf_value=1.2996980610151499e-05 0.0046881355205550795 -7.4094271481644212e-05 -0.0016500083530055628 -0.0010706710327316874 -0.0033977571911898187 0.0050811978618559598 0.00024387495083116135 -0.0019238712382502856 0.0035841677308781072 -0.00056253283624895498 0.0022878743218219216 -0.0026063946021976235 0.00032837893770192749 0.00063835010649719538
leaf_weight=17699 9.9999999999999982 4170 21 35 10.999999999999998 17 74 18 9.9999999999999982 52 11.999999999999998 18 40 112
leaf_count=17699 10 4170 21 35 11 17 74 18 10 52 12 18 40 112
internal_value=0 -5.00073e-05 0.000275653 0.00016589 0.000265979 0.000401189 0.00114755 -8.20446e-05 0.000134841 0.000448765 -0.000539516 -9.03636e-05 -0.000582413 0.000257582
internal_weight=0 4600 412 402 381 346 91 4188 255 174 81 70 58 164
internal_count=22299 4600 412 402 381 346 91 4188 255 174 81 70 58 164
shrinkage=0.1


Tree=918
num_leaves=15
num_cat=0
split_feature=33 3 34 6 3 14 13 37 6 26 13 8 21 12
split_gain=0.0013829 0.0108391 0.0224726 0.0615146 0.0820085 0.112622 0.0670527 0.0761524 0.0936688 0.0398327 0.0291318 0.0201958 0.0348586 0.11314
threshold=1.8947750000000002e-05 -9.8324999999999978 0.13257400000000003 1.6704000000000003e-06 -11.892099999999997 0.0020371300000000003 -2.1012449999999996e-06 3.4780550000000008e-07 -1.7193949999999998e-07 5.5371100000000009e-05 5.7080250000000006e-05 -8.6802549999999974e-06 5.7466550000000005 0.00027929250000000006
decision_type=2 2 2 2 2 2 2 2 2 2 2 2 2 2
left_child=-1 2 3 6 5 -5 7 -2 -9 -7 -6 12 -4 -14
right_child=1 -3 11 4 10 9 -8 8 -10 -11 -12 -13 13 -15
leaf_value=1.1038850843543051e-05 -0.00099088071535030999 7.8855956015374032e-05 9.44754045772785e-07 0.012872317568822343 -0.0065844182390719644 0.0058763079810887561 -0.001050514926252046 -0.0032362934350120744 -0.016286463900045914 -0.0020775366235551806 0.00024826911372096783 -0.00033878455614501645 0.0067027200088726688 -0.0013411628778461212
leaf_weight=18637 18 2266 218 10.999999999999998 12.000000000000002 10.000000000000002 113 11.000000000000002 10.999999999999998 17 12.999999999999998 892 34 36
leaf_count=18637 18 2266 218 11 12 10 113 11 11 17 13 892 34 36
internal_value=0 -5.618e-05 -0.000275372 -0.00121315 0.00141674 0.00434317 -0.00229604 -0.00581465 -0.00976138 0.000868332 -0.00303142 -0.000103711 0.000624363 0.00256587
internal_weight=0 3662 1396 216 63 38 153 40 22 27 25 1180 288 70
internal_count=22299 3662 1396 216 63 38 153 40 22 27 25 1180 288 70
shrinkage=0.1


Tree=919
num_leaves=15
num_cat=0
split_feature=19 19 20 20 32 26 33 25 13 33 34 34 13 12
split_gain=0.00144761 0.0109272 0.0292678 0.0534779 0.0230304 0.0125618 0.0107245 0.013942 0.0259129 0.0543211 0.0781603 0.0676425 0.0858978 0.124253
threshold=2.1853450000000002e-06 2.5573700000000003e-06 -1.0664099999999996 2.7944300000000006 -0.14109899999999997 -6.7090649999999988e-05 8.7255100000000015e-07 3.9052450000000003 2.1216950000000004e-05 -6.3131549999999994e-06 0.0080391900000000016 0.075295400000000026 3.755075000000001e-05 -9.6573999999999987e-05
decision_type=2 2 2 2 2 2 2 2 2 2 2 2 2 2
left_child=6 2 4 -4 -2 -6 7 8 -1 11 -11 12 13 -10
right_child=1 -3 3 -5 5 -7 -8 -9 9 10 -12 -13 -14 -15
leaf_value=-1.5175743273408895e-05 -0.0050198750104755163 1.0010221327040765e-05 0.0092831443808972843 0.0011071196823104401 -0.0016790660517290235 0.0022392636553073926 0.00010641097091918478 0.0003553128919916633 0.013216291787102818 5.6292976666487819e-05 -0.0023736989453491042 -0.00098545258898606407 -0.0012126167344372468 0.0017705334108936571
leaf_weight=2078 9.9999999999999982 15657 9.9999999999999982 40 14.999999999999998 18 2847 473 9.9999999999999982 231 310 313 103 184
leaf_count=2078 10 15657 10 40 15 18 2847 473 10 231 310 313 103 184
internal_value=0 1.64297e-05 0.00109719 0.00274232 -0.000815767 0.000458205 -3.95126e-05 -0.000151734 -0.000226009 -0.000606645 -0.00133612 4.03195e-05 0.00112135 0.00236052
internal_weight=0 15750 93 50 43 33 6549 3702 3229 1151 541 610 297 194
internal_count=22299 15750 93 50 43 33 6549 3702 3229 1151 541 610 297 194
shrinkage=0.1


Tree=920
num_leaves=15
num_cat=0
split_feature=2 22 22 8 17 2 3 33 17 23 23 21 0 22
split_gain=0.00137794 0.0115157 0.0333698 0.0394853 0.0359023 0.052261 0.0402927 0.094274 0.0613766 0.0395953 0.0373257 0.0849344 0.0313624 0.0295838
threshold=-2.4807499999999996 -2.4478399999999998 -2.8657299999999997 5.2172700000000004e-06 8.2810650000000014e-07 -2.8593649999999999 -6.8076899999999991 -2.6599849999999993e-06 -2.8122099999999995e-07 -6.690904999999999 -9.4058299999999981 -2.5905499999999995 -9.5826849999999997 -1.6134299999999999
decision_type=2 2 2 2 2 2 2 2 2 2 2 2 2 2
left_child=1 2 3 -1 5 -4 7 8 -7 -8 11 -10 -5 -3
right_child=-2 13 4 12 -6 6 9 -9 10 -11 -12 -13 -14 -15
leaf_value=0.0015398357299272903 -8.4586546590683064e-06 -0.00086443765364292095 -0.00061286838312298638 0.00023781819368845654 -0.00086043075990507054 0.001952753247719051 -0.0013855870762490667 -0.0030784017988480629 0.00031942943619056184 0.0060597764700651173 0.01291440427303314 0.013053142055869103 -0.0041728654036169727 0.00015912689612319059
leaf_weight=45 19985 340 45 28 51 18 25 11.999999999999998 10.999999999999998 9.9999999999999982 15.000000000000002 9.9999999999999982 38 1666
leaf_count=45 19985 340 45 28 51 18 25 12 11 10 15 10 38 1666
internal_value=0 7.30537e-05 0.000642369 -0.000744301 0.00142369 0.00222157 0.00348444 0.00493894 0.00672057 0.00074166 0.00910448 0.0063831 -0.00230167 -1.43586e-05
internal_weight=0 2314 308 111 197 146 101 66 54 35 36 21 66 2006
internal_count=22299 2314 308 111 197 146 101 66 54 35 36 21 66 2006
shrinkage=0.1


Tree=921
num_leaves=15
num_cat=0
split_feature=19 35 35 11 12 11 21 21 12 4 4 24 1 0
split_gain=0.0013715 0.0100807 0.0230132 0.0344698 0.0331871 0.0752319 0.0678583 0.0429852 0.0483754 0.039683 0.0300489 0.0658699 0.0274581 0.024258
threshold=2.1853450000000002e-06 0.00045671650000000003 0.00084191000000000008 0.00010198250000000002 6.9269800000000019e-05 3.0248850000000001e-05 4.8010350000000006 -7.0364199999999988 -4.0428499999999987e-05 0.086113250000000016 0.14464150000000003 0.12411050000000001 -5.2585749999999996 7.3478050000000001
decision_type=2 2 2 2 2 2 2 2 2 2 2 2 2 2
left_child=1 -1 4 13 5 7 -6 8 -3 -8 -9 12 -12 -4
right_child=-2 2 3 -5 6 -7 9 10 -10 -11 11 -13 -14 -15
leaf_value=5.4232133158562219e-05 1.5991959593590027e-05 -0.0088175875812091624 -0.00028083077235280214 0.005277178793524703 -0.00066576798973330426 -0.0067997493700305417 -0.012284553474746641 -0.00019674002591800162 -0.0010986144049844194 -0.0033757956326007847 0.0027965192917488624 0.0078197454102337371 -0.002807614869465503 0.00058472004076132341
leaf_weight=4203 15750 10.999999999999998 1540 11.999999999999998 39 18 10.000000000000002 214 31 9.9999999999999982 17.999999999999996 15.999999999999998 17.000000000000004 410
leaf_count=4203 15750 11 1540 12 39 18 10 214 31 10 18 16 17 410
internal_value=0 -3.84598e-05 -0.000204523 -6.59623e-05 -0.000912482 -0.000516383 -0.00309438 -0.000147977 -0.00312025 -0.00783017 0.0003231 0.00250439 7.45113e-05 -9.88432e-05
internal_weight=0 6549 2346 1962 384 325 59 307 42 20 265 51 35 1950
internal_count=22299 6549 2346 1962 384 325 59 307 42 20 265 51 35 1950
shrinkage=0.1


Tree=922
num_leaves=15
num_cat=0
split_feature=33 13 13 34 3 20 34 4 10 16 10 5 30 10
split_gain=0.00142198 0.00928758 0.0240925 0.0493133 0.0481704 0.0392274 0.0340922 0.105493 0.231332 0.185261 0.0913899 0.0423407 0.0322535 0.0319642
threshold=1.0863100000000001e-05 -7.8367499999999974e-06 -2.5692899999999996e-05 0.14024950000000003 -7.8588649999999989 2.4974000000000003 0.058723300000000006 -0.25668149999999995 3.0646450000000002e-05 -9.1735999999999995e-07 4.2713650000000007e-05 2.7955100000000003e-05 0.00033939550000000005 3.132365000000001e-05
decision_type=2 2 2 2 2 2 2 2 2 2 2 2 2 2
left_child=-1 2 6 4 5 -4 7 -2 9 -9 -10 -12 -8 -7
right_child=1 -3 3 -5 -6 13 12 8 10 -11 11 -13 -14 -15
leaf_value=1.328362306283654e-05 -0.0043424094059063417 3.9497293274224524e-05 -0.0069705718103380476 -0.00017643372416396475 -0.00066670441808695401 -0.0037763777929572633 -0.0045365864934865385 0.0022694070031866426 -0.0088181752339005475 0.020698886292908961 0.0075353072583675355 -0.00075948847079416743 1.1068956303798724e-05 0.001968136476352811
leaf_weight=17466 19 3456 28 487 101 38 15.999999999999998 10.000000000000002 9.9999999999999982 11.999999999999998 10.000000000000002 15.999999999999998 617 12.999999999999998
leaf_count=17466 19 3456 28 487 101 38 16 10 10 12 10 16 617 13
internal_value=0 -4.80057e-05 -0.000267621 -0.00069918 -0.0021135 -0.0039632 0.000137801 0.0021246 0.00424311 0.0123219 -0.000693903 0.00243082 -0.00010388 -0.00231209
internal_weight=0 4833 1377 667 180 79 710 77 58 22 36 26 633 51
internal_count=22299 4833 1377 667 180 79 710 77 58 22 36 26 633 51
shrinkage=0.1


Tree=923
num_leaves=15
num_cat=0
split_feature=27 5 5 5 19 9 14 13 13 6 12 12 17 24
split_gain=0.00143207 0.0147019 0.014966 0.0226598 0.0204873 0.0186376 0.0375064 0.0157512 0.0238678 0.0345695 0.0049712 0.0101769 0.0153709 0.0141636
threshold=0.13511800000000004 7.7376450000000017e-06 9.627520000000002e-06 9.9873700000000016e-06 9.3206050000000014e-10 2.6609600000000004e-05 0.00044905900000000008 -6.0817849999999996e-05 -3.5672199999999994e-05 1.6704000000000003e-06 -9.6573999999999987e-05 -5.2156149999999997e-05 7.049805000000001e-08 -0.081120499999999984
decision_type=2 2 2 2 2 2 2 2 2 2 2 2 2 2
left_child=1 -1 5 -4 -5 6 -3 -6 9 -9 -10 12 -12 -14
right_child=-2 2 3 4 7 -7 -8 8 10 -11 11 -13 13 -15
leaf_value=-0.0037833877521651713 3.8104411691269035e-06 0.0068871353993577387 -0.0042519852045058669 -0.0037875483433405556 -0.0030950340500567109 -0.0019594350516294631 0.00057188837039147454 -0.00087083414400694864 -0.00072249188758308138 0.0072529816492037345 -0.00084163555409759276 -0.00011937521624487582 0.00089709723251871773 0.0058648979375985517
leaf_weight=10.999999999999998 21806 12.999999999999998 13.999999999999998 14.999999999999998 15.999999999999998 12.999999999999998 34 10.000000000000002 91 10.999999999999998 14.999999999999998 227 11.999999999999998 11.000000000000002
leaf_count=11 21806 13 14 15 16 13 34 10 91 11 15 227 12 11
internal_value=0 -0.000168541 -8.6044e-05 -0.000296155 -0.000160416 0.00139174 0.00231866 -2.19759e-05 0.000108446 0.0033845 -8.48046e-05 0.000134175 0.0016488 0.003273
internal_weight=0 493 482 422 408 60 47 393 377 21 356 265 38 23
internal_count=22299 493 482 422 408 60 47 393 377 21 356 265 38 23
shrinkage=0.1


Tree=924
num_leaves=15
num_cat=0
split_feature=29 11 3 4 15 15 4 0 19 3 0 6 33 19
split_gain=0.00141676 0.00877243 0.0132397 0.0107418 0.0101824 0.0465383 0.0175111 0.0205918 0.00982941 0.0158331 0.00780823 0.00994951 0.00792756 0.00702199
threshold=-0.49118799999999996 -0.00011564799999999999 -7.1682849999999991 -0.24203399999999997 -5.7326449999999989e-06 -2.7161249999999997e-05 -0.32811699999999994 0.92020250000000015 0.022432550000000006 -13.799749999999998 7.8525350000000005 -1.0150849999999998e-06 0.00094370300000000005 4.442305000000001e-06
decision_type=2 2 2 2 2 2 2 2 2 2 2 2 2 2
left_child=1 8 4 -4 5 -3 7 -6 9 -1 11 12 -8 -5
right_child=-2 2 3 13 6 -7 10 -9 -10 -11 -12 -13 -14 -15
leaf_value=-0.0058162508392706497 3.3232854468707896e-06 -0.00056528849480673676 -0.0030163865254603721 -0.0012682313056703769 0.00011971277251307451 0.0068112947722861117 0.0024750069715082645 -0.005821688403375447 0.00033951353673872199 -0.00094289733911864467 0.0025728809825309061 -0.00038652188240918388 -0.00011293010145891458 0.00037547262772074286
leaf_weight=10.000000000000002 21918 25 19 51 14.000000000000002 12.999999999999998 29 9.9999999999999982 19 20 17 81 20 53
leaf_count=10 21918 25 19 51 14 13 29 10 19 20 17 81 20 53
internal_value=0 -0.00019118 -6.83757e-06 -0.000830009 0.000477613 0.00195828 0.000148575 -0.00235587 -0.0014402 -0.00256735 0.000557465 0.00029391 0.00141871 -0.000430574
internal_weight=0 381 332 123 209 38 171 24 49 30 147 130 49 104
internal_count=22299 381 332 123 209 38 171 24 49 30 147 130 49 104
shrinkage=0.1


Tree=925
num_leaves=15
num_cat=0
split_feature=21 1 8 8 19 20 22 2 13 33 3 39 11 18
split_gain=0.00135339 0.014174 0.0395078 0.0226408 0.0345804 0.0901082 0.0348842 0.0653217 0.0225738 0.157719 0.15712 0.103241 0.185383 0.0621164
threshold=4.8010350000000006 4.7957150000000004 -6.1969599999999999e-06 -7.9288349999999984e-06 7.5917050000000013e-08 1.1294450000000003 2.1780800000000005 2.4010850000000006 -1.0213099999999999e-05 3.2882800000000002e-06 -6.7352399999999992 6.6831000000000013e-06 -2.7380199999999996e-05 -1.2540699999999998e-05
decision_type=2 2 2 2 2 2 2 2 2 2 2 2 2 2
left_child=-1 2 3 -2 5 -5 -6 -8 9 -3 11 12 -11 -13
right_child=1 8 -4 4 6 -7 7 -9 -10 10 -12 13 -14 -15
leaf_value=1.5341487492946616e-05 -0.00051472586495745218 -0.00052069809726909327 -6.753010549071125e-06 0.00096105674980208246 -0.00067721297529069787 -0.012463413700461388 0.00023311811329966236 -0.010934025757596829 -1.2331614016351719e-05 0.00097945919683711065 -0.0012385816749546966 0.0081871015586606841 0.018070926417907082 0.0021752875014071299
leaf_weight=16068 540 329 3465 10.000000000000002 124 9.9999999999999982 11.000000000000002 9.9999999999999982 1561 11.000000000000002 54 23 14.999999999999998 68
leaf_count=16068 540 329 3465 10 124 10 11 10 1561 11 54 23 15 68
internal_value=0 -3.95614e-05 -0.000145594 -0.00082798 -0.00185318 -0.00575118 -0.00131552 -0.00508457 0.000174972 0.000759735 0.00322326 0.00528257 0.0108399 0.00369476
internal_weight=0 6231 4170 705 165 20 145 21 2061 500 171 117 26 91
internal_count=22299 6231 4170 705 165 20 145 21 2061 500 171 117 26 91
shrinkage=0.1


Tree=926
num_leaves=15
num_cat=0
split_feature=7 21 21 15 14 26 16 2 16 24 35 25 1 36
split_gain=0.00136013 0.0137511 0.0770709 0.024625 0.0543144 0.0247595 0.0445877 0.0780476 0.0243235 0.0285565 0.0224054 0.0295632 0.0427404 0.0163869
threshold=2.5051500000000006e-05 -7.2915849999999987 -6.8668499999999986 2.0594650000000002e-07 0.0017815250000000002 6.1200750000000009e-05 1.0000000180025095e-35 -0.87969149999999996 -1.2913399999999997e-07 0.11728650000000002 -0.00043080349999999996 0.16894050000000002 -6.9002049999999988 -0.0025755649999999997
decision_type=2 2 2 2 2 2 2 2 2 2 2 2 2 2
left_child=1 3 -3 5 -5 8 -7 -8 9 -1 -10 -12 -13 -4
right_child=-2 2 13 4 -6 6 7 -9 10 -11 11 12 -14 -15
leaf_value=-0.0011905744468094781 6.3873126071995393e-06 0.0063590292855607057 0.00072537077657152836 -0.0077894593092302485 0.0002601480123734004 -0.0017693753858717782 0.011226727701723572 0.00040677597513422376 0.00062390297168382896 0.0046980417711893104 0.0016121196250493926 -0.0075892589202052668 -0.001913988262690096 -0.00024245886049334794
leaf_weight=20 20901 19 215 14.999999999999998 19 24 10.000000000000002 20 27 13.999999999999998 12.999999999999998 19 44 939
leaf_count=20 20901 19 215 15 19 24 10 20 27 14 13 19 44 939
internal_value=0 -9.54945e-05 4.18648e-05 -0.000811594 -0.00329115 -0.000370207 0.00144329 0.00401343 -0.00108502 0.00123415 -0.00185057 -0.00272966 -0.00362558 -6.2144e-05
internal_weight=0 1398 1173 225 34 191 54 30 137 34 103 76 63 1154
internal_count=22299 1398 1173 225 34 191 54 30 137 34 103 76 63 1154
shrinkage=0.1


Tree=927
num_leaves=15
num_cat=0
split_feature=33 3 2 31 11 14 20 15 20 14 6 15 33 14
split_gain=0.0013689 0.00724831 0.0216976 0.0272011 0.0270408 0.0152868 0.0153043 0.0387755 0.0544186 0.0426439 0.0555722 0.0339505 0.0324922 0.0719379
threshold=1.0863100000000001e-05 -12.395199999999997 2.9119300000000004 -0.21711399999999997 -0.00010519749999999998 0.00078556150000000011 1.9540550000000001 1.9244950000000005e-06 4.360475000000001 0.0021213250000000007 1.6250950000000002e-06 6.8396650000000006e-07 2.5436850000000004e-05 0.004937775000000001
decision_type=2 2 2 2 2 2 2 2 2 2 2 2 2 2
left_child=-1 2 5 -4 -5 -2 -7 8 11 10 -9 -8 -11 -14
right_child=1 -3 3 4 -6 6 7 9 -10 12 -12 -13 13 -15
leaf_value=1.3033294457461542e-05 0.0035206164953044874 2.0393358037162926e-05 0.00082449578330852098 -0.0014833465334959329 -0.0083475004712289004 0.00010943691089651323 -0.0024713334136842089 -0.00040145592764019952 -0.00022479530575482626 -0.0017922893490841881 0.010141052864491941 -0.008552602864801884 0.0058695292493212044 -0.00046341760673488058
leaf_weight=17466 10.999999999999998 3707 13.999999999999998 11.999999999999998 11.000000000000002 601 112 10.000000000000002 177 63 9.9999999999999982 9.9999999999999982 24 71
leaf_count=17466 11 3707 14 12 11 601 112 10 177 63 10 10 24 71
internal_value=0 -4.71011e-05 -0.000269305 -0.0026508 -0.0047662 -0.000188391 -0.000226238 -0.000649175 -0.00134483 0.00051937 0.0048698 -0.0029698 -3.13176e-05 0.00113648
internal_weight=0 4833 1126 37 23 1089 1078 477 299 178 20 122 158 95
internal_count=22299 4833 1126 37 23 1089 1078 477 299 178 20 122 158 95
shrinkage=0.1


Tree=928
num_leaves=15
num_cat=0
split_feature=4 26 4 3 23 20 0 0 23 3 0 20 29 20
split_gain=0.0013215 0.0182185 0.0170266 0.0206079 0.0989368 0.0982428 0.624303 0.137587 0.108524 0.30454 0.198952 0.32511 0.192808 0.101882
threshold=-0.0070907799999999988 5.9383900000000006e-05 -1.5067699999999997 -10.069899999999999 -10.053299999999998 4.3779750000000011 3.8760700000000008 4.3549000000000015 -13.311149999999998 -13.528999999999998 -4.2055399999999992 -4.5274549999999989 -0.0021993149999999994 -3.0532049999999997
decision_type=2 2 2 2 2 2 2 2 2 2 2 2 2 2
left_child=1 -1 -3 4 5 7 -7 8 -4 -10 13 -12 -13 -11
right_child=-2 2 3 -5 -6 6 -8 -9 9 10 11 12 -14 -15
leaf_value=7.679401695290815e-05 2.4281771358665296e-05 0.00011285291582117143 -0.0001587150681021316 -0.00049911400245061224 -0.00104660223265991 -0.0026292643021080505 0.01489146366207437 -0.0032636742319011253 -0.0029671821502988485 0.0051364915658875061 -0.0011929688695818186 0.008315227382990998 0.023214319799291463 -0.0061485620254340271
leaf_weight=6843 11178 1317 206 2022 431 53 33 83 47 24 14.999999999999998 15.999999999999998 19 11.999999999999998
leaf_count=6843 11178 1317 206 2022 431 53 33 83 47 24 15 16 19 12
internal_value=0 -2.44062e-05 -0.000186284 -0.000319335 6.77935e-05 0.00101328 0.00409381 0.000385489 0.00127894 0.00350569 0.00704319 0.0111244 0.0164033 0.00137481
internal_weight=0 11121 4278 2961 939 508 86 422 339 133 86 50 35 36
internal_count=22299 11121 4278 2961 939 508 86 422 339 133 86 50 35 36
shrinkage=0.1


Tree=929
num_leaves=15
num_cat=0
split_feature=23 14 5 5 7 36 31 36 19 5 19 5 28 14
split_gain=0.00141777 0.00983047 0.0118583 0.0225663 0.0176686 0.0192479 0.0178512 0.0161978 0.0160658 0.015398 0.0144265 0.0259371 0.0198644 0.018895
threshold=-6.3575349999999995 0.0091276500000000028 1.9054550000000005e-05 1.9404950000000001e-05 4.3158050000000006e-05 -0.00015982599999999998 -1.6404799999999999 0.010614400000000001 0.00022854250000000002 2.2511200000000002e-05 1.5736100000000003e-05 1.7532700000000006e-05 0.008232515000000001 9.3791550000000008e-05
decision_type=2 2 2 2 2 2 2 2 2 2 2 2 2 2
left_child=-1 2 8 -4 5 -5 -6 9 10 -7 11 13 -12 -2
right_child=1 -3 3 4 6 7 -8 -9 -10 -11 12 -13 -14 -15
leaf_value=-6.4863416434791068e-06 -0.0011499687770224164 -0.00040537551252116215 -0.0044695904184967128 0.0048488299927807281 -0.0033870497996556677 0.0011750167934224008 -0.00014886156531229873 0.0038245781185105446 0.0012035149064912631 -0.0039627398364245892 -0.0001338036099894896 0.0036932421557139606 -0.0032346187720540911 0.00071248593088438445
leaf_weight=20915 71 303 11.999999999999998 13.999999999999998 18 14.000000000000002 314 9.9999999999999982 216 9.9999999999999982 119 24 25 234
leaf_count=20915 71 303 12 14 18 14 314 10 216 10 119 24 25 234
internal_value=0 9.80215e-05 0.000239122 -0.00019998 -6.51505e-05 0.00172817 -0.000324426 0.000443195 0.000488945 -0.000965715 0.000162629 0.000527999 -0.00067214 0.000278931
internal_weight=0 1384 1081 392 380 48 332 34 689 24 473 329 144 305
internal_count=22299 1384 1081 392 380 48 332 34 689 24 473 329 144 305
shrinkage=0.1


Tree=930
num_leaves=15
num_cat=0
split_feature=17 17 37 21 37 27 37 24 4 32 33 33 36 38
split_gain=0.00135226 0.0132093 0.0170831 0.0671036 0.0200848 0.0217608 0.0206596 0.0195602 0.0186405 0.0155967 0.0211997 0.0196429 0.0239082 0.0109096
threshold=1.4314850000000003e-08 2.2501100000000003e-08 -4.2306749999999996e-08 -7.4359149999999987 -2.5319899999999996e-08 0.24414900000000003 1.27486e-08 -0.44849849999999997 -0.13666199999999998 0.074912750000000014 1.2899450000000002e-05 -6.3874299999999987e-06 -0.00049117499999999994 -2.4758299999999996e-05
decision_type=2 2 2 2 2 2 2 2 2 2 2 2 2 2
left_child=13 2 3 -2 -4 8 -7 -5 -6 11 -11 -9 -13 -1
right_child=1 -3 4 7 5 6 -8 9 -10 10 -12 12 -14 -15
leaf_value=9.6753834245244974e-05 0.0083949572621629786 3.2008719889591295e-06 -0.0035860754416457245 -0.003432067905087024 0.0061068083252757794 -0.0038073295564390723 0.00019500571466462294 -0.0031866924022324384 0.0011214341770391912 0.0063825425517279643 0.00014826869126409293 0.0057076029945164961 0.00034221099708609432 -0.00017078552178550623
leaf_weight=2979 12.999999999999998 15922 13.999999999999998 9.9999999999999982 9.9999999999999982 14.999999999999998 92 11.999999999999998 30 12.000000000000002 9.9999999999999982 9.9999999999999911 49.000000000000007 3121
leaf_count=2979 13 15922 14 10 10 15 92 12 30 12 10 10 49 3121
internal_value=0 1.51115e-05 0.000699739 0.00162492 3.31468e-05 0.000377835 -0.000366069 0.000770452 0.00236778 0.00122234 0.00354878 0.000501466 0.0012516 -4.01298e-05
internal_weight=0 16199 277 116 161 147 107 103 40 93 22 71 59 6100
internal_count=22299 16199 277 116 161 147 107 103 40 93 22 71 59 6100
shrinkage=0.1


Tree=931
num_leaves=15
num_cat=0
split_feature=7 21 21 21 12 1 21 25 24 36 21 16 27 5
split_gain=0.00137212 0.0119495 0.0592164 0.0203811 0.0222453 0.0336369 0.0198146 0.0163987 0.017347 0.0135531 0.020152 0.034114 0.0195549 0.0259998
threshold=2.5051500000000006e-05 -7.2915849999999987 -6.8668499999999986 -7.6390449999999985 -6.8710349999999982e-05 -6.5349399999999997 -7.8012199999999989 4.2328550000000016 -0.10456799999999998 -0.0025755649999999997 -4.0689749999999991 -6.1995849999999993e-08 0.23188250000000002 1.3712350000000003e-05
decision_type=2 2 2 2 2 2 2 2 2 2 2 2 2 2
left_child=1 3 -3 4 5 -1 -6 8 -7 10 11 -4 -11 -14
right_child=-2 2 9 -5 6 7 -8 -9 -10 12 -12 -13 13 -15
leaf_value=-0.0071077474223619156 6.415389582901089e-06 0.0055694318235557727 0.0074983815472065025 -0.0051765383686870337 -0.00020754395713925419 -0.0048063320440373258 0.0040340189744407931 0.0026076398510485889 -0.00062389562149559529 0.00042389923345091614 0.00028252835361533524 0.0003513653748942649 -0.00078409118965536888 0.0011889495482472214
leaf_weight=10.999999999999998 20901 19 11.000000000000002 9.9999999999999982 134 13.999999999999998 11.999999999999998 9.9999999999999982 34 312 187 17 551 76
leaf_count=11 20901 19 11 10 134 14 12 10 34 312 187 17 551 76
internal_value=0 -9.59142e-05 3.21312e-05 -0.000763458 -0.000558198 -0.00203782 0.000141078 -0.00107629 -0.00184377 -5.90375e-05 0.000657154 0.00315912 -0.000223022 -0.000544935
internal_weight=0 1398 1173 225 215 69 146 58 48 1154 215 28 939 627
internal_count=22299 1398 1173 225 215 69 146 58 48 1154 215 28 939 627
shrinkage=0.1


Tree=932
num_leaves=15
num_cat=0
split_feature=8 21 10 22 23 1 12 21 37 10 24 14 4 22
split_gain=0.00135838 0.0144446 0.020014 0.0579976 0.0690549 0.140795 0.167311 0.107908 0.053781 0.199439 0.0485788 0.0841075 0.124546 0.0618619
threshold=-1.2539149999999998e-05 5.356510000000001 2.2132050000000004e-05 2.0469900000000005 -8.3926599999999976 7.9479750000000005 0.00027929250000000006 6.6547350000000014 -5.0366599999999989e-08 1.6785700000000001e-05 -0.077734099999999987 0.00039250700000000006 -0.014310149999999999 1.7911050000000002
decision_type=2 2 2 2 2 2 2 2 2 2 2 2 2 2
left_child=1 -1 3 4 5 6 7 -3 -7 -10 11 12 -6 -12
right_child=-2 2 -4 -5 10 8 -8 -9 9 -11 13 -13 -14 -15
leaf_value=-0.00014718406506365387 1.3696160868489698e-05 0.021316841542720788 3.4785400225307492e-05 -0.002400182298945517 0.012670886960501469 -0.0024765507896518102 -0.0015104810437399218 0.0077158905831830847 0.015306768869049848 -0.0015021084885423384 -0.00020788163202442299 -0.0011425131422583945 -0.00021556971129029989 -0.007883564468162756
leaf_weight=3795 17049 10.000000000000002 1156 44 15.000000000000002 28 10.999999999999998 13.999999999999998 9.9999999999999982 24 84 32 14.999999999999998 11.999999999999998
leaf_count=3795 17049 10 1156 44 15 28 11 14 10 24 84 32 15 12
internal_value=0 -4.44773e-05 0.000223407 0.000952661 0.00153119 0.00363144 0.00870216 0.013383 0.00076893 0.00344168 0.000241801 0.0024237 0.00622766 -0.00116734
internal_weight=0 5250 1455 299 255 97 35 24 62 34 158 62 30 96
internal_count=22299 5250 1455 299 255 97 35 24 62 34 158 62 30 96
shrinkage=0.1


Tree=933
num_leaves=15
num_cat=0
split_feature=5 24 5 38 15 1 31 38 24 4 12 35 30 35
split_gain=0.00139054 0.0172967 0.0246314 0.0166961 0.0210125 0.0171853 0.0167235 0.0161239 0.0170843 0.0401302 0.0239149 0.01919 0.0512299 0.043221
threshold=7.9965000000000021e-06 0.58136650000000012 7.7376450000000017e-06 -0.0087810649999999994 6.8693250000000012e-08 5.274020000000001 -0.013321249999999998 -0.0056299999999999987 0.18066700000000005 0.092429650000000016 -5.5391499999999993e-05 0.0019543150000000003 0.00059385450000000006 0.0014610850000000002
decision_type=2 2 2 2 2 2 2 2 2 2 2 2 2 2
left_child=1 3 -3 4 -1 7 -7 -5 11 10 -10 13 -13 -9
right_child=-2 2 -4 5 -6 6 -8 8 9 -11 -12 12 -14 -15
leaf_value=0.00083951384742529363 -4.9528586991699375e-06 -0.00037082940706926765 -0.0056614125603421904 -0.0034088727717365452 0.00623342354898341 -0.0044139812089269972 0.00052448785318119921 0.00019384427215628474 -0.0037702310954707422 0.0058108468048481479 0.0013299000844459183 -0.0076187694638396022 -0.00036126034281637877 0.0058231568733130455
leaf_weight=26 21455 33 11.999999999999998 11.999999999999998 9.9999999999999982 16.000000000000004 11.999999999999998 529 10.999999999999998 18 56 10.999999999999998 84 13.999999999999998
leaf_count=26 21455 33 12 12 10 16 12 529 11 18 56 11 84 14
internal_value=0 0.000125905 -0.00178165 0.000233339 0.00233782 0.000134045 -0.00229749 0.000226675 0.000287016 0.00161879 0.000492565 0.000109585 -0.0012016 0.000338983
internal_weight=0 844 45 799 36 763 28 735 723 85 67 638 95 543
internal_count=22299 844 45 799 36 763 28 735 723 85 67 638 95 543
shrinkage=0.1


Tree=934
num_leaves=15
num_cat=0
split_feature=22 2 0 28 5 9 7 13 21 37 3 11 6 2
split_gain=0.00143664 0.0140467 0.00544816 0.0080619 0.00645767 0.00288022 0.00438352 0.00402986 0.00331382 0.00293143 0.00250482 0.00248807 0.00230882 0.00178314
threshold=3.0357900000000004 2.9665000000000004 -4.8738149999999996 0.00074288900000000016 1.310255e-05 2.5889650000000004e-05 3.5476350000000008e-05 -1.0726199999999997e-05 1.0000000180025095e-35 -3.9514549999999996e-08 -5.8561999999999985 -5.3843699999999992e-06 1.0610450000000001e-06 -2.4807499999999996
decision_type=2 2 2 2 2 2 2 2 2 2 2 2 2 2
left_child=13 2 3 4 -2 7 -7 8 -4 12 -6 -11 -9 -1
right_child=1 -3 5 -5 10 6 -8 9 -10 11 -12 -13 -14 -15
leaf_value=8.0659859758342781e-05 -0.0039367910870350895 0.003899822933599353 0.0026205787075014087 0.00021512660738759828 -0.0018081647415573781 -0.0020843085786327719 0.00014636156203679904 0.0011317674583868054 0.00061547525179134134 -0.0012562750866088798 0.00029697381076402955 0.00029952666182697825 -0.00017860787353895017 -1.273393094032651e-05
leaf_weight=2281 9.9999999999999982 9.9999999999999982 15.999999999999998 48 12.999999999999998 9.9999999999999982 74 46 17 17 10.000000000000002 26 19 19702
leaf_count=2281 10 10 16 48 13 10 74 46 17 17 10 26 19 19702
internal_value=0 0.000211705 9.11782e-05 -0.000612077 -0.00181528 0.00034435 -0.000119194 0.000620504 0.00158765 0.000324989 -0.000892887 -0.000315558 0.000748735 -3.0432e-06
internal_weight=0 316 306 81 33 225 84 141 33 108 23 43 65 21983
internal_count=22299 316 306 81 33 225 84 141 33 108 23 43 65 21983
shrinkage=0.1


Tree=935
num_leaves=15
num_cat=0
split_feature=21 1 8 24 5 27 10 19 21 1 16 16 29 15
split_gain=0.0014056 0.0096879 0.0319389 0.0212946 0.0200129 0.0404047 0.0220799 0.0218531 0.0191596 0.0779399 0.0670574 0.115259 0.0865266 0.0707882
threshold=4.8010350000000006 4.7957150000000004 -6.1969599999999999e-06 -1.7384499999999996 1.0068150000000001e-05 0.16089650000000003 4.1709150000000007e-05 1.3423450000000003e-09 8.0967850000000023 8.0541100000000014 -7.3593999999999994e-06 7.7628350000000006e-07 -0.010273749999999998 -1.0625149999999999e-07
decision_type=2 2 2 2 2 2 2 2 2 2 2 2 2 2
left_child=-1 2 3 -2 5 -5 -6 -8 9 10 -3 12 13 -12
right_child=1 8 -4 4 6 -7 7 -9 -10 -11 11 -13 -14 -15
leaf_value=1.5634581782810427e-05 0.0031196125329838002 -0.00080167080458303755 -3.1437600100642943e-06 -0.0075521199265494946 7.4400810839858085e-05 -0.0013864761669850928 -0.0057578089041635397 -0.0010075539220893318 -0.00017247202151598426 -0.0006060426141574521 0.0038787210915380947 -0.00060954213038090022 0.0032824666479136797 -0.0054287432883442805
leaf_weight=16068 13.999999999999998 137 3465 11.999999999999998 269 93 9.9999999999999982 307 1015 425 12.999999999999998 149 300 22
leaf_count=16068 14 137 3465 12 269 93 10 307 1015 425 13 149 300 22
internal_value=0 -4.03172e-05 -0.000127978 -0.000741527 -0.000819755 -0.00209112 -0.000591951 -0.0011574 0.000137047 0.000437392 0.0011515 0.00170436 0.00273353 -0.00197169
internal_weight=0 6231 4170 705 691 105 586 317 2061 1046 621 484 335 35
internal_count=22299 6231 4170 705 691 105 586 317 2061 1046 621 484 335 35
shrinkage=0.1


Tree=936
num_leaves=15
num_cat=0
split_feature=1 34 34 21 1 16 4 24 19 26 16 18 26 15
split_gain=0.00163446 0.0101358 0.0227339 0.0226617 0.0536951 0.0490832 0.0238569 0.0736661 0.0994531 0.0590701 0.037963 0.0448179 0.0674523 0.0242759
threshold=9.108175000000001 0.0040714250000000009 0.0039049450000000004 9.626260000000002 9.6934550000000019 4.3493050000000007e-08 0.060260900000000006 0.10082500000000001 8.1708200000000029e-06 5.8828550000000004e-05 -1.3909199999999998e-08 -1.8944399999999998e-05 8.2404350000000003e-05 -5.9177849999999994e-08
decision_type=2 2 2 2 2 2 2 2 2 2 2 2 2 2
left_child=-1 2 -2 -3 5 -5 9 13 -9 -6 11 -11 -13 -8
right_child=1 3 -4 4 6 -7 7 8 -10 10 -12 12 -14 -15
leaf_value=-8.9774364608421002e-06 -0.00032931753317038911 3.7174970145494145e-05 -0.0048208451400569181 0.0097172878861713843 -0.0027399332585951522 0.0013221459059665601 0.0013566114037530498 0.010010909184960552 2.5802706312831669e-05 -0.0017257603909820324 -0.0031700501870363957 0.012467771759256712 0.0015435473955921434 -0.003930086198900091
leaf_weight=20090 185 1812 11.999999999999998 13.000000000000002 54 14.999999999999998 15.999999999999998 19 21 9.9999999999999947 9.9999999999999982 10.000000000000005 12.999999999999998 19
leaf_count=20090 185 1812 12 13 54 15 16 19 21 10 10 10 13 19
internal_value=0 8.16463e-05 -0.000602913 0.000148673 0.00115885 0.00521989 0.000497748 0.00183711 0.00476873 -0.000537842 0.00222758 0.00386322 0.00629321 -0.00151331
internal_weight=0 2209 197 2012 200 28 172 75 40 97 43 33 23 35
internal_count=22299 2209 197 2012 200 28 172 75 40 97 43 33 23 35
shrinkage=0.1


Tree=937
num_leaves=15
num_cat=0
split_feature=19 13 27 23 34 37 21 12 33 22 9 21 19 35
split_gain=0.00145954 0.0111402 0.0352489 0.0304293 0.0326987 0.0135603 0.0116992 0.024907 0.0288474 0.020258 0.0513692 0.0140329 0.00907152 0.0236224
threshold=2.1853450000000002e-06 6.3414900000000022e-05 0.14291400000000001 -15.099999999999998 0.19237200000000002 -6.1571699999999982e-07 -4.993244999999999 -8.085454999999998e-05 -3.4528699999999996e-06 -1.9087849999999997 1.7320450000000005e-05 -3.1439699999999995 8.1708200000000029e-06 0.03949165000000001
decision_type=2 2 2 2 2 2 2 2 2 2 2 2 2 2
left_child=1 -1 -3 4 -4 -6 7 8 -5 10 -8 -11 13 -2
right_child=12 2 3 6 5 -7 9 -9 -10 11 -12 -13 -14 -15
leaf_value=-6.8101881904097686e-05 0.00047924427503180146 0.005282329452068856 -0.0071997493319213395 -0.0060853451311301716 0.0021973215953700917 -0.002214537165740407 0.0093069802504032826 0.001233322322340904 0.00017240346710690682 -0.0028558735828846694 -0.00039749559946358206 0.0010235289198834031 -1.4369008161682993e-06 -0.0016651934690096162
leaf_weight=6252 778 14.999999999999998 9.9999999999999982 13.000000000000002 11.000000000000002 19 10.000000000000002 42 17 9.9999999999999982 11.999999999999998 138 14917 55
leaf_count=6252 778 15 10 13 11 19 10 42 17 10 12 138 14917 55
internal_value=0 -3.96751e-05 0.000558723 0.000307468 -0.00224758 -0.000596856 0.000729789 -0.000338598 -0.00253929 0.00118228 0.00401363 0.000761407 1.64973e-05 0.000337655
internal_weight=0 6549 297 282 40 30 242 72 30 170 22 148 15750 833
internal_count=22299 6549 297 282 40 30 242 72 30 170 22 148 15750 833
shrinkage=0.1


Tree=938
num_leaves=15
num_cat=0
split_feature=1 22 5 1 29 24 9 13 28 39 29 30 13 36
split_gain=0.00136991 0.00948985 0.0116718 0.00912825 0.0257798 0.0217749 0.0342917 0.0164704 0.0365745 0.0201077 0.0291267 0.0192475 0.043562 0.0319607
threshold=5.4745200000000009 -2.3894049999999996 1.2401900000000002e-05 5.9803950000000006 0.0079249750000000025 -0.31039149999999993 -2.5887399999999995e-05 5.2343750000000002e-05 0.025762750000000004 5.0093700000000005e-05 -0.0021429549999999998 0.00054660100000000007 1.4468100000000001e-05 0.0023682150000000003
decision_type=2 2 2 2 2 2 2 2 2 2 2 2 2 2
left_child=-1 2 -2 4 7 -6 -7 9 -9 11 -11 13 -13 -3
right_child=1 3 -4 -5 5 6 -8 8 -10 10 -12 12 -14 -15
leaf_value=1.4668270646884223e-05 0.0010823730179397803 -0.00069653043841042201 8.5994169329784762e-05 -3.7517673971813729e-05 -0.00065048170106654819 0.0066421977924899416 0.00095971877125176149 -0.00036483978883905001 0.0050165980122983461 -0.0017059614284305775 -0.0071475347927348184 0.005328394618118181 -0.0021727781463414431 -0.0062142132104120477
leaf_weight=16515 152 230 519 4468 55 12.999999999999998 58 129 13.999999999999998 93 10.999999999999998 16.000000000000004 14.999999999999998 10.999999999999998
leaf_count=16515 152 230 519 4468 55 13 58 129 14 93 11 16 15 11
internal_value=0 -4.18822e-05 0.000311701 -8.82844e-05 -0.000439952 0.000843141 0.00200017 -0.000751455 0.000162014 -0.00109886 -0.00228151 -0.000646675 0.00169879 -0.000948375
internal_weight=0 5784 671 5113 645 126 71 519 143 376 104 272 31 241
internal_count=22299 5784 671 5113 645 126 71 519 143 376 104 272 31 241
shrinkage=0.1


Tree=939
num_leaves=15
num_cat=0
split_feature=1 34 36 30 32 30 3 12 26 29 21 5 21 3
split_gain=0.00134482 0.0138637 0.0275287 0.0216615 0.0301498 0.0142309 0.0482683 0.0568752 0.0363203 0.0317597 0.0220381 0.0213573 0.0287905 0.0173933
threshold=8.7127450000000017 0.0040714250000000009 0.00028524350000000003 0.00015188150000000001 -0.039843999999999991 0.00028763550000000007 -7.8859149999999998 0.00012058300000000002 0.00010505900000000003 -0.003906419999999999 3.4044900000000005 1.05375e-05 4.8668050000000012 -7.4784399999999991
decision_type=2 2 2 2 2 2 2 2 2 2 2 2 2 2
left_child=-1 2 -2 4 -3 6 7 9 11 -5 -10 12 -8 -13
right_child=1 3 -4 5 -6 -7 8 -9 10 -11 -12 13 -14 -15
leaf_value=-8.8263868261699455e-06 -0.00044340791699090849 0.0054427394527010627 -0.0058113731880439449 -0.0031244320752607147 0.00069712582767262547 0.00016505473292369622 0.00016371987793328504 0.00090921813001235336 -0.0015758419769419428 -0.010563436949936051 -0.0068859209248330446 0.0029780271689599869 -0.0068616059422492983 0.00013709714263813755
leaf_weight=19748 214 13.999999999999998 9.9999999999999982 11 306 1542 14.000000000000002 14.999999999999998 27 12 10.999999999999998 23 9.9999999999999982 342
leaf_count=19748 214 14 10 11 306 1542 14 15 27 12 11 23 10 342
internal_value=0 6.83275e-05 -0.000683049 0.000140656 0.000904746 1.88279e-05 -0.000466079 -0.00388136 -0.000162143 -0.00700565 -0.00311297 0.000126113 -0.0027635 0.000316115
internal_weight=0 2551 224 2327 320 2007 465 38 427 23 38 389 24 365
internal_count=22299 2551 224 2327 320 2007 465 38 427 23 38 389 24 365
shrinkage=0.1


Tree=940
num_leaves=15
num_cat=0
split_feature=23 14 3 1 13 26 9 3 33 15 35 18 33 16
split_gain=0.00138878 0.0088504 0.0268997 0.0134334 0.011153 0.017325 0.0175371 0.0210809 0.0328563 0.0161068 0.0232462 0.0194142 0.0229786 0.0275023
threshold=-6.3575349999999995 0.00082317850000000021 -7.7590199999999987 -7.9871449999999991 1.3903400000000001e-05 -4.9513499999999993e-05 2.5420850000000006e-05 -5.4868049999999995 1.4131300000000003e-06 1.2136050000000001e-07 -0.00055251249999999986 -4.1671799999999993e-08 1.4131300000000003e-06 -2.0501599999999996e-07
decision_type=2 2 2 2 2 2 2 2 2 2 2 2 2 2
left_child=-1 2 3 -2 9 -6 -7 8 -8 11 -11 12 -4 -14
right_child=1 -3 4 -5 5 6 7 -9 -10 10 -12 -13 13 -15
leaf_value=-6.4196665176454875e-06 0.004545979062095285 -0.00015623113204095554 -0.00023696344361908022 0.0010997657221505598 0.0020508457237156108 0.00099078372937961017 -0.0080661914823576784 0.00093771375104552141 -0.00030496668380995597 -0.0057854446757119151 -0.00088431485346518457 -0.00096907959929667421 -0.0013419251920034488 0.0036623440580669702
leaf_weight=20915 11.999999999999998 691 94 197 56 53 10.000000000000002 15.999999999999998 11.999999999999998 11.999999999999998 50 125 14.999999999999998 41
leaf_count=20915 12 691 94 197 56 53 10 16 12 12 50 125 15 41
internal_value=0 9.7014e-05 0.000349528 0.00129763 -5.98813e-05 0.000666944 -0.000184687 -0.00182416 -0.0038328 -0.000376924 -0.00183292 -4.86629e-05 0.000718351 0.00232191
internal_weight=0 1384 693 209 484 147 91 38 22 337 62 275 150 56
internal_count=22299 1384 693 209 484 147 91 38 22 337 62 275 150 56
shrinkage=0.1


Tree=941
num_leaves=15
num_cat=0
split_feature=21 2 10 37 3 2 22 25 10 20 38 19 8 7
split_gain=0.00140946 0.0131127 0.0241801 0.0238428 0.0263497 0.0218993 0.0783479 0.0494706 0.0206192 0.0740617 0.0204169 0.0425765 0.0289579 0.0685726
threshold=9.7161850000000012 1.2464250000000001 1.5362750000000001e-05 -2.3225699999999999e-08 -10.366749999999998 1.10728 1.4040700000000002 10.505650000000001 1.6392600000000003e-05 0.24328550000000002 -0.00012885249999999997 6.1722700000000013e-08 -2.6768049999999999e-05 6.4936450000000007e-05
decision_type=2 2 2 2 2 2 2 2 2 2 2 2 2 2
left_child=-1 5 3 4 -3 -2 7 -7 9 -4 12 -12 13 -10
right_child=1 2 8 -5 -6 6 -8 -9 10 -11 11 -13 -14 -15
leaf_value=-7.861156726222359e-06 0.00018288744393595257 -0.0013853642946510601 0.0083148459981506051 -0.00053670788927754557 -0.0063247836117322253 0.011908418387174602 -0.001548008639656473 0.0023849727702327074 0.010386128569953142 -0.0033376156049780546 -0.005282892608859887 -0.00028322069709316302 0.0001836909789656005 0.00015561625133207266
leaf_weight=20313 1292 27 12.000000000000002 89 18 10.000000000000002 24 11.999999999999998 10.000000000000002 9.9999999999999982 18 317 128 19
leaf_count=20313 1292 27 12 89 18 10 24 12 10 10 18 317 128 19
internal_value=0 8.04047e-05 -0.000288825 -0.00148521 -0.00336113 0.000259224 0.0024033 0.00671381 2.30728e-05 0.00301827 -0.000110859 -0.00055186 0.00083013 0.00368338
internal_weight=0 1986 648 134 45 1338 46 22 514 22 492 335 157 29
internal_count=22299 1986 648 134 45 1338 46 22 514 22 492 335 157 29
shrinkage=0.1


Tree=942
num_leaves=15
num_cat=0
split_feature=3 23 23 0 3 4 17 21 16 8 22 25 0 38
split_gain=0.0013914 0.015281 0.0201692 0.032383 0.0297262 0.0275715 0.0365968 0.0364623 0.0607423 0.0411851 0.0336305 0.0309742 0.0305105 0.0310498
threshold=-13.453149999999999 -10.272399999999999 -13.359599999999999 5.1681400000000011 -16.417249999999999 0.88706950000000007 5.7427200000000006e-08 3.4044900000000005 -3.1018899999999996e-06 6.9398900000000006e-07 2.0469900000000005 1.7947250000000003 4.5268550000000003 0.00093527850000000017
decision_type=2 2 2 2 2 2 2 2 2 2 2 2 2 2
left_child=1 2 3 -1 -4 6 -6 8 11 10 -9 -8 13 -10
right_child=-2 -3 4 -5 5 -7 7 9 12 -11 -12 -13 -14 -15
leaf_value=4.4062907638672573e-05 -1.1040133374558349e-05 0.00024218018106935237 0.00036756246574097193 0.0042139793108952675 -0.00041193447500969974 0.00013219792564931205 2.3567267734589141e-05 -0.0044255911993483698 -0.0036190619942609152 -0.0012091666181253172 -0.011259991923967998 0.0067357492470182488 -0.0076422961351151272 0.00060002595687714915
leaf_weight=940 18655 2000 222 19 151 140 22 18.000000000000004 53 19 11.999999999999998 9.9999999999999982 11.999999999999998 26
leaf_count=940 18655 2000 222 19 151 140 22 18 53 19 12 10 12 26
internal_value=0 5.65186e-05 -0.000169347 0.000126679 -0.000583783 -0.00103994 -0.00154798 -0.00254533 -0.00162635 -0.00485214 -0.00715935 0.00212112 -0.00294414 -0.0022305
internal_weight=0 3644 1644 959 685 463 323 172 123 49 30 32 91 79
internal_count=22299 3644 1644 959 685 463 323 172 123 49 30 32 91 79
shrinkage=0.1


Tree=943
num_leaves=15
num_cat=0
split_feature=4 24 4 16 27 22 21 18 37 12 22 22 1 20
split_gain=0.001375 0.0161302 0.0233403 0.0178058 0.0651581 0.0289902 0.0291756 0.0744448 0.0381925 0.0162868 0.224565 0.119078 0.189795 0.121117
threshold=-0.0070907799999999988 -0.14072249999999997 -1.4166899999999998 -8.0984749999999987e-06 16.503300000000003 2.6062000000000007 -3.8714799999999996 -2.4415699999999997e-05 1.4416700000000003e-06 0.00010773150000000001 0.81532150000000014 2.1780800000000005 4.7165450000000009 1.3234150000000002
decision_type=2 2 2 2 2 2 2 2 2 2 2 2 2 2
left_child=1 2 -1 4 5 6 -4 8 -8 -5 -11 12 -12 -14
right_child=-2 -3 3 9 -6 -7 7 -9 -10 10 11 -13 13 -15
leaf_value=0.00016019926944996877 2.4768424823969274e-05 6.5508189369495749e-05 -0.00039865656491691387 -0.00037610005641081144 0.0060602632689882412 0.0032913669385015963 -0.0031475524825509641 -0.01070624115721633 0.0032169734381816608 -0.0018932121498819246 -7.7702070321438135e-05 -0.0010699931601266144 0.014532421565511162 0.0039425456689463718
leaf_weight=1314 11178 7113 52 2264 10.999999999999998 9.9999999999999982 66 11.999999999999998 10.999999999999998 162 29 32 27 18
leaf_count=1314 11178 7113 52 2264 11 10 66 12 11 162 29 32 27 18
internal_value=0 -2.48954e-05 -0.000185335 -0.000353869 -0.00137025 -0.00191154 -0.00228054 -0.00338007 -0.00223833 -0.00028884 0.000448312 0.00402687 0.00623092 0.0102965
internal_weight=0 11121 4008 2694 162 151 141 89 77 2532 268 106 74 45
internal_count=22299 11121 4008 2694 162 151 141 89 77 2532 268 106 74 45
shrinkage=0.1


Tree=944
num_leaves=15
num_cat=0
split_feature=37 13 11 20 20 13 0 33 12 33 22 6 20 23
split_gain=0.00138281 0.0116905 0.020094 0.0294186 0.0676966 0.184095 0.0374977 0.021736 0.0192714 0.10184 0.0190408 0.029563 0.0392859 0.0535873
threshold=-5.9992199999999983e-08 -3.6409849999999995e-05 -4.3402849999999994e-05 6.6577300000000008 5.8804000000000007 -4.2074949999999996e-05 4.4750650000000016 8.0085450000000008e-05 0.00012686700000000004 8.2640800000000014e-06 1.1696050000000002 8.4659900000000015e-07 -3.4286299999999996 -12.0832
decision_type=2 2 2 2 2 2 2 2 2 2 2 2 2 2
left_child=1 2 7 4 8 -6 -5 10 -4 -10 -1 -12 13 -13
right_child=-2 -3 3 6 5 -7 -8 -9 9 -11 11 12 -14 -15
leaf_value=0.00017588836327333759 -2.0187407698347689e-05 -5.0180840883541133e-06 0.00054233936348362219 0.00079080104743215179 -0.0028972773358691474 0.016290979208424688 -0.0055716268805554138 0.0034349086158908903 -0.00019464537118827659 0.01156167034059763 0.00023623203705938069 0.0036854170994567014 -0.0064215227101654324 -0.0046691413188134044
leaf_weight=168 13456 8064 399 22 10.000000000000002 9.9999999999999982 15.999999999999998 14.999999999999998 28 9.9999999999999982 48 14.000000000000002 22 17
leaf_count=168 13456 8064 399 22 10 10 16 15 28 10 48 14 22 17
internal_value=0 3.07183e-05 0.000400652 0.000785351 0.00100765 0.00669685 -0.00188812 -0.000269863 0.000747277 0.00289912 -0.000476449 -0.00156152 -0.00318968 -0.000896115
internal_weight=0 8843 779 495 457 20 38 284 437 38 269 101 53 31
internal_count=22299 8843 779 495 457 20 38 284 437 38 269 101 53 31
shrinkage=0.1


Tree=945
num_leaves=15
num_cat=0
split_feature=21 1 3 23 14 3 23 23 3 14 12 3 3 19
split_gain=0.00151622 0.00843056 0.0220126 0.203862 0.208021 0.165736 0.0606027 0.0378348 0.41055 0.205381 0.078072 0.0751671 0.0526954 0.048344
threshold=4.8010350000000006 5.8224000000000009 -9.6708399999999983 -9.9247749999999986 0.0022637200000000003 -10.645549999999998 -9.6992549999999991 -8.9145449999999986 -8.6694649999999971 0.00065207900000000018 8.2872750000000014e-05 -8.8422849999999986 -7.3077349999999992 0.00033409700000000005
decision_type=2 2 2 2 2 2 2 2 2 2 2 2 2 2
left_child=-1 -2 3 4 5 -3 -4 8 9 10 -8 13 -10 -9
right_child=1 2 6 -5 -6 -7 7 11 12 -11 -12 -13 -14 -15
leaf_value=1.6238138748182187e-05 -0.00011130857712224432 0.019952757343915953 -0.0010534542555027517 -0.00079991270304727649 0.00051865937985536275 0.0048241862685730061 0.011508181765675541 -0.0054491625839177323 -0.0056507980681847897 0.0028060609707608822 0.024003942906856538 0.00044764152035830953 -0.00016778805812534231 -0.00014129855007922744
leaf_weight=16068 4594 14.000000000000002 390 161 33 14.999999999999998 10.000000000000002 37 24 17 9.9999999999999982 829 65 32
leaf_count=16068 4594 14 390 161 33 15 10 37 24 17 10 829 65 32
internal_value=0 -4.18736e-05 0.000152985 0.00107637 0.00594866 0.0121276 7.35926e-06 0.00041138 0.00203412 0.0108871 0.0177561 0.000183691 -0.00164635 -0.00298754
internal_weight=0 6231 1637 223 62 29 1414 1024 126 37 20 898 89 69
internal_count=22299 6231 1637 223 62 29 1414 1024 126 37 20 898 89 69
shrinkage=0.1


Tree=946
num_leaves=15
num_cat=0
split_feature=3 27 26 4 34 5 23 21 12 21 21 35 3 37
split_gain=0.00150373 0.00809195 0.00666439 0.0154255 0.0137129 0.0419414 0.0108168 0.010707 0.0216222 0.00841236 0.00821837 0.0184055 0.0127 0.00890749
threshold=-6.3643949999999991 32.355600000000003 -9.7800649999999983e-05 -0.042141649999999996 0.012167550000000001 1.5732750000000003e-05 -6.376644999999999 -14.205299999999998 -2.4291899999999997e-05 14.24385 -9.3347499999999979 0.0022464450000000006 -6.283129999999999 1.7309350000000004e-06
decision_type=2 2 2 2 2 2 2 2 2 2 2 2 2 2
left_child=-1 2 3 10 5 -5 -6 8 -4 -9 11 13 -12 -2
right_child=1 -3 7 4 6 -7 -8 9 -10 -11 12 -13 -14 -15
leaf_value=-1.4505412686261857e-05 0.0016542491710020439 -0.00075183199892748121 0.0049691366374855312 -0.0078592832456342888 -0.00042716551206958191 -0.00023873904540848277 0.0018291346720864321 0.00010871172466798928 -0.0012159020162289379 0.0030128120980225503 0.0021396446654475053 -0.0047967345290817328 0.00023669166985760409 -0.0013158402132356297
leaf_weight=16996 18 124 13.000000000000002 9.9999999999999982 621 26 22 3923 9.9999999999999982 9.9999999999999982 38 9.9999999999999982 455 23
leaf_count=16996 18 124 13 10 621 26 22 3923 10 10 38 10 455 23
internal_value=0 4.64895e-05 6.56036e-05 -0.000138416 -0.000456302 -0.00235556 -0.000349967 0.000128676 0.00227999 0.000116096 0.000258357 -0.000950102 0.00038337 -1.18985e-05
internal_weight=0 5303 5179 1223 679 36 643 3956 23 3933 544 51 493 41
internal_count=22299 5303 5179 1223 679 36 643 3956 23 3933 544 51 493 41
shrinkage=0.1


Tree=947
num_leaves=15
num_cat=0
split_feature=1 21 32 1 19 23 14 3 26 3 23 17 4 37
split_gain=0.00145215 0.0111004 0.030583 0.0300045 0.0294862 0.0231771 0.0438194 0.0909444 0.0356113 0.0296841 0.0399337 0.0328667 0.0317742 0.0290943
threshold=5.4745200000000009 5.356510000000001 0.017528150000000003 9.108175000000001 0.0013473250000000001 -7.9426749999999986 0.00015105200000000002 -6.401514999999999 0.00013080850000000003 -6.401514999999999 -14.884599999999999 -4.8189249999999996e-08 0.7894500000000001 5.561765000000001e-08
decision_type=2 2 2 2 2 2 2 2 2 2 2 2 2 2
left_child=-1 2 3 4 5 9 7 -7 13 10 -2 -12 -13 -8
right_child=1 -3 -4 -5 -6 6 8 -9 -10 -11 11 12 -14 -15
leaf_value=1.5102143695540878e-05 7.3841033751561658e-05 0.00017690495154468506 0.00011882984266364172 8.2549899054204821e-05 8.0609835616198835e-05 -0.0092585403099656096 0.0007214805253772166 -0.00040067266849755292 -0.0030611531940572291 -0.0001112063989385969 -0.0005689310400867016 -0.0031517341551314591 6.6895083291456105e-05 0.0055042345135007057
leaf_weight=16515 95 1642 2250 718 320 14.999999999999998 139 51 23 143 91 248 35 13.999999999999998
leaf_count=16515 95 1642 2250 718 320 15 139 51 23 143 91 248 35 14
internal_value=0 -4.3121e-05 -0.000130345 -0.000426669 -0.000738099 -0.00104487 -0.000216421 -0.00241382 0.000607605 -0.00137247 -0.00175703 -0.00222209 -0.00275367 0.00115912
internal_weight=0 5784 4142 1892 1174 854 242 66 176 612 469 374 283 153
internal_count=22299 5784 4142 1892 1174 854 242 66 176 612 469 374 283 153
shrinkage=0.1


Tree=948
num_leaves=15
num_cat=0
split_feature=5 36 16 4 17 35 39 33 34 18 7 26 25 2
split_gain=0.00155575 0.0115891 0.0390263 0.0383664 0.0265115 0.0241064 0.0233975 0.0217557 0.0283438 0.0369451 0.021371 0.019357 0.0192782 0.0257997
threshold=1.0873100000000001e-05 -0.0003659104999999999 1.9856700000000003e-07 -0.067014849999999973 -5.0799899999999992e-07 -0.0063475349999999988 7.264180000000001e-06 -1.2092149999999998e-06 0.075295400000000026 -3.3277749999999997e-06 2.7354700000000004e-05 -6.5606349999999979e-05 0.20999350000000003 0.59456300000000006
decision_type=2 2 2 2 2 2 2 2 2 2 2 2 2 2
left_child=1 2 -1 4 -4 -6 -7 -5 10 -10 -9 -8 13 -3
right_child=-2 12 3 7 5 6 11 8 9 -11 -12 -13 -14 -15
leaf_value=0.00017555813867466336 -1.3316287184655357e-05 0.00016432115159213887 -0.00034727986143562621 0.00094980431093078129 -0.00056786983301169546 -0.000759665707802673 -0.0022880272875466434 -0.0070256018545478589 0.005908984753768891 -0.00067242435054203249 -0.0017666507854729016 -0.0052339700449482301 0.00032593249988784712 -0.00099631541977153676
leaf_weight=1036 17780 553 88 121 47 29 38 9.9999999999999982 9.9999999999999982 58 34 54 2148 293
leaf_count=1036 17780 553 88 121 47 29 38 10 10 58 34 54 2148 293
internal_value=0 5.23929e-05 -0.000171993 -0.000908317 -0.00175336 -0.00248988 -0.00323644 2.01434e-05 -0.000984222 0.00029543 -0.00296187 -0.00401717 0.000166684 -0.000237649
internal_weight=0 4519 1525 489 256 168 121 233 112 68 44 92 2994 846
internal_count=22299 4519 1525 489 256 168 121 233 112 68 44 92 2994 846
shrinkage=0.1


Tree=949
num_leaves=15
num_cat=0
split_feature=21 8 7 1 34 23 20 0 28 32 28 4 4 27
split_gain=0.00139986 0.00755404 0.0190538 0.0317405 0.0325594 0.062587 0.0480845 0.0293938 0.0258864 0.0250517 0.0417011 0.0216129 0.0214408 0.0263329
threshold=4.8010350000000006 -1.2539149999999998e-05 4.832860000000001e-05 9.6934550000000019 0.26707350000000007 -7.9426749999999986 7.8672150000000007 2.1953500000000004 0.011819450000000002 -2.2667999999999995 0.081293750000000012 0.053110600000000008 0.16206850000000003 0.16803300000000002
decision_type=2 2 2 2 2 2 2 2 2 2 2 2 2 2
left_child=1 2 3 4 5 6 8 -8 12 -6 -11 -10 13 -1
right_child=-2 -3 -4 -5 9 -7 7 -9 11 10 -12 -13 -14 -15
leaf_value=0.00037744901677466594 -4.0234731052443619e-05 5.2782346706960041e-05 8.2200320378608455e-05 0.00014197509073080248 -0.0029606296924785491 0.00014828282865693741 -0.0026404865688699135 -0.0086122223059646782 -0.0020245957071892912 0.00030762573014778485 0.0066553017669569023 -0.0083193214703351261 -0.00014233935814725275 -0.0023130316236607282
leaf_weight=44 6231 12417 2130 658 21 243 17 15.999999999999998 12.000000000000002 175 10.999999999999998 9.9999999999999982 104 210
leaf_count=44 6231 12417 2130 658 21 243 17 16 12 175 11 10 104 210
internal_value=0 1.56026e-05 -0.000110845 -0.000381185 -0.000780072 -0.00112511 -0.00187434 -0.00553587 -0.00155637 0.00031338 0.000683026 -0.00488583 -0.00135177 -0.00184696
internal_weight=0 16068 3651 1521 863 656 413 33 380 207 186 22 358 254
internal_count=22299 16068 3651 1521 863 656 413 33 380 207 186 22 358 254
shrinkage=0.1


Tree=950
num_leaves=15
num_cat=0
split_feature=21 1 21 7 36 3 12 23 11 12 12 3 21 19
split_gain=0.00161588 0.0152232 0.0430319 0.0438141 0.0747315 0.0405301 0.0644279 0.0631557 0.0429403 0.022386 0.0334384 0.128133 0.0355477 0.0396887
threshold=-2.8135399999999997 -8.5536199999999987 -9.3347499999999979 2.5826300000000004e-05 0.00031732200000000004 -6.3047499999999994 -7.1836849999999986e-05 -9.9859899999999993 7.7900200000000014e-06 -4.0428499999999987e-05 -5.4578299999999992e-05 -5.9294499999999992 -11.907999999999999 9.8201550000000019e-07
decision_type=2 2 2 2 2 2 2 2 2 2 2 2 2 2
left_child=1 2 3 4 -1 6 -4 -8 -9 10 12 -12 13 -5
right_child=-2 -3 5 9 -6 -7 7 8 -10 -11 11 -13 -14 -15
leaf_value=0.01038353396579623 2.1009179390105392e-05 1.9084472353425497e-05 -0.00048107151891881896 -0.005792542725491027 0.00030342312836039223 -0.00018294261153504153 -0.0012122838801373933 -0.0044728331663206498 -0.011617221962660552 -0.0017733978954489115 0.0093131389615959247 -0.001581439486704767 0.0010957598251964858 -0.00031649959809146826
leaf_weight=12.000000000000002 13858 7282 203 18 19 516 68 53 9.9999999999999982 46 19 25 120 50
leaf_count=12 13858 7282 203 18 19 516 68 53 10 46 19 25 120 50
internal_value=0 -3.44918e-05 -0.000371112 0.000639499 0.0042054 -0.000738498 -0.00159678 -0.00332571 -0.00560686 0.000241863 0.00064144 0.00312304 6.06406e-05 -0.00176604
internal_weight=0 8441 1159 309 31 850 334 131 63 278 232 44 188 68
internal_count=22299 8441 1159 309 31 850 334 131 63 278 232 44 188 68
shrinkage=0.1


Tree=951
num_leaves=15
num_cat=0
split_feature=26 4 5 13 5 9 36 13 7 26 5 14 3 21
split_gain=0.00140455 0.0176278 0.0227968 0.0176961 0.0171066 0.0273413 0.020009 0.0159417 0.0141406 0.0392573 0.0839551 0.0282574 0.0468292 0.0421038
threshold=6.6858450000000021e-05 0.025549650000000004 1.6489900000000003e-05 -7.5217049999999985e-05 1.9621700000000006e-05 5.3179400000000008e-05 0.00065950650000000009 3.0627750000000008e-05 3.6213150000000004e-05 6.8728900000000019e-05 1.1502600000000002e-05 0.00017223500000000005 -11.086249999999998 -8.1112199999999977
decision_type=2 2 2 2 2 2 2 2 2 2 2 2 2 2
left_child=-1 7 3 -3 5 -4 -7 8 9 10 -2 -11 -13 -14
right_child=1 2 4 -5 -6 6 -8 -9 -10 11 -12 12 13 -15
leaf_value=-1.851328242756327e-05 -0.0011748708539495341 -0.0034172141352125131 -0.00037005116911105143 0.00043410160291960958 0.00011095770541630995 -0.00094666057007594239 -0.0057306084768189228 0.00014939437692429534 -6.3315211773059619e-05 4.5996802995559651e-05 0.0095092077923861033 1.0153363896615383e-05 0.002256031525786966 -0.0019816962892965622
leaf_weight=14441 19.000000000000004 11.999999999999998 456 2060 1373 18 17 1435 1425 372 11.999999999999998 257 25 377
leaf_count=14441 19 12 456 2060 1373 18 17 1435 1425 372 12 257 25 377
internal_value=0 3.40227e-05 0.000183533 0.000411797 -7.02031e-05 -0.000576789 -0.00327029 -0.000116021 -0.000269166 -0.000545377 0.0029609 -0.000650804 -0.00104414 -0.00171816
internal_weight=0 7858 3936 2072 1864 491 35 3922 2487 1062 31 1031 659 402
internal_count=22299 7858 3936 2072 1864 491 35 3922 2487 1062 31 1031 659 402
shrinkage=0.1


Tree=952
num_leaves=15
num_cat=0
split_feature=12 19 23 3 10 33 24 28 34 3 12 19 28 25
split_gain=0.00152142 0.00254491 0.00406365 0.0125434 0.00479812 0.0138121 0.00564924 0.00293574 0.0027174 0.00257346 0.00252459 0.0113169 0.0443631 0.155188
threshold=-0.00071449049999999987 0.00012994800000000004 -18.605599999999995 -13.799749999999998 1.7846300000000002e-05 -3.9620049999999993e-05 1.3124250000000002 -0.0046461499999999991 0.011464800000000002 -5.9423249999999994 -0.00032293099999999999 0.00058040000000000012 -0.0089821649999999986 0.76680700000000013
decision_type=2 2 2 2 2 2 2 2 2 2 2 2 2 2
left_child=1 -1 3 -3 5 -4 8 -7 -6 -10 11 12 13 -2
right_child=10 2 4 -5 6 7 -8 -9 9 -11 -12 -13 -14 -15
leaf_value=-0.001289220178215247 0.012793090753257276 0.0037760583908741617 -0.0035144572487721842 -0.00015451222965155817 -0.00034986089853191517 -0.00089167489125630125 0.0023232172359712424 4.6442658382754116e-06 7.6183744153910854e-05 -0.00079126858850536849 -2.1703794801554222e-06 -2.6886133765636134e-06 -3.6059738519224726e-05 0.00038899593857220482
leaf_weight=18 12.999999999999998 10.999999999999998 14.999999999999998 31 250 59 9.9999999999999982 96 684 36 19908 954 169 45
leaf_count=18 13 11 15 31 250 59 10 96 684 36 19908 954 169 45
internal_value=0 -0.000109048 -9.12266e-05 0.000874923 -0.000126512 -0.00061694 -4.14378e-05 -0.000336535 -6.58157e-05 3.28111e-05 6.25672e-06 0.000148312 0.000782911 0.00316922
internal_weight=0 1210 1192 42 1150 170 980 155 970 720 21089 1181 227 58
internal_count=22299 1210 1192 42 1150 170 980 155 970 720 21089 1181 227 58
shrinkage=0.1


Tree=953
num_leaves=15
num_cat=0
split_feature=21 1 21 7 14 3 14 21 19 30 33 29 0 26
split_gain=0.00144341 0.012187 0.0346947 0.0353365 0.0799317 0.0324482 0.118627 0.0755985 0.0660849 0.0539559 0.0228574 0.0253433 0.0301437 0.0254239
threshold=-2.8135399999999997 -8.5536199999999987 -9.3347499999999979 2.5826300000000004e-05 0.00014721100000000004 -6.3047499999999994 0.00029752400000000002 -8.4573449999999983 1.3306300000000002e-06 0.0015579700000000003 2.0320650000000003e-05 -0.0028515399999999996 2.8747750000000001 -0.00011333499999999998
decision_type=2 2 2 2 2 2 2 2 2 2 2 2 2 2
left_child=1 2 3 4 -1 6 7 -4 -8 10 11 -9 13 -13
right_child=-2 -3 5 -5 -6 -7 8 9 -10 -11 -12 12 -14 -15
leaf_value=-0.00083201213205671477 1.9856336561754721e-05 1.5337519489945102e-05 -0.011228428858642777 0.00021655915507318841 0.0093715496627347818 -0.0001665790655993466 0.008095055501908064 -0.0084146041430843387 -0.00025336022303573907 0.00055792513268181326 0.00015998293899677018 -0.0094773252325301895 -0.00071529783751992954 -0.0040181049965260741
leaf_weight=17.000000000000004 13858 7282 11.999999999999998 278 13.999999999999998 516 9.9999999999999982 14.999999999999998 183 33 10.999999999999998 10.999999999999991 21 38.000000000000007
leaf_count=17 13858 7282 12 278 14 516 10 15 183 33 11 11 21 38
internal_value=0 -3.25991e-05 -0.000333785 0.00057366 0.00377605 -0.000663668 -0.00143163 -0.00363652 0.0001792 -0.00293029 -0.00412937 -0.00468446 -0.00388514 -0.00524364
internal_weight=0 8441 1159 309 31 850 334 141 193 129 96 85 70 49
internal_count=22299 8441 1159 309 31 850 334 141 193 129 96 85 70 49
shrinkage=0.1


Tree=954
num_leaves=15
num_cat=0
split_feature=11 20 9 35 19 13 35 20 0 20 3 10 7 3
split_gain=0.00137447 0.00851771 0.00504338 0.00374357 0.0038153 0.00279595 0.00331608 0.00279283 0.0119138 0.0226428 0.039138 0.0380887 0.0707441 0.0523277
threshold=0.00027292250000000005 -1.5340849999999999 3.0443100000000001e-06 -0.023074749999999998 0.0045127600000000011 -4.7213149999999994e-05 -0.00033305949999999992 4.3779750000000011 8.8772900000000021 9.4874600000000004 -5.9800399999999998 2.8995250000000003e-05 3.7417800000000006e-05 -7.9709549999999991
decision_type=2 2 2 2 2 2 2 2 2 2 2 2 2 2
left_child=7 2 -2 4 -3 6 -4 -1 -9 10 -10 -11 -13 -14
right_child=1 3 5 -5 -6 -7 -8 8 9 11 -12 12 13 -15
leaf_value=-1.7424617509557666e-05 -0.00057460213311405592 -0.0024881953090828447 -0.00017477828718256202 -0.0002391890066226562 -0.00062837761144272431 0.00022853405514641344 0.0021201540277723005 0.00011631697109728507 -0.0015379644894776157 -0.0030902505435473622 0.00016035088602203828 0.0056392559609203426 0.0073199513420695445 -7.0093538660803145e-05
leaf_weight=14476 79 13.999999999999998 10.000000000000002 797 52 565 17 5452 266 28 277 27 9.9999999999999982 229
leaf_count=14476 79 14 10 797 52 565 17 5452 266 28 277 27 10 229
internal_value=0 -9.13435e-05 0.000175891 -0.000299124 -0.00102288 0.000276042 0.00127018 6.74794e-06 6.23883e-05 -0.000288889 -0.000671605 0.000417963 0.000787248 0.000239113
internal_weight=0 1534 671 863 66 592 27 20765 6289 837 543 294 266 239
internal_count=22299 1534 671 863 66 592 27 20765 6289 837 543 294 266 239
shrinkage=0.1


Tree=955
num_leaves=15
num_cat=0
split_feature=3 23 13 33 6 16 16 3 10 23 13 33 23 3
split_gain=0.00148477 0.00998178 0.011648 0.0187672 0.0673079 0.0532805 0.0659864 0.0267349 0.0263311 0.0398382 0.0230835 0.0274772 0.041965 0.108822
threshold=-7.4146649999999985 -7.7439199999999992 7.1787900000000018e-05 2.1324600000000005e-06 5.5926150000000009e-07 -6.4402249999999988e-07 2.8113400000000003e-06 -7.6471949999999991 2.0309300000000002e-05 -7.1033849999999985 -6.5923999999999991e-07 -1.2724099999999997e-07 -7.5004549999999997 -7.7346249999999985
decision_type=2 2 2 2 2 2 2 2 2 2 2 2 2 2
left_child=1 -1 3 10 7 -6 8 -5 -7 -10 -3 12 13 -12
right_child=-2 2 -4 4 5 6 -8 -9 9 -11 11 -13 -14 -15
leaf_value=-7.2295564466106165e-05 3.3540663393226353e-05 0.0007778281855364336 -0.00013210870787467465 0.0007191208636295166 0.00035755519386736158 -0.0020288978457184774 -5.9577405561632924e-05 -0.0035804936122925332 -0.0092765629095466519 -0.0037973666399590332 0.00010723181954761185 0.00092480740065409371 -0.00054545262222671501 0.0076533650078446334
leaf_weight=10107 8291 868 1274 403 97 35 62 14.999999999999998 19 44 113 287 661 23
leaf_count=10107 8291 868 1274 403 97 35 62 15 19 44 113 287 661 23
internal_value=0 -1.98519e-05 0.000116023 0.000236358 -0.000218167 -0.00149168 -0.00261278 0.000564828 -0.00422806 -0.00544982 0.000393532 8.58119e-05 -0.000216311 0.00138342
internal_weight=0 14008 3901 2627 675 257 160 418 98 63 1952 1084 797 136
internal_count=22299 14008 3901 2627 675 257 160 418 98 63 1952 1084 797 136
shrinkage=0.1


Tree=956
num_leaves=15
num_cat=0
split_feature=21 5 5 28 14 11 37 37 1 8 19 20 33 13
split_gain=0.00139297 0.00740616 0.0133714 0.0447414 0.0527402 0.0105952 0.00981525 0.00771962 0.00702642 0.0221092 0.0223394 0.0695216 0.0237626 0.0342824
threshold=4.8010350000000006 7.4520550000000004e-06 7.8320150000000016e-06 0.0051941500000000007 0.00078556150000000011 1.2699150000000002e-05 -1.4670549999999998e-07 1.6421650000000004e-08 4.4728450000000004 -6.1969599999999999e-06 3.1037600000000004e-06 3.0485500000000005 -2.8321649999999994e-06 5.7080250000000006e-05
decision_type=2 2 2 2 2 2 2 2 2 2 2 2 2 2
left_child=-1 6 3 4 -3 7 -2 -5 9 10 11 -4 13 -13
right_child=1 2 8 5 -6 -7 -8 -9 -10 -11 -12 12 -14 -15
leaf_value=1.5564166486227703e-05 0.0033813588267478812 -0.010069613526998594 6.9581409860845834e-05 -7.0801209658384324e-05 -0.0002772066636349667 -0.0021910975088498424 0.00043094729525311026 0.0027987394249066712 0.00010929164023358229 -1.5139925187664851e-05 -0.0003363473533338327 -0.0077029585790504441 -0.0015319118953285445 -0.0011143643324348059
leaf_weight=16068 12.999999999999998 11.000000000000002 84 25 10.999999999999998 13.999999999999998 85 14.999999999999998 2122 3327 466 28 19 10.999999999999998
leaf_count=16068 13 11 84 25 11 14 85 15 2122 3327 466 28 19 11
internal_value=0 -4.01356e-05 -5.3917e-05 -0.0013721 -0.00517341 0.000176587 0.000822328 0.00100528 -3.73772e-05 -0.00011647 -0.000670954 -0.00176903 -0.00443185 -0.00584464
internal_weight=0 6231 6133 76 22 54 98 40 6057 3935 608 142 58 39
internal_count=22299 6231 6133 76 22 54 98 40 6057 3935 608 142 58 39
shrinkage=0.1


Tree=957
num_leaves=15
num_cat=0
split_feature=9 20 3 3 14 32 17 21 20 26 2 11 20 15
split_gain=0.00146541 0.0142807 0.0216253 0.0292608 0.0227395 0.0260106 0.015252 0.014175 0.0131109 0.0121724 0.0234728 0.0142522 0.0119296 0.0537927
threshold=3.6719800000000007e-05 11.655300000000002 -6.8616649999999995 -6.3047499999999994 0.00017761400000000004 -0.63858799999999982 4.3333200000000003e-07 -1.4157349999999997 13.111050000000001 0.046007150000000004 -0.21207949999999998 6.7207350000000006e-05 9.2292700000000014 4.2854450000000007e-07
decision_type=2 2 2 2 2 2 2 2 2 2 2 2 2 2
left_child=-1 9 4 -4 -3 -6 8 -8 -5 12 -11 -12 -2 -14
right_child=1 2 3 6 5 -7 7 -9 -10 10 11 -13 13 -15
leaf_value=-1.217851374633972e-05 2.823004262177571e-05 -0.0051193799645475602 0.0052577589469199838 -0.0047944101123985903 -0.0052039407695142125 -0.00032769576777143917 0.0039877499157393503 -0.0005687159305024479 -0.0001809518222996433 0.0060533552384003982 0.002650808973174372 -0.0025653996423352513 0.0018295232943926079 -0.001031028028558433
leaf_weight=18193 3635 17 10.999999999999998 11.000000000000002 12.999999999999998 69 11.000000000000002 18 13.999999999999998 10.000000000000002 11.000000000000002 9.9999999999999982 168 108
leaf_count=18193 3635 17 11 11 13 69 11 18 14 10 11 10 168 108
internal_value=0 5.3961e-05 -0.000860365 0.000556798 -0.00179083 -0.00110076 -0.000400805 0.0011596 -0.00221087 9.19999e-05 0.00206576 0.0001669 7.63552e-05 0.000710177
internal_weight=0 4106 164 65 99 82 54 29 25 3942 31 21 3911 276
internal_count=22299 4106 164 65 99 82 54 29 25 3942 31 21 3911 276
shrinkage=0.1


Tree=958
num_leaves=15
num_cat=0
split_feature=21 1 21 3 14 12 24 12 15 7 3 14 21 32
split_gain=0.00132049 0.0100333 0.0277678 0.0307757 0.0768965 0.0739006 0.088223 0.127622 0.0706865 0.0281612 0.032654 0.0401314 0.0660301 0.0634998
threshold=-2.8135399999999997 -8.5536199999999987 -9.3347499999999979 -6.283129999999999 0.00029046550000000007 -4.0428499999999987e-05 0.10929950000000001 -5.5391499999999993e-05 3.4847250000000008e-08 3.434760000000001e-05 -6.3047499999999994 0.00029752400000000002 -7.1854299999999993 0.039453100000000012
decision_type=2 2 2 2 2 2 2 2 2 2 2 2 2 2
left_child=1 2 3 4 5 6 7 8 -1 10 11 12 13 -4
right_child=-2 -3 9 -5 -6 -7 -8 -9 -10 -11 -12 -13 -14 -15
leaf_value=-0.0061055745714559007 1.8992002873154697e-05 1.2315117150973318e-05 -0.0014000062153420661 -0.00045571152985530717 -0.00045684666586436962 -0.0029621745649516624 0.012538064859940537 0.010928281383322816 0.0045377170899882913 -0.0001864538186572306 -0.00052483998634818621 0.0012694685624280414 -0.0017883884367510098 -0.010947151771305424
leaf_weight=12.999999999999998 13858 7282 11.000000000000002 160 84 11.999999999999998 13.999999999999998 14.000000000000002 11.999999999999998 561 172 21 66 19
leaf_count=13 13858 7282 11 160 84 12 14 14 12 561 172 21 66 19
internal_value=0 -3.11801e-05 -0.000304461 0.000507359 0.00154153 0.00412404 0.00572847 0.003284 -0.000996795 -0.000599581 -0.00140153 -0.00269035 -0.00355656 -0.00744653
internal_weight=0 8441 1159 309 149 65 53 39 25 850 289 117 96 30
internal_count=22299 8441 1159 309 149 65 53 39 25 850 289 117 96 30
shrinkage=0.1


Tree=959
num_leaves=15
num_cat=0
split_feature=1 28 30 21 3 12 23 23 36 3 7 21 19 23
split_gain=0.00151871 0.0188871 0.0215715 0.0248505 0.0393797 0.0841057 0.218096 0.247589 0.218633 0.285891 0.11242 0.0677467 0.0509033 0.0803517
threshold=-6.9879999999999987 -0.0042417949999999987 0.00011297000000000001 -6.9332599999999998 -6.9004699999999994 -6.7480499999999992e-05 -7.0597849999999989 -9.3329699999999978 0.0021016050000000007 -7.551264999999999 3.2374100000000012e-05 -10.345549999999998 0.00044270400000000004 -8.8812249999999988
decision_type=2 2 2 2 2 2 2 2 2 2 2 2 2 2
left_child=1 2 -1 4 5 10 7 -7 9 -9 11 -4 13 -12
right_child=-2 -3 3 -5 -6 6 -8 8 -10 -11 12 -13 -14 -15
leaf_value=-0.0036728346228806514 -1.3001415433908245e-05 0.00020249008880336833 -0.00022707644716969552 -0.00050834739826806602 -0.00044222334974267964 -0.0033218807628145443 -0.0061119715624954555 0.024797120224684485 -0.0012997776456177236 0.0048321994737936871 0.0086666650605184258 -0.0096207716830951327 -0.00017027060883684989 0.00096554954444789997
leaf_weight=18 17865 2900 14.000000000000002 938 310 15.999999999999998 15.999999999999998 15.999999999999995 9.9999999999999982 13.000000000000005 20 17 104 42
leaf_count=18 17865 2900 14 938 310 16 16 16 10 13 20 17 104 42
internal_value=0 5.23839e-05 -0.000231389 -0.000190528 0.000325242 0.00121298 0.00416385 0.00715318 0.0114506 0.0158473 0.000149472 -0.00537846 0.0011818 0.00344978
internal_weight=0 4434 1534 1516 578 268 71 55 39 29 197 31 166 62
internal_count=22299 4434 1534 1516 578 268 71 55 39 29 197 31 166 62
shrinkage=0.1


Tree=960
num_leaves=15
num_cat=0
split_feature=21 8 5 3 23 19 23 12 11 29 22 6 33 21
split_gain=0.0014296 0.0070874 0.0224213 0.0154018 0.0296857 0.021853 0.0298229 0.0309088 0.0308859 0.0319854 0.0270398 0.0249245 0.03882 0.0483158
threshold=4.8010350000000006 -1.2539149999999998e-05 1.9404950000000001e-05 -6.3047499999999994 -6.2352999999999996 0.00089616750000000008 -12.8988 0.00014373900000000001 6.7207350000000006e-05 -0.0017787699999999998 0.32001350000000006 -3.1192349999999996e-06 7.1091050000000012e-07 4.2108050000000015
decision_type=2 2 2 2 2 2 2 2 2 2 2 2 2 2
left_child=1 2 3 5 -5 6 7 -1 9 10 -9 12 13 -8
right_child=-2 -3 -4 4 -6 -7 11 8 -10 -11 -12 -13 -14 -15
leaf_value=0.00088600766707249757 -4.0659946424643826e-05 5.178057109836861e-05 9.836209796300284e-05 0.0002484450288793069 -0.0046046180399851163 8.6922987093924955e-05 -0.0047653875837568201 -0.0025356264833438515 0.0031340394634753466 -0.00040256504738784356 -0.0095764390565454965 -0.00085605318679456838 -0.00073414500652511558 0.0026525849103927615
leaf_weight=147 6231 12417 2167 414 12.999999999999998 315 72 12.000000000000002 9.9999999999999982 23 9.9999999999999982 381 77 9.9999999999999982
leaf_count=147 6231 12417 2167 414 13 315 72 12 10 23 10 381 77 10
internal_value=0 1.57675e-05 -0.000106712 -0.000406171 0.000100694 -0.000610931 -0.00090719 0.000129369 -0.00189292 -0.00301002 -0.005736 -0.00129494 -0.00234661 -0.00386076
internal_weight=0 16068 3651 1484 427 1057 742 202 55 45 22 540 159 82
internal_count=22299 16068 3651 1484 427 1057 742 202 55 45 22 540 159 82
shrinkage=0.1


Tree=961
num_leaves=15
num_cat=0
split_feature=5 24 26 23 7 2 37 14 24 19 21 21 1 36
split_gain=0.00143524 0.00425252 0.00817376 0.00872395 0.0117467 0.0219773 0.00984925 0.0156947 0.00766671 0.0167097 0.00627279 0.0107523 0.0361099 0.00763282
threshold=2.5815900000000001e-05 -0.15907199999999996 8.1371200000000005e-05 -6.0492799999999987 6.967515000000001e-05 1.7356250000000002 -2.7952399999999996e-08 0.00078556150000000011 -0.17614349999999998 1.6747050000000002e-07 7.8746950000000009 8.0967850000000023 7.7037250000000013 0.0010471600000000003
decision_type=2 2 2 2 2 2 2 2 2 2 2 2 2 2
left_child=-1 8 10 4 5 6 7 -4 -2 -10 -3 12 -12 -13
right_child=1 2 3 -5 -6 -7 -8 -9 9 -11 11 13 -14 -15
leaf_value=1.2933718432247934e-05 1.7530606041507397e-05 -0.0001289981361999656 -0.0040850565387364956 0.0017834731203038247 -0.00030908755315072855 -0.0052248939722388359 0.00013480010892660883 0.00053439427865669136 0.0039569405047222969 0.00041180543695291916 -0.00048944787963086528 -9.3984343480870957e-05 0.0070052777510136366 0.0009655666794939218
leaf_weight=17699 1404 2392 19.000000000000004 13.999999999999998 171 14.999999999999998 36 11.999999999999998 14.999999999999998 117 18.000000000000004 288 9.9999999999999982 89
leaf_count=17699 1404 2392 19 14 171 15 36 12 15 117 18 288 10 89
internal_value=0 -4.97639e-05 -0.00011784 -0.000646477 -0.00078094 -0.00176493 -0.000990307 -0.00229688 8.60341e-05 0.000814662 -6.73768e-05 0.00029657 0.00218724 0.000156148
internal_weight=0 4600 3064 267 253 82 67 31 1536 132 2797 405 28 377
internal_count=22299 4600 3064 267 253 82 67 31 1536 132 2797 405 28 377
shrinkage=0.1


Tree=962
num_leaves=15
num_cat=0
split_feature=14 23 3 3 23 3 17 26 3 23 23 16 25 28
split_gain=0.00136866 0.00897919 0.0338727 0.0505875 0.0970081 0.0559293 0.0444445 0.045359 0.027985 0.195269 0.104216 0.0240218 0.0368718 0.0237039
threshold=0.00022219550000000004 -7.0597849999999989 -8.1239699999999981 -7.0634999999999986 -6.467369999999999 -7.585564999999999 2.5537400000000005e-07 4.8268450000000004e-05 -6.8361399999999994 -6.8666249999999991 -6.9441449999999989 -2.1438899999999996e-08 0.68318150000000022 0.0024846200000000003
decision_type=2 2 2 2 2 2 2 2 2 2 2 2 2 2
left_child=1 -1 -3 4 5 -4 -7 -8 9 10 -5 13 -13 -11
right_child=-2 2 3 8 -6 6 7 -9 -10 11 -12 12 -14 -15
leaf_value=9.3783670403284461e-05 -1.6632507145445155e-05 0.0019208709702878777 -0.0011450251710521889 0.0036926347272176491 0.00072753154474708556 -0.0036891997285420073 -0.013100877432869027 -0.0041426074039191008 -0.00018948591304949734 -0.0025777770928107195 0.015923403211953967 -0.0012253292957725734 -0.0082645780449225152 0.0043075514747761192
leaf_weight=5544 15371 72 47 19.000000000000004 86 40 13.000000000000002 9.9999999999999982 1032 10.000000000000002 10.999999999999998 23 10.999999999999998 9.9999999999999982
leaf_count=5544 15371 72 47 19 86 40 13 10 1032 10 11 23 11 10
internal_value=0 3.69022e-05 -0.000190953 -0.000306845 -0.00178854 -0.00375565 -0.00570326 -0.00920598 -4.66193e-05 0.0017086 0.00817725 -0.0018851 -0.00350273 0.000864887
internal_weight=0 6928 1384 1312 196 110 63 23 1116 84 30 54 34 20
internal_count=22299 6928 1384 1312 196 110 63 23 1116 84 30 54 34 20
shrinkage=0.1


Tree=963
num_leaves=15
num_cat=0
split_feature=36 12 14 20 3 5 29 13 34 3 0 12 22 16
split_gain=0.00123592 0.0175885 0.0112211 0.0106597 0.0049183 0.00330901 0.00175827 0.00453359 0.00646104 0.0059452 0.0119867 0.0244157 0.0243586 0.00698125
threshold=-6.5773949999999992 0.00031525700000000005 0.0044422700000000008 -6.6325599999999989 -6.8774499999999987 1.3028200000000002e-05 -0.49118799999999996 -3.8532249999999993e-05 10.610000000000001 -7.1424999999999992 5.7773700000000003 -4.2291949999999997e-05 -0.24703349999999999 -9.1735999999999995e-07
decision_type=2 2 2 2 2 2 2 2 2 2 2 2 2 2
left_child=1 2 4 -4 5 -1 7 8 -2 10 13 -12 -13 -9
right_child=6 -3 3 -5 -6 -7 -8 9 -10 -11 11 12 -14 -15
leaf_value=0.00014328505270756208 -0.0024300523490334552 0.0043257585517130796 -0.00010119328430543342 -0.0041996251368387185 -0.00049991180474700581 0.0021556196829558096 2.1039186040575754e-06 -0.0010340168200976526 0.00015183667338634324 -0.00068253729298228686 0.0055314132167647283 -0.0028862647379615477 0.0026753514988942899 0.0003135718077658643
leaf_weight=12.999999999999998 21 9.9999999999999982 15.000000000000002 10.999999999999998 22 22 21843 60 18 113 11.999999999999998 13.999999999999998 18 107
leaf_count=13 21 10 15 11 22 22 21843 60 18 113 12 14 18 107
internal_value=0 0.000363786 -0.00011356 -0.00183515 0.000671724 0.00140818 -1.52356e-06 -0.000219802 -0.00123841 -9.71912e-05 0.000216288 0.00168467 0.000242144 -0.000170592
internal_weight=0 93 83 26 57 35 22206 363 39 324 211 44 32 167
internal_count=22299 93 83 26 57 35 22206 363 39 324 211 44 32 167
shrinkage=0.1


Tree=964
num_leaves=15
num_cat=0
split_feature=21 8 5 22 2 37 18 26 21 2 24 4 29 3
split_gain=0.00120359 0.00611671 0.0245728 0.0312287 0.156187 0.124236 0.105496 0.0915929 0.079726 0.0566797 0.0593304 0.0847906 0.0490612 0.0723167
threshold=4.8010350000000006 -1.2086849999999999e-05 1.9404950000000001e-05 1.0017900000000002 1.0409300000000001 -5.7639349999999997e-08 1.1857300000000001e-07 -0.00018139299999999999 7.2199450000000009 1.0101150000000001 0.28741100000000008 0.066474200000000011 -0.00027055849999999996 -6.5485099999999994
decision_type=2 2 2 2 2 2 2 2 2 2 2 2 2 2
left_child=-1 2 3 4 5 -2 8 -8 -7 12 -11 -12 13 -5
right_child=1 -3 -4 9 -6 6 7 -9 -10 10 11 -13 -14 -15
leaf_value=1.4467509723785469e-05 0.014030890173411796 -9.7431978735425926e-05 -0.00021668981919342091 -0.0084702926560897718 -0.00023268109007403839 -0.0075064475013112463 0.00084457223099889214 0.013375193692211594 0.0037019829244430489 0.00039601431675700982 4.783722016817101e-05 0.011977040971925652 -3.7547345864092654e-05 -0.00074661546861063007
leaf_weight=16068 13.999999999999998 4554 931 22 144 11.000000000000002 10.000000000000002 13.999999999999998 14.999999999999998 399 13.000000000000002 10.999999999999998 66 27
leaf_count=16068 14 4554 931 22 144 11 10 14 15 399 13 11 66 27
internal_value=0 -3.73076e-05 0.000125964 0.000553592 0.00159415 0.00570453 0.00337315 0.0081541 -0.00104005 0.000151293 0.000686475 0.00551539 -0.00181725 -0.00421439
internal_weight=0 6231 1677 746 208 64 50 24 26 538 423 24 115 49
internal_count=22299 6231 1677 746 208 64 50 24 26 538 423 24 115 49
shrinkage=0.1


end of trees

feature_importances:
feature_4=1185
feature_24=917
feature_15=647
feature_5=590
feature_21=521
feature_20=506
feature_34=498
feature_22=473
feature_23=444
feature_14=423
feature_1=409
feature_2=379
feature_8=372
feature_35=359
feature_6=343
feature_17=318
feature_3=308
feature_11=284
feature_25=265
feature_13=259
feature_38=259
feature_27=258
feature_19=250
feature_12=239
feature_16=233
feature_37=230
feature_26=228
feature_7=219
feature_18=212
feature_36=211
feature_10=207
feature_30=199
feature_29=196
feature_33=183
feature_39=183
feature_32=171
feature_9=168
feature_31=168
feature_40=109
feature_28=87

parameters:
[boosting: gbdt]
[objective: regression]
[metric: l2]
[tree_learner: serial]
[device_type: cpu]
[data: ]
[valid: ]
[num_iterations: 10000]
[learning_rate: 0.1]
[num_leaves: 15]
[num_threads: 24]
[force_col_wise: 0]
[force_row_wise: 0]
[histogram_pool_size: -1]
[max_depth: -1]
[min_data_in_leaf: 10]
[min_sum_hessian_in_leaf: 0.001]
[bagging_fraction: 0.9]
[pos_bagging_fraction: 1]
[neg_bagging_fraction: 1]
[bagging_freq: 0]
[bagging_seed: 17945]
[feature_fraction: 0.9]
[feature_fraction_bynode: 1]
[feature_fraction_seed: 386]
[extra_trees: 0]
[extra_seed: 27504]
[early_stopping_round: 50]
[first_metric_only: 0]
[max_delta_step: 0]
[lambda_l1: 0]
[lambda_l2: 0]
[min_gain_to_split: 0]
[drop_rate: 0.1]
[max_drop: 50]
[skip_drop: 0.5]
[xgboost_dart_mode: 0]
[uniform_drop: 0]
[drop_seed: 27159]
[top_rate: 0.2]
[other_rate: 0.1]
[min_data_per_group: 100]
[max_cat_threshold: 32]
[cat_l2: 10]
[cat_smooth: 10]
[max_cat_to_onehot: 4]
[top_k: 20]
[monotone_constraints: ]
[monotone_constraints_method: basic]
[monotone_penalty: 0]
[feature_contri: ]
[forcedsplits_filename: ]
[refit_decay_rate: 0.9]
[cegb_tradeoff: 1]
[cegb_penalty_split: 0]
[cegb_penalty_feature_lazy: ]
[cegb_penalty_feature_coupled: ]
[path_smooth: 0]
[interaction_constraints: ]
[verbosity: -1]
[saved_feature_importance_type: 0]
[max_bin: 255]
[max_bin_by_feature: ]
[min_data_in_bin: 3]
[bin_construct_sample_cnt: 200000]
[data_random_seed: 51]
[is_enable_sparse: 1]
[enable_bundle: 1]
[use_missing: 1]
[zero_as_missing: 0]
[feature_pre_filter: 1]
[pre_partition: 0]
[two_round: 0]
[header: 0]
[label_column: ]
[weight_column: ]
[group_column: ]
[ignore_column: ]
[categorical_feature: ]
[forcedbins_filename: ]
[objective_seed: 17345]
[num_class: 1]
[is_unbalance: 0]
[scale_pos_weight: 1]
[sigmoid: 1]
[boost_from_average: 1]
[reg_sqrt: 0]
[alpha: 0.9]
[fair_c: 1]
[poisson_max_delta_step: 0.7]
[tweedie_variance_power: 1.5]
[lambdarank_truncation_level: 20]
[lambdarank_norm: 1]
[label_gain: ]
[eval_at: ]
[multi_error_top_k: 1]
[auc_mu_weights: ]
[num_machines: 1]
[local_listen_port: 12400]
[time_out: 120]
[machine_list_filename: ]
[machines: ]
[gpu_platform_id: -1]
[gpu_device_id: -1]
[gpu_use_dp: 0]

end of parameters

pandas_categorical:[]
